!
"
##0
##1
##10
##11
##12
##13
##14
##15
##16
##17
##18
##19
##2
##20
##21
##22
##23
##24
##25
##26
##27
##28
##29
##3
##30
##31
##32
##33
##34
##35
##36
##37
##38
##39
##4
##40
##41
##42
##43
##44
##45
##46
##47
##48
##49
##5
##50
##51
##52
##53
##54
##55
##56
##57
##58
##59
##6
##60
##61
##62
##63
##64
##65
##66
##67
##68
##69
##7
##70
##71
##72
##73
##74
##75
##76
##77
##78
##79
##8
##80
##81
##82
##83
##84
##85
##86
##87
##88
##89
##9
##90
##91
##92
##93
##94
##95
##96
##97
##98
##99
$
%
&
'
(
)
*
+
,
-
.
/
0
00
000
01
02
03
04
05
06
07
08
09
1
10
100
1000
101
103
104
106
11
110
12
13
14
15
16
1645
1650
1660
17
1788
18
1821
1824
1825
1830
1850
1884
1889
19
1900
1901
1908
1911
1913
1914
1918
1922
1927
1929
1936
1939
1940
1941
1944
1945
1946
1948
1949
1950
1951
1952
1953
1954
1955
1958
1960
1961
1962
1963
1967
1970
1971
1973
1975
1976
1977
1978
1979
1980
1981
1982
1983
1984
1987
1988
1989
1990
1991
1992
1993
1994
1995
1996
1997
1998
1999
2
20
200
2000
2001
2002
2003
2004
2005
2006
2007
2008
2009
2010
2011
20110609194255
2012
2013
2014
2015
2016
2017
2018
2019
2020
2021
2022
21
22
23
24
25
250
26
27
28
29
3
30
300
31
32
320
33
34
349
35
350
354
357
36
365
37
376
38
381
39
4
40
400
41
42
43
44
45
46
47
48
49
5
50
500
51
52
53
5362
54
55
56
57
58
59
6
60
61
62
63
64
65
66
67
68
69
7
70
71
73
74
75
76
77
8
80
800
841
8601
88
9
90
978
9781573062992
98
99
:
;
<
=
>
?
@
[
]
_
`
a
aa
aafia
aafiaga
aai
aali
aalia
aaliga
aalu
aaoga
aaogaina
aau
aauau
aauina
ab
about
abx
act
action
actor
actress
ad
advance
ae
aemaise
afa
afafine
afai
afaina
afakanisitana
afanua
afarani
afe
afelika
aferika
afeso
afetai
affairs
afi
afia
afiafi
afio
afioaga
afioga
afitauli
afitusi
afouina
afraid
afu
afua
aga
agafesootai
agaga
agai
aganu
aganuu
agasala
agava
agavaa
age
agelo
agelu
aht
ai
aia
aialani
aiga
aigoa
aigoaina
aikupito
ailoa
ailoga
ain
aina
aires
aisa
aisakulimi
aitalafu
aitu
akr
akz
al
ala
alabama
alamanuia
alapi
alapotopotoga
alauiloa
alauiloaina
alautele
alauteleina
alavelave
albania
albert
alchemy
ale
aleagaga
alele
aleleia
aleluia
alesana
aletonu
alex
ali
alia
aliali
aliance
alii
alili
all
alo
aloa
aloaia
aloalii
aloalo
alofa
aloga
alogo
alousa
also
alu
alua
alualu
aluga
am
ama
amai
amalologa
amalosi
amalosia
amalu
amaoni
amaonia
amaoniga
amata
amataga
amataina
amatala
amatalaga
amatalaina
amau
amaualuga
amaumau
amaumauga
amautu
amea
amelika
amepasa
american
amerika
amilosaga
amio
amiotonu
amo
amoemoe
amosa
amu
amuia
an
ana
anamua
anapogi
and
andean
andes
andre
ane
ang
angeles
angola
aniani
anthem
anut
ao
aoai
aoaiga
aoao
aoaoga
aoaoina
aofa
aofai
aofaiga
aofia
aoga
aogaina
aokuso
aola
aolaola
aolataga
aopoopo
aotearoa
apa
ape
apea
apelila
aperaamo
aperetania
aperila
api
apia
apipi
apitoa
apoapoai
apoapoaiga
apolani
apolima
apolokiki
aposetolo
apotopotoga
applied
apu
ar
arab
arabia
arapi
arc
archive
archived
are
area
arise
arisona
armenia
as
asa
asad
asaga
asaienisi
asalaga
asalalau
asalalauga
asaleleaga
asamoa
asao
asau
asese
asi
asia
asiasi
asieki
asino
aso
asoa
asoasoani
asolo
asologa
asolopito
asolovak
assemblies
assembly
association
ast
asu
at
ata
ataga
atagaina
atagia
atalani
atali
atalii
atama
atamai
atamamai
atanu
atanuu
atapula
atasi
atasia
atasiga
atatau
atau
ataunu
atautaia
atauva
ate
atelani
atele
atenai
atenimaka
atenitina
atia
atiina
atika
atili
atina
atinae
atino
atinoina
ato
atoa
atoaga
atoatoa
atoms
atonu
atonuga
attitude
atu
atua
atuatua
atuina
atulafonoina
atulaga
atulagaina
atumauga
atumotu
atunu
atunuu
atupu
atusa
atusatusa
au
aua
auai
auala
auauna
auaunaga
auckland
aufaasa
aufaatasi
aufono
auga
augatupulaga
august
augustus
auiliiliga
auina
aukilani
aukuso
aumai
aumaia
aumatia
aunoa
aunu
aupito
auro
ausetalia
ausia
austin
australia
australian
autalavou
autasi
auto
autu
ava
avae
avaeina
avale
avanoa
avaomalo
avasegaina
avatu
avavau
ave
avea
aveesea
avega
averesi
aviv
away
ay
azerbaijan
b
ba
baath
bach
back
bagui
baltic
bashar
bc
be
before
belarus
bem
ben
benjamin
berdzenishvili
best
bidar
big
bilingual
bill
black
bm
bn
bo
bob
bobby
book
born
bosnia
boutiques
box
boy
br
bradshaw
brand
brasil
brazil
brazilian
bret
brisbane
bs
bu
buenos
bulgaria
bureau
burger
burgers
but
buy
by
c
ca
california
cambridge
can
canada
canberra
canoe
cape
capita
car
cardiovascular
caribbean
carl
carolina
castile
cattemplate
caucasus
ce
ceb
celebrity
celtic
cemetery
census
center
central
centre
chamorro
champion
championship
championships
cheap
check
cheina
chi
chicago
chief
chile
chr
chris
church
chyna
cite
city
clothes
cm
co
coast
cold
college
com
commons
company
conduct
cook
corporation
cossacks
council
countdown
country
cranial
craniosacral
croatia
cruzes
cst
cu
cup
cwc
d
da
daddy
dak
dan
darkness
das
data
date
david
de
deal
december
del
democratic
department
di
dictionary
diemen
disambiguation
district
dj
do
does
dog
dominica
don
dreamer
du
duke
dust
e
ea
east
ecw
ed
edison
education
ee
efaraima
efeso
efuefu
ega
egelani
ei
eina
eka
ekalesia
ekuatoa
ekueta
el
elau
ele
electronic
eleele
elefane
elemene
eleni
eletise
eli
elisapeta
elliott
em
emepaea
emeperoa
emo
ems
en
ena
encyclopedia
english
entertainment
epa
eperu
epikopo
era
eria
ernst
error
es
ese
esea
eseese
eseesega
eseta
esi
esitonia
esoto
esperanto
esu
etc
eteuati
eu
eurasia
euro
europa
europe
eurozone
evagelia
f
fa
faa
faaagafesootai
faaalia
faaaliga
faaaoga
faaaogaina
faaauau
faafaigaluega
faafanua
faafetai
faafiafiaga
faagaa
faagaoioia
faagasologa
faaigoa
faaigoaina
faailoa
faailoga
faailogaina
faaipoipo
faaipoipoga
faaitiitia
faaitulagi
faaitumalo
faaiuga
faaiuina
faalagolago
faalapotopotoga
faalauiloa
faalauiloaina
faalautele
faalauteleina
faalavelave
faale
faaleagaga
faaleaganuu
faalelotu
faalenatura
faaletino
faaletulafono
faaleuo
faaliliuina
faalua
faamaeaina
faamagaloina
faamai
faamalieina
faamalosi
faamalosia
faamalositino
faamanatuga
faamanatuina
faamanuiaina
faamaoni
faamaonia
faamasani
faamasino
faamasinoga
faamatalaga
faamatalaina
faamauina
faamaumauga
faamoemoe
faamoemoega
faaola
faaolaina
faaopoopo
faaopoopoina
faapea
faapena
faapipii
faapitoa
faapolokiki
faapotopotoga
faasaga
faasaienisi
faasalaga
faasalalauga
faasalalauina
faasao
faasiaosiana
faasino
faasinomaga
faasipaniolo
faasoa
faasologa
faasolopito
faasolosolo
faataamilo
faataamilosaga
faataapeina
faatafafa
faatafunaina
faatagaina
faataitaiga
faatalanoaga
faatanoa
faataoto
faatasi
faatasiga
faatatau
faatau
faatauina
faateleina
faatemokalasi
faatemokarasi
faatino
faatinoga
faatinoina
faatoa
faatoaga
faatoilaloina
faatonu
faatonuina
faatopetope
faatuatua
faatufugaga
faatuina
faatulagaga
faatulagaina
faatupulaia
faatusa
faatusatusaga
faaupufai
faaupuga
faautauta
faauu
faava
faavae
faavaeina
faavaomalo
faavasegaga
faavasegaina
faavavau
facebook
fafine
fafo
faga
fagaloa
fagu
fai
faia
faiaoga
faifaatoaga
faife
faifeau
faiga
faigaluega
faigamalo
faigata
faigofie
failauga
faipule
fair
faitau
faitauina
faitele
faitoto
faitotoa
faitulafono
faitupu
faiupu
faiva
fala
falani
falaoa
fale
faleaiga
falema
falemai
falemeli
faleoloa
falepuipui
falesa
faletua
faletupe
faletusi
family
fananau
fanau
fanauga
fanua
faoa
far
faraile
farani
farao
fashions
fasi
fasia
fasioti
fasiotia
fatu
fatuga
fatuina
fatupese
fau
faufau
fausaga
fausia
fausiaina
fautuaina
fe
fea
feagai
feagaiga
feagaluega
february
federation
feeseeseaiga
feet
fefa
fefaatauaiga
fefe
felagolagomai
felauaiga
femalagaaiga
femalagaiga
fepuari
feso
fesoasoani
fesootai
fesootaiga
fesuia
fesuiaiga
fetalai
fetalaia
fetaui
fete
feteenaiga
feterale
feterisitete
fetu
fia
fiafia
fifa
file
filemu
fili
filifili
filifilia
filifiliga
filiga
filipaina
filisitia
filo
filosofia
finagalo
finau
finauga
finelani
first
fish
fitafita
fiti
fitu
fiu
flag
florida
fo
foa
foafoaga
foafoaina
foe
fofo
foga
foi
folafola
folafolaga
folafolaina
folau
foliga
foma
fono
fonotaga
football
footnote
for
fou
fouvale
fouvalega
fox
fr
franchise
free
freedom
fro
from
front
fruit
fu
fua
fuafua
fuafuaga
fuafuaina
fuainumera
fuaitau
fuaiupu
fuala
fualaau
fuata
fuga
fulufulu
fur
fusi
fusu
fusuaga
futebol
futuna
fy
g
ga
gafua
gaga
gagana
gaia
gaioiga
galu
galue
galuega
galulue
games
ganassi
gaoi
gaoioiga
gaosi
gaosia
gaosiga
gasologa
gata
gataifale
gau
gd
gdp
ge
gel
general
george
georgia
georgian
gerais
gereisi
germanic
get
ghana
giant
glosa
glp
glyph
gn
go
god
gold
golden
gomez
good
got
gov
gra
grand
grc
grdp
great
greg
grey
gu
guam
guarani
guiana
guide
guinea
gutu
guyana
gwi
h
ha
haifa
hamanu
hamburger
hanikeri
hanover
hapoel
hardcore
hart
has
have
haw
hawai
hawaii
hbo
he
heavyweight
heberivi
help
henry
here
herzegovina
hi
high
his
history
ho
hogan
hoi
holani
holy
home
hosting
house
how
ht
htm
html
http
https
hu
hub
hulk
humanities
hy
hydrogen
i
ia
iai
iakopo
ianuari
iapani
id
ie
ierusalema
iesu
if
ifo
iga
igilisi
igitia
ign
ignored
igoa
ii
iii
iina
iinei
il
ilagi
ile
ili
ilia
ilo
iloa
iloga
iloilo
iloiloga
iloiloina
impact
in
ina
inc
index
indo
indonesia
information
inisinia
initaneti
initia
initonesia
initoneti
insert
instagram
institute
interlingua
interlingue
international
inu
invalid
ioane
ioka
iona
ioritana
iosefa
iosua
ipa
ipl
iprage
ipu
ir
iran
iraq
iron
is
isa
isaraelu
isbn
isi
islamic
island
islands
iso
isu
it
ita
itaga
italia
itasi
itea
iti
itiiti
ititi
itu
ituaiga
itula
itulagi
itulau
itumalo
iu
iuanuali
iuga
iukureini
iulai
iunai
iunaite
iuni
iunite
iunivesete
iunivesite
iurukuei
iuta
iutaia
iv
iva
ivi
ix
j
jack
james
jan
janeiro
january
java
je
jean
jess
ji
jim
jimmy
joa
john
johnson
jose
joseph
jpg
jr
judo
july
june
k
ka
kab
kaisara
kalama
kalapu
kalefonia
kalena
kaletonia
kamupani
kanana
kanata
kane
kapeteni
kapinamalagi
karate
karepiane
karolaina
kata
katoliko
ke
kelope
kemisi
kemupotia
kenepera
kenese
kennedy
kerenise
kerisiano
kerisimasi
keriso
kevin
kg
ki
kilibati
kilokalama
kilomita
king
kini
kirikiti
kiripati
kkz
km
ko
kofe
koko
kolea
kolisi
kolomupia
kolone
kolorato
komepiuta
komisi
komiti
komunisi
konetineta
konifeterasia
kopi
korinito
kosovo
kosta
kovana
koy
ku
kuata
kuiniselani
kumpani
kumpini
kuperu
kurekoria
kw
ky
kyle
l
la
laasaga
laau
lafo
lafoga
lafoina
lafulemu
laga
lagi
lago
lagolago
lagolagoina
lagona
laina
laiti
laitiiti
laititi
lak
lakapi
lala
lalata
lalau
lalo
lalolagi
lalotoga
lana
land
landi
lang
language
languages
lanka
lanu
laos
lapo
larson
lashley
last
lata
latalata
latina
lativia
latou
lau
laua
laueleele
laufanua
lauga
laugatasi
laugutu
lauiloa
laulau
laulaufaiva
laumua
laupapa
lautele
lauulu
lava
lavea
laveai
lavelave
law
lb
lds
le
lea
leaga
league
leai
lefea
legal
lei
leiloa
leitio
lele
lelei
lemu
lena
lenei
leo
leoleo
leona
lepanona
lepulika
lesi
let
leva
levi
lg
li
libya
life
liga
like
liki
liliu
lima
limasefulu
line
lingua
lisi
live
lkt
lllllllllllllllllllllllllllllllllllllllllllllllllllllllllllllllllllllllllllllllllllllllllllllllllllllllllllllllllllllllllllllllllllllllllllllllllllllllllllllllllllllllllllllllllllllllllllllllllllllllllllllllllllllllllllllllllllllllllllllllllllllllllllllllllllllllllllllllllllllllllllllllllllllllllllllllllllllllllllllllllllllllllllllllllllllllllllllllllllllllllllllllllllllllllllllllllllllllllllllllllllllllllllllllllllllllllllllllllllllllllllllllllllllllllllllllllllllllllllllllllllllllllllllllllllllllllllllllllllllllllllllllllllllllllllllllllllllllllllllllllllllllllllllllllllllllllllllllllllllllllllllllllllllllllllllllllllllllllllllllllllllllllllllllllllllllllllllllllllllllllllllllllllllllllllllllllllllllllllllllllllllllllllllllllllllll
ln
lo
loa
loka
lolomifefiloi
loloto
lomia
lomiga
lona
lonetona
long
loo
look
los
losi
loto
lotogatasi
lotoifale
lotu
lou
ltr
lu
lua
luasefulu
lufiana
luga
lui
luis
luka
lulu
luma
lumana
lumanai
lupe
lusia
luteru
lv
m
ma
mabel
maccabi
madrid
mae
maea
mafai
mafanafana
mafatia
mafaufau
mafua
mafuaaga
mafuli
mafutaga
mago
mai
maila
maile
maimoa
mainmenu
make
maketi
maketonia
mala
malae
malaga
malaia
malamalama
maldives
malie
maliega
malietoa
malilie
malina
maliu
malo
malolo
malologa
maloloina
malolosi
malosi
malosiaga
malu
malulu
malumalu
mama
mamafa
mamalu
mamanu
mamao
mamele
mamoe
mamona
man
mana
manager
manaia
manana
manao
manaomia
manatu
manatua
manava
manino
mankind
manono
manu
manuia
manulele
manumalo
many
maoae
maota
map
mar
mareko
maria
mariana
marino
mark
marshall
masani
masima
masimasi
masina
masini
masiofo
mata
mataaga
matafaga
matafaioi
matagaluega
matagi
matagofie
matai
mataio
matamata
matamau
matata
matauina
mataupu
match
mate
matele
matematika
mati
mativa
matou
matu
matua
matusisifo
matutu
matutua
mau
maua
mauaina
maualalo
maualuga
maualuluga
mauga
maulalo
mauoa
mausali
mautinoa
mautonu
mautu
mavae
may
mcmahon
me
mea
meaai
meaalofa
meai
meaola
meititerane
mekasini
mekisiko
melanisia
melepone
meli
melita
memphis
men
mene
mesia
mesopotamia
metotia
mexico
mg
mi
michael
michaels
michigan
micronisia
mideon
mikheil
miliona
military
militeli
militeri
miller
minas
minisita
ministry
minute
misiona
misionare
misisipi
mita
miti
ml
mm
mmxv
mo
moa
moana
mode
moega
mogi
moldova
molecules
moli
molimau
molossia
mondt
money
moni
montenegro
more
moretekai
mos
mosalemi
mose
motor
motu
motusia
movement
mr
msn
mu
mua
muai
muamua
muli
mulilua
mulimuli
mumu
mumua
music
musika
mutia
my
myanmar
n
na
nafa
nah
nai
naia
naifi
named
nameri
namipia
namu
nascar
natelashvili
natia
national
natura
naunau
nauru
nazi
nd
ne
neemia
nei
neivi
nelson
nepal
net
netalani
network
nevada
new
news
neymar
nfl
ng
nga
ni
nia
nifo
nineva
nio
nisi
niu
niue
nn
nnu
no
noatia
nobel
nofo
nofoa
nofoaga
nofoaiga
nofoalii
nofoia
nofomau
nofosala
non
nonofo
nonstop
norfolk
north
not
nou
nouei
noune
novema
november
nu
nuanua
number
numela
numera
numerari
nusipepa
nuu
nwa
nz
o
oa
october
oe
of
ofa
official
ofi
ofisa
ofo
ofu
ofutino
ofuvae
oga
ogatotonu
ohio
oi
oina
okesene
oketopa
ol
ola
olaga
ole
oli
olimipeka
olioli
olo
oloa
olosega
omai
omia
on
ona
onai
one
oneone
online
ono
onosefulu
ontario
oo
open
opo
or
org
ori
original
orthodox
os
ose
oseania
oseteria
osi
oso
osofa
osofaiga
osteopathy
ota
oti
oto
otometia
ou
our
out
outou
over
oxford
p
pa
paaga
pacific
paga
page
pago
pagopago
paia
paka
pakisitana
pala
palagi
palapala
palau
pale
palemene
palemia
paleni
palesitina
palota
panama
paneta
paopao
pap
papa
papalagi
papatiso
papatisoga
papatisoina
papelonia
papua
parakuei
parameter
parana
paranesi
paris
parity
parliamentary
party
pasefika
paselona
pasene
pasi
pasia
pasiketipolo
pasila
pass
pastor
pata
patagonia
pati
patino
patryk
pau
paul
paulista
paulo
pay
pdf
pe
pea
pedro
pei
peita
peitai
pele
peleseuma
pelisi
pen
penetekoso
penisula
people
pepa
pepe
pepelo
perelini
peresetene
peresia
peresitene
pereta
peretania
perisipeni
perisitua
perofeta
person
perth
peru
pese
peteru
php
pi
pili
piliona
pine
pipili
pisa
pisinisi
pito
piu
pl
plata
playstation
po
pogai
pola
polani
polenisia
polevia
polo
poloa
poloaiga
polofesa
pologa
poloka
polokalama
polokalame
poloketi
polokiki
polotalame
poloviki
pona
poo
popo
popole
population
populous
porotesano
post
poto
potu
potukale
povi
pp
press
prince
professional
program
provided
pu
pua
puapuaga
puerto
puipui
puipuia
puipuiga
pule
pulea
puleaga
puleaina
pulega
pulepule
pulu
puna
punaoa
punavai
pupuni
pusa
pusi
puupuu
q
qu
quality
r
ra
radio
rain
ramin
randy
rap
raw
raymond
rd
re
red
ref
refs
region
republic
republican
retrieved
revolution
ri
ria
rico
rika
ring
rio
ripapelika
river
rm
ro
robert
rock
roger
rogers
rom
roma
romania
rose
rotuma
royal
ru
rumble
ruo
rusia
ruta
rw
s
sa
saakashvili
safotulafai
saga
said
saienisi
saienitisi
saili
sailia
sailiga
saina
saini
sainia
saint
saito
sakaria
sala
salalau
salamo
sale
salelologa
salvador
samani
samaria
samasama
sami
samita
samoa
samoan
san
sanfourche
sani
santa
santos
sao
saofaga
saogalemu
saoloto
saolotoga
sapapali
sapati
sasa
sasae
satauro
satupa
sau
saua
sauaina
saudi
saunia
sauniga
sauniuniga
saute
sautesasae
savai
savali
schengen
school
scn
se
sea
season
sefulu
sefuluiva
sefulutasi
sei
seia
sela
selau
semi
senate
sene
seneturi
senituri
sepania
september
serbia
series
ses
sese
setema
setete
seti
seu
sevae
shawn
shili
shopping
show
si
sia
siamani
siamupini
siaosi
siaosia
sieki
sifi
sigapoa
siitia
sika
sikaiana
sikoa
sikotilani
sikuea
sila
silafia
sili
silia
silisili
siliva
silva
sina
sinasina
sini
siomia
siosiomaga
sipaniolo
sipelaga
sisi
sisifo
sitaili
sitete
siva
sivili
sky
slam
slavic
slovenia
smackdown
snooker
snr
so
soccer
socialist
society
soifua
soifuaga
soka
sola
solo
solofanua
soloia
solomon
solomona
solomuli
solovakia
solovenia
somalia
sone
soo
sootaga
sosaiete
soso
sosoo
south
soviet
spanel
spania
spaniolo
spencer
spike
sports
sri
srn
st
state
states
statistics
status
steve
stone
strait
stub
studio
style
su
sua
suafa
suau
suauu
suavai
sub
sudan
suega
suesuega
suetena
sufulu
sui
suia
suiga
suitiselani
suka
suli
sumpini
sunia
suria
suriname
susu
susuga
sw
swan
syria
t
ta
taaalo
taalo
taaloga
taamilosaga
taatele
taavale
taeao
tafa
tafafao
tafao
tafatafa
tafola
tag
tagai
tagaloa
tagata
tagatanuu
tagavai
tagi
tai
taialani
taimi
taitai
taitaia
taitaifono
taitaiina
taitasi
taiuani
tajikistan
take
takuu
tala
talafaasolopito
talafatai
talafeagai
talanoa
talavou
tali
talia
taliaina
talimalo
talitonu
talitonuga
talofa
talosaga
talu
tam
tama
tamai
tamaitai
tamaiti
tamaitiiti
tamalii
tamaloa
tamaoaiga
tamasese
tamo
tanata
tane
tanielu
tanu
tanumafili
taofi
taofia
taoto
tapiteini
tapua
tapuaiga
tapuni
tasi
tasmania
tatala
tatalaina
tatalo
tatau
tatou
tau
taua
tauaofiaga
taufa
taufai
taui
tauiviga
taula
taulaga
taulai
taumafa
taumafai
taumafanafana
taumalulu
taumatau
taunu
taunuu
taunuuga
taupulega
tausaga
tausamiga
tausi
tausia
tausiga
tautai
tautala
tautatala
tautino
tauto
tautotogo
tautoulu
tautua
tautupu
tauva
tauvaga
tazz
tbilisi
te
tea
team
teine
tekonolosi
tel
tele
telefoni
televise
template
tenesi
tenimaka
tenisi
tennessee
tennis
tereta
teritori
teropika
terra
tesalonia
tesema
tete
tetee
tetele
teu
teuga
teuina
teuteuga
teuteuina
texas
text
th
tha
than
that
the
then
there
they
this
thomas
thq
ti
tiana
tietie
tifaga
tiga
tikeri
tilotilo
time
timor
timu
timuga
tina
tino
tito
tiute
tlm
tna
to
toa
toafa
toaitiiti
toalua
toasa
toatele
tocantins
toe
toeitiiti
toetoe
toetu
tofi
tofia
tofiga
toga
togafiti
togafitiga
togavao
togi
toilalo
tolotolo
tolu
tomai
tommy
tonga
tonu
toonai
toronto
torres
tosina
total
totino
toto
totoe
totogi
totonu
totonugalemu
tou
tr
tree
tri
triangle
trinidad
tropical
tru
ts
tu
tua
tuaa
tuai
tuamasaga
tuanai
tuaoi
tuasivi
tuatemala
tui
tula
tulafono
tulaga
tulai
tuli
tulia
tulimanu
tumaoti
tumau
tumutumu
tuna
tupe
tupi
tupu
tupua
tupuaga
tupuga
tupulaga
tuputupu
turisi
turkey
turnbull
tusa
tusi
tusia
tusiata
tusiga
tusigaigoa
tusisolo
tusitala
tusitusi
tusitusiga
tuto
tutoatasi
tutotonu
tutu
tutuila
tutupu
tutusa
tuu
tuua
tuueseeseina
tuufaatasi
tuufaatasia
tuufaatasiga
tuuga
tuuina
tuutuuga
tuvalu
tv
u
ua
uafu
uaina
uelese
ueligitone
ufa
ufiufi
uga
ui
uiga
uila
uina
uk
ula
ulaula
uli
uliuli
ultra
ulu
ulua
uluai
ulufale
ulumatua
ulutala
uma
umi
umia
un
una
under
undertaker
unesco
union
unitary
united
university
unknown
unm
uo
up
upega
upolu
upu
uputuu
ur
url
us
usa
used
uso
usufono
uta
utia
utino
uto
utu
uu
uunaia
v
va
vaa
vaai
vaaia
vaaiga
vaalele
vae
vaega
vaegaau
vaeluaina
vaevaeina
vagana
vai
vaiaso
vaiataimi
vailaau
vaitafe
vaitaimi
vaitau
vaitausaga
vaituloto
vala
valaauina
vale
vali
valoaga
valu
values
van
vanu
vanuatu
vao
vaomatua
vargas
vasa
vasega
vatikana
vava
vavae
vavalalata
vavalo
vavau
vave
vavega
ve
veape
venesuela
vevela
vevesi
vi
viatename
vicente
victoria
video
vietnam
view
vii
viiga
viii
vila
viliamu
vince
vincent
vine
virginia
viscera
vitio
vitoria
vlamertinge
vo
vs
w
wa
wahl
wake
wales
wallis
was
washington
water
wcw
we
web
website
were
west
western
what
when
where
white
who
wian
wiki
wikipedia
wilk
will
william
wind
with
wo
women
world
worship
would
wrestlemania
wrestling
ws
wwe
wwf
www
wwwf
x
xiv
y
ya
yahoo
yi
york
you
your
youth
ypres
yu
yua
yum
z
za
ze
zealand
zu
{
|
«
°
²
»
×
ı
ł
ʰ
ʻ
ʼ
ˀ
ˈ
ˌ
ː
̀
́
̂
̃
̄
̆
̇
̈
̉
̊
̋
̌
̓
̔
̛
̣
̤
̦
̧
̨
α
ε
η
ι
λιος
ο
ρα
ς
υ
и
н
на
славься
т
ּ
פ
ا
ة
س
ف
م
ه
و
ي
َ
ِ
ّ
ْ
ٓ
ٔ
ި
ं
ः
अ
क
ख
ग
च
ज
ट
ड
त
द
न
प
फ
ब
भ
म
य
र
ल
ळ
व
श
ष
स
ह
़
ा
ि
ी
ु
ृ
े
ै
ो
्
ং
ক
ছ
ত
দ
ন
প
ব
ম
য
র
ল
়
া
ি
ী
ু
ে
্
ਕ
ਦ
ਨ
ਪ
ਬ
ਸ
ਾ
ਿ
ੀ
ੁ
ੰ
ੱ
ં
ક
ચ
છ
ત
દ
ન
પ
વ
ષ
ા
િ
ી
ુ
ો
્
க
ச
ட
த
ந
ன
ப
ம
ற
ல
வ
ா
ி
ீ
ு
ெ
ே
ை
்
ల
ు
ು
್
ം
ക
ണ
ത
പ
ര
ല
ാ
ീ
്
ර
ු
ั
ี
้
ຕ
ີ
່
້
་
།
ཁ
ང
ད
བ
ི
ོ
တ
န
ဘ
မ
ရ
သ
ာ
ိ
ေ
း
္
်
ွ
ႂ
월
᜔
ក
ម
ា
ើ
្
​
‎
–
—
―
‘
’
“
”
•
…
″
€
↔
↷
③
④
⑦
☉
♫
⯓
ⱄ
ⲉ
ⲥ
ⴰ
ⵜ
⺀
⺄
⺆
⺈
⺊
⺌
⺕
⺝
⺸
⺼
⿰
⿱
⿲
⿳
⿴
⿵
⿶
⿷
⿸
⿹
⿺
⿻
〢
あ
え
か
き
く
は
ま
も
る
ん
゙
ア
イ
カ
ク
コ
シ
ス
ッ
ト
ハ
フ
ヘ
ャ
ユ
ラ
リ
ン
ー
㇁
㇂
㇄
㇇
㇈
㇉
㇓
㐁
㐄
㐅
㐌
㐫
㐬
㐭
㐮
㐱
㑒
㒵
㒸
㒼
㓁
㓞
㔾
㕛
㕣
㖾
㘝
㚅
㚇
㚔
㚘
㝉
㝡
㝴
㝵
㞋
㞢
㞷
㠩
㠭
㠯
㡀
㡭
㡿
㢲
㢴
㣇
㣺
㥯
㪅
㫄
㫐
㫒
㫺
㬅
㬎
㬥
㬰
㲋
㳄
㷠
㸒
㸚
㸦
㼌
㼲
㽞
㿟
䀠
䂞
䍃
䏍
䒑
䖍
䖒
䖝
䖵
䙴
䚻
䜌
䝿
䡛
䧹
䪞
一
丁
丂
七
丄
丅
丆
万
丈
三
上
下
丌
不
与
丏
丐
丑
专
且
丕
世
丘
丙
业
东
丞
丢
丣
两
严
並
丨
丩
个
丫
丬
中
丮
丰
丱
串
丵
丶
丷
丸
丹
为
主
丽
丿
乀
乂
乃
久
乆
乇
么
义
之
乌
乍
乎
乏
乐
乑
乔
乖
乗
乘
乙
乚
乛
乜
九
乞
也
习
乡
乳
乾
亀
亅
了
亇
予
争
事
二
亍
于
亏
亐
云
互
亓
五
井
亘
亚
亜
亞
亟
亠
亡
亢
交
亥
亦
产
亨
亩
享
京
亭
亮
亯
亰
亲
亳
亶
亷
人
亻
亼
亾
仁
今
介
仌
从
仐
仑
仒
仓
仕
他
付
仝
代
令
以
任
企
伊
伏
伐
休
会
伞
伯
但
位
何
佘
余
作
佥
使
來
侈
侌
侖
侯
侵
便
保
俞
信
修
倉
倍
候
倠
傘
備
僉
僕
儿
兀
允
兂
元
兄
充
兆
兇
先
光
兊
克
兌
免
兑
兒
兓
兔
党
兜
兟
入
全
兩
兪
八
公
六
兮
兰
共
关
兵
其
具
典
兹
兼
冀
冂
冃
冄
内
冈
冉
冊
冋
册
再
冎
冏
冐
冒
冓
冖
冗
冘
军
农
冝
冡
冥
冫
冬
冷
几
凡
凢
凵
凶
凷
凸
凹
出
函
凾
刀
刁
刂
刃
刄
刅
分
切
刍
刑
刕
刖
列
刘
则
初
別
利
别
到
制
刺
則
削
剌
前
剡
剽
劉
力
功
加
劦
助
劫
劳
劵
勃
勇
勉
勒
動
務
勞
勤
勹
勺
勻
勾
勿
匀
匂
包
匆
匈
匊
匋
匍
匕
化
北
匚
匝
匡
匪
匱
匸
匹
区
医
匽
匿
區
十
卂
千
卄
卅
卆
升
午
卉
半
卌
华
卑
卒
卓
单
卖
南
卜
卝
卞
占
卡
卢
卣
卤
卦
卩
卪
卬
卯
印
危
即
却
卵
卷
卸
卻
厂
厃
厄
历
厈
厉
厌
厓
厘
厚
原
厤
厥
厨
厭
厲
厶
厷
厸
去
厼
厽
叀
参
參
叅
又
叉
及
友
双
反
叐
发
叒
叔
叕
取
受
叚
叜
叟
口
古
句
另
叩
只
召
可
台
叱
史
右
叵
号
司
叹
吂
各
吅
合
吉
吊
吋
同
名
后
吏
向
吕
君
吝
吞
否
含
启
吳
吴
吹
吾
呂
呆
呈
告
员
呙
周
命
咅
和
咎
咠
咢
咨
咸
咼
哀
品
哉
員
哥
哲
唐
商
啇
問
啚
啬
啻
善
喜
喬
單
喿
嗇
噩
嚴
囊
囗
囘
囙
囚
四
回
囟
因
囧
囬
困
囱
囷
固
国
圂
圅
國
圍
圓
土
圡
圣
圥
在
圭
地
圶
圼
坐
坒
坚
坴
垂
垔
垚
埀
埋
埶
執
基
堂
堅
堆
堇
堯
塞
墨
壘
士
壬
壯
声
壳
壴
壹
壺
壽
夂
处
夅
夆
备
夊
夋
夌
复
夏
夒
夕
外
夗
夘
多
夜
夢
大
夨
天
太
夫
夬
夭
央
失
夲
头
夷
夸
夹
夻
夾
奂
奄
奇
奈
奉
奎
奏
奐
契
奓
奔
奚
奞
奠
奢
奥
奭
女
奴
奻
好
如
妄
妈
妙
妟
妥
妻
妾
姑
委
姜
威
娄
娘
婁
婴
媽
嬰
嬴
子
孑
孔
孕
孖
字
存
孚
孛
孝
孟
季
孤
学
孩
孫
孱
學
宀
宁
宂
它
宅
宇
守
安
宋
完
宏
宓
宗
官
定
宛
宜
宝
客
宣
室
宮
宰
害
家
容
宾
宿
寄
寅
密
富
寒
察
寧
審
寫
寬
寮
寸
对
寺
寻
寽
対
寿
封
尃
射
将
將
專
尉
尊
尋
尌
對
小
少
尒
尓
尔
尖
尗
尚
尞
尢
尣
尤
尧
尨
尭
就
尸
尹
尺
尻
尼
尽
尾
尿
局
居
屈
屋
屎
屏
屑
展
屖
屚
属
屠
屡
屬
屮
屯
屰
山
屵
屾
岁
岂
岑
岛
岡
岩
岳
岸
峯
島
崇
崑
崔
崖
崙
崩
嵬
嶲
巂
巛
川
州
巟
巠
巢
巤
工
左
巧
巨
巩
巫
差
己
已
巳
巴
巷
巸
巽
巾
巿
帀
市
布
希
帚
帛
帝
带
師
席
帶
常
干
平
年
幵
并
幷
幸
幺
幻
幼
幽
幾
广
広
庄
床
底
店
庚
府
度
庫
庭
庶
康
庸
廉
廌
廛
廣
廩
廴
延
廷
建
廾
廿
开
弁
弃
弄
弇
弋
式
弓
弔
引
弗
弘
弜
弟
弥
弦
弱
張
強
强
彊
彌
彎
彐
彑
当
彔
录
彖
彗
彡
形
彥
彦
彧
彩
彭
彳
役
彼
往
待
律
徒
得
徙
從
復
微
徵
心
忄
必
忌
忍
志
忝
忠
忩
快
念
忽
忿
思
怠
急
怱
恆
恋
恒
恩
恭
息
悉
患
悤
悲
悶
惠
惡
惢
愁
愈
意
愛
感
慈
慧
慮
憂
憲
應
戀
戈
戉
戊
戋
戌
戍
戎
成
我
戒
戔
或
戚
戠
戢
截
戲
戶
户
戹
戼
戾
房
所
扁
扇
手
扌
才
打
托
执
承
折
拉
拜
拿
掌
推
提
摩
支
攴
攵
收
攸
改
放
政
敄
敏
敕
敖
敗
教
敝
敞
敢
散
敦
敫
敬
数
敷
數
斂
文
斉
斊
斗
斤
斥
斩
斬
斯
新
方
於
施
斿
旁
旋
族
无
旡
既
旣
日
旦
旧
旨
早
旬
旱
旲
时
旾
昆
昇
昌
昍
明
昏
易
昔
昗
昜
星
春
昬
是
昱
昴
昷
時
晃
晋
晏
普
景
晶
智
暑
暴
曇
曩
曰
曲
曳
更
曷
書
曹
曼
曾
替
最
朁
會
月
有
朋
服
朔
朕
朗
望
朝
木
朩
未
末
本
札
朮
术
朱
朵
朶
朿
杀
杏
杜
束
条
来
東
杲
杳
松
析
林
枚
果
枝
枲
枼
某
柔
查
柬
柰
柴
栗
桀
桑
桼
梁
條
梟
梨
棘
棠
棥
森
楚
業
楽
榮
樂
樊
欠
次
欣
欮
欲
欶
欽
款
歆
歇
歛
止
正
此
步
武
歨
歪
歮
歯
歰
歲
歴
歷
歸
歹
歺
死
殳
段
殷
殸
殹
殺
殻
殿
毋
毌
母
每
毒
比
毕
毚
毛
毳
氏
氐
民
气
氣
水
氵
氶
氷
永
氺
氾
求
汝
汞
江
沃
沓
沙
沝
泉
法
波
泣
泥
泰
洛
洪
活
派
流
浦
浪
浮
淡
淮
清
渚
渠
湯
滿
漸
火
灬
灭
灰
灵
灷
炅
炎
炏
炗
炙
炭
為
烈
烏
烝
焉
無
焦
焱
然
煞
熊
熏
燕
營
燮
爪
爫
爭
爯
爰
爱
爲
爵
父
爻
爽
爾
爿
片
牙
牚
牛
牜
牟
牢
牧
物
牪
牽
犀
犬
犭
犮
狂
狄
狊
独
狺
猋
猒
猪
献
獻
玄
率
玉
王
玟
玨
珊
珎
班
琴
瑚
瑟
瑩
瓜
瓦
甘
甚
生
産
用
甫
甬
田
由
甲
申
电
甶
男
甸
甹
画
甾
畀
界
畏
畐
留
畜
畟
畢
畧
畨
番
畫
異
畱
當
畺
畾
疊
疋
疌
疑
疒
疾
癶
癸
癹
登
發
白
百
皀
皃
的
皆
皇
皋
皐
皕
皮
皷
皿
盃
盆
盇
盈
益
盍
盎
监
盒
盖
盛
盡
監
盤
盧
目
直
相
盾
省
眇
眉
看
眔
眞
真
眷
眼
眾
着
睘
睪
睿
瞏
瞢
瞿
矍
矛
矞
矢
矣
知
矦
短
石
砂
破
碎
磊
磨
示
礻
礼
祟
票
祭
禀
禁
禸
禹
禺
离
禽
禾
禿
秀
秃
秉
秋
科
秝
秦
移
稟
穀
穌
穴
究
穹
空
穿
突
窄
窒
立
竒
竜
竝
竟
章
童
竹
笑
笠
筆
等
答
箕
算
箴
節
篤
篭
米
粉
粛
粟
粤
粦
粲
糞
糸
糹
系
約
納
素
索
紫
累
細
絜
絫
絲
維
綿
縣
繇
纍
纟
缶
网
罒
罔
罕
罗
罙
罡
罢
罪
署
罷
羅
羊
羌
羍
美
羔
羕
羗
羞
羡
羣
群
義
羲
羸
羽
翁
翏
習
翕
翟
翠
翼
老
耂
考
者
耆
而
耎
耑
耒
耳
耴
耶
耷
聂
聊
聖
聚
聶
聿
肀
肃
肅
肉
肖
肙
肥
肩
肯
育
肴
胃
背
胡
胥
能
脊
脩
膚
臣
臤
臧
自
臬
臭
臯
臱
至
致
臺
臼
臽
臾
臿
舀
舂
舄
與
興
舉
舌
舍
舛
舜
舞
舟
般
艮
良
色
艸
艹
艾
芒
芔
芬
芮
花
芳
芺
芻
苔
苗
苟
若
苦
英
茶
茸
荅
草
荒
荣
荼
莆
莧
莫
莽
菆
菊
菐
華
萨
萬
落
葉
著
葛
董
葵
蒙
蒦
蒼
蓋
蓬
蓺
蔑
蔡
蕉
蕭
薄
薛
薦
薰
藍
藏
藥
蘭
虍
虎
虐
虒
虔
處
虖
虗
虘
虚
虛
虜
虞
虫
虹
虽
蚤
蚩
蛋
蜀
蜜
蝇
蟲
蠡
血
行
衍
衛
衣
衤
表
衮
衰
袁
袞
褭
褱
襄
襾
西
覀
要
覃
見
規
覓
覧
親
覽
见
角
解
言
訁
訇
計
話
詹
語
誩
諸
讠
语
谢
谷
豆
豈
豊
豐
豕
豖
豙
象
豦
豩
豪
豸
貇
貝
貞
貟
負
貢
貧
貪
貫
責
貳
貴
買
費
賁
資
賈
賏
賓
賔
賛
賞
賢
賣
質
賴
贊
贝
贡
责
贯
贲
贵
赖
赞
赤
赦
走
越
足
路
蹇
身
躬
車
軍
軎
軟
輦
车
辛
辜
辟
辥
辰
辱
農
辵
辶
边
达
过
近
连
迷
追
退
送
逆
逐
通
速
造
逢
連
逮
進
遀
遂
過
道
達
遣
適
遷
遺
邊
邑
邕
那
邦
邪
郎
部
郭
都
鄉
酉
酋
配
酓
釆
采
里
重
野
量
金
釒
錢
钅
長
镸
长
門
閃
閉
開
閏
閑
閒
間
閔
閵
閻
闌
门
间
闷
阑
阜
阝
阿
降
陳
隆
隊
隋
隡
隨
隮
隱
隶
隹
隺
隻
隼
隽
难
雀
雁
雅
集
雈
雋
雍
雐
雔
雙
雚
雜
雝
離
難
雨
雩
雪
雲
零
雷
需
霍
霜
霝
霞
霸
靈
靑
青
非
靡
面
靣
革
韋
韦
韭
韯
韱
音
頁
頃
項
須
頗
頡
頻
顛
页
風
风
飛
飞
食
飠
飯
養
饣
首
香
馬
馮
駦
马
骨
高
髟
鬥
鬯
鬲
鬼
魚
魯
鮮
鱼
鲁
鳥
鳳
鸟
鹵
鹿
麃
麗
麥
麦
麻
黃
黄
黍
黎
黑
黒
黨
黹
黽
黾
鼎
鼓
鼠
鼻
齊
齋
齐
齒
齿
龍
龙
龜
龟
龠
龰
龱
龴
龵
龶
龷
龸
龹
ꭰ
ꭲ
ꭸ
ꭿ
ꮎ
ꮕ
ꮫ
ꯩ
者
艹
﻿
？
𐌰
𐌱
𐌲
𐌳
𐌷
𐌸
𐌹
𐌺
𐌼
𐌽
𐌾
𐌿
𐍂
𐍃
𐍄
𐍅
𐍆
𐍉
🜨
𠀁
𠀃
𠀆
𠀉
𠀎
𠀐
𠁁
𠁣
𠂆
𠂇
𠂈
𠂉
𠂊
𠂋
𠂎
𠂒
𠂔
𠂛
𠂡
𠂢
𠂤
𠂬
𠂭
𠂹
𠃊
𠃋
𠃌
𠃍
𠃎
𠃑
𠃓
𠃔
𠃜
𠄌
𠄎
𠄠
𠄢
𠆢
𠆥
𠇍
𠈌
𠌵
𠓜
𠔉
𠔥
𠔼
𠔽
𠔿
𠕀
𠕁
𠕋
𠘧
𠘨
𠙻
𠙼
𠚏
𠚒
𠚤
𠚪
𠣏
𠤎
𠤕
𠥓
𠦄
𠦑
𠦝
𠧒
𠧗
𠧪
𠩺
𠪚
𠫓
𠫔
𠫤
𠬛
𠬝
𠬞
𠬢
𠬤
𠬶
𠮛
𠮦
𠮷
𠯑
𠱠
𠳮
𠷎
𡈼
𡉀
𡉵
𡌥
𡍮
𡏳
𡕒
𡕩
𡕰
𡖅
𡗗
𡗜
𡘆
𡘤
𡧱
𡨄
𡩧
𡬠
𡭽
𡰣
𡰥
𡰪
𡰯
𡰱
𡷈
𡸁
𡿨
𡿩
𡿪
𡿺
𢀖
𢀛
𢀩
𢁙
𢆉
𢆰
𢆶
𢇁
𢇇
𢉖
𢌬
𢌿
𢏚
𢑑
𢑚
𢖻
𢙣
𢛳
𢦏
𢦒
𢧵
𢼄
𢾕
𣁋
𣄼
𣅀
𣅽
𣍘
𣎳
𣎵
𣏋
𣏼
𣗥
𣥂
𣥖
𣦵
𣦼
𣧄
𣪊
𣪠
𣬉
𣳾
𣶒
𤇾
𤊽
𤐫
𤓰
𤔔
𤕨
𤣩
𤰇
𤰔
𤰞
𤴓
𤴔
𤽄
𥁑
𥁕
𥃦
𥃩
𥃭
𥇡
𥑟
𥘅
𥘈
𥝢
𥫗
𥱡
𦈢
𦉪
𦉬
𦉼
𦍌
𦍒
𦎧
𦐇
𦓔
𦔮
𦘒
𦙃
𦚏
𦣝
𦣞
𦣻
𦥑
𦥔
𦥯
𦨉
𦭝
𦰩
𧆞
𧈧
𧘇
𧰨
𧴪
𧴮
𧵩
𧾷
𨸏
𨾴
𩙿
𩠐
𩫏
𩵋
𪉷
𪜀
𪟽
𪠲
𪩲
𫇦
𫔭
𫜸
𫝀
𫠣
𫠩
𫢉
𫥞
𫩏
𫩠
𫪡
𫲽
𫶧
𬀷
𬐘
𬗌
𬙙
𬛸
𬜯
𬟩
𬯁
𬴘
𬺻
𬼉
𬼖
𭀰
𭁈
𭁨
𭅰
𭑈
𭕄
𭗼
𭤨
𭥫
𭻾
𮅕
𮊿
𮍌
𮍏
𮓗
𮥼
𮧮
廾
𰀁
𰀄
𰀈
𰀉
𰀕
𰀠
𰀡
𰀢
𰀪
𰁜
𰃮
𰆊
𰆘
𰋙
𰕎
𰢴
𰧭
𰯲
15--
16--
17--
18--
19--
7--
8--
9--
a--
aa--
ac--
acces--
act--
ae--
afe--
aga--
ai--
aka--
al--
ala--
ale--
am--
ama--
an--
ao--
api--
ar--
archipe--
argen--
as--
ato--
atu--
au--
ave--
awa--
b--
ba--
band--
bar--
be--
bis--
bo--
bos--
br--
bu--
bur--
c--
ca--
ce--
cha--
cin--
co--
colo--
con--
connec--
cu--
d--
da--
de--
den--
di--
e--
eco--
ed--
el--
em--
en--
es--
f--
fa--
faa--
faale--
faamau--
faapoto--
faata--
fai--
fale--
fau--
fe--
fede--
fega--
fin--
fo--
foa--
fono--
fr--
fu--
fua--
g--
ga--
ge--
gene--
geo--
gi--
glo--
go--
gre--
griff--
gro--
gu--
h--
ha--
har--
he--
hi--
ho--
hu--
i--
ia--
ibe--
il--
in--
is--
it--
j--
je--
k--
ka--
kan--
kar--
ke--
ken--
ki--
knig--
ko--
kone--
ku--
l--
la--
le--
li--
lo--
lu--
ly--
m--
ma--
me--
mea--
mi--
mis--
mo--
mon--
mor--
mu--
munic--
my--
n--
na--
napo--
ne--
ni--
nig--
no--
nu--
nutu--
o--
oce--
ofo--
oga--
ola--
olo--
or--
os--
p--
pa--
pal--
pam--
pe--
pi--
pl--
pla--
po--
poli--
por--
pra--
pre--
pri--
pro--
pu--
q--
r--
ra--
re--
resi--
rho--
ric--
rig--
ro--
s--
sa--
sama--
sao--
se--
ser--
sha--
si--
sna--
so--
st--
stam--
stu--
su--
sub--
sui--
t--
ta--
tab--
tala--
tama--
tau--
te--
temo--
teu--
th--
ti--
tia--
to--
toa--
toe--
tr--
tu--
tuu--
u--
ua--
ue--
uk--
ur--
uu--
v--
va--
vae--
vai--
ve--
ver--
vi--
vole--
w--
wa--
we--
wil--
wo--
x--
y--
z--
δ--
κ--
μ--
ν--
ρ--
τ--
--0
--1
--2
--3
--4
--5
--6
--7
--8
--87
--9
--93
--a
--aga
--ai
--al
--an
--ana
--ani
--ar
--ary
--as
--au
--ay
--b
--ble
--burgh
--c
--ca
--cal
--ce
--cer
--ces
--ch
--cian
--ck
--co
--d
--da
--ddy
--de
--dent
--do
--dy
--e
--ed
--ei
--ek
--el
--ell
--elu
--en
--ep
--er
--ers
--es
--ese
--et
--f
--fa
--fi
--g
--ga
--gal
--ge
--gi
--gia
--go
--gofie
--gua
--h
--i
--ia
--ie
--iel
--ik
--in
--ina
--ine
--ing
--io
--is
--ish
--ite
--ix
--k
--ka
--ki
--l
--la
--lasi
--ld
--le
--les
--lf
--li
--lk
--ll
--lles
--lly
--lm
--lo
--loa
--logo
--ls
--lt
--lu
--lua
--ly
--m
--ma
--maina
--mau
--mbia
--me
--mi
--mia
--mo
--mu
--my
--n
--na
--nd
--ne
--nel
--ng
--ni
--nia
--nk
--no
--noa
--ns
--nt
--nts
--nu
--nua
--ny
--o
--om
--on
--p
--pa
--pe
--pi
--po
--pu
--que
--r
--ra
--rb
--rch
--rd
--re
--ri
--rick
--rk
--rks
--rl
--rly
--rn
--rry
--rs
--rt
--ry
--s
--sa
--se
--sh
--si
--sia
--so
--son
--ss
--st
--sy
--t
--ta
--taga
--tal
--tch
--te
--ted
--th
--ti
--tia
--ties
--tion
--to
--tonu
--tonuina
--tt
--tu
--ty
--u
--ua
--ugh
--us
--v
--va
--ve
--via
--w
--wn
--x
--y
--ya
--z
--ς
--ое
--я
