!
"
#
##0
##1
##10
##11
##12
##13
##14
##15
##16
##17
##18
##19
##2
##20
##21
##22
##23
##24
##25
##26
##27
##28
##29
##3
##30
##31
##32
##33
##34
##35
##36
##37
##38
##39
##4
##40
##41
##42
##43
##44
##45
##46
##47
##48
##49
##5
##50
##51
##52
##53
##54
##55
##56
##57
##58
##59
##6
##60
##61
##62
##63
##64
##65
##66
##67
##68
##69
##7
##70
##71
##72
##73
##74
##75
##76
##77
##78
##79
##8
##80
##81
##82
##83
##84
##85
##86
##87
##88
##89
##9
##90
##91
##92
##93
##94
##95
##96
##97
##98
##99
$
%
&
'
(
)
*
+
,
-
.
/
0
00
000
0001
0004
001
007
01
02
03
04
05
06
07
08
09
1
10
100
1000
1002
1007
101
1016
1017
102
1021
103
1038
104
105
1051
106
107
1073
108
1080
1086
1088
109
1093
1098
11
110
111
1111
112
1126
113
114
115
116
117
118
119
12
120
1200
121
122
123
124
12411
125
126
127
128
129
13
130
131
132
133
134
135
136
1365
137
1371
138
139
14
140
141
142
143
144
145
146
147
148
149
1492
15
150
1500
1505
151
152
153
154
155
156
157
158
159
16
160
1600
161
162
163
164
165
166
167
168
169
17
170
1700
171
172
173
174
175
1753
1758
176
177
1775
1776
178
1780
1782
1783
1786
1787
1788
1789
179
1790
1791
1792
1793
1794
1795
1798
1799
18
180
1800
1801
1802
1803
1804
1805
1806
1807
1808
1809
181
1810
1811
1812
1813
1814
1815
1816
1817
1818
1819
182
1820
1821
1822
1823
1824
1825
1826
1827
1828
1829
183
1830
1831
1832
1833
1834
1835
1836
1837
1838
1839
184
1840
1841
1842
1843
1844
1845
1846
1847
1848
1849
185
1850
1851
1852
1853
1854
1855
1856
1857
1858
1859
186
1860
1861
1862
1863
1864
1865
1866
1867
1868
1869
187
1870
1871
1872
1873
1874
1875
1876
1877
1878
1879
188
1880
1881
1882
1883
1884
1885
1886
1887
1888
1889
189
1890
1891
1892
1893
1894
1895
1896
1897
1898
1899
19
190
1900
1901
1902
1903
1904
1905
1906
1907
1908
1909
191
1910
1911
1912
1913
1914
1915
1916
1917
1918
1919
192
1920
1921
1922
1923
1924
1925
1926
1927
1928
1929
193
1930
1931
1932
1933
1934
1935
1936
1937
1938
1939
194
1940
1941
1942
1943
1944
1945
1946
1947
1948
1949
195
1950
1951
1952
1953
1954
1955
1956
1957
1958
1959
196
1960
1961
1962
1963
1964
1965
1966
1967
1968
1969
197
1970
1971
1972
1973
1974
1975
1976
1977
1978
1979
198
1980
1981
1982
1983
1984
1985
1986
1987
1988
1989
199
1990
1991
1992
1993
1994
1995
1996
1997
1998
1999
2
20
200
2000
2001
2002
2003
2004
2005
2006
2007
2008
2009
201
2010
2011
2012
2013
2014
2015
2016
2017
2018
2019
202
2020
2021
2022
2023
2025
203
204
205
206
207
208
209
21
210
211
212
213
214
215
216
217
218
219
22
220
221
222
223
224
225
226
227
228
229
23
230
2305
2307
231
232
233
234
235
236
237
238
239
24
240
241
242
243
244
245
246
247
248
249
25
250
251
252
253
254
255
256
257
258
259
26
260
261
262
263
264
265
266
267
268
269
27
270
271
272
273
274
275
276
277
278
279
28
280
281
282
283
284
285
286
287
288
289
29
290
291
292
293
294
295
296
297
298
299
3
30
300
3000
301
302
303
304
305
306
307
308
309
31
310
311
312
313
314
315
316
317
318
319
32
320
321
322
323
324
325
326
327
328
329
33
330
331
332
333
334
335
336
337
338
339
34
340
341
342
343
345
346
347
348
349
35
350
351
352
353
354
355
356
357
359
36
360
361
363
364
365
367
37
370
371
372
375
377
38
380
383
384
385
386
387
389
39
390
391
393
394
395
397
399
4
40
400
4000
401
403
404
405
406
409
41
410
411
412
415
416
417
418
42
420
425
429
43
430
433
435
44
440
45
450
46
460
465
47
470
471
473
48
480
486
49
490
5
50
500
5000
501
51
510
511
517
52
520
521
525
53
530
533
54
540
55
550
5531
56
560
57
570
58
59
6
60
600
604
61
62
62265494
63
6361
637
64
640
65
650
66
67
670
674
68
69
691
7
70
700
71
72
720
73
737
74
747
75
750
76
767
77
777
78
79
8
80
800
8018
81
82
8221
83
84
85
850
86
87
87021
88
89
9
90
900
91
92
93
94
95
950
96
97
978
98
99
:
;
<
=
>
?
@
[
\
]
^
_
`
a
aa
aaron
ab
abc
abdul
abdullah
abe
able
about
above
abraham
abstract
abu
ac
acacia
academic
academy
access
accessdate
accessed
according
account
ace
acer
acid
acinodendron
aconitum
acoustic
across
act
acta
action
active
activity
actor
actress
actually
acuminata
ad
ada
adam
adams
adattar
adds
adelaide
adele
administration
adolf
adrian
adult
advance
advanced
adventure
ae
af
afc
affairs
affinis
afghanistan
africa
african
africana
after
ag
again
against
age
agency
ages
agreement
agriculture
agrilus
agrotis
agrypnus
aguilera
ah
ahmad
ahmed
ahn
ai
aid
aids
ain
air
airbus
aircraft
aires
airlines
airplay
airport
airways
ais
aise
aisne
aj
ajax
ak
akb
akira
al
alabama
alain
alan
alaska
alba
albania
albert
alberta
alberto
albion
album
albums
aleksandr
alessandro
alex
alexander
alexandra
alexandre
alexandria
alexandros
aleyrodidae
aleyrodinae
alfred
alge
algeria
ali
alice
alien
alive
all
allan
allen
alliance
allison
allium
allkpop
allmovie
allmusic
almost
aloe
alone
along
alpes
alpha
alpina
alpinia
also
alternative
alto
always
am
amanda
amaryllidaceae
amata
amazing
amazon
ame
america
american
americana
ames
amin
amino
amomum
among
amp
amphibian
amphoe
amsterdam
amy
an
ana
analysis
anatomy
ancient
and
anderson
andes
andre
andrea
andreas
andrei
andrena
andrenidae
andrew
andrews
android
andy
ang
angel
angela
angeles
anglo
angola
angustifolia
anh
animal
animals
animation
anime
ankara
anlıurfa
ann
anna
annals
annapolis
anne
annie
anniversary
anno
annotated
announce
announced
announces
annual
another
ans
antalya
anthicidae
anthony
anthropology
anthurium
anti
antoine
anton
antonio
any
ao
ap
apamea
apg
aphia
api
apidae
apj
apollo
app
apple
application
applications
applied
apportionment
approach
april
aquitaine
ar
ara
arab
arabia
araceae
aragon
araneae
araneidae
araneus
arc
arcade
archaeology
architecture
archive
archived
archivedate
archives
archiveurl
arctiinae
ardennes
ardisia
are
area
areas
arecaceae
arena
arenaria
arg
argentina
aria
ariana
aristolochia
aristotle
arizona
arkansas
arm
armenia
arms
armstrong
army
arnold
around
ars
arsenal
art
artemisia
arthur
article
articles
artist
artists
arts
arxiv
as
asahi
asean
ashley
asia
asian
asilidae
asp
aspidium
aspleniaceae
asplenium
aspx
assembly
assessment
associated
association
associations
assyria
asteraceae
asteroid
aston
astragalus
astro
astronomical
astronomy
astrophysical
astrophysics
asura
at
athena
athens
athletic
athyrium
atlanta
atlantic
atlas
atle
atp
attack
au
aube
auckland
audio
auf
august
augustus
austin
australasia
australia
australian
australis
austria
austriancharts
author
authority
authors
auto
auvergne
aux
av
available
avengers
aviation
award
awards
away
ax
axit
az
azerbaijan
b
ba
baby
babylon
bach
back
background
bad
baden
bae
bahamas
bahrain
bai
bailey
baill
baillargeon
bailly
baker
bali
balkan
ball
ballad
baltic
baltimore
baly
balıkesir
ban
band
bang
bangalore
bangkok
bangladesh
bank
banks
bao
bar
barangay
barbara
barbula
barcelona
barnes
baroque
barrett
barrier
barry
bas
base
based
basic
bass
batman
battle
battles
bauer
bauhinia
bay
bayerischen
bayern
bb
bbc
bc
bd
be
beach
bean
bear
beast
beat
beatles
beautiful
beauty
bec
became
because
beccaloni
beck
becker
become
becomes
bee
been
before
begin
beginning
begins
begonia
behavior
behind
bei
beijing
beilschmiedia
being
belarus
belgaum
belgium
believe
belize
bell
bella
belle
ben
bengal
benjamin
bennett
benth
ber
berberis
berg
berkeley
berlin
bermuda
bern
bernard
berry
best
beta
better
between
bevo
beyonce
beyond
bf
bhutan
bi
bia
bibcode
bicolor
biden
bie
bieber
big
biggest
bill
billboard
billion
billy
bin
binh
bio
biodiversity
biographical
biography
biol
biological
biologie
biology
bird
birdlife
birds
birmingham
birth
birthday
bis
bisby
bishop
bismarck
bit
biz
black
blackburn
blackpink
blackwell
blade
blair
blake
blechnum
blo
block
blog
blood
bloomberg
blu
blue
blues
blume
bmatrix
bo
board
boat
bob
bobby
body
boeing
bohemia
boiss
bolivia
bologna
bolshevik
bolton
bom
bomb
bon
bonaparte
bond
bong
book
books
border
boris
born
borneo
bosnia
boss
boston
bot
botanic
botanical
botany
both
botswana
bouchet
boulenger
bourbon
bourgogne
bourgoin
box
boy
boyko
boys
bpi
br
brachythecium
brad
bradford
bradley
brain
branch
brand
brandenburg
brasil
brasiliensis
bratislava
braun
brazil
break
breaking
breeds
brentford
bretagne
breton
brian
bridge
brief
bright
brill
bristol
britain
britannica
british
britney
britton
broadcast
broadcasting
broadway
bromeliaceae
brooklyn
brooks
bros
broth
brother
brothers
brown
browser
bruce
bruchidae
brunei
bruno
brussels
bryaceae
bryan
bryant
bryum
bt
btnmt
bts
bu
buckley
budapest
buenos
build
building
bulbophyllum
bulgaria
bull
bulletin
bundesliga
buo
bureau
burkina
bursa
burton
burundi
bus
busan
bush
business
but
butler
butterflies
buy
by
byzantine
bə
bəl
c
ca
cable
cacbon
cactaceae
caesar
cafe
cai
cairo
caladenia
calais
calamagrostis
calamus
calathea
calci
calcio
caliber
california
call
called
calls
calvados
calvin
cam
cambodia
cambridge
came
camellia
camera
cameron
cameroon
camp
campaign
campanula
campbell
campuchia
can
canada
canadian
canberra
cancer
cande
cang
canh
cannes
cannon
canon
cantharidae
cao
cap
cape
capensis
capital
capitale
capitol
caporiacco
captain
car
carbon
card
cardiff
cardiophorus
cardot
care
career
carex
carey
caribbean
caribe
carl
carlo
carlos
carmen
carol
carolina
caroline
carpenter
carroll
carter
carthage
case
cases
casey
cast
castile
casting
castle
castro
cat
catalan
catalog
catalogue
catalunya
cate
catherine
catholic
catocala
cau
cause
causes
cave
cay
cbs
cc
cd
cdc
cdot
ce
cell
cells
celtic
census
centaurea
center
central
centre
century
ceo
cerambycidae
certification
certifications
cf
ch
cha
chad
chai
challenge
cham
chamber
chamberlin
champion
champions
championship
championships
chan
chang
change
changed
changes
chanh
channel
chao
chapman
chapter
character
characters
charles
charlie
charlotte
chart
charts
chase
chay
chdcnd
che
check
checklist
cheilanthes
chelsea
chem
chemical
chemistry
chen
cheng
cher
chess
chester
chi
chia
chiang
chicago
chicken
chie
chief
child
children
chile
chim
china
chinensis
chinese
ching
chinh
chip
chitradurga
chloride
cho
choa
choi
choice
chosun
chr
chris
christ
christian
christina
christine
christmas
christopher
chronicle
chronology
chrysomelidae
chrysopidae
chu
chua
chuck
chui
chun
chung
chuo
church
churchill
chuye
ci
cia
cid
cinema
cinnamomum
circle
cities
city
civil
civilization
cj
ck
cl
claims
claire
clara
clark
clarke
class
classement
classic
classical
classification
claude
clay
clb
cle
clematis
clements
cleopatra
clerodendrum
cleveland
climate
clinical
clinton
clio
clip
close
cloud
club
clubiona
clusia
cm
cn
cnn
co
coast
coauthors
cockerell
code
coelioxys
cohen
coi
cola
cold
coldplay
cole
coleophora
coleoptera
colin
collection
college
colletes
colletidae
collins
cololejeunea
colombia
colombo
color
colorado
columbia
columbus
com
combat
combretum
come
comeback
comedy
comes
comic
comics
coming
command
commercial
commission
committee
common
commons
commonscat
commune
communes
communication
communications
community
como
companion
company
comparative
competition
complete
complex
comprehensive
computer
comte
comune
con
conan
concacaf
concept
concert
concerto
conference
confirmed
confirms
conflict
cong
congo
congress
conidae
connecticut
connor
conservation
console
constantine
constantinopolis
constitution
construction
contemporary
content
contract
control
conus
convention
conway
cook
cool
cooper
copa
copel
copenhagen
copy
coral
cordia
core
cornell
corona
coronavirus
corp
corporation
corps
corse
corydalis
cos
cost
costa
could
council
countries
country
county
course
court
cousinia
cover
covid
cox
cp
cpu
cr
craig
crambidae
crash
crassulaceae
crawford
crazy
crc
cre
created
creating
creative
creek
cribb
cricket
crime
crisis
critical
critics
croat
croatia
cross
crotalaria
croton
crown
crowned
crustaceans
cruz
cry
cryptocarya
crystal
cs
ct
cu
cua
cuatrec
cuba
cultural
culture
cung
cuo
cup
curcuma
current
curtis
cut
cv
cx
cyathea
cyatheaceae
cyclosorus
cynanchum
cyperus
cyrtandra
cyrus
cz
czech
d
da
dai
daily
dakota
dale
dall
dalla
dallas
dalle
dame
dan
dana
dance
dancing
dang
dangerous
danh
daniel
danny
dans
danube
dao
dark
darwin
das
data
database
date
datenbank
dates
dati
dave
david
davies
davis
dawn
day
days
dazu
db
dc
dd
de
dead
deadline
deal
dean
death
debut
dec
decade
december
decision
deep
defence
defense
definition
dei
del
delhi
dell
della
delle
delphinium
delta
demo
democracy
democratic
den
dendrobium
denis
denmark
dennis
department
der
derby
derek
des
described
description
descriptions
design
despite
destiny
destroyer
destroyers
det
detail
details
detective
detroit
deutsche
development
devil
di
diakonoff
diamond
diana
dianthus
diary
dick
dicky
dicranaceae
dicranomyia
dicranum
dictionary
did
die
diego
diels
dies
diesel
different
digital
din
dinh
dinosaur
dio
dioscorea
diospyros
dioxide
diplazium
diptera
direct
direction
director
directory
discography
discogs
discolor
discovery
disease
diseases
disney
display
displaystyle
distribution
district
districts
dition
diversity
division
dixon
diyarbakır
dj
dk
dna
do
doa
doanh
doc
doctor
document
documentary
documents
dodson
does
dog
doha
doi
dollar
domain
domainfalsefalse
domainpublic
domestic
dominica
don
donald
dong
door
doraemon
dortmund
dos
dot
double
douglas
dover
down
download
dr
draba
draco
dragon
drake
drama
draw
dream
dreams
drive
drop
drug
drugs
dryopteridaceae
dryopteris
ds
dt
du
dua
dubai
dublin
due
duke
dumbledore
duncan
dung
duo
during
dutch
dutchcharts
duty
duy
duye
dvd
dx
dylan
dynamics
dynasty
dysdera
dz
də
dɜ
dɪ
e
ea
each
eagle
early
earth
east
eastern
ebird
ec
echo
ecology
economic
economics
economist
economy
ectropothecium
ecuador
ed
eddie
edgar
edge
edinburgh
edited
edition
editions
editor
editors
edmund
edo
eds
edu
education
edward
edwards
edwin
effect
effects
egypt
egyptian
ehir
eight
eilema
einstein
einwohnerzahlen
eisenhower
ek
el
elaeocarpus
elaphoglossum
elateridae
elatostema
election
electric
electron
electronic
elegans
elements
elena
eli
elip
elizabeth
elle
ellen
elliott
ellis
elmidae
elongata
elsevier
em
email
emergency
emilia
emily
eminem
emirates
emma
emmanuel
emmy
emperor
empire
en
encyclopaedia
encyclopedia
encyclopædia
end
ending
endomychidae
energy
engine
engineering
engl
england
english
enicospilus
enix
enter
enterprise
entertainment
entry
environment
environmental
enzyme
eo
ep
epic
epidendrum
episode
er
era
eragrostis
erebidae
eria
eric
erica
erich
erik
eriocaulon
ernest
ernst
erzurum
es
escience
esclusa
esky
espan
espn
essays
essential
est
este
estimates
estonia
et
ethiopia
ethnic
etyfish
etymology
eu
eucalyptus
euge
eugen
eugene
eugenia
euler
eun
euphorbia
eupithecia
eure
euro
europa
europaea
europe
european
euxoa
eva
evans
even
evening
event
events
ever
everton
every
everything
evidence
evil
evolution
evolutionary
ex
example
exchange
exclusive
executive
exo
experience
experimental
exploration
explorer
express
eye
eyes
ez
f
fa
fabaceae
fabian
fabricius
face
facebook
fact
factbook
factfinder
factor
factory
facts
fair
fairmaire
fairy
faith
falcon
fall
falling
falls
fame
families
family
famous
fan
fans
fantasy
fao
far
fasciata
fashion
faso
fast
fate
father
fauna
fbi
fc
fda
fe
fear
feat
feature
features
february
federal
federation
feed
feel
feet
felipe
felix
female
ferdinand
ferguson
ferna
fernando
festival
festuca
few
ff
fi
fiction
ficus
fide
field
fields
fifa
fifth
fight
fighter
fighters
fighting
figure
figures
fiji
file
files
film
films
fimbristylis
final
finally
finals
finance
financial
find
finder
fine
finland
fire
first
fischer
fish
fishbase
fisher
fishes
fissidens
five
flag
flash
fleet
fleming
fletcher
fleutiaux
flight
flora
florence
florida
flow
flower
floyd
fly
flying
fm
fo
focus
following
food
foot
football
for
forbes
force
forces
ford
foreign
forest
forever
form
format
formation
former
formosa
forms
formula
forster
fort
fortschreibung
fortune
forum
forward
fossil
foster
found
foundation
four
fourth
fox
fr
fra
frac
franc
france
francesco
franch
franche
francis
francisco
franco
frank
frankfurt
franklin
franz
fraser
frazioni
fre
fred
frederick
free
freedom
freeman
french
freshwater
friday
friedman
friedrich
friend
friends
friese
frigate
fritz
froese
from
front
frost
frullania
ft
fu
fuji
fujiwara
full
fun
function
fund
funet
further
fury
futsal
future
fz
g
ga
gabon
gabriel
gaga
gai
gal
gala
galaxy
galicia
galileo
galium
gallery
gam
game
gamer
games
gamespot
gaming
gamma
gan
gang
gao
gaon
garci
garcia
garcinia
garden
gardens
gardiner
gardner
garonne
gary
gas
gate
gates
gay
gazette
gazetteer
gb
gc
gdan
gdp
ge
gebaseerd
gemeinden
gen
gender
gene
genera
general
generation
genesis
genetic
genetics
geneva
genome
genomics
gentiana
gentianella
genus
geoffrey
geographic
geography
geological
geometridae
geonames
georg
george
georges
georgia
ger
geraadpleegd
gerais
gerald
geranium
germain
german
germany
gertsch
geschichte
geschlecht
get
gets
getting
gfk
ghana
ghe
ghen
ghi
ghost
gi
gia
giai
giam
gian
giang
giant
giao
gibraltar
gibson
gie
gieo
gil
gilbert
gill
gio
gioan
giovanni
girl
girls
giu
giun
giuse
giuseppe
give
given
gives
glabra
gladiolus
glasgow
glass
glee
glenn
global
globe
globiz
glochidion
glory
gm
gmbh
gmina
gmt
gnu
go
goal
god
goes
gofas
going
gold
golden
goldman
golf
gom
gomez
gone
gonza
good
google
gordon
got
gothic
gov
government
governor
gp
gr
grace
gracilis
gracillariidae
graham
gram
grammitis
grammy
grand
grande
grandiflora
grandis
grant
gray
gre
great
greater
greatest
greece
greek
green
greene
greenland
greenwood
greg
gregory
grevillea
grey
griseb
ground
group
groups
grove
growth
grundlage
gruzia
gs
gt
gu
guadalcanal
guam
guardian
guatemala
guez
guide
guinea
guinness
guitar
gulbarga
gulf
gun
guo
gus
gustav
guy
guyana
gyrinidae
gđ
gđc
h
ha
habenaria
habsburg
had
hadena
hagrid
hai
haiti
hal
half
halictidae
hall
hallan
ham
hamburg
hamilton
hampshire
hampson
han
hancinema
hand
handbook
hands
hang
hangul
hanh
hanja
hannah
hanoi
hans
hansen
hao
happy
har
hara
harald
hard
hardy
harold
harper
harris
harrison
harry
hart
harv
harvard
harvest
harvey
has
hassan
hat
haute
hauts
have
haven
having
hawaii
hawk
hay
hcm
hd
he
head
health
heart
heat
heaven
heavy
hebrew
hee
heidelberg
heinrich
heinz
held
helen
helena
hell
hello
help
helsinki
helysegnevkonyv
hemiptera
hen
henderson
henri
henry
heo
hepburn
her
herald
herbert
here
heritage
herman
hermann
hermione
hero
heroes
het
hi
hidden
hie
hieracium
high
higher
highway
hilfe
hill
hills
him
himalaya
himself
hindu
hinh
hip
hiroshi
hiroshima
hirsuta
his
histoire
historia
historic
historical
histories
history
hit
hitler
hitpara
hits
hiv
hk
hlv
hms
ho
hoa
hoan
hoang
hogwarts
hoi
hokkaido
hold
holland
hollywood
holmes
holocaust
holstein
holt
holy
home
homo
hon
honda
honduras
hong
honor
hood
hook
hoon
hop
hope
hopkins
hormone
horn
horror
horse
hospital
host
hot
hotel
hotspur
houghton
hour
house
housing
houston
how
howard
however
hp
hq
htm
html
http
https
htv
hu
hua
huang
hubble
huber
hudson
hue
huffington
hugh
hughes
hugo
hui
hull
human
humilis
hun
hung
hungary
hunt
hunter
huo
hurricane
huy
huye
huynh
hwa
hwang
hy
hydro
hydropsychidae
hye
hylaeus
hymenophyllaceae
hymenophyllum
hymenoptera
hyo
hypnaceae
hypnum
hyun
hđbt
hđnd
i
ia
ian
iata
iberia
ibm
ibn
ibrahim
ic
icao
ice
iceland
ichneumon
ichneumonidae
id
idaea
identification
identity
idol
ie
ieee
if
ifpi
ign
igor
ii
iii
il
ilbo
ilex
iliff
illinois
illustrated
im
image
images
imdb
impact
impatiens
imperial
implications
important
in
ina
inc
inch
incheon
includes
including
incorporated
independence
independent
index
india
indian
indiana
indica
indigofera
indo
indonesia
industrial
industry
ine
influence
info
informatie
information
infty
inga
inline
inn
insecta
insects
insee
inside
insider
insignis
instagram
institut
institute
institution
instituto
insularis
int
integrated
intel
intelligence
inter
interactive
intermedia
international
internationale
internet
interview
into
introduction
invalid
invasion
investigation
inwonertallen
io
ioc
ion
ios
iowa
ip
ipa
ipad
iphone
ipni
ipomoea
iran
iraq
ireland
iris
irish
iron
is
isaac
isbn
isis
islam
islamic
island
islands
iso
isopod
israel
issn
issue
issues
istanbul
istat
it
italia
italian
italy
itis
ito
its
itunes
iucn
iv
ivan
ix
ixora
iz
j
ja
jaaroverzichten
jack
jackson
jacob
jacoby
jacques
jae
jaeger
jakarta
jake
jam
jamaica
james
jamie
jan
jane
janeiro
janet
jang
january
japan
japanese
japonica
jason
java
jay
jazz
je
jean
jeanne
jeff
jefferson
jeffrey
jenkins
jennifer
jenny
jeong
jeremy
jerry
jersey
jerusalem
jesse
jessica
jesus
jet
jewish
jews
ji
jia
jim
jima
jimmy
jin
jo
joa
joachim
joan
job
joe
joel
johan
johann
johannes
john
johnny
johns
johnson
johnston
join
joins
joint
jon
jonas
jonathan
jones
jong
joo
joon
joongang
jordan
jorge
jose
josef
joseph
josh
joshua
journal
journey
joy
joyce
jp
jpg
jpl
jr
jstor
ju
juan
judith
jules
julia
julian
julie
julius
july
jump
jun
juncus
june
jung
juni
junior
jupiter
jura
just
justice
justin
juventus
k
ka
kadokawa
kai
kaiser
kali
kamen
kamikaze
kan
kane
kang
kannada
kansas
kara
karate
karen
karl
karnataka
kastamonu
kate
katy
kavkaz
kay
kazakhstan
kb
kbs
ke
keep
keith
kelly
kem
ken
kennedy
kenneth
kent
kentucky
kenya
keo
kepler
kevin
kew
key
keys
keyserling
kg
kh
kha
khai
kham
khan
khang
khanh
khao
khe
khen
khi
khie
khinh
khmer
kho
khoa
khoai
khoan
khoang
khoe
khu
khua
khue
khung
khuo
khuy
khuya
khuye
khuynh
ki
kia
kid
kids
kie
kiev
kikaku
kill
killed
killer
killing
kilo
kim
king
kingdom
kings
kinh
kirk
kiss
kit
kito
klein
km
kn
knight
knot
know
knowledge
known
ko
kobayashi
kobe
koch
kodansha
kolar
kon
kong
konya
korea
korean
kos
kosovo
kova
kr
kra
krako
kreise
kro
krym
ku
kuala
kunth
kuntze
kurt
kuwait
kv
kw
kwon
ky
kyle
kyo
kyoto
kyrgyzstan
kyu
kyung
kɑ
kɔ
kə
kəl
kən
l
la
lab
laboissiere
laboratory
laden
lady
lai
lake
lam
lambda
lambert
lan
lanceolata
land
landesamt
landesamtes
lane
lang
language
languages
lanh
lanka
lao
laos
lara
large
largest
larry
las
laser
lasioglossum
last
lastrea
late
later
latest
latifolia
latin
latinh
latino
latvia
lau
launch
launches
laura
lauren
laurence
laurent
law
lawrence
laws
lay
lazio
lb
le
lea
lead
leader
leaders
leads
league
learning
least
leave
leaves
lebanon
leconte
led
lee
leeds
left
legacy
legal
legend
legends
leicester
leiden
leipzig
leita
lejeunea
lejeuneaceae
lem
len
lena
lenin
leningrad
lennon
leo
leon
leonard
leonardo
leone
leopold
lepanthes
lepidoptera
lepindex
leptoceridae
les
lescharts
leslie
less
let
letter
letters
letzten
leucania
level
levi
lewis
leyte
lez
lg
lgbt
li
lia
liban
liberia
liberty
library
libya
lie
life
liga
light
ligue
like
likely
lil
lily
lim
lima
limited
limoniidae
lin
lincoln
linda
lindl
lindsaea
line
lines
linguistics
linh
link
linkin
links
linnaeus
linnean
linux
linyphiidae
lion
lionel
liparis
lisa
list
lista
listen
literature
little
litva
liu
live
liverpool
lives
liveshow
living
lkerung
lkerungsstand
lkerungsstandes
ll
llc
ller
lloyd
ln
lo
loa
loan
lobelia
local
location
lockheed
loe
log
logic
logo
loire
lombardia
lon
london
lonely
long
longifolia
longipes
look
lopez
lord
lorenzo
lorraine
los
loss
lost
lot
lotus
louis
louise
louisiana
love
low
lower
lp
ltd
lu
lua
luca
lucanidae
lucas
lucia
lucy
ludwig
luer
lui
luis
luke
lumpur
luna
lunar
lung
luo
lupin
lupinus
luther
luxembourg
luy
luye
luzon
ly
lycosidae
lynch
lynn
lyon
lə
m
ma
maart
mac
macdonald
macedonia
machine
macmillan
macromitrium
macrophylla
maculata
mad
madagascar
madagascariensis
made
madison
madonna
madrid
mae
magazine
magic
magical
magnolia
magyar
maha
mahasz
mai
mail
main
maine
major
make
makes
making
makoto
malawi
malaysia
malcolm
male
mali
malta
mama
mammal
mammals
man
management
manager
manchester
mang
manga
manh
manhattan
manila
manisa
manual
manuel
many
mao
map
maps
mar
marathon
marc
marcel
march
marco
marcus
mare
margaret
marginata
mari
maria
mariah
mariana
marie
marina
marine
marinespecies
marino
mario
maritime
mark
market
marketing
marne
maroc
marriage
mars
marseille
marshall
mart
marti
martin
maru
marvel
marx
mary
maryland
mas
masdevallia
mason
mass
massachusetts
master
masters
match
matches
materials
math
mathbb
mathbf
mathematical
mathematics
mathrm
matrix
matt
matter
matthew
mau
maurice
mauritius
max
maxillaria
maxim
maxwell
may
maya
mb
mbc
mbox
mc
mccartney
mcdonald
mcgraw
md
me
means
mecklenburg
med
medal
media
medical
medicine
medien
medieval
medvedev
meet
meeting
mega
megachile
megachilidae
melaleuca
melanotus
melbourne
mello
meloidae
member
members
memorial
memories
memory
men
menu
mer
mercedes
mercury
merr
merriam
mesochorus
message
messi
met
meta
metacritic
metal
meteorological
method
methods
metro
metropolitan
metz
mexicana
mexico
mey
meyer
meyrick
mez
mg
mhz
mi
mia
miami
michael
michel
michelle
michigan
miconia
micro
microphylla
microsoft
mid
middle
midway
mie
mig
might
miguel
mike
mikhail
mil
milan
milano
miles
military
mill
miller
million
mimosa
min
minas
mind
mine
minecraft
ming
minh
mini
minister
ministry
minnesota
minor
minsk
minuta
minutes
miq
miranda
mirror
miss
missile
missing
mission
mississippi
missouri
mit
mitchell
mitsubishi
mitt
mix
mk
ml
mm
mn
mnet
mo
mobile
mod
mode
model
models
modern
module
mohamed
mohammad
mohammed
moi
mojo
mol
moldova
molecular
mollis
mollusca
molophilus
moment
mon
monaco
money
mong
monica
monitor
monitoring
monolepta
monroe
monster
mont
montana
monte
montenegro
montgomery
month
monthly
monticola
montreal
mook
moon
moore
moraceae
mordellidae
mordellistena
more
morgan
mori
morning
morris
morrison
morton
moscow
moselle
moskva
most
mother
moths
motion
motor
motors
mound
mount
mountain
move
movement
movie
movies
mozambique
mozart
mp
mph
mr
mrs
ms
mt
mtv
mu
mua
much
mueang
muell
muhammad
multi
multiple
mumbai
mun
munich
municipal
municipalities
municipality
muo
murder
muricidae
murphy
murray
mus
muse
museum
music
musical
must
muzeum
mv
mw
my
myanma
myanmar
myers
myrcia
myrmeleontidae
mystery
myth
mɑ
mə
n
na
nach
nacional
nad
nadal
nagar
nagasaki
nagoya
nai
nakamura
nakhon
nam
name
named
names
namibia
nan
nana
nancy
nang
nanh
nano
nao
napole
napoleon
napoli
naruto
nasa
nat
natalie
nathan
nation
national
nations
native
nato
natri
natur
natural
nature
nava
naval
naver
navsource
navy
nay
nba
nbc
ncbi
nchen
nchez
nct
nd
ndez
ne
near
nebraska
neckera
nederlandse
need
nees
neil
nelson
nen
neo
nepal
nephrodium
nepticulidae
nes
net
netflix
netherlands
network
networks
neuroptera
neuropterida
neutron
nevada
never
neville
new
newcastle
newfoundland
newman
newport
news
newspaper
newton
next
nez
ng
nga
ngai
ngang
ngao
ngay
ngc
nghe
nghi
nghie
ngo
ngoa
ngoan
ngon
ngu
nguo
nguy
nguye
nguyen
nh
nha
nhai
nham
nhan
nhanh
nhau
nhe
nhi
nhie
nhk
nho
nhu
nhua
nhue
nhung
nhuo
nhuye
ni
nia
nicaragua
nice
nicholas
nick
nicolas
nicole
nicolson
nie
nielsen
niger
nigeria
night
nigra
nike
nikolai
nile
nin
nine
ninh
ninja
nintendo
nippon
nitida
nito
nixon
nj
nk
nl
nm
nme
nmi
no
noa
noah
nobel
nobita
noble
noctuidae
noe
noel
noi
nokia
nom
nomada
nominations
nominees
non
nong
nord
norfolk
norman
normandie
normandy
north
northern
norton
norway
norwich
nos
not
note
notes
nothing
notices
nouvelle
nov
nova
novel
november
now
npr
nq
nr
ns
nsnd
nsu
nt
nther
nu
nuclear
number
numbers
nung
nuo
nv
nxb
ny
nz
nđ
nə
nəs
o
oa
oai
oan
oanh
obama
oberonia
object
objects
obscura
observations
observatory
observer
occidentalis
occitanie
occupancy
occurrence
ocean
oclc
ocotea
october
od
oda
odonata
of
off
office
official
oficia
og
oh
ohio
oil
ois
oise
ok
okinawa
oklahoma
oktober
old
olga
oliver
olivia
olivier
olympia
olympic
olympics
om
oman
omar
omega
on
once
oncidium
one
onefivenine
ong
online
only
ono
ontario
onthophagus
op
open
opening
opens
opera
operation
operations
ophiorrhiza
or
oral
orange
orbital
orchestra
orchid
orchidacearum
order
orders
oregon
org
organ
organic
organization
oricon
oriental
orientalis
origin
original
origins
orlando
orleans
ornithogalum
orrell
orthotrichum
orum
os
osaka
oscar
osen
oslo
osprey
ost
oswald
other
others
otto
ottoman
ou
our
out
ouvrard
ova
over
overview
owen
own
oxalis
oxford
oxide
oxy
oxyopes
oxytropis
oz
oʊ
p
pa
pablo
pacific
paepalanthus
page
pages
paglinawan
pain
pakistan
palace
palau
palermo
palestine
palicourea
pallida
palmer
palomar
pan
panama
panchayat
pandanus
panicum
panther
panzer
paolo
paper
papers
papilio
papua
par
para
paradise
paraguay
pardosa
paris
park
parker
parks
parliament
part
parthia
partial
party
parviflora
pas
pascal
pass
passiflora
past
pat
path
patients
patricia
patrick
patterns
paul
paula
paulo
pauly
pavel
pavetta
pax
pay
pays
pbs
pc
pdf
pe
peace
peak
pearl
pearson
peckham
pedicularis
pedley
pedro
pen
penguin
pennsylvania
people
peperomia
per
percy
perfect
performance
period
pero
perry
person
personal
perspective
perspectives
peru
peruviana
pete
peter
peterburg
peters
petersburg
petit
pez
pfalz
pg
pgs
ph
pha
phan
phanh
phantom
phanxico
phao
phaolo
pharaon
phase
phe
phi
phie
phil
philadelphia
philip
philipin
philippe
philippine
philippines
phillips
philodendron
philodromus
philosophy
phim
phnom
pho
phoenix
pholcidae
phone
phong
phonographic
photo
photon
photos
php
phu
phun
phyllanthus
phylogenetic
phylogeny
physical
physics
physiology
pi
piano
pic
picture
pictures
piece
piedmont
pierre
pin
pink
piper
pitcairnia
pitkin
pitman
pittsburgh
pl
pla
place
places
plagiochila
plan
planck
plane
planet
planetary
planets
planning
plans
plant
plants
plasma
platform
platia
platinum
platnick
play
player
players
playstation
plaza
plectranthus
pleopeltis
pleurothallis
plos
plus
pm
pmc
pmid
pnas
po
poa
pocket
point
points
poke
pol
poland
police
policy
polish
political
politics
polygala
polypodiaceae
polypodium
polystachya
polystichum
pomerania
pomeranian
poore
pop
pope
popular
population
por
port
portal
porter
portland
porto
portrait
portsmouth
portugal
position
possible
post
potential
potter
pottiaceae
pound
pour
powell
power
poznan
pp
pr
practice
pradesh
prague
praha
pre
premier
premiere
present
presi
president
presidential
presl
press
prevention
preview
price
pridgeon
primary
prime
primula
prince
princess
princeton
principles
print
printing
private
prix
prize
pro
problem
problems
proceedings
process
producer
product
production
productions
products
professional
professor
profile
program
programme
programming
progress
project
prometheus
properties
protection
protein
protests
proton
provence
province
provisional
ps
psi
psychology
psychotria
pt
pteridaceae
pteris
pterolophia
ptolemaios
pu
pub
pubescens
publ
public
publication
publications
published
publisher
publishers
publishing
puerto
punctata
punjab
punk
pure
pusilla
put
putin
putnam
puya
pv
pyotr
pyraloidea
pyrausta
pyre
pɑ
pə
pɜ
q
qaeda
qatar
qh
qu
qua
quai
quality
quan
quang
quanh
quantum
quarterly
quay
que
quebec
queen
queens
queensland
quen
quercus
quest
question
questions
qui
quid
quo
quy
quye
qđ
r
ra
race
rachel
racosperma
radar
radio
radula
raf
rafael
rai
rain
rainbow
rainer
raion
raions
ralph
ram
rama
ran
randall
random
randy
rang
range
rangers
rangle
ranh
ranier
ranking
rankings
ranunculus
rao
rap
rapper
rare
rasmussen
rate
rather
ratings
ration
rau
raven
ravenna
raw
ray
raymond
razowski
rc
rchb
rd
re
read
reader
reading
ready
reagan
real
reality
really
rebecca
recent
receptor
record
recorded
recording
records
red
redistricting
reed
reeder
reef
reeve
ref
reference
references
region
regional
register
reich
reid
related
relations
relationship
relationships
release
released
releases
religion
religious
remix
ren
renaissance
rene
reo
report
reporter
reports
reptile
republic
res
research
reserve
resident
resolution
resource
resources
response
results
reticulata
retrieved
return
returns
reuters
rev
reveal
revealed
reveals
review
reviews
revised
revision
revolution
rex
rey
reynolds
rez
rgen
rheinland
rhin
rhine
rho
rhodes
rhododendron
rhynchitidae
rhynchospora
ri
ria
ric
rica
ricardo
rice
rich
richard
richards
richardson
richmond
rick
rico
rider
ridl
rie
right
rights
rihanna
rin
ring
rio
rise
rising
risk
rita
river
rk
rlts
rm
rn
rna
ro
road
rob
roberson
robert
roberto
roberts
robertson
robin
robinson
robot
robusta
rock
rocket
rocky
rodri
roger
rogers
roi
roland
role
roll
rolling
rom
roma
roman
romance
romania
rome
ron
ronald
ronaldo
rong
room
roosevelt
root
rosa
rose
rosenberg
roskov
ross
roth
rothschild
rotten
round
route
routledge
rovers
row
roy
royal
rpm
rs
rsssf
rt
rttemberg
ru
rubus
rudolf
rufescens
ruiz
rule
rules
run
rung
running
ruo
rural
rus
rush
russell
russia
russian
ruth
rwanda
ry
ryan
ryo
ryu
rɪ
s
sa
sabah
sachsen
safety
saga
sahara
sai
said
saigon
sailor
saint
sainte
saipan
sakura
sale
sales
salix
salt
salticidae
salvador
salvia
sam
same
samoa
samsun
samsung
samuel
samurai
san
sang
sanh
sankt
sant
santa
santiago
santo
santos
sao
sar
sara
sarah
sarawak
sars
satellite
sato
satoshi
saturday
saturn
sau
saudi
saunders
savage
save
saxifraga
saxon
say
says
sbs
sc
scale
scandal
scarabaeidae
scene
scharpf
schedule
schefflera
schimmel
schleswig
schltr
schmidt
schneider
scho
school
schotte
schulenberg
schum
schuster
schwarz
sci
science
sciences
scientific
scientists
scincidae
scoble
scoparia
scopula
score
scores
scotland
scott
scottish
screen
script
scutellaria
sd
se
sea
sean
search
season
seattle
sebastian
sec
second
secret
secretary
secrets
section
security
sedum
see
seems
seen
sega
seine
selaginella
selected
selection
selena
self
selling
sematophyllaceae
sematophyllum
semiothisa
sen
senate
senecio
senior
sentai
seo
seok
seoul
september
serbia
sergei
serie
series
server
service
services
set
seth
sets
seung
seven
several
sevilla
sex
sexual
seychelles
sfn
sha
shadow
shah
shakespeare
shall
shanghai
share
sharp
shaw
she
sheep
sheeran
sheet
sheffield
shell
sherman
shi
shield
shin
ship
ships
sho
shogakukan
shooting
shop
short
shot
should
show
shows
shu
shueisha
si
siberia
sicilia
sick
side
sie
sierra
sigma
sign
signs
silene
silent
silesia
silva
silver
sim
similis
simon
simplex
simpson
sims
sin
sina
since
sinensis
sing
singapore
singer
singh
single
singles
singole
sinh
sir
sirius
sister
site
sites
sivas
six
size
sjɔ
sk
ska
ski
sky
sl
sla
slam
slav
sleep
slovak
slovakia
slovenia
sm
smackdown
small
smart
smith
smithsonian
snake
snape
snow
so
soa
soc
soccer
soccerbase
soccerway
social
society
socorro
sofia
software
soha
soi
sol
solanum
solar
solo
solomon
somalia
some
somebody
someone
something
somme
son
song
songs
sono
sons
sony
soo
soon
sophie
soul
sound
soundtrack
source
sources
sous
south
southampton
southeast
southern
soviet
sowerby
sp
space
spacex
spain
spanish
sparta
spears
special
specialist
species
speciosa
speech
speed
spencer
spermacoce
sphagnum
sphecidae
sphingidae
spider
spiders
spilosoma
spin
spirit
sport
sporting
sports
spring
springer
springs
spy
sqrt
squad
square
sr
sri
ss
st
sta
stachys
stade
stadium
staff
stage
stalin
stalingrad
stan
stand
standard
standl
stanford
stanisław
stanley
star
stars
start
state
statement
states
station
statistical
statistics
statistik
statistisches
statoids
stats
status
stay
ste
steam
steel
stefan
stelis
step
stephani
stephen
steve
steven
stevens
stewart
steyerm
stichtage
still
stipa
stock
stockholm
stone
stop
store
stories
storm
story
str
straits
strand
strange
strasbourg
strategic
strategy
stream
streaming
street
strike
strong
structure
struktura
stuart
stub
student
students
studies
studio
studios
study
stuttgart
style
su
sua
sub
success
such
sudan
sue
sugar
suk
sul
sullivan
sultan
sum
sumatra
summary
summer
summit
sun
sunday
sunderland
sung
suo
super
supplement
support
sur
surface
survey
sus
susan
suy
suzuki
sv
sw
sweden
swedish
sweet
swift
swiss
swisscharts
switch
switzerland
sword
sy
sydney
symphony
syndrome
synopsis
synthesis
syria
syrphidae
system
systematic
systematics
systems
syzygium
szczecin
sđd
sɑ
sə
sɛ
sɜ
t
ta
tab
tabelle
table
tachinidae
tae
tag
tai
tail
taipei
taiti
taiwan
tajikistan
takahashi
take
takes
tale
talent
tales
taliban
talk
talks
tam
tambon
tamil
tan
tanaka
tang
tank
tanzania
tao
target
task
tasmania
taxapad
taxdetails
taxi
taxon
taxonomic
taxonomy
tay
taylor
tb
tc
tcn
te
team
teams
teaser
teau
tech
technical
technology
tectaria
ted
teen
tehran
tehsil
tel
telegraph
television
tell
tem
temple
ten
tennessee
tennis
tenuis
tephrosia
teresa
term
terrestrial
territorial
territory
terry
teryt
tes
tesla
test
tetragnatha
texas
text
th
tha
thai
thailand
tham
thames
than
thang
thanh
thao
that
thay
the
theatre
their
thelypteridaceae
thelypteris
them
theme
then
theo
theodore
theory
therapy
there
theridiidae
theridion
these
theta
they
thi
thie
thing
things
thinh
think
third
this
tho
thoa
thoi
thomas
thomisidae
thompson
thomson
thon
thong
thorell
those
though
thought
thousand
thpt
threatened
three
through
thu
thua
thue
thung
thuo
thuy
thuye
ti
tia
tico
tie
tien
tiger
til
tillandsia
tim
timberlake
time
times
timor
timothy
tin
tinh
tipula
tipulidae
titan
title
tnhh
to
toa
toan
tobago
today
todd
together
tokat
tokugawa
tokyo
tom
tomatoes
tomentosa
tommy
tomorrow
tong
tonight
tony
too
top
tops
torino
toronto
torres
tortricidae
tortula
total
tottenham
touch
tour
tourism
tournament
towards
tower
town
towns
township
toyota
tp
tr
tra
track
tracks
trade
trai
trailer
train
training
trang
tranh
trans
transactions
transfer
translated
translation
transport
trao
travel
tre
treatment
tree
trends
treo
trg
tri
trial
tribune
trichomanes
trichoptera
trick
trie
trinh
trinidad
triple
tro
trong
trophy
tropical
tropicos
tru
trua
true
trump
trung
trust
truth
truy
truye
ts
tsn
tt
ttg
tu
tua
tucker
tue
tum
tumkur
tung
tunisia
tuo
tuoitre
turkey
turkish
turkmenistan
turn
turner
tuy
tuye
tv
tvb
tw
tweet
twenty
twice
twitter
two
ty
tyler
type
typhoon
tz
tɑ
tɔ
tə
tɜ
tɪ
u
ua
uae
ubnd
ubtvqh
ue
uefa
ufc
ufo
uganda
uit
uk
ukraina
ukraine
ulithi
ultimate
ultra
ultratop
um
un
una
und
under
underground
understanding
une
unesco
ung
unicode
union
unit
united
units
univ
universal
universe
university
unix
unknown
until
unveils
uo
up
update
updated
upon
upper
urani
urb
urban
url
uruguay
us
usa
usb
usd
usda
use
used
user
usgs
using
uss
utah
utc
uttar
uy
uye
uzbekistan
v
va
vaccine
vai
val
valencia
valle
valley
value
vampire
van
vancouver
vang
var
variety
various
vatican
vay
ve
vec
vecto
vector
vegas
vel
ven
veneto
venezia
venezuela
venice
venus
ver
vera
verbandsgemeinden
verde
verge
verlag
versailles
version
very
vff
vg
vi
via
vice
vicia
victor
victoria
victory
video
videos
vie
vienna
viet
vietnam
vietnamese
vietnamnet
viettel
view
vii
viii
viking
viktor
villa
village
villages
ville
vin
vincent
vinden
vinfast
vinh
viola
violence
violin
virgin
virginia
viridis
virtual
virus
visa
vision
visit
vista
visual
vitamin
viz
vladimir
vn
vnexpress
vo
voci
vogue
voi
voice
voivodeship
vol
voldemort
volume
von
vong
vote
vov
vriesea
vs
vt
vtc
vtv
vu
vua
vui
vuo
vy
vɜ
w
wa
wade
wagner
wake
wales
walk
walker
walking
wall
wallace
walt
walter
wan
wand
wanderers
wang
want
wants
war
ward
warfare
warner
warning
warren
warriors
wars
warsaw
warszawa
was
washington
wat
watanabe
watch
water
waters
watson
watts
wave
way
wayback
wayne
we
weapons
weasley
weather
web
webb
weber
website
webster
week
weekend
weekly
wei
weibo
weise
welcome
well
wellington
wells
welsh
were
werner
wesley
west
western
westminster
what
wheeler
when
where
which
while
white
whiteflies
whitley
whitney
who
why
wi
wide
wien
wife
wii
wiki
wikimedia
wikipedia
wikispecies
wild
wildlife
wiley
wilhelm
will
willd
william
williams
willis
wilson
wimbledon
win
wind
windows
wing
wings
winner
winners
wins
winston
winter
winvnkey
wisconsin
with
within
without
wittmer
wizard
wo
wolf
wolfgang
woman
women
won
wonder
wong
woo
wood
woods
word
words
work
working
works
world
worldwide
worms
worth
would
wrestling
wright
writer
writing
written
wta
wu
wwe
www
x
xa
xanh
xanthorhoe
xao
xay
xbox
xe
xem
xen
xi
xia
xico
xie
xii
xiii
xin
xinh
xiv
xix
xls
xo
xoa
xoay
xong
xp
xu
xua
xung
xuo
xuye
xv
xvi
xvii
xviii
xx
xyris
xysticus
y
ya
yahoo
yak
yale
yamato
yan
yang
ye
year
years
yellow
yemen
yeon
yes
yet
yg
yi
yin
yo
yokohama
yokosuka
yong
yoo
yoon
york
you
young
your
youth
youtube
yu
yuan
yunnanensis
yuri
z
za
zambia
ze
zealand
zemi
zensus
zero
zeus
zh
zhang
zhu
zhukov
zi
zimbabwe
zing
zingiber
zingiberaceae
zmir
zone
zoological
zoology
zootaxa
zu
zur
{
|
}
~
¡
£
¥
§
©
«
­
®
¯
°
±
²
³
´
µ
·
º
»
¼
½
¾
¿
×
æ
ða
ðo
÷
đ
đa
đai
đam
đan
đang
đao
đau
đe
đem
đen
đeo
đh
đi
đie
đinh
đo
đoa
đoan
đt
đu
đua
đun
đuo
ı
ł
ŋ
ǝ
ɑ
ɔ
ə
əl
ən
ɛ
ɜ
ɡ
ɪ
ɪk
ɪn
ʁa
ʁe
ʁi
ʃ
ʃən
ʒ
ʔ
ʰ
ʲ
ʹ
ʻ
ʼ
ʿ
ˈ
ˌ
ː
˥
˦
˧
˨
˩
̀
́
̂
̃
̄
̆
̇
̈
̉
̊
̋
̌
̓
̔
̚
̛
̣
̦
̧
̨
̯
̱
̸
͂
͡
α
β
γ
δ
ε
ζ
η
θ
ι
λ
μ
ν
ο
π
ρ
ς
σ
τ
φ
χ
ψ
ω
ϕ
ϵ
а
августа
б
более
в
внесении
времени
всероссии
вступил
г
газета
года
городских
д
днеи
дня
е
ж
за
закон
закона
и
изменении
истечении
исчислении
июля
июня
к
л
м
н
на
населе
населением
населения
не
нных
о
об
округов
онных
онов
опубликован
опубликования
от
официального
п
перен
перепись
по
поселении
после
правительство
пунктов
р
раи
ред
россии
с
сельских
силу
ская
скои
составе
субъектов
т
тысячи
у
ф
федерального
федеральныи
федеральных
федерации
фз
х
центров
человек
численность
шестидесяти
я
і
ְ
ִ
ַ
ָ
ּ
ה
ا
ل
م
و
ي
َ
ُ
ِ
ّ
ْ
ٓ
ٔ
ٕ
ं
क
त
द
न
म
य
र
व
स
ा
ि
ी
ु
े
ो
्
া
ি
ে
্
்
ก
ข
ค
ง
จ
ช
ซ
ด
ต
ท
น
บ
ป
พ
ม
ย
ร
ล
ว
ศ
ส
ห
อ
ั
า
ิ
ี
ึ
ื
ุ
ู
็
่
้
๊
์
་
ར
ི
ུ
ོ
က
င
န
မ
ာ
ိ
ု
ေ
း
်
ြ
공식
년
월
일
종합
ក
ត
ន
រ
ស
ា
ិ
ី
ុ
ំ
្
ᵊ
᷄
​
‌
‎
‐
‑
‒
–
—
―
‖
‘
’
‚
“
”
„
†
‡
•
…
‧
′
″
⁄
⁡
€
℃
ℏ
№
™
←
↑
→
↓
↔
↷
∀
∂
∇
∈
∑
−
∗
∘
√
∞
∠
∫
∼
≈
≡
≤
≥
⋅
⋮
⋯
③
④
⑦
─
━
□
▲
△
○
★
☆
☎
♀
♂
♥
♭
♯
➙
⟨
⟩
⟶
⺀
⺄
⺆
⺈
⺊
⺌
⺕
⺝
⺸
⺼
⿰
⿱
⿲
⿳
⿴
⿵
⿶
⿷
⿸
⿹
⿺
⿻
、
。
々
〈
〉
《
》
「
」
『
』
【
】
〜
〢
あ
い
う
え
お
か
き
く
け
こ
さ
し
す
せ
そ
た
ち
っ
つ
て
と
な
に
ね
の
は
ひ
ふ
へ
ほ
ま
み
む
め
も
ゃ
や
ゅ
ゆ
ょ
よ
ら
り
る
れ
ろ
わ
を
ん
゙
゚
ァ
ア
ィ
イ
ウ
ェ
エ
ォ
オ
カ
キ
ク
ケ
コ
サ
シ
ス
セ
ソ
タ
チ
ッ
ツ
テ
ト
ナ
ニ
ネ
ノ
ハ
ヒ
フ
ヘ
ホ
マ
ミ
ム
メ
モ
ャ
ヤ
ュ
ユ
ョ
ヨ
ラ
リ
ル
レ
ロ
ワ
ン
・
ー
㇁
㇂
㇄
㇇
㇈
㇉
㇓
㐁
㐄
㐅
㐌
㐫
㐬
㐭
㐮
㐱
㑒
㒵
㒸
㒼
㓁
㓞
㔾
㕛
㕣
㖾
㘝
㚅
㚇
㚔
㚘
㝉
㝡
㝴
㝵
㞋
㞢
㞷
㠩
㠭
㠯
㡀
㡭
㡿
㢲
㢴
㣇
㣺
㥯
㪅
㫄
㫐
㫒
㫺
㬅
㬎
㬥
㬰
㲋
㳄
㷠
㸒
㸚
㸦
㼌
㼲
㽞
㿟
䀠
䂞
䍃
䏍
䒑
䖍
䖒
䖝
䖵
䙴
䚻
䜌
䝿
䡛
䧹
䪞
一
丁
丂
七
丄
丅
丆
万
丈
三
上
下
丌
不
与
丏
丐
丑
专
且
丕
世
丘
丙
业
东
丞
丢
丣
两
严
並
丨
丩
个
丫
丬
中
丮
丰
丱
串
临
丵
丶
丷
丸
丹
为
主
丽
举
丿
乀
乂
乃
久
乆
乇
么
义
之
乌
乍
乎
乏
乐
乑
乔
乖
乗
乘
乙
乚
乛
乜
九
乞
也
习
乡
书
乱
乳
乾
亀
亂
亅
了
亇
予
争
事
二
亍
于
亏
亐
云
互
亓
五
井
亘
亚
亜
亞
亟
亠
亡
亢
交
亥
亦
产
亨
亩
享
京
亭
亮
亯
亰
亲
亳
亶
亷
人
亻
亼
亾
什
仁
今
介
仌
仍
从
仐
仑
仒
仓
仕
他
付
仙
仝
代
令
以
仪
们
仮
仰
仲
件
任
企
伊
伏
伐
休
众
会
伝
伟
传
伦
伯
但
位
住
佐
体
何
佘
余
佛
作
你
佥
佳
使
來
侈
例
侌
侍
侖
供
依
侯
侵
便
係
俊
保
俞
信
修
俱
倉
個
倍
候
倠
倫
停
健
偵
偶
傅
備
催
傳
僉
像
僕
僧
儀
億
儒
優
儿
兀
允
兂
元
兄
充
兆
兇
先
光
兊
克
兌
免
兑
兒
兓
兔
党
兜
兟
入
內
全
兩
兪
八
公
六
兮
兰
共
关
兴
兵
其
具
典
兹
养
兼
冀
冂
冃
冄
内
円
冈
冉
冊
冋
册
再
冎
冏
冐
冒
冓
冖
冗
冘
写
军
农
冝
冠
冡
冥
冫
冬
冰
决
冷
准
几
凡
凢
凤
凰
凵
凶
凷
凸
凹
出
击
函
凾
刀
刁
刂
刃
刄
刅
分
切
刊
刍
刑
刕
刖
列
刘
则
创
初
別
利
别
到
制
刺
刻
則
削
剌
前
剛
剡
剣
剧
副
創
剽
劇
劉
力
办
功
加
务
劦
动
助
劫
劳
劵
勃
勇
勉
勒
動
務
勝
勞
勢
勤
勹
勺
勻
勾
勿
匀
匂
包
匆
匈
匊
匋
匍
匕
化
北
匚
匝
匡
匪
匱
匸
匹
区
医
匽
匿
區
十
卂
千
卄
卅
卆
升
午
卉
半
卌
华
协
卑
卒
卓
協
单
卖
南
単
博
卜
卝
卞
占
卡
卢
卣
卤
卦
卩
卪
卫
卬
卯
印
危
即
却
卵
卷
卸
卻
卿
厂
厃
厄
历
厈
厉
厌
厓
厘
厚
原
厤
厥
厨
厭
厲
厶
厷
厸
去
厼
厽
县
叀
参
參
叅
又
叉
及
友
双
反
叐
发
叒
叔
叕
取
受
变
叚
叜
叟
口
古
句
另
叩
只
召
可
台
叱
史
右
叵
叶
号
司
叹
吂
各
吅
合
吉
吊
吋
同
名
后
吏
向
吕
君
吝
吞
否
含
启
吳
吴
吹
吾
呂
呆
呈
告
员
呙
周
味
呼
命
咅
和
咎
咠
咢
咨
咸
咼
哀
品
哈
哉
員
哥
哲
唐
唯
唱
商
啇
問
啚
啬
啻
善
喇
喜
喬
單
喿
嗇
嗣
嘉
器
噩
嚴
囊
囗
囘
囙
囚
四
回
囟
因
团
団
囧
囬
园
困
囱
围
囷
固
国
图
圂
圅
國
圍
園
圓
圖
團
土
圡
圣
圥
在
圭
地
圶
场
圼
坂
均
坐
坒
坚
坤
坴
垂
型
垔
垚
埀
埋
城
域
埶
執
基
堂
堅
堆
堇
堯
報
場
塔
塞
境
墓
增
墨
壘
士
壬
壯
声
売
壳
壴
壹
壺
壽
夂
处
夅
夆
备
変
夊
夋
夌
复
夏
夒
夕
外
夗
夘
多
夜
夢
大
夨
天
太
夫
夬
夭
央
失
夲
头
夷
夸
夹
夻
夾
奂
奄
奇
奈
奉
奋
奎
奏
奐
契
奓
奔
奕
奖
奚
奞
奠
奢
奥
奭
女
奴
奻
好
如
妃
妄
妇
妖
妙
妟
妥
妹
妻
妾
始
姐
姑
姓
委
姚
姜
姫
姬
威
娄
娘
娱
婁
婉
婚
婦
婴
媒
媛
嫁
嫔
嬪
嬰
嬴
子
孑
孔
孕
孖
字
存
孙
孚
孛
孝
孟
季
孤
学
孫
孱
學
宀
宁
宂
它
宅
宇
守
安
宋
完
宏
宓
宗
官
宙
定
宛
宜
宝
实
実
宠
客
宣
室
宪
宫
宮
宰
害
家
容
宾
宿
寄
寅
密
富
寒
察
實
寧
審
寫
寬
寮
寶
寸
对
寺
寻
导
寽
対
寿
封
尃
射
将
將
專
尉
尊
尋
尌
對
小
少
尒
尓
尔
尖
尗
尚
尞
尢
尣
尤
尧
尨
尭
就
尸
尹
尺
尻
尼
尽
尾
尿
局
居
屈
届
屋
屎
屏
屑
展
屖
屚
属
屠
屡
履
屬
屮
屯
屰
山
屵
屾
岁
岂
岑
岛
岡
岩
岳
岸
峯
峰
島
崇
崎
崑
崔
崖
崙
崩
嵬
嶲
巂
巛
川
州
巟
巠
巢
巤
工
左
巧
巨
巩
巫
差
己
已
巳
巴
巷
巸
巻
巽
巾
巿
帀
市
布
师
希
帚
帛
帝
带
師
席
帶
常
幕
干
平
年
幵
并
幷
幸
幺
幻
幼
幽
幾
广
広
庄
庆
床
序
库
应
底
店
庙
庚
府
废
度
座
庫
庭
庶
康
庸
廉
廌
廛
廟
廣
廩
廴
延
廷
建
廾
廿
开
弁
弃
弄
弇
弋
式
弓
弔
引
弗
弘
弜
弟
张
弥
弦
弱
張
強
强
弾
彊
彌
彎
彐
彑
归
当
彔
录
彖
彗
彝
彡
形
彥
彦
彧
彩
彬
彭
彰
影
彳
役
彼
往
征
待
律
後
徐
徒
得
徙
從
御
復
微
徳
徵
德
徽
心
忄
必
忌
忍
志
忝
忠
忩
快
念
忽
忿
怀
怒
思
怠
急
性
怪
怱
总
恆
恋
恐
恒
恩
恪
恭
息
恶
悉
患
悤
悲
悶
悼
情
惟
惠
惡
惢
想
愁
愈
意
愛
感
慈
慎
慕
慧
慮
慶
憂
憲
應
懷
懿
戀
戈
戉
戊
戋
戌
戍
戎
戏
成
我
戒
戔
或
战
戚
戠
戢
戦
截
戰
戲
戴
戶
户
戸
戹
戼
戾
房
所
扁
扇
手
扌
才
打
托
执
扬
批
承
技
投
抗
折
报
担
拉
拍
拓
拔
拜
拳
拿
持
指
挑
振
据
授
掌
排
探
接
推
提
揚
揭
援
搜
摩
撃
播
支
攴
攵
收
攸
改
攻
放
政
敄
故
敏
救
敕
敖
敗
教
敝
敞
敢
散
敦
敫
敬
数
整
敷
數
斂
文
斉
斊
斗
料
斤
斥
斩
斬
斯
新
方
於
施
斿
旁
旅
旋
族
旗
无
旡
既
旣
日
旦
旧
旨
早
旬
旱
旲
时
旾
昆
昇
昌
昍
明
昏
易
昔
昗
昜
星
映
春
昬
昭
是
昱
昴
昷
显
時
晃
晉
晋
晏
晓
晚
晨
普
景
晶
智
暑
暴
曇
曝
曩
曰
曲
曳
更
曷
書
曹
曼
曾
替
最
朁
會
月
有
朋
服
朔
朕
朗
望
朝
期
木
朩
未
末
本
札
朮
术
朱
朵
朶
机
朿
杀
权
李
杏
村
杜
束
条
来
杨
杰
東
杲
杳
松
极
析
林
枚
果
枝
枲
枼
柏
某
柔
查
柬
柰
柳
柴
栗
校
株
根
格
桀
桂
桃
案
桐
桑
桓
桜
档
桥
桼
梁
梅
條
梟
梦
梨
棋
棘
棠
棥
森
楊
楚
業
極
楽
概
榜
榮
様
樂
樊
標
横
樹
橋
機
權
欠
次
欢
欣
欮
欲
欶
欽
款
歆
歇
歌
歛
止
正
此
步
武
歨
歪
歮
歯
歰
歲
歴
歷
歸
歹
歺
死
殳
段
殷
殸
殹
殺
殻
殿
毅
毋
毌
母
每
毒
比
毕
毚
毛
毳
氏
氐
民
气
気
氣
水
氵
氶
氷
永
氺
氾
求
汉
汗
汝
汞
江
池
決
沃
沈
沓
沖
沙
沝
沢
河
油
治
泉
法
波
泣
泥
注
泰
泽
洋
洛
洞
津
洪
洲
活
派
流
济
浦
浩
浪
浮
海
消
淑
淡
淮
深
淳
清
渚
渠
渡
温
港
游
湃
湖
湯
湾
源
溪
溫
滅
满
滿
演
漢
漫
漸
潘
潮
澎
澤
澳
激
濟
瀬
灣
火
灬
灭
灰
灵
灷
炅
炎
炏
炗
炙
炭
点
為
烈
烏
烝
热
焉
無
焦
焱
然
煞
照
熊
熏
熙
熱
燕
營
燮
爆
爪
爫
爭
爯
爰
爱
爲
爵
父
爻
爽
爾
爿
片
版
牌
牙
牚
牛
牜
牟
牢
牧
物
牪
特
牽
犀
犬
犭
犮
犯
状
狂
狄
狊
狐
独
狺
猋
猒
猪
献
獎
獣
獨
獲
獻
玄
率
玉
王
玟
玨
现
珍
珎
珠
班
現
球
理
琴
瑜
瑞
瑟
瑩
環
瓜
瓦
甘
甚
生
產
産
用
甫
甬
田
由
甲
申
电
甶
男
甸
甹
町
画
甾
畀
界
畏
畐
留
畜
畟
畢
略
畧
畨
番
畫
異
畱
當
畺
畾
疆
疊
疋
疌
疏
疑
疒
疾
病
癶
癸
癹
発
登
發
白
百
皀
皃
的
皆
皇
皋
皐
皕
皮
皷
皿
盃
盆
盇
盈
益
盍
盎
监
盒
盖
盛
盟
盡
監
盤
盧
目
直
相
盾
省
眇
眉
看
県
眔
眞
真
眷
眼
眾
着
睘
督
睪
睿
瞏
瞢
瞿
矍
矛
矞
矢
矣
知
矦
短
石
研
破
硕
碎
碧
磊
磨
示
礻
礼
社
祐
祖
祝
神
祟
祥
票
祭
祿
禀
禁
禄
福
禧
禪
禮
禸
禹
禺
离
禽
禾
禿
秀
私
秃
秉
秋
科
秘
秝
秦
称
移
程
稟
種
稱
稿
穀
穆
穌
穴
究
穹
空
穿
突
窄
窒
立
竒
站
竜
竝
竟
章
童
端
竹
笑
笠
符
第
筆
等
答
策
简
箕
算
管
箴
節
篇
篤
篭
簡
籍
米
粉
粛
粟
粤
粦
粲
精
糞
糸
糹
系
紀
約
紅
納
純
級
素
索
紫
累
細
紹
終
組
経
結
絜
絫
統
絲
經
続
維
網
綿
総
線
編
縣
總
繇
繼
纍
纟
红
约
级
纪
纯
纳
线
组
绍
经
结
统
继
维
编
缶
网
罒
罔
罕
罗
罙
罡
罢
罪
置
署
罷
羅
羊
羌
羍
美
羔
羕
羗
羞
羡
羣
群
義
羲
羸
羽
翁
翏
習
翔
翕
翟
翠
翰
翼
耀
老
耂
考
者
耆
而
耎
耑
耒
耳
耴
耶
耷
聂
聊
职
联
聖
聚
聞
聯
聲
聶
職
聿
肀
肃
肅
肉
肖
肙
肥
肩
肯
育
肴
胃
背
胜
胡
胥
能
脊
脩
腾
膚
臣
臤
臧
臨
自
臬
臭
臯
臱
至
致
臺
臼
臽
臾
臿
舀
舂
舄
與
興
舉
舊
舌
舍
舒
舛
舜
舞
舟
航
般
船
艦
艮
良
色
艸
艹
艺
艾
节
芒
芔
芬
芮
花
芳
芸
芺
芻
苏
苔
苗
苟
若
苦
英
茂
范
茶
茸
荅
草
荒
荣
荼
莆
莊
莧
莫
获
莽
菆
菊
菐
菜
華
萌
营
萬
落
葉
著
葛
董
葬
葵
蒙
蒦
蒼
蓋
蓬
蓮
蓺
蔑
蔡
蕉
蕭
薄
薛
薦
薨
薰
藍
藏
藤
藥
藩
蘇
蘭
虍
虎
虐
虒
虔
處
虖
虗
虘
虚
虛
虜
虞
號
虫
虽
蚤
蚩
蜀
蜜
蟲
蠡
血
行
衍
術
衔
街
衛
衣
衤
补
表
衮
衰
袁
袞
被
袭
装
裕
製
褭
褱
襄
襾
西
覀
要
覃
見
規
覓
視
覧
親
覺
覽
觀
见
观
视
角
解
言
訁
訇
計
訊
訓
記
設
許
詔
試
詩
話
詹
認
誕
語
誠
誩
說
説
誰
調
談
請
論
諸
謂
謙
講
謝
識
警
議
護
變
讠
计
让
议
讯
记
许
论
设
诏
诗
诚
话
语
说
请
诸
调
谋
谓
谕
谢
谥
谨
谷
豆
豈
豊
豐
豕
豖
豙
象
豦
豩
豪
豫
豸
貇
貝
貞
貟
負
貢
貧
貪
貫
責
貳
貴
買
費
賀
賁
資
賈
賊
賏
賓
賔
賛
賜
賞
賢
賣
質
賴
贊
贝
贡
财
责
贤
质
贯
贲
贵
贺
资
赐
赖
赛
赞
赤
赦
赫
走
赵
起
超
越
趙
足
路
蹇
身
躬
車
軍
軎
軟
転
載
輔
輝
輦
輪
车
载
辛
辜
辞
辟
辥
辭
辰
辱
農
辵
辶
边
达
过
迎
运
近
还
这
进
远
连
述
迷
追
退
送
逆
选
逐
通
逝
速
造
逢
連
逮
週
進
遀
遂
遇
遊
運
過
道
達
遗
遠
遣
適
遵
遷
選
遺
還
邊
邑
邓
邕
那
邦
邪
郁
郎
郑
郡
部
郭
都
鄂
鄉
鄭
酉
酋
配
酒
酓
釆
采
里
重
野
量
金
釒
鈴
鉄
鉴
銀
錄
錢
錦
録
鎮
鐵
鑑
钅
钟
钦
钱
铁
银
镇
镛
長
镸
长
門
閃
閉
開
閏
閑
閒
間
閔
関
閣
閵
閻
闌
關
门
闭
问
间
闷
闻
阑
阜
阝
队
阮
防
阳
阿
际
陆
陈
降
限
陛
院
除
陰
陳
陵
陶
陸
陽
隆
隊
隋
際
隡
隨
隱
隶
隹
隺
隻
隼
隽
难
雀
雁
雄
雅
集
雈
雋
雍
雐
雔
雙
雚
雜
雝
離
難
雨
雩
雪
雲
零
雷
電
需
震
霍
霜
霝
霞
露
霸
靈
靑
青
靖
静
靜
非
靡
面
靣
革
韋
韓
韦
韩
韭
韯
韱
音
頁
頃
項
順
須
頗
領
頡
頭
頻
題
願
顛
類
顯
页
顺
颁
领
频
题
颜
额
風
风
飛
飞
食
飠
養
餘
館
饣
馆
首
香
馬
馮
駅
駦
騎
马
骨
體
高
髟
鬥
鬯
鬲
鬼
魂
魏
魔
魚
魯
鮮
鱼
鲁
鳥
鳳
鸟
鸿
鹵
鹿
麃
麗
麟
麥
麦
麻
黃
黄
黍
黎
黑
黒
黨
黹
黽
黾
鼎
鼓
鼠
鼻
齊
齋
齐
齒
齿
龍
龙
龜
龟
龠
龰
龱
龴
龵
龶
龷
龸
龹
ꞗ
者
艹
﻿
！
＆
（
）
，
－
．
／
０
１
２
３
４
５
６
８
：
；
？
ａ
ｅ
ｊ
ｏ
ｓ
ｔ
｜
～
�
𠀁
𠀃
𠀆
𠀉
𠀎
𠀐
𠁁
𠁣
𠂆
𠂇
𠂈
𠂉
𠂊
𠂋
𠂎
𠂒
𠂔
𠂛
𠂡
𠂢
𠂤
𠂬
𠂭
𠂹
𠃊
𠃋
𠃌
𠃍
𠃎
𠃑
𠃓
𠃔
𠃜
𠄌
𠄎
𠄠
𠄢
𠆢
𠆥
𠇍
𠈌
𠌵
𠓜
𠔉
𠔥
𠔼
𠔽
𠔿
𠕀
𠕁
𠕋
𠘧
𠘨
𠙻
𠙼
𠚏
𠚒
𠚤
𠚪
𠣏
𠤎
𠤕
𠥓
𠦄
𠦑
𠦝
𠧒
𠧗
𠧪
𠩺
𠪚
𠫓
𠫔
𠫤
𠬛
𠬝
𠬞
𠬢
𠬤
𠬶
𠮛
𠮦
𠮷
𠯑
𠱠
𠳮
𠷎
𡈼
𡉀
𡉵
𡌥
𡍮
𡏳
𡕒
𡕩
𡕰
𡖅
𡗗
𡗜
𡘆
𡘤
𡧱
𡨄
𡩧
𡬠
𡭽
𡰣
𡰥
𡰪
𡰯
𡰱
𡷈
𡸁
𡿨
𡿩
𡿪
𡿺
𢀖
𢀛
𢀩
𢁙
𢆉
𢆰
𢆶
𢇁
𢇇
𢉖
𢌬
𢌿
𢏚
𢑑
𢑚
𢖻
𢙣
𢛳
𢦏
𢦒
𢧵
𢼄
𢾕
𣁋
𣄼
𣅀
𣅽
𣍘
𣎳
𣎵
𣏋
𣏼
𣗥
𣥂
𣥖
𣦵
𣦼
𣧄
𣪊
𣪠
𣬉
𣳾
𣶒
𤇾
𤊽
𤐫
𤓰
𤔔
𤕨
𤣩
𤰇
𤰔
𤰞
𤴓
𤴔
𤽄
𥁑
𥁕
𥃦
𥃩
𥃭
𥇡
𥑟
𥘅
𥘈
𥝢
𥫗
𥱡
𦈢
𦉪
𦉬
𦉼
𦍌
𦍒
𦎧
𦐇
𦓔
𦔮
𦘒
𦙃
𦚏
𦣝
𦣞
𦣻
𦥑
𦥔
𦥯
𦨉
𦭝
𦰩
𧆞
𧈧
𧘇
𧰨
𧴪
𧴮
𧵩
𧾷
𨸏
𨾴
𩙿
𩠐
𩫏
𩵋
𪉷
𪜀
𪟽
𪠲
𪩲
𫇦
𫔭
𫜸
𫝀
𫠣
𫠩
𫢉
𫥞
𫩏
𫩠
𫪡
𫲽
𫶧
𬀷
𬐘
𬗌
𬙙
𬛸
𬜯
𬟩
𬯁
𬴘
𬺻
𬼉
𬼖
𭀰
𭁈
𭁨
𭅰
𭑈
𭕄
𭗼
𭤨
𭥫
𭻾
𮅕
𮊿
𮍌
𮍏
𮓗
𮥼
𮧮
廾
𰀁
𰀄
𰀈
𰀉
𰀕
𰀠
𰀡
𰀢
𰀪
𰁜
𰃮
𰆊
𰆘
𰋙
𰕎
𰢴
𰧭
𰯲
􀳦
00--
01--
02--
03--
04--
05--
06--
07--
08--
09--
36--
37--
40--
42--
43--
44--
45--
46--
47--
48--
49--
49054--
50--
51--
52--
53--
54--
55--
56--
57--
58--
59--
60--
61--
62--
63--
64--
65--
66--
67--
68--
69--
70--
71--
72--
73--
74--
75--
76--
77--
78--
79--
80--
81--
82--
83--
84--
85--
86--
87--
88--
89--
90--
91--
92--
93--
94--
95--
96--
97--
978--
98--
99--
a--
aa--
ab--
ac--
acaly--
acan--
acantho--
acce--
acian--
acro--
acu--
ad--
addi--
aden--
ado--
ae--
aero--
af--
afg--
ag--
age--
agro--
ah--
ai--
air--
aj--
ak--
aki--
al--
albi--
albo--
ale--
ali--
all--
allo--
alte--
alti--
aly--
am--
amau--
ame--
ammo--
amo--
amp--
amphi--
an--
ana--
ance--
and--
andro--
anem--
ang--
angio--
anim--
aniso--
ano--
anom--
anta--
antho--
anti--
anu--
any--
ao--
ap--
apo--
app--
appea--
appo--
ar--
ara--
arc--
archaeo--
are--
argen--
argyro--
aris--
arm--
art--
as--
ash--
aso--
asp--
assi--
aste--
astra--
at--
atmosp--
atri--
atro--
au--
auran--
austr--
auto--
av--
ax--
ay--
az--
b--
ba--
bacc--
back--
bact--
bad--
bag--
bal--
bald--
ban--
bapt--
bar--
bas--
batt--
bau--
bay--
be--
beau--
bec--
bee--
bel--
belg--
ben--
ber--
bi--
bib--
bibliog--
big--
bin--
bio--
bis--
bit--
bla--
blan--
ble--
bli--
bo--
bol--
boli--
bon--
boo--
bor--
bos--
bot--
bou--
bow--
boy--
br--
brac--
brachy--
brachythe--
bre--
bres--
brevi--
bri--
bris--
brit--
bro--
brom--
bron--
bru--
brun--
bry--
bryo--
bu--
bucc--
buch--
bud--
budd--
bulb--
bun--
bund--
bur--
burs--
bus--
butter--
by--
c--
ca--
cabr--
caes--
cal--
calan--
calceola--
cali--
calo--
caly--
calyptran--
cam--
can--
cap--
car--
carne--
cass--
cat--
cau--
cc--
cd--
ce--
cel--
cele--
cent--
centu--
cer--
cera--
cere--
ceri--
cert--
cey--
ch--
cha--
chal--
char--
che--
chi--
chlo--
chloro--
cho--
chry--
chryso--
chu--
ci--
cin--
cine--
circ--
circum--
cita--
cite--
citeref--
ck--
cl--
clar--
clau--
clav--
cle--
clo--
cly--
cn--
co--
cocc--
coel--
coenag--
col--
coll--
collec--
colu--
com--
comme--
compo--
con--
connect--
conse--
contri--
cor--
cord--
corn--
cort--
cory--
cos--
cou--
coun--
cow--
cr--
cras--
crassi--
cre--
creat--
crim--
cris--
crit--
cro--
cru--
cry--
cryptan--
cs--
ct--
cten--
cu--
cucu--
cul--
cur--
cusp--
cy--
cycl--
cyclop--
cypr--
cyrt--
cyto--
cz--
d--
da--
dacty--
dae--
dai--
dal--
dalber--
dan--
dar--
das--
dau--
daugh--
daval--
daw--
de--
dec--
defe--
defi--
del--
den--
dendro--
der--
des--
deter--
deu--
dha--
di--
diag--
dial--
dicho--
dicr--
dict--
didy--
die--
diff--
dig--
digi--
dimor--
dio--
dipl--
diplo--
dis--
disa--
disc--
discuss--
diso--
disp--
diss--
dist--
dj--
do--
doli--
dolo--
don--
dors--
dou--
down--
dr--
dres--
dru--
dry--
du--
dud--
dun--
dur--
dy--
dz--
dʒ--
e--
ea--
ear--
ec--
eche--
echi--
echino--
eco--
ed--
eff--
eg--
ei--
ek--
el--
ele--
elec--
eleo--
elep--
eleu--
eli--
elli--
ely--
em--
emer--
emo--
en--
enco--
end--
eni--
enri--
entomo--
eo--
ep--
ephe--
epid--
epip--
epis--
equi--
er--
erem--
eri--
erio--
ery--
eryth--
erythro--
es--
esco--
est--
estro--
et--
ethno--
eu--
eulo--
euph--
euro--
eury--
eva--
ex--
exo--
expe--
expl--
extra--
ez--
f--
fa--
fabr--
fair--
fal--
fan--
far--
fau--
fe--
fel--
fer--
ferru--
fi--
fil--
fili--
fin--
fini--
fire--
fitz--
fla--
flavi--
flavo--
fle--
fli--
flo--
flori--
flu--
fo--
font--
for--
fou--
fow--
fr--
fra--
fre--
fred--
free--
freyci--
fru--
fu--
fuku--
ful--
fun--
g--
ga--
gag--
gai--
gal--
gam--
game--
gan--
gar--
gas--
gau--
gb--
ge--
gek--
gen--
geo--
geop--
ger--
gi--
gibb--
gil--
gin--
giu--
gla--
gli--
glo--
glu--
gly--
gm--
gno--
go--
god--
gold--
gom--
gor--
got--
gou--
gr--
grac--
gracil--
grad--
granu--
grap--
gre--
green--
grif--
grim--
gris--
gro--
gros--
gru--
gs--
gu--
guer--
guil--
gun--
guz--
gy--
gymn--
h--
ha--
had--
hai--
hal--
ham--
han--
happ--
har--
hard--
has--
hat--
hay--
he--
head--
hed--
hedy--
hel--
heli--
helio--
hemi--
hen--
her--
herac--
hesp--
het--
hetero--
heterop--
hexa--
hey--
hi--
hie--
high--
hil--
hip--
hippo--
hirt--
his--
hit--
ho--
hod--
hoff--
hol--
holi--
holo--
home--
hon--
hook--
hop--
hor--
hot--
hou--
hra--
hu--
hua--
humb--
hung--
hy--
hydro--
hyper--
hypo--
i--
ia--
ic--
ichthyo--
id--
ie--
if--
ig--
ik--
il--
illu--
im--
imag--
in--
inc--
indi--
indivi--
indu--
inf--
infe--
infi--
init--
inn--
inspi--
int--
inter--
inve--
invi--
io--
ip--
ir--
is--
ishi--
iso--
it--
iv--
iz--
j--
ja--
jahres--
jan--
japo--
jar--
je--
jen--
ji--
jin--
jo--
joc--
jou--
ju--
jud--
k--
ka--
kah--
kai--
kal--
kan--
kar--
kas--
kash--
kata--
kath--
kau--
kawa--
ke--
kei--
kel--
ken--
ker--
key--
kh--
kha--
ki--
kim--
kir--
kiri--
kit--
kla--
klu--
km--
kn--
kno--
knu--
ko--
kol--
kon--
kos--
kou--
kr--
kra--
kris--
kry--
ku--
kul--
kur--
kuz--
kw--
ky--
l--
la--
lab--
lae--
laevi--
lam--
lan--
land--
lar--
las--
lati--
lau--
lay--
le--
lea--
legi--
leh--
leio--
len--
leo--
lepi--
lept--
lepto--
les--
let--
leu--
leuco--
li--
libr--
life--
lig--
lil--
lim--
lin--
lis--
liss--
lite--
litho--
litt--
ll--
lo--
lock--
lon--
long--
lopho--
lot--
lou--
loxo--
lu--
luft--
ly--
m--
ma--
mac--
macro--
mad--
mag--
magni--
mah--
mai--
main--
mak--
mal--
mala--
mall--
man--
map--
mar--
mas--
mate--
mats--
mau--
may--
mb--
mc--
me--
med--
medic--
mediter--
meg--
mega--
meh--
mei--
mel--
melan--
meli--
men--
mer--
merid--
meso--
met--
mexi--
mi--
micr--
micran--
micro--
mid--
mig--
mil--
min--
mira--
mit--
miya--
mn--
mo--
mol--
mon--
mono--
monog--
mor--
mora--
mord--
morpho--
mort--
mos--
mou--
mp--
mr--
ms--
mt--
mu--
mugg--
mul--
multi--
mun--
mura--
mus--
my--
myrm--
myste--
n--
na--
nai--
naka--
nan--
nar--
nat--
nau--
nd--
ne--
neo--
nept--
ner--
net--
neu--
neuro--
new--
news--
ng--
ni--
nico--
nie--
nigr--
nigric--
nik--
niko--
no--
nobu--
nom--
non--
nor--
not--
nou--
ns--
nt--
nu--
ny--
o--
oa--
ob--
ober--
obli--
oblo--
obo--
obscu--
obt--
occ--
oct--
od--
ody--
of--
off--
og--
oh--
ok--
ol--
old--
oli--
oligo--
om--
on--
one--
op--
oph--
opin--
or--
oreo--
ori--
ortho--
os--
ost--
ou--
out--
over--
oxi--
oxy--
oz--
p--
pa--
pachy--
pal--
pala--
palg--
pall--
palu--
pan--
papi--
par--
para--
parvifo--
pas--
pat--
pauci--
pe--
pect--
pedi--
pel--
pen--
penin--
per--
perci--
petro--
ph--
pha--
pharmaco--
phe--
pho--
phosp--
phy--
phyll--
phyllo--
phyto--
pi--
pic--
pilot--
pin--
pio--
pitch--
piz--
pl--
pla--
platy--
play--
ple--
plu--
plum--
po--
poh--
pol--
poly--
pomacen--
pont--
pop--
por--
posi--
post--
pou--
poul--
pp--
pr--
prae--
pras--
pre--
prim--
pris--
pro--
provi--
ps--
pseu--
pseudo--
psy--
psycho--
pt--
pter--
ptero--
ptil--
pu--
pul--
pun--
pur--
purpu--
py--
pyg--
q--
qu--
qua--
qui--
quo--
r--
ra--
rad--
radi--
rag--
rah--
rai--
rail--
ram--
ran--
rap--
ray--
re--
rece--
recog--
red--
ref--
reg--
regi--
regu--
rein--
rela--
ren--
res--
resis--
reti--
rha--
rhe--
rho--
rhy--
rhyac--
rhyn--
rhyncho--
ri--
ric--
rie--
rn--
ro--
rob--
rock--
rod--
roe--
rol--
ron--
rose--
rou--
row--
rs--
rt--
ru--
rubr--
rufi--
rupe--
rus--
ry--
ryu--
s--
sa--
sai--
sal--
sala--
sam--
san--
sar--
sau--
sc--
scab--
scand--
scar--
sch--
scha--
sche--
schi--
scle--
sco--
scor--
scu--
scy--
scyto--
se--
sea--
sec--
see--
sei--
sel--
sele--
semi--
sen--
sene--
ser--
sess--
set--
sey--
sh--
sha--
she--
shi--
sho--
show--
shu--
si--
sie--
sik--
sil--
sili--
sim--
sin--
sk--
sky--
sl--
slo--
sm--
smo--
sne--
so--
sol--
some--
son--
sor--
sou--
sp--
spat--
spec--
spha--
sphaer--
spi--
splen--
spo--
sr--
ss--
st--
sta--
star--
ste--
stein--
steno--
ster--
stic--
stigm--
sto--
str--
stret--
stu--
sty--
su--
sub--
suff--
suk--
sul--
sum--
sun--
super--
supp--
sur--
survi--
sus--
sv--
sw--
sy--
syl--
syll--
symp--
synd--
synt--
sz--
t--
ta--
tae--
tai--
taka--
tall--
tam--
tan--
tar--
tara--
tau--
tc--
te--
teac--
tel--
tele--
tem--
ten--
ter--
terro--
tetra--
teu--
th--
tha--
the--
tho--
thri--
thu--
thy--
ti--
til--
tim--
time--
tin--
to--
tol--
tom--
top--
tor--
tort--
tou--
tp--
tr--
tra--
trans--
tre--
tri--
tricho--
trifo--
tro--
tru--
trun--
ts--
tsu--
tt--
tu--
tun--
tur--
turk--
tv--
tw--
ty--
tz--
u--
ue--
uh--
uk--
ul--
ull--
uly--
um--
umbr--
un--
under--
uni--
unif--
up--
ur--
ura--
uro--
us--
v--
va--
vacc--
val--
valen--
van--
var--
ve--
vehi--
velu--
ven--
ver--
vete--
vi--
vig--
vill--
vin--
vio--
vir--
viri--
vitt--
vn--
vo--
vol--
vu--
vul--
vy--
w--
wa--
wahlen--
wal--
war--
wat--
we--
web--
wei--
wel--
west--
whit--
wi--
wiki--
wil--
wilki--
win--
wo--
woj--
wol--
wolver--
wood--
wri--
wu--
wy--
x--
xa--
xant--
xe--
xi--
xx--
xy--
xylo--
y--
ya--
yama--
ye--
yi--
yo--
yu--
z--
za--
ze--
zh--
zi--
zimmer--
zo--
zom--
zon--
zor--
zu--
zyg--
æ--
ð--
đ--
ı--
ł--
ſ--
ɔ--
ə--
ɛ--
ɡ--
ɪ--
ʁ--
ʃ--
ʒ--
τ--
а--
б--
в--
г--
д--
и--
к--
ка--
ко--
л--
м--
н--
о--
п--
пере--
пр--
р--
с--
ск--
ст--
т--
у--
ا--
ก--
ง--
น--
ย--
อ--
อำเภ--
า--
เ--
--0
--00
--01
--1
--2
--20
--29
--3
--33
--38
--4
--46
--5
--53
--6
--7
--8
--9
--a
--abad
--abidae
--able
--ac
--aceae
--ach
--achys
--acio
--ack
--acy
--ad
--ade
--adi
--ado
--ae
--aea
--aeus
--ag
--age
--ago
--ah
--ahalli
--ai
--aj
--ak
--aka
--aki
--ako
--al
--ala
--ale
--ales
--alia
--alis
--ally
--alo
--als
--alt
--alum
--am
--ama
--ami
--amo
--an
--ana
--ance
--ane
--anensis
--ani
--ania
--ano
--ans
--ant
--anthus
--ants
--anum
--anus
--ao
--ap
--apur
--ar
--ard
--ardo
--ari
--aries
--ario
--aris
--arium
--aro
--arrow
--aru
--arum
--ary
--as
--asa
--ase
--asha
--ashi
--aster
--at
--ata
--ate
--ated
--ater
--ates
--ath
--ati
--atic
--ating
--ation
--ations
--ative
--ato
--ator
--atum
--ature
--atus
--au
--aw
--awa
--ax
--ay
--aya
--b
--ba
--bal
--bata
--be
--bes
--bi
--bility
--bium
--bl
--ble
--bo
--bol
--book
--bor
--bra
--bre
--bs
--bu
--buch
--burg
--bury
--by
--c
--ca
--cal
--calis
--calyx
--carpus
--cca
--cco
--ce
--cea
--ceae
--ced
--cens
--cent
--cer
--cera
--ces
--ch
--cha
--chaceae
--charts
--che
--chi
--chne
--cht
--chum
--ci
--cia
--cing
--cio
--cise
--cium
--ck
--cki
--co
--cq
--craft
--cs
--ct
--cta
--ctic
--cts
--ctus
--ctylidae
--ctylus
--cu
--cula
--culata
--cum
--cus
--cy
--cław
--d
--da
--dae
--dal
--dam
--dar
--day
--de
--dea
--deae
--ded
--den
--der
--des
--dh
--dhi
--di
--dia
--dii
--dis
--dit
--dita
--dium
--dl
--dle
--dler
--do
--dom
--don
--dor
--dora
--dorf
--dox
--dra
--dro
--dron
--ds
--dt
--du
--duce
--dula
--dum
--dus
--dy
--e
--ea
--eae
--ean
--ear
--eata
--eau
--eaux
--eb
--ec
--eca
--ech
--ect
--ects
--ed
--eda
--ee
--een
--eg
--ego
--ei
--ein
--eira
--ek
--el
--ela
--ell
--ella
--elli
--ello
--ellus
--els
--ely
--em
--ema
--ement
--emia
--emis
--emon
--en
--ena
--ence
--end
--ene
--eni
--enia
--ennis
--ens
--ense
--ensis
--ent
--ental
--ents
--enus
--eo
--eon
--ep
--er
--era
--ere
--ered
--erg
--eri
--ermum
--ern
--ero
--ers
--ert
--erula
--erus
--ery
--es
--escens
--ese
--ess
--esses
--est
--et
--eta
--ete
--etes
--etia
--eton
--ets
--ett
--etta
--ette
--eum
--eur
--eus
--ev
--ew
--ews
--ex
--ey
--eyi
--ez
--f
--fa
--fat
--fe
--feld
--fer
--ff
--ffe
--field
--fin
--fs
--ft
--ful
--fy
--g
--ga
--ge
--ged
--gel
--gen
--ger
--ges
--gg
--gh
--ght
--gi
--gii
--gn
--gna
--gne
--gned
--go
--gon
--graphic
--graphy
--gs
--gton
--gu
--gua
--gue
--gus
--gy
--h
--ha
--hae
--ham
--he
--hea
--head
--hed
--heim
--her
--hes
--hi
--hia
--hidae
--hii
--hila
--hilus
--hin
--hip
--hips
--hiro
--hl
--hm
--hn
--ho
--hol
--hood
--hora
--hr
--hra
--hs
--ht
--hu
--hus
--hy
--hylla
--hyllum
--i
--ia
--iac
--iaceae
--iae
--ial
--ian
--iana
--ians
--ianum
--ianus
--ias
--iation
--iatus
--ib
--ible
--ic
--ica
--ical
--icata
--ich
--ichi
--ici
--icia
--ick
--ico
--icola
--icollis
--ics
--icta
--iculata
--icum
--icus
--id
--ida
--idae
--ide
--idea
--ides
--idge
--idia
--idium
--ids
--ie
--ied
--iel
--iella
--ien
--iensis
--ient
--ier
--ieri
--ies
--ieu
--if
--iflora
--ifolia
--ig
--igan
--igh
--ight
--igma
--ii
--iidae
--ik
--ika
--ikh
--il
--ila
--ile
--ilia
--ilis
--ill
--illa
--ille
--illo
--im
--ima
--ime
--in
--ina
--inal
--ine
--ing
--ings
--ington
--ini
--inia
--inii
--ino
--ins
--inson
--inus
--io
--ioides
--ion
--ions
--ior
--ious
--ip
--ipennis
--ipes
--ique
--ir
--ira
--ire
--iro
--is
--isa
--isation
--ise
--ish
--ism
--ist
--ista
--istics
--ists
--it
--ita
--ite
--ites
--ities
--ition
--ity
--itz
--ium
--ius
--iva
--ive
--ix
--iya
--iz
--ization
--ize
--ized
--j
--ja
--je
--ji
--jo
--ju
--k
--ka
--kard
--kawa
--ke
--ked
--kel
--ker
--ket
--kh
--ki
--kii
--kin
--kins
--kira
--ko
--kor
--kov
--ks
--ku
--ky
--l
--la
--lae
--land
--lar
--laris
--lata
--latus
--ld
--le
--led
--lepis
--ler
--les
--let
--ley
--lf
--li
--lia
--lic
--lica
--lidae
--lii
--line
--ling
--lip
--lis
--lity
--lk
--ll
--lla
--lle
--lli
--llia
--llis
--llo
--lls
--llum
--llus
--lly
--lm
--lma
--lo
--lobium
--logy
--lora
--lov
--ls
--lt
--lty
--ltz
--lu
--lude
--lum
--lus
--ly
--lyn
--lyx
--lz
--m
--ma
--man
--mann
--mata
--mba
--me
--mea
--mel
--ment
--mes
--mi
--mia
--mic
--mis
--mma
--mo
--mon
--mos
--mosa
--moto
--mpi
--ms
--mu
--mum
--mus
--my
--mys
--n
--na
--nae
--nal
--nar
--nard
--nas
--nax
--nb
--nc
--nce
--nd
--nda
--nder
--ndra
--ne
--nea
--ned
--nel
--nell
--nella
--nensis
--ner
--ners
--ness
--net
--ney
--ng
--nga
--ni
--nia
--nic
--nica
--nicus
--nidae
--nii
--nik
--ning
--nis
--nium
--nk
--nn
--nna
--nne
--no
--nor
--ns
--nse
--nsis
--nso
--nt
--nte
--ntha
--nthus
--ntly
--nto
--nts
--num
--nus
--nx
--ny
--nz
--o
--oa
--och
--ock
--od
--oderus
--odes
--odon
--oe
--of
--off
--oft
--oi
--oid
--oidea
--oides
--oir
--ok
--oka
--oke
--ol
--ola
--ole
--oli
--ollis
--olo
--ology
--olor
--ols
--olus
--om
--oma
--ome
--omi
--omis
--omum
--omus
--omys
--on
--ona
--one
--oni
--onia
--onica
--onii
--ons
--oo
--oon
--op
--ope
--ophyllum
--ops
--opsis
--opus
--or
--ora
--ord
--ore
--orf
--ori
--orm
--ornis
--oro
--ors
--ort
--orus
--os
--osa
--ose
--osum
--osus
--ot
--ota
--otis
--oto
--otus
--ou
--ouk
--ous
--out
--ov
--ova
--ovic
--ovich
--ovo
--ow
--ows
--ox
--oy
--p
--pa
--palum
--pe
--ped
--pes
--pf
--phylla
--phyllum
--pi
--pia
--pidae
--pidium
--ping
--pis
--ple
--po
--poda
--pogon
--pos
--ps
--pse
--psis
--pt
--pta
--pterygium
--pton
--ptus
--pum
--pur
--pus
--py
--q
--que
--r
--ra
--rad
--rae
--rah
--ral
--ras
--rat
--rax
--rb
--rch
--rctic
--rd
--rda
--re
--rea
--red
--rei
--rella
--rer
--rera
--res
--reus
--rf
--rg
--rge
--rhiza
--ri
--ria
--ric
--ridae
--ride
--rii
--riidae
--ris
--rium
--rius
--rix
--rk
--rl
--rley
--rm
--rma
--rn
--rne
--rnis
--rno
--ro
--rodactylus
--ron
--ros
--rov
--rr
--rra
--rre
--rry
--rs
--rst
--rt
--rta
--rts
--rtz
--ru
--rum
--rus
--rut
--ry
--rya
--rys
--rz
--rzy
--s
--sa
--sae
--sation
--sburg
--sca
--scape
--scens
--sch
--se
--sed
--sei
--sel
--sema
--sen
--ser
--ses
--sey
--sh
--shire
--si
--sia
--sian
--side
--sii
--sio
--sion
--sis
--sk
--sky
--sley
--sm
--sma
--so
--soma
--son
--sor
--sp
--spa
--ss
--ssa
--sse
--sson
--st
--sta
--stein
--stic
--stis
--stoma
--stomum
--ston
--stone
--sts
--su
--sus
--sy
--sz
--t
--ta
--taceae
--tal
--tar
--tary
--tas
--tata
--tation
--tatus
--te
--tea
--ted
--ten
--tep
--ter
--tera
--teri
--teris
--ters
--tes
--th
--tha
--thera
--thus
--thy
--ti
--tia
--tic
--tica
--tics
--ticum
--ticus
--tidae
--tii
--tin
--ting
--tion
--tions
--tis
--tium
--tive
--tl
--tle
--tly
--to
--ton
--tone
--tor
--tors
--tory
--tos
--tosa
--town
--tra
--try
--ts
--tsu
--tt
--tta
--tte
--tti
--tto
--tty
--tu
--tula
--tum
--tur
--ture
--tus
--ty
--tya
--tz
--u
--ua
--ual
--uata
--ub
--uc
--ud
--ue
--ues
--ug
--ugh
--ught
--ui
--uk
--uka
--uke
--uki
--ul
--ula
--ular
--ularis
--ulata
--ulatus
--uld
--ulidae
--ulosa
--ult
--ulum
--ulus
--um
--uma
--ument
--uments
--umi
--un
--uni
--up
--ur
--ura
--ure
--uri
--uro
--urs
--us
--usz
--ut
--uta
--ute
--uth
--uti
--ution
--utus
--uum
--ux
--v
--va
--ve
--ved
--ves
--vi
--via
--vic
--vich
--vis
--vo
--vor
--vsky
--w
--wa
--wald
--way
--we
--west
--wick
--wicz
--wire
--wl
--wo
--wood
--ws
--x
--xa
--xide
--xis
--xylum
--y
--ya
--ye
--yer
--yi
--yia
--yl
--ylis
--ylla
--yllum
--ylus
--ym
--yn
--yna
--yne
--yo
--yon
--yra
--ys
--ysa
--yu
--yx
--z
--za
--zar
--ze
--zen
--zer
--zi
--zia
--zie
--zii
--zo
--zon
--zu
--zy
--zz
--zzo
--æ
--ø
--ł
--ŋ
--œʁ
--ɑ
--ɔ
--ə
--ɛ
--ɜ
--ɡ
--ɪ
--ɪt
--ɫ
--ɳ
--ʁ
--ʃ
--ʊ
--ʒ
--ς
--а
--ать
--в
--ва
--д
--е
--еи
--з
--и
--ии
--ить
--ия
--к
--ка
--л
--м
--н
--ние
--ныи
--о
--ов
--ои
--р
--т
--ть
--ться
--у
--х
--ы
--ыи
--я
--น
--ร
