!
"
#
##0
##1
##10
##11
##12
##13
##14
##15
##16
##17
##18
##19
##2
##20
##21
##22
##23
##24
##25
##26
##27
##28
##29
##3
##30
##31
##32
##33
##34
##35
##36
##37
##38
##39
##4
##40
##41
##42
##43
##44
##45
##46
##47
##48
##49
##5
##50
##51
##52
##53
##54
##55
##56
##57
##58
##59
##6
##60
##61
##62
##63
##64
##65
##66
##67
##68
##69
##7
##70
##71
##72
##73
##74
##75
##76
##77
##78
##79
##8
##80
##81
##82
##83
##84
##85
##86
##87
##88
##89
##9
##90
##91
##92
##93
##94
##95
##96
##97
##98
##99
$
%
&
'
(
)
*
+
,
-
.
/
0
00
000
002
01
02
020
021
028
03
030
04
05
050
06
07
079
08
09
1
10
100
1000
101
102
103
104
105
106
1064
107
108
109
11
110
111
112
114
115
116
118
119
12
120
122
123
124
125
126
1261
127
128
129
13
130
131
134
1354
136
137
138
1383
139
1390
14
140
1400
141
142
143
1430
1446
145
1453
146
1464
147
1474
148
1480
1487
1490
15
150
1500
1504
151
1510
1515
1518
1520
1521
1525
153
1530
1532
154
1540
1543
1545
1546
155
1550
1557
156
1563
1564
157
1572
1573
1575
1577
1578
1582
1585
1590
1592
1593
1598
1599
16
160
1600
1605
161
1610
1611
1617
1619
1620
1621
1622
1625
1629
163
1632
1633
1635
1638
164
1647
1650
1656
1665
1667
1668
167
1670
1675
168
1680
1682
1683
1684
1685
1687
169
1690
1692
1693
1695
1697
1699
17
170
1700
1703
1706
1707
1710
1711
1712
1713
1715
1716
1719
1723
1726
1728
173
1730
1731
1732
1733
1734
1735
1736
1737
1738
174
1741
1743
1744
1745
1746
1748
1749
1750
1753
1754
1755
1756
1757
1758
176
1760
1761
1762
1764
1765
1766
1767
1768
1769
1770
1771
1772
1774
1775
1776
1777
1779
178
1780
1781
1783
1784
1786
1787
1788
1789
1790
1791
1792
1793
1794
1795
1796
1797
1798
1799
18
180
1800
1801
1802
1803
1804
1805
1806
1807
1808
1809
1810
1811
1812
1813
1814
1815
1816
1817
1818
1819
1820
1821
1822
1823
1824
1825
1826
1827
1828
1829
1830
1831
1832
1833
1834
1835
1836
1837
1838
1839
184
1840
1841
1842
1843
1844
1845
1846
1847
1848
1849
185
1850
1851
1852
1853
1854
1855
1856
1857
1858
1859
1860
1861
1862
1863
1864
1865
1866
1867
1868
1869
187
1870
1871
1872
1873
1874
1875
1876
1877
1878
1879
1880
1881
1882
1883
1884
1885
1886
1887
1888
1889
189
1890
1891
1892
1893
1894
1895
1896
1897
1898
1899
19
190
1900
1901
1902
1903
1904
1905
1906
1907
1908
1909
191
1910
1911
1912
1913
1914
1915
1916
1917
1918
1919
192
1920
1921
1922
1923
1924
1925
1926
1927
1928
1929
1930
1931
1932
1933
1934
1935
1936
1937
1938
1939
194
1940
1941
1942
1943
1944
1945
1946
1947
1948
1949
195
1950
1951
1952
1953
1954
1955
1956
1957
1958
1959
1960
1961
1962
1963
1964
1965
1966
1967
1968
1969
1970
1971
1972
1973
1974
1975
1976
1977
1978
1979
1980
1981
1982
1983
1984
1985
1986
1987
1988
1989
1990
1991
1992
1993
1994
1995
1996
1997
1998
1999
2
20
200
2000
2001
2002
2003
2004
2005
2006
2007
2008
2009
2010
2011
2012
2013
2014
2015
2016
2017
2018
2019
202
2020
2021
2022
205
21
211
214
215
216
217
218
22
220
223
224
225
226
23
230
231
232
233
24
240
241
243
245
247
248
25
250
257
258
26
265
266
268
27
270
272
276
278
28
280
287
29
293
3
30
300
303
305
31
310
311
313
3166
32
324
33
330
336
338
34
340
35
350
359
36
360
363
37
38
39
390
391
394
396
397
4
40
400
401
402
407
409
41
412
42
420
422
424
428
43
44
443
446
447
45
450
46
469
47
470
475
48
486
49
490
491
496
5
50
500
505
51
510
52
524
527
53
530
536
537
54
543
548
549
55
550
556
557
559
56
564
567
57
574
58
584
59
592
593
594
595
6
60
600
603
606
61
618
62
620
63
631
635
639
64
641
65
650
655
656
66
662
67
674
68
687
69
694
7
70
700
71
717
72
73
730
739
74
745
746
748
75
753
76
77
771
78
79
790
798
8
80
800
805
81
810
82
823
826
83
84
85
86
87
872
873
88
89
891
893
9
90
900
91
92
923
93
94
940
95
950
951
952
96
962
97
978
98
986
99
990
996
998
:
;
<
=
>
?
[
]
^
_
`
a
aa
aac
aacın
aadaki
aadakı
aalemin
aalıın
aanı
aar
aaramaa
aaras
aardı
aardına
aare
aarer
aarlık
aarmıs
aarne
aaron
aaz
aazdan
aazı
aazına
aazında
aazından
abbas
abd
abdu
abdul
abdullah
aberdeen
abhaz
abhaziya
ablon
ablonları
ablonu
abraham
abu
abuk
abzat
ac
acaba
acar
acek
acı
ad
ada
adalar
adaları
adalet
adam
adama
adamdı
adamnar
adamnarı
adamnarın
adams
adamı
adamın
adan
adana
adası
addis
aderlikli
adet
adeta
adetla
adetleri
adetlerini
adi
adigeler
adil
adlardan
adları
adlı
administrat
administrativ
adnan
adolf
adolphe
adrian
adriatik
advertiser
advocate
adı
adıkları
adım
adına
adında
adından
adını
adır
adırda
adıyla
adıymıs
adıı
ae
aeroport
aeroportlar
afanasiy
afganistan
afina
afrika
afrikada
afrikalı
afs
afta
afyonkarahisar
ag
agaları
agası
age
agenstvosu
ago
agrar
agrikultura
agullar
ah
aha
ahc
ahla
ahlu
ahlık
ahlıı
ahlıın
ahlıında
ahlıını
ahmad
ahmatı
ahmed
ahmet
aho
ahram
ahridir
ahtan
ahı
ahın
ahına
ahını
aids
ailesi
ain
aino
air
aires
airi
airin
airler
airlerin
ait
ak
aka
akademisi
akademiyası
akademiyasının
akan
akar
akardı
akc
akdeniz
akhbar
akir
aklar
aklara
aklarnı
akları
akların
aklarını
aklı
aklımda
aklınıza
aks
aksel
akt
akta
aktiv
aktivisti
akto
aktrisalar
aktyo
akusta
akıl
akıllı
akın
akıntısının
al
ala
alabama
alan
alaniya
alannar
alar
alarak
alarmıs
aları
alaska
alayor
alban
albaniya
albannar
albers
albert
alberto
albolarvatus
albrecht
alc
aldo
aldı
aldıg
aldık
aldılar
aldım
ale
alee
alejandro
aleksander
aleksandr
aleksandra
aleksandri
aleksandriya
alenka
aler
alerlar
ales
alessandro
aleut
aleutlar
alex
alexander
alexandre
alexandru
alexei
alexej
alfabeti
alfavit
alfaviti
alfonso
alfred
alfredo
algimantas
ali
alice
aliyev
aljir
all
alla
allaa
allah
allaha
allahtan
allahın
allan
allehanda
allen
allgemeine
allı
alma
almaa
almada
alman
almanya
alması
almatı
almaya
almıs
alo
alp
alphonse
alt
altan
altay
altaylar
altmıs
altı
altın
altına
altıncı
altında
altından
alım
alınan
alındı
alınmıs
alıp
alıs
alıy
alıyor
am
ama
amaa
amacıyla
amak
amakta
aman
aması
amasında
amasını
amayı
amba
ame
amerika
amerikada
amerikalı
amerikan
amma
amman
amos
amsterdam
amts
amur
amı
amıs
an
ana
anadil
anadolu
anadoluya
anakkale
analiz
anam
anasozu
anası
anasına
anatoli
anatoliya
anatoly
anayasa
anbe
ancak
anci
ancı
and
anda
andaman
anders
anderson
andiler
andorra
andre
andrea
andreas
andrei
andrej
andres
andrew
andrey
andrzej
andy
angel
angelo
angers
anghay
angisinda
anglikan
angliyca
angoche
angola
angı
angıları
angıların
angılarında
angılarını
angısı
angısına
angısında
angısınnan
angısını
angısının
angısıydır
ani
animalia
anita
ankara
ankarada
ankaya
anlamına
anlatan
anlı
anmak
ann
anna
annadan
annade
annadım
annadın
annamaa
annas
annatma
annatmaa
annatmalar
annatmasında
annattı
annattılar
anne
annibale
annı
ansamblila
ansamblileri
ansamblisi
ansora
ansızdan
antalya
antarktida
anthony
antlas
anto
antoine
anton
antoni
antonio
ants
antti
anu
anı
anılmıs
anın
ao
ap
apa
apple
aprel
ar
ara
arab
araba
arabacı
arabiya
arada
arak
aralarında
aralık
arap
arapc
araplar
aras
arası
arasına
arasında
arasından
araya
arbas
arc
archibald
archive
arda
ardan
ardı
ardılar
ardına
ardından
are
arest
argentina
arhitekturacılar
arif
ariya
arizona
arizonae
arka
arkadas
arkansas
arkı
arkıcı
arlar
arma
armand
armenia
armeniya
armıs
arnaut
arne
arno
arnold
arpa
arriba
ars
arseven
arsevenin
arslan
art
arthur
article
artist
artistik
artma
artmaa
artur
arturo
artvin
artık
artıs
aruba
arvo
arzu
arı
arıldı
arıp
as
asaf
asan
asfalt
asirin
asker
askera
askeri
askerler
askerleri
aslan
aslanı
aslı
aslıya
asot
asp
asta
astana
astrahan
asturias
asuncio
asya
ası
asıl
asıllı
asın
asına
at
atalay
atan
atatu
ates
atilla
atka
atlas
atlı
atlılar
atmaa
atmıs
attı
atı
atıldı
atıs
auc
august
auguste
augustus
aul
aus
auto
ava
avcı
avdarma
aves
avgust
avis
avlanmaa
avni
avrupa
avs
avstraliya
avstriya
avto
avtomobil
avtonom
avtonomiya
avtonomiyanın
avtor
avtoru
avtorun
avuc
avustralyalı
avusturyalı
awokera
axel
axundov
ay
aya
ayaa
ayak
ayan
ayc
ayda
aydan
aydın
aydınnık
ayhan
ayla
ayle
ayleda
aylenin
aylesi
aylesina
aylesinda
aylesinin
aylık
aynu
aynular
aynı
ayoglu
ayor
ayoz
ayozlu
ayrı
ayrıca
ayrıldı
ays
ayı
ayın
ayında
ayır
ayırmaa
ayırı
ayırıldı
ayıs
ayısı
az
aza
azaları
azası
azbas
azerb
azerbaijan
azerbaycan
azerbaycanca
azerbaycanda
azerbaycandan
azerbaycannılar
azerbaycanın
azeri
azeriblog
aziya
aziyada
aziyadan
aziyanın
aziz
azı
azınlıklar
azınnıklar
azınnıkları
azınnıkların
azərbaycan
aı
b
ba
baa
baacıklı
baaladılar
baalamıs
baalantı
baalayor
baalı
baamsız
baamsızlık
baara
baarıs
baas
baba
babaloglu
babaoglu
babil
baboglu
baboglunun
babu
babunun
babusu
babuya
babuyu
bac
bafra
bag
bahamalar
bahar
bahc
bahreyn
bahs
bahsedilir
bahtiyar
baillairge
baines
bak
bakalım
bakan
bakanlıg
bakannık
bakannıı
bakannıın
bakannıında
bakanı
bakardı
bakasın
bakayım
bake
baker
bakmaa
bakmadaan
bakmıs
baksa
baksalar
baksın
baktı
baku
bakuda
bakıldı
bakıle
bakın
bakır
bakıs
bakıy
bal
bala
balaban
balada
balc
baldwin
bali
balita
balkan
balkannar
balkannardan
balkar
balkariya
balkarlar
ball
balyan
balı
balık
balıkc
balıkesir
balıklar
ban
bana
banglades
bank
bankası
banya
baptist
baptiste
bar
barabalar
barabar
barbados
barbara
barbuda
barcelona
bari
barry
barıs
bas
basarabiya
basarabiyada
basarabiyalı
basil
bask
baskı
baskılar
bass
basıldı
basım
basın
battista
batu
batı
batır
baurc
bautista
bay
bayazid
baykam
bayraa
bayrak
bayram
bayır
bayırın
bazı
be
beach
becerikli
bedr
bedri
beegir
beegira
beegiri
beegirleri
beeri
bejenar
bek
bekc
beki
bekim
bekir
bekla
bekleer
beklema
beklenmedik
bela
beladan
belarus
belc
belediye
belediyesi
belfast
belgeleri
belgiya
belgrad
beliz
bell
belli
belliedici
bellilikc
belliydi
ben
benda
bender
bengal
bengt
beni
benim
benin
benjamin
benza
benzeer
berat
berberistan
bereket
berlin
berliner
bernard
bernardo
bernhard
bert
bes
besarabiyada
besteci
bethoven
bethovenin
betik
betva
betvası
bey
beya
beygir
beygira
beygiri
beygirin
beygirini
beygirla
beygirleri
beylii
beylik
beyrut
beyzbolcu
bezbelli
bezerga
bi
biblioteka
bibliotekasında
bic
bijeljina
bila
bildirdi
bildirildi
bile
bilenlerin
biler
bilerim
bilerla
bilersiniz
bilge
bilgi
bilgic
bilgilera
bilgilerina
bilgilerinda
bilim
bilimci
bilinen
biliner
bilinir
bilirmis
bilis
biliyor
bill
billy
bilma
bilmeer
bilmeerim
bilsin
bin
bina
binası
binasına
binasının
bingo
bir
bira
biraz
birc
birda
bireri
biri
birina
birinci
birinda
birini
birinin
birisi
birisinin
birkac
birles
birlig
birlii
birliin
birliina
birliinin
birlik
birlikleri
birlikta
birlikte
birmingham
bis
bissau
biter
bitirdi
bitki
bitkisinda
bitti
biyaz
biz
biza
bizans
bizda
bizi
bizim
biznes
black
blad
blair
blica
blok
bo
bob
boba
bobam
bobası
bobasına
bobasını
bobasının
bobby
bog
bogdan
bogota
bohumil
boksc
bolboka
bolgrad
boliviya
bolu
booday
bor
bora
borc
borg
boris
boru
bos
bosna
bosnia
bosniya
botsvana
boulder
bov
box
boy
boyar
boyarın
boyd
boyu
boyuna
boyunca
boyunda
boyunnu
boz
bozbey
bozdu
bra
brahim
brake
braker
brakmaa
brakmıs
braktı
braktılar
brakıp
branice
branko
brans
bras
brasil
bratislava
braziliya
brent
brest
brezilyalı
bri
brian
bridgetown
brijeg
brina
britaniya
britaniyaya
bronza
brooks
brown
browne
bru
bruce
bruney
bruno
bryan
bu
buazlı
buba
bubam
bubası
buc
bucaa
bucaam
bucaan
bucak
bucakta
bucaktan
budapes
budist
buenos
bugu
bukadar
bukures
bukvalar
buldu
buldum
bule
bulgar
bulgarca
bulgardır
bulgaria
bulgaristan
bulgaristanda
bulgariya
bulgariyada
bulgariyadan
bulgariyanın
bulgarlar
bulgarlardan
bulgarlarlan
bulgarların
bulletin
bulmaa
bulmus
buluer
bulun
bulunan
bulunannar
bulundu
bulundug
bulundular
bulune
buluner
bulunmus
bulunuer
bulunur
bulup
bulus
buna
bunda
bundan
bunları
bunnar
bunnarı
bunu
bunun
bununnan
burada
buradan
burak
buralarda
burayı
burda
burdan
burgucu
burhanettin
burkina
bursa
burundi
buryatlar
business
butakım
butan
buyanı
buyur
buz
by
bıc
bırda
bəy
c
ca
cafer
cahit
camden
cameron
camille
camisi
campbell
camphephilus
can
cana
canabisi
canabisini
canabisinin
canarias
canavar
candan
cannı
canus
canı
canım
canını
cape
capital
cardinal
caribbean
carl
carlo
carlos
carmen
carnivora
caroline
cassini
castilla
cat
catandica
catholic
cava
cd
ce
cebelitarık
cek
cel
celal
cem
cemal
cemil
cemiyeti
cenga
cengi
cengin
cenginda
cengiz
cenk
cenkta
central
cesare
cevat
cevdet
ceviz
ceza
cezası
ch
cha
chae
chambers
champion
chan
chang
charles
charlie
cheng
cheung
chi
chicago
china
chis
chlorolophus
choi
chordata
chow
chris
christensen
christian
christine
christoph
christopher
chronicle
chu
ci
cia
cias
cibuti
cite
citizen
city
cl
claes
clair
clare
clark
claude
clav
clayton
cleveland
clinton
cluj
clyde
cm
co
cog
collins
colorado
coltay
columbia
com
commons
conrad
constant
constantin
cork
corrado
correio
correo
cos
county
courant
courier
courrier
craig
creek
cruz
cs
csi
cu
cuamba
cumaa
cumhurbas
cumhuriyet
cumhuriyeti
cumhuriyetinin
curitiba
cuvap
cı
cəlali
d
da
daa
daadan
daaldı
daalmıs
daava
daayın
dag
dagblad
dagbladet
dagestan
dagıstan
daha
dahl
daily
dak
daki
dakota
dal
dale
dalga
dalgasında
dalıs
dam
dama
damar
dan
daniel
daniya
dannar
danıs
dar
daradur
daresi
darginner
dari
dariya
das
dastan
dastanı
dava
dave
david
davis
day
dayma
de
dean
dec
deda
dedal
dedela
dedi
dedila
dee
deer
deerim
deerla
defa
deg
deil
deis
dekabri
deki
del
delegat
deli
della
dema
demektir
demet
demi
demir
demirel
demiryolları
demiryolu
demis
democrat
demografiya
demokratik
den
dendropicos
deneer
denemeedir
denetimi
denileer
deniler
denis
deniz
denizden
denizi
denizin
denizli
dennis
denver
departamentının
deputat
deputatları
deputatı
der
dera
derelerin
deresi
deresinin
dergisi
derin
derinda
derisi
derla
derleme
derleyen
derna
des
destanları
dev
devam
devamı
deverc
devin
deviz
devlet
devleti
devletin
devletinda
devletinin
devletla
devletler
devletlerda
devletlerden
devletlere
devletleri
devletlerin
devletlerinda
devletta
deya
deyelim
deyi
deyil
deyni
deyor
dezginca
dhabi
di
dia
dialektı
diari
diario
dic
dick
dico
dictionary
die
diego
dig
diil
diildi
diildir
diilmis
diis
dika
dikmen
dil
dilde
dili
dilidir
dilim
dilin
dilina
dilinda
dilinde
dilini
dilinin
dilinna
dilla
diller
dillerda
dilleri
dillerin
dillerinda
dillerini
dillerinin
dilli
dimitar
dimitri
dimitriy
dimitrov
dimitrovka
din
dinc
dine
dini
dinini
dinler
dinnenma
dinner
dinneri
dino
dionis
diplomatik
dir
direkto
direktor
direktoru
diri
dirk
dis
distrofiya
divan
divizionu
diy
diyarbakır
diye
diz
dizginca
dk
dmitri
dmitrievna
dmitriy
dnevnik
do
dobrev
dobrotic
dobrov
dobruca
dobrucada
dobrucaya
documentation
dog
doklad
dokladı
doktor
doktorlar
doktoru
dokuz
dolar
dolarlık
doları
dolas
dolay
dolayı
dolayın
dolayında
dolgan
dolgannar
dollar
dolu
domeni
domenico
dominikan
dominique
domuz
don
donald
donegal
dong
donovan
dooru
doorudan
dooruluk
dooruluu
doorutmaa
dor
dorovic
dorovna
dostları
dostluk
dostu
dostum
dosye
douglas
dr
dragan
drakon
drama
dryocopus
du
dubai
dublin
duhovoy
dulkadiroolu
duloglu
dumitru
dunlop
dunun
dur
duran
durbaylo
durdu
dure
durer
durmamayca
durmus
durre
dursun
duruk
durum
durumu
durup
dus
duudu
duum
duuma
duuması
duumus
duun
duva
duvak
duya
duyer
duygu
duygular
duygularlan
duygulu
dvor
dziennik
dır
dıs
də
e
east
eastern
ebek
ebotar
ebru
ec
ece
ecek
ecel
eceli
ecevit
echo
economic
ed
eda
eddin
edebiyat
edecek
edelir
eden
eder
ederim
ederla
edeyim
edgar
edi
edildi
ediler
edilir
edilmis
edinaya
edip
edirne
edmund
edouard
eduard
eduardo
educat
educatiel
edward
edwin
ee
eer
eerlar
eero
eesti
efendi
efi
efiopiya
eg
ege
egipet
egovina
egypt
eh
ehir
ehiya
ehrda
ehri
eino
einstein
ej
ek
eka
ekaterina
ekeder
ekederla
ekederlar
eker
eketmesinda
eketmis
eketti
ekettila
eki
ekic
ekila
ekileerlar
ekiler
ekin
ekincilik
ekinner
ekis
ekla
eklemeeye
ekles
ekli
ekma
ekmek
ekmekla
ekonomi
ekonomika
ekonomist
ekrem
ekta
ekvador
ekvatorial
el
ela
elc
elder
ele
elebi
elektrika
elektronik
elementleri
elena
eli
elias
elif
elik
elim
elina
elinda
elisabeth
elise
elizabeth
ella
ellen
eller
elleri
ellerinda
elli
elmar
elsa
elvet
em
ema
emil
emilio
emin
emine
emir
emirlikleri
emma
empion
empionatında
empionu
emre
en
ena
enaya
encyclopedia
endel
ene
eneg
enegleri
ener
enetsler
eng
engin
english
eni
enida
enin
eniya
enko
enn
enner
ennik
enrico
enrique
ensemis
enseyis
ensiklopediya
ent
entri
enver
epp
eps
er
era
erc
ercan
erda
erdal
erde
erdi
erdog
erek
eren
eri
eric
erich
eridir
erif
erik
erika
erin
erina
erinda
erindeki
erini
eris
eritreya
erivan
erkan
erkek
erkekler
erkeklerde
erken
erkes
erkesiya
erkki
erla
erlar
erlera
erlerda
erleri
erles
erli
ermeni
ermenistan
ernest
ernesto
ernev
ernogor
ernogoriya
ernst
erol
ersiz
erskine
ert
ertesi
ertla
ertta
ertug
ervin
erwin
erythropygius
erzincan
erzurum
es
esa
esaba
esapları
esi
esina
esinda
esinde
esinin
esir
esiyle
eski
eskida
eskis
esko
espadanedo
espen
est
ester
eston
estoniya
estrada
et
etc
etela
eti
etiketi
etin
etis
etiya
etiyopiya
etma
etmeer
etmek
etmis
etnik
etnograf
etnografiya
etnokultura
etsin
etti
ettila
ettore
euge
eugen
eugene
eugenio
eun
euro
european
ev
eva
evda
eve
evel
evelki
evening
evesinda
evgeniy
evgeniya
evi
evik
evim
evin
evina
evinda
evir
evirdi
evket
evlad
evlat
evlatlarıdır
evlerina
evli
evr
evraziya
evren
evropa
evropada
evropalı
evropanın
evropaya
evros
examiner
expo
express
extra
ey
eyh
eyi
eyin
eyinda
eytan
f
fa
fabrika
fabrikası
fade
fahri
fakat
faku
fakultet
fakulteti
fakultetinda
fakultetini
falkland
fan
farah
farer
farklı
fars
faruk
faso
fasıl
fatih
fatma
faydalı
fazla
fazıl
fe
federat
federico
felidae
feliformia
felix
fena
ferdinand
ferenc
ferguson
ferit
fernand
fernando
festival
festivala
festivalda
festivali
festivalin
fevral
fevzi
fi
fici
fidan
fier
fife
fiji
fikir
fikiri
fikirini
fikirla
fikirlema
fikret
filatov
filcan
fildis
filev
filioglu
filip
filippinner
filippo
film
filolog
filologiya
filozof
fin
financial
finans
findlay
finlandiya
finlandiyada
finnish
firavun
firması
fischer
fizika
fizikacılar
fizikc
fjodor
fk
flavinucha
fleming
flores
florida
fm
fo
folkeblad
folklor
folklorcu
folkloru
folklorunu
fondu
for
ford
formuzal
fort
forum
fowler
fox
fra
franc
france
francesco
francis
francisco
franciszek
frank
frankie
franklin
frankı
frans
fransız
frant
frantis
franz
fre
fred
frederick
fredrik
free
freeman
friedrich
fritz
fu
fuad
fuat
fukaara
fuller
funkt
fus
fusu
fusun
futbol
futbolcu
fuyu
fıc
fıkaara
fırat
fırında
g
ga
gabon
gabonensis
gabriel
gabriele
gaceta
gaetano
gagaguz
gagauz
gagauzc
gagauzia
gagauziya
gagauziyada
gagauziyadan
gagauziyanın
gagauziyaya
gagauziyayı
gagauziyeya
gagauzlan
gagauzlann
gagauzlar
gagauzlara
gagauzlarda
gagauzlarin
gagauzlarm
gagauzları
gagauzların
gagauzluk
gagauzmusun
gagauzologiya
gagavuz
gal
gala
galam
galat
gali
galic
galilei
galileo
galina
galli
galway
gana
garci
garga
gary
gavril
gayana
gayanası
gaydarci
gaydarcı
gaz
gazeta
gazetada
gazetaları
gazetanın
gazetası
gazetayı
gazete
gazeteci
gazetesi
gazette
gazi
gaziantep
gazimag
ge
geboz
gec
geca
gece
gecenin
geeri
gel
gela
geldi
geldila
geldim
geldin
gele
gelecek
gelen
geler
gelerla
gelin
gelip
gelir
gelis
geliy
geliyor
gelma
gelmis
gelsin
gemici
gena
genc
gene
genel
genelkurmay
genellikle
general
genis
genot
geografik
geografiya
georg
george
georges
georgesku
georgi
georgia
georgiev
georgieva
georgievın
georgiy
ger
gerald
gerard
gerbi
gerc
gerekc
geri
german
germanca
germaniya
getir
getirdi
getirdila
getirer
getirildi
getirma
getirmis
getirsin
geza
gezer
gezma
gheorghe
ght
gi
giacomo
gian
gibi
gibson
gida
gide
gideca
gidecek
gidecez
gidee
gidelim
gider
giderim
giderla
gidersin
gideyim
gidip
gidiy
gidiyla
gil
gilbert
gimna
gimnası
gimnasının
gimnaziya
gina
gino
giordano
giorgio
giovanni
gipoteza
gipotezayı
gira
giray
girdi
girdiyna
giren
girer
girerla
girgin
girginnik
girgisler
giris
girma
girmis
girne
girolamo
git
gitma
gitmis
gitsin
gitti
gittila
gittim
giulio
giuseppe
glas
glasgow
glenn
glos
gmina
gmt
gnat
go
gold
golubovski
gonza
gor
goraz
gordon
gorsovetin
gottfried
gottlieb
gov
gr
grafika
graham
grahmez
gramatika
grand
grande
grant
gray
great
green
greenwood
gregoryen
grek
grekla
grenada
grenlandiya
gret
grigoriy
group
grove
grozni
grt
gru
grubu
grup
grupa
grupanın
grupası
grupasına
grupasından
gruppası
gruppasına
gruziya
gu
guam
guardian
gubernator
guernsey
gugus
guido
gulf
gunnar
gustaf
gustav
gustave
gvatemala
gvineya
gyo
gyula
h
ha
haber
haberla
hac
haci
hacı
hadi
haiti
hajdu
hak
hakan
hakas
hakasiya
hakaslar
hakikat
hakkari
hakkı
hakkında
hakları
haklarını
halac
halaclar
hale
halil
halis
halit
haliz
halizda
halk
halklar
halklararası
halkları
halkların
halkı
halkım
halkımızın
halkın
halkına
halkını
halkının
hall
hallıklı
hamdi
hamilton
hamit
han
hangisi
hangıları
hani
hanna
hannes
hans
hansen
hanti
hanı
hanım
hanın
hapis
hapse
haqqında
harakter
harakteri
harald
harap
harc
hareket
harman
harold
harris
harrison
harry
harvey
has
hasan
hasta
hastalık
hastalıklarına
hastalıklarından
hastalıı
hastası
hata
hatası
hatay
hatice
hatları
hatır
hatırını
hava
havana
havezla
hawaii
hay
hayat
haydar
hayri
hayvan
hayvanlar
hayvannar
hayvannarı
hazar
hazır
hazırdı
hazırladı
hazırladılar
hazırlanan
hazırlane
hazırlanmasında
hazırle
he
header
hector
hederlez
hederlezda
hee
heftenin
heino
heinrich
heinz
hela
helen
helena
helene
hella
helle
helmi
helmut
helsinki
hem
hemen
hen
hendrik
henri
henrik
henry
henryk
hep
hepsi
hepsicii
hepsina
hepsinda
hepsini
hepsinin
hepta
her
herald
herbert
herbir
hererda
hergela
hergu
herkera
herliim
herman
hermann
herschel
hert
herzaman
herzegovina
het
hey
hi
hic
hikmet
hilda
hill
hilton
hisar
hiv
hk
ho
hoca
hocalı
hodgei
hodul
hoffmann
holban
hollandalı
honduras
hong
honolulu
honore
hoon
hope
hora
horace
horasan
horu
horvat
horvatiya
horvatlar
hos
hotcat
houston
howard
hoy
hr
hristian
hristianlık
hristo
hrus
hsan
htm
html
http
https
hu
hugh
hugo
hui
hulusi
hun
hussain
hussein
hye
hyo
hyun
hırsızlar
hırsızlıı
hızlı
həm
i
ia
ial
ialist
ian
iat
ibn
ibrahim
ic
ich
ici
id
ida
idaho
idam
iddiasıyla
idi
idiler
idir
idın
ie
iel
ierlar
ift
iftc
iftic
iglesias
igor
ihta
ihtiar
ii
iii
iilik
iir
iirda
iiri
iirinda
iirla
iirleri
iirlerini
ija
ik
iki
ikinci
ikis
ikisi
ikram
il
ila
ilac
ilan
ilbo
ilc
ilda
ildan
ildi
ildə
ile
ilen
iler
ilera
ilerda
ileri
ilerin
ilerlema
ilerlemesi
ilgaz
ilgili
ili
ilik
ilin
ilinın
ilis
ilja
ilk
ilkin
ilkta
ilkyaz
iller
illeri
ilma
ilmar
ilya
ilə
im
ima
imda
imek
imekla
imi
imin
imis
imnera
imnerda
imneri
imnerin
imparatoru
impoes
imre
imzaladı
imzalandı
in
ina
inan
inanerla
inau
inca
incelendi
inci
ind
inda
inde
indeki
independent
indi
indiki
indiya
indiyadak
indrek
industriya
ine
iner
inev
inevdakı
info
information
inge
ingena
ingenela
ingenelerin
ini
inin
inis
injiner
inki
inmis
ino
inov
ins
insan
insana
insanlar
insanların
insannar
insannara
insannarı
insannarın
insanı
insanın
institutunda
institutunu
international
internet
ioan
ion
ional
iowa
ip
ipiu
iprage
ir
ira
irak
iran
irdi
irdila
irecek
ireland
irer
iri
irina
irish
irkin
irma
irmis
is
isa
isaac
isbn
ise
isi
isimli
isin
isla
islam
island
iso
isparta
ispolkomu
ista
istasyonlar
istasyonları
isteer
isteerim
isteerla
istema
istemis
istifa
istika
istoriya
istoriyada
istoriyalı
istoriyası
istoriyasına
istoriyasında
istoriyasını
istva
isus
it
ita
itibarıyla
itim
itli
itma
itmis
ittim
iu
ius
iv
iva
ivan
ivanov
ivo
iwan
iy
iya
iyada
iyadan
iyalar
iyaları
iyalarını
iyalı
iyanın
iyası
iyasına
iyasında
iyasını
iyasının
iyaya
iye
iyer
iyi
iyicem
iyu
iyul
iz
izgi
izi
izin
izmet
izmetc
j
ja
jaak
jaan
jacek
jack
jackie
jackson
jacob
jacopo
jacques
jae
jakob
jakub
james
jamie
jan
jana
jandarma
janeiro
janez
jang
janne
january
japon
jari
jaromi
jaroslav
jason
javier
jay
je
jean
jekova
jenny
jens
jeong
jersey
jerzy
jesse
jessica
jet
jewgeni
ji
jim
jimmy
jin
jir
jo
joachim
joan
joe
johan
johann
johanna
johannes
johanson
john
johnny
johnson
jon
jonas
jonathan
jones
joo
jorge
jorma
jornal
jose
josef
josep
joseph
journal
joz
jozef
jpg
jr
ju
juan
juha
juhan
juhani
jukka
jules
julia
julian
julie
julio
julius
jung
jure
juri
jurnalist
jurnalistla
jussi
justin
juta
jørgen
k
ka
kaar
kaara
kaare
kaarel
kaavi
kaaviles
kabaatlı
kabaatsız
kabardino
kabardinolar
kableder
kabledildi
kabletma
kabletsin
kabletti
kabo
kabul
kabuletmis
kac
kadar
kadir
kadri
kadın
kadınca
kadınlar
kadınlarda
kadınnar
kafadar
kafası
kafasını
kafe
kafedrası
kafedrasının
kahire
kahraman
kahul
kahır
kai
kakan
kakangiller
kakansılar
kakanı
kala
kalan
kalanı
kaları
kaldı
kaldılar
kaldır
kaldırdı
kaldırdılar
kaldırıldı
kale
kaleda
kalendarı
kaler
kaleya
kaliteli
kalju
kalkmıs
kalktı
kalkınma
kalkıntısı
kalkıntısında
kalle
kalme
kalmıklar
kalmıs
kalpak
kalsın
kalın
kalıy
kamboca
kambur
kamc
kame
kamerun
kamil
kampala
kan
kanada
kanadalı
kanadı
kanal
kanalları
kanalı
kanariya
kanatlı
kandidat
kandilli
kang
kanlıg
kannar
kannı
kannıı
kanon
kanona
kanonu
kantiler
kanunu
kanı
kanın
kanına
kanından
kap
kapadılar
kapalı
kapc
kaplan
kaplanı
kapu
kapuları
kapusu
kapuyu
kar
kara
karac
karaca
karacaog
karadaa
karadeniz
karaim
karaimner
karakalpak
karakalpaklar
karakurt
karaman
karannık
karar
kararlas
kararı
kararına
kararınnan
kararını
karasal
karayip
karayipler
karayolları
karayolu
karbalı
karbona
karbunas
kardas
kardinal
karel
kareliya
kari
karikatu
karin
kariye
karl
karlovac
karol
karolina
kars
kart
kartadaki
kartal
karı
karılar
karınlı
karının
karıs
karısı
karıyı
kas
kasaba
kasabada
kasabade
kasabadir
kasabadır
kasabalar
kasabalarda
kasabaları
kasabalarında
kasabanın
kasabasi
kasabasidir
kasabasitu
kasabası
kasabasına
kasabasında
kasabasından
kasabasının
kasapc
kask
kastilya
kasım
katalan
katar
kate
katedrali
kategoriyasında
katolik
katolit
katolitleri
katrin
katılacek
katılan
katılannara
katıldı
katıldılar
katıle
katılmaa
kaus
kavarna
kavkaz
kay
kaya
kaybedir
kaybetti
kaylar
kaynak
kaynas
kaynat
kayseri
kayıl
kayıp
kayıs
kaz
kazah
kazahlar
kazahstan
kazak
kazakistan
kazaklar
kazan
kazanc
kazandı
kazanmaa
kazayak
kazimierz
kc
kdu
ke
kec
kedi
kedigiller
kediler
kedimsiler
kedisi
kek
kelc
kelebek
keles
kelly
kemal
kemenc
kemer
kemerovo
kenan
kenarında
kendi
kendibas
kendigela
kendileri
kendilerini
kendimi
kendina
kendini
kendisi
kendisina
kendisine
kendisini
kendisinin
keniya
kenny
kent
ker
kera
kere
kerguelen
kerim
kes
kesa
keser
keseri
kesiler
kesin
keskin
kesma
kesmis
kesti
ketimi
ketler
kevin
kez
kg
khan
khmer
ki
kiev
kihat
kila
kileri
kim
kima
kimda
kimdir
kimi
kimileri
kimin
kimisi
kimsey
kin
kinci
king
kipra
kir
kirez
kirgiz
kiribati
kiril
kirill
kiriya
kiriyet
kirler
kis
kisi
kitabinda
kitap
kitay
kitts
kiyadı
kiyadın
kiyadında
kiyadından
kiyadını
kiyat
kiyatc
kiyatlar
kiyatları
kiyatların
kiyatlarında
kiyatlarını
kiyatta
kiyev
kla
klar
klas
klaslar
klaus
kleer
klera
kleri
klerini
klimat
klimatı
klisa
klise
kliseda
kliselerin
klisenin
klisesi
kliseya
klu
km
knaanik
knut
ko
koc
koca
kocaeli
kodları
kodu
kol
kola
kolada
kolalar
kolaları
kolanın
kolası
kolasına
kolasında
kolasını
kolasının
kolay
kolaya
kolaylık
kolayı
kolayını
kolc
kolhozda
koli
koloniya
kolorado
kolsa
kolu
kolumbiya
kolverer
kolvermis
komandasında
komandasının
komedyen
komi
komiler
komisiyanın
komisiyası
komisyonu
komiteti
komitetı
komitetın
kommuna
komorlar
kompozit
kompozitor
kompozitoru
komrada
komradın
komrat
komrata
komratlılar
komratta
komrattakı
komrattan
komratın
koms
komu
komunist
komus
komutanlıg
konferent
kong
kongaz
kongazc
kongazda
kongazlı
kongo
kongres
kongresa
kongresi
kongresin
kongresinda
kongresta
konkurs
konomika
konrad
kons
konstandoglu
konstantin
konstantinov
konstitut
kont
kontinent
kontinentda
kontinentla
kontinentında
konu
konuda
konuları
konus
konusu
konusunda
konuylan
konya
konyarlar
konyic
koordinatnarı
koordinatoru
kopc
kopenhagen
koper
koppel
korc
kordalılar
kore
koreya
korkma
korkudan
korkunc
korkusuz
korog
koruma
korumaa
korumak
korumus
korutu
koruycusu
koryak
koryaklar
kos
kosova
kosovo
kosovska
kosta
kotenko
kotlovina
kov
kova
kovun
koy
koydu
koydular
koye
koyer
koymaa
koymus
koyuldu
koyuler
koyun
koyunnar
koyunnarı
koyunnarın
krai
kral
kralic
krallık
krallıı
kralı
krasnoyarsk
krayı
kres
kret
kristian
krit
kroat
kroytor
kru
kruc
krım
krımc
ksal
ksek
ksel
ksemburg
kta
ktu
ku
kuba
kucak
kule
kulesi
kuli
kullane
kullanmaa
kullanmak
kullanması
kullanıcı
kullanıcıları
kullanılan
kullanıldı
kullanıle
kullanılması
kullanımı
kullanıp
kultura
kulturası
kulturasına
kulturasının
kulu
kum
kuman
kumanlar
kumanlardan
kumanlarin
kumanların
kumsal
kumsalı
kumuk
kumık
kumıklar
kun
kur
kurak
kurban
kurbannarı
kurbannarını
kurbannık
kurbanı
kurc
kurdoglu
kurdu
kurdular
kurier
kuriren
kurmaa
kurmaca
kurmak
kuroglu
kurs
kurt
kurtarmaa
kurtuldu
kurtulmaa
kurtulus
kuru
kurucusu
kurudi
kurudimov
kurulan
kuruldu
kurule
kurulma
kurulması
kurulmasında
kurulmus
kurulu
kurulus
kurumu
kus
kutladı
kutladılar
kutlama
kutlamaa
kutlamak
kutle
kutunun
kuveda
kuvedi
kuvedini
kuvet
kuvetla
kuvetleri
kuvetli
kuvetta
kuveyt
kuyruk
kuyruklu
kuzey
kuzu
kuzunun
kuzuyu
kvadrat
kwh
kwok
kıbrıs
kılıc
kıpc
kıpım
kır
kıra
kırda
kırgız
kırgızistan
kırgızlar
kırgızstan
kırk
kırlannar
kırlarda
kırmızı
kırıldı
kırım
kıs
kısa
kısadan
kısmet
kısıraa
kısıraan
kıvrak
kıyiv
kıymetli
kıyısında
kız
kıza
kızc
kızgın
kızkardas
kızlar
kızı
kızıl
kızılay
kızım
kızımı
kızın
kızını
l
la
laa
laamın
laap
lac
ladislav
ladı
ladık
ladılar
laf
lafa
lafbirles
lafeda
lafedeerla
lafetma
laflar
laflara
laflardan
lafları
lafların
laflarını
laflık
laftan
lafı
lafın
laga
lahti
lai
laine
lak
lake
laklar
lam
lambert
lamıs
lan
land
landkreis
landı
lane
langford
language
lanka
lankı
lanmadı
lao
laos
lar
lara
larda
lardan
larissa
larry
lars
ları
larım
ların
larına
larında
larından
larınnan
larını
larının
las
lasse
lat
latin
latviya
laura
laurent
lauri
lawrence
lay
layan
layıp
lazari
lbu
lc
lcu
ld
ldi
ldu
le
lea
leader
leca
ledi
lee
leena
leer
leerla
lefke
lefkos
legendası
lehc
leht
leida
lek
lelek
lema
lembit
lemin
lemis
len
lena
lener
lenlerin
lennox
lenov
lent
leo
leon
leonard
leonardo
leone
leonid
leopard
leopardı
leopold
ler
lera
lerda
leri
lerik
lerim
lerin
lerina
lerinda
lerini
lerla
lersen
les
leslie
lesoto
leung
lev
levaillant
levent
levi
lew
lewis
ley
leya
leyi
leyis
leyla
leyman
lez
lezgiler
lge
lgelerinda
lgenin
lgesi
lgesinda
lgesinde
lgesinin
lgili
lham
lhan
li
lia
liberal
liberiya
lichinga
lider
lideri
liderleri
liger
lihtens
lii
liina
lik
likli
lill
lima
lin
lina
linda
liniya
liniyalı
linnaeus
lirası
lis
lisa
lisesi
list
listasi
listası
listesi
lit
literatura
literaturada
literaturası
litvaniya
livan
liverpool
liviya
lix
lizbon
lk
lke
lkin
lkta
lku
lkyaz
ll
lla
llano
lle
ller
lleri
llu
llui
lma
lmek
lmesi
lmu
lo
log
logan
lojze
london
loo
lop
lord
lorenzo
los
lothian
lou
louis
louise
louisiana
lsu
lt
ltu
lu
luc
luca
lucas
luciano
lucio
ludmilla
ludvig
ludwig
lugo
luigi
luis
luk
luka
lukavac
lund
lunga
lunun
lushnje
lut
luther
lutheran
ly
lya
lydia
lyic
lynn
lı
lıg
lık
lıktan
lıı
m
ma
maa
maademner
maana
maanası
maasus
maasuz
maavi
maaza
maazaya
mac
macaca
macar
macdonald
macellan
mada
madagaskar
madde
madeira
maden
madrid
mae
maestro
magazine
magda
magellanicus
magnus
magomed
magyar
mahir
mahkemesi
mahku
mahmud
mahmut
mai
maie
mail
maimu
main
mak
makarki
makedon
makedoniya
makedoniyada
makidon
maklar
makta
mal
malar
malarda
maları
malarınnan
malavi
malay
malayalam
malayziya
maldivler
male
mali
mallar
malları
malle
malta
mammadov
mammalia
mamu
mamunun
mamusu
man
manalarına
manastırı
manav
manc
manila
manjul
mannarı
manoff
mansi
manuel
manı
manın
map
maputo
maradona
marc
marcel
marco
mardin
mare
marek
mares
maret
margaret
margit
margus
mari
maria
marian
mariana
marie
marika
marin
marina
marino
marinoglu
mario
marion
marius
mariya
mark
marka
markku
marko
markov
markus
marmara
marokko
mars
marshall
mart
marta
marti
martin
martinelli
martti
marunevi
marunevic
mary
mas
masa
masal
masallar
masallarda
masalları
masalların
masallarını
masalın
ması
masında
masını
mata
matei
matematikacılar
matematikc
materiallar
mati
matin
matriarhat
matt
matteo
mattha
matthew
matthias
matti
mauri
maurice
mavriki
mavritaniya
max
maxim
maxwell
may
maya
maydan
mayer
maymun
mayın
md
mda
me
meath
mec
meclisi
meda
medali
medalileri
medaliyi
medi
media
medit
mee
meer
meerla
mehmed
mehmet
mek
meksika
melek
meleri
melerin
melerina
melerini
melilla
memeliler
memis
memleket
memleketinda
men
menderes
menevs
mentalis
mer
meraklı
meral
mercury
meric
merkez
merkezi
merkezin
merkezinda
merkezinin
merle
mersin
mert
merve
mes
mesi
mesin
mesini
mesinna
met
meta
mete
methodist
meti
metin
metodika
metodist
metro
meva
mexico
meya
meycek
meydan
meydana
meydangazetasi
meydanı
meydanında
meyer
mez
mezo
mi
mia
michael
michail
michal
michel
michelangelo
michele
michelle
mid
mifsud
miguel
miha
mihai
mihail
mihayıl
mihkel
mika
mike
mikhail
mikk
mikko
mil
milan
miliard
milion
milis
miller
millet
milletin
milletla
milletler
milletlerin
milletvekili
milli
million
milliyetc
milos
miloslav
milsami
milvi
milyar
milyard
milyon
mimar
min
mina
mindanao
mineaceus
ming
ministeril
ministerliin
ministerul
ministr
ministru
ministrusu
minor
minsk
mir
mira
mircea
miroslav
mirror
mirza
mis
mississippi
missouri
mitchell
mitingta
mla
mleleri
mler
mlu
mma
mna
mne
mneri
mo
modu
mold
moldava
moldaviya
moldova
moldovada
moldovadan
moldovan
moldovanca
moldovannar
moldovanın
moldovaya
moldovayı
molla
monako
mongol
mongoliya
mongollar
monitorul
monroe
monsoro
montana
monte
montevideo
montgomery
montreal
moore
moputo
mordoviya
mordvinner
morgan
mormon
morning
morris
mos
moser
moskva
moskvada
moskvadakı
moss
mostar
motivi
mount
mountain
mov
moyse
mozambik
mozambikte
mparatorlug
mr
mru
msk
mtaz
mu
muhammad
muhammed
muhammet
mum
mun
mundo
munit
murat
muratag
murcia
mus
musa
musaafirla
musaafirlera
musaafirleri
mustafa
musulman
mutlu
muydunuz
muzesi
muzey
muzeyi
muzeyin
muzeyini
muzeyla
muzika
muzikacı
muzıka
muzıkasını
myanmar
mylne
myung
mı
mıs
mısır
məs
n
na
nabi
nachrichten
nadir
nahc
nairobi
nak
naklar
nal
namibiya
nan
narva
nas
nasaat
nassau
nastradin
nası
nasıl
nat
nata
natalia
natalya
natas
nathan
nation
national
nay
naz
nazi
nazmi
nbatısı
nca
nce
nci
ncu
ncı
nd
nda
ndan
nde
nden
nder
nderci
ndercileri
ndercilerinin
ndercisi
ndez
ndir
ndiya
ndoneziya
ndor
ndu
nduusu
ne
nea
nebraska
nec
neda
nedeniyle
neer
neeti
neetinda
neetla
neft
neftc
negidal
neic
nek
nekadar
nela
neleri
nem
nemli
nemt
nemta
nen
nena
nenets
nenetsler
nepal
ner
nerda
nereda
nereyi
nerla
nes
nesa
nescu
nesoy
net
netim
netmen
netmeni
nevada
nevis
nevzat
new
newcastle
news
newspaper
newspapers
newton
ney
neya
neyi
neyla
nez
nezaman
ng
ngiliz
ngilizc
ngilizce
ngiltere
ngo
ngu
ngus
ni
nica
nice
nicholas
nick
nicola
nicolae
nicolas
niderland
niels
nielsen
niger
nigeriya
nik
nikaragua
nikita
nikola
nikolae
nikolaevic
nikolaevna
nikolai
nikolaj
nikolay
nils
nin
nina
nis
niue
niversitesi
niversitet
niversiteti
nka
nku
nl
nlerinden
nlu
nma
nmez
nmis
nmu
nna
nneda
nneeda
nnerda
nneri
nnerinda
nneya
nneyda
nneyi
nneyin
nni
nnu
no
nobel
nogay
nogaylar
noguchii
nokta
noktası
nord
norman
norrko
north
northern
norvegiya
not
noti
noticias
nov
nova
novak
novi
novine
noviny
novosti
novotny
novy
now
noyabri
nr
ns
nsan
nsannar
nsannarın
nsanın
nsky
nstitudu
nstitutu
nstitutun
nsu
nternet
ntu
nu
nueva
nuevo
nuit
numid
nun
nuri
nvatamantuluı
nw
ny
nya
nyanın
nyi
nı
nın
nıs
nəs
o
oak
oban
obana
obanın
oblast
oblastı
observer
oc
ocaa
ocag
ocak
ocucaa
ocucak
ocuk
ocuklar
ocuu
ocuum
ocuun
odasında
odesa
odesadakı
odessa
odun
of
official
ofis
ofit
og
oglan
oglanın
oglu
oguz
oguzlar
oh
ois
oja
ok
okadar
okay
okeaniya
okeaniyada
okeaniyası
okinawa
oklahoma
oklu
okrugu
okta
oktabri
oktan
okudu
okudular
okul
okulu
okuma
okumaa
okumakları
okuyun
okyanuslar
ol
olabilir
olacek
olaceklar
olaf
olan
olarak
olay
olaylar
olayları
olayor
oldr
oldu
oldug
oldular
olduu
olduunu
olduydu
olduynan
ole
oleg
oler
olerlar
olev
olga
olimpiada
oliver
olivier
olli
olmaa
olmadı
olmak
olmalı
olması
olmasın
olmayan
olmaydı
olmaz
olmus
olof
olsa
olsun
olsunnar
olup
olur
olurum
olus
oman
omar
on
ona
onbes
onda
ondan
ondr
onlar
onlara
onları
onların
online
onnan
onnar
onnara
onnarda
onnardan
onnarı
onnarın
onu
onun
onunnan
onus
ool
oolluk
oolu
oolum
oolun
ooluna
ooo
opera
operacılar
operat
operato
opinio
or
ora
orada
oradan
orak
oranı
oray
orayı
orazio
orbacı
orbacılıı
orda
ordan
ordaniya
ordenı
ordu
oregon
org
organ
organizat
organnarı
organnarın
organı
orhan
oriental
orkestra
orkestrası
orlar
orman
oro
orta
ortak
ortalama
ortalık
ortalıı
ortam
ortasında
ortasından
ortaya
ortodoks
orıy
os
osa
oscar
osetiya
oskar
oslo
osman
osmanli
osmanlı
osmannı
ostapc
ot
other
otlandiya
otlar
ots
ott
otto
oture
oturmus
oturup
otuzuncu
ouest
oulu
ov
ova
ove
ox
oxford
oy
oyanı
oynadı
oynamaa
oyu
oyun
oyuncu
oyuncusu
oyunnarını
oyunu
oz
ozaman
ozamandan
ozamankı
ozamannar
p
pa
paaları
paalı
paavo
pablo
padis
page
pak
pakistan
palad
pale
paleolog
palestina
pali
palma
palmas
pama
pamuk
panama
panayıra
panda
pantera
panthera
pantherinae
pao
paolo
papa
papua
para
paradı
paragvay
paramaribo
parametre
parasını
parasız
paraylan
parayı
parc
pardus
paris
park
parker
parkı
parlament
parlamenta
parlamenti
parlamentina
parlamentı
parlamentın
parlamentına
parti
partisi
partiya
partiyalar
partiyanın
partiyası
partiyasının
pas
pascal
pasha
pasifik
paskella
pasportlara
pat
patretta
patriarhat
patrick
paul
paulo
pavel
pay
paylas
pays
payı
paz
pazar
pazarı
pe
pec
pedagog
pedagogika
pedro
peep
peet
peetc
peeter
peetla
peetleri
pek
peker
pekin
pekka
pelin
pelivan
pemba
penc
pentecostal
pentti
people
pepper
per
percussus
percy
peri
perio
perry
pers
persengela
persica
personaj
personajı
peru
pes
pesiz
petar
peter
peterburg
peters
petersburg
petr
petre
petri
petrol
petrov
petru
petrus
peydalandı
peydalane
peydalaner
peydalanmıs
philip
philippe
picidae
piciformes
picoides
picus
piero
pierre
pieter
pietro
pindi
ping
piniy
pinma
pinmis
piotr
piret
pirinc
pis
pita
pius
pjotr
plaka
plana
plu
po
podgoritsa
poe
poet
poeti
poetı
point
pokrovskaya
pola
polab
polek
polineziyası
polit
politika
politikacı
polonya
polonyalı
pols
pomeran
pometko
pontevedra
pontos
pontus
pop
popescu
popov
popova
population
por
pork
port
portal
portaller
portugal
portugaliya
pos
post
postimees
potmarı
potter
poyraz
pp
praga
pravda
pravitelstvaları
pravitelstvası
pravitelstvosu
pravitelstvosunun
predsedateli
premyer
prensa
pres
presa
press
presse
prezentat
prezident
prezidenti
prezidentinin
prezidentura
prezidentı
priit
primariyası
primarı
primyer
prince
print
pris
priznen
prizren
problemaları
problemalarını
proekt
proektı
prof
profeso
profesor
professor
programalar
projeler
prost
prot
protestan
protestanlar
protesto
proza
pru
pu
publique
publit
puerto
punara
puniceus
pus
px
pyesa
pyesası
pyotr
pınar
pınara
pınarı
q
qos
quebec
queensland
quito
qəhrəmanlıq
r
ra
raametli
raat
raatlık
rabieri
rachel
rada
radi
radio
radiolar
radiosu
radova
radu
rafael
rafya
ragnar
rahman
raivo
rak
ralph
ran
randa
raoul
raport
rarası
ras
rashid
rauf
ray
raymond
rayon
rayoni
rayonidir
rayonlar
rayonu
rayonun
rayonunda
raysovetin
rc
rcistan
rcu
rd
rda
rdi
rdik
rdila
rdim
rdu
re
real
rebane
rec
recek
recep
record
recorder
red
redakt
redaktoru
reder
redici
redicila
redicileri
redicilerin
redicilik
redicimiz
redicisi
reet
ref
referendum
refler
regia
regio
regional
reid
rein
rejiso
rejissor
rek
reklamı
rektoru
rel
reli
ren
rena
renci
rencila
rencisi
rendi
rene
rener
reni
renkli
renma
renmesinda
renmis
rennie
rensin
reorganizat
report
reporter
repu
republic
republika
republıcıı
rer
reriz
rerla
res
resim
resimci
resimcila
resimcilik
resimcisi
resmi
respublika
respublikada
respublikaları
respublikanın
respublikası
respublikasın
respublikasında
respublikasının
ressam
retim
retma
retmis
retti
rev
review
revolu
reyim
rfan
rgen
rgi
rgu
ri
ribic
ric
ricardo
ricci
richard
richardson
rick
riga
right
riina
rika
riko
rim
rin
rina
ring
rio
ristian
risto
rita
riyad
rk
rka
rkan
rkana
rkc
rkeli
rkistan
rkiya
rkiye
rkiyeda
rkiyede
rkiyenin
rkiyenın
rkiyeya
rkla
rklenmis
rkler
rklerda
rkleri
rklerin
rklerinin
rkmen
rkmenistan
rkmenner
rkolog
rksoy
rku
rla
rlandalı
rlandiya
rlar
rların
rler
rleri
rlu
rm
rma
rmemis
rmis
rmu
rn
rna
rnek
ro
robert
roberto
roberts
robinson
rock
roger
roglu
roglunun
rogluya
rogluyu
roland
rolf
rolu
roma
roman
romın
romınca
romıniya
romıniyanın
romınnar
ron
ronald
ros
rosa
rosario
rose
ross
rossi
rostov
rotmistr
roy
roz
rs
rsa
rsel
rsu
rsın
rsınız
rt
rta
rtu
ru
ruanda
ruba
rudolf
ruh
ruhu
rul
rum
rumıniya
rundschau
rus
rusc
rusi
rusiya
rusiyada
rusiyadan
rusiyanın
rusiyaya
ruslan
ruslar
rusların
russell
rusya
rusyn
rutullar
rv
ry
ryan
ryani
rður
rı
rıfat
rım
rız
rıza
rə
s
sa
saa
saabi
saabisi
saada
saadıc
saalayıcıları
saalık
saalıı
saar
saarinen
saat
saatlarlan
saatlık
saba
sabaa
sabaala
sabri
sac
sada
sade
sadece
sag
saha
sahalar
sahara
sahibi
said
saint
sait
sakarya
saklı
saklıdan
saksan
salamanca
salar
salarlar
salih
salme
salonda
salt
salvador
salvatore
sam
sami
samoa
samsun
samuel
san
sana
sanat
sanatc
sanayici
sancakında
sandallar
sandra
sandu
sandy
sandıydım
sane
sanitar
sanki
sanomat
sansın
santa
santander
santiago
santos
sanık
sapheopipo
sar
sara
sarah
sarande
sarap
sarayevo
sarayı
sarı
sarıboynu
sarıkamıs
sas
satmaa
satılık
satın
saudi
saul
savas
savastin
say
saye
sayfa
saygı
saygılı
saymaa
sayı
sayıda
sayıle
sayımı
sayın
sayısı
saz
schmidt
scho
scott
scottish
se
seattle
sebastiano
sebepi
sebepinna
sec
sefer
sefta
sek
sekiz
seklii
seklik
sela
selc
selim
selkuplar
selma
semo
semtlerinda
sen
senat
senato
sende
senegal
seni
senin
seninna
sensela
senseleleri
senselesi
senselesinda
sent
senta
sentabri
sentinel
seo
sepp
serb
serbest
serbestlii
serbestlik
serbiya
serbla
serdar
serge
sergei
sergej
sergey
sergi
sergileri
sergilerini
serginin
sergisi
sergiya
serin
serres
sert
servis
ses
sesi
sesla
seslema
seul
seung
seva
sevda
sever
sevgi
sevgili
sevilla
sevinc
seyin
seys
sezer
sezgin
shah
shane
shaw
shawn
shin
shkode
si
sibel
sibir
sibira
sibiu
sidney
sierra
siiredicila
siirek
sila
silahlı
silez
silva
silvia
simfoniya
simo
simon
simone
simpoziumu
simpson
sin
sina
sinan
sinda
sindi
sinek
sinema
sing
singapur
sinna
sint
sir
siriya
sirje
sirkeli
siroki
sistemasının
site
sitesi
sivas
siyaset
siyasetc
siz
siza
sizda
sizi
sizin
sizlik
sk
ska
skalykovski
skender
ski
skoc
sku
sla
slam
slandiya
slava
slaveikov
sligo
slovak
slovakiya
slovansiyan
sloven
slovenia
sloveniya
slovo
slu
smail
smailov
smayıl
smet
smilodon
smith
so
sofi
sofiya
sofraya
sohum
sokak
sokakc
sokakta
sol
sola
somali
somaliya
somu
son
sona
song
sonra
sonuc
sonucu
sonuna
sonunda
soo
sopaylan
soprano
sora
sorayor
sorb
sordu
sore
soria
sormus
sort
sorus
sorıy
sosyal
sosyalist
sot
south
sovet
soveti
sovetin
sovetinin
sovetla
sovyet
sovyetler
soy
soyotlar
soysal
soyu
soyundan
span
spanca
spaniya
spanyol
spencer
spet
split
spolkom
spolkomu
spolkomun
spolkomunun
spor
sport
sports
sportuluı
springs
squamatus
sr
srail
sri
ss
sscb
ssr
ssrb
st
sta
stan
stanbul
stanbulda
standard
stanislav
stanislaw
stanisław
stanley
star
stars
statusu
stavropol
steen
stefan
stepan
stephen
stera
sterdi
sterdila
sterer
stererla
sterier
sterierlar
sterildi
steriler
sterili
sterim
sterma
stermis
steve
steven
sti
stihlar
stiint
stiklal
stilleri
stirling
stockholm
stokholm
stolan
storik
storiya
stoyanov
strada
strange
stri
stro
struve
stu
stuart
student
studio
stuyan
stəmbəyov
su
suat
subotica
suc
sud
suda
sudan
sudu
sudun
sular
sularını
sultan
sultanov
sultanı
sulu
sumatra
sumqayıt
sun
suna
sunday
sung
super
surinam
suriye
sus
susan
suse
sutherland
suuk
suya
suylan
suyu
suz
suzca
svazilend
svec
sven
sverre
svetlana
svetlıy
sviat
svic
sw
sydney
syerra
sz
szlo
szo
sıc
sıcak
sık
sıkc
sıklıı
sıkı
sıkıyo
sın
sınır
sınırları
sınırı
sıra
sırada
sıradan
sıralaması
sırasında
sıravardı
sırrı
sırtında
sıır
t
ta
taa
taaza
tabasarannar
tabiat
tabuns
tacik
tacikistan
tadeusz
tae
tag
tagi
tahir
tahiya
tahran
tailand
takrir
takvimi
takım
talantlı
taligayı
taliya
taliyan
tallinn
talyan
tam
tamamen
taman
tamannıklı
tamara
tamedia
tamil
tamm
tan
tanasog
tanasoglu
tanasoglunun
tane
tanrı
tanzaniya
tanıdı
tanımaa
tanımlanmayan
tanındı
tanınmıs
tanıs
tao
tarafa
taraflarında
taraflarından
tarafta
taraftan
tarafı
tarafım
tarafına
tarafında
tarafından
tarafınnan
tarafını
taraklı
tarih
tarihc
tarihi
tarihinde
tarixi
tarla
tarlev
tarmo
tarragona
tarsus
tarık
tas
tatar
tataristan
tatarlar
tatarları
tatarstan
tatlar
tatlı
tatyana
taus
tavana
tay
tayfe
tayfur
taylor
tayvan
tazı
tazıyı
tbilisi
tbmm
tc
te
teataja
teatru
teatrunun
teatrusu
tefan
tehnik
tek
tekirdaa
teklif
teklifina
teknik
teksas
tekst
teksta
teksti
tekstil
tekstin
tel
tele
telefon
telegraf
telegraph
televideniyası
televizor
televizorlar
televizyon
telmenner
tema
teması
temel
temeli
temelina
temelinda
temiz
temsil
temsilcileri
temsilcilii
temsilcisi
tenerife
tennessee
teolog
teoretik
teoriyası
tepa
tepe
tepego
tepesi
tepesinda
tepremesi
ter
tera
teresa
territorial
territoriyasının
terriyoriyası
terry
ters
terzi
test
tevfik
tevrat
teyn
tez
tezda
th
thatcher
the
theo
theodor
thomas
thompson
thomson
thumb
ti
tibet
ticaret
tidende
tidning
tiempo
tigon
tii
tiianta
tiina
tiit
tik
til
tila
tili
tilki
tilkisi
tim
times
timis
timo
tin
tina
tineretulu
tipardan
tiparladı
tiparlandı
tipi
tipperary
tir
tira
tirana
tiraspol
tirdi
tirdila
tirildi
tirma
tis
titsi
tiyatro
tma
to
tobago
today
todur
todurc
tofa
tofalar
togo
tokiyo
tom
toma
tomasz
tomay
tome
tommaso
tommy
ton
tonga
tony
toomas
top
topal
topc
topladı
toplam
toplamaa
toplamıs
toplandı
toplandılar
toplane
toplanmıs
toplantıda
toplantılarda
toplantısı
toplantısında
toplanıp
toplu
topluluk
topluluu
toplum
toplumu
toplus
topraa
topraan
topraana
toprak
toprakları
topraklarına
topraklarında
topuz
topuzu
torki
torres
town
townsend
toz
tr
trabzon
tragediyası
travnik
tre
trevor
tribuna
tribune
trinidad
trinil
tripoli
tropikal
troy
troyan
ts
tsahurlar
tu
tudora
tudorka
tug
tuk
tukan
tukanın
tular
tuna
tunai
tunayı
tunguz
tunguzlar
tunis
tur
turan
turgay
turgut
turhan
turizma
turk
turkey
turku
tus
tute
tuter
tutmaa
tutmus
tuttu
tutup
tutus
tuva
tuvalar
tuvalu
tuz
tuzla
tv
ty
typos
tyrone
tı
tıg
tık
tılar
tır
tırarak
tıre
tırer
tırma
tırmaa
tırmacısı
tırmalar
tırıldı
tırıp
u
ub
uc
uda
udmurtlar
uelys
uezdın
ufa
ufak
ug
uganda
ugljevik
ugo
uhf
uk
ukc
uklar
ukotka
ukra
ukrain
ukraina
ukrainada
ukrainanın
ukrainna
ukrayna
ukraynada
ukraynadan
ukraynanın
ukur
ul
ulan
ular
uları
ulas
ulları
ulster
ulu
ulusal
uluslararası
ulım
ulımnar
um
umberto
umlar
umlu
umra
umut
un
una
unda
undan
unec
ungeni
union
universitet
universiteti
universitetin
universitetinda
universitetinin
universitetta
universitetı
universitetın
university
unlug
uno
unu
unun
unutmus
uog
upravleniyası
upravleniyasının
ur
ura
ural
urdu
urguladı
urmaa
urmus
uros
urugvay
urum
urumca
urumdur
urumlar
urumların
urumnar
us
usa
uslu
utc
uur
uurda
uuruna
uurunda
uvas
uya
uygun
uygur
uygurlar
uyku
uyu
uyumaa
uz
uzak
uzakta
uzaktan
uzay
uzbek
uzlar
uzlardan
uzları
uzların
uzlas
uzun
v
va
vadim
vaduz
vaher
vaillantii
vakit
vakıdadan
vakıdı
vakıdında
vakıt
vakıtlar
vakıtlarda
vakıtta
vale
valentin
valentina
valentine
valeriy
valetta
vali
valic
valisi
valkanes
valla
valle
valley
valter
valve
van
vanc
vancouver
vani
vanka
vanovic
vanovna
vanuatu
var
varaz
vardı
vardır
vares
varmıs
varna
vars
vas
vasi
vasil
vasile
vasili
vasilinin
vasilioglu
vasilisa
vasiliy
vasiloglu
vasily
vasilyevic
vatan
vatana
vatandas
vatanı
vatanını
vatikan
vazgec
vda
vdakı
ve
vec
vecherniy
vedat
veera
velde
veli
vella
vello
ven
vena
venc
venesuela
vengriya
vepsler
ver
vera
verdad
verde
verdi
verdig
verdik
verdila
verdim
verdin
vereca
verecek
verer
verera
vererla
vereyim
vergi
veri
verila
verildi
verilen
veriler
verileri
verilmis
verim
verin
verir
veris
verma
vermis
versin
versinna
vestnik
vet
veya
veysel
veyt
vezirko
vi
viat
victor
view
viii
vikipedi
vikipediya
viktor
vilankulo
vilhelm
viliat
viliatında
viliyatı
villa
village
ville
vilnu
vincent
vincenzo
virgin
virginia
viridanus
viridis
virve
vis
vit
vitaliy
vittatus
vittorio
vivian
vizentiya
vizit
vizitlan
vlad
vladimi
vladimir
vladislav
vlah
vlastimil
vlore
vlət
vo
voblastı
voice
voldemar
volga
volonto
von
voroni
voronin
voyager
voz
vrac
vremya
vun
vyetnam
vyetnamda
vytautas
və
vəzirov
w
wa
wales
walker
wallace
wallis
walter
walters
walton
wang
warren
washington
wassili
wayne
web
webb
website
week
weekly
wells
werner
wesley
west
western
white
who
wikimedia
wikipedia
wiktor
wilhelm
will
willem
william
williams
williamson
willie
wilson
winston
wisconsin
witold
wladimir
wladyslaw
wojciech
wolf
wolfgang
won
wong
woo
wood
world
wright
www
wyatt
wyoming
władysław
x
xa
xai
xalq
xanthopygaeus
xi
xii
xiii
xiphidiopicus
xix
xunqueira
xvi
xx
y
ya
yaa
yaamur
yaamurlar
yaamuru
yaban
yabancı
yada
yag
yahudi
yakalanan
yakalı
yaki
yakida
yaklas
yakup
yakut
yakutsk
yakın
yakıs
yalabık
yalc
yalnız
yalova
yalpak
yalın
yalıncı
yalını
yamayka
yan
yana
yandı
yani
yannas
yannıs
yanvar
yanvarın
yanık
yanına
yanında
yanından
yap
yapan
yapardılar
yaparmıs
yapayor
yape
yaper
yapmaa
yapmak
yapme
yapmıs
yapon
yaponiya
yapr
yaprak
yapsın
yapsınnar
yaptı
yaptıg
yaptık
yaptıkları
yaptılar
yaptım
yapı
yapılacek
yapılan
yapıldı
yapıle
yapılmıs
yapılsın
yapıp
yapıs
yar
yaralandı
yaralı
yaratma
yaratmak
yaratmaları
yaratmalarında
yaratmalarınnan
yaratmalarını
yaratmanın
yaratması
yarattı
yardım
yardımcı
yardımcıları
yardımcısı
yardımnar
yardımı
yardımınnan
yargılanan
yargıtay
yarım
yarıs
yarısı
yas
yasag
yasakladı
yasemin
yat
yatayor
yatmaa
yatmıs
yavas
yaver
yavru
yavuz
yayan
yaygın
yayımlayan
yayın
yayına
yayınları
yayını
yaz
yazar
yazarlar
yazarı
yazdi
yazdı
yazdılar
yazdırma
yaze
yazer
yazicisi
yazier
yazma
yazmaa
yazmaası
yazmıs
yazı
yazıcı
yazıcılar
yazıcıları
yazıcıların
yazıcının
yazıcısı
yazıer
yazıerlar
yazık
yazılar
yazıları
yazılarında
yazılarından
yazılı
yazılıydı
yazın
yazısı
yazıya
ydi
ydu
ye
yeliz
yemen
yeni
yeniden
yeon
yer
yeri
yerin
yerinda
yerine
yerinin
yerles
yerli
yeryu
yes
yesi
yetis
yi
yig
yilda
yin
yinanerla
yku
yla
yle
ylu
ymis
ymu
yna
yo
yog
yok
yokmus
yoktu
yoktur
yol
yola
yolcu
yolcular
yolda
yoldan
yolladı
yollamıs
yollandı
yollaner
yollar
yolları
yolu
yolun
yoluna
yolunu
yoo
yoon
yorgun
york
yortu
yortunun
yortusu
yortuya
yortuylan
yortuyu
young
younger
yr
yrjo
yu
yublyana
yuen
yufka
yugra
yugur
yugurlar
yukagirler
yukarda
yukarkı
yukarı
yuliya
yun
yunanistan
yunus
yupik
yuri
yuriy
yurtluuna
yustit
yusuf
yuva
yuvan
yuvana
yuvarlak
yuvayı
yy
yı
yıl
yıla
yılac
yılan
yılannar
yılanın
yılda
yıldan
yıldo
yıldırım
yıldız
yıldızlar
yıldızı
yıllar
yıllarda
yılları
yılların
yıllarında
yıllık
yılmaz
yılı
yılın
yılında
yılını
yımırta
yırak
z
za
zaametc
zaari
zaariyi
zabun
zafer
zagreb
zahir
zakon
zakona
zakonnarı
zakonu
zal
zaltına
zaman
zamana
zamanda
zamannar
zamannarda
zamanı
zamanında
zambiya
zanaat
zanaatc
zanaatı
zanaatını
zanet
zaneta
zanetin
zangibar
zanzibar
zaporojye
zaragoza
zarar
zavala
zavodu
zaza
zbek
zbekistan
zbekler
zbigniew
zc
zcan
zce
zcu
zda
zde
zdemir
zdene
zdi
zdik
zdila
zdu
ze
zebra
zebralar
zebraların
zedin
zeeda
zef
zeitung
zekeriya
zeki
zel
zelandiya
zelenskiy
zellik
zen
zengin
zenica
zenle
zer
zera
zere
zerem
zerinda
zerine
zesi
zga
zgerli
zgu
ziarul
zik
zimbabve
zisyen
ziua
ziya
zkan
zla
zlem
zlerce
zleri
zlerini
zlu
zma
zmet
zmey
zmir
zmis
zmit
zmu
zona
zonguldak
zoor
zor
zorlan
zoya
zrail
zsa
zsef
ztu
zu
zulum
zygmunt
zyıl
zyılda
zyıllar
zyılın
zım
zımdı
zımnı
{
|
}
~
«
°
²
¹
º
»
ı
ıcık
ıerlar
ıfıt
ıfıtlar
ık
ıkacek
ıkan
ıkar
ıkarayor
ıkardı
ıkardılar
ıkarer
ıkarmaa
ıkarmıs
ıkarıp
ıkayor
ıke
ıker
ıkladı
ıkladılar
ıklama
ıklamaa
ıklandı
ıklaner
ıklar
ıkle
ıklı
ıkmaa
ıkmak
ıkması
ıkmıs
ıksın
ıkta
ıktan
ıktı
ıktılar
ıkıp
ıkıs
ıkıy
ılacek
ılan
ılar
ıların
ılas
ıldı
ıle
ıler
ılıg
ılık
ılıs
ım
ıma
ımsız
ımsızlıg
ımsızlık
ın
ına
ınalık
ıncı
ında
ından
ınnan
ını
ının
ıp
ıq
ır
ırak
ırmıs
ırnak
ırı
ıs
ısı
ıvan
ıy
ıya
ıyan
ıydı
ıylar
ıyor
ə
ən
ʻ
ʿ
̀
́
̂
̃
̄
̆
̇
̈
̉
̊
̋
̌
̑
̛
̣
̦
̧
̨
ς
а
б
бабоглу
бессарабских
в
г
гагаузии
гагаузов
гагаузско
гагаузского
д
е
ж
з
и
к
кишине
л
м
н
на
наречие
о
п
р
республика
русскии
русско
с
скии
словарь
советская
т
тили
тукан
у
украі
ф
х
ц
ч
ш
щ
ъ
ы
ь
э
ю
я
язык
языка
і
ѣ
ѫ
ҫ
ү
һ
ӈ
ө
ְ
ִ
ּ
ד
י
ا
العربية
د
ع
ل
ه
ي
َ
ُ
ِ
ّ
ٓ
ٔ
ی
ং
দ
ব
ল
শ
া
ে
্
க
ு
ை
்
ං
ක
ත
ර
ල
ශ
්
ා
ී
‍
‎
–
—
‘
’
“
”
„
†
•
…
′
″
№
↔
↷
③
④
⑦
⺀
⺄
⺆
⺈
⺊
⺌
⺕
⺝
⺸
⺼
⿰
⿱
⿲
⿳
⿴
⿵
⿶
⿷
⿸
⿹
⿺
⿻
〢
か
コ
ユ
㇁
㇂
㇄
㇇
㇈
㇉
㇓
㐁
㐄
㐅
㐌
㐫
㐬
㐭
㐮
㐱
㑒
㒵
㒸
㒼
㓁
㓞
㔾
㕛
㕣
㖾
㘝
㚅
㚇
㚔
㚘
㝉
㝡
㝴
㝵
㞋
㞢
㞷
㠩
㠭
㠯
㡀
㡭
㡿
㢲
㢴
㣇
㣺
㥯
㪅
㫄
㫐
㫒
㫺
㬅
㬎
㬥
㬰
㲋
㳄
㷠
㸒
㸚
㸦
㼌
㼲
㽞
㿟
䀠
䂞
䍃
䏍
䒑
䖍
䖒
䖝
䖵
䙴
䚻
䜌
䝿
䡛
䧹
䪞
一
丁
丂
七
丄
丅
丆
万
丈
三
上
下
丌
不
与
丏
丐
丑
专
且
丕
世
丘
丙
业
东
丞
丢
丣
两
严
並
丨
丩
个
丫
丬
中
丮
丰
丱
串
丵
丶
丷
丸
丹
为
主
丽
丿
乀
乂
乃
久
乆
乇
么
义
之
乌
乍
乎
乏
乐
乑
乔
乖
乗
乘
乙
乚
乛
乜
九
乞
也
习
乡
乳
乾
亀
亅
了
亇
予
争
事
二
亍
于
亏
亐
云
互
亓
五
井
亘
亚
亜
亞
亟
亠
亡
亢
交
亥
亦
产
亨
亩
享
京
亭
亮
亯
亰
亲
亳
亶
亷
人
亻
亼
亾
仁
今
介
仌
从
仐
仑
仒
仓
仕
他
付
仝
代
令
以
任
企
伊
伏
伐
休
会
伯
但
位
何
佘
余
作
佥
使
來
侈
侌
侖
侯
侵
便
保
俞
信
修
倉
倍
候
倠
備
僉
僕
儀
儿
兀
允
兂
元
兄
充
兆
兇
先
光
兊
克
兌
免
兑
兒
兓
兔
党
兜
兟
入
全
兩
兪
八
公
六
兮
兰
共
关
兵
其
具
典
兹
兼
冀
冂
冃
冄
内
冈
冉
冊
冋
册
再
冎
冏
冐
冒
冓
冖
冗
冘
军
农
冝
冡
冥
冫
冬
冷
几
凡
凢
凵
凶
凷
凸
凹
出
函
凾
刀
刁
刂
刃
刄
刅
分
切
刍
刑
刕
刖
列
刘
则
初
別
利
别
到
制
刺
則
削
剌
前
剡
剽
劉
力
功
加
劦
助
劫
劳
劵
勃
勇
勉
勒
動
務
勞
勤
勹
勺
勻
勾
勿
匀
匂
包
匆
匈
匊
匋
匍
匕
化
北
匚
匝
匡
匪
匱
匸
匹
区
医
匽
匿
區
十
卂
千
卄
卅
卆
升
午
卉
半
卌
华
卑
卒
卓
单
卖
南
卜
卝
卞
占
卡
卢
卣
卤
卦
卩
卪
卬
卯
印
危
即
却
卵
卷
卸
卻
厂
厃
厄
历
厈
厉
厌
厓
厘
厚
原
厤
厥
厨
厭
厲
厶
厷
厸
去
厼
厽
叀
参
參
叅
又
叉
及
友
双
反
叐
发
叒
叔
叕
取
受
叚
叜
叟
口
古
句
另
叩
只
召
可
台
叱
史
右
叵
号
司
叹
吂
各
吅
合
吉
吊
吋
同
名
后
吏
向
吕
君
吝
吞
否
含
启
吳
吴
吹
吾
呂
呆
呈
告
员
呙
周
命
咅
和
咎
咠
咢
咨
咸
咼
哀
品
哉
員
哥
哲
唐
商
啇
問
啚
啬
啻
善
喜
喬
單
喿
嗇
噩
嚴
囊
囗
囘
囙
囚
四
回
囟
因
囧
囬
困
囱
囷
固
国
圂
圅
國
圍
圓
土
圡
圣
圥
在
圭
地
圶
圼
坐
坒
坚
坴
垂
垔
垚
埀
埋
埶
執
基
堂
堅
堆
堇
堯
報
塞
墨
壘
士
壬
壯
声
壳
壴
壹
壺
壽
夂
处
夅
夆
备
夊
夋
夌
复
夏
夒
夕
外
夗
夘
多
夜
夢
大
夨
天
太
夫
夬
夭
央
失
夲
头
夷
夸
夹
夻
夾
奂
奄
奇
奈
奉
奎
奏
奐
契
奓
奔
奚
奞
奠
奢
奥
奭
女
奴
奻
好
如
妄
妙
妟
妥
妻
妾
姑
委
姜
威
娄
婁
婴
嬰
嬴
子
孑
孔
孕
孖
字
存
孚
孛
孝
孟
季
孤
学
孫
孱
學
宀
宁
宂
它
宅
宇
守
安
宋
完
宏
宓
宗
官
定
宛
宜
宝
客
宣
室
宮
宰
害
家
容
宾
宿
寄
寅
密
富
寒
察
寧
審
寫
寬
寮
寸
对
寺
寻
寽
対
寿
封
尃
射
将
將
專
尉
尊
尋
尌
對
小
少
尒
尓
尔
尖
尗
尚
尞
尢
尣
尤
尧
尨
尭
就
尸
尹
尺
尻
尼
尽
尾
尿
局
居
屈
屋
屎
屏
屑
展
屖
屚
属
屠
屡
屬
屮
屯
屰
山
屵
屾
岁
岂
岑
岡
岩
岳
岸
峯
島
崇
崑
崔
崖
崙
崩
嵬
嶲
巂
巛
川
州
巟
巠
巢
巤
工
左
巧
巨
巩
巫
差
己
已
巳
巴
巷
巸
巽
巾
巿
帀
市
布
希
帚
帛
帝
带
師
席
帶
常
干
平
年
幵
并
幷
幸
幺
幻
幼
幽
幾
广
広
庄
床
底
店
庚
府
度
庫
庭
庶
康
庸
廉
廌
廛
廣
廩
廴
延
廷
建
廾
廿
开
弁
弃
弄
弇
弋
式
弓
弔
引
弗
弘
弜
弟
弥
弦
弱
張
強
强
彊
彌
彎
彐
彑
当
彔
录
彖
彗
彡
形
彥
彦
彧
彭
彳
役
彼
往
待
律
徒
得
徙
從
復
微
徵
心
忄
必
忌
忍
志
忝
忠
忩
快
念
忽
忿
思
怠
急
怱
恆
恒
恩
恭
息
悉
患
悤
悲
悶
惠
惡
惢
愁
愈
意
愛
感
慈
慧
慮
憂
憲
應
戀
戈
戉
戊
戋
戌
戍
戎
成
我
戒
戔
或
戚
戠
戢
截
戲
戶
户
戹
戼
戾
房
所
扁
扇
手
扌
才
打
托
执
承
折
拉
拜
拿
掌
推
提
摩
支
攴
攵
收
攸
改
放
政
敄
敏
敕
敖
敗
教
敝
敞
敢
散
敦
敫
敬
数
敷
數
斂
文
斉
斊
斗
斤
斥
斩
斬
斯
新
方
於
施
斿
旁
旋
族
无
旡
既
旣
日
旦
旧
旨
早
旬
旱
旲
时
旾
昆
昇
昌
昍
明
昏
易
昔
昗
昜
星
春
昬
是
昱
昴
昷
時
晃
晋
晏
晚
普
景
晶
智
暑
暴
曇
曩
曰
曲
曳
更
曷
書
曹
曼
曾
替
最
朁
會
月
有
朋
服
朔
朕
朗
望
朝
木
朩
未
末
本
札
朮
术
朱
朵
朶
朿
杀
李
杏
杜
束
条
来
東
杲
杳
松
析
林
枚
果
枝
枲
枼
某
柔
查
柬
柰
柴
栗
桀
桑
桼
梁
條
梟
梨
棘
棠
棥
森
楚
業
楽
榮
樂
樊
欠
次
欣
欮
欲
欶
欽
款
歆
歇
歛
止
正
此
步
武
歨
歪
歮
歯
歰
歲
歴
歷
歸
歹
歺
死
殳
段
殷
殸
殹
殺
殻
殿
毋
毌
母
每
毒
比
毕
毚
毛
毳
氏
氐
民
气
氣
水
氵
氶
氷
永
氺
氾
求
汝
汞
江
沃
沓
沙
沝
泉
法
波
泣
泥
泰
洛
洪
活
派
流
浦
浪
浮
淡
淮
清
渚
渠
港
湯
滿
漸
火
灬
灭
灰
灵
灷
炅
炎
炏
炗
炙
炭
為
烈
烏
烝
焉
無
焦
焱
然
煞
熊
熏
燕
營
燮
爪
爫
爭
爯
爰
爱
爲
爵
父
爻
爽
爾
爿
片
牙
牚
牛
牜
牟
牢
牧
牪
牽
犀
犬
犭
犮
狂
狄
狊
独
狺
猋
猒
猪
献
獻
玄
率
玉
王
玟
玨
珎
班
琴
瑟
瑩
瓜
瓦
甘
甚
生
産
用
甫
甬
田
由
甲
申
电
甶
男
甸
甹
画
甾
畀
界
畏
畐
留
畜
畟
畢
畧
畨
番
畫
異
畱
當
畺
畾
疊
疋
疌
疑
疒
疾
癶
癸
癹
登
發
白
百
皀
皃
的
皆
皇
皋
皐
皕
皮
皷
皿
盃
盆
盇
盈
益
盍
盎
监
盒
盖
盛
盡
監
盤
盧
目
直
相
盾
省
眇
眉
看
眔
眞
真
眷
眼
眾
着
睘
睪
睿
瞏
瞢
瞿
矍
矛
矞
矢
矣
知
矦
短
石
破
碎
磊
磨
示
礻
礼
祟
票
祭
禀
禁
禸
禹
禺
离
禽
禾
禿
秀
秃
秉
秋
科
秝
秦
移
稟
穀
穌
穴
究
穹
空
穿
突
窄
窒
立
竒
竜
竝
竟
章
童
竹
笑
笠
筆
等
答
箕
算
箴
節
篤
篭
米
粉
粛
粟
粤
粦
粲
糞
糸
糹
系
約
納
素
索
紫
累
細
絜
絫
絲
經
維
綿
縣
繇
纍
纟
缶
网
罒
罔
罕
罗
罙
罡
罢
罪
署
罷
羅
羊
羌
羍
美
羔
羕
羗
羞
羡
羣
群
義
羲
羸
羽
翁
翏
習
翕
翟
翠
翼
老
耂
考
者
耆
而
耎
耑
耒
耳
耴
耶
耷
聂
聊
聖
聚
聞
聶
聿
肀
肃
肅
肉
肖
肙
肥
肩
肯
育
肴
胃
背
胡
胥
能
脊
脩
膚
臣
臤
臧
自
臬
臭
臯
臱
至
致
臺
臼
臽
臾
臿
舀
舂
舄
與
興
舉
舌
舍
舛
舜
舞
舟
般
艮
良
色
艸
艹
艾
芒
芔
芬
芮
花
芳
芺
芻
苔
苗
苟
若
苦
英
茶
茸
荅
草
荒
荣
荼
莆
莧
莫
莽
菆
菊
菐
華
萬
落
葉
著
葛
董
葵
蒙
蒦
蒼
蓋
蓬
蓺
蔑
蔡
蕉
蕭
蕾
薄
薛
薦
薰
藍
藏
藥
蘭
虍
虎
虐
虒
虔
處
虖
虗
虘
虚
虛
虜
虞
虫
虽
蚤
蚩
蜀
蜜
蟲
蠡
血
行
衍
衛
衣
衤
表
衮
衰
袁
袞
褭
褱
襄
襾
西
覀
要
覃
見
規
覓
覧
親
覽
见
角
解
言
訁
訇
計
許
詠
詹
誩
諸
讠
谷
豆
豈
豊
豐
豕
豖
豙
象
豦
豩
豪
豸
貇
貝
貞
貟
負
貢
貧
貪
貫
責
貳
貴
買
費
賁
資
賈
賏
賓
賔
賛
賞
賢
賣
質
賴
贊
贝
贡
责
贯
贲
贵
赖
赞
赤
赦
走
越
足
路
蹇
身
躬
車
軍
軎
軟
輦
车
辛
辜
辟
辥
辰
辱
農
辵
辶
边
达
过
近
连
迷
追
退
送
逆
逐
通
速
造
逢
連
逮
進
遀
遂
過
道
達
遣
適
遷
遺
邊
邑
邕
那
邦
邪
郎
部
郭
郵
都
鄉
鄭
酉
酋
配
酓
釆
采
里
重
野
量
金
釒
錢
钅
長
镸
长
門
閃
閉
開
閏
閑
閒
間
閔
閵
閻
闌
门
间
闷
阑
阜
阝
阿
降
陳
隆
隊
隋
隡
隨
隱
隶
隹
隺
隻
隼
隽
难
雀
雁
集
雈
雋
雍
雐
雔
雙
雚
雜
雝
離
難
雨
雩
雪
雲
零
雷
需
霍
霜
霝
霞
霸
靈
靑
青
非
靡
面
靣
革
韋
韦
韭
韯
韱
音
頁
頃
項
須
頗
頡
頻
顛
页
風
风
飛
飞
食
飠
養
饣
首
香
馬
馮
駦
马
骨
高
髟
鬥
鬯
鬲
鬼
魚
魯
鮮
鱼
鲁
鳥
鳳
鸟
鹵
鹿
麃
麗
麥
麦
麻
黃
黄
黍
黎
黑
黒
黨
黹
黽
黾
鼎
鼓
鼠
鼻
齊
齋
齐
齒
齿
龍
龙
龜
龟
龠
龰
龱
龴
龵
龶
龷
龸
龹
者
艹
ﺍ
ﺎ
ﻟ
ﻤ
﻿
？
𠀁
𠀃
𠀆
𠀉
𠀎
𠀐
𠁁
𠁣
𠂆
𠂇
𠂈
𠂉
𠂊
𠂋
𠂎
𠂒
𠂔
𠂛
𠂡
𠂢
𠂤
𠂬
𠂭
𠂹
𠃊
𠃋
𠃌
𠃍
𠃎
𠃑
𠃓
𠃔
𠃜
𠄌
𠄎
𠄠
𠄢
𠆢
𠆥
𠇍
𠈌
𠌵
𠓜
𠔉
𠔥
𠔼
𠔽
𠔿
𠕀
𠕁
𠕋
𠘧
𠘨
𠙻
𠙼
𠚏
𠚒
𠚤
𠚪
𠣏
𠤎
𠤕
𠥓
𠦄
𠦑
𠦝
𠧒
𠧗
𠧪
𠩺
𠪚
𠫓
𠫔
𠫤
𠬛
𠬝
𠬞
𠬢
𠬤
𠬶
𠮛
𠮦
𠮷
𠯑
𠱠
𠳮
𠷎
𡈼
𡉀
𡉵
𡌥
𡍮
𡏳
𡕒
𡕩
𡕰
𡖅
𡗗
𡗜
𡘆
𡘤
𡧱
𡨄
𡩧
𡬠
𡭽
𡰣
𡰥
𡰪
𡰯
𡰱
𡷈
𡸁
𡿨
𡿩
𡿪
𡿺
𢀖
𢀛
𢀩
𢁙
𢆉
𢆰
𢆶
𢇁
𢇇
𢉖
𢌬
𢌿
𢏚
𢑑
𢑚
𢖻
𢙣
𢛳
𢦏
𢦒
𢧵
𢼄
𢾕
𣁋
𣄼
𣅀
𣅽
𣍘
𣎳
𣎵
𣏋
𣏼
𣗥
𣥂
𣥖
𣦵
𣦼
𣧄
𣪊
𣪠
𣬉
𣳾
𣶒
𤇾
𤊽
𤐫
𤓰
𤔔
𤕨
𤣩
𤰇
𤰔
𤰞
𤴓
𤴔
𤽄
𥁑
𥁕
𥃦
𥃩
𥃭
𥇡
𥑟
𥘅
𥘈
𥝢
𥫗
𥱡
𦈢
𦉪
𦉬
𦉼
𦍌
𦍒
𦎧
𦐇
𦓔
𦔮
𦘒
𦙃
𦚏
𦣝
𦣞
𦣻
𦥑
𦥔
𦥯
𦨉
𦭝
𦰩
𧆞
𧈧
𧘇
𧰨
𧴪
𧴮
𧵩
𧾷
𨸏
𨾴
𩙿
𩠐
𩫏
𩵋
𪉷
𪜀
𪟽
𪠲
𪩲
𫇦
𫔭
𫜸
𫝀
𫠣
𫠩
𫢉
𫥞
𫩏
𫩠
𫪡
𫲽
𫶧
𬀷
𬐘
𬗌
𬙙
𬛸
𬜯
𬟩
𬯁
𬴘
𬺻
𬼉
𬼖
𭀰
𭁈
𭁨
𭅰
𭑈
𭕄
𭗼
𭤨
𭥫
𭻾
𮅕
𮊿
𮍌
𮍏
𮓗
𮥼
𮧮
廾
𰀁
𰀄
𰀈
𰀉
𰀕
𰀠
𰀡
𰀢
𰀪
𰁜
𰃮
𰆊
𰆘
𰋙
𰕎
𰢴
𰧭
𰯲
13--
14--
15--
16--
17--
a--
aa--
aalık--
aar--
aaz--
aba--
ac--
acı--
ad--
adam--
adı--
ae--
ag--
ago--
ah--
aj--
ak--
aka--
aklı--
al--
ala--
alc--
ale--
ali--
alt--
alın--
am--
ama--
an--
ana--
and--
ang--
ap--
ar--
ara--
aramı--
arc--
argu--
as--
ash--
at--
ate--
ath--
aul--
aur--
av--
ava--
ay--
ayak--
ayle--
az--
b--
ba--
baa--
bak--
bal--
bar--
bas--
bay--
be--
bece--
bedr--
been--
bek--
ben--
ber--
bern--
bes--
bet--
bey--
bi--
bian--
bil--
bildi--
bili--
bin--
bir--
birbir--
biri--
bit--
bo--
bol--
bom--
bos--
bow--
boy--
boz--
bra--
brad--
brak--
brakm--
bre--
bri--
bro--
bu--
buk--
bur--
but--
by--
bırak--
bə--
c--
ca--
cam--
can--
car--
cas--
cast--
cat--
ce--
cem--
cen--
ceza--
ch--
cher--
ci--
cl--
co--
com--
con--
cos--
cri--
cu--
d--
da--
daa--
daat--
dal--
daw--
de--
dedel--
demok--
den--
departa--
der--
deu--
dev--
di--
dia--
dig--
dil--
dip--
diplo--
dis--
diz--
do--
dob--
dokum--
dokument--
dolay--
don--
dr--
du--
dur--
durgu--
dy--
e--
eb--
ec--
ed--
edi--
ee--
ef--
eg--
eh--
ej--
ek--
eket--
eki--
ekil--
eks--
el--
ele--
em--
en--
eng--
enter--
ep--
er--
erz--
es--
est--
et--
eusta--
ev--
evirt--
ey--
f--
fa--
fahr--
fan--
faz--
fe--
feh--
fer--
fi--
fin--
firma--
fk--
flo--
fo--
for--
free--
fu--
g--
ga--
gal--
galerey--
gam--
gar--
ge--
gece--
gel--
gemil--
ger--
geroy--
gez--
gi--
gil--
glo--
go--
gor--
gr--
gu--
h--
ha--
haf--
ham--
han--
har--
hart--
hava--
hay--
hazır--
he--
hel--
hen--
her--
hi--
hil--
ho--
hol--
hr--
hristi--
hristiyan--
hu--
hırsız--
i--
ic--
id--
ie--
ift--
ig--
ii--
ik--
il--
im--
in--
incel--
ine--
ins--
ir--
iri--
is--
istasi--
iste--
it--
iy--
iz--
j--
ja--
jan--
je--
jo--
ju--
jun--
jurna--
k--
ka--
kab--
kabar--
kai--
kal--
kale--
kalk--
kan--
kantaku--
kap--
kar--
kara--
karja--
kas--
kat--
kategor--
katı--
kav--
kay--
kaybe--
kaz--
ke--
ken--
kena--
ker--
kes--
ki--
kim--
kin--
kir--
kje--
kle--
ko--
kok--
kol--
kom--
koman--
komp--
kompani--
kon--
koor--
kork--
koru--
kos--
kot--
koy--
koyul--
kri--
kriz--
ku--
kul--
kulla--
kum--
kur--
kurt--
kut--
kır--
kırık--
kıs--
kız--
l--
la--
laf--
lam--
lan--
lar--
lat--
laur--
ld--
le--
len--
lep--
let--
lev--
ley--
li--
lib--
lim--
lke--
ll--
lo--
low--
lt--
lu--
luc--
ly--
lı--
m--
ma--
mac--
mag--
mah--
mal--
man--
mar--
mas--
mc--
me--
mec--
med--
mel--
melodiy--
men--
mer--
meropriyat--
mes--
mez--
mezar--
mi--
mil--
min--
mis--
mit--
mitr--
mitro--
mla--
mle--
mo--
mon--
mono--
mos--
mu--
mus--
mut--
muzey--
n--
na--
nan--
nat--
naz--
nd--
ne--
ner--
ng--
ni--
nl--
nnes--
no--
nor--
not--
nouve--
ns--
nu--
ny--
nya--
o--
observ--
oda--
og--
ok--
oku--
ol--
ola--
omu--
on--
ona--
or--
ora--
os--
ot--
ov--
ow--
oy--
p--
pa--
pak--
pal--
para--
parma--
pat--
pav--
pay--
pe--
pet--
pey--
pic--
pie--
pil--
pin--
pir--
pit--
piya--
po--
poe--
pol--
polovit--
pop--
popaz--
poz--
pra--
pre--
pres--
prim--
pro--
prob--
progr--
pros--
provi--
pu--
pun--
q--
qu--
r--
ra--
rad--
ram--
ran--
rap--
ras--
raud--
rd--
re--
ref--
ren--
rep--
ret--
rev--
rey--
reyk--
rez--
rho--
ri--
rk--
rm--
rn--
ro--
roos--
ros--
rs--
rt--
ru--
rus--
rut--
ry--
s--
sa--
sah--
sakha--
sal--
salo--
sam--
san--
sarı--
say--
sch--
schu--
se--
sem--
sen--
sense--
ses--
sev--
sevgi--
sevi--
sevinme--
sey--
sha--
she--
si--
sig--
siir--
sil--
sim--
sin--
sist--
sk--
so--
sokak--
sol--
som--
son--
soy--
sp--
spik--
spons--
st--
sta--
staty--
ste--
ster--
steri--
sti--
stu--
su--
suo--
sva--
sw--
sz--
sza--
sık--
sıma--
sır--
sıra--
sızın--
t--
ta--
tab--
tah--
tal--
tamam--
tan--
tanın--
tar--
taraf--
tay--
te--
tekst--
tel--
tema--
teo--
tepre--
ter--
tez--
th--
ti--
tiparla--
tir--
tiril--
to--
tol--
tom--
too--
top--
toplan--
tor--
tow--
tr--
tra--
trak--
tran--
tru--
ts--
tu--
tur--
turni--
tuta--
tutu--
ty--
tə--
u--
uc--
ul--
ulu--
um--
un--
unu--
unudu--
ur--
urgu--
us--
usta--
uur--
uyu--
uz--
v--
va--
van--
var--
ve--
veh--
ven--
ver--
vet--
vi--
vil--
vit--
viz--
vo--
voj--
voyvo--
vul--
vy--
w--
wa--
wag--
water--
win--
wit--
xa--
y--
ya--
yad--
yal--
yan--
yap--
yar--
yas--
yav--
yayı--
yaz--
ye--
yer--
yi--
yo--
yok--
yol--
yortu--
yu--
yı--
yık--
z--
za--
zanaat--
ze--
zeed--
zel--
zer--
zey--
zor--
zu--
ı--
ık--
ıl--
ın--
ır--
ıy--
ə--
əhə--
д--
л--
н--
с--
ты--
--0
--1
--2
--3
--4
--5
--6
--7
--8
--9
--a
--aa
--aba
--acek
--ach
--ad
--af
--ah
--ai
--ak
--al
--alı
--am
--an
--ane
--ano
--ar
--ard
--ari
--arist
--as
--ası
--at
--ati
--ator
--au
--ay
--az
--b
--ba
--bad
--bb
--bbs
--berg
--bo
--bu
--burg
--by
--bı
--c
--ca
--cak
--ce
--cek
--cez
--ch
--che
--ci
--cik
--cio
--ck
--co
--cu
--cuk
--cy
--cı
--cık
--cılar
--d
--da
--dakı
--dan
--dat
--de
--den
--det
--dge
--di
--dik
--dir
--do
--dog
--dom
--dra
--ds
--du
--dun
--dy
--dı
--dık
--dıp
--dır
--də
--dən
--e
--ea
--ec
--eca
--ed
--ee
--ein
--ej
--ek
--el
--eld
--ell
--em
--eme
--en
--ens
--ep
--er
--es
--escu
--ese
--et
--eux
--ev
--evi
--evna
--ew
--ey
--eya
--eydı
--ez
--f
--ff
--fi
--field
--g
--ga
--gan
--ge
--ger
--gh
--gi
--gir
--gna
--go
--gu
--gua
--h
--ha
--han
--hard
--he
--hi
--hn
--hold
--ht
--hy
--i
--ia
--ian
--ic
--ica
--id
--ida
--ie
--ien
--ier
--if
--ig
--ii
--ik
--ika
--il
--ilo
--im
--in
--ina
--ine
--ing
--ini
--inna
--io
--ion
--ip
--ir
--is
--ist
--istan
--it
--iv
--ix
--iy
--iya
--iye
--iz
--izm
--j
--ja
--jc
--je
--k
--ka
--kc
--ke
--ki
--ko
--ks
--kt
--kta
--ktan
--ku
--ky
--kı
--l
--la
--laa
--lah
--lamaa
--lan
--lane
--lanmis
--lar
--lara
--larda
--larnı
--ları
--ların
--larını
--ld
--lde
--ldı
--le
--len
--ler
--lera
--leri
--lerin
--lerni
--letsin
--lfo
--li
--lig
--lii
--liini
--lik
--lim
--lk
--ll
--lli
--llo
--lm
--lma
--lması
--lmıs
--lo
--lon
--lov
--ls
--lu
--luk
--luklan
--luu
--ly
--lı
--lık
--lılar
--lım
--lıs
--lıı
--lıını
--lə
--m
--ma
--maa
--mat
--mbo
--me
--mi
--mis
--miz
--mm
--mo
--mon
--mos
--mp
--ms
--mu
--my
--mı
--mıs
--mız
--n
--na
--nan
--nar
--narı
--narın
--narını
--nberg
--nc
--nca
--nd
--nda
--ndan
--nde
--ndi
--ndı
--ne
--nen
--ner
--neri
--nerinda
--ng
--ni
--nia
--nik
--nin
--nlan
--nn
--nna
--nnan
--no
--ns
--nt
--nte
--nu
--nuel
--nun
--ny
--nı
--nık
--nın
--nız
--o
--ock
--od
--og
--olo
--olog
--om
--on
--ond
--op
--or
--ory
--os
--ota
--ov
--ova
--ovic
--ovich
--ovka
--ovsk
--ow
--owitsch
--oy
--oz
--p
--pa
--pc
--pe
--pi
--pol
--pta
--q
--que
--r
--ra
--rak
--ram
--rat
--rd
--rda
--rdı
--rdık
--re
--rg
--ri
--ria
--rie
--ries
--ris
--rmıs
--ro
--rov
--rt
--ru
--ry
--rı
--rın
--rına
--s
--sa
--sal
--sc
--se
--sel
--sen
--ser
--sh
--si
--sik
--sin
--sini
--siya
--siz
--sk
--skaya
--ski
--sky
--so
--son
--sov
--sson
--st
--ste
--ster
--ston
--su
--suz
--sy
--sı
--sın
--sına
--sında
--sınnan
--sını
--sının
--sız
--t
--ta
--tal
--tan
--tar
--tc
--te
--ten
--th
--ti
--tia
--tik
--tika
--tion
--tiv
--to
--ton
--tor
--tov
--tra
--tt
--tti
--tu
--ty
--tz
--tı
--tın
--tısı
--u
--ud
--ue
--uh
--ui
--uk
--ul
--um
--un
--una
--unu
--up
--ur
--us
--ut
--uu
--uz
--v
--va
--vac
--ve
--vi
--vo
--vs
--w
--wick
--wn
--x
--y
--ya
--yca
--ydi
--ydı
--ye
--yev
--yi
--yip
--yla
--ylan
--ymıs
--yn
--yna
--ynan
--yor
--ys
--yu
--yı
--yım
--z
--za
--zdı
--zi
--zo
--zzi
--ı
--ık
--ılan
--ılması
--ım
--ın
--ına
--ınca
--ında
--ını
--ıp
--ır
--ıs
--ıy
--ız
--ıza
--ə
--ər
--а
--л
--я
--і
