!
"
#
##0
##1
##10
##11
##12
##13
##14
##15
##16
##17
##18
##19
##2
##20
##21
##22
##23
##24
##25
##26
##27
##28
##29
##3
##30
##31
##32
##33
##34
##35
##36
##37
##38
##39
##4
##40
##41
##42
##43
##44
##45
##46
##47
##48
##49
##5
##50
##51
##52
##53
##54
##55
##56
##57
##58
##59
##6
##60
##61
##62
##63
##64
##65
##66
##67
##68
##69
##7
##70
##71
##72
##73
##74
##75
##76
##77
##78
##79
##8
##80
##81
##82
##83
##84
##85
##86
##87
##88
##89
##9
##90
##91
##92
##93
##94
##95
##96
##97
##98
##99
$
%
&
'
(
)
*
+
,
-
.
/
0
00
000
01
02
03
04
05
06
07
08
09
1
10
100
1000
101
1016
102
1022
103
104
105
106
1063
107
108
109
11
110
1100
111
112
113
114
115
116
117
118
119
12
120
121
122
123
124
125
126
127
128
129
13
130
131
132
1327
133
134
135
136
137
1377
138
1382
1385
139
1390
1399
14
140
141
1413
142
1423
143
1434
144
145
146
1468
147
148
149
15
150
1500
1509
151
1513
152
153
154
1547
155
1553
1557
156
1566
157
1572
1574
1576
158
1586
159
16
160
1603
1605
161
162
1627
1629
163
1632
164
1642
1643
1648
165
1658
166
167
1672
168
1687
169
17
170
1709
171
1715
172
1722
173
1730
1734
174
175
1758
176
177
1774
1779
178
1789
179
1792
1797
18
180
1806
1809
181
1813
1817
182
1822
183
1830
1832
1834
1837
1839
184
1846
1848
185
1850
1851
1852
1853
1854
1855
1859
186
1860
1861
1862
1863
1864
1865
1866
1867
1868
1869
187
1870
1871
1872
1873
1874
1875
1876
1877
1879
188
1880
1881
1882
1883
1884
1885
1886
1887
1888
1889
189
1890
1891
1892
1893
1894
1895
1896
1897
1898
1899
19
190
1900
1901
1902
1903
1904
1905
1906
1907
1908
1909
191
1910
1911
1912
1913
1914
1915
1916
1917
1918
1919
192
1920
1921
1922
1923
1924
1925
1926
1927
1928
1929
193
1930
1931
1932
1933
1934
1935
1936
1937
1938
1939
194
1940
1941
1942
1943
1944
1945
1946
1947
1948
1949
195
1950
1951
1952
1953
1954
1955
1956
1957
1958
1959
196
1960
1961
1962
1963
1964
1965
1966
1967
1968
1969
197
1970
1971
1972
1973
1974
1975
1976
1977
1978
1979
198
1980
1981
1982
1983
1984
1985
1986
1987
1988
1989
199
1990
1991
1992
1993
1994
1995
1996
1997
1998
1999
2
20
200
2000
2001
2002
2003
2004
2005
2006
2007
2008
2009
201
2010
2011
2012
2013
2014
2015
2016
2017
2018
2019
202
2020
2021
2022
203
204
205
206
207
208
209
21
210
211
212
213
214
215
216
217
218
219
22
220
221
222
223
224
225
226
227
228
229
23
230
231
232
233
234
235
236
237
238
239
24
240
241
242
243
244
245
246
247
248
249
25
250
251
252
253
254
255
256
257
258
259
26
260
261
262
263
264
265
266
267
268
269
27
270
271
272
273
274
275
276
277
278
279
28
280
281
282
283
284
285
286
287
288
289
29
290
291
292
293
294
295
296
297
298
299
3
30
300
301
302
303
304
305
306
307
308
309
31
310
311
312
313
314
315
316
317
318
319
32
320
321
322
323
324
325
326
327
328
329
33
330
331
332
333
334
335
336
337
338
339
34
340
341
342
343
344
345
346
347
348
349
35
350
351
352
353
354
355
356
357
358
359
36
360
361
362
363
364
365
366
367
368
369
37
370
371
372
373
374
375
376
377
378
379
38
380
381
382
383
384
385
386
387
388
389
39
390
391
392
393
394
395
396
397
398
399
4
40
400
401
402
403
404
405
406
407
408
409
41
410
411
412
413
414
415
416
417
418
419
42
420
421
422
423
424
425
426
427
428
429
43
430
431
432
433
434
435
436
437
438
439
44
440
441
442
443
444
445
446
447
448
449
45
450
451
452
453
454
455
456
457
458
459
46
460
461
462
463
464
465
466
467
468
469
47
470
471
472
473
474
475
476
477
478
479
48
480
481
482
483
484
485
486
487
488
49
490
491
492
493
494
495
496
497
498
499
5
50
500
501
502
503
504
505
506
507
508
509
51
510
511
512
513
515
516
517
518
519
52
520
521
522
523
524
525
526
527
528
529
53
530
531
532
533
534
535
536
537
538
539
54
540
541
542
543
544
545
546
547
548
549
55
550
551
552
553
554
555
556
557
558
559
56
560
561
562
563
564
565
567
568
569
57
570
571
572
574
575
576
577
578
579
58
580
581
582
583
584
585
586
587
589
59
590
593
594
597
598
599
6
60
600
601
602
603
604
605
607
609
61
610
611
612
614
615
616
617
618
62
620
621
622
623
625
626
628
629
63
630
632
635
639
64
640
641
642
645
646
648
65
650
651
655
656
658
66
661
664
668
67
672
674
675
676
68
682
684
686
689
69
690
694
697
7
70
700
704
707
71
710
715
716
717
72
720
724
726
727
728
73
737
74
741
742
749
75
750
754
755
756
757
758
76
760
761
764
77
770
773
775
78
781
785
786
79
791
796
797
8
80
800
802
803
806
809
81
810
82
821
823
827
828
829
83
833
836
84
840
843
85
850
852
858
86
864
87
874
876
877
88
887
89
897
898
9
90
900
901
909
91
910
911
912
916
92
923
93
930
934
936
939
94
944
946
95
954
959
96
968
97
970
975
976
978
98
986
99
995
996
997
:
;
<
=
>
?
@
[
\
]
^
_
`
a
aargau
ab
abadan
abadeh
abarkuh
abau
abbas
abbasabad
abbaye
abbe
abd
abdanan
abdul
abezhdan
abhar
abish
about
abruzzo
abu
abyek
ac
aceh
actual
adamaoua
adams
adana
adda
administrative
adygea
adıyaman
afamba
afarin
afghanistan
afshar
afyonkarahisar
ag
agan
age
agong
ah
ahar
ahmad
ahmadabad
ahmadi
ahvaz
ai
aignan
aigues
ain
air
aire
aisne
aix
ak
akbar
akhtachi
akiai
akmene
akono
aksaray
al
alabama
alagoas
alam
alamut
alan
alanta
alaska
alba
albacete
alban
alberobello
albert
alborz
alc
alcala
aleksandro
alessandria
alexander
alexandrovsky
alexeyevsky
algeria
ali
aliabad
alicante
aligudarz
all
allah
alldata
allegheny
allen
allier
almeri
alpes
alphabet
alsace
altai
altenkirchen
alto
alutaguse
alvar
alytus
am
amand
amasya
amazonas
america
american
amir
amirabad
amlash
amol
amt
amur
an
ana
anar
anbarabad
anc
and
andaluci
anderson
andhra
andika
andimeshk
andre
andrea
andrew
ang
angeles
angelo
anguran
angut
anguti
ani
anjou
ankara
anna
anne
annual
antalya
antioquia
antoine
antonio
antonovo
any
anyks
ap
apportionment
april
apristurus
aq
aqa
aqqala
aquila
aquitaine
ar
arad
aragatsotn
arago
arak
aran
arc
archive
archived
ardabil
ardahan
ardakan
ardal
arde
ardenne
ardennes
ardestan
are
area
argentina
arges
argonne
arie
arizona
arkansas
arkhangelsk
armagnac
armenia
armor
aro
arrondissement
arsanjan
arshaq
art
arthur
artvin
ary
arzuiyeh
as
asadabad
asalem
ashrafiyeh
asia
asiab
asian
aslan
asnie
assam
association
astaneh
astara
asti
astrakhan
astros
at
athletics
atlantique
atlantiques
atomic
au
aube
aubigny
aubin
aude
auge
august
augusto
aukele
auks
aurgazinsky
australia
auvergne
aux
ava
avaj
avellino
aveyron
avit
awards
ay
aydın
az
azadegan
azadshahr
azerbaijan
aziz
azna
azur
b
ba
baba
babajani
babak
babol
babolsar
baca
bad
badajoz
baden
bafq
baft
bagh
bah
bahar
bahia
bahmai
bahram
bai
bailleul
bailly
bains
bajestan
bak
bakesh
bakharz
bakhsh
bakhtiari
bala
baladeh
baltimore
baluchestan
bam
bampur
ban
band
bandar
bandpey
baneh
bangladesh
bank
banska
baqeran
bar
baranya
bard
bardaskan
bardsir
bari
barthe
bartoszyce
baruq
bas
baseball
basel
bashagard
bashkortostan
basht
basilicata
basse
bastak
bastide
bat
bavanat
bavaria
bavi
bay
bayern
bazar
bazman
bazoches
bazoft
bbc
be
beach
beauce
beaufort
beaulieu
beaumont
beaune
beauvoir
bec
bedfordshire
beh
behabad
behbahan
behshahr
bel
belarus
belfort
belgorod
bell
belle
bellegarde
belleville
belmont
belmonte
ben
benes
bengalen
beni
benoi
benton
beradust
bereg
bergen
berkshire
berlin
bernard
bernkastel
beroun
besharat
bevo
beyza
bełchato
bi
bia
biała
białobrzegi
białogard
białystok
bibcode
bica
bice
bid
bie
bielsk
big
bih
bihar
bihor
bijar
bileh
billy
bilopillia
bin
bio
birjand
birkenfeld
birz
bistrit
bitburg
biłgoraj
bkowice
black
blagoevgrad
blagoveshchensky
blaise
blanc
blanche
blansko
ble
blekinge
blue
bo
boa
boah
bocage
bochnia
body
boe
bohemia
bois
boissie
boissy
bojnord
bolagh
boldsymbol
boleslav
bolesławiec
boli
bolivia
bon
bonab
boneh
bong
bonnet
book
books
boone
bor
bordes
borek
borgo
bork
borki
borough
borsod
borujen
borujerd
bosc
boshruyeh
bostanabad
boston
botos
bouches
boulogne
bourg
bourgogne
boyaca
boyer
boz
bozorg
br
bra
brabant
bram
braniewo
bras
bratislava
bray
bre
bresse
bretagne
breuil
brewers
brianza
brice
brie
britain
britannica
british
brno
bro
brod
brodnica
brody
browa
brown
browns
brunei
bruye
bryansk
brzeg
brzeski
brzez
brzeziny
bu
bubiai
buckinghamshire
buda
bude
budy
buffalo
buin
bukan
bulgaria
bunun
bureau
burgas
burgos
burkina
burundi
buryatia
bus
bushehr
busko
bussie
bussy
but
butler
buza
by
byaban
bydgoszcz
bystr
bystrica
byto
bı
c
ca
cadore
calabria
calais
calhoun
california
calvados
cambre
cambridge
cambridgeshire
cameron
cameroon
camp
campagne
campania
campbell
campo
campos
can
canada
canavese
cantal
canto
cao
capelle
caras
carbon
cardinals
carl
carolina
carroll
carter
caserta
cass
castel
castello
castelnau
castelnuovo
castelo
castiglione
castilla
castillon
castle
castro
catalunya
catania
catanzaro
catarina
caumont
caux
cctld
cd
cdp
ce
ceara
cedict
celle
celles
census
center
centers
central
centre
century
ceres
cerro
ch
cha
chabahar
chadegan
chah
chahar
chahardangeh
chaharduli
chaharmahal
chai
chal
chaldoran
chalus
cham
chamaraja
chambon
champ
champagne
champigny
champs
chan
chang
chapelle
charam
chardavol
charente
charentes
charles
charlotte
charusa
charuymaq
chat
chau
chaumont
chausse
chaux
chay
chaypareh
che
cheh
chehel
chek
chelo
chemical
chemistry
chenar
chenaran
cheng
cher
cherkasy
chernihiv
chernivtsi
cherokee
ches
cheshire
cheshmeh
chester
chełm
chełmno
chha
chhah
chham
chhan
chhang
chhap
chhat
chhau
chhe
chheh
chhek
chheng
chhi
chhia
chhiah
chhiam
chhian
chhiat
chhiau
chhih
chhim
chhin
chhio
chhioh
chhiok
chhiong
chhit
chhiu
chhn
chhng
chho
chhoa
chhoah
chhoan
chhoe
chhong
chhu
chhui
chhun
chhut
chhı
chi
chia
chiah
chiam
chiang
chiap
chiat
chiau
chicago
chieti
chih
chile
chim
chin
china
chinese
chio
chioh
chiok
chiong
chip
chit
chittagong
chiu
chn
chng
cho
choa
choah
choan
chod
chodziez
choe
choeh
choh
chojnice
chok
chola
chong
choszczno
christian
christine
christophe
christopher
chrudim
chu
chui
chun
chut
chy
chı
cia
cian
cie
ciechano
cielne
cielny
cierzyna
cin
city
ciudad
civil
ck
clair
clark
claude
clay
cle
clermont
cleveland
clinton
cluj
co
cochem
code
cole
colle
colombe
colombia
colombier
colorado
columbia
com
commission
committee
common
commons
commune
community
companion
company
complet
complex
comte
comuna
comune
con
conde
connecticut
constant
consultato
contarini
cook
coptic
corbie
cornwall
corre
corse
corsica
cosenza
cosh
costa
counties
country
county
courcelles
cours
court
crawford
crc
cre
creek
cremona
creuse
croatia
croix
cruz
cs
csv
cu
cuba
cuenca
cumberland
cumbria
cundinamarca
cuneo
cy
cyr
cz
czarna
czarnko
cze
czech
czna
czno
czo
czyca
czyn
czyz
człucho
d
da
dabudasht
dade
dadkhoda
dai
dainiai
dakota
dalahu
dalarna
dalgan
dallas
damavand
dame
damghan
dampierre
dan
dana
daniel
dar
darab
darband
dard
dargaz
dari
darmian
darreh
das
dash
dasht
dashtestan
dashti
dashtiari
dastgerdan
data
dauge
david
davis
day
de
december
deh
dehaj
dehdasht
dehdez
dehestan
dehgolan
dehloran
dei
dek
dekalb
del
delaware
delfan
delhi
dell
della
delle
delta
den
denis
denmark
departamento
department
der
deraz
derbyshire
dermanland
des
detroit
deux
devant
development
devon
deylaman
deyr
dezful
dezh
dhaka
di
dicembre
dict
dictionary
didier
die
din
dinavar
dis
disney
displaystyle
district
districts
distrito
dithmarschen
divandarreh
dna
dnipropetrovsk
do
doab
dobr
dobra
dobre
dobrich
dobrichka
dobrzyn
doc
dodangeh
doge
doi
dokhtar
dol
dolj
dolna
dolne
dolni
dolnos
dolny
dolyna
domain
domenico
dominica
dominicana
dommartin
dompierre
don
donald
donetsk
dordogne
dorset
dorud
dos
doshman
dossier
doubs
douglas
dowlatabad
dowreh
dr
dra
drama
drawsko
drenthe
drezdenko
dro
dryanovo
drzejo
du
dubno
dun
durham
dust
duz
dwo
dy
dz
działdowo
dzierz
dzierzyn
dzkie
dzycho
dzyrzecz
e
east
eaux
ebi
ebrahimabad
ec
eckernfo
ecuador
ed
edition
edo
edward
eh
eikiai
ek
el
elbla
elektre
elements
elena
elizabeth
elva
emam
emamzadeh
emilia
emmy
emsland
en
encyclopedia
end
eng
england
english
epinephelus
eqlid
erfu
erov
es
esfarayen
eska
eske
esky
eslamabad
esmaili
essex
essonne
est
este
estonia
estre
et
ethiopia
eure
europa
european
evo
excel
extre
extremadura
eyvan
ez
ełk
f
fa
facebook
factbook
fahraj
falard
falavarjan
falls
famenin
farahan
farashband
fariman
fars
faruj
faryab
fasa
faso
fathabad
fatimah
fay
fayette
fe
feature
february
federal
feje
ferdows
fereydunshahr
ferrie
ferte
fhl
figures
file
files
fin
finiste
firmin
first
firuzabad
firuzeh
firuzkuh
fishbase
flag
fle
flensburg
fleury
florence
florida
folkma
fontaine
fontaines
fontenay
for
force
fore
forest
forges
formosa
fort
fosse
fou
foy
frac
franc
france
francesco
franche
francis
francisco
frank
frankivsk
franklin
franz
fre
frederick
freguesia
fresne
fresnes
fresnoy
fribourg
friedrich
friesland
friuli
from
front
frontera
frosinone
fry
fu
fulton
fuman
g
ga
gabrovo
gachsaran
gafr
gah
gahvareh
gajo
galicia
galikash
game
ganaveh
ganj
gard
garmsar
garmsiri
garonne
garwolin
gavkan
gaz
gdan
gdp
ge
gelderland
gemeinde
gemeinden
gemeng
gene
general
genest
geograficznym
geographical
geonames
geonet
george
georges
georgia
ger
gerais
germain
german
germi
gers
gervais
ges
geschlecht
geva
gharb
gharbi
gi
gia
giai
giang
giants
giedraic
gilan
gilles
gio
giorgio
giovanni
gironde
giu
giulia
giz
gks
glise
global
gmina
gniezno
go
goa
goe
goia
gol
golbajar
golden
golenio
golestan
golgir
goli
golpayegan
golub
gonabad
gonbad
google
gorgan
gorlice
gorokhovetsky
gorzewo
gorzo
gos
gostyn
gostynin
gotland
gotvand
gou
gov
government
gowharan
gowo
gołdap
gra
grabo
grajewo
grammy
granada
grand
grande
granges
grant
gray
gre
great
green
greene
gregorius
gro
grodzisk
groningen
grosso
group
grove
growiec
grudzia
gryfice
gryfino
gu
gua
guadalajara
guatemala
gue
gui
guide
guinea
gujarat
gur
gurab
gus
gut
gy
gyo
gyvenviete
gı
głogo
głubczyce
h
ha
haft
hah
hai
hajj
hajji
hajjiabad
hajno
hak
haljala
hall
halland
ham
hamadan
hamaijan
hamburg
hamilton
hampshire
han
hancock
handbook
hang
hans
hanza
hap
harju
harrison
harry
harsin
harvard
haryana
hasan
hasanabad
hashem
haskovo
hat
hati
haut
haute
hautes
hauts
haviq
havli
hawaii
haye
he
heights
hek
help
henderson
heng
henri
henry
her
heris
herzogtum
hesar
heves
heydarieh
hi
hia
hiah
hian
hiang
hiat
high
highway
hiiu
hiiumaa
hilaire
hill
hills
him
hio
hioh
hiong
hip
hippolyte
hiragana
hirmand
his
hist
history
hit
hiu
hja
hm
hn
hng
ho
hoa
hoah
hoan
hoat
hodoni
hoe
hoeh
hok
holland
holo
holopedia
holstein
home
honduras
hong
hor
hora
hormozgan
horni
horodok
hoseyn
hoseynabad
house
housing
houston
hoveyzeh
how
howard
howmeh
hr
hradec
hradis
hrubieszo
http
https
hu
hua
huat
hue
huesca
hui
huih
human
humber
hun
hunsru
hut
huta
huye
hı
i
ia
iadorys
iah
iai
ian
iau
iauliai
ibn
ic
ice
ichu
id
ida
idaho
idris
iglinsky
ignalina
ignored
ih
ii
iii
ijrud
il
ilale
ilam
ilina
ille
illinois
ilute
im
image
imov
in
ina
inc
indian
indiana
indians
indre
industrial
ine
influential
infobox
information
ing
ininkai
inowrocław
insee
institute
interface
international
internet
introduction
inturke
inva
io
ioh
iok
iong
ionys
iowa
ipa
ir
iran
irandegan
iranian
iranshahr
iraq
iron
irvintos
is
isa
isbn
ise
isfahan
islam
islamic
island
isle
ismail
iso
isola
istat
it
italia
its
iu
ius
iv
ivanivka
ivano
iz
izeh
iława
j
ja
jackson
jacques
jae
jafarabad
jahanabad
jahrom
jajrom
jam
james
jammu
jan
janeiro
jangal
jano
january
jar
jargalan
jarocin
jarosław
jas
jask
jasper
jasło
javanrud
jawa
jayavarman
jays
jazmurian
je
jean
jebalbarez
jec
jefferson
jereh
jersey
jet
jez
jezd
jharkhand
ji
jia
jiah
jic
jih
jihlava
jim
jindr
jio
jiok
jip
jiroft
jiten
jiu
jo
joa
joan
joe
joghatai
john
johnson
jolfa
jolgeh
jonava
jones
jonis
jonubi
jose
joseph
journal
jouy
jov
jovice
jowayin
jowkar
jr
ju
juan
julien
julius
july
june
jung
jura
jurbarkas
just
juybar
jı
k
ka
kabgian
kabud
kabudarahang
kaghazkonan
kah
kahnuj
kahnuk
kahriz
kai
kais
kak
kakavand
kakhk
kal
kalaleh
kalat
kalateh
kaleybar
kalimantan
kalisz
kalmar
kalvarija
kalynivka
kam
kameshkovsky
kamianets
kamianka
kamien
kamin
kampuchea
kamyaran
kan
kana
kand
kandi
kandovan
kang
kangavar
kani
kansas
kap
karaj
kardzhali
karim
karimabad
karl
karlovy
karmaskalinsky
karnataka
kartuzy
karun
karvan
karzin
kas
kashan
kat
katakana
kau
kaunas
kavar
kavarskas
kavir
kayes
kazerun
kazimierz
kazimierza
kazlu
ke
kecamatan
keh
kek
kelardasht
kelle
kelme
ken
kenar
keng
kennedy
kent
kentucky
kenya
kerala
kerman
kermanshah
kha
khaf
khah
khai
khak
khalifah
khalifan
khalkhal
kham
khamir
khan
khaneh
khang
khani
kharameh
kharkiv
khash
khatam
khau
khe
kheh
khek
kheng
kherson
kheyrabad
khezel
khi
khia
khiam
khian
khiau
khim
khin
khio
khioh
khiok
khip
khit
khiu
khmelnytskyi
khmer
khn
kho
khoa
khoah
khoan
khoat
khoda
khodabandeh
khoe
khoeh
khok
khomeyn
khondab
khong
khonj
khorasan
khorram
khorramabad
khorramshahr
khoshab
khoy
khrustalny
khu
khua
khui
khun
khusf
khut
khutor
khuzestan
khvajeh
khı
ki
kia
kiai
kiam
kian
kiap
kiar
kiat
kiau
kielce
kiev
kik
kim
kin
king
kio
kiok
kiong
kip
kirkovo
kirovohrad
kis
kiskun
kiu
kladno
klaipe
klatovy
kluczbork
km
kn
kne
kng
knox
ko
koa
koah
koai
koan
koat
koc
koe
koeh
koh
kohgiluyeh
kohneh
kojur
kok
kola
kolchuginsky
koli
kolno
kolonia
kolyai
koma
komijan
kommun
kommune
kon
konarak
kong
konin
kos
kose
koshkuiyeh
kostelec
koszalin
kota
koulikoro
kov
kovice
kovrovsky
kowsar
koz
kozienice
koło
kołobrzeg
kr
kra
krako
kras
krasne
krasnystaw
kraz
kreise
krekenava
kretinga
kreuznach
kro
kronoberg
kros
krosno
krotoszyn
krumovgrad
krynychky
krzyz
ks
ku
kua
kuan
kudymkarsky
kue
kugarchinsky
kuh
kuhbanan
kuhdasht
kuhestan
kuhpayeh
kuhrang
kuhsar
kui
kujawski
kujawsko
kun
kupis
kurdistan
kurs
kusel
kushk
kut
kutno
kuusalu
kuyavia
kuz
kwidzyn
ky
kyustendil
kı
kızılcahamam
kłobuck
kłodzko
l
la
labastide
labem
laboratory
lac
lachapelle
lafayette
laga
lagarde
lah
lahijan
lahn
lai
lak
lake
lalehabad
lali
lama
lambert
lamerd
lan
lancaster
land
landareal
lande
landeh
landes
landesamt
landkreis
lang
langarud
language
languages
languedoc
larestan
larijan
las
lat
latin
latvia
lauenburg
launch
lauragais
laurent
laval
law
lawrence
lay
layon
lazdijai
lazio
le
lebedyn
lecce
lecco
lee
left
legnica
leh
lek
lekie
leliu
lemy
leng
lengeh
lenjan
leo
leopold
les
lestwa
leszno
level
lewis
lez
lga
lhota
li
lia
liai
liam
lian
liap
liberec
liberty
libo
library
lice
lidzbark
lie
lietuva
life
lignie
ligny
ligure
liguria
lih
lilium
lim
lima
limburg
limousin
lin
lincoln
link
lio
lipno
lipsko
lis
list
lithuania
litome
little
littoral
liu
lix
lka
lkerung
lkerungsstand
llenden
lno
lo
loa
localities
locality
loe
logan
loges
loir
loire
loiret
lok
lombardia
london
long
lordegan
lorenzo
lorestan
lori
lorraine
los
lot
louis
louisiana
loup
love
lovech
lower
loze
ltsamaa
lu
lubaczo
lubarto
lubelski
lubelskie
lubin
lublin
lubuskie
lubusz
luc
ludab
luh
luhansk
lui
luxembourg
luz
lva
lviv
lwo
ly
lyman
lys
lı
m
ma
mac
macedonia
machine
madagascar
madan
madhya
madison
madrid
maggiore
magny
magyar
mah
mahabad
mahallat
mahalleh
mahan
maharaja
maharashtra
mahidasht
mahmud
mahmudabad
mahneshan
mahru
mahshahr
mahur
mahvarmilani
mahvelat
mai
maine
maint
maison
maisons
major
mako
maku
mala
malard
malayer
malbork
male
malek
malekan
mali
mamasani
mamulan
man
mancha
manche
mandarin
maneh
mangur
mansur
manujan
map
maps
mar
marais
marand
maranha
maraveh
marc
marcel
march
marche
marcilly
marco
mard
mare
mareuil
margown
marguerite
mari
maria
marie
marigny
marijampole
marion
maritime
maritimes
marivan
mark
markazi
marne
marolles
mars
marshall
marti
martial
martin
martino
marvdasht
marvel
mary
maryland
mas
masal
mashhad
mashiz
masjed
masovia
massa
massachusetts
masuria
mato
maule
maurice
may
mayenne
mayo
maz
mazandaran
mazhan
mazowiecka
mazowiecki
mazowieckie
mazraeh
mazurskie
mała
małe
małopolskie
mały
mbam
mbovit
mc
me
media
mehdiabad
mehrestan
mehriz
melenkovsky
men
ment
mer
mercer
mercia
mes
meshgin
mesnil
mesorregia
messier
messina
mets
metz
meurthe
meuse
mexico
meyami
meyaneh
meymand
meymeh
mi
mia
miami
mian
miandoab
miandorud
miankuh
miasto
michael
michel
michigan
microrregia
microsoft
middlesex
midi
midlands
mie
miecho
miejska
miejsko
mielec
miguel
mih
milano
milicz
military
milwaukee
min
minab
minas
minervois
mines
minh
minjavan
minnesota
minudasht
mir
mirabad
miranda
mirjaveh
mirza
mississippi
missouri
mitchell
miyan
mlada
mlb
mm
mn
mo
moa
mobarakeh
model
moe
mogilno
mogul
mohammad
mohammadabad
mohammed
mohr
mole
molise
molla
mon
monferrato
monroe
mons
mont
montagne
montana
monte
montfort
montgomery
montigny
montre
montreuil
monts
mopti
mora
morad
moravia
morbihan
more
morgan
morocco
mortagne
morvan
moscow
moselle
moson
most
mostyska
motte
moulins
moungo
mount
mountain
moutiers
mowtowr
mozambique
mra
mtland
mu
mud
muderiah
muhammad
mulgi
munici
municipalities
municipio
murad
museum
music
mustvee
my
mykhailivka
mykolaiv
mykolaivka
mys
mysore
mı
mława
młyn
n
na
nac
nach
nad
nadu
nah
nahavand
nai
nain
najafabad
nakhon
nakło
nam
name
names
namibia
namin
namysło
nan
nancy
naoyosi
napoli
naqadeh
nare
narmashir
nasa
nasrabad
natanz
national
naujoji
navarra
nazaire
nazarabad
nazi
nazlu
nc
nd
ndia
ne
nebraska
nec
neh
nehbandan
neka
nekor
nel
nemenc
neranna
nes
net
neuf
neuilly
neuve
neuville
neuvy
nevada
new
news
newton
neyriz
ng
nga
ngc
ngd
nge
ngi
ngia
ngo
nguye
nh
ni
nia
niau
nica
nicaragua
nice
nichi
nicolas
niczo
nidzica
nie
niedersachsen
nigeria
nigula
nih
nija
nik
nil
nin
ninh
nio
nir
nis
nishapur
nitra
niu
niz
nizhny
nkam
nko
nm
nn
no
noa
nobel
noble
nogent
non
nord
nordfriesland
norman
normandie
norrbotten
norte
north
northumberland
norway
nosratabad
not
notre
nottinghamshire
nou
noue
nov
nova
novads
novara
nove
november
novgorod
novi
novo
novohrad
novy
novyi
now
nowa
nowe
nowshahr
nowy
noyers
nu
nukabad
nur
nurabad
nusa
ny
nyong
nysa
nı
o
oa
oai
oak
oakland
oan
oat
obc
obec
obeliai
oblast
oborniki
obshtina
och
oclc
october
odessa
odrzan
oe
of
office
official
ogawa
oh
ohio
ois
oise
ojarud
ok
okinawa
oklahoma
okolie
okres
ol
old
ole
olecko
oleksandrivka
oles
olesno
olkusz
olomouc
olsztyn
olt
olya
olympic
omidiyeh
on
onard
one
ong
online
opato
open
opoczno
opole
opolski
opolskie
ops
or
orange
orbital
oregon
org
orge
orientales
orioles
orissa
oristano
orlici
ormes
orne
os
osada
oshnavieh
osiek
osman
ostro
ostrowiec
ostrołe
ostrzeszo
otaqvar
otepa
othe
otto
otwock
ou
ouche
oued
ouen
ouest
ov
ova
over
overijssel
ovice
ovruch
oxford
oxfordshire
oz
ozgoleh
oława
p
pa
paberz
pabianice
pac
padena
padova
page
pages
pah
pain
paje
pak
pakdasht
pakistan
pakruojis
palais
palencia
palm
pan
panama
pande
paneve
pang
panj
papi
papilis
papua
par
para
parai
parameter
parana
parczew
pardoux
pardubice
paris
parish
pariz
park
parmon
parsabad
part
partement
pas
pasargad
passer
pasvalys
pat
pataveh
patiala
patrick
pau
paul
paulo
paveh
pavia
pays
paz
pazardzhik
pdf
pe
pedro
peh
peipsia
pek
pelhr
pen
peng
pennsylvania
people
per
perche
perm
permsky
pernambuco
pernik
perry
pertuan
peru
pest
peter
petit
petite
petrich
petushinsky
pfalz
pha
phah
phak
phang
phe
phek
pheng
phi
phia
phiah
phian
phiat
phiau
philadelphia
phio
pho
phoa
phoe
phok
phonetic
phong
phu
phut
physics
phı
pi
pia
piah
pian
piano
piaseczno
piaski
piat
piau
piaui
piave
picardie
pie
piemonte
pierce
pierre
pierrefitte
pietro
pieve
pieŋ
pih
pike
pin
pine
ping
pins
pio
piotrko
pir
piranshahr
pirates
pish
pishkuh
pisz
pit
pital
pittsburgh
piła
plain
plaine
plan
ple
plessis
pleszew
pleven
plo
plovdiv
plunge
plzen
pmid
pn
pno
po
poa
poah
pod
podde
podilskyi
podkarpackie
podlaska
podlaski
podlaskie
poe
poeh
poggio
point
poitou
poj
pok
poke
pol
polan
poldasht
pole
police
polis
polk
polkowice
polskiego
poltava
pomerania
pomorskie
pont
ponte
popest
population
port
portal
porto
pos
posht
poshteh
poshtelu
poshtkuh
post
potenza
pouilly
powiat
poznan
pp
pr
pradesh
praha
pre
pres
press
prienai
priest
prince
privat
project
propulsion
proste
proszowice
provence
province
provincia
pru
prudnik
przasnysz
przemys
przysucha
pu
public
publishing
puck
puebla
puerto
puglia
puh
pun
punjab
put
putnam
puy
puławy
pułtusk
py
pyre
pyrzyce
pı
płock
płon
q
qabus
qaem
qaen
qajar
qaleh
qand
qaqazan
qarah
qareh
qasemabad
qasr
qatruyeh
qazi
qazvin
qeshlaq
qeshm
qir
qoli
qom
qorqori
qorveh
qua
quartal
quchan
que
quentin
quercy
r
ra
rabor
rac
radom
radomsko
radvilis
radziejo
radzyn
rafsanjan
rahimabad
rahmatabad
rain
raion
raja
rajshahi
rama
ramhormoz
ramian
ramo
ramsar
ramshir
rand
randolph
rangers
rapla
ras
raseiniai
rasht
rastaq
rault
ravansar
ravar
rawa
rawicz
ray
raya
rayen
raz
razan
razavi
razgrad
rd
rde
rdoba
re
reachea
real
rebro
rec
red
ref
reference
reggio
region
register
rem
remy
ren
rendsburg
report
republic
res
research
results
retrieved
review
rey
reza
rezvanshahr
rhein
rheinland
rhin
rho
rhode
ri
ria
rica
richard
richland
ricourt
ridala
rietavas
rieux
rigan
right
rignac
rigny
ringen
ringer
rio
rioja
ripky
ris
river
rivie
rivne
rjamaa
rka
rki
rkiye
rmland
rna
rne
rnu
rnumaa
rny
ro
road
robat
robert
rocca
roche
rochefort
roches
rock
roda
roi
rokh
rokis
rom
roma
romagna
romain
roman
romania
romano
rome
romny
ron
ronald
ros
rosa
roshtkhar
rosie
rostam
rostaq
rostov
rotenburg
rouge
roussillon
route
rouvres
rov
royal
royals
roz
rttemberg
ru
rud
ruda
rudan
rudbar
rudkhaneh
rudsar
rural
ruse
russell
russia
russian
rutland
rva
ry
rychnov
ryki
rypin
rz
rze
s
sa
saale
saarburg
saare
saaremaa
sabina
sabzevar
sadat
saduq
sahneh
sai
sailly
saint
sainte
sajjadrud
sak
sakala
salamanca
salas
salehabad
salem
salerno
salih
salle
salles
salmas
salvador
sam
samalqan
sambir
samurai
san
sanaga
sanandaj
sandomierz
sang
sangar
sanjabad
sankt
sanok
sant
santa
santander
santiago
santo
sao
sap
saqqez
sar
sara
sarab
sarakhs
sarayan
sarbisheh
sardar
sardasht
sardinia
sarduiyeh
sarfaryab
sarhadi
sari
sarpol
sarshiv
sarthe
sarvabad
sarvestan
sasan
sat
saturnin
saudi
sault
saulx
sauveterre
sauveur
savadkuh
savar
save
saveh
savigny
savivaldybe
savoie
savojbolagh
sc
schleswig
science
scott
se
season
sec
sedeh
see
sefid
segovia
seh
seille
seine
sejny
sek
selivanovsky
seljuk
selo
selseleh
semenivka
semirom
semnan
senderk
seng
seniu
seoul
sepidan
september
serbia
serra
serranidae
serre
sert
server
service
set
setomaa
seutukunta
sever
severin
sevilla
seydun
seyyed
sh
shabestar
shadegan
shaft
shah
shahanshah
shahid
shahin
shahr
shahrak
shahrestan
shahreza
shahriar
shahrud
shamsabad
shandiz
shapur
sharifabad
sharqi
shavur
shazand
shelby
shemiranat
shevchenkove
sheykh
shi
shir
shirak
shiraz
shirin
shirvan
shomali
shomareh
showt
shropshire
shumen
shur
shurab
shusef
shush
shushtar
si
sia
siah
siahkal
siak
sian
siang
siap
siat
siau
sicilia
sidi
siedlce
siemiatycze
sieradz
sierpc
sierra
sih
sik
sikasso
silesia
silistra
silvaneh
sim
simon
sin
sing
singh
sinh
sint
sio
sioh
siok
siong
sip
sir
sirjan
sirvan
sis
sistan
sit
site
siu
siyah
sk
ska
ske
ski
skie
skierniewice
sko
skuodas
slatina
slav
sliven
slovakia
slovenia
small
smith
smolyan
sn
sng
snh
so
soa
soah
soan
soat
sobinsky
sochaczew
social
society
socken
soe
soeh
sofia
sofla
soghan
sogn
soh
sohrab
sok
soko
sokoło
soleyman
solone
somerset
something
somme
somogy
song
sonqor
sopron
soria
sorkh
sorkheh
sos
sou
source
sous
south
soviet
sowme
sox
space
species
spring
springs
sr
st
sta
staffordshire
standard
standardization
star
stara
stare
stargard
starogard
stary
staryi
staszo
stat
state
states
station
statistical
statistiche
statistics
statistik
statistikamt
statistisches
statoids
statra
status
ste
stefano
steinburg
stephen
sterbotten
stergo
sterlitamaksky
sternorrland
sth
sti
stl
stmanland
sto
stochowa
stockholm
stone
story
str
stra
strakonice
strzelce
strzelin
strzyz
sts
stub
studies
style
su
sua
subjects
sucha
sud
sudan
sudogodsky
suffolk
suginc
suh
sui
sul
sulawesi
sule
sulpice
sultan
sum
sumatera
sumay
summit
sumy
sun
super
sur
surah
surrey
survey
sus
susan
sussex
sut
suwałki
suzdalsky
sve
sverdlovsk
svg
svitavy
sweden
swedish
sy
symphorien
synelnykove
syo
system
systems
syunik
sz
szabolcs
szamotuły
szatma
szczecinek
szczytno
sztum
szydłowiec
sı
sławno
słowniku
słubice
słupca
słupsk
t
ta
tabas
table
tabriz
tadvaris
tafresh
taft
tah
tai
taigi
taiwan
taiwanese
tak
takab
takestan
takht
taland
talang
taleqan
talesh
tall
tam
tamil
tan
tang
tangestan
tap
tapa
tappeh
targ
targovishte
tarn
tarno
tarnovo
tarom
tartu
tas
tashan
tau
tauh
taurage
taybad
tayebi
taylor
tazeh
tazehabad
tczew
te
team
teau
teauneuf
teaux
technology
teh
tehran
tek
tel
tels
temple
teng
tenggara
tennessee
ter
terme
ternopil
territoire
territorial
teruel
teryt
tes
texas
text
tgb
th
tha
thah
thai
tham
than
thang
that
thau
the
theh
their
thek
theory
thi
thia
thiah
thiam
thian
thiap
thiat
thiau
thie
thih
thil
thio
this
thit
thiu
thn
thng
tho
thoa
thoat
thoe
thok
thomas
thong
thu
thua
thui
thun
thı
ti
tia
tian
tiap
tiat
tiau
tice
tie
tienne
tif
tigers
tih
tik
tillon
time
times
timor
tin
tina
tinais
tio
tiok
tiong
tiran
tis
tit
tiu
tizi
tland
tn
tne
tng
to
toa
toan
tocantins
toe
toh
tok
tokrzyskie
toledo
tolna
tolombeh
tomaszo
tomys
tonekabon
tong
torbat
torinese
torino
torkaman
toronto
torqabeh
torre
torres
tort
torternas
torun
total
totals
tour
touraine
tours
town
towns
township
tr
tra
trakai
tran
translation
translitua
travancore
tre
trenc
treviso
tri
trier
trnava
trois
tros
tru
trump
trunk
tryavna
trzcianka
trzebnica
trzyn
ts
tsa
tse
tsha
tsham
tshen
tshi
tshia
tshik
tshing
tshiu
tsho
tshu
tshut
tsi
tsia
tsik
tsing
tsio
tsiong
tsit
tsiu
tso
tsok
tsoo
tsu
tsua
tu
tua
tuchola
tui
tula
tuman
tumani
tun
turek
turkish
turmanto
tuscany
tuymazinsky
tuyserkan
tv
tver
tw
twins
ty
tytuve
tı
u
ua
ud
udine
ue
uganda
uge
uh
ui
uk
ukmerge
ukraina
ukraine
ul
ulus
umbria
un
und
ungian
unicode
union
unique
united
university
unknown
unrecognized
upazila
uppsala
urban
url
urmia
uromin
us
usa
ust
ut
utah
utc
utena
utrecht
uttar
uyghur
uz
uzbek
uzbekistan
v
va
vaast
val
vald
vale
valea
valence
valencia
valga
valladolid
valle
valley
van
var
varamin
vare
varennes
varese
varna
vary
vas
vashkinsky
vasylivka
vaucluse
vaux
ve
vega
vel
velayat
veliko
velikoustyugsky
velka
velke
velky
velyka
velykyi
venc
vende
veneto
venezia
venezuela
venice
venkov
verb
verbandsgemeinde
verbandsgemeinden
vercelli
verde
verkhovazhsky
vermont
verneuil
vernon
verona
verrie
vers
version
vert
verwaltungsgemeinschaften
ves
vesele
veszpre
vexin
veysian
vi
via
vic
vicenza
vicomte
victor
victoria
vidin
vie
vieil
vieille
vienne
vietnam
vieux
view
vignes
vijayanagara
vila
vilaine
viljandi
vilkavis
villa
village
villages
villanova
villanueva
villar
villard
villars
ville
villedieu
villefranche
villeneuve
villers
villette
villiers
villy
vilniansk
vilnius
vincent
vinnytsia
virginia
viru
vis
vista
vito
vitry
viviers
vka
vladimir
vleborg
vltavou
vo
voda
vol
volgograd
vologda
vologodsky
volume
volyn
volynskyi
von
vosges
vosta
vozhegodsky
vratsa
vre
vres
vs
vu
vulkaneifel
vy
vyaznikovsky
vys
vysoc
w
wa
wadiyar
wadowice
walt
war
ward
warmia
warmin
warren
warsaw
warszawa
warwickshire
was
washington
wayback
wayne
wałcz
we
web
website
webster
weights
weinstraße
wejherowo
wek
west
westerwald
what
white
who
wia
widnica
widwin
wie
wiebodzin
wiecie
wiejska
wieliczka
wielka
wielki
wielkie
wielkopolska
wielkopolski
wielkopolskie
wielun
wieruszo
wies
wikimedia
wikipedia
wiktionary
will
william
williams
wilson
wiltshire
windows
wis
wisconsin
wisła
with
wittlich
wka
wko
wo
wodeyar
woe
wola
wolsztyn
wood
worcestershire
world
woło
wołomin
wright
wrocław
wrzes
wu
www
wyo
wyoming
wysokie
wyszko
władysław
włocławek
włodawa
włoszczowa
x
xa
xls
y
yambol
yang
yankees
yar
yavoriv
yazd
ycko
ye
year
years
yek
yemen
yemilchyne
yn
yo
yonne
york
yorkshire
young
youtube
yrardo
ys
yu
yvelines
z
za
zac
zachodniopomorskie
zagheh
zago
zagora
zahab
zahedan
zahra
zakarpattia
zala
zalaqi
zalesie
zalian
zambia
zambro
zamora
zamos
zanjan
zanjanrud
zaporizhia
zar
zaragoza
zarand
zarandieh
zarasai
zard
zarrin
zaveh
zavou
zawiercie
zaz
zdro
zdun
ze
zealand
zeberkhan
zeeland
zefo
zell
zemple
zgierz
zh
zhovkva
zhydachiv
zhytomyr
ziarat
ziari
zie
zielona
ziemskie
zilayi
zinkiv
zirkuh
ziviyeh
zli
znojmo
zolochiv
zse
zu
zwolen
zy
złoto
{
|
}
~
«
­
¯
°
±
²
´
·
»
×
đa
đo
ı
ł
ła
łask
łe
łka
ło
łobez
łomz
łosice
łowicz
łuko
ŋ
ɔ
ə
ɛ
ɨ
ɪ
ʔ
ʰ
ʲ
ʻ
ʿ
ˇ
ˈ
ˊ
ˋ
ˌ
ː
˥
˦
˧
˨
˩
̀
́
̂
̃
̄
̆
̇
̈
̉
̊
̋
̌
̍
̓
̔
̚
̛
̣
̤
̦
̧
̨
̩
̭
̯
̽
͘
͡
α
γ
δ
ε
θ
ι
μ
ν
ο
π
ς
χ
а
абакумлево
адыгея
алтаи
алтая
амурскои
архангельскои
астраханскои
башкортостан
белгородская
белгородскои
более
брянскои
бурятии
в
велика
вка
владимирскои
волгоградскои
вологодскои
впн
всероссии
г
гаи
гг
года
годов
годы
городам
городских
данным
е
за
и
к
кам
каргопольскии
карта
крае
края
лівка
м
маи
мала
мар
миколаі
михаи
мо
муниципального
муниципальныи
муниципальным
муниципальных
н
на
населе
населением
населения
населенным
населення
наявного
неселения
ни
нным
нных
нова
о
области
область
образования
образованиям
община
округ
округов
олександрівка
он
онам
онных
онов
оценка
п
паспорт
переписи
перепись
пермского
пермском
по
поселении
постоянного
пунктам
пунктов
р
рае
размещение
раи
республике
республики
россии
с
села
сельских
ская
ские
скии
скои
составе
состоянию
субъектов
т
та
текущего
том
тысячи
у
украі
усть
уче
федеральных
федерации
х
центров
человек
чисельність
числе
численности
численность
я
января
янка
і
іванівка
ә
ְ
ָ
ּ
ا
اب
اباد
ابراهيم
احمداباد
اسلام
اسماعيل
اله
امام
امامزاده
ب
باد
باغ
بالا
بخش
بزرگ
بلاغ
بن
بنه
ة
تازه
تل
تلمبه
تنگ
تپه
حاج
حاجي
حسن
حسين
خان
دره
دشت
ده
دهستان
دو
دولت
ر
رود
سر
سرا
سراب
سرخ
سفلي
سفيد
سنگ
سه
سياه
شاه
شهرستان
شهرك
شيخ
عباس
علي
عليا
ق
قاسم
قره
قشلاق
قلعه
كاني
كريم
كل
كلا
كلاته
كله
كندي
كهنه
كوه
ل
م
محله
محمد
محمداباد
مرکزی
مزرعه
ملك
مهدي
موتور
ميان
نو
و
وسطي
ي
يك
ين
يه
َ
ُ
ِ
ّ
ْ
ٓ
ٔ
ٕ
پاي
پايين
پشت
چال
چاه
چشمه
چم
گل
ं
क
ज
त
द
न
प
म
र
ल
स
ा
ि
ी
ु
े
ो
्
ক
গ
চ
জ
ট
ড
ত
দ
ন
প
ব
ভ
ম
য
র
ল
শ
স
হ
়
া
ি
ী
ু
ে
্
ാ
ก
ง
จ
ช
ท
น
บ
พ
ม
ย
ร
ว
ส
ห
อ
อำเภอ
ั
ิ
ี
ึ
ื
ุ
ู
็
่
้
์
་
།
ཁ
ག
ང
ཆ
ད
ན
བ
མ
ར
ལ
ས
ི
ུ
ེ
ོ
ྒ
ྫ
ྱ
ྲ
င
ပ
ာ
ိ
ု
ေ
း
်
ြ
ត
រ
ា
ី
៌
្
ᵽ
‌
‎
‑
–
—
―
‘
’
“
”
„
•
…
′
″
⁡
⁴
⁻
ⁿ
€
℃
№
→
↔
↷
∈
−
⋅
⋯
③
④
⑦
─
⟨
⟩
⺀
⺄
⺆
⺈
⺊
⺌
⺕
⺝
⺸
⺼
⿰
⿱
⿲
⿳
⿴
⿵
⿶
⿷
⿸
⿹
⿺
⿻
、
。
々
〈
〉
《
》
「
」
『
』
【
】
〜
〢
あ
い
う
え
お
か
き
く
け
こ
さ
し
す
せ
そ
た
ち
っ
つ
て
と
な
に
ね
の
は
ひ
ふ
へ
ほ
ま
み
む
め
も
ゃ
や
ゅ
ゆ
ょ
よ
ら
り
る
れ
ろ
わ
を
ん
゙
゚
ァ
ア
ィ
イ
ウ
ェ
エ
オ
カ
キ
ク
ケ
コ
サ
シ
ス
セ
ソ
タ
チ
ッ
ツ
テ
ト
ナ
ニ
ネ
ノ
ハ
ヒ
フ
ヘ
ホ
マ
ミ
ム
メ
モ
ャ
ヤ
ュ
ユ
ョ
ヨ
ラ
リ
ル
レ
ロ
ワ
ン
・
ー
㇁
㇂
㇄
㇇
㇈
㇉
㇓
㐁
㐄
㐅
㐌
㐫
㐬
㐭
㐮
㐱
㑒
㒵
㒸
㒼
㓁
㓞
㔾
㕛
㕣
㖾
㘝
㚅
㚇
㚔
㚘
㝉
㝡
㝴
㝵
㞋
㞢
㞷
㠩
㠭
㠯
㡀
㡭
㡿
㢲
㢴
㣇
㣺
㥯
㪅
㫄
㫐
㫒
㫺
㬅
㬎
㬥
㬰
㲋
㳄
㷠
㸒
㸚
㸦
㼌
㼲
㽞
㿟
䀠
䂞
䍃
䏍
䒑
䖍
䖒
䖝
䖵
䙴
䚻
䜌
䝿
䡛
䧹
䪞
一
丁
丂
七
丄
丅
丆
万
丈
三
上
下
丌
不
与
丏
丐
丑
专
且
丕
世
丘
丙
业
东
丞
丢
丣
两
严
並
丨
丩
个
丫
丬
中
丮
丰
丱
串
丵
丶
丷
丸
丹
为
主
丽
举
丿
乀
乂
乃
久
乆
乇
么
义
之
乌
乍
乎
乏
乐
乑
乔
乖
乗
乘
乙
乚
乛
乜
九
乞
也
习
乡
乳
乾
亀
亂
亅
了
亇
予
争
事
二
亍
于
亏
亐
云
互
亓
五
井
亘
亚
些
亜
亞
亟
亠
亡
亢
交
亥
亦
产
亨
亩
享
京
亭
亮
亯
亰
亲
亳
亶
亷
人
亻
亼
亾
什
仁
仇
今
介
仌
从
仐
仑
仒
仓
仔
仕
他
付
仙
仝
代
令
以
仲
件
任
份
企
伊
伏
伐
休
伙
会
伝
传
伯
伸
似
但
佇
位
低
住
佐
体
何
佗
佘
余
佛
作
你
佥
佮
佳
使
來
侈
例
侌
侖
供
依
侯
侵
便
係
俄
俊
俗
保
俞
信
修
倉
個
倍
們
倒
候
借
倠
倫
值
假
偉
偌
偏
做
停
健
側
偷
傑
備
傳
傷
僉
僊
像
僕
價
儀
儂
儒
優
儿
兀
允
兂
元
兄
充
兆
兇
先
光
兊
克
兌
免
兑
兒
兓
兔
党
兜
兟
入
內
全
兩
兪
八
公
六
兮
兰
共
关
兵
其
具
典
兹
兼
冀
冂
冃
冄
内
冈
冉
冊
冋
册
再
冎
冏
冐
冒
冓
冖
冗
冘
军
农
冝
冠
冡
冤
冥
冫
冬
冰
冷
几
凡
凢
凰
凱
凵
凶
凷
凸
凹
出
函
凾
刀
刁
刂
刃
刄
刅
分
切
刊
刍
刑
刕
刖
列
刘
则
初
判
別
利
别
到
制
券
刺
刻
則
削
剌
前
剛
剡
副
創
剽
劃
劇
劉
劍
力
办
功
加
务
劦
动
助
劫
劳
劵
勃
勇
勉
勒
動
務
勝
勞
勢
勤
勹
勺
勻
勾
勿
匀
匂
包
匆
匈
匊
匋
匍
匕
化
北
匚
匝
匡
匪
匱
匸
匹
区
医
匽
匿
區
十
卂
千
卄
卅
卆
升
午
卉
半
卌
华
卑
卒
卓
協
单
卖
南
博
卜
卝
卞
占
卡
卢
卣
卤
卦
卩
卪
卬
卯
印
危
即
却
卵
卷
卸
卻
卿
厂
厃
厄
历
厈
厉
厌
厓
厘
厚
厝
原
厤
厥
厦
厨
厭
厲
厶
厷
厸
去
厼
厽
县
叀
参
參
叅
又
叉
及
友
双
反
叐
发
叒
叔
叕
取
受
叚
叜
叟
口
古
句
另
叩
只
叫
召
可
台
叱
史
右
叵
号
司
叹
吂
各
吅
合
吉
吊
吋
同
名
后
吏
向
吕
君
吝
吞
吟
否
吧
含
启
吳
吴
吸
吹
吾
呂
呆
呈
告
员
呙
呢
周
味
呼
命
咅
和
咎
咠
咢
咧
咨
咱
咸
咼
哀
品
哈
哉
員
哥
哪
哭
哲
唐
唯
唱
商
啇
啉
啊
問
啓
啚
啟
啥
啦
啬
啻
善
喔
喙
喜
喬
單
喿
嗇
嗎
嗣
嘉
嘛
器
噩
嚴
囊
囗
囘
囙
囚
四
囝
回
囟
因
囡
囥
囧
囬
困
囱
囷
固
国
图
圂
圅
圈
國
圍
園
圓
圖
團
土
圡
圣
圥
在
圭
地
圶
圼
坂
均
坊
坐
坑
坒
坚
坡
坦
坪
坴
垂
型
垔
垚
垣
埀
埋
城
埔
埕
域
埤
埶
執
培
基
堂
堅
堆
堇
堡
堯
報
場
塊
塔
塗
塘
塚
塞
境
墓
墘
增
墨
壁
壇
壓
壘
壤
士
壬
壯
声
壳
壴
壹
壺
壽
夂
处
夅
夆
备
夊
夋
夌
复
夏
夒
夕
外
夗
夘
多
夜
夠
夢
大
夨
天
太
夫
夬
夭
央
失
夲
头
夷
夸
夹
夻
夾
奂
奄
奇
奈
奉
奎
奏
奐
契
奓
奔
奖
奚
奞
奠
奢
奥
奭
女
奴
奶
她
奻
好
如
妃
妄
妙
妟
妥
妳
妹
妻
妾
始
姐
姑
姓
委
姚
姜
姫
姬
姿
威
娄
娘
娜
婁
婆
婚
婦
婴
媒
媯
媽
嫁
嬰
嬴
子
孑
孔
孕
孖
字
存
孚
孛
孝
孟
季
孤
学
孩
孫
孱
學
宀
宁
宂
它
宅
宇
守
安
宋
完
宏
宓
宗
官
定
宛
宜
宝
实
客
宣
室
宮
宰
害
家
容
宾
宿
寄
寅
密
富
寒
察
寡
實
寧
寨
審
寫
寬
寮
寶
寸
对
寺
寻
寽
対
寿
封
専
尃
射
将
將
專
尉
尊
尋
尌
對
導
小
少
尒
尓
尔
尖
尗
尚
尞
尢
尣
尤
尧
尨
尭
就
尸
尹
尺
尻
尼
尽
尾
尿
局
居
屆
屈
届
屋
屎
屏
屑
展
屖
屚
属
屠
屡
層
屬
屮
屯
屰
山
屵
屾
岁
岂
岑
岡
岩
岳
岸
峯
峰
島
峽
崁
崇
崎
崑
崔
崖
崗
崙
崩
嵐
嵬
嶲
嶺
嶼
巂
巛
川
州
巟
巠
巡
巢
巤
工
左
巧
巨
巩
巫
差
己
已
巳
巴
巷
巸
巽
巾
巿
帀
市
布
师
希
帚
帛
帝
带
師
席
帶
常
幕
幫
干
平
年
幵
并
幷
幸
幹
幺
幻
幼
幽
幾
广
庁
広
庄
床
序
底
店
庚
府
度
座
庫
庭
庶
康
庸
廈
廉
廌
廖
廛
廟
廠
廢
廣
廩
廳
廴
延
廷
建
廾
廿
开
弁
弃
弄
弇
弋
式
弓
弔
引
弗
弘
弜
弟
弥
弦
弱
張
強
强
彈
彊
彌
彎
彐
彑
当
彔
录
彖
彗
彙
彝
彡
形
彥
彦
彧
彩
彭
彰
影
彳
役
彼
往
待
很
律
後
徐
徒
得
徙
徛
從
御
復
微
徳
徵
德
心
忄
必
忌
忍
志
忝
忠
忩
快
念
忽
忿
怎
思
怠
怡
急
性
怨
怪
怱
恁
恆
恋
恐
恒
恩
恭
息
悉
患
悤
悲
悶
情
惠
惡
惢
惱
想
愁
愈
意
愛
感
慈
態
慎
慕
慢
慧
慮
慶
憂
憲
憶
應
懷
懸
懿
戀
戈
戉
戊
戋
戌
戍
戎
成
我
戒
戔
或
戚
戠
戢
戦
截
戰
戲
戴
戶
户
戸
戹
戼
戾
房
所
扁
扇
手
扌
才
打
托
执
扶
批
找
承
技
把
抑
投
抗
折
报
抱
抽
拄
拉
拍
拔
招
拜
拼
拿
持
指
按
振
捌
捜
捷
掃
授
掉
掌
排
掛
掠
探
接
控
推
提
插
揚
換
揣
揭
搭
摘
摩
撒
撫
播
擊
操
擔
據
擺
攏
支
攴
攵
收
攸
改
放
政
敄
故
效
敏
救
敕
敖
敗
教
敝
敞
敢
散
敦
敫
敬
数
敲
整
敵
敷
數
斂
文
斉
斊
斗
料
斤
斥
斩
斬
斯
新
斷
方
於
施
斿
旁
旅
旋
族
旗
无
旡
既
旣
日
旦
旧
旨
早
旬
旭
旱
旲
时
旺
旾
昆
昇
昌
昍
明
昏
易
昔
昗
昜
星
映
春
昬
昭
是
昱
昴
昷
時
晃
晉
晋
晏
晚
晝
普
景
晴
晶
智
暑
暗
暝
暴
曆
曇
曉
曜
曝
曩
曰
曲
曳
更
曷
書
曹
曼
曾
替
最
朁
會
月
有
朋
服
朔
朕
朗
望
朝
期
木
朩
未
末
本
札
朮
术
朱
朴
朵
朶
朿
杀
杉
李
杏
材
村
杜
束
条
来
杰
東
杲
杳
松
板
析
林
枚
果
枝
枲
架
枼
柏
某
染
柔
柘
查
柬
柯
柰
柱
柳
柴
査
栗
校
株
核
根
格
桀
桂
桃
案
桌
桐
桑
桓
桜
桶
桼
梁
梅
梓
條
梟
梨
棋
棒
棘
棠
棥
森
椅
植
楊
楚
楠
業
極
楽
概
榜
榮
構
樂
樊
樓
標
模
樣
樹
橋
機
橫
檢
權
欠
次
欢
欣
欮
欲
欶
欽
款
歆
歇
歌
歐
歛
歡
止
正
此
步
武
歨
歪
歮
歯
歰
歲
歴
歷
歸
歹
歺
死
殖
殳
段
殷
殸
殹
殺
殻
殿
毅
毋
毌
母
每
毒
比
毕
毚
毛
毳
氏
氐
民
气
気
氣
水
氵
氶
氷
永
氺
氾
求
汝
汞
江
池
汪
決
沃
沈
沉
沒
沓
沖
沙
沝
沢
河
油
治
沿
況
泉
法
波
泣
泥
注
泰
洋
洗
洛
洞
津
洪
洲
活
派
流
浙
浦
浩
浪
浮
海
消
涼
淑
淡
淮
深
淳
混
淺
添
清
渚
渠
渡
測
港
游
湖
湘
湯
湾
源
準
溝
溪
溫
滄
滅
滿
漁
演
漢
漳
漸
潘
潭
潮
澎
澚
澤
澳
激
濟
濱
灝
灣
火
灬
灭
灯
灰
灵
灷
災
炅
炎
炏
炗
炙
炭
為
烈
烏
烝
焉
無
焦
焱
然
煙
煞
照
煩
煮
熊
熏
熙
熟
熱
燈
燒
燕
營
燮
爆
爐
爪
爫
爭
爯
爰
爱
爲
爵
父
爸
爺
爻
爽
爾
爿
片
版
牌
牙
牚
牛
牜
牟
牢
牧
物
牪
特
牽
犀
犁
犬
犭
犮
犯
狀
狂
狄
狊
狐
狗
独
狺
狼
猋
猒
猪
猫
献
猴
猶
獄
獅
獎
獨
獻
玄
率
玉
王
玟
玨
玲
珍
珎
珠
班
現
球
理
琉
琴
瑜
瑞
瑟
瑤
瑩
瑪
環
瓊
瓜
瓦
甘
甚
甜
生
產
産
用
甫
甬
田
由
甲
申
电
甶
男
甸
甹
町
画
甾
畀
界
畏
畐
留
畜
畟
畢
略
畧
畨
番
畫
異
畱
當
畺
畾
疊
疋
疌
疑
疒
疫
疾
病
症
痛
療
癶
癸
癹
登
發
白
百
皀
皃
的
皆
皇
皋
皐
皕
皮
皷
皿
盃
盆
盇
盈
益
盍
盎
监
盒
盖
盛
盜
盟
盡
監
盤
盧
目
盲
直
相
盾
省
眇
眉
看
県
眔
眞
真
眠
眷
眼
眾
着
睏
睘
督
睪
睭
睿
瞏
瞢
瞿
矍
矛
矞
矢
矣
知
矦
短
石
砂
研
破
碎
碗
碟
碧
確
碼
磊
磨
礦
示
礻
礼
社
祐
祖
祝
神
祟
祥
票
祭
祿
禀
禁
禎
福
禪
禮
禸
禹
禺
离
禽
禾
禿
秀
私
秃
秉
秋
科
秘
秝
秦
积
移
稅
程
稟
種
稱
稻
穀
穆
穌
積
穗
穴
究
穹
空
穿
突
窄
窒
立
竒
站
竜
竝
竟
章
童
端
竹
笑
笠
符
第
筆
等
答
策
简
箍
箕
算
管
箭
箴
節
範
篇
築
篤
篭
簡
籍
籤
米
类
粉
粒
粗
粛
粟
粤
粦
粲
粵
精
粿
糊
糖
糞
糸
糹
系
紀
約
紅
納
純
紙
級
紛
素
索
紫
累
細
紹
終
組
経
結
絕
絜
給
絫
統
絲
綏
經
綠
維
網
綴
綿
緊
総
緒
線
緣
編
縣
總
繁
繇
織
繼
纂
續
纍
纟
线
经
统
缶
网
罒
罔
罕
罗
罙
罡
罢
罪
置
署
罵
罷
羅
羊
羌
羍
美
羔
羕
羗
羞
羡
羣
群
義
羲
羸
羽
翁
翏
習
翔
翕
翟
翠
翻
翼
耀
老
耂
考
者
耆
而
耍
耎
耑
耒
耕
耳
耴
耶
耷
聂
聊
聖
聚
聞
聯
聰
聲
聶
職
聽
聿
肀
肃
肅
肉
肖
肙
肚
肝
股
肥
肩
肯
育
肴
胃
背
胡
胥
能
脈
脊
脩
腔
腦
腰
腳
腸
腹
膚
臣
臤
臧
臨
自
臬
臭
臯
臱
至
致
臺
臼
臽
臾
臿
舀
舂
舄
與
興
舉
舊
舌
舍
舛
舜
舞
舟
航
般
船
艮
良
色
艸
艹
艾
芋
芒
芔
芝
芬
芮
花
芳
芺
芻
苔
苗
苟
若
苦
英
茂
范
茄
茶
茸
荅
草
荒
荣
荷
荼
莆
莊
莧
莫
获
莽
菆
菊
菐
菜
華
菲
萊
萬
落
葉
著
葛
董
葵
蒙
蒦
蒲
蒼
蓋
蓬
蓮
蓺
蔑
蔡
蔣
蕃
蕉
蕭
薄
薛
薦
薩
薯
薰
藍
藏
藝
藤
藥
藩
蘆
蘇
蘋
蘭
虍
虎
虐
虒
虔
處
虖
虗
虘
虚
虛
虜
虞
號
虫
虽
蚤
蚩
蛇
蛋
蜀
蜂
蜜
蝦
蝶
融
螺
蟲
蠡
血
行
衍
術
街
衛
衝
衡
衣
衤
表
衫
衮
衰
袁
袂
袋
袞
被
裁
裕
補
裝
裡
製
複
褭
褱
襄
襾
西
覀
要
覃
見
規
覓
視
覧
親
覺
覽
觀
见
角
解
言
訁
訂
訇
計
訊
討
訓
託
記
訪
設
許
訳
訴
註
評
詞
詢
試
詩
話
該
詹
誌
認
語
誠
誤
誩
說
説
課
調
談
請
論
諸
諾
謙
講
謝
證
識
譜
警
譯
議
護
讀
變
讓
讠
记
话
语
谷
豆
豈
豊
豐
豕
豖
豙
象
豦
豩
豪
豬
豸
貇
貓
貝
貞
貟
負
財
貢
貧
貨
貪
貫
責
貳
貴
買
費
賀
賁
資
賈
賊
賏
賓
賔
賛
賞
賢
賣
質
賴
賽
贊
贝
贡
责
贯
贲
贵
赖
赞
赤
赦
走
起
趁
超
越
趙
足
跋
跑
跟
跤
路
跳
踅
踏
蹇
蹛
身
躬
車
軌
軍
軎
軒
軟
較
載
輔
輕
輝
輦
輪
輯
輸
轄
轉
车
辑
辛
辜
辞
辟
辥
辦
辭
辰
辱
農
辵
辶
边
达
过
迎
近
进
连
迦
迷
追
退
送
逆
透
逐
這
通
逝
速
造
逢
連
逮
週
進
逸
遀
遂
遇
遊
運
過
遐
道
達
遠
遣
適
遮
遷
選
遺
遼
避
還
邊
邑
邕
那
邦
邪
邱
邵
郊
郎
郡
部
郭
郵
都
鄉
鄧
鄭
酉
酋
配
酒
酓
酸
醫
釆
采
釋
里
重
野
量
金
釒
針
鈴
銀
銅
銘
鋼
錄
錢
錦
錫
錯
鍾
鎮
鏡
鐘
鐵
鑑
钅
铁
長
镸
长
門
閃
閉
開
閏
閑
閒
間
閔
関
閣
閩
閵
閻
闌
關
门
闪
间
闷
闻
闽
阑
阜
阝
阪
阮
防
阿
陀
附
降
限
院
陣
除
陰
陳
陵
陶
陸
陽
隆
隊
隋
階
隔
際
隡
隨
險
隱
隶
隸
隹
隺
隻
隼
隽
难
雀
雁
雄
雅
集
雈
雋
雍
雐
雔
雙
雚
雜
雝
雞
離
難
雨
雩
雪
雲
零
雷
電
需
震
霍
霜
霝
霞
霧
露
霸
靈
靑
青
靖
靜
非
靡
面
靣
革
鞋
韋
韓
韦
韭
韯
韱
音
韻
響
頁
頂
頃
項
順
須
預
頗
領
頡
頭
頻
題
顏
願
顛
類
顧
顯
页
颁
風
颱
风
飛
飞
食
飠
飯
飼
餅
養
餘
館
饣
首
香
馬
馮
駐
駦
驗
驚
马
骨
體
高
髟
鬥
鬯
鬲
鬼
魂
魏
魔
魚
魯
鮮
鱼
鲁
鳥
鳳
鴨
鴻
鶴
鷹
鸟
鹵
鹽
鹿
麃
麗
麟
麥
麦
麵
麻
麼
黃
黄
黍
黎
黑
黒
默
點
黨
黹
黽
黾
鼎
鼓
鼠
鼻
齊
齋
齐
齒
齿
龍
龙
龜
龟
龠
龰
龱
龴
龵
龶
龷
龸
龹
ꞓ
者
艹
︰
﻿
！
（
）
，
－
．
／
０
１
２
３
４
５
６
７
８
９
：
；
＜
＝
＞
？
ａ
～
𠀁
𠀃
𠀆
𠀉
𠀎
𠀐
𠁁
𠁣
𠂆
𠂇
𠂈
𠂉
𠂊
𠂋
𠂎
𠂒
𠂔
𠂛
𠂡
𠂢
𠂤
𠂬
𠂭
𠂹
𠃊
𠃋
𠃌
𠃍
𠃎
𠃑
𠃓
𠃔
𠃜
𠄌
𠄎
𠄠
𠄢
𠆢
𠆥
𠇍
𠈌
𠌵
𠓜
𠔉
𠔥
𠔼
𠔽
𠔿
𠕀
𠕁
𠕋
𠘧
𠘨
𠙻
𠙼
𠚏
𠚒
𠚤
𠚪
𠣏
𠤎
𠤕
𠥓
𠦄
𠦑
𠦝
𠧒
𠧗
𠧪
𠩺
𠪚
𠫓
𠫔
𠫤
𠬛
𠬝
𠬞
𠬢
𠬤
𠬶
𠮛
𠮦
𠮷
𠯑
𠱠
𠳮
𠷎
𡈼
𡉀
𡉵
𡌥
𡍮
𡏳
𡕒
𡕩
𡕰
𡖅
𡗗
𡗜
𡘆
𡘤
𡧱
𡨄
𡩧
𡬠
𡭽
𡰣
𡰥
𡰪
𡰯
𡰱
𡷈
𡸁
𡿨
𡿩
𡿪
𡿺
𢀖
𢀛
𢀩
𢁙
𢆉
𢆰
𢆶
𢇁
𢇇
𢉖
𢌬
𢌿
𢏚
𢑑
𢑚
𢖻
𢙣
𢛳
𢦏
𢦒
𢧵
𢼄
𢾕
𣁋
𣄼
𣅀
𣅽
𣍘
𣎳
𣎵
𣏋
𣏼
𣗥
𣥂
𣥖
𣦵
𣦼
𣧄
𣪊
𣪠
𣬉
𣳾
𣶒
𤇾
𤊽
𤐫
𤓰
𤔔
𤕨
𤣩
𤰇
𤰔
𤰞
𤴓
𤴔
𤽄
𥁑
𥁕
𥃦
𥃩
𥃭
𥇡
𥑟
𥘅
𥘈
𥝢
𥫗
𥱡
𦈢
𦉪
𦉬
𦉼
𦍌
𦍒
𦎧
𦐇
𦓔
𦔮
𦘒
𦙃
𦚏
𦣝
𦣞
𦣻
𦥑
𦥔
𦥯
𦨉
𦭝
𦰩
𧆞
𧈧
𧘇
𧰨
𧴪
𧴮
𧵩
𧾷
𨸏
𨾴
𩙿
𩠐
𩫏
𩵋
𪉷
𪜀
𪟽
𪠲
𪩲
𫇦
𫔭
𫜸
𫝀
𫠣
𫠩
𫢉
𫥞
𫩏
𫩠
𫪡
𫲽
𫶧
𬀷
𬐘
𬗌
𬙙
𬛸
𬜯
𬟩
𬯁
𬴘
𬺻
𬼉
𬼖
𭀰
𭁈
𭁨
𭅰
𭑈
𭕄
𭗼
𭤨
𭥫
𭻾
𮅕
𮊿
𮍌
𮍏
𮓗
𮥼
𮧮
廾
𰀁
𰀄
𰀈
𰀉
𰀕
𰀠
𰀡
𰀢
𰀪
𰁜
𰃮
𰆊
𰆘
𰋙
𰕎
𰢴
𰧭
𰯲
a--
ab--
aba--
abdol--
ac--
aca--
ad--
ada--
adminis--
adr--
adu--
af--
ag--
agri--
ah--
ai--
aig--
ail--
air--
aj--
ak--
al--
ala--
alc--
ale--
alf--
ali--
all--
alle--
am--
an--
ana--
and--
ang--
ani--
anti--
anto--
ap--
aq--
ar--
arc--
argen--
art--
as--
ash--
astu--
at--
au--
aul--
aus--
av--
ave--
aves--
avig--
ay--
az--
b--
ba--
bag--
bah--
bak--
bal--
bala--
ban--
bar--
bas--
bat--
bau--
bay--
baz--
be--
bea--
beau--
bed--
beh--
bel--
ben--
ber--
berez--
berg--
bery--
bes--
bet--
beu--
bey--
bez--
bi--
bia--
biało--
bid--
bie--
big--
bil--
bir--
bis--
bisku--
bit--
bla--
bli--
blo--
blu--
bo--
boh--
bol--
bon--
bonne--
bor--
bos--
bou--
boul--
bour--
bout--
br--
bra--
bre--
bro--
bru--
bry--
brz--
bu--
bud--
bul--
bur--
bus--
buz--
by--
bło--
c--
ca--
cag--
cal--
cala--
cam--
can--
cap--
capr--
car--
cara--
casa--
casal--
cau--
cay--
ce--
cel--
cen--
cer--
ces--
cey--
ch--
cha--
cham--
chap--
char--
che--
chi--
cho--
chu--
ci--
cie--
cil--
cim--
cin--
cir--
cis--
cit--
civ--
civit--
cla--
cle--
clo--
clu--
co--
cog--
coim--
col--
colo--
com--
con--
conf--
coo--
cor--
cos--
cot--
cou--
coud--
coul--
cour--
cra--
cre--
cres--
cri--
cro--
cru--
cs--
cu--
cul--
cur--
cus--
cy--
cz--
czer--
czy--
d--
da--
dal--
dam--
dan--
dar--
dau--
dav--
daw--
de--
deg--
deh--
del--
den--
der--
des--
dey--
di--
die--
dis--
do--
docu--
dod--
dol--
dom--
don--
dor--
dou--
dow--
dr--
dru--
du--
dun--
dur--
dy--
dz--
dzy--
dłu--
e--
ear--
ec--
ed--
ef--
eh--
eim--
ek--
el--
elec--
em--
en--
eng--
er--
erve--
es--
esca--
esfa--
esh--
est--
et--
eu--
eul--
ex--
ey--
ez--
f--
fa--
fac--
fair--
fal--
far--
fari--
fau--
fe--
fel--
fer--
ferd--
fi--
fil--
fin--
fir--
fis--
fla--
flo--
fo--
fog--
fol--
fon--
fonte--
for--
fos--
fou--
four--
fra--
fre--
fri--
fro--
fu--
fuen--
g--
ga--
gag--
gal--
gam--
gar--
garm--
gau--
gav--
ge--
gel--
gen--
geo--
ger--
gha--
gho--
gi--
gig--
gil--
gla--
gle--
gliw--
glo--
go--
gol--
gon--
gor--
gou--
gow--
gra--
grand--
gre--
gri--
gro--
gros--
gru--
gu--
gua--
guer--
gug--
gui--
guil--
gur--
h--
ha--
haj--
hal--
ham--
han--
har--
hard--
has--
haute--
hay--
he--
hel--
hemm--
her--
hes--
hey--
hi--
high--
hil--
hlo--
hlu--
ho--
hol--
hono--
hor--
hr--
ht--
hu--
hud--
hue--
hum--
hun--
hur--
hus--
hy--
i--
ia--
ic--
id--
ig--
il--
im--
in--
ing--
inter--
io--
ir--
is--
it--
iu--
iv--
iz--
j--
ja--
jab--
jam--
jan--
jar--
je--
jed--
jele--
ji--
jo--
jou--
jow--
ju--
juo--
jus--
k--
ka--
kal--
kam--
kan--
kar--
kara--
kas--
kaz--
ke--
kel--
ken--
ker--
kesh--
kh--
kha--
kho--
khvo--
ki--
kin--
kir--
kis--
kla--
kle--
klu--
kn--
ko--
koby--
kol--
kolo--
kon--
kor--
kory--
kos--
kot--
kow--
koł--
kr--
kra--
kre--
kris--
kru--
kry--
krzy--
ks--
ku--
kuh--
kun--
kur--
kuz--
ky--
kło--
l--
la--
lac--
lag--
lam--
lan--
lar--
las--
lat--
lau--
laz--
le--
leg--
lem--
len--
les--
let--
lew--
ley--
li--
lie--
lig--
lil--
lim--
lima--
lin--
lio--
lip--
lis--
lit--
liu--
liv--
lo--
lom--
long--
lor--
lou--
loz--
lu--
lub--
luc--
lug--
lus--
luto--
ly--
m--
ma--
mac--
mag--
mah--
mai--
maj--
mal--
man--
mar--
mas--
mat--
mau--
max--
may--
maz--
mc--
me--
med--
mehr--
mel--
mele--
men--
mer--
mes--
mey--
mez--
mi--
mic--
mid--
mie--
mig--
mil--
min--
mir--
mis--
mittel--
miy--
mly--
mn--
mo--
mog--
mol--
mon--
mont--
mor--
mori--
mos--
mot--
mou--
moul--
msz--
mu--
mul--
mun--
mur--
mus--
my--
n--
na--
nagy--
nam--
nan--
nar--
nas--
nau--
nc--
nd--
ne--
ner--
nes--
neu--
new--
ney--
ng--
ni--
nie--
no--
non--
nor--
nord--
norr--
nou--
nov--
novo--
novouk--
now--
nowo--
noy--
nu--
nue--
num--
ny--
o--
ob--
obe--
ober--
oce--
oe--
of--
og--
oh--
ok--
okty--
ol--
oleks--
on--
opa--
or--
org--
ori--
os--
osi--
ot--
ou--
our--
ouz--
ov--
ow--
oz--
oze--
p--
pa--
pag--
pal--
pan--
par--
pas--
pat--
pav--
pavli--
pavlo--
paw--
pay--
pe--
pel--
pen--
per--
pervo--
pes--
petr--
pey--
phi--
phys--
pi--
pia--
pie--
pig--
pil--
pla--
plai--
ple--
plou--
plu--
po--
pod--
pok--
pol--
pom--
pon--
por--
pot--
pou--
pow--
pr--
pra--
prac--
pre--
pri--
prim--
pro--
prov--
pru--
pry--
prze--
przy--
pu--
pub--
pul--
pur--
puy--
py--
q--
qa--
qal--
qalan--
qez--
qoh--
qu--
qua--
que--
qui--
quin--
r--
ra--
rad--
rade--
rah--
rak--
ram--
ran--
rat--
raw--
ray--
re--
red--
reg--
reli--
rem--
ren--
rez--
ri--
rich--
riche--
rid--
rig--
ril--
ro--
roc--
rog--
roky--
rol--
ron--
roque--
ros--
rou--
rouv--
roy--
roz--
ru--
rud--
rus--
rut--
ry--
ryb--
rz--
rze--
s--
sa--
sab--
sad--
sai--
sal--
sala--
sam--
san--
sar--
sas--
sau--
saul--
savig--
sax--
sc--
sch--
sco--
se--
sebas--
sed--
sel--
sen--
sep--
ser--
sev--
sey--
sh--
sha--
shab--
she--
sher--
shesh--
shi--
shy--
si--
sie--
sig--
sil--
sim--
sk--
ska--
slo--
sn--
so--
sol--
som--
sor--
sos--
sou--
sove--
spe--
sr--
st--
sta--
ste--
sto--
strze--
stud--
su--
sub--
sud--
sul--
sum--
sun--
sur--
sva--
svi--
svo--
sy--
sz--
sze--
sła--
słu--
t--
ta--
tag--
tak--
tal--
tan--
tar--
tatar--
tau--
tay--
te--
teau--
tel--
tep--
ter--
th--
the--
tho--
ti--
tig--
til--
tir--
to--
tog--
tol--
tom--
tor--
tou--
tr--
tra--
tre--
tri--
tro--
tron--
tros--
tru--
trz--
trze--
ts--
tu--
tul--
tur--
tw--
ty--
u--
ud--
uh--
uher--
uk--
ul--
um--
un--
upy--
ur--
us--
ut--
uz--
v--
va--
val--
van--
var--
vas--
vau--
vaud--
vaz--
ve--
vel--
ven--
ver--
ves--
vey--
vi--
vicen--
vie--
vig--
vil--
villa--
ville--
vin--
vir--
vis--
vit--
vo--
vol--
volo--
vov--
vra--
vs--
w--
wa--
wal--
war--
we--
wel--
west--
whe--
whi--
wi--
wic--
wid--
wie--
wierz--
wil--
win--
wind--
wit--
wo--
wol--
wolf--
wor--
wsc--
wy--
x--
y--
yak--
yam--
yas--
ye--
yey--
yo--
ys--
yu--
z--
za--
ze--
zgo--
zh--
zi--
zil--
zim--
zir--
zu--
zyg--
zło--
²--
đ--
ł--
ła--
ło--
а--
ба--
в--
ве--
вер--
г--
го--
гор--
гр--
д--
дол--
зеле--
к--
ко--
кра--
ло--
м--
мал--
н--
но--
ново--
пе--
р--
с--
т--
черв--
я--
ا--
اباد--
اح--
ال--
ام--
امير--
ب--
با--
به--
بي--
ت--
تو--
ج--
جعفر--
جل--
جو--
ح--
خ--
خر--
خو--
د--
دا--
در--
ر--
رح--
ز--
زا--
زر--
زي--
س--
سا--
سر--
سلط--
سو--
سيد--
ش--
شر--
شم--
شو--
شير--
ع--
عبد--
غر--
ف--
ق--
قل--
ك--
كم--
كو--
ل--
م--
مي--
ن--
نا--
ه--
و--
ي--
پ--
پي--
چ--
چنا--
گ--
گر--
گو--
--0
--1
--2
--3
--4
--5
--6
--7
--8
--9
--a
--ab
--abad
--abi
--ac
--ach
--ad
--ada
--ade
--ado
--af
--ag
--agnac
--agny
--ah
--ai
--ais
--aja
--ak
--aka
--aki
--al
--ale
--am
--ama
--amo
--an
--ane
--ano
--anovsky
--ans
--ant
--ao
--aq
--ar
--ara
--ard
--ari
--ary
--as
--ash
--at
--ata
--ate
--ation
--ations
--ato
--au
--aut
--aux
--awa
--ay
--aya
--az
--b
--ba
--bach
--bad
--bault
--be
--berg
--bert
--bes
--bi
--bo
--brun
--bs
--burg
--by
--c
--ca
--cal
--ce
--ceaux
--ced
--cer
--ces
--cey
--ch
--cha
--che
--ci
--cio
--ck
--cka
--cki
--ckie
--co
--cq
--craft
--cs
--ct
--cus
--cy
--cz
--cza
--d
--da
--dad
--dag
--dal
--dale
--dan
--dd
--de
--dge
--di
--dia
--dium
--dj
--do
--dom
--don
--dor
--dorf
--dre
--ds
--dt
--du
--dy
--dz
--dzha
--e
--ea
--eau
--ec
--ect
--ed
--eda
--ee
--egan
--eh
--ei
--eim
--eira
--eix
--ek
--el
--ela
--ele
--elets
--eli
--ell
--ella
--elle
--ello
--em
--en
--ena
--enay
--ene
--ens
--ensky
--ent
--ente
--eo
--ep
--er
--era
--eri
--ern
--ero
--erre
--ers
--ert
--es
--esa
--ese
--esse
--estan
--et
--eto
--ets
--ette
--eu
--euil
--eux
--evsky
--ew
--ewo
--ey
--ez
--f
--fa
--feld
--ff
--fi
--field
--fo
--ft
--g
--ga
--gah
--gaillard
--gal
--gan
--gar
--ge
--geh
--gel
--gen
--ges
--gh
--ghem
--ght
--gi
--gis
--gna
--gne
--gney
--gno
--gny
--go
--gon
--gs
--gton
--gues
--gy
--h
--ha
--hac
--hal
--ham
--har
--hay
--he
--heh
--heim
--hel
--hem
--hen
--hes
--hi
--hin
--hiv
--hk
--ho
--hon
--hov
--ht
--hy
--i
--ia
--iac
--iai
--ial
--ian
--ic
--ica
--ical
--ice
--ich
--icle
--ico
--ics
--id
--ide
--ie
--iec
--ien
--ient
--ier
--iers
--ies
--ieu
--ieux
--iewo
--if
--ig
--igh
--igne
--igny
--igo
--ik
--iki
--il
--ila
--ile
--iler
--ilhac
--illa
--illo
--illy
--im
--ima
--in
--ina
--ine
--ines
--ing
--ini
--ino
--inowo
--ins
--insky
--iny
--io
--ion
--ionka
--ions
--ios
--iq
--ir
--ira
--ire
--iri
--iro
--is
--ish
--ism
--isy
--it
--ite
--ito
--ity
--iu
--ium
--ius
--iv
--ive
--ivka
--ix
--iyan
--iyeh
--iz
--ize
--j
--ja
--jan
--je
--jeh
--ji
--jn
--jo
--ju
--k
--ka
--ke
--ker
--kh
--ki
--ko
--kowo
--ks
--kt
--ku
--kuh
--kuy
--ky
--l
--la
--land
--laq
--lar
--lav
--lba
--lc
--ld
--ldo
--le
--lec
--len
--lens
--ler
--les
--let
--letto
--ley
--lf
--lhac
--li
--lin
--liv
--ll
--lla
--lle
--lles
--llet
--lli
--llo
--llon
--lls
--lly
--lm
--lna
--lo
--logy
--lon
--lov
--ls
--lt
--ltz
--lu
--lus
--ly
--lz
--lı
--m
--ma
--mak
--mam
--man
--me
--meh
--mi
--mo
--mont
--mps
--ms
--my
--n
--na
--nal
--nas
--nay
--nberg
--nburg
--nc
--nce
--nch
--nco
--ncourt
--ncy
--nd
--nda
--nde
--ndo
--ne
--ner
--nes
--ney
--ng
--nheim
--ni
--nka
--nki
--nn
--nna
--nne
--nnes
--no
--nois
--noy
--ns
--nse
--nsk
--nsky
--nt
--nta
--nte
--nto
--nton
--nus
--ny
--nz
--nza
--nzo
--o
--oc
--od
--oe
--off
--ogne
--oir
--ois
--ok
--oka
--oke
--oku
--ol
--ola
--oli
--olm
--olo
--om
--ome
--on
--ona
--ond
--one
--onne
--ons
--ont
--op
--or
--ora
--ore
--orf
--ori
--oro
--os
--osa
--ot
--oto
--otte
--ou
--our
--ourt
--ous
--ouse
--oux
--ov
--ove
--ovka
--ovo
--ovsky
--ow
--owa
--owice
--owo
--oy
--oz
--p
--pa
--pe
--pey
--phy
--pis
--po
--ppe
--ps
--pt
--pur
--py
--q
--qa
--qan
--qi
--r
--ra
--rad
--rak
--ral
--ram
--ran
--rat
--rc
--rch
--rd
--rda
--re
--reh
--res
--ret
--rf
--rg
--rga
--ri
--rie
--ries
--rin
--rinsky
--riv
--rk
--rm
--rmo
--rn
--rno
--ro
--rol
--rond
--rou
--roy
--rp
--rre
--rs
--rsk
--rsky
--rt
--rta
--rth
--ru
--rud
--rus
--ry
--rz
--rzyce
--s
--sa
--sac
--sal
--say
--sburg
--sco
--se
--sel
--sen
--ser
--ses
--sey
--sh
--sheim
--si
--side
--sie
--signy
--sk
--ske
--ski
--sky
--sle
--sne
--sno
--so
--son
--sons
--ss
--ssac
--sse
--ssey
--sson
--ssy
--st
--stad
--stko
--ston
--sy
--szko
--szo
--szyn
--t
--ta
--tad
--tal
--tan
--taq
--tat
--te
--ted
--ten
--ter
--teuil
--th
--ti
--tic
--tion
--tka
--tki
--tle
--tna
--to
--tol
--ton
--tor
--tors
--tot
--tov
--town
--try
--ts
--tsky
--tt
--tta
--tte
--tto
--tu
--tus
--ty
--tyn
--tz
--u
--ua
--uc
--ud
--ue
--uel
--ues
--uf
--uga
--ugh
--uil
--uiyeh
--uj
--uk
--ul
--ule
--ult
--um
--un
--une
--ung
--uno
--up
--uq
--ur
--ura
--ure
--urs
--us
--use
--usse
--ut
--uta
--uva
--ux
--uy
--uyeh
--uz
--uze
--v
--va
--val
--ve
--vec
--veh
--ven
--vi
--vice
--vigny
--ville
--vka
--vo
--vou
--vsky
--vy
--w
--wa
--way
--well
--wice
--wiec
--win
--wn
--wo
--wood
--work
--wr
--wski
--wy
--x
--xe
--xy
--y
--ya
--yama
--yan
--yansky
--yce
--yd
--ye
--yeh
--yer
--yi
--yk
--yl
--yliv
--yn
--yna
--yo
--ys
--ysk
--ysky
--yu
--z
--za
--zan
--zano
--zat
--zation
--zay
--ze
--zec
--zel
--zen
--zew
--zewo
--zey
--zhsky
--zi
--zia
--zin
--zio
--zki
--zko
--zna
--zno
--zo
--zon
--zy
--zyca
--zyce
--zyn
--zzo
--ı
--ław
--łe
--ło
--łowo
--ły
--а
--в
--ва
--ве
--во
--е
--и
--ии
--ино
--к
--ка
--ки
--л
--н
--не
--нка
--но
--ныи
--о
--ове
--ово
--р
--ра
--т
--ца
--ця
--ы
--ыи
--я
--і
--ів
--івці
--іі
--ا
--ان
--ب
--ة
--ت
--ج
--جه
--ح
--خ
--د
--دان
--در
--دي
--ر
--رك
--ره
--ري
--ز
--زه
--زي
--س
--ستان
--سي
--ش
--شه
--ع
--غ
--ف
--ق
--ك
--ل
--له
--م
--ن
--ند
--نه
--ني
--ه
--و
--ي
--چ
--چه
--گ
--ی
