!
"
#
##0
##1
##10
##11
##12
##13
##14
##15
##16
##17
##18
##19
##2
##20
##21
##22
##23
##24
##25
##26
##27
##28
##29
##3
##30
##31
##32
##33
##34
##35
##36
##37
##38
##39
##4
##40
##41
##42
##43
##44
##45
##46
##47
##48
##49
##5
##50
##51
##52
##53
##54
##55
##56
##57
##58
##59
##6
##60
##61
##62
##63
##64
##65
##66
##67
##68
##69
##7
##70
##71
##72
##73
##74
##75
##76
##77
##78
##79
##8
##80
##81
##82
##83
##84
##85
##86
##87
##88
##89
##9
##90
##91
##92
##93
##94
##95
##96
##97
##98
##99
$
%
&
'
(
)
*
+
,
-
.
/
0
00
000
01
016
02
03
04
05
06
07
09
1
10
100
1000
101
102
103
104
1041
105
106
107
108
109
11
110
111
112
113
114
115
116
117
118
119
12
120
121
122
123
124
1240
125
126
127
128
129
13
130
131
132
133
134
135
136
137
138
139
14
140
141
142
143
144
145
145578
146
147
148
149
15
150
1500
1509
151
152
153
154
155
156
157
158
159
16
160
161
162
163
164
165
166
167
1678
168
1688
169
1690
1699
17
170
171
172
173
174
1748
175
1750
1751
176
1762
1763
1764
1765
1766
1768
177
1770
1775
1777
178
1780
1782
1784
1786
1787
1788
1789
179
1790
1791
1792
1793
1794
1796
1797
1798
1799
18
180
1800
1801
1802
1803
1804
1805
1807
1808
1809
181
1810
1811
1812
1813
1814
1815
1816
1817
1818
1819
182
1820
1821
1822
1823
1824
1825
1826
1827
1828
1829
183
1830
1831
1832
1833
1834
1835
1836
1837
1838
1839
184
1840
1841
1842
1843
1844
1845
1846
1847
1848
1849
185
1850
1851
1852
1853
1854
1855
1856
1857
1858
1859
186
1860
1861
1862
1863
1864
1865
1866
1867
1868
1869
187
1870
1871
1872
1873
1874
1875
1876
1877
1878
1879
188
1880
1881
1882
1883
1884
1885
1886
1887
1888
1889
189
1890
1891
1892
1893
1894
1895
1896
1897
1898
1899
19
190
1900
1901
1902
1903
1904
1905
1906
1907
1908
1909
191
1910
1911
1912
1913
1914
1915
1916
1917
1918
1919
192
1920
1921
1922
1923
1924
1925
1926
1927
1928
1929
193
1930
1931
1932
1933
1934
1935
1936
1937
1938
1939
194
1940
1941
1942
1943
1944
1945
1946
1947
1948
1949
195
1950
1951
1952
1953
1954
1955
1956
1957
1958
1959
196
1960
1961
1962
1963
1964
1965
1966
1967
1968
1969
197
1970
1971
1972
1973
1974
1975
1976
1977
1978
1979
198
1980
1981
1982
1983
1984
1985
1986
1987
1988
1989
199
1990
1991
1992
1993
1994
1995
1996
1997
1998
1999
2
20
200
2000
2001
2002
2003
2004
2005
2006
2007
2008
2009
201
2010
2011
2012
2013
2014
2015
2016
2017
2018
2019
202
2020
2021
2022
203
204
205
206
207
208
209
21
210
211
212
213
214
215
216
217
218
219
22
220
221
222
223
224
225
226
227
228
229
23
230
231
232
233
234
235
236
237
238
239
24
240
241
242
243
244
245
246
247
248
249
25
250
252
253
254
255
256
257
258
259
26
260
261
262
263
264
265
266
267
268
269
27
270
272
273
274
277
278
279
28
280
281
282
283
284
285
286
287
288
289
29
290
293
294
295
296
297
298
299
3
30
300
301
302
303
304
305
308
309
31
310
311
312
315
316
319
32
320
321
322
323
324
325
326
327
328
329
33
330
331
333
335
3361
337
338
339
34
340
342
346
347
348
349
35
350
351
352
353
354
356
357
358
359
36
360
361
365
367
368
369
37
370
374
376
38
381
388
39
391
392
393
397
399
4
40
400
407
41
414
418
419
42
421
422
423
43
430
44
45
450
451
46
47
48
480
49
496
5
50
500
508
51
519
52
53
54
55
553
56
561
568
57
575
58
59
6
60
600
61
62
63
64
65
66
67
68
69
7
70
71
72
73
74
75
76
77
772
78
79
8
80
800
81
82
83
84
84207
85
85297
86
87
88
89
9
90
900
91
92
93
94
95
96
97
978
979
98
99
:
;
<
=
>
?
@
[
\
]
^
_
`
a
aa
aae
aas
aasa
ab
aba
abaa
abadi
abaisse
abaisser
abaknon
abakus
abandon
abandonne
abandonner
abanyom
abat
abata
abatage
abattit
abattre
abattu
abbaye
abbe
abc
abce
abd
abdiquer
abdo
abdomen
abe
abeille
abeilles
abel
abend
aber
aberration
abezo
abi
abkhaze
able
ablement
ables
abm
abo
abolition
abominable
abondamment
abondance
abondant
abondante
abondantes
abone
abonema
abonne
abonnement
abord
aborde
aborder
abords
about
aboutir
aboyer
abraham
abre
abri
abril
abrite
abriter
abruti
absence
absent
absente
absents
absolu
absolue
absolument
absolution
absolutisme
absorbe
absorber
absorption
absoudre
abstention
abstinence
abstract
abstraction
abstraite
absurde
absurdite
abu
abuba
abuja
abus
abuse
abuser
abx
ac
acacia
acade
acajou
acanthaceae
accablant
accable
accalmie
acce
accent
accents
accentuait
accentue
accepta
acceptation
accepte
accepter
accessoire
accessoires
accident
accidentellement
accidents
acclamations
accolade
accommodation
accommoder
accompagnait
accompagnant
accompagne
accompagnement
accompagner
accompli
accomplir
accomplissement
accord
accorde
accorder
accords
accoste
accouche
accouchement
accouplement
accoutrement
accoutume
accra
accre
accroc
accroche
accroi
accroissement
accueil
accueilli
accueillir
accueillit
accumulation
accumule
accumulent
accumuler
accusait
accusation
accusations
accuse
accuser
ace
acharne
acharnement
achat
ache
achetait
achete
acheter
acheteur
acheteurs
achevait
acheve
achever
achille
acht
achtung
acide
acides
acier
aciers
acoustique
acque
acquis
acquisition
acquitter
acremant
acrobates
acta
acte
actes
acteur
acteurs
actif
actifs
action
actionnaire
actions
active
activer
activite
actor
actrice
actualite
actuel
actuelle
actuellement
actuelles
actuels
acw
ad
ada
adage
adaları
adam
adaptateur
adapte
adapter
addition
address
ade
adeline
aden
adepte
ades
adhe
adi
adieu
adjectif
adjectifs
adjoint
adjudant
admet
admettre
administrateur
administratif
administration
administrative
administrer
admirable
admirables
admiration
admire
admirer
admis
ado
adolescence
adolescent
adolescents
adolphe
adopte
adopter
adoption
adorable
adore
adorer
adosse
adoum
adressait
adresse
adresser
adresses
adrien
adroit
adroitement
adu
adult
adulte
adultes
aduti
adventures
adverb
adversaire
adversaires
adverse
ady
adyghe
ae
aeb
af
afa
afar
afb
afe
afer
affaiblir
affaire
affaires
affame
affecte
affection
affections
affermir
affichage
affiche
afficher
affiches
affirmait
affirmation
affirmations
affirme
affirmer
affliction
afflige
affluence
affluent
affranchie
affranchir
affreuse
affreux
affront
affronter
affu
afin
afo
afp
afpa
aframomum
afri
africa
africain
africaine
africaines
africains
african
africana
africanword
afrika
afrikaans
afrique
after
afu
ag
aga
agac
agace
again
against
agave
agba
agbe
agbo
agbu
age
agence
agenda
agenouille
agent
agents
agglome
agi
agile
agilite
agir
agirila
agissait
agisse
agit
agitant
agitation
agite
agn
agne
agneau
agneaux
agni
ago
agonda
agonie
agosto
agre
agression
agricole
agricoles
agriculteur
agriculteurs
agriculture
agricultures
agronome
agronomie
agronomiques
agu
ague
agutaynen
ah
aha
ahi
ahinga
ahmed
aho
ahon
aht
ahtna
ahu
ahuru
ai
aide
aider
aides
aids
aie
aient
aigle
aigre
aigreur
aigu
aigue
aiguille
aiguilles
aiguiser
aigus
aii
ail
aile
ailes
aille
ailleurs
aimable
aimaient
aimais
aimait
aimant
aimard
aime
aiment
aimer
aimerais
aimes
ain
aine
ainsi
ainu
air
aire
aires
airs
ais
aisance
aise
aises
aisne
ait
aix
aj
ajoure
ajouta
ajoutait
ajoutant
ajoute
ajouter
ajuster
ak
aka
akadi
akasia
ake
akete
aki
akilo
akiri
akk
akkadien
ako
akono
akota
akpa
akpe
akr
akrobat
aku
akz
al
ala
alabama
alable
alablement
alain
alarme
alarmes
alba
alban
albanais
albani
albania
albanie
albanien
albanija
albert
albin
albinos
album
albumine
alcan
alchimie
alcool
alcoolique
alcoolisme
alcools
ale
aleke
alekere
alembert
alentour
alentours
alerte
ales
alex
alexander
alexandra
alexandre
alexandrie
alexis
alfabet
alfabeto
alfred
alge
algebra
alger
algeria
ali
aliae
alibert
alice
alie
aligator
aligne
alignement
alima
aliment
alimentaire
alimentaires
alimentation
alimente
alimenter
aliments
aline
alingbi
alisation
alise
aliser
alisme
alite
alix
alizeri
alkohol
all
alla
allai
allaient
allain
allais
allait
allaitement
allan
allant
alle
alleg
allein
allemagne
allemand
allemande
allemands
allen
aller
alles
allez
alliage
alliance
allie
allier
alligator
allions
allium
allocation
allocution
allonge
allonger
allons
allorge
alluma
allume
allumer
allumette
allumettes
allure
allures
allusion
alma
almak
almanach
almost
alo
aloe
alogie
alondo
alone
along
alors
alouette
aloysius
alpes
alphabe
alphabet
alphonse
alpine
already
als
alsace
alsacien
also
alt
altai
altar
alte
alten
alter
alternant
alternative
alternatives
altitude
alto
altruisme
alu
aluminium
always
alz
alzeri
am
ama
amabilite
amalgame
amanda
amande
amandier
amant
amants
amaranth
amaranthaceae
amari
amas
amasse
amateur
amateurs
amazighe
ambassade
ambassadeur
ambert
ambi
ambia
ambiance
ambiante
ambigu
ambigui
ambila
ambitieux
ambition
ambitions
ambo
ambre
ambroise
ambrosioides
ambulance
ambulancier
ambulant
ame
amenait
amende
amendes
amene
amener
amer
ameri
america
american
americana
amerika
amertume
ameublement
ami
amido
amidon
amie
amiens
amies
amin
amiral
amis
amitie
amnistie
amo
amont
amount
amour
amoureuse
amoureusement
amoureux
amours
ampe
amphora
amphore
ampleur
ampli
ampoule
amputation
amsterdam
amu
amusait
amusant
amuse
amusement
amuser
an
ana
anacardiaceae
anai
anak
analogue
analyse
analytique
anana
ananas
anarchie
anarchiste
anatole
anatomi
anatomia
anatomie
ance
ances
ancien
ancienne
anciennes
anciennete
anciens
anciers
ancora
ancre
and
anda
ande
andere
anderen
anders
ando
andora
andorra
andre
andrew
ane
anecdote
anecdotes
anesthe
ang
angba
angbo
ange
angel
angele
angeles
angelo
angers
anges
angevin
angina
angine
anglais
anglaise
angle
angles
anglete
angleterre
anglia
anglo
ango
angoisse
angola
angolensis
angst
angu
anguilla
anguru
ani
anie
animal
animale
animales
animalite
animation
animaux
anime
animer
anise
ankara
ankylose
anmoins
anna
annales
anne
anneau
anneaux
annexe
annie
anniversaire
annona
annonaceae
annonc
annonce
annoncer
annote
annuaire
annuel
annuelle
annuelles
annulaire
annulation
annuler
ano
anomalia
anomalie
anonyme
anorexie
another
anquetil
ans
anse
answer
ant
antan
antananarivo
antau
ante
antena
antenne
antennes
antes
anthocleista
anthologie
anthony
anthropologie
anthropologiques
anti
antigua
antilles
antilope
antipathie
antique
antiques
antiquite
antise
antissement
antoine
antoinette
antonio
ants
anus
anxie
anxieusement
any
anyama
anzere
ao
aou
ap
apa
apache
apaiser
ape
aperc
apercevait
apercevant
apercevoir
apes
apfa
aphrodite
api
apiculture
apo
apocalypse
apocynaceae
apollinaire
apollon
apostel
appa
apparai
apparaissait
apparaissent
appareil
appareils
apparemment
apparence
apparences
apparente
apparition
appartement
appartements
appartenait
appartenant
appartiennent
appartient
apparu
apparurent
apparut
appas
appe
appel
appela
appelaient
appelait
appele
appeler
appellation
appelle
appellent
appels
appendice
applaudissements
apple
application
applications
appliquait
applique
appliquent
appliquer
appointements
apport
apporta
apportait
apporte
apportent
apporter
apports
apposition
appre
apprenant
apprend
apprendre
apprends
apprennent
apprenti
apprentis
apprentissage
appris
apprit
approbation
approcha
approchait
approchant
approche
approcher
approches
approfondir
approprie
approuve
approvisionnement
approvisionner
appui
appuie
appuyant
appuye
appuyer
apre
april
aptitude
apu
aq
aquatique
aquatiques
ar
ara
arab
arabe
arabes
arabie
araceae
arachide
aragon
aragonais
araigne
araki
arame
arbe
arbeit
arbitre
arbore
arbre
arbres
arbustes
arc
archai
archaic
arche
archer
archeve
archibald
archie
archipel
architecte
architectes
architecture
archives
arcs
arcvad
ardemment
ardennais
ardennaise
ardennaises
ardenne
ardennes
ardent
ardente
ardentes
ardeur
are
arecaceae
arena
arg
argent
argentina
argentine
argile
argot
argue
argument
arguments
ari
aria
aride
arides
aridite
ariko
aristide
aristocratie
aristote
arithme
arkansas
arland
arles
arm
arma
armand
armando
arme
armeni
armenia
armenie
armer
armes
armoire
armoires
armoiries
army
arn
arnaud
aro
aroumain
around
arozoa
arq
arracha
arrache
arracher
arrange
arrangement
arranger
arre
arrhes
arrie
arriva
arrivaient
arrivait
arrivant
arrive
arrived
arrivent
arriver
arrivera
arrondissement
arrose
ars
arse
art
arte
arthe
arthur
article
articles
artifice
artificiel
artificielle
artificielles
artillerie
artisans
artiste
artistes
artistique
artistiques
artocarpus
arts
aru
aruba
ary
arz
arzanti
as
asa
asara
ascenseur
ascension
ase
aseti
asi
asia
asiatique
asie
asile
asimba
asinga
ask
asmara
aso
asoro
aspect
aspects
asphalte
aspirin
asratian
ass
assailli
assainissement
assaisonnement
assamais
assassin
assassinat
assassine
assassiner
assassins
assaut
asse
assegno
assemblage
assemble
asseoir
assez
assidu
assiduite
assie
assiette
assiettes
assimile
assis
assise
assises
assistance
assiste
assister
asso
association
associations
associe
associer
assomme
assommer
assommoir
assouplir
assume
assurait
assurance
assure
assurer
assyrien
ast
aste
asteraceae
astier
astre
astres
astrologie
astrologues
astronomie
astuces
asturien
asu
asyaye
at
ata
atala
ate
atelier
ateliers
atene
ateur
athe
athle
ati
atikamekw
ation
atique
atitude
atj
atlantique
atlas
atmosphe
ato
atomba
atoto
atrice
atrix
atroce
atroces
ats
attable
attache
attachement
attacher
attaches
attaque
attaquer
attaques
atte
atteignait
atteignent
atteignit
atteignons
atteindre
atteint
atteinte
attele
attend
attendaient
attendais
attendait
attendant
attendent
attendez
attendre
attends
attendu
attentat
attente
attentes
attention
attentivement
atterrissage
attestation
atteste
attie
attirait
attire
attirer
attitude
attraction
attrape
attraper
attribue
attribuer
attribut
attributs
attriste
atu
ature
atures
au
aube
auberge
aubergine
aubier
auch
aucun
aucune
aucunement
audace
audacieuse
audacieux
aude
audiard
audibert
audience
auditoire
audrey
auf
augen
augmentation
augmente
augmenter
august
auguste
augustin
aujourd
aumo
auparavant
aupre
auquel
aura
aurai
auraient
aurais
aurait
auras
aure
aurez
aurions
aurons
auront
aurore
aus
auspices
aussi
aussito
auste
austen
austra
australia
australie
australien
austro
aut
autant
autel
auteuil
auteur
auteurs
authenticite
authentique
auto
autobiographie
autobus
autochtone
autochtones
automatique
automne
automobil
automobile
automobiles
autonome
autonomie
autopsie
autor
autorisation
autorise
autoritaire
autorite
autoroute
autos
autosuggestion
autour
autre
autrefois
autrement
autres
autriche
autrui
auvergne
aux
auxerre
auxquelles
auxquels
av
ava
avaient
avais
avait
aval
avalanche
avale
avaler
avanc
avance
avancement
avancer
avant
avantage
avantages
avantageux
avar
avare
avarice
avarie
avaries
ave
avec
avenir
aventure
aventures
avenue
avenues
avere
averse
aversion
averti
avertir
avertissement
aveu
aveugle
aveuglement
aveugles
aveux
avez
aviation
avides
aviez
avignon
avion
avions
avis
avise
aviser
avk
avo
avocado
avocat
avocats
avoine
avoir
avoit
avons
avortement
avoue
avouer
avril
avu
avunga
avuru
aw
awa
awale
awara
away
awe
awu
ax
axe
ay
aya
ayam
ayant
aye
ayeke
ayez
ayi
ayingi
aymara
ayme
ayo
ayons
ayu
az
aza
aze
azerbaidjan
azerbaijan
azerbejdz
azeri
azi
aziyade
azo
azote
azur
aɔ
aɛ
aɪ
aɾ
aʁ
aʊ
b
ba
baa
bab
baba
babar
babouches
baby
babylone
bac
baccara
bachaga
bachelier
bachkir
back
bacte
bad
bada
badauds
badine
bag
baga
bagage
bagages
bagara
bagarre
bagatelle
bagne
bagnole
bague
bagues
baguette
baguettes
bah
baha
bahama
bahamas
bahasa
bahn
bai
baie
baies
baigne
baigner
bail
baillie
bailly
bain
bains
baiser
baisers
baissant
baisse
baisser
bak
baka
bakari
baklaz
bakou
bakounine
baku
bal
bala
balaba
balade
balafon
balafre
balai
balakpa
balanc
balance
balancent
balancier
balange
balante
balasoa
balayer
balcon
bald
bale
baleine
bali
balinais
balkar
balkon
ball
ballade
balland
balle
balles
ballet
ballon
ballons
ballot
balo
bals
balsamo
balthazar
balustrade
balzac
bamako
bambara
bambi
bambou
bambu
bambus
baminga
ban
banal
banale
banalite
banals
banane
bananes
bananier
banaux
banc
bancal
banco
bancs
band
banda
bandage
bandar
bande
bandeau
bander
bandes
bandit
banditisme
bandits
bando
banga
bange
bangi
bangkok
bango
bangui
bani
banjo
banjul
bank
banlieue
banner
bannie
bano
banque
banques
banquet
banquette
banquier
banzo
baoule
bapte
baptise
baptiser
baptiste
bar
bara
baraba
baraga
barangba
baranger
baraque
baraques
barba
barbados
barbara
barbare
barbares
barbarie
barbe
barbecue
barbele
barbery
barbiche
barbier
barbo
barboter
barbou
barbouillage
barbu
barbuda
barbusse
bard
bare
barge
bark
barnais
barome
baron
barque
barquement
barrage
barral
barras
barrasse
barrasser
barre
barres
barrette
barricade
barrie
barry
bars
bart
barthe
bas
bascule
base
baseball
bases
basilico
basin
basket
basque
basse
basses
bassesse
bassin
bassine
bassins
bastien
bastion
basu
bat
bata
batada
bataille
batailles
bataillon
bataillons
batata
batatere
batayo
bate
bateau
bateaux
batize
bato
bats
battaient
battait
battant
battement
battements
battent
batterie
battle
battre
battu
battue
bau
bauche
baudelaire
baudinie
bauer
bault
baulu
baume
baumgartner
bavardage
bavardages
bavarois
bavie
bavure
bawang
bayac
bayard
bayle
bayone
baysse
baza
bazar
baze
bazin
baɪ
baʁ
baʊ
bbc
bci
bcl
bdg
be
bean
beat
beau
beaucoup
beaudry
beaute
beautiful
beauty
beauvais
beauvoir
beaux
bebe
bebida
bec
because
becca
becco
become
becs
bed
bedaine
bedel
bee
been
beer
before
beg
begawan
behaghel
behind
bei
beigbeder
beijing
beim
being
bek
beke
bekommen
bel
bela
belaru
belarus
belfond
belge
belges
belgia
belgica
belgie
belgien
belgija
belgique
belgium
believe
belin
bell
belle
belles
bello
bellonte
below
belu
bem
bemba
ben
benda
bende
bene
benga
bengali
bengba
beni
benin
benjamin
benoi
benoit
benzin
benzina
ber
berbe
berceau
bercy
bere
beremu
berg
berge
berger
bergerac
bergers
berges
berlin
berman
bermuda
berna
bernadette
bernanos
bernard
berne
berriot
berry
bert
berthelot
bertrand
beru
bes
besogne
besoin
besoins
besser
best
besteht
bestialite
bestiaux
bete
bett
better
betterave
betteraves
between
beurre
bex
beyrouth
bezo
bg
bha
bi
bia
biais
biando
biani
bibe
bibero
biberon
bibi
bible
bibliophile
biblioteca
bibliothe
biblique
bic
biceps
biche
bichlamar
bicicleta
bicoque
bicyclette
biden
bido
bidon
bie
bielo
bielorrusia
bielorussia
bien
bienfaisante
bienfaits
bienfila
biens
biento
bienveillance
bienvenue
bier
bifteck
big
bignoniaceae
bigudi
bijou
bijoux
bikol
bil
bilamba
bilan
bild
bile
bilet
bili
bilingu
bill
billard
bille
billes
billet
billets
billy
bilo
bilɔ
bin
bindi
bine
biner
binette
bio
biodiversite
biographie
biologia
biologie
biologique
biologiques
bipe
bir
bira
bird
biri
birike
biro
birth
bis
bisa
bisao
bisau
biscuit
biscuits
bise
bishnupriya
bishop
bisi
bisiki
bissau
bist
bistrot
bit
bitait
bite
biter
bits
bitte
bitter
bitume
biyo
biz
bizarre
bizarrement
bizarres
bja
bjn
bjt
bjɔ
bjɛ
bl
bla
black
blague
blagues
blainville
blaise
blake
blanc
blancha
blanchard
blanche
blanches
blancheur
blanchir
blancs
blason
blasphe
blatte
ble
bled
bleiben
bles
blesse
blesser
blessure
blessures
bleu
bleua
bleue
bleues
bleus
bli
blica
blinde
blo
bloc
bloch
blocs
blog
blogue
blond
blonde
blondes
blondin
blood
bloque
bloud
blouse
blouson
blue
blɑ
blə
bm
bn
bo
boa
boate
bob
boba
bobe
bobo
bobomi
bobu
bobɛ
boca
bocal
bocca
bock
bod
boden
body
boeck
bogoma
bohe
boi
boileau
boire
boires
bois
boise
boisson
boissons
boit
boite
bok
boka
boke
bokma
boko
boks
boku
bol
bola
bole
boli
bolingo
bolivi
bolivia
bolo
bololo
bolongoli
bolt
bom
bomba
bombarde
bombardement
bombarder
bombarnac
bombe
bombes
bomi
bon
bonaparte
bonbon
bonbons
bond
bonde
bondeko
bondimi
bone
bonggi
bongo
bonheur
bonheurs
bonhomie
bonhomme
boniface
bonjour
bonnard
bonne
bonnement
bonnes
bonnet
bons
bonsoir
bonte
book
books
boom
bord
bordant
bordante
borde
bordeaux
bordel
border
bords
bordure
bore
borgne
boris
born
borne
bornes
boro
borode
bos
bosa
bose
bosna
bosni
bosnia
bosniaque
bosnie
bosnien
boso
bosquets
boss
bosse
bosses
bossu
bossuet
bot
bota
botanica
botanika
botanique
both
boti
boto
botswana
botte
bottes
bottines
bottle
bottom
botu
botɛ
bou
boualam
bouc
boucan
bouchard
bouche
boucher
boucherie
bouches
bouchon
bouchons
boucle
boucler
boucles
bouclier
boudard
bouddhisme
boudin
boue
bouffe
bougainville
bouge
bouger
bougie
bougies
bouillante
bouilli
bouillie
bouillir
bouilloire
bouillon
bouillonnement
bouillons
bouillotte
boulange
boulanger
boulangerie
boule
boules
boulet
boulets
boulette
boulevard
boulevards
bouleverse
bouleverser
boulier
boulimie
boulliot
boulogne
boulot
boulou
boum
bouquet
bouquets
bouquiaux
bouquin
bouquins
bourdaloue
bourdon
bourdonnement
bourg
bourgeois
bourgeoise
bourgeoises
bourgeoisie
bourgeons
bourgogne
bourguignon
bourguignottes
bouriate
bouriffe
bourin
bourre
bourreau
bourrer
bourse
bousculade
bouse
boussole
bout
boutade
bouteille
bouteilles
boutique
boutiques
bouton
boutonnie
boutons
bouts
bouvier
bovary
bovine
bovino
bow
box
boxe
boxer
boy
boya
boye
boylesve
boys
boz
boza
bozo
bozu
bpy
br
bra
brabanc
brac
bracelet
bracelets
bragelonne
braguette
brain
braire
braise
branche
branches
brandissant
branle
branler
braque
braquer
bras
brasier
brasil
brasse
brassens
brasserie
brasseries
bration
brave
braver
braves
bravoure
bray
brazil
bre
bread
break
brebis
bref
brer
bres
brest
bretagne
breton
bretonne
bretons
breu
breuvage
breux
brevet
brezi
bri
bribes
bric
brice
brick
bricole
bride
bridge
brie
brief
brigade
brigadier
brigand
brigandage
brigands
bright
brigitte
brillamment
brillant
brillante
brillantes
brillants
brille
brillent
briller
brin
brins
brique
briques
briquet
bris
brise
brisent
briser
bristle
britannique
britanniques
brite
bro
broad
brocante
brochant
broche
brochette
brochure
brode
broderie
bronchite
bronte
bronze
brosse
brother
brouette
brouhaha
brouillard
brouillards
brouille
brouiller
brouillon
brousse
brown
broyage
broye
bru
bruant
bruine
bruit
bruits
brume
brumes
brun
brune
brunei
brunej
brunes
bruno
bruns
brush
brusque
brusquement
brusques
brut
brutal
brutale
brutalement
brutalite
brute
brutes
bruxelles
bruyamment
bruyante
bruye
bs
bu
bua
buba
bubange
bubu
buc
buch
bucher
budge
budget
bue
buffet
buffle
buffon
bug
building
buis
buisson
buissons
bujumbura
buk
bul
bule
bulga
bulgaria
bulgarie
bulgarien
bull
bulldozer
bulle
bulletin
bulo
bulu
buluga
bulugari
bum
bun
bur
bureau
bureaux
burkina
burro
buru
buruma
burun
burundi
burung
bus
bush
business
busnel
buso
buste
but
bute
buter
butin
buto
buts
butt
butte
butter
button
butu
butuma
buvait
buvette
buveur
buy
buysse
buz
buza
buze
buzi
buʁ
bwa
bwe
by
bya
bye
bœuf
bœufs
bɐ
bɑ
bɔ
bɔa
bɔi
bɔlɔ
bɔʁ
bə
bən
bɛ
bɛl
bɛʁ
bɪ
bɯ
bɹɑ
bʁ
bʁa
bʁe
bʁi
bʁu
bʁy
bʁɑ
bʁɔ
bʁə
bʌt
c
ca
cabana
cabane
cabanis
cabaret
cabarets
cabbage
cabine
cabinet
cabinets
cabo
caboche
cabro
cac
caca
cacahue
cacao
cachait
cache
cacher
cachette
cachot
cactus
cada
cadavre
cadavres
caddie
cadeau
cadeaux
cadena
cadence
cadet
cadets
cadette
cadran
cadre
cadres
caen
cafard
cafe
cafetie
caffe
cage
cages
cahier
cahiers
cai
caicos
caillaux
caille
cailles
caillou
cailloux
caire
caisse
caisses
cake
cal
calais
calamite
calc
calcaire
calcaires
calcitrants
calcul
calcule
calculer
calculs
cale
calebasse
calec
calendrier
californie
call
called
calmann
calme
calmer
calomnie
calomnier
calot
calumet
calvaire
calvitie
camara
camarade
camarades
camargue
cambrinus
came
camembert
cameroon
cameroun
cameru
camerun
camille
camion
camionnette
camions
camisole
camp
campagne
campagnes
campe
campement
campo
camus
can
cana
canada
canadien
canadienne
canadiens
canaille
canal
canape
canard
canards
canari
canaux
canberra
cancer
candeur
candidat
candidats
candidature
cane
canique
caniques
canisme
cannabaceae
cannabis
canne
cannelle
cannes
cannibale
cannot
canon
canons
canot
canton
cantonais
cao
caoutchouc
cap
capa
capable
capables
capacite
cape
capita
capitaine
capitaines
capital
capitale
capitales
capitalisme
capitaliste
capitan
capitaux
capitulation
capituler
capo
caporal
capote
caprice
caprices
capsicum
captive
captivite
capture
caput
car
caraco
caracoles
caracte
carai
caravane
carbonate
carbone
carcan
carcasse
carcassonne
carco
cardiaque
cardinal
cards
care
caresse
caresses
carie
carine
carl
carlate
carlien
carmen
carnet
carnets
caro
carole
caroline
carottes
carpathes
carre
carreau
carreaux
carrefour
carrie
carrure
cart
carta
carte
cartel
cartele
carter
cartes
carthage
carton
cartons
cartouches
carts
cas
casa
casablanca
cascade
case
caserne
cases
cash
casiers
casimir
casque
casquette
cassa
cassation
casse
casser
casseres
casserole
cassia
caste
casterman
castor
cat
catalan
catalogue
catastrophe
catastrophes
catch
cate
cathe
catherine
catholique
catholiques
caucase
cauchemar
causa
cause
causer
causerie
causes
caution
cautions
cavale
cavalerie
cavalie
cavalier
cavaliers
cavanna
cave
caveau
cavernes
caves
cavite
ccc
cdo
ce
ceb
cebuano
ceci
ceiba
ceinture
cela
celer
celle
celles
cellule
cellules
celtique
celtis
celui
cembre
cement
cemment
cence
cendrars
cendre
cendres
cennies
cense
censure
cent
centaine
centaines
cente
centes
centie
centime
centimes
centrafrique
central
centrale
centrales
centre
centres
centro
cents
century
cependant
ceps
cepte
ceptes
cepteur
ception
cercle
cercueil
cerf
cerise
cerises
cerne
certain
certaine
certainement
certaines
certains
certes
certificat
certitude
cerveau
cerveaux
cervelle
ces
cessaire
cessairement
cessaires
cessait
cesse
cessent
cesser
cessite
cet
cette
ceux
ceylan
cf
ch
cha
chacal
chacun
chacune
chad
chage
chagrin
chagrins
chai
chaient
chair
chaire
chairs
chaise
chaises
chait
chal
chaleur
challenges
chambre
chambres
chameau
chameaux
chamerot
chamicuro
chaminadour
chamment
chamorro
champ
champagne
champignon
champignons
champion
champs
chance
chancelante
chances
chancete
chandelle
chandler
change
changea
changement
changements
changent
changer
changes
chanoine
chanson
chansons
chant
chantaient
chantait
chantal
chantant
chante
chanter
chanteur
chanteurs
chanteuse
chantier
chantiers
chantillon
chantillons
chants
chanvre
chaos
chaoui
chap
chapdelaine
chape
chapeau
chapeaux
chapelet
chapelle
chapitre
chapitres
chappait
chappe
chappent
chapper
chaque
char
charbon
charcoal
charcot
charente
charge
chargement
chargent
charger
charges
chargeur
chariot
charitablement
charite
charles
charleville
charlie
charlot
charlotte
charmant
charmante
charme
charmer
charmes
charpe
charpente
charpentier
charrette
charrettes
charrue
chars
charte
chartres
chasse
chasser
chasses
chasseur
chasseurs
chastete
chat
chateaubriand
chatino
chatrian
chats
chatte
chaud
chaude
chaudes
chaudie
chauds
chauffage
chauffard
chauffe
chauffement
chauffer
chauffeur
chaume
chaumie
chaumont
chausey
chausse
chaussettes
chaussure
chaussures
chauve
chauveau
chaux
che
chec
check
checs
chef
chefs
cheikh
chelle
chelles
chement
chemin
chemine
cheminements
chemins
chemise
chemises
chemisette
chenille
chenopodiaceae
chent
cheque
cher
chercha
cherchait
cherchant
cherche
cherchent
chercher
chercheur
chercheurs
cheresse
cherokee
chers
ches
chet
chete
chets
chette
cheur
cheurs
cheuse
cheux
cheval
chevalerie
chevalier
chevaliers
chevalines
chevaux
chevelure
chevet
cheveu
cheveux
cheville
chevilles
chevreau
cheyenne
cheyney
chez
chi
chic
chiche
chiches
chickasaw
chie
chief
chien
chienne
chiens
chier
chiffrage
chiffre
chiffrer
chiffres
child
children
chile
chili
chim
chime
chimie
chimique
chimiques
chimpanze
chin
china
chine
chinese
chinois
chinoise
chinook
chippewa
chir
chire
chirer
chirurgicale
chirurgie
chirurgien
chis
chisme
chissant
chissante
chit
chk
chlother
chn
cho
choc
chocolat
chocs
choir
choire
choires
choisi
choisie
choisir
choisis
choisissent
choisit
choix
chole
cholera
choque
chor
chos
chose
choses
chou
choue
chouer
chouette
choux
choye
chr
chre
christ
christian
christiane
christianisme
christine
christmas
christophe
christopher
chrome
chronique
chroniques
chte
chu
chua
church
chute
chutes
chuva
chy
chœur
ci
cia
cial
ciale
cialement
ciales
cialise
cialiste
cialistes
cialite
ciation
ciaux
cible
ciboulette
cic
cicatrice
cicatrices
cice
cida
cide
cider
cidive
cidre
cie
cieco
ciel
cier
cierge
cieuse
cieuses
cieux
cifique
cifiquement
cigale
cigales
cigare
cigarette
cigarettes
cile
ciles
cils
cim
cime
ciment
cimes
cimetie
cine
cinema
cingalais
cingle
cinq
cinquantaine
cinquante
cinquie
cintre
cio
cipient
cipitation
cipite
cipiter
cirad
circa
circoncis
circonfe
circonstance
circonstances
circuit
circulaire
circulation
cire
cirque
cis
cise
ciseaux
ciser
cises
cisif
cision
cisions
cit
citation
cite
citer
citoyen
citoyens
citron
citrus
cits
city
civil
civile
civiles
civilisation
civilite
civils
ciw
cjs
ck
ckb
cke
cken
ckt
clair
clairage
clairait
claire
clairement
clairer
claires
clairie
clairon
clairs
clame
clameur
clancy
claquer
clara
claration
clare
clarer
clarinette
clarte
clash
class
classe
classement
classes
classical
classification
classique
classiques
clat
clata
clataient
clatant
clatantes
clate
clater
clats
claude
claudel
claudia
claudine
claudius
clause
clauses
claveau
clavier
cle
clean
clef
clefs
clemenceau
clenche
clerc
clercs
clerge
clermont
cles
cliche
client
cliente
clients
climat
climatique
climatiques
clin
cline
clinique
clipse
cliquetis
clitoris
clo
cloche
clocher
cloches
clock
cloi
cloison
clope
clore
clos
close
closes
closet
closion
clou
cloud
clous
clovis
clown
club
cluses
clusiaceae
cm
cnrs
co
coach
coagulation
coalition
cobra
coce
coche
cocher
cochon
cochonnet
cochons
coco
cocotier
cocotte
code
coeur
coffee
coffre
cogne
cohe
cohen
coi
coiffe
coiffeur
coiffeuse
coiffure
coin
coince
coins
cois
col
cola
cold
cole
coles
colette
colibri
colier
coliers
colin
colis
coll
collaborateurs
collaboration
colle
collectif
collection
collective
collectivite
collegamentomode
coller
collet
collier
collin
colline
collines
collision
colloque
colloquial
cologie
cologique
colomb
colombe
colombia
colombie
colonel
colonial
coloniale
coloniales
colonialisme
colonie
colonies
colonisation
colonne
colonnes
color
coloration
colore
coloris
colporteur
cols
colte
coltes
com
combat
combats
combattant
combattants
combattre
combien
combinaison
combinaisons
combine
comble
combler
combretaceae
combretum
combustible
combustion
come
comestibles
comfort
comique
comite
commandant
commande
commandement
commandements
commander
commandes
commando
comme
commelinaceae
commenc
commence
commencement
commencent
commencer
commensal
commensaux
comment
commentaire
commentaires
commerc
commerce
commercial
commerciale
commerciaux
commettre
commis
commissaire
commissariat
commission
commode
common
commons
commun
communale
communaute
commune
communes
communication
communications
communion
communique
communiquer
communisme
communiste
communs
como
compact
compacte
compagnes
compagnie
compagnies
compagnon
compagnons
company
comparable
comparaison
comparait
compare
comparer
compas
compassion
compe
compense
compenser
complaisance
comple
complet
complexe
complexes
complexite
complice
complicite
compliment
compliments
complique
complot
comporte
comportement
comportements
comporter
composait
compose
composent
composer
compositae
compositeur
composition
compre
comprenait
comprenant
comprend
comprendre
comprends
comprenez
comprennent
comprime
comprimer
compris
comprise
comprit
compromettre
compromis
comptable
comptait
comptant
compte
compter
comptes
comptoir
computer
comte
comtes
comtesse
comtois
comune
con
conakry
conan
conc
concarneau
conce
concentration
concentre
concept
conception
concernant
concerne
concert
concerts
concession
concessions
concevoir
concierge
concile
conciliation
concilie
concilier
concitoyens
conclu
conclure
conclusion
conclut
concordance
concorde
concours
concre
concurremment
concurrence
concurrents
condamnation
condamne
condamner
conde
condition
conditions
conducteur
conducteurs
conduire
conduisent
conduisit
conduit
conduite
conduits
confe
confection
confectionne
confessions
confiance
confiant
confidence
confidences
confie
confinement
confins
confirme
confitures
conflit
conflits
confond
confondent
confondre
conforme
conformer
confort
conforter
confre
confrontation
confronte
confus
confuse
confusion
conge
congo
congolensis
congre
conjointement
conjugal
connai
connais
connaissais
connaissait
connaissance
connaissances
connaissent
connaissez
connaissons
connerie
connu
connue
connues
connus
conomie
conomies
conomique
conomiques
conque
conquis
conrad
cons
consacre
conscience
consciente
conscrit
conscrits
conse
conseil
conseille
conseiller
conseillers
conseils
consentement
consenti
conservateur
conservateurs
conservation
conserve
conserver
conside
consistait
consistance
consistant
consiste
consolation
consommateurs
consommation
consomme
conspiration
constamment
constance
constant
constante
constantin
constate
constater
consterne
constituaient
constituante
constitue
constituent
constituer
constitution
constitutionnel
constitutions
construction
constructions
construire
construit
construite
construites
consulte
consulter
consume
contact
contagion
conte
contemplait
contempler
contemporain
contemporaine
contemporaines
contemporains
contenait
contenance
contenant
contenir
content
contenta
contente
contentement
contenter
contents
contenu
contes
contestation
conteste
contester
contexte
contiennent
contient
continent
continentales
continents
continu
continua
continuait
continue
continuellement
continuent
continuer
continues
continuite
contourne
contours
contracte
contracter
contradiction
contradictions
contraint
contrainte
contraire
contrairement
contrarie
contraste
contrat
contrats
contre
contrebande
contribue
contribuent
contribuer
contribution
contributions
contro
controverse
convaincre
convaincu
convenable
convenablement
convenait
convenir
convention
conventions
conversation
conversations
conversion
converti
convertir
conviction
convictions
conviennent
convient
convives
convoi
convoitise
convolvulaceae
cook
cool
coope
coordination
coordonne
cop
copains
copie
copine
copte
coq
coqs
coque
coques
coquet
coquette
coquetterie
coquillages
coquille
coquins
cor
corail
coration
corbeau
corbeaux
corbin
corce
corces
corday
corde
cordes
cordifolia
cordon
cordonnier
core
corinne
corne
corneille
corner
cornes
cornet
cornique
cornouaille
corona
coronavirus
corpore
corporelles
corps
corre
correct
correctement
correspond
correspondance
correspondant
corridor
corrige
corriger
corrompre
corruption
cors
corsage
corsaires
corse
corte
corti
corve
cossais
cosse
cost
costa
costes
costume
costumes
cote
coteaux
cotisations
coton
cotonnier
cotton
cou
couchant
couche
coucher
couches
couchette
coucou
coucous
coude
coudre
coue
couillon
coulait
could
coule
coulement
coulent
couler
couleur
couleurs
couloir
country
coup
coupa
coupable
coupables
coupe
coupent
couper
coupes
couple
couples
coupon
coupons
coups
coupure
coupures
cour
courage
courageux
couraient
courait
couramment
courant
courante
courantes
courants
courbe
courent
coureur
courge
courir
couronne
couronner
couronnes
courrier
courroies
courroux
cours
course
courses
court
courte
courteline
courtes
courtiers
courtisanes
courtoisie
courts
couru
courut
cousin
cousine
cousins
coussin
coussins
cousu
cousue
coutait
coutant
coute
couteau
couteaux
couter
coutes
coutez
coutume
coutumes
couture
couturie
couvent
couvercle
couvert
couverte
couvertes
couverts
couverture
couvertures
couvraient
couvrait
couvrant
couvre
couvrent
couvrir
couvrirent
couvris
couvrit
covid
cow
coze
cr
cra
cracher
craie
craignait
craignant
craignent
craindre
crains
craint
crainte
cramponne
cran
crans
crapaud
crapauds
crapule
craquer
crasait
crase
craser
crate
cravate
cravates
crayon
crayons
cre
cret
creuse
creuser
creux
creve
crever
crevette
crevettes
crg
crh
cri
cria
criait
criant
cric
crie
crient
crier
crime
crimes
criminel
criminelle
criminelles
crin
crinie
criquet
crire
cris
crise
crispe
cristal
cristaux
cristo
crit
crite
crites
critique
critiques
crits
criture
critures
crivain
crivains
crivait
crivant
crivent
cro
croassements
croate
croatia
croches
crochet
crocodile
croi
croient
croirait
croire
crois
croise
croisement
croissance
croissant
croissante
croissent
croit
croix
croquant
croque
cross
crosse
crou
crouler
croupe
croyaient
croyais
croyait
croyance
croyances
croyant
croyants
croyez
cru
cruaute
cruche
crue
cruel
cruelle
cruellement
cruels
crues
crus
crush
crut
cruz
crypter
cs
csb
css
cta
cu
cuba
cube
cubes
cucina
cucurbitaceae
cueil
cueillait
cueillette
cueillir
cuille
cuir
cuirasse
cuire
cuirs
cuisine
cuisines
cuisinie
cuisinier
cuisiniers
cuisse
cuisses
cuisson
cuit
cuite
cuites
cuivre
cul
culation
cule
cules
culinaire
culo
culotte
culs
culte
cultes
cultivateur
cultivateurs
cultive
cultiver
culture
culturel
culturelle
cultures
cum
cume
cup
cupe
cure
curer
cureuil
curie
curies
curieuse
curieux
curiosite
curite
cus
cut
cute
cuter
cution
cutions
cuve
cuvier
cuyer
cv
cy
cycle
cycliste
cyclone
cylindre
cyrille
cœur
cœurs
d
da
daa
daba
dabambi
dabe
dabei
dabu
dac
dach
daction
dadawa
dado
dafono
dafugu
dafungu
dagaduru
dagba
dagbi
dagnan
daient
daigne
daille
dailles
dain
dait
dak
daka
dakar
dako
dakota
daku
dal
dala
dalai
dalamo
dale
dalembe
dalles
dalmate
dam
dama
damali
damame
damar
damas
damaza
damba
dambe
dambeso
dambi
dame
dames
damien
damit
dan
dana
dance
dancing
dandara
dandu
danemark
daneme
danga
danganga
dangbanga
dange
danger
dangereuse
dangereuses
dangereux
dangers
dangu
dani
dania
daniel
danielle
danija
danimarca
danimarka
dank
danmark
dann
danois
dans
dansait
danse
danser
danses
danseur
danseuse
danseuses
dant
danton
danyama
danzapa
daoud
dapa
dapuru
dar
dara
daraku
daran
dard
dare
darf
darkness
das
dase
dasi
dasindima
dass
data
databa
database
datant
date
datokua
dattier
dau
daudet
dauphine
davantage
daveke
david
davray
dawa
day
days
dazo
dazu
daß
daʊn
dchen
ddeutsche
de
dead
deballe
debout
december
decibelproduction
decided
decin
decine
decins
dedans
dede
dedo
deep
degre
dehors
dei
dein
deine
deke
dekobra
deku
del
dela
delagrave
delaroche
delattre
delerm
delhi
dell
della
delmas
delphine
delpierrie
dem
dema
demain
demand
demanda
demandai
demandaient
demandait
demandant
demande
demandent
demander
demandes
demandez
demeura
demeurait
demeure
demeurent
demeurer
demi
demie
demoiselle
demoiselles
demouzon
den
dendo
dengbe
deniers
denis
denise
denmark
denn
denoe
denre
dense
densite
dent
dentaire
dentaires
dente
dentelle
dentelles
dents
dentu
depuis
der
dere
dernie
dernier
derniers
derrie
des
desaive
descartes
descend
descendaient
descendait
descendant
descendante
descendants
descendent
descendit
descendre
descends
descendu
descente
deschamps
description
desde
desforges
design
desjardins
despre
desquelles
desquels
desqueyroux
desse
dessein
desseins
dessert
dessin
dessinait
dessine
dessiner
dessins
dessous
dessus
destin
destination
destine
destouches
destruction
deterville
detlef
dette
dettes
deu
deuil
deulin
deutsch
deutsche
deutschen
deutschland
deux
deuxie
devaient
devais
devait
devant
devanture
deve
devenaient
devenait
devenant
devenir
devenu
devenue
devenues
devenus
devez
deviendra
devienne
deviennent
devient
devil
devinait
devine
deviner
devinrent
devint
devise
devoir
devoirs
devons
devra
devraient
devrais
devrait
dextre
dez
deɪ
dha
dhe
dhi
dho
di
dia
diable
diagnostic
diaire
dialecte
dialogue
dialogues
diama
diamant
diamante
diamants
diame
diamond
diamonds
diane
diarrhe
dias
diate
diatement
diatique
dibuti
dical
dicale
dicales
dicament
dicaments
dicaux
dich
dicinales
dickens
dickson
dico
dicte
diction
dictionnaire
dictionnaires
dictions
did
dida
diderot
didi
didier
didinga
didisi
didn
didot
die
dien
diens
dienstag
dient
dients
dier
dies
diese
diesem
diesen
dieser
dieses
dieu
dieudonne
dieux
diez
diffe
different
difficile
difficilement
difficiles
difficult
difficulte
diffuse
diffusion
difice
difices
dig
dige
diger
digestion
digne
dignes
dignite
digue
digues
dijon
dik
diki
diko
dil
dili
dillon
dima
dimanche
dimanches
dime
dimension
dimensions
diminuant
diminue
diminuer
diminution
dimli
din
dinamarca
dinde
dio
dioce
diocre
diocres
diolo
dion
diongo
dioscorea
dioscoreaceae
diospyros
diplo
diploma
diplomatie
diplomatique
diplomatiques
diq
dique
dir
dira
dirai
dirait
dire
direct
directe
directement
directeur
directeurs
direction
director
direktor
dirige
dirigea
dirigeants
diriger
diritto
dis
disaient
disais
disait
disant
discerner
disciple
disciples
discipline
discorde
discours
discre
discrimination
discussion
discussions
discutaient
discute
discuter
dise
disease
disent
disette
disons
disparai
disparaissait
disparition
disparu
disparue
disparut
dispense
disperse
displaystyle
disponibles
disposa
dispose
disposer
dispositif
dispositifs
disposition
dispositions
dispute
disputent
disputer
disputes
disque
disse
dissensions
dissertation
dissimulait
dissimulation
dissimule
dissimuler
dissipe
dissiper
distance
distillation
distinctement
distinctes
distinction
distincts
distinguait
distingue
distinguent
distinguer
distraction
distraire
distribue
distribuer
distribution
district
dit
ditait
ditation
ditations
dite
diter
diterrane
dites
diteur
diteurs
dition
ditions
dito
dits
diva
divan
divehi
divers
diversement
diverses
diversite
divin
divination
divine
divinite
divise
diviser
division
divisions
divo
divorce
divu
dix
dixie
diya
diz
dizaine
dizaines
diʁ
dja
dje
djibouti
djo
dju
djɔ
dlg
dlm
dmr
dn
dng
do
doch
docilite
docteur
docteurs
doctor
doctorat
doctrine
doctrines
document
documentation
documents
dodoma
does
dog
dogme
dogon
doigt
doigts
doin
dois
doit
doivent
dokima
dokter
doktor
dokument
dolgane
doli
dolichos
dolique
dollars
dom
domaine
domaines
domenico
domestique
domestiques
domicile
dominant
dominante
domination
domine
dominer
dominica
dominika
dominique
dommage
dommages
don
donald
donation
donc
dondo
done
dongo
dongolomi
donie
donien
donis
donjon
donna
donnaient
donnait
donnant
donne
donnent
donner
donnera
donnez
donnons
dono
dons
dont
doo
door
dor
dore
dormaient
dormait
dorment
dormi
dormir
doro
doroko
dort
dos
dose
doses
dossier
dossiers
dot
dote
douai
douala
douane
douanes
douaniers
douard
douba
double
doublement
doubles
douce
doucement
douces
douceur
douceurs
douche
doue
douglas
douleur
douleurs
douloureuse
douloureux
doungane
doursther
doute
douter
douteux
doux
douzaine
douze
dove
down
dr
dra
dragon
dragons
drale
dramatique
drame
drap
drape
drapeau
draps
draw
dre
dream
drei
dress
dressait
dresse
dresser
dreyfus
dric
dricot
dried
drieu
drink
drive
driver
driving
dro
drogue
drogues
droit
droite
droits
droz
dru
druon
dry
drz
ds
dsb
du
dua
duani
dube
dubois
duc
ducation
duchesne
duchesse
duck
ducteur
duction
ductions
dudu
duduwa
due
duel
dues
dufour
duhamel
duire
duit
duite
duites
duits
duka
dule
dulite
duma
dumas
dumay
dumont
dunan
dune
dunes
dungusa
dunod
duo
dupe
duper
dupont
dupouy
dupuis
duquel
dur
durable
durait
durand
durant
durante
durch
durcit
dure
durent
durer
durera
dures
durete
durs
durtal
duru
dus
dussent
dust
dut
dute
duti
duvet
dv
dwa
dy
dyk
dynamique
dysphania
dz
dzongkha
dœʁ
dɐ
dɑ
dɔ
də
dən
dɚ
dɛ
dɥiʁ
dɪ
dʁ
dʑi
e
ea
each
ear
earth
east
easy
eat
eau
eaux
ebe
ebele
eberhardt
ebo
ec
eccle
eco
ecuador
ed
edgar
edilivre
editions
editorial
edme
edmond
edp
educagri
education
edzino
ee
effac
efface
effacer
effare
effectif
effectivement
effectue
effectuer
effet
effets
efficace
efficaces
efficacite
effondrement
efforc
efforce
efforcent
effort
efforts
effrayant
effraye
effrayer
effroi
effroyable
eg
ego
egy
egypt
egypte
eh
ehrlich
ei
ein
eine
einem
einen
einer
eines
einfach
einige
einmal
einstein
either
ek
eko
ekran
eku
ekuate
ekvador
ekzercaro
ekɛ
el
ela
elamba
elan
ele
elefant
elefante
elembo
elephant
elhamy
eli
elke
elle
ellement
elles
elo
els
elsa
eltchaninoff
elɔ
em
ema
embarcation
embarcations
embarras
embarrasse
emble
emboi
embouchure
embrasse
embrasser
ement
eml
emma
emmanuel
emmanuelle
emme
emmene
empare
emparer
empe
empereur
empie
empire
emplacement
emplit
emploi
emploie
emploient
emplois
employe
employer
empoigna
empoisonne
empoisonnement
emporta
emportait
emportant
emporte
emporter
empreinte
empreintes
empresse
empressement
emprunte
emprunts
ems
emsome
en
ena
encadre
ence
enceinte
encens
enchai
enchante
encheve
enclos
encombre
encombrement
encontre
encor
encore
encourage
encouragement
encourager
encre
encyclope
end
ende
endormi
endormir
endormis
endort
endroit
endroits
enduit
endure
endyi
enemy
enfance
enfant
enfantine
enfants
enfer
enferme
enfers
enfile
enfiler
enfin
enflamme
enfonc
enfonce
enfoncer
engage
engagea
engagement
engagements
engager
engel
engendre
engin
engins
england
english
engloutir
engrais
eni
enigma
enivre
enjeux
enle
enleve
enlever
enm
enndonezi
enne
ennemi
ennemie
ennemies
ennemis
ennes
ennui
ennuie
ennuis
ennuyer
enough
enque
enrage
enregistre
enregistrer
enrichir
enroule
ens
enseignant
enseigne
enseignement
enseigner
ensemble
ensemence
ensoleille
ensuite
entame
entandrophragma
entasse
ente
entend
entendais
entendait
entendant
entendement
entendent
entendez
entendit
entendra
entendre
entends
entendu
entendue
entente
enterre
enterrement
enterrements
enterrer
enthousiasme
entie
entier
entiers
entourage
entouraient
entoure
entourer
entr
entra
entrai
entraient
entrailles
entrait
entrant
entre
entreba
entreme
entrent
entreprendre
entrepris
entreprise
entreprises
entrer
entretenir
entretien
entretiens
entrevue
envahi
envahir
envahissant
envahit
enveloppait
enveloppe
enveloppes
envergure
envers
envie
envier
envieux
environ
environne
environnement
environs
envisage
envisager
envoi
envoie
envole
envou
envoya
envoye
envoyer
eo
epe
er
era
erckmann
erde
ere
eri
eric
eritre
eritrea
eritreja
erka
ermite
ernaux
ernest
ernestine
ernst
ero
errer
erreur
erreurs
errico
erst
erste
erza
erzegovina
es
esa
escalade
escalier
escaliers
escapade
escape
escargot
escargots
escarpe
esclavage
esclave
esclaves
escopette
escorte
esculentum
esel
esi
espa
espace
espaces
espagne
espagnol
espagnole
espagnols
espan
espanyo
espe
especially
esperanto
espion
espions
espoir
esprit
esprits
esquisse
essai
essaie
essaient
essais
essaya
essaye
essayer
esse
essen
essence
essences
essentiel
essentielle
essentiellement
essentiels
essor
essuie
essuyer
est
esta
estados
estas
este
estelle
esthe
estime
estiment
estimer
estis
estomac
estonien
estre
esu
eswatini
et
eta
etat
etats
etc
ete
ethiopia
ethnologie
etienne
etio
etiopi
etiopia
etiopija
etmek
eto
etu
etudes
etwa
etwas
etɛ
eu
eucalyptus
eue
euge
eul
euphorbia
euphorbiaceae
euphorie
eure
eureka
eurent
euro
europa
europe
european
euros
eus
eusse
eussent
eut
eux
eve
even
evening
ever
every
evn
ew
ex
exact
exacte
exactement
exactitude
exage
exam
examen
examens
examina
examine
examiner
exaspe
exbrayat
exce
excellence
excellent
excellente
excellentes
excellents
excepte
exception
exceptionnel
exceptionnelle
exceptionnellement
excessif
excessive
excessivement
excite
exclus
exclusion
exclusivement
excre
excursion
excuse
excuses
exe
exemplaires
exemple
exemples
exerc
exerce
exercent
exercer
exercice
exercices
exercise
exhale
exhiber
exhibition
exige
exigences
exiger
exil
exile
existaient
existait
existant
existe
existence
existent
exister
exo
exotiques
expansion
expe
expert
experts
explication
explications
expliqua
explique
expliquer
exploit
exploitation
exploite
exploiter
exploits
exploration
explore
explorer
exploser
explosion
exportation
expose
exposer
exposition
expre
express
expresse
expression
expressions
exprimait
exprime
exprimer
exquis
ext
extase
exte
extension
externe
extinction
extirper
extra
extraction
extraire
extrait
extraits
extraordinaire
extraordinaires
extre
exube
exupe
eye
eyrolles
ez
ezali
ezi
eɾ
f
fa
fabaceae
fabanga
fabian
fabien
fabienne
fable
fables
fabre
fabricant
fabricants
fabrication
fabrice
fabrique
fabriquer
fac
face
faces
facile
facilement
faciles
facilite
faciliter
facteur
facteurs
faction
facture
faculte
fadaises
fade
fafade
fagot
faguet
fahren
fai
faible
faiblement
faibles
faiblesse
faille
failli
faillit
faillite
faim
faine
faire
fais
faisaient
faisais
faisait
faisant
faisceau
faisceaux
faisions
faisons
fait
faite
faites
faits
fak
fakiti
faks
fal
falaise
falaises
falco
falkland
fall
fallait
falloir
falls
fallu
fallut
false
fame
fameuse
fameux
fami
familial
familiale
familie
familier
famille
familles
family
famine
famy
fan
fane
faner
fanfare
fanfarlo
fange
fantaisie
fantaisies
fantasme
fantastique
fanto
fao
far
fara
farbe
farce
fard
farde
fardeau
fare
farine
farm
farouche
farouches
farsi
fas
fasce
fashion
faso
fasquelle
fasse
fast
fat
fatal
fatale
father
fatigue
faubourg
fauche
faucille
faucon
faucons
faudra
faudrait
faune
faure
fausse
fausses
faussete
faut
faute
fautes
fauteuil
fauteuils
fauts
fauve
fauves
faux
faveur
faveurs
favor
favorable
favorables
favori
favoris
favorise
favoriser
favorite
fax
fayard
faye
faɪ
faʁ
fc
fe
fear
fection
fectoire
fecture
feel
feeling
feempje
feho
fell
female
femba
femelle
femelles
femme
femmes
fend
fendit
fendre
fendu
fendue
fene
fense
fenses
fenseur
fenster
fer
fera
ferai
feraient
ferais
ferait
ferdinand
ferez
ferme
fermentation
fermer
fermes
fermeture
fermier
fernand
fernando
feront
ferrand
ferre
ferro
ferroviaire
ferruginea
fers
ferte
fertile
fertilisantes
ferveur
fesse
fesses
fest
festin
festival
fet
feu
feuer
feuillage
feuille
feuilles
feux
feydeau
ff
ffel
fi
fia
fiacre
fiance
fibre
fibres
fice
fices
fiche
fiches
fichier
ficient
fiction
ficus
fide
fides
fidjien
fidyi
fidz
fie
fief
field
fier
fiers
fierte
fiez
fig
figaro
fige
fight
figuier
figuiers
figure
figurer
figures
fiji
fil
filature
file
filer
filet
filets
filie
filipi
filipinas
filipini
fille
filles
fillette
fillon
film
films
fils
filtre
fin
final
finale
finalement
finally
finance
financer
finances
financie
financier
financiers
find
finden
fine
fines
finesse
finger
fini
finie
finiment
finir
finira
finis
finish
finissable
finissent
finiste
finit
finition
finitive
finitivement
finla
finland
finlandia
finnland
finnois
fins
fionfi
fire
firecrest
firent
firigo
firma
firmin
first
fis
fiscal
fischbacher
fischer
fish
fit
fiu
five
fix
fixe
fixer
fj
fje
fla
flacon
flacons
flag
flagrant
flamand
flamboyant
flammarion
flamme
flammes
flanc
flancs
flandre
flanque
flaques
flash
flat
flatteur
flaubert
fle
fleur
fleuri
fleuries
fleurs
fleury
fleuve
fleuves
flexion
flexions
flic
flics
flingue
flo
floor
flora
flore
florence
florian
flot
flots
flottante
flottantes
flotte
flotteur
flower
flu
flugzeug
fluides
flux
fly
fo
foi
foie
foin
foins
foire
foires
fois
folie
folies
folio
foliohistoire
folklore
folle
follement
folles
follet
fon
fonc
fonce
foncie
fonction
fonctionnaire
fonctionnaires
fonctionne
fonctionnement
fonctionner
fonctions
fond
fondamental
fondamentaux
fondateur
fondation
fonde
fondement
fondements
fondent
fonder
fondo
fondre
fonds
fondu
fonio
fono
font
fontaine
fontaines
fonte
fontenay
fontenelle
food
fool
foot
football
for
forc
force
forcer
forces
fore
forest
forestie
forestier
forestiers
forfaits
forge
forgeron
forges
forma
formaient
formait
formalite
formant
format
formation
forme
formellement
forment
former
formes
formica
formidable
formule
formules
foro
forse
fort
forte
fortement
fortes
forts
fortune
fortunes
forum
fosse
foto
fou
foucault
foudre
fouet
fouge
fougue
fouillant
fouille
foulard
foule
fouler
foules
found
four
fourbe
fourche
fourchette
fourmi
fourmilie
fourmis
fourneau
fourneaux
fourni
fournier
fournir
fournissent
fournit
fourrage
fourre
fourreau
fourrure
fourrures
fours
fous
foutre
foutu
fox
foyer
fr
fra
fracas
fracasse
fractaires
fraction
fracture
frage
fragile
fragiles
fragilite
fragments
frai
fraipont
frais
fraise
fraises
fran
franc
france
franche
franchement
franches
franchi
franchir
franchise
franchissaient
francique
francis
francisco
franck
franco
francoprovenc
francs
frange
frank
franquin
frans
franz
franzo
frapie
frappa
frappant
frappe
frappent
frapper
fraternite
frau
fraude
frayeur
fre
fred
free
frein
freitag
french
freund
fri
fribourg
fric
friche
friday
friedrich
friend
friends
frige
frigo
frioulan
frisch
frise
frison
frisson
frissons
frites
fritsch
friture
fritz
fro
froc
froid
froide
froides
from
fromage
fromages
fromentin
front
fronte
frontenac
frontie
frottant
frotte
frotter
frp
frr
fru
fruit
fruitiers
fruits
fry
fs
ft
fte
fu
fud
fugie
fuir
fuit
fuite
fuites
fuku
full
fulundi
fumant
fume
fumer
fumier
fun
funda
fune
funeste
fung
fungi
fungu
funt
funte
fur
furent
fureur
furieuse
furieusement
furieux
furne
fus
fuse
fusible
fusil
fusille
fusils
fusion
fussent
fut
fute
futi
futunien
futur
future
futurs
fuß
fwa
fy
fɐ
fɑ
fɔ
fɔʁ
fə
fən
fɛ
fɛk
fɛs
fɛɐ
fɛʁ
fʁe
fʁi
fʁɑ
fʁɔ
fʁɛ
g
ga
gaa
gaafar
gab
gaba
gabo
gabon
gabriel
gabrielle
gabun
gaduru
gae
gaffes
gag
gagaouze
gage
gagement
gager
gagna
gagnait
gagnant
gagne
gagnent
gagner
gagnon
gai
gaie
gaiement
gaiete
gaillard
gain
gaine
gake
gal
gala
galamment
gale
galement
galer
galerie
galeries
gales
galeswinthe
galette
galicien
galiciens
galile
galite
gallimard
gallina
gallo
gallois
galop
gambi
gambia
gambie
gambula
game
gamin
gamins
gamme
gamment
gamvara
gan
gana
gance
ganda
gang
ganho
ganja
gant
gante
gantes
gants
ganu
ganz
ganza
ganze
ganzen
gao
gapa
gar
gara
garage
garantie
garanties
garantir
garc
garce
garcinia
gard
gardait
garde
garden
gardent
garder
gardes
gardez
gardien
gardienne
gardiens
gare
garement
garer
gares
gargote
garni
garnie
garnier
garnison
garola
garonne
gars
gary
gas
gascogne
gaspard
gaston
gastronomie
gat
gate
gati
gation
gato
gauche
gaule
gaules
gaulle
gaulois
gaussen
gauthier
gautier
gaux
gave
gavinard
gay
gaya
gaz
gazelle
gazelles
gazette
gazon
gba
gbadara
gbado
gbagba
gbagbara
gbago
gbako
gbala
gbangaya
gbangba
gbara
gbaralimo
gbasapa
gbata
gbe
gbebi
gbebongo
gbeda
gbede
gbedu
gbefa
gbego
gbele
gbembi
gbemi
gbenyo
gbepo
gbere
gbese
gbeti
gbeya
gbi
gbia
gbiki
gbo
gbogbo
gbole
gbongo
gboo
gbu
gbudu
gbugburu
gbutu
gbya
gcf
gd
ge
geait
geant
gear
geba
geben
gec
gefa
gefu
gegen
gehe
gehen
geht
geist
gel
gelbacher
geld
gele
gemacht
gembloux
gemu
gen
genau
gendarme
gendarmes
gende
gendes
gene
general
genevie
genevoix
genou
genoux
genre
genres
gens
gent
gentil
gentilhomme
gentillesse
gentilshommes
gentleman
geo
geoffroy
geografia
george
georges
georgette
ger
gera
gerade
gerald
gerbault
gerbes
gere
germain
germaine
germania
germanique
germe
germer
germinal
gern
gerne
gerrit
gers
gervais
gerver
ges
gescha
geschehen
geschichte
gesehen
gesicht
geste
gestern
gestes
gestion
get
geysers
gha
ghana
ghour
gi
gia
giant
gibier
gibt
gide
gie
gien
giens
gier
gies
gigantesque
gigantesques
gigi
gigot
gilbert
gilet
gilets
gilles
gime
giment
giments
gin
gindi
gine
ginea
gingembre
ginger
gini
ginon
gio
gion
gional
gionale
giono
gions
gique
girafe
giraffe
girard
girardin
giraud
giraudoux
giriri
girisa
girl
girls
girofle
girondins
girouette
gis
gislateur
gislatif
gislation
gislature
gisserot
gistique
github
gitime
gitimes
gitimistes
gitimite
give
givre
gl
gla
glac
glace
glaces
glacier
glaciers
glaive
gland
glas
glass
glaube
gld
gle
glement
glementation
gler
gles
gli
glige
gligence
gliger
glise
glises
glisse
glisser
global
globe
gloire
glorieuse
glorieux
glory
glossaire
glu
gn
gnait
gne
gner
gnier
go
goal
goat
gobelet
gobineau
gobo
gociants
gociation
god
gode
godet
godobe
godoro
goe
goethe
goffic
gogo
gogol
gogoro
goh
goi
goigo
going
goire
gola
gold
golf
golfe
gomate
gomme
goncourt
gonda
gonfle
gonfler
gonge
good
google
gorge
gorie
gories
gorilla
gos
gosier
gosse
gosselin
gosses
got
gothique
gotique
gou
goudreault
goudron
gouffre
goulot
gourd
gourde
gourmandes
gourmont
gousse
gout
goutte
gouttes
gouttie
gouvernail
gouvernement
gouvernements
gouverner
gouverneur
govoroma
goya
gozo
gra
grace
gracieuse
gracieux
gracq
grad
gradation
grade
grain
graine
graines
grains
graisse
graisser
graisses
gral
grale
gramine
grammaire
gramme
grammes
gran
granada
grand
grande
grandes
grandet
grandeur
grandeurs
grandi
grandiose
grandir
grandissante
grands
grange
granoux
grant
grapefruit
graphie
graphique
grappes
gras
grass
grasse
grasser
grasses
grasset
gration
gratis
gratte
gratter
gratuite
gratuitement
grave
gravement
graves
gravir
gravite
gravure
gravures
grc
gre
great
grec
grecque
grecs
green
greffe
grena
grenada
grenade
grenadi
grenier
greniers
grenoble
grenouille
grenouilles
grer
gres
gresse
gression
gret
grew
griffe
griffes
griko
grill
grille
griller
grilles
grillons
grimac
grimace
grimaces
grimpe
grimper
griottes
grippe
gris
grise
grises
grite
gro
groenland
groenlandais
gros
grosse
grosses
grossesse
grosseur
grossie
grossier
grotesque
grotesques
grotte
grouillait
groult
ground
groupe
groupes
grow
groß
große
großen
großmutter
gru
grund
grundy
gsw
gt
gu
gua
guadeloupe
guadelu
guarani
guard
guate
guatemala
guava
gue
guenille
guer
guerre
guerres
guerrie
guerrier
guerriers
gues
guettait
gueule
gueules
gueuse
gueux
guge
gui
guiana
guibourg
guide
guider
guides
guillaume
guillotine
guin
guine
guinea
guinee
guineense
guineensis
guise
guitard
guitare
gujarati
guk
gularite
gulie
gulier
guliers
gum
gume
gumes
gumie
gumineuses
gumuz
gun
guo
gur
gurenne
gus
gustave
guste
gustro
gut
gute
guten
guth
guy
guyana
guyane
gv
gvatemala
gvine
gvineja
gwe
gwi
gwich
gy
gymnastique
gyne
gypte
h
ha
haar
habe
haben
habile
habilement
habiles
habilete
habille
habiller
habit
habitait
habitant
habitants
habitation
habitations
habite
habiter
habits
habitude
habitudes
habitue
habituel
habituelle
habituellement
hache
hachette
had
hahn
hai
haie
haies
haine
hair
haiti
hak
hakka
hale
haleine
half
hall
halle
halles
hals
halte
halten
hameau
hamec
hamel
han
hana
hanche
hanches
hand
hangar
hans
hante
har
hara
harangues
harara
harare
hard
hardi
hardie
hardis
hareng
harengs
haricot
haricots
hariste
harkis
harlequin
harmattan
harmonie
harpe
harry
hart
hartmann
has
hasard
haschisch
hassan
hast
hasta
hat
hatte
hatten
hau
hauptstadt
haus
hause
hausse
haut
haute
hautes
hauteur
hauteurs
hauts
havard
have
havre
haw
hawai
hayard
haye
hayez
haɪ
haʊ
hbo
he
head
headed
health
hear
hearing
heart
heavy
hebdo
hebdomadaire
hebdomadaires
hectare
hectares
hector
hein
heinrich
helena
helikopter
hell
help
helsinki
hen
henckes
hende
hender
henno
henri
henriette
henry
hensible
hension
her
herbace
herbe
herbert
herbes
hercegovina
hercule
here
hermann
hermine
herr
herve
herzegovi
herzegovina
herzegowina
het
hetzel
heure
heures
heureuse
heureusement
heureuses
heureux
heurte
heute
hi
hibou
hicule
hicules
hideuse
hideux
hie
hier
hif
high
hil
hilaire
hill
him
himmel
himself
hin
hindi
hindistan
hinga
hini
hippocrate
hippolyte
hippopotamus
hirondelles
his
histoire
histoires
historia
historie
historien
historiens
historique
historiques
history
hit
hiver
hke
hl
hle
hlen
hler
hmong
hne
ho
hobson
hoch
hocha
hoffmann
hoi
holande
hold
hole
holikachuk
hollandais
hollande
home
hommage
homme
hommes
homo
hon
hondura
honduras
honey
hongrie
hongrois
hongrua
honne
honneur
honneurs
honorable
honoraires
honore
honorer
honte
honteux
hop
hor
horace
hordes
horizon
horizontale
horloge
horloger
hormis
horn
horreur
horreurs
horrible
horriblement
hors
horse
horst
horticole
horticulture
hospice
hospitalier
hostie
hostile
hostilite
hot
hotel
hoto
hotte
hou
houe
houellebecq
houille
houle
houleuse
hour
house
houssiaux
how
however
hr
hren
hrend
hrt
hrung
hrx
hsb
ht
http
https
hu
hua
huasteca
hubert
hudson
hue
hug
huga
huge
hugo
hugues
hui
huile
huiles
huissier
huit
huitie
humain
humaine
humaines
humains
human
humanisme
humanite
humble
humeur
humide
humides
humidite
humiliations
humoriste
humour
hund
hunde
hunger
hunsrik
hunter
huo
hureaux
hurlait
hurler
hurtebise
huru
hus
hussard
huysmans
huzard
hy
hyacinthe
hydrographique
hydromel
hye
hygie
hymne
hypocrisie
hypocrite
hypothe
hɑ
hɔ
hɛ
i
ia
iade
iakoute
iam
ian
ib
iba
ibuti
ic
ica
ice
iceland
ich
ici
id
ida
ide
identification
identifier
identite
idf
idi
idiot
idiots
ido
idola
idole
ie
ier
ierevan
if
ig
igi
igname
ignorance
ignorant
ignore
ignorer
ihm
ihn
ihnen
ihr
ihre
ihrer
ii
iii
iiie
ija
ik
ika
il
ile
iles
ili
iliade
ill
illa
ille
illement
illimite
illumination
illumine
illusion
illusions
illustration
illustrations
illustre
illustres
ilo
ilocano
ils
im
ima
image
images
imaginaire
imaginait
imagination
imagine
imaginent
imaginer
imbe
imitation
imiter
immacule
imme
immense
immenses
immensite
immer
immeuble
immeubles
immobile
immobiles
immuable
immunite
imp
impact
imparfait
impasse
impatience
impatiente
impe
imperme
impitoyable
impitoyablement
implacable
implique
impo
importait
importance
important
importante
importantes
importants
importation
importe
importune
imposait
imposant
imposante
impose
imposent
imposer
impossibilite
impossible
imposteur
imposture
impr
impraticable
impre
impression
impressionne
impressions
imprime
imprimer
imprimerie
imprimeur
improvise
imprudence
impulsion
in
ina
inaccessible
inacheve
inattendue
inaugure
incapable
incapables
incarce
incarnation
incendie
incendies
incertaine
incertitude
incessamment
incident
incise
incite
inclination
incline
incliner
includes
incommode
incompre
inconnu
inconnue
inconnus
incontestable
incontro
inconve
incre
incroyable
incubation
inde
indemnite
indes
indescriptible
index
indi
india
indian
indica
indication
indice
indie
indien
indienne
indiens
indiffe
indige
indigence
indignation
indigne
indigo
indija
indiquaient
indiquait
indique
indiquent
indiquer
indirect
indiscipline
indiscre
indispensable
individu
individuel
individuelle
individuelles
individus
indiya
indo
indochine
indone
indonesia
indonezia
indonezija
industrie
industriel
industrielle
industrielles
industriels
industries
ine
ines
infa
infamie
infanterie
infe
infecte
infection
infernal
infide
infini
infinie
infiniment
infinite
infirme
infirmes
infirmie
infirmiers
influence
info
information
informations
informatique
informe
informer
infortune
infraction
inge
ingo
ingouche
ingrat
ingre
inh
inhumaine
ini
inia
inimitie
initial
initiale
initiation
initiative
initie
injecte
injure
injures
injuste
injustice
innocemment
innocence
innocent
innocentes
innocents
innombrables
innovation
innove
innover
inoculateurs
inoffensifs
inondation
inonde
inoui
inquie
inquiet
inra
ins
inscription
inscriptions
inscrit
inse
insecte
insectes
insecticide
insecticides
insee
insensiblement
insertion
inside
insigne
insignes
insignifiant
insiste
insolence
inspecteur
inspection
inspiration
inspire
inspirer
installation
installations
installe
installer
instance
instant
instantane
instants
instar
instinct
instincts
institue
institut
institute
instituteur
institution
institutions
instruction
instructions
instruire
instruit
instrument
instruments
insu
insucce
insulte
insultes
insupportable
insurge
insurrection
inte
intellectuel
intellectuelle
intellectuels
intelligence
intelligent
intelligente
intelligents
intendant
intense
intensite
intention
intentions
inter
interdiction
interdire
interdit
interdite
interlingua
interlingue
interlocuteur
interme
interminable
interminables
international
internationale
internationales
internationaux
interne
internes
internet
interpre
interprogetto
interroge
interroger
interrompit
interrompu
interruption
intervalle
intervalles
intervenir
intervention
interventions
intervient
interview
intestin
intestinale
intestines
intestins
intime
intimes
intimite
intitule
into
intole
intre
intrigue
introduction
introduire
introduisit
introduit
introduite
inuktitut
inupiaq
inutile
inutilement
inutiles
invalides
invariablement
invasion
inventaire
invente
inventer
inventeur
inventeurs
invention
inventions
inverse
investi
invincible
invisible
invisibles
invita
invitation
invite
invoquer
invraisemblable
io
ip
ipome
ipomoea
ique
ir
ira
irai
irait
iran
iranien
ire
iri
iris
irlandais
irlande
iroko
iron
ironie
irre
irritation
irrite
irruption
is
isa
isaac
isabelle
isbn
isidore
isla
islam
islamique
island
islanda
islandais
islande
islandia
islandija
islands
isle
isme
isole
isolement
israe
israel
issance
issu
issue
issues
issus
ist
isthme
isto
istriote
istro
it
ita
italia
italie
italien
italienne
italiens
italija
italu
ite
iti
itine
its
iu
iv
ivan
ivanhoe
ivoire
ivre
ivres
ivresse
ivrogne
ivrognerie
ix
iya
iz
izi
iŋ
iɾ
j
ja
jabot
jack
jacky
jacob
jacqueline
jacques
jadis
jahr
jahre
jahren
jaillit
jakarta
jalousie
jalousies
jaloux
jam
jamaica
jamaika
jamais
jamajka
jambe
jambes
jambon
james
jan
jane
janeiro
januar
janvier
japa
japan
japo
japon
japonais
japonaise
japone
japonia
jardin
jardinie
jardinier
jardins
jargon
jas
jaser
jatropha
jauna
jaune
jaunes
jaure
java
jaʒ
jbo
jc
jdg
je
jean
jeanne
jeden
jeder
jehan
jemand
jer
jerasimof
jersey
jest
jet
jeta
jetait
jetant
jete
jeter
jette
jettent
jetzt
jeu
jeudi
jeune
jeuner
jeunes
jeunesse
jeux
jez
jezik
ji
jia
jim
jimmy
jin
jiu
jo
joachim
job
jobs
joe
johann
johannes
john
johnny
johnson
joie
joies
joindre
joint
jointe
joints
joli
jolie
jolies
jolis
jolly
jon
jonas
jonathan
jonche
jones
jordan
jorge
joris
jos
jose
joseph
josette
joua
jouaient
jouait
jouant
joue
jouent
jouer
joues
jouet
joueur
joueurs
joug
jouhandeau
jouir
jouissait
jouissance
jouissances
jouit
jour
jourdain
jourgeot
journal
journaliste
journalistes
journaux
journe
jours
jouvence
joyeuse
joyeusement
joyeux
jpg
ju
juan
juba
jubilation
judai
judas
jude
judice
judiciaire
judiciaires
jug
juge
jugea
jugement
jugements
jugent
juger
juges
juif
juifs
juillet
juin
juive
jules
juli
julia
julie
julien
juliette
julliard
jumeau
jumeaux
jumelles
jument
junge
jungle
juni
junior
jupe
jupes
jupiter
jura
jure
jurer
juridique
jurisprudence
jury
jus
jusqu
jusque
just
juste
justement
justes
justesse
justice
justifie
justifier
justin
justine
juve
jv
jœʁ
jɑ
jɔ
jə
jɛ
k
ka
kaa
kaamelott
kab
kaba
kabarde
kabiye
kabyle
kac
kachoube
kada
kafe
kaffee
kai
kaj
kaka
kakau
kakauka
kaki
kako
kaku
kal
kala
kalaallisut
kaladi
kale
kalender
kaleso
kali
kalmouk
kam
kama
kamara
kamba
kambi
kambisa
kame
kamel
kameru
kamerun
kampala
kan
kana
kanada
kanago
kanape
kanda
kanga
kangba
kange
kangi
kangoya
kangu
kani
kanivo
kann
kannara
kannst
kant
kap
kapampangan
kapi
kapok
kar
kara
karaka
karakalpak
karan
karatchai
karato
karava
karine
karl
karr
karta
karthala
kas
kasa
kashmiri
kat
kata
kate
katerepila
kathala
katika
katze
kaufen
kawa
kawoya
kay
kaye
kaz
kaza
kazakh
kazie
kaʁ
kbd
kbp
kbt
kdr
ke
kea
kebe
kebenaven
keep
kein
keine
keinen
keke
kekere
kela
kelner
kembi
ken
kendem
kenge
kengeliba
kenia
kenija
keniya
kennedy
kenya
kenyang
kepi
kere
kerebende
kereti
kermesse
kessel
ket
kete
kevin
key
kg
kh
kha
khadra
khakasse
khartoum
khaya
khb
kho
ki
kiakia
kidiri
kie
kif
kigali
kikongo
kikuyu
kil
kile
kili
kiliya
kill
killer
kilo
kilogrammes
kilome
kilometer
kilos
kim
kin
kina
kind
kinda
kinder
king
kini
kinkin
kino
kiosque
kipling
kir
kirghiz
kiri
kiro
kirundi
kis
kisa
kisi
kitambu
kitts
kiu
kizama
kja
kje
kjh
kjo
kjɔ
kk
kkz
kl
kla
klaxon
kle
klein
kleine
kli
klitoris
klo
kloster
klɔ
klɛʁ
km
kme
kmr
kn
know
knowledge
known
ko
koba
kobe
kobi
kobo
koboma
kobozo
kobu
kobɔ
kobɔngisa
kobɛ
koc
koch
kode
kodo
kodro
kofa
kofe
kofu
kog
kogui
koi
koiko
kok
koka
kokanga
koki
koko
kokora
kokoro
kokos
koku
kokɔ
kol
kola
kole
kolera
koli
kolo
koloba
kolombi
kolongola
kolu
kom
komande
komando
komba
kombi
kombo
kombu
komi
komise
kommen
kommission
kommt
kompas
kon
koncert
kondima
kondo
kong
kongba
kongo
konnte
kono
konya
konza
kopa
kopakola
kope
kopf
kopo
koreye
koro
korobo
kos
kosa
kosangisa
kose
kosi
koso
kost
kosta
kostarika
kosɛ
kot
kota
kotava
kotek
koti
koto
kotomola
kotu
kotɛ
kouloub
koumyk
koy
koya
koye
koyo
koyraboro
koyt
koyukon
kozakiewicz
kozi
kozo
kozwa
kpa
kpaka
kpakata
kpakpa
kpangbala
kpe
kpekpe
kpenda
kpenzu
kperekpere
kpi
kpo
kpoka
kpongbo
kporo
kpoto
kpu
kpuwa
kpɔ
kpɛ
kr
kra
krach
krampel
krc
kre
kreo
kri
krieg
krl
kro
kroa
kroasi
kroatia
kroatien
krokodil
kru
ks
ksh
ku
kua
kuala
kuasi
kuba
kubu
kue
kugbe
kuh
kui
kuku
kukutu
kul
kula
kulu
kulubu
kum
kuma
kun
kunda
kundi
kundu
kuni
kunibe
kunihu
kunst
kupu
kura
kurde
kurmandji
kurt
kuru
kurua
kurz
kus
kusa
kut
kutukutu
kuyinda
kuʁ
kv
kvm
kw
kwa
kwe
kwɛ
ky
kya
kyl
kyo
kyu
kɐ
kɑ
kɔ
kɔl
kɔn
kɔʁ
kə
kəm
kən
kɛ
kɛt
kɥi
kɪt
kɯ
kʁa
kʁe
kʁi
kʁɔ
kʌm
l
la
laa
labatoa
labbe
labe
label
labeur
lablab
labor
laboratoire
laboratoires
laborieuse
labosse
laboure
labre
labro
lac
lace
lack
lacroix
lacs
lad
ladara
laden
ladin
ladua
lady
lafabe
lafargue
laffont
lafon
lag
lago
lagoro
lai
laient
laine
lais
laissa
laissaient
laissait
laissant
laisse
laissent
laisser
laissera
laissez
lait
laitie
lak
lake
lakere
lakota
laku
lakwe
lala
laliberte
lam
lama
lamartine
lambeaux
lambert
lame
lames
lamiaceae
lamo
lampa
lampe
lampes
lan
lana
lanc
lance
lancer
lances
lancolie
lancolique
land
landais
lande
landes
lando
lands
lane
lang
langa
langage
lange
langer
langes
langiwa
lango
langsam
language
langue
languedoc
langues
langueur
lani
lanie
lanore
lant
lantana
lanterne
lantier
laon
laotien
lapa
lapara
lapin
lapins
laquais
laquelle
laramoa
larcier
lard
lare
large
largement
larges
largeur
larmes
larose
larousse
larve
larves
las
laso
lasse
lassen
lasser
lasserre
last
lasticite
lat
late
later
latex
latgalien
lati
latifolia
latin
latine
latines
latins
lation
latitude
latour
latte
lau
laure
laurence
laurent
laurier
lauriers
lausanne
laut
lautrec
lav
lava
lavabo
laval
lavalle
lave
laveaux
laver
lavoisier
lavu
law
lawa
lay
laya
lazu
lazwari
laɪ
lb
lbe
ld
le
lead
leader
leaf
learning
leave
leben
leblanc
lebrun
lec
lecerf
leclerc
leclercq
lecourrier
lecteur
lecteurs
lection
lections
lectorale
lectricite
lectrique
lectriques
lectronique
lecture
lectures
led
leduc
lee
lefaure
lefe
lefebvre
lefort
left
leg
legault
legba
lege
leggiparametro
leggiparametromode
legrand
legs
lei
leiden
leider
leiris
leiter
leke
lekere
lekpa
lela
lelaurin
lele
leli
lemai
lembe
leme
lement
lemerre
lemoine
lemon
lemonde
lemy
len
lena
lendemain
lenge
lengua
lent
lente
lentement
lenteur
lentille
lents
leo
leon
leonard
leone
lepe
lepointe
lepra
lequel
ler
lera
lerinage
lerins
leroux
leroy
les
lesbos
lesen
leso
lesotho
lesoto
lesquelles
lesquels
lessive
leste
let
leta
lett
letton
lettre
lettres
leu
leur
leurre
leurs
leuwen
lev
leva
levage
levaient
levait
levant
leve
lever
leveur
levier
levrault
lewis
lexique
lexiques
lez
leze
lezghien
leɪ
lg
lgica
li
lia
liaison
liaisons
liane
lianes
liasse
liba
liban
libano
libanon
libataire
libataires
libations
libe
libebe
liber
liberi
liberia
liberija
liberte
libi
libia
libija
libo
libraire
libraires
librairie
libre
librement
libres
libretto
libreville
librinova
libu
libya
licat
licate
licatement
licatesse
licats
lice
licence
licencie
lices
licht
licieuse
licieux
licite
lick
licopte
lid
lida
lie
liebe
liegt
lien
liens
lier
lies
liesse
lietuva
lieu
lieue
lieues
lieutenant
lieux
lifa
life
lift
ligature
light
ligne
lignes
ligue
ligure
lij
lik
lika
likambo
like
likelelo
likisi
liko
likodoro
likongo
liku
likua
likundu
lile
lili
liliaceae
lille
lilo
lilongwe
lily
lim
lima
limabo
limac
limba
limbo
limbourgeois
lime
limine
liminer
limite
limiter
limites
limo
limoges
limon
limondo
limosu
lin
linat
linda
lindisu
lindo
line
linga
lingala
lingbi
linge
lingende
lingots
lingu
lingua
lingue
linguistique
linguistiques
lingvo
lino
linquance
linux
lion
lionel
lionne
lions
lioration
liore
liorer
lique
liques
liqueur
liqueurs
liquide
liquides
lire
lis
lisa
lisabeth
lisait
lisanga
lisant
lisbonne
lise
lisent
lisi
lisie
lisoro
lisse
lisses
list
liste
lisu
lit
lita
litauen
lite
liter
literatura
lites
litho
lithuania
liti
lito
litre
litres
litro
lits
litte
little
littre
litu
litua
lituani
lituania
lituanien
litva
liu
liv
live
livide
livrait
livrance
livre
livrent
livrer
livres
livret
lix
liza
liʁ
lja
lje
ljo
lkt
ll
lla
lld
lle
llen
ller
lmo
ln
lo
loba
lobɔ
local
locale
locales
localite
locataires
location
locaux
loch
locomotion
locomotive
locution
lodie
loganiaceae
loge
logement
loger
loges
logiciel
logique
logis
loi
loigne
loignement
loigner
loin
lointain
lointains
loire
lois
loisir
loisirs
lojban
loko
lola
lole
lombard
lombe
lome
lon
londo
london
londres
lonely
long
longe
longs
longtemps
longue
longuement
longues
longueur
look
looking
loquence
lord
lorrain
lorraine
lors
lorsqu
lorsque
los
lose
lost
lot
loti
lotissement
loto
lots
lotta
lotus
lou
louange
louanges
louche
loue
louer
lougou
louis
louise
louisiane
loup
loups
lourd
lourde
lourdement
lourdes
lourdeur
lourdines
lourds
louvain
louve
louvre
louy
love
low
loyaute
ls
lt
ltg
lu
luanda
luc
lucas
lucia
lucide
lucie
lucien
luck
lucre
lucy
lude
ludovic
ludus
ludwig
lue
lueur
lueurs
luge
lugubre
luhya
lui
luis
luk
luka
lule
lulu
luma
lumba
lumie
lumineux
lumpur
lundi
lune
lunette
lunettes
lungu
luo
lure
lus
lusaka
lustre
lut
luther
lutte
lutter
luttes
lutz
luxe
luxembourg
luxembourgeois
luxuriante
luy
luz
lv
ly
lya
lyce
lyon
lyonnais
lyonnaise
lys
lyse
lœʁ
lɐ
lɑ
lɔ
lɔt
lə
lən
ləʊ
lɛ
lɛk
lɛt
lɛʁ
lɪŋ
m
ma
maa
maalouf
maba
mabe
mabo
maboko
mabɔ
mabɛ
mac
mace
machen
machete
machiavel
machine
machines
macht
macmillan
macron
mad
madagasca
madagascar
madagascariensis
madagaska
madagaskar
madame
made
madeleine
mademoiselle
madiridi
madone
madre
madrid
mae
mafia
mafu
mag
magasin
magasins
magazine
magazines
mage
mages
maggiore
maghreb
magic
magie
magique
magistrat
magistrats
magistrature
magne
magnifique
magnifiques
mago
magogie
magot
mahogany
mahomet
mai
maigre
maigres
maigret
maigreur
mail
maille
mailles
main
maine
mains
maintenant
maintenir
maintes
maintien
maints
maire
maires
mairie
mais
maison
maisonneuve
maisons
majeste
majestueux
majeur
majeure
major
majorite
mak
maka
makanda
makando
makara
makaya
make
makes
mako
makongo
makoro
maku
mal
mala
malabo
malade
malades
maladie
maladies
malaise
malaquais
malaria
malatesta
malaui
malavi
malawi
malayalam
malaysia
malchance
malcuit
male
malet
malezi
malgache
malgre
malherbe
malheur
malheureuse
malheureusement
malheureux
malheurs
malhonne
mali
malice
malin
malle
malles
malo
maloba
malot
malraux
maltais
malte
malterre
malvaceae
mama
maman
mambere
mame
mamelles
mami
mamie
mammife
man
management
manager
manant
manceau
manche
manches
manchette
mancipation
manciper
manda
mandako
mandari
mandarin
mandarine
mandat
mandchou
mande
mane
manette
manga
mangare
mangbe
mangbo
mange
mangea
mangeait
mangenge
mangent
manger
mangga
mango
mangue
mangues
manguiers
manhattan
mani
manie
maniement
manifestants
manifestation
manifestations
manifeste
manifestement
manifester
manila
manioc
manipouri
manipule
manique
mann
mannois
mano
manobo
manon
manqua
manquait
manquant
manque
manquent
manquer
mans
mante
manteau
manteiga
mantel
mantique
manu
manuel
manuels
manufacture
manufacturie
manuscrit
manuscrits
many
manze
manœuvre
manœuvrer
manœuvres
maori
map
mapa
mapo
mapuche
maputo
maque
maquereau
maquignon
maquillage
maquille
maquiller
maquis
mar
mara
marabout
marai
marais
maranao
marat
marathe
marbre
marc
marcel
marcelle
marchaient
marchait
marchand
marchande
marchandise
marchandises
marchands
marchant
marche
marchent
marcher
marches
marchons
mardaga
mardi
mare
marge
margolle
margot
marguerite
margueritte
marguier
mari
maria
mariage
mariages
marianne
marie
marier
marihuana
marijuana
marin
marine
marines
marins
mario
marion
maris
maritime
maritimes
mark
market
marketing
marmite
marmotte
marne
maro
maroc
marocain
marocaine
marocaines
marocains
marokko
maroko
marquait
marquant
marque
marquer
marques
marquis
marquise
marraine
marre
marrer
married
marron
mars
marseillais
marseillaise
marseille
marteau
marthe
martial
martin
martine
martineau
martinica
martinie
martinik
martinique
martyre
martyrs
marx
mary
mas
masa
masculin
masculine
masculins
mase
maseka
masi
masia
masoch
maspe
masque
masques
mass
massachusetts
massacre
massacres
masse
masses
massif
massifs
massillon
massive
masson
masu
mat
mata
matabi
match
mate
matela
matelas
matelots
matema
matematika
maternal
maternel
maternelle
mathe
mathias
mathieu
mathilde
maths
mathurin
mati
matie
matin
matine
matins
matique
matiquement
matiques
mato
matthieu
mature
maturite
maudit
maudite
maudits
maugre
maupassant
mauriac
maurice
maurita
mauritania
mauritanie
mauritius
maurois
maury
maussade
mauvais
mauvaise
mauvaises
maux
mawa
max
maxima
maxime
maximes
maximilien
maximum
may
maya
maye
mayɛ
mazarin
mazate
mazende
maʁ
mba
mbadi
mbage
mbai
mbala
mbali
mbamba
mbambi
mbanda
mbanga
mbango
mbase
mbaye
mbe
mbele
mbelo
mbembe
mbeni
mbenze
mbere
mbeso
mbeti
mbeto
mbi
mbia
mbimbo
mbipa
mbisa
mbisi
mbo
mbola
mboli
mboma
mbombi
mbombo
mbongo
mbonzi
mboro
mboti
mbra
mbu
mbua
mbulu
mbumbuse
mbunzu
mbupa
mbupu
mbwa
mbwisa
mbɔ
mbɛ
mcn
mdf
me
mea
meambe
means
meat
meaux
mec
meca
mechanics
med
media
meer
meet
meeting
meg
mehr
mehrere
mei
meilleur
meilleure
meilleures
meilleurs
mein
meine
meinem
meinen
meiner
mek
meka
mekaze
mekisi
mel
mela
meliaceae
melina
melo
melodia
melon
melotte
membrane
membre
membres
mement
memo
memoria
men
mena
menac
menace
menaces
menait
menant
mence
mendier
mene
mener
mens
mensch
menschen
mensonge
mensonges
ment
mentaire
mentaires
mental
mentale
mentalite
mente
menteur
menthe
menti
mentine
mention
mentionne
mentir
mento
menton
mentor
ments
menu
menus
mer
mercato
merci
mercier
mercredi
mercure
merde
mere
merede
merger
merle
merlin
mermoz
mers
mervale
merveille
merveilles
merveilleuse
merveilleuses
merveilleux
mes
mess
message
messages
messe
messes
messieurs
messire
mesure
mesurer
mesures
met
meter
metro
mets
mettait
mettant
mettent
metteur
mettez
mettra
mettre
metz
meuble
meubles
meule
meules
meurs
meurt
meurtre
meurtres
meurtrie
meurtrier
meuse
meute
mexicain
mexico
mexique
meyer
mez
mezzo
mf
mfe
mg
mh
mi
mia
miama
mic
mich
michael
michaud
miche
michel
michelet
michelle
micien
micmac
micro
microbes
micronouvelles
microscopiques
middle
midi
mie
miedo
miel
mien
mienne
mies
miettes
mieux
might
mignon
mignonne
mignons
migrants
migration
migrations
migre
mik
mil
milady
milan
mile
miles
milien
milieu
milieux
milita
militaire
militaires
militant
militante
militants
milk
mille
miller
milles
millet
milliards
milliers
million
millions
millon
milo
mimosa
min
mina
mince
minces
mind
mindong
mine
minence
minent
miner
minerai
mines
mineur
mineurs
mingi
mingre
minh
mini
minier
minimum
minin
minine
ministe
minister
ministre
ministres
minnan
minorite
minsk
minuit
minuscule
minuscules
minuta
minute
minutes
minuto
mio
mique
miquelon
miques
mir
mirabeau
miracle
miracles
mirandais
mirbeau
mirent
miroir
miroirs
mis
misa
misanthrope
mise
mises
misi
misphe
miss
missements
missent
mission
missionnaires
missions
mist
mister
mit
mita
mite
mitraille
miwok
mixte
mje
mjo
mjɔ
mk
ml
mlc
mlle
mm
mma
mme
mn
mnc
mnoux
mo
moabi
moba
mobe
mobi
mobile
mobiles
mobilier
mobilisation
mobilise
mobimba
mobo
mobu
mobutu
mobylette
moc
moche
mocratie
mocratique
moda
mode
moderne
modernes
modernite
modes
modeste
modestes
modiano
modifiant
modifie
modifier
modo
modompte
moe
moehama
moelle
mogadiscio
moh
mohamed
mohammed
mohawk
moi
moignage
moignages
moigne
moigner
moin
moindre
moindres
moine
moineau
moineaux
moines
moins
moire
moires
mois
moisson
moissons
moitie
moix
moka
mokanda
mokcha
moke
moko
mokondo
mokonzi
mokpa
moku
mokɔlɔ
mokɛ
mola
molangi
mole
molenge
moli
molie
molir
molle
mollement
molles
molo
molongo
molɔ
molɔngɔ
mombo
mombu
moment
momentane
moments
mon
mona
monarchie
monaste
monato
mond
monday
monde
mondes
mondial
mondiale
mondialisation
mone
money
mongault
mongo
mongol
moni
monie
monies
monique
moniteur
monk
monkey
monnaie
monnaies
monnier
monographie
monopole
monotone
monotonie
monrovia
mons
monseigneur
monsera
monsieur
monstration
monstrations
monstre
monstres
monstrueuse
monstrueux
mont
monta
montagne
montagnes
montaient
montaigne
montais
montait
montant
montante
montants
montchrestien
monte
monter
montesquieu
montmartre
montparnasse
montpellier
montra
montraient
montrait
montrant
montre
montrent
montrer
montres
monts
montserrat
monture
monument
monumental
monuments
monya
monze
monɔkɔ
moon
moore
moped
mopi
moquer
mor
morable
moraceae
moral
morale
morales
moralite
morand
morceau
morceaux
mord
mordre
more
moreau
morel
mores
moresby
moret
morgan
morgen
morgue
morial
morige
morin
moritani
morituri
morne
morning
moro
morocco
moroni
mors
morsure
mort
mortalite
mortane
morte
mortel
mortelle
mortels
mortes
mortier
mortiers
morts
mortuaire
morue
morvan
morvelle
mos
mosa
mosai
mosambik
mosapi
mosca
moscou
moscow
moselle
mosi
moso
mosoro
mosque
mosquito
most
mosu
mosɔlɔ
mot
mota
mote
moteur
moteurs
mothe
mother
moti
motif
motifs
motion
motions
motivation
moto
motor
mots
motu
motɛ
mou
mouche
mouches
mouchoir
mouille
moule
moulin
moulins
mount
mountain
mourant
mourir
mourut
mousse
mousseline
mousses
moustache
moustaches
moustiques
mouth
mouton
moutons
mouvant
mouvement
mouvements
mouvoir
move
movie
moye
moyen
moyennant
moyenne
moyennes
moyens
moyi
mozambik
mozambique
moze
mozoko
mpa
mpe
mpi
mpo
mpu
mpɔ
mpɛ
mq
mr
mrs
mrw
ms
mt
mu
much
mucuna
mue
muette
muettes
mula
mules
mulet
muller
multiple
multiples
multiplication
multiplie
multiplier
multitude
multitudes
mun
muna
mund
mundo
mune
munga
muni
municipal
municipalite
munie
munis
munitions
munzu
mur
muraille
murailles
murger
muriel
murmure
murmures
muro
murs
mus
musa
musanji
musat
musca
muscle
muscles
musculaire
muse
museau
museo
museum
music
musical
musicale
musicien
musicienne
musiciens
musik
musique
muss
musset
musste
must
musulman
musulmane
musulmans
mut
mutation
mutations
mutsun
mutter
mutuelle
muz
mvale
mve
mvele
mvene
mveni
mvesu
mvf
mvuka
mwa
mwatha
mweri
mwete
mwl
mww
my
mya
myp
myrianthus
myrtaceae
myste
mystiques
mythe
mythes
mythologie
myv
mısır
mœurs
mɐ
mɑ
mɔ
mɔʁ
mə
mən
mənt
mɛ
mɛl
mɛn
mɛs
mɛtʁ
mɛʁ
mɯ
n
na
naba
nacelle
nach
nacht
nacre
nad
nadeau
nadia
nage
nagel
nagement
nager
nagers
nages
nague
nah
nahuatl
nai
naient
naies
nail
nain
nains
naire
naires
nairobi
naissance
naissances
naissent
nait
nal
nale
nam
name
nami
namibi
namibia
namur
namzoure
nan
nana
nanai
nanas
nancy
nane
nant
nantes
nap
napole
napolitain
nappe
nappes
naquet
nard
nari
nario
narration
nas
nasillarde
naso
nasse
nat
natal
natale
nateur
nathalie
nathan
nation
national
nationale
nationales
nationalisme
nationalite
nationaux
nations
native
natte
nattes
naturaliste
naturalistes
nature
naturel
naturelle
naturellement
naturelles
naturels
naudeau
naufrage
naufrages
nauruan
nause
navajo
navarre
navigation
navire
navires
nawe
nazira
naɪ
naʁ
nba
nch
nci
ncia
ncipe
ncora
nd
nda
ndago
ndale
ndali
ndao
ndara
ndaramba
ndasango
ndatere
ndau
nde
ndeke
ndeko
ndembe
ndembo
nden
nder
ndere
ndern
ndi
ndia
ndika
ndiki
ndisa
ndnis
ndo
ndoko
ndokua
ndolo
ndolu
ndombe
ndonga
ndoro
ndoto
ndowa
ndoye
nds
ndu
nduru
nduzu
ndɔ
ndɛ
ne
nea
near
neaux
nebe
neben
nec
need
needs
nef
neff
nehmen
nei
neige
neiges
nein
nek
neka
nel
nelon
nelson
nemark
nement
nements
nen
nengo
nent
nepale
nepali
ner
nerfs
nerge
nergie
nergique
nerval
nerve
nerveuse
nerveux
nes
nesse
nest
net
nette
nettement
nettete
nettle
nettoyage
nettoyer
neue
neuen
neuf
neuhoff
neur
neuse
neuve
neuves
neuvie
never
nevers
neveu
neveux
nevi
nevis
new
newari
news
newsletter
newton
next
nez
neɪ
nf
ng
nga
ngaba
ngadi
ngaidemona
ngalasso
ngale
ngalo
ngambe
ngame
ngana
nganassan
nganda
nganga
ngangi
ngangu
ngani
nganzi
ngara
ngaso
ngasu
ngata
ngatokua
ngba
ngbakpa
ngbanga
ngbangbo
ngbe
ngbenge
ngberere
ngbi
ngbii
ngbilo
ngbingo
ngbo
ngbonda
ngbondo
ngbonga
ngbongbo
ngbu
nge
ngel
ngela
ngele
ngeli
ngembo
ngende
nger
ngere
ngh
ngi
ngia
nginza
ngisa
ngisi
ngiti
ngjia
ngo
ngoangoa
ngoi
ngola
ngoli
ngolo
ngombe
ngombi
ngonda
ngongo
ngonza
ngonzo
ngoro
ngt
ngu
ngua
ngube
ngubu
ngunde
ngungu
ngunu
ngunza
nguru
ngusu
ngwa
ngya
ngɔ
ngɛ
ngɛli
nh
nha
nhi
nhn
ni
nia
niable
niais
niaiseries
niama
niamey
nible
nibles
nica
nicaragua
nice
niche
nichent
nicher
nicholas
nicht
nichts
nick
nickleby
nicolas
nicole
nid
nids
nie
nien
niens
nient
nients
nier
nietzsche
nieur
nieurs
nieux
nig
nige
niger
nigeria
nigerija
night
nigme
nigne
nija
nik
nika
nikaragua
nil
nile
nilo
nin
nine
nio
niosite
nique
niques
nis
nit
nite
nitence
nitencier
nitien
niture
niu
niveau
niveaux
nivoit
niy
niya
nizan
nize
nizeri
niʁ
nja
nje
nji
njo
njɛʁ
nka
nki
nko
nkoma
nkɔ
nl
nld
nnde
nndonezi
nne
nnen
nngo
nngu
nni
nno
nnu
no
nobilis
noble
nobles
noblesse
nocat
noce
noces
noch
nocturne
noe
nog
nogai
noge
nohain
noir
noira
noire
noires
noirs
noise
noises
noix
nom
nomade
nombre
nombres
nombreuse
nombreuses
nombreux
nombril
nome
nomen
nomination
nomme
nommer
noms
non
nonc
nonce
noncer
nonchalance
nonciation
nonne
noon
nor
nord
normal
normale
normalement
normand
normande
normandie
normant
norme
normes
norrois
nors
norte
north
noruega
norve
norvegia
norway
nos
nose
nostalgie
nostalgique
not
nota
notaire
notamment
note
noter
notes
nothing
nothomb
noti
notice
notion
notions
notons
notre
nou
nouakchott
noue
nourri
nourrice
nourrir
nourrissent
nourrisson
nourrit
nourriture
nous
nouveau
nouveaute
nouveaux
nouvel
nouvelle
nouvellement
nouvelles
nov
nova
novation
november
novembre
novial
novo
now
noyau
noye
noyer
nrf
nrm
ns
nsa
nse
nsima
nsinga
nsko
nso
nsu
nsɔ
nt
nta
ntaba
nte
ntembe
nti
nto
ntu
ntɔ
nu
nuage
nuages
nuance
nuances
nuca
nucle
nude
nue
nues
nuire
nuisibles
nuit
nuits
nul
nulle
nullement
nullite
nuls
num
number
numbers
nume
nun
nuphar
nuque
nur
nus
nut
nutmeg
nutrition
nv
nwaʁ
ny
nya
nyama
nyanja
nye
nyen
nyenye
nyere
nyi
nynorsk
nyo
nyon
nyotu
nyu
nyɛ
nza
nzabi
nzango
nzanze
nzapa
nzara
nze
nzela
nzelipe
nzenze
nzere
nzereka
nzerere
nzi
nzia
nzilo
nzo
nzombo
nzoni
nzoro
nœud
nœuds
nœʁ
nǀu
nɐ
nɑ
nɔ
nə
nən
nəs
nɛ
nɛl
nɛt
nɛʁ
nɪs
nɪŋ
o
oasis
ob
oba
obe
oberfla
obi
object
objectif
objectifs
objection
objet
objets
obligation
obligations
obligatoire
oblige
oblique
obsce
obscur
obscure
obscures
obscurite
obscurs
obse
observait
observateur
observation
observations
observe
observer
obsession
obsole
obsolescence
obstacle
obstacles
obstination
obstine
obtenir
obtenu
obtenus
obtient
obtint
obu
obus
oc
occasion
occasionne
occasionnellement
occasions
occident
occidentale
occidentaux
occitan
occlusion
occupaient
occupait
occupation
occupations
occupe
occupent
occuper
ocde
oce
ocean
oceano
och
ocimum
ocre
octave
octobre
octroi
od
odaux
ode
oder
odette
odeur
odeurs
odieux
odile
odorat
odore
of
off
offense
offenser
offensive
offert
office
offices
officiel
officiellement
officier
officiers
offraient
offrait
offrande
offre
offrent
offres
offrir
offrit
oft
often
og
ographie
ographique
oh
ohne
oi
oia
oie
oies
oif
oignon
oignons
oil
oirata
ois
oise
oiseau
oiseaux
oit
oivent
oj
ojibwa
ok
oka
okean
oko
oksitani
oktober
oku
ol
old
ole
olive
oliver
olivier
oliviers
ollendorff
ollivier
ologie
ologique
ologiques
ologues
olympique
olympiques
om
oma
ombilic
ombrage
ombre
ombres
ome
omene
omission
omnibus
on
once
oncle
onde
ondes
ondule
one
oneself
ongle
ongles
oni
online
only
onne
onner
onnerie
ono
ons
ont
ontologie
onu
onze
opa
opard
ope
open
opfer
ophile
opinia
opinion
opinions
opium
opold
opportunite
opposant
oppose
opposer
opposition
opprime
opte
optimiste
option
optique
or
ora
orage
orages
oraison
oraisons
orang
orange
oranger
oranze
orateur
orbite
orbites
orchestre
order
ordinaire
ordinairement
ordinaires
ordinateur
ordonna
ordonnance
ordonne
ordonner
ordre
ordres
ordures
ore
oreille
oreiller
oreilles
orfe
org
organ
organe
organes
organique
organiques
organisation
organisations
organise
organiser
organisme
orge
orgien
orgue
orgueil
orgueilleuse
orgueilleux
orgues
orie
orient
oriental
orientale
orientales
orientation
oriente
ories
originaire
original
originale
originaux
origine
origines
orique
oriya
orle
ormesson
orne
ornement
ornements
ornie
oro
orologie
oromo
orphelin
orphelins
orteil
orthographe
orv
os
osa
osait
oscar
ose
oseille
oser
osi
osier
oslo
osse
ostrali
ot
ota
other
others
othon
oto
otoci
ottawa
ottoman
ou
ouagadougou
oubli
oubliant
oublie
oublier
oubliez
oubykh
oudmourte
oued
ouest
oui
our
ouragan
ours
out
oute
outil
outillage
outils
outrage
outre
ouvert
ouverte
ouvertement
ouvertes
ouverts
ouverture
ouvrage
ouvrages
ouvrait
ouvrant
ouvre
ouvrent
ouvrie
ouvrier
ouvriers
ouvrir
ouvrit
ouzbek
ovale
ovca
over
ovide
own
owner
oxalidaceae
oxyde
oxyge
ozouf
oʊ
p
pa
pabua
pace
pacha
pachto
pacification
pacifique
pacte
paga
pagao
page
pages
pagne
pagnol
pai
paie
paiement
paiements
pailhe
paillasse
paille
pailles
pain
pains
paint
pair
paire
paires
pais
paisible
paisiblement
paisse
paisses
paisseur
paisseurs
paix
paka
pakara
pakista
pakistan
pal
pala
palace
palafo
palais
pale
palenquero
pali
palier
palm
palma
palme
palmes
palmier
palmiers
palmiste
palu
paludisme
pam
pan
panama
panayiotis
panckoucke
pand
pandait
pandalo
pande
pando
pandre
pandu
pandue
pangolin
panicum
panier
paniers
panique
panne
panneau
panneaux
pannes
panorama
pans
pansement
pantalon
pantalons
panthe
panze
paon
pap
papa
papaya
pape
papel
paper
papi
papiamento
papier
papiers
papillon
papillons
papu
papua
papyrologue
papyrus
paquebot
paquebots
paquet
paquets
par
para
parable
parada
parade
paradis
parado
paradone
parages
paragraphe
paraguay
parague
parai
paraient
paraissaient
paraissait
paraissent
parait
paralle
paralyse
paralysie
parame
paraphe
parapluie
parasite
parasites
parasol
parateur
paration
parations
parc
parce
parcelle
parcelles
parchemin
parcourir
parcours
parcourt
parcouru
parcourue
parcourut
parcs
pardessus
pardon
pardonne
pardonner
pardonnez
pare
pareil
pareille
pareilles
pareils
parent
parente
parenthe
parents
parer
paresse
paresseux
parfait
parfaite
parfaitement
parfois
parfum
parfume
parfumerie
parfums
pargne
pari
paris
parisien
parisienne
parisiennes
parisiens
park
parla
parlaient
parlait
parlant
parle
parlement
parlementaire
parlementaires
parlent
parler
parles
parlez
parlons
parmi
parny
parodie
paroi
parois
paroisse
parole
paroles
parpille
parquet
parrain
pars
parses
part
partage
partager
partait
parte
partement
partements
partenaires
parthe
parti
participants
participation
participe
participent
participer
particularite
particules
particulie
particulier
particuliers
partie
partiellement
parties
partir
partis
partisans
partit
partition
partout
parts
party
paru
parure
parut
parvenait
parvenir
parvenu
parvenus
parvient
parvint
pas
pasapo
pascal
pascale
pase
pasi
pasport
pass
passa
passage
passager
passagers
passages
passai
passaient
passait
passant
passantes
passants
passe
passent
passeport
passer
passes
passez
passiflora
passifloraceae
passion
passionne
passions
passons
past
pasta
paste
pastel
pasteur
pastor
pasu
pat
pata
patata
patate
patates
pate
patelin
paternal
paternel
paternelle
pathoge
pathologie
patience
patient
patients
patine
patlidz
patois
patriarche
patrice
patricia
patrick
patrie
patrimoine
patriotique
patriotiques
patriotisme
patro
patron
patronne
patrons
patte
pattes
pau
paul
paule
paules
paulin
pauline
paulo
paume
paupie
pause
pausole
pauvre
pauvres
pauvrete
pave
pavillon
pavlov
pavlovsky
paw
pawnee
pay
payait
paye
payer
payot
pays
paysage
paysages
paysan
paysanne
paysans
paz
paʁ
pc
pcd
pdc
pdt
pe
pearson
peau
peaux
pec
pech
pedro
peigne
peigner
peindre
peine
peines
peint
peinte
peintre
peintres
peints
peinture
pek
peke
peko
pekoni
pele
peler
pelle
pelo
pelote
pelouse
pen
pena
pencha
penchant
penche
pencher
pend
penda
pendait
pendance
pendant
pendante
pendantes
pendants
pendent
pendere
pendo
pendre
pendu
pendule
penis
pennisetum
pennsilfaanisch
pens
pensa
pensais
pensait
pensant
pense
pensent
penser
penses
pensez
pension
penso
pente
pentes
penza
penze
people
pepe
pepese
pepper
per
perc
perce
perception
percer
percevoir
perche
perches
percussion
percute
perd
perdait
perdit
perdition
perdre
perdreaux
perdrix
perdu
perdue
perdues
perdus
pere
perec
perfection
perfectionne
perfectionnement
performance
pergaud
period
perla
perle
perles
permanence
permanent
permanente
permet
permettait
permettant
permettent
permettez
permettra
permettrait
permettre
permis
permission
permit
pernicieuse
perpe
perpendiculaire
perpendiculairement
perpignan
perplexite
perrier
perrin
perron
perroquet
perruque
persan
perse
persil
persistance
persistent
person
persona
personen
personnage
personnages
personnalite
personne
personnel
personnelle
personnellement
personnelles
personnes
perspective
perspectives
persuade
persuader
perte
pertes
pertoire
perturbations
peru
pes
pesait
pesant
pesante
pese
peser
peste
pesticides
pesu
pet
pete
peter
petesu
peti
petit
petitdoigt
petite
petites
petitesse
petits
petoro
peu
peul
peuple
peuplement
peuplements
peuples
peupliers
peur
peurs
peut
peuvent
peux
peve
pez
pferd
pflanzen
ph
pha
phagocytes
phale
phalophe
phane
phanie
phant
phants
pharaon
pharmaceutique
pharmaceutiques
pharmacie
pharmacien
phase
phe
phi
philip
philippe
philippines
philosophe
philosophes
philosophie
philosophique
philosophiques
phine
pho
phoenix
phone
phoner
phonique
photo
photographe
photographie
photographies
photographique
photos
phrase
phrases
phtisie
phu
phyllanthaceae
phyllanthus
physalis
physiologie
physiologiques
physionomie
physique
physiques
phytosociologique
pi
pia
pialo
pianiste
piano
piaulements
pic
picard
picardie
pice
picerie
pices
pick
pico
picture
picure
pide
pie
piece
pied
pieds
pier
pierre
pierreries
pierres
pies
pieu
pieux
pigeon
pigeons
pignon
pih
pik
pika
pil
pilate
pile
pilepsie
piles
piliers
pillage
pillards
pille
pilogue
pilon
pilori
pilot
pilota
pilote
pilotes
piment
pin
pina
pinard
pinards
pinari
pince
pinceau
pinces
pine
pines
pingle
pingles
pinie
pinnata
pins
pintade
pinza
pio
pioche
pion
pions
pipa
pipe
piper
piperaceae
pipi
piqu
piquant
pique
piquer
piquet
piraha
pirate
pirates
pire
pires
piripi
pis
piscine
pise
pisi
pisin
pisita
pisito
pisode
pisse
pistache
piste
pistolet
piston
pit
pita
pital
pitance
pitaux
pitcairnais
piti
pitie
pito
pittoresque
piu
pivot
pja
pje
pjɔ
pl
pla
plac
placard
placards
place
placement
placent
placer
places
placide
plafond
plage
plages
plai
plaider
plaidoyer
plaie
plaies
plaindre
plaine
plaines
plains
plainte
plaintes
plaire
plaisait
plaisant
plaisanterie
plaisanteries
plaise
plaisent
plaisir
plaisirs
plan
planche
plancher
planches
plane
planet
planeta
plans
plant
planta
plantain
plantation
plantations
plante
planter
plantes
plants
plaque
plaques
plas
plastique
plat
plate
plateau
plateaux
plates
platine
platon
plats
plautdietsch
plaute
play
player
ple
please
plein
pleine
pleinement
pleines
pleins
plej
pleurait
pleure
pleurent
pleurer
pleurs
pleut
pleuvait
pli
plie
plier
pline
pliqua
plique
pliquer
plis
pln
plo
plodarisch
plomb
plon
plonge
plorable
ploye
ployer
plu
pluie
pluies
plum
plumage
plume
plumes
plupart
pluriel
plus
plusieurs
pluto
pluvieux
plɑ
plɔ
plɛ
plɪ
pms
pneu
pneus
po
poaceae
poc
poche
poches
pochette
pocket
pod
poe
pognon
poids
poigne
poignet
poignets
poil
poils
poinc
poing
poings
point
pointe
pointes
points
pointue
poire
poireau
poireaux
poires
poirier
pois
poison
poisse
poisson
poissons
poitevin
poitrine
poivre
poko
pol
polaire
poland
pole
polen
poli
police
polici
policie
policier
policiers
polis
politesse
politique
politiques
polizei
pollution
polo
pologne
polonais
polone
polonia
polonya
pols
polska
polso
polyne
polytechnique
polytechniques
pomelo
pomme
pommes
pommier
pompe
pompes
pompier
pompiers
pompons
pon
pona
pond
pondait
ponde
pondent
pondit
pondre
ponds
pondu
ponge
pono
pons
ponse
ponses
pont
ponts
pool
poor
pop
pope
popo
populaire
populaires
population
populations
poque
poques
por
porc
porcelaine
porchat
porche
porcs
pores
porokongonza
poroso
porque
port
porta
portable
portaient
portail
portait
portant
portatif
porte
portefeuille
portent
porter
portes
porteur
porteurs
portie
portier
portion
portions
portiques
porto
portrait
portraits
ports
portu
portuga
portugais
portugal
portugalija
portuge
portugue
pos
posa
posait
pose
posent
poser
positif
position
positions
positive
posse
possesseur
possession
possibilite
possible
possibles
post
poste
postes
posture
pot
potage
potager
potato
pote
poteau
poteaux
potence
potiron
potomone
pots
poubelle
pouce
pouces
poudre
poudres
pougens
pouille
pouilleux
poulailler
poule
poules
poulet
poulets
pouls
poumon
poumons
poupe
pour
pourboire
pourpier
pourpoint
pourpre
pourquoi
pourra
pourraient
pourrais
pourrait
pourrez
pourri
pourront
poursuit
poursuite
poursuivait
poursuivent
poursuivi
poursuivit
poursuivre
pourtant
pourvoir
pourvu
pourvue
pourvues
pourvus
pouse
pouser
pouses
poussa
poussaient
poussait
poussant
pousse
poussent
pousser
pousses
poussie
poutre
pouvaient
pouvais
pouvait
pouvant
pouvantable
pouvantail
pouvante
pouvez
pouvoir
pouvoirs
pouvons
poux
poverty
pow
power
pp
ppur
pr
pra
practice
pradeau
praia
prairie
prairies
prat
pratiquait
pratique
pratiquement
pratiquent
pratiquer
pratiques
pray
pre
premie
premier
premiers
prenaient
prenait
prenant
prend
prendra
prendrait
prendre
prends
prenez
prenne
prennent
pres
prescrit
presenc
present
president
presque
press
pressait
presse
pressent
pressentiment
presser
presses
pression
pressions
prestige
prete
preuve
preuves
pri
pria
price
pride
prie
prier
prieur
prima
primaire
primaires
prime
primer
primitif
primitive
primo
prince
princes
princesse
principal
principale
principalement
principales
principaux
principe
principes
printemps
printer
priorite
prirent
pris
prisant
prise
priser
prises
prison
prisonnier
prisonniers
prisons
prit
privation
privations
prive
priver
privile
prix
pro
probabilite
probable
probablement
probite
proble
problem
proce
procession
processus
prochain
prochaine
proche
proches
proclamant
proclamation
proclame
proclamer
procure
procurer
procureur
prodige
prodigieuse
prodigue
prodotto
producteurs
production
productions
produire
produisait
produisant
produisent
produisit
produit
produite
produits
produkt
proe
prof
profanation
profane
profe
professeur
professeurs
profession
professionnel
professionnelle
professionnels
professions
profil
profit
profitant
profite
profitent
profiter
profiteur
profits
profond
profonde
profondes
profondeur
profondeurs
profonds
profusion
proge
program
programmation
programme
progre
progression
progressivement
proie
proies
projectiles
projet
projete
projets
prole
prolife
prologue
prolonge
prome
promenade
promenades
promenait
promenant
promener
promesse
promesses
promet
promettait
promettre
promis
promise
promotion
prompt
prompte
promptement
prononc
prononce
prononcer
prononciation
proof
propagande
propage
prophe
propice
proportion
proportions
propos
proposa
proposait
propose
proposer
proposition
propositions
propre
proprement
propres
proprete
proprie
prose
prospe
prosper
prostitue
prostitution
prote
protecteur
protection
protectrice
protestantisme
protestants
protestations
proteste
protester
protocole
proudhon
proust
prouva
prouvait
prouve
prouvent
prouver
prova
provenance
provenant
provenc
provence
proverbe
proverbes
providence
provient
province
provinces
provinciales
provisions
provisoire
provisoirement
provoque
provoquer
proximite
pru
prudemment
prudence
prudent
prunelle
prunier
pruriens
prusse
prussien
ps
psa
pseudonyme
psychanalyse
psyche
psychique
psychologie
psychologique
psychologue
pt
pu
puante
puaro
puavoro
puberte
publibook
public
publicain
publicains
publication
publications
publicitaire
publicite
publics
publie
publier
publique
publiquement
publiques
publishing
publishroom
puce
pucelle
pucerons
puces
pudeur
pudica
pue
puerto
puis
puise
puiser
puisqu
puisque
puissance
puissances
puissant
puissante
puissantes
puissants
puisse
puissent
puits
pul
pula
pull
pulpe
pulture
pulu
pulve
punaise
punaises
puni
punie
punir
punit
pupe
pupille
pupu
pur
puration
pure
purement
purent
pures
purete
purgatoire
purge
purger
purifie
purple
puru
pus
pusa
puscule
pusi
pustules
pusupu
put
putain
putation
pute
putin
putre
puʁ
pwa
pwɛ
py
pygmalion
pygme
pyramide
pyre
pythocle
python
pɑ
pɔ
pɔr
pɔʁ
pə
pɛ
pɛʁ
pɜ
pɥi
pɯ
pʁe
pʁi
pʁɔ
pʁɛ
q
qa
qi
qia
qmi
qu
qua
quadrilate
quae
quai
quais
qualifie
qualifier
qualite
quamoclit
quand
quando
quant
quantique
quantite
quarantaine
quarante
quart
quartier
quartiers
quarto
quarts
quasi
quasiment
quateur
quatorze
quatre
quatrefages
quatrie
que
quechua
queen
quel
quelconque
quelle
quelles
quelqu
quelque
quelquefois
quelques
quels
quement
quemment
quence
quences
queneau
quent
quentation
quente
quentes
quentin
quents
quenya
querangal
querelle
ques
quesnay
question
questions
queue
qui
quichotte
quiconque
quidam
quie
quilibre
quille
quilles
quinine
quinquina
quint
quinte
quinzaine
quinze
quipage
quipages
quipe
quipement
quipements
quipes
quitable
quitation
quitta
quitte
quitter
quivalent
quo
quod
quoi
quoiqu
quoique
quolibets
quotidien
quotidienne
qya
r
ra
rabalan
rabat
rabe
rabelais
rable
rablement
rables
raccommode
raccommoder
race
races
racine
racines
racisme
racle
raconta
racontait
racontars
raconte
raconter
rad
rade
radi
radical
radicaux
radieuse
radieux
radio
radot
rafale
rafales
raffinage
raffinement
raffineurs
rafle
rafrai
rage
ragou
rai
raide
raient
rail
raille
railles
rain
raire
raires
rais
raisin
raisins
raison
raisonnable
raisonne
raisonnement
raisonner
raisons
rait
ral
rale
ralement
rales
ralisme
ralite
ram
rama
ramasse
ramasser
ramba
rame
rameau
rameaux
ramene
ramener
rament
rames
ramique
rampe
ramper
ran
rana
ranc
rance
rances
rancune
rancœur
randa
randonne
rang
rangal
range
ranger
rangs
ranimer
rans
rant
rante
rantes
rants
raoul
rap
rapanui
rapeutique
raphae
raphia
rapide
rapidement
rapides
rapidite
rapie
rappel
rappelait
rappeler
rappelle
rapport
rapporte
rapporter
rapports
rapproche
rapprocher
rapt
raquette
rarchie
rard
rare
rarement
rares
ras
rase
raser
rasme
rasoir
raspail
rassasier
rassemble
rassembler
rassure
rassurer
rat
rate
rateur
rateurs
ration
rationnelle
rations
rative
ratives
ratrice
rats
rattache
rattle
rature
ratures
raud
rault
rauque
raut
raux
ravage
ravages
ravin
ray
raye
raymond
rayon
rayonnement
rayons
raz
rcf
rd
rde
rdu
re
read
really
rear
reason
rebel
rebelle
rebelles
reboisement
rebord
rebours
rebute
rec
recette
recettes
recevaient
recevait
recevoir
recherche
rechercher
recherches
recht
reclus
recommande
recommencer
reconnai
reconnaissance
reconnu
reconnus
reconnut
reconstituer
reconstruire
record
recourir
recours
recouvert
recouvraient
recouvre
recouvrent
recouvrer
recouvrir
recroqueville
recrudescence
recrute
recruter
rectification
rectifier
recueil
recueilli
recueillir
recueillis
recul
recule
reculent
reculer
red
redaktionsnetzwerk
rede
redevable
redevance
redonner
redoutable
redoutables
redoute
redresser
refaire
refait
referma
referme
refle
reflet
reflets
refroidir
refroidissement
refuge
refus
refusa
refusait
refuse
refusent
refuser
regagner
regard
regarda
regardaient
regardais
regardait
regardant
regarde
regardent
regarder
regardez
regards
regen
regierung
regiment
region
registre
regret
regrets
regrette
regroupe
regrouper
regular
reich
reilly
reims
rein
reine
reines
reins
reis
reise
reisen
reiss
rejet
rejete
rejeter
rejoindre
rela
relais
relance
relatif
relatifs
relation
relations
relative
relativement
relatives
rele
releve
relever
reliait
relie
relief
relier
religieuse
religieusement
religieuses
religieux
religion
religions
remarqua
remarquable
remarquables
remarque
remarquer
remarques
remboursement
reme
rement
remerciements
remercier
remettre
remis
remise
remit
remment
remonta
remontait
remontant
remonte
remontent
remonter
remontrances
remords
remorque
remous
rempart
remparts
remplac
remplace
remplacement
remplacer
rempli
remplie
remplies
remplir
remplis
remplissent
remplit
remporte
remue
remuer
remy
ren
renaissance
renan
renard
renaud
rence
rences
rencontra
rencontre
rencontrent
rencontrer
rencontres
rend
rendaient
rendait
rendant
rendement
rendent
rendez
rendis
rendit
rendra
rendre
rends
rendu
rendue
rendus
rene
renferme
renferment
renforc
renforce
renforcer
renfort
rennes
renomme
renonce
renoncer
renouvele
renouveler
renseignement
renseignements
rent
rente
rentenmark
rentes
rentiel
rentrait
rentre
rentrent
rentrer
rents
renverse
renverser
renvoie
repaire
reparai
repartir
repas
repasse
repasser
repe
repentir
reportage
reporte
reporter
repos
reposait
repose
reposent
reposer
repousse
repre
reprenait
reprend
reprendre
repris
reprise
reprises
reprit
reproche
reproches
reproduction
reproduire
reproduit
repu
republic
republica
republik
republika
reque
requin
rer
rera
rere
res
respect
respectable
respecte
respecter
respectivement
respirant
respiration
respiratoires
respire
respirer
responsabilite
responsable
responsables
ressait
ressant
ressante
resse
ressemblait
ressemblance
ressemble
ressemblent
ressembler
ressent
ressentais
ressentiment
resser
resserre
resserrer
ressort
ressorts
ressource
ressources
rest
resta
restai
restaient
restait
restant
restaurant
restaurants
restaurateur
restauration
restaurer
reste
restent
rester
restera
restes
restif
restrictions
ret
retard
retarde
rete
retenir
retentit
retenu
retenue
retient
retira
retire
retirer
retombe
retouches
retour
retourne
retourner
retrait
retraite
retranche
retrousse
retrouva
retrouve
retrouver
return
reuse
reux
revanche
reve
revenaient
revenait
revenant
revenants
revendications
revendre
revenez
revenir
revenu
revenus
revers
reviennent
reviens
revient
revinrent
revint
revoir
revola
revolver
revue
rey
reye
reykjavi
rez
rfen
rgen
rgn
rhe
rhg
rhin
rho
rhum
rhume
ri
ria
riait
riale
rialisme
riant
riau
riaux
rib
riba
ribadier
ribaud
ric
rica
ricain
ricaine
ricaines
ricains
ricard
riccoboni
rice
richard
riche
richelieu
riches
richesse
richesses
ricin
rico
ricorde
rictus
ride
rideau
rideaux
rides
ridicule
ridicules
ridional
ridionales
rido
rie
rieder
riel
rielle
riellement
rielles
riels
rien
rience
riences
rienne
riennes
riens
rier
ries
rieur
rieure
rieurement
rieures
rieurs
rieuse
rieusement
rieuses
rieux
riffe
rifie
rifier
rige
right
rigide
rigolade
rigoureusement
rigoureux
rigueur
rija
rik
rika
riko
ril
rile
riles
rilite
rimbaud
rime
rimentale
rimente
rin
rinaire
rinaldi
rine
ring
ringard
rio
riode
riodes
riodique
riorite
rios
rioux
riphe
ripuaire
rique
riques
rir
rira
rire
rires
ris
rise
risent
riser
risht
rision
risk
risme
risoire
rison
risquait
risque
risquent
risquer
risques
rissait
risse
rissement
rissent
risson
ristique
ristiques
rit
ritable
ritablement
ritables
ritage
ritages
ritaient
ritait
rite
ritent
riter
rites
ritier
ritiers
ritif
ritte
rituel
rium
rivage
rivages
rivale
rivalite
rivaux
rive
river
rives
rivie
rixe
riya
riz
rja
rjo
rk
rka
rke
rm
rme
rmy
rn
rna
ro
roa
road
robe
rober
robert
robes
robespierre
robin
robine
robinet
robinson
robitaille
robuste
roc
roce
roche
rochefoucauld
rochelle
rocher
rochers
roches
rochon
rock
rockall
rode
rodolphe
rodu
roe
roger
rogissart
rogue
rohingya
roi
rois
roke
roko
roland
role
roll
rolle
rollin
rom
roma
romagnol
romain
romaine
romains
roman
romance
romanche
romani
romans
romantique
rome
rompit
rompre
rompu
romy
ron
ronautique
ronces
rond
ronde
rondes
ronds
rone
ronge
ronique
rons
room
root
ropa
roport
roret
ros
rosa
rosalie
rose
roseau
roseaux
roses
rosier
rosiers
rosite
rostand
rot
rotation
rote
rotin
rotique
rotonine
rou
roudier
roue
rouen
roues
rouge
rougemont
rouges
rougi
rougier
rougir
rougon
rouille
roula
roulaient
roulait
roulant
roule
roulement
roulent
rouler
roumain
rousse
rousseau
route
routes
routie
rouvroy
roux
rovingiens
rowohlt
roy
royal
royale
royaume
royaute
rozier
rquez
rra
rs
rt
rti
rtu
ru
ruanda
ruban
rubans
rubber
rubiaceae
rubis
rude
rudes
rudition
rudyard
rue
ruelle
ruelles
rues
rugby
rugueuse
ruine
ruiner
ruines
ruisseau
ruisseaux
rule
rum
rumbate
rume
rumeur
run
rung
running
ruo
rup
ruption
rupture
rural
rurale
rurales
rus
rusalem
ruse
ruses
rusi
rusia
rusija
russe
russes
russia
russie
russland
rustique
rustiques
rutaceae
ruth
ruthe
rve
rw
rwanda
ry
rythme
rzen
rɔ
rə
rɛ
s
sa
sabine
sable
sables
sabots
sabre
sabu
sac
sachant
sache
sacher
sack
sacre
sacrement
sacrifice
sacrifices
sacrifie
sacrifier
sacristie
sacs
sad
safu
sagacite
sagba
sage
sagen
sages
sagesse
sagre
sah
sahara
sahel
sahi
sai
said
saigne
saillie
sain
saine
saint
sainte
saintes
saintongeais
saints
sais
saisi
saisie
saisir
saisis
saisit
saison
saisons
sait
saki
sakpa
sakuumbe
sal
sala
salade
salades
salaire
salaires
salamander
salamandra
salamandre
salami
salar
salarie
salat
salaud
sale
sales
salete
sali
salignac
saliva
salive
salle
salles
salo
salomon
salon
salons
salt
salte
salua
salue
saluer
salut
salvado
salvador
sam
sama
samba
sambe
sambele
sambia
same
samedi
samivel
samoan
samogitien
samson
samuel
san
sana
sanction
sanctionne
sand
sanda
sandaga
sandal
sandrine
sandu
sang
sangbile
sanglante
sanglantes
sangle
sanglier
sanglots
sango
sangsues
sangue
sanitaire
sanitaires
sanois
sans
sanskrit
sant
santa
santal
sante
santiago
santo
santos
sanze
sao
sap
sapa
sape
sapin
sapins
sapo
sapotaceae
sar
sara
saradi
sarah
saramu
sarate
sarave
sarayevo
sarde
sardin
sardines
sarkozy
sarraute
sarroi
sartre
sasa
sasango
sastre
sat
satan
satellites
satere
saterlandais
satin
satisfaction
satisfaire
satisfait
satisfaite
saturday
satyre
sau
sauce
sauf
saul
saule
saules
saumon
saunier
saura
saurais
saurait
saut
sauta
saute
sauter
sauterelles
sautoir
sauvage
sauvages
sauve
sauver
sauvetage
sauveur
savaient
savais
savait
savane
savant
savante
savantes
savants
save
savent
saveur
savez
savine
savoie
savoir
savoirs
savon
savonnerie
savonnette
savons
savourer
saw
sawai
saxon
say
saɪ
saɪd
saʒ
sc
scale
scandale
scarabe
sce
sceau
sceaux
scelle
scepticisme
sceptique
scha
sche
scheer
schiff
schla
schlafen
schlagen
schlu
schmitt
schneider
schnell
scho
schon
school
schopenhauer
schu
schule
schwarz
schweinfurthii
schweiz
schwester
scie
science
sciences
scientifique
scientifiques
scn
sco
scolaire
scolastique
scorpion
scots
scott
scrupule
scrupules
scrutin
sculpte
sculpture
sculptures
sd
se
sea
season
seau
seaux
sec
second
secondaire
secondaires
seconde
secondes
secoue
secouer
secourir
secours
secousse
secousses
secre
secret
secrets
secs
sectes
secteur
secteurs
section
sed
sedan
see
seghers
segment
segments
sehen
sehr
sei
seigle
seigneur
seigneurs
sein
seine
seinem
seinen
seiner
seins
seit
seite
seize
seko
sekreta
sel
selaf
selbst
sele
seleri
self
selle
selles
selon
sels
semaine
semaines
semana
sembe
sembla
semblable
semblables
semblaient
semblait
semblant
semble
semblent
seme
semelle
semer
semestre
semi
semis
sen
sence
senda
sene
senega
senegal
senegalensis
senestre
senni
sens
sensation
sensations
sense
sensibilite
sensible
sensiblement
sensibles
sensitive
sent
senta
sentaient
sentais
sentait
sentant
sentants
sentation
sentations
sente
sentement
sentence
sentent
sententia
senter
sentes
senteur
sentez
senti
sentier
sentiers
sentiment
sentiments
sentinelle
sentinelles
sentir
sentis
sentit
sents
sepe
sepela
sept
september
septembre
septentrion
septentrionale
septie
ser
sera
serai
seraient
serais
serait
seras
serbe
serbie
serbo
sere
serein
sereva
serez
serge
sergent
seri
seriez
serment
sermon
sermons
serons
seront
serpent
serpente
serpents
serra
serre
serrer
serres
serrure
sers
sert
serte
serts
servaient
servait
servant
servante
servatif
servatifs
serve
servent
server
serves
serveur
servi
service
services
serviette
servir
servirait
servit
serviteur
serviteurs
servitude
servoir
ses
sese
sespe
sespoir
session
set
seuil
seul
seule
seulement
seules
seuls
seven
sewa
sex
sexe
sexes
sexualite
sexuelle
sexuellement
sexuelles
sexuels
seychelles
sg
sga
sh
sha
shakespeare
shan
shanghai
she
sheet
shell
sherpa
shi
shili
shimaore
shindzuani
shingazidja
shinua
ship
shirt
shn
sho
shona
shonore
shoot
shop
shopping
short
shot
should
show
shu
shy
si
sia
siam
siastique
siastiques
sibe
sic
sich
sicilien
sid
sida
sidait
side
sidence
sident
sidente
sidentielle
sider
sido
sie
sieht
sien
sienne
siens
siera
sierra
sies
sieste
sieur
sifflait
sifflant
siffle
sifflement
siffler
sifflet
sighebert
signa
signait
signal
signale
signaler
signant
signation
signature
signe
signer
signes
signification
signifie
sika
siki
sil
sile
silence
silences
silencieuse
silencieux
silhouette
silien
sillage
sillon
sillonnent
sillons
silva
silver
sim
sima
simba
sime
simenon
simon
simone
simonin
simple
simplement
simples
simplicite
simplification
simultane
sin
since
sind
sindhi
sindi
sindima
sine
singa
singapor
singapore
singapour
singapu
singapur
singapura
singe
singer
singes
singi
single
singulatif
singulie
singulier
sinistre
sinon
sinople
sint
sinte
sion
sioni
sions
sipo
sir
sirait
sire
siri
siriri
sirop
sirs
sis
sisa
sisato
sisongo
sistance
sistante
siste
sistema
sister
sit
sitait
sitation
site
siter
sites
sito
situation
situations
situe
six
sixie
size
sizo
siʁ
sja
sje
sjo
sjɑ
sjɔ
sjɛ
sjɛl
sk
ska
ski
skin
sko
skolt
skorpion
sky
skɔ
sl
sla
sland
slang
slate
slave
sleepings
slip
slo
slon
slovaque
slovaques
slove
sm
sma
small
smallways
smcp
sme
smell
smg
smith
smj
smn
smoke
sms
sn
snake
snobs
snow
so
soap
sobe
sobi
sobre
sobriquet
social
sociale
sociales
socialisme
socialiste
socialistes
sociaux
socie
sociologie
socrate
soda
sofa
sofe
sofia
sofort
soft
software
sog
soi
soie
soient
soif
soigne
soigner
soigneusement
soin
soins
soir
soire
soirs
sois
soit
soixante
sol
solaire
solanaceae
solanum
soldat
soldats
solde
sole
soleil
solennel
solennelle
solennite
solidarite
solide
solidement
solides
solipe
solitaire
solitaires
solitude
soll
sollers
sollicite
solliciter
sollicitude
sollte
solo
solomon
solre
sols
solu
solut
solution
solutions
soma
somali
somalia
somalie
sombe
sombo
sombre
sombres
some
someone
something
sommaire
somme
sommeil
sommes
sommet
sommets
somptueux
son
sonde
songe
songeait
songeant
songer
songes
songhai
sonnait
sonne
sonner
sonnerie
sonnette
sonntag
sono
sonore
sons
sont
soo
soon
sooro
sopa
sope
sophie
sopo
sor
sorabe
sorani
sorbonne
sorcellerie
sorcie
sorcier
sorciers
sordonne
sordre
sordres
sore
sorel
sorgho
sormais
soro
sors
sort
sortaient
sortait
sortant
sorte
sortent
sortes
sorti
sortie
sorties
sortile
sortir
sortis
sortit
sos
sosongo
sot
sotho
sottise
sottises
sou
souche
souci
soucie
soucieux
soucis
soudain
soudaine
soudan
soude
soudre
souffert
soufflait
souffle
souffler
souffles
soufflet
souffrait
souffrance
souffrances
souffre
souffrent
souffrir
soufre
souhaitait
souhaite
souhaiter
souille
soulagement
soulager
soule
souleva
soulevait
souleve
soulever
soulier
souliers
souligne
soumettre
soumis
soumise
soumises
soumission
sound
soundanais
soupc
soupe
souper
soupir
souple
souplesse
source
sources
sourcils
sourd
sourde
sourds
souriait
souriant
souricie
sourire
sourires
souris
sourit
sous
soustraire
soutenir
soutenu
soutenue
south
soutien
soutient
souvenir
souvenirs
souvent
souverain
souveraine
souverainete
souvestre
souviens
souvient
sovie
sowie
soyez
sp
spa
spain
spanien
spatiale
spe
speak
species
spectacle
spectateur
spectateurs
spectre
sperma
sperme
sphe
sphinx
spi
spider
spiegel
spielen
spinach
spinat
spirale
spirit
spirituel
spirituellement
spirituelles
spiritus
splendeur
splendeurs
spo
spontane
sport
sportif
sports
sprache
spread
spring
springer
spu
sq
square
squelette
sr
sranan
srn
ss
ssa
ssait
sse
ssel
ssen
ssia
sst
st
sta
stable
stade
stades
stadt
stage
staline
stan
stand
standard
stanislas
stanke
stanley
star
stark
start
stat
state
states
stati
station
stations
statistique
statistiques
statua
statue
statues
statut
statuts
stay
ste
steel
steele
stefan
stehen
steht
steigen
stella
stelle
stendhal
stephen
stephenson
ster
sterculiaceae
stevenson
sti
stick
still
sto
stock
stol
stone
stop
store
storm
story
stq
stra
straight
strasbourg
stratage
strate
strauss
straße
street
streit
stress
strictement
string
strom
strong
structure
structures
stu
student
stuff
stupe
stupeflip
stupeur
stupide
stupides
stupidite
style
stɑ
stɔ
stə
su
sua
suali
suate
suave
sub
subi
subir
subissait
subit
subitement
subject
sublime
submerge
subordonne
subsister
substance
substances
substantif
substantifs
substitue
subtil
suc
succe
successeur
succession
successivement
successives
succomber
suce
such
sucre
sud
suda
sudan
sue
suedua
suet
sueur
suffi
suffirait
suffire
suffisait
suffisamment
suffisance
suffisante
suffisent
suffit
suffrage
suffrages
sugar
sugge
sui
suicide
suie
suis
suisse
suisses
suit
suite
suites
suivait
suivant
suivante
suivent
suivi
suivie
suivit
suivre
sujet
sujets
suka
sukongo
suku
sukula
sul
sule
sulfate
sultan
sultant
sultat
sultats
sulte
sulu
sumbo
sume
sun
sunday
sungba
sunt
suo
sup
supe
super
superbe
superbes
superficie
superficielle
superpose
superstition
supervielle
suppe
supple
supplice
supplie
support
supporte
supportent
supporter
supporters
suppose
supposer
suppression
supprime
supprimer
supre
supu
sur
sura
suranne
surcharge
surcroi
sure
surface
surfaces
surgir
surina
surinam
suriname
surlendemain
surmonte
surnom
surnomme
surpasse
surplus
surprenant
surprenante
surprend
surpris
surprise
surprises
surrection
sursis
surtout
suru
surveillance
surveille
surveiller
survie
survint
survivre
sus
susceptible
susceptibles
suscite
suspect
suspecte
suspendu
suspendues
suspension
susu
sut
suva
sux
suzanne
sv
sva
sve
sw
swa
swahili
swann
swazi
swb
sweet
sy
sya
syc
sye
syl
syllabes
sylvain
sylvestre
sylvie
symbole
symboles
symbolique
sympathie
sympathique
sympathiques
sympto
syndicat
syndicats
synodontis
synonyme
synthe
syoni
syphilis
syriaque
syrie
syrtes
syste
system
syʁ
szigetek
szl
szw
sœur
sœurs
sœuvre
sœʁ
sɐ
sɑ
sɔ
sɔl
sɔʁ
sə
sən
sɛ
sɛl
sɛp
sɛʁ
sɜ
sɯ
t
ta
taa
tab
taba
tabac
table
tableau
tableaux
tables
tablette
tabli
tablie
tablier
tablies
tablir
tablis
tablissement
tablissements
tablit
tabouret
tac
tace
tache
tachement
tacher
tacherot
taches
tachete
taciturne
tactique
tadjik
tag
tagalog
tage
tages
tagua
tahiti
tahitien
tai
taient
taignes
tail
taila
tailande
tailandia
taille
tailler
tailles
tailleur
tailleurs
taillis
tails
tain
taine
taire
taires
tais
tait
taj
tak
take
takisi
taksi
tal
tala
talait
tale
talent
talents
taler
tales
talisman
talk
tallandier
tallique
talliques
tallurgie
taloche
talon
talons
talus
tam
tama
tamazight
tambour
tambours
tambu
tamis
tamorphose
tamorphoses
tampon
tan
tana
tanana
tanche
tandis
tang
tanga
tangawi
tanger
tango
tangs
tanne
tanque
tansania
tant
tante
tanto
tanza
tanzani
tanzania
tanzanie
tanzanija
taossouma
tap
tapage
tapait
tape
taper
tapes
taphore
taphysique
tapis
tapisse
tapisserie
tar
tara
tarashkevitsa
tarask
tard
tarde
tarder
tards
tare
tariat
tarienne
tarif
tarifs
tarn
taro
tarte
tartuffe
tas
tasombo
tasse
tassel
taste
tasu
tat
tata
tatali
tatar
tatare
tate
tation
tations
tatoue
tats
tau
taupe
taureau
tausend
tausug
taux
tawa
taxe
taxes
taxi
taxis
taz
taɪ
taʁ
taʒ
tchad
tche
tchif
tchouktche
tchouvache
te
tea
team
teater
teatro
teau
teaubriant
teaux
technip
technique
techniques
technologie
technologies
technologique
technology
tecte
tee
tehran
teil
teindre
teint
teinte
teintes
tek
tel
tela
tele
telefon
telephone
television
teli
tell
telle
tellement
telles
tellier
tels
tem
tembe
tement
tements
tempe
tempel
tempes
temple
templo
tempo
temps
tems
ten
tenace
tenaient
tenait
tenant
tence
tences
tend
tendaient
tendait
tendance
tendant
tendard
tende
tendent
tendit
tendre
tendres
tendresse
tends
tendu
tendue
tendues
tendus
tene
teneur
tenez
tenir
tennis
tension
tent
tenta
tentation
tentative
tentatives
tente
tenter
tentes
tention
tentions
tenu
tenue
tenues
tenus
ter
tera
terait
tere
term
terme
termes
termina
terminait
terminalia
terminant
termination
termine
terminer
termite
terne
ternel
ternelle
ternellement
ternelles
ternite
terra
terrain
terrains
terrasse
terre
terrer
terres
terrestre
terrestres
terreur
terrible
terriblement
terribles
territoire
territoires
terroir
terrorisme
tertiaire
tertre
tes
tesse
test
testament
teste
tet
teta
tete
tetere
teurs
teux
texte
textes
textile
tez
tg
th
tha
thai
thailand
than
thanks
that
the
theater
thebookedition
their
them
then
there
thermome
these
they
thi
thibault
thibaut
thie
thierry
thing
think
thiopie
thique
thirion
this
tho
thode
thodes
thodique
thodiquement
thomas
those
thought
three
through
thu
thumb
thursday
ti
tia
tiati
tibe
tibi
tibia
tica
ticence
tiche
ticket
tico
tide
tie
tiempo
tien
tienne
tiennent
tiennes
tiens
tient
tier
tierce
tiers
ties
tiez
tif
tige
tiger
tiges
tignasse
tigo
tigre
tigrigna
tik
tike
tiki
til
tili
tilleul
tilleuls
tim
timbre
timbres
time
timent
timents
times
timide
timidite
timo
timor
tin
tina
tine
tinizi
tins
tint
tinta
tinter
tio
tion
tions
tipo
tique
tiques
tir
tira
tirage
tirait
tirane
tirant
tire
tirent
tirer
tireurs
tiri
tiroir
tis
tisa
tisch
tise
tiser
tisme
tissage
tissante
tisse
tisser
tisserie
tissu
tissus
tit
tite
titene
tition
titivite
titre
titres
tits
tiu
tiv
tive
tiyo
tiz
tiʁ
tja
tje
tjɔ
tjɛ
tk
tl
tn
to
toc
tocan
tod
today
todd
todos
tofalar
toffe
toffes
together
togo
toi
toile
toiles
toilette
toilettes
toise
toit
toits
tok
tokharien
toki
tokipona
toko
tokua
tokyo
told
tole
toli
tom
toma
tomate
tomates
tomato
tomba
tombaient
tombait
tombant
tombe
tombeau
tombent
tomber
tombes
tombo
tome
tomorrow
ton
tonation
tondo
tongana
tongaso
tongien
tongo
tongolo
tongoro
tongue
tonight
tonnait
tonnant
tonnante
tonne
tonneau
tonneaux
tonnement
tonner
tonnerre
tonnes
tons
tonton
tony
too
took
top
tor
tora
torba
tord
tordre
tordus
torique
toro
torpeur
torrent
torrents
torse
tort
tortue
torture
total
totale
totalement
totalite
toto
tou
touch
touchait
touchant
touche
touchent
toucher
touches
touchez
touffe
touffer
touffes
toujours
toul
toulet
toulon
toulouse
toum
tour
touraine
tourangeau
tourbe
tourbie
tourbillon
tourbillons
tourdie
tourgue
tourgueniev
tourisme
touriste
touristes
tourmente
tourmenter
tourna
tournaient
tournait
tournant
tourne
tournent
tourner
tournier
tournure
tours
tous
toussaint
tousse
tout
toute
toutefois
toutes
touvain
toux
town
toxicologie
toxique
toxiques
tpi
tpn
tpw
tr
tra
trac
trace
tracer
traces
tracter
tracteurs
traction
trad
tradescantia
tradition
traditionnel
traditionnelle
traditionnellement
traditionnelles
traditionnels
traditions
traduction
traduire
traduit
traduite
traduits
trafic
trage
tragen
tragique
trahir
trahison
trahit
trai
train
trains
traire
trait
traitait
traitant
traite
traitement
traitements
traiter
traits
trajectoire
trajet
tramway
tramways
tranchant
tranche
trancher
tranches
trange
trangement
tranger
trangers
tranges
trangle
tranquille
tranquillement
tranquilles
tranquillite
transformation
transforme
transformer
transgresser
transgression
transition
transliterator
transmet
transmettre
transmis
transmise
transmission
transparence
transparent
transport
transporte
transporter
transports
trant
trap
trappe
trappeurs
trapu
traque
tras
tration
travail
travaillaient
travaillait
travaille
travaillent
travailler
travailleur
travailleurs
travaux
travel
travers
traversa
traversaient
traversait
traversant
traverse
traverser
tre
tree
treffen
treize
tremblait
tremblay
tremblement
tremblements
trembler
trempe
tremper
tren
trend
trentaine
trente
trer
tres
tresse
tresses
trete
treuttel
tri
triage
triangle
tribu
tribue
tribunal
tribunaux
tribune
tribus
trie
trier
trimestre
trinite
trio
triolet
triomphe
triompher
tripe
tripes
triple
tripoli
tripot
trique
triques
trir
tris
trisai
trise
triser
tristan
triste
tristes
tristesse
tro
trois
troisie
troit
troite
troitement
troites
troits
trole
trompe
tromper
trompette
tronc
troncs
trono
trop
tropical
tropicale
tropicales
tropiques
troppmann
trottoir
trottoirs
trou
trouble
troubler
troubles
troue
troupe
troupeau
troupeaux
troupes
trous
trouva
trouvai
trouvaient
trouvaille
trouvais
trouvait
trouvant
trouve
trouvent
trouver
trouvera
trouverait
trouvez
trouvons
troyat
troyes
tru
truc
truck
trucs
trudeau
true
truffe
truffes
truie
truire
truit
truite
trump
try
trɔ
ts
tsa
tse
tsel
tsg
tsi
tsolya
tsonga
tsɯ
tt
tta
tte
tu
tua
tube
tuberculose
tubes
tude
tudes
tudiant
tudiants
tudie
tudier
tue
tuel
tuelle
tuellement
tuent
tuer
tuesday
tueur
tufa
tugere
tugo
tui
tuiles
tuka
tuki
tula
tum
tumba
tumbu
tume
tumeur
tumulte
tun
tune
tunel
tunen
tunge
tungu
tuning
tunis
tunisia
tunisie
tunizi
tunnel
tuo
tupi
tupinamba
tur
turage
turages
turbulent
turc
turcs
ture
tures
turkey
turki
turkme
turks
turku
turn
turquie
turu
turuki
tus
tut
tuta
tutelle
tuyau
tuyaux
tuz
tuʁ
tv
tva
tvu
twa
twaʁ
twist
two
txb
ty
tya
tye
tympan
type
types
typhoi
typographie
typographique
tyran
tyv
tyʁ
tze
tzen
tzm
tøz
tœʁ
tɐ
tɑ
tɔ
tɔʁ
tɕi
tə
tən
tɚ
tɛ
tɛk
tɛl
tɛlɛ
tɛn
tɛs
tɛʁ
tɥe
tɨ
tʁ
tʁa
tʁe
tʁi
tʁis
tʁu
tʁɑ
tʁɔ
tʁə
tʁɛ
tʃe
tʃi
tʃə
tʊŋ
u
uby
uc
udm
udu
ue
ues
ufer
ug
uga
uganda
uhr
ui
uilenberg
uk
ukraine
ukre
ul
ulce
ulte
ultime
ultra
um
uma
umberto
ume
un
una
unanime
unanimite
und
under
une
unes
uni
unicode
unidos
unie
unies
uniforme
union
unions
unique
uniquement
unir
unis
unit
unite
united
univ
univers
universel
universelle
universita
universitaire
universitaires
universite
universitet
university
uno
uns
unser
unsere
unter
until
unu
up
upon
ur
urbain
urbaine
urdu
urgence
urgences
urgent
uribe
urine
urss
urticaceae
uruguay
urugue
urum
us
usa
usage
usagers
usages
use
used
user
usi
usine
usines
using
usite
ussi
ussir
ussit
ussite
ustensiles
usuelle
usure
usyo
ut
uta
ute
utile
utiles
utilisant
utilisateur
utilisation
utilise
utilisent
utiliser
utilite
utopie
utu
uum
uz
v
va
vaca
vacances
vacarme
vaccin
vaccination
vaccine
vaccins
vache
vaches
vaco
vacuer
vada
vae
vagina
vague
vaguement
vagues
vailland
vaillant
vain
vaincre
vaincu
vaincus
vaine
vainement
vaines
vainqueur
vainqueurs
vais
vaisseau
vaisseaux
vaisselle
vaka
val
vala
valable
valait
vale
valent
valery
valet
valets
valeur
valeurs
validite
valise
valle
vallery
vallet
vallon
valmy
valoir
valois
valorisation
valse
valu
valuation
value
vampire
van
vange
vangile
vanite
vant
vante
vanter
vapeur
vapeurs
vara
varende
variable
variables
variant
variante
variations
varie
varier
variste
vas
vase
vasion
vaste
vastes
vater
vatican
vatikiotis
vation
vaudois
vaut
vauvenargues
vaux
vaɪ
vbb
ve
veau
veaux
vec
vedette
veil
veillaient
veillait
veille
veiller
veinards
veine
veines
veke
vel
velle
velo
veloppe
veloppement
veloppent
velopper
velours
veloute
velu
velyne
vement
vements
ven
vena
venaient
venais
venait
venant
vend
vendaient
vendait
vende
vendent
vendeur
vendeurs
vendre
vendredi
vendu
vendus
venez
venezuela
vengeance
venger
venin
venir
venise
venons
vensa
vent
vente
ventes
vention
ventouses
ventre
vents
ventuellement
venture
venu
venue
venues
venus
vep
vepse
ver
vera
veranda
verbal
verbe
verbenaceae
verbes
verbum
vercel
verda
verde
verdict
verdun
verdure
verenigde
verge
verger
verges
vergessen
vergogne
verie
verlag
verlaine
verlassen
vermine
verne
vernis
vero
veron
verra
verrat
verre
verres
verrez
verrons
verrou
vers
versailles
versant
verse
verser
version
versprechen
versta
versuchen
vert
verte
vertes
vertige
verts
vertu
vertus
verviers
very
ves
vespa
veste
vestiges
veston
vete
veulent
veut
veuve
veux
vexin
vez
vi
via
vian
viande
viandes
viation
vice
vicente
vices
vichy
vicomte
victime
victimes
victoire
victor
victoria
victorin
vida
vide
videmment
vidence
vident
vider
vides
vie
vieil
vieillard
vieillards
vieille
vieilles
vieillesse
vieilli
viel
viele
vielen
viendra
viendrait
vienne
viennent
viens
vient
vier
vierge
vierges
vies
vietna
vietnam
vieux
vif
vifs
vigan
vigilance
vigne
vignes
vignoble
vigny
vigoureusement
vigoureux
vigueur
vii
viii
vikings
vil
vilain
vile
vilenie
villa
village
villageois
villageoises
villages
villars
ville
villeneuve
villes
villiers
vilnius
vin
vinaigre
vincennes
vincent
vine
vingt
vingtaine
vingtie
vingts
vino
vinrent
vins
vint
viole
violemment
violence
violences
violent
violente
violentes
violents
violer
violet
violette
violettes
viollet
violon
vipe
vir
virage
vire
virgile
virgin
virginie
viri
virus
vis
visage
visages
visant
visce
vise
viser
visible
visiblement
visibles
visie
vision
visions
visite
visiter
visites
visiteur
visiteurs
vista
vit
vitable
vitant
vite
viter
vitesse
viticole
vitre
vitres
vivace
vivacite
vivaient
vivait
vivant
vivante
vivantes
vivants
vive
vivement
vivent
vives
viviane
vivier
vivons
vivre
vivres
vizir
vja
vladimir
vlax
vls
vn
vo
vocabulaire
vocabulary
vocation
vocife
vogel
vogue
voici
voie
voient
voies
voila
voile
voiler
voiles
voir
voire
vois
voisin
voisinage
voisine
voisines
voisins
voit
voiture
voitures
voix
voko
vol
vola
volaient
volaille
volailles
volant
volante
volants
volapu
volcan
vole
voler
volets
voleur
voleurs
volontaire
volonte
volontiers
vols
volta
voltaire
volte
volter
voltes
volume
volumes
volumineux
volupte
voluptueux
volution
volutionnaire
volutionnaires
volutions
vom
vomir
von
vont
voquait
voque
voquer
vor
vore
voro
vos
vosges
vosgiennes
vot
vote
voter
votes
voto
votre
vou
voudra
voudrais
voudrait
voudriez
voue
vouement
voulaient
voulais
voulait
voulant
voulez
vouloir
voulons
voulu
voulut
vous
vouziers
vovoro
voyage
voyager
voyages
voyageur
voyageurs
voyaient
voyais
voyait
voyant
voyez
voyons
voyou
voyous
voz
vrai
vraie
vraies
vraiment
vrais
vre
vres
vrier
vrin
vro
vu
vuaze
vue
vues
vuillet
vuko
vulgaire
vulgairement
vulne
vulse
vundu
vunga
vuohta
vuru
vus
vuvu
vwa
vwaʁ
vy
vœu
vœux
vɑ
vɔ
və
vən
vɚ
vɛ
vɛl
vɛt
vɛʁ
w
wa
waba
wabe
wabindi
wabo
wabu
wade
wado
wafa
wafara
wafo
waga
wagaba
wagana
wagba
wagbadara
wagbo
wagen
wagere
wagi
wagindi
wago
wagon
wagons
waha
wahe
wahi
waho
waka
wakala
wakarapi
wake
waki
wakinda
wako
wakode
wakoko
wakpa
wakpe
wakpo
waku
wakua
wakuafu
wakuasu
wakutukutu
wala
walapara
wald
wale
wali
walikundu
walitaba
wall
wallisien
wallon
walo
walombe
walter
wama
wamasu
wamba
wambenze
wamosoro
wamozoko
wamu
wand
wandara
wande
wandembo
wandokua
wandu
wang
wanganga
wangangu
wange
wanguru
wani
want
wanyo
wanzi
wapi
wapo
wapoli
war
wara
waray
waren
warm
wars
warsaw
warten
warum
was
wase
washington
wasi
waso
wasopo
wasser
wasu
wasuru
wata
watambu
watch
wate
water
wato
watokua
wavo
wavu
wawa
wawe
way
waya
waye
wayi
wayo
wazarada
waze
wazi
waziba
we
web
wednesday
weed
week
weg
wegen
weight
weil
weisgerber
weit
weiß
welateki
welcome
well
wells
welt
wen
wenn
went
wer
werber
werde
werden
were
wert
wesh
west
weyer
weɪ
what
when
where
which
while
whisky
white
who
why
wi
wie
wieder
wife
wikimedia
wikipe
wikipedia
wikispecies
wiktionary
wilamowicien
wild
wilde
wilfrid
wilhelm
will
william
williams
willy
win
wind
windows
wine
winter
wir
wird
wissen
with
without
wka
wls
wni
wo
wolf
wolfgang
wollen
wollte
wolof
woman
won
wood
word
words
work
workbook
works
world
worship
wort
worth
wotere
would
wp
write
wu
wuhngo
wurde
wurden
wusu
wuu
www
wym
wɔ
wɛ
wɜ
x
xa
xal
xavier
xbm
xe
xet
xh
xhosa
xi
xia
xie
xii
xiie
xiii
xiiie
xiv
xive
xix
xixe
xmf
xo
xu
xue
xv
xve
xvi
xvie
xviie
xviii
xviiie
xx
xxe
xxi
xxie
xxiii
xxiv
y
ya
yaa
yacht
yag
yako
yam
yamba
yamoussoukro
yan
yang
yanga
yangba
yango
yann
yanny
yasmina
yaw
yawelmani
yaya
ye
year
years
yebe
yeeke
yeke
yellow
yenga
yengere
yes
yesterday
yet
yeux
yi
yiddish
yingo
yn
yo
yok
yongba
yongo
yongu
yonne
york
yoro
yoruba
you
young
your
yourcenar
ys
yser
yshe
yu
yua
yucate
yue
yun
yupik
yuru
yves
yvon
z
za
zadig
zagreb
zaheira
zahl
zai
zam
zamai
zamba
zambi
zambia
zambie
zamenhof
zana
zangbi
zapo
zapone
zapote
zar
zara
zarada
zard
zariffa
zat
zavane
zavoka
zaza
zazaki
zaʁ
zdj
ze
zea
zegbe
zehn
zeichen
zeit
zeitung
zeke
zelenortski
zembe
zeme
zen
zere
zerebaidya
zeste
zgh
zh
zha
zhe
zhi
zho
zhu
zhuang
zi
zia
zie
ziehen
ziga
ziki
zimba
zimbabve
zimbabwe
zimmer
zin
zinc
zingi
zingiberaceae
zinyo
zinyoon
zio
zis
zja
zje
zjɔ
zn
zo
zoe
zog
zola
zone
zones
zonga
zoni
zonyo
zoologie
zora
zorondo
zovoko
zoyo
zu
zuerst
zug
zum
zur
zurcher
zuru
zusammen
zuydcoote
zwa
zwei
zweig
zwischen
zy
zza
zɑ
zɔ
zə
zɛ
zɛʁ
{
|
}
~
¡
§
©
«
­
®
°
²
³
´
µ
·
¹
º
»
½
¿
×
ß
æ
æd
æsculape
ð
ðo
ø
đa
đie
đo
đu
ı
ıs
ł
ła
ŋ
ŋa
ŋi
ŋɔ
ŋɛ
œ
œil
œuf
œufs
œuvre
œuvres
ǀ
ǃ
ɐ
ɑ
ɒ
ɔ
ɔk
ɔl
ɔp
ɔʁ
ɕ
ɕa
ɕi
ɕo
ə
əl
ən
ət
əʊ
ɚ
ɛ
ɛk
ɛks
ɛl
ɛn
ɛnt
ɛs
ɛɐ
ɛɡ
ɜ
ɝ
ɡ
ɡa
ɡal
ɡaɔ
ɡaʁ
ɡe
ɡi
ɡja
ɡl
ɡla
ɡli
ɡn
ɡo
ɡra
ɡro
ɡu
ɡwa
ɡwɛ
ɡy
ɡɐ
ɡɑ
ɡɔ
ɡɔa
ɡɔi
ɡə
ɡən
ɡɛ
ɡɛt
ɡɯ
ɡɹi
ɡʁa
ɡʁe
ɡʁi
ɡʁo
ɡʁɑ
ɡʁɛ
ɣa
ɨ
ɪ
ɪd
ɪk
ɪl
ɪn
ɪs
ɪt
ɪŋ
ɫ
ɯ
ɰa
ɱ
ɲ
ɲa
ɲe
ɲi
ɲik
ɲo
ɲɔ
ɲɛ
ɴ
ɵ
ɸɯ
ɹ
ɹi
ɹu
ɹə
ɹɪ
ɾ
ɾa
ɾe
ɾi
ɾo
ɾu
ɾɑ
ɾə
ɾɯ
ʀ
ʁ
ʁa
ʁaʒ
ʁe
ʁi
ʁin
ʁis
ʁiʁ
ʁje
ʁjɛʁ
ʁo
ʁu
ʁy
ʁɑ
ʁɔ
ʁə
ʁən
ʁɛ
ʁɛk
ʁɛs
ʃ
ʃa
ʃaʁ
ʃaʊ
ʃe
ʃi
ʃo
ʃu
ʃœʁ
ʃɑ
ʃɔ
ʃə
ʃən
ʃɛ
ʃɪp
ʈ
ʊ
ʌ
ʌn
ʌp
ʎ
ʎa
ʒ
ʒa
ʒe
ʒi
ʒo
ʒu
ʒuʁ
ʒy
ʒɑ
ʒɔ
ʒə
ʒɛ
ʔ
ʤ
ʥ
ʦ
ʦi
ʧ
ʨ
ʰ
ʲ
ʲˈ
ʳ
ʷ
ʹ
ʺ
ʻ
ʼ
ʾ
ʿ
ˀ
ˁ
ˈ
ˈᵐ
ˈᵑ
ˋ
ˌ
ː
ːˈ
ˑ
ˤ
˥
˦
˧
˨
˩
̀
́
̂
̃
̄
̆
̇
̈
̉
̊
̋
̌
̍
̏
̑
̒
̓
̔
̚
̛
̞
̟
̠
̣
̤
̥
̦
̧
̨
̩
̪
̮
̯
̰
̱
̲
͂
ͅ
͘
͠
͡
α
αι
β
γ
γα
δ
δα
δι
ε
ζω
η
θ
ι
κα
κι
κο
λ
λα
λη
λι
λος
μα
μη
μος
ν
να
νη
νι
νος
νω
ξ
ο
ον
ος
πα
πι
πο
ρ
ρα
ρι
ριο
ρος
ς
τα
της
το
υ
χ
ω
ϩ
а
август
азербаи
аи
алтын
америка
андора
андорра
армия
архитектура
б
ба
баи
баклажан
бала
баш
бокс
бомба
буркина
в
ва
верде
во
г
габон
гана
гвинея
гвинеја
д
да
дания
джан
е
ж
з
за
зия
и
ии
индия
исландия
к
ка
кабо
каи
как
камерун
канада
карта
ке
ко
кофе
ку
л
ла
ле
леоне
лесото
литва
лошадь
лук
м
ма
мадагаскар
маи
малаи
мали
машина
ме
мо
музеи
н
на
не
нигер
ние
нка
нок
нос
нт
о
овца
океан
он
оса
острова
острови
от
п
па
пакистан
панама
пе
планета
по
польша
португалия
пу
р
ра
република
руанда
с
са
сан
се
сеи
сенегал
сент
сингапур
словарь
собака
сто
судан
суринам
т
та
таи
тан
те
ти
тил
тимор
тка
то
ту
ть
ться
у
факс
фасо
х
храм
ц
ць
ч
чаи
ш
шаи
ы
ыр
э
я
ямаи
і
҄
ә
և
ְ
ֲ
ִ
ֵ
ֶ
ַ
ָ
ֹ
ֻ
ּ
ֿ
ׁ
ׂ
א
ב
ג
ד
ה
ו
ז
ח
ט
י
ך
כ
ל
ם
מ
ן
נ
ס
ע
ף
פ
ץ
צ
ק
ר
ש
ת
״
،
؟
ا
اب
ات
اح
اد
ار
ال
الا
ان
ب
ة
ت
ث
ج
ح
خ
د
ذ
ر
ز
س
ش
ص
ض
ط
ظ
ع
غ
ف
ق
ك
ل
م
ن
ه
هند
و
ور
ون
ى
ي
ً
ٌ
ٍ
َ
ُ
ِ
ّ
ْ
ٓ
ٔ
ٕ
ٖ
ٗ
ٚ
ٛ
پ
ڈ
ک
گ
ہ
ی
یا
ے
ܐ
ܒ
ܕ
ܡ
ܲ
ܵ
ހ
ނ
ރ
ބ
ކ
އ
ވ
މ
ފ
ދ
ތ
ލ
ގ
ސ
ޑ
ޓ
ޔ
ޕ
ޖ
ޝ
ަ
ާ
ި
ީ
ު
ޫ
ެ
ޭ
ޮ
ޯ
ް
ँ
ं
ः
अ
अम
आ
आन
इ
ई
उ
उत
ऊ
क
कर
ख
ग
गल
घ
च
छ
ज
झ
ञ
ट
ठ
ड
ढ
ण
त
तर
थ
द
ध
न
प
पर
फ
ब
भ
म
मल
य
र
रत
रव
ल
ळ
व
श
शब
ष
स
सर
ह
़
ा
ि
ी
ु
ू
ृ
ॅ
े
ै
ॉ
ो
ौ
्
ॖ
।
ঁ
ং
অ
ই
ও
ক
খ
গ
ঘ
ঙ
চ
ছ
জ
ট
ড
ণ
ত
থ
দ
ধ
ন
প
ফ
ব
ভ
ম
য
র
ল
শ
ষ
স
হ
়
া
ি
ী
ু
ূ
ৃ
ে
্
ৰ
ৱ
ਂ
ਅ
ਆ
ਉ
ਕ
ਖ
ਗ
ਜ
ਡ
ਤ
ਥ
ਦ
ਨ
ਪ
ਬ
ਭ
ਮ
ਯ
ਰ
ਲ
ਸ
ਹ
਼
ਾ
ਿ
ੀ
ੁ
ੂ
ੇ
ੈ
ੋ
੍
ੜ
ੰ
ੱ
ં
આ
ક
ગ
ઘ
ચ
જ
ટ
ડ
ત
થ
દ
ન
પ
બ
મ
ય
ર
લ
ળ
વ
શ
ષ
સ
હ
ા
િ
ી
ુ
ૂ
ે
ો
્
କ
ଜ
ଡ
ତ
ଦ
ନ
ପ
ବ
ଭ
ର
ସ
ା
ି
ୁ
େ
୍
க
ங
ச
ஜ
ட
ண
த
ந
ன
ப
ம
ய
ர
ற
ல
ள
ழ
வ
ஸ
ா
ி
ீ
ு
ூ
ெ
ே
ை
்
ం
అ
ఇ
క
గ
చ
జ
ట
డ
త
థ
ద
ధ
న
ప
ఫ
బ
మ
య
ర
ల
వ
శ
ష
స
ా
ి
ీ
ు
ూ
ె
ే
ొ
ో
్
ಂ
ಕ
ಗ
ಚ
ಜ
ಟ
ಡ
ಣ
ತ
ಥ
ದ
ನ
ಪ
ಫ
ಬ
ಭ
ಮ
ಯ
ರ
ಲ
ಳ
ವ
ಶ
ಷ
ಸ
ಹ
ಾ
ಿ
ು
ೂ
ೆ
್
ೕ
ം
ക
ഗ
ങ
ച
ഞ
ട
ണ
ത
ദ
ന
പ
ബ
ഭ
മ
യ
ര
റ
ല
ള
വ
ശ
ഷ
സ
ഹ
ാ
ി
ീ
ു
ൂ
െ
േ
ൈ
്
ൗ
ං
ක
ග
ඩ
ත
ද
න
ප
බ
ම
ය
ර
ල
ව
ස
හ
්
ා
ැ
ි
ු
ෙ
ก
ข
ค
ง
จ
ช
ฐ
ด
ต
ถ
ท
น
บ
ป
ประเทศอ
ผ
พ
ฟ
ภ
ม
ย
ร
ล
ว
ศ
ส
สาธารณร
ห
อ
ั
า
ำ
ิ
ี
ึ
ื
ุ
ู
็
่
้
๊
๋
์
ກ
ຂ
ງ
ຈ
ຊ
ຍ
ດ
ຕ
ຖ
ທ
ນ
ບ
ປ
ຜ
ພ
ມ
ລ
ວ
ສ
ຫ
ອ
ັ
າ
ິ
ີ
ຶ
ື
ຸ
ູ
ົ
ຽ
່
້
ໍ
་
།
ཀ
ཁ
ག
ང
ཅ
ཇ
ཌ
ཏ
ཐ
ད
ན
པ
ཕ
བ
མ
ཚ
འ
ཡ
ར
ལ
ཤ
ས
ཧ
ཨ
ཱ
ི
ུ
ེ
ོ
ྒ
ྕ
ྟ
ྡ
ྤ
ྨ
ྱ
ྲ
ླ
ྷ
က
ခ
ဂ
င
စ
ဆ
ည
တ
ထ
ဒ
န
ပ
ဖ
ဘ
မ
ယ
ရ
လ
ဝ
သ
ဟ
အ
ဥ
ါ
ာ
ိ
ီ
ု
ူ
ေ
ဲ
ံ
့
း
္
်
ျ
ြ
ွ
ှ
ၢ
ၵ
ၼ
ႃ
ႆ
ႇ
ႉ
월
이
있다
ᏹ
ᏺ
ក
ខ
គ
ង
ច
ឆ
ជ
ញ
ដ
ឌ
ណ
ត
ថ
ទ
ធ
ន
ប
ផ
ព
ភ
ម
យ
រ
ល
វ
ស
ហ
ឡ
អ
ា
ិ
ី
ឹ
ឺ
ុ
ូ
ួ
ើ
ៀ
េ
ែ
ៃ
ោ
ៅ
ំ
ះ
៉
៊
់
៍
័
្
᠊
᠋
᠍
᠎
ᠠ
ᠡ
ᠢ
ᠣ
ᨛ
ᨦ
ᨶ
᩠
ᩥ
ᩯ
ᵊ
ᵐ
ᵑ
ᵒ
᷅
‌
‍
‐
‑
‒
–
—
―
‘
’
“
”
„
•
…
‪
‬
′
‿
ⁿ
€
℔
→
↔
↷
−
√
∴
③
④
⑦
●
☉
☽
☾
☿
♀
♁
♂
♃
♄
♆
⛢
ⰾ
ⱁ
ⲁ
ⲃ
ⲉ
ⲏ
ⲓ
ⲕ
ⲙ
ⲛ
ⲟ
ⲣ
ⲥ
ⲧ
ⲩ
ⲫ
ⲱ
ⴰ
ⴱ
ⴳ
ⴷ
ⴻ
ⴼ
ⴽ
ⵇ
ⵉ
ⵍ
ⵎ
ⵏ
ⵓ
ⵔ
ⵖ
ⵙ
ⵜ
ⵝ
ⵡ
ⵢ
ⵣ
⺀
⺄
⺆
⺈
⺊
⺌
⺕
⺝
⺸
⺼
⿰
⿱
⿲
⿳
⿴
⿵
⿶
⿷
⿸
⿹
⿺
⿻
。
〢
あ
ぃ
い
う
え
お
か
き
く
け
こ
さ
し
す
せ
そ
た
ち
っ
つ
て
と
な
に
ね
の
は
ひ
ふ
へ
ほ
ま
み
む
め
も
ゃ
や
ゅ
ゆ
ょ
よ
ら
り
る
れ
ろ
わ
を
ん
゙
゚
ァ
ア
ィ
イ
ウ
ェ
エ
オ
カ
キ
ク
ケ
コ
サ
シ
ス
セ
ソ
タ
チ
ッ
ツ
テ
ト
ナ
ニ
ネ
ノ
ハ
ヒ
フ
ヘ
ホ
マ
ミ
ム
メ
モ
ャ
ヤ
ュ
ユ
ョ
ヨ
ラ
リ
ル
レ
ロ
ワ
ン
・
ー
㇁
㇂
㇄
㇇
㇈
㇉
㇓
㐁
㐄
㐅
㐌
㐫
㐬
㐭
㐮
㐱
㑒
㒵
㒸
㒼
㓁
㓞
㔾
㕛
㕣
㖾
㘝
㚅
㚇
㚔
㚘
㝉
㝡
㝴
㝵
㞋
㞢
㞷
㠩
㠭
㠯
㡀
㡭
㡿
㢲
㢴
㣇
㣺
㥯
㪅
㫄
㫐
㫒
㫺
㬅
㬎
㬥
㬰
㲋
㳄
㷠
㸒
㸚
㸦
㼌
㼲
㽞
㿟
䀠
䂞
䍃
䏍
䒑
䖍
䖒
䖝
䖵
䙴
䚻
䜌
䝿
䡛
䧹
䪞
一
丁
丂
七
丄
丅
丆
万
丈
三
上
下
丌
不
与
丏
丐
丑
专
且
丕
世
丘
丙
业
东
丞
丢
丣
两
严
並
丨
丩
个
丫
丬
中
丮
丰
丱
串
丵
丶
丷
丸
丹
为
主
丽
丿
乀
乂
乃
久
乆
乇
么
义
之
乌
乍
乎
乏
乐
乑
乔
乖
乗
乘
乙
乚
乛
乜
九
乞
也
习
乡
书
买
乳
乾
亀
亅
了
亇
予
争
事
二
亍
于
亏
亐
云
互
亓
五
井
亘
亚
亜
亞
亟
亠
亡
亢
交
亥
亦
产
亨
亩
享
京
亭
亮
亯
亰
亲
亳
亶
亷
人
亻
亼
亾
仁
今
介
仌
从
仐
仑
仒
仓
仔
仕
他
付
仝
代
令
以
件
任
份
企
伊
伏
伐
休
会
伯
但
位
住
体
何
佘
余
佛
作
你
佥
併
使
來
侈
例
侌
侏
侖
供
侯
侵
便
俄
保
俞
信
修
倉
倍
候
倠
値
停
健
偷
傘
備
傷
僉
像
僕
儒
儿
兀
允
兂
元
兄
充
兆
兇
先
光
兊
克
兌
免
兎
兑
兒
兓
兔
党
兜
兟
入
內
全
兩
兪
八
公
六
兮
兰
共
关
兵
其
具
典
兹
兼
冀
冂
冃
冄
内
冈
冉
冊
冋
册
再
冎
冏
冐
冒
冓
冖
冗
冘
写
军
农
冝
冠
冡
冥
冫
冬
冰
冷
几
凡
凢
凵
凶
凷
凸
凹
出
函
凾
刀
刁
刂
刃
刄
刅
分
切
刍
刑
划
刕
刖
列
刘
则
初
判
別
利
别
到
制
刺
則
削
剌
前
剖
剡
剧
剪
副
剽
劃
劇
劉
力
功
加
劦
动
助
劫
劳
劵
勃
勇
勉
勒
動
務
勝
勞
勢
勤
勹
勺
勻
勾
勿
匀
匂
包
匆
匈
匊
匋
匍
匕
化
北
匙
匚
匝
匡
匪
匱
匸
匹
区
医
匽
匿
區
十
卂
千
卄
卅
卆
升
午
卉
半
卌
华
卑
卒
卓
協
单
卖
南
博
卜
卝
卞
占
卡
卢
卣
卤
卦
卩
卪
卫
卬
卯
印
危
即
却
卵
卷
卸
卻
厂
厃
厄
厅
历
厈
厉
厌
厓
厕
厘
厚
原
厤
厥
厨
厭
厲
厶
厷
厸
去
厼
厽
叀
参
參
叅
又
叉
及
友
双
反
叐
发
叒
叔
叕
取
受
叚
叜
叟
口
古
句
另
叩
只
召
可
台
叱
史
右
叵
叶
号
司
叹
吂
吃
各
吅
合
吉
吊
吋
同
名
后
吏
吐
向
吕
吗
君
吝
吞
否
含
启
吳
吴
吸
吹
吻
吾
呂
呆
呈
告
员
呙
周
呪
呼
命
咅
和
咎
咒
咖
咠
咢
咨
咸
咼
哀
品
哈
哉
員
哥
哪
哲
唐
唱
商
啇
問
啚
啡
啤
啬
啻
喀
善
喜
喝
喬
單
喿
嗇
嘴
器
噩
嚴
囊
囗
囘
囙
囚
四
回
囟
因
囧
囬
园
困
囱
図
囷
固
国
图
圂
圅
國
圍
園
圓
圖
土
圡
圣
圥
在
圭
地
圶
场
圼
圾
坐
坒
坚
坛
坡
坦
坴
垂
垃
型
垔
垚
垫
埀
埃
埋
城
域
埶
執
基
堂
堅
堆
堇
堯
報
場
塔
塞
墊
墓
墙
墨
壁
壇
壘
士
壬
壯
声
壳
壴
壹
壺
壽
夂
处
夅
夆
备
夊
夋
夌
复
夏
夒
夕
外
夗
夘
多
夜
夢
大
夨
天
太
夫
夬
夭
央
失
夲
头
夷
夸
夹
夻
夾
奂
奄
奇
奈
奉
奎
奏
奐
契
奓
奔
套
奚
奞
奠
奢
奥
奭
女
奴
奶
奻
好
如
妄
妖
妙
妟
妥
妻
妾
姐
姑
委
姜
姨
威
娄
娶
婁
婚
婴
嬰
嬴
子
孑
孔
孕
孖
字
存
孚
孛
孝
孟
季
孤
学
孫
孱
學
宀
宁
宂
它
宅
宇
守
安
宋
完
宏
宓
宗
官
定
宛
宜
宝
客
宣
室
宫
宮
宰
害
家
容
宾
宿
寄
寅
密
富
寒
察
寧
審
寫
寬
寮
寶
寸
对
寺
寻
寽
対
寿
封
尃
射
将
將
專
尉
尊
尋
尌
對
小
少
尒
尓
尔
尖
尗
尚
尞
尢
尣
尤
尧
尨
尭
就
尸
尹
尺
尻
尼
尽
尾
尿
局
层
居
屈
屋
屎
屏
屑
展
屖
屚
属
屠
屡
層
屬
屮
屯
屰
山
屵
屾
岁
岂
岑
岛
岡
岩
岬
岳
岸
峯
島
崇
崑
崔
崖
崙
崩
嵬
嶲
巂
巛
川
州
巟
巠
巢
巣
巤
工
左
巧
巨
巩
巫
差
己
已
巳
巴
巷
巸
巽
巾
巿
帀
市
布
师
希
帚
帛
帝
带
師
席
帶
常
帽
幣
干
平
年
幵
并
幷
幸
幺
幻
幼
幽
幾
广
広
庄
床
底
店
庙
庚
府
度
座
庫
庭
庶
康
庸
廉
廊
廌
廚
廛
廣
廩
廳
廴
延
廷
建
廾
廿
开
弁
弃
弄
弇
弋
式
弓
弔
引
弗
弘
弜
弟
弥
弦
弱
張
強
强
彈
彊
彌
彎
彐
彑
当
彔
录
彖
彗
彡
形
彥
彦
彧
彭
影
彳
役
彼
往
待
律
後
徒
得
徙
從
復
微
徵
德
心
忄
必
忌
忍
志
忝
忠
忩
快
念
忽
忿
怒
思
怠
急
性
怱
恆
恒
恩
恭
息
恶
悉
患
悤
悪
悲
悶
惠
惡
惢
愁
愈
意
愛
感
愿
慈
慧
慮
慰
憂
憤
憲
應
戀
戈
戉
戊
戋
戌
戍
戎
成
我
戒
戔
或
戚
戠
戢
截
戲
戶
户
戸
戹
戼
戾
房
所
扁
扇
手
扌
才
打
托
执
承
技
投
抗
折
护
报
抱
拇
拉
拐
招
拜
拠
拥
拳
拶
拿
持
指
挨
挪
掌
接
推
提
換
摩
摸
播
擂
操
據
擦
支
攴
攵
收
攸
改
放
政
敄
故
敏
救
敕
敖
敗
教
敝
敞
敢
散
敦
敫
敬
数
敷
數
斂
文
斉
斊
斐
斑
斗
料
斤
斥
斩
斬
斯
新
方
於
施
斿
旁
旅
旋
族
旗
无
旡
既
旣
日
旦
旧
旨
早
旬
旱
旲
时
旺
旾
昆
昇
昌
昍
明
昏
易
昔
昗
昜
星
映
春
昧
昬
是
昱
昴
昷
時
晃
晋
晏
普
景
晶
智
暑
暴
曆
曇
曖
曜
曩
曰
曲
曳
更
曷
書
曹
曼
曾
替
最
朁
會
月
有
朋
服
朔
朕
朗
望
朝
期
木
朩
未
末
本
札
朮
术
朱
朵
朶
机
朿
杀
杏
杜
束
条
来
東
杲
杳
松
板
析
林
枚
果
枝
枣
枲
架
枼
某
柑
柔
柚
查
柬
柰
柴
柿
标
树
栗
校
根
格
桀
案
桑
桥
桶
桼
梁
梅
條
梟
梨
梯
棉
棒
棕
棗
棘
棚
棠
棥
森
植
椒
椰
楚
業
楼
楽
榮
榴
槍
樂
樊
樹
橋
橙
機
檎
檬
欠
次
欢
欣
欧
欮
欲
欶
欽
款
歆
歇
歌
歛
歡
止
正
此
步
武
歨
歩
歪
歮
歯
歰
歲
歴
歷
歸
歹
歺
死
殖
殳
段
殷
殸
殹
殺
殻
殿
毋
毌
母
每
毒
比
毕
毚
毛
毳
氏
氐
民
气
気
氣
水
氵
氶
氷
永
氺
氾
求
汝
汞
江
池
汤
汶
汽
沃
沓
沙
沝
没
河
油
治
泉
法
泡
波
泣
泥
泰
洋
洗
洛
洞
洪
洲
活
派
流
济
浦
浪
浮
浴
海
涙
液
淋
淡
淮
清
渚
減
渠
港
渴
湖
湯
源
滑
滿
漁
漸
澳
濟
濯
瀑
灌
火
灬
灭
灯
灰
灵
灷
災
灾
炅
炉
炎
炏
炗
炙
炭
炮
点
為
烈
烏
烝
烟
烤
焉
無
焦
焱
然
煙
煞
煤
照
熊
熏
燕
營
燭
燮
爪
爫
爭
爯
爰
爱
爲
爵
父
爷
爺
爻
爽
爾
爿
片
牌
牙
牚
牛
牜
牟
牡
牢
牧
物
牪
特
牽
犀
犬
犭
犮
狂
狄
狊
狐
狗
独
狮
狸
狺
狼
猋
猎
猒
猟
猩
猪
猫
献
猴
獅
獵
獻
玄
率
玉
王
玟
玨
玩
玻
珎
珠
班
球
理
琴
瑟
瑩
瓜
瓢
瓦
瓶
甘
甚
生
産
用
甫
甬
田
由
甲
申
甴
电
甶
男
甸
甹
画
甾
畀
界
畏
畐
留
畜
畟
畢
略
畧
畨
番
畫
異
畱
當
畺
畾
疊
疋
疌
疑
疒
疤
疥
疫
疾
病
症
痕
痛
癶
癸
癹
登
發
白
百
皀
皂
皃
的
皆
皇
皋
皐
皕
皮
皷
皿
盃
盆
盇
盈
益
盍
盎
监
盒
盖
盗
盘
盛
盡
監
盤
盧
目
盲
直
相
盾
省
眇
眉
看
眔
眞
真
眷
眼
眾
着
睘
督
睪
睾
睿
瞏
瞢
瞳
瞿
矍
矛
矞
矢
矣
知
矦
短
石
砂
砲
破
碎
碑
碗
碰
磁
磊
磨
示
礻
礼
社
祖
神
祟
票
祭
禀
禁
福
禮
禸
禹
禺
离
禽
禾
禿
秀
秃
秉
秋
科
秘
秝
租
秦
移
税
稟
稻
穀
穌
穫
穴
究
穹
空
穿
突
窃
窄
窒
窗
窝
竊
立
竒
站
竜
竝
竟
章
童
竹
笑
笔
笛
笠
符
第
筆
等
筑
筒
答
箕
算
管
箱
箴
節
築
篤
篭
籠
米
类
粉
粛
粟
粤
粦
粲
精
糕
糖
糞
糸
糹
系
約
紅
納
紙
素
索
紫
累
細
終
組
経
結
絜
絫
絲
綁
經
維
網
綿
線
縣
總
繇
纍
纟
纳
纸
线
经
绑
维
绵
绿
缶
网
罒
罔
罕
罗
罙
罡
罢
罪
置
署
罷
羅
羊
羌
羍
美
羔
羕
羗
羞
羡
羣
群
義
羲
羸
羽
翁
翅
翏
習
翔
翕
翟
翠
翼
老
耂
考
者
耆
而
耎
耑
耒
耳
耴
耶
耷
聂
聊
聖
聚
聯
聶
聿
肀
肃
肅
肉
肖
肘
肙
肚
肝
肠
股
肥
肩
肯
育
肴
肾
胃
背
胎
胞
胡
胥
胱
胸
能
脊
脏
脑
脚
脩
脾
腎
腕
腦
腰
腳
腸
腹
腿
膀
膚
膜
膝
膣
臓
臟
臣
臤
臧
自
臬
臭
臯
臱
至
致
臺
臼
臽
臾
臿
舀
舂
舄
與
興
舉
舌
舍
舐
舛
舜
舞
舟
般
艮
良
色
艸
艹
艺
艾
芋
芒
芔
芬
芮
花
芳
芸
芺
芻
苏
苔
苗
苟
若
苦
英
苹
茄
茎
茶
茸
荅
草
荒
荣
药
荼
莆
莖
莧
莫
莱
莽
菆
菊
菌
菐
菜
菠
華
菲
萄
萝
营
萬
落
葉
著
葛
葡
董
葱
葵
蒂
蒙
蒜
蒦
蒼
蓋
蓬
蓺
蔑
蔡
蕉
蕭
薄
薇
薑
薔
薛
薦
薬
薰
藍
藏
藝
藥
蘇
蘋
蘭
蘿
虍
虎
虐
虒
虔
處
虖
虗
虘
虚
虛
虜
虞
虫
虽
蚁
蚂
蚊
蚤
蚩
蛇
蛋
蛙
蜀
蜂
蜜
蝇
蝈
蝉
蝗
蝴
蝶
蝾
蝿
螈
螺
蟲
蟻
蠍
蠡
血
衆
行
衍
術
衛
衣
衤
表
衮
衰
袁
袋
袞
被
裁
裡
裤
製
褭
褱
褲
襄
襟
襾
西
覀
要
覃
見
規
覓
視
覧
親
覽
见
视
角
解
触
觸
言
訁
訇
計
記
設
証
詞
試
話
詹
誘
語
誩
読
論
諸
謝
證
警
議
護
讠
计
记
论
词
试
话
语
谷
豆
豈
豊
豐
豕
豖
豙
象
豦
豩
豪
豸
豹
貇
貝
貞
貟
負
財
貢
貧
貨
貪
貫
責
貳
貴
買
貸
費
賁
資
賈
賏
賓
賔
賛
賞
賢
賣
質
賴
贊
贝
贡
财
责
质
贪
贯
贲
贵
资
赖
赞
赤
赦
走
起
越
趨
足
趾
路
跳
踊
踏
踝
蹇
身
躬
車
軍
軎
軟
転
軸
輝
輦
輪
轉
车
轮
辛
辜
辞
辟
辥
辰
辱
農
辵
辶
边
达
过
迎
运
近
这
连
迦
迷
追
退
送
逆
逐
通
速
造
逢
連
逮
週
進
遀
遂
運
過
道
達
遣
適
遷
遺
避
邊
邑
邕
那
邦
邪
邮
郎
部
郭
郵
都
鄉
酉
酋
配
酒
酓
酢
酸
醋
醫
釆
采
里
重
野
量
金
釒
釘
針
鉛
鉢
銀
銃
銅
錠
錢
錨
鍋
鍵
鎖
鏈
鏡
鐘
鐵
钅
针
钉
钟
钱
铅
铜
银
链
锁
键
镜
長
镸
长
門
閃
閉
開
閏
閑
閒
間
閔
閵
閻
闌
门
间
闷
阑
阜
阝
阳
阴
阿
降
院
陪
陰
陳
陶
陸
陽
隆
隊
隋
階
障
隡
隨
隱
隶
隹
隺
隻
隼
隽
难
雀
雁
集
雈
雋
雌
雍
雐
雔
雙
雚
雜
雝
雞
離
難
雨
雩
雪
雲
零
雷
電
需
霍
霜
霝
霞
霸
靈
靑
青
非
靡
面
靣
革
靴
鞭
韋
韓
韦
韭
韯
韱
音
頁
頃
項
須
頗
領
頡
頭
頻
願
顛
類
页
顶
颈
風
风
飛
飞
食
飠
飮
飯
飲
餅
養
餐
館
饣
饭
饮
饼
馆
首
香
馬
馮
駅
駝
駦
駱
験
驗
驛
驢
马
驼
骨
高
髟
髪
髮
鬍
鬥
鬯
鬲
鬼
魔
魚
魯
鮮
鰐
鱼
鲁
鳥
鳩
鳳
鴉
鴨
鵡
鶏
鷹
鸚
鸟
鸠
鸡
鸭
鸽
鹰
鹵
鹿
麃
麒
麗
麟
麥
麦
麵
麻
黃
黄
黍
黎
黑
黒
黨
黹
黽
黾
鼎
鼓
鼠
鼻
齊
齋
齐
齒
齿
龍
龙
龜
龟
龠
龰
龱
龴
龵
龶
龷
龸
龹
ꙁ
ꙗ
ꞌ
ꠀ
ꠂ
ꠛ
ꠣ
ꦠ
ꦶ
ꦸ
꧀
ꭰ
ꭲ
ꭴ
ꭶ
ꭷ
ꭸ
ꭹ
ꭺ
ꭼ
ꭽ
ꭿ
ꮂ
ꮃ
ꮄ
ꮅ
ꮆ
ꮇ
ꮈ
ꮉ
ꮊ
ꮎ
ꮑ
ꮒ
ꮕ
ꮖ
ꮗ
ꮙ
ꮜ
ꮝ
ꮟ
ꮢ
ꮣ
ꮥ
ꮧ
ꮩ
ꮪ
ꮫ
ꮲ
ꮳ
ꮵ
ꮸ
ꮹ
ꮺ
ꮼ
ꮿ
者
艹
ﬁ
ﬅ
﻿
（
）
，
：
？
𐌀
𐌄
𐌋
𐌰
𐌱
𐌲
𐌳
𐌴
𐌶
𐌷
𐌸
𐌹
𐌺
𐌻
𐌼
𐌽
𐌾
𐌿
𐍀
𐍂
𐍃
𐍄
𐍅
𐍆
𐍈
𐍉
𐎌
𐎔
𐎗
𐎘
𐔰
𑂢
𑂰
𑜢
𑜫
𒀀
𒅖
𒌨
𓂋
𓂾
𓄿
𓇋
𓊨
𓊪
𓌳
𓏏
𓏤
𞤢
𞤤
𞤧
𞤪
𞤭
𞥅
🜨
𠀁
𠀃
𠀆
𠀉
𠀎
𠀐
𠁁
𠁣
𠂆
𠂇
𠂈
𠂉
𠂊
𠂋
𠂎
𠂒
𠂔
𠂛
𠂡
𠂢
𠂤
𠂬
𠂭
𠂹
𠃊
𠃋
𠃌
𠃍
𠃎
𠃑
𠃓
𠃔
𠃜
𠄌
𠄎
𠄠
𠄢
𠆢
𠆥
𠇍
𠈌
𠌵
𠓜
𠔉
𠔥
𠔼
𠔽
𠔿
𠕀
𠕁
𠕋
𠘧
𠘨
𠙻
𠙼
𠚏
𠚒
𠚤
𠚪
𠣏
𠤎
𠤕
𠥓
𠦄
𠦑
𠦝
𠧒
𠧗
𠧪
𠩺
𠪚
𠫓
𠫔
𠫤
𠬛
𠬝
𠬞
𠬢
𠬤
𠬶
𠮛
𠮦
𠮷
𠯑
𠱠
𠳮
𠷎
𡈼
𡉀
𡉵
𡌥
𡍮
𡏳
𡕒
𡕩
𡕰
𡖅
𡗗
𡗜
𡘆
𡘤
𡧱
𡨄
𡩧
𡬠
𡭽
𡰣
𡰥
𡰪
𡰯
𡰱
𡳞
𡷈
𡸁
𡿨
𡿩
𡿪
𡿺
𢀖
𢀛
𢀩
𢁙
𢆉
𢆰
𢆶
𢇁
𢇇
𢉖
𢌬
𢌿
𢏚
𢑑
𢑚
𢖻
𢙣
𢛳
𢦏
𢦒
𢧵
𢼄
𢾕
𣁋
𣄼
𣅀
𣅽
𣍘
𣎳
𣎵
𣏋
𣏼
𣗥
𣥂
𣥖
𣦵
𣦼
𣧄
𣪊
𣪠
𣬉
𣳾
𣶒
𤇾
𤊽
𤐫
𤓰
𤔔
𤕨
𤣩
𤰇
𤰔
𤰞
𤴓
𤴔
𤽄
𥁑
𥁕
𥃦
𥃩
𥃭
𥇡
𥑟
𥘅
𥘈
𥝢
𥫗
𥱡
𦈢
𦉪
𦉬
𦉼
𦍌
𦍒
𦎧
𦐇
𦓔
𦔮
𦘒
𦙃
𦚏
𦣝
𦣞
𦣻
𦥑
𦥔
𦥯
𦨉
𦭝
𦰩
𧆞
𧈧
𧘇
𧰨
𧴪
𧴮
𧵩
𧾷
𨸏
𨾴
𩙿
𩠐
𩫏
𩵋
𪉷
𪜀
𪟽
𪠲
𪩲
𫇦
𫔭
𫜸
𫝀
𫠣
𫠩
𫢉
𫥞
𫩏
𫩠
𫪡
𫲽
𫶧
𬀷
𬐘
𬗌
𬙙
𬛸
𬜯
𬟩
𬯁
𬴘
𬺻
𬼉
𬼖
𭀰
𭁈
𭁨
𭅰
𭑈
𭕄
𭗼
𭤨
𭥫
𭻾
𮅕
𮊿
𮍌
𮍏
𮓗
𮥼
𮧮
廾
𰀁
𰀄
𰀈
𰀉
𰀕
𰀠
𰀡
𰀢
𰀪
𰁜
𰃮
𰆊
𰆘
𰋙
𰕎
𰢴
𰧭
𰯲
0--
a--
aa--
ab--
aba--
abais--
abat--
abbre--
abd--
abdica--
abi--
abo--
aboie--
abomina--
abreu--
abri--
ac--
acce--
accou--
accumul--
accus--
ace--
ache--
acqui--
acro--
actin--
activ--
ad--
adapt--
adi--
adjec--
adjek--
admini--
admir--
admone--
ado--
adoucis--
adu--
ae--
aero--
aethio--
af--
affa--
affai--
affais--
affe--
affo--
ag--
aga--
age--
agi--
ago--
agran--
agu--
ah--
ahu--
ai--
aig--
air--
ais--
aj--
ajus--
ak--
aka--
ako--
al--
ala--
ale--
algo--
ali--
alo--
alour--
alpin--
alt--
alu--
am--
ama--
ambas--
ambul--
ambulan--
ame--
ami--
amo--
amollis--
amon--
amor--
amphi--
amu--
an--
ana--
analo--
and--
ane--
ang--
ange--
angu--
ani--
anna--
ano--
ans--
ant--
anthro--
anti--
antibio--
any--
ao--
ap--
apa--
ape--
api--
apo--
apolo--
apostro--
appa--
appe--
applau--
applica--
appri--
appro--
approxi--
appu--
aq--
aqu--
aque--
ar--
ara--
arbit--
arbo--
arbris--
arc--
arg--
ari--
arit--
arkitek--
arm--
armur--
arn--
aro--
arpen--
arque--
arqui--
arre--
arro--
ars--
art--
as--
asa--
asce--
aser--
asi--
asper--
asphy--
aspi--
ass--
assais--
assig--
assourdis--
assu--
assur--
ast--
at--
ata--
ato--
atta--
attac--
atte--
atu--
au--
auf--
aug--
aus--
aut--
auto--
auxili--
auß--
av--
ava--
ave--
avia--
avois--
avu--
aw--
awa--
ay--
az--
azer--
b--
ba--
bab--
bac--
bad--
badigeo--
bag--
bai--
baign--
bak--
bal--
balbutie--
bali--
ban--
banc--
bank--
bar--
bas--
bat--
bau--
bava--
bave--
bay--
be--
beau--
beaujo--
bec--
bed--
beg--
begin--
bei--
bel--
bell--
ben--
ber--
bert--
bes--
beu--
beug--
bi--
bic--
bie--
bien--
bifur--
big--
bil--
bin--
bio--
bir--
bis--
bit--
biz--
bl--
bla--
blan--
ble--
bli--
bloui--
blu--
bo--
bob--
boi--
bois--
bok--
boka--
boko--
bol--
bom--
bon--
bondis--
bor--
bos--
bosa--
bot--
bou--
boud--
bouff--
bour--
bouti--
boyco--
bra--
brac--
bracon--
bran--
brancar--
branl--
bre--
bri--
bris--
bro--
bru--
bruis--
bu--
bub--
buc--
bul--
bun--
bur--
bus--
but--
by--
bɔ--
bɛ--
c--
ca--
cac--
cadu--
cafou--
cai--
cajo--
cal--
cambri--
camou--
can--
caniv--
canni--
cap--
capuc--
caque--
car--
carbon--
carbur--
cas--
casa--
cat--
catap--
cau--
cay--
ce--
cele--
cell--
cellul--
cente--
centra--
cer--
cere--
ces--
ch--
cha--
chan--
char--
charis--
charle--
che--
cher--
chi--
chiff--
chis--
chlo--
chlorophy--
cho--
chou--
chr--
chrys--
chu--
chucho--
chuk--
ci--
cic--
cim--
cing--
cipro--
cir--
circul--
cis--
cit--
cive--
ck--
cla--
clau--
cle--
cli--
clo--
co--
coc--
cockt--
cogn--
col--
coll--
colos--
com--
commo--
comparti--
compt--
comptabi--
con--
conc--
concili--
concupis--
concur--
condu--
configur--
cons--
consul--
contra--
cop--
coqui--
cor--
cordia--
corpor--
cou--
cour--
cow--
cr--
cra--
craig--
cre--
cri--
crimina--
cro--
crou--
cru--
cruci--
cu--
cul--
culpa--
cum--
cup--
cur--
cus--
cut--
cy--
cyber--
cyc--
cylin--
d--
da--
dago--
dal--
dala--
dam--
dan--
dar--
dau--
day--
de--
dece--
del--
dela--
dem--
den--
der--
des--
despot--
dev--
di--
dia--
dic--
die--
diff--
dig--
dil--
din--
dio--
dir--
dis--
disco--
discor--
dislo--
dit--
divertis--
dja--
dje--
dji--
do--
dog--
dom--
don--
dor--
dos--
dot--
dou--
dr--
dra--
dro--
dru--
du--
duc--
dul--
dun--
dupli--
dur--
dut--
dv--
dy--
dynas--
dz--
dzie--
dɛ--
dɥ--
dɹ--
dʁ--
dʑ--
dʒ--
e--
ea--
ec--
eco--
ed--
ee--
eff--
effec--
effon--
eg--
eh--
ei--
eig--
ein--
ek--
eku--
ekva--
el--
ela--
ele--
elec--
electri--
elek--
elektri--
elett--
elo--
em--
emp--
emplis--
en--
enc--
encom--
end--
endom--
enfla--
engl--
enlai--
ennuye--
enric--
ens--
ent--
enthousi--
entom--
entr--
entre--
entwi--
equa--
er--
es--
esc--
esca--
escar--
escul--
esqui--
est--
estima--
estiv--
estu--
et--
eta--
eth--
eu--
eus--
every--
ex--
exc--
excent--
excit--
exe--
exem--
exhi--
exo--
exor--
expe--
expli--
explo--
expul--
extrava--
ey--
f--
fa--
fabri--
fac--
fahr--
fai--
fal--
familia--
fan--
far--
fas--
fasci--
fat--
faul--
fe--
feig--
fer--
feu--
ff--
fi--
fia--
fie--
fig--
figur--
fil--
filip--
fin--
fis--
fix--
fj--
fla--
flat--
fle--
flexi--
fli--
flo--
flot--
flu--
fo--
fol--
for--
forte--
fortifica--
foss--
fou--
fra--
frag--
frau--
fre--
fri--
fric--
fro--
fru--
fruc--
ft--
fu--
fugi--
funam--
fur--
fus--
fut--
fuß--
fɹ--
g--
ga--
gab--
gad--
gag--
gai--
gal--
gang--
gar--
gas--
gasol--
gat--
gau--
gaz--
gba--
gbe--
ge--
gel--
gemein--
gen--
gene--
geo--
geolo--
ger--
ges--
gesch--
get--
gi--
gia--
gio--
gis--
gl--
gla--
gle--
gli--
globu--
glu--
gn--
go--
gocia--
goi--
gonf--
gonze--
goose--
gou--
gourm--
gouver--
govern--
goya--
gra--
gramma--
grand--
grati--
gre--
grenl--
gri--
grin--
gro--
groui--
gru--
gu--
gua--
gue--
gui--
gut--
gwe--
gwi--
gy--
gynan--
gyptie--
h--
ha--
han--
hand--
happ--
har--
has--
hat--
hau--
haus--
hay--
he--
hel--
hen--
her--
heur--
hi--
hibis--
hil--
hin--
his--
hit--
hl--
ho--
hol--
hon--
hor--
hospi--
hou--
hr--
ht--
hu--
hugue--
humil--
hur--
hus--
hy--
hydraul--
hydro--
hyper--
i--
ia--
ib--
id--
ide--
identi--
ie--
if--
ig--
ignor--
ik--
il--
ili--
ill--
im--
ima--
imagin--
imme--
immi--
immobi--
imp--
impo--
impru--
impui--
in--
ina--
inc--
ince--
inces--
incom--
incon--
incu--
indi--
indo--
indulg--
inex--
inh--
inhabi--
ini--
inju--
ins--
insist--
insol--
insou--
instal--
inter--
interro--
introdu--
intui--
inval--
invec--
invent--
io--
ip--
ir--
iron--
irri--
irvin--
is--
ist--
it--
ita--
iu--
iv--
iz--
j--
ja--
jac--
jahr--
jalou--
jam--
jan--
jang--
japp--
jar--
jas--
je--
jer--
ji--
jo--
joig--
jon--
jos--
jou--
joui--
ju--
juri--
jus--
justifica--
k--
ka--
kab--
kai--
kaka--
kal--
kan--
kap--
kar--
kas--
kat--
kate--
kauf--
ke--
ken--
ker--
kh--
kha--
ki--
kie--
kir--
kis--
kl--
kla--
kle--
kli--
klu--
kn--
ko--
koba--
kok--
koka--
kol--
koli--
kom--
komer--
kon--
kor--
kpa--
kra--
kre--
kri--
kro--
ks--
ku--
kum--
kun--
kv--
ky--
kɔ--
kɛ--
kɹ--
kʁ--
l--
la--
labou--
lac--
lad--
lag--
lai--
lam--
lan--
lar--
las--
last--
lat--
lau--
le--
lec--
leg--
lei--
len--
leo--
les--
letz--
leu--
lev--
lg--
li--
lia--
lie--
lill--
lim--
lin--
lis--
lisa--
lit--
liv--
ll--
lo--
los--
lot--
lou--
ls--
lt--
lu--
luc--
luis--
lus--
lut--
ly--
lympha--
læ--
lɛ--
m--
ma--
mac--
mad--
madaga--
mag--
magni--
mah--
mai--
main--
mal--
mala--
man--
mani--
mar--
mari--
mas--
mat--
matur--
mau--
maur--
maureta--
may--
maza--
mba--
mbi--
mbo--
me--
mea--
mec--
med--
medica--
mel--
mem--
men--
mer--
merce--
mes--
mesur--
met--
mexi--
mf--
mh--
mi--
mic--
micro--
mid--
mie--
mik--
mil--
min--
mina--
mini--
mio--
mir--
miracul--
mis--
miss--
mit--
ml--
mo--
mobi--
moc--
modifi--
moi--
moli--
mollus--
mon--
mond--
mont--
moque--
mor--
mord--
mos--
mot--
moto--
mou--
mousque--
mp--
ms--
mt--
mu--
mul--
mult--
multip--
mun--
muque--
mur--
mus--
mut--
mutil--
mvu--
mwa--
my--
myris--
mysti--
mystifi--
mytho--
mɓ--
mʌ--
n--
na--
nai--
nal--
nap--
nar--
nas--
nat--
natur--
naut--
navi--
nci--
nd--
nda--
ndi--
ndo--
ne--
ner--
neu--
neut--
ng--
nge--
ngo--
nh--
ni--
nico--
nie--
nig--
nil--
nin--
nis--
nit--
nl--
no--
nom--
non--
nor--
nos--
not--
nou--
nov--
noz--
ns--
nt--
nu--
num--
nut--
ny--
nym--
nza--
nze--
nɔ--
nɥ--
o--
ob--
obli--
oc--
occup--
ocul--
od--
odie--
oeu--
of--
off--
offici--
og--
oh--
oi--
ok--
ol--
olig--
olog--
oly--
om--
omni--
on--
oni--
ont--
opa--
ope--
opp--
oppor--
opul--
or--
ora--
ore--
orif--
oro--
os--
osci--
ot--
ou--
our--
out--
ova--
over--
p--
pa--
pachy--
pad--
pal--
pala--
pample--
pan--
pand--
pano--
pap--
paqui--
par--
para--
paraly--
pas--
pat--
patho--
pau--
paw--
pay--
pe--
pec--
peig--
pell--
pen--
per--
perd--
perru--
pes--
pet--
peu--
pfe--
ph--
pha--
pharmac--
phi--
pho--
phosp--
photo--
phy--
physio--
phyto--
pi--
pia--
pic--
pie--
pig--
pil--
pin--
pis--
pit--
pla--
plai--
pleu--
pleur--
pleurni--
pli--
plo--
plu--
pneu--
po--
poc--
pod--
poig--
poit--
pol--
poli--
poly--
pompi--
pon--
pont--
pop--
popul--
por--
pot--
pou--
poul--
pour--
pow--
pr--
pra--
prati--
pre--
pres--
pri--
pro--
proc--
procu--
produ--
produc--
prohi--
projec--
propaga--
prosc--
provin--
provo--
pru--
ps--
psa--
psy--
psychiat--
psycho--
pt--
pu--
publi--
pugn--
puis--
pul--
pur--
pus--
py--
pɔ--
pɹ--
q--
qa--
qu--
qua--
quater--
que--
qui--
quin--
r--
ra--
rab--
rac--
raccom--
raccro--
rachit--
radi--
radio--
raff--
raffer--
rai--
rajo--
ral--
ram--
rame--
ramol--
rap--
ras--
rassa--
rat--
ravis--
ravit--
ray--
rd--
re--
rec--
rece--
recom--
recon--
recou--
red--
rede--
redou--
redouble--
reg--
rejoig--
reli--
rembour--
remu--
ren--
renou--
rent--
repre--
repro--
rept--
requi--
res--
respi--
responsabi--
respu--
ressa--
rest--
ret--
rete--
retenti--
reticul--
rey--
rha--
ri--
ria--
rib--
ric--
rie--
rig--
rigo--
rigou--
ril--
rin--
rio--
ris--
rit--
rm--
rn--
ro--
roc--
rom--
ron--
ronfle--
ros--
rot--
rou--
rs--
rt--
ru--
ruissel--
rum--
run--
rus--
ry--
ryth--
s--
sa--
sab--
sac--
sad--
sai--
sal--
sam--
san--
sanc--
sang--
sap--
sar--
sat--
satis--
sau--
sava--
savi--
savou--
sc--
scand--
scar--
sch--
schi--
schl--
schle--
schne--
schr--
schrei--
schwe--
scintil--
scis--
sco--
scul--
se--
sec--
secou--
sei--
sel--
semi--
sen--
ser--
ses--
set--
setem--
sex--
sey--
sh--
sha--
she--
sher--
shi--
sho--
si--
sia--
sic--
sie--
sig--
sign--
significa--
sil--
sim--
simul--
sin--
sir--
sis--
sisti--
sit--
sje--
sk--
sl--
slo--
sm--
smart--
sn--
snu--
so--
sol--
sollici--
some--
son--
sophi--
sor--
sos--
sou--
souff--
sourn--
sous--
sp--
spa--
spe--
spectacul--
spi--
splen--
spo--
spu--
sq--
squ--
sr--
ss--
st--
sta--
ste--
sti--
sto--
stro--
stu--
sty--
su--
sua--
sub--
suc--
sui--
sul--
sun--
sup--
super--
sur--
sura--
surgis--
surveil--
sus--
sv--
sw--
sy--
syl--
syndi--
sz--
sɛ--
sɥ--
t--
ta--
tab--
tabol--
tac--
taff--
tai--
tail--
taj--
tak--
tal--
tam--
tan--
tap--
tar--
tas--
tat--
tatou--
tau--
tay--
te--
tea--
teau--
tec--
tem--
tempo--
ten--
ter--
terri--
terro--
tes--
test--
tet--
tex--
th--
the--
thi--
tho--
thy--
ti--
tie--
til--
tim--
tin--
tira--
tis--
tit--
titul--
tl--
tn--
to--
toh--
toi--
ton--
top--
tor--
tort--
tou--
touff--
tour--
tourist--
tra--
trac--
trahis--
trans--
transac--
trauma--
tre--
trem--
tres--
tri--
tribu--
trin--
triom--
trium--
tro--
trou--
tru--
ts--
tt--
tu--
tuber--
tui--
tuli--
tun--
tur--
ty--
tɔ--
tɥ--
tɹ--
tʃ--
u--
uc--
uk--
ul--
um--
un--
under--
uni--
unis--
unter--
up--
ur--
us--
usu--
usur--
ut--
utili--
v--
va--
vacu--
val--
van--
var--
vas--
vau--
ve--
vec--
veget--
vehi--
veil--
ven--
vend--
vent--
ventil--
ver--
vers--
ves--
veui--
vi--
via--
viend--
vigou--
vil--
vin--
viol--
vir--
virul--
vis--
vit--
vo--
voca--
vol--
vola--
volu--
volum--
vom--
vomis--
vor--
vou--
vraisem--
vre--
vro--
vu--
vul--
vulg--
vulgari--
w--
wa--
wach--
wahr--
wal--
war--
was--
we--
wel--
whe--
wi--
wie--
win--
wir--
wit--
wo--
wor--
wu--
x--
xa--
xe--
xi--
xx--
y--
ya--
ye--
yi--
yn--
yo--
yu--
z--
za--
ze--
zer--
zi--
zie--
zig--
zn--
zo--
zu--
zuc--
zy--
³--
ß--
æ--
ð--
ø--
ı--
ł--
ŋ--
œ--
ſ--
ǀ--
ǃ--
ɐ--
ɑ--
ɒ--
ɔ--
ɕ--
ə--
ɛ--
ɡ--
ɪ--
ɫ--
ɲ--
ɵ--
ɹ--
ɾ--
ʀ--
ʁ--
ʂ--
ʃ--
ʊ--
ʌ--
ʎ--
ʒ--
ʔ--
ʤ--
ʦ--
α--
β--
γ--
δ--
ε--
θ--
κ--
κα--
κρ--
λ--
μ--
ν--
ο--
π--
πα--
πρ--
ρ--
σ--
τ--
φ--
χ--
а--
ав--
авто--
ал--
ан--
ана--
ар--
б--
ба--
бар--
бе--
би--
бо--
бол--
бос--
бр--
бу--
бур--
в--
ве--
ви--
г--
га--
гер--
го--
гр--
гре--
гу--
д--
де--
дж--
ди--
до--
е--
еги--
ж--
жа--
жи--
з--
за--
здо--
зе--
и--
ин--
ис--
ию--
к--
ка--
кар--
ки--
кл--
ко--
ком--
кос--
кош--
кр--
кро--
ку--
къ--
кы--
кү--
кө--
л--
ле--
ли--
м--
ма--
маро--
мо--
му--
н--
но--
нц--
о--
ор--
п--
па--
пас--
пе--
пи--
по--
пор--
пр--
при--
р--
ре--
ри--
ру--
ры--
с--
са--
све--
се--
ск--
сл--
со--
ст--
ста--
су--
т--
та--
те--
то--
тр--
тю--
тү--
у--
ф--
х--
хорва--
ху--
ц--
ч--
ча--
че--
чи--
чы--
ш--
ы--
э--
эк--
эр--
я--
яз--
қо--
ү--
א--
ב--
י--
ל--
נ--
ס--
ק--
ا--
اند--
ب--
ت--
ج--
ح--
خ--
د--
ر--
رو--
زب--
س--
سل--
ش--
ص--
ط--
ع--
ف--
ق--
ك--
ل--
م--
مت--
مر--
ن--
ند--
و--
ي--
پ--
ک--
گ--
अ--
आ--
इ--
ई--
ए--
क--
ग--
ज--
त--
द--
न--
प--
ब--
म--
य--
र--
ल--
व--
श--
ष--
स--
ह--
আ--
ই--
দ--
ম--
র--
அ--
க--
த--
ப--
ம--
ய--
ர--
പ--
ก--
น--
ประเ--
ประเท--
ประเทศ--
ย--
ส--
อ--
า--
เ--
ག--
အ--
រ--
--0
--1
--2
--3
--4
--5
--6
--7
--8
--9
--a
--aa
--abile
--able
--ac
--ace
--aceae
--ach
--acia
--acio
--ad
--ade
--ades
--ado
--ador
--ae
--ag
--age
--ages
--ah
--ai
--aient
--ain
--ains
--aire
--aires
--ais
--aison
--ait
--aj
--ak
--al
--ala
--ale
--ales
--alis
--alite
--am
--an
--ana
--anc
--ance
--and
--ands
--ane
--anes
--ano
--ans
--ant
--ante
--ants
--anza
--ap
--aque
--ar
--ard
--arde
--are
--ari
--ary
--as
--at
--ata
--ate
--ath
--ation
--au
--aud
--ault
--aux
--ay
--az
--b
--ba
--bb
--be
--ben
--ber
--berg
--bet
--bi
--bio
--blait
--ble
--blement
--bles
--bo
--bor
--bre
--brechen
--bri
--bt
--bu
--by
--c
--ca
--cable
--cade
--cado
--car
--cation
--cations
--cca
--ce
--ceae
--ceau
--cele
--cer
--ces
--cey
--ch
--cha
--che
--chen
--cht
--ci
--cia
--cie
--ciens
--cient
--cier
--cina
--cio
--cir
--cit
--ck
--cke
--ckly
--co
--cot
--cq
--cription
--cs
--ct
--cte
--cu
--cum
--cy
--d
--da
--daceae
--dad
--dage
--dan
--day
--de
--den
--dent
--der
--des
--det
--di
--dia
--die
--din
--dit
--dle
--dni
--do
--dom
--don
--dor
--dou
--douin
--dow
--dra
--dre
--ds
--du
--dung
--dy
--dz
--dʒ
--e
--ea
--eau
--eb
--eba
--ec
--ed
--ee
--ef
--eg
--ega
--ei
--ejo
--ek
--ekt
--el
--ella
--elle
--eln
--elt
--em
--eme
--ement
--en
--end
--ene
--enheit
--ens
--ensis
--ent
--enza
--eon
--ep
--er
--era
--eren
--erie
--ern
--ero
--ers
--ert
--es
--ese
--esques
--ess
--est
--et
--ete
--eto
--ets
--ette
--ettes
--eur
--eurs
--euse
--euses
--eux
--ey
--ez
--f
--fa
--fahrer
--fe
--fen
--ff
--ffa
--ffe
--fi
--fication
--fie
--fly
--fo
--fort
--fs
--ft
--fu
--ful
--g
--ga
--gar
--gba
--ge
--gen
--ger
--ges
--gg
--gh
--ghe
--ght
--gi
--gie
--git
--gna
--gnard
--gne
--gnon
--gny
--go
--gon
--gre
--gs
--gt
--gu
--gue
--gy
--gɔ
--gɛ
--h
--ha
--hage
--hais
--ham
--hant
--he
--heit
--hel
--her
--hes
--hi
--hia
--hion
--hique
--hl
--hm
--hme
--hn
--ho
--hol
--hon
--hroom
--hs
--ht
--hte
--hter
--hus
--hy
--i
--ia
--iaceae
--iait
--ial
--iale
--ian
--ias
--ibilite
--ible
--ic
--ica
--ical
--icaux
--ice
--ices
--iche
--icien
--ick
--ico
--ics
--icule
--icules
--id
--idad
--ide
--ides
--idung
--ie
--iel
--ielle
--ien
--iens
--iensis
--ient
--ier
--ieren
--iers
--ies
--iet
--ieuse
--ieuses
--ieux
--iez
--if
--ife
--ifie
--ifs
--ift
--ig
--ige
--igne
--ignon
--igny
--igo
--ih
--ii
--ija
--ik
--iko
--il
--ila
--ille
--iller
--illon
--im
--ime
--iment
--imo
--in
--ina
--ine
--inen
--ing
--inie
--inn
--ino
--ins
--int
--inus
--io
--iole
--ion
--ionne
--ions
--ior
--ique
--iques
--ir
--ira
--ire
--irent
--ires
--iro
--is
--isait
--isation
--isch
--ise
--isen
--isent
--iser
--ises
--ish
--isi
--isie
--ism
--isme
--ismo
--ison
--isons
--issait
--issant
--isse
--issement
--ist
--ista
--iste
--istes
--it
--ita
--ite
--iten
--ito
--itude
--ity
--iu
--ium
--ius
--ive
--ivement
--ives
--ivite
--ivo
--ix
--iya
--iye
--iz
--iza
--izo
--j
--ja
--jabi
--jar
--je
--jene
--ji
--jn
--jo
--js
--ju
--k
--ka
--kado
--kan
--ke
--kel
--ken
--ker
--ket
--ki
--kka
--ko
--kos
--ks
--kt
--kto
--ku
--ky
--kɔ
--kɛ
--l
--la
--lae
--lage
--laire
--lait
--land
--lant
--lar
--lat
--lata
--lc
--ld
--lden
--le
--lea
--lem
--ler
--les
--let
--lettes
--leux
--ley
--lf
--lho
--li
--lia
--lic
--lich
--liche
--lie
--lier
--lija
--lin
--ling
--lio
--lir
--lis
--lit
--lk
--ll
--lla
--lle
--lles
--lli
--llie
--llir
--llo
--lls
--llt
--lly
--ln
--lo
--logi
--logie
--lon
--lot
--ls
--lt
--lte
--lter
--lu
--lum
--lung
--lus
--ly
--lz
--lɔ
--lɛ
--m
--ma
--mal
--man
--mant
--mat
--mb
--mba
--mbe
--mbi
--mbo
--me
--mens
--ment
--ments
--mes
--mestre
--mi
--mis
--mm
--mme
--mment
--mo
--mp
--mpe
--ms
--mson
--mu
--mule
--n
--na
--nable
--naceae
--nade
--nage
--naient
--naire
--naires
--nais
--nait
--nal
--nance
--nant
--nante
--nat
--nau
--nay
--nc
--nca
--nce
--nces
--ncy
--nd
--nda
--ndar
--nde
--nded
--ndi
--ndo
--ndre
--ne
--nea
--neau
--nel
--nelle
--nels
--nement
--nen
--nent
--ner
--nerie
--nes
--ness
--net
--nete
--nette
--neurs
--neux
--ney
--nez
--ng
--nga
--nge
--ngi
--nginya
--ngo
--ngue
--ni
--nia
--nic
--nie
--nier
--niers
--nija
--nik
--nir
--nis
--nisa
--nisi
--nisme
--niste
--nistes
--nk
--nn
--nna
--nne
--nnes
--no
--noi
--non
--nons
--ns
--nsation
--nse
--nsi
--nsible
--nstein
--nt
--nta
--ntaire
--ntal
--nte
--ntes
--nti
--ntiel
--ntif
--ntifs
--ntin
--ntir
--ntis
--ntit
--nto
--nts
--nu
--ny
--nya
--nyo
--nz
--nza
--nzi
--nɔ
--o
--oche
--od
--oda
--odi
--oe
--oi
--oir
--oire
--oirs
--ois
--oj
--ok
--oke
--ol
--ola
--ole
--oler
--oli
--olle
--olo
--om
--ombe
--on
--one
--ons
--ont
--op
--opo
--or
--ore
--ori
--orial
--oro
--ors
--ory
--os
--oste
--ot
--ote
--otte
--ou
--oue
--oul
--our
--ous
--oux
--ow
--owed
--oz
--p
--pa
--pe
--pec
--ped
--peli
--per
--pf
--phe
--pi
--pin
--pir
--ple
--po
--ppa
--ppant
--ppe
--pper
--ppes
--pre
--ps
--pse
--pt
--pta
--pte
--ption
--pu
--q
--que
--r
--ra
--rai
--raient
--rait
--ral
--ran
--rar
--ras
--rat
--rata
--rb
--rbe
--rc
--rce
--rch
--rck
--rd
--rde
--rds
--re
--reau
--red
--rel
--ren
--rent
--rer
--res
--rf
--rg
--ri
--ria
--rial
--rice
--richt
--rie
--ries
--rima
--rin
--rina
--rinier
--rio
--rions
--ris
--rk
--rm
--rma
--rmo
--rn
--rna
--rne
--rning
--ro
--ron
--rons
--ront
--ror
--ros
--row
--rr
--rre
--rrir
--rro
--rs
--rsa
--rse
--rt
--rta
--rte
--ru
--ruka
--rvatoire
--rvir
--ry
--rz
--s
--sa
--sage
--saient
--sait
--san
--sant
--sante
--sation
--scence
--sch
--se
--sek
--sen
--sent
--ser
--ses
--seur
--sez
--sh
--si
--sia
--sie
--sien
--sier
--siko
--sins
--sion
--sir
--sis
--sit
--sk
--ska
--ski
--sko
--sme
--so
--son
--sque
--ss
--ssa
--ssage
--ssaient
--ssais
--ssait
--ssant
--sse
--ssement
--ssent
--sser
--sses
--sseur
--sseurs
--ssifs
--ssion
--ssive
--sso
--st
--sta
--stag
--ste
--stes
--stine
--sto
--stre
--stro
--su
--sum
--sy
--t
--ta
--table
--tai
--tait
--tal
--tan
--tant
--tas
--tat
--te
--tech
--ted
--tel
--ten
--tent
--ter
--terie
--teries
--tes
--teur
--teurs
--teuse
--th
--the
--ti
--tic
--ticien
--tics
--tie
--tier
--tif
--tifs
--tig
--tik
--tin
--tion
--tis
--tit
--tive
--tle
--to
--toire
--ton
--tons
--tor
--tore
--tos
--toye
--tr
--tra
--tre
--trice
--tro
--tron
--ts
--tt
--tta
--tte
--ttes
--tti
--tto
--ttre
--tu
--tuch
--tule
--tur
--tura
--ture
--tus
--ty
--tz
--tɛ
--u
--ua
--ual
--uan
--ub
--ube
--uc
--uce
--uch
--ucht
--ucir
--ud
--ude
--udes
--udo
--ue
--uel
--uelle
--uels
--uer
--ues
--ueuse
--ueux
--uf
--ugh
--uh
--ui
--uil
--uille
--uin
--uine
--uir
--uis
--uit
--ujo
--uk
--ul
--ula
--ular
--ule
--ulent
--uler
--ules
--ulo
--ult
--ulx
--um
--un
--ung
--uo
--up
--upe
--ur
--ura
--ure
--ures
--urg
--uro
--urs
--ury
--us
--use
--usement
--uses
--ust
--ut
--ute
--uti
--uve
--ux
--uy
--uz
--v
--va
--vage
--vaient
--vait
--val
--vat
--ve
--ver
--ves
--vet
--vi
--vic
--vie
--vio
--vo
--voye
--voyer
--vu
--vy
--vʁ
--w
--wa
--wan
--way
--we
--wi
--wn
--wo
--ws
--x
--xa
--xe
--xes
--y
--ya
--yaient
--yait
--ye
--yer
--yi
--yl
--yn
--yo
--yons
--ys
--yte
--yu
--z
--za
--ze
--zer
--zet
--zi
--zione
--zo
--zt
--zte
--zu
--zz
--zzo
--ß
--ßen
--æ
--æn
--ð
--ø
--ı
--ık
--ır
--ła
--ło
--ŋ
--œ
--ɐ
--ɑ
--ɔ
--ɔnɔ
--ə
--ɚ
--ɛ
--ɛki
--ɛkisi
--ɡ
--ɪ
--ɯ
--ɲ
--ɴ
--ɹ
--ɾ
--ʁ
--ʃ
--ʊ
--ʊl
--ʊn
--ʊt
--ʒ
--ʦ
--α
--ε
--ι
--ια
--ν
--ο
--ς
--υ
--а
--ан
--ар
--б
--брь
--в
--ве
--ви
--г
--га
--гия
--го
--д
--ди
--дор
--дь
--е
--ек
--ел
--ец
--ж
--з
--и
--ик
--ин
--ия
--ија
--к
--ка
--ки
--къ
--л
--ла
--ли
--ло
--ль
--ля
--м
--мия
--н
--нд
--нди
--ни
--ник
--нис
--ница
--ния
--нија
--нь
--ня
--нія
--о
--ов
--ок
--п
--р
--ра
--ри
--рия
--рк
--ро
--рт
--ры
--рь
--с
--ст
--ся
--т
--ть
--у
--ус
--ф
--фон
--х
--ц
--ца
--ция
--ч
--ча
--че
--ш
--ъ
--ы
--ь
--я
--і
--ія
--ја
--ң
--ү
--ә
--א
--ה
--ו
--י
--יה
--ן
--ע
--ר
--ת
--ا
--ب
--ة
--ت
--ج
--د
--دا
--ر
--ز
--س
--ش
--ص
--ض
--ع
--ف
--ق
--ل
--م
--ن
--ه
--و
--ىيە
--ي
--يا
--ية
--ک
--ی
--र
--ल
--น
--ร
