!
"
#
##0
##1
##10
##11
##12
##13
##14
##15
##16
##17
##18
##19
##2
##20
##21
##22
##23
##24
##25
##26
##27
##28
##29
##3
##30
##31
##32
##33
##34
##35
##36
##37
##38
##39
##4
##40
##41
##42
##43
##44
##45
##46
##47
##48
##49
##5
##50
##51
##52
##53
##54
##55
##56
##57
##58
##59
##6
##60
##61
##62
##63
##64
##65
##66
##67
##68
##69
##7
##70
##71
##72
##73
##74
##75
##76
##77
##78
##79
##8
##80
##81
##82
##83
##84
##85
##86
##87
##88
##89
##9
##90
##91
##92
##93
##94
##95
##96
##97
##98
##99
%
&
'
(
)
*
+
,
-
.
/
0
00
000
01
02
03
03006807997
03061241415
0331
04
05
06
07
08
09
1
10
100
1000
101
102
103
104
105
106
107
108
109
11
110
111
112
113
114
115
116
117
118
119
12
120
121
122
123
124
125
126
127
128
129
13
130
131
132
133
134
135
136
137
138
139
14
140
141
142
143
144
145
146
147
148
149
15
150
151
152
153
154
155
156
157
158
159
16
160
161
162
163
164
165
166
167
168
169
17
170
171
172
173
174
175
176
177
178
179
18
180
181
1818
182
183
184
185
1857
186
187
188
189
19
190
1901
1904
191
1918
1919
192
1920
1922
1924
1927
193
1930
1931
1935
1938
194
1940
1942
1944
1945
1946
1947
1948
1949
195
1950
1951
1952
1953
1954
1955
1956
1957
1958
1959
196
1960
1961
1962
1963
1964
1965
1966
1967
1968
1969
197
1970
1971
1972
1973
1974
1975
1976
1977
1978
1979
198
1980
1981
1982
1983
1984
1985
1986
1987
1988
1989
199
1990
1991
1992
1993
1994
1995
1996
1997
1998
1999
2
20
200
2000
2001
2002
2003
2004
2005
2006
2007
2008
2009
201
2010
2011
2012
2013
2014
2015
2016
2017
2018
2019
202
2020
2021
2022
203
204
205
206
207
208
209
21
210
211
212
213
214
215
216
217
218
219
22
220
221
222
223
224
225
226
227
228
229
23
230
231
232
233
234
235
236
237
238
239
24
240
241
242
243
244
245
246
247
248
249
25
250
251
252
253
254
255
256
257
258
259
26
260
261
262
263
264
265
266
267
268
269
27
270
271
272
273
274
275
276
277
278
279
28
280
281
282
283
284
285
286
287
288
289
29
290
291
292
293
294
295
296
297
298
299
3
30
300
3000
301
302
303
304
305
306
307
308
309
31
310
311
312
313
315
316
317
318
319
32
320
321
322
323
324
325
326
327
328
329
33
330
331
332
333
334
335
336
337
338
339
34
340
341
342
343
344
345
346
347
348
349
35
350
351
352
353
354
355
356
357
358
359
36
360
361
362
363
364
365
366
367
368
369
37
370
371
372
373
374
375
376
377
378
379
38
380
381
382
383
384
385
386
387
389
39
390
391
392
393
394
395
396
397
398
399
4
40
400
401
402
403
404
405
406
407
408
409
41
410
411
412
413
414
415
416
417
418
419
42
420
421
422
423
424
425
426
427
428
429
43
430
431
432
433
434
435
436
437
438
439
44
440
441
442
443
444
445
446
447
448
449
45
450
451
452
453
454
455
456
457
458
459
46
460
461
462
463
464
465
466
467
468
469
47
470
471
472
473
474
475
476
477
478
479
48
480
481
482
483
484
485
486
487
488
489
49
491
492
494
495
496
497
498
499
5
50
500
501
502
503
51
52
53
54
55
56
57
58
59
6
60
61
617
618
619
62
620
621
622
623
624
625
626
627
628
629
63
630
631
632
633
634
635
636
637
638
639
64
641
642
643
644
645
646
647
648
649
65
650
651
652
654
656
657
658
659
66
660
661
662
663
664
665
666
667
668
669
67
670
671
672
673
674
675
676
677
678
679
68
680
681
683
684
685
687
688
689
69
693
694
695
696
697
698
7
70
700
7005399
701
702
705
707
708
709
71
711
712
713
716
717
72
720
721
722
723
724
725
726
727
728
729
73
730
731
732
733
734
735
736
737
738
739
74
740
741
742
743
744
745
746
747
748
749
75
750
751
752
753
754
755
756
757
758
759
76
760
761
762
763
764
765
766
767
768
769
77
770
771
772
773
774
775
78
784
785
79
795
796
797
798
799
8
80
803
804
805
806
807
808
809
81
810
812
813
814
815
816
817
818
819
82
820
821
822
823
824
825
826
827
828
829
83
830
831
832
833
834
835
836
838
839
84
840
841
844
845
846
847
848
849
85
851
852
853
854
855
856
857
86
860
861
862
863
864
865
866
869
87
870
871
872
873
874
875
876
877
878
879
88
880
881
882
884
885
886
889
89
891
892
893
899
9
90
900
901
902
903
904
905
906
907
908
909
91
910
911
913
914
916
917
918
919
92
920
921
922
923
924
925
926
927
928
929
93
930
931
932
933
934
935
936
937
938
939
94
940
943
944
947
948
949
95
950
951
952
953
954
955
956
957
958
959
96
960
961
962
963
964
965
966
967
968
969
97
970
972
978
98
99
:
;
<
=
>
?
@
[
\
]
^
_
`
a
aa
about
ac
accessdate
ad
ae
af
al
ali
all
amp
an
and
april
archive
are
art
article
articleshow
as
aspx
at
attempt
august
author
award
awards
away
b
bahawalpur
barquq
bbc
be
biography
blog
blogspot
bollywood
book
books
britannica
but
by
c
circassian
citation
cite
city
cms
co
com
contact
cs
ctitle
cy
cyprus
d
da
date
dawn
day
db
dead
december
defaults
df
din
dmy
e
ed
edu
en
encyclopedia
english
entertainment
error
f
facebook
fbid
february
feminism
field
film
first
folklore
for
from
g
google
gov
great
grid
h
have
he
hindi
hindu
his
history
htm
html
http
https
i
id
ii
iii
images
imdb
in
index
india
indiatimes
international
ipa
is
isbn
islam
islamic
istoria
it
its
j
january
journal
july
june
k
khan
kipchak
l
lakha
language
last
law
lefkosia
line
literature
love
lua
m
magazine
malik
mamluk
march
may
members
modern
mosque
mubasherkaleem
muhammad
municipality
music
my
n
na
nasir
national
nawabs
net
new
news
newspaper
nicosia
nil
no
not
november
o
october
of
on
one
or
org
over
p
pa
page
pages
pakistan
pakistani
pdf
pg
php
pk
pkt
pm
post
posts
pp
press
profile
province
published
publisher
punjab
q
r
republic
retrieved
rights
s
saraiki
sayf
second
september
should
shtm
sindh
singer
son
south
state
status
story
suffrage
t
talk
th
that
the
thenews
this
timesofindia
title
to
today
translation
tribune
turk
tv
u
uk
university
up
ur
urdu
url
user
utc
v
value
vol
w
was
watch
we
web
website
which
who
wiki
wikipedia
with
women
work
world
www
x
y
year
you
youtube
z
{
|
}
~
¤
«
­
°
±
²
´
·
»
×
æ
ə
ʊ
ʌ
ˈ
ː
̀
́
̂
̃
̄
̆
̇
̈
̌
̓
̣
̧
̱
̲
α
β
ְ
ִ
ֶ
ַ
ָ
ּ
ֿ
א
ה
י
ל
מ
פ
ר
ש
؁
؂
،
؍
؎
؏
ؐ
ؑ
ؒ
ؓ
ؔ
ؕ
؛
؞
؟
ء
ءن
ءچ
ءچوں
ءی
ءے
ا
اء
اب
ابا
اباد
ابتدا
ابتداء
ابتداي
ابجد
ابد
ابدال
ابدالی
ابدی
ابرار
ابراھیم
ابراہیم
ابرو
ابلاغ
ابلیس
ابن
ابو
ابوالحسن
ابوالصلاح
ابوالفضل
ابوبکر
ابوجہل
ابوذر
ابوسفیان
ابوطالب
ابھر
ابھی
ابھے
ابی
ابے
ات
اتار
اتارنا
اتبار
اتحاد
اتحادی
اتر
اترا
اترنا
اتفاق
اتفاقا
اتفاقی
اتلا
اتلی
اتلے
اتم
اتنا
اتنی
اتنے
اتوار
اتوں
اتھ
اتھارٹی
اتھاو
اتھاي
اتھاں
اتھاہیں
اتھو
اتھوں
اتی
اتیں
اتے
اثاثہ
اثر
اثرات
اثنا
اج
اجازت
اجالا
اجاں
اجتماع
اجتماعی
اجداد
اجرت
اجرک
اجزاء
اجل
اجلاس
اجمل
اجمیر
اجناس
اجنبی
اجوکے
اجڈ
اجڑ
اجکل
اح
احادیث
احاطہ
احباب
احتجاج
احترام
احتیاط
احد
احساس
احساسات
احسان
احسن
احمد
احمدانی
احمداݨی
احمدپور
احمر
احمق
احوال
احکام
احکامات
احی
احیاء
اخ
اخبار
اخبارات
اخباراں
اخباری
اختتام
اختر
اختصار
اختلاف
اختلافات
اختیار
اختیارات
اختیاری
اخذ
اخراج
اخراجات
اخروٹ
اخلاص
اخلاق
اخلاقی
اخلاقیات
اخیر
اخیری
اد
ادا
ادارہ
اداریاں
ادارے
اداس
اداسی
اداي
اداکار
اداکارہ
اداکاری
ادب
ادبی
ادبیات
ادراک
ادریس
ادنی
ادو
ادوار
ادویات
ادھ
ادھا
ادھار
ادھر
ادھورا
ادھوری
ادھی
ادی
ادیب
ادیباں
ادیبیں
اذان
اذیت
ار
ارا
ارادت
ارادہ
ارادے
اراضی
ارام
اراي
اراکین
ارب
ارباب
ارتریا
ارتقا
ارتقاء
ارتقاي
ارد
ارداس
اردن
اردو
اردگرد
ارسطو
ارشاد
ارشد
ارض
ارفعیت
ارم
ارمان
ارواح
اروار
ارکان
ارہ
اری
ارے
ارݨ
از
ازار
ازالہ
ازاں
ازبکستان
ازرق
ازل
ازلی
ازم
ازی
ازیں
اس
اسا
اساتذہ
اساس
اساطیر
اساڈ
اساڈا
اساڈی
اساڈے
اساکوں
اساں
اساݙا
اساݙی
اساݙیاں
اساݙے
اسباب
اسباق
است
استاد
استادا
استحصال
استحصالی
استحقاق
استدلال
استری
استطاعت
استعارہ
استعارے
استعمال
استعمالی
استفادہ
استقامت
استقبال
استنبول
اسحاق
اسد
اسرار
اسراي
اسسٹنٹ
اسلام
اسلامی
اسلامیہ
اسلحہ
اسلم
اسلوب
اسم
اسماء
اسماعیل
اسماعیلی
اسمان
اسماي
اسمبلی
اسمعیل
اسمیں
اسود
اسوں
اسٹبلشمنٹ
اسٹیبلشمنٹ
اسٹیج
اسٹیشن
اسٹیٹ
اسپین
اسکرپٹ
اسکرین
اسکول
اسہال
اسی
اسیر
اسیں
اسے
اش
اشاروں
اشارہ
اشاریاں
اشارے
اشاعت
اشتر
اشتراک
اشتعال
اشتہار
اشتیاق
اشخاص
اشرافیہ
اشرف
اشعار
اشغال
اشفاق
اشلوک
اشو
اشولال
اشک
اشیاء
اصحاب
اصرار
اصطلاح
اصطلاحات
اصطلاحواں
اصطلاحی
اصغر
اصفہان
اصل
اصلاح
اصلاحات
اصلاحی
اصلو
اصلوں
اصلی
اصلیت
اصناف
اصول
اصولاں
اصولی
اصیل
اضافہ
اضافی
اضافے
اضطراب
اضلاع
اط
اطاعت
اطالوی
اطراف
اطلاع
اطمینان
اطوار
اطہر
اظہار
اظہر
اع
اعانت
اعتبار
اعتدال
اعتراض
اعتراف
اعتماد
اعجاز
اعداد
اعز
اعزاز
اعزازات
اعصاب
اعصابی
اعضاء
اعضاي
اعظم
اعل
اعلان
اعلی
اعمال
اعوان
اعواݨ
اعواݨکاری
اغاز
اغوا
اف
افادیت
افاقہ
افتاد
افراتفری
افراد
افران
افروز
افریقا
افریقہ
افریقی
افزاي
افسانوی
افسانہ
افسانیاں
افسانے
افسر
افسران
افسراں
افسوس
افضل
افعال
افغان
افغانستان
افغانی
افلاس
افلاطون
افواج
افواہ
افکار
افیون
اق
اقارب
اقبال
اقتباس
اقتدار
اقتصادی
اقدار
اقدام
اقدامات
اقدس
اقرار
اقسام
اقوام
ال
الا
الادا
الاسلام
الاعلان
الاقوامی
الامام
الاو
الاول
الاوے
الاوݨ
الاي
الاپ
الایا
البتہ
البغدادی
البم
البیرونی
التجا
التفات
الثانی
الجزاي
الجھ
الجھا
الجھن
الحاق
الحال
الحدیث
الحرام
الحسن
الحق
الحکومت
الحیدری
الخط
الد
الدولہ
الدين
الدین
الر
الرحم
الرحمان
الرحمن
الرشید
الزام
الس
السلام
السیرۃ
الشان
الص
الصبح
الصرف
الصوت
الطاف
الظاہر
العابدین
العاص
العراقی
العزیز
العلوم
العین
الغرض
الف
الفاظ
الفت
الفضل
القادر
القاسم
القاي
القدر
القرا
الل
الله
اللہ
الم
الماری
المبارک
المتوکل
المثل
المرتضی
المرگ
المستنصر
المطلب
المعارف
المعتصم
المعتضد
المعروف
المقتدر
المقتدی
المقدس
الملوک
الملک
المنصور
الموت
المومنین
المہدی
المیہ
الن
الناصر
النبویۃ
النبی
النساء
النفس
الو
الوجود
الوداع
الوقت
الول
الٹ
الٹا
الٹی
الکتاب
الکریم
الکلام
الگ
الڳ
الہ
الہامی
الہی
الی
الیاس
الیندا
الیندے
الیکشن
الے
ام
امارات
امارت
امام
امامت
امان
امانت
اماں
امب
امت
امتحان
امتزاج
امتیاز
امتیازی
امجد
امدا
امداد
امدادی
امدی
امدے
امر
امرا
امراض
امرتسر
امریکا
امریکہ
امریکی
املا
امن
امور
اموی
امڑی
امکان
امکانات
امی
امید
امیدوار
امیر
امیراں
امیری
امین
امیہ
ان
انا
اناج
انار
اناڑی
اناں
انبار
انبوہ
انبیاء
انت
انتخاب
انتخابات
انتخابی
انتشار
انتظار
انتظام
انتظامات
انتظامی
انتظامیہ
انتقال
انتقام
انتہا
انتہاي
انج
انجام
انجان
انجم
انجمن
انجو
انجیر
انجیل
انجیني
انحصار
اند
اندا
انداز
اندازا
اندازہ
اندازی
اندازے
اندام
اندر
اندراج
اندرلی
اندرلے
اندرو
اندرون
اندرونی
اندروں
اندری
اندلس
اندھا
اندھار
اندھارا
اندھاری
اندھارے
اندھی
اندھیر
اندھیرا
اندھیرے
اندھے
اندی
اندیش
اندیشہ
اندے
انزال
انس
انسان
انساناں
انسانوں
انسانی
انسانیات
انسانیت
انسانیں
انساي
انسب
انسٹی
انسٹیٹیوٹ
انسپکٹر
انشاء
انشاي
انصار
انصاری
انصاف
انصافی
انعام
انعقاد
انفرادی
انفرادیت
انقلاب
انقلابی
انمول
انوار
انواع
انور
انوکھا
انوکھڑا
انوکھی
انویں
انٹر
انٹرنیشنل
انٹرنیٹ
انٹرویو
انڄ
انچ
انچارج
انڈا
انڈس
انڈسٹری
انڈمان
انڈونیشیا
انڈیا
انڈین
انڈے
انڑ
انکار
انکاری
انکساری
انکشاف
انگ
انگارا
انگارے
انگریز
انگریزاں
انگریزی
انگریزیں
انگشت
انگل
انگلستان
انگلش
انگلی
انگلیاں
انگلینڈ
انگلیوں
انگلیں
انگور
انگوٹھا
انگوٹھی
انگوٹھے
انگیز
انڳ
انڳل
انڳلیں
انھاں
انھیں
انہاں
انہں
انہی
انہیں
انی
انیس
او
اواز
اوازار
اوازاں
اواي
اوباش
اوبراي
اوتار
اوجھری
اوجھل
اودھم
اور
اورنگ
اورنگزیب
اورینٹل
اوز
اوزار
اوزاراں
اوزان
اوس
اوسان
اوسط
اوصاف
اوقات
اوقیانوس
اول
اولا
اولاد
اولیاء
اولین
اولے
اون
اوندا
اوندھے
اوندی
اوندیاں
اوندے
اونویں
اونٹ
اونٹوں
اونچا
اونچی
اونکوں
اونہہ
اونہی
اوي
اوٹ
اوٹا
اوپر
اوپرا
اوپری
اوپرے
اوپن
اوچ
اوچھا
اوڈھر
اوڑک
اوڑھنا
اوڑھنی
اوکاڑہ
اوکوں
اوکھ
اوکھا
اوکھبت
اوکھلی
اوکھی
اوکھے
اوں
اوھا
اوھو
اوھے
اوہ
اوہا
اوہدا
اوہدے
اوہناں
اوہنے
اوہو
اوہے
اویسی
اویں
اوے
اوݙوں
اوݙے
اوݨ
اي
اٹ
اٹا
اٹل
اٹلی
اٹک
اٹکل
اٹھ
اٹھا
اٹھارویں
اٹھارہ
اٹھانا
اٹھانے
اٹھاي
اٹھاں
اٹھایا
اٹھنا
اٹھواں
اٹھویں
اٹھی
اٹھے
اٹھݨ
اٹے
اپ
اپريل
اپریل
اپن
اپنا
اپنوں
اپنٹری
اپنٹریں
اپنڑا
اپنڑاں
اپنڑی
اپنڑیاں
اپنڑیں
اپنڑے
اپنی
اپنیاں
اپنے
اپڑاں
اپڑی
اپڑیاں
اپڑیں
اپڑے
اپیل
اپݨا
اپݨاں
اپݨی
اپݨیاں
اپݨیں
اپݨے
اڄ
اڄاں
اڄوکا
اڄوکی
اڄوکے
اڄکل
اڄݨ
اچ
اچا
اچار
اچانک
اچو
اچوں
اچوی
اچھا
اچھاي
اچھل
اچھلنا
اچھی
اچھے
اچی
اچݨ
اڈ
اڈا
اڈھاي
اڈے
اڑ
اڑا
اڑان
اڑانا
اڑاوݨ
اڑتی
اڑھاي
اڑی
اک
اکابرین
اکادمی
اکاو
اکاي
اکبر
اکتا
اکتوبر
اکثر
اکثریت
اکثریتی
اکرام
اکرم
اکسانا
اکو
اکٹھ
اکٹھا
اکٹھی
اکٹھے
اکڑ
اکڑنا
اکھ
اکھان
اکھاڑے
اکھاں
اکھاݨ
اکھاݨاں
اکھر
اکھراں
اکھریں
اکھویندے
اکھڑ
اکھیا
اکھیاں
اکھیندا
اکھیندن
اکھیندی
اکھیندے
اکھیي
اکھیں
اکیلا
اکیڈمی
اگ
اگاں
اگتے
اگر
اگرچہ
اگست
اگلا
اگلی
اگلے
اگو
اگوں
اگے
اڳ
اڳاں
اڳلا
اڳلی
اڳلے
اڳو
اڳواݨ
اڳواݨی
اڳوں
اڳی
اں
اہ
اہتمام
اہدا
اہدن
اہدے
اہر
اہل
اہلسنت
اہلکار
اہلی
اہم
اہمی
اہمیت
ای
ایا
ایاز
ایام
ایتلا
ایتھوپیا
ایجاد
ایجنسی
ایجنٹ
ایجوکیشن
ایجھا
ایجھاں
ایجھي
ایجھی
ایجھیاں
ایجھیں
ایجھے
ایرا
ایران
ایرانی
ایریا
ایرے
ایس
ایسا
ایسوسی
ایسٹ
ایسی
ایسے
ایشن
ایشو
ایشیا
ایشیاء
ایشیاي
ایصال
ایضا
ایف
ایل
ایم
ایمان
ایمانداری
ایمانی
ایمپاي
این
اینجھا
اینجھی
اینجھیاں
اینجھے
ایندا
ایندھن
ایندی
ایندیاں
ایندے
اینویں
اینٹ
اینٹوں
اینٹیں
اینڈ
اینکوں
اینہہ
اینہی
ایوارڈ
ایوارڈز
ایوان
ایوب
ایویں
ایٹم
ایچ
ایڈ
ایڈا
ایڈمن
ایڈووکیٹ
ایڈوکیٹ
ایڈی
ایڈیشن
ایڈیشنل
ایڈیٹر
ایڑی
ایک
ایکسل
ایکسپریس
ایکشن
ایکوں
ایکڑ
ایں
ایہ
ایہا
ایہناں
ایہو
ایہہ
ایہے
ایݙا
ایݙوں
ایݙی
ایݙے
اے
اݙ
اݙا
اݙے
اݙݨ
اݨ
اݨی
ب
با
باب
بابا
باباي
بابر
بابل
بابو
بابے
بات
باتشاہ
باتونی
باتوں
باتیں
باج
باجا
باجرہ
باجرے
باجھوں
باخبر
باد
بادام
بادامی
بادبان
بادشاہ
بادشاہت
بادشاہوں
بادشاہی
بادل
بادلوں
بادی
بادیات
بادیاتی
بادیاں
بار
بارا
بارات
بارانی
باراں
باربرداری
بارش
بارشاں
بارود
بارڈر
بارگاہ
بارہ
باری
باریک
بارے
باز
بازار
بازاری
بازاں
بازداری
بازنطینی
بازو
بازوو
بازی
بازیاں
باس
باسط
باسی
باش
باشا
باشاہ
باشعور
باشندہ
باشندیاں
باشندے
باضابطہ
باطل
باطن
باطنی
باعث
باعی
باغ
باغات
باغبان
باغبانی
باغی
باغیاں
باف
بافی
باقاعدگی
باقاعدہ
باقر
باقی
باقیات
بال
بالا
بالادستی
بالاي
بالاں
بالخصوص
بالشت
بالغ
باللہ
بالمقابل
بالو
بالوں
بالک
بالکل
بالی
بالیں
بام
بامر
بان
بانا
باناں
بانجھ
باندر
باندھ
باندھا
باندھتے
باندھنا
باندھنے
باندھی
باندھے
باندی
بانس
بانسری
بانو
بانٹ
بانگ
بانہہ
بانہیں
بانی
باو
باوجود
باورچی
باي
باٹ
باپ
باڑ
باڑی
باک
باکھ
باگ
باں
باہ
باہتمام
باہر
باہرو
باہروں
باہم
باہمی
باہو
باہیں
بت
بتاریخ
بتانا
بتانے
بتایا
بتداء
بتداي
بتدریج
بترا
بتلا
بتول
بتی
بتیسی
بجا
بجاتے
بجاجاں
بجانا
بجانے
بجاي
بجایا
بجلی
بجنا
بجٹ
بجھ
بجھاي
بجے
بحال
بحالی
بحث
بحر
بحران
بحرحال
بحری
بحرین
بحریہ
بحق
بحوالہ
بحیثیت
بحیرہ
بخار
بخارا
بخارات
بخاری
بخت
بختاور
بختاں
بختو
بختی
بختیار
بخش
بخشش
بخشنا
بخشی
بخشے
بخشݨ
بخل
بخود
بخیر
بخیل
بخیہ
بد
بدبخت
بدبختی
بدبو
بدر
بدراہ
بدصورت
بدقسمتی
بدل
بدلا
بدلدے
بدلنا
بدلہ
بدلی
بدلے
بدلݨ
بدمعاش
بدمعاشی
بدن
بدنام
بدنامی
بدنصیب
بدوش
بدولت
بدکار
بدکاری
بدکردار
بدھ
بدی
بذات
بذریعہ
بذلہ
بر
برا
برابر
برابری
برات
برادر
برادری
براری
براعظم
براي
براہ
براہوی
برباد
بربادی
برتاو
برتر
برتری
برتن
برتنا
برتنوں
برج
برخاست
برخلاف
برخوردار
برد
بردار
برداری
برداش
برداشت
برداشتہ
برس
برسات
برساتی
برسر
برسنا
برسی
برش
برص
برصغیر
برطانوی
برطانیہ
برطرف
برعکس
برف
برق
برقرار
برقی
برما
برملا
برنگے
برو
بروز
بروقت
بروہی
برٹش
برپا
برچھی
برکت
برکلے
برگ
برگشتہ
برہم
برہمن
برہنہ
بری
بریری
بریریاں
بریک
برے
بز
بزار
بزاری
بزازوں
بزازی
بزدار
بزدل
بزرگ
بزرگان
بزرگاں
بزرگوں
بزرگی
بزم
بس
بساط
بست
بستر
بسترا
بسترے
بستہ
بستی
بسر
بسم
بسمل
بسنا
بسی
بسیار
بسیرا
بشار
بشارت
بشر
بشری
بشمول
بشیر
بصر
بصرہ
بصری
بصورت
بصیرت
بطخ
بطن
بطور
بظاہر
بعد
بعض
بعضے
بعید
بغاوت
بغداد
بغدادی
بغض
بغل
بغلیں
بغور
بغیر
بق
بقا
بقاء
بقایا
بقراط
بقول
بل
بلا
بلاد
بلال
بلانا
بلاوجہ
بلاول
بلاي
بلاک
بلاں
بلب
بلبل
بلتستان
بلحاظ
بلخ
بلدی
بلغاریہ
بلغم
بلغمی
بلند
بلندی
بلوغت
بلونا
بلونے
بلوچ
بلوچاں
بلوچستان
بلوچی
بلوچیں
بلڈنگ
بلکل
بلکہ
بلھے
بلی
بلیک
بلے
بم
بمبي
بمشکل
بمطابق
بمعنی
بمفورڈ
بن
بنا
بناء
بناتا
بناتے
بنام
بنانا
بنانے
بناو
بناون
بناوٹ
بناي
بنایا
بنت
بنتا
بنتی
بنتے
بنجر
بند
بندا
بندر
بندرگاہ
بندش
بندوبست
بندوخ
بندوق
بندگی
بندھ
بندھا
بندھنا
بندھی
بندھے
بندہ
بندی
بندیاں
بندیں
بندے
بننا
بننے
بنو
بنوانا
بنوں
بنڈل
بنڑ
بنڑا
بنڑاون
بنڑاونڑ
بنڑاي
بنڑایا
بنڑدا
بنڑدی
بنڑدے
بنڑن
بنڑی
بنڑیا
بنڑیندے
بنڑے
بنک
بنگال
بنگالی
بنگلہ
بنی
بنیا
بنیاد
بنیاداں
بنیادی
بنیادیں
بنے
به
بو
بوا
بواسیر
بواي
بوتل
بوجھ
بوجھل
بوجہ
بود
بور
بورا
بورڈ
بوری
بوریا
بورے
بوسہ
بوسیدہ
بوقت
بول
بولا
بولتا
بولتے
بولن
بولنا
بولنے
بولی
بولیا
بولیاں
بولے
بولݨ
بونا
بوٹا
بوٹی
بوٹیاں
بوٹے
بوچھاڑ
بوچھنڑ
بوچھݨ
بوڑھا
بوڑھی
بوہڑ
بوہے
بي
بيانات
بٹ
بٹا
بٹاي
بٹن
بٹھانا
بٹھی
بٹیر
بٹے
بٹݨ
بپاشی
بچ
بچا
بچانا
بچاو
بچاوے
بچاوݨ
بچاي
بچایا
بچت
بچدا
بچدے
بچن
بچنا
بچوں
بچپن
بچڑا
بچگانہ
بچھانا
بچھڑا
بچھڑے
بچہ
بچی
بچیا
بچے
بچݨ
بڑ
بڑا
بڑاي
بڑوں
بڑھ
بڑھا
بڑھانا
بڑھاپے
بڑھتا
بڑھتی
بڑھنا
بڑھنے
بڑھوتری
بڑی
بڑے
بک
بکا
بکاي
بکثرت
بکر
بکرا
بکرمی
بکری
بکریاں
بکریوں
بکرے
بکس
بکنا
بکواس
بکواسی
بکھ
بکھا
بکھر
بکھیرنا
بکھیڑا
بکھے
بکی
بگ
بگا
بگاڑ
بگاڑنا
بگٹی
بگڑ
بگڑا
بگڑنا
بگڑی
بگھارنا
بھ
بھا
بھاء
بھات
بھاجی
بھادوں
بھار
بھارا
بھارت
بھارتی
بھارنا
بھاری
بھارݨ
بھاشا
بھال
بھالا
بھالی
بھالے
بھالݨ
بھان
بھانا
بھاندا
بھاندی
بھانویں
بھانپ
بھاو
بھاویں
بھاوݨ
بھاي
بھاپ
بھاڄڑ
بھاڄی
بھاڑ
بھاڑا
بھاڑی
بھاکل
بھاگ
بھاگا
بھاگتے
بھاگنا
بھاگنے
بھاڳ
بھاڳی
بھاں
بھاہ
بھاݨ
بھاݨاں
بھت
بھتریجے
بھج
بھدا
بھر
بھرا
بھرانویں
بھراواں
بھراي
بھرتا
بھرتی
بھرم
بھرنا
بھرنے
بھرو
بھرواں
بھروسہ
بھروں
بھرویں
بھرپور
بھری
بھریا
بھریاں
بھریج
بھریجݨ
بھرین
بھریڄ
بھرے
بھرݨ
بھل
بھلا
بھلاي
بھلی
بھلے
بھلݨ
بھن
بھنا
بھنور
بھنک
بھنگ
بھنگی
بھنی
بھنے
بھنݨ
بھو
بھوت
بھورا
بھورل
بھوری
بھورے
بھوسہ
بھوسے
بھول
بھولا
بھولوں
بھولی
بھولے
بھون
بھونک
بھوي
بھوپال
بھوک
بھوکا
بھوکے
بھوگ
بھوڳ
بھوڳݨ
بھوں
بھي
بھٹ
بھٹاي
بھٹو
بھٹک
بھٹہ
بھٹی
بھٹیاں
بھڄ
بھڄاوݨ
بھڄدا
بھڄدے
بھڄݨ
بھڑ
بھڑا
بھڑاس
بھڑاند
بھڑوا
بھڑک
بھڑکانا
بھڑکاوݨ
بھڑکنا
بھڑکݨ
بھک
بھکاری
بھکر
بھکن
بھکھر
بھگ
بھگا
بھگانا
بھگانے
بھگت
بھگتنا
بھگدڑ
بھگوان
بھڳ
بھڳت
بھی
بھیت
بھیج
بھیجا
بھیجنا
بھیجی
بھیجے
بھید
بھیس
بھیل
بھین
بھینس
بھینسوں
بھینٹ
بھینڑ
بھیڄ
بھیڄا
بھیڄے
بھیڄݨ
بھیڈ
بھیڑ
بھیڑا
بھیڑوں
بھیڑی
بھیڑیا
بھیڑیں
بھیڑے
بھیک
بھیگی
بھیݙ
بھیݙاں
بھیݨ
بھیݨیں
بھے
بھݨ
بہ
بہا
بہاء
بہادر
بہادری
بہار
بہاراں
بہاری
بہانا
بہانہ
بہانے
بہاو
بہاول
بہاولنگر
بہاولپور
بہاولپوری
بہاي
بہت
بہتا
بہتات
بہتان
بہتر
بہتری
بہترین
بہتے
بہدف
بہر
بہرا
بہرحال
بہرہ
بہشت
بہشتی
بہلانا
بہلاوݨ
بہن
بہنا
بہنے
بہو
بہوں
بہہ
بہی
بی
بیا
بیابان
بیاج
بیادری
بیاس
بیان
بیانہ
بیانی
بیانیہ
بیاں
بیاہ
بیت
بیتی
بیج
بیخ
بید
بیدار
بیداری
بیر
بیراج
بیرسٹر
بیروت
بیرون
بیرونی
بیری
بیزار
بیس
بیساکھ
بیسن
بیش
بیشتر
بیشک
بیشی
بیع
بیعت
بیل
بیلنے
بیلوں
بیلی
بیلے
بیمار
بیماری
بیماریاں
بین
بیناي
بینک
بینی
بیوپار
بیوہ
بیوی
بیٹ
بیٹا
بیٹھ
بیٹھا
بیٹھاں
بیٹھتا
بیٹھتے
بیٹھن
بیٹھنا
بیٹھنے
بیٹھک
بیٹھی
بیٹھے
بیٹی
بیٹیاں
بیٹیوں
بیٹے
بیچ
بیچنا
بیچنے
بیڑا
بیڑی
بیڑیاں
بیک
بیکار
بیکانیر
بیگ
بیگار
بیگانہ
بیگم
بیہودگی
بیہودہ
بے
بےوس
بݨ
بݨا
بݨاو
بݨاوت
بݨاوݨ
بݨاي
بݨایا
بݨت
بݨدا
بݨدن
بݨدی
بݨدے
بݨسی
بݨن
بݨواوݨ
بݨی
بݨیا
بݨیاد
بݨیادی
بݨیاں
بݨین
بݨیندن
بݨیندي
بݨیندے
بݨیے
بݨے
بݨݨ
ة
ت
تا
تاء
تاب
تابش
تابع
تات
تاثر
تاثرات
تاثراتی
تاثیر
تاج
تاجر
تاحال
تاخیر
تار
تارا
تاراج
تاراں
تارنا
تارنے
تاروں
تارک
تاری
تاریاں
تاریخ
تاریخی
تاریک
تاریکی
تاریں
تارے
تازگی
تازہ
تازی
تاس
تاسف
تاش
تاشقند
تال
تالا
تالاب
تالو
تالپور
تالی
تالیف
تام
تاماں
تامل
تامیں
تان
تانا
تانبے
تانڑیں
تانگ
تانگا
تانگھ
تانگھی
تانگے
تانی
تانیث
تاو
تاوان
تاول
تاولا
تاوݨ
تاي
تاڑ
تاڑی
تاڑیاں
تاک
تاکہ
تاکید
تاگا
تاں
تاہم
تاݨ
تاݨا
تاݨاں
تاݨی
تاݨیں
تاݨے
تب
تبادلہ
تبار
تباہ
تباہی
تبت
تبدیل
تبدیلی
تبدیلیاں
تبر
تبسم
تبصرہ
تبصرے
تبلیغ
تبوک
تبہ
تت
تتا
تتر
تتی
تتے
تجارت
تجارتی
تجاوز
تجدید
تجربات
تجربہ
تجربے
تجزیاتی
تجزیہ
تجویز
تجھ
تجھے
تحاشا
تحاي
تحت
تحریر
تحریراں
تحریری
تحریک
تحریکاں
تحسین
تحصیل
تحصیلاں
تحف
تحفظ
تحفہ
تحفے
تحقیر
تحقیق
تحقیقات
تحقیقی
تحلیل
تحمل
تحویل
تخت
تختہ
تختی
تختیاں
تختے
تخریب
تخفیف
تخلص
تخلیق
تخلیقات
تخلیقی
تخم
تخمینہ
تخیل
تدارک
تدبیر
تدریس
تدفین
تدوین
تذکرہ
تذکریاں
تذکرے
تر
ترا
تراجم
ترازو
تراش
تراشنا
تراشی
تراشݨ
ترانہ
تراي
تراکیب
تراں
تراے
تراݨ
تربوز
تربی
تربیت
ترتیب
ترتیبی
ترجمان
ترجمانی
ترجمہ
ترجمے
ترجیح
تردی
تردید
ترس
ترسنا
ترش
ترغیب
ترق
ترقی
ترلا
ترلے
ترمیم
ترن
ترنا
ترنگ
ترنگلی
ترنے
تروٹ
تروٹی
تروپ
تروڑ
تروڑݨ
ترویج
تري
ترٹ
ترٹا
ترٹݨ
ترچھا
ترک
ترکاری
ترکاں
ترکستان
ترکلے
ترکمانستان
ترکڑی
ترکھان
ترکہ
ترکی
ترکیب
ترکیباں
تری
تریا
تریجھا
تریجھی
تریجھے
تریخ
تریلا
تریمت
تریمتاں
تریمتیں
ترین
تریڑ
تریڑا
تریں
تریہ
تریہاں
تریہہ
تریہے
ترے
ترݨ
تس
تسا
تساڈے
تساکوں
تساں
تسبیح
تسل
تسلسل
تسلط
تسلی
تسلیم
تسکین
تسی
تش
تشبیہ
تشبیہات
تشبیہہ
تشخیص
تشدد
تشریح
تشریحاں
تشریف
تشنگی
تشنہ
تشنیع
تشویش
تشکیل
تشہیر
تشی
تشیع
تصادم
تصانیف
تصدیق
تصر
تصغیر
تصفیہ
تصنیف
تصو
تصور
تصورات
تصوف
تصویر
تصویراں
تصویری
تضاد
تضحیک
تعارف
تعاقب
تعال
تعالی
تعاون
تعبیر
تعجب
تعداد
تعریف
تعزی
تعزیت
تعزیہ
تعصب
تعظیم
تعل
تعلق
تعلقات
تعلقہ
تعلیق
تعلیم
تعلیمات
تعلیمی
تعمیر
تعمیل
تعویذ
تعویز
تعی
تعین
تعینات
تغاری
تغلق
تفتیش
تفرقہ
تفریح
تفریحات
تفریحاں
تفریق
تفسیر
تفصیل
تفصیلاں
تفصیلی
تفضیل
تفکرات
تفہیم
تقابل
تقابلی
تقاضا
تقاضیاں
تقاضے
تقدیر
تقریب
تقریبا
تقریبات
تقریباں
تقریر
تقریراں
تقسیم
تقصیر
تقطیع
تقلید
تقوی
تقویت
تقی
تل
تلا
تلاش
تلاشی
تلافی
تلاوت
تلاوڑے
تلاي
تلخ
تلخی
تلخیص
تلف
تلفظ
تلفی
تلقین
تلو
تلوار
تلواراں
تلواں
تلور
تلوں
تلویں
تلوے
تلچھٹ
تلک
تلی
تلیاں
تلے
تم
تما
تماخ
تماشا
تماشاي
تماشہ
تماشے
تمام
تمباکو
تمبو
تمد
تمدن
تمغاي
تمغہ
تمل
تمن
تمنا
تمہارا
تمہاری
تمہارے
تمہید
تمہیں
تمیز
تمیزی
تمیمی
تن
تنا
تناسب
تناسل
تناظر
تناو
تنبیہ
تنخواہ
تند
تندرست
تندور
تندوریا
تندی
تندیر
تنظیم
تنظیماں
تنقید
تنقیدی
تنور
تنویر
تنکا
تنکے
تنگ
تنگی
تنہا
تنہاي
تنی
تنے
تو
توا
تواریخ
توازن
تواضع
توانا
تواناي
تواں
توباں
توبہ
توت
توج
توجہ
توحید
تودہ
تورات
توسیع
توفیق
توق
توقع
توقعات
توقف
توقیر
تول
تولنا
تولنے
تولہ
تولے
تولݨ
تون
تونسوی
تونسہ
تونسے
تونڑیں
توي
توپ
توپاں
توڑ
توڑنا
توڑنے
توڑیں
توڑے
توکل
توں
توھاڈا
توھاڈی
توھاڈے
توھاکوں
توہ
توہین
توے
توݨیں
تي
تپ
تپش
تڈ
تڑ
تڑنگا
تڑپ
تڑپنا
تڑی
تک
تکا
تکار
تکالیف
تکان
تکب
تکبر
تکبیر
تکرار
تکریم
تکل
تکلف
تکلیف
تکمیل
تکنا
تکنیک
تکونہ
تکونی
تکڑا
تکڑی
تکھا
تکھے
تکی
تکیہ
تکݨ
تگ
تھ
تھا
تھاج
تھال
تھالی
تھام
تھامنا
تھان
تھانے
تھاو
تھاي
تھاپ
تھاپی
تھاڈے
تھاڑ
تھاکوں
تھاں
تھاہیں
تھاݨے
تھر
تھرا
تھری
تھل
تھلا
تھلاں
تھلی
تھن
تھنوں
تھو
تھورا
تھوراي
تھولا
تھولی
تھولے
تھوم
تھوپنا
تھوڑ
تھوڑا
تھوڑی
تھوڑے
تھوک
تھوں
تھوݙ
تھي
تھپ
تھپڑ
تھپکی
تھپیرا
تھپݨ
تھڄوں
تھک
تھکا
تھکاوٹ
تھکیڑا
تھکے
تھہیم
تھی
تھیا
تھیاء
تھیاں
تھیسن
تھیسوں
تھیسی
تھیسے
تھیلا
تھیلی
تھیلے
تھین
تھیندا
تھیندن
تھیندی
تھیندیاں
تھیندے
تھیواں
تھیوسے
تھیون
تھیونڑ
تھیوو
تھیوی
تھیویں
تھیوے
تھیوݨ
تھیوݨا
تھیي
تھیٹر
تھیں
تھے
تھݨ
تہ
تہاي
تہاڈا
تہاڈی
تہاڈے
تہاکوں
تہاݙا
تہاݙی
تہاݙے
تہج
تہجی
تہذیب
تہذیباں
تہذیبی
تہس
تہمت
تہمد
تہوار
تہوں
تہہ
تہی
تی
تیا
تیار
تیاری
تیاں
تیتر
تیر
تیرا
تیراک
تیرنا
تیرنے
تیرھاں
تیرہ
تیری
تیرے
تیز
تیزی
تیس
تیسرا
تیسرے
تیسی
تیشہ
تیغ
تیل
تیلگو
تیلی
تیلیاں
تیلیوں
تیمور
تین
تینوں
تیور
تیوری
تیي
تیڈ
تیڈا
تیڈی
تیڈیاں
تیڈے
تیڑے
تیکر
تیکوں
تیں
تیݙا
تیݙی
تیݙیاں
تیݙے
تے
تےا
تݙ
تݙانہہ
تݙاں
تݙی
تݨ
ث
ثابت
ثار
ثاقب
ثالث
ثانی
ثانیہ
ثبات
ثبوت
ثر
ثروت
ثریا
ثقافت
ثقافتاں
ثقافتی
ثلث
ثمر
ثنا
ثواب
ج
جا
جاء
جاب
جابر
جابی
جات
جاتا
جاتی
جاتے
جادو
جار
جارج
جاری
جازت
جاسوس
جاسوسی
جال
جالا
جالندھر
جالی
جالے
جام
جامشورو
جامع
جامعہ
جامہ
جان
جانا
جاناں
جانب
جانباز
جانبداری
جانتا
جانتے
جاندار
جانداراں
جانشین
جاننا
جاننے
جانور
جانوراں
جانوروں
جانوریں
جانچ
جانچنا
جانڑ
جانڑدا
جانڑدے
جانڑے
جانگلی
جانی
جانیاں
جانے
جاو
جاوید
جاویدا
جاوے
جاوݨ
جاي
جاٹ
جاٹوں
جاپان
جاپانی
جاچ
جاڑا
جاگ
جاگدا
جاگدے
جاگنا
جاگیر
جاگیراں
جاگیردار
جاگݨ
جاڳ
جاڳݨ
جاں
جاہ
جاہل
جاہیں
جایا
جاݨ
جب
جبر
جبرا
جبری
جبل
جبڑا
جبڑے
جبکہ
جبیر
جت
جتلا
جتلانا
جتلے
جتنا
جتناں
جتنی
جتنے
جتوي
جتھ
جتھا
جتھاں
جتھوں
جتھے
جتی
جتیاں
جج
ججمان
جد
جدا
جداي
جدت
جدو
جدوجہد
جدھر
جدی
جدید
جدیدیت
جذام
جذب
جذبات
جذباتی
جذبہ
جذبیاں
جذبیں
جذبے
جر
جرا
جرات
جراثیم
جراح
جراحی
جراي
جرت
جرم
جرمانہ
جرمن
جرمنی
جرنیل
جریان
جز
جزاء
جزاي
جزم
جزو
جزوی
جزیرہ
جزیرے
جس
جسامت
جست
جستجو
جستہ
جسم
جسمانی
جسٹ
جسٹس
جسکانی
جسیم
جسے
جشن
جعفر
جعفری
جعلی
جغرافیاي
جغرافیہ
جغرافیے
جل
جلا
جلال
جلانا
جلانے
جلاي
جلتا
جلتی
جلد
جلداں
جلدی
جلسہ
جلسے
جلم
جلن
جلنا
جلنے
جلوس
جلوں
جلوہ
جلی
جلیبی
جلیل
جلے
جم
جما
جمادی
جماع
جماعت
جماعتاں
جماعتیں
جمال
جمالی
جمالیاتی
جمانا
جمشید
جمع
جمعدار
جمعرات
جمعہ
جمعیت
جمل
جملي
جملہ
جملے
جمن
جمنا
جمورا
جموں
جمہوری
جمہوریت
جمہوریہ
جمی
جمیل
جن
جنا
جناب
جنات
جناح
جنازہ
جنازے
جناور
جناوراں
جناں
جنت
جنتی
جنج
جنجال
جند
جندرے
جندڑی
جنرل
جنس
جنسی
جنم
جنوب
جنوبی
جنوری
جنون
جنوں
جنڄ
جنڈ
جنگ
جنگاں
جنگجو
جنگل
جنگلات
جنگلاں
جنگلی
جنگی
جنھاں
جنھیں
جنہاں
جنہیں
جنے
جو
جوا
جواب
جوابی
جواد
جوار
جواری
جواز
جوان
جوانی
جواي
جواں
جواہر
جوبن
جوت
جوتا
جوتی
جوتے
جور
جورو
جوس
جوش
جول
جولان
جولاي
جولاہا
جولاہے
جون
جوي
جوڑ
جوڑا
جوڑاں
جوڑنا
جوڑنے
جوڑوں
جوڑی
جوڑیا
جوڑے
جوڑݨ
جوگ
جوگا
جوگی
جوگے
جوڳ
جوڳا
جوڳی
جوں
جوہر
جوہری
جوہی
جي
جٹ
جٹکی
جڈ
جڈاں
جڑ
جڑا
جڑت
جڑوں
جڑی
جڑیا
جڑیں
جڑے
جکڑنا
جگ
جگا
جگت
جگدیش
جگر
جگنو
جگہ
جڳ
جھ
جھا
جھات
جھاتی
جھارا
جھارت
جھال
جھالر
جھان
جھانا
جھانکنا
جھاوݨ
جھاي
جھاڑ
جھاڑنا
جھاڑو
جھاڑی
جھاڑیاں
جھاگ
جھاہ
جھجک
جھر
جھری
جھل
جھلا
جھلار
جھلک
جھلݨ
جھم
جھمر
جھمراں
جھن
جھنڈ
جھنڈا
جھنڈیر
جھنڈے
جھنگ
جھول
جھولا
جھولنا
جھولی
جھولے
جھومر
جھومری
جھون
جھونپڑی
جھوٹ
جھوٹا
جھوٹی
جھوٹے
جھوک
جھوکاں
جھوں
جھي
جھٹ
جھٹکا
جھٹکے
جھڑ
جھک
جھکا
جھکی
جھگڑا
جھگڑالو
جھگڑنا
جھگڑے
جھڳڑا
جھی
جھیاں
جھیل
جھیلنا
جھیڑا
جھیڑے
جھیں
جھے
جھݨ
جہ
جہاد
جہاز
جہالت
جہان
جہانگیر
جہانیاں
جہاڑے
جہاں
جہد
جہرا
جہلم
جہنم
جہڑا
جہڑی
جہڑیاں
جہڑیلے
جہڑے
جہی
جہیز
جہیں
جہے
جی
جیا
جیالے
جیاں
جیب
جیت
جیتا
جیتلا
جیتے
جیتݨ
جیرا
جیرھا
جیرھی
جیرھیاں
جیرھے
جیرے
جیسا
جیسی
جیسے
جیل
جیلانی
جیلھے
جیلے
جین
جیندا
جیندی
جیندیاں
جیندیں
جیندے
جینویں
جینکوں
جیو
جیون
جیونڑ
جیوو
جیوکس
جیوں
جیویں
جیوے
جیوݨ
جیي
جیٹھ
جیڈا
جیڑا
جیڑھا
جیڑھلے
جیڑھی
جیڑھیاں
جیڑھے
جیڑی
جیڑے
جیک
جیکب
جیکر
جیکوں
جیں
جیہا
جیہاں
جیہرا
جیہرلے
جیہری
جیہرے
جیہڑا
جیہڑلے
جیہڑی
جیہڑیاں
جیہڑے
جیہی
جیہیں
جیہے
جیݙا
جیݙی
جیݙے
جے
جݙاں
جݙݨ
جݨ
ح
حاتم
حاجت
حاجی
حادثہ
حادثے
حارث
حاسد
حاشیہ
حاصل
حاضر
حاضری
حافظ
حافظہ
حال
حالات
حالانکہ
حالت
حالی
حالیہ
حامد
حامل
حاملہ
حامی
حاوی
حاي
حاکم
حب
حبس
حبشہ
حبشی
حبیب
حبیبہ
حت
حتمی
حتی
حثیت
حج
حجاب
حجاج
حجاز
حجامت
حجت
حجر
حجم
حد
حدت
حدود
حدیبیہ
حدیث
حذف
حرارت
حرام
حرامی
حرب
حربہ
حربیات
حرج
حرص
حرف
حرفاں
حرفی
حرفیں
حرم
حروف
حرکات
حرکت
حرکتاں
حریان
حریانی
حریص
حس
حساب
حسابیات
حساس
حسان
حسب
حسد
حسرت
حسن
حسنین
حسین
حسینہ
حسینی
حشر
حص
حصار
حصول
حصوں
حصہ
حصیاں
حصے
حضرات
حضرت
حضور
حضوری
حفاظت
حفاظتی
حفصہ
حفظ
حفہ
حفیظ
حق
حقارت
حقاي
حقدار
حقوق
حقہ
حقیر
حقیقت
حقیقی
حقے
حل
حلال
حلالی
حلب
حلف
حلق
حلقہ
حلقیاں
حلقے
حلواي
حلوہ
حلوے
حلیہ
حم
حماي
حمایت
حمایتی
حمد
حمزہ
حمل
حملہ
حملیاں
حملے
حمید
حنا
حنبل
حنظل
حنفی
حنیف
حنین
حو
حوا
حواس
حوال
حوالہ
حوالیاں
حوالے
حوصلہ
حوصلے
حوض
حول
حون
حویلی
حکام
حکایت
حکم
حکمت
حکمران
حکمراناں
حکمرانی
حکومت
حکومتاں
حکومتی
حکیم
حیا
حیات
حیاتی
حیاتیات
حیاي
حیثی
حیثیت
حیدر
حیدرا
حیدرانی
حیدراݨی
حیدری
حیران
حیرانی
حیرت
حیض
حیل
حیلہ
حیلے
حیوان
حیوانات
حے
خ
خا
خاب
خابیں
خاتمہ
خاتمے
خاتون
خادم
خار
خارج
خارجہ
خارجی
خارش
خاص
خاصا
خاصہ
خاصی
خاصیت
خاطر
خال
خالد
خالص
خالق
خالہ
خالی
خام
خاموش
خاموشی
خامی
خامیاں
خان
خاندان
خانداناں
خاندانی
خانقاہ
خانم
خانماں
خانوادہ
خانپور
خانگی
خانہ
خانی
خانیاں
خانیوال
خانے
خاور
خاوند
خاي
خاک
خاکستری
خاکوانی
خاکہ
خاکی
خاکے
خاں
خبر
خبراں
خبردار
خبری
خبریں
خبط
خبیث
خت
ختم
ختنہ
ختہ
خد
خدا
خدابخش
خداو
خداوند
خداي
خدشات
خدشہ
خدمات
خدمت
خدمتاں
خدیجہ
خذ
خر
خراب
خرابی
خرابیاں
خراج
خراد
خراسان
خراسانی
خراش
خربوزہ
خربوزے
خرت
خرسی
خرم
خروج
خرچ
خرچہ
خرچی
خرچے
خرکار
خرگوش
خری
خرید
خریدار
خریداری
خریدنا
خریف
خزاعہ
خزانہ
خزانے
خزاں
خس
خسارہ
خسارے
خستہ
خسرو
خسرہ
خش
خشبو
خشت
خشتی
خشک
خشکی
خص
خصاي
خصلت
خصلتاں
خصوصا
خصوصی
خصوصیات
خصوصیت
خصیہ
خضر
خط
خطا
خطاب
خطاط
خطاطی
خطاں
خطبہ
خطر
خطرناک
خطرہ
خطرے
خطوط
خطہ
خطی
خطیب
خطے
خفا
خفت
خفقان
خفی
خفیف
خفیہ
خل
خلا
خلاص
خلاصہ
خلاصی
خلاف
خلافت
خلاي
خلدون
خلش
خلط
خلفاء
خلفاي
خلق
خلقت
خلل
خلوص
خلیج
خلیفہ
خلیل
خم
خمار
خمیازہ
خمیدہ
خمیر
خمیس
خن
خنجر
خندق
خو
خواب
خوابیں
خواتین
خواجہ
خوار
خوارزم
خواری
خواص
خوامخواہ
خوان
خوانی
خواں
خواہ
خواہش
خواہشات
خواہشاں
خواہی
خوب
خوبصورت
خوبصورتی
خوبی
خوبیاں
خود
خودی
خور
خوراک
خورد
خوردہ
خورشید
خورہ
خوری
خوش
خوشاب
خوشامد
خوشامدی
خوشبو
خوشبودار
خوشحال
خوشحالی
خوشخبری
خوشنویس
خوشنویسی
خوشگوار
خوشہ
خوشی
خوشیاں
خوشے
خوف
خوفناک
خول
خون
خونخوار
خونی
خوي
خویش
خٹک
خچ
خی
خیال
خیالات
خیالی
خیالیں
خیانت
خیبر
خیر
خیرات
خیراں
خیرپور
خیریت
خیز
خیل
خیلانوالہ
خیلوی
خیمہ
خیمے
خین
د
دء
دا
داء
داب
داتا
داجل
داخل
داخلہ
داخلی
داخلے
داد
دادا
دادو
دار
دارا
دارالحکومت
داراں
دارو
داروں
داری
داریاں
داس
داستان
داستاناں
داسی
داشت
داشتہ
داعظم
داعی
داغ
داغدار
داغنا
داغنے
دافع
دال
دام
داماد
دامان
دامانی
دامن
دان
دانا
داناي
داناں
دانت
دانتوں
دانش
دانشور
دانشوراں
دانشوریں
دانوں
دانگ
دانہ
دانی
دانے
داو
داون
داي
داٻ
داڑھ
داڑھی
داں
دایا
دایہ
داݨا
داݨاں
داݨہ
داݨی
داݨیاں
داݨیں
داݨے
دب
دبا
دبانا
دبانے
دباو
دباوݨ
دبایا
دبدبہ
دبستان
دبي
دبی
دت
دتا
دخل
دخول
دخیل
در
درا
درابن
دراز
درازی
دراصل
درانتی
درانی
دراوڑ
دراوڑی
دراي
دراڑ
دراک
دراں
دربار
درباری
دربھ
درج
درجہ
درجے
درحقیقت
درخت
درختاں
درختوں
درخواس
درخواست
درد
درداں
دردی
دردیں
درز
درزی
درس
درسال
درست
درستی
درشت
درشن
درمیان
درمیانہ
درمیانی
درمیانے
درندے
درو
دروازہ
دروازے
درود
دروغ
دروں
دروہ
درویش
درویشی
درپیش
درک
درکار
درکھاݨ
درگاہ
درگزر
درہ
درہم
دری
دریا
دریافت
دریاو
دریاواں
دریاویں
دریاي
دریاں
دریشک
دریغ
دریں
دریہ
درے
دس
دست
دستار
دستاویز
دستاویزات
دستاویزاں
دستبردار
دستخط
دسترس
دستور
دستک
دستکار
دستکاراں
دستکاری
دستکاریاں
دستہ
دستی
دستیاب
دستے
دسمبر
دشت
دشمن
دشمناں
دشمنی
دشوار
دشواری
دعا
دعاي
دعوت
دعوی
دعوے
دغا
دفاع
دفاعی
دفتر
دفتری
دفع
دفعہ
دفن
دق
دقت
دل
دلا
دلاسا
دلاسہ
دلاسے
دلال
دلالی
دلانا
دلاي
دلاں
دلبر
دلدار
دلدل
دلدلی
دلشاد
دلنور
دلوں
دلچسپ
دلچسپی
دلچسپیاں
دلڑی
دلکش
دلہا
دلہن
دلی
دلیر
دلیری
دلیل
دلیلاں
دلیہ
دم
دماغ
دماغی
دمان
دمانی
دمت
دمشق
دمودر
دمڑی
دمہ
دمی
دمیاں
دمیوں
دن
دنا
دناوت
دندان
دندانے
دنوں
دنگا
دنگل
دنی
دنیا
دنیاوی
دنیاي
دنیاں
دو
دوا
دوات
دوام
دواي
دوبارہ
دود
دودا
دودھ
دودہ
دور
دوران
دوروں
دورہ
دوری
دورے
دوز
دوزخ
دوزی
دوست
دوستانہ
دوستاں
دوستو
دوستوں
دوستی
دوستیں
دوسرا
دوسروں
دوسری
دوسرے
دوش
دوشیزہ
دول
دولت
دولھا
دولہا
دولہے
دولی
دوم
دونوں
دوي
دوپٹہ
دوپٹے
دوپہر
دوچار
دوڑ
دوڑانا
دوڑنا
دوکان
دوکھا
دوکھے
دوں
دوہرا
دوہری
دوہنے
دى
دي
دڑ
دڑکا
دڑکے
دڑی
دک
دکان
دکن
دکھ
دکھانا
دکھانے
دکھاي
دکھوں
دکھی
دگ
دگی
دڳ
دھ
دھا
دھات
دھاتاں
دھاتی
دھار
دھارا
دھاراں
دھاری
دھاریاں
دھارے
دھان
دھاوا
دھاوݨ
دھاي
دھاڑ
دھاڑاں
دھاڑل
دھاڑنا
دھاک
دھاگا
دھاگوں
دھاگہ
دھاگے
دھاڳا
دھاڳیاں
دھاڳے
دھاں
دھایا
دھب
دھبہ
دھبے
دھتکار
دھج
دھجی
دھجیاں
دھدا
دھر
دھرا
دھرتا
دھرتی
دھرم
دھرنا
دھرک
دھری
دھریجہ
دھل
دھم
دھما
دھمال
دھماکے
دھمکانا
دھمکنا
دھمکی
دھمی
دھن
دھند
دھنس
دھنی
دھو
دھواں
دھوبی
دھوتا
دھوتی
دھوتے
دھول
دھوم
دھون
دھونا
دھونس
دھونے
دھووݨ
دھوي
دھوٻی
دھوپ
دھوپا
دھوڑ
دھوڑا
دھوڑان
دھوڑے
دھوکا
دھوکہ
دھوکے
دھوں
دھپ
دھڄ
دھچکا
دھڑ
دھڑا
دھڑام
دھڑک
دھڑی
دھک
دھکا
دھکیلنا
دھکے
دھی
دھیا
دھیان
دھیاں
دھیجݨ
دھیریں
دھیلا
دھیلے
دھیمے
دھین
دھیڑو
دھے
دھݨ
دہ
دہانی
دہاي
دہشت
دہل
دہلوی
دہلی
دہلیز
دہن
دہی
دی
دیا
دیار
دیانت
دیانتی
دیاں
دیباچہ
دیباچے
دیتا
دیتی
دیتے
دید
دیدار
دیداں
دیدہ
دیر
دیرا
دیرہ
دیرے
دیس
دیساں
دیسی
دیش
دیمک
دین
دینا
دینار
دینی
دینے
دیو
دیوار
دیواراں
دیواروں
دیواری
دیواریں
دیوان
دیوانگی
دیوانہ
دیوانی
دیوبند
دیوتا
دیوچ
دیوی
دیي
دیکھ
دیکھا
دیکھتا
دیکھتے
دیکھنا
دیکھنے
دیکھو
دیکھی
دیکھے
دیگ
دیگر
دیگرے
دیں
دیہ
دیہات
دیہاتاں
دیہاتی
دیہہ
دیہی
دے
دےنال
ذ
ذا
ذات
ذاتاں
ذاتی
ذال
ذالیں
ذاي
ذاکر
ذبح
ذبیحہ
ذخیرہ
ذخیرے
ذر
ذرا
ذراي
ذرباي
ذرہ
ذری
ذریعہ
ذریعے
ذرے
ذلت
ذلیل
ذم
ذمہ
ذمے
ذن
ذوالفقار
ذوق
ذکر
ذہانت
ذہن
ذہنی
ذہین
ذی
ذیشان
ذیل
ذیلی
ر
را
راء
راب
رابطہ
رابطے
رابعہ
رات
راتاں
راتوں
راتی
راتیں
راثی
راج
راجا
راجستھان
راجن
راجپوت
راجہ
راحت
راد
رادت
رادھا
رادھی
رادہ
راز
راس
راست
راستہ
راستے
راسی
راشد
راشدہ
راشدین
راضی
راغب
راقب
راقم
رال
رام
راما
رامی
رامے
ران
رانا
رانجھا
رانجھے
رانجھݨ
راند
رانوت
رانی
رانے
راو
راوا
راول
راولپنڈی
راوی
راوݨ
راي
راڄ
راڑ
راڑا
راڑی
راڑے
راکھ
راکھا
راکھی
راگ
راگنی
راڳ
راڳݨی
راں
راہ
راہب
راہسن
راہسوں
راہسی
راہندا
راہندن
راہندی
راہندے
راہون
راہوے
راہوݨ
راہی
راہیں
راہݨ
راݨا
راݨاں
راݨی
راݨیاں
راݨے
رب
ربا
رباعی
ربت
ربط
ربڑ
ربی
ربیع
رت
رتا
رتبہ
رتھ
رتی
رتے
رج
رجب
رجحان
رجحانات
رجسٹر
رجسٹرڈ
رجوع
رح
رحم
رحمان
رحمانی
رحمت
رحمتہ
رحمۃ
رحمۃاللہ
رحمی
رحیم
رخ
رخصت
رخنہ
رخی
رخین
رد
ردا
ردار
ردو
ردہ
ردی
ردیف
ردیں
ردے
رز
رزاق
رزق
رزلٹ
رزمیہ
رزو
رزہ
رزے
رس
رسا
رسال
رسالت
رسالہ
رسالے
رساوݨ
رساي
رساں
رست
رستم
رستہ
رستیاں
رستے
رسد
رسم
رسماں
رسمی
رسمیں
رسوا
رسواي
رسوخ
رسوز
رسول
رسولپوری
رسوم
رسومات
رسہ
رسی
رسیاں
رسید
رسیدہ
رسے
رش
رشتہ
رشتیاں
رشتیں
رشتے
رشد
رشوت
رشک
رشید
رضا
رضاي
رضوی
رضی
رطوبت
رعایا
رعایت
رعب
رعنا
رغ
رغا
رغابی
رغبت
رغی
رف
رفت
رفتار
رفتاری
رفتہ
رفع
رفعت
رفیع
رفیق
رق
رقبہ
رقبے
رقص
رقع
رقم
رقیب
رل
رلا
رلاوݨ
رلدے
رلی
رلے
رم
رمان
رمانہ
رمت
رمز
رمزاں
رمضان
رمضو
رمہ
رمی
رمین
رمینیا
رمینیاي
رمے
رن
رنا
رناں
رنج
رنجش
رنجیت
رنجیدہ
رند
رنگ
رنگا
رنگاي
رنگاں
رنگت
رنگدار
رنگنے
رنگوں
رنگی
رنگین
رنگیں
رنگے
رنڳ
رنڳݨ
رنی
رنے
رو
روا
روابط
رواج
رواداری
روار
روان
روانگی
روانہ
روانی
رواوݨ
رواي
رواں
روایات
روایت
روایتاں
روایتی
روبرو
روبینہ
روتے
روح
روحانی
روحانیت
رود
رودھے
روز
روزانہ
روزمرہ
روزنامچہ
روزنامہ
روزگار
روزہ
روزی
روزے
روس
روسی
روش
روشن
روشنی
روضہ
روغن
روغنی
رول
رولا
رولر
رولے
روم
رومال
رومانوی
رومانی
رومن
رومی
رومیاں
رون
رونا
روندا
روندی
روندیں
روندے
رونق
رونما
رونے
روو
روواں
روون
روونڑ
رووے
رووݨ
روي
روٹھا
روٹھے
روٹی
روٹیاں
روپ
روپي
روپیہ
روپے
روڈ
روڑ
روڑا
روڑی
روڑے
روک
روکا
روکتا
روکنا
روکنے
روکھا
روکھڑی
روکھی
روکے
روکݨ
روگ
روڳ
روڳی
روں
روھی
روہ
روہی
روہیلے
روی
رویاں
رویہ
رویے
روݨق
ري
رٹ
رٹس
رٹسٹ
رٹیکل
رٹݨ
رٻڑ
رپ
رپورٹ
رڄ
رچ
رچرڈ
رچھ
رچھا
رچی
رڈ
رڈر
رڑ
رڑا
رڑھ
رڑی
رڑݨ
رک
رکا
رکار
رکاوٹ
رکاوٹاں
رکاوݨ
رکاي
رکشہ
رکشے
رکن
رکھ
رکھا
رکھتا
رکھتی
رکھتے
رکھدا
رکھدن
رکھدی
رکھدے
رکھن
رکھنا
رکھنڑ
رکھنے
رکھو
رکھوالی
رکھوں
رکھي
رکھی
رکھیا
رکھیاں
رکھین
رکھیندا
رکھیندن
رکھیندی
رکھیندے
رکھیں
رکھیے
رکھے
رکھݨ
رکھݨا
رکھݨی
رکی
رکے
رکݨ
رگ
رگڑ
رگڑا
رگڑنا
رگڑنے
رگیدنا
رڳ
رڳڑ
رڳڑا
رڳڑݨ
رھ
رھے
رہ
رہا
رہاوݨ
رہاي
رہبر
رہتا
رہتی
رہتے
رہسن
رہسی
رہن
رہنا
رہندا
رہندن
رہندی
رہندے
رہنما
رہنماواں
رہنماي
رہنے
رہو
رہونڑ
رہوں
رہوے
رہوݨ
رہي
رہٹ
رہی
رہیا
رہیاں
رہیں
رہیے
رہے
رہݨ
ری
ریا
ریاح
ریاست
ریاستاں
ریاستہاي
ریاستی
ریاض
ریاضت
ریاضی
ریاي
ریاں
ریب
ریت
ریتاں
ریتلی
ریتلے
ریتڑ
ریتڑی
ریتی
ریجنل
ریح
ریحان
رید
ریز
ریزہ
ریزی
ریس
ریسرچ
ریش
ریشم
ریشمی
ریشہ
ریشے
ریل
ریلا
ریلوے
ریلی
ریلیز
ریمت
رین
ریوڑ
ریٹاي
ریچھ
ریڈیو
ریڑھ
ریڑھی
ریکارڈ
ریکٹر
ریگستان
ریگستانی
ریں
ریہ
ریہا
ریہاں
ریہن
ریہہ
ریہی
ریہے
رے
رݨ
ز
زا
زات
زاد
زادانہ
زادہ
زادی
زار
زاری
زال
زانور
زانوراں
زانی
زاوي
زاویہ
زاویے
زاي
زاں
زاہد
زاہدہ
زبان
زباناں
زبانوں
زبانی
زبانیں
زبر
زبردست
زبردستی
زبیدہ
زبیر
زخم
زخماں
زخموں
زخمی
زد
زدار
زدگی
زدہ
زر
زرا
زراعت
زرخیز
زرد
زرداری
زردوزی
زردہ
زردی
زرعی
زرقانی
زرگ
زری
زعفران
زفاف
زلزلہ
زلف
زلفاں
زلہل
زم
زما
زمان
زمانا
زمانہ
زمانی
زمانیاں
زمانے
زماوݨ
زماي
زماں
زمرے
زمودہ
زمی
زمین
زمیناں
زمیندار
زمینوں
زمینی
زمینیں
زمیں
زن
زنا
زنان
زنانہ
زنانی
زنانیاں
زنانیت
زنانے
زناور
زناوراں
زنجیر
زندگی
زندہ
زنز
زنگ
زنگی
زنی
زو
زوال
زوجہ
زود
زور
زوری
زوریں
زوں
زي
زچ
زک
زکام
زکریا
زہ
زہر
زہرہ
زہریلا
زیاد
زیادتی
زیادہ
زیارت
زیان
زیاں
زیب
زیباي
زیتون
زید
زیدی
زیر
زیرا
زیریں
زیشن
زین
زینب
زینت
زینہ
زینے
زیور
زیورات
زے
س
سا
ساب
سابق
سابقہ
سات
ساتویں
ساتھ
ساتھی
ساتھیاں
ساجد
ساجن
ساجھی
ساجھے
ساحر
ساحل
ساحلی
ساخ
ساخت
ساختہ
ساختی
ساد
سادا
سادات
سادگی
سادھ
سادھو
سادہ
سادی
سادے
سار
سارا
سارنگ
سارنگی
سارہ
ساری
ساریاں
ساریں
سارے
سارݨ
ساز
سازش
سازشاں
سازگار
سازی
ساس
ساط
ساغر
سافٹ
ساقی
سال
سالا
سالار
سالانہ
سالاں
سالم
سالن
سالھ
سالھیں
سالہ
سالی
سالیں
سام
سامان
سامعین
سامنا
سامنڑے
سامنے
سامھݨاں
سامھݨے
سامہݨے
سامی
سامݨا
سامݨے
سان
سانبھ
سانبھی
سانجھ
سانجھا
سانجھی
سانجھے
سانحہ
سانس
سانول
سانولا
سانولی
سانونڑ
سانوں
سانویں
سانوݨ
سانپ
سانچہ
سانچے
سانگ
سانگا
سانگوں
سانگھڑی
سانگھے
سانگے
سانڳے
سانی
ساو
ساوا
ساول
ساون
ساوی
ساویاں
ساوے
ساوݨ
ساي
ساٹھ
ساڈ
ساڈا
ساڈھے
ساڈی
ساڈیاں
ساڈے
ساڑ
ساڑا
ساڑے
ساڑݨ
ساک
ساکداریاں
ساکن
ساکوں
ساکھ
ساگ
ساگر
ساڳ
ساڳی
ساں
ساہ
ساہواں
ساہی
ساہیوال
سایا
سایہ
ساݙا
ساݙی
ساݙیاں
ساݙے
سب
سبب
سبتک
سبحان
سبز
سبزل
سبزی
سبزیاں
سبق
سبقت
سبکدوش
سبھ
سبھا
سبھو
سبھی
سبھے
ست
ستا
ستاد
ستار
ستارا
ستاروں
ستارہ
ستارے
ستان
ستانہ
ستانی
ستاي
ستت
ستر
سترا
ستری
سترے
ستعمال
ستقبل
ستلج
ستم
ستمبر
ستواں
ستون
ستویں
ستگی
ستھرا
ستہ
ستی
ستیاناس
ستیاں
ستین
ستے
سج
سجا
سجاد
سجادہ
سجانا
سجاول
سجاوٹ
سجاوݨ
سجاي
سجاک
سجایا
سجدہ
سجدے
سجن
سجنا
سجنڑ
سجھ
سجی
سجے
سجݨ
سحر
سحری
سخاوت
سخت
سختی
سخن
سخی
سد
سدا
سدوزي
سدھ
سدھا
سدھاي
سدھی
سدھے
سدی
سدے
سر
سرا
سراج
سراسر
سراغ
سرال
سرانجام
سراندی
سراي
سراں
سرایي
سربراہ
سربراہی
سرت
سرحد
سرحداں
سرحدی
سرخ
سرخرو
سرخی
سرد
سردا
سردار
سرداراں
سرداری
سرداریں
سردی
سردیاں
سردیوں
سرزمین
سرزنش
سرسبز
سرسوتی
سرسوں
سرفراز
سرما
سرماي
سرمایہ
سرمد
سرمست
سرمی
سرو
سرور
سروس
سروں
سروے
سرپرست
سرپرستی
سرکار
سرکاری
سرکش
سرکشی
سرکنڈا
سرکنڈوں
سرکنڈے
سرگرداں
سرگرم
سرگرمیاں
سرگودھا
سری
سریا
سرے
سرݨ
سزا
سزاي
سس
سست
سستا
سستی
سسرال
سسٹم
سسی
سط
سطح
سطر
سطراں
سعادت
سعد
سعداللہ
سعودی
سعی
سعید
سعیدی
سفارش
سفر
سفرنامہ
سفریں
سفلہ
سفوف
سفیان
سفید
سفیدی
سفیر
سقوط
سل
سلا
سلاخ
سلاد
سلاطین
سلام
سلامت
سلامتی
سلامی
سلاي
سلسلہ
سلسلے
سلطان
سلطانہ
سلطنت
سلطنتاں
سلم
سلمان
سلمہ
سلنڈر
سلو
سلوار
سلوک
سلھ
سلی
سلیقہ
سلیقے
سلیم
سلیمان
سلیٹی
سم
سما
سماء
سماج
سماجت
سماجی
سماجیات
سماعت
سمان
سمانا
سمانی
سماوݨ
سماي
سماں
سمت
سمجھ
سمجھا
سمجھانا
سمجھاوݨ
سمجھایا
سمجھدا
سمجھدار
سمجھداں
سمجھدن
سمجھدے
سمجھن
سمجھنا
سمجھنے
سمجھو
سمجھوتہ
سمجھی
سمجھیا
سمجھیندے
سمجھیں
سمجھے
سمجھݨ
سمل
سمن
سمندر
سمندری
سمورا
سمیت
سمیرا
سمیٹ
سمیٹنا
سمے
سمݨ
سن
سنا
سنار
سنانا
سناي
سنبھال
سنبھالنا
سنبھالݨ
سنبھل
سنت
سنج
سنجان
سنجانڑ
سنجھ
سنجیدگی
سنجیدہ
سند
سنداری
سندھ
سندھو
سندھی
سندھیں
سنز
سنس
سنسکرت
سنن
سننا
سننے
سنوارنا
سنواں
سنویں
سنٹر
سنٹرل
سنڄاݨ
سنڑ
سنگ
سنگار
سنگت
سنگتی
سنگتیاں
سنگتیں
سنگدي
سنگم
سنگھ
سنگھار
سنگھڑ
سنڳت
سنڳتی
سنہ
سنہری
سنی
سنیاسی
سنیہا
سنے
سو
سوا
سواد
سوادی
سوار
سواراں
سواری
سواریاں
سواس
سوال
سوالات
سوالی
سوالیں
سوالیہ
سوانح
سواوݨ
سواي
سوبھ
سوت
سوتر
سوتی
سوتیلا
سوتیلی
سوتے
سوج
سوجن
سوجھل
سوجھلا
سوجھلے
سوجھنا
سوجھواݨ
سود
سودا
سوداگر
سودگی
سودھا
سودہ
سودے
سور
سوراخ
سورج
سورہ
سورۃ
سوری
سوز
سوزاک
سوزش
سوزی
سوساي
سوشل
سوغات
سول
سولنگى
سولنگی
سولھاں
سولہ
سولہویں
سولی
سوم
سومرو
سومرہ
سون
سونا
سوناں
سونف
سونہاں
سونہہ
سونے
سوویت
سوي
سوٹ
سوٹا
سوٹی
سوڄ
سوچ
سوچا
سوچاں
سوچن
سوچنا
سوچنڑ
سوچو
سوچیا
سوچیندا
سوچیندے
سوچیں
سوچے
سوچݨ
سوڈان
سوڑ
سوڑا
سوک
سوکڑی
سوکھ
سوکھا
سوکھڑی
سوکھی
سوکھے
سوگ
سوڳ
سوں
سوھنڑی
سوہر
سوہرے
سوہن
سوہنا
سوہنڑاں
سوہنڑی
سوہنڑیں
سوہنڑے
سوہنی
سوہنے
سوہݨا
سوہݨاں
سوہݨپ
سوہݨی
سوہݨیاں
سوہݨے
سویر
سویرے
سویل
سویلے
سویڈن
سویں
سي
سٹ
سٹا
سٹار
سٹاي
سٹاں
سٹریا
سٹریلیا
سٹور
سٹوڈیو
سٹڈی
سٹھ
سٹہ
سٹی
سٹیا
سٹیج
سٹین
سٹیندے
سٹینڈ
سٹے
سٹݨ
سپاہ
سپاہی
سپاہیاں
سپر
سپرد
سپورٹ
سپہ
سپیکر
سڄ
سڄی
سڄے
سڄݨ
سڄݨاں
سچ
سچا
سچاي
سچل
سچی
سچیاں
سچے
سڈ
سڈیا
سڑ
سڑدے
سڑول
سڑک
سڑکاں
سڑی
سڑیا
سڑݨ
سک
سکا
سکار
سکالر
سکت
سکتا
سکتی
سکتے
سکدا
سکدی
سکدے
سکرات
سکرپٹ
سکرین
سکنا
سکندر
سکنے
سکو
سکوت
سکول
سکولاں
سکون
سکونت
سکھ
سکھا
سکھانا
سکھانی
سکھانے
سکھاوݨ
سکھاي
سکھاں
سکھایا
سکھدے
سکھر
سکھڑیں
سکھی
سکھیا
سکھݨ
سکہ
سکی
سکیاں
سکیسر
سکینہ
سکیں
سکے
سکݨ
سگ
سگدا
سگدن
سگدی
سگدے
سگریٹ
سگن
سگی
سگیا
سگے
سڳ
سڳا
سڳدا
سڳدن
سڳدوں
سڳدی
سڳدیاں
سڳدے
سڳسی
سڳن
سڳواں
سڳوں
سڳی
سڳیا
سڳین
سڳے
سڳݨ
سہ
سہارا
سہارنے
سہارے
سہارݨ
سہاگ
سہرا
سہروردی
سہرے
سہل
سہم
سہن
سہنا
سہو
سہولت
سہہ
سہی
سہیل
سہیلی
سہیلیاں
سہݨ
سی
سیا
سیاح
سیاحت
سیارہ
سیارے
سیاست
سیاستدان
سیاسی
سیاسیات
سیال
سیالا
سیالکوٹ
سیالے
سیاں
سیاہ
سیاہی
سیاݨا
سیاݨاں
سیاݨی
سیاݨے
سیب
سیت
سیتا
سیتلاں
سیتی
سیتے
سیج
سیجھ
سیخ
سید
سیدنا
سیدھا
سیدھی
سیدھے
سیدہ
سیر
سیراب
سیرابی
سیرت
سیریز
سیریل
سیزن
سیشن
سیف
سیفل
سیل
سیلاب
سیلابی
سیلی
سیم
سیمنٹ
سین
سینا
سیندھ
سینما
سیني
سینٹ
سینٹر
سینٹی
سینکڑاں
سینکڑے
سینگ
سینگوں
سینگیاں
سینہ
سینیٹ
سینیٹر
سینے
سیوا
سیوݨ
سیي
سیٹ
سیٹاں
سیٹھ
سیٹی
سیپ
سیڑھ
سیک
سیکرٹری
سیکرٹریٹ
سیکریٹری
سیکنڈ
سیکھنا
سیں
سیہڑ
سے
سݙ
سݙا
سݙیا
سݙین
سݙیندا
سݙیندن
سݙیندی
سݙیندے
سݙݨ
سݨ
سݨا
سݨاوݨ
سݨاي
سݨی
سݨݨ
ش
شا
شاباش
شابر
شابش
شاخ
شاخاں
شاخوں
شاخہ
شاخیں
شاد
شاداب
شادن
شادو
شادی
شادیاں
شارت
شارک
شارہ
شازیہ
شاعر
شاعرانہ
شاعراں
شاعرہ
شاعری
شاعریں
شال
شالا
شام
شامت
شامل
شامی
شامیانے
شان
شانتی
شاند
شاندار
شانہ
شانی
شاي
شاپ
شاک
شاکا
شاکر
شاگرد
شاگرداں
شاگردی
شاں
شاھد
شاہ
شاہد
شاہر
شاہراہ
شاہنواز
شاہکار
شاہی
شاہین
شاید
شب
شباب
شبان
شباہت
شبد
شبلی
شبنم
شبہ
شبیر
شبیہ
شت
شتر
شتربان
شتہ
شتی
شتے
شجاع
شجاعت
شجرہ
شخص
شخصی
شخصیات
شخصیت
شد
شدت
شدہ
شدید
شر
شراب
شرابہ
شرارت
شرارتی
شرافت
شراي
شراکت
شربت
شرح
شرر
شرط
شرعی
شرف
شرقیہ
شرم
شرما
شرمسار
شرمساری
شرمندگی
شرمندہ
شرمی
شرنا
شروع
شروعات
شرک
شرکاء
شرکت
شری
شریر
شریعت
شریف
شریک
شش
ششدر
شطرنج
شعار
شعبان
شعبہ
شعبیاں
شعبے
شعر
شعرا
شعراء
شعراں
شعری
شعلہ
شعلے
شعور
شعوری
شعیب
شغل
شفا
شفتہ
شفقت
شفیع
شفیق
شق
شل
شلغم
شلوار
شم
شمار
شمارہ
شماری
شمارے
شمال
شمالی
شمس
شمسی
شمع
شمل
شمن
شمولیت
شمیم
شمݨ
شن
شنا
شناخت
شناس
شناسی
شناي
شو
شوال
شوب
شوخ
شوخی
شودا
شودے
شور
شورش
شورہ
شوشہ
شوق
شوقین
شوم
شون
شوکت
شوگر
شوہر
شي
شپ
شک
شکار
شکاری
شکاریات
شکایت
شکر
شکریہ
شکست
شکستہ
شکل
شکلاں
شکلیں
شکم
شکن
شکنی
شکوہ
شکوے
شکی
شکیل
شگاف
شگفتہ
شگوفہ
شگون
شھر
شہ
شہاب
شہادت
شہباز
شہتیر
شہد
شہر
شہراں
شہرت
شہروں
شہرہ
شہری
شہریں
شہزاد
شہزادعرفان
شہزادہ
شہزادی
شہزادے
شہناي
شہنشاہ
شہوت
شہید
شہیداں
شی
شیار
شیت
شیخ
شیخی
شیر
شیراز
شیرازی
شیرمحمد
شیروانی
شیرہ
شیریں
شیرے
شیشہ
شیشے
شیطان
شیعہ
شین
شیو
شیي
شیڈ
شیکل
شے
ص
صابر
صابری
صابن
صاحب
صاحبان
صاحبزادہ
صاحبزادے
صاحبہ
صادق
صاف
صالح
صاي
صبا
صباح
صبح
صبر
صحابہ
صحابی
صحافت
صحافی
صحبت
صحت
صحرا
صحراي
صحن
صحیح
صد
صدا
صدارت
صدارتی
صداقت
صداي
صدر
صدق
صدقہ
صدقے
صدمہ
صدمے
صدی
صدیاں
صدیق
صدیقی
صدیں
صراحی
صراف
صرافہ
صرف
صطلاح
صغری
صغیر
صف
صفا
صفات
صفاتی
صفاي
صفت
صفتاں
صفتی
صفحات
صفحہ
صفحے
صفدر
صفر
صفرا
صفراء
صفی
صفیہ
صقلیہ
صل
صلاح
صلاحی
صلاحیت
صلاحیتاں
صلح
صلہ
صلی
صلیب
صندوق
صنعت
صنعتی
صنف
صنفاں
صنفی
صنم
صوباي
صوبہ
صوبیاں
صوبیں
صوبے
صوت
صوتاں
صوتی
صورت
صورتاں
صورتحال
صوفی
صوفیا
صوفیاء
صوفیانہ
صول
صہ
صیب
صیغہ
صیغے
صیہب
ض
ضابطہ
ضابطیاں
ضابطے
ضامن
ضاي
ضایو
ضبط
ضخیم
ضد
ضدی
ضرب
ضرر
ضرور
ضرورت
ضرورتاں
ضروری
ضروریات
ضعیف
ضلع
ضلعی
ضلعیاں
ضلعے
ضم
ضمانت
ضماي
ضمن
ضمنی
ضمیر
ضمیراں
ضمیری
ضیا
ضیاء
ط
طا
طارق
طاری
طاق
طاقت
طاقتاں
طاقتور
طالب
طالبان
طان
طاي
طاہر
طاہرہ
طب
طباخی
طباعت
طبری
طبع
طبعی
طبقات
طبقاتی
طبقہ
طبقے
طبلہ
طبلے
طبی
طبیب
طبیعت
طبیعیات
طرانح
طرانویں
طراں
طرح
طرحاں
طرز
طرزاں
طرف
طرفداری
طرفوں
طریق
طریقت
طریقہ
طریقیاں
طریقے
طعام
طعن
طعنہ
طعنے
طغرل
طغیانی
طف
طفل
طفیل
طلاق
طلاي
طلب
طلبہ
طلبی
طلوع
طمع
طن
طنز
طنزا
طنزیہ
طواف
طوالت
طواي
طور
طورتے
طوطا
طوطے
طوفان
طول
طویل
طہور
طیبہ
طے
طݨاب
طݨابی
ظ
ظالم
ظامی
ظاہر
ظاہری
ظرف
ظرفی
ظفر
ظلم
ظہر
ظہور
ظہیر
ظی
ع
عا
عابد
عابدہ
عاجز
عاجزی
عادات
عادت
عادتاں
عادل
عادی
عار
عارضی
عارف
عاری
عاشق
عاصم
عاطف
عاقبت
عاقل
عالم
عالمگیر
عالمی
عالی
عالیہ
عام
عامر
عامل
عامہ
عاي
عب
عبادت
عبارت
عباس
عباسی
عباسیاں
عباسیہ
عبد
عبدالباسط
عبدالحق
عبدالخالق
عبدالرحم
عبدالرحمن
عبدالرزاق
عبدالرشید
عبدالشکور
عبدالطیف
عبدالعزیز
عبدالقادر
عبداللطیف
عبداللہ
عبدالمجید
عبدالمطلب
عبدالملک
عبدالکریم
عبرانی
عبرت
عبور
عبید
عبیداللہ
عتیق
عثمان
عثمانی
عثمانیہ
عجاي
عجب
عجز
عجلت
عجیب
عد
عدالت
عدالتی
عداوت
عدد
عددی
عدل
عدم
عذاب
عذر
عر
عراق
عراقی
عرب
عرباں
عربی
عرس
عرش
عرصہ
عرصے
عرض
عرضی
عرف
عرفان
عرق
عروج
عروض
عریض
عز
عزت
عزتی
عزم
عزیز
عسکری
عشاء
عشرت
عشق
عشقیہ
عصر
عصری
عصمت
عضو
عطا
عطاء
عطف
عطیہ
عظمت
عظیم
عظیمی
عظیمیہ
عقاب
عقاي
عقب
عقبی
عقل
عقلی
عقیدت
عقیدہ
عقیدے
عقیل
عل
علاج
علاقاي
علاقوں
علاقہ
علاقیاں
علاقیں
علاقے
علامات
علامت
علامتاں
علامتی
علامہ
علان
علاوہ
علت
علم
علما
علماء
علماي
علماں
علمی
علوم
علوی
على
علی
علیحدگی
علیحدہ
علیل
علیکم
علیہ
علیہا
عمارات
عمارت
عمارتاں
عمان
عمدہ
عمر
عمران
عمرانی
عمراں
عمرو
عمرہ
عمری
عمل
عملی
عملے
عمودی
عموما
عمومی
عمیر
عن
عناصر
عنایت
عنصر
عنوان
عنہ
عنہا
عوام
عوامل
عوامی
عورت
عورتاں
عورتوں
عورتیں
عوض
عوف
عکاسی
عکس
عہد
عہدہ
عہدیاں
عہدیدار
عہدے
عی
عیار
عیاری
عیاشی
عیال
عیاں
عیب
عید
عیساي
عیسوی
عیسی
عیش
عیلی
عین
عینک
غ
غا
غات
غار
غارت
غاز
غازی
غازیخان
غازیخاں
غاصب
غافل
غالب
غالبا
غاي
غاں
غبار
غبن
غت
غدار
غداری
غدود
غذا
غذاي
غربت
غرض
غرضی
غرق
غرناطہ
غروب
غرور
غریب
غریباں
غریبی
غریبیں
غز
غزالی
غزل
غزلاں
غزلیں
غزنوی
غزوات
غزوہ
غسل
غص
غصب
غصہ
غصے
غض
غضب
غفلت
غفور
غل
غلاب
غلاظت
غلاف
غلام
غلاماں
غلامی
غلبہ
غلبے
غلط
غلطی
غلطیاں
غلولی
غلہ
غلیظ
غلیل
غلے
غم
غمخوار
غمگین
غمی
غنہ
غنی
غنیمت
غوث
غور
غوری
غوش
غوطہ
غوغا
غول
غیب
غیبت
غیر
غیرا
غیراں
غیرت
غیرتمند
غیرتی
غیروں
غیرے
غیور
ـ
ــ
ـــ
ــــ
ف
فا
فات
فاتح
فاتحہ
فاحشہ
فاختہ
فار
فارس
فارسی
فارغ
فارم
فاروق
فاروقی
فاش
فاصلہ
فاصلے
فاضل
فاطمہ
فاطمی
فاعل
فاعلاتن
فاعلی
فاق
فاقہ
فاقی
فال
فالتو
فالج
فانی
فاو
فاي
فت
فتاب
فتادہ
فتح
فتنہ
فتوحات
فتوی
فتوے
فتہ
فتی
فجاي
فجر
فجریں
فحش
فخر
فدا
فداحسین
فداي
فر
فرات
فراخ
فرار
فراز
فراغت
فراق
فراموش
فرانس
فرانسیسی
فراوانی
فراي
فراہم
فربہ
فرج
فرحت
فرخ
فرد
فرزند
فرش
فرشتہ
فرشتے
فرصت
فرض
فرضی
فرعون
فرق
فرقہ
فرقیاں
فرقے
فرما
فرمان
فرماو
فرماوے
فرماي
فرماں
فرمایا
فرمیندن
فرمیندے
فرنگی
فروخت
فروری
فروش
فروشی
فروغ
فروٹ
فرھاد
فری
فریاد
فریب
فریبی
فرید
فریدی
فریدیات
فریضہ
فریفتہ
فریق
فریقین
فریم
فرین
فس
فساد
فسادی
فشاں
فص
فصل
فصلات
فصلاں
فصلوں
فصلیں
فصیل
فضا
فضاي
فضل
فضلہ
فضلی
فضول
فضیلت
فطرت
فطری
فعال
فعل
فعلی
فق
فقرہ
فقرے
فقط
فقہ
فقی
فقیر
فقیرا
فقیراں
فقیروں
فقیری
فقیریں
فقیہ
فل
فلاح
فلاسی
فلاں
فلسطین
فلسفہ
فلسفی
فلسفے
فلم
فلماں
فلمی
فلک
فلکیات
فلیپ
فن
فنا
فنون
فنڈ
فنکار
فنکاراں
فنکارہ
فنی
فوارہ
فوت
فوج
فوجاں
فوجی
فورا
فورم
فورٹ
فوری
فولاد
فون
فوٹو
في
فٹ
فکر
فکرا
فکری
فکشن
فہرست
فہم
فہمی
فہیم
فی
فیاض
فید
فیدہ
فیروز
فیس
فیسر
فیشن
فیصد
فیصل
فیصلہ
فیصلے
فیض
فیل
فیلڈ
فیملی
فیي
فیڈریشن
فیہ
ق
قا
قاب
قابض
قابل
قابلیت
قابو
قات
قاتل
قادر
قادری
قادیانی
قاري
قاری
قاسم
قاسمی
قاش
قاصد
قاصر
قاضی
قاعدہ
قاعدیاں
قاعدے
قافلہ
قافلے
قافیہ
قال
قالب
قالین
قامت
قانون
قانونی
قاي
قاہرہ
قبال
قباي
قبر
قبراں
قبرستان
قبرص
قبض
قبضہ
قبضے
قبل
قبلہ
قبول
قبیلہ
قبیلیاں
قبیلے
قتال
قتل
قتلام
قتی
قحط
قد
قدامت
قدر
قدراں
قدرت
قدرتی
قدرتیات
قدری
قدرے
قدم
قدماں
قدموں
قدمچے
قدمی
قدیم
قدیمہ
قدیمی
قرا
قرابت
قرار
قرارداد
قراری
قران
قرب
قربان
قربانی
قربانیاں
قربت
قرض
قرضہ
قرضے
قرطبہ
قرعہ
قرون
قریب
قریبی
قریش
قریشی
قریظہ
قرینہ
قسط
قسم
قسماں
قسمت
قسمتی
قسمی
قسمیں
قص
قصاب
قصان
قصاي
قصبہ
قصبے
قصور
قصولی
قصہ
قصیاں
قصیدہ
قصیدے
قصے
قضا
قطار
قطب
قطر
قطرہ
قطرے
قطع
قطعات
قطعہ
قطعی
قعت
قف
قل
قلاش
قلب
قلت
قلعہ
قلعی
قلعے
قلم
قلمی
قلندر
قلندری
قلی
قلیل
قم
قمر
قمری
قمیص
قمیض
قن
قنات
قندھار
قندھاری
قنون
قواعد
قوال
قوالی
قوانین
قوت
قوتاں
قوس
قول
قولنج
قوم
قوماں
قومتی
قومی
قومیت
قومیتی
قومیں
قوی
قہ
قہر
قیادت
قیاس
قیاسی
قیام
قیامت
قید
قیدی
قیدیاں
قیذ
قیذی
قیس
قیصر
قیصرانی
قیصراݨی
قیمت
قیمتی
قیمہ
قینچی
قے
ك
كتاب
ل
لا
لاء
لاب
لابی
لات
لاتا
لاتھا
لاتھن
لاتھی
لاتھے
لاتی
لاتے
لاج
لاجواب
لاحق
لاحقہ
لاحقے
لار
لارا
لارڈ
لاری
لارے
لازم
لازمی
لازوال
لاس
لاسا
لاش
لاشاری
لاشاں
لاطینی
لاع
لاغر
لاف
لال
لالاں
لالٹین
لالٹیناں
لالچ
لالچی
لالہ
لالی
لالیاں
لام
لان
لانا
لانواں
لانگ
لانگھا
لانہہ
لانے
لاو
لاوا
لاوارث
لاواں
لاون
لاوے
لاوݨ
لاي
لاٹ
لاٹھی
لاپ
لاڄ
لاچار
لاچی
لاڈ
لاڑ
لاک
لاکھ
لاکے
لاگ
لاگت
لاگو
لاڳ
لاڳت
لاں
لاھور
لاہ
لاہور
لاہوری
لاہی
لاہݨا
لایا
لاݙ
لاݨا
لب
لباس
لبالب
لباں
لبریز
لبل
لبنان
لبھ
لبھدے
لبھے
لبھݨ
لت
لتا
لتان
لتانی
لتاڑ
لتاڑنا
لتاڑݨ
لتاں
لتھا
لتھی
لتھے
لتی
لج
لجھ
لجھا
لجھاو
لجھن
لجھنا
لحاظ
لحظہ
لحظے
لخ
لخاں
لخت
لد
لدا
لدن
لدھا
لدی
لدین
لدے
لذت
لذیذ
لر
لرزہ
لزام
لس
لسانی
لسانیات
لسٹ
لسی
لش
لشاری
لشکر
لطف
لطیف
لطیفہ
لعل
لعن
لعنت
لغات
لغاری
لغام
لغت
لغزش
لغوی
لف
لفت
لفظ
لفظاں
لفظی
لفظیں
لق
لقب
لقمہ
لل
للہ
لم
لماں
لمبا
لمباي
لمباݨ
لمبر
لمبوترا
لمبی
لمبیاں
لمبے
لمحہ
لمحے
لمی
لمے
لن
لنا
لند
لندن
لنڈ
لنکا
لنگ
لنگاہ
لنگر
لنگڑا
لنگھ
لنگھاوݨ
لنگھدا
لنگھدے
لنگھݨ
لنے
لو
لوا
لوار
لوازمات
لواوݨ
لواي
لواں
لوبھ
لوبھی
لوتھڑا
لوث
لوح
لود
لودگی
لودھراں
لودھی
لودہ
لوری
لوط
لوظ
لوظی
لوظیں
لولی
لومڑی
لون
لونگ
لوي
لوٹ
لوٹا
لوٹنا
لوٹے
لوڈ
لوڑ
لوڑاں
لوڑھ
لوڑھا
لوڑھی
لوڑھݨ
لوک
لوکاي
لوکاں
لوکل
لوکو
لوکی
لوکیں
لوگ
لوگاں
لوگو
لوگوں
لوں
لوہ
لوہا
لوہار
لوہاری
لوہے
لویں
لوݙی
لوݨ
لوݨیاں
لى
لي
لٹ
لٹا
لٹاواں
لٹریچر
لٹنا
لٹو
لٹک
لٹکا
لٹکانا
لٹکانے
لٹکاوݨ
لٹکاي
لٹکایا
لٹکتا
لٹکدا
لٹھ
لٹی
لٹے
لٹݨ
لپ
لپاي
لپیٹ
لپیٹا
لپیٹنا
لپیٹنے
لڄ
لچ
لچسپیاں
لچک
لچھ
لڈ
لڈو
لڑ
لڑا
لڑانا
لڑانے
لڑاوݨ
لڑاي
لڑاکا
لڑدا
لڑدے
لڑن
لڑنا
لڑنے
لڑکا
لڑکوں
لڑکی
لڑکیاں
لڑکیوں
لڑکے
لڑھ
لڑی
لڑیاں
لڑیوں
لڑے
لڑݨ
لک
لکا
لکار
لکاوݨ
لکاں
لکڑ
لکڑی
لکڑیاں
لکڑیوں
لکھ
لکھا
لکھاری
لکھاریاں
لکھاریں
لکھاي
لکھاں
لکھت
لکھتاں
لکھدا
لکھداں
لکھدن
لکھدے
لکھن
لکھنا
لکھنو
لکھنڑ
لکھنے
لکھو
لکھي
لکھی
لکھیا
لکھیاں
لکھین
لکھیندے
لکھیي
لکھیے
لکھے
لکھݨ
لکھݨا
لکی
لکیر
لکیراں
لکیریں
لکے
لکݨ
لگ
لگا
لگاتا
لگاتے
لگام
لگان
لگانا
لگانے
لگاو
لگاي
لگایا
لگتا
لگتی
لگتے
لگدا
لگدن
لگدی
لگدے
لگسی
لگن
لگنا
لگنے
لگوانا
لگی
لگیا
لگے
لڳ
لڳا
لڳدا
لڳدن
لڳدی
لڳدے
لڳسی
لڳی
لڳیا
لڳیاں
لڳے
لڳݨ
لھ
لھا
لھاوݨ
لھوان
لھوانی
لھیٹ
لھیٹݨ
لھݨاں
لہ
لہا
لہاوݨ
لہاي
لہایا
لہجہ
لہجیاں
لہجے
لہذا
لہر
لہراں
لہسن
لہن
لہندا
لہندی
لہندے
لہو
لہور
لہوری
لہہ
لہیں
لہݨ
لی
لیا
لیاقت
لیاں
لیبیا
لیت
لیتا
لیتی
لیتے
لیر
لیراں
لیس
لیساں
لیسی
لیفٹیننٹ
لیل
لیلا
لیلی
لیلے
لیمپ
لین
لینا
لیندا
لیندن
لیندی
لیندے
لینچو
لینڈ
لینگوي
لینے
لیول
لیوی
لیي
لیٹ
لیپ
لیپا
لیڈر
لیڈرشپ
لیک
لیکا
لیکن
لیکچر
لیکچرار
لیکھ
لیکھا
لیکھے
لیکے
لیگ
لیں
لیہ
لیہہ
لیے
لے
لݙ
لݙا
لݨ
م
ما
ماء
مات
ماتا
ماتحت
ماتراں
ماتروں
ماترے
ماتم
ماتھا
ماتھے
ماحول
ماحولیات
ماحولیاتی
ماخ
ماخذ
ماخوذ
مادر
مادری
مادگی
مادہ
مادی
مادے
مار
مارا
ماراں
مارتا
مارتے
مارشل
مارن
مارنا
مارنڑ
مارنے
مارو
ماروں
ماروی
ماري
مارچ
مارکا
مارکس
مارکسی
مارکہ
مارکیٹ
ماری
ماریا
ماریاں
ماریے
مارے
مارݨ
ماس
ماسٹر
ماسی
ماش
ماشکی
ماضی
مال
مالا
مالش
مالک
مالکاں
مالگزاری
مالھ
مالی
مالیہ
مام
ماما
مامور
مامون
ماموں
مامے
مان
مانا
ماندہ
ماندی
ماندے
مانس
ماننا
مانند
ماننے
مانوس
مانڑ
مانگ
مانگنا
مانگنے
مانگے
مانی
مانے
ماو
ماوا
ماواں
ماوݨ
ماي
ماچھکہ
ماچھی
ماڈرن
ماڈل
ماڈیول
ماڑ
ماڑی
ماڑیاں
ماکھی
ماں
ماہ
ماہانہ
ماہر
ماہرین
ماہنامہ
ماہی
ماہیا
مایا
مایوس
مایوسی
مایہ
ماݨ
مب
مبا
مباحث
مبارت
مبارتاں
مبارخ
مبارخاں
مبارک
مبارکباد
مباشرت
مبالغہ
مبتلا
مبشر
مبنی
مبھار
مبہم
مت
متا
متاثر
متاع
متاں
متبادل
متبن
متحد
متحدہ
متحرک
متذبذب
مترادف
متراي
مترجم
متروک
متصل
متضاد
متعارف
متعدد
متعدی
متعل
متعلق
متعلقات
متعلقہ
متعین
متفر
متفرق
متفق
متفقہ
متلی
متن
متنازعہ
متواتر
متوازن
متوازی
متوجہ
متوفی
متوقع
متوں
متکبر
متکلم
متھا
متھاج
متھے
متی
مثال
مثالاں
مثالی
مثالیں
مثانہ
مثبت
مثل
مثلا
مثنوی
مجاز
مجازا
مجازی
مجال
مجامعت
مجاھد
مجاہد
مجاہدین
مجبور
مجبورا
مجبوری
مجبوریاں
مجرد
مجرم
مجروح
مجسمہ
مجسٹریٹ
مجلس
مجلہ
مجمع
مجموعہ
مجموعی
مجموعے
مجنوں
مجھ
مجھے
مجہول
مجید
محاذ
محاصرہ
محاصرے
محافظ
محاورہ
محاورے
محب
محبت
محبتاں
محبتی
محبتیں
محبوب
محبوبہ
محتاج
محتاط
محترم
محترمہ
محدث
محدثین
محدود
محذوف
محر
محراب
محرم
محروم
محرومی
محرومیاں
محرک
محسن
محسوس
محشر
محصول
محض
محفل
محفلاں
محفوظ
محقق
محققین
محل
محلہ
محلے
محمد
محمدی
محمود
محنت
محنتی
محو
محور
محکمہ
محکمے
محکوم
محی
محیط
مخاطب
مخالف
مخالفت
مخبر
مخبری
مختار
مختصر
مختفی
مختلف
مختیار
مخدوم
مخصوص
مخصوصہ
مخفی
مخلص
مخلوط
مخلوق
مخمور
مخواہ
مخول
مد
مدا
مداخلت
مدار
مدارت
مداری
مدت
مدد
مددگار
مدرسہ
مدرسے
مدعا
مدعو
مدعی
مدفن
مدن
مدنی
مدھانی
مدھاݨی
مدھم
مدہ
مدہوش
مدی
مدید
مدیر
مدینہ
مدینے
مدے
مدݨ
مذاق
مذاکرات
مذاہب
مذمت
مذک
مذکر
مذکور
مذکورہ
مذہب
مذہبی
مذہبیات
مر
مرا
مراثی
مراحل
مراد
مراسی
مراض
مراقبہ
مراکز
مراکش
مربع
مربوط
مرتا
مرتب
مرتبہ
مرتبے
مرتضی
مرتفع
مرتے
مرثیہ
مرثیے
مرجع
مرحلہ
مرحلے
مرحوم
مرد
مردا
مردانگی
مردانہ
مردانے
مرداں
مردم
مردود
مردوں
مردہ
مردی
مردیں
مردے
مرزا
مرشد
مرض
مرضی
مرطوب
مرعوب
مرغ
مرغابی
مرغوب
مرغی
مرلی
مرم
مرمت
مرن
مرنا
مرنڑ
مرنے
مرو
مروان
مروت
مروڑ
مروڑا
مروڑنا
مروڑݨ
مرچ
مرچاں
مرچنٹ
مرک
مرکب
مرکز
مرکزی
مرکزیت
مرکوز
مرگ
مرہ
مرہم
مری
مریجݨ
مرید
مریض
مریم
مرین
مریندا
مریندن
مریندی
مریندے
مرے
مرݨ
مز
مزا
مزاج
مزاجی
مزاح
مزاحمت
مزاحمتی
مزاحیہ
مزار
مزارات
مزارع
مزارعیاں
مزارعین
مزاری
مزدور
مزدوراں
مزدوری
مزروعہ
مزمل
مزوری
مزگی
مزہ
مزید
مزیدار
مزے
مس
مساجد
مسافر
مسالا
مسالہ
مسالے
مساوات
مساوی
مساي
مست
مستاجری
مستحق
مستحکم
مسترد
مستری
مستشرقین
مستطیل
مستعار
مستعمل
مستقبل
مستقل
مستند
مستنصر
مستوي
مستی
مسجد
مسرت
مسط
مسعود
مسلح
مسلسل
مسلط
مسلم
مسلمان
مسلمانان
مسلماناں
مسلمانوں
مسلمانیں
مسلمہ
مسلنا
مسلوب
مسلک
مسمار
مسند
مسي
مسٹر
مسک
مسکان
مسکن
مسکین
مسیت
مسیتاں
مسیح
مسیحی
مسیحیت
مسیں
مسݨ
مشابہ
مشابہت
مشاعرہ
مشاعریاں
مشاعریں
مشاعرے
مشاورت
مشاي
مشاہدات
مشاہدہ
مشاہدے
مشبہ
مشتاق
مشترک
مشترکہ
مشتعل
مشتق
مشتمل
مشرف
مشرق
مشرقی
مشروط
مشرک
مشرکین
مشعل
مشغول
مشق
مشقت
مشمولہ
مشن
مشورہ
مشوری
مشورے
مشک
مشکل
مشکلات
مشکلاں
مشکور
مشکوک
مشہور
مشہوری
مشیر
مشین
مشینی
مصادر
مصالحہ
مصاي
مصحف
مصدر
مصدری
مصر
مصرع
مصرعہ
مصرعیاں
مصرعے
مصرف
مصروف
مصروفیات
مصروفیت
مصری
مصطفی
مصطفے
مصغ
مصغر
مصنف
مصنفین
مصنوعات
مصنوعی
مصور
مصوری
مصیبت
مصیبتاں
مضامین
مضبوط
مضبوطی
مضر
مضمون
مطابق
مطالبہ
مطالبے
مطالعہ
مطالعے
مطبوعہ
مطلب
مطلع
مطلق
مطلوب
مطلوبہ
مطمي
مطیع
مظاہر
مظاہرہ
مظفر
مظفرخان
مظفرگڑھ
مظفرڳڑھ
مظلوم
مظہر
مع
معاذ
معاذاللہ
معاش
معاشرت
معاشرتی
معاشرہ
معاشرے
معاشی
معاشیات
معاصر
معاف
معافی
معالجہ
معالجے
معاملات
معاملہ
معاملیاں
معاملے
معانی
معاوضہ
معاوضے
معاون
معاونت
معاویہ
معاي
معاہدہ
معاہدے
معتبر
معدنی
معدوم
معدہ
معدے
معذرت
معذور
معراج
معرفت
معروضی
معروف
معرکہ
معزز
معزول
معشوق
معصوم
معطوفہ
معظم
معظمہ
معقول
معلم
معلول
معلوم
معلومات
معمور
معمول
معمولی
معنوی
معنی
معنیاں
معنے
معیاد
معیار
معیاری
معیشت
معین
مغالطہ
مغرب
مغربی
مغرور
مغز
مغزی
مغفرت
مغل
مغلوب
مغلیہ
مفاد
مفادات
مفت
مفتی
مفرح
مفرد
مفعول
مفعولی
مفلس
مفکر
مفہوم
مفید
مقابل
مقابلہ
مقابلے
مقاصد
مقالات
مقالہ
مقالے
مقام
مقامات
مقامی
مقامیت
مقبرہ
مقبوضہ
مقبول
مقبولیت
مقتدرہ
مقتدی
مقتول
مقد
مقدار
مقداری
مقدر
مقدس
مقدم
مقدمات
مقدمہ
مقدمیاں
مقدمے
مقر
مقرر
مقررہ
مقروض
مقصد
مقصود
مقعد
مقو
مقوی
مقیم
مل
ملا
ملاء
ملاح
ملاحظہ
ملازم
ملازمت
ملازمین
ملاقات
ملال
ملامت
ملانا
ملانے
ملاوٹ
ملاوݨ
ملاي
ملاپ
ملاں
ملایا
ملت
ملتا
ملتان
ملتانی
ملتی
ملتے
ملحقہ
ملخ
ملدا
ملدن
ملدی
ملدیاں
ملدے
ملزم
ملسی
ملط
ملغانی
ملفوظی
ململ
ملن
ملنا
ملنڑ
ملنگ
ملنے
ملو
ملوث
ملوک
ملي
ملک
ملکانڑیں
ملکانی
ملکاں
ملکاݨی
ملکہ
ملکی
ملکیت
ملکیں
ملہ
ملہار
ملی
ملیا
ملیاں
ملیریا
ملین
ملیں
ملیے
ملے
ملݨ
مم
مماثل
مماثلت
ممالک
ممانعت
ممبر
ممبران
ممبي
ممتاز
مملکت
ممکن
من
منا
منادی
مناسب
مناسبت
مناظر
منافع
منافق
منافقت
مناقب
منانا
مناوݨ
مناي
منایا
منت
منتاں
منتخب
منتر
منتشر
منتظر
منتظم
منتقل
منجمد
منجھ
منجھلی
منجھی
منجھیں
منحرف
منحصر
منحوس
مند
مندا
مندر
مندراں
مندرجہ
مندی
مندے
منزل
منزلاں
منزلہ
منسلک
منسوب
منسوخ
منش
منشا
منشور
منشی
منصب
منصف
منصوبہ
منصوبے
منصور
منطق
منطقی
منظر
منظم
منظور
منظوری
منظوم
منع
منعقد
منفرد
منفی
منقبت
منقسم
منقطع
منقولہ
منو
منوا
منواوݨ
منوتی
منور
منورہ
منٹ
منڈا
منڈھ
منڈی
منڑ
منکر
منکیرہ
منگ
منگاں
منگدا
منگدی
منگدے
منگل
منگن
منگنی
منگی
منگے
منگݨ
منڳݨ
منھ
منہ
منہہ
منی
منیا
منیر
منین
منیندا
منیندن
منیندے
منے
منݨ
مو
موا
مواد
موازنہ
موافق
مواقع
موالی
موباي
موت
موتی
موتیا
موتیاں
موثر
موج
موجاں
موجب
موجد
موجود
موجودگی
موجودہ
مودودی
موذی
مور
مورت
مورخ
مورخہ
مورخین
موروثی
موری
موزوں
موس
موسم
موسماں
موسمی
موسی
موسیقار
موسیقی
موصوف
موصول
موصولہ
موضع
موضوع
موضوعات
موضوعاتی
موقع
موقعہ
موقعے
موقف
مول
مولا
مولانا
مولاي
مولف
مولود
مولوی
مولی
موم
مومل
مومن
مون
مونث
مونج
مونجھ
مونجھا
مونجھاں
مونجھی
مونجھیں
مونجھے
مونچھوں
مونڈھا
مونڈھی
مونڈھے
مونگ
مونھ
مونہ
مونہہ
مووی
موي
موٹ
موٹا
موٹاي
موٹر
موٹھ
موٹی
موٹے
موچی
موڑ
موڑنا
موڑݨ
موکل
موکلا
موں
موہ
موہری
موہن
مویا
مویشی
مویشیاں
مویشیوں
مي
مٹ
مٹا
مٹاوݨ
مٹر
مٹول
مٹک
مٹکا
مٹکے
مٹھ
مٹھا
مٹھاس
مٹھاي
مٹھن
مٹھڑی
مٹھی
مٹھے
مٹی
مٹیالا
مٹیالے
مٹیاں
مچ
مچا
مچانا
مچاوݨ
مچاي
مچنا
مچھ
مچھر
مچھلی
مچھلیاں
مچھی
مچھیاں
مچی
مچݨ
مڈ
مڈی
مڑ
مڑا
مڑی
مڑے
مک
مکا
مکار
مکاری
مکالمہ
مکالمے
مکان
مکانی
مکاوݨ
مکاي
مکاں
مکب
مکبر
مکتب
مکتبہ
مکتوب
مکدی
مکدے
مکر
مکران
مکرمہ
مکعب
مکمل
مکوڑے
مکي
مکڑا
مکڑی
مکھ
مکھن
مکھی
مکھیاں
مکھݨ
مکہ
مکی
مکے
مکݨ
مگر
مگسی
مگن
مگی
مھ
مھانی
مھݨے
مہ
مہا
مہاجر
مہاجرین
مہار
مہاراجہ
مہاراں
مہارت
مہاروی
مہان
مہاندرا
مہاندرے
مہانگ
مہاڑ
مہدی
مہذب
مہر
مہربان
مہربانی
مہروی
مہرہ
مہرے
مہلت
مہلک
مہم
مہمان
مہماناں
مہندی
مہنگا
مہنگاي
مہک
مہی
مہیا
مہینوال
مہینہ
مہینیاں
مہینے
مہے
مہݨاں
مہݨے
می
میا
میان
میانوالی
میانی
میاو
میاں
میت
میتلا
میثاق
میخ
مید
میدان
میدانی
میدہ
میدے
میر
میرا
میراثی
میرانی
میراݨی
میری
میرے
میز
میزان
میزبان
میزبانی
میزش
میس
میسر
میل
میلا
میلسی
میلہ
میلے
مین
مینار
میندی
مینوں
مینڈک
مینڈھی
مینگھ
مینہ
مینہہ
میوزک
میوزیم
میوہ
میوے
میٹ
میٹر
میٹرک
میٹنگ
میٹھا
میٹھی
میٹھے
میچ
میڈ
میڈا
میڈل
میڈی
میڈیا
میڈیاں
میڈیکل
میڈے
میڑھ
میک
میکو
میکوں
میکے
میگزین
میں
میݙا
میݙی
میݙیاں
میݙے
مے
مݙ
مݙی
مݨ
مݨے
ن
نا
ناانصافی
نااہل
نابود
نابینا
نات
ناتجربہ
ناتھ
ناجاي
ناحق
ناخن
نادار
نادان
نادانی
نادر
نادم
نار
نارا
ناراض
ناراضگی
ناراي
ناروے
ناریل
ناز
نازش
نازل
نازو
نازک
ناس
ناساں
ناسیں
ناشاد
ناشاي
ناشتہ
ناشر
ناصر
ناظم
ناف
نافذ
نافرمانی
ناقابل
ناقدین
ناقص
نال
نالا
نالاي
نالوں
نالہ
نالی
نالیاں
نالے
نام
نامراد
نامزد
ناممکن
نامناسب
نامور
ناموس
نامکمل
نامہ
نامی
نامے
نان
نانا
نانواں
نانویں
نانگ
نانگاں
نانہ
نانی
نانیاں
نانے
ناو
ناواقف
ناواں
ناور
ناوراں
ناول
ناولاں
ناوڑی
ناویں
ناي
ناٹک
ناپ
ناپاي
ناپاک
ناپسندیدگی
ناپسندیدہ
ناپنا
ناپید
ناچ
ناچنا
ناچنے
ناچیز
ناڑ
ناڑا
ناڑی
ناک
ناکارہ
ناکام
ناکامی
ناگ
ناگوار
ناں
ناہ
ناہی
ناہید
ناہیں
نایاب
نایہ
نب
نباتات
نبد
نبض
نبوت
نبوی
نبھا
نبھانا
نبھاوݨ
نبھاي
نبہ
نبی
نبیاں
نبے
نت
نتا
نتارا
نتاي
نتاں
نتر
نتری
نتوں
نتکانی
نتھ
نتھی
نتہا
نتی
نتیجہ
نتیجے
نتیں
نتے
نث
نثار
نثر
نثری
نج
نجات
نجانڑ
نجم
نجو
نجوم
نجومی
نجھ
نجی
نجیب
نحضرت
نحو
نحوست
نخرہ
نخرے
ند
ندا
ندامت
نداي
نداں
ندر
ندراں
ندرلے
ندری
ندسہ
ندن
ندگی
ندھ
ندھا
ندھی
ندہ
ندی
ندیاں
ندیدہ
ندیم
ندین
ندیں
ندے
نذر
نذرانہ
نذیر
نر
نرا
نراض
نرالا
نرالی
نرخ
نرم
نرمی
نروار
نرویا
نری
نز
نزار
نزاکت
نزد
نزدیک
نزلہ
نزیر
نس
نسان
نساناں
نسانی
نساي
نسب
نسبت
نسبتا
نسبتی
نستعلیق
نسخ
نسخہ
نسخیاں
نسخے
نسدان
نسز
نسل
نسلاں
نسلی
نسلیں
نسو
نسوار
نسواری
نسواریا
نسوانی
نسی
نسیم
نسے
نش
نشابر
نشان
نشانات
نشاندہی
نشانہ
نشانی
نشانیاں
نشانے
نشتر
نشر
نشریاتی
نشست
نشستاں
نشہ
نشی
نشیب
نشیبی
نشین
نشینی
نشے
نصاب
نصب
نصر
نصراللہ
نصرت
نصف
نصیب
نصیبی
نصیحت
نصیر
نضیر
نظارہ
نظارے
نظام
نظامی
نظر
نظراں
نظردا
نظردن
نظردی
نظردے
نظروں
نظری
نظریات
نظریاتی
نظریں
نظریہ
نظریے
نظرݨ
نظم
نظماں
نظمی
نظمیں
نظیر
نعت
نعتاں
نعتیہ
نعرہ
نعرے
نعمت
نعیم
نعیمی
نغارہ
نغمہ
نغمے
نفاست
نفاق
نفرت
نفس
نفسی
نفسیات
نفسیاتی
نفع
نفی
نفیس
نفیسہ
نقاب
نقاد
نقارہ
نقارے
نقاش
نقاشی
نقالی
نقب
نقد
نقدی
نقش
نقشہ
نقشے
نقص
نقصان
نقطہ
نقطے
نقل
نقلی
نقوش
نقول
نقوی
نل
نلکا
نلکی
نلکے
نلی
نم
نما
نماز
نمازاں
نمازی
نماشاں
نماي
نمایاں
نمبر
نمبردار
نمود
نمودار
نمونہ
نمونے
نمک
نمکیات
نمکین
نمہی
نمی
نن
ننا
نند
نندر
ننواں
ننویں
ننگ
ننگا
ننگی
ننگے
ننھا
ننھے
ننے
نه
نو
نوا
نواب
نواباں
نواح
نواز
نوازا
نوازی
نوازیا
نوالہ
نواي
نواں
نوبت
نوبل
نوجوان
نوجواناں
نوح
نوحہ
نوخیز
نور
نوروز
نوری
نورے
نوزاي
نوسر
نوش
نوشہرہ
نوع
نوعیت
نول
نومبر
نون
نونڑ
نونہہ
نوٹ
نوٹس
نوچ
نوچنا
نوک
نوکر
نوکری
نوکریاں
نوں
نوی
نویاں
نوید
نویس
نویسی
نویکلا
نویکلی
نویکلے
نویں
نوے
نوݨ
ني
نٹ
نپ
نڄ
نڄاݨ
نڄے
نڄݨ
نچ
نچدی
نچدے
نچلا
نچلی
نچلے
نچوڑ
نچوڑنا
نچھاور
نچے
نچݨ
نڈ
نڈا
نڈر
نڈھ
نڈھا
نڈھال
نڈھی
نڈی
نڈیشن
نڈے
نڑ
نڑی
نژاد
نک
نکا
نکات
نکاح
نکار
نکاس
نکال
نکالا
نکالتا
نکالتے
نکالنا
نکالنے
نکالی
نکالے
نکتہ
نکرہ
نکسیر
نکل
نکلا
نکلتا
نکلتی
نکلدا
نکلدن
نکلدی
نکلدے
نکلنا
نکلنے
نکلوانا
نکلی
نکلیا
نکلے
نکلݨ
نکما
نکمی
نکور
نکھ
نکھار
نکھتا
نکھتی
نکھتے
نکھوں
نکھٹو
نکھڑ
نکھیڑا
نکھیڑے
نکھیں
نکی
نکیاں
نکیل
نکے
نگ
نگا
نگار
نگاراں
نگاری
نگاں
نگاہ
نگر
نگران
نگرانی
نگری
نگل
نگلی
نگلیاں
نگن
نگھ
نگھا
نگھݨ
نگی
نگینہ
نگینے
نگے
نگݨ
نڳ
نڳا
نڳال
نڳاں
نڳل
نڳی
نڳے
نڳݨ
نھ
نھاں
نھي
نھیں
نہ
نہا
نہاد
نہال
نہانا
نہانی
نہانے
نہاي
نہاں
نہایت
نہر
نہراں
نہروں
نہری
نہریں
نہس
نہون
نہوں
نہہ
نہی
نہیلے
نہیں
نی
نیا
نیابت
نیاد
نیادی
نیاز
نیازی
نیام
نیاں
نیت
نیتی
نیر
نیز
نیزہ
نیزے
نیست
نیش
نیشنل
نیل
نیلا
نیلوفر
نیلی
نیلے
نیم
نین
نیناں
نیند
نیندر
نینگر
نینگراں
نیو
نیوز
نیویارک
نیي
نیٹ
نیپال
نیچ
نیچا
نیچی
نیچے
نیڑے
نیک
نیکوسیا
نیکی
نیں
نے
نݙ
نݙھ
نݙے
نݨ
ه
ها
هن
هک
هے
و
وا
واء
واب
وابستگی
وابستہ
وات
واتا
واج
واجب
واجد
واحد
وادب
وادي
وادھ
وادھا
وادھو
وادی
وادیاں
وار
وارا
واراں
وارث
واردات
واروں
وارگی
وارہ
واری
واریاں
وارے
وارݨ
واز
وازار
وازاں
وازیں
واس
واسطہ
واسطے
واسکٹ
واسی
واسیاں
واسیں
واصف
واضح
وافر
واقع
واقعات
واقعہ
واقعی
واقعے
واقف
واقفیت
وال
والا
والاں
والد
والدہ
والدین
والسلام
والو
والوں
والہ
والی
والیاں
والیں
والے
وان
وانا
وانگ
وانگوں
وانگے
وانڳوں
واو
واول
واویلا
واوݨ
واي
واٹ
واٹر
واٹواں
واپس
واپسی
واڄا
واڄے
واڑ
واڑا
واڑی
واگ
واگھا
واڳ
واڳاں
واں
واہ
واہن
واہندا
واہندے
واہی
واہیات
واہݨ
واݨ
واݨی
وب
وبا
وباء
وبال
وت
وتا
وتاں
وتر
وترا
وتری
وتڑ
وتھ
وتھی
وتی
وتے
وثیقہ
وج
وجا
وجد
وجود
وجوہات
وجھ
وجھا
وجھی
وجھے
وجہ
وجہہ
وجے
وح
وحدت
وحشت
وحشی
وحید
وخت
ود
ودا
وداں
ودن
ودھ
ودھا
ودھار
ودھارا
ودھارے
ودھاوݨ
ودھاي
ودھایا
ودھدا
ودھدی
ودھدے
ودھی
ودھیا
ودھین
ودھیک
ودھے
ودھݨ
ودہ
ودی
ودیں
ودے
ور
ورا
وراثت
وران
وراي
وراک
وراں
ورت
ورتا
ورتارا
ورتارے
ورتاوا
ورتاوے
ورتي
ورتی
ورتیا
ورتیندن
ورتیندے
ورتیے
ورتے
ورتݨ
ورثہ
ورثے
ورد
وردی
ورزش
ورزی
ورسٹی
ورغلانا
ورق
ورقہ
ورقے
ورلڈ
ورم
ورنہ
ورک
ورکر
ورھا
ورھی
ورھیاں
ورہ
ورہیاں
وری
وریا
وریں
ورے
ورݨ
وز
وزار
وزارت
وزبر
وزن
وزنی
وزیر
وزیراعظم
وزیراعلی
وس
وسا
وساخ
وساخی
وساندر
وساوݨ
وساي
وسایا
وسب
وسبے
وستی
وستیاں
وسدا
وسدی
وسدے
وسر
وسط
وسطی
وسعت
وسل
وسلم
وسن
وسنیک
وسو
وسواس
وسوں
وسی
وسیب
وسیبی
وسیع
وسیلہ
وسیلے
وسیم
وسے
وسݨ
وش
وشنو
وصال
وصف
وصل
وصول
وصولی
وصی
وصیت
وضاحت
وضع
وضو
وطن
وطنی
وظیفہ
وعدہ
وعدے
وعظ
وغیرہ
وف
وفا
وفات
وفادار
وفاداری
وفاق
وفاقی
وفاي
وقار
وقاص
وقت
وقتی
وقعت
وقف
وقفہ
وقفے
وقوع
وقوعہ
وقوف
وقوفی
ول
ولا
ولاد
ولادت
ولاوݨ
ولاي
ولاں
ولایت
ولد
ولدا
ولدی
ولدے
ولوڑݨ
ولوں
ولھ
ولھا
ولھیٹ
ولھیٹݨ
ولہا
ولہیٹ
ولہے
ولی
ولیا
ولید
ولیم
ولے
ولݨ
وم
ون
ونا
وناں
ونج
ونجا
ونجاں
ونجن
ونجنڑ
ونجو
ونجوں
ونجھ
ونجیں
ونجے
ونجݨ
وند
وندا
وندھے
وندھےپي
وندی
وندے
ونٹ
ونٹنی
ونٹوں
ونڄ
ونڄا
ونڄن
ونڄو
ونڄوں
ونڄے
ونڄݨ
ونچا
ونچی
ونڈ
ونڈا
ونڈاوݨ
ونڈی
ونڈیا
ونڈݨ
ونڑ
ونک
ونکو
ونکوں
ونکی
ونکیاں
ونگ
ونگاں
ونھ
ونہ
ونہاں
ونہہ
ونی
ونے
ونݙین
وو
ووٹ
ووڈ
وي
ويكي
وٹ
وٹا
وٹار
وٹاندرا
وٹاوݨ
وٹنا
وٹنے
وٹو
وٹھ
وٹھا
وٹہ
وٹی
وٹیاں
وٹیج
وٹے
وٹݨ
وپ
وپار
وپاری
وپر
وپݨ
وڄ
وڄا
وڄاوݨ
وڄایا
وڄین
وڄے
وچ
وچار
وچالے
وچو
وچوں
وچکار
وچھ
وچھا
وچھوڑا
وچھوڑے
وڈ
وڈا
وڈھ
وڈھی
وڈی
وڈیاں
وڈیرے
وڈے
وڑ
وڑا
وڑاوݨ
وڑھا
وڑھی
وڑھے
وڑی
وڑیا
وڑیاں
وڑے
وڑݨ
وژن
وک
وکا
وکالت
وکاو
وکاٹ
وکوں
وکٹوریہ
وکھ
وکھا
وکھرا
وکھرپ
وکھری
وکھرے
وکھو
وکھی
وکھے
وکی
وکیل
وکیپیڈیا
وکیپیڈین
وکیڑ
وکے
وکݨ
وگ
وڳاڑ
وڳواں
وں
وںڄݨ
وھ
وہ
وہا
وہاوݨ
وہاي
وہاڑی
وہاں
وہاݨی
وہر
وہم
وہن
وہندا
وہندی
وہندے
وہو
وہڑے
وہی
وہیں
وہے
وہݨ
وی
ویا
ویاہ
ویب
ویتر
وید
ویدک
ویر
ویران
ویرانہ
ویرانی
ویری
ویزہ
ویس
ویسا
ویساں
ویسن
ویسوں
ویسی
ویسیں
ویسے
ویل
ویلا
ویلھ
ویلھا
ویلھی
ویلھے
ویلہے
ویلے
ویلݨ
وین
ویند
ویندا
وینداں
ویندن
ویندوں
ویندي
ویندی
ویندیاں
ویندین
ویندیں
ویندے
وینس
ویورا
ویورے
ویي
ویچ
ویچݨ
ویڈیو
ویڑھ
ویڑھا
ویڑھے
ویژن
ویکھ
ویگن
ویں
ویہ
ویہلے
ویہویں
ویہڑے
ویہہ
ویݨ
وے
وݙ
وݙا
وݙاي
وݙکیاں
وݙی
وݙیاں
وݙیرا
وݙیرے
وݙیں
وݙے
وݨ
وݨا
وݨاں
وݨی
وݨیاں
ى
ي
يا
ين
ً
ٌ
ٍ
َ
ُ
ِ
ّ
ْ
ٓ
ٔ
ٕ
ٖ
ٗ
٘
ٙ
٠
٠٠
٠٠٠
٠١
٠٢
٠٣
٠٤
٠٥
٠٦
٠٧
٠٨
٠٩
١
١٠
١٠٠
١١
١٢
١٣
١٤
١٥
١٦
١٧
١٨
١٩
١٩٦٠
١٩٧٠
١٩٨٠
١٩٩٠
١٩٩١
١٩٩٢
١٩٩٦
٢
٢٠
٢٠٠٠
٢٠٠٥
٢٠٠٦
٢٠٠٧
٢٠٠٩
٢٠١٠
٢٠١١
٢٠١٢
٢٠١٤
٢٠١٥
٢٠١٦
٢٠١٧
٢٠١٨
٢٠١٩
٢٠٢٠
٢٠٢١
٢٠٢٢
٢١
٢٢
٢٣
٢٤
٢٥
٢٦
٢٧
٢٨
٢٩
٣
٣٠
٣١
٣٢
٣٣
٣٤
٣٥
٣٦
٣٧
٣٨
٣٩
٤
٤٠
٤١
٤٢
٤٣
٤٤
٤٥
٤٦
٤٧
٤٨
٤٩
٥
٥٠
٥١
٥٢
٥٣
٥٤
٥٥
٥٦
٥٧
٥٨
٥٩
٦
٦٠
٧
٨
٩
٪
٫
٭
ٰ
ٹ
ٹا
ٹاس
ٹال
ٹالا
ٹالنا
ٹالھی
ٹالݨ
ٹامیوالی
ٹان
ٹانا
ٹانک
ٹانکا
ٹانکے
ٹانگ
ٹانگوں
ٹانگیں
ٹاو
ٹاوݨ
ٹاي
ٹاٹ
ٹاپ
ٹاک
ٹاکا
ٹاکی
ٹاں
ٹاݨاں
ٹخنے
ٹر
ٹراي
ٹردا
ٹردی
ٹردیں
ٹردے
ٹرز
ٹرک
ٹری
ٹریفک
ٹرین
ٹرے
ٹرݨ
ٹس
ٹل
ٹلی
ٹم
ٹن
ٹنا
ٹنگ
ٹو
ٹوا
ٹواوݨ
ٹوبھا
ٹوبھے
ٹوبہ
ٹور
ٹورا
ٹوری
ٹورݨ
ٹولا
ٹولہ
ٹولی
ٹولے
ٹونہ
ٹونے
ٹوي
ٹوٹ
ٹوٹا
ٹوٹنا
ٹوٹنے
ٹوٹکا
ٹوٹکے
ٹوٹی
ٹوٹیاں
ٹوٹے
ٹوپا
ٹوپی
ٹوپے
ٹوک
ٹوکا
ٹوکرا
ٹوکری
ٹوکریاں
ٹوکرے
ٹوہ
ٹویا
ٹوݨاں
ٹوݨے
ٹٹ
ٹٹول
ٹٹی
ٹٻر
ٹٻی
ٹپ
ٹپکانا
ٹپکنا
ٹپے
ٹپݨ
ٹڑی
ٹک
ٹکا
ٹکار
ٹکاوݨ
ٹکر
ٹکرا
ٹکرانا
ٹکرانے
ٹکراو
ٹکراوݨ
ٹکریا
ٹکل
ٹکور
ٹکٹ
ٹکڑا
ٹکڑوں
ٹکڑی
ٹکڑے
ٹکی
ٹکے
ٹکݨ
ٹھ
ٹھا
ٹھار
ٹھالی
ٹھان
ٹھانا
ٹھانے
ٹھاوݨ
ٹھاي
ٹھاٹ
ٹھاٹھ
ٹھاک
ٹھاکر
ٹھاں
ٹھاہ
ٹھر
ٹھل
ٹھلی
ٹھن
ٹھنا
ٹھنڈا
ٹھنڈک
ٹھنڈی
ٹھواں
ٹھور
ٹھوس
ٹھونسنا
ٹھونک
ٹھونکنا
ٹھوڑی
ٹھوک
ٹھوکا
ٹھوکر
ٹھوکریں
ٹھوکݨ
ٹھویں
ٹھٹھہ
ٹھپ
ٹھپاي
ٹھپہ
ٹھپے
ٹھڈ
ٹھڈا
ٹھڈھا
ٹھڈی
ٹھڈے
ٹھڑا
ٹھڑی
ٹھک
ٹھکانہ
ٹھکانے
ٹھگ
ٹھڳ
ٹھہر
ٹھہرانا
ٹھہرنا
ٹھی
ٹھیاں
ٹھیلے
ٹھیک
ٹھیکری
ٹھیکہ
ٹھیکیدار
ٹھیکے
ٹھیں
ٹھے
ٹھݨ
ٹہ
ٹہنی
ٹی
ٹیا
ٹیاں
ٹیج
ٹیجݨ
ٹیشن
ٹیلوں
ٹیلی
ٹیلے
ٹیم
ٹیماں
ٹین
ٹیوب
ٹیوٹ
ٹیٹی
ٹیپ
ٹیچر
ٹیڑھا
ٹیڑھی
ٹیک
ٹیکس
ٹیکنالوجی
ٹیکی
ٹیں
ٹے
ٹݨ
ٻ
ٻا
ٻاجھ
ٻاجھری
ٻاجھوں
ٻار
ٻارھاں
ٻارہ
ٻارہاں
ٻاری
ٻال
ٻالا
ٻالاں
ٻالڑی
ٻالی
ٻالیں
ٻالݨ
ٻان
ٻانھاں
ٻانہہ
ٻانہیں
ٻاڑ
ٻاک
ٻاکݨ
ٻاہ
ٻاہر
ٻاہرلا
ٻاہرلے
ٻاہروں
ٻاہل
ٻاݨ
ٻد
ٻدھ
ٻدھا
ٻدھاوݨ
ٻدھاي
ٻدھی
ٻدھیا
ٻدھین
ٻدھے
ٻدھݨ
ٻس
ٻل
ٻلا
ٻلان
ٻلدا
ٻلدی
ٻلپݨ
ٻلھاوݨ
ٻلہاوݨ
ٻلی
ٻلݨ
ٻن
ٻنھ
ٻنھاں
ٻنہاں
ٻنہیں
ٻنے
ٻو
ٻوجھ
ٻورا
ٻوری
ٻول
ٻولا
ٻولی
ٻولیا
ٻولیاں
ٻولیندے
ٻولے
ٻولݨ
ٻوٹ
ٻوٹا
ٻوٹی
ٻوٹیاں
ٻوٹے
ٻوچھݨ
ٻوڑ
ٻوڑا
ٻوڑݨ
ٻوہا
ٻوہاری
ٻوہڑ
ٻوہے
ٻي
ٻٹ
ٻٹیر
ٻٹیرے
ٻچ
ٻچڑا
ٻچہ
ٻچے
ٻڈھا
ٻڈھیپے
ٻڑ
ٻک
ٻکاٹ
ٻکرا
ٻکری
ٻکریاں
ٻہ
ٻہن
ٻہوں
ٻہوݨ
ٻہہ
ٻہݨ
ٻی
ٻیا
ٻیاں
ٻیر
ٻیرے
ٻیل
ٻیلی
ٻیلیاں
ٻیلے
ٻیٹ
ٻیٹھا
ٻیٹھاں
ٻیٹھک
ٻیٹھی
ٻیٹھے
ٻیڑا
ٻیڑی
ٻیڑیاں
ٻیڑے
ٻیہہ
ٻے
ٻݨ
پ
پا
پاء
پابند
پابندی
پات
پاتا
پاتی
پاتے
پاجامہ
پاجی
پاخانہ
پاخانے
پاد
پاداش
پادری
پار
پارت
پارس
پارسا
پارلیمان
پارلیمانی
پارلیمنٹ
پارمینڈیس
پاروں
پارٹی
پارٹیاں
پارچہ
پارک
پارکر
پارہ
پاریاں
پارے
پازیب
پاس
پاسا
پاسداری
پاسو
پاسوں
پاسہ
پاسیاں
پاسیوں
پاسے
پاشا
پاشی
پال
پالا
پالتو
پالش
پالنا
پالنے
پالک
پالی
پالیا
پالیسی
پالے
پالݨ
پامال
پان
پانا
پاند
پاندھی
پانچ
پانچواں
پانڑی
پانڑیں
پانی
پاو
پاوا
پاور
پاولی
پاون
پاوے
پاوݨ
پاي
پاٹ
پاپ
پاپوش
پاڑ
پاڑا
پاڑاں
پاڑے
پاڑݨ
پاک
پاکستان
پاکستانی
پاکپتن
پاکی
پاکیزگی
پاکیزہ
پاگل
پاڳل
پاں
پاہ
پایا
پایہ
پاݨ
پاݨی
پاݨیاں
پاݨیں
پبلشر
پبلشرز
پبلک
پبلی
پبلیکیشنز
پت
پتا
پتافی
پتر
پترا
پتراں
پتریں
پترے
پتلا
پتلون
پتلی
پتلے
پتن
پتنگ
پتنگا
پتوں
پتھ
پتھاری
پتھر
پتھراں
پتھری
پتہ
پتی
پتیاں
پتے
پتݨ
پج
پجاری
پختون
پختونخوا
پختونخواہ
پختہ
پدھر
پدھرا
پدی
پدے
پذیر
پذیراي
پر
پرا
پران
پرانا
پرانی
پرانے
پراي
پراکرت
پراگندہ
پرایا
پراݨا
پراݨی
پراݨیاں
پراݨے
پرت
پرتگالی
پرجا
پرداز
پردھان
پردہ
پردیس
پردیسی
پردیش
پردے
پرزہ
پرزے
پرس
پرساد
پرست
پرستاں
پرستش
پرستی
پرستیں
پرلے
پرم
پرندوں
پرندہ
پرندے
پرنسپل
پرنٹ
پرنٹرز
پرنیوا
پرنیوے
پرنے
پرو
پروا
پرواز
پروان
پروانہ
پرواي
پرواہ
پرواہی
پروبھرا
پرور
پروردہ
پرورش
پروفیسر
پروڈکشن
پروڈیوسر
پروگرام
پروگراماں
پروگرامیں
پروں
پرویز
پروین
پروݨ
پرچار
پرچم
پرچول
پرچھاي
پرچہ
پرچی
پرکھ
پرکھنا
پرکھݨ
پرہ
پرہیز
پری
پریاں
پریت
پریس
پریشان
پریشانی
پریشر
پریشن
پریل
پریم
پرین
پریں
پرے
پزیر
پزیراي
پس
پسالی
پساي
پست
پستول
پستہ
پسماندگی
پسماندہ
پسن
پسند
پسندی
پسندیدگی
پسندیدہ
پسی
پسینہ
پسینے
پشاور
پشت
پشتو
پشتون
پشم
پشیمان
پطرس
پل
پلا
پلازہ
پلاس
پلاسٹک
پلانا
پلاو
پلاوݨ
پلاي
پلاٹ
پلاک
پلستر
پلنگ
پلو
پلوتہ
پلٹ
پلٹنا
پلڑے
پلک
پلکاں
پلکیں
پلہ
پلی
پلیاں
پلیت
پلیٹ
پلے
پن
پنا
پناہ
پناہی
پنج
پنجا
پنجاب
پنجابی
پنجابیاں
پنجابیں
پنجالی
پنجاي
پنجاپی
پنجاہ
پنجرے
پنجم
پنجند
پنجواں
پنجویں
پنجہ
پنجے
پندرہ
پندھ
پندھیڑو
پنل
پنوار
پنوں
پنڄ
پنچ
پنچاي
پنچایت
پنچایتی
پنڈ
پنڈت
پنڈلی
پنڈی
پنڑاں
پنڑی
پنڑیں
پنڑے
پنکھا
پنی
پنیاں
پنیری
پنے
پنݨ
پو
پوا
پوادھ
پوادھی
پواوݨ
پواي
پوت
پوتا
پوترا
پوتراں
پوتری
پوترے
پوتھی
پوتی
پوجا
پودا
پودوں
پودے
پور
پورا
پورھیا
پورھیے
پورہ
پورہیا
پوری
پوریاں
پورے
پورݨ
پوزیشن
پوس
پوست
پوسن
پوسٹ
پوسی
پوش
پوشاک
پوشی
پوشیدہ
پول
پولا
پولنگ
پولی
پولیس
پولیٹیکل
پون
پونجی
پوندا
پوندن
پوندی
پوندے
پونڈ
پوو
پوون
پووی
پووے
پووݨ
پوٹ
پوٹلی
پوٹھوہاری
پوپ
پوچ
پوچا
پوچھنا
پوڑ
پوڑھی
پوڑی
پوڑیاں
پوں
پوہ
پي
پٹ
پٹا
پٹاي
پٹخنا
پٹوار
پٹواری
پٹواوݨ
پٹولی
پٹڑی
پٹکا
پٹکے
پٹھ
پٹھا
پٹھان
پٹھاݨ
پٹھی
پٹھے
پٹی
پٹیاں
پٹے
پٹݨ
پپلاں
پڄ
پچ
پچا
پچادھ
پچادھی
پچاس
پچاوݨ
پچھ
پچھا
پچھان
پچھانواں
پچھانویں
پچھاڑ
پچھاں
پچھتانا
پچھتاوݨ
پچھدا
پچھدن
پچھدے
پچھلا
پچھلی
پچھلے
پچھو
پچھوکڑ
پچھوں
پچھی
پچھیا
پچھیں
پچھے
پچھݨ
پڑ
پڑا
پڑاو
پڑاں
پڑتا
پڑتال
پڑتی
پڑنا
پڑنے
پڑوس
پڑوپی
پڑچول
پڑھ
پڑھا
پڑھانا
پڑھاوݨ
پڑھاي
پڑھایا
پڑھت
پڑھتے
پڑھدا
پڑھدے
پڑھن
پڑھنا
پڑھنڑ
پڑھنے
پڑھو
پڑھوں
پڑھی
پڑھیا
پڑھیندے
پڑھیے
پڑھے
پڑھݨ
پڑی
پڑیاں
پڑیں
پڑے
پڑݨ
پک
پکا
پکاتے
پکار
پکارا
پکانا
پکانے
پکاوݨ
پکاي
پکایا
پکتا
پکدا
پکنا
پکنے
پکوان
پکوں
پکڑ
پکڑا
پکڑتا
پکڑتے
پکڑنا
پکڑنے
پکڑی
پکڑیا
پکڑے
پکڑݨ
پکھ
پکھا
پکھی
پکھیاں
پکھے
پکی
پکیاں
پکے
پکݨ
پگ
پگڑی
پگھر
پڳ
پھ
پھاسی
پھالا
پھالے
پھان
پھانسی
پھاو
پھاٹک
پھاڑ
پھاڑنا
پھاگن
پھاہ
پھاہی
پھر
پھرتا
پھرتی
پھرتے
پھردا
پھردے
پھرنا
پھرنے
پھرول
پھرے
پھرݨ
پھس
پھساوݨ
پھسݨ
پھل
پھلا
پھلاں
پھلوں
پھلی
پھلیاں
پھلیں
پھن
پھندا
پھنس
پھنسا
پھنسانا
پھنسنا
پھنسی
پھوت
پھوتی
پھوسی
پھول
پھولا
پھولوں
پھولے
پھون
پھونک
پھوٹ
پھوٹنا
پھوڑ
پھوڑا
پھوڑے
پھوک
پھوکا
پھوکے
پھوڳ
پھوہڑ
پھي
پھٹ
پھٹا
پھٹنا
پھٹنے
پھٹوڑی
پھٹک
پھٹکار
پھٹی
پھٹے
پھٹݨ
پھڑ
پھڑکنا
پھکا
پھڳݨ
پھہکا
پھیر
پھیرا
پھیرنا
پھیری
پھیرے
پھیرݨ
پھیل
پھیلا
پھیلاء
پھیلانا
پھیلاو
پھیلاوݨ
پھیلنا
پھیلی
پھیلݨ
پھین
پھینک
پھینکنا
پھینگ
پھیکا
پہ
پہاڑ
پہاڑاں
پہاڑوں
پہاڑی
پہاڑیاں
پہاڑیں
پہاکے
پہر
پہرا
پہرہ
پہرے
پہل
پہلا
پہلاں
پہلو
پہلوان
پہلوانی
پہلوو
پہلوں
پہلی
پہلے
پہن
پہنا
پہناوا
پہناوے
پہنتی
پہنتے
پہننا
پہننے
پہنچ
پہنچا
پہنچانا
پہنچانے
پہنچاي
پہنچایا
پہنچدے
پہنچنا
پہنچنے
پہنچی
پہنچے
پہنچݨ
پہچان
پہچانا
پہچاننا
پہچاݨ
پہی
پہیلی
پہیہ
پی
پیا
پیار
پیارا
پیاری
پیارے
پیاز
پیاس
پیاسا
پیالہ
پیالی
پیالے
پیام
پیاں
پیت
پیتا
پیتل
پیتی
پیتے
پیدا
پیداوار
پیداي
پیدل
پیر
پیرا
پیراں
پیرس
پیرو
پیروکار
پیروں
پیروی
پیریں
پیرے
پیزار
پیس
پیسا
پیسنا
پیسہ
پیسی
پیسے
پیش
پیشاب
پیشانی
پیشوا
پیشکش
پیشگی
پیشہ
پیشی
پیشے
پیغام
پیغمبر
پیل
پیلا
پیلو
پیلوں
پیلھا
پیلھوں
پیلھی
پیلھے
پیلی
پیلے
پیمانہ
پیمانے
پیماي
پین
پینا
پیندا
پیندن
پیندی
پیندیاں
پیندے
پینٹ
پینڈا
پینگھ
پینگھاں
پینے
پیو
پیوء
پیوست
پیوستہ
پیون
پیوند
پیونڑ
پیوں
پیوے
پیوݨ
پیي
پیٹ
پیٹا
پیٹنا
پیٹو
پیٹھ
پیٹھا
پیٹی
پیٹے
پیپ
پیپر
پیپلز
پیپلزپارٹی
پیچ
پیچا
پیچش
پیچھا
پیچھے
پیچیدگی
پیچیدہ
پیڈیا
پیڑ
پیڑا
پیڑھی
پیڑھیاں
پیڑے
پیکر
پیکے
پیں
پے
پݨ
پݨا
پݨاں
پݨی
پݨیاں
پݨیں
پݨے
ڃ
ڄ
ڄا
ڄاء
ڄال
ڄالا
ڄالی
ڄالیں
ڄالݨ
ڄام
ڄان
ڄاوݨ
ڄاي
ڄاپدے
ڄاڑ
ڄاک
ڄاں
ڄاہ
ڄایا
ڄاݨ
ڄاݨا
ڄاݨدا
ڄاݨدن
ڄاݨدے
ڄاݨو
ڄاݨی
ڄاݨیا
ڄاݨے
ڄاݨݨ
ڄبھ
ڄل
ڄلم
ڄم
ڄما
ڄمان
ڄماوݨ
ڄمی
ڄمے
ڄمݨ
ڄن
ڄنگھ
ڄنہاں
ڄو
ڄوڑ
ڄوڑݨ
ڄي
ڄٹ
ڄٹکی
ڄڑ
ڄڑاي
ڄڑاں
ڄڑھ
ڄڑی
ڄھ
ڄہیں
ڄی
ڄیا
ڄین
ڄیندا
ڄیندے
ڄینویں
ڄیویں
ڄیٹھ
ڄیڑھا
ڄیڑھی
ڄیڑھے
ڄیکر
ڄیکوں
ڄیں
ڄیہڑا
ڄے
ڄݙاں
ڄݨ
ڄݨاں
ڄݨے
چ
چا
چاء
چابک
چابی
چاتا
چاتی
چاتے
چادر
چادراں
چار
چارا
چاراں
چارج
چاروں
چارپاي
چارہ
چاری
چارے
چاشنی
چاقو
چال
چالاک
چالاکی
چالاں
چالو
چالھی
چالہی
چالیس
چالیہہ
چالے
چام
چان
چاند
چاندنی
چاندی
چانڈیو
چانڈیہ
چانݨ
چانݨی
چاو
چاول
چاون
چاوے
چاوݨ
چاي
چاٹ
چاٹنا
چاپ
چاپلوس
چاپلوسی
چاچا
چاچڑاں
چاچی
چاچے
چاڑ
چاڑھ
چاڑھی
چاڑھݨ
چاک
چاکر
چاں
چاہ
چاہا
چاہت
چاہتا
چاہن
چاہنا
چاہندا
چاہنداں
چاہندن
چاہندی
چاہندے
چاہوݨ
چاہي
چاہی
چاہیدا
چاہیدی
چاہیدے
چاہیے
چاہے
چایا
چبا
چبانا
چت
چخ
چر
چرا
چراغ
چرانا
چرانے
چراوݨ
چراي
چراگاہ
چربی
چرخ
چرخہ
چرخی
چرخے
چرس
چرنے
چرواہا
چرواہے
چرچا
چرݨ
چس
چست
چشتی
چشتیاں
چشتیہ
چشم
چشمہ
چشمے
چغتاي
چغل
چل
چلا
چلاتا
چلاتے
چلانا
چلانے
چلاوݨ
چلاي
چلاک
چلاکی
چلایا
چلتا
چلتی
چلتے
چلدا
چلدی
چلدے
چلن
چلنا
چلنے
چلو
چلی
چلیا
چلین
چلیندے
چلے
چلݨ
چم
چمن
چمٹ
چمچ
چمچہ
چمڑا
چمڑی
چمڑے
چمک
چمکار
چمکدار
چمکنا
چمکݨ
چمگادڑ
چن
چنا
چناب
چنانچہ
چنانہہ
چناں
چنبیلی
چنتا
چند
چندر
چندرا
چندرنا
چندہ
چننا
چنڈ
چنڑ
چنگ
چنگا
چنگاي
چنگاں
چنگی
چنگیر
چنگیز
چنگے
چنڳا
چنڳاي
چنڳاں
چنڳی
چنڳے
چنی
چنیوٹ
چنے
چو
چوا
چواوݨ
چواي
چوب
چوبی
چوتا
چوتھا
چوتھاي
چوتھی
چوتھے
چودھار
چودھاروں
چودھری
چور
چورا
چوراں
چوروں
چوری
چول
چولا
چولستان
چولستانی
چولی
چولے
چون
چونا
چونچ
چونکہ
چونے
چوٹ
چوٹی
چوٻ
چوٻی
چوڑ
چوڑا
چوڑاي
چوڑی
چوڑیاں
چوڑے
چوک
چوکور
چوکڑی
چوکھا
چوکھٹ
چوکھٹا
چوکھٹے
چوکی
چوکیدار
چوگ
چوڳ
چوں
چوہا
چوہان
چوہدری
چوہے
چوی
چوݙاں
چوݙی
چوݨ
چوݨاں
چي
چٹ
چٹا
چٹان
چٹاناں
چٹاي
چٹکی
چٹھی
چٹی
چٹیل
چٹے
چپ
چپاتی
چپو
چپٹی
چپڑاسی
چپڑی
چپک
چپکے
چچا
چڑ
چڑچڑا
چڑھ
چڑھا
چڑھانا
چڑھانے
چڑھاو
چڑھاوݨ
چڑھاي
چڑھایا
چڑھدا
چڑھدی
چڑھدے
چڑھنا
چڑھنے
چڑھوي
چڑھی
چڑھیا
چڑھے
چڑھݨ
چڑی
چڑیا
چڑیاں
چک
چکا
چکار
چکاری
چکانا
چکر
چکل
چکلی
چکن
چکنا
چکنی
چکنے
چکوال
چکور
چکی
چکیاں
چکے
چھ
چھا
چھابی
چھاتی
چھاج
چھال
چھالا
چھالے
چھان
چھانا
چھاننا
چھانورا
چھانٹ
چھاو
چھاوݨ
چھاي
چھاپ
چھاپہ
چھاپی
چھاپیا
چھاپے
چھاپݨ
چھاڄی
چھاچھ
چھاڑ
چھاڑی
چھاں
چھاݨ
چھاݨی
چھاݨݨ
چھت
چھتری
چھتے
چھج
چھری
چھل
چھلا
چھلانگ
چھلنا
چھلنی
چھلکا
چھلکے
چھلی
چھلیاں
چھلے
چھلݨ
چھمباي
چھن
چھنال
چھنگ
چھو
چھولیاں
چھولے
چھونا
چھوٹ
چھوٹا
چھوٹی
چھوٹیاں
چھوٹے
چھوڑ
چھوڑا
چھوڑنا
چھوڑو
چھوڑي
چھوڑی
چھوڑیا
چھوڑیندے
چھوڑیے
چھوڑے
چھوڑݨ
چھوکرا
چھوکری
چھوکڑ
چھوں
چھوہ
چھوہر
چھوہریں
چھوݨی
چھي
چھٹ
چھٹا
چھٹانک
چھٹی
چھٹے
چھپ
چھپا
چھپانا
چھپاي
چھپدا
چھپدے
چھپر
چھپری
چھپن
چھپکلی
چھپی
چھپیا
چھپیل
چھپے
چھپݨ
چھڄ
چھچھورا
چھڑ
چھڑا
چھڑانا
چھڑاوݨ
چھڑاي
چھڑکاو
چھڑی
چھڑیاں
چھڑے
چھک
چھکے
چھکݨ
چھی
چھیا
چھید
چھین
چھینکا
چھیویں
چھیڑ
چھیڑنا
چھیڑو
چھیڑݨ
چھیک
چھیکڑ
چھیکڑی
چھے
چھݨ
چہ
چہار
چہارم
چہرہ
چہرے
چی
چیاں
چیت
چیتا
چیتر
چیتھڑے
چیتی
چیتے
چیجݨ
چیخ
چیخنا
چیر
چیرا
چیز
چیزاں
چیزوں
چیزیں
چیف
چیل
چیلا
چیلنج
چیلہ
چیلے
چین
چیندا
چیندے
چینل
چینی
چیونٹی
چیي
چیٹھ
چیچک
چیڑی
چیک
چیں
چے
چݨ
چݨے
ڈ
ڈا
ڈار
ڈال
ڈالا
ڈالتا
ڈالتے
ڈالر
ڈالنا
ڈالنے
ڈالو
ڈالی
ڈالے
ڈان
ڈاند
ڈانٹ
ڈانٹنا
ڈانگ
ڈاوݨ
ڈاي
ڈاٹ
ڈاڈا
ڈاڈھا
ڈاڈھی
ڈاڈھے
ڈاڈے
ڈاڑھی
ڈاک
ڈاکو
ڈاکٹر
ڈاکہ
ڈاں
ڈاہ
ڈاہر
ڈب
ڈبل
ڈبلیو
ڈبو
ڈبونا
ڈبہ
ڈبے
ڈت
ڈتا
ڈتن
ڈتی
ڈتیاں
ڈتے
ڈر
ڈرا
ڈراما
ڈرامہ
ڈرامیاں
ڈرامے
ڈرانا
ڈراوا
ڈراي
ڈرنا
ڈرو
ڈرپوک
ڈز
ڈس
ڈسا
ڈساي
ڈسدا
ڈسدے
ڈسو
ڈسٹرکٹ
ڈسیا
ڈسیندے
ڈسے
ڈن
ڈنٹھل
ڈنڈ
ڈنڈا
ڈنڈی
ڈنڈے
ڈنک
ڈنگ
ڈنگر
ڈو
ڈوب
ڈوبنا
ڈوجھا
ڈوجھی
ڈوجھیاں
ڈوجھے
ڈور
ڈورا
ڈوری
ڈول
ڈولی
ڈون
ڈونہاں
ڈوں
ڈوہڑہ
ڈوہڑے
ڈوہیں
ڈویژن
ڈٹ
ڈٹھا
ڈٹھی
ڈٹھے
ڈپٹ
ڈپٹی
ڈڈھ
ڈڈھپ
ڈک
ڈکا
ڈکار
ڈکشنری
ڈکھ
ڈکھا
ڈکیتی
ڈگری
ڈھ
ڈھا
ڈھارس
ڈھال
ڈھالا
ڈھان
ڈھانا
ڈھانپنا
ڈھانچہ
ڈھانچے
ڈھاوݨ
ڈھاي
ڈھاک
ڈھاکہ
ڈھب
ڈھل
ڈھلا
ڈھلدی
ڈھلوان
ڈھلی
ڈھمکݨیں
ڈھن
ڈھنڈورا
ڈھنگ
ڈھنگا
ڈھو
ڈھور
ڈھول
ڈھولا
ڈھولک
ڈھولے
ڈھون
ڈھونڈنا
ڈھووݨ
ڈھٻ
ڈھڈھ
ڈھڑا
ڈھڑی
ڈھک
ڈھکنا
ڈھکنے
ڈھکی
ڈھگ
ڈھڳ
ڈھڳی
ڈھہہ
ڈھہݨ
ڈھی
ڈھیاں
ڈھیر
ڈھیری
ڈھیل
ڈھیلا
ڈھیلے
ڈھین
ڈھیپا
ڈھیپے
ڈھے
ڈھݨ
ڈی
ڈیرا
ڈیرہ
ڈیرے
ڈیزاي
ڈیساں
ڈیسن
ڈیسوں
ڈیسی
ڈیل
ڈیم
ڈیموکریٹک
ڈین
ڈیندا
ڈیندن
ڈیندی
ڈیندے
ڈینھ
ڈینہ
ڈینہاں
ڈینہہ
ڈیو
ڈیوا
ڈیواں
ڈیون
ڈیونڑ
ڈیوو
ڈیوٹی
ڈیوڑھی
ڈیویلپمنٹ
ڈیوے
ڈیوݨ
ڈیٹابیس
ڈیپارٹمنٹ
ڈیڑھ
ڈیکھ
ڈیکھاں
ڈیکھن
ڈیکھنڑ
ڈیکھو
ڈیکھوں
ڈیکھیں
ڈیکھݨ
ڈیہدے
ڈیہنہ
ڈے
ڈݨ
ڊ
ڊی
ڊے
ڑ
ڑا
ڑان
ڑانا
ڑانے
ڑاوݨ
ڑاي
ڑاں
ڑب
ڑت
ڑتی
ڑد
ڑدا
ڑن
ڑنا
ڑنے
ڑو
ڑواوݨ
ڑواں
ڑک
ڑکا
ڑکار
ڑکاوݨ
ڑکی
ڑکݨ
ڑھ
ڑھا
ڑھاوݨ
ڑھاي
ڑھی
ڑھیا
ڑھݨ
ڑی
ڑیا
ڑیاں
ڑیل
ڑین
ڑے
ڑݨ
ژ
ژالہ
ک
کا
کاء
کابل
کابینہ
کات
کاتب
کاتنے
کاتک
کاتی
کاتیاں
کاج
کاجل
کار
کارا
کاراں
کارخانہ
کاردار
کاررواي
کارل
کارن
کارنامہ
کارنامے
کارواي
کاروبار
کاروباری
کارپوریشن
کارڈ
کارکردگی
کارکن
کارکنیں
کاری
کاریگر
کارݨ
کاز
کاس
کاسبو
کاسہ
کاش
کاشت
کاشتکار
کاشتکاری
کاشی
کاظم
کاظمی
کاغذ
کاغذات
کاغذی
کافر
کافی
کافیاں
کال
کالا
کالج
کالر
کالم
کالنا
کالو
کالوني
کالونی
کالک
کالی
کالیاں
کالے
کام
کامران
کامریڈ
کامل
کامیاب
کامیابی
کان
کانا
کاناں
کانجو
کانسی
کانفرنس
کانوں
کانٹا
کانٹے
کانپنا
کانچ
کانگ
کانگریس
کانہہ
کانی
کانیاں
کانیں
کانے
کاو
کاوش
کاوشاں
کاوٹ
کاوڑ
کاوݨ
کاي
کاٹ
کاٹا
کاٹتا
کاٹنا
کاٹنے
کاٹھ
کاٹھی
کاٹھیاں
کاٹی
کاٹے
کاپی
کاپیاں
کاک
کاکا
کاں
کاہل
کایا
کاݨ
کاݨاں
کاݨی
کاݨے
کب
کباب
کبر
کبوتر
کبوتراں
کبوتروں
کبوتری
کبڈی
کبھی
کبیر
کت
کتا
کتاب
کتاباں
کتابت
کتابچے
کتابی
کتابیات
کتابیں
کتب
کتر
کترݨ
کتنا
کتنی
کتنے
کتوں
کتھ
کتھا
کتھاو
کتھاي
کتھاں
کتھاہیں
کتھوں
کتھي
کتہ
کتی
کتیا
کتے
کثرت
کثیر
کج
کجاوے
کجل
کجلا
کجھ
کجی
کد
کدا
کدال
کدو
کدورت
کدی
کدیں
کدے
کر
کرا
کراس
کرام
کرامت
کرانا
کرانے
کراو
کراون
کراوݨ
کراي
کراچی
کراڑ
کراں
کراہ
کراہت
کراہیں
کرایا
کرایہ
کرب
کربل
کربلا
کربلاي
کرت
کرتا
کرتب
کرتوت
کرتی
کرتے
کردار
کرداراں
کردہ
کردینا
کردے
کرسی
کرسیاں
کرشن
کرم
کرماں
کرن
کرنا
کرناٹک
کرناں
کرنسی
کرنل
کرنڑ
کرنڑاں
کرنی
کرنے
کرو
کروا
کروانا
کرواوݨ
کرواي
کروایا
کرونا
کروڑ
کروڑاں
کروں
کرویندے
کري
کرڈتا
کرکٹ
کرکے
کرہ
کری
کریج
کریجے
کریدنا
کریساں
کریسن
کریسو
کریسوں
کریسی
کریسے
کریم
کرین
کریندا
کرینداں
کریندن
کریندوں
کریندي
کریندی
کریندیاں
کریندین
کریندیں
کریندے
کریں
کریہہ
کرے
کرݙتا
کرݨ
کرݨا
کرݨاں
کرݨی
کرݨے
کس
کسا
کسان
کسانا
کساناں
کساوݨ
کساي
کسب
کسر
کسری
کسنا
کسی
کسے
کش
کشادہ
کشالے
کشتی
کشش
کشمور
کشمکش
کشمیر
کشمیری
کشور
کشکول
کشی
کشید
کشیدہ
کعب
کعبہ
کعبے
کف
کفار
کفایت
کفر
کفش
کفن
کل
کلا
کلاس
کلاسرا
کلاسیکل
کلاسیکی
کلام
کلامی
کلانچوی
کلاي
کلاں
کلاݨ
کلب
کلدا
کلدی
کلدے
کلر
کلرک
کلغی
کلمات
کلمہ
کلنا
کلو
کلومیٹر
کلچر
کلچرل
کلکتہ
کلھ
کلھا
کلھی
کلھیپا
کلھے
کلہا
کلہاڑی
کلہوٹی
کلہوڑا
کلہی
کلہے
کلی
کلیا
کلیات
کلیار
کلیاں
کلیجہ
کلیجی
کلیجے
کلیم
کلے
کلݨ
کم
کما
کماد
کمار
کمال
کمان
کمانا
کمانڈر
کماوݨ
کماي
کماں
کمبل
کمت
کمتر
کمر
کمرہ
کمرے
کمزور
کمزوری
کمسن
کمشنر
کملا
کملی
کملے
کمند
کمپنی
کمپنیاں
کمپوزنگ
کمپیوٹر
کمہار
کمی
کمیشن
کمیل
کمین
کمینگی
کمینہ
کمیونٹی
کمیٹی
کمیں
کن
کنا
کنار
کنارا
کناروں
کنارہ
کناری
کنارے
کنال
کناي
کناں
کنایہ
کنبھار
کنبہ
کنبے
کنجری
کنجریاں
کنجوس
کنجوسی
کند
کندانی
کندھ
کندھا
کندھاں
کندھوں
کندھی
کندھے
کندہ
کندیاں
کنندہ
کنو
کنوار
کنواری
کنواں
کنول
کنوں
کنویں
کنٹرول
کنڈ
کنڈا
کنڈھ
کنڈیاں
کنڈے
کنگال
کنگن
کنگھی
کنھاں
کنھیں
کنی
کنیت
کنیرا
کنیز
کنیں
کنے
کنݙے
کو
کوا
کواوݨ
کواي
کوب
کوتاہ
کوتاہی
کوثر
کوجھا
کود
کودن
کودنا
کور
کورا
کوراي
کورس
کورٹ
کوریا
کوریجہ
کوس
کوسا
کوسنا
کوش
کوشت
کوشش
کوششاں
کوفہ
کوفی
کول
کولا
کولو
کولوں
کولھ
کولھو
کولھوں
کولہوں
کولے
کومل
کون
کونج
کونجاں
کوندر
کونسل
کونسلاں
کونسلر
کونوں
کونہ
کونی
کونے
کوي
کوٹ
کوٹلہ
کوٹنے
کوٹھا
کوٹھڑی
کوٹھی
کوٹھے
کوچ
کوڑ
کوڑا
کوڑھ
کوڑی
کوڑیاں
کوڑیوں
کوڑے
کوک
کوں
کوہ
کوہان
کوہاٹ
کوہاٹی
کوہستان
کوہی
کوی
کویلی
کویلیاں
کوے
کوݙ
کوݙی
کوݙیاں
کوݨ
کي
کٹ
کٹا
کٹاو
کٹاي
کٹر
کٹوتی
کٹورا
کٹورہ
کٹوری
کٹورے
کٹھ
کٹھا
کٹھی
کٹھیاں
کٹھے
کٹی
کٹے
کٹݨ
کپ
کپاس
کپاہ
کپتان
کپور
کپڑا
کپڑوں
کپڑیاں
کپڑے
کپݨ
کڄ
کڄھ
کچ
کچا
کچاری
کچاوے
کچاہری
کچل
کچوکے
کچھ
کچھوا
کچھی
کچہری
کچی
کچے
کڈ
کڈاں
کڈاھیں
کڈاہیں
کڈھ
کڈھا
کڈھاوݨ
کڈھاي
کڈھدے
کڈھی
کڈھیا
کڈھین
کڈھے
کڈھݨ
کڈی
کڑ
کڑا
کڑاي
کڑاک
کڑاں
کڑاہی
کڑوا
کڑوی
کڑھاي
کڑی
کڑیا
کڑیاں
کڑیوں
کڑے
کڑݨ
کک
ککر
ککڑ
ککھ
کھ
کھا
کھاتا
کھاتہ
کھاتی
کھاتے
کھاج
کھاد
کھادا
کھادی
کھادے
کھار
کھارا
کھاری
کھارے
کھال
کھالا
کھالے
کھان
کھانا
کھاندا
کھاندن
کھاندی
کھاندے
کھانسی
کھانے
کھاو
کھاون
کھاونڑ
کھاوے
کھاوݨ
کھاوݨا
کھاي
کھاٹ
کھاڑ
کھاڑا
کھاکھی
کھاں
کھایا
کھاݙی
کھاݨ
کھاݨا
کھاݨاں
کھاݨے
کھت
کھتران
کھج
کھجلی
کھجور
کھجی
کھدا
کھداي
کھدن
کھدی
کھدے
کھر
کھرا
کھرل
کھرنڈ
کھری
کھریاں
کھرے
کھس
کھساں
کھسک
کھسی
کھل
کھلا
کھلانا
کھلاي
کھلاڑی
کھلاڑیوں
کھلایا
کھلدا
کھلدے
کھلونا
کھلی
کھلیا
کھلیان
کھلے
کھلݨ
کھمبا
کھن
کھنا
کھنڈ
کھنڈر
کھنڑ
کھنگ
کھو
کھوا
کھوار
کھواوݨ
کھواي
کھوایا
کھوتا
کھوتی
کھوتے
کھوج
کھوجی
کھودا
کھودنا
کھودنے
کھوسہ
کھول
کھولا
کھولنا
کھولنے
کھولی
کھولے
کھولݨ
کھوٹ
کھوٹا
کھوٹی
کھوٹے
کھوپڑی
کھوڑ
کھوکھر
کھوکھلا
کھوں
کھوہ
کھویا
کھوین
کھي
کھٹ
کھٹا
کھٹاي
کھٹڑا
کھٹڑے
کھٹی
کھٹیا
کھٹیک
کھٹے
کھٹݨ
کھٻ
کھٻے
کھپ
کھپانا
کھپاوݨ
کھڄ
کھڈا
کھڈی
کھڈے
کھڑ
کھڑا
کھڑاي
کھڑاں
کھڑدے
کھڑن
کھڑو
کھڑوتا
کھڑوتی
کھڑوتے
کھڑووݨ
کھڑوں
کھڑک
کھڑکار
کھڑکی
کھڑی
کھڑیا
کھڑیاں
کھڑیں
کھڑے
کھڑݨ
کھی
کھیا
کھیاں
کھیت
کھیتاں
کھیتوں
کھیتی
کھیر
کھیس
کھیسے
کھیل
کھیلا
کھیلتے
کھیلنا
کھیلنے
کھیلوں
کھین
کھیندے
کھینچ
کھینچا
کھینچنا
کھینچنے
کھیي
کھیڈ
کھیڈدوں
کھیڑ
کھیں
کھیے
کھیݙ
کھیݙا
کھیݙاں
کھیݙدے
کھیݙی
کھیݙݨ
کھے
کھݙ
کھݙا
کھݙکار
کھݙی
کھݨ
کھݨا
کھݨاں
کہ
کہا
کہانٹری
کہانی
کہانیاں
کہاوت
کہاں
کہاݨی
کہاݨیاں
کہتا
کہتی
کہتے
کہلاتا
کہلاتی
کہنا
کہنہ
کہنی
کہنے
کہو
کہڑے
کہہ
کہی
کہیں
کہے
کی
کیا
کیاری
کیاں
کیت
کیتا
کیتس
کیتم
کیتن
کیتو
کیتي
کیتی
کیتیاں
کیتے
کیجݨ
کیر
کیرھا
کیرھی
کیرھے
کیری
کیس
کیسا
کیسر
کیسی
کیسے
کیشنز
کیشننز
کیف
کیفی
کیفیات
کیفیت
کیل
کیلي
کیلی
کیلیفورنیا
کیلیگرافر
کیمرہ
کیمسٹری
کیمپ
کیمپس
کیمیا
کیمیاي
کیمیکل
کین
کینا
کینال
کینجھی
کینجھے
کیندا
کیندی
کیندے
کینسر
کینویں
کینھی
کینہ
کینی
کینیڈا
کیو
کیونجو
کیونکہ
کیوں
کیویں
کیي
کیپٹن
کیچ
کیچڑ
کیڑا
کیڑھا
کیڑھی
کیڑھے
کیڑے
کیک
کیکر
کیکوں
کیں
کیہاں
کیہڑا
کیہڑی
کیہڑے
کیے
کیݙے
کیݨ
کے
کݙان
کݙانہہ
کݙاں
کݙاھیں
کݙاہ
کݙاہیں
کݙھ
کݙھݨ
کݙہیں
کݙی
کݙݨ
کݨ
کݨک
گ
گا
گابے
گاجر
گار
گارا
گاری
گارے
گال
گالھ
گالھیں
گالہہ
گالہیں
گالی
گالیاں
گان
گانا
گاندھی
گانٹھ
گانڈھا
گانگا
گانہ
گانے
گاو
گاونڑ
گاوݨ
گاي
گاڈ
گاڈی
گاڑ
گاڑنا
گاڑھا
گاڑھی
گاڑی
گاں
گاہ
گاہک
گاہی
گاہے
گایا
گاݙی
گت
گتا
گتکا
گتی
گجرات
گد
گدا
گداگر
گدلا
گدڑ
گدکا
گدھا
گدھی
گدھے
گدی
گدے
گذر
گر
گرا
گراف
گرافر
گرافک
گرام
گرامر
گرامی
گرانا
گرانہہ
گرانی
گراي
گراں
گرتا
گرج
گرجا
گرجنا
گرد
گرداب
گردان
گردش
گردن
گردہ
گردی
گردیزی
گرفت
گرفتار
گرفتاری
گرم
گرما
گرمی
گرمیاں
گرمیوں
گرنا
گرنے
گرو
گروپ
گروہ
گروہاں
گروی
گرہ
گری
گریبان
گریجویشن
گریجویٹ
گریز
گریزی
گریٹر
گرے
گز
گزار
گزارا
گزارش
گزارنا
گزارنے
گزارہ
گزاری
گزارے
گزارݨ
گزر
گزرا
گزران
گزرتی
گزردا
گزردی
گزردے
گزرنا
گزرنے
گزرگاہ
گزری
گزریا
گزریل
گزرے
گزرݨ
گزشتہ
گزیٹر
گستاخ
گستاخی
گشت
گفت
گفتار
گفتگو
گل
گلا
گلاب
گلابی
گلاس
گلدستہ
گلزار
گلشن
گلنا
گلو
گلوکار
گلوکارہ
گلڈ
گلکرسٹ
گلگت
گلہ
گلی
گلیاں
گلے
گم
گمان
گمراہ
گن
گنا
گناہ
گنبد
گنتری
گنتی
گنج
گنجا
گنجاي
گنجو
گنجی
گنجیال
گند
گندا
گندم
گندگی
گندھک
گندہ
گندی
گندے
گنوار
گنڈھ
گنگ
گنگا
گنگے
گنہگار
گنی
گنے
گو
گوا
گوارا
گواوݨ
گواہ
گواہی
گوبر
گوتم
گوجرانوالہ
گود
گودا
گودام
گودے
گور
گورا
گورستان
گورمانی
گورنر
گورنمنٹ
گورچانی
گوری
گوش
گوشت
گوشہ
گول
گولا
گولاي
گولہ
گولی
گولیاں
گولے
گومل
گون
گوند
گوندھنا
گونگا
گونگے
گوي
گوٹھ
گوپانگ
گوگیرہ
گوں
گوہ
گوہر
گویا
گوݙے
گي
گٹھ
گٹھا
گٹھلی
گٹھڑی
گپ
گچ
گچھا
گچی
گڈ
گڈاں
گڈوں
گڈی
گڈیاں
گڑ
گڑا
گڑبڑ
گڑھ
گڑھا
گڑھی
گڑھے
گڑی
گھ
گھا
گھات
گھاس
گھان
گھاو
گھاوݨ
گھاٹ
گھاٹا
گھاٹی
گھاٹے
گھاں
گھاہ
گھاݨ
گھاݨی
گھب
گھبرا
گھبرانا
گھبراوݨ
گھبراہٹ
گھبرایا
گھت
گھتے
گھتݨ
گھدا
گھدی
گھدیاں
گھدے
گھر
گھرا
گھرانہ
گھرانے
گھراں
گھراݨے
گھرو
گھروڳا
گھروڳی
گھروڳے
گھروں
گھری
گھریلو
گھریں
گھس
گھسیٹ
گھسیٹنا
گھل
گھلݨ
گھمانا
گھمن
گھمنڈ
گھن
گھنا
گھناي
گھناں
گھنایا
گھندا
گھندن
گھندی
گھندے
گھنساں
گھنسن
گھنسوں
گھنسی
گھنن
گھننڑ
گھنو
گھنوں
گھنٹہ
گھنٹی
گھنٹیاں
گھنٹے
گھنڈ
گھنگرو
گھنگھرو
گھنی
گھنے
گھنݨ
گھور
گھول
گھولی
گھولے
گھولݨ
گھوم
گھومتا
گھومتے
گھومنا
گھومنے
گھونٹ
گھوٹ
گھوٹکی
گھوٹیہ
گھوڑا
گھوڑوں
گھوڑی
گھوڑیاں
گھوڑے
گھٹ
گھٹا
گھٹاوݨ
گھٹاي
گھٹایا
گھٹنا
گھٹنوں
گھٹنے
گھٹی
گھٹیا
گھپ
گھڑ
گھڑا
گھڑت
گھڑنا
گھڑی
گھڑیاں
گھڑے
گھڑݨ
گھگھرا
گھی
گھیتلی
گھیر
گھیرا
گھیرنا
گھیرے
گھیرݨ
گھیو
گھݨ
گہاي
گہرا
گہراي
گہری
گہرے
گہی
گی
گیا
گیارہ
گیان
گیاں
گیت
گیتاں
گیجݨ
گیدڑ
گیر
گیری
گیس
گیلا
گیلانی
گیلری
گیلی
گیم
گین
گیند
گیوسے
گیوں
گیي
گیٹ
گے
گݙ
گݙان
گݨ
ڱ
ڳ
ڳا
ڳادھی
ڳاری
ڳارے
ڳال
ڳالھ
ڳالھا
ڳالھوں
ڳالھیں
ڳالہیں
ڳالݨ
ڳان
ڳاناں
ڳاندے
ڳانڈھا
ڳانڈھے
ڳانہ
ڳاوݨ
ڳاي
ڳاٹے
ڳاڑ
ڳاڑݨ
ڳاں
ڳاہ
ڳاہک
ڳاہݨا
ڳاہݨاں
ڳاہݨے
ڳایا
ڳاݨاں
ڳاݨیاں
ڳاݨے
ڳبھرو
ڳت
ڳدا
ڳر
ڳل
ڳلا
ڳلان
ڳلکڑی
ڳلی
ڳلیاں
ڳلے
ڳلݨ
ڳن
ڳنتری
ڳنڈھ
ڳنڈھیری
ڳنڈھݨ
ڳنڈے
ڳوبھی
ڳوجھی
ڳول
ڳولاي
ڳولݨ
ڳوٹھ
ڳوٹہ
ڳوٹیاں
ڳوڑھا
ڳوڑھی
ڳوڑیاں
ڳوں
ڳوہ
ڳویڑ
ڳویڑی
ڳوݙیاں
ڳوݙے
ڳي
ڳٹ
ڳٹھ
ڳچ
ڳچی
ڳڑ
ڳڑا
ڳڑھ
ڳڑھی
ڳڑی
ڳڑیا
ڳڑݨ
ڳہاي
ڳہݨاں
ڳہݨیاں
ڳہݨے
ڳی
ڳیا
ڳیاں
ڳیرا
ڳین
ڳیوسے
ڳیوں
ڳیي
ڳیڑ
ڳے
ڳݙ
ڳݨ
ڳݨتری
ڳݨی
ں
ںث
ھ
ھا
ھار
ھاسے
ھان
ھاو
ھاوس
ھاوݨ
ھاي
ھاں
ھاہ
ھب
ھت
ھتھ
ھج
ھد
ھدا
ھداي
ھدن
ھدی
ھدے
ھر
ھرا
ھرانا
ھراوݨ
ھرب
ھرت
ھرتا
ھرتی
ھردا
ھردرا
ھرم
ھرنا
ھرک
ھرکار
ھرکاوݨ
ھرکی
ھرکݨ
ھری
ھریا
ھرے
ھرݨ
ھس
ھسا
ھساوݨ
ھسنا
ھسک
ھسکݨ
ھشام
ھل
ھلا
ھلان
ھلانا
ھلاوݨ
ھلاي
ھلاں
ھلدا
ھلدے
ھلنا
ھلواوݨ
ھلک
ھلکا
ھلکے
ھلی
ھلیا
ھلیاں
ھلین
ھلیں
ھلے
ھلݨ
ھم
ھما
ھمانا
ھماوݨ
ھمدا
ھمر
ھن
ھنا
ھناي
ھند
ھندا
ھندی
ھندے
ھنسی
ھنڈ
ھنڈا
ھنڈاوݨ
ھنڈی
ھنڈیا
ھنڈݨ
ھنڑ
ھنگ
ھنگا
ھنی
ھنے
ھنݙ
ھو
ھوا
ھواوݨ
ھواي
ھواں
ھوت
ھوتا
ھور
ھورا
ھوس
ھوسن
ھوسہ
ھوسی
ھول
ھولا
ھولنا
ھولوں
ھولے
ھوم
ھومر
ھون
ھوندا
ھوندن
ھوندی
ھوندے
ھونک
ھوو
ھوون
ھوونڑ
ھووے
ھووݨ
ھوي
ھوٹ
ھوٹا
ھوٹنا
ھوٹی
ھوٹݨ
ھوپ
ھوڑ
ھوک
ھوکا
ھوکݨ
ھوں
ھوہ
ھویا
ھوے
ھي
ھٹ
ھٹا
ھٹاوݨ
ھٹاي
ھٹنا
ھٹنے
ھٹک
ھٹکا
ھٹھار
ھٹی
ھٹݨ
ھٻ
ھپ
ھپا
ھپانا
ھپنا
ھڄ
ھڄاوݨ
ھچ
ھڈ
ھڈھ
ھڑ
ھڑا
ھڑانا
ھڑاوݨ
ھڑنا
ھڑوا
ھڑک
ھڑکار
ھڑکاوݨ
ھڑکی
ھڑکݨ
ھڑی
ھڑیا
ھڑݨ
ھک
ھکا
ھکانا
ھکانے
ھکاوݨ
ھکاي
ھکاڑ
ھکنا
ھکو
ھکواوݨ
ھکی
ھکیجݨ
ھکین
ھکے
ھکݨ
ھگ
ھڳ
ھڳڑ
ھڳڑاں
ھی
ھیا
ھیاں
ھیتا
ھیتے
ھیجݨ
ھیر
ھیسی
ھیل
ھیلا
ھین
ھیندا
ھیندے
ھینی
ھیو
ھیوے
ھیوݨ
ھیڑ
ھیڑا
ھیک
ھیں
ھیہ
ھے
ھݙ
ھݙا
ھݙار
ھݙاراں
ھݙاری
ھݨ
ھݨاں
ہ
ہا
ہاتھ
ہاتھوں
ہاتھی
ہاج
ہار
ہارا
ہارمونیم
ہارنا
ہارون
ہاری
ہارے
ہارݨ
ہاسا
ہاسے
ہاشم
ہاشمی
ہاضم
ہاضمہ
ہال
ہالی
ہامی
ہان
ہاندرے
ہانویں
ہانڈی
ہانک
ہانکنا
ہانکنے
ہانگ
ہانے
ہاو
ہاویں
ہاوے
ہاوݨ
ہاي
ہاڑ
ہاڑا
ہاڑھ
ہاڑی
ہاکڑا
ہاکڑہ
ہاکی
ہاڳ
ہاں
ہاݙا
ہاݙی
ہاݙے
ہاݨاں
ہاݨی
ہاݨے
ہت
ہتک
ہتھ
ہتھاں
ہتھو
ہتھوڑا
ہتھوڑے
ہتھوں
ہتھیا
ہتھیار
ہتھیانا
ہتھیلی
ہتھیکا
ہتھیں
ہج
ہجر
ہجرت
ہجری
ہجوم
ہد
ہدا
ہدایات
ہدایت
ہدف
ہدن
ہدی
ہدیں
ہدے
ہذیان
ہر
ہرا
ہرانا
ہراوݨ
ہرجانہ
ہرجاݨاں
ہرن
ہروبھرو
ہروں
ہرگز
ہرہ
ہری
ہرے
ہرݨ
ہز
ہزار
ہزاراں
ہزاروں
ہزارہ
ہزاریں
ہس
ہستہ
ہستی
ہستیاں
ہسپانوی
ہسپانیہ
ہسپتال
ہسپتالاں
ہسی
ہسے
ہشام
ہضم
ہفت
ہفتہ
ہفتے
ہل
ہلا
ہلال
ہلانا
ہلانے
ہلاوݨ
ہلاي
ہلاک
ہلدی
ہلنا
ہلکا
ہلکی
ہلکے
ہلیہ
ہلے
ہم
ہما
ہمارا
ہماری
ہمارے
ہمالیہ
ہمایوں
ہمت
ہمدرد
ہمدردی
ہمراز
ہمراہ
ہمزہ
ہمساي
ہمسایہ
ہموار
ہموں
ہمہ
ہمی
ہمیش
ہمیشاں
ہمیشہ
ہمیں
ہن
ہنج
ہنجوں
ہنجھ
ہند
ہندا
ہندسہ
ہندسے
ہندو
ہندوانہ
ہندواں
ہندوستان
ہندوستانی
ہندومت
ہندوو
ہندکو
ہندکی
ہندی
ہندے
ہنر
ہنرمنداں
ہنس
ہنسا
ہنسنا
ہنسی
ہنسے
ہنڈیا
ہنڑ
ہنگ
ہنگامہ
ہنگی
ہنی
ہنیں
ہو
ہوا
ہوازن
ہواوݨ
ہواي
ہواڑ
ہواں
ہوبہو
ہوت
ہوتا
ہوتی
ہوتے
ہوجانا
ہودہ
ہور
ہوراں
ہوریں
ہوز
ہوس
ہوساں
ہوسن
ہوسی
ہوسے
ہوش
ہوشی
ہوشیار
ہوشیاری
ہولا
ہولي
ہولی
ہولیں
ہولے
ہون
ہونا
ہوند
ہوندا
ہوندن
ہوندي
ہوندی
ہوندیاں
ہوندین
ہوندیں
ہوندے
ہونون
ہونٹ
ہونٹوں
ہونہار
ہونی
ہونے
ہوو
ہوواں
ہوون
ہوونڑ
ہووی
ہوویں
ہووے
ہووݨ
ہووݨا
ہووݨاں
ہووݨی
ہوي
ہوٹل
ہوکا
ہوکے
ہوگا
ہوگي
ہوگی
ہوں
ہویا
ہویاں
ہوے
ہوݙ
ہوݨ
ہي
ہٹ
ہٹا
ہٹانا
ہٹاوݨ
ہٹنا
ہٹھ
ہٹی
ہٻڑاس
ہڈی
ہڈیاں
ہڑ
ہڑا
ہڑتال
ہڑپ
ہڑپہ
ہڑی
ہڑیلے
ہڑے
ہک
ہکا
ہکل
ہکلݨ
ہکو
ہکی
ہکے
ہہ
ہی
ہیبت
ہیجڑا
ہیجڑیاں
ہیجڑے
ہیر
ہیرا
ہیرو
ہیروي
ہیرے
ہیسے
ہیل
ہیلتھ
ہیلک
ہین
ہینڈل
ہیوے
ہیي
ہیٹھ
ہیٹھاں
ہیٹھوں
ہیڈ
ہیک
ہیں
ہیے
ہیݨا
ہیݨے
ہے
ہےجو
ہݙ
ہݙی
ہݙیاں
ہݨ
ہݨیں
ۃ
ی
یا
یاب
یات
یاترا
یاد
یاداں
یادری
یادگار
یادیں
یار
یارا
یاراں
یارو
یارک
یارھاں
یارہاں
یاری
یاریں
یاسر
یاسمین
یاسین
یافتہ
یال
یاوا
یاول
یاوہ
یاي
یاں
یب
یت
یتا
یتاں
یتی
یتیاں
یتیم
یتے
یج
یجا
یجان
یجھا
یجݨ
یح
یحیی
یخ
ید
یدا
یداد
یدار
یدہ
یدے
یذ
یر
یرا
یراں
یرقان
یرلا
یرلی
یرلے
یرہ
یری
یرے
یرݨ
یز
یزمان
یزید
یس
یسا
یساں
یسوع
یسہ
یسی
یسے
یش
یشیا
یع
یعقوب
یعنی
یف
یق
یقین
یقینا
یقینی
یل
یلا
یلاں
یلغار
یلہ
یلی
یلیاں
یلے
یم
یمان
یمت
یمتاں
یمن
ین
ینا
یناں
یندا
یندن
یندی
یندے
ینویں
ینٹوں
ینک
ینھ
ینہ
ینی
ینے
یو
یوا
یوال
یوان
یوتھ
یوحنا
یور
یورپ
یورپی
یوسف
یوم
یون
یونان
یونانی
یونس
یونٹ
یونی
یونین
یونیورس
یونیورسٹی
یونیورسٹیاں
یوکراي
یوکرین
یوگی
یوں
یویٹ
یویں
یوے
یوݨ
یي
یٹ
یٹھ
یٹھا
یٹی
یٹݨ
یپ
یڄ
یڄݨ
یچھا
یچھے
یڈ
یڑ
یڑا
یڑھ
یڑھی
یڑی
یڑے
یک
یکا
یکاٹ
یکاں
یکتا
یکجا
یکجان
یکدم
یکساں
یکستان
یکل
یکلوپیڈیا
یکم
یکو
یکوں
یکھ
یکہ
یکی
یکیاں
یکیں
یکے
یکݨ
یگ
یگی
یں
یھ
یہ
یہا
یہاں
یہو
یہود
یہوداہ
یہودی
یہودیاں
یہودیت
یہہ
یہی
یہیں
یہے
یہݨ
یی
یے
یݨ
یݨاں
یݨی
ے
ےڄین
۔
ۖ
۝
۞
۰
۱
۱۰
۱۱
۱۲
۱۳
۱۴
۱۵
۱۶
۱۷
۱۸
۱۹
۲
۲۰
۲۰۰۰
۲۰۰۶
۲۰۱
۲۱
۲۲
۳
۳۱
۴
۵
۵۰
۶
۷
۸
۹
۾
ݙ
ݙا
ݙات
ݙاتری
ݙاج
ݙاری
ݙال
ݙالا
ݙان
ݙاند
ݙانداں
ݙانگ
ݙاوݨ
ݙاي
ݙاٹ
ݙاچی
ݙاڈھا
ݙاڈھی
ݙاڈھے
ݙاڑھی
ݙاک
ݙاکو
ݙاکٹر
ݙاں
ݙاہ
ݙاہر
ݙاہویں
ݙاݙا
ݙاݙی
ݙاݙے
ݙت
ݙتا
ݙتن
ݙتی
ݙتیاں
ݙتے
ݙدا
ݙدی
ݙدے
ݙر
ݙرامے
ݙراوا
ݙراوݨ
ݙردے
ݙرو
ݙرݨ
ݙس
ݙسا
ݙساوݨ
ݙساي
ݙسایا
ݙسدن
ݙسدی
ݙسدے
ݙسی
ݙسیا
ݙسیندن
ݙسیندی
ݙسیندے
ݙسے
ݙسݨ
ݙل
ݙلی
ݙن
ݙند
ݙنداں
ݙنڈا
ݙنڈی
ݙنگ
ݙنے
ݙو
ݙوجھا
ݙوجھی
ݙوجھیاں
ݙوجھے
ݙور
ݙورا
ݙورچی
ݙوری
ݙوس
ݙول
ݙولا
ݙولی
ݙون
ݙونگھا
ݙونڳا
ݙونڳی
ݙونہیں
ݙوي
ݙوپہر
ݙوپہراں
ݙوڑا
ݙوں
ݙوھڑے
ݙوہ
ݙوہاي
ݙوہاں
ݙوہڑا
ݙوہڑہ
ݙوہڑے
ݙوہیں
ݙوہݨ
ݙویندے
ݙٹ
ݙٹھا
ݙٹھی
ݙٹھے
ݙڈھ
ݙڈھپ
ݙک
ݙکرے
ݙکھ
ݙکھا
ݙکھالی
ݙکھاوا
ݙکھاوے
ݙکھاوݨ
ݙکھاي
ݙکھاں
ݙکھایا
ݙکھیندے
ݙکھݨ
ݙکݨ
ݙھیر
ݙہ
ݙہاکے
ݙہدا
ݙہدے
ݙہی
ݙی
ݙیا
ݙیاں
ݙیس
ݙیساں
ݙیسن
ݙیسوں
ݙیسی
ݙین
ݙیندا
ݙیندن
ݙیندی
ݙیندیاں
ݙیندیں
ݙیندے
ݙینھ
ݙینہ
ݙینہاں
ݙینہہ
ݙیو
ݙیوا
ݙیواوݨ
ݙیواي
ݙیواں
ݙیوایا
ݙیون
ݙیوو
ݙیویجے
ݙیویں
ݙیوے
ݙیوݨ
ݙیوݨا
ݙیوݨی
ݙیوݨے
ݙیڈھ
ݙیڈھی
ݙیکھ
ݙیکھاں
ݙیکھدے
ݙیکھو
ݙیکھوں
ݙیکھیجے
ݙیکھیں
ݙیکھے
ݙیکھݨ
ݙیہاڑا
ݙیہاڑی
ݙیہاڑیاں
ݙیہاڑے
ݙیہاں
ݙیہدا
ݙیہدے
ݙیہنہ
ݙیݙر
ݙیݨ
ݙے
ݙݨ
ݨ
ݨا
ݨاوݨ
ݨاي
ݨاں
ݨاہی
ݨت
ݨتری
ݨدا
ݨدے
ݨس
ݨواوݨ
ݨک
ݨکا
ݨکے
ݨھ
ݨہپ
ݨی
ݨیا
ݨیاد
ݨیں
ݨے
ݨݨ
ं
आ
क
ग
च
ज
ट
ठ
ड
त
थ
द
ध
न
प
फ
ब
भ
म
य
र
ल
व
श
ष
स
ह
़
ा
ि
ी
ु
ू
ृ
े
ै
ो
्
।
॰
দ
ল
া
ি
ু
ে
্
ਰ
ਸ
ਾ
்
​
‌
‍
‎
‏
–
—
‘
’
“
”
•
…
‪
‬
⁡
⃣
↔
↷
③
④
⑦
▪
◇
○
●
☆
♥
⚀
❤
⺀
⺄
⺆
⺈
⺊
⺌
⺕
⺝
⺸
⺼
⿰
⿱
⿲
⿳
⿴
⿵
⿶
⿷
⿸
⿹
⿺
⿻
〢
コ
ユ
㇁
㇂
㇄
㇇
㇈
㇉
㇓
㐁
㐄
㐅
㐌
㐫
㐬
㐭
㐮
㐱
㑒
㒵
㒸
㒼
㓁
㓞
㔾
㕛
㕣
㖾
㘝
㚅
㚇
㚔
㚘
㝉
㝡
㝴
㝵
㞋
㞢
㞷
㠩
㠭
㠯
㡀
㡭
㡿
㢲
㢴
㣇
㣺
㥯
㪅
㫄
㫐
㫒
㫺
㬅
㬎
㬥
㬰
㲋
㳄
㷠
㸒
㸚
㸦
㼌
㼲
㽞
㿟
䀠
䂞
䍃
䏍
䒑
䖍
䖒
䖝
䖵
䙴
䚻
䜌
䝿
䡛
䧹
䪞
一
丁
丂
七
丄
丅
丆
万
丈
三
上
下
丌
不
与
丏
丐
丑
专
且
丕
世
丘
丙
业
东
丞
丢
丣
两
严
並
丨
丩
个
丫
丬
中
丮
丰
丱
串
丵
丶
丷
丸
丹
为
主
丽
丿
乀
乂
乃
久
乆
乇
么
义
之
乌
乍
乎
乏
乐
乑
乔
乖
乗
乘
乙
乚
乛
乜
九
乞
也
习
乡
乳
乾
亀
亅
了
亇
予
争
事
二
亍
于
亏
亐
云
互
亓
五
井
亘
亚
亜
亞
亟
亠
亡
亢
交
亥
亦
产
亨
亩
享
京
亭
亮
亯
亰
亲
亳
亶
亷
人
亻
亼
亾
仁
今
介
仌
从
仐
仑
仒
仓
仕
他
付
仝
代
令
以
任
企
伊
伏
伐
休
会
伯
但
位
何
佘
余
作
佥
使
來
侈
侌
侖
侯
侵
便
保
俞
信
修
倉
倍
候
倠
備
僉
僕
儿
兀
允
兂
元
兄
充
兆
兇
先
光
兊
克
兌
免
兑
兒
兓
兔
党
兜
兟
入
全
兩
兪
八
公
六
兮
兰
共
关
兵
其
具
典
兹
兼
冀
冂
冃
冄
内
冈
冉
冊
冋
册
再
冎
冏
冐
冒
冓
冖
冗
冘
军
农
冝
冡
冥
冫
冬
冷
几
凡
凢
凵
凶
凷
凸
凹
出
函
凾
刀
刁
刂
刃
刄
刅
分
切
刍
刑
刕
刖
列
刘
则
初
別
利
别
到
制
刺
則
削
剌
前
剡
剽
劉
力
功
加
劦
助
劫
劳
劵
勃
勇
勉
勒
動
務
勞
勤
勹
勺
勻
勾
勿
匀
匂
包
匆
匈
匊
匋
匍
匕
化
北
匚
匝
匡
匪
匱
匸
匹
区
医
匽
匿
區
十
卂
千
卄
卅
卆
升
午
卉
半
卌
华
卑
卒
卓
单
卖
南
卜
卝
卞
占
卡
卢
卣
卤
卦
卩
卪
卬
卯
印
危
即
却
卵
卷
卸
卻
厂
厃
厄
历
厈
厉
厌
厓
厘
厚
原
厤
厥
厨
厭
厲
厶
厷
厸
去
厼
厽
叀
参
參
叅
又
叉
及
友
双
反
叐
发
叒
叔
叕
取
受
叚
叜
叟
口
古
句
另
叩
只
召
可
台
叱
史
右
叵
号
司
叹
吂
各
吅
合
吉
吊
吋
同
名
后
吏
向
吕
君
吝
吞
否
含
启
吳
吴
吹
吾
呂
呆
呈
告
员
呙
周
命
咅
和
咎
咠
咢
咨
咸
咼
哀
品
哉
員
哥
哲
唐
商
啇
問
啚
啬
啻
善
喜
喬
單
喿
嗇
噩
嚴
囊
囗
囘
囙
囚
四
回
囟
因
囧
囬
困
囱
囷
固
国
圂
圅
國
圍
圓
土
圡
圣
圥
在
圭
地
圶
圼
坐
坒
坚
坴
垂
垔
垚
埀
埋
埶
執
基
堂
堅
堆
堇
堯
塞
墨
壘
士
壬
壯
声
壳
壴
壹
壺
壽
夂
处
夅
夆
备
夊
夋
夌
复
夏
夒
夕
外
夗
夘
多
夜
夢
大
夨
天
太
夫
夬
夭
央
失
夲
头
夷
夸
夹
夻
夾
奂
奄
奇
奈
奉
奎
奏
奐
契
奓
奔
奚
奞
奠
奢
奥
奭
女
奴
奻
好
如
妄
妙
妟
妥
妻
妾
姑
委
姜
威
娄
婁
婴
嬰
嬴
子
孑
孔
孕
孖
字
存
孚
孛
孝
孟
季
孤
学
孫
孱
學
宀
宁
宂
它
宅
宇
守
安
宋
完
宏
宓
宗
官
定
宛
宜
宝
客
宣
室
宮
宰
害
家
容
宾
宿
寄
寅
密
富
寒
察
寧
審
寫
寬
寮
寸
对
寺
寻
寽
対
寿
封
尃
射
将
將
專
尉
尊
尋
尌
對
小
少
尒
尓
尔
尖
尗
尚
尞
尢
尣
尤
尧
尨
尭
就
尸
尹
尺
尻
尼
尽
尾
尿
局
居
屈
屋
屎
屏
屑
展
屖
屚
属
屠
屡
屬
屮
屯
屰
山
屵
屾
岁
岂
岑
岡
岩
岳
岸
峯
島
崇
崑
崔
崖
崙
崩
嵬
嶲
巂
巛
川
州
巟
巠
巢
巤
工
左
巧
巨
巩
巫
差
己
已
巳
巴
巷
巸
巽
巾
巿
帀
市
布
希
帚
帛
帝
带
師
席
帶
常
干
平
年
幵
并
幷
幸
幺
幻
幼
幽
幾
广
広
庄
床
底
店
庚
府
度
庫
庭
庶
康
庸
廉
廌
廛
廣
廩
廴
延
廷
建
廾
廿
开
弁
弃
弄
弇
弋
式
弓
弔
引
弗
弘
弜
弟
弥
弦
弱
張
強
强
彊
彌
彎
彐
彑
当
彔
录
彖
彗
彡
形
彥
彦
彧
彭
彳
役
彼
往
待
律
徒
得
徙
從
復
微
徵
心
忄
必
忌
忍
志
忝
忠
忩
快
念
忽
忿
思
怠
急
怱
恆
恒
恩
恭
息
悉
患
悤
悲
悶
惠
惡
惢
愁
愈
意
愛
感
慈
慧
慮
憂
憲
應
戀
戈
戉
戊
戋
戌
戍
戎
成
我
戒
戔
或
戚
戠
戢
截
戲
戶
户
戹
戼
戾
房
所
扁
扇
手
扌
才
打
托
执
承
折
拉
拜
拿
掌
推
提
摩
支
攴
攵
收
攸
改
放
政
敄
敏
敕
敖
敗
敝
敞
敢
散
敦
敫
敬
数
敷
數
斂
文
斉
斊
斗
斤
斥
斩
斬
斯
新
方
於
施
斿
旁
旋
族
无
旡
既
旣
日
旦
旧
旨
早
旬
旱
旲
时
旾
昆
昇
昌
昍
明
昏
易
昔
昗
昜
星
春
昬
是
昱
昴
昷
時
晃
晋
晏
普
景
晶
智
暑
暴
曇
曩
曰
曲
曳
更
曷
書
曹
曼
曾
替
最
朁
會
月
有
朋
服
朔
朕
朗
望
朝
木
朩
未
末
本
札
朮
术
朱
朵
朶
朿
杀
杏
杜
束
条
来
東
杲
杳
松
析
林
枚
果
枝
枲
枼
某
柔
查
柬
柰
柴
栗
桀
桑
桼
梁
條
梟
梨
棘
棠
棥
森
楚
業
楽
榮
樂
樊
欠
次
欣
欮
欲
欶
欽
款
歆
歇
歛
止
正
此
步
武
歨
歪
歮
歯
歰
歲
歴
歷
歸
歹
歺
死
殳
段
殷
殸
殹
殺
殻
殿
毋
毌
母
每
毒
比
毕
毚
毛
毳
氏
氐
民
气
氣
水
氵
氶
氷
永
氺
氾
求
汝
汞
江
沃
沓
沙
沝
泉
法
波
泣
泥
泰
洛
洪
活
派
流
浦
浪
浮
淡
淮
清
渚
渠
湯
滿
漸
火
灬
灭
灰
灵
灷
炅
炎
炏
炗
炙
炭
為
烈
烏
烝
焉
無
焦
焱
然
煞
熊
熏
燕
營
燮
爪
爫
爭
爯
爰
爱
爲
爵
父
爻
爽
爾
爿
片
牙
牚
牛
牜
牟
牢
牧
牪
牽
犀
犬
犭
犮
狂
狄
狊
独
狺
猋
猒
猪
献
獻
玄
率
玉
王
玟
玨
珎
班
琴
瑟
瑩
瓜
瓦
甘
甚
生
産
用
甫
甬
田
由
甲
申
电
甶
男
甸
甹
画
甾
畀
界
畏
畐
留
畜
畟
畢
畧
畨
番
畫
異
畱
當
畺
畾
疊
疋
疌
疑
疒
疾
癶
癸
癹
登
發
白
百
皀
皃
的
皆
皇
皋
皐
皕
皮
皷
皿
盃
盆
盇
盈
益
盍
盎
监
盒
盖
盛
盡
監
盤
盧
目
直
相
盾
省
眇
眉
看
眔
眞
真
眷
眼
眾
着
睘
睪
睿
瞏
瞢
瞿
矍
矛
矞
矢
矣
知
矦
短
石
破
碎
磊
磨
示
礻
礼
祟
票
祭
禀
禁
禸
禹
禺
离
禽
禾
禿
秀
秃
秉
秋
科
秝
秦
移
稟
穀
穌
穴
究
穹
空
穿
突
窄
窒
立
竒
竜
竝
竟
章
童
竹
笑
笠
筆
等
答
箕
算
箴
節
篤
篭
米
粉
粛
粟
粤
粦
粲
糞
糸
糹
系
約
納
素
索
紫
累
細
絜
絫
絲
維
綿
縣
繇
纍
纟
缶
网
罒
罔
罕
罗
罙
罡
罢
罪
署
罷
羅
羊
羌
羍
美
羔
羕
羗
羞
羡
羣
群
義
羲
羸
羽
翁
翏
習
翕
翟
翠
翼
老
耂
考
者
耆
而
耎
耑
耒
耳
耴
耶
耷
聂
聊
聖
聚
聶
聿
肀
肃
肅
肉
肖
肙
肥
肩
肯
育
肴
胃
背
胡
胥
能
脊
脩
膚
臣
臤
臧
自
臬
臭
臯
臱
至
致
臺
臼
臽
臾
臿
舀
舂
舄
與
興
舉
舌
舍
舛
舜
舞
舟
般
艮
良
色
艸
艹
艾
芒
芔
芬
芮
花
芳
芺
芻
苔
苗
苟
若
苦
英
茶
茸
荅
草
荒
荣
荼
莆
莧
莫
莽
菆
菊
菐
華
萬
落
葉
著
葛
董
葵
蒙
蒦
蒼
蓋
蓬
蓺
蔑
蔡
蕉
蕭
薄
薛
薦
薰
藍
藏
藥
蘭
虍
虎
虐
虒
虔
處
虖
虗
虘
虚
虛
虜
虞
虫
虽
蚤
蚩
蜀
蜜
蟲
蠡
血
行
衍
衛
衣
衤
表
衮
衰
袁
袞
褭
褱
襄
襾
西
覀
要
覃
見
規
覓
覧
親
覽
见
角
解
言
訁
訇
計
詹
誩
諸
讠
谷
豆
豈
豊
豐
豕
豖
豙
象
豦
豩
豪
豸
貇
貝
貞
貟
負
貢
貧
貪
貫
責
貳
貴
買
費
賁
資
賈
賏
賓
賔
賛
賞
賢
賣
質
賴
贊
贝
贡
责
贯
贲
贵
赖
赞
赤
赦
走
越
足
路
蹇
身
躬
車
軍
軎
軟
輦
车
辛
辜
辟
辥
辰
辱
農
辵
辶
边
达
过
近
连
迷
追
退
送
逆
逐
通
速
造
逢
連
逮
進
遀
遂
過
道
達
遣
適
遷
遺
邊
邑
邕
那
邦
邪
郎
部
郭
都
鄉
酉
酋
配
酓
釆
采
里
重
野
量
金
釒
錢
钅
長
镸
长
門
閃
閉
開
閏
閑
閒
間
閔
閵
閻
闌
门
间
闷
阑
阜
阝
阿
降
陳
隆
隊
隋
隡
隨
隱
隶
隹
隺
隻
隼
隽
难
雀
雁
集
雈
雋
雍
雐
雔
雙
雚
雜
雝
離
難
雨
雩
雪
雲
零
雷
需
霍
霜
霝
霞
霸
靈
靑
青
非
靡
面
靣
革
韋
韦
韭
韯
韱
音
頁
頃
項
須
頗
頡
頻
顛
页
風
风
飛
飞
食
飠
養
饣
首
香
馬
馮
駦
马
骨
高
髟
鬥
鬯
鬲
鬼
魚
魯
鮮
鱼
鲁
鳥
鳳
鸟
鹵
鹿
麃
麗
麥
麦
麻
黃
黄
黍
黎
黑
黒
黨
黹
黽
黾
鼎
鼓
鼠
鼻
齊
齋
齐
齒
齿
龍
龙
龜
龟
龠
龰
龱
龴
龵
龶
龷
龸
龹

者
艹
ﭘ
ﭙ
ﭧ
ﭨ
ﭩ
ﭺ
ﭼ
ﭽ
ﮈ
ﮉ
ﮌ
ﮍ
ﮎ
ﮏ
ﮐ
ﮑ
ﮒ
ﮓ
ﮔ
ﮕ
ﮞ
ﮟ
ﮦ
ﮧ
ﮨ
ﮩ
ﮪ
ﮫ
ﮬ
ﮭ
ﮮ
ﮯ
ﯼ
ﯽ
ﯾ
ﯿ
﴾
﴿
ﷲ
ﷺ
️
ﺀ
ﺁ
ﺅ
ﺋ
ﺌ
ﺍ
ﺎ
ﺏ
ﺐ
ﺑ
ﺒ
ﺕ
ﺖ
ﺗ
ﺘ
ﺛ
ﺝ
ﺞ
ﺟ
ﺠ
ﺣ
ﺤ
ﺧ
ﺨ
ﺩ
ﺪ
ﺫ
ﺭ
ﺮ
ﺯ
ﺰ
ﺱ
ﺲ
ﺳ
ﺴ
ﺵ
ﺶ
ﺷ
ﺸ
ﺹ
ﺺ
ﺻ
ﺼ
ﺿ
ﻀ
ﻃ
ﻄ
ﻇ
ﻈ
ﻊ
ﻋ
ﻌ
ﻏ
ﻐ
ﻑ
ﻒ
ﻓ
ﻔ
ﻖ
ﻗ
ﻘ
ﻝ
ﻞ
ﻟ
ﻠ
ﻡ
ﻢ
ﻣ
ﻤ
ﻥ
ﻦ
ﻧ
ﻨ
ﻫ
ﻬ
ﻭ
ﻮ
ﻻ
ﻼ
？
�
🇱
🌱
🌴
🌷
🌹
🌺
🌼
🌿
🍀
🍁
🍃
💔
💚
💯
🔸
😆
😭
𠀁
𠀃
𠀆
𠀉
𠀎
𠀐
𠁁
𠁣
𠂆
𠂇
𠂈
𠂉
𠂊
𠂋
𠂎
𠂒
𠂔
𠂛
𠂡
𠂢
𠂤
𠂬
𠂭
𠂹
𠃊
𠃋
𠃌
𠃍
𠃎
𠃑
𠃓
𠃔
𠃜
𠄌
𠄎
𠄠
𠄢
𠆢
𠆥
𠇍
𠈌
𠌵
𠓜
𠔉
𠔥
𠔼
𠔽
𠔿
𠕀
𠕁
𠕋
𠘧
𠘨
𠙻
𠙼
𠚏
𠚒
𠚤
𠚪
𠣏
𠤎
𠤕
𠥓
𠦄
𠦑
𠦝
𠧒
𠧗
𠧪
𠩺
𠪚
𠫓
𠫔
𠫤
𠬛
𠬝
𠬞
𠬢
𠬤
𠬶
𠮛
𠮦
𠮷
𠯑
𠱠
𠳮
𠷎
𡈼
𡉀
𡉵
𡌥
𡍮
𡏳
𡕒
𡕩
𡕰
𡖅
𡗗
𡗜
𡘆
𡘤
𡧱
𡨄
𡩧
𡬠
𡭽
𡰣
𡰥
𡰪
𡰯
𡰱
𡷈
𡸁
𡿨
𡿩
𡿪
𡿺
𢀖
𢀛
𢀩
𢁙
𢆉
𢆰
𢆶
𢇁
𢇇
𢉖
𢌬
𢌿
𢏚
𢑑
𢑚
𢖻
𢙣
𢛳
𢦏
𢦒
𢧵
𢼄
𢾕
𣁋
𣄼
𣅀
𣅽
𣍘
𣎳
𣎵
𣏋
𣏼
𣗥
𣥂
𣥖
𣦵
𣦼
𣧄
𣪊
𣪠
𣬉
𣳾
𣶒
𤇾
𤊽
𤐫
𤓰
𤔔
𤕨
𤣩
𤰇
𤰔
𤰞
𤴓
𤴔
𤽄
𥁑
𥁕
𥃦
𥃩
𥃭
𥇡
𥑟
𥘅
𥘈
𥝢
𥫗
𥱡
𦈢
𦉪
𦉬
𦉼
𦍌
𦍒
𦎧
𦐇
𦓔
𦔮
𦘒
𦙃
𦚏
𦣝
𦣞
𦣻
𦥑
𦥔
𦥯
𦨉
𦭝
𦰩
𧆞
𧈧
𧘇
𧰨
𧴪
𧴮
𧵩
𧾷
𨸏
𨾴
𩙿
𩠐
𩫏
𩵋
𪉷
𪜀
𪟽
𪠲
𪩲
𫇦
𫔭
𫜸
𫝀
𫠣
𫠩
𫢉
𫥞
𫩏
𫩠
𫪡
𫲽
𫶧
𬀷
𬐘
𬗌
𬙙
𬛸
𬜯
𬟩
𬯁
𬴘
𬺻
𬼉
𬼖
𭀰
𭁈
𭁨
𭅰
𭑈
𭕄
𭗼
𭤨
𭥫
𭻾
𮅕
𮊿
𮍌
𮍏
𮓗
𮥼
𮧮
廾
𰀁
𰀄
𰀈
𰀉
𰀕
𰀠
𰀡
𰀢
𰀪
𰁜
𰃮
𰆊
𰆘
𰋙
𰕎
𰢴
𰧭
𰯲
a--
ab--
ac--
ahm--
an--
ar--
az--
b--
ba--
be--
bl--
bo--
br--
c--
ca--
ch--
cha--
cl--
cult--
d--
de--
det--
dr--
e--
ed--
electi--
ex--
f--
fa--
fi--
fo--
fr--
g--
gi--
gr--
h--
ha--
ho--
hu--
hum--
i--
im--
in--
ir--
j--
jo--
k--
kar--
l--
le--
li--
lo--
m--
ma--
me--
mo--
mu--
mult--
mus--
n--
nati--
ne--
ni--
no--
o--
p--
pe--
per--
pl--
po--
pr--
q--
r--
ra--
re--
rep--
res--
ri--
ro--
s--
sa--
sh--
sha--
si--
so--
st--
stu--
su--
t--
ta--
te--
th--
the--
ti--
tr--
u--
un--
v--
ve--
vi--
w--
y--
za--
ء--
ا--
اب--
ابا--
ابو--
ابوال--
ات--
اث--
اج--
اح--
اخ--
اد--
ادا--
ادھ--
ار--
از--
اس--
است--
استع--
اش--
اص--
اط--
اع--
اعت--
اف--
اق--
ال--
الا--
الح--
الد--
الر--
الس--
الع--
الف--
الق--
الك--
الم--
المست--
الن--
الو--
الی--
ام--
امر--
ان--
انا--
انت--
انح--
انگ--
انڳ--
او--
اول--
اون--
اوچ--
اوہ--
اٹ--
اٹک--
اٹھ--
اپ--
اڄ--
اچ--
اڈ--
اڑ--
اژ--
اک--
اکه--
اکھ--
اگ--
اگو--
اڳ--
اڳو--
اہ--
ای--
این--
ایڈ--
ایک--
اے--
اݙ--
اݙا--
ب--
با--
باد--
بار--
باس--
بال--
باک--
بت--
بد--
بدھ--
بر--
برا--
برف--
برو--
بز--
بس--
بط--
بغ--
بق--
بل--
بلا--
بلی--
بم--
بن--
بنف--
بنڑ--
به--
بو--
بٹ--
بچ--
بڑ--
بک--
بکھ--
بگ--
بھ--
بھا--
بھج--
بھر--
بھن--
بھو--
بھڄ--
بھک--
بھگ--
بھی--
بہ--
بہا--
بی--
بیر--
بیچ--
بے--
بݨ--
بݨا--
ت--
تا--
تاب--
تات--
تب--
تت--
تجر--
تح--
تذ--
تر--
ترا--
ترس--
تری--
تس--
تش--
تص--
تل--
تم--
تمث--
تن--
تنگ--
ته--
تو--
توہ--
تپ--
تڑ--
تک--
تگ--
تھ--
تھا--
تھر--
تھو--
تھپ--
تھک--
تھی--
تہ--
تی--
تے--
تےا--
تݙ--
تݨ--
ث--
ثعل--
ثق--
ج--
جا--
جام--
جان--
جب--
جت--
جر--
جز--
جس--
جل--
جلا--
جم--
جن--
جو--
جوس--
جوش--
جڈ--
جڑ--
جگ--
جڳ--
جھ--
جھا--
جھر--
جھل--
جھم--
جھن--
جھڑ--
جھک--
جھی--
جہ--
جی--
جین--
ح--
حب--
حت--
حج--
حد--
حس--
حض--
حق--
حل--
حم--
حو--
خ--
خا--
خان--
خاک--
خت--
خدا--
خذ--
خر--
خس--
خش--
خص--
خط--
خل--
خم--
خن--
خو--
خود--
خوش--
خچ--
خی--
خیبر--
خیر--
د--
دا--
دان--
دب--
در--
درو--
درک--
دس--
دست--
دفن--
دل--
دم--
دن--
دو--
دوا--
دڑ--
دک--
دکھ--
دگ--
دھ--
دھا--
دھر--
دھم--
دھن--
دھو--
دھی--
دھݨ--
دہ--
دی--
دیو--
دے--
ذ--
ذی--
ر--
را--
راج--
ران--
راہ--
رب--
رت--
رج--
رح--
رخ--
رد--
رس--
رش--
رض--
رضا--
رع--
رف--
رق--
رقا--
رل--
رم--
رن--
رنگ--
رو--
رود--
رون--
رٹ--
رپ--
رچ--
رڑ--
رک--
رکھ--
رکی--
رگ--
رڳ--
رھ--
رہ--
ری--
ریا--
رین--
ز--
زا--
زر--
زم--
زن--
زو--
زور--
زک--
زہ--
زہر--
س--
سا--
سار--
سال--
سام--
سان--
ساہ--
سب--
سبھ--
ست--
سج--
سد--
سر--
سرا--
سرو--
سس--
سط--
سع--
سل--
سلو--
سم--
سن--
سنج--
سنڑ--
سنگ--
سو--
سوج--
سوم--
سون--
سٹ--
سڄ--
سچی--
سڈ--
سڑ--
سک--
سکھ--
سگ--
سگی--
سڳ--
سہ--
سی--
سیا--
سین--
سیک--
سݙ--
سݨ--
ش--
شا--
شاف--
شاہ--
شت--
شر--
شق--
شل--
شم--
شن--
شو--
شور--
شک--
شہ--
شی--
شیر--
ص--
صاحب--
صح--
صد--
صف--
صل--
ض--
ضم--
ط--
طا--
طب--
طن--
ظ--
ع--
عا--
عب--
عبد--
عبدال--
عد--
عر--
عز--
عظ--
عقل--
عل--
علم--
عمل--
عن--
عی--
غ--
غا--
غت--
غز--
غص--
غل--
غم--
غیر--
ـ--
ف--
فا--
فت--
فر--
فرش--
فرمان--
فس--
فص--
فق--
فل--
فو--
فی--
ق--
قا--
قد--
قزو--
قص--
قل--
قم--
قن--
قہ--
ك--
ل--
لا--
لام--
لان--
لاڑ--
لاہ--
لب--
لبھ--
لت--
لج--
لح--
لد--
لر--
لس--
لش--
لف--
لق--
لل--
لم--
لن--
لنگ--
لو--
لٹ--
لٻ--
لپ--
لڄ--
لچک--
لڑ--
لڑھ--
لک--
لکھ--
لگ--
لڳ--
لھ--
لہ--
لہر--
لی--
لݙ--
م--
ما--
مار--
مال--
مان--
ماہ--
مب--
مت--
مجت--
مح--
محمد--
مخ--
مد--
مر--
مرو--
مز--
مس--
مست--
مسک--
مشر--
مص--
مضاف--
مع--
معت--
مغ--
مفا--
مفل--
مقد--
مل--
ملا--
مم--
من--
منا--
مند--
منگ--
منی--
مو--
مون--
موہ--
مٹ--
مچ--
مڑ--
مک--
مکی--
مھ--
مہ--
مہا--
مہی--
می--
میت--
میر--
میل--
مین--
میک--
مݨ--
ن--
نا--
نات--
نار--
ناس--
نام--
نان--
ناپ--
ناگ--
نب--
نت--
نتھ--
نج--
نح--
ند--
نر--
نز--
نس--
نش--
نشوو--
نظر--
نفر--
نق--
نقا--
نقش--
نم--
نما--
نن--
ننا--
نو--
نور--
نون--
نوک--
نٹ--
نپ--
نڄ--
نچ--
نڈ--
نڑ--
نک--
نکھ--
نگ--
نگہ--
نھ--
نہ--
نی--
نیا--
نیو--
نݙ--
ه--
و--
وا--
وار--
وال--
وان--
وب--
وت--
وج--
وح--
ود--
ور--
وز--
وس--
وسا--
وسی--
وش--
وف--
ول--
ولی--
وم--
ون--
ونج--
ونگ--
وو--
وٹ--
وٹی--
وپ--
وڄ--
وچ--
وڈ--
وڑ--
وک--
وگ--
وھ--
وہ--
وہا--
وہی--
وی--
ویل--
ویہ--
وݙ--
ي--
١٠--
١٨--
١٩--
٢٠--
٦--
٧--
٨--
٩--
ٹ--
ٹا--
ٹر--
ٹری--
ٹل--
ٹم--
ٹن--
ٹو--
ٹٹ--
ٹپ--
ٹک--
ٹھ--
ٹھک--
ٹھی--
ٹہ--
ٹی--
ٹیک--
ٻ--
ٻا--
ٻان--
ٻاہ--
ٻس--
ٻل--
ٻلی--
ٻن--
ٻو--
ٻٹ--
ٻچ--
ٻڑ--
ٻک--
ٻہ--
ٻی--
پ--
پا--
پاس--
پان--
پاڑ--
پاک--
پت--
پتر--
پج--
پر--
پرا--
پرت--
پرو--
پری--
پس--
پل--
پلا--
پلو--
پلی--
پن--
پنج--
پندر--
پنڄ--
په--
پو--
پون--
پوٹ--
پوچ--
پٹ--
پٹی--
پڄ--
پچ--
پچھ--
پڑ--
پڑھ--
پک--
پکھ--
پکی--
پگ--
پڳ--
پھ--
پھر--
پھس--
پھل--
پھن--
پھڑ--
پھیپ--
پہ--
پی--
پیر--
پین--
ڄ--
ڄا--
ڄل--
ڄم--
ڄن--
ڄو--
ڄٹ--
ڄہڑ--
ڄی--
ڄݨ--
چ--
چا--
چال--
چان--
چاہ--
چبو--
چت--
چر--
چس--
چل--
چم--
چمک--
چن--
چنگ--
چو--
چوا--
چوب--
چون--
چوݨ--
چٹ--
چپ--
چڑ--
چک--
چکر--
چھ--
چھل--
چھو--
چھٹ--
چھپ--
چھڑ--
چھک--
چھی--
چہ--
چہچہ--
چی--
چیت--
چݨ--
ڈ--
ڈا--
ڈب--
ڈر--
ڈس--
ڈسپن--
ڈن--
ڈو--
ڈون--
ڈٹ--
ڈک--
ڈکھ--
ڈھ--
ڈھا--
ڈھو--
ڈھک--
ڈی--
ڈین--
ڈیو--
ڊ--
ڋ--
ڑ--
ڑا--
ڑو--
ڑک--
ڑھ--
ڑی--
ژ--
ک--
کا--
کار--
کاش--
کان--
کب--
کت--
کتر--
کج--
کد--
کر--
کرا--
کرن--
کرو--
کری--
کس--
کش--
کف--
کل--
کلو--
کلھ--
کم--
کن--
کنڄ--
کنڈ--
که--
کو--
کوا--
کون--
کوہ--
کٹ--
کٹی--
کپ--
کڄ--
کچ--
کڈ--
کڈھ--
کڑ--
کک--
کھ--
کھر--
کھل--
کھن--
کھو--
کھٹ--
کھپ--
کھڑ--
کھی--
کہ--
کی--
کیت--
کیل--
کین--
کیٹی--
کݨ--
گ--
گا--
گان--
گاہ--
گت--
گد--
گذا--
گر--
گرا--
گرو--
گری--
گز--
گشک--
گل--
گم--
گن--
گند--
گنگ--
گو--
گور--
گوش--
گپ--
گڈ--
گڑ--
گھ--
گھا--
گھت--
گھر--
گھس--
گھل--
گھن--
گھون--
گھٻ--
گھڑ--
گی--
گݙ--
گݨ--
ڳ--
ڳا--
ڳان--
ڳت--
ڳل--
ڳن--
ڳول--
ڳٹ--
ڳڑ--
ڳی--
ڳݨ--
ں--
ھ--
ھا--
ھب--
ھت--
ھج--
ھد--
ھر--
ھس--
ھل--
ھم--
ھن--
ھند--
ھنڈ--
ھو--
ھٹ--
ھٻ--
ھپ--
ھڄ--
ھچ--
ھڑ--
ھک--
ھگ--
ھڳ--
ھی--
ھݙ--
ھݨ--
ہ--
ہا--
ہان--
ہت--
ہتھ--
ہج--
ہر--
ہرا--
ہرن--
ہری--
ہس--
ہل--
ہم--
ہن--
ہنج--
ہند--
ہو--
ہون--
ہٹ--
ہچک--
ہڑ--
ہک--
ہی--
ہے--
ہݙ--
ی--
یا--
یاد--
یار--
یت--
یج--
یخ--
ید--
یر--
یز--
یس--
یل--
یم--
ین--
یو--
یور--
یٹ--
یپ--
یڈ--
یک--
یگ--
یں--
ے--
۰--
۲--
۳--
۴--
۵--
۶--
۷--
۸--
۹--
ݙ--
ݙا--
ݙاہ--
ݙاݙ--
ݙت--
ݙر--
ݙس--
ݙل--
ݙن--
ݙو--
ݙون--
ݙوہ--
ݙٹ--
ݙک--
ݙکھ--
ݙہ--
ݙی--
ݙیو--
ݨ--
ݨا--
ݨک--
ݨی--
--0
--1
--2
--3
--4
--5
--6
--7
--8
--9
--a
--age
--ah
--al
--am
--ar
--ary
--b
--c
--ce
--ces
--cess
--ch
--d
--der
--e
--ed
--el
--er
--ers
--es
--et
--f
--g
--ge
--gn
--gs
--h
--ha
--hi
--ht
--i
--ia
--ic
--ies
--il
--im
--io
--ion
--ions
--ir
--ive
--k
--ke
--ki
--l
--le
--ll
--ly
--m
--ma
--me
--ms
--n
--nd
--ne
--o
--od
--ope
--or
--p
--per
--r
--ra
--rd
--re
--ri
--rs
--ry
--s
--se
--st
--t
--ta
--ter
--ts
--ty
--u
--um
--unt
--us
--w
--wn
--y
--z
--ء
--ءچ
--ءں
--ا
--اء
--اب
--ابی
--ات
--اتی
--اج
--اد
--ار
--اری
--از
--اس
--اش
--اص
--اض
--اق
--ال
--الا
--الے
--ام
--ان
--انا
--انک
--انہ
--انی
--انے
--او
--اوا
--اوی
--اوݨ
--اي
--اٹ
--اپور
--اڑ
--اں
--اہ
--ایا
--اے
--اݨ
--اݨاں
--اݨہ
--اݨی
--اݨے
--ب
--با
--بر
--بع
--بل
--بن
--بھ
--بہ
--بی
--ة
--ت
--تا
--تاں
--تر
--تن
--تڑ
--تھ
--تہ
--تی
--تے
--ث
--ثت
--ج
--جا
--جر
--جن
--جو
--جھ
--جہ
--جی
--جے
--جݨ
--ح
--حہ
--حی
--خ
--خان
--خاں
--خت
--خی
--د
--دا
--دات
--دار
--در
--دل
--دن
--دو
--دوں
--دي
--دڑ
--دگی
--دھ
--دہ
--دی
--دیں
--دے
--دݨ
--ذ
--ذب
--ر
--را
--راں
--رت
--رج
--رد
--رز
--رس
--رض
--رن
--رو
--رٹ
--رٹر
--رڈ
--رہ
--ری
--رے
--رݨ
--ز
--زش
--زم
--زہ
--زی
--س
--سا
--ساي
--ساں
--ست
--سر
--سل
--سلے
--سم
--سن
--سو
--سوں
--سٹ
--سک
--سکو
--سہ
--سی
--سے
--ش
--شت
--شن
--شی
--ص
--صی
--ض
--ضا
--ضع
--ضہ
--ضے
--ط
--طر
--طہ
--طی
--ظ
--ظر
--ع
--عات
--عت
--عداد
--عظ
--عفی
--عہ
--عی
--غ
--غہ
--غے
--ـ
--ف
--فت
--فر
--فع
--فعت
--فٹ
--فہ
--فی
--فے
--ق
--قار
--قب
--قر
--قہ
--قی
--ك
--ل
--لا
--لز
--لس
--لم
--لن
--لو
--لوجی
--لپور
--لہ
--لی
--لے
--لݨ
--م
--ما
--مر
--مل
--من
--مند
--مہ
--می
--مے
--مݨ
--ن
--نا
--نال
--ند
--ندا
--ندن
--ندڑ
--ندی
--ندے
--نس
--نو
--نٹ
--نٹی
--نڈ
--نڑ
--نڑاں
--نڑے
--نک
--نگ
--نہ
--نۃ
--نی
--نے
--ه
--و
--وا
--وار
--واں
--وایا
--وب
--وت
--وجی
--ود
--ور
--ورڈ
--وز
--وس
--وش
--وطی
--وع
--ول
--ولا
--وم
--ون
--ونڑ
--وو
--وي
--وٹ
--وچ
--وچی
--وڑ
--وک
--وں
--وہ
--وۃ
--وی
--ویں
--وے
--وݨ
--ى
--ي
--ية
--٠
--٩٤
--٩٩
--ٸی
--ٹ
--ٹا
--ٹر
--ٹس
--ٹل
--ٹمنٹ
--ٹن
--ٹو
--ٹوں
--ٹک
--ٹھ
--ٹی
--ٹے
--ٻ
--ٻی
--پ
--پا
--پل
--پور
--پی
--پے
--ڄ
--ڄے
--ڄݨ
--چ
--چا
--چر
--چھ
--چہ
--چی
--چے
--ڈ
--ڈا
--ڈل
--ڈن
--ڈنا
--ڈو
--ڈھ
--ڈہ
--ڈی
--ڈے
--ڋی
--ڋے
--ڑ
--ڑا
--ڑاں
--ڑن
--ڑنا
--ڑو
--ڑھ
--ڑہ
--ڑی
--ڑیں
--ڑے
--ڑݨ
--ک
--کا
--کر
--کس
--کل
--کم
--کن
--کنا
--کو
--کوں
--کڑ
--کھ
--کہ
--کی
--کیشن
--کے
--کݨ
--گ
--گا
--گار
--گر
--گری
--گل
--گن
--گھ
--گھے
--گہ
--گی
--گیں
--گے
--ڳ
--ڳا
--ڳي
--ڳی
--ڳے
--ڳݨ
--ں
--ھ
--ھا
--ھاں
--ھتا
--ھر
--ھل
--ھن
--ھو
--ھویں
--ھي
--ھٹ
--ھڑ
--ھڑے
--ھہ
--ھی
--ھے
--ھݨ
--ہ
--ہا
--ہاں
--ہر
--ہل
--ہن
--ہویں
--ہٹ
--ہڑ
--ہہ
--ہی
--ہے
--ہݨ
--ۃ
--ی
--یا
--یاء
--یات
--یاں
--یت
--یج
--یجے
--ید
--یر
--یز
--یس
--یشن
--یل
--یم
--ین
--یو
--یي
--یٹ
--یڑ
--یڑنا
--یک
--یں
--یہ
--یے
--ے
--۰
--۰۲
--۱
--۲
--۳
--۴
--۵
--۶
--۷
--۸
--۹
--ݙ
--ݙا
--ݙھ
--ݙے
--ݨ
--ݨا
--ݨاں
--ݨہ
--ݨی
--ݨے
