!
"
#
##0
##1
##10
##11
##12
##13
##14
##15
##16
##17
##18
##19
##2
##20
##21
##22
##23
##24
##25
##26
##27
##28
##29
##3
##30
##31
##32
##33
##34
##35
##36
##37
##38
##39
##4
##40
##41
##42
##43
##44
##45
##46
##47
##48
##49
##5
##50
##51
##52
##53
##54
##55
##56
##57
##58
##59
##6
##60
##61
##62
##63
##64
##65
##66
##67
##68
##69
##7
##70
##71
##72
##73
##74
##75
##76
##77
##78
##79
##8
##80
##81
##82
##83
##84
##85
##86
##87
##88
##89
##9
##90
##91
##92
##93
##94
##95
##96
##97
##98
##99
%
&
'
(
)
*
+
,
-
.
/
0
00
000
01
02
03
04
05
06
07
08
09
1
10
100
1000
11
111
12
13
14
1492
15
150
1527
16
17
18
1804
1885
1899
19
1901
1911
1913
1918
1924
1928
1930
1934
1935
1936
1937
1939
1940
1943
1945
1946
1947
1948
1950
1951
1953
1957
1959
1961
1963
1964
1965
1966
1967
1968
1969
1970
1971
1972
1973
1974
1975
1976
1977
1978
1979
1980
1981
1982
1983
1984
1985
1986
1987
1988
1989
1990
1991
1992
1993
1994
1995
1996
1997
1998
1999
2
20
2000
2001
2002
2003
2004
2005
2006
2007
2008
2009
2010
2011
2012
2013
2014
2015
2016
2017
2018
2019
2020
2021
2022
21
219
22
221
23
24
25
2500
26
27
28
29
3
30
300
31
32
33
35
36
39
4
40
41
42
43
433
44
475
49
5
50
500
550
6
60
64
7
70
71
712
720
73
75
759
77
8
80
800
9
90
91
94
953
96
978
:
;
<
=
>
?
[
\
]
_
`
a
aa
abau
abbreviation
ablaut
able
aboriginal
about
above
abrus
abrusim
absence
abstract
abus
ac
academia
accent
accents
accepted
according
account
accusative
achieve
acronym
act
action
active
acts
actual
acute
ad
adam
adatta
add
added
adding
additional
address
adj
adjective
adjectives
administration
administrative
adverb
adverbial
adverbs
ae
affairs
afghanistan
africa
african
afrikaans
after
ag
again
against
agc
age
agency
ago
agreement
ahom
ai
aialan
aids
ailan
ailans
aim
ain
ainaz
air
ais
aislan
ajentina
ajetiv
al
alains
albanian
albenia
alkemi
all
allow
alone
along
alphabet
already
also
alternative
alternatively
although
always
am
ama
amamas
ame
america
american
amerika
ami
among
an
analects
analysis
ananit
ancestor
ancient
and
andora
andorra
ang
angkorian
angry
animal
animals
animate
aninit
anne
anonymous
another
antap
antimoni
antimony
antonym
antropolosi
any
anyone
anything
ao
appear
appears
appendix
applicable
applied
appropriate
aprika
april
ar
arab
arabia
arabic
arakain
arapela
archaic
archive
archived
are
area
arere
argentina
argument
arise
armenia
arms
around
art
article
articles
as
asaroka
asbestos
asia
asian
asked
askim
aspect
asples
assembly
assigned
associated
association
astrology
astronomy
at
atamadaka
aten
atikel
ating
atlantik
attached
attack
attempt
attestation
attested
attributive
au
auckland
audio
august
augustus
australia
australian
aut
author
autonomous
autsait
auxiliary
av
avoid
awa
away
az
azerbaijan
b
ba
baba
baby
back
bad
bagarap
bagarapim
baha
bahrain
bahuvrihi
bai
baibel
baim
baimbai
balgeria
ball
balus
banana
bang
bangladesh
banis
banisim
bank
barraba
base
based
basic
basis
bataplai
bay
bb
bc
bce
be
beach
bear
beauty
became
because
become
becomes
been
before
begin
beginning
behaviourisim
bei
beijing
being
bek
bel
belaras
belgium
beljiam
belong
belonging
belongs
below
ben
benedicta
bensheim
bensin
bergoglio
berlin
best
between
bg
bhutan
bi
bia
bible
bie
bifo
big
bigpela
bihain
bihainim
bikam
bikman
biknem
bikos
bikpela
bikpla
biktaun
bilas
bilip
bill
bilon
bilong
bilongen
bin
binatang
binumarien
biodaivesiti
biology
bipo
birch
bird
birdo
birds
birth
birthday
birua
bislama
bisnis
bl
black
blackboard
blakpela
block
blong
blu
blue
blupela
blut
bn
bo
boa
boat
boccoli
bodi
body
bogenvil
bokis
bokma
bolivia
book
books
borneo
borrowed
borrowing
borrowings
bos
bosim
bosnia
bot
both
bottom
bound
bow
box
boy
bpu
br
bra
branch
brand
brasil
brata
bratislava
brazilian
bread
break
bring
bringim
brisbin
britain
briten
british
broad
broadly
brobergen
brother
brukim
brunei
bu
buai
buat
buaʔ
buc
buda
budapest
budisim
buk
buka
bulmakau
bun
bung
bungim
bureau
burmese
bus
bush
business
but
by
bɔk
c
ca
caesar
caledonia
calendar
call
called
calque
came
can
canada
canary
cancer
cangjie
cannot
cantonese
capable
cape
capital
car
card
cardinal
carl
carry
case
cases
castile
cat
catalan
category
cats
catte
cattus
cause
cc
ce
census
center
central
centre
centuries
century
certain
cf
cfr
ch
cha
chair
champion
change
changes
changing
changsha
chaozhou
chapter
character
characteristic
characters
characterss
charge
chat
che
checked
chengdu
chestnut
chha
chi
chia
chick
chicken
chief
chiefly
child
children
chile
china
chinese
chlu
cho
christian
christmas
chu
ci
cia
cie
circa
circumstances
citations
cite
citi
cities
city
class
classical
classifier
clause
clauses
clear
clinton
clitic
clock
close
co
coarse
coast
cobiss
coconut
code
coffee
cognate
cognates
coi
coined
collectivity
college
colloquial
color
columbia
com
combination
combined
come
comes
command
commission
common
commonly
commons
commonwealth
communicate
community
company
comparable
comparative
compare
compared
comparison
complete
completed
completely
component
components
composition
compound
compounds
computer
computing
con
concept
concrete
conditional
condom
confucius
confused
congo
conjugation
conjunctions
connections
connegative
consider
considered
consisting
consists
consonant
consonants
constellation
constitution
construct
construction
containing
contains
content
contented
contest
context
contexts
continent
contraction
contrast
contrasted
contrasts
conversation
convert
cook
cooking
coordinate
coordinative
copula
cork
corner
coronavirus
corpus
corresponding
costalago
cot
could
council
count
countable
counter
countries
country
countrywoman
course
cov
cover
covers
covid
create
created
creek
creole
cross
crown
cs
cu
cue
cultural
culture
current
currently
cut
cuyonon
cy
cycle
cyprus
cyrillic
cz
czech
d
da
dae
dai
daibuun
daijirin
daka
dam
dan
danh
dark
daru
dat
data
database
dated
dative
daun
daunbilo
daunim
david
day
days
de
dead
dear
death
debate
december
decl
declension
definite
definitions
degrees
deity
del
democratic
demokrasi
den
denmak
denmark
denote
denoted
denotes
denoting
dental
department
dependency
dependent
depending
der
deraf
dercat
derivation
derivative
derived
derogatory
des
descendant
describe
described
describes
describing
description
descriptive
despicable
details
determinative
determiner
determiners
deutsch
deutsche
development
di
diachronic
diacritic
diacritical
dial
dialect
dialectal
dialects
diccionario
dictionary
did
didn
die
different
difficult
difficulties
difficulty
difren
digital
dii
dikseneri
dikteta
dili
diminutive
din
direct
direction
directly
dis
discuss
discussion
disease
disemba
dispela
displa
distinct
distinguish
distinguished
district
distrik
divine
division
diwai
dna
do
documentation
does
doesn
dog
doing
dok
dokta
dom
domestic
don
done
dong
door
doors
double
doublet
down
dragon
drai
dringim
drink
drive
dta
du
dual
due
dungan
during
dutch
dvandva
dynasty
dz
e
each
earlier
early
earth
earthly
east
eastern
easy
eat
economic
ed
edirne
editing
edition
editor
education
edukesen
een
effect
eg
egrikalsa
egsempel
egypt
egyptian
ei
ein
einn
either
eksempel
el
element
elements
elision
else
em
emi
emirates
emphatic
en
enclosed
encyclopedia
end
ende
ending
endings
endocentric
ends
eng
enga
england
english
enimol
enlaitmen
enm
enough
enpr
entered
entire
entry
environment
eo
epril
equal
equivalent
er
era
ergative
erhua
eria
error
es
esia
espan
especially
esperanto
est
estonia
et
etc
ethnologue
etpela
ety
etymological
etymology
eu
eum
eumhun
euphemism
euro
europa
europe
european
even
event
events
every
ex
example
examples
exchange
exemption
exist
exists
exocentric
expandtemplate
expected
experiment
experimental
express
expressed
expresses
expressing
expression
expressions
extended
extension
extent
extra
eye
f
fa
faa
face
fact
factbook
facto
fade
fader
fail
failure
faiv
faivpela
faktori
falkland
fall
false
famili
familiar
family
famous
far
father
fe
february
februeri
federal
federation
feel
feeling
feet
feline
fellow
female
feminine
fence
ferdinand
feu
few
fewer
ff
fff
fi
field
fifth
figurative
figuratively
figure
figures
fiji
file
files
filipin
film
final
financial
find
fine
finger
finite
fire
first
fish
five
flat
flexible
fly
flying
fo
foa
foapela
folk
follow
followed
following
fonde
food
foot
footstool
for
force
foreign
foremost
form
formal
formation
formed
former
formerly
forms
forth
fortunate
fortune
forward
found
foundation
four
fourth
fr
fraide
franc
france
francis
freda
free
freely
french
frens
frequently
fri
fridom
friend
frisian
from
front
fu
full
fully
function
functions
fund
further
fut
future
fuzhou
g
ga
gaa
gabon
gaden
gaelic
gai
game
games
gan
gana
gandi
garden
gasoline
gat
gavana
gavman
gay
gd
gdp
ge
gen
gender
general
generally
generic
genitive
geographic
george
georgia
german
germanic
germany
gerund
get
getting
gi
gia
giaman
giles
gini
giraun
girl
give
given
givim
giving
glad
gloss
glossary
gmw
gne
go
goal
goat
god
goes
gog
going
gok
gol
good
goon
gordon
goroka
got
gov
government
gra
grade
grama
grammar
grammatical
grandfather
grandma
grandmother
granny
gras
graun
great
greece
greek
greenland
gregori
gris
ground
group
groups
gu
guadalcanal
guangdong
guangzhou
guardian
guatemala
guinea
gulf
gun
gut
gutpela
guy
guyana
gwoyeu
h
ha
had
hagen
hagfa
hailans
hait
hakka
half
halivim
hamamas
hamas
hamiltan
han
hand
handet
hangari
hangeul
hangul
hani
hanja
hanyu
hap
happen
happier
happiness
happy
hard
harim
has
hat
hatpela
hatwok
hau
haus
have
having
hawai
hawaii
hawaiian
he
head
headword
health
heart
heaven
heavens
hebrew
hegel
heiban
hekte
helena
help
helpim
helt
helyse
hem
hen
hence
henry
her
here
herzegovina
hesegovina
het
heven
hi
hia
hibru
high
hill
him
hindu
hinduisim
hing
hiragana
hiri
his
histori
historical
historically
history
hit
hito
hiɪŋ
hn
hnyt
ho
hoa
hokkaido
hokkien
holan
hold
holi
holim
holonym
holy
home
homophone
homophones
honduras
hong
honorific
honshu
horse
hos
hot
hotel
hour
hours
house
houseboat
how
however
hr
hrvatska
hsinchu
html
http
https
hu
hua
hue
hui
human
hungarian
hunmong
huo
husait
husat
husband
hwa
hyo
hypernym
hyphenation
hyponym
i
ia
ibin
icelandic
ichi
id
idea
idem
ideogrammic
idiomatic
idioms
ie
ien
if
igat
igo
ih
ii
iii
iin
ijip
ikam
iku
il
ileksen
ill
im
images
imf
imitation
immediately
imperative
imperfective
impersonal
in
ina
inaccurate
inanimate
inap
inch
incl
include
includes
including
incomplete
indeclinable
indefinite
independen
independence
independens
independent
index
india
indian
indicate
indicates
indicating
indicative
indirect
individual
indo
indonesia
indonesian
indonisia
ine
infinitive
infl
inflected
inflection
inflections
influence
influences
informal
informatics
information
ing
inglan
inglis
inherited
initial
inline
innamespace
innovation
ino
input
insait
inserted
inside
instance
instead
institute
instructions
instytut
intanet
intended
international
into
intransitive
introduced
invalid
iode
ipa
ipafont
iprage
ir
irak
iran
ireland
irian
irish
irregular
iru
is
isbn
isi
isip
islam
island
islands
israel
ist
istap
istat
isten
it
itali
italian
italic
item
its
itself
ivoire
ivolusan
iɛn
iɛt
j
ja
jae
jahoe
jai
jakarta
jam
james
jamo
january
janueri
japan
japanese
jat
jaweon
jaya
je
jean
jeff
jeman
jemani
jenesis
jeon
jersey
jespersen
ji
jia
jian
jie
jim
jin
jinjiang
jinmeiyo
jisas
jitai
jiten
jiu
jo
job
joe
john
johnson
jordan
joseph
joyous
jpan
jpg
ju
juc
juda
judaisim
julai
julia
julius
july
jun
june
jure
just
jy
jyu
jyutping
jɔɔ
jɛ
jɛn
k
ka
kaba
kaikai
kaikaim
kain
kainkain
kairuku
kala
kalenda
kalendar
kalsa
kam
kamano
kamap
kamapim
kambra
kampani
kan
kana
kanada
kanaka
kandep
kangxi
kanji
kantri
kanwa
kaohsiung
kapitol
kapul
karamapim
kardinal
karim
karmadharaya
kastom
kat
kata
katim
katolik
kau
kaukau
kaunti
kawa
kcr
ke
keep
keis
kemistri
ken
kenya
kept
kerema
key
kha
khmer
khu
ki
kiau
kienning
kilim
kilometers
kilomita
kim
kind
king
kingdom
kinmen
kirap
kirapim
kiribas
kisim
kit
kjv
klia
klostu
km
know
known
ko
kod
kok
kokonas
kokopo
kokugo
kol
kolambia
kolim
komonwelt
komputa
kon
kondom
kong
konnan
kontinen
kopi
korea
korean
koria
kornet
kos
kosovo
kot
kotava
kpv
krais
kriol
krismas
kristen
kros
krowesia
ku
kuala
kubuntu
kuk
kuman
kumu
kumul
kun
kundiawa
kuwait
kwin
kwinslan
ky
kyo
kyu
kyushu
kɔ
kɔɔ
l
la
label
labels
lacking
ladinxua
lae
laik
laikim
lain
lainim
laip
lait
lajik
laksembog
lan
land
lang
language
languages
lanka
lao
laos
lar
large
larger
larim
larry
las
last
late
later
latin
latn
latter
latvia
law
layout
lb
le
learned
least
leave
leaves
lebanon
led
left
legge
lek
lemma
leo
leone
les
less
leste
let
letter
letters
level
li
library
lida
life
light
like
likely
liklik
limited
line
lines
lingua
linguistic
linguistics
lingwistikis
links
list
lists
lit
literally
literary
little
lituwenia
live
ll
lo
loan
loans
loanword
location
locative
lokal
lokol
london
long
longen
longer
longpela
look
looking
loosely
lord
los
lotu
lotuim
lou
love
loving
low
lower
lu
lua
lubuntu
lucky
luk
lukang
lukautim
lukim
lukluk
luksave
lumpur
lunar
lusim
luther
luzon
lv
lyrics
lɔ
m
ma
mac
maca
macao
macedonia
madagascar
madang
made
madrid
mae
magani
magong
maikronisia
mail
main
mainland
maji
mak
make
makim
malay
malaysia
maldives
male
malesia
malolo
mama
mamapapa
mamel
man
mandarin
mande
mandela
mangi
mani
manmeri
manner
manuel
manus
manx
many
map
maple
marasin
march
mari
maria
marino
marit
mark
markers
marking
marks
mars
marshall
martin
mas
masalai
masculine
maski
mass
master
match
material
mathematics
matter
maun
mauntain
maunten
maus
may
mayad
me
mean
meaning
meanings
means
meant
meat
media
medieval
meditesen
meeting
mei
meiji
meikai
meinong
meixian
mek
mekim
meksiko
melanesia
melanesian
memba
member
members
men
meng
merely
merger
meri
metals
method
mi
mia
mian
miang
miaoli
miaŋ
michael
mid
middle
midnight
mie
mien
mienn
might
mihalic
miia
milen
milien
milion
military
million
min
mina
mind
ming
minh
minim
minimum
mining
minista
minorities
minority
mipela
miss
missa
missed
missing
mixed
miŋ
mk
mo
moa
modern
modified
modifier
modifies
modify
module
moji
molekel
monetary
money
moni
monkey
montenegro
month
mood
moon
more
moresby
morobe
morocco
mos
mosbi
moses
mosko
most
mother
motion
motu
mou
mouse
mouth
move
moving
mp
mr
ms
msc
mu
much
muk
multi
multiple
mun
music
musiker
must
mut
muun
my
myanmar
myeong
myo
mɛɛ
n
na
naan
nabaut
nai
naimanya
nain
naispela
nait
nakshatras
namae
namba
nambafo
nambatri
nambatu
nambawan
nambis
name
named
namel
names
namespace
namibia
nan
nanchang
nanori
nap
narakain
narapela
narapla
narra
narrow
nasa
nating
nation
national
nations
native
natural
nature
nau
naun
nauru
nb
nc
nd
ndecl
ne
necessarily
necessary
need
needs
negative
negator
neither
nem
nepal
nes
nesen
nesenal
nesenel
nesens
net
netherlands
neuter
neutral
never
new
news
ng
nga
ngd
ngi
ngo
ngu
nguye
nh
nha
nhk
ni
nic
nidim
niet
night
nihon
nii
nil
nine
niu
niue
niugini
nius
niuspepa
nl
nn
nnan
no
noble
nobold
nod
nogat
nogut
nois
noken
nom
nominal
nominative
non
noncog
nonstandard
nor
normal
normally
norman
norse
north
northern
norway
nos
not
note
noten
notes
nothing
noud
noun
nouns
novemba
november
novial
now
nowe
nr
nu
null
number
numbers
numerals
nupela
nynorsk
nyu
nyv
nz
nzi
o
oa
object
objective
objects
obsolete
oc
occupied
occurred
occurrence
occurring
occurs
ocean
oclc
october
odaka
oed
of
off
offensive
office
official
ofisel
ofs
often
ogas
oktoba
ol
ola
old
older
olgeta
oli
olkain
olpela
olrait
olsem
oltaim
olympic
oman
on
once
one
ones
oneself
online
only
op
open
opera
opis
opposed
opposite
or
orait
order
org
organization
origin
original
originally
oro
orsak
osenia
ostrelia
ostria
other
others
otodos
otto
ottoman
ou
our
out
outdated
outlook
outside
ovce
over
overseas
own
owner
oxford
oxi
p
pa
pacific
package
paddy
page
pages
paia
painap
painim
painimaut
paint
painted
painting
pair
pairap
pait
paitim
pakistan
palai
palamen
palatalization
palau
palawan
palestine
palestinian
palm
pan
panama
pandemic
pangu
papa
paper
papua
paradise
parameter
parent
paris
part
partial
participle
particle
particles
particular
particularly
parts
party
pas
pasifik
pasim
pasin
paspas
pass
passive
past
pastaim
pat
pater
path
pati
pawa
pdf
pe
peace
pedia
pei
pela
peles
pen
peng
penis
people
pepa
per
perfect
perfective
performance
performed
perhaps
period
periodic
periphrastic
persian
person
personal
persons
peru
pes
pesia
pet
peter
petrol
pfs
ph
pha
phe
phi
phia
phie
philippines
pho
phofsit
phonemes
phonetic
phono
phonological
phrase
phrases
phu
phylum
physical
phæ
pi
pia
pian
piau
pictogram
pidgin
pie
piece
pig
pigeon
pii
pijin
pikini
pikinini
piksa
pilai
pilipin
pilosopi
piluto
pin
pinis
pinisim
pinlan
pinyim
pinyin
pipel
pipol
pis
pisin
pitch
pl
place
placed
plain
plak
planet
planim
planis
plant
planti
platon
plaua
player
please
plenti
ples
plosives
plural
png
po
point
points
poj
polan
police
polis
polish
political
politik
politikis
polskiego
poor
pop
popondetta
population
populesen
por
poroman
port
portal
portion
portugal
portuguese
pos
position
positive
possess
possible
possibly
post
pot
potugal
powder
pp
pr
praim
pranis
prc
pre
preceded
preceding
predicate
predicative
prefix
prefixed
pren
preposition
prepositions
present
presiden
president
press
preterite
pretty
previous
previously
pri
priest
primarily
prince
printed
prison
pro
probably
process
produced
productive
profet
program
progressive
projectlink
projek
pron
pronoun
pronounced
pronouns
pronunciation
pronunciations
proper
properties
property
prospects
protestan
proto
provided
province
provins
pseudo
pt
pu
public
publishing
puerto
pukpuk
pulapim
pulim
pundaun
purpose
purposes
pusiket
pussy
pussycat
put
putim
putrajaya
pwn
pyeon
pɔ
pɛ
q
qatar
qi
qia
qian
qu
qua
quality
quanzhou
que
queen
question
quite
quotation
quote
r
ra
rabaul
radical
radio
rain
rainbow
rait
raitim
raits
ran
rank
rare
rarely
rasia
rat
rather
raun
raunim
rausim
rd
re
read
reading
readings
reagan
real
really
reason
received
recognised
recorded
red
ref
refer
reference
referred
refers
reflexive
refs
region
regional
register
regular
rel
related
relating
relationship
relative
reliable
remain
remove
removing
ren
rendered
repeated
replace
replaced
report
representation
represented
representing
republic
republik
republika
required
res
respect
respectful
respectively
respelling
response
result
resulting
results
ret
reta
retpela
retrieved
revised
rfdef
rhymes
ri
rice
rich
right
rights
rigo
rijen
ring
ripablik
ripot
rise
river
ro
road
robert
roc
rock
role
rolling
rom
roma
roman
romance
romanised
romanization
romanized
romans
romatzyh
romenia
roof
room
roong
root
rot
rough
round
royal
rq
ru
rule
rules
run
russian
ryu
rɛ
s
sa
sahara
sai
said
saiens
saientis
saikoanalisis
saikolosi
saina
saint
saiprus
sait
salim
same
samoa
sampa
sampela
sampla
samting
san
sanap
sandaun
sande
sankamap
sanseido
sanskrit
santa
sanxia
sapos
sarere
sars
satellite
saudi
saut
sauten
save
saveman
saw
say
saying
sayor
says
sc
school
schuessler
science
scold
scots
script
scriptorium
scuanxua
se
sea
search
seat
sebia
sebian
second
see
seed
seen
sei
sek
seket
sekim
sel
self
sell
semantic
sen
senegal
senis
senisim
sense
senses
sentence
sentens
sentral
sentrel
seoul
sepik
septemba
september
sequence
serbia
series
service
set
seven
several
sevim
sevis
sg
sh
sha
shakespeare
shall
shallow
shan
shanghainese
shape
she
sheet
shi
shift
shikoku
shin
ship
shit
sho
shogakukan
shoot
short
shortened
should
show
showing
shu
shuo
si
siaman
siamani
siapan
sibling
sichuanese
sick
sidarta
side
sidni
sie
sierra
signs
sik
sikul
silan
sili
silip
sima
simbu
similar
similarly
simon
simp
simple
simplified
sin
since
sindaun
sing
singapore
single
singsing
singular
sino
sinological
sintakis
sio
sios
sip
sipesol
sir
sistem
sister
sit
site
siti
situation
six
sixian
size
sk
skai
skin
skotlan
skul
skulim
sky
sl
slang
slavic
sleep
sleeve
slice
slink
slip
slovakia
slovenia
small
smith
smolpela
snake
snek
so
sobien
social
society
soeh
sofia
soft
soi
soim
sol
solar
soldia
solomon
solresol
solwara
somare
some
someone
something
sometimes
sompela
son
song
sons
soon
soria
sosaiti
sosiolosi
sotpela
sound
sounds
soup
source
south
southern
sovereign
sp
space
spaida
spain
spanish
speak
speaker
speakers
speaking
special
species
specific
specifically
specified
specify
speech
spelled
spelling
spen
spirit
split
spoken
sports
spread
square
sr
sri
st
sta
stadi
stadim
stage
stand
standard
stands
stap
star
start
starting
stat
state
statement
states
statim
station
statistical
statistics
status
stem
stephen
stesin
stet
stilim
still
ston
stone
stones
stopim
stori
stratum
street
stress
stret
stretpela
strictly
strike
string
stroke
strokes
strong
stronger
strongim
strongpela
studies
style
su
subject
substance
successfully
such
sue
suffix
sug
sugar
suggested
sui
suk
sun
sung
suo
superlative
supply
support
sur
surface
surname
surnames
susu
sutim
suwidan
sv
svenska
swedish
swidan
swisalan
sy
sydney
syllabified
syllable
syllables
symbol
synonym
synonymous
synonyms
syntactic
syntax
syria
system
systems
sz
słownik
sɨ
t
ta
table
tables
tabletools
tag
tagbanwa
tai
taicheng
taichung
tailan
tails
taim
tainan
taipei
taishan
taishanese
taiwan
taiwanese
taiyuan
tajikistan
take
taken
takes
taking
talatala
talc
talcum
tale
talent
talk
talking
tambuim
tamworth
tan
tanim
tantok
tantum
target
taro
tasol
tatpurusa
taun
tausen
te
technical
tede
teki
tel
tell
template
templates
templet
ten
tense
tenses
teochew
teritori
term
terms
territories
territory
terry
tes
testamen
text
texts
th
thai
thailand
than
that
thcwd
the
their
them
themselves
then
theoretical
theory
there
therefore
thesaurus
these
they
thi
thie
thin
thing
things
think
third
this
thomas
those
though
thought
three
through
thus
ti
tia
tian
tiang
tibetan
tie
tien
time
times
timor
tin
ting
tingim
tingting
tip
tisa
tit
title
tjo
to
today
together
tok
tokaut
tokim
tokples
toksave
toktok
tokyo
told
tom
tomato
tomorrow
ton
tone
tonga
tongue
tongyong
too
took
top
topic
torres
toshi
total
toward
towards
town
tpi
tr
tra
trad
trade
traditional
traim
traipela
trang
trans
transcontinental
transitive
translated
translation
translations
translit
transliteration
tre
tree
tren
tret
tri
trinde
tripela
trouble
tru
true
try
tsa
tsi
tsu
tu
tubel
tudak
tude
tuesday
tulait
tumas
tumbuna
tumora
tunde
tupela
turkey
turkic
turkish
turn
tuvalu
tv
twelve
two
type
typically
tɔ
u
ua
uat
ubuntu
ue
uk
ultimate
ultimately
un
unaitet
unclassified
uncommon
uncountable
uncreated
und
under
une
unicode
unihan
union
unit
united
university
unknown
unrecognized
unserdeutsch
unstressed
until
up
upon
ural
us
usa
usage
use
used
uses
usex
usim
using
usually
utilities
v
va
valencia
valid
value
van
vanuatu
variant
variants
various
ve
verb
verbs
verhaar
vern
vernacular
version
very
vi
vicente
video
vie
vietnam
vietnamese
view
viktoria
viles
vko
vo
voice
voiced
voiceless
vokabelari
vol
volume
vot
vowel
vowels
vrah
vs
vu
vulgar
vygotsky
w
wa
waa
wabag
wade
wain
wait
waitpela
walk
walker
wan
wanbel
wanderwort
wanem
wankain
wanpela
wanpla
want
wantaim
wantok
wanwan
wapenamanda
war
wara
ward
was
washington
wasim
waswas
wat
water
way
we
weak
weather
web
website
wei
wel
well
wels
welsh
went
wenz
were
wes
wesan
west
westen
western
wet
wewak
what
whatever
when
where
whereas
whether
which
while
white
who
whole
whose
why
wi
wide
width
wielki
wife
wik
wikimedia
wikipedia
wikisource
wiktionary
will
william
win
window
winim
with
within
without
wo
woa
wod
wok
wokabaut
wokim
wol
woman
women
wonpela
wood
woodsreef
word
words
work
works
world
would
wp
writing
written
wu
www
wɔ
x
xenic
xi
xia
xiamen
xiang
xie
xin
xu
xubuntu
xwa
y
ya
yale
yangpela
yashi
ye
year
years
yelo
yemen
yes
yesterday
yet
yi
yia
yilan
ynos
yo
yomi
york
you
young
your
yu
yue
yukren
yumi
yunaited
yunaitet
yunien
yunivesiti
yupela
yurop
yuropien
yusim
yutupela
z
za
zagreb
ze
zealand
zen
zeppelin
zh
zha
zhangzhou
zhe
zhengzhang
zhi
zho
zhu
zhuang
zhuyin
zi
zidian
zlu
zodiac
zr
zu
zuo
zyka
{
|
}
~
§
¨
¯
°
²
²²
²³
²¹
²¹³
²¹⁴
²⁴
³
³²
³³
³¹
³⁵
´
·
¹
¹³
¹¹
»
æ
ð
đo
łobez
ŋ
ɑ
ɔ
ɔk
ɕ
ɕi
ɕiaʔ
ɕiɔk
ɕiɛn
ɕʌ
ə
ən
ɛ
ɛk
ɛn
ɡ
ɡɯ
ɪ
ɯ
ɰ
ɴ
ɹ
ʃ
ʐ
ʑi
ʒ
ʔ
ʰ
ʲ
ʷ
ʹ
ʻ
ʼ
ʾ
ʿ
ˇ
ˈ
ˊ
ˋ
ˌ
ː
˙
ˠ
ˡ
˥
˧
̀
́
̂
̃
̄
̆
̇
̈
̉
̊
̌
̍
̏
̑
̓
̚
̛
̞
̟
̠
̣
̤
̥
̦
̧
̨
̩
̪
̯
̰
̱
̹
̻
̿
͂
͘
͡
α
β
γ
δ
ε
ζ
η
θ
ι
ο
ς
σ
а
арх
б
ба
баба
београд
и
именица
ир
к
категорија
ма
модул
нар
п
павле
рег
рет
речник
синонима
слова
србија
српски
те
фам
хуа
ц
ч
шаблон
ъ
ь
јуче
ћосић
џ
ү
ְ
ִ
ַ
ֹ
ּ
ד
ן
פ
ا
ر
ط
ق
َ
ُ
ِ
ّ
ْ
ٔ
ި
ं
क
ग
ज
ठ
ढ
त
द
न
प
भ
म
य
र
ल
व
श
ष
स
ह
़
ा
ि
ी
ु
ू
ृ
े
ो
्
ক
প
ব
ভ
য
র
ল
়
া
ি
ী
ু
্
ਭ
ਾ
ੀ
ੁ
ભ
ા
க
ங
ச
த
ப
ய
ர
ா
ி
ூ
ை
்
గ
భ
ల
ా
ు
్
ು
ං
ක
ල
ා
ก
กษ
ข
ขาล
ฃ
ค
คน
ฅ
ฆ
ง
งว
จ
จฉระ
จอ
ฉล
ช
ชวด
ญ
ณ
ด
ต
ตร
ตสร
ถ
ท
ธ
น
นด
บ
ป
ผ
พ
ฟ
ม
มะเม
มะเส
มะแม
มะโรง
ย
ร
ระกา
ล
ว
วฟ
วอก
ศ
ศก
ศาสตร
ษ
ส
ห
หน
อ
อง
อน
ั
า
าข
าง
าด
าท
าบ
าพน
าฟ
าหน
าเจ
ำ
ิ
ี
ื
ุ
ู
เจ
เถาะ
เร
เล
เอง
แผ
แม
ไก
ๆ
็
่
้
๊
์
ຄ
ຊ
ນ
ຜ
ມ
ວ
ັ
າ
ິ
ູ
ົ
່
້
་
ག
ང
ད
ན
ཕ
མ
ི
ེ
ོ
ྱ
ྲ
က
န
ဘ
မ
လ
ဝ
သ
ာ
ိ
ု
ူ
ေ
း
်
ြ
ၢ
ၵ
ၶ
ၼ
ၽ
ႂ
ႃ
ႅ
ႇ
ႈ
ႉ
국제퇴계학회
대구경북지부
무
부
전
전자사전
훈몽자회
᜔
ក
ខ
ច
ញ
ម
រ
ល
ា
ុ
ូ
ោ
៑
្
ᨠ
ᨦ
ᨶ
ᨹ
ᩃ
ᩅ
ᩈ
᩠
ᩣ
ᩥ
ᩫ
ᩯ
᩵
᩶
ᴬ
ᴮ
ᵐ
ᵑ
ᵝ
​
‌
‎
‐
–
—
―
‘
’
“
”
„
†
•
…
‧
′
″
‼
⁉
⁊
⁜
⁴
⁴¹
⁴⁴
⁴⁵
⁵
⁵²
⁵³
⁵¹
⁵⁵
⁵⁵⁴
⁻
ⁿ
₁
₂
™
←
→
↔
↷
⇒
∈
−
③
④
⑦
☉
♀
♂
⟨
⟩
⯓
ⰰ
ⰱ
ⱄ
ⴰ
ⵜ
⺀
⺄
⺆
⺈
⺊
⺌
⺕
⺝
⺸
⺼
⿰
⿱
⿲
⿳
⿴
⿵
⿶
⿷
⿸
⿹
⿺
⿻
、
。
々
《
》
「
」
〢
〰
あ
い
う
え
お
か
き
く
け
こ
さ
し
す
せ
そ
た
ち
っ
つ
て
と
な
に
ぬ
ね
の
は
ひ
ふ
へ
ほ
ま
み
む
め
も
ゃ
や
ゅ
ゆ
ょ
よ
ら
り
る
れ
ろ
わ
ゑ
を
ん
゙
゚
ァ
ア
ィ
イ
ウ
エ
オ
カ
キ
ク
コ
サ
シ
ス
セ
タ
チ
ッ
ツ
テ
ト
ナ
ニ
ネ
ノ
ハ
ヒ
フ
ヘ
マ
ム
モ
ヤ
ユ
ラ
リ
ル
レ
ワ
ヲ
ン
ー
ㄅ
ㄆ
ㄇ
ㄈ
ㄊ
ㄋ
ㄌ
ㄍ
ㄎ
ㄏ
ㄐ
ㄑ
ㄒ
ㄕ
ㄗ
ㄘ
ㄙ
ㄚ
ㄛ
ㄜ
ㄝ
ㄞ
ㄟ
ㄠ
ㄡ
ㄢ
ㄣ
ㄥ
ㄦ
ㄧ
ㄨ
ㄩ
ㅡ
㇀
㇁
㇂
㇄
㇇
㇈
㇉
㇓
㐁
㐄
㐅
㐌
㐫
㐬
㐭
㐮
㐱
㑒
㒵
㒸
㒼
㓁
㓞
㔾
㕛
㕣
㖾
㘝
㚅
㚇
㚔
㚘
㝉
㝡
㝴
㝵
㞋
㞢
㞷
㠩
㠭
㠯
㡀
㡭
㡰
㡿
㢲
㢴
㣇
㣺
㥯
㪅
㫄
㫐
㫒
㫺
㬅
㬎
㬥
㬰
㲋
㳄
㳺
㷠
㸒
㸚
㸦
㼌
㼲
㽞
㿟
䀠
䂞
䍃
䏍
䒑
䖍
䖒
䖝
䖵
䙴
䚻
䜌
䝿
䡛
䧹
䪞
一
丁
丂
七
丄
丅
丆
万
丈
三
上
下
丌
不
与
丏
丐
丑
专
且
丕
世
丘
丙
业
东
丞
両
丢
丣
两
严
並
丨
丩
个
丫
丬
中
丮
丰
丱
串
丵
丶
丷
丸
丹
为
主
丽
丿
乀
乂
乃
久
乆
乇
么
义
之
乌
乍
乎
乏
乐
乑
乔
乖
乗
乘
乙
乚
乛
乜
九
乞
也
习
乡
乳
乾
亀
亅
了
亇
予
争
事
二
亍
于
亏
亐
云
互
亓
五
井
亘
亚
亜
亞
亟
亠
亡
亢
交
亥
亦
产
亨
亩
享
京
亭
亮
亯
亰
亲
亳
亶
亷
人
亻
亼
亾
什
仁
今
介
仌
从
仐
仑
仒
仓
仔
仕
他
付
仝
代
令
以
们
仮
任
企
伊
伏
伐
休
会
伤
伯
但
位
何
佘
余
作
你
佥
使
來
侈
侌
侖
侯
侵
便
促
俗
保
俞
信
修
倉
個
倍
們
候
借
倠
倦
偃
假
偏
停
偭
備
傩
傳
傷
僉
僕
儿
兀
允
兂
元
兄
充
兆
兇
先
光
兊
克
兌
免
児
兑
兒
兓
兔
党
兜
兟
入
全
兩
兪
八
公
六
兮
兰
共
关
兴
兵
其
具
典
兹
兼
冀
冂
冃
冄
内
冈
冉
冊
冋
册
再
冎
冏
冐
冒
冓
冖
冗
冘
军
农
冝
冡
冥
冫
冬
冷
几
凡
凢
凵
凶
凷
凸
凹
出
函
凾
刀
刁
刂
刃
刄
刅
分
切
刍
刑
刕
刖
列
刘
则
初
別
利
别
到
制
刺
則
削
剌
前
剛
剡
剣
剪
副
剽
劉
力
功
加
劦
助
劫
劳
劵
勃
勇
勉
勒
動
務
勝
勞
勢
勤
勹
勺
勻
勾
勿
匀
匂
包
匆
匈
匊
匋
匍
匕
化
北
匚
匝
匡
匪
匱
匸
匹
区
医
匽
匿
區
十
卂
千
卄
卅
卆
升
午
卉
半
卌
华
卑
卒
卓
单
卖
南
単
卜
卝
卞
占
卡
卢
卣
卤
卦
卩
卪
卬
卯
印
危
即
却
卵
卷
卸
卻
厂
厃
厄
历
厈
厉
厌
厓
厘
厚
原
厤
厥
厨
厭
厲
厶
厷
厸
去
厼
厽
叀
参
參
叅
又
叉
及
友
双
反
叐
发
叒
叔
叕
取
受
叚
叜
叟
口
古
句
另
叩
只
召
可
台
叱
史
右
叵
号
司
叹
吁
吂
吃
各
吅
合
吉
吊
吋
同
名
后
吏
向
吕
吗
君
吝
吞
否
含
听
启
吳
吴
吸
吹
吾
呂
呆
呈
告
员
呙
周
味
呼
命
咅
和
咎
咠
咢
咨
咸
咼
哀
品
哈
哉
員
哥
哪
哲
唐
售
商
啇
問
啚
啬
啻
善
喜
喝
喬
單
喿
嗇
嗎
嗬
器
噩
嚴
囊
囗
囘
囙
囚
四
囝
回
囟
因
囧
囬
困
囱
囷
固
国
圂
圅
國
圍
園
圓
土
圡
圣
圥
在
圭
地
圶
圼
坐
坒
块
坚
坡
坴
垂
垔
垚
埀
埋
埶
執
基
堂
堅
堆
堇
堯
報
場
塊
塞
墨
壘
士
壬
壮
壯
声
壱
壳
壴
壹
壺
壽
夂
处
夅
夆
备
夊
夋
夌
复
夏
夒
夕
外
夗
夘
多
夜
夢
大
夨
天
太
夫
夬
夭
央
失
夲
头
夷
夸
夹
夻
夾
奂
奄
奇
奈
奉
奎
奏
奐
契
奓
奔
奚
奞
奠
奢
奥
奭
女
奴
她
奻
好
如
妄
妙
妟
妥
妻
妾
始
姑
姓
委
姜
威
娄
婁
婦
婴
媒
嬰
嬴
子
孑
孓
孔
孕
孖
字
存
孚
孛
孝
孟
季
孤
学
孩
孫
孱
孴
學
宀
宁
宂
它
宅
宇
守
安
宋
完
宏
宓
宗
官
定
宛
宜
宝
実
客
宣
室
宮
宰
害
家
容
宾
宿
寄
寅
密
富
寒
察
寡
寧
審
寫
寬
寮
寸
对
寺
寻
寽
対
寿
封
尃
射
将
將
專
尉
尊
尋
尌
對
小
少
尒
尓
尔
尖
尗
尚
尞
尢
尣
尤
尧
尨
尭
就
尸
尹
尺
尻
尼
尽
尾
尿
局
居
屈
屋
屎
屏
屑
展
屖
屚
属
屠
屡
履
屬
屮
屯
屰
山
屵
屾
岁
岂
岑
岡
岩
岳
岸
峯
島
崇
崑
崔
崖
崙
崩
嵬
嶲
巂
巛
川
州
巟
巠
巢
巤
工
左
巧
巨
巩
巫
差
己
已
巳
巴
巷
巸
巽
巾
巿
帀
市
布
师
希
帚
帛
帝
带
師
席
帶
常
干
平
年
幵
并
幷
幸
幹
幺
幻
幼
幽
幾
广
広
庄
床
庑
底
店
庚
府
度
座
庫
庭
庶
康
庸
廉
廌
廛
廞
廡
廣
廩
廴
延
廷
建
廾
廿
开
弁
弃
弄
弇
弋
弌
式
弓
弔
引
弗
弘
弜
弟
张
弥
弦
弱
張
強
强
彈
彊
彌
彎
彐
彑
当
彔
录
彖
彗
彙
彡
形
彥
彦
彧
彭
影
彳
役
彼
往
待
很
律
後
徒
得
徙
從
御
復
微
徵
心
忄
必
忌
忍
志
忘
忝
忠
忩
快
念
忽
忿
怀
怎
思
怠
急
性
怱
恆
恒
恩
恭
息
悉
患
悤
您
悪
悲
悶
情
惟
惠
惡
惢
愁
愆
愈
意
愛
感
慈
慧
慮
慶
憂
憲
應
戀
戁
戈
戉
戊
戋
戌
戍
戎
成
我
戒
戔
或
戚
戠
戢
截
戰
戲
戶
户
戹
戼
戾
房
所
扁
扇
手
扌
才
打
托
执
找
承
抄
折
拉
拍
拔
拜
拿
指
掌
接
推
提
揣
摊
摩
撒
擊
攤
支
攴
攵
收
攸
改
攻
放
政
敄
故
敎
敏
敕
敖
敗
教
敝
敞
敢
散
敦
敫
敬
数
整
敵
敷
數
斂
文
斉
斊
斗
斜
斤
斥
斩
斬
斯
新
斶
斷
方
於
施
斿
旁
旋
族
无
旡
既
旣
日
旦
旧
旨
早
旬
旱
旲
时
旾
昆
昇
昊
昌
昍
明
昏
易
昔
昗
昜
星
春
昬
是
昱
昴
昷
時
晃
晋
晏
晚
普
景
晴
晶
智
暑
暗
暴
曇
曩
曰
曲
曳
更
曷
書
曹
曼
曾
替
最
朁
會
月
有
朋
服
朔
朕
朗
望
朝
期
木
朩
未
末
本
札
朮
术
朱
朵
朶
朿
杀
杈
杉
杏
材
杜
束
条
来
杯
東
杲
杳
松
析
枒
林
枚
果
枝
枲
枼
柄
柏
某
柔
柚
查
柬
柰
柴
标
栗
栭
根
格
桀
桑
桦
桼
梁
條
梟
梢
梨
棘
棠
棥
森
棵
椅
椛
椰
楚
業
極
楽
榮
槭
樂
樊
標
樣
樹
樺
機
欠
次
欣
欮
欲
欶
欽
款
歆
歇
歌
歛
止
正
此
步
武
歨
歪
歬
歮
歯
歰
歲
歳
歴
歷
歸
歹
歺
死
残
殳
段
殷
殸
殹
殺
殻
殿
毋
毌
母
每
毒
比
毕
毚
毛
毫
毳
氏
氐
民
气
気
氣
水
氵
氶
氷
永
氺
氾
汁
求
汉
汚
汝
汞
江
決
沃
沒
沓
沙
沝
油
治
泉
法
波
泣
泥
泰
洗
洛
洪
活
派
流
浦
浩
浪
浮
海
消
淡
淮
清
渚
渠
港
湯
湾
源
溪
滩
滿
漁
漆
演
漢
漸
灘
灣
火
灬
灭
灰
灵
灷
災
灾
炅
炎
炏
炗
炙
炭
点
為
烈
烏
烝
焉
無
焦
焱
然
煎
煞
照
熊
熏
燕
營
燮
爪
爫
爭
爯
爰
爱
爲
爵
父
爻
爽
爾
爿
片
版
牙
牚
牛
牜
牟
牢
牧
物
牪
特
牽
犀
犬
犭
犮
狂
狄
狊
独
狺
猋
猒
猪
献
獨
獻
玄
率
玉
王
玟
玨
玩
现
珎
珞
班
現
理
琴
瑟
瑩
瓜
瓦
甘
甚
生
産
用
甫
甬
田
由
甲
申
电
甶
男
甸
甹
画
甾
畀
界
畏
畐
留
畜
畟
畠
畢
略
畧
畨
番
畫
異
畱
當
畺
畾
疊
疋
疌
疑
疒
疲
疾
病
痛
瘫
癌
癶
癸
癹
発
登
發
白
百
皀
皃
的
皆
皇
皋
皐
皕
皮
皷
皿
盃
盆
盇
盈
益
盍
盎
监
盒
盖
盛
盡
監
盤
盧
目
直
相
盾
省
眇
眉
看
眔
眞
真
眷
眼
眾
着
睘
睡
睪
睿
瞏
瞢
瞿
矍
矛
矞
矢
矣
知
矦
短
石
破
硌
碎
碟
磊
磨
示
礻
礼
社
祆
祖
神
祟
票
祭
禀
禁
禸
禹
禺
离
禽
禾
禿
秀
私
秃
秉
秋
种
科
秝
秦
称
移
稟
種
稼
穀
穌
積
穴
究
穹
空
穿
突
窄
窒
窗
立
竒
竜
竝
竟
章
童
端
竹
竽
笑
笠
第
筆
等
答
箕
算
箴
節
篤
篭
簿
米
籽
粉
粛
粟
粤
粦
粲
糀
糖
糞
糸
糹
系
約
紅
納
紙
級
素
索
紫
累
細
終
結
絜
給
絫
統
絲
維
綿
線
緣
縣
繇
纍
纟
细
给
统
缶
网
罒
罔
罕
罗
罙
罡
罢
罪
署
罷
羅
羊
羌
羍
美
羔
羕
羗
羞
羡
羣
群
義
羲
羸
羽
翁
翏
習
翕
翟
翠
翼
老
耂
考
者
耆
而
耎
耑
耒
耕
耳
耴
耶
耷
聂
聊
聖
聚
聞
聲
聶
職
聽
聿
肀
肃
肅
肉
肖
肙
肤
肥
肩
肯
育
肴
胃
背
胖
胜
胡
胥
能
脊
脩
膚
臣
臤
臧
自
臬
臭
臯
臱
至
致
臺
臼
臽
臾
臿
舀
舂
舄
與
興
舉
舌
舍
舛
舜
舞
舟
般
船
艮
良
色
艸
艹
艾
芒
芔
芝
芬
芮
花
芳
芺
芻
苔
苗
苟
若
苦
英
茶
茸
荅
草
荒
荣
荼
莆
莧
莫
莽
菆
菊
菐
菜
華
萬
落
葉
著
葛
董
葵
蒙
蒦
蒼
蓋
蓬
蓺
蔑
蔡
蕉
蕭
薄
薛
薦
薪
薰
藍
藏
藥
蘭
虍
虎
虐
虒
虔
處
虖
虗
虘
虚
虛
虜
虞
虫
虽
蚕
蚤
蚩
蛇
蜀
蜜
蟀
蟋
蟲
蠡
血
行
衍
衛
衣
衤
表
衮
衰
袁
袞
装
裏
褭
褱
襄
襾
西
覀
要
覃
覇
見
規
覓
覧
親
覽
见
角
解
言
訁
訇
計
訓
記
設
詞
話
詹
語
誩
說
誰
談
論
諸
謂
講
識
譽
讀
讠
计
讲
识
词
话
语
说
读
谓
谷
豆
豈
豊
豐
豕
豖
豙
象
豦
豩
豪
豸
貇
貌
貝
貞
貟
負
財
貢
貧
貪
貫
責
貳
貴
買
費
賁
資
賈
賏
賓
賔
賛
賞
賢
賣
質
賴
贊
贝
贡
责
贯
贲
贵
赖
赞
赤
赦
走
起
越
足
跟
跡
路
跼
蹇
蹐
身
躬
車
軍
軎
軟
輦
车
辛
辜
辞
辟
辥
辭
辰
辱
農
辵
辶
边
达
迂
过
近
这
连
迫
迷
追
退
送
逆
逐
這
通
速
造
逢
連
逮
逰
週
進
遀
遂
過
道
達
遣
適
遷
選
遺
邊
邑
邕
那
邦
邪
邱
郁
郎
部
郭
都
鄉
鄕
酉
酋
配
酓
醉
醸
釆
采
里
重
野
量
金
釒
錄
錢
鐵
鑊
钅
钦
長
镸
长
門
閃
閉
開
閏
閑
閒
間
閔
閩
閵
閻
闌
门
闭
间
闷
阑
阜
阝
阿
降
限
陳
陶
隆
隊
隋
際
隡
隨
隱
隶
隹
隺
隻
隼
隽
难
雀
雁
雅
集
雇
雈
雋
雍
雐
雔
雖
雙
雚
雜
雝
離
難
雨
雩
雪
雲
零
雷
電
需
霍
霜
霝
霞
霸
靈
靑
青
非
靡
面
靣
革
韋
韓
韦
韭
韯
韱
音
響
頁
頂
頃
項
須
頗
頡
頭
頻
顆
顔
顛
類
页
颗
風
风
飛
飞
食
飠
養
餎
餘
饣
饹
首
香
馬
馮
駅
駦
騎
马
骨
體
高
髟
鬥
鬯
鬲
鬼
魚
魯
鮥
鮮
鱼
鲁
鳥
鳳
鸟
鹵
鹽
鹿
麃
麗
麥
麦
麵
麹
麻
麼
黃
黄
黍
黎
黑
黒
點
黨
黴
黹
黽
黾
鼎
鼓
鼠
鼻
齊
齋
齐
齒
齿
龍
龙
龜
龟
龠
龰
龱
龴
龵
龶
龷
龸
龹
ꜜ
ꪊ
ꪙ
ꪠ
ꪱ
ꪵ
ꪹ
꪿
꫁
ꯩ
者
艹
﻿
！
（
）
，
／
１
：
？
𑀓
𑀮
𑜃
𑜇
𑜈
𑜋
𑜏
𑜐
𑜠
𑜡
𑜢
𑜤
𑜧
𑜨
𑜫
🜨
𠀁
𠀃
𠀆
𠀉
𠀎
𠀐
𠁁
𠁣
𠂆
𠂇
𠂈
𠂉
𠂊
𠂋
𠂎
𠂒
𠂔
𠂛
𠂡
𠂢
𠂤
𠂬
𠂭
𠂹
𠃊
𠃋
𠃌
𠃍
𠃎
𠃑
𠃓
𠃔
𠃜
𠄌
𠄎
𠄠
𠄢
𠆢
𠆥
𠇍
𠈌
𠌵
𠓜
𠔉
𠔥
𠔼
𠔽
𠔿
𠕀
𠕁
𠕋
𠘧
𠘨
𠙻
𠙼
𠚏
𠚒
𠚤
𠚪
𠣏
𠤎
𠤕
𠥓
𠦄
𠦑
𠦝
𠧒
𠧗
𠧪
𠩺
𠪚
𠫓
𠫔
𠫤
𠬛
𠬝
𠬞
𠬢
𠬤
𠬶
𠮛
𠮦
𠮷
𠯑
𠱠
𠳮
𠷎
𠸛
𡈼
𡉀
𡉵
𡌥
𡍮
𡏳
𡕒
𡕩
𡕰
𡖅
𡗗
𡗜
𡘆
𡘤
𡧱
𡨄
𡩧
𡬠
𡭽
𡰣
𡰥
𡰪
𡰯
𡰱
𡷈
𡸁
𡿨
𡿩
𡿪
𡿺
𢀖
𢀛
𢀩
𢁙
𢆉
𢆰
𢆶
𢇁
𢇇
𢇲
𢇳
𢇶
𢉖
𢌬
𢌿
𢏚
𢑑
𢑚
𢖻
𢙣
𢛳
𢦏
𢦒
𢧵
𢼄
𢾕
𣁋
𣄼
𣅀
𣅽
𣍘
𣎳
𣎵
𣏋
𣏼
𣗙
𣗥
𣥂
𣥖
𣦵
𣦼
𣧄
𣪊
𣪠
𣬉
𣳾
𣶒
𤇾
𤊽
𤐫
𤓰
𤔔
𤕨
𤣩
𤰇
𤰔
𤰞
𤴓
𤴔
𤽄
𥁑
𥁕
𥃦
𥃩
𥃭
𥇡
𥑟
𥘅
𥘈
𥝢
𥫗
𥱡
𦈢
𦉪
𦉬
𦉼
𦍌
𦍒
𦎧
𦐇
𦓔
𦔮
𦘒
𦙃
𦚏
𦟗
𦣝
𦣞
𦣻
𦥑
𦥔
𦥯
𦨉
𦭝
𦰩
𧆞
𧈧
𧘇
𧰨
𧴪
𧴮
𧵩
𧾷
𨸏
𨾴
𩙿
𩠐
𩫏
𩵋
𪉷
𪜀
𪟽
𪠲
𪩲
𪪍
𪹠
𫇦
𫔭
𫜸
𫝀
𫠣
𫠩
𫢉
𫥞
𫩏
𫩠
𫪡
𫲽
𫶧
𫺷
𬀷
𬊾
𬏚
𬐘
𬗌
𬙙
𬛸
𬜯
𬝴
𬟩
𬯁
𬴘
𬺰
𬺻
𬼉
𬼖
𭀰
𭁈
𭁨
𭅰
𭉼
𭑈
𭕄
𭗼
𭙒
𭤨
𭥫
𭻾
𮅕
𮊿
𮍌
𮍏
𮓗
𮥼
𮧮
廾
𰀁
𰀄
𰀈
𰀉
𰀕
𰀠
𰀡
𰀢
𰀪
𰁜
𰃮
𰆊
𰆘
𰋙
𰕎
𰢴
𰧭
𰯲
12--
14--
17--
18--
19--
3--
4--
5--
6--
7--
79--
8--
9--
a--
ab--
ac--
act--
ad--
admin--
ag--
ai--
ak--
al--
ali--
am--
an--
ang--
app--
approxi--
ar--
as--
assimi--
at--
au--
av--
b--
ba--
ban--
bar--
bas--
be--
bel--
ben--
ber--
bi--
bl--
bo--
bos--
br--
bu--
budd--
bur--
c--
ca--
calcu--
cat--
ce--
ci--
cla--
co--
collec--
com--
con--
cor--
cri--
cro--
cu--
cur--
d--
da--
dai--
de--
di--
dicti--
dis--
doc--
docu--
dom--
du--
e--
ed--
el--
em--
emo--
en--
er--
es--
et--
ethi--
ex--
exc--
exclu--
f--
fa--
fe--
fi--
fo--
for--
fr--
fri--
fu--
g--
ga--
gat--
gd--
ge--
gentle--
go--
gre--
gu--
h--
ha--
hap--
he--
hi--
his--
ho--
hun--
hy--
i--
iden--
ideo--
ig--
il--
im--
imit--
in--
indepen--
indi--
indipen--
inter--
ir--
is--
it--
j--
ja--
je--
jo--
ju--
k--
ka--
ki--
ko--
komi--
ku--
l--
la--
le--
lex--
li--
lit--
lo--
lu--
m--
ma--
mag--
mam--
man--
mar--
mat--
mauri--
me--
mei--
men--
mer--
meta--
mi--
min--
mo--
mon--
mono--
mor--
moun--
mu--
municipa--
my--
n--
na--
ne--
ng--
ni--
no--
non--
nu--
o--
ob--
occa--
of--
ol--
or--
os--
over--
p--
pa--
para--
pe--
per--
pi--
pic--
pit--
pl--
pla--
po--
popu--
pr--
pre--
pro--
pu--
q--
qi--
r--
ra--
re--
recog--
res--
ri--
ro--
ru--
rus--
s--
sa--
san--
sc--
scor--
se--
sec--
ser--
si--
sig--
signifi--
sk--
sl--
slo--
so--
some--
south--
sp--
srp--
st--
stic--
sto--
su--
sub--
sur--
swe--
sync--
sz--
t--
ta--
tas--
te--
teac--
televi--
temp--
ten--
ter--
th--
ti--
to--
tou--
tri--
tro--
tu--
u--
un--
under--
uni--
univer--
us--
v--
va--
vari--
vati--
ve--
ver--
vi--
vo--
w--
wa--
wan--
wat--
web--
whe--
wi--
wil--
wo--
wu--
x--
y--
ya--
yu--
z--
za--
zi--
¹--
ɡ--
л--
т--
ก--
ง--
ด--
ท--
ทร--
น--
บ--
พ--
พระ--
ม--
ร--
ศ--
ส--
ห--
อ--
า--
เ--
ใ--
피--
--0
--1
--2
--3
--38
--4
--5
--6
--62
--7
--8
--9
--a
--ad
--age
--ah
--ai
--al
--am
--an
--ance
--ant
--ar
--ara
--ard
--arily
--ary
--as
--at
--ate
--ated
--ation
--ations
--ative
--au
--ay
--b
--be
--bet
--bo
--c
--ca
--cal
--ce
--ces
--ch
--cise
--ck
--cle
--co
--cs
--ct
--ctic
--ction
--cy
--d
--da
--de
--dhi
--di
--do
--dy
--e
--ed
--ek
--el
--em
--en
--ent
--er
--ers
--es
--esen
--et
--eted
--ey
--f
--ff
--ft
--g
--ge
--ger
--ght
--go
--gs
--h
--hed
--heim
--i
--ia
--ian
--ic
--id
--ie
--ies
--ight
--ik
--im
--in
--inate
--ined
--ing
--io
--ion
--ions
--ire
--is
--ish
--ism
--it
--iti
--ities
--ition
--itive
--ity
--ive
--ives
--j
--ji
--k
--ka
--ke
--ki
--l
--la
--ld
--le
--lem
--li
--lia
--lla
--logy
--lt
--ly
--m
--ma
--me
--ment
--mi
--n
--na
--nce
--nd
--ne
--ner
--ness
--ng
--nia
--ning
--nn
--ns
--nt
--nym
--o
--oi
--ok
--ol
--on
--ong
--onic
--or
--ors
--os
--osis
--ous
--ow
--p
--ph
--phy
--pla
--pt
--r
--ra
--ral
--rch
--rd
--re
--rg
--ri
--ria
--rl
--rn
--rnal
--rry
--rt
--ry
--s
--sa
--se
--sed
--sh
--si
--sis
--sk
--sm
--ss
--st
--t
--ta
--tal
--tas
--te
--ted
--ter
--th
--ti
--tic
--tical
--tion
--tive
--to
--ton
--trol
--ts
--tu
--ty
--u
--ual
--ude
--ue
--ught
--ul
--um
--un
--up
--ur
--ure
--us
--ut
--v
--va
--ve
--vik
--w
--wai
--we
--x
--y
--z
--zon
--ŋ
--ɨ
--ɪŋ
--ʔ
--а
--и
--н
--на
--ง
--ด
--ท
--น
--ภ
--ย
--ร
--ล
--ศ
--ส
--ะ
