!
"
#
##0
##1
##10
##11
##12
##13
##14
##15
##16
##17
##18
##19
##2
##20
##21
##22
##23
##24
##25
##26
##27
##28
##29
##3
##30
##31
##32
##33
##34
##35
##36
##37
##38
##39
##4
##40
##41
##42
##43
##44
##45
##46
##47
##48
##49
##5
##50
##51
##52
##53
##54
##55
##56
##57
##58
##59
##6
##60
##61
##62
##63
##64
##65
##66
##67
##68
##69
##7
##70
##71
##72
##73
##74
##75
##76
##77
##78
##79
##8
##80
##81
##82
##83
##84
##85
##86
##87
##88
##89
##9
##90
##91
##92
##93
##94
##95
##96
##97
##98
##99
$
%
&
'
(
)
*
+
,
-
.
/
0
00
000
001
01
02
024
03
04
05
06
07
08
09
1
10
100
1000
101
102
103
104
105
106
107
108
109
11
110
112
113
114
115
116
117
118
12
120
1200
121
1227
123
124
125
126
127
1279
128
13
130
1300
132
133
134
135
136
1368
138
139
14
140
1400
1415
144
145
148
1492
1497
1498
1499
15
150
1500
1503
1514
152
1520
1521
1529
1530
154
1546
155
1550
156
1564
157
1580
16
160
1600
1602
1603
1605
1607
1609
1610
1611
1613
1616
1619
162
1624
1627
1630
1631
1632
1636
1638
1640
1643
1644
1648
165
1650
1654
166
1660
1661
1663
1664
1665
1668
1669
1670
1674
168
1684
1685
1687
169
1694
17
170
1700
171
173
1746
175
1750
1755
1759
176
177
178
1787
1790
1791
1799
18
180
1800
1802
1807
1809
1810
1811
1812
1813
1815
1818
1822
1825
1827
1828
1830
1831
1833
1834
1835
1837
184
1840
1841
1842
1843
1844
1845
1848
1849
185
1850
1853
1855
1856
1859
186
1860
1861
1863
1864
1865
1866
1869
1870
1871
1873
1875
1876
1878
1880
1881
1882
1884
1885
1886
1887
1889
1890
1891
1893
1894
1895
1896
1897
1898
1899
19
190
1900
1901
1902
1903
1904
1905
1906
1907
1908
1909
1910
1911
1912
1913
1914
1915
1916
1917
1918
1919
192
1920
1921
1922
1923
1924
1925
1926
1927
1928
1929
1930
1931
1932
1933
1934
1935
1936
1937
1938
1939
194
1940
1941
1942
1943
1944
1945
1946
1947
1948
1949
1950
1951
1952
1953
1954
1955
1956
1957
1958
1959
196
1960
1961
1962
1963
1964
1965
1966
1967
1968
1969
1970
1971
1972
1973
1974
1975
1976
1977
1978
1979
1980
1981
1982
1983
1984
1985
1986
1987
1988
1989
1990
1991
1992
1993
1994
1995
1996
1997
1998
1999
2
20
200
2000
2001
2002
2003
2004
2005
2006
2007
2008
2009
2010
2011
2012
2013
20130712213231
20130715161732
20130717065856
2014
2015
2016
2017
2018
2019
2020
2021
2022
206
207
21
210
214
216
22
220
221
222
225
23
230
232
234
235
237
24
240
2400
246
25
250
2500
251
254
255
256
259
26
260
262
268
27
270
2700
275
276
28
280
282
287
288
29
296
297
299
3
30
300
3000
303
31
313
32
320
321
323
327
33
330
335
336
34
344
348
35
350
351
352
354
355
36
360
365
367
37
370
38
380
381
39
390
393
4
40
400
404
405
41
415
42
420
423
425
43
430
44
45
450
451
458
46
462
47
48
485
49
5
50
500
5000
51
512
516
52
521
53
54
540
549
55
550
56
57
570
574
58
580
587
59
599
6
60
600
61
610
62
63
630
635
639
64
65
650
66
665
67
68
69
7
70
700
71
72
720
73
74
75
750
76
762
77
78
79
8
80
800
81
82
83
84
846
85
850
86
861
87
88
89
9
90
900
91
92
925
93
94
95
96
963
97
978
98
99
:
;
<
=
>
?
@
[
\
]
^
_
`
a
aa
ab
abad
abadan
abag
abakan
abat
abay
abaydın
abbazov
abc
abdinazimov
abdulla
abeba
about
aboutfifa
abraziya
absolyut
abu
abzal
abıraylı
abıroylı
ac
academic
access
accessdate
action
ad
ada
adabiyoti
adam
adamda
adamdi
adamdı
adamdın
adamg
adamgershilik
adamlar
adamlarda
adamlardan
adamlardi
adamlardin
adamlardı
adamlardın
adamlarg
adamları
adamlarının
adamlıq
adamnan
adamnin
adamnın
adamzat
adamzattın
adamı
adan
addis
adi
administraciya
administraciyası
administrativ
administrativlik
adobe
adres
advokatlar
advokatlıq
adı
ae
aeroport
aeroportı
af
afc
afg
afganistan
afina
afonso
africa
afrig
afrika
afrikada
afrikadag
afrikanın
afsonaviy
after
ag
again
agamemnon
age
agentligi
agglyutinativlik
agitatsiyalıq
agrar
ah
ahmad
aires
airport
ajiniyaz
ajralib
ajralıp
ajıraladı
ajıralmaytug
ajıralıp
ajıratıladı
ajıratılg
ajıratıp
ajıratıw
akademik
akademikalıq
akademiyalıq
akademiyasi
akademiyası
akademiyasının
akaki
akkad
akkumulyator
aktiv
aktivleri
aktli
aktrisa
aktsioner
aktsionerlerdin
aktsionerlik
aktsiya
aktsiyalar
aktsiyalardı
aktsiyalardın
aktual
aktyor
aktyorlar
aktyorlıq
aktyorı
al
ala
alaba
alabalıq
alabama
aladi
aladı
alako
alaman
alan
alang
alap
alaqanına
alar
aları
aların
alarında
alarının
alatug
alautra
alaw
alawdı
alawı
albaniya
albert
alberto
albom
album
albuquerque
aldag
aldi
aldin
alding
aldı
aldılar
aldın
aldına
aldınan
aldında
aldındag
aldıng
aleksandr
alfa
alfred
alg
algan
algebra
algoritm
ali
alif
alim
alinadi
aling
alip
alisher
aliw
aliwg
aliwi
aljir
all
alla
allah
allahqa
allahtan
allahtın
allanazarov
allaniyaz
allanın
allayar
allim
allimi
allimler
allpages
allyuvial
allıq
alma
almadi
almadı
almag
almaptı
almaqshı
almasa
almaslap
almastırıw
almasıp
almasıw
almasıwı
almaty
almatı
almay
almaydi
almaydı
almaytug
almaz
almeri
almis
almurt
alniyazov
alp
alpamıs
alsa
alsan
alsaq
altay
altberg
alternativ
alti
altin
altı
altın
altınay
altınshı
alumni
alyaska
alyga
alyuminiy
alı
alıg
alım
alımlar
alımlardın
alımları
alımı
alın
alınadı
alınatug
alınbag
alındı
alıng
alınıp
alınıwı
alıp
alıq
alıqlar
alıqlardı
alıqları
alıs
alısta
alıw
alıwda
alıwdı
alıwdın
alıwg
alıwshı
alıwı
alıwın
alıwına
am
ama
aman
amaniyazov
amazon
ambar
ambardın
ambarlar
america
american
amerika
amerikada
amerikadag
amerikag
amerikaliq
amerikalı
amerikalıq
amerikanin
amerikanın
aminokislotalar
amir
amman
amor
amudarya
amudaryanın
amxorlıq
amz
amı
an
ana
anadan
anadı
anag
analitikalıq
analiz
analizlew
analog
analıq
analıqtın
anam
anan
ananı
ananın
anaqtag
anasi
anası
anasına
anasınan
anasının
anatomiyası
anaw
ancient
and
anda
andag
anday
anderson
andijan
andorra
andre
andres
andrew
android
andı
ang
angela
angeles
angelina
angl
anglichan
angliya
angliyada
angliyag
angliyanın
anglo
anglya
angola
ani
anin
aniq
aniy
anji
ankara
anlar
anlardı
anlardın
anlarg
anları
anlig
anlıg
anlıqtan
anna
annan
annaqul
announce
announces
annual
annın
anri
ansha
anshı
anstan
antalya
antananarivu
antarktida
antarktika
antik
anto
antonim
antonio
antropogen
anı
anıg
anım
anın
anına
anınan
anında
anınday
anıq
anıqladı
anıqlag
anıqlama
anıqlanadı
anıqlandı
anıqlang
anıqlap
anıqlaw
anıqlawda
anıqlawısh
anıqlaydı
anıqlıq
anıw
ao
ap
apa
aparıp
apatshılıg
apelsin
aperta
apj
apollon
apostol
apparat
apparatlar
apparatı
apple
aprel
aprelde
april
aq
aqda
aqilli
aqirg
aqirinda
aqlıg
aqlıq
aqlıqları
aqlıqların
aqlıqqa
aqlıqta
aqlıqtag
aqmola
aqsaqal
aqsh
aqsha
aqshalar
aqshalay
aqshda
aqshta
aqshtın
aqshıl
aqsu
aqtaw
aqto
aqtuba
aquinas
aqıbet
aqıbetde
aqıbeti
aqıbetinde
aqıbetlerin
aqıl
aqılg
aqıllı
aqılı
aqır
aqırg
aqırlarına
aqırı
aqırına
aqırınan
aqırında
aqırındag
ar
ara
arab
arablar
arablardın
arabsha
arabstan
arabıstan
arabıstanı
arada
aradan
aradi
aradı
arag
aragon
aral
aralas
aralasqan
aralastı
aralastırıladı
aralastırılıp
aralastırıp
aralasıp
aralasıwı
aralboyı
arali
aralig
araliq
arallı
aralıg
aralıq
aralıqqa
aralıqta
aralıqtı
araq
araqqa
araqta
araqtan
araqtın
arasinda
arasindag
arası
arasına
arasınan
arasında
arasındag
aratug
arba
archive
archived
archivedate
archives
archiveurl
ardaqlı
ardi
ardı
are
arena
arg
argentina
argentinanın
ari
arifmetika
arip
ariq
aristotel
ariw
ariwshi
ariy
arizona
arktika
arma
armada
armag
armalar
armalarda
armalardı
armalardın
armaları
armaların
armalarınan
armalarında
armalarının
armanı
armanın
arması
armasın
armasında
armasının
armatura
armaturasi
armeniya
armiya
armiyasi
armiyasin
armiyası
armiyasının
arnalg
arnalıp
arnap
arnaw
arnawlı
arnold
arqa
arqada
arqadan
arqag
arqali
arqalı
arqasinda
arqası
arqasında
arqasındag
arrı
arrıbay
arsenal
arsha
art
artadı
article
articles
artiq
artist
artisti
artqı
arts
artta
arttırg
arttırıp
arttırıw
artı
artınan
artında
artıp
artıq
artıqsha
artıw
artıwshılıq
arxeologik
arxeologiya
arxeologiyalıq
arxeologlar
arxey
arximed
arxipelag
arxipelagının
arxitektor
arxitektorı
arxitektura
arxitekturalıq
arxiv
arxivsana
arxivurl
arza
arzan
arzımbet
arzıw
arı
arıladı
arılatug
arıldı
arılg
arılıp
arılıwı
arıp
arıslan
arıw
arıwda
arıwdan
arıwdı
arıwg
arıwshı
arıwshılar
arıwı
as
asa
asadı
asan
asar
ash
asha
ashadı
ashamaylı
ashar
ashardın
ashgabat
ashiq
ashko
ashlıq
ashqan
ashqı
ashshı
ashtan
ashti
ashtı
ashurbanipal
ashxabad
ashxabadta
ashxobod
ashıg
ashıladı
ashıldı
ashılg
ashılıp
ashılıw
ashılıwlar
ashılıwı
ashıp
ashıq
ashıqlıq
ashıw
ashıwda
ashıwg
ashıwı
asi
asia
asian
asinda
asir
asirde
asirdin
asirdın
asirlerde
aslam
asosan
asosiy
asp
aspan
aspanda
aspiranturasında
aspx
asqan
asqar
asqazan
asr
asrda
asrlar
association
assotsiatsiyası
assr
astana
aste
asti
astinda
astronom
astronomiya
astronomiyada
astronomiyalıq
astı
astına
astınan
astında
astındag
astıng
ası
asıg
asın
asında
asındag
asıp
asıq
asıra
asıradı
asıratug
asırdı
asırg
asıriladı
asırıladı
asırıldı
asırılg
asırılıp
asırılıwı
asırıp
asırıw
asırıwg
asırıwı
at
ata
atadan
atadi
atadı
atag
atajan
ataksiya
atala
ataladi
ataladı
atalatug
ataldi
ataldı
atalg
atalıp
atalıq
atalıwshı
atalıwı
atama
atamadag
atamalar
atamaları
ataması
atamasın
atamasında
atamasındag
atamasının
atan
atap
ataq
ataqların
ataqli
ataqlı
ataqqa
atası
atasın
atasının
ataw
atawda
atawdı
atawdın
atawg
atawi
atawinda
atawlar
atawlarda
atawlari
atawları
atawların
atawlarına
atawlarında
atawı
atawın
atawında
atawının
atawısh
atay
ataydı
aterosklerozi
ati
atin
atindag
atir
atirapinda
atirg
atlanadı
atlanta
atlantic
atlantika
atlantikalıq
atlar
atlari
atları
atların
atlarına
atlarının
atlas
atletika
atli
atlı
atlıq
atmosfera
atmosferalıq
atom
atomlar
atqa
atqan
atqara
atqaradı
atqaratug
atqardı
atqarg
atqarıladı
atqarılatug
atqarılıwı
atqarıp
atqarıw
atqarıwshı
atqarıwındag
atrapinda
atrofida
attın
atug
atı
atılıp
atım
atın
atına
atınan
atındag
atının
atıp
atır
atıraw
atırg
atıwshı
atız
au
audi
audio
auditoriya
auditoriyag
auf
august
australia
author
auto
autocar
autodesk
automotive
av
avenue
avenyu
avesto
avgust
avgustda
avgustta
avgusttan
aviatsiya
avstraliya
avstraliyanın
avstriya
avstriyalı
avstriyanın
avstroneziya
avto
avtobus
avtoka
avtomat
avtomatikalıq
avtomobil
avtomobildi
avtomobildin
avtomobili
avtomobilin
avtomobiller
avtomobillerdi
avtomobillerge
avtomobilleri
avtomobillerin
avtomobillerinde
avtomobillerinin
avtonom
avtor
avtordın
avtori
avtorlar
avtorlıq
avtorı
avtosalonida
avvalgi
aw
awa
awards
awasha
awda
awdaradı
awdardı
awdarg
awdarma
awdarmaları
awdarmashı
awdarması
awdarılg
awdarılıp
awdarıp
awg
awhal
awhalın
awil
awir
awlanadı
awları
awqam
awqami
awqamları
awqamı
awqamın
awqamına
awqamında
awqamının
awqat
awqatlanadı
awqatlanıw
awqatqa
awrıw
awshı
awshısı
awzınan
awı
awıl
awılda
awıldag
awıldın
awılg
awıllar
awıllıq
awılı
awılın
awılına
awılında
awılındag
awında
awır
awırg
awırlıg
awırlıq
awırıw
awıspalı
awız
awızbirshilik
awızdan
awızdın
awızeki
awızg
awızsha
axill
axmed
axmet
axmetov
axun
ay
ayag
ayapbergen
ayaq
ayaqlar
ayaqları
ayaqshaları
ayat
ayaz
aybek
ayda
aydag
aydan
aydap
aydar
aydarı
aydaw
ayday
aydos
aydostın
aydı
aydın
ayg
ayimbetov
ayin
ayinda
ayinin
ayjamal
aylanadı
aylanba
aylandi
aylandı
aylandırg
aylandırıw
aylang
aylantırdı
aylantırg
aylantırildi
aylanıp
aylanısqa
aylanısı
aylanıw
aylanıwı
aylar
aylarda
ayları
aylarına
aylarında
aylı
aylıq
aylıqlar
aymag
aymaq
aymaqlar
aymaqlarda
aymaqlardı
aymaqları
aymaqlarında
aymaqlıq
aymaqqa
aymaqta
aymaqtag
aymaqtan
aymaqtı
aymaqtın
aymog
aymoqdan
aymurzaev
ayna
aynalg
aynıwı
ayqın
ayqınlanıwshı
ayqınlawısh
ayrat
ayratker
ayratkeri
ayratkerleri
ayratı
ayri
ayrim
ayriqsha
ayrılıp
ayrım
ayrıqsha
ayrıqshalıg
ayrıqshalıqlarg
aysha
aysholpan
ayt
ayta
aytadı
aytaman
aytar
aytarlıqtay
aytatug
aytayın
aytbay
ayti
aytiladi
aytip
aytmatov
aytmurat
aytqan
aytqanda
aytsa
aytsam
aytsan
ayttı
aytıla
aytıladı
aytılatug
aytılg
aytılsa
aytılıp
aytılıwı
aytılıwına
aytıp
aytıs
aytısı
aytıw
aytıwdı
aytıwg
aytıwshı
aytıwı
aytıwına
aytıwınsha
ayı
ayımbetov
ayın
ayına
ayınan
ayında
ayının
ayıp
ayırbaslaw
ayırmashılıg
ayırılıp
ayırım
ayırımlang
ayırımları
ayırıp
ayırıw
ayıw
az
aza
azamat
azan
azanda
azap
azat
azatlıq
azayadı
azaytıw
azayıp
azayıwı
azdan
azerbaydjan
azerbayjan
azg
azia
aziq
aziya
aziyada
aziyadag
aziyag
aziyanı
aziyanın
azlar
azlardı
azlardın
azları
azların
azlarının
azmaz
azot
azı
azıq
azıqlanadı
azıqlıq
azıraq
aındag
b
ba
baa
baba
babaları
babalarımız
babalarının
baban
babası
babur
babında
bad
baden
badiiy
badminton
bag
bagama
baha
bahadırova
bahalandı
bahalang
bahalanıp
bahaları
bahalaw
bahalı
bahasa
bahasi
bahası
bahasın
bahasının
bahsda
baja
bajıxana
bakalavr
bakteriya
bakteriyalar
baktriya
baku
bal
bala
balag
balalar
balalardı
balalardın
balalarg
balaları
balalıg
balalıq
balanı
balanın
balar
balasi
balası
balasın
balasına
balasının
baldag
balenciaga
balet
balg
baliq
balkan
ballada
balıq
balıqlar
balıqlardın
balıqshı
balıqshılıq
balıqtın
bandar
bangkok
bangladesh
bank
banki
bankinin
bankler
banklerdin
banklik
bankruptcy
banktin
bantu
bap
bapta
baqa
baqanın
baqlanadı
baqlap
baqlaw
baqqan
baqsı
baqsılar
baqsılardın
baqsılarının
baqsının
baqırg
bar
bara
baradi
baradı
baratirg
baratug
baratırg
barbados
barbarossa
barcelona
barcha
bardi
bardı
barg
bari
baris
barliq
barlıg
barlıq
barmag
barmaqta
barokko
barselona
barı
barıladı
barıldı
barılg
barılıp
barın
barınsha
barıp
barıs
barısı
barısın
barısında
barıw
barıwg
barıwshı
barıwı
bas
basadı
baseball
bashkir
bashqurt
bashqurtıstan
basi
basilip
basina
basinda
basip
baskakov
basketbol
basladi
basladı
baslag
baslaması
baslanadi
baslanadı
baslanatug
baslandi
baslandı
baslang
baslanip
baslaniwi
baslanıp
baslanıwı
baslanıwına
baslanıwında
baslap
baslarına
baslarınan
baslarında
baslaw
baslawshı
baslawshılar
baslawın
baslawısh
baslaydi
baslaydı
baslig
baslı
baslıg
baslıq
baslıqlıg
baslısı
baspa
baspada
baspadan
baspag
baspana
baspaso
baspası
baspasında
baspasının
basqa
basqada
basqag
basqalar
basqalardan
basqalardı
basqalardın
basqaları
basqaradı
basqaratug
basqardı
basqarg
basqargan
basqarmasi
basqarması
basqarıladı
basqarılatug
basqarıp
basqarıw
basqarıwdı
basqarıwdın
basqarıwg
basqarıwshı
basqarıwshısı
basqarıwı
basqarıwındag
basqasha
basqası
basqishi
basqınshılıg
basqınshılıq
basqısh
basqıshları
basqıshpa
basqıshta
basqıshı
basqıshın
basqıshına
basqıshında
basseyni
basshilig
basshiliq
basshisi
basshunter
basshı
basshılar
basshıları
basshılarının
basshılıg
basshılıq
basshısı
bastan
bastı
bastırıp
bası
basıldı
basılg
basılıp
basım
basımı
basın
basına
basınan
basında
basındag
basının
basıp
basıw
bati
batis
batisda
batisinda
bator
batır
batırdın
batırlar
batırlıg
batırlıq
batıs
batısda
batısdan
batısqa
batısta
batıstan
batısında
batısındag
bavariya
baw
bawırlawshılar
baxadir
baxtın
baxıt
baxıtbek
baxıtlı
bay
bayan
bayanlanadı
bayanlap
bayanlaw
bayanlawısh
baydın
bayern
baylanadı
baylang
baylani
baylanisli
baylanıs
baylanısadı
baylanıslar
baylanıslardı
baylanısları
baylanısların
baylanıslı
baylanıslılıg
baylanısqa
baylanısqan
baylanısta
baylanıstı
baylanıstıradı
baylanıstıratug
baylanıstırıp
baylanısı
baylanısın
baylanısıp
baylap
baylıg
baylıq
baylıqları
bayqaladı
bayrag
bayram
bayramlar
bayramı
bayraq
bayraqdar
bayt
bayıp
bayıttı
bayıtıw
baza
bazag
bazal
bazalt
bazalıq
bazar
bazarbay
bazarda
bazarg
bazarlar
bazarlarda
bazarları
bazarı
bazarına
bazarında
bazası
bazasın
bazda
bazı
bazıbir
bazıda
bb
bbc
bc
bd
bden
bdimurat
be
beach
beatles
becky
become
begavan
begim
begimov
begis
begjan
beijing
bek
bekimbetov
bekkem
bekkemlengen
bekkemlew
belarus
belarusiya
belbew
belgi
belgilegen
belgilendi
belgilenedi
belgilengen
belgilenip
belgileniwi
belgilep
belgiler
belgilerge
belgileri
belgilerin
belgilerinin
belgilew
belgilewde
belgilewshi
belgileydi
belgili
belgisi
belgisin
belgisiz
belgiya
belgrad
beliz
belok
beloklar
belorus
belorussiya
belsendi
belsene
beltaw
bemaraxa
ben
benedicta
benen
bengal
benin
benz
benzin
ber
berdaq
berdaqtın
berdi
berdimurat
berdimuratov
berdin
bere
beredi
beredı
berek
bereket
beretug
bergen
bergende
beri
berildi
beriledi
beriletug
berilgen
berilip
beriliwi
berilmeydi
berin
berinde
berindegi
berip
beripti
beriu
beriw
beriwde
beriwden
beriwdi
beriwdin
beriwge
beriwi
beriwin
beriwshi
beriwshinin
berli
berlin
berlinetta
bermegen
bermeydi
bermeytug
berse
bert
bertozzi
beruniy
bes
besew
besh
besik
besinshi
best
bet
bethencourt
beti
betin
betinde
betindegi
betine
betinen
betinin
betke
betlar
betler
betlerdi
betleri
betlerin
betlerinde
betlerine
betlik
beton
betten
between
bey
beyedi
beyimlesiw
beyip
beyiw
beyiwi
beyiwine
beynew
beyrut
beysbol
beytiw
bez
bezelgen
bezeniw
bezetilgen
bezew
bezewler
bf
bh
bi
bibullaev
big
bil
bilan
bildirdi
bildiredi
bildiretug
bildirgen
bildiriledi
bildirip
bildiriw
bildiriwi
bildiriwshi
bile
biledi
bilemiz
bileti
biletin
biletug
bilg
bilgen
bilim
bilimi
bilimin
bilimlendiriw
bilimli
bilinedi
bilip
biliw
biliwi
bill
billion
bilmey
bilqasım
bilsin
bin
binde
bine
binese
binshe
bio
biologik
biologiya
biologiyalıq
biosfera
bioximiya
bioximiyalıq
bir
biraq
biraqta
biraz
birde
birden
birdey
birek
birese
birew
birewden
birewdi
birewdin
birewge
birewi
birewinin
birewler
birge
birgelikde
birgelikte
birgelkili
biri
biridir
birigedi
birigip
birigiwi
birikken
birikpe
birikpeler
birikpeleri
birikpelerine
birikpesi
birikpesinen
biriktirilgen
birin
birinchi
birinde
birine
birinen
birinin
birinshi
birinshiden
birinshiligi
birinshisi
birinshı
birlemshi
birlesedi
birlesken
birlespe
birlespei
birlespesi
birlespesinde
birlespesinin
birlestiredi
birlestirgen
birlestirilgen
birlestiriw
birlestiriwshi
birligi
birlik
birlikler
birlikleri
birlikte
birliktin
birma
birmingem
birmingham
birneshe
birotala
birpara
birqansha
bishkek
bisi
bit
biw
biy
biyaat
biyat
biyatqa
biyatta
biyattı
biyattın
biyatı
biyatın
biyday
biydi
biyg
biyik
biyikligi
biyiklik
biyiklikke
biyiklikte
biyiy
biykar
biykarlaw
biyler
biyleri
biyligi
biyn
biypul
biz
bizden
bizdi
bizge
bizin
bizler
bizlerdin
biznes
black
blackpool
blebi
blica
blog
bloger
blogerler
blogs
blok
bloomberg
blues
bmsh
bmshga
bmshnın
bmt
bmw
bn
bnp
bo
bobil
bobur
boccoli
body
bog
boks
bol
bola
boladi
boladı
bolajaq
bolaman
bolar
bolatug
boldi
boldı
boldım
boldıq
boleslav
bolg
bolgan
bolgar
bolgariya
bolgariyada
boli
bolib
bolim
bolinedi
bolip
boliviya
boliwi
boliwina
boljaw
bolma
bolmadı
bolmag
bolmas
bolmasa
bolmasın
bolmawı
bolmay
bolmaydi
bolmaydı
bolmaytug
bolmıs
bolmıstın
bolsa
bolsada
bolsan
bolsaq
bolshevikler
bolsın
bolıp
bolıptı
bolıs
bolıw
bolıwdı
bolıwg
bolıwı
bolıwın
bolıwına
bolıwında
bolıwının
book
books
booth
bor
boris
bos
bosag
boshqalar
boslıg
bosnia
bosniya
bosniyalıq
bostan
boston
botanika
boxer
boy
boyan
boyaw
boyi
boyinsha
boylap
boylarında
boylarındag
boys
boyı
boyına
boyında
boyındag
boyınsha
boz
bozataw
br
brad
bramante
brand
braun
brauzer
brauzerler
brayım
brazil
braziliya
braziliyada
braziliyalıq
braziliyanın
brend
brendi
bretton
brigada
britaniya
britaniyada
britaniyadag
britaniyanın
britannica
britanya
britanyada
britanyanin
british
britney
brittaniya
brno
broadway
bronza
brookings
brown
browning
bruney
bruno
bryant
bryussel
bu
budapesht
budda
buddizm
buddizmnin
buenos
bug
bugatti
bugun
building
bul
bulaq
bulaqlar
bular
bularda
bulardan
bulardı
bulardın
bularg
bulshıq
bunda
bundag
bunday
bunin
bunnan
bunyodkor
bunı
bunın
burak
buray
bureau
burkina
burrows
burundi
burın
burıng
burınları
burınnan
burısh
business
butan
butun
buwın
buwında
buwınlı
buwını
buwınında
buxara
buxgalteriya
buxgalteriyalıq
buyrek
buyrıg
buyrıq
buyım
buyımlar
buyımları
buyımı
buyırtpa
buzılg
buzılıwına
by
byudjet
byudjeti
bılay
bılg
bır
bıraq
c
ca
california
call
cambridge
can
cao
cape
capital
car
caratanana
carlos
carolyn
cars
carxivsana
casa
casemiro
cat
category
cc
cctld
cctv
cdn
ce
cement
cen
census
center
central
century
ceo
cerebellar
cerebellum
ceriya
ceriyali
cf
cgpm
ch
chad
chag
champions
championship
championships
chan
channel
chapter
charles
charlz
chast
chay
chelsea
chem
chemistry
chempion
chempionat
chempionati
chempionatining
chempionatı
chempionatında
chempionlar
chempionler
chempionlıg
chempionı
chempiyonlar
chernogoriya
chevak
chevrolet
chex
chexiya
chexoslovakiya
chi
chikago
child
chili
chilidin
chimkent
chin
china
chinese
chjan
cho
christian
christmas
chung
chupik
chırshıq
cia
cifrlı
cilindr
cilindrli
cingi
cinnamon
citation
cite
cities
city
civic
cl
clade
claim
clio
club
cn
cnn
co
cobiss
code
colo
colombia
colombo
colonial
color
columbia
com
commons
commonsta
company
competition
competitions
complete
computer
con
content
continent
corporate
corporation
count
country
county
couturier
crisis
cristiano
cristoforo
cruz
cs
csarlavha
cultural
culture
cup
curitiba
curto
cz
d
da
dabi
dad
dag
dager
dagi
dagu
daily
daimler
dakka
dala
dalat
dalatlı
damashq
damlab
damlanadi
dan
dana
danalıg
danalıq
dane
daniel
daniela
daniya
dante
danıshpan
danıshpanlıq
dar
dara
darda
dardag
dari
darlama
darlamaları
darlamaların
darlaması
darlang
darları
darya
daryası
darı
darın
darına
darında
darının
das
dashoguz
daslep
dasturxang
data
database
date
david
davis
davlat
davomida
davri
davrida
daw
dawa
dawam
dawami
dawaminda
dawamı
dawamında
dawisin
dawlar
dawlardı
dawletyarbek
dawıs
dawısları
dawıslı
dawıslılar
dawıssız
dawıstı
dawısı
day
dayda
daydı
dayg
daylar
daylarda
daylardı
daylarg
dayları
daytona
dayı
dayın
dayına
dayında
dc
dden
ddet
ddeti
ddetke
ddetli
ddette
ddi
ddinen
de
dead
death
deb
debiy
debiyat
debiyatlar
debiyatqa
debiyatshı
debiyatta
debiyattanıw
debiyattın
debiyatı
debiyatın
debiyatına
debiyatında
debiyatındag
debiyatının
debyut
december
dedi
default
defensive
degen
degende
degendey
degendi
degenshe
degi
dehli
dekabr
dekabrde
dekabrinde
dekanı
dekart
deklaratsiya
del
deler
delinedi
della
deltası
deltasında
dem
demde
demek
demleme
demlew
demokratik
demokratiya
demokratiyalıq
den
denbay
dene
denege
deneler
denelerdin
deneleri
denelerinin
deneni
denenin
denesi
denesin
denesinde
denesine
denesinin
deniy
deniyat
deniyati
deniyatqa
deniyattı
deniyatı
deniyatın
deniyatına
deniyatının
dep
department
depli
deportivo
depte
depti
deputatı
der
deregi
derek
derekler
dereklerde
dereklerge
derlik
des
dese
desek
desen
destiny
det
details
detde
detdegi
deti
detiy
detler
dette
dettegi
deutsche
development
devis
devon
dewir
dewır
dey
deydi
deyin
deyingi
dfb
di
dialekti
dialektika
dialektler
dialektlik
dialektologiyası
dialog
diametri
diamond
diario
dicaprio
dictionary
didaktikalıq
die
diego
differensial
diffie
digital
dik
dil
dili
dillik
dimgi
dimna
din
dina
dinamik
dinamika
dinamikada
dinamikalıq
dinamikası
dinamo
dinastiyası
dinastiyasının
dinge
dini
dinin
dinine
dininin
diniy
dinnin
dino
dionis
dior
diplom
diplomat
diplomatik
diplomatiya
diplomatiyalıq
dir
dirde
directory
direktor
direktorı
diretli
diri
dirijyor
dirijyorı
dirin
dirip
dirli
dis
disk
disney
displaystyle
diss
dissertaciyasın
distance
district
division
diy
diyqan
diyqanlar
diyqanshiliq
diyqanshılıq
diyse
diyseler
diyselerdi
diyseleri
diywal
diywali
diywallar
diywalları
diywalı
diyxan
diyxanshılıq
dizayn
dizayni
dizbegi
dizbegine
dizbeginen
dizbeginin
dizbekleri
dizbeklesip
dizbeklesiwinen
dizel
dizimge
dizimi
dizimin
dizimine
dizimnen
django
djon
dmitriy
dnepr
dnk
do
doc
docent
docs
document
dog
doha
doi
doktor
doktorlıq
doktorı
dollar
dollardı
dollarg
dollarlıq
dolları
domalaq
domeni
dominika
don
donador
donal
donald
donetsk
dos
doshım
doslar
dosları
doslıg
doslıq
dosnazarov
dostup
dostı
double
douglas
dr
drama
dramalıq
draması
dramatik
dramaturg
dramaturgiya
dramaturgiyasının
dream
ds
du
dug
dun
dunay
dunya
dunyada
dunyadag
dunyadan
dunyag
durst
durıs
dus
dushanbe
dushpan
dushpang
dushshı
dushyanta
duwa
duwtar
duz
duzedi
duzilgen
duzilisi
duzı
dvigatel
dvigateli
dvigateller
dvigatelleri
dvigatelli
dvigatellı
dx
dyuden
dzyudo
dı
dın
dıqqat
dıqqatqa
dıqqatın
dıyqanshılıq
e
ea
east
eastern
ebola
ebrsh
ec
echo
economic
economics
economy
ed
edi
edige
edigenin
edik
edim
edinburg
edison
edition
editor
edu
ee
efiopiya
efir
efirde
efirga
efirge
efiyopia
eftallar
ega
eger
egerde
egey
egiledi
egin
eginler
eginlerdi
eginleri
egipet
egislik
egiw
ego
einstein
ek
eken
ekenin
ekenligi
ekenligin
ekenligine
ekenliginen
ekewi
ekewin
ekewinin
eki
ekige
ekilemshi
ekilik
ekinshi
ekinshiden
ekinshisi
ekinshisine
ekipaj
ekki
ekologik
ekologiya
ekologiyalıq
ekonomika
ekonomikada
ekonomikaliq
ekonomikalıq
ekonomikanin
ekonomikanın
ekonomikasi
ekonomikasina
ekonomikası
ekonomikasın
ekonomikasında
ekonomikasının
ekonomistler
ekonomıkalıq
ekran
ekspediciya
ekspediciyalar
ekspediciyası
eksperimental
eksponat
eksport
eksporti
ekvador
ekvator
ekvatordan
ekvatorial
el
elam
elde
eldegi
elden
eldi
eldin
ele
electric
elede
elege
elektr
elektrik
elektromagnit
elektromagnitlik
elektron
elektronika
elektrotexnika
element
elementi
elementlar
elementler
elementlerdin
elementlerge
elementleri
elge
eli
eliklewish
elin
elinde
eline
elinin
eliriwi
elkann
eller
ellerde
ellerdin
ellerge
elleri
ellerim
ellerinde
ellerine
ellerinen
ellerinin
ellikler
ellikqala
elmanov
elmurat
elshisi
em
emal
emes
emesligin
emissiya
emitent
emitenttin
emlewxana
empire
en
encyclopedia
encyclopædia
end
endi
ene
energetika
energiya
energiyanın
energiyası
eng
engineering
engiziw
england
english
eni
eniklopediyası
enisey
enni
enshi
enshisin
ensiklopediyada
ensiklopediyasi
ensiklopediyası
entertainment
enzo
eon
eonı
eonının
epikalıq
epos
er
era
eramızdan
eramızdın
eramızg
erası
erasının
erda
erejep
erekshe
eresek
erevan
erigen
erik
erin
erinnin
erip
erise
erisedi
erisilgen
erisiw
erisken
eristi
eritpe
eriydi
erk
erkek
erkin
erkinligi
erkinlik
erler
erligi
ernazar
ernazardın
ernest
eroziya
erpolat
error
erte
erteden
ertek
ertekler
erteklerde
ertekleri
erten
erusalim
es
esa
esabı
esabın
esabına
esabınan
esabında
esap
esapladi
esapladı
esaplag
esaplanadi
esaplanadı
esaplanatug
esaplanbaydı
esaplang
esaplansa
esaplanıp
esaplanıw
esaplap
esaplaw
esaplawg
esaplawlar
esaplaydı
esapqa
esapta
esaptan
esbay
ese
esege
esemurat
esemuratova
esengeldi
eshki
esi
esigi
esik
esim
esin
esinde
esine
esinin
esip
esitildi
esitilgen
esitip
esitiw
esitken
esittiriw
esittiriwler
esjan
eske
eskek
eskertiw
eski
eskimo
espan
esperanto
esta
estate
este
esteligi
estelik
estelikler
esteliklerden
estelikleri
esteliklerinen
esteliktin
estetikalıq
estiano
estoniya
estrada
et
eta
etdi
etdiler
ete
etedi
eter
etetug
etgan
eti
etik
etika
etikalıq
etildi
etiledi
etiletug
etilgan
etilgen
etilgeninen
etilip
etiliwi
etilmeydi
etin
etip
etiw
etiwde
etiwden
etiwdi
etiwge
etiwi
etiwin
etiwine
etiwshi
etken
etkeni
etkeninen
etnik
etnikalıq
etnogenezi
etnografiyalıq
etnonim
etnonimler
etnonimleri
etnos
etpegen
etpekte
etpes
etpeydi
etpeytug
etse
etsen
etti
ettirdi
ettiredi
ettiriw
etw
euler
europe
european
event
events
everest
everton
evertonfc
evgeniy
evklid
evraziya
evrey
evreyler
evro
evropa
evropada
evropadag
evropadan
evropag
evropalı
evropalıq
evropanin
evropanın
ew
ewi
explorer
extremum
ey
eyfel
eygen
eyip
eyiwi
eytiw
f
fa
fabia
fabrika
fabrikaları
facebook
fact
facts
faculty
fado
fakt
faktlar
faktler
faktlerdi
faktor
faktorlar
fakultet
fakulteti
fakultetin
fakultetinde
fakultetine
fakultetinin
fanerozoy
faq
far
farg
farhad
farmatsevtika
fashistler
fashistlerdin
fashizim
faso
fayl
fayllar
fazılov
fb
fc
fca
fe
features
featuring
february
federal
federasiyasının
federation
federativ
federatsiya
federatsiyasi
federatsiyası
federatsiyasının
feleton
feletonda
felipe
feodal
feodallıq
ferdinand
ferg
fergana
fermer
ferrari
ferrarining
festivali
festivalida
fevral
fevralda
feyil
ff
fi
fiat
fifa
fil
filarmoniyası
file
files
filialı
filialında
filialının
filippin
fillips
film
filmi
filminde
filmler
filmlerde
filmleri
filologiya
filosof
filosofiya
filosofiyag
filosofiyalıq
filosofiyanın
filosofiyası
filosofiyasının
filosofları
filosofı
fin
final
finalda
financial
finans
finansliq
finanslıq
finlandiyag
finlyandiya
finnish
fire
firma
firmalar
firması
first
five
fiy
fizigi
fizik
fizika
fizikalıq
fiziologikalıq
fiziologiya
fizuliy
fk
flagman
fleeteurope
flora
florentsiya
florida
floti
fm
folklor
folklordag
folklordın
folklorg
folklorlıq
folklorı
folklorının
fon
fond
fonda
fondi
fondı
fondın
fondında
fondının
fonema
fonetika
fonetikalıq
fonında
football
footballbox
for
forbes
ford
forma
formada
formadag
formag
formaları
formaların
formalarının
forması
formasın
formasına
formasında
formasındag
formula
fort
fortepiano
fortune
forum
foto
fotograf
fotografiya
fotosu
foundation
fr
frac
fran
franc
france
francis
francisco
franciya
franciyada
franciyanın
francuz
francuzsha
frank
frankfurt
franklin
frans
fransiya
fransiyadan
fransiyag
fransiyalı
fransuz
fransuzlar
fransuzsha
frantsiya
frantsiyada
frantsiyanin
frantsiyanın
frantsuz
frazeologik
fred
frederik
free
french
fridrix
from
front
frontqa
fs
ft
ftse
fu
full
fullpage
fund
fundamental
funksional
funksiyalar
funksiyası
funktsiya
funktsiyalardı
funktsiyası
funt
fut
futbol
futbolo
futbolshi
futbolshı
futbolshısı
g
ga
gabon
gaiti
galatasaray
galereya
galereyası
galileo
gama
gambiya
games
gaming
gan
gana
gandi
gates
gayana
gaz
gazeta
gazetada
gazetag
gazetalar
gazetalardın
gazetaları
gazetalarında
gazetanın
gazetası
gazetasında
gazetasının
gazetteer
gb
ge
geely
gejir
gektar
gel
gelek
gelekli
gelle
gemorragik
gen
gende
gene
general
generativ
genetikalıq
genge
genje
genri
geo
geografik
geografiya
geografiyalıq
geografiyası
geol
geologiya
geologiyalıq
geometriya
geometriyalıq
george
gerbish
gereginde
german
germaniya
germaniyada
germaniyag
germaniyanin
germaniyanın
germany
gertsegovina
ges
geshir
geshirdi
get
gewdelerdin
gewek
geybir
geyde
geypara
geyparalar
geyparaları
gezeginde
gezek
gezleme
gezlemeden
gezlesedi
gfr
gg
gi
gibraltar
gibrid
gidrosfera
gigant
gil
gilem
gilen
gilt
gimalay
gimn
gimni
gin
gindi
gingi
ginler
gip
girew
git
gitara
gitler
giya
giz
giza
glas
global
globalsportsarchive
globus
glycyrrhiza
gm
gn
go
goa
god
gol
gold
golden
golds
golf
gollandiya
gollar
gomez
gonduras
gondvana
gonkong
goodwin
google
gordon
gorizontal
gorkiy
gormonlar
gotika
gov
governance
gr
gradus
gradusqa
grafik
grafikalıq
grammatikalıq
gran
granada
grand
granit
gray
great
greciya
green
grek
grekler
grekshe
grenada
grenlandiya
gretsiya
gretsiyada
grid
grigoriy
group
grunt
gruppa
gruppaları
gruppası
gruziya
gs
gsf
gst
gsx
gt
gto
gu
guam
guangzhou
guardian
gubernator
gubernatori
gudzon
guez
guid
guide
guinea
guinness
gujarat
gumanistlik
gumanitar
gumanitarnie
guruh
gusenitsalı
gutenberg
gvardiya
gvatemala
gvineya
gvineyası
h
ha
hadal
hal
halda
halqa
halında
halıq
ham
hamda
hammurabi
hammurapi
hamza
han
hande
haniyfa
haq
haqida
haqiyqiy
haqqinda
haqqında
haqqındag
haqı
haqısın
haqıyqat
haqıyqatlıg
haqıyqatlıq
haqıyqatlıqtı
haqıyqatında
haqıyqıy
har
harbiy
hard
hareketlendiriwshi
harvard
harvnb
harzada
has
hasan
hasası
hasla
hasıl
hat
haw
hawa
hawada
hawanın
hawaz
hawazı
hayal
hayaldın
hayalg
hayallar
hayallardın
hayalları
hayalı
hayalınan
haykallar
hayran
hayttan
haywan
haywanat
haywanatlar
haywanlar
haywanlarda
haywanlardan
haywanlardı
haywanlardın
haywanlarg
haywanları
hayyam
hazirgi
head
header
heart
helle
help
henry
herzegovina
hesh
heshkim
heshqanday
hi
high
hijriy
hikaya
hikayatlar
hikayatlarda
hikayatta
hilalov
hind
hindistan
hindistanda
hindistannın
hindlerdin
hindstan
hiroshima
historical
history
hiyle
hm
hmet
hmiyeti
hmiyetin
hmiyetine
hmiyetke
hmiyetli
ho
home
honey
host
hotel
house
houses
how
hp
htm
html
http
https
hu
huang
hududida
hujim
hukimet
hukimeti
human
huqıq
huqıqlar
huqıqları
huqıqların
huqıqlı
huqıqqa
huqıqtı
huqıqtın
huqıqı
huqıqın
huqıqına
huqıqıy
huw
hybrid
hyundai
i
ia
ib
iba
ibarat
ibm
ibn
iborat
ibragimov
ibrahim
ibrayim
ibrayım
ichki
icon
id
ida
idagi
idan
ideografiya
ideya
ideyalar
ideyaların
ideyalarına
ideyalıq
ideyanı
ideyası
ideyasın
ierusalim
ig
iga
igor
ii
iii
ijara
ijodi
ijroiya
ijtimoiy
ik
ikramlılıq
il
ilajlar
ilajlardı
ilajları
ilajların
ilajı
ile
ilgeri
ilham
ili
iliada
ilim
ilimde
ilimge
ilimi
iliminde
ilimine
iliminin
ilimiy
ilimler
ilimleri
ilimlerinin
ilimnin
ilimpaz
ilimpazlar
ilimpazlardın
ilimpazları
ilimpazı
ilip
iliske
iliwge
ilk
illikler
illiklerden
illustrated
ilmiy
im
ima
imam
imarat
imaratlar
imaratları
imen
imka
imkan
imkaniyat
imkaniyatı
imkaniyatın
imkaniyatına
imkanın
imla
impaz
impazi
impazı
imperator
imperatori
imperatorı
imperiya
imperiyasi
imperiyasining
imperiyası
imperiyasının
import
impuls
impulslar
impulslarni
impulsleri
in
ina
inan
inc
inda
indag
inde
indegi
independent
index
india
indian
indiana
individleri
individual
indiya
indiyada
indiyag
indiyanın
indon
indonesia
indonez
indoneziya
indoneziyada
indoneziyanın
industrial
industry
ine
info
infografika
informaciya
informaciyalar
informaciyalıq
informaciyanı
informatika
information
informatsion
infuzoriyalar
ing
ingl
inglis
inglisshe
ingliz
inglizshe
ini
inin
ining
inisi
inistitutı
injener
injenerlik
insan
insaniy
insaniyat
insanlar
insanlardın
insannın
insanıylıq
inshootlar
insidethegames
inson
instagram
institut
institute
instituti
institutları
institutta
instituttı
instituttın
institutı
institutın
institutına
institutında
institutının
insult
int
intellektual
intensiv
inter
interfeysine
international
internationale
internatta
internet
internette
internettegi
internettin
intervyu
interwiki
intonaciya
invasion
investitsiya
investitsiyalar
investitsiyalıq
investor
io
ip
ipa
iprage
ipv
iq
ir
irak
iran
iraq
irat
irek
iri
irina
irisi
irkilis
irlandiya
is
isbilermen
isbilermenlik
isbn
isda
isendi
isener
isengen
isenim
isenimli
ish
ishek
ishemik
ishi
ishimlik
ishinde
ishindegi
ishine
ishinen
iship
ishiw
ishke
ishken
ishki
ishqı
ishten
isi
isin
isinda
isine
isinin
iske
isker
iskerligi
iskerligin
iskerligine
iskerliginin
iskerlik
iskusstvosı
islam
island
islands
isledi
islegen
islendi
islenedi
islengen
islep
isler
islerdi
islerge
isleri
islerin
islerine
islese
islesiw
isletiledi
isletiletug
isletilingen
isletiliwi
isletiw
islew
islewden
islewdi
islewge
islewi
islewin
islewshi
isley
isleydi
isleytug
islik
ismayıl
ismi
iso
isp
ispan
ispaniya
ispaniyanin
ispaniyanın
ispansha
isshi
issi
issn
issue
ista
istanbul
istanbuldag
iste
isten
istiklal
istin
istiraxat
iston
istoriya
it
ital
italia
italiya
italiyada
italiyanın
italyan
italyansha
itibar
itibarg
itibarın
itimal
its
iv
ivan
ivitib
iwi
ix
iy
iye
iyeledi
iyelegen
iyelendi
iyelenedi
iyelep
iyeleri
iyelerine
iyelerinin
iyelew
iyeleydi
iyeleytug
iyelik
iyellegen
iyelleydi
iyesi
iyesine
iyesinin
iyis
iyjan
iykemlesken
iyne
iynelikler
iyrek
iyshan
iyt
iyul
iyulda
iyuldiki
iyuldın
iyun
iyunda
iyunde
iyunında
iz
izbasqanov
izbe
izdanie
izdatel
izde
izden
izdi
izdin
izertlengen
izertlew
izertlewge
izertlewler
izertlewleri
izertlewshi
izertlewshilerdin
izertlewshisi
izertleytug
izge
izi
izin
izinde
izindegi
izine
izinen
izinin
izinın
izlep
izler
izleri
izlew
izlewge
izleydi
izligi
izlikte
izrail
izshiler
j
ja
jabayı
jabılg
jabıq
jack
jackie
jackson
jae
jag
jaguar
jahan
jahon
jakarta
jalair
jalan
jalg
jalpaq
jalpi
jalpı
jalqaw
jalın
jalınlı
jamal
jaman
jamanliq
jamanlıq
jamanshıg
jambas
james
jan
janar
jane
janeiro
jang
jangida
jani
janlı
janr
janrdın
janrlardan
janrları
janrlarının
janrlıq
janrı
janrın
janrında
jansız
jantaq
january
janı
janılg
janım
janın
janına
janında
janındag
janıp
jap
japa
japalaq
japan
japaq
japaqov
japıraq
japıraqlar
japıraqları
japıraqlı
jaq
jaqi
jaqin
jaqladı
jaqları
jaqqa
jaqsi
jaqsiraq
jaqsı
jaqsılap
jaqsılaw
jaqsılaydı
jaqsılıq
jaqsının
jaqsıraq
jaqta
jaqtan
jaqtiliq
jaqtı
jaqtılıq
jaqın
jaqında
jaqınlasıp
jaqınlıg
jaqınnan
jaqını
jaqınında
jar
jaradar
jaralang
jaramsız
jaraq
jaratadı
jaratdı
jaratilg
jaratqan
jarattı
jaratws
jaratıladı
jaratıldı
jaratılg
jaratılıwma
jaratılıwı
jaratıp
jaratıw
jaratıwda
jaratıwdı
jaratıwshı
jaratıwshısı
jarliliq
jarlı
jarlıg
jarlıqları
jarqın
jarılıw
jarıq
jarıs
jarısta
jarısı
jarısında
jas
jasadı
jasag
jasaladi
jasaladı
jasalatug
jasalg
jasalma
jasama
jasap
jasar
jasaw
jasawg
jasawshı
jasawshılar
jasawı
jasay
jasaydi
jasaydı
jasaytug
jasinda
jaslar
jaslardı
jaslardın
jaslarg
jasları
jaslarınan
jaslarında
jaslayınan
jaslı
jaslıg
jaslıq
jasqa
jasta
jastag
jastan
jası
jasıl
jasına
jasınan
jasında
jasırın
jasırıng
jasırıp
jat
jatadı
jatqan
jatır
jatırg
java
javascript
jawadı
jawg
jawin
jawlap
jawın
jawınger
jawıngerlik
jawını
jawıp
jawız
jaxsı
jay
jayavardenepura
jaydın
jayg
jaylar
jaylardın
jayları
jaylasadı
jaylasqan
jaylasqanlıg
jaylastırılg
jaylastırıw
jaylasıp
jaylasıwı
jaylaw
jaylawlar
jayı
jayılg
jayılıp
jayıp
jaz
jaza
jazadı
jazasi
jazasin
jazasına
jazatug
jazba
jazda
jazdi
jazdı
jazdım
jazg
jazi
jazilg
jaziw
jaziwshilar
jaziwshisi
jazlanadi
jazı
jazıla
jazıladı
jazılatug
jazıldı
jazılg
jazılıp
jazılıw
jazılıwı
jazında
jazıp
jazıqsız
jazıw
jazıwda
jazıwdı
jazıwg
jazıwları
jazıwshı
jazıwshılar
jazıwshının
jazıwshısı
jazıwı
jazıwına
jazıwındag
jbu
jdan
je
jean
jedel
jeep
jegde
jegen
jek
jeke
jekke
jekson
jel
jeli
jelke
jem
jemiriliw
jemisli
jemtigin
jen
jeneva
jenil
jep
jer
jerde
jerdegi
jerden
jerdi
jerdin
jerge
jergilikli
jeri
jerin
jerinde
jerindegi
jerine
jerinen
jerinin
jerlengen
jerler
jerlerde
jerlerdegi
jerlerden
jerlerdi
jerlerdin
jerlerge
jerleri
jerlerin
jerlerinde
jerlerine
jerlerinen
jerlerinin
jerlesimiz
jerleslik
jerlew
jersey
jet
jete
jetedi
jetekshi
jetekshisi
jeterli
jeti
jetik
jetilisip
jetilistiriw
jetim
jetinshi
jetip
jetiskenlik
jetiskenliklerge
jetiskenlikleri
jetispewshiligi
jetistirilgen
jetistiriw
jetisuw
jetiwi
jetken
jetkeredi
jetkerip
jetkeriw
jetkilikli
jetkinshek
jetkizip
jetkiziw
jetpey
jetpis
jetse
jetti
jeydi
ji
jib
jiberdi
jiberedi
jibergen
jiberildi
jiberiledi
jiberiletug
jiberilgen
jiberip
jiberiw
jigirma
jigit
jigitke
jigitler
jigitlerdin
jigitleri
jigittin
jik
jikistan
jikistanda
jikstan
jil
jild
jilda
jildan
jilde
jildin
jilg
jilga
jili
jilik
jilina
jillar
jillarda
jillari
jilliq
jim
jimge
jimleri
jimmy
jimuratov
jin
jiniyaz
jiniyazdın
jio
jip
jipek
jipekten
jiriybe
jiriybege
jiriybeler
jiriybeli
jiriybesi
jiriybesin
jitov
jitovtın
jiyde
jiyen
jiyi
jiyini
jiynaw
jiyrenshe
jizzaq
jizzax
jizzaxta
jj
jjet
jjetler
jjetlerdi
jjetleri
jjetlerinde
jjetli
jjetlilik
jjetti
jmo
jnu
jo
joa
joba
jobaları
jobası
jog
johann
john
jokovich
jol
jolawshılar
jolbarıs
jolda
joldan
joldas
joldasları
joldası
joldı
joldın
jolg
joli
jolie
jolin
jollar
jollarda
jollardan
jolları
jolların
jollarına
jollarının
jolı
jolın
jolına
jolınan
jolında
jolındag
jolının
jon
jonava
jones
joq
joqarg
joqari
joqarı
joqarıda
joqarıdag
joqarıg
joqlaw
joqlıg
joqqa
jorg
jorj
jose
joseph
journal
journalism
joy
joybar
joybardın
joybarlar
joybarları
joybarlastırılg
joybarı
jozef
jp
jpg
jr
jre
js
jsp
ju
juan
juda
jug
juldiz
juldız
juldızdın
juldızl
juldızlar
juldızlarına
juldızlı
juldızı
juldızım
julius
july
juma
jumanazarov
jumbaq
jumbaqlar
jumis
jumisshi
jumissizliq
jumsaq
jumıs
jumıslar
jumısları
jumısların
jumıslarına
jumıslarında
jumıslarının
jumısqa
jumısshı
jumısshılar
jumısshısı
jumıstan
jumıstın
jumısı
jumısın
jumısına
june
jung
jup
juqa
juretug
jurnal
jurnalda
jurnalist
jurnalisti
jurnalistika
jurnalistikanın
jurnalistler
jurnalisttin
jurnallarda
jurnalı
jurnalında
jurnalının
jurt
jurttın
jurtı
jurtın
jurtına
jurtında
juwan
juwap
juwapker
juwapkershilik
juwaplı
juwmag
juwmaq
juwmaqladi
juwmaqlang
juwmaqlap
juwmaqlawshı
juwmaqqa
juwıladı
juwılg
juwılıp
juwıp
juwırıw
jvm
jıg
jıl
jılan
jılda
jıldag
jıldam
jıldan
jılde
jıldin
jıldı
jıldın
jılg
jılga
jılgi
jıli
jıll
jıllar
jıllarda
jıllardag
jıllardan
jıllardın
jıllarg
jıllari
jılları
jıllarına
jıllarınan
jıllarında
jıllarındag
jıllarının
jıllı
jıllıg
jıllıq
jıllıqta
jıllıqtın
jılqı
jılt
jılı
jılına
jılında
jın
jınayat
jınayatshılıqtın
jınıslar
jınıslarının
jınıslı
jınıssız
jır
jıraw
jırawdan
jırawdın
jırawlar
jırlag
jırlanadı
jırlar
jırları
jırlarının
jırlaw
jırlaydı
jırtqısh
jırı
jıynadı
jıynag
jıynaladı
jıynaldı
jıynalg
jıynalısı
jıynalısında
jıynap
jıynaq
jıynaqları
jıynaw
jıyındısı
jıyını
k
ka
kabel
kabi
kabo
kadrlar
kafedra
kafedrası
kafedrasın
kafedrasında
kafedrasının
kahraman
kak
kala
kalendar
kalendarı
kaliforniya
kalimantan
kalinin
kaliningrad
kamal
kamalov
kambag
kambodja
kamera
kamerası
kamerun
kan
kanada
kanadada
kanadag
kanadanın
kanal
kanallar
kanalları
kanalı
kanalının
kand
kandidat
kandidati
kandidatin
kandidatlıq
kandidatı
kann
kanoe
kant
kanı
kapital
kapitaldı
kapitaldın
kapitalı
kapitalın
kapitalının
kapitanı
karakalpak
karakalpakskiy
karakalpakskom
karakalpakstana
karbon
karbonat
kardariy
kareya
karib
karimov
karinform
karl
karolina
karst
karta
kartag
kartalar
kartalarda
kartalardın
kartası
kartasında
karter
kartinalar
kartoshka
kasai
kasb
kashunamiut
kasip
kaspiy
katalan
kategoriya
kategoriyası
katmandu
katolik
katta
kattaqo
kauchuk
kavkaz
kaynozoy
kazan
kazaxstan
kazaxstandın
ke
kegeyli
kel
kelbetlik
keldi
keldiler
kele
keledi
kelemiz
keler
keleshegi
keleshegine
keleshek
keleshekke
keleshekte
keleshektegi
kelesi
keletug
kelgan
kelgen
kelgende
kelgenler
kelgenligi
kelgennen
kelib
kelin
kelinbekte
kelindi
kelinedi
kelingen
kelini
kelinip
kelinnin
kelinshek
kelinshekke
kelinshekler
kelip
kelisim
kelisimi
kelisimler
kelispewshilik
kelispewshilikler
keliw
keliwge
keliwi
keliwin
keliwine
keliwinen
keliwshi
kelmegen
kelmekte
kelmes
kelmeydi
kelse
kelte
keltirdi
keltiredi
keltiremiz
keltirgen
keltiriledi
keltirilgen
keltirip
keltiriw
keltirw
kelıp
kem
kembridj
kembriy
keme
kemede
kemeler
kemeleri
kemelerin
kemelerinde
kemelerinin
kemenin
kemesi
kemesinin
kemeytiw
keminde
kemiriwshiler
kemnen
kempir
kemrek
kemshilikler
ken
keneges
keniya
kent
kenti
kepillik
kepkir
kepter
ker
keramika
kerder
kerege
kerek
kerekli
kerekligi
kerekligin
kerekligini
keri
kerisinshe
kese
kesel
keselligi
kesellik
kesellikler
kesewo
kesh
keshe
keshedi
keship
keshiredi
keshirgen
keshirip
keshken
keshti
kesi
kesilisken
kesinin
kesip
kesirtke
kesirtkeler
kesirtkenin
kesiw
keskin
keste
kestelengen
kestesi
kestesinde
kete
ketedi
ketekke
keter
ketetug
ketip
ketiw
ketiwge
ketiwi
ketiwine
ketken
ketkende
ketse
ketti
kevin
kewil
kewilashar
kewilli
kewli
kewlim
kewlin
kewlinen
key
keyin
keyingi
keyininen
keyinirek
keyinshelik
kezen
kg
ki
kia
kibi
kichik
kiev
kil
kili
killeri
killerine
killerinen
killerinin
killik
kilogramm
kilometr
kilometrge
kim
kimdarı
kimdi
kimet
kimeti
kimetine
kimetinin
kimetke
kimettin
kimge
kimi
kimiyat
kimiyatqa
kimiyattı
kimiyattın
kimiyatı
kimler
kimleri
kimnin
kimran
kimranlıg
kimranlıq
kimshilik
kinematografiya
king
kino
kinofilm
kinofilmler
kinofilmnin
kinshasa
kinshasada
kipr
kir
kirar
kirarlanıp
kirdi
kire
kiredi
kiredı
kirek
kirektin
kiretug
kireyge
kirgen
kirgizdi
kirgizedi
kirgizgen
kirgizildi
kirgizilgen
kirgiziw
kirgiziwge
kirgizstan
kiribati
kirilde
kirill
kirip
kirisedi
kirish
kirisiw
kiritedi
kiritilgen
kiritiw
kiriw
kiriwi
kiriwin
kiriwshi
kirt
kirti
kiryakov
kis
kisangani
kishi
kishilew
kishirek
kishkene
kisi
kisinin
kiske
kislorod
kislota
kislotası
kiss
kiste
kitabi
kitabinda
kitabı
kitabın
kitabında
kitabının
kitap
kitaplar
kitaplardı
kitaplardın
kitapları
kitaplarında
kitapqa
kitapta
kitaptan
kitaptı
kitaptın
kitapxana
kitapxanalar
kitapxanasi
kitapxanası
kitapxanasında
kitay
kitob
kiyatır
kiyatırg
kiygen
kiyik
kiyim
kiyimi
kiyimler
kiyimleri
kiyimlerin
kiyiz
kiymeshek
kke
kkreporter
kl
klass
klassik
klassikalıq
klassikleri
klasslar
klası
klement
kleopatra
klep
kletka
kletkada
kletkadan
kletkalar
kletkalardan
kletkalardın
kletkaları
kletkalarının
kletkalı
kletkalılar
kletkanın
klew
kli
klientler
klima
klimat
klimati
klimatı
klub
klubas
klubi
klublar
klublarinin
klubları
klubqa
klubtın
klubı
klubına
klubında
klubının
km
kniga
knin
know
knyaz
ko
kod
kodeks
kodeksi
kodı
koeffiytsiyenti
kofe
kognitiv
kogyo
kolledj
kolledji
kolledjine
kollektiv
koloniya
kolonizatorlıg
kolumbiya
kolxoz
komanda
komandaları
komandalıq
komandasi
komandasina
komandası
komandasında
komandasının
komandiri
kombinatı
komediya
komediyası
komissari
komissiya
komissiyasi
komissiyası
komitet
komiteti
komitetinde
komitetinin
kommerciya
kommerciyalıq
kommersant
kommertsiyalıq
kommunikaciya
kommunikatsiya
kommunist
kommunistlar
kommunistlik
komor
kompaniya
kompaniyalar
kompaniyaları
kompaniyanı
kompaniyanın
kompaniyasi
kompaniyası
kompaniyasın
kompaniyasına
kompaniyasınan
kompaniyasının
kompleks
kompleksi
kompleksin
komplekslerinin
kompleksli
komponenti
komponentleri
kompozitor
kompozitorlar
kompozitorı
kompyuter
kompyuterde
kompyuterge
kompyuterler
komsomol
kong
kongo
kongress
konkret
konserva
konstantin
konstituciyalıq
konstitutsiya
kontent
kontinent
kontinental
kontinenti
kontinentinde
kontinentinin
kontinentler
kontseptsiyası
konus
konventsiya
konvertatsiyalanatug
konya
koordinatalar
kop
kopengagen
kopernik
korea
koreya
koreyada
koreyanın
koreys
koreysshe
koroli
korollıg
korollıq
korporativ
korporatsiya
korporatsiyalar
korporatsiyalardın
korporatsiyasi
korporatsiyası
korpus
kort
kos
kosmik
kosmos
kosmoslıq
kosovo
kosta
kot
kotte
kpe
kpeler
kpss
krakov
krasnodar
krasnoyarsk
krater
kredit
kriminologiya
krizis
krizisa
krizisi
krizisqa
ks
ktin
ku
kuala
kub
kuba
kubogi
kubogin
kubogina
kubogı
kubogında
kubogının
kumul
kun
kunde
kunge
kuni
kunxoja
kupe
kurash
kushi
kushli
kutaisi
kuveyt
kv
kvadrat
kvant
kvartalda
kvartalinda
kvartirasi
kvartirası
kyuri
kz
l
la
lab
label
laborant
laboratoriyasında
lada
ladi
ladilar
ladı
lag
laga
lal
lala
lamalı
lamaydı
lan
lanadi
land
lang
language
languages
lanib
lanka
lanıp
lanıw
lao
laos
lap
lapsan
laqabı
laqqı
lar
larda
lardan
lardı
lardın
larg
largest
larni
ları
ların
las
last
lası
lat
latadi
latadı
lateral
latest
lati
latin
latqan
latug
latviya
latın
latınsha
latıw
laureati
laureatı
laurin
lavraziya
law
lawazımlarında
lawazımlı
lawazımı
lawazımın
lawazımına
lawazımınan
lawazımında
lawda
lawı
lawında
lawının
lay
layat
layati
layatin
layatinda
layatinin
layatlar
layatlarinan
layatları
layatlarında
layatqa
layatı
layatınan
layatında
layatındag
layatının
layg
lazım
lbent
lbette
ld
lda
ldallıq
lde
ldegi
lden
ldi
ldin
ldirsin
ldı
le
league
led
ledi
left
legen
legi
legin
leginde
legindegi
legine
leginen
leginin
legınde
lek
lekan
lekin
lekke
leklengen
leklenip
lekler
leklerge
lekleri
leklerin
leklerinin
leksheler
leksika
leksikalıq
leksikologiya
lekten
lel
lem
lemans
lemde
lemdegi
lemi
lemin
leminde
lemindegi
lemine
leminin
lemler
lemli
lemnen
lemnin
lempir
len
lend
lenetug
lenin
leningrad
leninshi
lent
lenta
lentligi
lentlikde
leo
leonard
leonardo
leone
lep
lepbergen
ler
lerde
lerdi
lerdin
lerge
leri
lerin
lerinde
lerine
lermontov
lermontovtın
les
lesi
lesin
lesine
leske
lesli
leste
let
lew
lewge
lewi
lewin
lewshi
lex
lexington
leybovic
leydi
leytenant
leytug
lff
lg
lgan
lge
lgen
lgennen
lgi
lgileri
lgilerin
lgisi
lgisinde
li
lia
lib
liberiya
library
lichinkaları
lietuvosfutbolas
life
lig
liga
ligada
ligasi
ligası
ligasında
ligasının
ligi
ligin
lik
likler
liller
lim
lima
limde
limdin
limge
limi
limin
liminde
limindegi
limine
liminen
liminin
limited
limleme
limler
limleri
limlerin
limlerinde
limlerine
limlerinen
limlerinin
limnen
limnin
limon
lin
linde
line
linedi
linedı
lingen
lingua
lingva
linin
linip
liniw
liniwi
linizm
link
linkin
linkoln
linux
lionel
lip
lipbe
lipbede
lipbesi
lipbesin
lipbesindegi
lipbesinin
liplese
liplesedi
liplesip
liplesiw
liplesiwi
liplesiwinde
liplesiwine
liplesken
liplesti
liq
liquidity
lirik
lirika
lirikalıq
liro
lisa
lisboa
list
listan
listanlıg
listiriw
lithuania
lito
litosfera
litsenzion
litva
litvanin
livan
live
liverpool
liverpoolecho
living
liviya
liw
liwmat
liwmatlar
liwshi
lixtenshteyn
liy
liyma
liymat
liymatı
liymatın
liymatına
liysher
liz
liza
lk
lke
lkek
lkelerde
lkem
lkemge
lkemi
lkeminin
lkemler
lkemlerdin
lkemleri
lkemlerinin
lkemlesken
lkemlestiredi
lkemlestirgen
lkemlestirildi
lkemlestirilgen
lkemlestiriw
lkemlestiriwshi
lkemlestiriwshisi
lken
lkeni
lkenin
lkenlerdin
lkenlew
lkenligi
lkesi
lkesı
lketanıwlıq
lki
lkili
lkim
lkin
lkshilik
lkti
ll
llaneros
lle
ller
llerde
llerdin
lleri
llerinde
lli
llik
lliler
lliyar
lm
lmb
lme
lmes
lmesi
lmurat
lo
location
log
logika
logikalıq
logo
logos
lokomotiv
london
londonda
londondag
lord
los
lot
lotin
louis
louvre
love
lqorg
lren
ls
lshem
lshemi
lshemleri
lshemli
lshenedi
lsherlengen
lshew
lsiz
lt
ltd
ltiredi
ltirilgen
ltirip
ltu
lu
lubumbashi
lui
luis
luka
lumpur
luvr
lv
lyga
lyudovik
lyuksemburg
lziyba
lı
lıdı
lıg
lıp
lıq
lıqta
lıqtan
lıwmat
lıwmatlar
lıwmatlardan
lıwmatlardı
lıwmatlardın
lıwmatlarg
lıwmatları
lıwmatların
lıwmatlarına
lıwmatqa
lıwmattı
lıwmatı
m
ma
mac
macau
macmillan
madagaskar
madagaskardag
madagaskardın
madaniyati
made
madeniy
madeniyat
madeyra
madison
madonna
madrid
mag
magazine
magellan
magistral
magnit
magnus
mahmud
mail
majar
makao
makedoniya
makedonskiy
maksimal
mal
malag
malagasi
malakka
malay
malayziya
maldiv
maldı
maldın
male
mali
malibu
malika
mallardın
malta
malı
maman
mamanlıg
mamleket
mamleketleri
mamleketlik
man
manama
manbasi
manchester
mang
manhattan
manila
mans
manuel
map
maqal
maqala
maqalada
maqalag
maqalalar
maqalaları
maqalanın
maqallar
maqset
maqseti
maqsetinde
maqsetine
maqsetke
maqsetlerde
maqsetleri
maqsetlerinde
maqsetli
maqsetov
maqtanısh
maqtaw
maqtumqulı
maqul
marafon
marathon
march
margo
marhum
mari
maria
mariana
maribor
marino
mariya
marjan
marjorie
mark
markalı
markası
marketing
marko
marks
marley
marokko
marr
mars
mart
martda
marte
martin
martta
martında
mary
mas
maselen
mashaqatlı
mashina
mashinalar
mashinalardı
mashinaları
mashinaların
mashinasazlıq
mashinası
mashqala
mashqalalar
mashqalalardi
mashqalalardı
mashqalalı
mashqalası
mask
maskat
maslastırılg
massa
massagetler
massaları
massalıq
massası
massasının
masshtablı
mastabı
matches
matematigi
matematik
matematika
matematikalıq
matematikanın
material
materialistlik
materiallar
materiallardan
materiallardı
materialları
materiallıq
materiginde
materiginin
materik
materikler
materiklerdin
materiya
materiyanın
mathbb
mathbf
mathematics
matlab
matsushita
mavlonov
mavrikiy
mavritaniya
max
maxmud
maxset
may
mayatnikli
mayd
mayda
maydalang
maydan
maydanda
maydandı
maydang
maydani
maydanlar
maydanları
maydanlarında
maydannan
maydanı
maydanın
maydanına
maydanınan
maydanında
maydanının
maylı
mayqı
maysaranın
mayı
mazalı
mazda
mazmun
mazmundag
mazmundı
mazmung
mazmunlı
mazmunı
mazmunın
mazmunına
mbag
mbbs
mbetov
mbez
mda
mde
mdx
me
mebel
medal
medaldı
medaldın
medallar
medallarınan
medals
medalı
medalın
media
medicina
medicinada
medicinalıq
meditsina
medrese
medreseler
medresesinde
meetings
megzes
mehir
mek
mekeme
mekemeleri
mekemelik
mekemesi
mekke
mekshi
meksika
mektebi
mektebin
mektebinde
mektebine
mektebinin
mektep
mektepke
mektepler
mekteplerde
mektepleri
mekteplerinde
mektepte
mektepti
mekteptin
mel
melburn
meldal
melde
meldegi
melge
meliy
meliyat
meller
mem
members
memleket
memorial
men
mende
mendegi
mendegidey
mendegiler
mendegishe
menen
menende
menge
mengi
meni
menin
meninde
menlep
menlewi
menleydi
menshik
menshikli
mercedes
mercury
mereke
merekelerde
merekenin
meridian
merkuriy
meshit
mesopotamiya
mesto
met
metal
metall
metallsazlıq
metallurgiya
metamorfoz
metcalf
meteorit
meteoritler
meteorittin
metod
metodikalıq
metodikası
metr
metrdi
metrdin
metrge
metro
metropolitan
metropoliten
metropoliya
mexanik
mexanika
mexanikalıq
mexanikanın
mexico
meyli
mezoproterozoy
mezozoy
mg
mi
michael
michelangelo
michigan
mickey
microsoft
microsystems
middle
midtown
mifologiyalıq
miguel
mikron
mil
milan
milano
mildiratib
military
miller
millet
milleti
milletler
milletli
milletshilik
millettin
milliard
millimetr
millimetrli
million
milliong
millionlap
millionnan
milliy
milliyon
miloddan
miloshevich
min
mina
minar
minara
minarası
minayım
mine
mineral
minez
ming
mingen
mini
minimal
minip
ministirligi
ministr
ministri
ministrler
ministrligi
ministrliginde
ministrliginin
ministrlik
minnesota
minnetlemelerin
minnetlemesi
minnetlemesin
minnetleri
minnetli
minsk
minskte
mint
minut
minuta
minutag
mir
mira
mirbek
mirde
mirdegi
mirdin
mirge
miri
mirin
mirinde
mirindegi
mirine
mirinen
mirinin
mirlik
mirlikleri
mirror
mirxan
mirziyoyev
mis
misali
mish
misli
misten
mit
miw
miwda
miwdarya
mixxat
miy
miyacha
miyachani
miyachaning
miyaga
miyasar
miyassar
miydin
miyet
miyeti
miyetinde
miyetinin
miyetke
miyetlik
miyetshiligi
miyetshilik
miyetshilikke
miyette
miyettegi
miyetti
miyettin
miyinlenedi
miyinlengen
miyinlew
miyinlewge
miyinlewshi
miyinleydi
miyinleytug
miyman
miymanxana
miymanxanası
miynat
miynet
miyneti
miynetin
miynetinde
miynetke
miynetkesh
miynetler
miynetleri
miynetlerin
miynetlerinde
miynetti
miynettin
miynleydi
miyras
miyraslar
miyraslardı
miyrasları
miyrasxorı
miyrasxorına
miyrası
miyrigu
miyshe
miywe
miyweler
miyweli
miywesi
mk
mkin
mkinligi
mkinligin
mkinshiligi
mkinshiligin
mkinshiligine
mkinshilik
mkinshilikler
ml
mlada
mlegen
mleket
mleketdin
mleketi
mleketimiz
mleketin
mleketinde
mleketine
mleketinin
mleketke
mleketler
mleketlerde
mleketlerden
mleketlerdi
mleketlerdin
mleketlerge
mleketleri
mleketlerin
mleketlerinde
mleketlerine
mleketlerinen
mleketlerinin
mleketlik
mleketlikler
mlekette
mlekettegi
mleketten
mleketti
mlekettin
mln
mlrd
mlrdqa
mm
mme
mmege
mmenin
mmesi
mn
mo
mobil
mobile
moda
modal
modalar
moddiy
model
modeli
modelin
modeller
modelleri
modellerinde
modern
mol
moldaviya
molekula
molekulalar
molekulası
molekulyar
molla
moment
mon
mona
monako
monarxiya
mong
mongol
mongoliya
monitoring
monolog
montaj
monte
moral
more
morfologiyalıq
morgan
moris
moskva
moskvada
moskvadag
most
motor
motors
mototsikl
mouse
moy
moyi
moynaq
moynı
moynına
moyın
mozambik
mozart
mozilla
mp
mpj
mr
ms
mta
mtp
mtrk
mu
muallif
mucho
mudamı
mug
muhabbat
muhabbatnama
muhabbatı
muhammad
muhammed
muhim
muizza
mulk
multimedia
mumbai
mumkin
mun
munasa
muqaddes
murat
murın
musaev
musar
music
musiqa
mussonli
mussonlı
musulman
musulmanlar
musılman
musılmanlar
musılmanlardın
muwapıq
muwapıqlastırıw
muwsa
muxabbat
muxabbatqa
muxalles
muxammed
muz
muzey
muzeydin
muzeyi
muzeyinde
muzeyler
muzeylerdin
muzeyleri
muzika
muzikag
muzikalı
muzikalıq
muzikasi
muzlıqlar
muzıka
muzıkalı
muzıkalıq
muzıkası
mvt
my
myanma
mı
mın
mına
mınaday
mınanday
mınaw
mırabad
mırjıq
mırjıqtın
mırza
mırzanın
mırzasho
mıs
mısal
mısallar
mısallarda
mısalı
mısh
mısr
mısır
mısırda
mıy
mıymanxana
mıymanxanası
n
na
nabıt
nadurıs
nag
nama
namalar
namaları
namaların
namangan
naması
name
named
namısı
namısın
nan
nankin
nanobo
nanotexnologiya
napoleon
napoli
naqi
naqıl
nar
narazılıg
narazılıq
narik
narod
nart
nasa
nashriyot
nashriyotchi
nasoz
natas
national
nations
natli
natriuretik
natriy
natural
nauki
nauru
navaiy
navbar
nawayi
nawayı
nawayının
nawqas
nawqastın
nawrız
nayman
nchen
nd
nda
ndag
nde
ndegi
ndekli
ndekliler
ndelik
ndelikli
nden
ndew
ndi
ndijan
ndiris
ndirisi
ndiriske
ndirislik
ndiristin
ndiriwshi
ndiriwshisi
ndiz
ndizgi
ndı
ne
neandertal
neapol
near
nec
necha
nede
neden
need
nefron
neft
neftdi
neftti
nege
negizgi
negizi
negizin
negizinde
negizinen
neke
neker
nekerler
neler
nelis
nelisi
nelisler
neliste
nelson
neltirilgen
nem
nemese
nemets
nemetsler
nemis
nemisler
nemisshe
nen
neni
nenin
neolit
neoproterozoy
nepal
ner
nerdin
nergen
neri
nerin
nerinde
nerine
nerinin
nermentshilik
nerv
nervier
neshe
neshshe
nesi
nesinde
nesiye
nesiyelik
net
netscape
network
never
new
newitt
news
newsid
newton
neydey
neypido
neyron
neyronlar
neyronlardin
ng
nge
ngelek
ngelekli
ngen
ngi
nglis
ni
nia
nibek
nide
nidegi
niderlandiya
nige
nigeler
nigelerdi
nigelesken
nigeligi
nigeligin
niger
nigeriya
nigesi
night
nikaragua
nikolay
nikosiya
nil
nilerdi
nileri
nilerin
nili
nilik
nim
nimdarlıg
nimdi
nimi
nimler
nimleri
nimlerin
nimli
nin
ninde
nine
ninen
ning
nini
ninin
nip
nis
nisi
nisin
nisinde
nisine
nissan
niste
nisti
nitzshe
nitzshenin
niversitet
niy
niya
niyanın
niyası
niyet
niyetin
niygeler
nizam
nizamiy
nje
njellengen
nji
nl
nler
nlerde
nlerden
nlerdin
nleri
nlerimizde
nlerinde
nlesligi
nli
nlik
nm
nmpi
nmu
nn
nnen
nnet
nnetke
nnin
nnın
no
nobay
nobel
nog
nogay
nokia
nokis
nomer
nomeri
nomiga
nominal
nominatsiyasi
noqat
noqatlar
noqatı
norma
normal
normalar
normaları
normalarına
normativ
north
northvolt
norvegiya
not
nota
note
nova
november
novi
now
noyabr
noyabrde
noyabrden
noyabrinde
np
nsh
nsha
nshi
nshıg
nsiz
nsu
nt
nter
nternet
ntervyu
ntlik
nu
nuclear
nucleus
nukus
nunivak
nuniwarmiut
nur
nuraddin
nurata
nuratdinovich
nurlar
nurları
nurmagomedov
nurman
nurpeysov
nurtas
nurı
nusqa
nusqada
nusqadan
nusqaları
nusqası
nusqasın
nusqasının
nxoja
ny
nya
nyada
nyadag
nyadan
nyag
nyanin
nyanı
nyanın
nyası
nyasın
nyasında
nyc
nyregion
nytimes
nyu
nı
nın
nıp
nıshanı
nıy
nızam
nızamg
nızamlar
nızamlardı
nızamlardın
nızamlarg
nızamlari
nızamları
nızamların
nızamlarına
nızamlarının
nızamlı
nızamnın
nızamshılıg
nızamshılıq
nızamı
nızamına
nızanov
o
ob
obekti
obektiv
obektlerdi
obiekt
oblast
oblastlıq
obligatsiya
obligatsiyalar
obligatsiyalardı
obligatsiyaları
oblisi
obraz
obrazlar
obrazları
obrazlı
obrazı
obrazın
obrazında
obyekt
obyekti
obyektleri
ochamayli
ocherk
ocherki
ocherkler
ocherkleri
ocherkte
octavia
october
odag
odan
of
off
office
official
officialresultbook
ofis
ofisi
og
ogan
ogranichen
oguz
oguzler
okean
okeani
okeaninin
okeaniya
okeaniyada
okeanlar
okeannın
okeanı
okeanına
okeanında
okeanındag
okeanının
okrugi
oks
oksford
oksitan
oktavian
oktyabr
oktyabrda
oktyabrde
ol
olar
olarda
olardag
olardan
olardi
olardin
olardı
olardın
olarg
old
olimp
olimpiada
olimpiya
olimpiyada
oliy
olja
ollar
olympic
olympics
olıstan
oman
omar
omirinin
omırtqa
on
onda
ondag
one
onegin
onepage
oni
onin
onlag
onlayn
online
onnan
onsha
ontogenez
onı
onın
onınshı
opat
opatınan
opel
open
opera
operacion
operasi
operativ
operatsion
operatsiyalar
operatsiyalardı
operatsiyalardın
operatsiyaları
operatsiyaların
opinio
opium
optikalıq
oq
oqig
oqiw
oqiwg
oqshı
oqıdı
oqıg
oqımıslı
oqıp
oqıtıw
oqıtıwdın
oqıtıwshı
oqıtıwshılar
oqıtıwshısı
oqıw
oqıwdı
oqıwg
oqıwshı
oqıwshılar
oqıwshılardı
oqıwshılardın
oqıwshılarg
oqıwshılarının
oqıwın
oqıydı
oqıytug
or
oral
oralg
oramal
orap
oraq
oray
orayg
orayi
orayları
oraylarına
oraylarınan
orayliq
oraylıq
orayı
orayına
orayında
oraza
orbitası
orda
ordaniya
orden
ordeni
ordenin
ordennin
order
orenburg
orfografiyalıq
org
organ
organik
organikalıq
organisation
organization
organizm
organizmde
organizmdi
organizmler
organizmlerde
organizmlerden
organizmlerdin
organizmnin
organlar
organlardı
organlarga
organları
organlarının
organı
ori
oriental
original
orinda
orindi
orkestr
ornalasqan
ornatdı
ornatildi
ornatıladı
ornatılg
ornatılıwı
ornatıw
ornatıwg
ornina
ornı
ornın
ornına
ornınan
ornında
ornının
oro
orqali
orta
ortada
ortadag
ortag
ortalarına
ortalarında
ortalig
ortalıg
ortalıq
ortalıqqa
ortalıqta
ortalıqtı
ortalıqtın
ortasha
ortasinda
ortasına
ortasınan
ortasında
ortasındag
orxon
orın
orınbasarı
orında
orındı
orıng
orınlag
orınlanıwı
orınlap
orınlarda
orınlardan
orınlardın
orınlarg
orınları
orınlarına
orınlarında
orınlaw
orınlawı
orınlaydı
orınlı
orınnan
orıs
orıslar
orıssha
os
osaka
oscar
osetiya
osh
oshag
osiyo
oskar
oslo
osmanlı
osmanlılar
osı
ot
otaw
otedi
otello
otemuratov
other
otirip
otlı
otqa
ott
ottava
otvetstvenniy
otın
otır
otıradı
otıratug
otırg
otırıp
otırıqshı
otız
our
out
over
overseas
oxford
oxirgi
oy
oyanıw
oyin
oyinlar
oyinlari
oyinsha
oyinshisi
oylag
oylap
oylar
oyları
oylaw
oylaydı
oynadı
oynag
oynaladı
oynalatug
oynap
oynaw
oynaydı
oynaytug
oypatlıg
oypatlıqlar
oyshıl
oyın
oyında
oyıng
oyınlar
oyınlardı
oyınları
oyınların
oyınlarına
oyınlarında
oyınlarının
oyınnan
oyınnın
oyınsha
oyınshı
oyınshılar
oyınshılardın
oyınshıqlar
oyınshısı
oyını
oyının
oyınına
oyınında
oyıq
oz
oza
ozar
ozinin
p
pa
pablo
pace
pacific
pada
page
pages
pakistan
pal
palatası
palau
palaw
palawdı
palawdın
paleoproterozoy
paleozoy
paliz
palma
palwan
palız
pamir
pan
panama
panamerika
paneli
pangeya
panj
papası
papercut
papua
paqal
paqalı
parade
paragraflar
paragvay
parallel
parasat
paraxatshılıq
parazit
parij
parijda
parijdegi
paris
pariteti
park
parlament
parlamenti
parq
parqı
parsı
parsısha
partial
partiya
partiyası
parıq
parıqlanadı
pasport
patent
patsha
patshag
patshalar
patshalig
patshalıg
patshalıq
patshanı
patshanın
patshasi
patshası
paul
paxta
paxtakor
paxtashılıq
pay
payda
paydalanadı
paydalanatug
paydalang
paydalanıladı
paydalanılatug
paydalanılg
paydalanıp
paydalanıw
paydalanıwdı
paydalanıwg
paydalanıwshı
paydalanıwshılar
paydalanıwshılarg
paydalanıwshıları
paydalanıwı
paydalı
paydası
paydo
payg
paytaxt
paytaxti
paytaxtları
paytaxtı
payıtında
payız
pdf
pe
pearson
pechenegler
pedagog
pedagogika
pedagogikalıq
pek
pekin
penen
pensilvaniya
people
peptid
peptidlar
per
perde
pereshel
peri
perishte
perm
persiya
personaj
personal
peru
perugino
perzent
perzenti
perzentleri
perzentli
pesa
pesada
pesaları
pesanın
pesası
pesi
peter
peterburg
peterburgta
peyzaj
pfk
pg
phase
php
pi
pianino
pianist
picasso
pifagor
pikir
pikirdi
pikirge
pikiri
pikirin
pikirine
pikirinshe
pikirler
pikirlerdi
pikirleri
pikirlerin
pikrine
pil
pille
pin
pinen
pir
piramida
pirc
pireney
pirk
pisiriledi
pisken
piste
piter
pitim
pitirgen
pitken
pitkennen
pitkerdi
pitkeredi
pitkergen
pitkergennen
pitkerilgen
pitkerip
pitt
piwayi
piwayı
piyaz
piyazov
pjaqlılar
pke
pkilikli
pl
place
plagiat
plan
planet
planeta
planetalar
planetanın
planetası
plastidalar
plastik
platform
platforma
platformasi
platon
play
players
plaza
plazmidler
plegen
plep
pler
plerde
plerdi
pleri
plerin
plerine
pley
pligi
plik
plov
plovdiv
plus
pmu
png
pnompen
po
pochta
podkast
podkasting
poema
poemalar
poemaları
poeması
poemasında
poetikalıq
poeziya
poeziyalıq
poeziyası
poeziyasın
poeziyasında
poeziyasının
pokrishka
pol
polat
poligrafiya
poliklinika
politexnika
political
politics
polo
polsha
polshag
polshanın
poltava
polyak
polyus
pomidor
ponce
ponse
pop
population
populyaciya
por
porodaları
port
portal
porto
portret
portreti
portugal
portugaliya
portugaliyag
portugaliyalıq
portugaliyalıqlar
portugaliyanın
portugallar
portugallarga
portugallarning
portugalsha
portugue
portuguesa
portuguese
portı
post
posts
povest
povesti
povestleri
povesttin
power
poyas
poyasları
poyastın
poyası
poyezd
pp
pr
praga
prague
prefecture
prefekturalardin
prefekturalarinin
prefekturasi
premer
premier
premyer
president
press
prezident
prezidenti
prezidentinin
prezidentlik
prezidiumının
pri
primera
printsip
printsipleri
prisida
prize
pro
procent
procenti
procentke
procesi
procesin
procesler
proceslerdin
procesleri
process
processinde
processler
product
production
professional
professor
professorı
profile
profili
prognoz
programma
programmalar
programmalardı
programmaları
programmaların
programmalastırıw
programmalıq
programması
programmasın
progressiv
project
projects
proterozoy
protokolı
protsent
protsess
protsessi
protsessinde
protsessleri
provinsiya
provinsiyalarınan
proza
prozaik
prozalıq
psana
pshiligi
pshiligin
pshiliginde
pshiligine
pshilik
pshilikke
pshiliktin
psixik
psixologiya
psixologiyalıq
pt
pta
pte
ptegi
ptelik
pten
ptesine
pti
ptin
ptolemey
pu
public
publications
publicistikalıq
publique
publisher
publishers
publishing
publitsistika
publitsistikalıq
puerto
pul
puldın
punkti
punktleri
puq
puqara
puqaralar
puqaralardın
puqaraları
puqaralıg
puqaralıq
puqarası
puqarasız
puqta
purkinye
pushkin
pushkinnin
puta
putag
putin
putrajaya
puw
puwları
puxaralar
puxaralıq
px
pxenyan
pyesaların
python
pıshaq
pısıqlawısh
q
qa
qabaq
qabat
qabatlı
qabatın
qabil
qabul
qabulov
qabıg
qabıl
qabılladı
qabıllandı
qabıllap
qabıllaw
qabıq
qabıqlog
qabıqtın
qabırg
qadag
qaddes
qag
qaharman
qaharmanlar
qaharmanlardın
qaharmanlarının
qaharmanlıq
qaharmannın
qaharmanı
qahraman
qahramani
qala
qalada
qaladag
qaladan
qaladı
qalag
qalalar
qalalarda
qalalardan
qalalardin
qalalardın
qalalari
qalaları
qalalarına
qalalarınan
qalalarında
qalalarının
qalalıq
qalani
qalanin
qalanı
qalanın
qalarlıq
qalasha
qalashası
qalashasında
qalasi
qalasinan
qalasinda
qalasinin
qalası
qalasın
qalasına
qalasınan
qalasında
qalasındag
qalasının
qalay
qaldi
qaldı
qaldıg
qaldın
qaldıq
qaldıqları
qaldıradı
qaldırdı
qaldırg
qaldırıp
qalg
qalila
qallibek
qalmay
qalpag
qalqan
qalsa
qalta
qalın
qalıp
qalıw
qalıwdı
qalıwı
qalıwın
qalıwına
qam
qamal
qamaqqa
qamawg
qamtıp
qamtıydı
qamıs
qamıstan
qan
qana
qanat
qanatları
qanatı
qanday
qandayda
qandın
qang
qanliko
qanlı
qanlıko
qansha
qanshama
qanshelli
qant
qaplang
qaplap
qaptal
qaptalına
qapı
qar
qara
qarabaxanaları
qarag
qarajan
qarako
qaraladı
qaraldi
qaraldı
qarama
qaramag
qaramal
qaramastan
qaramay
qaran
qarang
qarao
qarap
qarapayım
qaraqalpag
qaraqalpaq
qaraqalpaqlar
qaraqalpaqlarda
qaraqalpaqlardag
qaraqalpaqlardın
qaraqalpaqsha
qaraqalpaqstan
qaraqalpaqstanda
qaraqalpaqstandag
qaraqalpaqstang
qaraqalpaqstanli
qaraqalpaqstannın
qaraqalpaqstanı
qaraqalpaqtın
qaraqshılar
qaraqshılıq
qaraqum
qaraqus
qarar
qararı
qarashay
qarasları
qaraslı
qarastan
qarata
qaratılg
qaratıp
qaraw
qarawg
qarawındag
qaray
qaraydı
qaraytırıw
qarjı
qarjıları
qarjıların
qarlıg
qarshi
qarsi
qarsı
qarsılas
qarsılıq
qarsılıqlar
qartayg
qarım
qarın
qarıydar
qarıydarlar
qarıydarlarg
qarız
qarızdar
qarızg
qas
qashan
qashg
qashqada
qashqadarya
qashqınlar
qashıp
qashıqlıqta
qasqır
qasım
qasına
qasınan
qasında
qasındag
qasıq
qat
qatag
qatan
qatar
qatarda
qatardan
qatarg
qatarlar
qatarları
qatarlarında
qatarlı
qatarı
qatarın
qatarına
qatarınan
qatarında
qatlam
qatlamlar
qatlamı
qatlamında
qatnas
qatnasa
qatnasadı
qatnasatug
qatnaslardı
qatnasları
qatnaslı
qatnaspag
qatnasqan
qatnasti
qatnastı
qatnası
qatnasın
qatnasında
qatnasıp
qatnasıqlar
qatnasıqlardı
qatnasıqlardın
qatnasıqları
qatnasıqların
qatnasıqlarının
qatnasıw
qatnasıwshı
qatnasıwshılar
qatnasıwshısı
qatnasıwı
qatnasıwında
qatti
qattı
qawipsizligi
qawipsizlik
qay
qayda
qaydan
qayg
qayipbergenov
qaynag
qaynatib
qaynatiladi
qaynoq
qayratdinov
qaysı
qayta
qaytadan
qaytadı
qaytaradı
qaytarıp
qaytarıw
qaytis
qaytqan
qayttı
qaytıp
qaytıs
qayın
qayıpnazarov
qayır
qayırqomlıq
qayıs
qaz
qaza
qazan
qazanda
qazandın
qazang
qazaq
qazaqlar
qazaqlardın
qazaqsha
qazaqstan
qazaqstanda
qazaqstandag
qazaqstang
qazaqstannın
qazib
qazilma
qazip
qazsport
qazı
qazılg
qazıp
qazıw
qazıwda
qazıwg
qazıwshı
qf
qi
qiladi
qildi
qilg
qilgan
qiling
qip
qipchoq
qirg
qirq
qis
qismi
qisqa
qisqasha
qitay
qitaydag
qiyat
qiyin
qiyli
qiz
qizi
qizig
qizil
qkoda
qli
qlımı
qmpi
qmu
qo
qoblan
qol
qolay
qolaylı
qolaylıqlar
qolaysız
qolda
qoldan
qolg
qoljazba
qolla
qollanadı
qollanba
qollang
qollanilatug
qollanıladı
qollanılatug
qollanılg
qollanılıp
qollanılıwı
qollanıw
qollanıwı
qollap
qoltıg
qolı
qolın
qolına
qolınan
qolında
qolındag
qon
qonaq
qonaqlar
qonaqlardın
qonaqqa
qong
qonıp
qonıs
qonıslasqan
qor
qora
qoraqalpog
qoraqalpoq
qorg
qorqınıshlı
qorqıp
qorqıt
qorshag
qorshalg
qorshap
qorıqxana
qos
qosa
qosi
qosig
qosilg
qosiqlar
qosiqlari
qospa
qosqan
qossan
qostamg
qosti
qostı
qosıbay
qosıg
qosıladı
qosıldı
qosılg
qosılıp
qosılıw
qosılıwı
qosımsha
qosımshalar
qosımshalardı
qosımshası
qosımta
qosımtalar
qosımtalı
qosıp
qosıq
qosıqlar
qosıqlarda
qosıqlardı
qosıqlardın
qosıqlarg
qosıqları
qosıqların
qosıqlarına
qosıqlarınan
qosıqlarında
qosıqlarının
qosıqshı
qosıqshıları
qosıqshısı
qosıqta
qosıqtı
qosıqtın
qosıw
qosıwdı
qosıwı
qovuriladi
qoy
qoyadı
qoyan
qoyatug
qoydan
qoydı
qoyg
qoyilg
qoymastan
qoymay
qoysan
qoyıladı
qoyılatug
qoyıldı
qoyılg
qoyılıp
qoyıp
qoyıw
qoyıwg
qoyıwı
qozg
qqa
qr
qsettin
qu
qualification
qualifier
qub
qubla
qublada
qubladag
qubladan
qublag
qublasinda
qublası
qublasında
qubılıs
qubılıslar
qubılıslardı
qubılıslardın
qubılısı
quda
qudag
quday
qudaydın
qudayı
qudıyar
que
queen
query
qul
qulag
qulan
qulap
qulaq
qullar
qullası
qulmurat
qulpı
qulqı
qulqın
quls
qulshılıq
qum
qumar
qumlı
qumsheker
qun
qunanbay
qunlı
qunı
quote
qur
qura
quradi
quradı
qurag
qural
quraladı
quralg
qurallar
qurallardı
quralları
quralların
qurallarında
qurallarının
qurallı
quralı
quram
qurama
quramalı
qurami
quramina
quraminda
quramindag
quramlıq
quramı
quramın
quramına
quramınan
quramında
quramındag
quran
quranda
quranı
qurap
qurawshı
quraydi
quraydı
quraytug
qurban
qurbanbaev
qurbanbay
qurbaniyaz
qurbanı
qurg
quri
qurilg
qurilis
qurtı
qurı
qurıladı
qurıldı
qurılg
qurılma
qurılmalar
qurılmaları
qurılıp
qurılıs
qurılısı
qurılısına
qurılısında
qurılıwı
qurıp
qurıw
qus
qusag
qusda
quslar
quslardan
quslardı
quslardın
qustın
qutadg
quti
qutlı
qutılıw
quw
quwanısh
quwanıshlı
quwat
quwatlag
quwatlaw
quwatlaydı
quwatlı
quwatı
quwg
quwrap
quwıp
quwırshaq
quwırılg
quwıslıg
quy
quyadı
quyar
quyarlıg
quyash
quyashqa
quyashtan
quyashtın
quyg
quyma
quyrıg
quyrıq
quyıladı
quyıp
qı
qıdırıw
qıladı
qılatug
qılg
qılsa
qılıng
qılıp
qılıw
qılıwdı
qılıwg
qımbat
qımbatlı
qın
qıp
qıpshaq
qıpshaqlar
qıpshaqlardın
qırap
qırg
qırları
qırlı
qırq
qırım
qırıq
qıs
qısqa
qısqalıq
qısqarıp
qısqarıwı
qısqasha
qısqı
qıssa
qıssalar
qıssaları
qıssaxan
qısta
qısı
qıt
qıtay
qıtayda
qıtaydag
qıtaydan
qıtaydı
qıtaydın
qıtayg
qıtaylıqlar
qıtaysha
qıya
qıyal
qıyalıy
qıyas
qıylı
qıyın
qıyınshılıq
qıyınshılıqlar
qıyınshılıqlardı
qıyınshılıqlarg
qız
qızarguncha
qızartirib
qızdı
qızdın
qızg
qızketken
qızlar
qızlardı
qızlardın
qızları
qızlarının
qızı
qızıg
qızıl
qızılqum
qızın
qızına
qızıq
qızıqlı
qızıqqan
r
ra
rabg
racing
radar
radio
radioaktivlik
radioelektronika
radioesittiriw
radiokanalında
radiosı
rafael
rajapbay
rak
raketa
raladi
ralgan
rama
ramalla
ramat
ramatlardın
ramazan
ramzi
ran
ranking
raphael
raphaeldin
rapid
rasi
rasmiy
rasmıy
rası
rat
ratsional
raufboyeva
rawaj
rawajlana
rawajlanadı
rawajlanbag
rawajlandi
rawajlandırıw
rawajlandırıwda
rawajlandırıwg
rawajlang
rawajlanıp
rawajlanıw
rawajlanıwdın
rawajlanıwg
rawajlanıwı
rawajlanıwın
rawajlanıwına
rawajlanıwında
rawajlanıwının
raxim
raxmanov
raxmet
raykov
rayon
rayonda
rayondag
rayoni
rayonlar
rayonlarg
rayonlarinan
rayonları
rayonlarında
rayonlıq
rayonnın
rayonı
rayonına
rayonınan
rayonında
rayonındag
rayonının
rayxan
rayı
razimbetov
razvedka
razı
rbir
rbiya
rbiyalang
rbiyalap
rbiyalaw
rbiyalıq
rbiyashı
rbiyası
rca
rd
rda
rde
rdegi
rdem
rdemi
rdeminde
rdemshi
rdemshisi
rden
rdi
rdim
rdin
rdı
rdın
re
reading
reaktiv
real
realestate
realistlik
realizm
rebecca
rebek
recent
recessiyag
record
records
red
redaktor
redaktori
redaktoriyati
redaktorlıq
redaktorı
redi
ref
reference
referendum
reforma
reformalar
regen
regi
regin
region
regional
regionda
regiondag
regionlıq
regionı
reje
rejede
rejedegi
rejege
rejelestirilgen
rejeli
rejesi
rejesin
rejesinde
rejesine
rejesinen
rejesinin
rejetler
rejetlerdi
rejetleri
rejetlerin
rejimin
rejisser
rejissyor
rek
reke
reket
reketdegi
reketi
reketin
reketine
reketinin
reketke
reketlenedi
reketleniw
reketleniwshi
reketler
reketlerdi
reketleri
reketlerin
reketshen
reketsiz
rekettegi
reketti
rekettin
reklama
rekler
rekord
rekordlar
rektori
relations
release
releases
reli
relyef
relyefi
rembrandt
remiz
remontlaw
ren
renault
renessans
rep
repdarları
repdarı
repden
repi
repin
repinde
repindegi
repine
repinen
repinin
repinnen
repke
repleme
repler
repleri
replerin
report
reportaj
repressiya
repte
repten
reptin
repu
republic
republika
rer
res
resi
resip
resiw
reske
resken
resmiy
resorts
respiwbliyka
respiwbliykanın
respublika
respublikada
respublikag
respublikalar
respublikaları
respublikalıq
respublikamızdın
respublikanın
respublikasi
respublikasinda
respublikasinin
respublikası
respublikasına
respublikasında
respublikasındag
respublikasının
resshen
reste
resti
restoranlar
results
resurslar
resurslardan
resursları
resı
ret
rete
retedi
retilgen
retinde
retiw
retiwshi
retiwshiligi
retiwshiligin
retiwshiliginde
retiwshiliginin
retiwshilik
retiwshisi
retken
retlestiriwshi
retlik
retpe
retpeler
retpeleri
retpelerin
retpelerinde
retpelerinin
retpesi
retpesinin
retrieved
retsenziyanın
retti
retug
return
reuters
review
revolyuciya
revolyuciyalıq
revolyuciyası
revolyutsiya
revolyutsiyalıq
rey
reyn
reytinginde
rez
rezidenciyası
rezina
rezli
rezsiz
rezsizligi
rezsizligin
rezsizligine
rezsizlik
rezsizlikke
rf
rg
rge
rgen
rgende
rgenish
rgezbe
rgin
rginde
rginge
rgiz
rgizbeler
rgizedi
rgizetug
rgizgen
rgiziledi
rgizilgen
rgiziw
rgiziwshi
rha
rhal
ri
ria
rib
ribaev
ribaevtın
ribi
ribin
richard
riga
right
rik
rika
rilgen
rim
rimde
rimliler
rimnin
rin
rinbeydi
rinde
rindegi
rine
rinedi
rinen
rinetug
ringen
rinin
rinip
rinis
rinisi
rinisin
rinisinde
rinisindegi
riniske
rinisleri
rinisli
riniste
rinistegi
rio
rip
ripler
riplerdin
ripleri
riplerinen
riplerinin
ripten
riptin
ris
rise
rish
rishge
rishni
risi
risida
ritiledi
ritmlilik
river
riw
riwdi
riwge
riwi
riwin
riwshi
riy
riya
riyad
riyaladı
riyalag
riyalana
riyalandı
riyalang
riyalanıp
riyalaw
riyalaydı
riydin
riyp
riyxiy
riyxıy
rizde
rize
rizi
rizli
rizliler
rk
rkar
rkem
rkemligi
rkemlik
rki
rkistan
rkistanda
rkistang
rkit
rkiy
rkiya
rkiyada
rkiyadag
rkiyanın
rkler
rklerdin
rkmen
rkmenistan
rkmenistannın
rkmenler
rkmenlerdin
rkmenstan
rkshe
rkstan
rl
rlen
rler
rlerden
rlerdin
rlerge
rleri
rlerin
rlerinde
rlerine
rlerinin
rli
rligi
rlik
rlishe
rlı
rm
rman
rmanları
rmanı
rme
rmegen
rmekte
rmesizon
rmet
rmetin
rmetine
rmetli
rn
rnekli
ro
road
robert
rock
rodri
roger
rok
rol
roli
rolin
rolls
roma
roman
romanda
romanları
romantikalıq
romantizm
romanı
romanında
rome
romeo
ronaldo
ronaldu
rosario
rossiya
rossiyada
rossiyag
rossiyalıq
rossiyanin
rossiyanın
rotor
rotorlı
routledge
rover
rp
rpi
rq
rqanday
rqulla
rre
rrege
rreler
rrin
rs
rse
rseler
rselerdi
rselerge
rsen
rseni
rsetdi
rsete
rsetedi
rsetetug
rsetildi
rsetiledi
rsetilgen
rsetilmegen
rsetip
rsetiw
rsetiwdi
rsetiwge
rsetiwi
rsetiwinshe
rsetiwler
rsetiwleri
rsetiwshi
rsetken
rsetkish
rsetkishi
rsetkishler
rsetkishleri
rsetpekte
rsetpeler
rsetse
rsetti
rsfsr
rshe
rss
rsssf
rt
rta
rtda
rte
rtebe
rtebege
rtebesi
rtew
rti
rtibi
rtibin
rtibinde
rtik
rtiklerden
rtinshi
rtinshisi
rtip
rtipke
rtipte
rtku
rtler
rtleri
rtli
rtligi
rtlik
rtmu
rtnama
rtnamada
rtnamag
rtnamalar
rtnaması
rtu
ru
ruanda
rubayı
rug
rumin
ruminiya
rumıniya
rur
rus
ruslar
russell
russha
russia
russian
rutherford
ruw
ruwdan
ruwxanıy
ruwxıy
ruwxıylıq
rux
ruxsat
rwan
rwaz
rwaza
rwazası
rwish
rx
rxana
rxanalar
rxanalarda
rxanalardın
rxanaları
rxananın
rxanası
ry
rya
ryada
ryadan
ryag
ryalar
ryalardan
ryaları
ryalarının
ryanın
ryasi
ryası
ryasın
ryasınan
ryasının
rzde
rı
rın
s
sa
saadiy
saat
saatlar
saatlıq
saatqa
sabag
sabaq
sabaqlar
sabaqlig
sabaqliqlar
sabaqlıg
sabaqlıq
sabaqlıqlar
sabır
sabıw
sadıq
sadıqlıq
sag
sahra
saidov
saint
sak
saklar
sal
saladı
salar
salasında
salasındag
salat
salatug
saldamlı
saldi
saldı
sale
sales
salg
sali
saling
saliq
salistirmali
salmag
salmaq
salmaqli
salmaqlı
salqın
salt
saltanatli
saltanatlı
salvador
salı
salınadı
salındı
salıng
salınıp
salıp
salıq
salıqlardı
salıstırg
salıstırmalı
salıstırıw
salıw
salıwdı
salıwg
salıwshı
salıwshılardın
salıwshısı
samal
samallar
samaniyler
samarqand
samarqandcha
samarqandqa
same
sammit
samoa
samolyot
samolyotlar
samsung
san
sana
sanaat
sanaati
sanaatları
sanaatı
sanag
sanaladi
sanaladı
sanalg
sanalı
sananin
sanap
sanaq
sanasi
sanasına
sanasında
sanaw
sang
sani
sankt
sanlar
sanlı
sano
santa
santiago
santimetr
santos
santımetr
sanı
sanın
sanına
sanında
sanının
sap
sapa
sapalı
sapar
saparnama
saparov
saparı
sapası
sapasın
saplastırıw
saqlag
saqlanadı
saqlanbaqta
saqlang
saqlanıp
saqlap
saqlaw
saqlawdı
saqlawg
saqlawshı
saqlaydı
saqlaytug
saqıyna
sara
sarah
saralaw
saratan
saratov
saray
sarayı
sarayın
sarayına
sarayında
sarg
sarkadalılar
sarkozy
sarlavha
sarplanıwı
sarqıraması
sarı
sarıbay
sarıgu
sarımsaq
sarıqamıs
sat
satbaev
satip
satira
satiralıq
satqan
saturn
satıladı
satılatug
satılg
satılıwı
satıp
satıq
satıw
satıwdı
satıwg
saudiya
savitskiy
saw
sawash
sawashlarda
sawashta
sawatlı
sawatı
sawda
sawdada
sawdag
sawdager
sawdagerler
sawdagerlerdin
sawdagerleri
sawdasi
sawdası
sawdasın
sawg
sawliqti
sawlıg
sawlıqtı
saxara
saxnag
saxnasında
say
sayada
sayaxat
sayaxatshı
sayaxatshılar
sayaxatı
sayg
saylanadı
saylandı
saylang
saylap
saylaw
saylawlarda
saylawında
says
sayt
saytda
sayti
saytida
saytlar
saytlardı
sayttın
saytı
saytında
sayın
sayıpov
saz
sazan
sazende
sazları
sazlı
sb
sbap
sbapları
sc
scala
school
science
sciences
scuderia
se
sea
search
season
seat
sebebi
sebebinen
sebep
sebepler
sebeplerge
sebepleri
sebeplerin
sebepli
sebeplı
sebepshi
sebepshisi
sebepten
sebetshe
sec
second
sedi
segiz
segizinshi
sek
seki
sekretar
sektorın
sektorında
sektorının
sekund
sekundına
sel
sele
seleler
selelerdi
seleleri
selelerin
selelerine
selen
selena
selesi
selesinde
selfi
selim
semiz
sen
senegal
seni
senin
senior
sensor
sent
sentyabr
sentyabrde
sentyabrinde
senw
sepib
seplik
september
ser
serb
serbiya
serblar
sergey
seri
series
serik
serisi
seriya
serjant
server
ses
sesi
sesine
seslerdin
seslerinin
seslik
sessiyasında
sesten
sesti
sestin
setug
seul
seyshel
seytnazarov
seytov
sezar
sezedi
sezgen
seziledi
sezilerli
sezim
sezimi
sezimin
sezimler
sezimlerdi
sezimleri
sezimlerin
seziw
seziwshi
sezonında
sf
sfn
sfry
sg
sh
sha
shaba
shabdal
shablon
shad
shag
shahar
shahrisabz
shahzoda
shakespeare
shakespearedin
shaklli
shakuntala
shala
shalbar
shalg
shalı
sham
shama
shamadag
shamalar
shamalas
shamash
shamasında
shamshetdin
shamuratov
shamuratovtın
shan
shaniyaz
shanxay
shapan
shaqqan
shaqıradı
shaqırdı
shaqırıladı
shaqırılg
shaqırıq
shaqırıw
shar
sharap
sharayat
sharayatlarda
sharayatta
sharayatında
sharda
sharq
sharqiy
shartnama
sharwa
sharwashiliq
sharwashılıg
sharwashılıq
sharı
sharının
shash
shashpo
shashın
shashıw
shauıp
shavkat
shax
shaxmat
shaxnama
shaxs
shaxslar
shaxslardın
shaxslarg
shaxsqa
shaxstın
shaxzada
shay
shayir
shaytan
shayxontohur
shayı
shayıq
shayır
shayırdı
shayırdın
shayırlar
shayırlardın
shayırları
shayırlarının
shayırlıq
shayırshılıq
shayırı
she
sheber
sheberi
sheberlerinin
sheberligi
sheberlik
shede
shedi
shegara
shegaralang
shegaralar
shegaralardı
shegaralardın
shegaraları
shegaraların
shegaralas
shegaralasadı
shegaralasqan
shegarasi
shegarası
shegarasın
shegarasında
shejire
shejiresi
shejiresinde
shek
shekem
shekemgi
sheker
sheklengen
sheklew
sheksiz
shekspir
sheler
shen
shenin
shep
sher
sheraziy
sheri
sherik
sheriklik
sheriklikte
sheriklikti
shernogoriya
shertip
sheshe
sheshen
sheshenlik
sheshiledi
sheshiliwi
sheshim
sheshimge
sheshimi
sheshimin
sheshimine
sheshiw
sheshiwde
sheshiwge
sheshiwshi
shesi
shet
shetinde
shetine
shetke
shetlerine
shexiya
sheydi
sheygen
sheyip
sheytiw
shi
shig
shikay
shiller
shimbay
shin
shine
shinin
shinshi
shinshisi
ship
shipovnik
shiqqan
shiqti
shiriledi
shirilgen
shirip
shiriw
shirket
shirketi
shirkew
shirkewde
shirkewi
shirkewler
shirkeyler
shirkeylerdi
shiye
shiyki
shiyrin
shiyshe
shke
shki
shler
shlerdin
shleri
shlerin
shlerinin
shli
shmu
sho
shohira
shokolad
sholpan
shomanay
shop
shopen
shoq
shora
shotlandiya
shotlandiyanın
show
shpeli
shpeliler
shpelı
shpes
shri
shrift
shsiz
shtab
shtamg
shtat
shtatlar
shtatları
shtatlarında
shtatlarının
shtatı
shtatında
shtatının
shten
shti
shtml
shu
shug
shuhrat
shuqır
shuqırlıg
shuqırlıql
shutruk
shv
shved
shvetsiya
shvetsiyanın
shveytsariya
shveytsariyanın
shı
shıbın
shıdamlı
shıdamlılıg
shıdamlılıq
shıg
shılpıq
shılıq
shımbay
shımbaydag
shımbaydın
shımkent
shın
shıng
shınjır
shınjırlı
shınlıg
shınıg
shınında
shıpaker
shıq
shıqqan
shıqqanlıg
shıqqannan
shıqsa
shıqtı
shıraylı
shırshıq
si
sibeti
sibi
sibine
sibir
side
sidik
sifatida
signal
signalları
signs
sil
silkiniwler
silli
sillik
silteme
silur
silva
sim
simbollıq
simbolı
simligi
simlik
simlikler
simliklerde
simliklerden
simliklerdi
simliklerdin
simliklerge
simlikleri
simliktin
simon
sin
sina
sinaptik
sindiredi
sindiriledi
sindirip
sindiriw
sindiriwshi
sindirme
sine
sinedi
sinemiz
singapur
singen
single
singlisi
sinigi
sinigin
sinigine
sinik
sinikler
sinikleri
sinikli
siniledi
sinip
siniw
sintaksis
sintaksislik
sintaktik
sintez
sintezi
sip
sipatinda
siplik
sir
sirde
sirdegi
sirden
sirdi
sirdin
siredi
sirese
sirge
sirgen
siri
sirildi
sirilgen
sirilip
sirin
sirinde
sirine
sirip
siriw
siriya
sirler
sirlerde
sirlerdegi
sirlerdin
sirlerge
sirli
sirlik
sirshen
sirtqi
sistema
sistemag
sistemalar
sistemalarda
sistemalardın
sistemaları
sistemalı
sistemanın
sistemasi
sisteması
sistemasın
sistemasına
sistemasınan
sistemasında
sistemasındag
sistemasının
site
sites
siw
siwdi
siwdin
siwge
siwi
siwin
siwine
siyaqli
siyaqlı
siyasat
siyasatshı
siyasatı
siyasatın
siyasatına
siyasatının
siyasiy
siyasıy
siyat
siyatlaw
siyeti
siyetine
siyetlerge
siyetleri
siyetlerin
siyetlerinen
siyetli
siyliqlandi
siyrek
siz
sizge
sizin
sk
sken
skender
skeneler
skeneleri
skenelestirilgen
sker
skeriy
skerler
skerleri
skoda
skodaning
skulptor
skype
sl
sla
slaha
slam
slamabad
slandiya
slavyan
slebinde
slep
slepki
sli
slik
slovak
slovakiya
slovenia
sloveniya
sloveniyanın
slovenshe
sm
smayıl
smit
smith
smittin
smiy
smm
smıy
sn
snickers
so
soccer
soccerway
social
socialistlik
sociallıq
sodan
sofiya
software
sog
sogd
sol
solar
solardan
solardin
solardın
solay
solid
solinadi
somali
son
sonda
sondan
sonday
sonet
song
soni
sonin
sonli
sonlıqtan
sonnan
sons
sonsha
sonshama
sonshelli
sony
sonı
sonın
soppaslı
soqlıg
soqpag
soqpaqları
soqır
sorag
sorap
soraptı
soraw
sorawg
sorawlar
sorawlardı
sorawlarg
soraydı
sorko
sot
sotilgan
sotsial
sotsialistik
sotsialliq
sotsiallıq
sousa
south
sovet
soveti
sovetler
sovremennom
soyuzı
soyılg
soz
sozılg
sozılmalı
sp
spa
spain
span
spaniya
spaniyada
spaniyanın
spark
sparta
spatında
special
specified
spektakli
spirimler
sport
sportqa
sports
sportshı
sporttın
sportı
sportın
spring
springer
sq
sqarg
sqari
sritis
ss
ssilka
sssr
sssrda
st
sta
stadion
stadionda
stadioni
stadionı
stadionında
stake
stal
stalin
stalingrad
stan
stanbul
standa
standart
standartlarına
standartı
standı
stanlar
stanlarda
stanlardı
stanları
stannın
stansiyasi
stansiyası
stantsiyası
stanı
stanın
stanının
stars
stat
state
statistics
statistika
statistikalıq
status
ste
stela
stelaga
stelanın
stem
stemligi
stemlik
sten
stepanakert
steve
sti
stil
stilde
stili
stilinin
stin
stinde
stindegi
stine
stinen
stingi
stinler
stinlik
stirt
stki
stlep
stm
stokgolm
stol
stomatologiya
store
story
strategiyalıq
street
streetscapes
struktura
strukturalar
strukturalıq
strukturası
stu
stub
student
studenti
studentler
studentlik
studies
studio
studiyası
stur
stvo
su
suahili
subekvatorial
subetnos
subregion
subtropik
subway
sud
sudamericano
sudan
sudı
sufizm
sulayman
sulfat
sultan
sultanlıg
sultanov
sultanı
sulıw
sum
sumatra
sumitomo
summer
summit
sun
sunda
sung
super
superb
superfast
superkontinent
sur
surinam
surxanda
sut
sutemizuvchilarda
sutkalıq
suv
suvaysh
suveren
suverenitet
suvereniteti
suverenli
suw
suwda
suwdag
suwdan
suwdı
suwdın
suwg
suwi
suwiq
suwlar
suwları
suwlarınan
suwlarının
suwlı
suwpı
suwret
suwretlengen
suwretlerdi
suwretleytug
suwretti
suwı
suwın
suwının
suwıq
suwıqqa
suxumi
suyek
suyekleri
suyekli
suyıq
suyıqlıq
suziladi
suzuki
sv
svante
sxinvali
sync
system
systems
syujet
syujeti
syujetleri
syujetlik
sı
sıdıq
sılas
sım
sımbattı
sın
sına
sınap
sınaqtan
sınd
sıng
sının
sınıqları
sıp
sıpatlarının
sıpatlı
sıpatına
sıpatında
sıpıra
sır
sırda
sırdaryanın
sırg
sırların
sırlı
sırt
sırtqa
sırtqı
sırtqıl
sırtta
sırttan
sırtı
sırtınan
sırtında
sırılg
sıw
sıy
sıyaqlı
sıyaqlılar
sıylıg
sıylıq
sıylıqlanadı
sıylıqlandı
sıylıqlang
sıylıqlar
sıylıqları
sıylıqlaw
sıylıqqa
sıylıqtı
sıylıqtın
sıylıqı
sıyınıw
sızg
sızıg
sızılg
sızıq
sızıqlar
sızıqlı
t
ta
taba
tabadı
taban
tabaq
tabar
tabilg
tabiyatı
tabiyiy
table
tablesl
tabıladı
tabıldı
tabılg
tabılıwı
tabıs
tabıslı
tabısqa
tabısı
tabıw
tabıwg
tadjikistan
tag
tahmin
tailand
taj
takina
taksiler
tal
talabı
talabına
talabınan
talant
talantlı
talantı
talantın
talantının
talap
talaplar
talapları
talapların
talaplarına
talaptı
talas
talaslar
talay
taliya
taliyada
taliyanın
tallıq
talshıqlar
talshıqlardan
tam
tamam
tamamladı
tamamlag
tamamlanadı
tamamlang
tamamlap
tamamlaydı
tamaq
tamasha
tamashago
tamdı
tamg
tamır
tamırları
tamırı
tan
tana
taniqli
tank
tanzaniya
tanıldı
tanılg
tanımal
tanıqlı
tanıs
tanısadı
tanıstıradı
tanıstırıp
tanısıp
tanıw
tap
tapildi
tapqan
tapsıradı
tapsırdı
tapsırg
tapsırıladı
tapsırılg
tapti
taptı
taq
taqaladı
taqır
taqıya
taqıyatas
tar
tarag
taralg
taralıp
taraqqiy
taraw
tarawda
tarawdın
tarawi
tarawlar
tarawlarda
tarawlarg
tarawları
tarawlarına
tarawlarında
tarawlarındag
tarawı
tarawın
tarawına
tarawında
tarawındag
tarepinen
targ
tariyx
tariyxda
tariyxi
tariyxiy
tariyxqa
tariyxshılar
tariyxshılardın
tariyxshısı
tariyxta
tariyxı
tariyxın
tariyxına
tariyxında
tariyxındag
tariyxının
tariyxıy
tarizli
tark
tarlı
tarmag
tarmaq
tarmaqlar
tarmaqları
tarmaqların
tarmoqdir
tarqaldı
tarqalg
tarqalıw
tarqalıwı
tarqalıwına
tarqatıp
tarqatıw
tartadı
tartatug
tartip
tartqan
tarttı
tartıladi
tartıladı
tartılatug
tartılg
tartıp
tartıslar
tartıslı
tartıw
tartıwda
tarı
tarıyxı
tarıyxıy
tas
tasbaqa
tasbaqalar
tashkent
tashkentde
tashkentke
tashkentte
tashkenttegi
tashkil
tashqari
tasi
tasladı
taslag
taslanadı
taslandı
taslang
taslanıp
taslap
taslar
taslardın
tasları
taslaw
taslaydı
taslı
tasqa
tasqın
tastap
tastın
tastıyıqlang
tastıyıqlaw
tastıyıqlaydı
tastıyıqlaytug
tasviriy
tasıp
tasıw
tat
tatar
tatarlar
tatarstan
tatımlıqlar
taw
tawardın
tawdın
tawi
tawlar
tawlarda
tawlardan
tawlari
tawları
tawlarınan
tawlarında
tawlarının
tawlı
tawsılg
tawı
tawının
tawıp
tawıq
tawıqlar
taxiyatas
taxt
taxtako
taxtın
tay
tayaq
tayar
tayarlag
tayarlanadı
tayarlanatug
tayarlandi
tayarlang
tayarlanıp
tayarlap
tayarlaw
tayarlawda
tayarlawg
tayarlaydı
tayarlaytug
tayarliq
tayarlıq
taylor
taypey
tayvan
tayın
tayınlanadı
tayınlandi
tayınlang
tayınlaydı
taza
tazabag
tazadan
tazalang
tazalap
tazalaw
tbilisi
tc
tcp
tdi
te
team
teams
teatr
teatrda
teatrdın
teatrg
teatri
teatrlar
teatrları
teatrı
teatrında
teatrının
tebriz
technology
teda
tedi
tegis
tegisligi
tegislik
tegislikler
tehran
tek
teke
tekg
tekserip
tekseriw
tekst
teksti
tekstin
tekstli
tekstti
teksttin
tektonik
tele
telefeleton
telefeletonnın
telefon
telegraf
telegram
telejurnalist
telejurnalistikanın
telekanal
telekanali
telekanalı
telekanalında
teleko
teleradiokompaniyasi
teleradiokompaniyası
telereportajdın
telesa
telesholıwdın
teletamashago
televidenie
televideniedin
televidenienin
televideniesi
televideniye
television
televiziyalıq
televizor
tem
tema
temada
temag
temalar
temanı
teması
temasın
temasına
temasında
tematikalıq
tematikası
temeki
temir
temirbaev
temperatura
temperaturası
temur
temurdin
temurdın
temuriylar
ten
tennis
tennisi
tennisshi
tennisshiler
teologiya
teoriya
teoriyalıq
teoriyası
teoriyasının
tepov
tepovtın
ter
terdi
tere
teredi
teregi
terek
terekler
tereklerdin
teren
tergew
teri
terildi
teriledi
terilgen
terilip
terilis
terilisi
teriliske
teriluvchi
terin
terip
teris
terisi
terisinen
teriw
term
terme
termin
terminal
termini
terrace
territoriyasında
tesh
tesi
teskeri
tesla
test
tetug
tetum
tew
texas
texnik
texnika
texnikalıq
texnikanın
texnikası
texnologiya
texnologiyalar
texnologiyaları
texnologiyalıq
texnologiyası
text
teydi
tez
tezirek
tezletti
tezligi
tezligine
tezlik
tg
th
than
that
the
their
they
thimphu
things
this
thomas
three
through
thumb
ti
tianjin
tibet
tig
tigilgen
tigip
tigiwshilik
tik
tikkeley
tiklengen
tikleniwi
tiklew
tiklewge
til
tilde
tildegi
tilden
tildi
tildin
tiledi
tilek
tilekke
tilep
tilge
tilgen
tili
tilin
tilinde
tilindegi
tiline
tilinen
tilinin
tilip
tillaxan
tiller
tillerde
tillerdegi
tillerden
tillerdi
tillerdin
tillerge
tilleri
tillerin
tillerinde
tillerine
tillerinen
tillerinin
tilles
tim
time
times
timor
timur
tin
tini
tinish
tinligin
tinlik
tip
tipi
tipidagi
tipik
tir
tiragi
tirana
tirap
tiraplarında
tiraptag
tirapı
tirapın
tirapına
tirapında
tirapındag
tirek
tiri
tirik
tirishiligi
tirishilik
tirishiliktin
tirkewishler
tiroksin
titanik
title
tiw
tiwge
tiwi
tiwshi
tiwshilik
tiya
tiyedi
tiygen
tiygizdi
tiygizgen
tiyip
tiyis
tiyisinshe
tiyisli
tiyje
tiyjede
tiyjeler
tiyjeleri
tiyjelerin
tiyjelerine
tiyjeli
tiyjesi
tiyjesinde
tiykar
tiykarda
tiykarg
tiykarin
tiykarinan
tiykarinda
tiykarlan
tiykarlanadı
tiykarlang
tiykarlanip
tiykarlanıp
tiykarları
tiykarlawshisi
tiykarshısı
tiykarı
tiykarın
tiykarınan
tiykarında
tiykarındag
tiyse
tk
tken
tkenligi
tkennen
tkerdi
tkeredi
tkergen
tkerildi
tkeriledi
tkeriletug
tkerilgen
tkerilip
tkeriliwi
tkerip
tkeriw
tkeriwge
tkil
tkilley
tkir
tkizedi
tkizgen
tkizgish
tkiziledi
tkiziletug
tkizilgen
tkiziliwi
tkizip
tkiziw
tl
tler
tleri
tli
tlik
tm
tmish
tmishte
tnk
tnknın
to
tobıq
today
tog
togo
togı
tok
tokiyo
tokyo
tokıo
tolg
toliq
tolqın
tolqınlar
tolstov
toltırıw
tolı
tolıg
tolıp
tolıq
tolıqlawısh
tolıqtırıp
tolısıp
tom
tomas
tome
tomlıg
tomlıq
tomonidan
tomı
tomında
ton
tonga
tonna
tonnadan
top
topalan
topar
topardın
toparg
topari
toparlar
toparlarg
toparı
toparın
toparına
toparının
topgu
toplag
toplam
toplami
toplamları
toplamı
toplamın
toplamına
toplamında
toplang
toplap
toplar
toplaw
topografiyalıq
toptı
topırag
topıraq
topıraqlar
topıraqqala
topıraqta
topıraqtın
toq
toqsan
toqtamıs
toqtap
toqtatqan
toqtattı
toqtatıw
toqıladı
toqılg
toqıma
toqımalar
toqımashılıq
toqıması
tor
toran
torg
toronto
torı
tosattan
toshkent
tosqınlıq
tosınnan
tosınnanlı
tosıq
totı
totınama
tour
tournament
tovar
tovardin
tovarlar
tovarlardı
tovarların
tower
towns
toxaristan
toxarlar
toy
toydın
toyg
toylarda
toyların
toyo
toyota
toyı
toyın
tpegende
tpey
tq
tr
tragediya
trakto
traktor
traktorlar
tramp
tramvay
transnatsional
transport
transportı
trast
trias
trinidad
tropik
tropikalıq
trump
ts
tse
tshi
tsingy
tsiz
tt
tta
tte
tteki
tti
ttin
tu
tuamasina
tug
tulg
tulpar
tumaris
tumsıg
tun
tundra
tunis
tuqım
tur
tura
turadi
turadı
turan
turaq
turaqlı
turaqlılıg
turar
turatug
turde
turdı
turg
turi
turin
turismo
turizm
turk
turkcha
turkey
turkish
turkiston
turkiy
turkiya
turkiyanın
turkmen
turkmenistan
turlari
turli
turmay
turmis
turmıs
turmıslıq
turmısqa
turmısta
turmıstag
turmıstan
turmıstın
turmısı
turmısın
turmısına
turmısınan
turmısında
turmısındag
turmısının
turnir
turnirda
turnirde
turniri
turnirida
turnirında
tursan
turı
turıladı
turıp
turıptı
turıw
turıwshı
turıwı
tusedi
tusip
tusken
tusti
tut
tutadı
tutas
tutasadı
tutasqan
tutasıp
tutatug
tutqan
tutqın
tutqıng
tutıldı
tutılg
tutınıw
tutıp
tutıw
tuva
tuvalu
tuw
tuwadı
tuwg
tuwilg
tuwra
tuwrali
tuwralı
tuwri
tuwrı
tuwrıdan
tuwrılıq
tuwrısında
tuwrısındag
tuwıladı
tuwıldı
tuwılg
tuwılıp
tuwılıw
tuwılıwı
tuwıs
tuwısqan
tuyag
tuyg
tuz
tuzildi
tv
twitter
two
tyan
tyanshan
tyias
type
tı
tıg
tımsal
tın
tınımsız
tınıq
tınısh
tınıshlıq
tınıshlıqtı
tıp
tırnalar
tırnaqgu
tırnaqları
tıs
tıshqan
tıshqanlar
tısqarı
tısqarıda
u
ua
uch
uchun
uefa
ufa
ug
uganda
uglerod
ugor
uilyam
uk
ukr
ukrain
ukraina
ukrainada
ukrainag
ukrainanın
ukraine
ukrainsha
ukrayina
ul
ulama
ulan
uli
uliwma
ulken
ullar
ulli
ullı
ultlıq
ulug
ulı
ulıg
ulın
ulısının
ulıwma
ulıwmalastırıw
ulıwmalıq
um
umtıldı
umtılıw
umumiy
un
unamlı
unamsız
und
under
unesco
uning
union
unitar
united
unitedning
unitedworldwrestling
universal
universitet
universiteta
universiteti
universitetida
universitetin
universitetinde
universitetine
universitetinin
universitetlerinde
universitette
university
uord
up
uploads
uqsag
uqsap
uqsas
uqsaslıg
uqsaydı
uqıp
uqıplı
uqıplılıg
ur
uradi
uradı
ural
uran
uranı
urdı
urg
uri
uris
urista
uristi
uristin
url
urlım
urug
uruguay
urugvay
uruj
urılg
urıp
urıq
urıs
urıslar
urısları
urısqa
urısta
urıstan
urıstın
urısı
urısınan
urısında
urıw
urıwlar
urıwlardın
urıwları
urıwı
us
usa
usag
usap
usaqlap
use
usefiles
ush
ushi
ushin
ushinda
ushinshi
ushları
ushqır
ushraydı
ushraytug
ushun
ushı
ushın
ushında
ushıp
ushıradı
ushırag
ushırap
ushırasadı
ushırasatug
ushıraspaydı
ushırasıp
ushırasıw
ushırasıwda
ushırasıwında
ushıratamız
ushıratıw
ushıratıwg
ushırawı
ushıraydı
ushıraytug
ushıw
usi
usilay
uslap
uslaydı
usman
usta
ustap
ustası
ustavlıq
ustavı
ustaz
ustazlıq
ustazı
ustem
ustine
usı
usıg
usıl
usılar
usılay
usılayınsha
usılda
usıllar
usıllardı
usılları
usılların
usılı
usılın
usılına
usılınan
usılında
usınadı
usında
usınday
usınnan
usınıladı
usınıldı
usınılg
usının
usınıs
usınıslar
usınısı
utc
utemuratov
utqan
uttı
utılg
utıp
uwlı
uww
uy
uya
uyalı
uyg
uyqas
uyrenedi
uyreniwshi
uz
uzaq
uzaqlıqta
uzaqtan
uzatıladı
uzatılatug
uzatıldı
uzatılg
uzatılıp
uzatıp
uzatıw
uzbekistan
uzboy
uzinlig
uzinligi
uziy
uzın
uzınlıg
uzınlıq
v
va
vagon
valenciana
valensiya
valyuta
valyutası
van
vanuatu
var
variantları
variantı
varshava
vasco
vashington
vatikan
vaxsh
ve
veb
vec
vedalıq
vegetativ
veksel
vekselde
vekseldi
vekseldin
vela
velosiped
vena
veneciya
venera
veneranın
venesuela
venezuela
vengriya
ventyan
venues
verde
verdi
versailles
versal
versionid
versiyaları
versiyası
versiyasın
vert
vertikal
vesti
vestnik
vi
via
vice
vida
video
vietnam
view
vii
viii
viktor
viktoriya
vilnius
vinci
vino
vinsent
virtual
virus
viruslar
vitamin
vitse
vivo
vizantiya
vizual
vl
vladimir
vo
vodafone
vodorod
voight
vokal
vokzal
vol
voleybol
volga
volgograd
volkov
volkswagen
volkswagenag
volume
volvo
von
vr
vs
vt
vuds
vulkan
vulkanlar
vw
vwcorp
w
wa
wag
walayati
walayatı
wales
wall
wallace
wankel
waqit
waqitda
waqitta
waqittag
waqittan
waqiya
waqta
waqtinda
waqtı
waqtın
waqtında
waqtınin
waqtınshalıq
waqıt
waqıtda
waqıtlar
waqıtlarda
waqıtlarg
waqıtları
waqıtlarınan
waqıtlarında
waqıtqa
waqıtsha
waqıtta
waqıttag
waqıttan
waqıttı
waqıttın
waqıtı
waqıtında
waqıya
waqıyag
waqıyalar
waqıyalardı
waqıyalardın
waqıyalarg
waqıyaları
waqıyanı
waqıyanın
waqıyası
war
wargs
warhol
was
washington
wası
watan
watandarlıq
watandı
watanı
watanın
watch
watt
way
wayran
waz
waziypasi
wazıypa
wazıypalar
wazıypalardı
wazıypaları
wazıypaların
wazıypası
wazıypasın
wbet
wbeti
wbetinde
wbetler
wbette
wbettegi
wcturkey
wdi
we
web
webarchive
webarxiv
webcitation
websayti
websaytı
website
wele
wels
weri
weskerler
west
western
wez
wezov
what
when
white
who
wi
wide
wiganathletic
wij
wiki
wikimedia
wikipedia
wikipediada
wikipedianın
william
wilson
wim
wimler
wimlerden
wimlerdin
wimleri
wimlerinin
win
windows
winius
wip
wipli
wipsizligi
wipsizligine
wipsizlik
wir
wirde
wirdegi
wirden
wirdi
wirdin
wirge
wiri
wirinde
wirindegi
wirine
wirinen
wirinin
wirler
wirlerde
wirlerden
wirlerdi
wirlerge
wirlerinde
wirlik
wishte
with
within
without
wiy
wiyat
wiyatlar
wiz
wjar
wkele
wl
wlad
wladlar
wladlarg
wladları
wladlarına
wladqa
wladtan
wladı
wlelendirdi
wlelendiredi
wlelendirgen
wlelendirilgen
wlelendiriw
wlelendiriwshi
wlelenedi
wlelengen
wletbay
wletnazarov
wletov
wlik
wliye
wmetli
wo
wog
wol
wolar
women
womens
wonin
wonın
wood
woods
word
work
works
world
worldcup
worta
worıs
wp
wpi
wqaraev
wqaraevtın
wr
wre
wrestling
wret
wreti
wretin
wretke
wretlenedi
wretlengen
wretlep
wretler
wretlerdi
wretleri
wretlerin
wretlew
wretlewge
wretleydi
wretleytug
wretshi
wretshiler
wretshilerdin
wretshilerinin
wretshilik
wretshisi
wri
wright
wshi
wsim
wsimde
wsimi
wsiminde
wsimler
wsimlik
wsj
wsl
wspr
www
wı
x
xa
xabar
xabardar
xabardı
xabardın
xabarladı
xabarlar
xabarlardı
xabarshı
xabarı
xali
xalifa
xalil
xalimov
xaliq
xaliqlar
xaliqlardin
xaliqlari
xalq
xalqabad
xalqara
xalqaraliq
xalqi
xalqinin
xalqlar
xalqı
xalqımız
xalqımızdın
xalqın
xalqına
xalqında
xalqının
xalıq
xalıqaralıq
xalıqlar
xalıqlarda
xalıqlardın
xalıqlarg
xalıqları
xalıqlarının
xalıqlıq
xalıqqa
xalıqtan
xalıqtı
xalıqtın
xam
xammurapi
xamsa
xan
xanchjou
xang
xanlıg
xanlıq
xanlıqqa
xannın
xanoy
xanzada
xanı
xanım
xanının
xarakterge
xarakteri
xarakterin
xarakterlenedi
xarakterler
xarakterli
xat
xatker
xatkeri
xatqa
xatı
xayriddin
xi
xianfan
xii
xiii
ximigi
ximik
ximiya
ximiyalıq
ximiyası
xiratqa
xirosima
xit
xiv
xiva
xix
xiywa
xiywada
xiywag
xizmet
xizmetkeri
xj
xk
xo
xoja
xojalig
xojalıg
xojalıq
xojalıqları
xojalıqlarında
xojanazarova
xojaniyazov
xojeli
xor
xorasan
xorezm
xorezmde
xorezmge
xorezmiy
xorezmliler
xorezmnin
xorvat
xorvatiya
xorvatiyanın
xorvatlar
xorxe
xos
xose
xosh
xq
xristian
xtf
xu
xuan
xudojnik
xusayn
xv
xvf
xvi
xvii
xviii
xx
xxi
xızmet
xızmeti
xızmetin
xızmetinde
xızmetine
xızmetinin
xızmetker
xızmetkeri
xızmetkerler
xızmetkerleri
xızmetkerlerine
xızmetler
xızmetlerdi
xızmetlerge
xızmetleri
xızmetlerin
xızmette
y
ya
yad
yadlap
yadqa
yadro
yadrolar
yadroları
yadtan
yag
yaguar
yahoo
yaki
yakobson
yakonov
yale
yalg
yamasa
yan
yana
yang
yangi
yangiliklar
yani
yanv
yanvar
yanvarda
yanvardan
yanvardin
yanvardın
yapon
yaponiya
yaponiyada
yaponiyalıq
yaponiyanın
yaponsha
yar
yaramazan
yaranlar
yari
yarim
yarus
yarygin
yarım
yarımsharda
yarımsharlar
yarımı
yarımına
yarımınan
yarımında
yas
yashaydilar
yat
yava
yazıke
yd
yda
yde
ydi
ydin
ydı
ydın
ye
year
years
yedi
yegi
yek
yeki
yekleri
yekti
yel
yellow
yemen
yemgi
yemgı
yen
yenin
yer
yesh
yeshli
yeshlik
yesi
yeski
yeti
yetip
yevropa
yew
yewi
yge
ygen
yi
yicha
yig
yikli
yiklisi
yil
yilda
yilde
yildın
yilgi
yin
yinde
yine
yinen
yini
yinin
yip
yir
yit
yiw
yiwshilik
yiz
ykeli
ykenbe
ykes
yl
yla
ylegen
ylek
ylendiriw
ylenedi
ylengen
ylep
yler
ylerde
ylerdi
ylerdin
ylerge
yleri
ylerinde
ylesedi
ylesetug
ylesip
ylesiw
ylesiwshi
ylesiwshiler
ylew
ylewde
ylewi
yleydi
yleytug
yli
ymegenge
yne
ynek
yneklerin
yo
yod
yog
york
yorktag
yosh
you
youth
youtube
yregi
yrek
yrekler
yrendi
yrenedi
yrenetug
yrengen
yreniledi
yreniletug
yrenilip
yrenip
yreniw
yreniwdi
yreniwge
yreniwi
yreniwshi
yretedi
yt
ytan
yten
ytip
ytkeni
yu
yuan
yugnakiy
yugoslaviya
yugoslaviyanın
yugoslavskogo
yuliy
yumor
yumorlıq
yun
yunan
yunanshe
yunon
yunonlar
yup
yupik
yupiter
yupiterdin
yura
yuridikalıq
yurist
yusip
yusup
yusupov
yusupova
yusupovtın
yuventus
yuz
yuzaga
yyemgi
yyemnen
yı
yıladı
yınsh
z
za
zag
zaglavie
zal
zalar
zalardın
zalari
zaları
zalarının
zalı
zalıg
zalım
zaman
zamanago
zamanda
zamang
zamanlarda
zamanlardan
zamanlas
zamanlası
zamanı
zamanında
zamanının
zamaxshariy
zamira
zan
zar
zarafshan
zardusht
zarhal
zaro
zasi
zası
zat
zatlar
zatlardan
zatlardı
zatlardın
zatlarg
zatları
zatların
zatlıq
zatqa
zattin
zattı
zattın
zavod
zavodlar
zavodları
zavodlarında
zavodı
zavodında
zb
zbe
zbek
zbekistan
zbekistanda
zbekistandag
zbekistannın
zbekiston
zbekler
zbekshe
zbekstan
zbekstanda
zbekstandag
zbekstang
zbekstanlıq
zbekstannın
zde
zden
zdi
zdin
ze
zealand
zedi
zege
zek
zel
zelandiya
zen
zeppelin
zer
zerbayjan
zerbayjannın
zerde
zergerlik
zetiledi
zetip
zetiw
zeyi
zg
zge
zgen
zgerdi
zgeredi
zgergen
zgerip
zgeris
zgeriske
zgerisler
zgerislerdi
zgerislerge
zgerisleri
zgeriwi
zgeriwine
zgeriwshen
zgerte
zgertip
zgertirildi
zgertirilgen
zgertiriw
zgertiw
zgertiwler
zgeshe
zgesheligi
zgesheligine
zgeshelikke
zgeshelikler
zgesheliklerge
zgeshelikleri
zgesheliklerin
zhuanginda
zi
zia
zig
zik
zika
zil
zildi
ziledi
ziletug
zilgen
zilgennen
zilik
zilip
zilis
zilisi
zilisine
zilisinin
ziliske
zim
zimdi
zimi
zimine
zimnin
zin
zinde
zindegi
zindileri
zine
zinen
zinin
zinizdin
zinshe
zip
zir
zirde
zirge
zirgi
ziri
zirk
zirshe
zirvak
zirvakka
ziw
ziwde
ziwge
ziwshi
ziya
ziyan
ziyat
ziyouz
ziyre
ziyrek
ziz
zl
zlatan
zlegen
zlengen
zler
zlerde
zlerden
zlerdi
zlerdin
zlerge
zleri
zlerin
zlerinde
zlerine
zlerinen
zlerinin
zlestirgen
zlestirilgen
zlestiriw
zlestirme
zligi
zligin
zlik
zlikler
zliksiz
zlikti
zme
zona
zonalar
zonalarda
zonaları
zonallıq
zonası
zond
zoologiya
zor
zorlıq
zoroastrizm
zqarastan
zqarasınan
zr
zrail
zsiz
zu
zulfiya
zur
zzal
zzallıg
zzel
zzi
zırgı
zıyada
zıyan
zıyankes
zıyanlı
zıyarat
zıyat
{
|
}
~
£
§
«
®
°
±
²
³
µ
»
¼
½
¿
×
ı
ıda
ıdan
ıday
ıdıs
ıdıslar
ıg
ıl
ıladı
ılar
ılatug
ılay
ılaydan
ılayıq
ılayıqlı
ıldı
ılg
ıllanadı
ıllanatug
ıllandı
ıllang
ıllanıp
ılı
ılıg
ılıp
ılıq
ım
ımlı
ımsız
ımı
ımında
ımının
ın
ına
ınan
ınası
ında
ındag
ıng
ınin
ınlıg
ınshı
ını
ının
ıp
ıqlas
ıqlım
ıqsham
ıqtıyarına
ır
ıraq
ırat
ıratqa
ıratta
ıraw
ırg
ırlar
ırı
ıs
ısda
ısdan
ısh
ıshlag
ıshlang
ıshlar
ıshlaydı
ıshlı
ıshqa
ıshqı
ıslar
ısları
ıslı
ısqa
ıssı
ısta
ıstag
ıstan
ıstaw
ıstın
ısı
ısın
ısında
ısındag
ıt
ıw
ıwda
ıwdan
ıwdı
ıwg
ıwlar
ıwshı
ıwshılıg
ıwshılıq
ıwı
ıwın
ıwına
ıwınan
ıy
ıyda
ıydalar
ıydalardı
ıydalarg
ıydaları
ıydaların
ıydalarının
ız
ızadı
ızda
ızdı
ızg
ızlar
ızlarda
ızlardın
ızlıg
ızlıq
ızsha
ızstan
ızınshı
ızıstan
ə
ʲ
ʻ
ʼ
ˈ
ˌ
ː
̀
́
̂
̃
̄
̆
̇
̈
̊
̌
̓
̔
̛
̣
̥
̧
̨
̩
͂
α
β
γ
ε
ζωη
η
θ
μ
ν
ο
ος
π
ρ
ρχαι
ς
τ
υ
φ
ω
а
автор
ажланыу
ажыратыу
аи
алыу
анализ
анықлап
анықлау
апрель
апреля
ара
атлы
атындағы
б
баи
бар
барлық
баспасы
басқа
бекбергенова
белгили
бердақ
бет
библиографиялық
бир
бири
бирине
бирлиги
бирлик
болады
болса
болып
болыу
большая
большое
болған
бу
бул
бундаи
в
г
гвоздецкии
ге
географиясы
год
года
города
городам
д
да
данных
дата
де
деп
ды
дың
дүзилиси
дәслеп
е
егор
еди
еки
енциклопедия
есапланады
ең
ж
жазыу
жау
жағдаи
жителеи
жыл
жылы
жүдә
және
з
заглавие
и
из
издание
издательство
изертлеу
ии
илимии
исаченко
исли
ишинде
ишки
июля
к
ка
казахстан
как
кар
каракалпакстан
карта
карғы
ке
келеди
керек
киши
класс
классификация
классификациялау
классификациясы
классы
книга
концерти
көп
л
ландшафт
ландшафтлар
ландшафтларды
ландшафтлардың
ландшафтлары
ландшафттаныу
ланыслы
лар
лы
м
ма
мат
мағлыу
ме
мен
менен
метро
мозг
мозга
москва
московскои
музеи
муниципалитета
мүмкин
мәмлекетлик
мәтін
н
на
населения
наука
нашрга
неи
николаев
номер
нөкис
о
области
область
областям
обращения
ол
олардың
онам
оның
официальныи
п
по
портал
постоянных
профил
р
ра
раи
рау
ред
республикасы
республике
республики
рк
рловчи
родов
россии
с
саи
серия
система
ская
скии
словарь
собетская
солодка
страницы
суу
сыпатында
сыяқлы
сөзлиги
т
та
таи
тарии
тау
те
театрында
тегислик
тегі
тек
телевидение
тесла
тии
тилиниң
том
томлық
туу
түр
түрли
түсиндирме
тәбии
тәрепинен
у
узбекистан
узбекистана
усы
ушын
ф
х
ха
хо
хыи
ц
ч
численность
число
ш
шылары
шығыу
щ
ъ
ы
ын
ыс
ь
э
энциклопедическии
энциклопедия
ю
я
язык
ямаса
января
яғныи
і
ғ
ға
қ
қазақ
қандаи
қарақалпақ
қарақалпақстан
қәсии
ү
үи
үлкен
ҳ
ҳаққында
ҳәм
ҳәр
ҷ
һ
ә
әҳмии
ө
өз
ָ
ׁ
י
ל
ם
ש
ا
الا
ة
ر
ز
س
ش
ع
ك
م
ٌ
َ
ُ
ِ
ّ
ْ
ٓ
ٔ
ٕ
٫
ं
क
द
स
ा
ि
्
ፄ
​
‌
‎
‑
‒
–
—
―
‘
’
‚
“
”
„
‟
•
…
′
″
⁡
€
№
→
↔
↷
∂
∈
−
∗
∫
≈
⋅
③
④
⑦
☆
⚔
❗
⺀
⺄
⺆
⺈
⺊
⺌
⺕
⺝
⺸
⺼
⿰
⿱
⿲
⿳
⿴
⿵
⿶
⿷
⿸
⿹
⿺
⿻
〢
゙
ア
コ
ユ
㇁
㇂
㇄
㇇
㇈
㇉
㇓
㐁
㐄
㐅
㐌
㐫
㐬
㐭
㐮
㐱
㑒
㒵
㒸
㒼
㓁
㓞
㔾
㕛
㕣
㖾
㘝
㚅
㚇
㚔
㚘
㝉
㝡
㝴
㝵
㞋
㞢
㞷
㠩
㠭
㠯
㡀
㡭
㡿
㢲
㢴
㣇
㣺
㥯
㪅
㫄
㫐
㫒
㫺
㬅
㬎
㬥
㬰
㲋
㳄
㷠
㸒
㸚
㸦
㼌
㼲
㽞
㿟
䀠
䂞
䍃
䏍
䒑
䖍
䖒
䖝
䖵
䙴
䚻
䜌
䝿
䡛
䧹
䪞
一
丁
丂
七
丄
丅
丆
万
丈
三
上
下
丌
不
与
丏
丐
丑
专
且
丕
世
丘
丙
业
东
丞
丢
丣
两
严
並
丨
丩
个
丫
丬
中
丮
丰
丱
串
丵
丶
丷
丸
丹
为
主
丽
丿
乀
乂
乃
久
乆
乇
么
义
之
乌
乍
乎
乏
乐
乑
乔
乖
乗
乘
乙
乚
乛
乜
九
乞
也
习
乡
乳
乾
亀
亅
了
亇
予
争
事
二
亍
于
亏
亐
云
互
亓
五
井
亘
亚
亜
亞
亟
亠
亡
亢
交
亥
亦
产
亨
亩
享
京
亭
亮
亯
亰
亲
亳
亶
亷
人
亻
亼
亾
仁
今
介
仌
从
仐
仑
仒
仓
仕
他
付
仝
代
令
以
任
企
伊
伏
伐
休
会
伯
但
位
何
佘
余
作
佥
使
來
侈
侌
侖
侯
侵
便
保
俞
信
修
倉
倍
候
倠
備
僉
僕
儿
兀
允
兂
元
兄
充
兆
兇
先
光
兊
克
兌
免
兑
兒
兓
兔
党
兜
兟
入
全
兩
兪
八
公
六
兮
兰
共
关
兴
兵
其
具
典
兹
兼
冀
冂
冃
冄
内
冈
冉
冊
冋
册
再
冎
冏
冐
冒
冓
冖
冗
冘
军
农
冝
冡
冥
冫
冬
冷
几
凡
凢
凵
凶
凷
凸
凹
出
函
凾
刀
刁
刂
刃
刄
刅
分
切
刍
刑
刕
刖
列
刘
则
初
別
利
别
到
制
刺
則
削
剌
前
剡
剽
劉
力
功
加
劦
助
劫
劳
劵
勃
勇
勉
勒
動
務
勞
勤
勹
勺
勻
勾
勿
匀
匂
包
匆
匈
匊
匋
匍
匕
化
北
匚
匝
匡
匪
匱
匸
匹
区
医
匽
匿
區
十
卂
千
卄
卅
卆
升
午
卉
半
卌
华
卑
卒
卓
单
卖
南
卜
卝
卞
占
卡
卢
卣
卤
卦
卩
卪
卬
卯
印
危
即
却
卵
卷
卸
卻
厂
厃
厄
历
厈
厉
厌
厓
厘
厚
原
厤
厥
厨
厭
厲
厶
厷
厸
去
厼
厽
叀
参
參
叅
又
叉
及
友
双
反
叐
发
叒
叔
叕
取
受
叚
叜
叟
口
古
句
另
叩
只
召
可
台
叱
史
右
叵
号
司
叹
吂
各
吅
合
吉
吊
吋
同
名
后
吏
向
吕
君
吝
吞
否
含
启
吳
吴
吹
吾
呂
呆
呈
告
员
呙
周
命
咅
和
咎
咠
咢
咨
咸
咼
哀
品
哉
員
哥
哲
唐
商
啇
問
啚
啬
啻
善
喜
喬
單
喿
嗇
噩
嚴
囊
囗
囘
囙
囚
四
回
囟
因
囧
囬
困
囱
囷
固
国
圂
圅
國
圍
圓
土
圡
圣
圥
在
圭
地
圶
圼
坐
坒
坚
坴
垂
垔
垚
埀
埋
埶
執
基
堂
堅
堆
堇
堯
塞
墨
壘
士
壬
壯
声
壳
壴
壹
壺
壽
夂
处
夅
夆
备
夊
夋
夌
复
夏
夒
夕
外
夗
夘
多
夜
夢
大
夨
天
太
夫
夬
夭
央
失
夲
头
夷
夸
夹
夻
夾
奂
奄
奇
奈
奉
奎
奏
奐
契
奓
奔
奚
奞
奠
奢
奥
奭
女
奴
奻
好
如
妄
妙
妟
妥
妻
妾
姑
姓
委
姜
威
娄
婁
婴
嬰
嬴
子
孑
孔
孕
孖
字
存
孚
孛
孝
孟
季
孤
学
孫
孱
學
宀
宁
宂
它
宅
宇
守
安
宋
完
宏
宓
宗
官
定
宛
宜
宝
客
宣
室
宮
宰
害
家
容
宾
宿
寄
寅
密
富
寒
察
寧
審
寫
寬
寮
寸
对
寺
寻
寽
対
寿
封
尃
射
将
將
專
尉
尊
尋
尌
對
小
少
尒
尓
尔
尖
尗
尚
尞
尢
尣
尤
尧
尨
尭
就
尸
尹
尺
尻
尼
尽
尾
尿
局
居
屈
屋
屎
屏
屑
展
屖
屚
属
屠
屡
屬
屮
屯
屰
山
屵
屾
岁
岂
岑
岡
岩
岳
岸
峯
島
崇
崑
崔
崖
崙
崩
嵬
嶲
巂
巛
川
州
巟
巠
巢
巤
工
左
巧
巨
巩
巫
差
己
已
巳
巴
巷
巸
巽
巾
巿
帀
市
布
希
帚
帛
帝
带
師
席
帶
常
干
平
年
幵
并
幷
幸
幺
幻
幼
幽
幾
广
広
庄
床
底
店
庚
府
度
庫
庭
庶
康
庸
廉
廌
廛
廣
廩
廴
延
廷
建
廾
廿
开
弁
弃
弄
弇
弋
式
弓
弔
引
弗
弘
弜
弟
弥
弦
弱
張
強
强
彊
彌
彎
彐
彑
归
当
彔
录
彖
彗
彡
形
彥
彦
彧
彭
彳
役
彼
往
待
律
徒
得
徙
從
復
微
徵
心
忄
必
忌
忍
志
忝
忠
忩
快
念
忽
忿
思
怠
急
怱
恆
恒
恩
恭
息
悉
患
悤
悲
悶
惠
惡
惢
愁
愈
意
愛
感
慈
慧
慮
憂
憲
應
戀
戈
戉
戊
戋
戌
戍
戎
成
我
戒
戔
或
戚
戠
戢
截
戲
戶
户
戹
戼
戾
房
所
扁
扇
手
扌
才
打
托
执
承
折
拉
拜
拿
掌
推
提
援
摩
支
攴
攵
收
攸
改
放
政
敄
敏
敕
敖
敗
敝
敞
敢
散
敦
敫
敬
数
敷
數
斂
文
斉
斊
斗
斤
斥
斩
斬
斯
新
方
於
施
斿
旁
旋
族
无
旡
既
旣
日
旦
旧
旨
早
旬
旱
旲
时
旾
昆
昇
昌
昍
明
昏
易
昔
昗
昜
星
春
昬
是
昱
昴
昷
時
晃
晋
晏
晓
晨
普
景
晶
智
暑
暴
曇
曩
曰
曲
曳
更
曷
書
曹
曼
曾
替
最
朁
會
月
有
朋
服
朔
朕
朗
望
朝
木
朩
未
末
本
札
朮
术
朱
朴
朵
朶
朿
杀
杏
杜
束
条
来
杨
杯
東
杲
杳
松
析
林
枚
果
枝
枲
枼
某
柔
查
柬
柰
柴
栗
株
桀
桑
桼
梁
條
梟
梨
棘
棠
棥
森
楚
業
楽
榮
樂
樊
欠
次
欣
欮
欲
欶
欽
款
歆
歇
歛
止
正
此
步
武
歨
歪
歮
歯
歰
歲
歴
歷
歸
歹
歺
死
殳
段
殷
殸
殹
殺
殻
殿
毋
毌
母
每
毒
比
毕
毚
毛
毳
氏
氐
民
气
氣
水
氵
氶
氷
永
氺
氾
求
汝
汞
江
沃
沓
沙
沝
泉
法
波
泣
泥
泰
洛
洪
活
派
流
浦
浪
浮
淡
淮
清
渚
渠
湯
滿
漸
潘
火
灬
灭
灰
灵
灷
炅
炎
炏
炗
炙
炭
為
烈
烏
烝
焉
無
焦
焱
然
煞
熊
熏
燕
營
燮
爪
爫
爭
爯
爰
爱
爲
爵
父
爻
爽
爾
爿
片
牙
牚
牛
牜
牟
牢
牧
牪
牽
犀
犬
犭
犮
狂
狄
狊
独
狺
猋
猒
猪
献
獻
玄
率
玉
王
玟
玨
现
珎
班
球
琴
瑟
瑩
璠
瓜
瓦
甘
甚
生
産
用
甫
甬
田
由
甲
申
电
甶
男
甸
甹
画
甾
畀
界
畏
畐
留
畜
畟
畢
畧
畨
番
畫
異
畱
當
畺
畾
疊
疋
疌
疑
疒
疾
癶
癸
癹
登
發
白
百
皀
皃
的
皆
皇
皋
皐
皕
皮
皷
皿
盃
盆
盇
盈
益
盍
盎
监
盒
盖
盛
盡
監
盤
盧
目
直
相
盾
省
眇
眉
看
県
眔
眞
真
眷
眼
眾
着
睘
睪
睿
瞏
瞢
瞿
矍
矛
矞
矢
矣
知
矦
短
石
破
碎
磊
磨
示
礻
礼
社
祟
票
祭
禀
禁
禸
禹
禺
离
禽
禾
禿
秀
秃
秉
秋
科
秝
秦
移
稟
穀
穌
穴
究
穹
空
穿
突
窄
窒
立
竒
竜
竝
竟
章
童
竹
笑
笠
筆
等
答
箕
算
箴
節
篤
篭
籍
米
类
粉
粛
粟
粤
粦
粲
糞
糸
糹
系
約
納
素
索
紫
累
細
絜
絫
絲
維
綿
縣
繇
纍
纟
缶
网
罒
罔
罕
罗
罙
罡
罢
罪
署
罷
羅
羊
羌
羍
美
羔
羕
羗
羞
羡
羣
群
義
羲
羸
羽
翁
翏
習
翕
翟
翠
翼
老
耂
考
者
耆
而
耎
耑
耒
耳
耴
耶
耷
聂
聊
联
聖
聚
聶
聿
肀
肃
肅
肉
肖
肙
肥
肩
肯
育
肴
胃
背
胡
胥
能
脊
脩
膚
臣
臤
臧
自
臬
臭
臯
臱
至
致
臺
臼
臽
臾
臿
舀
舂
舄
與
興
舉
舌
舍
舛
舜
舞
舟
般
艮
良
色
艸
艹
艾
芒
芔
芬
芮
花
芳
芺
芻
苔
苗
苟
若
苦
英
茶
茸
荅
草
荒
荣
荼
莆
莧
莫
莽
菆
菊
菐
華
萬
落
葉
著
葛
董
葵
蒋
蒙
蒦
蒼
蓋
蓬
蓺
蔑
蔡
蕉
蕭
薄
薛
薦
薰
藍
藏
藥
蘭
虍
虎
虐
虒
虔
處
虖
虗
虘
虚
虛
虜
虞
虫
虽
蚤
蚩
蜀
蜜
蟲
蠡
血
行
衍
衛
衣
衤
表
衮
衰
袁
袞
褭
褱
襄
襾
西
覀
要
覃
見
規
覓
覧
親
覽
见
角
解
言
訁
訇
計
詹
語
誩
諸
讠
谷
豆
豈
豊
豐
豕
豖
豙
象
豦
豩
豪
豸
貇
貝
貞
貟
負
貢
貧
貪
貫
責
貳
貴
買
費
賁
資
賈
賏
賓
賔
賛
賞
賢
賣
質
賴
贊
贝
贡
责
贯
贲
贵
赖
赞
赤
赦
走
越
足
路
蹇
身
躬
車
軍
軎
軟
輦
车
辈
辛
辜
辟
辥
辰
辱
農
辵
辶
边
达
过
近
连
迷
追
退
送
逆
逐
通
速
造
逢
連
逮
進
遀
遂
過
道
達
遣
適
遷
遺
邊
邑
邕
那
邦
邪
郎
部
郭
都
鄉
酉
酋
配
酓
釆
采
里
重
野
量
金
釒
錢
钅
長
镸
长
門
閃
閉
開
閏
閑
閒
間
閔
閵
閻
闌
门
间
闷
阑
阜
阝
阳
阿
降
陳
隆
隊
隋
隡
隨
隱
隶
隹
隺
隻
隼
隽
难
雀
雁
集
雈
雋
雍
雐
雔
雙
雚
雜
雝
離
難
雨
雩
雪
雲
零
雷
電
需
霍
霜
霝
霞
霸
靈
靑
青
非
靡
面
靣
革
韋
韦
韭
韯
韱
音
頁
頃
項
須
頗
頡
頻
顛
页
風
风
飛
飞
食
飠
養
饣
首
香
馬
馮
駦
马
骨
高
髟
鬥
鬯
鬲
鬼
魚
魯
鮮
鱼
鲁
鳥
鳳
鸟
鹵
鹿
麃
麗
麥
麦
麻
黃
黄
黍
黎
黑
黒
黨
黹
黽
黾
鼎
鼓
鼠
鼻
齊
齋
齐
齒
齿
龍
龙
龜
龟
龠
龰
龱
龴
龵
龶
龷
龸
龹

者
艹
️
﻿
，
：
？
�
🏵
𠀁
𠀃
𠀆
𠀉
𠀎
𠀐
𠁁
𠁣
𠂆
𠂇
𠂈
𠂉
𠂊
𠂋
𠂎
𠂒
𠂔
𠂛
𠂡
𠂢
𠂤
𠂬
𠂭
𠂹
𠃊
𠃋
𠃌
𠃍
𠃎
𠃑
𠃓
𠃔
𠃜
𠄌
𠄎
𠄠
𠄢
𠆢
𠆥
𠇍
𠈌
𠌵
𠓜
𠔉
𠔥
𠔼
𠔽
𠔿
𠕀
𠕁
𠕋
𠘧
𠘨
𠙻
𠙼
𠚏
𠚒
𠚤
𠚪
𠣏
𠤎
𠤕
𠥓
𠦄
𠦑
𠦝
𠧒
𠧗
𠧪
𠩺
𠪚
𠫓
𠫔
𠫤
𠬛
𠬝
𠬞
𠬢
𠬤
𠬶
𠮛
𠮦
𠮷
𠯑
𠱠
𠳮
𠷎
𡈼
𡉀
𡉵
𡌥
𡍮
𡏳
𡕒
𡕩
𡕰
𡖅
𡗗
𡗜
𡘆
𡘤
𡧱
𡨄
𡩧
𡬠
𡭽
𡰣
𡰥
𡰪
𡰯
𡰱
𡷈
𡸁
𡿨
𡿩
𡿪
𡿺
𢀖
𢀛
𢀩
𢁙
𢆉
𢆰
𢆶
𢇁
𢇇
𢉖
𢌬
𢌿
𢏚
𢑑
𢑚
𢖻
𢙣
𢛳
𢦏
𢦒
𢧵
𢼄
𢾕
𣁋
𣄼
𣅀
𣅽
𣍘
𣎳
𣎵
𣏋
𣏼
𣗥
𣥂
𣥖
𣦵
𣦼
𣧄
𣪊
𣪠
𣬉
𣳾
𣶒
𤇾
𤊽
𤐫
𤓰
𤔔
𤕨
𤣩
𤰇
𤰔
𤰞
𤴓
𤴔
𤽄
𥁑
𥁕
𥃦
𥃩
𥃭
𥇡
𥑟
𥘅
𥘈
𥝢
𥫗
𥱡
𦈢
𦉪
𦉬
𦉼
𦍌
𦍒
𦎧
𦐇
𦓔
𦔮
𦘒
𦙃
𦚏
𦣝
𦣞
𦣻
𦥑
𦥔
𦥯
𦨉
𦭝
𦰩
𧆞
𧈧
𧘇
𧰨
𧴪
𧴮
𧵩
𧾷
𨸏
𨾴
𩙿
𩠐
𩫏
𩵋
𪉷
𪜀
𪟽
𪠲
𪩲
𫇦
𫔭
𫜸
𫝀
𫠣
𫠩
𫢉
𫥞
𫩏
𫩠
𫪡
𫲽
𫶧
𬀷
𬐘
𬗌
𬙙
𬛸
𬜯
𬟩
𬯁
𬴘
𬺻
𬼉
𬼖
𭀰
𭁈
𭁨
𭅰
𭑈
𭕄
𭗼
𭤨
𭥫
𭻾
𮅕
𮊿
𮍌
𮍏
𮓗
𮥼
𮧮
廾
𰀁
𰀄
𰀈
𰀉
𰀕
𰀠
𰀡
𰀢
𰀪
𰁜
𰃮
𰆊
𰆘
𰋙
𰕎
𰢴
𰧭
𰯲
09--
11--
14--
15--
16--
17--
18--
20--
21--
43--
56--
75--
81--
85--
91--
98--
99--
a--
ab--
abdu--
abelisa--
abst--
abır--
ac--
ad--
ada--
ae--
aero--
af--
ag--
age--
ah--
air--
aji--
ajır--
aka--
akademiy--
aks--
aksiy--
al--
ala--
alab--
alap--
ali--
alla--
alme--
almeyda--
alo--
alp--
alı--
alıs--
am--
amino--
amiw--
amste--
amu--
an--
ana--
anlıq--
ansamb--
antropolo--
anıq--
ap--
appli--
aq--
aqır--
ar--
ari--
as--
ash--
asos--
asp--
aspiran--
at--
ata--
ataq--
au--
auto--
av--
avto--
aw--
awz--
ax--
axu--
ay--
aymoq--
ayna--
ayt--
aytıl--
aytım--
ayım--
ayıp--
ayırı--
az--
aza--
b--
ba--
babylo--
badax--
bah--
baha--
bak--
bal--
bank--
baq--
bar--
bas--
basla--
basqınshı--
bassey--
bası--
bax--
bay--
bdir--
bdirax--
be--
beg--
bek--
bel--
belgi--
belle--
ber--
bet--
bey--
beyim--
bez--
bi--
bil--
bio--
bir--
birik--
birles--
biy--
bo--
bol--
bom--
bor--
bos--
bosh--
bots--
boy--
br--
brow--
bu--
bul--
buwın--
buz--
by--
c--
ca--
can--
car--
ce--
cer--
ch--
chi--
chuko--
chum--
cit--
citopl--
civili--
cl--
co--
com--
con--
cre--
cro--
cur--
cus--
d--
da--
dam--
dar--
daw--
dayı--
de--
decl--
del--
dem--
den--
dendrit--
denıy--
dep--
depozit--
depu--
deputat--
di--
dik--
dil--
din--
dir--
direc--
dis--
divi--
diy--
do--
dome--
dos--
dr--
du--
duz--
dıb--
e--
ea--
ec--
ed--
ee--
eftali--
ege--
ek--
ekono--
eksp--
ekspeditsiy--
el--
ele--
eli--
elimi--
elshi--
em--
emot--
en--
ene--
eng--
epi--
er--
es--
esa--
esap--
esh--
esi--
et--
ete--
eti--
etnogra--
ex--
exhi--
ey--
f--
fa--
familiy--
fant--
far--
fe--
federaciy--
feli--
fern--
fi--
fifa--
fin--
flo--
fo--
fon--
forma--
foto--
fr--
fu--
funkciy--
funkts--
g--
ga--
gaga--
gam--
gar--
gaz--
ge--
gel--
gen--
geo--
ger--
gezl--
gi--
gidro--
gil--
gio--
giper--
gla--
glo--
go--
gol--
gr--
gramma--
grammatik--
gu--
gyo--
h--
ha--
hal--
har--
hav--
haykaltarosh--
hel--
hi--
hist--
ho--
holly--
hu--
i--
ia--
ib--
ibodatxona--
id--
ideall--
ideologiy--
idioada--
ifo--
ik--
ikkin--
il--
illes--
im--
imzol--
in--
instruk--
inter--
io--
iorda--
ip--
ir--
iri--
is--
isen--
iseni--
isfa--
ish--
isku--
islet--
iv--
iy--
iye--
iyul--
iz--
izi--
j--
ja--
jab--
jall--
jaman--
jan--
janr--
jap--
jaq--
jar--
jariy--
jarıs--
jas--
jat--
jaw--
jay--
jaylastırı--
je--
jem--
jer--
jeti--
jetili--
jetke--
jetki--
jew--
ji--
jige--
jin--
jip--
jo--
jol--
ju--
juma--
jums--
jup--
jurt--
juve--
jıl--
jır--
jıy--
jıyna--
jıynalı--
jıyın--
k--
ka--
kamp--
kan--
kapsu--
kar--
ke--
kel--
kem--
keme--
ken--
kesi--
key--
ki--
kil--
kilxan--
kim--
kino--
kir--
kirit--
kl--
klas--
ko--
kod--
kolo--
kolonizator--
koman--
komm--
komp--
kompartiy--
kompozitsiy--
kon--
konfe--
konferenciy--
konst--
konstituciy--
kont--
konve--
koor--
kos--
kpe--
kra--
kre--
kri--
kritik--
kroko--
ks--
ku--
kurs--
kv--
l--
la--
laborat--
lan--
lar--
lat--
law--
lawshı--
lay--
le--
lek--
lem--
len--
les--
lew--
lg--
lgi--
li--
liga--
lik--
lin--
lingvi--
liniy--
liss--
lissab--
lk--
lke--
lkemles--
lken--
lki--
ll--
lle--
lme--
lo--
ls--
lsh--
lt--
ltiri--
lu--
lumatl--
lyu--
lyubl--
lı--
m--
ma--
mag--
mak--
makro--
mal--
man--
maq--
mar--
marg--
mas--
may--
mbet--
me--
meduz--
meh--
mek--
mel--
meldar--
men--
mer--
merin--
met--
meteor--
metod--
mi--
mikro--
mil--
min--
minnet--
mir--
mit--
miy--
miyin--
miynl--
ml--
mo--
mol--
mon--
monıt--
mor--
morf--
mperiy--
ms--
mu--
mult--
mun--
muz--
my--
mı--
n--
na--
nan--
nde--
ndi--
ndirg--
ndone--
ne--
negiz--
neke--
neo--
ner--
ney--
ng--
ni--
nico--
nige--
nim--
nis--
nje--
nl--
nli--
no--
nominaciy--
novo--
nt--
nu--
num--
nur--
ny--
nyu--
nı--
o--
oaz--
ob--
obek--
oce--
off--
okta--
ol--
on--
oq--
oqıt--
or--
oray--
orna--
orın--
os--
oshaq--
ot--
otki--
otlaq--
oy--
oylan--
oyna--
oz--
p--
pa--
pake--
pal--
pan--
paq--
para--
part--
parıq--
patr--
payıt--
pe--
ped--
per--
phi--
pho--
pi--
pir--
pish--
pl--
po--
pol--
polk--
port--
poziciy--
pozitsiy--
pr--
pred--
press--
princip--
pro--
prob--
problem--
prodyu--
proto--
pte--
pu--
pul--
pux--
pye--
pıshıq--
q--
qa--
qadi--
qal--
qalm--
qam--
qamaq--
qan--
qant--
qaq--
qar--
qara--
qas--
qash--
qat--
qatna--
qawip--
qay--
qayta--
qi--
qilm--
qissa--
qo--
qol--
qoltı--
qon--
qor--
qos--
qoy--
qse--
qu--
quda--
qul--
qum--
qur--
qurul--
qus--
qutlı--
qutq--
quw--
quy--
quyil--
qı--
qıdı--
qılı--
qıy--
qıyna--
qız--
r--
ra--
radi--
radio--
rayat--
raz--
re--
reaksiy--
redakciy--
ref--
regu--
reje--
reji--
rek--
repertu--
res--
resi--
ret--
rey--
rg--
rgen--
ri--
rif--
rim--
rin--
rinis--
ris--
rk--
rl--
rli--
rme--
rn--
rnir--
ro--
rol--
rq--
rre--
rs--
rsatu--
rse--
rt--
ru--
rus--
ruw--
ruwx--
s--
sa--
sab--
sal--
san--
sapar--
saq--
sarqırama--
sat--
saw--
sax--
saxna--
say--
saz--
sc--
sch--
se--
sec--
sek--
sel--
semy--
sen--
ser--
ses--
sf--
sh--
sha--
shab--
shakl--
sham--
shaq--
shaqapl--
shar--
she--
sher--
shi--
shiri--
shkara--
sho--
shu--
shvey--
shı--
si--
sil--
sim--
sin--
sip--
sir--
siye--
siz--
sk--
sli--
slo--
smiyles--
sn--
so--
soci--
sofo--
solo--
soq--
soz--
sp--
spektakl--
sq--
st--
sta--
ste--
stin--
stran--
su--
sub--
subek--
sud--
sum--
super--
sur--
sx--
sı--
sın--
sıp--
sıpat--
sır--
sıy--
sız--
t--
ta--
tab--
tabıl--
taj--
tajik--
takson--
tal--
talqı--
tam--
tamaq--
tan--
tandı--
tap--
tapsır--
taq--
tar--
taraf--
tare--
tarmoq--
tarqat--
tas--
tastıyıq--
taxt--
tay--
taz--
te--
tek--
tele--
teleradio--
ten--
tepa--
ter--
terri--
territoriy--
the--
ti--
tik--
til--
tilek--
tilew--
tim--
tin--
tip--
tir--
tiy--
tiygiz--
tk--
tken--
tker--
to--
tolt--
tom--
top--
topraq--
toq--
tor--
toy--
tr--
tran--
troposfera--
ts--
tse--
tu--
tuman--
tur--
turk--
tut--
tuu--
tuw--
tuwdı--
tı--
tırıq--
tıy--
u--
ua--
ul--
ular--
um--
umtı--
umum--
umıt--
un--
univer--
uol--
up--
uq--
uqıb--
ur--
uris--
us--
usa--
ush--
usta--
utı--
uy--
uz--
v--
va--
valen--
ve--
vek--
versiy--
vi--
vill--
vin--
vl--
vo--
voi--
vr--
w--
wa--
we--
web--
wende--
wi--
wir--
wiz--
wl--
wlele--
wo--
word--
wı--
x--
xa--
xan--
xay--
xi--
xo--
xoja--
xu--
xx--
y--
ya--
yad--
yaks--
yar--
yarim--
yarım--
yas--
ydi--
ye--
yek--
yel--
yer--
yew--
yge--
yil--
yin--
yit--
ykel--
ykes--
yl--
ylewshi--
ynek--
yo--
yrenil--
yt--
yu--
yuri--
yı--
z--
za--
zal--
zalsb--
zam--
zar--
zat--
zay--
zde--
ze--
zek--
zel--
zge--
zgerti--
zi--
zil--
zir--
zl--
zu--
zul--
zıyan--
ı--
ıdı--
ıl--
ılaq--
ım--
ımaratl--
ın--
ındı--
ıqtı--
ır--
ırat--
ıs--
ısh--
ıt--
ız--
а--
ал--
ан--
ақыт--
б--
бе--
бө--
в--
г--
геог--
д--
е--
ет--
ж--
жа--
з--
и--
ин--
к--
ки--
л--
м--
ми--
н--
о--
объ--
п--
с--
себ--
ск--
со--
ст--
т--
тура--
тә--
у--
ш--
я--
қ--
қа--
қы--
الع--
--0
--00
--000
--1
--2
--291
--3
--4
--5
--6
--7
--8
--9
--a
--ab
--ach
--aciya
--ad
--ada
--adi
--adı
--ag
--ai
--aj
--ak
--akt
--al
--alıq
--am
--an
--ao
--ap
--aq
--ar
--ard
--ary
--as
--asi
--ası
--at
--ated
--ation
--ator
--atov
--atsiya
--aw
--ax
--ay
--az
--b
--ba
--baev
--bag
--bar
--bat
--bay
--be
--besi
--bi
--bo
--bs
--burg
--bı
--bıq
--c
--ca
--ce
--ch
--cha
--cio
--ciya
--ck
--cs
--ctions
--cy
--d
--da
--dag
--dagi
--dan
--dat
--day
--de
--degi
--den
--dey
--di
--dial
--din
--dir
--do
--dov
--dur
--dy
--dı
--dıg
--dın
--dıq
--dır
--e
--ec
--ed
--edi
--egi
--ek
--ekt
--ekte
--el
--ell
--els
--en
--ense
--ent
--ep
--er
--eri
--ern
--ers
--es
--ese
--esh
--est
--et
--ets
--ette
--etug
--ev
--eve
--ex
--ey
--eydi
--ez
--f
--fa
--ft
--g
--ga
--gacha
--gan
--ge
--gen
--ger
--gh
--gi
--go
--graphy
--gs
--gu
--gı
--h
--ha
--hag
--he
--hek
--her
--hi
--him
--hlar
--hli
--ho
--ht
--hı
--i
--ia
--ial
--ian
--iat
--ib
--ic
--ical
--ich
--iciya
--ics
--id
--ida
--ie
--ies
--ig
--iga
--igi
--ik
--ika
--ikli
--il
--ildi
--ilg
--im
--in
--ina
--inda
--inde
--ine
--inen
--ing
--ini
--inin
--io
--ion
--ior
--ip
--iq
--ir
--is
--ish
--ist
--isti
--it
--itor
--itti
--ity
--iv
--ive
--iw
--iwi
--ix
--iy
--iya
--iyası
--iyaz
--iyazov
--iyazova
--iyler
--iz
--izm
--izmnin
--j
--ja
--jan
--k
--ka
--kalıq
--kar
--kat
--ke
--ki
--kiy
--kl
--ko
--kov
--ks
--kti
--kı
--l
--la
--ladi
--ladı
--lag
--lama
--lamag
--lan
--lana
--lanadı
--lanatug
--lanbag
--lanbas
--landi
--landı
--lang
--lanip
--laniw
--lanıldı
--lap
--laq
--lar
--larda
--lardan
--lardin
--lardı
--lardın
--larg
--lari
--ları
--ların
--larına
--larınan
--larında
--larının
--lasadı
--lasqan
--lastırılg
--lastırıw
--lasıp
--law
--lay
--laydı
--laytug
--ld
--ldi
--le
--ledi
--lenbegen
--lenedi
--lenedı
--lengen
--lenip
--lep
--ler
--lerde
--lerden
--lerdi
--lerdin
--lerge
--leri
--lerin
--lerinin
--lestiriw
--lew
--ley
--lg
--li
--lig
--ligi
--ligin
--lik
--likke
--likten
--likti
--lip
--liq
--liqqa
--liw
--liwi
--ll
--lla
--llar
--llıq
--lm
--lmegen
--logiya
--lon
--lov
--lp
--ls
--lse
--lt
--ly
--lı
--lıg
--lılar
--lıp
--lıq
--lıqlar
--lıqları
--lıqqa
--lıqtı
--lıs
--lıw
--lıwı
--m
--ma
--malar
--man
--mat
--mb
--mbi
--me
--men
--mes
--met
--mi
--miz
--mizg
--mizge
--mler
--mli
--mlıq
--mov
--ms
--mı
--mız
--mızda
--mızdag
--mızdın
--mızg
--n
--na
--nal
--nama
--nan
--nap
--natug
--nay
--nce
--nd
--nda
--ndag
--nde
--ndegi
--nder
--ne
--nel
--nen
--ney
--ng
--ni
--nii
--nin
--ning
--nip
--nka
--nlar
--nlıq
--nna
--no
--non
--ns
--nsha
--nskie
--nt
--ny
--nı
--nın
--o
--od
--oda
--of
--og
--ogik
--ogiya
--ok
--ologiya
--ologiyası
--om
--on
--ons
--oq
--or
--ora
--orda
--ors
--ory
--os
--osfera
--osi
--ot
--ota
--ov
--ova
--ovich
--ovsk
--ovtın
--ow
--oy
--oz
--p
--pa
--pag
--pası
--paydı
--paz
--pe
--pi
--ps
--pı
--q
--qa
--qan
--qaq
--qi
--qiy
--qlar
--qlı
--qqa
--qshi
--qta
--r
--ra
--radi
--radı
--rag
--raq
--rd
--rdi
--rdı
--re
--rek
--rg
--rgi
--ri
--riladi
--rin
--rip
--rit
--riw
--rlı
--rma
--rno
--ro
--ron
--rov
--rs
--rt
--ry
--rı
--rılg
--rılmaqta
--rına
--rıp
--rıw
--rıwdı
--rıwg
--s
--sa
--san
--sar
--se
--sen
--sh
--sha
--she
--shen
--shi
--shiler
--shilik
--shiliq
--shisi
--shunoslik
--shı
--shılar
--shılıg
--si
--sida
--sin
--sinde
--sion
--sip
--siy
--siya
--siyası
--siz
--sk
--ska
--skaya
--ski
--skiy
--skogo
--skoy
--slari
--sler
--slı
--so
--sozlik
--st
--stan
--stı
--sul
--sus
--sı
--sın
--sına
--sında
--sının
--sıq
--sız
--sızlıq
--t
--ta
--tadı
--tag
--tan
--tar
--tdı
--te
--ted
--tegi
--ten
--tes
--tg
--th
--ti
--tian
--ties
--tik
--tin
--tion
--tions
--tlar
--tlı
--to
--tr
--tra
--trader
--tre
--ts
--tsa
--tsiya
--tsiyasi
--tsiyası
--tt
--tu
--tug
--tvo
--ty
--tı
--tım
--tın
--tıq
--tır
--tıradı
--tırılg
--tırıp
--tırıwshı
--tıw
--tıwdı
--tıwg
--u
--ua
--uba
--ud
--ue
--ug
--uge
--ui
--uil
--uk
--um
--un
--una
--ura
--ure
--urs
--us
--ut
--ution
--uv
--uz
--v
--va
--val
--ve
--ven
--ver
--vich
--vik
--vir
--voq
--vtika
--vu
--w
--wda
--wdi
--wg
--wge
--wi
--wlar
--wlı
--wn
--ws
--wı
--x
--xa
--xan
--xi
--y
--ya
--yada
--yası
--ydi
--ydı
--yevich
--yi
--yin
--yn
--yo
--ys
--ytug
--yı
--yın
--yıq
--z
--za
--zaciya
--zm
--zov
--zova
--zı
--ı
--ıg
--ıl
--ıla
--ılg
--ım
--ın
--ına
--ınan
--ında
--ındag
--ındırılg
--ınsha
--ının
--ıp
--ıq
--ır
--ırdı
--ırg
--ırılg
--ırıp
--ırıw
--ıs
--ıu
--ıw
--ıy
--ız
--а
--б
--в
--ге
--ги
--д
--е
--ек
--ери
--з
--и
--иу
--ия
--ки
--л
--лери
--лық
--м
--ми
--н
--ның
--о
--ов
--п
--р
--с
--ск
--сы
--т
--тиу
--у
--ы
--ық
--я
--і
--ім
--қ
--қа
--تان
--ية
