!
"
#
##0
##1
##10
##11
##12
##13
##14
##15
##16
##17
##18
##19
##2
##20
##21
##22
##23
##24
##25
##26
##27
##28
##29
##3
##30
##31
##32
##33
##34
##35
##36
##37
##38
##39
##4
##40
##41
##42
##43
##44
##45
##46
##47
##48
##49
##5
##50
##51
##52
##53
##54
##55
##56
##57
##58
##59
##6
##60
##61
##62
##63
##64
##65
##66
##67
##68
##69
##7
##70
##71
##72
##73
##74
##75
##76
##77
##78
##79
##8
##80
##81
##82
##83
##84
##85
##86
##87
##88
##89
##9
##90
##91
##92
##93
##94
##95
##96
##97
##98
##99
$
%
&
'
(
)
*
+
,
-
.
/
0
000
1
10
100
11
12
120
13
14
15
1552
1564
1596
16
1617
1619
1621
1622
1624
1627
1628
1630
1640
1643
1653
1658
1672
1682
1683
1685
1687
1691
1692
1693
1695
17
1704
1710
1712
1713
1714
1715
1716
1717
1719
1722
1723
1724
1725
1727
1729
1731
1732
1735
1743
1745
1746
1748
1750
1754
1755
1757
1758
1760
1762
1763
1766
1768
1770
1771
1773
1774
1775
1776
1777
1778
1779
1780
1781
1782
1783
1785
1786
1787
1788
1789
1790
1791
1792
1793
1794
1795
1796
1797
1798
1799
18
1800
1802
1803
1804
1805
1806
1807
1808
1809
1810
1812
1813
1814
1815
1816
1817
1818
1819
1820
1821
1822
1823
1824
1825
1826
1827
1828
1829
1830
1831
1832
1833
1834
1835
1836
1837
1838
1839
1840
1841
1842
1843
1844
1845
1846
1847
1848
1849
1850
1851
1852
1853
1854
1855
1856
1857
1858
1859
1860
1861
1862
1863
1864
1865
1866
1867
1868
1869
1870
1871
1872
1873
1874
1875
1876
1877
1878
1879
1880
1881
1882
1883
1884
1885
1886
1887
1888
1889
1890
1891
1892
1893
1894
1895
1896
1897
1898
1899
19
1900
1901
1902
1903
1904
1905
1906
1907
1908
1909
1910
1911
1912
1913
1914
1915
1916
1917
1918
1919
1920
1921
1922
1923
1924
1925
1926
1927
1928
1929
1930
1931
1932
1933
1934
1935
1936
1937
1938
1939
1940
1941
1942
1943
1944
1945
1946
1947
1948
1949
1950
1951
1952
1953
1954
1955
1956
1957
1958
1959
1960
1961
1962
1963
1964
1965
1966
1967
1968
1969
1970
1971
1972
1973
1974
1975
1976
1977
1978
1979
1980
1981
1982
1983
1984
1985
1986
1987
1988
1989
1990
1991
1992
1993
1994
1995
1996
1997
1998
1999
2
20
200
2000
2001
2002
2003
2004
2005
2006
2007
2008
2009
2010
2012
2015
2016
2017
2018
21
22
23
24
25
26
27
28
29
3
30
300
31
32
35
36
37
38
39
4
40
400
42
44
45
46
47
48
49
5
50
500
53
54
57
59
6
60
600
62
63
64
65
67
7
70
71
72
73
74
75
78
8
80
83
85
88
9
90
:
;
=
>
?
@
[
\
]
^
_
a
aaron
abe
abo
abraham
abu
abufy
abumoi
ac
access
according
acto
ad
ada
adam
adams
adler
administration
administrative
adolf
adolfo
adrian
adrien
adrienne
adu
affected
after
afyganistan
aga
against
agnes
agrarian
agricultural
ai
ais
akira
aksioma
al
alain
alan
alba
albert
alberto
albertson
aldo
alec
alejandro
aleks
aleksandr
alekzender
alessandro
alex
alexander
alexandra
alexandre
alexis
alfonso
alfred
alfredo
ali
alice
alicia
alison
all
alla
allan
allen
allison
allowed
alma
also
alzaitu
am
amanda
amber
ame
america
american
americans
ami
among
amy
an
ana
anai
analysis
anas
anatoly
and
anderson
andre
andrea
andreas
andrei
andrew
andrews
andrus
andy
angela
angelo
animal
animals
animes
anita
anmyris
ann
anna
anne
annette
annie
anthony
antoine
anton
antonio
anus
apl
applied
april
ar
aragon
archer
ardekto
ardından
are
area
arfi
argau
argument
aristoteles
ark
arma
armin
armstrong
army
arnold
aroi
arquette
art
arthur
article
articles
artur
arturo
arturos
arvelski
as
ashley
ashton
at
atkins
atlantik
attention
au
audrey
august
auguste
aulen
austin
authors
autistics
average
avu
award
axel
ayres
b
ba
babis
bach
bacru
bad
baden
badna
badri
badydi
bag
bai
bailey
bajra
baker
baklanme
bakma
bakni
baku
balcu
baldwin
balkan
balkis
ball
balre
baltik
balvi
bambusa
ban
bancu
bancumunu
band
bandu
banfi
bangnromaneska
bangrdanska
bangrlietuvu
bangrnederlanda
bangrsuenska
bangrtaliano
bangrvietu
bangu
bank
banks
banli
banro
banta
banxa
banzu
bapli
baptiste
bar
barat
barbara
barbaras
barda
bardem
barja
barker
barlow
barna
barnes
barney
barnis
barrett
barry
barrymore
bartu
bas
based
basil
basna
basti
batke
battista
bau
bauske
bavla
bavlamdei
bavmi
baxter
bazar
bazi
baziku
bazin
be
bean
bebna
became
beck
becquerel
been
befa
befelo
befi
bei
beiker
being
beiris
bel
bela
beldjym
bele
bell
belo
belrus
belushi
bemjoitco
bemro
bemtu
ben
bende
bendrpraitoriu
bene
benesuel
benet
benficysi
bengo
benjamin
benji
bennett
benson
ber
bera
berg
bergu
berle
berlin
bernard
berry
bersa
berstici
berti
besarabya
besna
bessarabia
bessarabian
betfu
beth
betty
between
beverley
bevri
bi
bidgu
bil
bilga
bill
billie
billy
bilma
bilni
bimast
bimoi
bindo
binxo
bir
birje
birka
birlig
birti
bishop
bisli
bitmu
bjo
bla
blabi
blaci
black
blackwell
blair
blake
blanc
bland
blanu
blica
blobe
block
bloom
bloti
blue
bo
bob
bobby
boi
bolci
bolgaro
bolivia
bolivias
bond
bongu
bonnie
book
boris
borisovich
bose
bosnan
bosnia
botsuanas
bowen
boxfo
boxna
boyd
boyle
bra
brad
bradford
bradi
bradley
brady
brai
bramau
brandon
braplu
brarai
braun
braxamsi
brazbani
brazo
bre
bredi
brenda
brendan
bret
brett
brewster
brian
bridge
bridges
bridget
bridi
brien
brife
briju
brika
britanias
british
brito
brittany
brivla
broda
broderick
brogu
brojda
brooke
brooks
brown
bru
bruce
brun
bruna
bruno
bryan
bryant
bryce
bu
buc
buchanan
bud
buddy
budjo
buenosaires
built
bukpu
bulgarians
bunre
burcu
burke
burna
burnette
burns
burroughs
burt
burton
busch
bush
buster
but
butler
by
byrd
byrne
byrns
byron
c
ca
cabna
cabot
cabra
cacra
cadzu
cafne
cagyske
caku
cale
calku
cameron
camgu
campbell
canci
candela
cangan
cange
canja
canko
canlu
cannon
canti
cara
carce
carey
carl
carlin
carlos
carlson
carmen
carmi
carna
carol
carole
caroline
carpenter
carr
carradine
carrie
carroll
carson
carter
cartu
cartwright
carvi
case
casey
casnu
cassidy
cassini
castro
catherine
cathy
catke
catlu
catni
catnrkonsule
catnrsenatore
catra
cau
causka
caxmati
cazi
ce
cecla
cecmu
cedra
cedric
cei
celgunta
celma
cenba
censa
centi
centre
century
cerda
cerni
certu
cevni
cfagau
cfari
cfika
cfipu
cha
chad
chamberlain
chambers
chan
chapman
charles
charlie
charlotte
che
china
chis
chris
christian
christie
christina
christine
christoph
christopher
christy
chuck
chung
church
ci
ciblu
cibma
cidja
cidro
cifnu
cikre
ciksi
cilmo
cilre
cilta
cilzbaka
cimast
cimde
cimei
cimni
cimoi
cinba
cindy
cinfo
cinfyma
cinki
cinla
cinmo
cinonoki
cinri
cinse
cinta
cionmau
cipni
cipra
circre
cirgau
cirko
cirla
ciska
cisma
ciste
cite
citka
citno
citri
citsi
city
civil
cizemoi
cizra
cka
ckafi
ckaji
ckape
ckasu
ckiku
ckini
ckire
ckufi
ckule
ckupau
clagaldi
claire
clani
clara
clarence
clark
clarke
clarkson
claude
claudio
claxu
cle
cleveland
cliff
clifford
clifton
clika
clint
clinton
clira
cliva
clive
clupa
clyde
cmaci
cmacrteorema
cmacygau
cmacypre
cmalu
cmana
cmaplini
cmavo
cmene
cmevla
cmibi
cmima
cmoni
cnano
cnebo
cnemu
cnici
cnino
cnisa
cnita
co
cobb
cochran
coi
cole
coleman
colin
collins
com
commons
communist
computer
condi
conditions
connie
connor
conrad
considered
constance
constantine
context
conway
cook
cooke
coolidge
cooper
corbett
corey
corinne
corta
costa
council
country
county
courtney
cow
cox
cpacu
cpana
cpare
cpedu
cputci
cradi
craig
crane
crawford
credit
creed
creka
crepu
cribe
crida
crino
cripu
crisa
critu
crosby
cross
cruz
crystal
ctebi
cteduncitsi
ctemidju
ctile
ctona
ctuca
cu
cukla
cukpu
cukta
cuktai
cuman
cumki
cunmi
cunso
cuntu
cupra
curmi
currie
curtis
curve
cusku
cutci
cutne
cuxfau
cuxna
cy
cynthia
d
da
dacti
dai
dakfu
dakli
dakota
dale
dalton
daly
damba
dame
damon
damri
dan
dana
dandu
dane
danfu
daniel
danielle
daniels
danlu
danmark
danny
danre
dansu
dansygau
danti
danube
danza
dapl
daplu
dar
dargu
darlene
darlu
darno
darren
darwin
darxi
das
daski
dasni
daspo
dasri
data
datka
datni
datnyvei
daumast
daurgau
dave
davenport
david
davies
davis
dawson
day
de
dean
deborah
deca
december
decided
dee
degji
dei
deived
deives
deka
dekna
del
delany
delgado
delta
democratic
den
denci
denis
denmark
denmi
dennis
denny
denpa
der
derek
dertu
derxi
des
desku
despite
detcartu
detri
development
devon
di
diamond
diana
diane
dicat
dick
dickson
dictionary
die
diego
dik
dikatvar
dikca
diklo
dikni
dilcyna
dillard
dillon
dilnu
dimitris
din
dinah
dinju
dinsauru
dion
diplomat
dirce
dirgo
dirk
displaystyle
dizgug
dizlo
djacu
djak
djakis
djakson
djan
djanson
djedi
djeims
djeimyz
djein
djeison
djem
djeris
djesis
djetei
djica
djin
djine
djirafa
djo
djogu
djons
djordj
djorg
djorj
djos
djuno
dmitri
dniester
do
dobson
dodd
doi
dominique
don
donahue
donald
donna
donovan
donri
doris
dorothy
dotco
dotybau
dotygu
doug
douglas
douglass
down
doyle
dr
dra
draci
dracyka
drakone
drani
drasu
drata
drew
driscoll
dropped
dru
drudi
du
duane
duca
dudley
due
dugri
dujro
duke
dukse
dukti
dumont
dun
duncan
dunda
dunja
dunku
dunli
dunn
dunra
dunsi
during
dustin
dutydikca
dwight
dy
dzena
dzipo
e
each
earl
earthquake
ebabo
ebo
ebu
economic
ed
edai
eddie
eddy
eden
edgar
edi
edie
edith
edmund
edna
edouard
eduard
edward
edwards
edwin
egan
ei
eje
ek
eku
ekuador
el
elaine
eleanor
elected
elen
eli
elinor
eliogabalus
elisabeth
elise
elisha
elizabeth
ellen
elliott
ellis
elvet
elvetias
emesas
emil
emile
emily
emma
emmanuel
emmanuelle
empire
en
enai
end
ende
english
enrique
enterprises
epi
er
era
erancar
erek
eric
erich
erickson
erik
erika
erin
eris
erla
ernest
ernie
ernst
ero
eroi
es
esa
escritoras
esi
eske
eskegau
eskepre
esle
esperanto
esperanton
est
established
estelle
et
ethel
euge
eugen
eugene
euklides
europe
european
eva
evans
eve
evelyn
even
everett
evla
existentialism
exo
ez
ezo
f
fa
facki
fadni
fagri
fai
faith
faivla
fakci
families
fan
fancu
fange
fanmo
fanri
fanta
fanva
fanza
fapro
far
farlu
farms
farna
farrell
farvi
fasnu
faspre
fast
fasybau
fasygu
fat
fatci
fatri
fau
favgau
fe
febvi
federico
feimast
fel
feldman
fele
felix
fell
femto
fen
fendi
fengu
fenki
fepri
ferdinand
ferguson
fernando
ferti
festi
fet
fetsi
fetspe
fi
ficysi
field
fielding
fields
file
filenu
filo
fin
finn
finpe
finpre
finti
fipma
first
firth
fischer
fisher
fitzgerald
fla
flalu
flani
flapro
flecu
flen
fliba
flira
flo
floyd
flynn
fo
foldi
following
folo
fon
fonda
fonxa
food
for
ford
form
forman
foster
fox
fr
fra
franc
france
frances
francesco
francis
francisco
franco
frank
frankie
franklin
franz
fraser
fraso
frati
frazer
fre
fred
freddie
frederick
frederik
freeman
freinklyn
frejutsi
french
fri
frica
friedrich
friko
frikytu
frili
frinu
friti
fritz
from
front
frost
fru
fu
fuchs
fukpi
fukyzifpo
fulta
function
fusra
fuzme
fy
g
ga
gabal
gable
gabon
gabriel
gabrielle
gacri
gadri
gail
gaimast
gal
gale
galfi
galias
gallagher
gallo
galtu
galus
galxe
gan
ganai
ganra
ganse
gansyjimca
ganti
ganxo
ganz
ganzu
gapci
gapru
gar
garcia
gardner
garland
garna
garner
garrett
garth
gary
gas
gasnu
gasta
gates
gatyl
gau
gavin
gay
ge
gedyl
gei
geits
gen
gendra
gene
general
gento
geoffrey
georg
george
georges
georgia
ger
gerald
gerard
gerku
german
germans
gerna
gernrplura
gerry
gertrude
getygu
gi
giannis
gibson
gidva
gidygau
giga
gil
gilbert
gillette
gillian
gina
gineas
ginka
gino
giorgos
giovanni
girzu
gish
gismu
giuseppe
glanejni
glare
glass
gleki
glen
glenn
gletu
gliban
glibau
glic
glico
gligu
gloria
go
goi
gombesa
gonza
good
gordon
gordyn
gould
government
gra
grace
gradu
graf
graham
grahame
grake
gram
grammar
grana
grant
grasu
graves
gray
gre
great
green
greene
greg
gregori
gregorius
gregory
greku
grem
greta
grey
gri
griffith
grijutsi
grizgi
gro
grover
grusi
grute
gu
guatemal
gubgau
gubni
gubyseltru
gudjanas
guest
gugde
gugdrnorge
gugdrxelvo
gugja
gugykoi
gugykruca
gugypau
guido
guillaume
gumgu
gun
gundi
gunka
gunma
gunro
gunta
gurni
gus
gusni
gusta
gustav
gustave
guy
gy
h
ha
hackett
had
hagen
hal
hale
hall
hals
hamilton
hank
hannah
hans
hansen
hanson
hara
harding
hardy
harlow
harold
harper
harris
harrison
harry
hart
hartley
hartman
harvey
has
have
hawkins
hay
hayes
hayley
he
heard
heather
hecht
hectares
heinrich
held
helen
henderson
henri
henry
herbert
hermann
herve
herzegovina
higgins
high
highest
hill
hiroyuki
historians
historical
historiography
history
hitomi
ho
hoffman
hoffmann
holden
holly
holmes
holt
hope
hopkins
hopper
horace
horton
households
howard
however
html
http
https
hu
huang
hudson
hugh
hughes
hugo
human
hunt
hunter
hutton
hyde
i
ian
iargau
ibabo
ibo
ibu
ic
idea
ie
iecuax
iefskis
ierokles
igau
iglesias
igor
ii
iii
ija
ije
ijebabo
ijeku
iji
ika
iku
ilan
ile
ilezabet
imei
imu
in
ina
included
increased
industrial
industry
information
infty
inger
inhabitants
insee
international
interwar
into
io
ion
iork
iosef
ipa
ipas
ipli
iran
ire
ireland
irene
irgau
irlarcu
iroi
irsi
irtei
irving
irwin
is
isaac
isabel
isabelle
iseki
isemu
iseni
isi
island
it
ital
italian
italias
ito
itrusi
its
iulianus
iulias
iulius
iupiter
iv
iva
ivan
ivanovich
ivla
j
ja
jabo
jack
jacke
jackie
jackson
jacob
jacqueline
jacques
jadni
jai
jaime
jake
jakies
jakne
jakob
jalge
jalra
james
jamfu
jamie
jamna
jan
janbe
jane
janet
janis
janli
janssen
january
jarco
jared
jarki
jarvis
jasmine
jason
jatna
jaurbeima
javni
jay
jbama
jbari
jbena
jbijinme
jbini
jbirai
jbo
jbobau
jbovlaste
jdaca
jdari
jdice
jdika
jdima
jdini
je
jean
jeanne
jecta
jecyga
jedji
jeff
jefferson
jeffrey
jeftu
jeke
jelca
jemja
jemna
jenai
jenefyr
jenkins
jenmi
jenna
jennifer
jennings
jensen
jeremy
jerome
jerry
jersi
jesni
jesse
jessica
jetnu
jews
jexygu
jgalu
jgari
jgena
jgina
jgita
ji
jibni
jibri
jicla
jicmu
jijyjutsi
jikca
jill
jim
jimca
jimmie
jimmy
jimpe
jimte
jimxre
jinci
jinga
jinmapku
jinme
jinminra
jinmrmalume
jinmrtitani
jinru
jinvi
jinzi
jipno
jirna
jitfa
jitro
jivna
jmaji
jmina
jmive
jo
joan
joanna
joanne
joaqui
joe
joel
joey
johan
johann
johannes
john
johnnie
johnny
johnson
joi
joik
jon
jonathan
jones
jongau
jonma
jonsi
jordan
jordo
jorge
jorgu
jorne
jose
josef
joseph
josephine
josh
joshua
joy
joyce
jpg
jr
ju
juan
jubme
judith
judri
judy
jufra
jugbau
jugygu
jugygug
jukpa
jules
julia
julian
julie
juliette
julio
julius
julne
jun
jundi
june
jungau
jungo
junior
junla
junri
junta
jurme
jursa
justin
jutsi
jutygunma
jvinu
jy
jørgen
k
ka
kacma
kacmyxra
kacna
kadno
kadnygu
kagni
kai
kaisar
kakne
kakpa
kalri
kalsa
kalte
kamerun
kamjikyzi
kamjyterbo
kamni
kampu
kanba
kanbyma
kancu
kandi
kane
kanguru
kanji
kanla
kanro
kansa
kantone
kantu
kapoor
karakaluas
karbi
karce
karda
karel
karen
kargau
kargu
karib
karibes
karl
karli
karni
karol
karsna
kate
katharine
katherine
kathleen
kathryn
kathy
katna
katrina
kau
kaurpo
kavbu
kay
kaye
ke
kei
keikei
keiku
keinritli
keith
kelci
kelis
kelka
kelley
kelly
kelsi
kelsos
kelvo
ken
kenedis
kenias
kennedy
kenneth
kenny
kensa
kerfa
kerk
kerlo
kerry
kershaw
kesyjetske
kesyske
kesyskegau
kesyskepre
ketco
ketytu
kevin
kevna
keys
khan
ki
kibro
kijno
kijytcini
kim
kimberly
king
kingdom
kinli
kinpau
kirby
kirk
kirsten
kisto
kisygu
kla
klaji
klama
klani
klark
klaus
klein
klesi
kli
klina
kliru
klirukle
kliti
klutiksi
knight
ko
koch
kol
kolme
kolombias
komazdon
kon
konchalovsky
kong
kongos
konju
konsepsion
konstans
konstantin
konstantinupolis
konstantinus
konstantius
korbi
kostarikas
kostas
kotavan
krasi
krati
kreg
krici
krili
krilytabno
krinu
kristen
kristin
krogarna
kromag
kruca
ku
kubas
kuce
kufra
kuin
kuk
kukl
kuku
kulnu
kumfa
kumte
kunra
kunti
kurfa
kurji
kurt
kuspe
kutytu
ky
kyle
l
la
lack
lacpu
lacri
ladru
lafti
lai
laine
lairka
lakne
laldo
lalku
lalxu
lambert
lamji
lamli
lana
lanbi
lance
lanci
land
lane
lang
language
lanli
lanma
lanme
lanxe
lanzu
lara
laras
larcu
larcygau
large
larran
larry
larson
lasna
lastu
lat
later
latmo
lau
laura
lauren
laurence
laurens
laurent
laurie
lavoisier
law
lawrence
lawson
lazyjutsi
le
lebna
ledu
lee
lei
leif
leigh
leiris
leka
lem
len
lena
leni
lenin
lenjo
lenku
lennon
lenu
lenz
leo
leon
leonard
leopold
lepu
lerfu
leslie
lester
letsyburg
lev
levi
levine
lewis
lex
lez
leza
lge
li
libgu
lidgusyjinme
lidne
lietuvas
lifri
light
lijda
like
lima
lime
limes
limgau
limna
linda
lindsay
line
lines
lingua
linji
linsi
linto
linuks
linys
lionel
lis
lisa
lisri
list
liste
litki
litru
little
liu
lix
liz
liza
lloyd
lo
local
lockwood
lodu
logji
loglan
loi
lois
lojban
lojbangirz
lojbo
lojdra
lojycpa
loka
lola
loldi
lombard
london
long
loni
lonu
lopez
lopu
lord
lorenzo
lori
loris
lorraine
losedu
lou
louis
louise
love
low
lowe
lowell
lower
loza
lu
lucas
lucille
lucio
lucy
ludwig
luigi
luis
lujvo
luke
lumci
lunbe
lunra
luther
ly
lynch
lynn
lynne
m
ma
mabru
macdonald
made
madeleine
madison
madjan
madjiar
madrid
mae
maggie
magis
mai
maikel
maikrosaft
main
mainly
maisas
majga
major
makau
makcu
makfa
makfartci
makrinus
maks
maksi
makyji
malcolm
malis
malsi
maltas
maltcu
mamta
manchester
manfo
manilias
manin
manku
mann
manri
manti
manuel
many
mao
map
mapti
mara
marbi
marc
marce
marcel
march
marcia
marco
marcus
marde
mardikca
margaret
margu
marguerite
mari
maria
marian
mariana
marianne
marie
marilyn
mario
marion
maris
marisa
marji
mark
market
marks
markus
mars
marshall
marta
marten
martha
martin
martio
marty
martyn
marvin
marx
mary
mas
masno
mason
masti
mat
mathbb
mathbf
mathematics
matra
matsi
matt
matthew
matthews
maureen
maurice
max
maxri
maxwell
may
mayer
mccarthy
mccormack
mcdonald
mcfadden
me
meaning
meg
megan
megdo
mei
mekso
mel
melanie
melbi
meler
melissa
melody
members
mencre
menli
mensi
menske
mentu
mercedes
meredith
mergu
merja
merko
merkurios
merle
merli
mexno
mexygu
meyer
mi
mia
michael
michel
michele
michelle
mickey
micygau
midju
mifra
miguel
mijytu
mikce
mike
mikhail
mile
miles
military
miller
mills
milton
milxe
minde
minji
minnie
minorities
minra
mintu
mipri
miranda
mirli
mirlyxarju
misno
misro
misrygu
mitch
mitchell
mitre
mivyske
mivyskeau
mivytcuxu
mixre
mlajukma
mlana
mlatu
mleca
mledi
mluni
mo
modern
modernization
moe
moffatt
moi
moira
mokca
moklu
moldavia
moldavian
moldavians
moldova
moldovan
molly
mon
monica
monroe
montgomery
moore
mor
more
moreau
moresnet
morgan
morgu
morji
morley
morna
morris
morrison
morsi
morton
moscow
most
mostly
mraigo
mraji
mrena
mrilu
mrobi
mrs
mu
mudri
muicerangas
mukti
mulgau
mulna
mulno
mulpi
mumast
mumoi
munje
mupli
murphy
murray
musa
music
muslo
musyjda
mutce
mutpapri
muvdu
muvgau
muzga
my
myers
n
na
nabmi
nacycmaci
nagel
nai
najnimre
nakni
nalci
nalfendi
nalje
naljinme
nalma
namcu
name
namibias
nanba
nanca
nancy
nandu
nanfi
nanla
nanmu
nanstuna
napoleon
narge
nat
natalia
natalie
natasha
nathan
national
natmi
natpenbau
natziz
nau
navni
naxle
nazbi
nchez
nda
ne
neal
nederland
neil
neill
nejni
nelci
nelson
nenri
neptun
neri
network
new
newman
newton
nez
ng
nga
ni
nia
nibli
nica
nicholas
nichols
nicholson
nick
nicola
nicolas
nicole
nicte
nigel
nikaraguas
nikki
nikle
nikolai
nikolay
nikos
nilbra
nilce
nilcla
nilgla
nilsefta
nilsutra
niltei
nimre
nin
nina
ninmu
nintendos
nirna
nitcu
niu
nixli
nixon
no
noah
nobel
noble
nobli
noda
noel
noi
nolraitru
nolseltru
noltru
noltrunau
noltruni
noltruti
non
nonkansa
nora
noreg
norman
noroi
norris
north
northern
norton
not
notci
notes
nu
number
nun
nunda
nunjamna
nunji
nunkelpau
nunkelpaugri
nupre
nurgau
nurma
nutli
nuzba
ny
nın
o
obau
occupation
ocmaci
oda
odbenu
of
official
ogra
ogu
oi
ois
oise
ojda
oki
olarak
old
ole
olga
oliver
olivia
olsen
omei
omen
on
onai
onduras
one
oni
onkapi
only
opa
opre
or
orbau
ore
oremei
org
orgau
orma
orna
oroi
orpanzi
ortu
orxruki
os
oskar
osteraix
other
otis
otre
otto
ottoman
out
over
overall
owen
oxi
p
pa
pacimoi
packer
pacna
pagbu
page
pagre
pajni
pamai
pamast
pambe
pamei
pamela
pamoi
pampe
pan
panamas
pano
panomoi
panono
panpi
panra
pante
panthera
panzi
paolo
papa
papri
paraguais
parbi
pare
paris
park
parker
parliament
part
parts
pas
pascal
pasifik
pat
patfu
patrek
patricia
patrick
patsy
patterson
patti
patton
patty
patxu
paul
paula
pauline
pavdaivla
pavel
pavma
pavmei
pavrelma
pavterdi
paxa
payne
pe
pearce
peasant
peasantry
peasants
peck
pedro
peggy
pelji
pelxu
pemci
pemfi
pemgau
pen
pencu
pendo
penelope
penmi
penn
pensi
per
percy
period
perkins
perry
perus
pes
pete
peter
peters
pez
pezli
phil
philip
philipp
philippe
phillips
phyllis
pi
pidjni
pier
pierce
pierre
pietro
pifcpi
pijyske
pijyskegau
pijyskepre
pilipinas
pilji
pilka
pilno
pimlu
pinfu
pinji
pinpedi
pinta
pinxe
pipno
piso
pisu
piter
pitki
pixra
pl
place
plajva
plana
platu
pleji
plini
plipe
plise
plita
ploke
plugri
pluja
pluka
pluta
pluton
po
poi
poke
policy
political
polje
polly
polskas
pon
ponbau
pongu
ponjo
ponse
population
porpi
porsi
porto
post
potybau
potygu
powell
power
pra
prali
prami
prane
pre
predicado
predicate
predikata
preja
prenu
press
preston
preti
price
prince
princess
pritu
pro
produce
production
progress
proisen
prolog
property
province
pruce
pruxi
pu
public
publique
puca
pulji
punji
pur
purci
purdi
purlamdei
put
puzi
puzu
py
pyotr
q
que
quinn
quoted
r
ra
rabenson
rabybau
rachael
rachel
racyjdari
radio
radjer
rae
raf
rafael
rafsi
ragve
rai
rain
raksygu
raktu
ralju
ralph
raltca
ralte
ramsay
rand
randa
randall
randolph
randy
rango
ranji
ranmi
ransu
ranti
rapli
rarbau
rard
rarna
rarske
ratcu
ratdi
ratni
rau
raubert
rauberts
ray
raymond
razgu
re
rebecca
rebi
rebjukma
rebla
recimoi
record
recorded
recording
records
rectu
red
redgrave
reed
reeves
reform
regarded
regime
reginald
region
regions
reid
reis
rejgauzda
relation
relcimdyna
relma
relsevzi
relxilma
remained
remast
rembrant
remei
remna
remoi
remske
remskegau
ren
rene
renro
renvi
repu
republic
republika
reroi
respa
rest
restaurant
retcard
retrieved
revolution
rex
reyes
reynolds
rhodes
rhys
ri
ric
rica
rice
ricfoi
ricfu
rich
richard
richards
richardson
richie
richter
rick
rights
rii
rijblabi
rijno
rijyjinska
rijyska
rikmen
rikteropu
riley
rilti
ring
rinju
rinka
rinsa
rio
rirci
rirni
rirxe
rismi
risna
rita
ritchie
ritli
ritter
ritygu
rivbi
river
rivers
rk
rn
ro
rob
robbie
robert
roberto
roberts
robin
robinson
robyn
rock
rod
roda
rodgers
roger
rogers
roi
rokci
roksodna
rokyvei
rolka
roltrusi
rom
roma
roman
romania
romanian
romanians
romanias
romanya
romas
romoi
ron
ronald
rongunma
ronnie
ronru
rontu
roosevelt
root
ropno
rorci
roroi
rory
rosa
rose
ross
rossi
roth
rotsu
rourke
roy
ru
rubin
ruble
ruby
rudolf
rudolph
rufus
rukybau
rukygu
rule
runbau
rund
runme
rupert
rupnu
rus
rush
rusko
russell
russia
russian
russians
russo
rustoda
rut
ruth
rutherford
rutni
ry
ryan
rypynzyl
s
sa
sabji
sackycmu
saclu
sagyfi
sagygau
sagypre
saint
sakli
sakta
salci
salinger
sally
salni
salpo
salvador
sam
samantha
sambau
samcmu
same
sampla
samplabau
sampu
samselkei
samselpla
samske
samsmacu
samtci
samuel
san
sanbau
sance
sanchez
sandra
sandy
sanga
sangu
sanji
sanli
santiago
sapcabytei
sapme
sapypurtei
sar
sara
sarah
sarcu
sarji
sarxe
saske
satci
saturn
savas
sazri
schneider
schools
scott
se
sea
sean
sebastian
secau
secaunai
second
sedbo
sedu
see
sefta
sei
seja
sekai
seki
sela
selba
selbangu
selbau
selbri
selcatra
selci
selciska
selckaji
selcme
selcmene
selcmi
selcmima
selcni
selcru
selcusku
selfa
selfi
selfinti
selfu
selgu
selja
seljda
selji
seljibri
selju
selkai
selkavbu
selkra
selkrasi
selku
selma
selme
selna
selpagbu
selpau
selpilno
selpinxe
selpli
selplijibri
selpliske
selponse
selratni
selrirni
selrunme
selsa
selsitna
selskari
selsku
selsmuni
selsruri
selsumji
seltcana
seltcu
seltivni
selvasru
selviska
selxu
selylai
selyle
selyli
selzba
selzbasu
selzvati
semto
sen
senkleir
senta
sepfa
sepi
sepli
sepsi
sera
seras
serbias
serge
sergei
sergey
setca
seth
seuerus
several
sevzi
sezga
sfasa
sfatul
sfe
sferies
shane
shannon
sharon
shaw
shawn
sheffield
sheila
shelley
sheridan
sherwood
shirley
short
si
sicko
sicni
sidbo
sidju
sidney
siegfried
sig
silna
silva
similar
simlu
simmons
simon
simone
simpson
simsa
simxu
since
singer
sinma
sinxa
sipna
sir
sirji
sirxo
sisku
sisti
sitna
sivni
sixygu
ska
skalduna
skami
skapi
skari
skefi
skegau
skepre
ski
skicu
skina
skori
skoselti
skot
skoto
skvortsova
sla
slabu
slaka
slami
slanu
slasi
sliders
sligu
slilu
slim
sliri
sloveni
slovensk
slovino
sluji
smadi
smaji
small
smani
smet
smiley
smit
smith
smoka
smuni
sna
snada
snanu
snidu
snigau
snile
snura
snuti
so
soaimias
social
socialist
sodna
sodva
softo
sofygu
sol
solji
solnavni
solomon
solri
somast
some
somoi
son
sonci
soncrlegione
sonia
sonny
sophia
sophie
sor
sorcu
sordaivla
sornai
sornaitru
sosygugje
south
southern
sovda
soviet
sovyetler
sozma
spain
spanish
spano
sparayafa
spaskegau
spati
spatrmeliace
spebi
spencer
speni
sper
spisa
spita
spoja
spring
spuda
sraji
sralo
sralygu
srana
srasu
srera
srilynkas
sruma
sruri
ssr
st
sta
stabintyn
stacy
stafford
stagi
stali
stan
stani
stanley
stark
starrett
state
states
stati
statygau
ste
steci
stedu
steel
steen
stefan
stephanie
stephen
steve
steven
stevens
stevie
stewart
stici
stidi
stika
still
stizu
sto
stodi
stone
strauss
strong
structure
strutione
stuart
stuna
stura
stuzi
su
such
sucta
sudan
sudga
sue
sugar
sullivan
sum
sumji
sumka
summer
sumne
sumti
sunga
sunko
sunla
suom
support
surinam
surla
susan
susanna
sutra
suzanne
sv
svetlana
swanson
sweet
sy
sydney
syky
sylvester
system
t
ta
tabno
tabra
tadji
tadni
tag
tai
tairmupli
takashi
takeuchi
talno
tam
tamara
tamas
tamcmaci
tamne
tampson
tance
tanru
tanxe
tanzanias
tapla
tara
tarbi
tarci
tarmi
tarti
tas
tatru
tatum
tavla
taxfu
taylor
tcaci
tcad
tcadoki
tcadu
tcana
tcarls
tcati
tcaus
tce
tcepru
tcesau
tcesk
tcidu
tcila
tciles
tcima
tcimpazi
tcini
tcita
te
ted
tedyskegau
teilor
teksys
temci
tenfa
tennessee
tepi
terbe
tercange
terdi
terdikni
terence
terfa
tergu
terjbe
terji
terkunra
terlanli
termo
termonsi
termu
terpa
terpilno
territory
terry
tersei
tersitna
tersku
terve
teryratni
teryru
terzba
terzu
test
tex
texas
tezu
th
than
that
the
their
them
theodore
there
third
this
thomas
thompson
thorne
thornton
thorpe
thousand
three
through
ti
tienne
tig
tigni
tigris
tilju
tim
time
timothy
timske
tina
tinci
tinsa
tirna
tirse
tirxu
tisna
titus
tivcitsi
tivni
tixnu
to
tobias
todd
toi
tok
tokiponas
tolbrazbani
tolcanci
tolcfa
tolci
tolcliva
tolcru
toldi
tolmipri
tolprali
toltu
tolyle
tolzi
tom
tommy
toni
tony
took
tordu
torres
torvoldz
total
towards
townsend
tra
tracey
tracy
traji
trano
tre
treaty
treci
trene
trevor
tricu
trina
trisha
tristan
trixe
trixexo
troci
troy
truci
trugunma
truman
trutca
trutcadu
tsali
tsani
tsiju
tu
tubnu
tucker
tugni
tumla
tunba
tunka
tunta
tuple
turk
turkish
turner
turni
turnrgaugustu
turnrkaisare
turturro
tutci
tutra
tutske
two
ty
tyler
u
ua
uacintyn
ualker
ubo
ucti
udu
ueid
ueliam
ueliams
uen
ues
ui
uikipedias
uiliam
uitkylarsro
ukrainian
ukrainians
ukrayna
ulrich
ulysses
uma
umberto
una
unai
uncle
under
uniks
union
united
university
up
uranos
ure
url
urli
urma
uruguais
us
used
uvu
v
va
vacri
vajni
val
vale
valentin
valerie
valsi
vamji
van
vanbi
vanessa
vanju
var
varadinum
variable
varianto
varik
vasily
vasru
vasxu
vau
vaughan
vaughn
ve
vecnu
vede
vei
veldetri
velfarvi
veljmina
veltavla
vensa
venus
vera
verba
verclibau
verne
vernon
veronica
vi
vic
victor
victoria
viktor
vimcu
vince
vincent
vindu
vinji
vipca
vipsi
viptru
vipygu
virginia
viska
vitci
vitke
vlaba
vladimir
vlile
vlipa
vo
vofli
voi
voksa
voksnaske
vol
vomast
vomei
vomoi
von
voncimdyna
vorme
voted
vreji
vreta
vrici
vrude
vu
vukro
vurgu
vy
w
wade
wagner
walker
wall
wallace
walsh
walter
walton
wang
war
ward
warner
warren
was
washington
waters
watson
wayne
we
weaver
web
wee
weil
weiss
well
wells
welson
wendy
were
werner
wes
wesley
west
western
wharton
where
which
while
white
whitehead
whitney
who
wiktionary
wild
wilde
wilfrid
wilhelm
wilkinson
will
willem
william
williams
williamson
willie
willis
wilson
windsor
winslow
winston
winter
with
wolf
wolfgang
wood
woods
word
words
world
would
wright
wu
www
wyndham
x
xa
xabjinme
xabju
xadba
xadni
xaid
xajmi
xaksu
xalka
xamast
xamgau
xamgu
xamoi
xamsi
xan
xance
xanguk
xanka
xano
xanri
xanto
xarci
xarju
xarpre
xaskoi
xatra
xavdei
xazdo
xe
xebni
xebro
xecto
xekri
xelbenji
xelboxna
xeldraci
xelso
xendo
xenrek
xesybau
xesygu
xi
xinbau
xindo
xingu
xinjoiro
xirma
xislu
xlali
xlima
xlura
xo
xoi
xotli
xrabo
xrani
xriso
xrukla
xrula
xruti
xrvatsk
xrvatskas
xu
xukmi
xumfra
xumjetske
xumske
xumskegau
xunre
xusra
xy
xymoi
xyxy
y
ya
years
yevgeny
yo
yocto
york
yotta
young
ys
yu
yuri
yves
yvette
z
za
zachary
zajba
zambias
zanru
zarci
zasni
zasti
zbabu
zbagau
zbani
zbasu
zbepi
zdani
zdotu
ze
zei
zemast
zemoi
zenba
zgana
zgifi
zgigri
zgike
zgiknroko
zgikrpunke
zgirejpra
zgitci
zgiterbe
zgivei
zi
zifre
zimbabues
zinki
ziptu
zmadu
zmiku
zo
zoi
zu
zukte
zumri
zunle
zunsna
zunti
zvati
zy
{
|
}
«
­
°
»
×
ı
ȝan
ɪ
ʃa
ʃi
ʃri
ʃu
ʲ
ʹ
ʿ
ˈ
ˌ
ː
̀
́
̂
̃
̄
̆
̇
̈
̉
̊
̋
̌
̓
̔
̛
̣
̦
̧
̨
͂
͡
α
ι
ρ
ς
υ
нныи
о
א
ר
ש
،
ا
الا
التي
القروض
المالية
ب
ة
ت
تسديد
خ
د
ر
س
ش
ص
ط
ع
ف
في
ق
قروض
ك
ل
لا
م
ما
مشكلة
من
ن
هذه
و
ي
ً
ٌ
َ
ُ
ِ
ّ
ْ
ٔ
ٕ
ँ
ं
क
ख
ग
च
छ
ज
ट
त
द
ध
न
प
ब
म
य
र
ल
व
श
स
ह
़
ा
ि
ी
ु
ू
े
ो
्
ম
া
ু
্
ச
ப
ா
ி
ை
்
້
‎
–
—
’
“
”
″
⁡
→
↔
↷
∈
∑
−
∞
∫
⊆
③
④
⑦
☉
☽
☾
♀
♁
♂
♅
♆
♇
⛢
⯉
⯓
⯕
⯰
⯱
ⲉ
ⲏ
ⲙ
ⲛ
ⲣ
⺀
⺄
⺆
⺈
⺊
⺌
⺕
⺝
⺸
⺼
⿰
⿱
⿲
⿳
⿴
⿵
⿶
⿷
⿸
⿹
⿺
⿻
、
。
「
」
〢
あ
い
う
え
か
き
く
け
こ
さ
し
す
た
ち
っ
て
と
な
に
の
は
ひ
ほ
ま
も
や
り
る
れ
わ
ん
゙
゚
ア
イ
ウ
オ
カ
キ
ク
コ
サ
シ
ス
セ
タ
チ
ッ
ツ
テ
ト
ニ
ハ
ヒ
フ
ヘ
ホ
ミ
ム
ャ
ユ
ヨ
ラ
リ
ル
レ
ン
ー
㇁
㇂
㇄
㇇
㇈
㇉
㇓
㐁
㐄
㐅
㐌
㐫
㐬
㐭
㐮
㐱
㑒
㒵
㒸
㒼
㓁
㓞
㔾
㕛
㕣
㖾
㘝
㚅
㚇
㚔
㚘
㝉
㝡
㝴
㝵
㞋
㞢
㞷
㠩
㠭
㠯
㡀
㡭
㡿
㢲
㢴
㣇
㣺
㥯
㪅
㫄
㫐
㫒
㫺
㬅
㬎
㬥
㬰
㲋
㳄
㷠
㸒
㸚
㸦
㼌
㼲
㽞
㿟
䀠
䂞
䍃
䏍
䒑
䖍
䖒
䖝
䖵
䙴
䚻
䜌
䝿
䡛
䧹
䪞
一
丁
丂
七
丄
丅
丆
万
丈
三
上
下
丌
不
与
丏
丐
丑
专
且
丕
世
丘
丙
业
东
丞
丢
丣
两
严
並
丨
丩
个
丫
丬
中
丮
丰
丱
串
丵
丶
丷
丸
丹
为
主
丽
丿
乀
乂
乃
久
乆
乇
么
义
之
乌
乍
乎
乏
乐
乑
乔
乖
乗
乘
乙
乚
乛
乜
九
乞
也
习
乡
乳
乾
亀
亅
了
亇
予
争
事
二
亍
于
亏
亐
云
互
亓
五
井
亘
亚
亜
亞
亟
亠
亡
亢
交
亥
亦
产
亨
亩
享
京
亭
亮
亯
亰
亲
亳
亶
亷
人
亻
亼
亾
仁
今
介
仌
从
仐
仑
仒
仓
仕
他
付
仝
代
令
以
任
企
伊
伏
伐
休
会
伯
但
位
体
何
佘
余
作
佥
使
來
侈
侌
侖
侯
侵
便
保
俞
信
修
倉
倍
候
倠
備
僉
僕
儿
兀
允
兂
元
兄
充
兆
兇
先
光
兊
克
兌
免
兑
兒
兓
兔
党
兜
兟
入
全
兩
兪
八
公
六
兮
兰
共
关
兵
其
具
典
兹
兼
冀
冂
冃
冄
内
冈
冉
冊
冋
册
再
冎
冏
冐
冒
冓
冖
冗
冘
军
农
冝
冡
冥
冫
冬
冷
几
凡
凢
凵
凶
凷
凸
凹
出
函
凾
刀
刁
刂
刃
刄
刅
分
切
刍
刑
刕
刖
列
刘
则
创
初
別
利
别
到
制
刺
則
削
剌
前
剡
剽
劉
力
功
加
劦
动
助
劫
劳
劵
勃
勇
勉
勒
動
務
勞
勤
勹
勺
勻
勾
勿
匀
匂
包
匆
匈
匊
匋
匍
匕
化
北
匚
匝
匡
匪
匱
匸
匹
区
医
匽
匿
區
十
卂
千
卄
卅
卆
升
午
卉
半
卌
华
卑
卒
卓
单
卖
南
卜
卝
卞
占
卡
卢
卣
卤
卦
卩
卪
卬
卯
印
危
即
却
卵
卷
卸
卻
厂
厃
厄
历
厈
厉
厌
厓
厘
厚
原
厤
厥
厨
厭
厲
厶
厷
厸
去
厼
厽
叀
参
參
叅
又
叉
及
友
双
反
叐
发
叒
叔
叕
取
受
叚
叜
叟
口
古
句
另
叩
只
召
可
台
叱
史
右
叵
号
司
叹
吂
吃
各
吅
合
吉
吊
吋
同
名
后
吏
向
吕
君
吝
吞
否
含
启
吳
吴
吹
吾
呂
呆
呈
告
员
呙
周
命
咅
和
咎
咠
咢
咨
咸
咼
哀
品
哉
員
哥
哲
唐
商
啇
問
啚
啬
啻
善
喜
喬
單
喿
嗇
噩
嚴
囊
囗
囘
囙
囚
四
回
囟
因
囧
囬
困
囱
囷
固
国
圂
圅
國
圍
圓
土
圡
圣
圥
在
圭
地
圶
圼
坐
坒
坚
坴
垂
垔
垚
埀
埋
城
埶
執
基
堂
堅
堆
堇
堯
場
塞
墨
壘
士
壬
壯
声
壳
壴
壹
壺
壽
夂
处
夅
夆
备
夊
夋
夌
复
夏
夒
夕
外
夗
夘
多
夜
夢
大
夨
天
太
夫
夬
夭
央
失
夲
头
夷
夸
夹
夻
夾
奂
奄
奇
奈
奉
奎
奏
奐
契
奓
奔
奚
奞
奠
奢
奥
奭
女
奴
奻
好
如
妄
妙
妟
妥
妻
妾
姑
委
姜
威
娄
婁
婴
嬰
嬴
子
孑
孔
孕
孖
字
存
孚
孛
孝
孟
季
孤
学
孫
孱
學
宀
宁
宂
它
宅
宇
守
安
宋
完
宏
宓
宗
官
定
宛
宜
宝
客
宣
室
宮
宰
害
家
容
宾
宿
寄
寅
密
富
寒
察
寧
審
寫
寬
寮
寸
对
寺
寻
寽
対
寿
封
尃
射
将
將
專
尉
尊
尋
尌
對
小
少
尒
尓
尔
尖
尗
尚
尞
尢
尣
尤
尧
尨
尭
就
尸
尹
尺
尻
尼
尽
尾
尿
局
居
屈
屋
屎
屏
屑
展
屖
屚
属
屠
屡
屬
屮
屯
屰
山
屵
屾
岁
岂
岑
岡
岩
岳
岸
峯
島
崇
崑
崔
崖
崙
崩
嵬
嶲
巂
巛
川
州
巟
巠
巢
巤
工
左
巧
巨
巩
巫
差
己
已
巳
巴
巷
巸
巽
巾
巿
帀
市
布
帆
希
帚
帛
帝
带
師
席
帶
常
干
平
年
幵
并
幷
幸
幺
幻
幼
幽
幾
广
広
庄
床
底
店
庚
府
度
庫
庭
庶
康
庸
廉
廌
廛
廣
廩
廴
延
廷
建
廾
廿
开
弁
弃
弄
弇
弋
式
弓
弔
引
弗
弘
弜
弟
弥
弦
弱
張
強
强
彊
彌
彎
彐
彑
当
彔
录
彖
彗
彡
形
彥
彦
彧
彭
影
彳
役
彼
往
待
律
徒
得
徙
從
復
微
徵
德
心
忄
必
忌
忍
志
忝
忠
忩
快
念
忽
忿
思
怠
急
性
怱
恆
恒
恩
恭
息
悉
患
悤
悲
悶
情
惠
惡
惢
愁
愈
意
愛
感
慈
慧
慮
憂
憲
應
戀
戈
戉
戊
戋
戌
戍
戎
成
我
戒
戔
或
戚
戠
戢
截
戲
戶
户
戹
戼
戾
房
所
扁
扇
手
扌
才
打
托
执
承
折
拉
拜
拿
指
掌
推
提
摩
支
攴
攵
收
攸
改
放
政
敄
敏
敕
敖
敗
敝
敞
敢
散
敦
敫
敬
数
敷
數
斂
文
斉
斊
斗
斤
斥
斩
斬
斯
新
方
於
施
斿
旁
旋
族
无
旡
既
旣
日
旦
旧
旨
早
旬
旱
旲
时
旾
昆
昇
昌
昍
明
昏
易
昔
昗
昜
星
春
昬
是
昱
昴
昷
時
晃
晋
晏
普
景
晶
智
暑
暴
曇
曩
曰
曲
曳
更
曷
書
曹
曼
曾
替
最
朁
會
月
有
朋
服
朔
朕
朗
望
朝
木
朩
未
末
本
札
朮
术
朱
朵
朶
朿
杀
杏
杜
束
条
来
東
杲
杳
松
析
林
枚
果
枝
枲
枼
某
柔
查
柬
柰
柴
栗
校
根
格
桀
桑
桼
梁
條
梟
梨
梯
棘
棠
棥
森
楚
業
楽
榮
構
樂
樊
欠
次
欣
欮
欲
欶
欽
款
歆
歇
歛
止
正
此
步
武
歨
歪
歮
歯
歰
歲
歴
歷
歸
歹
歺
死
殳
段
殷
殸
殹
殺
殻
殿
毋
毌
母
每
毒
比
毕
毚
毛
毳
氏
氐
民
气
気
氣
水
氵
氶
氷
永
氺
氾
求
汉
汝
汞
江
決
沃
沓
沙
沝
油
泉
法
波
泣
泥
泰
洛
洪
活
派
流
浦
浪
浮
海
淡
淮
清
渚
渠
湯
滿
漸
火
灬
灭
灰
灵
灷
炅
炎
炏
炗
炙
炭
為
烈
烏
烝
焉
無
焦
焱
然
煙
煞
熊
熏
燕
營
燮
爪
爫
爭
爯
爰
爱
爲
爵
父
爻
爽
爾
爿
片
牙
牚
牛
牜
牟
牢
牧
物
牪
牽
犀
犬
犭
犮
狂
狄
狊
独
狺
猋
猒
猪
献
獻
玄
率
玉
王
玟
玨
珎
班
琴
瑟
瑩
瓜
瓦
甘
甚
生
産
用
甫
甬
田
由
甲
申
电
甶
男
甸
甹
画
甾
畀
界
畏
畐
留
畜
畟
畢
畧
畨
番
畫
異
畱
當
畺
畾
疊
疋
疌
疑
疒
疾
癶
癸
癹
登
發
白
百
皀
皃
的
皆
皇
皋
皐
皕
皮
皷
皿
盃
盆
盇
盈
益
盍
盎
监
盒
盖
盛
盡
監
盤
盧
目
直
相
盾
省
眇
眉
看
眔
眞
真
眷
眼
眾
着
睘
睪
睿
瞏
瞢
瞿
矍
矛
矞
矢
矣
知
矦
短
石
破
碎
磊
磨
示
礻
礼
社
神
祟
票
祭
禀
禁
禸
禹
禺
离
禽
禾
禿
秀
私
秃
秉
秋
科
秝
秦
移
稟
穀
穌
穴
究
穹
空
穿
突
窄
窒
立
竒
竜
竝
竟
章
童
竹
笑
笛
笠
筆
等
答
箕
算
箴
節
篤
篭
米
粉
粛
粟
粤
粦
粲
糞
糸
糹
系
約
納
素
索
紫
累
細
絜
絫
絲
維
綿
縣
繇
纍
纟
缶
网
罒
罔
罕
罗
罙
罡
罢
罪
置
署
罷
羅
羊
羌
羍
美
羔
羕
羗
羞
羡
羣
群
義
羲
羸
羽
翁
翏
習
翕
翟
翠
翼
老
耂
考
者
耆
而
耎
耑
耒
耳
耴
耶
耷
聂
聊
聖
聚
聶
聿
肀
肃
肅
肉
肖
肙
肥
肩
肯
育
肴
胃
背
胡
胥
能
脂
脊
脩
膚
臣
臤
臧
自
臬
臭
臯
臱
至
致
臺
臼
臽
臾
臿
舀
舂
舄
與
興
舉
舌
舍
舛
舜
舞
舟
般
艮
良
色
艸
艹
艾
芒
芔
芬
芮
花
芳
芺
芻
苔
苗
苟
若
苦
英
茶
茸
荅
草
荒
荣
荼
莆
莧
莫
莽
菆
菊
菐
華
萬
落
葉
著
葛
董
葵
蒙
蒦
蒼
蓋
蓬
蓺
蔑
蔡
蕉
蕭
薄
薛
薦
薰
藍
藏
藥
蘭
虍
虎
虐
虒
虔
處
虖
虗
虘
虚
虛
虜
虞
虫
虽
蚤
蚩
蜀
蜜
蟲
蠡
血
行
衍
衛
衣
衤
表
衮
衰
袁
袋
袞
褭
褱
襄
襾
西
覀
要
覃
見
規
覓
覧
親
覽
见
角
解
言
訁
訇
計
訳
詞
試
話
詹
語
誩
說
説
諸
讠
试
语
说
谷
豆
豈
豊
豐
豕
豖
豙
象
豦
豩
豪
豸
貇
貓
貝
貞
貟
負
貢
貧
貪
貫
責
貳
貴
買
費
賁
資
賈
賏
賓
賔
賛
賞
賢
賣
質
賴
贊
贝
贡
责
贯
贲
贵
赖
赞
赤
赦
走
越
足
路
蹇
身
躬
車
軍
軎
軟
輦
车
辛
辜
辟
辥
辰
辱
農
辵
辶
边
达
过
近
连
迷
追
退
送
逆
逐
通
速
造
逢
連
逮
進
遀
遂
過
道
達
遣
適
遷
遺
邊
邑
邕
那
邦
邪
郎
部
郭
都
鄉
酉
酋
配
酓
酪
釆
采
里
重
野
量
金
釒
錢
钅
長
镸
长
門
閃
閉
開
閏
閑
閒
間
閔
関
閵
閻
闌
门
间
闷
阑
阜
阝
阿
降
陳
隆
隊
隋
隡
隨
隱
隶
隹
隺
隻
隼
隽
难
雀
雁
集
雈
雋
雌
雍
雐
雔
雙
雚
雜
雝
離
難
雨
雩
雪
雲
零
雷
電
需
霍
霜
霝
霞
霸
靈
靑
青
非
靡
面
靣
革
韋
韦
韭
韯
韱
音
頁
頃
項
須
頗
頡
頻
顔
顛
页
風
风
飛
飞
食
飠
養
饣
首
香
馬
馮
駦
験
马
骨
高
髟
鬥
鬯
鬲
鬼
魚
魯
鮮
鱼
鲁
鳥
鳳
鸟
鹵
鹿
麃
麗
麥
麦
麻
黃
黄
黍
黎
黑
黒
黨
黹
黽
黾
鼎
鼓
鼠
鼻
齊
齋
齐
齒
齿
龍
龙
龜
龟
龠
龰
龱
龴
龵
龶
龷
龸
龹
者
艹
（
）
？
🜨
𠀁
𠀃
𠀆
𠀉
𠀎
𠀐
𠁁
𠁣
𠂆
𠂇
𠂈
𠂉
𠂊
𠂋
𠂎
𠂒
𠂔
𠂛
𠂡
𠂢
𠂤
𠂬
𠂭
𠂹
𠃊
𠃋
𠃌
𠃍
𠃎
𠃑
𠃓
𠃔
𠃜
𠄌
𠄎
𠄠
𠄢
𠆢
𠆥
𠇍
𠈌
𠌵
𠓜
𠔉
𠔥
𠔼
𠔽
𠔿
𠕀
𠕁
𠕋
𠘧
𠘨
𠙻
𠙼
𠚏
𠚒
𠚤
𠚪
𠣏
𠤎
𠤕
𠥓
𠦄
𠦑
𠦝
𠧒
𠧗
𠧪
𠩺
𠪚
𠫓
𠫔
𠫤
𠬛
𠬝
𠬞
𠬢
𠬤
𠬶
𠮛
𠮦
𠮷
𠯑
𠱠
𠳮
𠷎
𡈼
𡉀
𡉵
𡌥
𡍮
𡏳
𡕒
𡕩
𡕰
𡖅
𡗗
𡗜
𡘆
𡘤
𡧱
𡨄
𡩧
𡬠
𡭽
𡰣
𡰥
𡰪
𡰯
𡰱
𡷈
𡸁
𡿨
𡿩
𡿪
𡿺
𢀖
𢀛
𢀩
𢁙
𢆉
𢆰
𢆶
𢇁
𢇇
𢉖
𢌬
𢌿
𢏚
𢑑
𢑚
𢖻
𢙣
𢛳
𢦏
𢦒
𢧵
𢼄
𢾕
𣁋
𣄼
𣅀
𣅽
𣍘
𣎳
𣎵
𣏋
𣏼
𣗥
𣥂
𣥖
𣦵
𣦼
𣧄
𣪊
𣪠
𣬉
𣳾
𣶒
𤇾
𤊽
𤐫
𤓰
𤔔
𤕨
𤣩
𤰇
𤰔
𤰞
𤴓
𤴔
𤽄
𥁑
𥁕
𥃦
𥃩
𥃭
𥇡
𥑟
𥘅
𥘈
𥝢
𥫗
𥱡
𦈢
𦉪
𦉬
𦉼
𦍌
𦍒
𦎧
𦐇
𦓔
𦔮
𦘒
𦙃
𦚏
𦣝
𦣞
𦣻
𦥑
𦥔
𦥯
𦨉
𦭝
𦰩
𧆞
𧈧
𧘇
𧰨
𧴪
𧴮
𧵩
𧾷
𨸏
𨾴
𩙿
𩠐
𩫏
𩵋
𪉷
𪜀
𪟽
𪠲
𪩲
𫇦
𫔭
𫜸
𫝀
𫠣
𫠩
𫢉
𫥞
𫩏
𫩠
𫪡
𫲽
𫶧
𬀷
𬐘
𬗌
𬙙
𬛸
𬜯
𬟩
𬯁
𬴘
𬺻
𬼉
𬼖
𭀰
𭁈
𭁨
𭅰
𭑈
𭕄
𭗼
𭤨
𭥫
𭻾
𮅕
𮊿
𮍌
𮍏
𮓗
𮥼
𮧮
廾
𰀁
𰀄
𰀈
𰀉
𰀕
𰀠
𰀡
𰀢
𰀪
𰁜
𰃮
𰆊
𰆘
𰋙
𰕎
𰢴
𰧭
𰯲
0--
14--
15--
16--
17--
20--
3--
4--
5--
6--
7--
8--
9--
a--
ab--
ac--
ad--
af--
ai--
al--
am--
an--
ap--
aqui--
ar--
ara--
arme--
as--
ash--
ast--
at--
au--
aure--
av--
b--
ba--
bach--
bak--
bal--
ban--
bangr--
bar--
bat--
bay--
be--
beau--
ben--
ber--
bet--
bi--
bla--
bo--
bog--
bols--
bom--
bor--
boy--
bra--
bri--
bro--
bu--
bul--
bur--
by--
c--
ca--
cak--
cal--
cam--
can--
car--
cas--
cau--
ce--
cemt--
cen--
cer--
ch--
char--
che--
cho--
ci--
cic--
cil--
cin--
cinty--
cir--
cku--
cla--
clay--
clo--
co--
col--
com--
con--
confe--
coo--
cor--
cou--
cre--
cro--
cu--
cul--
cur--
cut--
cy--
d--
da--
dag--
de--
dec--
dem--
demo--
des--
di--
dic--
din--
direc--
dis--
dit--
dje--
do--
dor--
dr--
du--
dut--
dy--
e--
eas--
ec--
ed--
ef--
ei--
ek--
el--
elec--
em--
en--
er--
es--
et--
eth--
eu--
ex--
exte--
f--
fa--
fab--
fac--
fal--
fam--
fas--
fe--
fer--
fern--
fi--
fil--
fin--
fis--
flori--
flu--
fo--
for--
fou--
fu--
fur--
g--
ga--
gal--
gar--
gat--
ge--
gei--
ger--
gi--
gig--
gin--
gins--
gla--
go--
god--
gold--
gor--
gott--
gu--
gud--
guil--
gun--
h--
ha--
hag--
ham--
han--
hap--
har--
haw--
hay--
he--
hel--
hen--
her--
hi--
hil--
hin--
ho--
hol--
hor--
hou--
hu--
humph--
hun--
hus--
hy--
i--
ic--
ie--
im--
in--
inclu--
indon--
indu--
inte--
ir--
is--
j--
ja--
jar--
jas--
jda--
je--
jec--
jen--
jer--
jin--
jiv--
jo--
ju--
juk--
jul--
k--
ka--
kal--
kam--
kan--
kar--
kat--
ke--
kel--
ki--
kijy--
kil--
kin--
kle--
klo--
ko--
kob--
kor--
kra--
kre--
kri--
krish--
kru--
ku--
kus--
l--
la--
lab--
lak--
lam--
lan--
lar--
le--
les--
li--
ligy--
lin--
lind--
lit--
liv--
lo--
loj--
lu--
luci--
lud--
ly--
lyn--
m--
ma--
mac--
mad--
mag--
mal--
man--
map--
mar--
mathe--
mau--
mc--
mcc--
mcke--
mckin--
mcma--
me--
meas--
men--
mer--
mi--
mid--
midd--
mik--
mil--
min--
mis--
mit--
mitro--
miya--
mo--
mon--
mor--
mos--
mot--
mru--
mu--
muk--
mul--
mur--
my--
n--
na--
nal--
nam--
nan--
nar--
nat--
natmr--
ne--
neu--
ng--
ni--
nic--
nil--
no--
nor--
nu--
nul--
nun--
ny--
o--
ob--
occu--
odo--
of--
og--
ol--
oli--
on--
or--
os--
osw--
ow--
p--
pa--
pal--
pam--
par--
pavy--
pay--
pe--
pel--
per--
pet--
petro--
pi--
pic--
pin--
pit--
pl--
po--
pol--
por--
pre--
pri--
pro--
prob--
pru--
pu--
pub--
pul--
q--
quin--
r--
ra--
rac--
rad--
ral--
ram--
rar--
rat--
re--
rel--
rem--
ren--
ri--
rid--
rij--
rin--
rit--
ro--
ros--
ru--
run--
ry--
s--
sa--
sab--
sad--
sal--
san--
sc--
sch--
sci--
se--
sec--
sek--
sel--
selc--
selm--
sels--
ser--
sett--
sfu--
sh--
sha--
she--
shep--
sho--
si--
sic--
sil--
sim--
slo--
smu--
sni--
so--
sol--
solnun--
som--
spa--
spe--
spi--
st--
ste--
stra--
stu--
stur--
su--
sw--
sy--
syl--
t--
ta--
tal--
tan--
tar--
tce--
tci--
tco--
te--
tele--
ter--
terc--
ters--
tet--
th--
thom--
ti--
tif--
tin--
tit--
to--
tol--
tom--
tor--
tra--
tri--
tru--
tsi--
tsu--
tu--
ty--
u--
ua--
ual--
uein--
ues--
un--
uni--
up--
us--
v--
va--
van--
vasi--
ve--
vel--
ven--
ver--
vi--
vik--
vo--
w--
wal--
wat--
we--
whit--
wil--
win--
wor--
wy--
wyn--
x--
xa--
xas--
xel--
xi--
xin--
xru--
xu--
y--
ya--
ye--
yo--
you--
yu--
z--
za--
ze--
zgi--
zi--
zu--
đ--
ȝ--
ʃ--
ʒ--
γυμν--
ال--
ب--
ح--
ش--
م--
و--
--0
--00
--01
--02
--03
--05
--1
--2
--3
--4
--41
--5
--51
--52
--55
--56
--6
--61
--66
--7
--77
--79
--8
--86
--9
--94
--97
--98
--a
--ah
--ai
--ak
--al
--am
--an
--ano
--ant
--ar
--ard
--ary
--as
--at
--ati
--au
--away
--ay
--b
--ba
--be
--bi
--ble
--bo
--bu
--by
--c
--ca
--cal
--ce
--ces
--ch
--chi
--cht
--ci
--ck
--cker
--cki
--cmu
--co
--cpe
--ct
--cutt
--cy
--d
--da
--dad
--dd
--de
--dev
--di
--dia
--dis
--do
--ds
--du
--dy
--e
--ea
--ed
--ei
--el
--ell
--en
--ens
--er
--ers
--es
--ese
--est
--et
--ett
--ette
--ev
--ey
--ez
--f
--fa
--fer
--ff
--fi
--ft
--fy
--g
--ga
--ge
--ggs
--gh
--gham
--ghlin
--ght
--gi
--glia
--golo
--gu
--h
--ha
--ham
--han
--he
--hi
--hn
--i
--ia
--ias
--id
--idge
--ie
--ier
--ies
--ig
--ik
--il
--im
--ime
--in
--inda
--ine
--ing
--io
--ion
--ir
--is
--it
--ity
--ius
--ix
--iz
--j
--ja
--je
--ji
--jo
--k
--ka
--ke
--ker
--kes
--kfle
--kh
--ki
--kin
--kis
--kle
--ko
--kov
--ks
--ku
--l
--la
--lay
--ld
--ldi
--lds
--le
--ler
--les
--ley
--li
--lia
--lin
--lk
--ll
--lla
--lle
--lli
--llo
--lly
--lm
--lman
--lo
--los
--lph
--ls
--lsk
--lt
--lu
--lvi
--ly
--m
--ma
--man
--mar
--me
--ment
--mi
--mo
--moi
--mp
--mu
--my
--n
--na
--nam
--nard
--nd
--ndt
--ne
--ned
--nell
--ner
--nes
--ness
--nett
--ney
--ng
--nge
--ni
--nie
--nin
--nko
--nmo
--nn
--no
--nov
--nri
--ns
--nt
--nta
--nte
--nthal
--nti
--nu
--ny
--o
--od
--off
--ok
--ol
--on
--op
--ops
--or
--os
--ot
--otti
--ou
--ough
--ous
--out
--ov
--ow
--p
--pau
--pin
--pp
--pre
--ps
--pt
--pu
--pus
--r
--ra
--ral
--ran
--ras
--rd
--re
--res
--ri
--ria
--rie
--ries
--ris
--rl
--rly
--rm
--rman
--rms
--rn
--rne
--ro
--ros
--rov
--row
--rr
--rry
--rs
--rt
--rty
--ru
--ry
--s
--sa
--sch
--se
--sel
--sen
--ser
--ses
--sey
--sh
--shi
--si
--side
--sin
--sk
--ske
--sky
--sley
--so
--son
--spe
--ss
--sse
--st
--ston
--su
--t
--ta
--tal
--tc
--tci
--te
--ten
--ter
--tes
--th
--ti
--tier
--tin
--tion
--tis
--to
--ton
--ts
--tt
--tta
--tte
--tu
--tus
--ty
--tz
--u
--ub
--ud
--ue
--ugh
--ught
--ult
--ume
--un
--und
--unt
--ur
--us
--ut
--ution
--v
--va
--vas
--ve
--ved
--vi
--vin
--vis
--vla
--vo
--vsky
--w
--wa
--wick
--wn
--wood
--ws
--x
--xa
--xra
--xu
--y
--ya
--ye
--yl
--yle
--ym
--yn
--yske
--z
--za
--zie
--بية
--ك
--ل
