!
"
#
##0
##1
##10
##11
##12
##13
##14
##15
##16
##17
##18
##19
##2
##20
##21
##22
##23
##24
##25
##26
##27
##28
##29
##3
##30
##31
##32
##33
##34
##35
##36
##37
##38
##39
##4
##40
##41
##42
##43
##44
##45
##46
##47
##48
##49
##5
##50
##51
##52
##53
##54
##55
##56
##57
##58
##59
##6
##60
##61
##62
##63
##64
##65
##66
##67
##68
##69
##7
##70
##71
##72
##73
##74
##75
##76
##77
##78
##79
##8
##80
##81
##82
##83
##84
##85
##86
##87
##88
##89
##9
##90
##91
##92
##93
##94
##95
##96
##97
##98
##99
$
%
&
'
(
)
*
+
,
-
.
/
0
00
000
001
01
02
03
0362
04
0436
05
06
07
08
09
0971
1
10
100
1000
1002
1007
101
1016
1017
102
103
1038
104
105
106
107
108
1080
1086
109
1093
11
110
111
1111
112
1126
113
114
115
116
117
1177
118
119
12
120
121
122
123
124
125
126
127
128
129
13
130
131
132
133
134
135
136
137
138
139
14
140
141
142
143
144
145
146
147
148
149
15
150
151
152
153
154
155
156
157
158
159
16
160
161
162
163
164
165
167
169
17
170
171
173
175
179
18
180
181
183
185
186
187
189
19
190
1900
1901
1910
1911
1912
1913
1914
1918
1919
1920
1921
1922
1923
1929
1930
1931
1932
1934
1935
1936
1937
1938
1939
1940
1941
1944
1945
1946
1947
1948
1949
195
1950
1951
1952
1953
1954
1955
1956
1957
1958
1959
1960
1961
1962
1963
1964
1965
1966
1967
1968
1969
1970
1971
1972
1973
1974
1975
1976
1977
1978
1979
1980
1981
1982
1983
1984
1985
1986
1987
1988
1989
1990
1991
1992
1993
1994
1995
1996
1997
1998
1999
2
20
200
2000
2001
2002
2003
2004
2005
2006
2007
2008
2009
201
2010
2011
2012
2013
2014
2015
2016
2017
2018
2019
202
2020
2021
2022
203
205
206
207
208
21
211
215
22
226
23
230
2307
231
24
25
250
253
26
27
275
28
29
3
30
300
30677644
31
313
317
32
321
33
34
35
36
360
37
38
39
4
40
400
41
415
42
43
4331
44
45
46
47
48
49
5
50
500
51
52
520
521
53
54
55
56
57
58
59
6
60
600
61
62
63
64
65
66
67
68
69
691
7
70
70120
71
72
73
74
75
751
76
77
78
79
8
80
81
82
83
84
85
86
87
88
883871743
89
9
90
91
92
93
94
95
96
97
978
98
984
9843205901
99
:
;
<
=
>
?
@
[
\
]
^
_
`
a
aa
aaron
ab
abc
abd
abdul
abdullah
about
above
abraham
abstract
abu
abuse
ac
academic
academy
access
accessed
according
account
acid
across
act
action
activity
actor
actors
actress
ad
adam
adams
address
administration
administrative
adult
advaita
advanced
ae
af
afc
affairs
afghan
afghanistan
africa
african
after
again
against
age
agency
ages
agreement
agricultural
agriculture
ah
ahead
ahmad
ahmed
aid
air
aircraft
airlines
airport
airports
akademi
al
alan
albert
album
alex
alexa
alexander
alfred
ali
all
allen
alliance
almanack
alo
along
alpha
also
alternative
although
always
am
amar
amazon
ambassador
america
american
amid
among
an
analysis
anand
anandabazar
anatomy
ancient
and
anderson
andhra
andre
andrew
android
angeles
anglo
animal
animals
anime
ann
anna
annals
anne
anniversary
announce
announced
announces
annual
another
anthony
anthropology
anti
any
ap
app
appendix
apple
application
applications
applied
appointed
approach
apr
april
ar
arab
arabia
arabic
archaeological
archaeology
architecture
archive
archived
archives
are
area
areas
argentina
armed
armenia
armenian
arms
army
arnold
around
arrested
art
arthur
article
articles
artist
artists
arts
arxiv
as
ashes
asia
asian
asiatic
ask
asked
aspects
aspx
assam
assembly
assessment
associated
association
associations
astronomical
astronomy
at
atheist
athletics
atlantic
atlas
attack
attacks
au
audio
aug
august
austin
australia
australian
author
authority
authors
available
averages
aviation
avn
award
awarded
awards
away
azerbaijan
b
ba
baby
back
background
bad
bafta
bahrain
baker
ball
ban
banarsidass
band
banerjee
bangalore
bangkok
bangla
bangladesh
bangladeshi
banglanews
banglapedia
bank
bar
barbara
barcelona
barry
base
based
basic
basis
batting
battle
bay
bbc
bbs
bc
bd
bdnews
be
beat
beautiful
beauty
became
because
become
becomes
been
before
begin
beginning
begins
behavior
behind
beijing
being
belgium
believe
bell
ben
bengal
bengali
benjamin
berkeley
berlin
bernard
best
beta
better
between
beyond
bf
bharat
bhattacharya
bhutan
bi
bible
bibliography
big
bigg
biggest
bihar
bill
billboard
billion
bin
bio
biographical
biographies
biography
biological
biology
bird
birdlife
birds
birth
birthday
bjp
black
blackwell
block
blog
blood
bloomberg
blue
bn
bo
board
bob
body
bollywood
bombay
book
books
border
born
bose
boss
boston
bosworth
both
bowling
box
boy
br
brain
branch
brand
brazil
break
breaking
brian
bridge
brief
brill
britain
britannica
british
broadcasting
brother
brothers
brown
bruce
bu
buddha
buddhism
buddhist
budget
build
building
built
bulletin
bureau
burma
business
but
butterflies
by
bzang
c
ca
cabinet
cairo
calcutta
calendar
california
call
called
calls
cambridge
came
camp
campaign
campbell
can
canada
canadian
canberra
cancer
candidate
candidates
cap
capital
captain
card
care
career
carl
carolina
case
cases
cast
caste
cat
catalogue
category
catherine
catholic
cause
causes
cbs
cd
cdc
cdot
ce
cell
census
center
centers
central
centre
centuries
century
ceo
ceremony
ceylon
cf
ch
chairman
challenge
challenges
champion
champions
championship
championships
chandra
change
changed
changes
changing
channel
chapter
character
charge
charles
chart
charts
chatterjee
check
chemical
chemistry
chen
chennai
chess
chicago
chief
child
children
chile
china
chinese
chittagong
choice
chos
chowdhury
chris
christian
christianity
christopher
chronicle
chronology
church
ci
cia
cinema
circle
cite
cities
citizen
city
civil
civilization
cl
claim
claims
clark
class
classic
classical
classification
climate
clinical
clio
close
club
cm
cn
cnn
co
coach
coast
coauthors
code
cohen
cold
colin
collection
collections
college
colleges
collins
colonial
color
columbia
com
come
comedy
comes
coming
commentary
commerce
commercial
commission
commissioner
committee
common
commonwealth
communication
communications
communities
community
companion
company
comparative
comparison
competition
complete
complex
comprehensive
computer
con
concept
concise
conditions
conference
confirmed
confirms
conflict
congress
conquest
conservation
constituencies
constituency
constitution
construction
contact
contemporary
content
context
contract
contribution
control
convention
cook
cooper
cooperation
copa
copy
core
cornell
coronavirus
corporation
correspondent
cos
could
council
countries
country
county
course
court
cover
covid
coxsbazar
cr
craig
crc
creation
crew
cricinfo
cricket
cricketarchive
cricketer
cricketers
crime
crimes
criminal
crisis
critical
critics
crore
cross
crown
cultural
culture
cultures
cup
current
cut
d
da
daily
dan
dance
daniel
dar
dark
darwin
das
data
database
date
dated
dates
daughter
dave
david
davis
dawn
day
days
dbang
dc
de
dead
deadline
deal
death
debate
debut
dec
deccan
december
decision
deep
def
defence
defense
definition
del
delhi
delimitation
delta
demand
democracy
democratic
den
dennis
deoband
department
der
des
description
design
desk
detail
detailed
details
deussen
deutsche
dev
development
devi
dhaka
dharma
di
diabetes
dictionary
did
die
died
diego
dies
different
digital
din
direct
director
directorate
directory
discovery
discussion
disease
diseases
disney
displaystyle
distribution
district
districts
diversity
divine
division
dna
do
doctor
document
documentary
documents
does
doi
domain
domainfalsefalse
domainpublic
domestic
don
donald
dot
double
douglas
dover
down
dr
drama
dream
drug
drugs
du
dubai
due
during
dutch
dutta
dvd
dw
dx
dynamics
dynasty
e
each
earliest
early
earth
east
eastern
ecology
economic
economics
economist
economy
ed
edinburgh
edited
edition
editions
editor
editorial
editors
eds
edu
education
educational
edward
effect
effects
egypt
egyptian
eight
ek
el
elected
election
elections
electoral
electronic
elements
elizabeth
elsevier
embassy
emerging
emirates
emma
emperor
empire
en
encyclopaedia
encyclopedia
encyclopædia
end
ends
energy
engine
engineering
england
english
enquiry
entertainment
entry
environment
environmental
epic
episode
er
era
eric
es
espn
espncricinfo
essays
essential
est
estimates
et
etc
ethics
ethnic
eu
euro
europa
europe
european
ev
evans
even
evening
event
events
ever
every
everything
evidence
evolution
ex
example
exchange
exclusive
executive
expansion
experience
exploration
express
eye
eyes
f
fa
face
facebook
faces
fact
factbook
facts
faculty
fair
faith
fall
falling
fame
families
family
famous
fans
far
fashion
fast
father
fc
fe
fear
feature
features
feb
february
federal
federation
feed
female
feminism
feminist
festival
festivals
few
fi
fiction
field
fifa
fifth
fight
fighting
figure
figures
file
files
film
filmfare
films
final
finally
finance
financial
find
fire
first
firstpost
fish
five
flag
flight
flood
florida
floyd
focus
folk
following
food
football
for
forbes
force
forces
foreign
forest
forgotten
form
format
formation
former
forms
fort
forum
forward
found
foundation
foundations
founder
four
fourth
fox
fr
frac
franc
france
francis
francisco
frank
fred
frederick
free
freedom
french
fresh
friday
friendlies
friends
from
front
frontier
fu
full
function
fund
further
future
g
ga
gallery
game
games
gamma
gandhi
garden
gary
gas
gay
gazette
gazetteer
ge
gen
gender
gene
general
generation
genetic
genetics
genocide
genomics
geographic
geographical
geography
geological
george
georgia
german
germany
ges
get
gets
ghosh
gi
girl
girls
gita
give
given
gives
global
globe
glossary
go
goal
god
goddess
gods
goes
going
gold
golden
gomolo
good
google
gordon
got
gov
government
governor
govt
graham
grammar
grand
grant
gray
great
greater
greatest
greece
greek
green
greenwood
gregory
ground
group
groups
growing
growth
gu
guardian
guide
guides
gujarat
gulf
gupta
guru
guy
h
ha
had
hai
half
hall
hamilton
hand
handbook
hands
hans
happy
hard
harold
harper
harris
harry
harvard
has
hasan
hassan
hat
have
having
hawaii
hdl
he
head
health
heart
held
help
henry
her
herald
here
heritage
hero
hi
high
higher
highest
highway
highways
hill
hills
him
himalayan
himself
hindi
hindu
hinduism
hindus
hindustan
his
historic
historical
history
hit
hits
ho
hollywood
holy
home
hong
honour
hope
hopkins
hospital
hossain
host
hot
house
housing
how
howard
however
htm
html
http
https
hu
huffington
hugh
human
hundred
hungama
hunter
hussain
hyderabad
i
ian
ibn
icc
ice
id
idea
ideas
identity
ieee
if
ii
iifa
iii
il
illinois
illustrated
im
image
images
imam
imdb
impact
imperial
important
in
inc
include
includes
including
independence
independent
index
india
indian
indiana
indians
indiarailinfo
indiatimes
indica
indies
indigenous
individual
indo
indonesia
indus
industrial
industry
influence
info
information
innings
inside
insider
instagram
institute
institution
institutions
int
intelligence
inter
interactive
interest
internal
international
internationale
internationals
internet
interpretation
interview
into
introduction
invalid
ipl
ir
iran
iranian
iranica
iraq
ireland
irfca
irish
iron
is
isaac
isbn
islam
islamic
island
islands
israel
israeli
issue
issues
ist
it
italian
italy
its
ittefaq
iucn
iv
j
ja
jack
jackson
jacob
jagonews
jain
jakarta
jamaica
james
jammu
jan
jane
january
japan
japanese
jason
jay
jazeera
je
jean
jeff
jeffrey
jennifer
jersey
jerusalem
jessica
jesus
jewish
jews
ji
jim
jo
joe
john
johnson
join
joins
joint
jon
jonathan
jones
jordan
jose
joseph
journal
journey
jp
jpg
jr
ju
jugantor
jul
july
jump
jun
june
just
justice
justin
k
ka
kalerkantho
kamal
kapoor
karachi
karen
karl
karnataka
kashmir
kate
kathmandu
ke
keep
keith
kennedy
kenneth
kent
kenya
kerala
kevin
key
khan
ki
kids
kill
killed
killing
kim
king
kingdom
kings
kit
km
know
knowledge
known
ko
kolkata
kong
korea
korean
krishna
ku
kumar
kuwait
l
la
lab
labor
laboratory
labour
lady
lahore
lake
lal
lambda
land
lands
lane
lang
language
languages
lanka
large
largest
las
last
late
later
latest
latin
launch
launched
launches
laura
law
lawrence
laws
le
lead
leader
leaders
leadership
leading
leads
league
learning
least
leave
leaves
lecture
led
lee
left
legacy
legal
legend
legislative
leiden
length
les
less
let
letter
letters
level
lewis
li
liberation
libraries
library
life
light
like
likely
limited
line
linguistic
linguistics
link
links
linux
lion
lisa
list
lists
literary
literature
little
live
lives
living
llc
ln
lo
local
location
log
lok
london
long
longman
look
lord
los
loss
lost
louis
love
low
lower
ltd
lu
m
ma
machine
macmillan
made
madras
madrid
magazine
magic
mahabharata
maharashtra
mail
main
major
make
makes
making
malaysia
maldives
male
malik
man
management
manchester
manual
many
map
maps
mar
marc
march
margaret
maria
marie
marine
mark
market
marriage
mars
marshall
martin
marvel
mary
masjid
mass
massachusetts
master
masters
match
matches
material
materials
math
mathbf
mathematical
mathematics
mathrm
matt
matter
matthew
maulana
max
may
mayor
mcgraw
md
me
mean
meaning
means
mechanics
med
medal
media
medical
medicine
medieval
meet
meeting
melbourne
member
members
memorial
memory
men
mental
merger
merriam
messi
method
methods
metro
metropolitan
mexico
mi
michael
michigan
microsoft
mid
middle
might
migration
mike
military
miller
million
mind
minister
ministry
minor
minorities
minority
mirror
miss
missile
missing
mission
mit
mla
mlas
mo
mobile
model
models
modern
modi
mohammad
mohammed
mohan
mojo
molecular
money
monitor
month
monthly
months
monuments
moon
moore
more
morgan
morning
morris
moscow
mosque
most
mother
motilal
motion
mount
mountain
move
movement
movements
movie
movies
mp
mr
ms
mtv
mu
much
mughal
muhammad
mukherjee
mumbai
municipal
murder
murray
museum
music
musical
muslim
muslims
must
my
myanmar
myneta
mystery
myth
mythology
myths
n
na
nadu
name
named
names
nancy
nasa
nat
nath
nation
national
nationalism
nations
native
natural
nature
naval
naver
navy
nb
nd
ndtv
ne
near
need
neil
nelson
nepal
nepali
net
netflix
netherlands
network
networks
never
new
news
newspaper
newspapers
newton
next
ng
nh
ni
nic
nicholas
nick
nigeria
night
nine
nj
no
nobel
nobelprize
noble
nominations
nominees
non
norman
north
northern
norton
not
note
notes
nothing
nov
novel
november
now
nu
nuclear
number
numbers
nxt
ny
nz
o
obama
obituary
observer
ocean
oct
october
odi
odisha
of
off
office
officer
official
officials
often
oh
ohio
oil
old
oldest
oliver
olympic
olympics
oman
omega
on
once
one
online
only
open
opening
opens
operation
operations
opinion
or
oral
order
ordered
orders
org
organisation
organization
orient
oriental
origin
original
origins
os
oscar
other
others
ottoman
our
out
outlook
outside
over
overview
own
oxford
p
pa
pacific
padma
page
pages
pakistan
pakistani
palace
palestine
palestinian
palgrave
pan
paper
papers
para
parganas
paris
parishad
park
parliament
parliamentary
part
partial
parties
parts
party
passes
past
path
patrick
paul
pay
pbs
pc
pdf
pe
peace
pearson
penguin
pennsylvania
people
peoples
per
performance
period
persian
person
personal
perspective
perspectives
peter
pew
pg
ph
phase
philadelphia
philip
philippines
philosophical
philosophy
photo
photos
php
physical
physics
physiology
pi
picture
pictures
pierre
pink
pioneer
pk
place
places
plan
planet
planetary
planning
plans
plant
plants
play
played
player
players
playing
plays
plus
pm
pmc
pmid
pnas
po
poems
poet
poetry
point
points
police
policy
political
politics
poll
polls
pop
popular
population
porn
port
portal
portrait
portugal
portuguese
position
positive
possible
post
potential
potter
powell
power
powers
pp
pr
practical
practice
practices
pradesh
prakash
prakashan
prasad
pre
premier
present
president
presidential
press
prevention
price
primary
prime
prince
princeton
principles
print
printing
private
prize
pro
problem
problems
proceedings
process
product
production
products
prof
professional
professor
profile
program
programme
progress
project
projects
properties
prophet
protection
protest
prothom
prothomalo
province
provinces
provisional
psychological
psychology
pt
pti
pub
public
publication
publications
published
publisher
publishers
publishing
punjab
purana
put
pvt
q
qatar
qualifier
qualifiers
quality
quantum
quarterly
que
queen
quest
question
questions
quot
quote
qur
quran
r
ra
race
rachel
radio
rahman
rail
railway
railways
rain
raj
raja
rajasthan
ram
ramakrishna
random
rangamati
range
ranking
rankings
rao
rape
rare
rashid
rate
ration
raw
ray
rd
re
reach
read
reader
reading
ready
real
reality
really
reason
recent
record
records
red
rediff
ref
reference
references
reform
refugees
region
regional
regions
register
registrar
reign
related
relations
relationship
release
released
releases
religion
religions
religious
report
reporter
reports
reprint
reprinted
republic
res
research
reserve
resolution
resource
resources
response
result
results
retrieved
return
returns
reuters
rev
revealed
reveals
review
reviews
revised
revolution
rgyal
rho
ri
rica
rice
rich
richard
right
rights
ring
rio
rise
risk
ritual
river
ro
road
robert
roberts
robin
robinson
rock
roger
role
roman
rome
ronald
room
roots
rose
rosen
ross
round
route
routledge
row
roy
royal
rs
ru
rule
rules
run
runs
rural
russell
russia
russian
ryan
s
sa
sabha
sacred
safety
sage
sahitya
said
saint
sales
salman
sam
same
sample
samuel
san
sanskrit
santa
sarah
sarkar
satellite
saudi
say
says
sc
scale
schedule
scholar
scholars
school
schools
schuster
sci
science
sciences
scientific
scientist
scientists
score
scorecard
scotland
scott
screen
script
se
sea
search
season
seat
seats
second
secret
secretary
section
security
see
seen
selected
selection
self
sen
senate
senior
sense
sep
september
series
service
services
set
sets
seven
several
sex
sexual
sexuality
shah
shakespeare
shall
share
sharma
shaw
she
sheet
sheikh
shi
ship
shooting
short
shot
should
show
shows
shri
si
side
sign
signs
sikkim
silver
simon
sin
since
singapore
singer
singh
single
sinha
sir
sister
site
sites
situation
six
sixth
size
sky
small
smith
snow
so
soc
soccer
soccerway
social
society
software
solar
some
son
song
songs
sons
soon
soul
sound
source
sources
south
southeast
southern
soviet
sp
space
spain
spanish
special
species
speech
speed
spider
spirit
spiritual
sport
sports
spot
spring
springer
sqrt
squad
squads
square
sri
st
stadium
staff
stage
stand
standard
stanford
stanley
star
stars
start
starts
state
statement
states
statesman
station
stations
statistical
statistics
stats
statsguru
status
step
stephen
steve
steven
stewart
still
stone
stop
store
stories
storm
story
strack
strategic
strategy
street
strong
structure
struggle
stuart
student
students
studies
study
style
su
sub
success
such
sudan
suicide
sultan
sum
summary
summer
sun
sunday
suny
super
support
supreme
sur
surface
surgery
survey
susan
swami
sweden
swedish
sydney
syed
sylhet
symbols
syndrome
syria
system
systematic
systems
t
ta
table
tables
tag
tagore
taiwan
take
taken
takes
taking
tale
taliban
talk
talks
tamil
tan
tauris
taylor
te
tea
teaching
team
teams
tech
technical
technology
teen
telegraph
telegraphindia
television
telugu
temple
temples
ten
term
terms
territories
territory
terror
terrorism
test
tests
texas
text
texts
th
thai
thailand
than
that
the
theatre
thedailystar
thehindu
their
them
then
theology
theory
there
these
theta
they
things
think
third
this
thomas
thompson
thomson
those
though
thought
thousand
threat
threatened
three
through
thus
ti
tibet
tibetan
tiger
till
tim
time
timeline
times
timesofindia
title
tnn
to
today
together
tokyo
told
tom
tony
too
took
top
toronto
total
tour
tourism
tournament
towards
tower
town
towns
tr
track
trade
tradition
traditional
traditions
traffic
trailer
train
training
trans
transfermarkt
transformation
transition
translated
translation
translations
translator
transport
transportation
travel
treasury
treatment
tree
trends
trial
tribune
tribute
tripura
troops
trophy
tropical
true
trump
trust
truth
tu
turkey
turkish
turn
turner
turns
tv
twentieth
twenty
twitter
two
type
u
uae
uefa
uk
ukraine
ul
un
und
under
understanding
unesco
union
unit
united
units
universal
universe
universities
university
until
up
upanishad
upanishads
update
updated
updates
upon
upper
urban
urdu
url
us
usa
use
used
uses
using
uttar
v
va
vaccine
valley
value
van
variety
various
ve
vec
veda
vedanta
vedic
verlag
verse
version
very
vi
via
vice
victims
victor
victoria
victory
video
videos
vidya
vietnam
view
views
vii
vijay
village
violence
virginia
virtual
virus
vision
visit
visual
vivekananda
voice
vol
volume
volumes
von
vote
vs
w
wa
wales
walker
wall
walter
wang
want
wanted
wants
war
warner
warren
wars
was
washington
watch
water
watson
wave
way
wayback
we
weapons
weather
web
website
webster
week
weekly
welcome
welfare
well
were
west
western
what
when
where
which
while
white
who
whole
whose
why
wickets
wife
wiki
wikipedia
wild
wildlife
wiley
will
william
williams
wilson
win
windows
winner
winners
winning
wins
winter
wisden
wisdom
wise
with
within
without
woman
women
won
wood
word
words
work
workers
working
works
world
worldfootball
worldwide
would
wrestling
wright
writer
writers
writing
writings
written
wwe
www
x
xi
xii
y
ya
yahoo
yale
year
years
yellow
yemen
yet
yoga
york
you
young
your
youth
youtube
yu
z
za
zealand
zee
zimbabwe
zimmermann
zone
zu
{
|
}
~
¡
£
¤
§
©
«
­
®
¯
°
±
²
´
·
º
»
½
¿
×
æ
÷
ı
ŋ
ɑ
ɔ
ə
ɛ
ɜ
ɡ
ɪ
ɹ
ʃ
ʒ
ʰ
ʱ
ʲ
ʹ
ʻ
ʼ
ʾ
ʿ
ˈ
ˌ
ː
ˑ
˙
̀
́
̂
̃
̄
̆
̇
̈
̉
̊
̋
̌
̓
̔
̛
̟
̠
̣
̥
̦
̧
̨
̩
̪
̯
̱
̲
̸
͂
͞
͡
α
β
γ
δ
ε
η
θ
ι
κ
λ
μ
ν
ο
π
ρ
ς
σ
τ
φ
χ
ψ
ω
ϕ
ϵ
а
в
г
и
к
л
м
н
на
о
п
с
т
у
я
ְ
ִ
ֵ
ֶ
ַ
ָ
ֹ
ּ
ׁ
א
ב
ה
י
ל
מ
ר
ש
،
ا
ال
الا
الله
ب
بن
ة
ت
ث
ج
ح
خ
د
ذ
ر
ز
س
ش
ص
ض
ط
ع
غ
ف
في
ق
ك
ل
م
محمد
ن
ه
و
ى
ي
ً
ٌ
ٍ
َ
ُ
ِ
ّ
ْ
ٓ
ٔ
ٕ
ٰ
ی
ے
۔
ۡ
ަ
ँ
ं
ः
अ
आ
ई
ए
ओ
क
ख
ग
घ
ङ
च
छ
ज
झ
ञ
ट
ठ
ड
ण
त
थ
द
ध
न
प
फ
ब
भ
म
य
र
ल
व
श
ष
स
ह
़
ा
ि
ी
ु
ू
ृ
े
ै
ॉ
ो
ौ
्
।
॥
ঁ
ং
ঃ
অ
অক
অকর
অকল
অকস
অখ
অখণ
অগ
অগণ
অগণন
অগত
অগভ
অগস
অঘ
অঙ
অচ
অচল
অজ
অজয
অজস
অঞ
অট
অটল
অড
অণ
অত
অতএব
অথ
অথচ
অথব
অথর
অদ
অধ
অধর
অন
অনত
অনন
অনভ
অনর
অনল
অনস
অপ
অপট
অপব
অপম
অপর
অপরক
অপরট
অপরদ
অপস
অপহরণ
অফ
অব
অবক
অবগত
অবজ
অবত
অবতরণ
অবদ
অবধ
অবন
অবনত
অবনম
অবব
অবম
অবয
অবর
অবল
অবলম
অবশ
অবস
অবসর
অবসরপ
অবহ
অভ
অভয
অম
অমন
অমর
অমল
অয
অর
অরণ
অরব
অল
অলক
অলঙ
অলম
অলস
অশ
অষ
অস
অসঙ
অসন
অসম
অসমর
অসহ
অসহয
অহ
অহঙ
আ
আই
আইইইই
আইইউস
আইএ
আইএমড
আইএস
আইএসএসএন
আইএসও
আইএসব
আইক
আইকন
আইজ
আইট
আইড
আইন
আইনগত
আইনজ
আইনট
আইনশ
আইনস
আইনসভ
আইপ
আইফ
আইব
আইভ
আইয
আইর
আইল
আইস
আইসল
আউট
আউটপ
আউল
আওত
আওয
আওরঙ
আক
আকবর
আকর
আকস
আখ
আখড
আখত
আগ
আগত
আগন
আগমন
আগরতল
আগস
আঘ
আঙ
আচ
আচরণ
আছ
আজ
আজও
আজক
আজম
আজহ
আঞ
আট
আটক
আটজন
আটট
আটল
আঠ
আড
আণব
আত
আতঙ
আথ
আদ
আদম
আদমশ
আদর
আদল
আধ
আন
আনত
আনন
আনব
আনয
আনল
আনস
আপ
আপত
আপন
আপল
আফ
আফগ
আফজ
আফত
আফস
আব
আবদ
আবর
আবরণ
আবশ
আবহ
আভ
আম
আমজ
আমদ
আমন
আমর
আমল
আমস
আয
আর
আরএনএ
আরও
আরক
আরজ
আরট
আরত
আরপ
আরব
আরবদ
আরম
আরশ
আরস
আল
আলক
আলগ
আলজ
আলত
আলফ
আলব
আলভ
আলম
আলমগ
আলয
আলস
আলহ
আশ
আশঙ
আশপ
আশর
আষ
আস
আসক
আসছ
আসত
আসন
আসনট
আসব
আসম
আসর
আসল
আহ
আহত
আহব
আহম
আহমদ
আহরণ
আহল
আহস
ই
ইইউ
ইউ
ইউআরএল
ইউএস
ইউক
ইউজ
ইউট
ইউন
ইউপ
ইউয
ইউর
ইউস
ইএসপ
ইও
ইওয
ইক
ইকব
ইকম
ইখ
ইগ
ইঘ
ইঙ
ইচ
ইছ
ইছড
ইজ
ইজড
ইজন
ইজম
ইজর
ইঞ
ইট
ইটক
ইটগ
ইটট
ইটন
ইটস
ইড
ইণ
ইত
ইতস
ইথ
ইথন
ইদ
ইদহ
ইন
ইনক
ইনকর
ইনগ
ইনজ
ইনট
ইনড
ইনপ
ইনফ
ইনফরম
ইনব
ইনভ
ইনম
ইনর
ইনস
ইনহ
ইপ
ইপর
ইফ
ইফত
ইব
ইবন
ইবর
ইভ
ইভক
ইভস
ইম
ইমট
ইমত
ইমন
ইমপ
ইমর
ইমস
ইয
ইর
ইল
ইলক
ইলট
ইলফলক
ইলম
ইলর
ইলস
ইশ
ইশত
ইষ
ইস
ইসন
ইসব
ইসম
ইসর
ইসরয
ইসল
ইসহ
ইহ
ঈ
ঈগল
ঈদ
ঈদগ
ঈম
ঈর
ঈশ
ঈষৎ
ঈস
উ
উই
উইক
উইজড
উইথ
উইন
উইম
উইয
উইল
উইলসন
উক
উখ
উগ
উচ
উজ
উজট
উজব
উট
উটন
উটর
উঠ
উঠছ
উঠত
উঠব
উঠল
উড
উণ
উত
উথ
উদ
উদয
উদর
উন
উনব
উনল
উপ
উপক
উপকরণ
উপগ
উপজ
উপত
উপদ
উপন
উপনদ
উপপ
উপব
উপভ
উপম
উপমহ
উপয
উপর
উপরন
উপলক
উপলব
উপশ
উপস
উপসর
উপহ
উফ
উব
উভচর
উভয
উম
উমর
উয
উর
উল
উলট
উশ
উশন
উষ
উস
উসম
উহ
উৎক
উৎকর
উৎখ
উৎপ
উৎপত
উৎপন
উৎস
উৎসব
উৎসর
ঊ
ঊনব
ঊর
ঊষ
ঋ
ঋগ
ঋণ
ঋণক
ঋত
ঋষ
এ
এই
এইখ
এইচ
এইচআইভ
এইচএসস
এইচড
এইচপ
এইজন
এইট
এইডস
এইব
এইভ
এইর
এইরকম
এইসব
এএফস
এও
এওয
এক
একই
একইভ
একইস
একক
এককভ
একখ
একগ
একচ
একজ
একজন
একজনক
একট
একত
একথ
একদ
একদম
একদল
একধরন
একন
একপ
একব
একবচন
একম
একমত
একয
একর
একরকম
একল
একশ
একশত
একস
একসঙ
একসময
এখ
এখত
এখন
এখনই
এখনও
এখনক
এগ
এঙ
এছ
এজ
এজন
এঞ
এট
এড
এডওয
এডভ
এডম
এত
এতই
এতক
এতট
এতদ
এথ
এদ
এধরন
এন
এনএ
এনএইচ
এনএক
এনওয
এনক
এনগ
এনজ
এনট
এনড
এনপ
এনব
এনভ
এনস
এপ
এপর
এফ
এফএ
এফএম
এফড
এফব
এফস
এব
এভ
এম
এমআইড
এমএ
এমএল
এমএস
এমক
এমজ
এমট
এমড
এমত
এমন
এমনই
এমনক
এমনট
এমনভ
এমপ
এমব
এমস
এয
এর
এরই
এরও
এরকম
এরপর
এরফল
এরশ
এল
এলএলস
এলজ
এলড
এলপ
এলব
এলস
এশ
এস
এসআই
এসআর
এসএএল
এসএম
এসএস
এসএসস
এসক
এসকল
এসট
এসড
এসপ
এসব
এসময
এসস
ঐ
ঐক
ঐত
ঐর
ঐশ
ও
ওআই
ওই
ওএল
ওএস
ওক
ওকল
ওখ
ওগ
ওজ
ওজন
ওট
ওঠ
ওড
ওত
ওথ
ওদ
ওন
ওপ
ওপর
ওফ
ওব
ওবন
ওভ
ওম
ওমর
ওয
ওর
ওরচ
ওরফ
ওল
ওলজ
ওলন
ওশ
ওষ
ওস
ওসম
ওহ
ঔ
ঔদ
ঔপন
ঔষধ
ক
কই
কইনফ
কও
কওম
কওয
কক
কখ
কখন
কখনই
কখনও
কগ
কগঞ
কগণ
কঘর
কঙ
কচ
কছ
কছড
কজ
কজন
কট
কটক
কটতম
কটন
কটপ
কটবর
কটল
কটস
কঠ
কড
কণ
কত
কতই
কতক
কতকগ
কতকট
কতগ
কতট
কতদ
কতর
কথ
কদ
কদম
কদর
কধ
কন
কনক
কনজ
কনট
কনফ
কনভ
কনর
কনস
কপ
কপথ
কফ
কব
কবর
কবরস
কবল
কভ
কম
কমই
কমত
কমন
কমনওয
কমপ
কমপক
কমব
কমর
কমল
কয
কর
করক
করচ
করছ
করণ
করণক
করণগ
করণট
করত
করদ
করন
করপ
করব
করল
কল
কলক
কলঙ
কলন
কলম
কলস
কলহ
কশ
কশন
কষ
কস
কসই
কসন
কসপ
কসব
কসভ
কসম
কহ
খ
খক
খকগণ
খকদ
খকর
খখ
খগ
খচ
খছ
খট
খড
খণ
খত
খদ
খন
খনন
খননক
খপ
খব
খবর
খভ
খম
খয
খর
খরগ
খরচ
খল
খলন
খশ
খস
খসড
গ
গই
গও
গক
গগ
গগন
গঙ
গচ
গছ
গজ
গজট
গজন
গজপত
গজল
গঞ
গট
গঠ
গঠক
গঠন
গঠনক
গঠনগ
গঠনট
গড
গণ
গণক
গণত
গণতন
গণন
গণপ
গণপর
গণভ
গণম
গণহত
গত
গতভ
গথ
গদ
গধ
গন
গপ
গফ
গফল
গব
গবত
গবন
গবর
গভ
গভঙ
গভর
গম
গমন
গয
গর
গরক
গরণ
গরদ
গরম
গল
গলক
গলদ
গলন
গলপ
গলব
গশ
গস
গসম
গহ
গহন
ঘ
ঘক
ঘট
ঘটক
ঘটত
ঘটন
ঘটব
ঘটল
ঘড
ঘণ
ঘতম
ঘদ
ঘন
ঘনত
ঘনম
ঘব
ঘম
ঘর
ঘরট
ঘরব
ঘল
ঘস
ঙ
ঙন
ঙর
ঙল
চ
চওড
চক
চকচক
চকদ
চকমণ
চকর
চগ
চগড
চজন
চঞ
চট
চড
চণ
চত
চতম
চতর
চদ
চদশ
চন
চপ
চপদস
চব
চভ
চম
চমক
চমৎক
চয
চর
চরক
চরণ
চরম
চরমপন
চল
চলক
চলগ
চলচ
চলছ
চলট
চলত
চলন
চলব
চলম
চলল
চলসম
চশ
চশম
চস
ছ
ছক
ছগ
ছট
ছড
ছত
ছদ
ছন
ছপ
ছব
ছয
ছর
ছল
ছলন
জ
জই
জউদ
জও
জওয
জওহরল
জক
জকচ
জকন
জকর
জগ
জগঞ
জগণ
জগত
জগদ
জগন
জগৎ
জঙ
জছ
জজ
জট
জড
জত
জতন
জদ
জধ
জন
জনই
জনক
জনকণ
জনগ
জনগণ
জনগণক
জনগণন
জনগর
জনজ
জনত
জনন
জনপ
জনপদ
জনব
জনবর
জনবসত
জনবহ
জনম
জনমত
জনশ
জনস
জনসন
জনসম
জনহ
জপ
জপথ
জপর
জব
জবন
জভ
জম
জমহল
জয
জর
জরত
জল
জলক
জলজ
জলদস
জলধ
জলন
জলপ
জলপথ
জলব
জলস
জশ
জস
জসজ
জসভ
জসম
জহ
ঝ
ঝখ
ঝগড
ঝট
ঝড
ঝত
ঝন
ঝব
ঝর
ঝরন
ঝল
ঝলক
ঞ
ঞত
ঞদ
ঞপ
ঞর
ট
টআর
টই
টও
টওয
টক
টকগ
টকট
টকর
টকহ
টখ
টগ
টগল
টঙ
টচ
টছ
টজ
টট
টটল
টড
টত
টদ
টধর
টন
টনক
টনম
টপ
টফ
টফর
টব
টবল
টভ
টম
টয
টর
টরগ
টরন
টরস
টল
টলম
টশ
টস
টসন
টসম
টহ
টহল
ঠ
ঠক
ঠকদ
ঠগ
ঠট
ঠত
ঠতল
ঠদ
ঠন
ঠপ
ঠব
ঠভ
ঠম
ঠশ
ঠস
ড
ডউইন
ডও
ডওয
ডক
ডগ
ডগল
ডজ
ডজন
ডট
ডটকম
ডড
ডদ
ডন
ডপ
ডফ
ডব
ডবদ
ডবল
ডভ
ডম
ডয
ডর
ডল
ডলফ
ডলস
ডশ
ডস
ডসন
ডহ
ঢ
ঢল
ণ
ণও
ণক
ণগ
ণগঞ
ণগত
ণচন
ণট
ণত
ণদ
ণধ
ণন
ণনগর
ণপ
ণপণ
ণপদক
ণফ
ণব
ণবর
ণভ
ণম
ণয
ণর
ণশ
ণস
ণহ
ত
তই
তও
তক
তকণ
তকত
তকর
তকরণ
তখ
তখন
তখনই
তখনও
তখনক
তগ
তগণ
তগত
তচ
তচর
তজ
তজন
তট
তড
তত
ততই
ততক
ততট
ততদ
ততম
তথ
তদ
তদন
তদশ
তধ
তধর
তন
তনক
তনগ
তনত
তনব
তনভ
তনম
তনয
তনশ
তপ
তপক
তপদ
তপন
তপস
তফ
তফস
তব
তবক
তবত
তবব
তবয
তবর
তবল
তভ
তম
তমর
তয
তযশ
তর
তরক
তরগ
তরঙ
তরঞ
তরট
তরণ
তরদ
তরপ
তরফ
তরব
তরবঙ
তরভ
তরম
তরয
তরল
তরস
তল
তলক
তলদ
তশ
তস
তসম
তসর
তহ
তহব
তহস
তৎক
তৎপ
তৎপর
তৎপরত
তৎসম
থ
থই
থক
থকত
থকদ
থকভ
থকর
থগ
থট
থত
থদ
থন
থপ
থপত
থব
থভ
থম
থমন
থয
থর
থল
থশ
থস
থহ
দ
দই
দও
দওয
দক
দকগণ
দকদ
দকর
দখ
দখল
দখলদ
দগ
দগঞ
দগণ
দজ
দট
দড
দণ
দত
দদ
দধ
দন
দনক
দনগ
দনগর
দনম
দনশ
দপ
দপত
দফ
দফতর
দব
দবপ
দভ
দম
দমন
দময
দয
দর
দরক
দরগ
দরজ
দরট
দরব
দরবন
দল
দলক
দলগ
দলগত
দলট
দলন
দলসম
দশ
দশক
দশজন
দশট
দশম
দস
দসম
দহ
দহন
ধ
ধক
ধকত
ধকরণ
ধগ
ধগম
ধচন
ধজ
ধট
ধত
ধদ
ধধর
ধন
ধনক
ধনপ
ধনব
ধনশ
ধপ
ধপর
ধব
ধবন
ধবপ
ধভ
ধম
ধমন
ধয
ধর
ধরণ
ধরত
ধরন
ধরল
ধল
ধশ
ধস
ন
নই
নইল
নও
নওগ
নওয
নক
নকক
নকর
নকল
নকশ
নখ
নগ
নগঞ
নগণ
নগত
নগদ
নগর
নচ
নচন
নছ
নজ
নজন
নজনক
নজর
নজরদ
নট
নটন
নটর
নড
নত
নতত
নতম
নতর
নতল
নথ
নদ
নদণ
নদনদ
নদভ
নধ
নধর
নন
নপ
নপত
নপন
নফ
নব
নবক
নবগ
নবগঠ
নবজ
নবজম
নবত
নবদ
নবন
নবপ
নবব
নববর
নবম
নবর
নবস
নভ
নম
নমত
নমন
নমস
নয
নর
নরওয
নরক
নরত
নরন
নরম
নরস
নল
নশ
নশন
নষ
নস
নসন
নসভ
নসম
নসহ
নহ
প
পই
পও
পক
পকথ
পকথন
পকভ
পকর
পকল
পগ
পগত
পঙ
পচ
পছন
পজ
পঞ
পট
পটন
পটপ
পটভ
পড
পণ
পণন
পত
পতঙ
পতন
পথ
পথগ
পথট
পথপ
পদ
পদক
পদগ
পদচ
পদট
পদত
পদব
পদমর
পদস
পন
পনক
পপ
পপত
পব
পবন
পবয
পভ
পম
পয
পর
পরই
পরও
পরক
পরগণ
পরগন
পরজ
পরত
পরদ
পরন
পরপ
পরপর
পরপরই
পরব
পরবর
পরম
পরমহ
পরর
পরল
পরশ
পরস
পল
পলক
পলস
পশ
পশত
পশন
পশম
পষ
পস
পসন
পসম
পহ
ফ
ফক
ফখর
ফজ
ফজল
ফট
ফটক
ফড
ফণ
ফত
ফন
ফফ
ফফর
ফয
ফর
ফরওয
ফরম
ফরহ
ফল
ফলক
ফলগ
ফলত
ফলন
ফলশ
ফলস
ফস
ফসফ
ফসল
ব
বই
বইগ
বইট
বইত
বইম
বইয
বউ
বও
বক
বকক
বকত
বকদ
বকন
বকর
বকশ
বখ
বখত
বগ
বগঞ
বগণ
বগত
বঙ
বচ
বচন
বচর
বছ
বছর
বছরই
বছরগ
বজ
বজন
বঞ
বট
বড
বণ
বত
বতই
বতন
বতম
বতল
বতশ
বতস
বদ
বদন
বদর
বদল
বধ
বধর
বন
বনক
বনগ
বনগর
বনধ
বনন
বনপ
বনব
বনভ
বনম
বনয
বনস
বপ
বপক
বপত
বপন
বপর
বব
ববঙ
ববর
বভ
বম
বমন
বয
বর
বরই
বরক
বরখ
বরগ
বরচন
বরঞ
বরণ
বরত
বরদ
বরন
বরপ
বরফ
বরব
বরবর
বরম
বরল
বরষ
বল
বলই
বলক
বলছ
বলট
বলত
বলদ
বলন
বলপ
বলব
বলম
বলয
বলর
বলল
বলশ
বশ
বশক
বশত
বস
বসত
বসন
বসব
বসম
বসর
বসল
বহ
বহন
বহনক
বহর
বহস
বৎ
বৎস
বৎসর
বৰ
ভ
ভক
ভগ
ভগব
ভগবত
ভগবদ
ভঙ
ভজ
ভজন
ভজনক
ভট
ভণ
ভদ
ভধ
ভন
ভপ
ভব
ভবত
ভবন
ভবনগ
ভবনট
ভবপর
ভম
ভয
ভর
ভরত
ভরব
ভরয
ভরশ
ভরস
ভল
ভস
ম
মই
মউদ
মও
মওয
মওল
মক
মকভ
মকর
মকরণ
মখ
মগ
মগঞ
মগড
মগত
মগধ
মঘ
মঘট
মঙ
মচ
মচন
মচর
মছ
মজ
মজব
মজল
মঞ
মট
মঠ
মড
মণ
মণক
মণদ
মণব
মত
মতই
মতত
মতন
মতপ
মতব
মতভ
মতলব
মথ
মদ
মদক
মদন
মদপ
মধ
মধন
মন
মনই
মনক
মনগর
মনজ
মনট
মনন
মনস
মপ
মপদ
মপন
মপর
মফ
মব
মবঙ
মভ
মম
মমত
মমন
ময
মর
মরক
মরগ
মরণ
মরত
মরদ
মরম
মরস
মরহ
মল
মলত
মলদ
মলয
মশ
মশল
মস
মসজ
মসন
মসম
মসমর
মসল
মসহ
মহ
মহক
মহত
মহম
মহর
মহল
মহস
মহৎ
মৎস
য
যই
যও
যক
যকর
যকরভ
যকল
যখ
যখন
যখনই
যগ
যগণ
যগত
যগতভ
যঙ
যচ
যচর
যজ
যজন
যজনক
যঞ
যট
যটক
যটকদ
যটন
যত
যতই
যতক
যতট
যতদ
যতন
যতম
যথ
যথভ
যদ
যদল
যধ
যধর
যন
যপ
যপদ
যপর
যব
যবই
যবত
যবদ
যবধ
যবন
যবর
যবস
যবহ
যভ
যম
যমজ
যমত
যমন
যময
যয
যযন
যর
যরস
যল
যশ
যশস
যস
যসভ
যসম
যহ
যৎ
র
রআন
রই
রইল
রউইকশ
রউইন
রউদ
রউফ
রও
রওন
রওয
রওশন
রক
রকগ
রকট
রকদ
রকন
রকম
রকর
রকরণ
রকল
রখ
রখর
রগ
রগঞ
রগড
রগণ
রগত
রগন
রঘ
রঙ
রচ
রচণ
রচন
রচয
রচর
রচল
রচলন
রছ
রজ
রজগত
রজত
রজন
রজনন
রঞ
রট
রটন
রড
রডওয
রডক
রডগ
রণ
রণক
রণগ
রণট
রণত
রণব
রণভ
রণম
রণয
রত
রতক
রতন
রতব
রতবর
রতম
রতর
রতল
রথ
রথম
রথমট
রথমত
রথমদ
রথমব
রদ
রদক
রদট
রদত
রদর
রধ
রধর
রন
রনগর
রনত
রপ
রপক
রপত
রপথ
রপন
রপর
রফ
রফত
রফর
রফরম
রফল
রব
রবক
রবণ
রবণত
রবত
রবধ
রবন
রবর
রবল
রবস
রভ
রম
রমক
রমজ
রমণ
রমণক
রমণভ
রমত
রমন
রমপ
রমব
রমবর
রময
রমর
রমশ
রয
রর
ররফ
রল
রলয
রশ
রশক
রশস
রষ
রস
রসঙ
রসদ
রসন
রসনক
রসব
রসভ
রসম
রসর
রসহ
রহ
রহক
রহগ
রহট
রহণ
রহণক
রহণয
রহন
রহম
রহমত
রহর
রহশ
রহস
ল
লই
লইত
লইব
লইয
লইল
লও
লওয
লক
লকক
লকট
লকদ
লকন
লকব
লকভ
লকম
লকর
লখ
লখনউ
লগ
লগঞ
লগর
লঘ
লঙ
লচ
লচন
লচর
লছ
লছড
লজ
লজয
লঞ
লট
লটন
লড
লণ
লত
লতপ
লতল
লথ
লদ
লদহ
লধ
লধন
লন
লনক
লনট
লপ
লপত
লপথ
লপথট
লপম
লফ
লব
লবণ
লবন
লবর
লভ
লম
লমণ
লমন
লয
লর
লরক
লল
লশ
লস
লসন
লসম
লহ
শ
শই
শও
শওকত
শক
শকদ
শকর
শখ
শগ
শগড
শগত
শঙ
শচ
শচন
শজ
শট
শত
শতক
শতকর
শতবর
শতম
শতর
শদ
শধ
শধর
শন
শনক
শনগ
শনট
শনস
শপ
শপথ
শফ
শব
শবক
শবন
শবর
শভ
শম
শয
শর
শরণ
শরত
শরৎ
শরৎক
শরৎচন
শল
শলগ
শলগত
শশ
শস
শসম
শহ
শহর
শহরক
শহরগ
শহরট
শহরতল
ষ
ষই
ষও
ষক
ষকক
ষকত
ষকদ
ষকর
ষগ
ষগণ
ষঙ
ষচন
ষজ
ষট
ষড
ষণ
ষণক
ষণগ
ষণভ
ষণম
ষণশ
ষত
ষদ
ষন
ষপ
ষপঞ
ষপথ
ষপর
ষব
ষভ
ষম
ষমত
ষয
ষর
ষরণ
ষরত
ষশ
ষষ
ষস
স
সই
সউদ
সও
সওদ
সওয
সক
সকদ
সকর
সকল
সকলই
সকলক
সখ
সগ
সঘ
সঙ
সচ
সচর
সচল
সজ
সজন
সজল
সঞ
সট
সটন
সঠ
সড
সত
সতত
সতর
সদ
সদর
সদরদপ
সদস
সন
সনক
সনকর
সনদ
সপ
সপত
সপর
সফ
সফট
সফটওয
সফর
সফরক
সফররত
সফল
সফলত
সফলভ
সব
সবই
সবক
সবকট
সবগ
সবচ
সবজ
সবথ
সবল
সবশ
সবসময
সভ
সভবন
সম
সমক
সমকক
সমগ
সমঝ
সমত
সমতল
সমধ
সমন
সমব
সমভ
সমম
সময
সমর
সমষ
সমস
সয
সর
সরক
সরঞ
সরণ
সরত
সরদ
সরবর
সরল
সরস
সল
সলম
সশ
সশস
সস
সসম
সহ
সহক
সহকর
সহচর
সহজ
সহজলভ
সহধর
সহনশ
সহপ
সহব
সহয
সহর
সহশ
সহস
সৎ
সৎক
হ
হই
হইত
হইব
হইয
হইল
হউক
হউদ
হও
হওয
হক
হকদ
হকর
হগ
হঙ
হচ
হজ
হজম
হজরত
হট
হঠ
হণ
হত
হতব
হতভ
হদ
হন
হনন
হনব
হপ
হফ
হব
হবন
হভ
হম
হয
হযরত
হর
হরক
হরণ
হরণস
হরপ
হরফ
হরম
হল
হলদ
হলভ
হশ
হস
হহ
হৎ
়
া
ি
ী
ু
ূ
ৃ
ে
ৈ
্
ৎ
ৎক
ৎজ
ৎপ
ৎপত
ৎপর
ৎফ
ৎশ
ৎস
ৎসক
ৎসব
ৎসর
ৗ
০
০০
০০০
০১
০২
০৩
০৪
০৫
০৬
০৭
০৮
০৯
১
১০
১০০
১০০০
১০১
১০২
১০৩
১০৪
১০৫
১০৬
১০৭
১০৮
১০৯
১১
১১০
১১০০
১১১
১১২
১১৩
১১৪
১১৫
১১৬
১১৭
১১৮
১১৯
১২
১২০
১২০০
১২১
১২২
১২৩
১২৪
১২৫
১২৬
১২৭
১২৮
১২৯
১৩
১৩০
১৩১
১৩২
১৩৩
১৩৪
১৩৫
১৩৬
১৩৭
১৩৮
১৩৯
১৪
১৪০
১৪১
১৪২
১৪৩
১৪৪
১৪৫
১৪৬
১৪৭
১৪৮
১৪৯
১৫
১৫০
১৫০০
১৫১
১৫২
১৫৩
১৫৪
১৫৫
১৫৬
১৫৭
১৫৮
১৬
১৬০
১৬০০
১৬১
১৬৩
১৬৪
১৬৫
১৬৬
১৬৭
১৬৮
১৬৯
১৭
১৭০
১৭১
১৭২
১৭৩
১৭৫
১৮
১৮০
১৮০০
১৮১৮
১৮২
১৮৩০
১৮৩৩
১৮৩৮
১৮৪০
১৮৪৮
১৮৪৯
১৮৫
১৮৫০
১৮৫১
১৮৫২
১৮৫৩
১৮৫৪
১৮৫৫
১৮৫৬
১৮৫৭
১৮৫৮
১৮৫৯
১৮৬০
১৮৬১
১৮৬২
১৮৬৩
১৮৬৪
১৮৬৫
১৮৬৬
১৮৬৭
১৮৬৮
১৮৬৯
১৮৭০
১৮৭১
১৮৭২
১৮৭৩
১৮৭৪
১৮৭৫
১৮৭৬
১৮৭৭
১৮৭৮
১৮৭৯
১৮৮০
১৮৮১
১৮৮২
১৮৮৩
১৮৮৪
১৮৮৫
১৮৮৬
১৮৮৭
১৮৮৮
১৮৮৯
১৮৯০
১৮৯১
১৮৯২
১৮৯৩
১৮৯৪
১৮৯৫
১৮৯৬
১৮৯৭
১৮৯৮
১৮৯৯
১৯
১৯০
১৯০০
১৯০১
১৯০২
১৯০৩
১৯০৪
১৯০৫
১৯০৬
১৯০৭
১৯০৮
১৯০৯
১৯১০
১৯১১
১৯১২
১৯১৩
১৯১৪
১৯১৫
১৯১৬
১৯১৭
১৯১৮
১৯১৯
১৯২০
১৯২১
১৯২২
১৯২৩
১৯২৪
১৯২৫
১৯২৬
১৯২৭
১৯২৮
১৯২৯
১৯৩
১৯৩০
১৯৩১
১৯৩২
১৯৩৩
১৯৩৪
১৯৩৫
১৯৩৬
১৯৩৭
১৯৩৮
১৯৩৯
১৯৪০
১৯৪১
১৯৪২
১৯৪৩
১৯৪৪
১৯৪৫
১৯৪৬
১৯৪৭
১৯৪৮
১৯৪৯
১৯৫
১৯৫০
১৯৫১
১৯৫২
১৯৫৩
১৯৫৪
১৯৫৫
১৯৫৬
১৯৫৭
১৯৫৮
১৯৫৯
১৯৬০
১৯৬১
১৯৬২
১৯৬৩
১৯৬৪
১৯৬৫
১৯৬৬
১৯৬৭
১৯৬৮
১৯৬৯
১৯৭০
১৯৭১
১৯৭২
১৯৭৩
১৯৭৪
১৯৭৫
১৯৭৬
১৯৭৭
১৯৭৮
১৯৭৯
১৯৮০
১৯৮১
১৯৮২
১৯৮৩
১৯৮৪
১৯৮৫
১৯৮৬
১৯৮৭
১৯৮৮
১৯৮৯
১৯৯
১৯৯০
১৯৯১
১৯৯২
১৯৯৩
১৯৯৪
১৯৯৫
১৯৯৬
১৯৯৭
১৯৯৮
১৯৯৯
২
২০
২০০
২০০০
২০০১
২০০২
২০০৩
২০০৪
২০০৫
২০০৬
২০০৭
২০০৮
২০০৯
২০১
২০১০
২০১১
২০১২
২০১৩
২০১৪
২০১৫
২০১৬
২০১৭
২০১৮
২০১৯
২০২
২০২০
২০২১
২০২২
২০২৩
২০৫
২০৬
২০৮
২১
২১০
২২
২২০
২৩
২৩০
২৪
২৪০
২৪৩
২৫
২৫০
২৬
২৬০
২৭
২৭০
২৮
২৮০
২৮৮
২৯
২৯২
৩
৩০
৩০০
৩০০০
৩০৩
৩১
৩২
৩২০
৩৩
৩৩০
৩৪
৩৫
৩৫০
৩৬
৩৬০
৩৭
৩৮
৩৯
৪
৪০
৪০০
৪১
৪২
৪৩
৪৪
৪৫
৪৫০
৪৬
৪৭
৪৮
৪৯
৫
৫০
৫০০
৫০০০
৫১
৫২
৫২১
৫৩
৫৪
৫৫
৫৫০
৫৬
৫৭
৫৮
৫৯
৬
৬০
৬০০
৬১
৬২
৬৩
৬৪
৬৪০
৬৫
৬৫০
৬৬
৬৭
৬৮
৬৯
৭
৭০
৭০০
৭১
৭২
৭৩
৭৪
৭৫
৭৫০
৭৬
৭৭
৭৮
৭৯
৭৯৫৫
৮
৮০
৮০০
৮১
৮২
৮৩
৮৪
৮৫
৮৬
৮৭
৮৮
৮৯
৯
৯০
৯০০
৯১
৯২
৯৩
৯৪
৯৫
৯৬
৯৭
৯৭৮
৯৮
৯৮৪
৯৯
ৰ
ৱ
৲
৳
৷
৺
ਰ
ਲ
ਸ
ਾ
ਿ
ੀ
ੰ
ં
ન
ર
ા
િ
ી
ુ
ે
ો
્
ର
ା
ି
େ
୍
க
ச
ட
த
ந
ன
ப
ம
ய
ர
ற
ல
ள
வ
ா
ி
ீ
ு
ூ
ெ
ே
ை
்
ం
క
జ
ట
డ
త
న
ప
మ
య
ర
ల
వ
స
ా
ి
ీ
ు
ె
ే
ో
్
ಂ
ನ
ರ
ವ
ಾ
ಿ
ು
ೆ
್
ೕ
ം
ക
ച
ട
ത
ന
പ
മ
യ
ര
റ
ല
വ
സ
ാ
ി
ീ
ു
െ
േ
്
ං
ක
ත
ද
න
ම
ය
ර
ල
ව
ස
්
ා
ි
ී
ු
ෙ
น
ย
ร
ั
ิ
ี
ื
ุ
ู
่
้
์
་
ག
ང
ཆ
ད
ན
པ
བ
མ
ར
ལ
ས
ི
ུ
ེ
ོ
ྒ
ྱ
ྲ
ླ
က
င
တ
န
ပ
မ
ရ
ာ
ိ
ီ
ု
ေ
့
း
္
်
ျ
ြ
ွ
ា
្
​
‌
‍
‎
‏
‐
–
—
―
‖
‘
’
“
”
„
†
‡
•
…
‧
‬
′
″
›
⁄
⁡
€
₹
ℏ
ℓ
№
™
←
→
↔
↷
⇒
∂
∇
∈
∑
−
∗
∘
√
∞
∫
∮
≈
≡
≤
≥
⋅
⋯
③
④
⑦
►
◄
●
◦
★
☎
⟨
⟩
⺀
⺄
⺆
⺈
⺊
⺌
⺕
⺝
⺸
⺼
⿰
⿱
⿲
⿳
⿴
⿵
⿶
⿷
⿸
⿹
⿺
⿻
、
。
《
》
「
」
『
』
【
】
〢
あ
い
う
え
お
か
き
く
け
こ
さ
し
す
そ
た
ち
っ
つ
て
と
な
に
の
は
ま
め
も
ら
り
る
れ
を
ん
゙
゚
ア
ィ
イ
ウ
エ
オ
カ
キ
ク
コ
サ
シ
ス
セ
ソ
タ
チ
ッ
テ
ト
ナ
ニ
ノ
ハ
ヒ
フ
ヘ
ホ
マ
ミ
ム
メ
ャ
ュ
ユ
ラ
リ
ル
レ
ロ
ン
・
ー
㇁
㇂
㇄
㇇
㇈
㇉
㇓
㐁
㐄
㐅
㐌
㐫
㐬
㐭
㐮
㐱
㑒
㒵
㒸
㒼
㓁
㓞
㔾
㕛
㕣
㖾
㘝
㚅
㚇
㚔
㚘
㝉
㝡
㝴
㝵
㞋
㞢
㞷
㠩
㠭
㠯
㡀
㡭
㡿
㢲
㢴
㣇
㣺
㥯
㪅
㫄
㫐
㫒
㫺
㬅
㬎
㬥
㬰
㲋
㳄
㷠
㸒
㸚
㸦
㼌
㼲
㽞
㿟
䀠
䂞
䍃
䏍
䒑
䖍
䖒
䖝
䖵
䙴
䚻
䜌
䝿
䡛
䧹
䪞
一
丁
丂
七
丄
丅
丆
万
丈
三
上
下
丌
不
与
丏
丐
丑
专
且
丕
世
丘
丙
业
东
丞
丢
丣
两
严
並
丨
丩
个
丫
丬
中
丮
丰
丱
串
丵
丶
丷
丸
丹
为
主
丽
丿
乀
乂
乃
久
乆
乇
么
义
之
乌
乍
乎
乏
乐
乑
乔
乖
乗
乘
乙
乚
乛
乜
九
乞
也
习
乡
乳
乾
亀
亅
了
亇
予
争
事
二
亍
于
亏
亐
云
互
亓
五
井
亘
亚
亜
亞
亟
亠
亡
亢
交
亥
亦
产
亨
亩
享
京
亭
亮
亯
亰
亲
亳
亶
亷
人
亻
亼
亾
仁
今
介
仌
从
仐
仑
仒
仓
仕
他
付
仝
代
令
以
任
企
伊
伏
伐
休
会
伯
但
位
何
佘
余
作
佥
使
來
侈
侌
侖
侯
侵
便
保
俞
信
修
倉
倍
候
倠
備
僉
僕
儿
兀
允
兂
元
兄
充
兆
兇
先
光
兊
克
兌
免
兑
兒
兓
兔
党
兜
兟
入
全
兩
兪
八
公
六
兮
兰
共
关
兵
其
具
典
兹
兼
冀
冂
冃
冄
内
冈
冉
冊
冋
册
再
冎
冏
冐
冒
冓
冖
冗
冘
军
农
冝
冡
冥
冫
冬
冷
几
凡
凢
凵
凶
凷
凸
凹
出
函
凾
刀
刁
刂
刃
刄
刅
分
切
刍
刑
刕
刖
列
刘
则
初
別
利
别
到
制
刺
則
削
剌
前
剡
剽
劉
力
功
加
劦
助
劫
劳
劵
勃
勇
勉
勒
動
務
勞
勤
勹
勺
勻
勾
勿
匀
匂
包
匆
匈
匊
匋
匍
匕
化
北
匚
匝
匡
匪
匱
匸
匹
区
医
匽
匿
區
十
卂
千
卄
卅
卆
升
午
卉
半
卌
华
卑
卒
卓
单
卖
南
卜
卝
卞
占
卡
卢
卣
卤
卦
卩
卪
卬
卯
印
危
即
却
卵
卷
卸
卻
厂
厃
厄
历
厈
厉
厌
厓
厘
厚
原
厤
厥
厨
厭
厲
厶
厷
厸
去
厼
厽
叀
参
參
叅
又
叉
及
友
双
反
叐
发
叒
叔
叕
取
受
叚
叜
叟
口
古
句
另
叩
只
召
可
台
叱
史
右
叵
号
司
叹
吂
各
吅
合
吉
吊
吋
同
名
后
吏
向
吕
君
吝
吞
否
含
启
吳
吴
吹
吾
呂
呆
呈
告
员
呙
周
命
咅
和
咎
咠
咢
咨
咸
咼
哀
品
哉
員
哥
哲
唐
商
啇
問
啚
啬
啻
善
喜
喬
單
喿
嗇
噩
嚴
囊
囗
囘
囙
囚
四
回
囟
因
囧
囬
困
囱
囷
固
国
圂
圅
國
圍
圓
土
圡
圣
圥
在
圭
地
圶
圼
坐
坒
坚
坴
垂
垔
垚
埀
埋
城
埶
執
基
堂
堅
堆
堇
堯
報
塞
墨
壘
士
壬
壯
声
壳
壴
壹
壺
壽
夂
处
夅
夆
备
夊
夋
夌
复
夏
夒
夕
外
夗
夘
多
夜
夢
大
夨
天
太
夫
夬
夭
央
失
夲
头
夷
夸
夹
夻
夾
奂
奄
奇
奈
奉
奎
奏
奐
契
奓
奔
奚
奞
奠
奢
奥
奭
女
奴
奻
好
如
妄
妙
妟
妥
妻
妾
始
姑
委
姜
威
娄
婁
婴
嬰
嬴
子
孑
孔
孕
孖
字
存
孚
孛
孝
孟
季
孤
学
孫
孱
學
宀
宁
宂
它
宅
宇
守
安
宋
完
宏
宓
宗
官
定
宛
宜
宝
客
宣
室
宮
宰
害
家
容
宾
宿
寄
寅
密
富
寒
察
寧
審
寫
寬
寮
寸
对
寺
寻
寽
対
寿
封
尃
射
将
將
專
尉
尊
尋
尌
對
小
少
尒
尓
尔
尖
尗
尚
尞
尢
尣
尤
尧
尨
尭
就
尸
尹
尺
尻
尼
尽
尾
尿
局
居
屈
屋
屎
屏
屑
展
屖
屚
属
屠
屡
屬
屮
屯
屰
山
屵
屾
岁
岂
岑
岡
岩
岳
岸
峯
島
崇
崑
崔
崖
崙
崩
嵬
嶲
巂
巛
川
州
巟
巠
巢
巤
工
左
巧
巨
巩
巫
差
己
已
巳
巴
巷
巸
巽
巾
巿
帀
市
布
希
帚
帛
帝
带
師
席
帶
常
干
平
年
幵
并
幷
幸
幺
幻
幼
幽
幾
广
広
庄
床
底
店
庚
府
度
庫
庭
庶
康
庸
廉
廌
廛
廣
廩
廴
延
廷
建
廾
廿
开
弁
弃
弄
弇
弋
式
弓
弔
引
弗
弘
弜
弟
弥
弦
弱
張
強
强
彊
彌
彎
彐
彑
当
彔
录
彖
彗
彡
形
彥
彦
彧
彭
彳
役
彼
往
待
律
徒
得
徙
從
復
微
徵
心
忄
必
忌
忍
志
忝
忠
忩
快
念
忽
忿
思
怠
急
怱
恆
恒
恩
恭
息
悉
患
悤
悲
悶
情
惠
惡
惢
愁
愈
意
愛
感
慈
慧
慮
憂
憲
應
戀
戈
戉
戊
戋
戌
戍
戎
成
我
戒
戔
或
戚
戠
戢
截
戲
戶
户
戹
戼
戾
房
所
扁
扇
手
扌
才
打
托
执
承
折
报
拉
拜
拿
掌
推
提
摩
支
攴
攵
收
攸
改
放
政
敄
敏
敕
敖
敗
教
敝
敞
敢
散
敦
敫
敬
数
敷
數
斂
文
斉
斊
斗
斤
斥
斩
斬
斯
新
方
於
施
斿
旁
旋
族
无
旡
既
旣
日
旦
旧
旨
早
旬
旱
旲
时
旾
昆
昇
昌
昍
明
昏
易
昔
昗
昜
星
春
昬
是
昱
昴
昷
時
晃
晋
晏
普
景
晶
智
暑
暴
曇
曩
曰
曲
曳
更
曷
書
曹
曼
曾
替
最
朁
會
月
有
朋
服
朔
朕
朗
望
朝
木
朩
未
末
本
札
朮
术
朱
朵
朶
朿
杀
杏
杜
束
条
来
東
杲
杳
松
析
林
枚
果
枝
枲
枼
某
柔
查
柬
柰
柴
栗
桀
桑
桼
梁
條
梟
梨
棘
棠
棥
森
楚
業
楽
榮
樂
樊
欠
次
欣
欮
欲
欶
欽
款
歆
歇
歛
止
正
此
步
武
歨
歪
歮
歯
歰
歲
歴
歷
歸
歹
歺
死
殳
段
殷
殸
殹
殺
殻
殿
毋
毌
母
每
毒
比
毕
毚
毛
毳
氏
氐
民
气
氣
水
氵
氶
氷
永
氺
氾
求
汝
汞
江
沃
沓
沙
沝
泉
法
波
泣
泥
泰
洛
洪
活
派
流
浦
浪
浮
海
淡
淮
清
渚
渠
湯
滿
漸
火
灬
灭
灰
灵
灷
炅
炎
炏
炗
炙
炭
為
烈
烏
烝
焉
無
焦
焱
然
煞
熊
熏
燕
營
燮
爪
爫
爭
爯
爰
爱
爲
爵
父
爻
爽
爾
爿
片
版
牙
牚
牛
牜
牟
牢
牧
物
牪
牽
犀
犬
犭
犮
狂
狄
狊
独
狺
猋
猒
猪
献
獻
玄
率
玉
王
玟
玨
珎
班
琴
瑟
瑩
瓜
瓦
甘
甚
生
産
用
甫
甬
田
由
甲
申
电
甶
男
甸
甹
画
甾
畀
界
畏
畐
留
畜
畟
畢
畧
畨
番
畫
異
畱
當
畺
畾
疊
疋
疌
疑
疒
疾
癶
癸
癹
登
發
白
百
皀
皃
的
皆
皇
皋
皐
皕
皮
皷
皿
盃
盆
盇
盈
益
盍
盎
监
盒
盖
盛
盡
監
盤
盧
目
直
相
盾
省
眇
眉
看
眔
眞
真
眷
眼
眾
着
睘
睪
睿
瞏
瞢
瞿
矍
矛
矞
矢
矣
知
矦
短
石
破
碎
磊
磨
示
礻
礼
社
神
祟
票
祭
禀
禁
禸
禹
禺
离
禽
禾
禿
秀
秃
秉
秋
科
秝
秦
移
稟
穀
穌
穴
究
穹
空
穿
突
窄
窒
立
竒
竜
竝
竟
章
童
竹
笑
笠
第
筆
等
答
箕
算
箴
節
篤
篭
米
粉
粛
粟
粤
粦
粲
糞
糸
糹
系
約
納
素
索
紫
累
細
絜
絫
絲
維
綿
縣
繇
纍
纟
缶
网
罒
罔
罕
罗
罙
罡
罢
罪
署
罷
羅
羊
羌
羍
美
羔
羕
羗
羞
羡
羣
群
義
羲
羸
羽
翁
翏
習
翕
翟
翠
翼
老
耂
考
者
耆
而
耎
耑
耒
耳
耴
耶
耷
聂
聊
聖
聚
聶
聿
肀
肃
肅
肉
肖
肙
肥
肩
肯
育
肴
胃
背
胡
胥
能
脊
脩
膚
臣
臤
臧
自
臬
臭
臯
臱
至
致
臺
臼
臽
臾
臿
舀
舂
舄
與
興
舉
舌
舍
舛
舜
舞
舟
般
艮
良
色
艸
艹
艾
芒
芔
芬
芮
花
芳
芺
芻
苔
苗
苟
若
苦
英
茶
茸
荅
草
荒
荣
荼
莆
莧
莫
莽
菆
菊
菐
華
萬
落
葉
著
葛
董
葵
蒙
蒦
蒼
蓋
蓬
蓺
蔑
蔡
蕉
蕭
薄
薛
薦
薰
藍
藏
藥
蘭
虍
虎
虐
虒
虔
處
虖
虗
虘
虚
虛
虜
虞
虫
虽
蚤
蚩
蜀
蜜
蟲
蠡
血
行
衍
衛
衣
衤
表
衮
衰
袁
袞
褭
褱
襄
襾
西
覀
要
覃
見
規
覓
覧
親
覽
见
角
解
言
訁
訇
計
詹
語
誩
諸
讠
谷
豆
豈
豊
豐
豕
豖
豙
象
豦
豩
豪
豸
貇
貝
貞
貟
負
貢
貧
貪
貫
責
貳
貴
買
費
賁
資
賈
賏
賓
賔
賛
賞
賢
賣
質
賴
贊
贝
贡
责
贯
贲
贵
赖
赞
赤
赦
走
越
足
路
蹇
身
躬
車
軍
軎
軟
輦
车
辛
辜
辟
辥
辰
辱
農
辵
辶
边
达
过
近
连
迷
追
退
送
逆
逐
通
速
造
逢
連
逮
進
遀
遂
過
道
達
遣
適
遷
選
遺
邊
邑
邕
那
邦
邪
郎
部
郭
都
鄉
酉
酋
配
酓
釆
采
里
重
野
量
金
釒
錢
钅
長
镸
长
門
閃
閉
開
閏
閑
閒
間
閔
閵
閻
闌
门
间
闷
阑
阜
阝
阿
降
陳
隆
隊
隋
隡
隨
隱
隶
隹
隺
隻
隼
隽
难
雀
雁
集
雈
雋
雍
雐
雔
雙
雚
雜
雝
離
難
雨
雩
雪
雲
零
雷
需
霍
霜
霝
霞
霸
靈
靑
青
非
靡
面
靣
革
韋
韦
韭
韯
韱
音
頁
頃
項
須
頗
頡
頻
顛
页
風
风
飛
飞
食
飠
養
饣
首
香
馬
馮
駦
马
骨
高
髟
鬥
鬯
鬲
鬼
魚
魯
鮮
鱼
鲁
鳥
鳳
鸟
鹵
鹿
麃
麗
麥
麦
麻
黃
黄
黍
黎
黑
黒
黨
黹
黽
黾
鼎
鼓
鼠
鼻
齊
齋
齐
齒
齿
龍
龙
龜
龟
龠
龰
龱
龴
龵
龶
龷
龸
龹
ꠞ
ꠣ
ꠤ
者
艹
ﷺ
﻿
！
（
）
，
：
？
�
𠀁
𠀃
𠀆
𠀉
𠀎
𠀐
𠁁
𠁣
𠂆
𠂇
𠂈
𠂉
𠂊
𠂋
𠂎
𠂒
𠂔
𠂛
𠂡
𠂢
𠂤
𠂬
𠂭
𠂹
𠃊
𠃋
𠃌
𠃍
𠃎
𠃑
𠃓
𠃔
𠃜
𠄌
𠄎
𠄠
𠄢
𠆢
𠆥
𠇍
𠈌
𠌵
𠓜
𠔉
𠔥
𠔼
𠔽
𠔿
𠕀
𠕁
𠕋
𠘧
𠘨
𠙻
𠙼
𠚏
𠚒
𠚤
𠚪
𠣏
𠤎
𠤕
𠥓
𠦄
𠦑
𠦝
𠧒
𠧗
𠧪
𠩺
𠪚
𠫓
𠫔
𠫤
𠬛
𠬝
𠬞
𠬢
𠬤
𠬶
𠮛
𠮦
𠮷
𠯑
𠱠
𠳮
𠷎
𡈼
𡉀
𡉵
𡌥
𡍮
𡏳
𡕒
𡕩
𡕰
𡖅
𡗗
𡗜
𡘆
𡘤
𡧱
𡨄
𡩧
𡬠
𡭽
𡰣
𡰥
𡰪
𡰯
𡰱
𡷈
𡸁
𡿨
𡿩
𡿪
𡿺
𢀖
𢀛
𢀩
𢁙
𢆉
𢆰
𢆶
𢇁
𢇇
𢉖
𢌬
𢌿
𢏚
𢑑
𢑚
𢖻
𢙣
𢛳
𢦏
𢦒
𢧵
𢼄
𢾕
𣁋
𣄼
𣅀
𣅽
𣍘
𣎳
𣎵
𣏋
𣏼
𣗥
𣥂
𣥖
𣦵
𣦼
𣧄
𣪊
𣪠
𣬉
𣳾
𣶒
𤇾
𤊽
𤐫
𤓰
𤔔
𤕨
𤣩
𤰇
𤰔
𤰞
𤴓
𤴔
𤽄
𥁑
𥁕
𥃦
𥃩
𥃭
𥇡
𥑟
𥘅
𥘈
𥝢
𥫗
𥱡
𦈢
𦉪
𦉬
𦉼
𦍌
𦍒
𦎧
𦐇
𦓔
𦔮
𦘒
𦙃
𦚏
𦣝
𦣞
𦣻
𦥑
𦥔
𦥯
𦨉
𦭝
𦰩
𧆞
𧈧
𧘇
𧰨
𧴪
𧴮
𧵩
𧾷
𨸏
𨾴
𩙿
𩠐
𩫏
𩵋
𪉷
𪜀
𪟽
𪠲
𪩲
𫇦
𫔭
𫜸
𫝀
𫠣
𫠩
𫢉
𫥞
𫩏
𫩠
𫪡
𫲽
𫶧
𬀷
𬐘
𬗌
𬙙
𬛸
𬜯
𬟩
𬯁
𬴘
𬺻
𬼉
𬼖
𭀰
𭁈
𭁨
𭅰
𭑈
𭕄
𭗼
𭤨
𭥫
𭻾
𮅕
𮊿
𮍌
𮍏
𮓗
𮥼
𮧮
廾
𰀁
𰀄
𰀈
𰀉
𰀕
𰀠
𰀡
𰀢
𰀪
𰁜
𰃮
𰆊
𰆘
𰋙
𰕎
𰢴
𰧭
𰯲
00--
01--
02--
03--
04--
05--
06--
07--
08--
09--
16--
17--
18--
19--
21--
22--
23--
24--
25--
26--
27--
28--
29--
30--
31--
32--
33--
34--
35--
36--
37--
38--
39--
40--
41--
42--
43--
44--
45--
46--
47--
48--
49--
50--
51--
53--
55--
56--
57--
58--
59--
60--
61--
63--
67--
70--
71--
72--
73--
74--
75--
76--
77--
78--
79--
80--
81--
82--
83--
84--
85--
86--
87--
88--
89--
90--
91--
92--
93--
94--
978--
99--
a--
aa--
ab--
ac--
acc--
acce--
acci--
achieve--
acqu--
activ--
ad--
addi--
ado--
ae--
aero--
af--
affi--
ag--
ah--
ai--
air--
ak--
akh--
al--
all--
alum--
am--
amst--
an--
ang--
anim--
ans--
ap--
apo--
app--
appo--
ar--
arch--
as--
ash--
astr--
at--
ath--
atmosp--
ato--
au--
auto--
ava--
ave--
awa--
ay--
az--
b--
ba--
bal--
bangla--
bar--
bas--
bat--
bd--
be--
bel--
ben--
ber--
bha--
bi--
bib--
bio--
bis--
bla--
bli--
bloo--
bo--
bom--
bow--
br--
bra--
brah--
bre--
bri--
bro--
broad--
bu--
bul--
bur--
by--
c--
ca--
cab--
cal--
calcul--
cam--
can--
car--
cas--
cat--
ce--
cele--
cen--
cer--
certifi--
ch--
cha--
chak--
cham--
char--
chat--
che--
chel--
cho--
ci--
cine--
cl--
cle--
clo--
cn--
co--
cog--
col--
com--
compo--
con--
conse--
const--
contr--
cor--
cot--
cou--
cr--
cre--
cro--
cru--
cry--
cu--
cur--
cus--
cy--
cycl--
cze--
d--
da--
dal--
de--
dec--
decla--
def--
deg--
demog--
den--
detec--
dha--
dhaka--
di--
diag--
dif--
diffe--
dip--
dis--
disa--
disc--
diso--
disp--
dist--
do--
doc--
dol--
domi--
dor--
dr--
dra--
dro--
du--
dun--
dur--
dy--
dyna--
e--
ear--
eat--
ed--
ef--
ein--
ek--
el--
ele--
elec--
em--
emer--
emi--
emp--
en--
enter--
epi--
equ--
er--
es--
establi--
et--
ethno--
etymo--
eu--
ev--
evalu--
ex--
exam--
exp--
expla--
explo--
f--
fa--
fal--
fan--
fav--
fe--
fel--
fer--
fi--
fin--
fla--
fle--
flo--
fly--
fo--
fol--
foot--
for--
fore--
fos--
fr--
fre--
fri--
fried--
fru--
fu--
g--
ga--
gal--
gar--
gau--
ge--
geo--
ger--
gha--
gi--
gib--
gil--
gla--
gli--
glo--
go--
gra--
gre--
gri--
grif--
gro--
gu--
gun--
h--
ha--
hac--
hal--
ham--
han--
happ--
har--
hart--
haw--
hay--
he--
hea--
hel--
hen--
her--
hi--
hid--
high--
ho--
hol--
home--
homo--
hono--
hor--
hou--
hu--
hud--
hus--
hy--
hydro--
i--
ibr--
id--
iden--
ideo--
if--
il--
im--
ima--
imple--
impli--
in--
inaugu--
indian--
infec--
influ--
initi--
inju--
inqu--
insp--
inst--
instru--
integ--
inter--
inva--
inve--
inven--
investi--
iq--
ir--
is--
it--
iv--
j--
ja--
je--
jen--
jes--
ji--
jo--
joy--
ju--
jud--
k--
ka--
kal--
kan--
kar--
ke--
kel--
kh--
kha--
khu--
ki--
kis--
ko--
kri--
ku--
kul--
ky--
l--
la--
lan--
lau--
le--
legis--
lexi--
li--
life--
lin--
lo--
lu--
ly--
m--
ma--
mac--
mad--
mag--
mah--
maha--
maju--
mal--
mala--
mam--
man--
mar--
mas--
mau--
mc--
mcd--
me--
measu--
mech--
meh--
mel--
memo--
mer--
mes--
meta--
meteoro--
mey--
mi--
micro--
mid--
mil--
mili--
minne--
mir--
mis--
mo--
mon--
mor--
mos--
mou--
mts--
mu--
mul--
multi--
mur--
my--
n--
na--
nar--
narra--
naz--
ne--
neu--
neuro--
new--
news--
ng--
ni--
nik--
no--
nomi--
non--
nor--
not--
nu--
nutr--
ny--
o--
ob--
objec--
obser--
observa--
oc--
ol--
olymp--
on--
one--
opp--
oppos--
or--
os--
ot--
out--
over--
p--
pa--
pac--
pal--
pan--
par--
pas--
pat--
patri--
pe--
pen--
per--
ph--
phil--
phy--
physi--
pi--
pil--
pla--
plat--
play--
ple--
plu--
po--
poli--
politi--
poly--
post--
pr--
pra--
prab--
prat--
pre--
prepa--
pri--
pro--
provi--
provin--
psychi--
pu--
pul--
pun--
q--
qu--
r--
ra--
rad--
raj--
ral--
ram--
ran--
re--
rece--
reci--
recog--
recom--
ref--
rega--
regu--
rela--
requ--
res--
rey--
rg--
ri--
ro--
rob--
rohi--
rol--
row--
ru--
s--
sa--
sal--
sam--
san--
sang--
sar--
sat--
sc--
sch--
se--
sec--
secu--
sel--
sen--
ser--
ses--
settle--
sh--
sha--
shan--
shar--
sho--
si--
sid--
sie--
sig--
sil--
sla--
sna--
so--
socio--
sol--
solu--
some--
sou--
sp--
spe--
spea--
spec--
spo--
st--
stat--
ste--
ster--
sto--
stra--
stre--
struc--
stu--
su--
sub--
sug--
sum--
sun--
super--
supple--
sur--
sus--
susp--
susta--
sw--
swa--
swe--
sy--
symp--
syn--
t--
ta--
tai--
tal--
tar--
tas--
tax--
te--
teh--
tele--
temp--
ter--
th--
the--
ti--
to--
tor--
tou--
tr--
tra--
trans--
tre--
tri--
tro--
tu--
tur--
tw--
ty--
u--
uga--
uk--
ul--
un--
under--
uni--
univ--
up--
ur--
us--
v--
va--
val--
var--
vari--
ve--
ven--
ver--
vi--
vic--
vid--
vil--
vin--
vio--
vir--
vish--
vo--
vol--
w--
wa--
wal--
war--
we--
web--
wed--
west--
whe--
wi--
wic--
wid--
wiki--
wil--
wir--
wit--
wo--
won--
wor--
wri--
wro--
x--
xi--
xx--
y--
ya--
yo--
yu--
z--
za--
ze--
zoo--
zu--
æ--
ə--
ɛ--
ɪ--
ɹ--
ʃ--
τ--
г--
рос--
с--
ا--
ب--
ح--
خ--
د--
ر--
س--
ش--
ع--
ل--
م--
مس--
ن--
و--
ي--
ک--
अ--
आ--
क--
ग--
च--
ज--
त--
द--
ध--
न--
प--
ब--
म--
य--
र--
ल--
व--
श--
ष--
स--
ह--
অ--
অন--
অপ--
অস--
আ--
আই--
আগ--
আন--
আম--
আর--
আস--
ই--
ইউ--
ইভ--
ইস--
ঈ--
উ--
উই--
উপ--
ঊ--
ঋ--
এ--
এই--
এইচ--
এক--
এত--
এন--
এফ--
এম--
এর--
এল--
এস--
ঐ--
ও--
ঔ--
ক--
কন--
কর--
কল--
খ--
গ--
গণ--
গম--
গল--
ঘ--
ঘন--
ঙ--
চ--
চন--
চর--
ছ--
জ--
জন--
জব--
জল--
ঝ--
ঞ--
ট--
টম--
ঠ--
ড--
ঢ--
ণ--
ণব--
ত--
তর--
থ--
থম--
থল--
দ--
দন--
দম--
দর--
দল--
দশ--
ধ--
ধন--
ন--
নক--
নন--
নব--
নর--
প--
পদ--
পন--
ফ--
ব--
বজ--
বট--
বন--
বর--
বল--
ভ--
ম--
য--
যব--
যর--
র--
রণ--
রত--
রব--
রম--
ল--
লক--
লন--
শ--
শত--
শশ--
ষ--
ষক--
ষণ--
স--
সক--
সন--
সব--
সম--
সর--
সহ--
হ--
হগ--
হজ--
হন--
হর--
হল--
ৎ--
০১--
০৮--
১৫--
১৬--
১৭--
১৮--
২০--
২১--
২২--
৩১--
৭১--
৮০--
৮১--
৮২--
৮৫--
৮৮--
৮৯--
ৰ--
--0
--1
--2
--3
--4
--5
--6
--7
--8
--9
--a
--aan
--ab
--abad
--able
--ac
--ace
--ad
--ade
--ado
--ae
--ag
--age
--ah
--ai
--aj
--ak
--al
--als
--am
--ama
--an
--ana
--ance
--ani
--anic
--ans
--ant
--ants
--ar
--ara
--ard
--ari
--aries
--ary
--as
--at
--ata
--ate
--ated
--ates
--atic
--ating
--ation
--ations
--ative
--au
--aw
--ay
--az
--b
--ba
--bat
--bb
--bd
--be
--ber
--berg
--bert
--ble
--bs
--bury
--by
--c
--ca
--cal
--cca
--cco
--ce
--ced
--cent
--ces
--ch
--che
--cher
--chi
--cing
--ck
--cks
--cky
--cle
--co
--cs
--ct
--cted
--ction
--cts
--cy
--d
--da
--dam
--day
--dd
--de
--ded
--der
--dh
--di
--dia
--do
--dor
--dra
--ds
--dy
--e
--ea
--eal
--ect
--ed
--ee
--ees
--ef
--efs
--ei
--ein
--ek
--el
--ela
--ell
--em
--en
--ence
--end
--ens
--ent
--ents
--ep
--er
--ers
--ert
--ery
--es
--ese
--esh
--ess
--est
--et
--eus
--ev
--ew
--ews
--ey
--ez
--f
--fa
--fect
--feld
--fer
--ff
--fic
--fied
--field
--ft
--fty
--ful
--fy
--g
--ga
--gan
--ge
--ged
--ger
--gh
--ght
--ging
--gle
--go
--graphy
--gs
--gue
--h
--ha
--hal
--ham
--han
--he
--hi
--hip
--hn
--hood
--hr
--hu
--i
--ia
--ial
--ian
--ic
--ica
--ical
--icism
--ick
--ics
--ict
--id
--ident
--ie
--ied
--iel
--ier
--ies
--ig
--ight
--ik
--ika
--il
--ila
--ility
--ils
--im
--imate
--in
--ina
--india
--ine
--ined
--ing
--ings
--ini
--ins
--io
--ion
--ions
--ior
--ip
--ipur
--ir
--ire
--irs
--is
--ise
--ish
--ism
--ist
--ists
--it
--ita
--ite
--ith
--ities
--ition
--ity
--ium
--ius
--ive
--ix
--iya
--iz
--ization
--ized
--j
--ja
--ji
--jit
--k
--ka
--kar
--ke
--ker
--kh
--ki
--ko
--ks
--ky
--l
--la
--lam
--lar
--ld
--lds
--le
--ler
--ley
--lf
--li
--lia
--lie
--lin
--line
--ling
--lis
--lism
--lity
--lk
--ll
--lla
--llah
--lle
--lls
--lly
--lm
--ln
--lo
--load
--lon
--ls
--lt
--ly
--m
--ma
--man
--mb
--mbo
--me
--ment
--mer
--mi
--mic
--ming
--mn
--mon
--mond
--ms
--my
--n
--na
--nagar
--nal
--nary
--nce
--nces
--ncy
--nd
--nda
--ne
--ned
--ner
--ners
--nes
--ness
--ney
--ng
--ngs
--ni
--nia
--ning
--nis
--nity
--nk
--nn
--no
--ns
--nt
--nta
--ntly
--nts
--ny
--o
--ock
--od
--og
--ography
--oi
--ok
--ol
--ology
--om
--ome
--on
--onal
--one
--ons
--op
--ops
--or
--ore
--ors
--ory
--os
--ot
--ott
--ough
--ought
--ous
--out
--ov
--ow
--ows
--oy
--p
--pa
--pe
--ped
--phic
--phy
--ping
--pite
--ple
--ps
--pt
--pur
--q
--r
--ra
--rah
--ral
--ran
--rapy
--rb
--rd
--re
--red
--rer
--rey
--rg
--ri
--ria
--ric
--ries
--ris
--rk
--rm
--rn
--rnal
--rns
--ro
--ron
--rp
--rr
--rry
--rs
--rt
--rty
--rus
--ry
--s
--sa
--se
--sed
--selves
--ser
--ses
--sh
--sha
--ship
--shire
--si
--sia
--sion
--sions
--sis
--sk
--sm
--son
--sr
--ss
--st
--stein
--stic
--ston
--stry
--sty
--sy
--t
--ta
--tal
--tar
--tary
--tation
--te
--ted
--tein
--ter
--tes
--th
--tha
--thing
--ti
--tial
--tic
--tics
--ties
--times
--tinent
--ting
--tion
--tions
--tive
--tle
--to
--ton
--tor
--tors
--tory
--tra
--try
--ts
--tt
--tta
--tte
--tty
--ture
--tus
--ty
--tz
--u
--ua
--ual
--ub
--ud
--ue
--ugh
--ught
--ul
--ula
--um
--un
--une
--up
--ur
--ura
--ure
--us
--ut
--ux
--v
--va
--val
--ve
--ved
--ves
--vi
--vo
--w
--wa
--way
--wi
--x
--xy
--y
--ya
--yan
--ye
--yn
--ys
--z
--za
--ze
--zed
--zer
--zi
--zo
--zz
--ə
--ɪ
--ʊ
--ς
--а
--и
--ии
--я
--ا
--ان
--ب
--ة
--ت
--د
--ر
--ل
--م
--ن
--ه
--ى
--ي
--ی
--त
--न
--र
--আই
--আর
--ই
--এ
--এন
--এফ
--এম
--এস
--ও
--ক
--খ
--গ
--গঞ
--গত
--ঘ
--ঙ
--চ
--ছ
--জ
--ঞ
--ট
--ঠ
--ড
--ঢ
--ণ
--ত
--তন
--তর
--তল
--থ
--দ
--ধ
--ন
--নস
--প
--ফ
--ব
--বর
--ভ
--ম
--মপ
--য
--র
--ল
--শ
--ষ
--স
--সম
--সহ
--হ
--ৎ
--০
--০০
--১
--২
--৩
--৪
--৫
--৬
--৭
--৮
--৯
