!
"
#
##0
##1
##10
##11
##12
##13
##14
##15
##16
##17
##18
##19
##2
##20
##21
##22
##23
##24
##25
##26
##27
##28
##29
##3
##30
##31
##32
##33
##34
##35
##36
##37
##38
##39
##4
##40
##41
##42
##43
##44
##45
##46
##47
##48
##49
##5
##50
##51
##52
##53
##54
##55
##56
##57
##58
##59
##6
##60
##61
##62
##63
##64
##65
##66
##67
##68
##69
##7
##70
##71
##72
##73
##74
##75
##76
##77
##78
##79
##8
##80
##81
##82
##83
##84
##85
##86
##87
##88
##89
##9
##90
##91
##92
##93
##94
##95
##96
##97
##98
##99
$
%
&
'
(
)
*
+
,
-
.
/
0
00
000
001
003
004
006
007
01
02
03
030
033
04
05
06
07
08
085
09
1
10
100
1000
1002
1006
1007
101
1016
102
1025
103
1030
1038
104
105
10569
106
107
1073
1079
108
1080
1086
109
1093
1095
1098
11
110
1100
111
1111
112
1126
1128
113
114
1144
1146
115
1153
1155
1158
116
1164
117
118
119
12
120
121
122
123
1237
124
1245
125
1257
126
1265
1266
127
1275
128
129
13
130
1300
131
132
133
134
135
136
137
1371
138
139
1399
14
140
1400
1405
141
1414
142
143
144
145
1451
146
1471
148
149
1492
15
150
1500
1503
1504
151
1512
152
1520
153
1532
1536
154
1540
1543
1547
1548
155
156
1560
1564
1569
157
158
159
1599
16
160
1600
1603
1605
1608
161
1610
1612
1613
1617
1619
162
1621
1623
1625
1627
163
1630
1632
1633
164
1640
1641
1642
1643
1644
1649
165
1650
1651
1652
1656
1660
1663
1665
1666
167
1672
1673
1675
1678
168
1684
1685
1686
169
1690
1697
17
170
1700
1703
1705
1707
171
1711
1712
1713
1714
1719
172
1722
1723
1724
1727
1728
1729
173
1735
1736
1738
174
1740
1741
1743
1745
1746
1748
1749
175
1750
1751
1753
1755
1756
1757
1758
1759
176
1761
1763
1764
1765
1766
1767
1768
1770
1772
1773
1774
1775
1776
1777
1778
1779
1780
1782
1783
1784
1785
1786
1788
1789
179
1790
1791
1793
1794
1795
1796
1797
1798
1799
18
180
1800
1801
1802
1803
1804
1805
1806
1807
1808
1809
1810
1811
1812
1813
1814
1815
1816
1817
1818
1819
182
1820
1821
1822
1823
1824
1825
1826
1827
1828
1829
183
1830
1831
1832
1833
1834
1835
1836
1837
1838
1839
184
1840
1841
1842
1843
1844
1845
1846
1847
1848
1849
185
1850
1851
1852
1853
1854
1855
1856
1857
1858
1859
186
1860
1861
1862
1863
1864
1865
1866
1867
1868
1869
187
1870
1871
1872
1873
1874
1875
1876
1877
1878
1879
188
1880
1881
1882
1883
1884
1885
1886
1887
1888
1889
1890
1891
1892
1893
1894
1895
1896
1897
1898
1899
19
190
1900
1901
1902
1903
1904
1905
1906
1907
1908
1909
191
1910
1911
1912
1913
1914
1915
1916
1917
1918
1919
192
1920
1921
1922
1923
1924
1925
1926
1927
1928
1929
193
1930
1931
1932
1933
1934
1935
1936
1937
1938
1939
194
1940
1941
1942
1943
1944
1945
1946
1947
1948
1949
195
1950
1951
1952
1953
1954
1955
1956
1957
1958
1959
196
1960
1961
1962
1963
1964
1965
1966
1967
1968
1969
197
1970
1971
1972
1973
1974
1975
1976
1977
1978
1979
198
1980
1981
1982
1983
1984
1985
1986
1987
1988
1989
199
1990
1991
1992
1993
1994
1995
1996
1997
1998
1999
2
20
200
2000
2001
2002
2003
2004
2005
2006
2007
2008
2009
201
2010
2011
2012
2013
2014
2015
2016
2017
2018
2019
202
2020
2021
2022
203
204
205
206
207
208
209
21
210
211
212
213
214
215
216
2163
217
218
219
22
220
220013
2207
221
222
224
225
226
227
228
229
23
230
2307
231
232
233
234
236
237
239
24
240
243
244
245
246
247
248
25
250
2500
251
252
253
256
257
258
259
26
260
261
262
263
264
265
266
267
268
269
27
270
271
272
275
276
278
28
280
281
283
284
285
287
288
289
29
290
292
293
294
295
296
297
298
299
3
30
300
3000
305
307
308
309
31
310
312
314
316
3166
317
318
32
323
325
327
33
330
332
333
34
340
341
345
346
349
35
350
352
355
356
358
359
36
360
361
365
37
370
373
374
375
377
38
384
385
386
387
388
389
39
390
395
4
40
400
401
40170
405
409
41
410
412
414
415
417
418
42
420
4217
422
423
427
43
430
436
438
44
440
441
445
45
450
452
4576
459
46
460
462
464
465
467
47
470
471
472
47494
478
48
482
487
49
493
495
498
5
50
500
504
506
508
509
51
512
517
52
520
521
529
53
537
538
54
540
55
551
556
557
56
568
57
58
582
583
588
59
590
591
597
599
6
60
600
61
617
62
63
630
631
639
64
640
649
65
655
658
66
665
67
670
68
69
7
70
700
71
715
72
729
73
74
75
750
76
77
78
79
790
7922
8
80
800
81
810
8160
817
82
8263
83
833
839
84
845
85
850
85323
86
860
8601
862
864
87
870
870029
874
88
880
89
892
9
90
900
9072
91
919
92
93
930
939
94
945
946
95
950
96
960
967
97
971
974
978
9781403917232
9781403938695
98
99
999
:
;
<
=
>
?
@
[
\
]
^
_
`
a
aa
aachaptanys
aachlou
aachroo
aachummaghyn
aachummey
aachummit
aachur
aaenmyssit
aafilley
aafilleydagh
aafillit
aagail
aagherrid
aagherridyn
aaghoaill
aaght
aah
aahirrey
aahjioogh
aahjiooghagh
aahoilshaghey
aahroggal
aahroggit
aaley
aalhiassaghey
aalhiasseeyn
aalid
aalin
aaloayrt
aamaid
aane
aanoaghey
aaphooaraghey
aaraa
aaraaghyn
aaragh
aardman
aareaghey
aarey
aarheynn
aarheynnyn
aarkey
aarlaghey
aarlee
aarlit
aarloo
aaroish
aaron
aaruggyr
aarys
aasagh
aascreeu
aase
aaseyn
aash
aashagh
aasit
aavioghee
aavioghey
aavioghit
aavuilley
aawoalley
aayannoo
aayeeilley
ab
abane
abb
abbas
abbey
abbyr
abbyrlhit
abbyrlhittyn
abbyrlhityn
abbyrt
abbyrtagh
abbyrtyn
abc
abcaaish
aberdeen
aberdyfi
abertawe
abhainn
abies
abjad
ablid
aboriginal
aborigines
about
above
abraham
abrahamagh
abril
abstract
abu
abugida
abyl
ac
acad
academic
academy
acadoil
accan
accolaidyn
according
account
ace
acetosella
ach
achadh
achene
acinos
acquisition
acre
acrocephalus
act
acta
action
activist
activities
activity
actor
actors
actress
actual
actually
acyr
ad
ada
adair
adam
adams
add
addams
adha
adhaerens
adjacent
administration
adolf
adria
adrian
adsyn
adult
adultfilmdatabase
advanced
adventure
adventures
advocate
aeg
aegeria
aegey
aegid
aeglagh
aejeeanagh
aer
aeragh
aeraght
aeraghtagh
aest
affairs
affricaid
affricaidyn
affrick
affrickagh
affro
afghanistaan
africa
african
after
ag
again
against
agan
age
aged
agency
agent
ager
agglagh
aggle
agglish
agglishagh
agglishyn
aggyrt
aggyrtagh
aggyrtit
aggyrtys
agh
aghill
aghin
aght
aghteyr
aghteyryn
aghteyrys
aghtyn
aghtys
agla
agricultural
agriculture
agus
agyeman
ah
ahern
ahmad
ai
aid
aidan
aiden
aidreeatagh
aigh
aignagh
aigney
aile
ain
ainm
air
airaght
aires
airh
airhey
airlines
airn
airnag
airney
airport
airways
ais
aise
aishanagh
aishey
aisling
aistragh
aitt
aittin
aittyn
aittys
aiwo
aiyr
akan
akin
akinagh
akinyn
akureyri
al
aladdin
alamance
alan
alana
alaska
alba
albaan
albaanish
albedo
albert
alberta
alberto
alberts
albey
albinagh
albinee
album
albuquerque
albym
albymyn
alcoal
alcoalagh
alec
alejandro
alessandro
aleutagh
alex
alexa
alexander
alexandra
alexandre
alexis
alfalfey
alfonso
alfred
algae
algaghyn
algear
algey
algiris
algonquian
ali
alice
alicia
alina
alistair
alive
alkalaihagh
alkaloyd
alkaloydyn
all
alla
allan
allen
alley
allgemeine
alliance
allie
allium
allmovie
allo
allosido
allrovi
allsoonagh
almis
almonyn
almost
aloe
alonso
alpagh
alpha
alphabet
alphabetical
alphabets
alsaash
alsaasish
also
alt
alta
altaiagh
alusalu
always
alyga
alyson
alþingi
am
ama
amanda
amarna
amateur
amateyragh
amazing
amazon
ambee
amber
ame
amelio
amen
america
americaanagh
americaanee
american
americana
amhra
amigos
amile
amino
amm
amman
ammoiney
ammyr
ammys
amoebae
amon
among
ampeloprasum
amphibian
amphibians
amsterdam
amus
amy
an
ana
anaasagh
anaase
anal
analysis
ananda
anas
anatole
ancestry
anchasley
anchaslys
anchaslyssyn
anchaslysyn
ancheirdagh
anchoodaghey
ancient
and
andaluci
andeeyn
andersen
anderson
andi
andooghyssagh
andorra
andre
andrea
andreas
andrej
andreja
andrew
andrews
andy
andzhighatova
anerit
angel
angela
angeles
angelique
angell
angels
angiosperm
angiospermae
anglesey
anglicaanagh
anglo
angoley
angus
angustifolia
anhalt
anhickyr
anhui
animal
animalia
animals
animated
animation
anime
anis
anjou
ankara
anmagh
anmey
ann
anna
annaghyn
annals
anne
anney
anneyder
annie
anniversary
annotated
announced
announces
annual
annurev
another
anser
ansherbee
antananarivo
antarctagh
antarctic
anthony
anthropological
anthropology
anthus
anti
antigua
antillaghyn
antje
antoine
anton
antoni
antonio
antony
antraie
antraieagh
antrapoaylleeaght
antwerp
anura
anvio
anvioys
any
anya
anything
aodha
aodou
aoife
aonghas
aontrym
aos
ap
apachean
apag
apagyn
apatow
apeyn
apg
aphasia
apollo
appaghey
appee
apple
applied
approaches
april
aqaba
aquatic
aquatica
aquaticus
ar
ara
araab
araba
arabagh
arabaght
arabee
arabian
arabish
arago
aragon
aragonish
aramaaish
aramaic
aran
arang
arbor
arbyl
arc
arcade
archaea
archaeological
archaeology
archer
archibald
archinal
architecture
archive
archives
arctagh
arctic
arctigenin
arctium
ard
ardan
ardane
ardey
ardghooagh
ardjaghey
ardjey
ardjid
ardjyn
ardjynagh
ardnieughyn
ardsmooinaght
ardwhaiyl
are
area
areas
arecibo
arganagh
argane
arganeagh
arganey
arganeyn
arganeys
arganeyssyn
arganys
argenteen
argenteenagh
argid
argidagh
argidoil
argids
argidyn
argidys
argon
ariana
ariel
aristotle
arizona
ark
arkan
arkansas
armeain
armeainish
armee
armeniaca
armit
armor
armorica
armstrong
army
armys
arnarson
arnold
around
arpitaanish
arr
arragh
arraghee
arraghey
arraghit
arraghys
arraghyssyn
arran
arrane
arraneyder
arraneyderyn
arraneyn
arraneys
arree
arrey
arreyderyn
arrish
arrishagh
arrishaght
arrishee
arrisheyr
arrishyn
arrit
arroo
arrow
arryltagh
arryltee
arrymagh
ars
arsenault
art
artemisia
arthropodyn
arthur
article
articles
artist
artists
arts
artyn
arum
arvensis
arvor
as
asaph
ascii
ascq
ase
ash
ashdod
ashkelon
ashkenazagh
ashley
ashlish
ashlishyn
ashoon
ashoonagh
ashoonaght
ashoonaghys
ashooneyder
ashoonyn
asia
ask
asked
asmodelle
asnaghyn
asp
aspects
aspick
aspickagh
aspickys
aspickyssyn
aspx
ass
assag
assaig
assam
assdaue
assee
asseeagh
assembly
asserbajaan
asserbajaanish
assey
assjee
asslaynt
association
assphurtal
asteckagh
asteraceae
astoorish
astreeaghey
astreeit
astronomical
astronomy
astrophysical
astyrt
at
ata
atc
athabaskagh
atheen
athletic
atholl
atkinson
atlanta
atlantagh
atlantel
atlantic
atlas
atp
attack
attenborough
au
aubrey
auden
auf
auflage
august
augusta
auguste
aundyr
aundyryn
aunydr
aurora
aus
auschwitz
austeyr
austeyragh
austin
austrail
austrailagh
austraineeshagh
australia
australian
austro
author
authorities
authority
authors
auto
autumn
aux
ava
avant
avengers
averil
avery
aviv
avn
aw
awabakal
award
awards
away
awdry
awin
awiney
awintragh
awinyn
awree
ayd
aym
aymara
aymarish
ayn
ayndagh
ayndaue
ayndoo
aynjee
ayns
aynsyn
ayr
ayraghyn
ayre
ayreeanagh
ayrey
ayrn
ayrneen
ayrneenyn
ayrnyn
ayrshire
az
azov
azərbaycan
b
ba
baa
baagh
baaghyn
baaish
baare
baarlagh
baarle
baarleagh
baarney
baarool
baase
baaseyn
baataghyn
baatey
baatyn
babbagh
babban
babbanagh
babbanyn
babe
baby
bach
back
backed
bacon
bacteria
bacterial
bacteyr
bacteyragh
bacteyryn
bad
baden
badlag
bae
baffin
bafta
baggyrt
baghee
baght
baghtagh
baghtal
baghtyn
bahamaghyn
bahrain
baht
baie
baiht
baile
bailey
bailliage
bainney
baird
baisantagh
baker
baldwin
balearagh
balfe
baljagh
baljaght
baljaghtyn
baljey
baljyn
balkanagh
ball
ballaugh
ballay
balley
baloc
balochi
baltagh
balthasar
baltimore
bambi
ban
banc
bancyn
band
bane
baneag
baney
bang
banga
banglane
banglaneagh
banglaneyn
bank
banks
bann
bannee
baollaigh
bar
bara
barack
barbados
barbaght
barbara
barbarea
barbuda
barcelona
bard
bardagh
bardaght
bardoil
bardyn
bare
barel
barelyn
barents
barker
barkhausen
barks
barnes
barney
barngarla
baron
barr
barran
barrant
barrantagh
barrantee
barranys
barrett
barrey
barriaght
barrington
barrooseyn
barrow
barry
bartoli
barton
bascagh
bascaidagh
bascee
bascish
based
basel
bashtey
bashtit
basic
basics
basil
bass
basse
bassett
bastag
bat
bates
bath
batman
battle
bauer
baumgartner
bay
bayr
bayryn
baysel
bbc
bd
bdsm
be
bea
beach
beag
beaga
beagh
beaghee
beaghey
bealach
bean
bear
bearkanagh
bearnaraigh
beashnys
beashnyssagh
beast
beat
beatles
beauchamp
beaufort
beaumont
beautiful
beauty
beayf
beayn
beaynaghey
beays
bec
became
beck
beckett
beckwith
become
becomes
becoming
bed
bede
bedford
bedfordshire
bee
beeal
been
beersheba
beethoven
beetys
before
beg
beggan
beggey
begin
beginners
beginning
begnagh
behan
behaviour
behind
behrt
bei
beigthigh
beih
beihyn
beijing
beill
being
beinn
beinnyn
beishteig
beishteigyn
beishtyn
beisteigyn
beiyn
belaroosh
belarooshagh
belarooshish
belfast
belg
belgagh
belgraaid
belhare
believe
bell
bella
belle
below
belt
ben
beneath
benelux
benfro
benin
benjamin
benjamins
bennett
benoded
benrein
benreinyn
benson
bent
bentrup
bentyn
benz
beoyn
ber
berc
bergen
bergman
bering
berkeley
berkshire
berlebeck
berleen
berlin
bermioodee
bermuda
bernard
berne
bernstein
berreen
berresford
berrish
berrishyn
bertie
bertrand
best
beta
beth
better
betty
betula
between
beverley
beyonce
beyond
bezos
bh
bha
bhaile
bhasa
bheag
bheatha
bheileogaigh
bhi
bhiataigh
bho
bhoth
bhreatainn
bhreathnach
bhru
bhu
bi
biallagh
biallee
bianca
biała
bibcode
bible
bickel
bie
bieauaghey
bieauid
biel
bielefeld
big
biggest
bihan
bikini
bilateria
bildungsroman
biljyn
bill
billagh
billaghyn
billboard
billey
billioon
billioonyn
billoon
billy
bin
bineenyn
bineyn
bing
bingen
bingysyn
binn
bio
bioag
bioagyn
biodiversity
bioghit
bioghys
biographical
biography
biol
biological
biology
bios
biota
bioys
bir
bird
birds
birk
birkenau
birmingham
birr
birth
birthday
births
biscaayn
bishaghey
bishaght
bishee
bishop
bismarck
bissau
bit
bizaad
bla
blaa
blaagh
blaaghey
blaaghyn
blaagyn
black
blackburn
blackley
blackpool
blackwell
blade
blaenau
blair
blake
blamey
blanchard
blass
blasstal
bleayst
bleaystagh
bleaystan
bleaystee
bleaystey
bledel
bleeanagh
bleeaney
bleeantyn
blein
bleinoil
blinders
block
blog
blonde
blood
bloody
bloomfield
bloomington
bluckan
bluckaneyr
bluckaneyryn
bluckaneyrys
blue
blunt
bnj
bo
boaldyn
boallaghyn
boalley
boandey
board
boat
boayl
boayrd
bob
bobby
boca
bochilley
bock
bocki
bod
bodhra
bodies
bodjal
bodjallyn
body
boe
bog
boggaghey
boggaghys
boggey
boght
bogota
bohai
boilet
boing
boirey
bois
bokma
bolg
bolgan
bolganyn
bollagh
bollan
bollee
bollywood
bologna
bolton
bon
bonaparte
bond
bondiaght
bone
bonn
bont
booa
boodeeys
boodeeyssyn
booise
book
books
boom
boone
bootysyn
boraraigh
bord
boris
bork
born
borðoy
bosnia
bossan
boston
bot
botanic
botanica
botanical
botany
both
botorrita
bouin
bouinagh
boulogne
bound
boundaries
bounty
bourbonnais
bourne
bouvet
bow
bowen
box
boy
boyd
boyega
boyle
boyn
boynyn
boys
br
braagyn
braar
braaraghyn
braaryn
brachot
brad
braddagyn
braddan
bradford
bradley
brady
braew
bragg
brahms
braintree
branch
brand
brandenburg
brandon
brashlagh
brasiliensis
brasneyder
brasseelagh
brassica
brassicaceae
brastyl
brastyllyn
brastylyn
brat
brattagh
bratteeyn
braun
brave
braveheart
brazzers
bre
breaking
brebbal
brecht
breck
bree
breeaghys
breear
breearagh
breearyn
breec
breeding
breeocklagh
breeockle
breeocklyn
breeoil
breeshey
breh
breit
breiz
breizh
bremen
bremke
brendan
breneen
breneenagh
breneenyn
brennan
brest
bretagne
bretin
bretnagh
bretnee
bretneyryn
bretnish
breton
bretonne
bretyn
brey
brezhoneg
brian
brick
bridge
bridget
brief
brieg
brien
brier
bright
brill
brishey
brisht
bristol
britaan
britaanagh
britaanee
britaanish
britain
britannia
britannica
british
brittany
briw
briwnagh
briwnyn
briwnys
briwnyssagh
briwnyssit
briwnyssyn
bro
broadcasting
broadway
broc
broccoli
brock
brod
broddag
broddagyn
broderick
broie
broiou
brokhausen
bronney
bronnit
bronte
broo
broogh
brooinyn
broojey
broojit
brooke
brooklyn
brooks
bros
brother
brothers
brower
brown
browser
bru
bruce
bruightey
brunei
bruno
brunswick
brussel
bruton
bryan
bryci
bryn
brythonagh
brythonee
brythonish
bs
bu
buada
bucephalophorus
bucha
bucharest
buck
buckinghamshire
buckley
budapest
buddhagh
buddy
buena
buenos
bufoni
buggane
bui
buie
buiggey
buigh
buighag
buighey
building
buill
builley
buillvollee
buinnaghyn
buinney
buird
buitc
bukkake
bulgeyrish
bull
bulletin
bun
bunneeaght
bunneydagh
bunneyder
bunneyderyn
bunneydys
bunnit
bunnys
bunraght
bunraghtoil
bunscoill
bunscoillyn
bunsen
bunstoo
bunstooghyn
bunting
bureau
burgh
burke
burkina
burlesque
burley
burmagh
burn
burning
burns
burrell
burt
burton
burundee
bus
buscemi
bush
business
but
butler
butterflies
butterfly
bwaane
bwee
bwo
bwoalley
bwoalleyder
bwoid
bwoideeaght
bwoirrin
bwoirrinagh
bwooise
bwrdd
by
bydgoszcz
byrne
byron
byto
c
ca
caa
caaghyn
caair
caairliagh
caarjoil
caarjyn
caarjys
caashey
caayl
caaylag
caayr
caayragh
caayryn
cabbag
cabbal
cabbash
cabbil
cabbyl
cabdil
cabot
cadee
cadell
cadjin
cadjincliaghtit
cadjiney
cadjinit
cadley
caerffili
caerfyrddin
caernarfon
caesar
caffee
caggaghyn
caggee
caggeeagh
caggey
caggoil
cagh
caghlaa
caghlaaee
caghlaaghyn
caghlaait
caghlaays
caglee
cagliagh
caglit
cah
cahnagh
caigneyderyn
caillagh
cailleeyn
caillin
caillinyn
caillit
caillt
cain
caine
cainleyn
cair
cairbre
cairn
cairo
cairscreeu
cairyn
cairys
caisht
caislea
cake
calais
calamintha
caldwell
caley
calidris
california
call
called
callin
calling
callish
calls
calmane
caltha
calvin
cam
cambridge
cambridgeshire
came
cameo
cameron
cameroon
camisole
cammag
cammee
cammeeyn
camomile
camp
campbell
campyn
camys
can
canaaragh
canada
canadagh
canadey
canadian
canberra
cancer
candy
canidae
canis
cannes
cannian
canoes
canterbury
cantoanish
cantoon
cantoonyn
caola
cap
capaldi
cape
capital
capitata
capone
cappan
cappanyn
cappeeys
captain
captains
captan
car
cara
carbid
carboan
carbyd
cardiff
cardoon
carduelis
cardunculus
career
caribagh
carl
carlisle
carlo
carlos
carmane
carmel
carmen
carn
carnane
carnaneyn
carnegie
carol
carole
carolina
caroline
carolus
carpenter
carr
carrach
carraig
carraneyn
carrey
carrick
carrie
carroll
carsley
carson
carter
carteret
cartier
cartographic
cartoon
cartoonists
cartoons
cartoonyn
carvat
carvatyn
casa
case
casey
caseyn
cash
casherick
cashtal
cashtallyn
caslagh
casley
caslys
caslyssyn
caslysyn
casnewydd
cass
cassan
cassanyn
cassee
cassey
cassid
cassidagh
cassini
cassyn
cast
castagh
castell
castey
castit
castle
castletown
cat
catalina
cataloanish
catalogue
catalonish
catarrhini
catawba
cate
category
cath
cathair
cathal
cathartica
cathedral
catherine
catholic
catoleagh
catolee
catreeney
cats
caullery
cavan
cavendish
cayman
cayr
cb
cbs
ccs
cd
cdu
ce
ceaghlagh
ceaghlaghyn
ceaghlee
ceaghley
ceaghlit
cealla
ceanannas
ceann
ceatharlach
ceau
ceaueyder
ceaut
cecil
cedar
ceeprey
ceithleann
celebrating
celebrity
celestial
cell
cells
celtiagh
celtibeirish
celtic
celtiee
celtish
celts
cemre
cengage
census
center
central
centre
century
cercopithecidae
ceredigion
ceuta
cf
ch
cha
chaairliagh
chaarjyn
chaarjys
chaart
chaayr
chaayragh
chabbal
chabdil
chace
chad
chadjin
chadjinit
chaetognatha
chagg
chaggee
chaggey
chaghlaa
chaghlaaee
chah
chahnagh
chaie
chaighdea
chaill
chain
chair
chairbre
chairman
chairn
chairscreeu
chaisht
chaislea
chaluim
chambers
chamboyd
chammah
chamomile
champ
champion
champions
championship
champyn
chan
chanadagh
chanadey
chanel
change
changed
changes
changhyr
channel
chapel
chapman
chappan
chaptan
chapter
char
character
characteristics
characters
characteyr
charadriiformes
charane
charboan
charbyd
charib
charibagh
charity
charlemagne
charles
charli
charlie
charlotte
charmane
charmed
charon
charraig
charrey
chart
charter
charthaigh
chase
chasherick
chashoob
chashoobish
chashtal
chashteel
chaslys
chaslyssagh
chaslyssyn
chaspagh
chass
chassagh
chassaghstaan
chassan
chassee
chast
chastain
chataloan
chatar
chathair
chatoleagh
chavan
chayt
che
chea
cheaghil
cheaghlagh
cheaghley
cheann
cheap
cheathru
cheau
cheaueyder
cheayll
cheayllagh
cheayllys
cheayn
cheayrt
cheayrtagh
cheayrtyn
check
checklist
cheddin
cheead
cheeadyn
cheeagh
cheeal
cheeall
cheeallagh
cheeayll
cheeil
cheeill
cheeprey
cheese
cheesh
cheiley
cheilley
cheim
cheimagh
cheimee
cheimyn
cheinney
cheintagh
cheintys
cheintyssagh
cheird
cheirdey
cheirdyn
cheiy
chelloorey
chelsea
cheltiagh
cheltibeirish
cheltish
chemical
chemistry
chemmig
chemmigagh
chemmyrk
cheng
chennee
chernihiv
chernivtsi
cherree
cherrin
cherrinagh
cherroo
cherry
cheshire
chester
cheyl
cheyll
cheylley
cheyllys
cheyrrey
chi
chiaddey
chiaddeyder
chiang
chianglaghyn
chiangley
chianglt
chiannoort
chiannoortagh
chiarail
chiare
chiarroo
chiart
chiartaghey
chiartys
chiaull
chiaulldramey
chiaullee
chiaulleyder
chicago
chicken
chicklipaid
chied
chief
child
childers
children
chill
chillag
chillagagh
chillagee
chillagyn
chimmeeys
china
chinese
ching
chione
chioneys
chionnaghey
chionnee
chipewyan
chiribati
chishtey
chivalry
chiyt
chla
chlaair
chlaare
chlag
chlagh
chlaghagh
chlaghan
chlaghyn
chlashtyn
chlassicagh
chlastyn
chlea
chleaoil
chleayee
chleayney
chleaysh
chlee
chleeau
chlein
chliaghtagh
chliaghtaghyn
chloaie
chloan
chloe
chloiaghyn
chloie
chloieder
chloiederyn
chlorophyll
chloroplastyn
chlou
chlowan
chlub
cho
choad
choadee
choadey
choagaash
choagyraght
choagyrey
choayl
chochorp
chohaglym
chohionnal
chohirrey
choice
choire
chojnice
cholaashtey
cholby
chollaigh
cholleish
cholloo
cholm
choloin
choloinagh
choloinaghys
cholombey
cholught
chommeeys
chommishoon
chommyoon
chomoro
chomsky
chonaant
chonamara
chonastagh
chondaigys
chongo
chongqing
chonnaghtey
chonnaghyn
chonnal
choobey
choodagh
choodaghey
chooid
chooie
chooilleeney
chooilley
chooinaghtyn
chooish
chooishagh
chooishyn
choonceil
choondaeghyn
choonee
chooney
choonseil
choontae
choontey
choontys
choorse
choose
choowait
chooyl
chooyleeacklagh
chooylloo
chooyrt
chopin
chor
chordata
chorea
chorkee
chormid
chorn
chornah
chornish
chornobyl
chorockle
chorp
chorpagh
chorpane
chorpyn
chorra
chorrym
chorsickey
chorys
choryssyn
chosh
choshey
chosnee
chosney
chosovo
chosoylagh
chosoylaght
chossyn
choud
chovestey
chowraghey
chowraghyn
chowree
chowrey
choyrle
choyrlee
choyrt
chraa
chrackan
chrackanagh
chrackanyn
chraishtee
chraishtey
chraishteyder
chraue
chrauee
chraueeaght
chreck
chred
chredjal
chredjuagh
chredjue
chree
chreest
chreestee
chreestiaght
chreg
chreoi
chretooryn
chrimeea
chrimeeagh
chrink
chris
christ
christian
christie
christina
christine
christmas
christoph
christopher
christy
chro
chroit
chroitish
chron
chronicle
chronicles
chronk
chronnaghey
chronneyder
chronology
chroo
chrooagh
chrooaght
chrooin
chrosh
chrouw
chroymmit
chruinnagh
chruinnaghey
chruinnaght
chruinnaghtyn
chruinney
chryslid
chryss
chu
chubblane
chubut
chuck
chuilceach
chuilleigagh
chuirtlagh
chullee
chultoor
chultooragh
chultooryn
chum
chumbria
chummaght
chummaghtagh
chummaghyn
chummal
chummaltagh
chummaltee
chummaltit
chummaltys
chummey
chummeyder
chummit
chur
church
churchill
churree
churrym
chynneeagh
chynney
chyprys
chyrgistaan
chytosol
ci
cia
cierzyna
cilia
cill
cille
cinema
cinn
cionn
circle
circus
cirsium
cite
cities
citizen
citrus
city
citypopulation
civil
ck
cl
cla
claar
claare
claareeyn
claareyn
claaryn
claasagh
clade
clag
clagh
claghan
claghyn
clague
claigin
claire
clane
clann
clara
clare
clark
clarke
clarkia
clash
clashtyn
class
classic
classicagh
classical
classicee
classics
classification
classified
clattag
clattys
claude
claus
clayton
cle
clean
cleanaghyn
cleaney
cleaoil
cleaoilaghey
cleaynaghyn
cleayney
cleayneyder
cleaynit
cleaysh
clee
cleeah
cleeau
cleigh
cleighee
cleighyn
clein
cleinney
cleinyn
clements
cleragh
clery
cleveland
clg
cliaghtagh
cliaghtaghyn
cliaghtey
cliaghtit
cliath
clieau
climate
clinical
clinopodium
clint
clinton
clio
clive
cloaie
cloan
cloch
clocha
cloiaghyn
cloie
cloieder
cloiederyn
cloiet
cloit
clooieagh
clooieyn
clooney
cloreed
cloreen
close
clou
clouyn
clovack
clovean
clovis
clowan
cluain
club
clubyn
clucas
cluig
clwyd
clyde
clyst
cm
cnidaria
cnn
cnobha
cnoc
co
coad
coadan
coadanyn
coadee
coadey
coadit
coadyn
coagaash
coagaashagh
coagyraght
coagyrey
coal
coamraghyn
coamree
coar
coardail
coardailys
coardit
coast
coates
coayl
cobbyr
coch
cochaarjagh
cochaarjys
cochaarjyssyn
cocheayllagh
cochianglaghyn
cochiangle
cochiangley
cochianglt
cochionneeaght
cochorpit
coco
cocos
code
cody
coe
coed
cofioosagh
coghooysagh
cohaggloo
cohaglym
cohassooagh
coheiyderys
cohen
cohionnal
cohirraghyn
cohirrey
cohirreydagh
cohoyrtee
coill
coillte
coimisiu
coip
coipyn
cois
coiste
cola
colaashtey
colb
colby
cold
cole
coleman
colin
collane
collected
collection
colleeys
college
colleish
colleishyn
collins
colloo
colm
coloayrt
coloayrtys
coloayrtyssyn
cologne
coloin
coloinagh
coloinaghey
coloinaght
coloinaghys
coloinee
coloinyn
colombagh
colombey
color
colorado
colour
colught
colughtyn
columbia
columbianus
columbus
com
comaidyn
comain
come
comedy
comer
comes
comhairle
comic
comiccon
comics
coming
commagh
commee
commeeys
commishoon
commission
commissioners
committee
common
commons
commonwealth
communication
communications
communis
community
commyn
commyoon
commyoonyn
como
companion
company
comparative
compendium
complete
complex
computer
comunn
con
conaant
conaantyn
conamara
conastagh
conastaght
conastey
conastit
concepcio
concepts
concerning
conchobar
concise
condaigagh
condaigys
conference
confidential
conflict
confused
congress
conn
connacht
connaghtey
connaghyn
connecticut
connection
connell
connemara
connery
conney
conning
connolly
connor
conrach
conrad
consequences
conservation
considered
consonants
constance
constant
constitution
constitutional
contact
contae
containing
contemporary
content
context
continuum
contoyrtagh
contoyrtys
contoyrtyssyn
contraartagh
contraartys
contributions
control
convallaria
conversation
conversational
conwy
cooan
cooat
cooatyn
coodagh
coodaghey
coodee
coodit
cooid
cooidjagh
cooie
cooil
cooill
cooilleeiney
cooilleeney
cooinaghtyn
cooinaghyn
cooinseil
cooish
cooishyn
cooitinagh
cook
cool
coon
coonceil
cooncil
coondaeghyn
coonee
cooney
cooneyder
coonrey
coonseil
coonseilagh
coonseilee
coonseilyn
coontae
coontaghyn
coontey
coontit
coontys
coontyssyn
cooper
coordinates
coorse
coorseyn
coose
cooseyn
cooyl
cooylrey
cooyn
cooyrt
cooyrtey
cooyrtoil
cooyrtyn
cop
copharteeys
coppola
coptagh
cor
cora
coraa
coraagh
coreir
coreiragh
cork
corkan
corkee
cormac
cormaghey
cormid
cormidyn
corn
cornagh
cornelius
cornell
cornish
cornisheyr
cornus
cornwall
corocklagh
corockle
corocklyn
corp
corpagh
corpane
corpaneyn
corporagh
corporation
corpses
corpus
corpyn
corragh
corranagh
corrillagh
corrym
corrymyn
corsaid
corsaidyn
corvus
coryn
corys
coryssyn
corysyn
cosh
coshey
cosmopolitan
cosnee
cosney
cosneyder
cosneyderyn
cosnit
cosoylagh
cosoylaghey
cosoylaght
cosoylaghtyn
cosoyley
cosoylit
cosplay
cosplayer
cossyn
costa
costello
costys
cottage
coughlan
could
council
count
counties
countries
country
county
coup
cour
courier
course
court
courteney
covaljys
coventry
coventyn
cover
covestey
covestit
covid
covroojid
cowin
cowrag
cowraghey
cowraghyn
cowragyn
cowree
cowrey
cowreydagh
cowrit
cox
coyin
coyrd
coyrlaghey
coyrle
coyrt
craa
crackan
crackanagh
cragh
cragheyder
cragheyderyn
craidoil
craig
craine
craishtee
craishtey
craishteyder
craishteyderyn
craitnagh
crammag
crammanyn
cramp
crampit
crane
crank
cranncha
crantessen
craobh
craue
craueagh
crauee
craueeaght
craueeaghtyn
craueyn
craven
crawford
cray
crazy
crc
cre
creaghney
creaghnit
crean
creauagh
creck
credjal
credjue
credjueyn
cree
creeagh
creeaght
creeaghyn
creeish
creek
creeley
creeleyder
creest
creestee
creesteenyn
creestiaght
creg
cregeen
creggagh
creggey
creggyn
cremeydagh
cremeyder
cremeyderyn
cremeydys
creneash
creoi
creoiaghey
cretoor
cretooryn
crew
cri
criggad
crime
crimeea
crimes
criminal
crimmey
crink
crispus
cristatus
cristiano
crithmum
critical
critics
crivassanagh
cro
croagane
croghane
croghaneyn
croghey
crogheydagh
crogheydys
crogheydyssyn
croghit
croit
croitish
cromwell
cronenberg
cronk
cronnaghey
cronnaneagh
cronneyderyn
croo
crooaght
crooin
crooinagh
crooinit
crooit
crootagh
crops
crosby
crosh
croshey
cross
crossag
crossagyn
crossey
crottylyn
crouw
crouwyn
crovan
crow
crowe
crown
cruacha
cruink
cruinlagh
cruinlaghey
cruinlee
cruinn
cruinnaghey
cruinnaght
cruinnaghtyn
cruinney
cruinnit
cruinnlaghey
cruise
crusoe
crustee
cruz
cry
crypsis
cryslid
cryss
cryssyn
crystal
crystalyn
cs
csi
cso
ctenophora
cu
cuan
cubblane
cubbon
cubbyl
cuckoo
cuirraghyn
cuirrey
cuirreydagh
cuirreyder
cuirtlagh
cuirtlee
cuishlagh
cuishlin
cuishlinyn
cullee
cultoor
cultooragh
cultooryn
cultura
cultural
culture
cultures
cum
cumaadagh
cumann
cumbria
cumhall
cummaght
cummaghtagh
cummaghtyn
cummaghyn
cummal
cummaltagh
cummaltee
cummaltit
cummaltys
cummey
cummeyder
cummeyderyn
cummit
cummynagh
cummynee
cummys
cummyssagh
cunningham
cuoco
cup
cur
curain
curie
curitiba
curr
curragh
curree
curreeyn
current
currit
currym
currymyn
curse
cushag
cut
cuttagh
cuttee
cw
cyanobacteria
cygnus
cymraeg
cymru
cynara
cyngor
cyrus
cytoskeleton
czarna
cze
czo
człucho
d
da
daa
daag
daagh
daaghey
daaghooaghtyn
daaghyn
daah
daahghey
daahghyn
daahit
daan
daanyn
daase
daawheeylleyder
dad
daeed
dafoe
dafydd
dag
dagh
daily
daingean
daink
daisy
dakota
dale
dali
dallas
dalmaatish
dalrymple
daly
damara
dame
dames
damhliag
damien
damon
dan
dana
dance
dancing
daniel
daniela
danielle
daniels
danny
dans
dante
danube
danvarg
danvargagh
danvargee
danvargish
danych
dar
dara
dare
darey
dark
darmstadt
darragh
darree
darren
dart
darwin
daryl
das
data
database
date
daten
dates
dateyn
daue
dauesyn
daughter
daunse
daunseyr
dave
david
davidson
davies
davis
davison
davy
dawn
day
days
dazed
dc
dd
ddim
ddinbych
de
dead
dean
deanyn
dear
dearmond
death
december
dee
deep
deeth
defined
definition
degree
deherree
deimos
dein
deiney
del
delaney
delaunay
delaware
delbee
delfino
delhi
della
dellal
dellalys
delle
delleyder
deltey
demi
democracy
democratic
demographic
den
dene
denis
denise
denmys
dennis
dentatus
denton
denver
denzel
deoxy
department
dept
der
derby
derbyshire
derek
dermot
derrey
derry
des
descendants
deschanel
description
design
desire
desmond
dessine
destiny
det
details
detective
detmold
detroit
detta
dettyl
deutsch
deutsche
deutscher
deutschland
deutschlands
deux
development
devil
devito
devon
deyn
deynlagh
deynlaghys
deynphobblaght
deyr
dg
dh
dha
dhe
dhimal
dhoa
dhoire
dhone
dhoney
dhossan
dhossanyn
dhu
dhyt
di
dia
dialect
dialects
diamond
diana
diane
dianne
diaries
diarmada
diarmait
diarmuid
diary
dick
dickens
dickinson
dictionary
did
didn
die
diego
dies
diesel
diestelbruch
dietary
dietrich
different
diger
digest
digital
dillon
din
dinan
dine
dinosaurs
dinsh
dioecious
diora
diospyros
diploamagh
diplomagh
direct
director
directory
dirree
dirty
disc
discourse
discover
discovered
discovery
discreajagh
disease
disney
disneyland
displaystyle
distinguishing
distribution
district
dita
ditt
diuc
diucaght
diuney
diunid
diversity
division
divlyn
diwanyn
dixon
dj
djibouti
dk
dm
dmitri
dna
dnieper
do
doal
doaltattym
doarneyr
doarneyrys
dob
dobbree
dobbyr
dobhair
dobhra
doc
docamad
docamadyn
doctor
documentation
documents
dod
does
dog
doghan
dogrib
dogs
doherty
doi
doillee
doilleeid
doilleeidyn
doing
doire
doirrey
dol
doll
dolley
dollit
dolls
dolly
doltey
doltit
dom
doman
domestica
domhnach
dominance
dominica
dominique
domnaill
domnall
don
donald
donbas
donegal
donets
donetsk
dong
donita
donna
donnchad
donnchada
donne
donnell
donzis
doo
dooar
dooarchoo
dooblagh
dooblaghey
dooble
dooblit
dooey
dooghys
dooghyssagh
dooie
dooieaght
dooieyn
dooin
dooiney
dooinney
doolish
doon
doonaght
doonee
dooney
doont
doonyn
door
doour
dooyrt
dord
dorothy
dorraghey
dorrys
dorset
dory
dos
doshee
doshil
dou
douarnenez
double
doubleday
douglas
douvyr
dove
dover
dow
dowan
dowanagh
dowd
dowin
down
doyle
dr
dra
draght
dragon
dragun
draig
drake
drama
dramadagh
dramadeyr
dramaghyn
dramey
drane
drappal
dreagh
dream
dreams
dreamworks
drean
dreeym
dreeyminyn
dreger
dreill
drew
driaght
driem
drigit
drine
driscoll
droggal
drogh
droghad
droichead
droichid
droim
droma
drommey
dronuillagagh
droop
drop
drualtagh
drug
druggaghyn
druggey
druiaghtagh
druight
drummeyder
drummyn
drundin
ds
dty
du
dubai
dubh
dublin
duck
due
duff
duffyl
dug
duic
duicyn
duillag
duillagagh
duillageen
duillageenyn
duillagyn
duillagys
duke
dumbo
dunes
dunkerque
dunkirk
dunn
dunst
dunver
dunverys
dunveryssyn
dura
duran
durham
during
durrell
dursley
duva
dvd
dvdyn
dvor
dw
dwarf
dwight
dwo
dy
dyck
dyer
dyfed
dyke
dylan
dyn
dynamical
dynamickyn
dynamics
dynamite
dynsee
dys
dz
dztwo
dʒ
e
ea
eab
eabban
eabyn
each
eaddagh
eaddee
eaddeeyn
eaghtyr
eaghtyragh
eaghtyrane
eaghtyraneagh
eaghtyraneyn
eaghtyraneys
eaghtyryn
eaghtyrys
eaghtyryssyn
eagle
eaillere
eailley
eairkagh
eairkey
eairkyn
eaisht
eaishtagh
eajipt
eajiptagh
ealisaid
ealish
eam
eamon
eamyn
eanishagh
ear
earack
earagail
earish
earisheyr
earisheyryn
earishlioar
earishlioaryn
earl
early
earroo
earrooagh
earrooaghey
earrooder
earrooderyn
earrooit
earrooyn
earth
eas
easa
eash
eashagh
eashyn
east
eastern
easton
eastwood
easy
easyn
eayil
eayn
eayney
eaynid
eaynin
eayninyn
eayst
eaystyn
ebcdic
ebert
ec
ech
echey
echeysyn
echinodermata
eck
ecology
economic
economist
ecuador
ed
edard
edd
eddie
eddin
eddinagh
eddinyn
eddrym
eddrymey
eddyn
eddyr
eddyraghey
eddyrashoonagh
eddyrlhieen
eddyrscarrey
eden
edgar
edible
edin
edinburgh
edited
edition
edjaghys
edmonton
edmund
eds
edu
education
edward
edwards
edwin
ee
eeacklagh
eeagh
eeaght
eeaghtyragh
eean
eeane
eeaneagh
eeaneyn
eeanlee
eear
eearagh
eearlaghyn
eearley
eearvee
eearvooir
eeasaght
eeasaghtyn
eeassaghey
eeast
eeastagh
eeastee
eeasteyr
eeasteyragh
eeasteyraght
eeastyn
eebyrt
eebyrtagh
eebyrtys
eeck
eeckit
eeder
eederyn
eeghtyragh
eeit
eelee
eeleeaght
eelipsagh
eer
eeraan
eeraanagh
eeslynn
eeslynnagh
eeslynnee
eeslynnish
eesotoyp
eesti
eetoip
eeym
ef
effect
effects
efloras
egg
eggaghyn
eggey
eggoaylleeaght
eggochoryssyn
eggys
eggyssyn
egin
eginagh
egypt
egyptagh
eh
ei
eichholz
eie
eieyn
eight
eigsoylagh
eilat
eilean
eileanan
eileen
eill
ein
einstein
eiraght
eiraghtagh
eirey
eirinagh
eirinee
eirinys
eisht
eisteddfod
eiyrt
eiyrtys
eiyrtyssagh
eiyrtyssee
eiyrtyssyn
eiyrtysyn
ej
el
elba
elbla
eleanor
election
elections
electoral
electricity
electronic
elefant
element
elements
elena
elias
elijah
eliot
elisabeth
eliza
elizabeth
ellan
ellanagh
ellaneen
ellaneenyn
ellanragh
ellanree
ellanyn
elle
ellen
elley
ellingsen
elliot
elliott
ellis
ellyn
ellynagh
ellyneyr
ellyneyryn
ellynyn
elmint
elmintyn
elon
elsa
elsevier
elveeish
elveeishagh
elveeshagh
elvis
em
emberiza
emilia
emilianish
emilie
emily
emma
emmanuel
emmy
emperor
empire
emshir
emshiragh
emshiryn
emshyr
emshyragh
emshyraght
en
encanto
enclos
encounter
encyclopaedia
encyclopedia
encyclopædia
end
endangered
endoplasmagh
enemy
energy
enetsish
enez
engineering
england
english
eniagh
enmyn
enmys
enmyssagh
enmyssaght
enmyssaghtyn
enmyssey
enmyssit
enmyssyn
enn
ennagh
ennaghtagh
ennaghtyn
ennal
ennalagh
ennalaghey
ennalit
enney
ennit
ennoil
ennym
ennymagh
ennymocklagh
ennymockle
ennymocklyn
ennymoil
enough
enrichment
ens
ensymeyn
enterprise
enterprises
entertainment
entre
entreilys
entry
environment
environmental
environnement
environs
enya
eo
eoghain
eoin
ep
ephemeris
epic
epiderm
episode
episodes
episodeyn
epsilon
er
era
erash
erbee
eretz
ergatagh
erge
ergooyl
ergosfeir
eric
erica
erik
erika
eriksson
erin
eriophorum
eris
eritrea
ernest
ernst
erotica
erreish
error
erskine
erskyn
ersooyl
ersten
ersyn
ert
es
escape
eshyn
eskimagh
eskimo
espan
espoo
essays
essex
essyl
essylagh
est
estaan
estate
estelle
estimates
estoinagh
estoinish
et
eta
etc
ethanol
ethnic
ethnologue
etlagh
etlan
etlanyn
etlanys
eto
etruscagh
eu
euar
eugene
eukaryota
eukaryotagh
eukaryote
eukaryotes
eukaryoteyn
eunysseyr
eunysseyrys
euphoria
euro
europa
europaea
europagh
europe
european
europey
eurostat
eurovision
eva
evans
eve
even
events
ever
everton
every
everyone
everything
evidence
evil
evolution
evolutionary
ewagh
ewaghys
ewdish
ewnagh
ewnish
ewnyn
ex
examiner
exclusive
executive
exeter
existence
exodus
experience
experimental
exploration
exploring
expo
express
extraterrestrial
eye
eyes
eysturoy
ez
ezra
f
fa
faagail
faagit
faaie
faaishnagh
faaishnys
faare
faarkaghyn
faarkee
faarkey
faarkeylann
faarney
faaroagh
faaroish
faasagh
faase
faasee
faastguinyn
faba
fabaceae
faber
fabricius
face
facebook
faces
fact
factbook
facto
facts
fadaneagh
fadhla
fagbenle
faggys
faggyssagh
faggyssaght
faggyssaghtyn
faghtys
faghtyssyn
fai
faill
faillee
failleil
failley
failleyderyn
failt
fainaghyn
fainey
fainnaghyn
fainney
fair
fairaig
fairfax
fairy
faith
faiyr
fakin
fakinagh
fakinit
fakten
fala
falco
falcon
fall
fallen
falls
fallsoonagh
fallsoonys
falsoonagh
fame
familiaris
families
family
famine
famman
fammanagh
fammanyn
famous
fan
fannag
fannagyn
fansee
fantasia
fantasies
fantastic
fantasy
faoi
faou
faoued
far
faragher
farang
farangagh
farenmyn
fargher
fargo
farm
faroeislands
farr
farrane
farraneyn
farrys
fashion
faso
fassan
fassanagh
fastee
fastest
fastyr
father
fauna
faye
fc
fe
fea
feabhail
feabhal
feaillaghyn
feaillere
feailley
feallee
feamagh
feaneeckagh
feanish
feanishagh
feanishyn
fear
feature
features
feayn
feaynid
feayr
feayraghey
feayrey
feayslee
feaysley
february
feddag
feddan
feddanyn
feddish
feddyn
feddynagh
feddynaght
feddynit
feddynyn
federal
federation
federer
fedjagagh
feeacklagh
feeackle
feeacklyn
feeagh
feeaghyn
feeaih
feeaihee
feeal
feealee
feed
feederaght
feedoo
feeit
feel
feelee
feeleeaght
feer
feeraghey
feerid
feeshan
feeshanyn
feet
feeu
feeyn
feeyney
fegooish
feie
feill
feillagh
feirshtey
feis
felix
felton
female
feme
femeyn
feminism
femoil
fendeil
fendeilagh
fenee
fenella
feniagh
feniaghtagh
feniaghtys
feniaghtyssyn
feniee
fer
ferdinand
ferguson
ferm
fern
ferna
fernando
ferns
ferrari
ferrishyn
festival
feudagh
feverfew
feysht
feyshtagh
feyshtyn
ff
fflint
fg
fhaili
fhm
fi
fiac
fianna
fibonacci
fiction
ficus
field
fiennes
fifa
fifth
figures
fiji
file
files
filleeyn
filley
filleydagh
fillit
fillym
film
filmography
films
filmyn
final
financial
find
finding
finds
fine
fingal
finland
finn
finnagh
finne
finneigagh
finney
finnlynn
finnlynnagh
finnlynnish
fiona
fiorentino
fir
fire
firenze
firrinagh
firrinys
firryn
firrynagh
first
firth
fis
fischer
fish
fishag
fisher
fishig
fishigagh
fishigee
fishigoil
fitzgerald
five
fk
flaaoil
flag
flagella
flagstaff
flah
flaherty
flainn
flanagan
flandrynagh
flandrynee
flandyryn
fleshlight
fletcher
fliaghee
fliaghey
flickr
flight
fliugh
fliughane
fliughaneyn
fliughey
fliughid
floag
floagyn
flodaigh
floor
flooyr
flora
florence
florida
flower
flowers
flueger
fluke
flwyddyn
fly
fm
fo
foalley
foalsey
foast
foawir
foawr
foaynoo
foayr
foayroil
foays
foayssagh
focklagh
fockle
fockley
fockleyder
fockleyn
fockleyr
fockleyreyder
fockleyryn
focklit
focklymagh
focklyn
focus
fod
foddee
foddeeaght
foddeeaghtyn
foddey
fodreayrtan
fogh
fograghyn
fogrey
fogrit
foiee
foillan
foillanyn
foillycan
foillycanyn
folk
folklore
follaghey
follanid
folley
folliaght
folliaghtagh
folliaghtyn
follit
follym
folmaghey
folmid
folt
foltagh
fondagh
fondid
fondit
food
fooillagh
football
for
foras
forbes
force
ford
foreign
forest
forever
form
forma
formation
formerly
formley
formoil
forsaghyn
forsdal
forse
forsey
forseyn
fort
forum
fosfaar
foshlee
foshley
foshlit
foslee
fosley
foslit
fossil
fossylagh
fossylyn
foster
fotograf
fotografeeaght
fotografyn
fouenant
found
foundation
four
fourth
fouyir
fouyr
fowder
fox
foxdale
fr
fra
franc
franca
france
frances
francesco
francis
francisco
franck
franco
francophonie
frangagh
frangee
frangish
frangisheyryn
frank
frankagh
frankee
frankfurt
franklin
franz
fraser
frassaghey
frastyl
frauaig
frauaigyn
fraue
fraueagh
fraueoilagh
fraueyn
fre
freayll
freaylt
freayltys
fred
freddie
frederick
free
freedom
freeman
freeshlannagh
freeshlannish
freggyragh
freggyrt
freggyrtagh
freggyrtyn
freggyrtys
freill
freillagh
freilleyder
freillt
freilt
french
frequently
fresenius
fresh
freud
fribourg
friday
friedrich
friend
friends
fries
frioggan
friogganyn
fritz
friu
fro
frog
frogs
from
frost
frozen
fruit
fry
fu
fud
fueginus
fuglafjarðar
fuglafjørður
fuill
fuillaghtyn
fuilleeaght
fuilt
fuinney
fuirraghtyn
fujian
fukuhara
full
fun
function
functional
fund
funeral
funet
fungi
fungys
fungyssyn
fungysyn
funniest
funny
furlan
further
futbolo
future
fuygh
fuyghagh
fwee
fwirran
fwirranagh
fwirranyn
fx
fy
fynn
fynnagh
fynneig
fynneigyn
fynney
fys
fyshoaylleeaght
fysseree
g
ga
gaa
gaal
gaalaghey
gaase
gabon
gabriel
gad
gaeil
gaeilge
gael
gaelg
gaelgagh
gaelgey
gaelgeyr
gaelgeyryn
gaelic
gaeltacht
gaeltachta
gaeltaght
gaeltaghtyn
gagarin
gaggyrt
gagh
gaghlaa
gahagh
gailley
gaiman
galeesh
galeeshish
galega
galerie
galicia
galileo
gall
gallagher
gallanagh
gallery
galliu
gallo
galloish
gallup
galore
galway
game
gamecocks
games
gametophyte
gamma
gamman
gammanyn
gan
ganish
gansu
gant
gaoth
gappaghey
gar
garaghyn
garbha
garci
garcia
garden
gardening
gardens
gareth
garey
gareydys
garff
garfield
garland
garmad
garmadyn
garman
garner
garraghey
garral
garrett
garroo
garry
gary
garza
gas
gass
gassyn
gastey
gastid
gaston
gate
gates
gato
gaue
gaueagh
gawne
gay
gayt
gaza
gazette
gazetteer
gcaorach
gd
gdan
gdn
gdp
gdynia
ge
geabbey
gear
gearasdan
geay
geayaghyn
geayee
geayil
geayl
geayney
geayr
geayragh
geayryn
geddyn
geddyr
gee
geeaaney
geearree
geeck
geek
gees
geill
geilley
geinee
geinnee
geiyrt
gell
gemeinden
gemeindeverlag
gemma
gemmifera
gen
gender
gene
genedlaethol
genera
general
generation
generative
genes
genesis
genetagh
genetic
geneva
genius
gennaghtyn
gennal
genome
genomics
genre
genreyn
genus
geobreizh
geoff
geoffrey
geographic
geographical
geography
geological
geology
georg
george
georges
georgia
georgie
gerald
gerard
gerhard
germaan
germaanagh
germaanee
germaanish
german
germany
germplasm
gerne
geronimi
gerrard
gerrey
gerrid
gerroil
gerrymoil
gerson
geschichte
get
getlagh
gets
getting
geuraghyn
geuree
geurey
geyre
geyrey
geyrragh
gh
gha
ghaa
ghaal
ghaalaghey
ghaan
ghaeilge
ghaelg
ghaelgagh
ghaeltacht
ghaeltaght
ghailck
ghailckagh
ghainimh
ghaleesh
ghaleeshish
ghallioo
ghambia
ghamman
ghammanyn
ghaney
gharbho
gharmad
gharmadyn
gharroo
ghas
ghass
ghaue
gheay
gheayney
gheddin
gheddyn
gheiney
gheinnee
ghenre
ghenus
ghermaan
ghermaanagh
ghermaanish
gherrid
gheuree
gheurey
gheynlagh
gheynphobblaght
gheyre
ghial
ghiare
ghiarrey
ghiastyllagh
ghib
ghienteyder
ghientyn
ghil
ghineraal
ghitar
ghivlyn
ghlackan
ghlare
ghlaschu
ghlass
ghlassey
ghleann
ghleashagh
ghleashaght
ghleashiddagh
ghlen
ghlion
ghlioon
ghlooaghey
ghlottys
ghlottyssagh
ghlout
ghoaill
ghoaillagh
ghoal
ghoaldagh
ghoalish
ghoan
ghoarney
ghoirrey
gholl
ghominicagh
ghone
ghoo
ghooagh
ghooey
ghooghyssagh
ghooie
ghooieyn
ghooiney
ghooinney
ghoolag
ghoolish
ghoon
ghorley
ghorraghey
ghorrym
ghortey
ghost
ghostbusters
ghothagh
ghow
ghowanagh
ghowin
ghra
ghraagh
ghraih
ghraihagh
ghrama
ghrammeydys
ghreag
ghreagagh
ghreagee
ghreagish
ghreenlynn
ghreie
ghreim
ghreimmee
ghreinnaghey
ghrian
ghrianchryss
ghrianchryssagh
ghroghad
ghuatemaley
ghuillag
ghuillagyn
ghuilley
ghuinea
ghurneilys
gi
gial
gialdyn
gialdynys
giant
giard
giare
giareskeealagh
giarey
giark
giarrey
giarrit
giastyllagh
giat
giatyn
gibb
gibraaltar
gibson
gien
giennaghtyn
gienneydagh
gienneyder
gienteyder
gienteyderyn
gientit
gientyn
gientynagh
gientynyn
gifford
gigi
gilbert
gile
giles
gill
gilley
gillian
gillings
gilmore
gimmagh
gina
gineraal
ging
gingen
ginsh
gions
giootit
giootyn
giovanni
gireg
girl
girlfriend
girlfriends
girls
girraghey
girree
girrey
gish
gitar
giuseppe
give
glach
glackan
glackanyn
glackey
glam
glamorgan
glamour
glare
glas
glaschu
glasgow
glass
glassan
glasseraght
glassey
glassraghyn
glassrey
glaucine
glaucium
gleann
gleannta
gleash
gleashagh
gleashaghey
gleashaght
gleashaghtyn
gleashtan
gleashtanagh
gleashtanyn
gleeson
gleihagh
glen
glenn
glenney
glion
glionfaba
glionteenyn
glionteeyn
gloasagh
global
globalsportsarchive
globe
gloiaghyn
glonney
gloo
glooaght
glooie
glooiey
gloria
glossary
gloucestershire
glout
glover
glycogen
gmbh
gmina
gmt
gnathostomata
go
goaill
goair
goal
goalagh
goaldagh
goaldee
goalish
goan
goayr
gob
gobbragh
gobbraghey
gobbyr
god
goddard
godfather
godred
godtha
goes
goethe
gogh
going
goit
golan
gold
goldblum
golden
goldie
goldsmith
golf
golfeyr
golgi
goll
gollan
gollrish
gomez
gone
gonne
gonza
goo
gooagh
good
goodwin
google
gooid
goolag
goon
goonies
goorseyn
goose
gooyn
gooynyn
gorbachev
gordon
gordy
gorlaghyn
gorley
gorma
gorocklyn
gorree
gorrym
gorsedd
gort
gortey
gortit
gorzo
gossip
got
gothagh
gothaght
gothic
gottfried
goul
goulraght
gov
government
governor
gow
gowaltagh
gowaltys
gowit
goya
gra
grace
gracie
graf
graham
graih
graihder
graihderyn
grainne
grainney
grainnit
grammadeys
grammar
grammatical
grammeydagh
grammeydys
grammy
gran
granada
grand
grande
grant
grass
grave
graves
gravett
gray
grayn
greag
greagagh
greagee
greagish
grease
great
greater
greatest
grebe
greeb
greek
green
greene
greenlynn
greenlynnish
greenwood
greesaghey
greeseyder
greg
gregoiragh
gregory
greie
greienyn
greieyn
greim
greimmey
greiney
greinnaghey
greinney
greinneyder
grenada
grenadeenyn
grey
gri
grian
grianchryssagh
grianyn
griboyedov
griffin
griffiths
grimes
grimm
grin
grine
grineyn
grn
groningen
groo
grooaneyn
grooby
groove
group
groups
grove
grover
growing
growth
grudzia
gruffudd
grundy
gruyter
gu
guam
guangdong
guangxi
guardian
guee
guernsey
guez
guide
guilckagh
guild
guillaume
guilley
guillyn
guinea
guinness
guinney
guintee
guirr
guiry
guiy
guizhou
gull
gullad
gum
gummal
gunn
gunnaghyn
guoiee
gur
gura
gurneil
gurneilys
gus
gustav
gustave
gutenberg
guugu
guy
guð
gwen
gwened
gwengamp
gwent
gwich
gwilen
gwyn
gwynedd
gy
gyle
gyllagh
gyllenhaal
gymmydey
gymmyrkey
gymnospermyn
gymraeg
gyn
gynsagh
gynsaghey
gys
h
ha
haacke
haag
haaghey
haakon
haanrey
haart
haase
haaue
haayr
hab
hackman
had
hadid
haeckel
hagh
haghney
haghnoaylleeagh
haghnoaylleeaght
haghnoil
haghter
haghteraght
haghteraghtyn
haghteryn
haghyr
haghyrt
haghyrtagh
haglit
haglym
haglymyn
haharagh
hahn
haifa
hailium
haink
hair
haishbyney
haishbynys
haiti
hakedahl
hal
hale
halee
half
halifax
hall
hallageen
halle
halley
halloo
hallooin
hallooinit
halse
hamburg
hamilton
hamlet
hampleyr
hampleyryn
hampshire
hamraig
hamyr
hamyragh
han
hand
handbook
handel
handmaid
hanks
hanna
hannadeyr
hannaghtyn
hannah
hannee
hannon
hanover
hans
hanseatagh
hansestadt
hansyleyr
hanukkah
hanyn
hapaan
hapaanagh
haploidagh
happ
happy
har
hara
harald
harbour
harcourt
hard
harding
hardman
hardy
hari
harlech
harmaynagh
harmoan
harn
harold
harper
harral
harrelson
harriet
harrington
harris
harrish
harrison
harry
hart
harvard
harvey
has
hasht
hashtey
hass
hasselt
hassoo
hassooagh
hate
hathaway
hauail
have
haven
hawai
hawaii
hawaiian
hawaiish
hawk
hawkins
hayden
hayes
hayrn
hayrnagh
haze
hazell
hbo
he
hea
heabin
head
headin
health
heaney
heanse
hear
hearn
heart
hearts
heath
heather
heaven
heayagh
hebbal
hebbey
hebbeyder
hebei
hebrew
heche
heck
heckoslovack
hecks
hectare
hectareyn
hector
hed
hee
heean
heeanagh
heeanyn
heear
heeintagh
heelagh
heen
heenagh
heer
heeragh
heeraghyn
heerey
heeroaylleeaght
heertc
heervooar
heese
heet
hegelmann
heh
heidenoldendorf
heidi
heights
heihll
heiligenkirchen
heillagh
heilongjiang
heiltagh
heiltynagh
heiltynys
heinrich
heinz
heiyderys
heiyderyssyn
heks
heksyn
hel
helen
helena
helgeyr
heliconidae
hell
hellanyn
helleeragh
hellinsh
hello
hellooder
hellvane
hellveeish
helmut
help
helsinki
hem
hemittagh
hemmal
hemmit
hen
henan
hendeeagh
henderson
hene
hengagh
hengaghyn
hengey
hengeyderyn
hengoayllee
hengoaylleeagh
hengoaylleeaght
hengoaylleeghyn
hengoaylleeyn
henn
henna
hennaghys
hennayr
henndeeagh
henney
henri
henrik
henry
henryk
heose
hepburn
her
heragh
herald
herbal
herbert
here
herefordshire
heritage
hermagh
hermann
hero
herodotus
heroes
heron
hershey
hertfordshire
herzegovina
hesh
heshaght
heshaghtyn
heshee
heshey
heshoil
heshvean
heshveanagh
heshveanyn
hessen
hetch
hetchy
heterotrophyn
hetra
heu
heuagh
heughyn
heumooie
heusthie
heuyn
hewitt
hey
heyder
heyoo
heyr
heyrey
heysham
hi
hiaghtin
hiaghtyn
hiamble
hiambleyn
hiar
hiarn
hiarnaght
hiarnyn
hiarnys
hiass
hiassaghey
hiassid
hiassidyn
hibbeyr
hibbin
hibbraghyn
hibbyr
hibernian
hickyraghey
hickyrys
hiddesen
hiddragien
hie
hieyn
hig
higgins
higginson
high
higher
highest
highlands
hilary
hild
hildesley
hilgey
hill
hillab
hillary
hillee
hilleydagh
hills
him
himachal
himagh
himalayan
himalayas
himbabwe
hindenburg
hindi
hindish
hinds
hindu
hing
hingyl
hingys
hingyssyn
hinvaal
hionn
hionnal
hionney
hionnid
hionnit
hionnraaghyn
hiort
hiow
hiragana
hirmaghey
hirmid
hirrey
hirrym
hirveish
hirveishagh
his
hish
hissyl
histoire
historia
historic
historical
history
hit
hitler
hiu
hms
ho
hoal
hoanney
hoarym
hobbyr
hochschule
hockee
hodder
hoe
hogan
hoght
hoghtoo
hogle
hoi
hoiag
hoiaghey
hoie
hoig
hoiggal
hoiggalagh
hoijer
hoilshagh
hoilshaghey
hoilshee
hoilshey
hoku
hold
holkins
holland
hollie
holly
hollyoaks
hollys
hollywood
holmes
holomon
holon
holstein
holt
holy
home
homer
hon
honderagh
hondooraghyn
hone
hong
honn
honnick
honolulu
honor
honour
hoo
hooar
hoob
hood
hooill
hoor
hooyl
hooylaghan
hop
hope
hopen
hopper
horace
horc
horizons
horn
hornoldendorf
horror
horse
horshey
horthy
horticultural
hoshee
hoshiagh
hoshiaght
hoshiallagh
hospital
hostnagh
hosts
hostyn
hostynagh
hot
hotel
houghton
houney
hour
houree
hours
house
housewives
housing
houston
hoveidjagh
how
howard
howl
howse
howshanagh
hoylee
hr
hraa
hradishoonagh
hraghtee
hraie
hrass
hrer
hro
hroailtee
hroar
hrog
hroggal
hroggalys
hrome
hrooid
hroosyn
hropickagh
hroyn
hryal
htm
html
http
https
hu
hua
huang
huarystal
huatl
hubble
hubei
huda
hudson
hug
hugg
hugh
hughes
hugo
hui
huitt
huizhouish
hull
hullad
hulu
hum
human
humber
hume
hummid
hunan
hunchback
hung
hunnaghyn
hunt
hunter
hurd
hurkagh
hurransagh
hurrys
hurryssagh
hurt
hustler
hutchinson
huws
huxley
huylo
huyr
hwoaie
hybbyrt
hyde
hydra
hyland
hylem
hymbyllagh
hymbyllaght
hymbyllaghtyn
hymey
hymmyltaght
hymmyltaghtoil
hymsagh
hymshal
hymyllaght
hyn
hynagh
hyndaa
hyndaader
hyndaaee
hyndaaghyn
hyndaait
hyndaays
hynskyl
hynskylagh
hynskylaghey
hynskyllagh
hynskylyn
hys
i
ia
iafd
iagworking
iain
iaith
ian
iar
iarainn
iarnro
iascaigh
iata
iau
ibeir
ibn
ic
icao
icarus
ice
iceland
ich
id
idaeus
idaho
idd
iddaal
iddaalagh
iddaalish
ide
ideas
identification
identity
idhealtachd
idhlig
idol
idris
ie
iene
if
ifa
ifanc
iga
ige
igor
ii
iii
ija
il
ile
ili
iliad
iliza
ill
ille
illiam
illinois
illit
illustrated
illyria
im
image
images
imbagh
imbaghyn
imbee
imdb
imman
immanagh
immanaght
immee
immeeaght
immeeaghtagh
immeeaghtyn
immigration
impir
impiraght
impiroil
implications
imraa
imraaghyn
imraait
in
ina
inachis
inari
inbetweeners
inbhear
inbhir
inc
inception
including
incredible
incredibles
ind
independent
index
india
indian
indiana
indianapolis
indians
indo
indoneesh
indoneeshish
induced
industry
ine
influence
info
information
ingham
ingo
ingrid
ingrish
ini
inis
inishmaan
injey
injil
injillaghey
injinagh
injyn
inn
inne
inneen
inneenyn
innlynnish
innovation
innu
innys
inry
inse
inseach
insect
insee
insh
inshey
insheyder
inshley
inshyn
inside
insider
insititia
instagram
institut
institute
institution
int
integrated
intelligence
interface
international
internationale
internet
interstellar
interview
interviews
into
intoshia
introducing
introduction
introductory
inuinnaqtun
inuit
inuitagh
inuktitut
invalid
invasion
invasive
inver
invertebrate
inveryn
invisible
inymmyrkey
io
iom
iomtoday
ioosagh
iowa
ipa
iqaluit
ir
ira
ire
ireann
ireland
irene
iris
irish
irne
iron
irons
irpin
irree
irreeyn
irreyder
irrynagh
irti
irun
is
isaac
isabel
isabella
isbn
isc
ish
ishag
ishøj
isiu
isla
islam
islamagh
islamic
island
islands
isle
isleofman
isles
iso
isolated
israel
israelagh
israeli
israeliteyn
issn
issue
issues
ist
istanbul
iste
istva
isy
it
italia
italian
italy
ite
itf
itis
its
itu
itv
iu
iuaagagh
iuar
iugas
iupiter
iv
ivan
ives
ivy
izel
j
ja
jaagh
jabe
jac
jack
jackie
jackson
jacksonville
jacob
jacobs
jacques
jade
jaggad
jaggadyn
jagh
jaghin
jaghteyr
jaghteyryssyn
jake
jakob
jakobsen
jalloo
jallooder
jallooderys
jallooyn
jam
jameela
james
jamestown
jamie
jamil
jamys
jan
jane
janeiro
janet
jannoo
jannooyn
jantagh
jantee
jantys
jantyssyn
january
japan
japanese
jargaght
jargal
jarroo
jarrooagh
jarrood
jasmine
jason
jastan
java
javascript
jay
jayde
jazz
jc
je
jean
jeant
jeantagh
jebb
jecrean
jed
jedoonee
jee
jeeagh
jeeaghteyr
jeeaghyn
jeean
jeeaney
jeeaneyderyn
jeed
jeeg
jeeghyn
jeeill
jeeillaght
jeen
jeeneysoaryn
jeeoilagh
jeeragh
jeeraghey
jeerit
jees
jeesoil
jeesyn
jeet
jeeveanit
jeeyl
jeeyllagh
jeff
jefferson
jeffrey
jeh
jeheiney
jei
jeianagh
jeig
jeigeyr
jeih
jeihaght
jeihaghtyn
jeihoo
jeinagh
jelune
jemayrt
jeneeve
jengaghyn
jengey
jenna
jenner
jennifer
jennings
jenny
jeoraght
jepson
jerdein
jeremy
jerkal
jerkallys
jerome
jerraghyn
jerree
jerrey
jerrinagh
jerrold
jerry
jersee
jersey
jerusalem
jervis
jerxen
jerzy
jesarn
jesh
jeshaghey
jeshaght
jeshaghteyr
jeshaghteyrys
jeshaghtyn
jesheenagh
jesheenaghey
jesheenys
jessa
jessae
jesse
jessica
jessie
jeu
jeusyn
jewish
jfalu
ji
jia
jialgagh
jialgan
jialgyn
jiangsu
jiangxi
jiarg
jiargaghey
jiargey
jiass
jiassagh
jiastyn
jibraltey
jig
jili
jilin
jim
jimmy
jinshi
jiooldagh
jiooldey
jiooldit
jishag
jiu
jmiasto
jo
joachim
joan
joanna
joaraghyn
joaree
joarey
joarree
job
jobs
jodie
joe
joel
joey
johann
johannes
john
johnny
johnson
johnston
jon
jonathan
jonava
jones
jool
jorby
jordaan
jordan
jose
joseph
josephine
josh
joshi
joshua
jough
joughinyn
joughyn
journal
journals
journey
jovovich
joy
joyce
jpg
jpl
jr
ju
juan
judaea
jules
julia
julian
julie
juliet
julius
july
jump
june
jung
jungle
junior
juntagh
juntee
jupiter
jurassic
jurby
jure
jurnaa
jurnaaghey
jussi
just
justice
justin
juys
juyssyn
jysk
k
ka
kaart
kaartyn
kac
kaesar
kalaallit
kaley
kali
kaling
kaliningrad
kama
kamassish
kan
kana
kanadai
kanghyr
kanji
kansas
kanta
kanys
kaodan
kappa
kar
kara
karabakh
karacteyr
karacteyryn
karaez
karagher
karelia
karen
karl
karnag
karr
karracteyr
karracteyryn
karson
karst
karter
kartuzy
kashoobish
kassaghish
kastell
kat
katakana
kate
katharina
katherine
kathleen
kathryn
katie
katowice
kauniainen
kauno
kay
kaye
kayla
kayt
kazan
ke
keane
keartyn
keaton
keayin
keayn
keayney
keayrt
keayrtee
keayrtyn
keck
keddin
kee
keead
keeadyn
keeagh
keeaghyn
keeal
keeall
keeallaghey
keeallyn
keealyn
keeayll
keeayllaghey
keeil
keeill
keeilley
keeley
keeling
keeping
keesh
keeshyn
keim
keimeeaght
keimyn
keintys
keintyssagh
keintyssyn
keird
keirdagh
keirdey
keirn
keisht
keith
keiy
keke
kelkium
kellagh
kelloorey
kelloorit
kelly
kemmig
kemmigagh
kemmigyn
kemmyrk
kemmyrkee
kemper
kemperle
kempten
ken
kendall
kennain
kennedy
kenneth
kenny
kent
kentimeadar
kentimeader
kentucky
ker
kerch
kere
kereagh
keres
kerman
kermode
kern
kerne
kernewek
kernow
kernowek
kerr
kerraghey
kerree
kerrin
kerrinagh
kerrinyn
kerroo
kerruish
kerry
keskowethyans
ketcham
kevin
kew
kewley
key
keyl
keyljyn
keyll
keylley
keylljyn
keyllys
keyllyssyn
keynes
keyrrey
keys
kg
khan
khanty
kharkiv
kherson
khloe
khoisan
ki
kiaddey
kiaddeyder
kiaddeyderyn
kiaddit
kialteenyn
kianglagh
kianglaghey
kianglaghyn
kianglee
kiangley
kianglt
kiannoort
kiannoortagh
kiannoortys
kiarail
kiarailyn
kiare
kiarit
kiark
kiarkyl
kiarkylagh
kiaroo
kiarroo
kiart
kiartaghey
kiartey
kiartyn
kiartys
kiaull
kiaulldramey
kiaullee
kiaulleyder
kiaulleyderyn
kiberen
kick
kicking
kicklipaid
kids
kied
kiedoonys
kiedyn
kiel
kielce
kije
kilbane
kildare
kill
killag
killagagh
killagh
killaghyn
killagyn
killed
killer
killey
killing
kilmer
kilomeadar
kilomeader
kilomeaderyn
kilometeryn
kim
kimdir
kimmeeagh
kimmeeys
kind
king
kingdom
kings
kingston
kinjagh
kink
kinneigyn
kinvig
kiondeeaght
kione
kioneraadagh
kioneys
kionfenee
kionnaghey
kionnee
kionnit
kionyssagh
kipling
kira
kiranti
kirk
kirkey
kirp
kirpey
kirree
kirsten
kirtaghey
kiryat
kishtag
kishtaghyn
kishtey
kiss
kit
kitterland
kitts
kitty
kiyt
klaksvi
klaus
kline
kliszo
klitschko
kloar
klu
klubas
km
kneale
kneen
knesset
knight
know
knowledge
knowles
known
knox
ko
koch
kolker
koloin
kolrinn
komanda
komi
kommuna
kon
kong
korea
koreeagh
koreeish
kos
kosmos
kosovo
kraft
krahulik
krako
kraozon
krayot
kre
kreis
kristen
kristin
kro
kroymasoomyn
krym
krypton
krzyz
ks
ku
kuiper
kujawy
kunis
kupala
kurt
kurylenko
kuse
kwidzyn
kyiv
kyle
kylie
kylliu
kymenlaakso
kyndagh
kynneeagh
kynneeyn
kynney
kyo
kyrillagh
kys
københavn
l
la
laa
laagh
laaghyn
laaoil
laaragh
laare
laaree
laarvey
laatc
lab
laboratory
labour
labov
labrador
labreeyn
laccal
lacy
ladefoged
ladies
ladjyn
ladjynagh
ladoosagh
lady
lag
laga
laghyn
lago
lagopus
laibeer
laigh
laighean
laine
lainn
lajer
lake
lakes
laksaa
lam
lamb
lambaanid
lamh
lamiaceae
lana
lancashire
lancaster
lancelot
land
landna
lands
landscape
lane
lang
langlish
language
languages
langue
langues
lanka
lanna
lannoonagh
lannooney
lannoonit
lannraig
laoire
laos
laplann
lappa
lapsana
lara
large
largest
largey
larkin
larmour
larry
larsson
larus
las
last
latach
late
lateks
later
latest
latgalish
latifolia
latin
latvey
latvish
laue
laueyn
launches
launshey
launyssagh
laura
lauren
laurence
laurent
laurie
laurys
law
lawrence
laws
lawsonia
laxey
lay
layla
laynt
le
lea
leabhar
leac
lead
leads
leagh
leaght
leaghteyr
leaghtyn
leaghyn
league
leah
leahys
leahysyn
leaie
learn
learning
leathros
leaves
leayr
leayrane
leayreyder
leaystey
leblanc
lectragh
lectraght
lectraghys
lectrane
lectraneagh
lectraneyn
lectro
lectrovagnaidagh
ledden
leddoge
leddogeyr
lee
leeb
leece
leeds
leeg
leegyn
leeideil
leeideilagh
leesh
leeuwenhoek
leffyr
left
legacy
legal
legally
legend
leggad
legge
legislation
leguizamo
leicester
leicestershire
leiden
leigh
leighagh
leighder
leighoil
leighton
leighyn
leih
leion
leipzig
leitir
lemgo
lemma
lena
lenape
lengua
lenin
leningrad
lennon
leo
leoaie
leodaghey
leodee
leoie
leon
leonard
leonardo
leone
lepcha
lepidoptera
lerphoyll
leryn
les
lesh
leslie
lesoto
less
lesser
lessons
lessoon
lessoonyn
let
leti
letter
letters
lettragh
lettraghey
lettyr
lettyragh
lettyraght
lettyryn
level
levi
levitt
lewis
lexi
lexical
lexicon
lez
lezion
lff
lfr
lfur
lhag
lhaggaghey
lhaih
lhaihder
lhaihderaght
lhaihderyn
lhea
lheah
lhean
lheanaghey
lhee
lheead
lheeadagh
lheeah
lheeahid
lheeahidyn
lheeahtrim
lheelann
lheeys
lheh
lheid
lheie
lheieagh
lheihys
lheiltagh
lheiltys
lheim
lheimmeyder
lheinaghyn
lheiney
lhemeenyn
lhiabbagh
lhiabbee
lhiaght
lhiaghtyn
lhiah
lhiam
lhiann
lhiannoo
lhiantagh
lhiantyn
lhiargee
lhiasaghey
lhiasit
lhiass
lhiassaghey
lhiassaghyn
lhiassee
lhiassit
lhiat
lhiattagh
lhiattaghan
lhiattee
lhie
lhied
lhieen
lhieenar
lhieenee
lhieeney
lhieent
lhieggan
lhiegganyn
lhieggey
lhiettal
lhiettalys
lhiettalyssyn
lhiettit
lhiettrimys
lhieu
lhig
lhiggey
lhiggit
lhimmaghyn
lhimmey
lhing
lhingey
lhingyn
lhionney
lhisagh
lhiurid
lhoamey
lhon
lhong
lhongaghyn
lhongey
lhongfort
lhongyn
lhoo
lhoob
lhoobagh
lhoobeenyn
lhoobey
lhuingey
lhuingys
lhuingyssagh
lhuingysseyr
lhune
lhuneyn
li
lia
liag
liaghey
liam
liaoning
liare
liargee
liath
liauyr
liauyrey
libertad
libraalagh
library
lie
liechtenstein
lieen
lieenvluckan
lieh
liehlagh
lieutenant
life
liger
light
lighthouse
like
liklee
lille
lillian
lily
limbu
limerick
limited
limmer
limmeragh
limon
lin
lincoln
lincolnshire
linda
lindsay
lindsey
line
lines
lingua
linguistic
linguistics
linguistique
link
linn
linnaeus
linnagh
linnaghyn
linne
linnean
linneeaghtyn
linney
linneyder
linnie
linsey
lioar
lioaragh
lioarlan
lioarlann
lioarlannee
lioaryn
lion
lionel
liooar
lioree
liorish
lioroo
lios
lipa
lipaid
lipaidagh
lipaidyn
lippe
lis
lisa
list
litaan
litaanagh
litaanish
litc
literacy
literary
literature
lito
littagh
little
littyr
liturgagh
liu
liurey
liurid
liv
livaan
live
liverpool
lives
living
livingstone
livonia
livonish
livreit
livrey
livreys
liz
lizzie
lizzy
ll
lld
lle
ller
llew
lloyd
llyfr
llyfrau
llywelyn
ln
lo
loaded
loaghtagh
loaghtey
loayr
loayreyder
loayreyderyn
loayrit
loayrt
loayrtagh
loayrtee
loayrtys
local
loch
locha
locke
locust
lodainn
logh
loghey
loghlin
loghlinagh
loghlinish
loghlynagh
loghlynee
loghlynish
loghlynnagh
loghlynnish
loghyn
loire
lokalnych
lokmaria
lola
lolo
lomarcan
lombardish
lomonosov
lonan
londeyryn
london
lonely
long
longman
loo
loojey
look
looking
loose
looyran
lopez
lord
lore
lorg
lorient
lorraine
los
loshtaght
losing
lossagyn
losseragh
losserey
lossey
lossreeyn
lost
lostanyn
lostey
lostit
lou
loudieg
lough
louis
louisagh
louise
louisiana
lovato
love
lovecraft
lovelace
loves
low
lowal
lowe
lowell
lower
lowit
loßbruch
lsoy
lt
ltd
lting
lts
ltu
lu
lua
luain
luanistyn
lublin
lubusz
lucas
lucia
lucsemburg
lucsemburgish
lucy
ludnos
ludwig
lugh
lught
lughtee
lughtyn
luhansk
luigi
luis
luke
lumbagh
luna
lunganeagh
lunnin
lurg
lurgaghyn
lurgnaneyn
lus
lusaka
luske
luss
lussagh
lussyn
lust
luther
lutheragh
lux
luxembourg
lviv
lyall
lycaena
lyga
lyle
lynch
lynn
lyon
lyst
m
ma
maarliagh
maayl
mabo
mac
macau
macdonagh
macdonald
machine
mack
mackenzie
macmannys
macmanus
macmillan
macpharlain
macquarie
macro
maculatum
mad
madagascar
madame
maddaght
maddaghteyr
maddaghtoil
maddie
maddieson
maddrell
made
madison
madrid
mae
mael
magazine
magdalena
maggie
maggiore
magh
maghal
magher
magheryn
maghey
maghouin
magic
magnaidagh
magnaishum
magnus
magyar
mahjong
mai
maidjaghyn
maidjey
maigh
mail
main
maine
maines
mainistir
mainshtyr
mair
mairyn
maitland
majalis
majandra
majesty
major
make
makemake
makes
making
mal
malagasish
malawi
malbork
malcolm
maldeevaghyn
male
malee
malew
malo
malone
malou
malpys
malta
maltese
maltish
malu
malveenaghyn
man
manach
management
managh
manannan
manche
manchester
manchuin
mandarin
mandela
mandy
manfred
manga
mango
mangrove
manhattan
manhua
manitoba
manks
mann
mannagh
mannakeen
manniae
mannin
manninagh
manninee
mannishter
mannishteryn
mansi
mantan
manual
manuel
manuscript
manx
manxnotebook
many
maoile
map
mar
marat
marc
march
marco
marcus
maree
marenmyn
marennym
margaghyn
margaret
margee
margey
mari
maria
marian
marie
mariehamn
marilyn
marina
marine
marino
marinus
mario
marion
marish
maritima
maritimum
mariupol
marjorie
mark
market
markiagh
markiaght
marks
markyn
marlene
marley
marlon
maroc
maroney
maroo
marooney
marown
marrey
marriage
marroo
marrooagh
marrooit
mars
marsh
marshall
marshyl
marstrander
mart
martha
marti
martin
martinez
martyn
marvel
marvin
marx
mary
maryland
mas
mass
massachusetts
massadoan
massey
mast
master
masters
mastey
masthag
match
materials
matha
mathbf
mathrm
matisse
matt
matters
matthew
matthews
matthias
maud
maude
maughold
maui
maurice
mawr
max
maxim
maxwell
may
maya
mayagh
mayen
maylartagh
maylartey
maynaghyn
mayor
mayrey
mayrn
mayrnee
mayrnt
mazowsze
mazury
mb
mbule
mccarthy
mccartney
mccloud
mcconaughey
mccone
mcdonald
mcfadden
mcgowan
mcgrath
mcgraw
mcguire
mcilroy
mckayla
mckenzie
mckinley
mclinden
mcqueen
me
mea
meadar
meader
meaderyn
meain
meainagh
meaineraght
meainyn
mean
meanagh
meaney
meanvooiragh
meanyn
meat
meath
meayll
mec
mechanics
mechanisms
mecklenburg
med
medal
medall
media
medical
medicinal
medicine
medieval
medshin
mee
meeghyn
meeilaghyn
meeiley
meeillaghyn
meeilley
meein
meenaghey
meenieunagh
meenit
meer
meeryn
meet
meetane
meeting
meevlasstal
meg
megan
mehoz
meic
meidil
meiji
meill
meillyn
meiosis
meksicagh
meksico
mel
melanie
melbourne
melilla
melissa
mellyn
melo
member
members
memoir
memorial
memphis
men
mendeleev
menez
menkey
menkid
mennick
menorah
meoir
meoiraght
meoiraghtyn
meoiryn
mer
merchant
mercur
mercury
merlin
mermaid
merriu
merseyside
merthyr
mesnil
mesophyll
mess
messi
messyn
mestey
mestit
met
meta
metazoa
meteryn
methodist
metro
metropolitan
mexicana
mexico
meyer
mez
mg
mh
mha
mhea
mhic
mho
mhorna
mhuilinn
mhuine
mhuinneelagh
mhuire
mhz
mi
mia
miami
mian
michael
michel
michele
michelle
michigan
mick
mickey
microbiol
microbiology
microsoft
mid
middle
middletown
midi
mie
mifflin
migration
miguel
mike
mikhail
mila
milan
milazzo
mile
miles
military
miljyn
mill
milla
millaghyn
miller
milley
milligan
million
millioon
millioonyn
millish
mills
milton
mimicry
min
mind
minds
mindy
ming
minh
minish
minister
minnag
minnesota
minnid
minnidyn
minor
minority
minsk
minutes
mioagyn
miok
miracle
miriam
mirror
mirza
miscellaneous
mish
mishoon
miss
mission
mississippi
missouri
mit
mitchell
mitochondria
mitochondrial
mitosis
mixed
mm
mnr
mo
moal
moan
moaney
mock
mod
moddee
moddey
mode
model
models
modern
modi
modyn
mofos
moggyl
moggylyn
moghrey
moidyn
moir
moiraghyn
moirrey
moirvaljagh
mojo
mol
mold
moldova
molecular
molley
molleydagh
molly
moment
moms
mon
mona
monaco
monark
monetary
money
mongoilagh
monica
monitor
monk
monkey
monkeys
monnee
monney
monographs
monotropa
monroe
mons
monsters
montacute
montana
monte
montenegro
montgomery
month
monthly
montre
monumenta
monuments
moo
mooad
mooadagh
mooadaghey
mooadit
mooadyn
mooadys
mooadyssyn
mooan
mooar
mooarane
mooarey
mooarheer
mooarheeragh
mooee
mooghey
mooie
mooin
mooinjer
mooinjeragh
mooinjerey
mooinjerys
mooinjeryssyn
mooir
mooiragh
mooirlagh
moojey
moon
moone
moore
mor
moralagh
more
moreau
moreno
morgan
morgannwg
moriarty
morning
morphology
morris
morrison
mortensen
morton
morus
moscow
mosebeck
moses
moslymagh
moslymee
moss
most
mother
mount
mountain
mountains
mouse
mouton
move
movement
movie
movies
moving
mow
moyllagh
moyllee
moylley
mozo
mp
mr
mraane
mrs
mtv
mu
muc
much
mucyn
muhammad
muigh
muileann
muill
muinaghan
muine
muinneelyn
muir
muircheartaigh
muirne
mujer
mullach
mullagh
mullee
multilingual
multiple
mumba
mumbai
mun
mundo
munro
murachver
murchad
murchada
murcia
murder
murdoch
murphy
murray
mus
musa
muscle
muse
museo
museum
music
musical
musk
musker
muskylagh
muskylyn
mussolini
must
mustelidae
muun
muzychuk
mw
mwaagh
mwane
mwannal
mwyljyn
mwyllin
my
myanmar
mychione
mycorrhisagh
mygeayrt
mykines
myn
mynayrnyn
mync
mynchooishagh
mynlagh
mynlee
mynoashyryn
mynolt
mynoltyn
mynphiobanyn
mynreayrtagh
mynreayrtan
mynreayrtanyn
mynscrutaghey
myntan
mynvioee
mynvreetc
myo
myr
myrane
myrgeddin
mysh
myspace
myths
n
na
naa
naaroo
naboonys
naboonyssyn
nabooys
nach
nadia
nadine
naeear
naeearane
naeearaneagh
nafarroa
nagh
naghtyr
nagorno
nah
nahua
nahuatl
naigeer
naigh
naight
naighteyr
naim
naiste
najoor
najooragh
najooree
nak
naked
nalbin
nam
nama
name
named
nameeb
names
naming
nan
nancy
nane
nanpa
naoned
napin
napole
napoleon
napoleonagh
napoli
nappinagh
nar
nas
nasa
nasair
nash
nashville
nastaghyn
nat
natalia
natalie
natasha
nathan
nation
national
nations
native
natl
nato
natseeagh
natseeyn
natseeys
natur
natural
nature
naughty
naunt
navaho
navajo
navarre
navya
nay
nbc
ncbi
nchen
ncipe
nd
nder
ndorfi
ne
near
nearag
nearagyn
neaynin
neayr
neb
nebraska
ned
nee
neeal
neear
need
neegeyr
neel
neelane
neen
neesht
neetragien
nef
negev
nehwal
neil
neill
nel
nellie
nelson
nemark
nemertea
nen
nenetsish
neoin
neose
nepaal
nepaalish
nepal
neptioon
neptune
neptuneagh
nerin
nermann
nero
net
netball
netflix
netherlands
network
networks
neu
neuappee
neuchadjin
neuchadjinys
neuchaghlaaee
neuchaslid
neucheintyssagh
neuchinjagh
neuchommeeagh
neuchosoylagh
neuchramp
neuchroghagh
neuchrogheydagh
neuchrogheydys
neuchronnaneagh
neuchummaltit
neuennalit
neufarskeeallaght
neuformoil
neughollrish
neughooghyssagh
neughooghyssaght
neugliederungsprogramms
neuhallooinagh
neuhickyr
neulivreit
neuloaghtagh
neunhee
neuorgaanagh
neurea
neureiltagh
neurotoxicity
neuvaghtal
neuvoirvaljagh
neuvondeish
neuvondeishagh
neuvonnagh
neuyeeragh
neva
nevada
neve
never
nevis
new
newark
newcastle
newest
newman
newmarket
newport
news
newspapers
newton
newtown
next
nez
ng
ngaedhael
ngall
ngallo
ngc
ngeddyn
ngoaill
ngoll
nguyen
nh
nhagen
nhee
nheeghyn
ni
nia
niaghtee
niall
niamh
niar
niart
niartaghey
niartal
niartallaght
niartit
niau
niauagh
nice
nicholas
nichols
nick
nickelodeon
nickeraag
nicki
nicola
nicolas
nicole
nie
niedersachsen
niederscho
niemeyer
nienhagen
niessey
nieu
nieughyn
nieunagh
nieunaght
niewald
nigel
night
nightingale
nights
niglus
nigra
nikita
nikki
nikolai
nina
nine
nineteenth
ningxia
ninian
ninon
niqa
nis
nish
nitrageen
niue
nivish
nix
nixon
nj
nk
nl
nm
no
noa
noad
noadyn
noadyr
noah
noal
noalittagh
noam
noaskeeal
noaskeealagh
noaskeealaght
noaskeealyn
nobel
noble
nod
noddagh
noe
noel
noi
noid
noidyn
nolan
nollaig
nollick
nomenclature
nominations
nominees
non
nonney
noo
nooghyn
nooieyn
noonan
nord
nordagh
nordrhein
norfolk
norlynn
norlynnagh
norlynnee
norlynnish
normal
norman
normanagh
normanee
normanish
nornish
north
northampton
northamptonshire
northern
northumberland
northwest
norton
norway
norwegian
norwich
nos
not
note
notebook
notes
notey
noteyn
notre
nottingham
nottinghamshire
noun
nouveau
nouvelle
nova
novel
november
novo
now
nowy
ns
nta
nu
nua
nueva
number
numbers
nunavut
nuts
nuuk
nuy
nuyoo
ny
nyannoo
nymphalidae
nyn
nynorsk
nyu
nzi
o
oai
oaie
oaldey
oallee
oanluckee
oanluckey
oanluckit
oar
oaraishey
oardagh
oardaghey
oardaghyn
oardee
oardit
oardragh
oardraghey
oardraghit
oardrail
oardree
oardreilagh
oardyr
oarey
oarlagh
oarn
oarpagh
oarpey
oarpish
oaseir
oash
oashyraght
oashyryn
oast
oastagh
oastanyn
oaye
oayldyn
oayll
oaylleaght
oayllee
oaylleeagh
oaylleeaght
oaylleeaghtyn
oaylleeyn
oayllyn
oayllys
oayn
obama
obbal
obballagh
obbee
obbragh
obbraghey
obbraghyn
obbraid
obbraidyn
obbree
obbreeyn
obbrinagh
obbrinaght
obbrinys
obbyr
obbyraghyn
obbyryn
obe
oberscho
obhainn
obituary
object
objects
oblast
observations
observatory
observer
obtusifolius
oc
ocean
ochta
ocklagh
ocklaght
ockle
ockley
ocklyn
oclc
ocs
ocseed
ocsitaanish
ocsygien
ocsyn
october
od
oddagh
oded
oder
odesa
odjey
odra
oe
oedipus
oesophagus
oettern
of
off
office
official
officinalis
officio
offishear
offishyn
offiziellen
ofis
og
ogham
ogheragh
oghtread
ogledd
ogwr
oh
ohio
oi
oie
oifig
oik
oikagh
oikee
oikoil
oikyn
oil
oilea
oireachtas
oirr
oirragh
oirryn
ois
ok
okf
okkum
oklahoma
ol
ola
olaf
old
oleracea
olga
olive
oliver
olivia
olivier
olk
ollan
ollanagh
ollanish
ollay
ollee
olley
ollish
olloo
ollooaght
ollooscoil
ollooscoill
ollooscoillagh
ollooscoillyn
ollymin
olmos
olsztyn
olt
oltagh
oltey
olteyn
olteynyn
olteynys
olteyr
olteyryn
oltscarree
oltscarrey
oltyn
olympagh
olympic
om
omaan
omar
omer
omh
omniglot
on
ona
once
onchan
one
online
only
onnane
onnee
onnor
onnoragh
onnoroil
onnoryn
ono
ontario
oo
ooashlaghey
ooashley
ooasle
oochrooagh
ooganda
oogragh
ooh
ooha
oohchrooagh
oohrey
oohyn
ooig
ooigyn
ooill
ooilley
ooillyn
ooir
ooist
ooive
ookraan
ookraanagh
ookraanee
ookraanish
oolaghyn
ooley
oolit
oonlee
oor
ooraguay
ooral
ooralagh
oort
ooryn
oosbeckistaan
ooyl
op
open
opera
opgenort
opole
or
ora
oraid
oral
orange
oranje
orbke
orcus
order
orders
ordnaidyn
ordnance
ordrail
ordrailagh
oregon
org
orgaanagh
organe
organeyn
organisation
organisms
organization
ori
oriant
oriental
origin
original
origins
orion
orkaid
orlando
ornaidagh
orroo
orroosyn
ort
orthonectida
os
osamu
oscar
oscars
osley
oslo
osmunda
oss
ossetia
ossetish
ostaig
ostwestfalen
oswald
other
others
otranto
ottawa
otto
ou
ouest
our
ourys
out
outline
outstanding
ouyr
ouyragh
over
overview
owen
owl
own
oxford
oyr
oyryn
oyunu
p
pa
paa
paab
paabagh
paag
paagey
paarantyn
paart
paartagh
paarteeas
paartyn
paarys
paayl
pablo
pabyr
pabyryn
pacific
pacino
pack
paddy
padjer
padjeryn
paei
paganagh
page
pages
paggad
pai
paige
pairk
pairkyn
paitc
pakistan
palasteen
palasteenagh
palau
palermo
palgrave
pallas
palm
palmer
palustris
pamela
pan
pandemagh
panettiere
paneve
panther
paolo
paper
papers
papooey
par
paradise
parail
parameters
paramount
pargeter
pargys
paris
parish
parishcaptains
parishes
park
parker
parks
parlamaid
parlamaidagh
parler
parliament
parliamentary
parody
part
partan
partanyn
partee
parteeas
parteeghyn
parteeyn
partement
particular
partido
partners
partnership
partridge
party
pas
pasheydys
passeriformes
past
pasteur
pat
patricia
patrick
patsy
patterns
paul
paula
pauline
pavogur
pays
paz
pbk
pbs
pdf
pe
peace
peak
peaky
pearl
pearse
pearson
peddyr
peear
peel
peesh
peeshyn
pegg
peiagh
peile
peintal
peinteyr
peintit
pejic
pelas
pen
pendula
penelope
penguin
penn
pennsylvania
penny
penshyn
penthouse
pentreath
people
peoples
per
percentage
percival
percy
perfect
perick
period
perlman
perroz
perry
perseus
pershagh
pershish
person
personal
persons
persoon
persoonagh
persoonid
persoonidyn
persoonyn
perspective
perspectives
perth
peru
pestivien
pet
petah
pete
peter
peterborough
peters
petersburg
peterson
petyllyn
petylyn
peyton
pg
pga
ph
pha
phaab
phaarantyn
phaart
phaartyn
phaayl
phabyr
phadjer
phaganagh
phairk
phaitc
phakistaan
phalasteen
phalau
phalearctagh
phalm
phanamaa
pharaguay
pharaoh
pharlamaid
pharlamaidagh
pharmacology
phartan
phartee
pharteeagh
pharteeaght
phatagoan
pheairt
pheddyr
pheesh
pheiagh
pheintal
pheinteyr
phenn
phenomena
phenomenon
pherick
pheroo
phersoon
phersoonagh
phersoonid
phh
phicardish
phil
philadelphia
philip
philipp
philippe
philippeenagh
philips
phillippeenagh
phillips
philosophical
philosophy
phishyr
phiyr
phlaase
phlaeas
phlan
phlanaid
phlannad
phlannadyn
phlasmey
phloem
pho
phobail
phobblaght
phobble
phobbyl
phobbylagh
phobos
phoebe
phoenix
phointeil
pholasee
pholitickagh
pholitickaght
pholitickeyr
pholynn
pholynnish
phone
phonetic
phonetics
phonological
phonology
phooar
phoos
phoose
phoosey
phop
phornograafaght
phortiugal
phortiugish
phossan
phossanyn
phost
photo
photos
phoullagh
phoynt
php
phraase
phraddag
phrase
phrases
phreeu
phreevaadjagh
phresbyteyragh
phrinsaght
phrinse
phris
phroosh
phrooshish
phroteen
phrotestoonagh
phroto
phrow
phryssoon
phu
phunt
phurt
phyla
phylloscopus
phylogenetic
phylogeny
phylum
physical
physics
physiology
pi
pian
pianney
pianneyder
pibbinyn
picard
picardie
picardish
picasso
pictee
pictish
pictures
piemonte
pierce
pieris
pierre
pig
pili
pin
pinchot
pinder
pine
pines
ping
pink
pinus
pinyin
pio
piper
pipit
pirkanmaa
pishyryn
pitt
pivitsheide
pixar
piyr
piyral
piyryn
pl
plaaney
plaase
place
places
plains
plaityn
plan
planaid
planaidagh
planaidyn
planartys
plandail
planet
planetary
planets
plannal
plannit
plant
planta
plantae
plantago
plants
planxty
plasmey
plastagh
plastaid
plastaidyn
platyhelminthes
platyrrhini
play
playboy
players
playground
plays
ple
please
plk
plos
plotnikova
plouge
plover
plugaru
plumbissyn
plunkett
plus
pluto
plymouth
pm
pmc
pmi
pmid
pnas
pns
po
poagaghyn
poagey
pobblaght
pobblaghtagh
pobblaghtyn
pobble
pobbyl
pobbylagh
podkarpacie
podlasie
poe
poem
poems
poet
poetry
poets
pohjanmaa
pohlldey
point
pointeil
pointit
poison
poisons
poitevin
poitier
poitou
pol
poland
polasee
polaseeyn
poleenyn
police
policy
political
politickagh
politickaght
politickeyr
politickeyryn
politickoil
politics
poll
pollnaghey
polo
poltava
polychaeta
polynn
polynnagh
polynnish
pomorze
pompee
pont
pontreilagh
pooar
pooaraghyn
pooaryn
pooh
poosey
poosit
poost
pop
pope
popular
population
porkeri
porn
porno
pornograafagh
pornograafaght
port
porter
portiugagh
portiugal
portiugish
portland
portman
portmeirion
portrait
porzh
position
possan
possanagh
possanyn
possible
post
postagh
postal
postyn
pot
potato
potential
potter
poullagh
pound
pour
powell
power
powerful
powers
powiat
powiecie
powys
poyll
poynt
poyntyn
poznan
pp
pr
praag
praase
praaseyn
practical
practice
practices
praddag
praddagyn
pradesh
prayer
pre
predator
preeu
preevaadjagh
prejudice
preliminary
premier
premiere
prentice
prentit
present
presentation
president
presidential
presley
press
preston
pretereitagh
pretty
pri
price
pride
priestley
prima
primary
primates
prime
primer
primetime
prince
princess
princeton
principal
principles
prinsabylyn
prinsaght
prinse
prioraghtyn
pris
prisoner
pritchard
private
prix
prize
pro
probability
problems
proc
proceedings
production
productions
professor
profile
profiles
program
programme
progress
project
prokaryota
prokaryotagh
prokaryoteyn
proosh
properties
proposal
prose
prospects
protabase
protaneyn
protection
proteen
proteenagh
proteenyn
protestoonagh
protista
protistyn
proto
protosoa
providence
province
prowal
prowallagh
prowaltys
prowaltyssyn
prowit
pru
prunus
pryssoon
pryssoonagh
pseudacorus
psr
pss
psychology
pt
ptolemy
pu
pub
publ
public
publication
publications
publique
published
publishers
publishing
puck
puerto
puffinus
puirt
pulcher
pulp
pulsar
punt
purdue
pure
purple
purpose
purt
pushkin
pussy
putin
puławy
pye
pyotr
pyramid
pyramidyn
pyreanagh
pyrrolizidine
płock
q
qin
qinghai
qiryat
qu
quaagh
quaaltys
quaaltyssyn
quaid
quail
quaiyl
quaiyllyn
quaiylyn
quality
qualleeaghtyn
quallid
quantum
quarterly
quayle
que
quebec
quechua
queen
queens
queensland
queeyl
queig
queiggagh
queiggaghyn
queiggey
queiggoo
queigoo
quentin
question
questions
quincy
quing
quinlivan
quinn
quinsh
quirk
quoi
quoid
qırım
r
ra
raa
raad
raadeeoil
raadyn
raaghyn
raahoil
raaidey
raaidyn
raait
raaue
raauee
rabbit
race
rachel
radcliffe
radio
radom
radwan
rae
raf
rafael
raghidey
raghlid
rah
rahilly
rahoil
rai
raidio
rail
raillaghyn
railley
railway
railways
rain
rainbow
rainer
raink
rainn
rains
raip
raisoam
raisoamyn
raleigh
ralph
ram
ramat
ramhar
ramla
ramona
ramsay
ramsey
randolph
random
rane
rang
rangagh
range
rangers
rangish
rangyn
rank
rann
rannag
rannagyn
rapa
rapids
rapunzel
rass
rassagh
rassan
rassinyn
rassyn
rat
ratajkowski
ratc
rath
ration
raue
raueagh
rauee
raunyn
raven
ravin
ray
raymond
rc
rcah
rctl
rd
re
rea
read
reader
readers
reading
reagan
reaghee
reaghey
reagheyder
reagheyderyn
reagheydys
reagheydyssyn
reaghit
reaghys
real
reality
really
ream
reamyn
reamys
reamyssagh
reamyssyn
reason
reat
reayll
reayn
reayrt
reayrtagh
reayrtyn
reayrtys
reayrtyssyn
rebecca
rebel
reboot
recent
record
recordings
records
recortys
recortyssey
recortyssit
recortyssyn
recovery
red
reddyn
redon
redyn
ree
reeagh
reeaghyn
reece
reed
reejerey
reeoil
reeraghtys
reeriaght
reeriaghtyn
rees
reeshlann
reeshlannish
reesht
reeve
ref
reference
refrane
regalis
reggyrt
reggyrtagh
regierungsbezirk
reginald
region
regional
regions
register
regulation
reich
reih
reihdagh
reihdee
reiht
reihys
reihyssagh
reihyssyn
reihysyn
reill
reilley
reilleyder
reilly
reillyn
reiltagh
reiltys
reiltysagh
reiltyssagh
reiltyssyn
rein
reinders
reir
reiragh
reiree
reirey
reireyder
reireyderyn
reirit
reise
reitherman
related
relations
relationships
releases
relief
religion
remlad
remladyn
remmighausen
remy
ren
renaigagh
renaigyn
renaissance
rene
rennes
renniagh
renniee
rents
repens
report
reporter
reports
represent
representation
reprint
republic
republik
republika
rere
res
rescue
rescuers
research
resh
resident
resolution
resolved
resoon
resoonagh
resoonaght
resoonaghtyn
resooney
resource
resources
respect
respublika
result
results
retrieved
return
reuters
rev
reveals
review
reviews
revised
revival
revolution
rex
rey
reykjavi
reynolds
rezensionen
rg
rgen
rhaa
rhamnoside
rhamnus
rhea
rheam
rheamys
rheamyssagh
rheamyssaght
rhenk
rhenkit
rhenkyn
rhennee
rheynn
rheynnag
rheynnagh
rheynnagyn
rheynnit
rheynnyn
rhine
rhiney
rho
rhoades
rhode
rhodes
rhopalura
rhs
rhumsaa
rhys
ri
ria
ribbey
ribbosoomyn
ribes
ric
rica
ricaid
rice
rich
richard
richardson
richie
richmond
richter
rick
rickad
rickman
rico
rider
ridjimiraril
ridley
rieau
rieughagh
rieughid
right
rights
riley
rimmeig
rimmeigyn
ring
ringen
ringo
rings
rinkyn
rinn
rio
rioee
riojag
riojey
riojit
rios
rise
rises
rish
rishi
rishon
risi
rising
rita
ritchie
riteriai
riu
river
riverdance
rjc
rko
rn
rnaig
rnberg
ro
road
roads
roauyr
roazhon
rob
robbie
robert
roberta
roberts
robertson
robin
robinson
robot
roc
rocco
rocha
rochdale
roche
rock
rocky
roddan
roddanyn
roderick
rodri
rodrigo
rodriguez
roger
rogers
roibi
roie
roievollagh
rois
roish
roland
role
rolf
roll
rollage
rollageagh
rollageyder
rollageyderyn
rollageydys
rollageyn
rollageys
rollageyssyn
rollaghyn
rolley
rollian
rolling
roltag
roltageagh
roltagee
roltagyn
rolteen
roma
romaain
romaan
romaanagh
romaanish
romagnolish
romain
roman
romanagh
romanaghey
romance
romanee
romano
romansagh
romanseeaght
romansh
romero
romi
ron
ronald
ronaldo
ronan
ronnaghyn
ronney
ronsaghey
ronsaght
ronsee
ronseyder
ronseyderyn
roo
rooandey
rooisht
rooishteyder
rooishteyderyn
room
rooney
roonysvaie
rooragh
roortagh
roortaghys
roortys
roosevelt
roosh
rooshagh
rooshee
rooshish
roost
roostey
roosteyryn
roosteyrys
root
rory
ros
rosa
rosaceae
rosae
rosanna
rose
roseag
rosetta
rosh
roshtyn
roshtynagh
rosie
rosien
rosin
rosinagh
ross
rostov
rotational
roth
rotten
rouailtagh
roubaix
rough
round
routledge
rouyr
rovers
row
rowan
roy
royal
rpa
rs
rsczi
rshavn
rspb
rsssf
rt
rte
rterbuch
rttemberg
ru
rua
rubbyr
rubus
rudolf
rudyard
ruegey
ruegys
ruegyssagh
ruegyssyn
ruffalo
rug
rugby
ruggey
ruggit
ruggyr
ruggyree
ruggyryn
ruillick
rule
rules
rumex
run
runavi
runner
runtit
rupestris
rural
rushen
rushforth
russ
russel
russell
russia
russian
ruth
rutherford
rutland
ruy
ry
ryan
ryder
rydw
rzeszo
rður
s
sa
saa
saagh
saamee
saamish
saarland
saase
saaseyn
sachsen
sacramento
safin
sage
saggyrt
saggyrtyn
sahara
sahllagh
said
sailing
sailjey
sailjys
sailley
saina
saint
saintongeais
saki
saldan
salem
salicifolius
salisbury
salix
sallagh
sally
salome
salpa
salt
saludos
salvador
salzburg
sam
samain
samantha
samara
sambucus
sambyl
sambylyn
same
samhain
samhnai
sami
samoa
samoidagh
sampleyr
sampleyragh
sampleyryn
sampson
samuel
san
sanders
sandomierz
sandoy
sandpiper
sandra
sands
sandy
sannish
sans
sanskrit
sant
santa
santiago
sapir
sapp
sar
sara
saraghyn
sarah
sarajevo
sarcopterygii
sardegna
sarey
sarkil
sarkyl
sarkylyn
sarn
saskatchewan
sassey
satakunta
satellite
satellites
sativa
sativum
saturday
saturn
sauail
sauc
saudi
saue
sauin
saunders
saussure
sava
savage
save
saved
savo
saw
say
says
sc
scaa
scaadooagh
scaailan
scaaillagh
scaalhean
scaalheanee
scaalheaney
scaalheaneyder
scaalheanit
scaanyn
scale
scannane
scannaneagh
scannaneaght
scannaneyn
scansh
scanshoil
scanshyn
scapail
scape
scarlatti
scarr
scarree
scarrey
scarreydagh
scarreydee
scarrit
sce
scell
scellyn
scene
schafer
schedule
scheim
scheimyn
schlei
schleioil
schleiyn
schleswig
schmetterlinge
schneider
scho
schodt
schoillar
schoillaryn
scholars
school
schools
schu
schuster
schwarze
schwarzschild
schwimmer
sci
science
sciences
scientific
scientist
scientists
scoagh
scoaghagh
scoaral
scoarnagh
scoil
scoill
scoillar
scoillaragh
scoillaryn
scoillyn
scollag
scollagyn
scoltan
scoltey
score
scotch
scotia
scotland
scots
scott
scottish
scout
scowan
scowanagh
scowanyn
scraayl
scream
screebagh
screebee
screen
screeu
screeuaght
screeuder
screeuderyn
screeudeyr
screeudeyryn
screeudeyrys
screeuee
screeuit
screeunyn
screeut
screeuyn
scri
script
scrolley
scrope
scrudeyr
scruit
scrutaghey
scrutaght
scrutaghtyn
scryssey
scryssit
scrysst
scugh
scughey
scughit
scuirr
scullion
se
sea
seachlainn
seal
seamus
sean
seanad
seanaidh
seanchaislea
search
season
seattle
sebastian
sechlainn
sechnaill
seclin
second
secondary
secret
section
sector
sedna
see
seelynnagh
seepalyn
segawa
segetum
seidelmann
seihill
seihll
seihlltagh
seiy
sejmik
selected
selena
sem
semantagh
semantaght
semetagh
sen
senate
senhouse
senna
sensations
sense
seoige
seose
seoul
september
sequel
ser
serb
serbagh
serbish
sergei
series
serious
service
services
set
seth
sets
settlement
seven
several
sex
sexual
sexuality
sexually
sexy
seyr
seyraanaght
seyraanee
seyranee
seyrey
seyrit
seyrlann
seyrlannyn
seyrnagh
seyrsnys
sf
sg
sgarbi
sgeir
sgri
sha
shaanrey
shaanxi
shad
shadow
shaghey
shaghney
shaghnit
shaghrynys
shake
shakespeare
shalee
shaleeyn
shallidagh
shamrag
shamraig
shamyr
shamyryn
shandong
shane
shanghai
shannad
shannadeyr
shannon
shansyleyr
shanxi
shapaan
shapaanagh
shapaanish
shape
shapiro
shapp
shappal
shappyn
share
sharon
sharroo
shassoo
shassooagh
shatner
shaw
shawk
shayll
shayllyn
she
shea
sheadin
sheadinyn
sheansagh
sheanse
sheanseyr
shearwater
sheckagh
sheckish
shee
sheealtagh
sheean
sheeanagh
sheeanaghtys
sheeanchoryssagh
sheeanchoryssaghtys
sheeanyn
sheear
sheeidey
sheeintagh
sheeintee
sheeinteyder
sheel
sheelaght
sheeley
sheelnaue
sheeloghe
sheelogheyn
sheelraghey
sheelree
sheeltagh
sheen
sheenagh
sheenish
sheep
sheer
sheese
sheet
sheeyney
sheeynit
sheeynt
sheffield
shegin
sheh
sheidey
sheiltyn
sheiltynagh
sheiltynys
sheiltynyssyn
sheinys
sheinyssagh
shelg
shelgeyr
shellagh
shellanyn
shellee
shelley
shelloo
shellooagh
shellooder
shellooderyn
shellooderys
shen
shendeeagh
shenn
shennaghys
shennaghyssagh
shennaghyssyn
shennayr
shennayraghyn
shennayryn
shenndaalee
shenndaaleeagh
shenndaaleeaght
shenndeeagh
sheose
sheridan
sherman
sheshaght
sheshaghtyn
sheshee
sheshengoaylleeagh
sheshengoaylleeaght
sheshey
sheshoaylleeaght
sheshoil
shetlynn
shey
sheyoo
shi
shiaght
shiaghteeyn
shiaghtin
shiaghtinoil
shiaghtinyn
shiaghtoo
shiaghtyn
shiar
shiartanse
shiartase
shiaulley
shiaullit
shiaulteyr
shicklaagagh
shicklaage
shicklaahengoaylleeaght
shickyr
shickyraghey
shickyrit
shickyrys
shid
shillab
shillabyn
shillee
shilley
shilleydagh
shimmey
shimmin
shin
shinney
shinsear
shinsharagh
shinyn
shirley
shirragh
shirrey
shirreydys
shirreydyssyn
shirveish
shirveishagh
shirveishee
shirveishey
shirveishyn
shiu
shiva
shivoil
shla
shlee
shleiy
shlesinger
shliggagh
shligganyn
shliggee
shmuel
sho
shocklaid
shoh
shooyl
shooylaghan
shore
shores
shorshish
short
shorts
shorty
shorys
shot
should
show
shows
showtime
shrew
shrewsbury
shropshire
shtein
shughlaig
shugyr
shuyr
shuyraghyn
shymlee
shymmey
shynnagh
shynnee
si
sia
siar
sichuan
side
sidney
sidoor
sidooryn
sie
sienna
sierra
sifrou
sigmund
sigmundur
significance
sil
sileesh
sileeshish
silence
silene
silver
simba
simon
simone
simple
simply
simpson
simpsons
sin
sinai
sinaitagh
sinapis
since
sine
singapore
singer
singh
singil
single
singyl
singylyn
sinise
sinn
sino
sionna
siorrachd
sir
sister
sitcom
site
six
size
sk
ska
skanderbeg
skeayley
skeayll
skeayllee
skeaylley
skeayllit
skeayllt
skeaylt
skeddan
skeeal
skeealagh
skeealaght
skeeallaght
skeealleydagh
skeealleydaght
skeeallyn
skeealyn
skeeandagh
skeeragh
skeeraghyn
skeerey
skeet
skell
skellal
skelloo
sker
sketc
sketch
ski
skian
skianagh
skianyn
skie
skills
skimmee
skin
sko
skorf
skovoroda
sku
skua
sky
skye
skyll
skylley
skyn
skynn
skyrrey
skyrreyder
sla
slands
slane
slanjeant
slat
slate
slattagyn
slattyn
slattys
slattysagh
slattyssagh
slattyssyn
slatyn
slavagh
slavey
slavish
slayer
slaynt
sle
sleabyn
sleeanagh
sleeping
sleih
sleitagh
sleitoil
sleityn
sliabh
slieau
sliennoo
sligeach
sligo
sliught
sloo
slovackagh
slovackish
sloveanish
sluggey
sluggidagh
sluight
sluightee
slyst
slystagh
slystyn
smaght
smaghtagh
smaghtaghey
smaghtey
smaghteyr
small
smedmark
smeir
smeyr
smith
smithsonian
smoo
smooinaght
smooinaghtagh
smooinaghtyn
smookal
sn
snagchiaull
snaie
snaieyn
snaue
snaueder
snauee
sniaghtee
sniaghtey
sniaul
snienganyn
sniessey
snipes
snodaigh
snow
so
soaigh
soar
soc
soccar
soccer
soccerbase
soccerway
social
society
sociolinguistics
sociology
sockyr
soda
soderick
sodjey
sodjum
sodor
soe
sofascore
sofia
soiag
soiagh
soiaghey
soiaghyn
soiagyn
soie
soieag
soilshaghey
soilshaghit
soilsheanagh
soilshee
soilsheenyn
soilsheenys
soilshey
soilsheyder
soilsheyderyn
soilsheydys
soilshit
soit
sol
solanum
solar
soldier
soldiers
solitaire
sollaghey
sollan
sollys
sollysh
solomon
som
some
somerset
something
son
sonata
sonchus
sonderagh
song
songs
sonia
sonney
sons
soo
sooill
sooilley
sooillyn
soolagh
soolynagh
soolynn
soolynnagh
soolynnish
sooree
sophia
sophie
sopot
sorbish
sorbus
sorc
sord
sornaigys
soshialagh
soshiallagh
sostnagh
sostnee
sostyn
sostynagh
sostynee
sots
sotsialisticheskaya
sound
sounds
souraghyn
source
sources
souree
sourey
south
southampton
southend
southern
soveidjagh
sovetskaya
soylee
soylley
sp
spaag
spaainagh
spaainee
spaainey
spaainish
space
spaddylagh
spain
spd
speak
speakers
speaking
special
species
spectabilis
spectrum
speech
speed
speeideilys
speeiney
speekag
speid
spencer
speyr
speyrey
sphinx
sphinxyn
spider
spielberg
spike
spinosa
spirit
spittag
spitzer
splash
spoar
spoken
spork
sporragyn
sport
sports
spot
spotc
spotted
spoyrt
spoyrtyn
sprache
spring
springer
springs
sprouts
spuitt
spy
spyrryd
spyrrydoil
spyrrydyn
squad
square
sr
sra
sraith
srath
sri
sritis
ss
sseldorf
ssp
st
sta
staartaghyn
staartey
stac
stacy
stad
stadd
staddyssaght
staddyssaghtoil
stadt
stadyn
staff
staffordshire
stage
staid
staidrimh
staillin
staimynyn
stair
stalin
stan
stanbul
stand
standard
standing
stanford
stangey
stanlagh
stanley
stanton
star
stark
starogard
starogardzkim
starr
stars
stashoon
stashoonyn
stat
state
states
station
statistic
statistical
statistics
status
statystyczny
stay
stayd
staydraa
staydraaoil
staydyn
staydys
ste
steat
steateyr
steatyn
steaytyn
steel
steele
stella
stellar
stem
step
stephanie
stephen
stephens
sterbotten
sterling
sternag
sterreich
sterrymyn
steve
steven
stevens
stevenson
stewart
stfɔ
sthie
sthilk
sthock
stholeyn
stholk
sthollaneyn
stiagh
still
stipuleyn
stiur
stiurag
stiuree
stiurey
stiureyder
stiureyderyn
stiureydys
stiurit
sto
stochowa
stock
stockholm
stockton
stoke
stokes
stomata
stondane
stone
stoner
stones
stoo
stooaltane
stooaltaneyn
stooghyn
store
stories
storm
stormy
story
stoughton
stowell
stoya
stoyll
stoyr
stoyral
stra
strah
strahovski
straid
straiddey
straidyn
straih
straihyn
strandhill
strange
stranger
strategy
streaming
streean
streeaney
street
streeu
streeuder
streeuyn
streng
strengit
strengyn
streymoy
strimmey
string
stroaney
stroanney
stroie
stroin
stroit
stroll
strong
stronnag
stronnagh
stronnaghys
stronnee
stroo
strooan
strooanagh
strooanyn
strooghyn
stroshey
structure
structures
strughtoor
strughtooryn
stuart
student
students
studeyr
studeyryn
studeyrys
studeyryssyn
studies
studio
studios
study
stuff
stundayrt
stundayrtit
stundayrtyn
stuttgart
style
su
sua
subject
suburbs
such
sud
sue
suffolk
sugar
suicide
sulby
sulfur
suline
sullivan
sum
summary
summer
summers
sumy
sun
sunak
sund
sunday
sunderland
sunny
sunset
super
superman
superstar
support
sur
surface
surransagh
surranse
surrey
survey
survival
survivor
susan
sushtal
sushtallagh
sussex
sutherland
sutton
suðuroy
svalbard
swahilish
swan
swansea
swassee
sweden
sweeney
sweet
swift
sy
sydney
sylem
sylvatica
sylvester
sylvia
sym
symbols
symposium
syn
synagog
synge
syntax
syrjey
system
systematic
systematics
systems
sz
sza
szczecin
sze
sztum
słupsk
t
ta
taabyl
taagher
taah
taahit
taaley
taarnee
taartys
taaue
tablad
table
tables
tablesl
taboo
tad
tadg
tag
tagging
taggloo
taghyrt
taghyrtyn
tai
tailed
tailor
taishbyney
taishbynit
taishbynys
taishbynyssyn
taitnys
taitnyssagh
taiwaan
tajikistaan
tak
take
takes
talbot
tale
tales
talk
talking
tallahassee
tallerman
tallinn
talmud
tambia
tamer
tamilish
tammylt
tampere
tan
tanakh
tangled
tank
tannaghtyn
tanner
tanzania
taoiseach
tappee
tara
tarantino
tardeen
target
tarmaynagh
tarmaynys
tash
tasht
tashtaghyn
tashtee
tashtey
tashtit
tashtlann
tasmaan
tastey
tastid
tat
tatarish
tatarstaan
taubman
taves
taxon
taxonomic
taxonomy
taylor
tayrmanagh
tayrn
tayrnit
tayrnys
tb
tczew
td
tdyn
te
teach
teaching
teachta
teachtai
team
teamhair
teampall
teaumey
teaym
technology
ted
teddy
teelan
teelynn
teemor
teen
teenage
teens
teer
tees
teese
teihill
teihll
teilifi
teionaght
teisht
teiy
teks
teksyn
tel
telegraph
telescope
television
tempreilagh
tempreilys
tempreilyssane
ten
tendreil
tenegaal
tennessee
tennis
tennys
tenochtitlan
tera
terb
terbish
term
termeeaght
terminology
terms
tern
terra
terre
terrestrial
territories
territory
terry
tesla
tessen
test
tethys
tetrapoda
texas
text
texts
tey
teyrlann
teyrsnys
tezuka
tg
th
tha
thai
thair
thaish
thalloo
thallooin
thallooinagh
thallooinit
thalloonit
thallooyn
thames
than
thanney
thar
that
thatcher
thchleas
the
theas
theater
theateragh
theateryn
theatre
theay
theayagh
theihill
theihll
their
them
then
theodor
theodore
theory
thepeerage
therapy
there
theresa
these
they
thiar
thie
thieoil
thieves
thieyn
thieys
thin
thing
things
think
thiollane
third
this
thoagyn
thoanney
thoir
thollag
tholtanyn
thomas
thompson
thomson
thor
thoracksagh
thorne
those
thought
thousane
thousaneyn
thoyn
three
threlkeld
thriller
throated
thrones
through
thu
thuaidh
thummey
thummid
thunnag
thunnaghyn
thunney
thursday
thy
ti
tia
tianjin
tibet
tibetagh
tibetan
tibetish
tidee
tierra
tiffany
tiger
tigh
tiktok
tikva
tileesh
tilgey
tilgit
tilia
tim
time
times
timothy
tina
ting
tinvaal
tips
tir
tirane
tit
titan
title
tits
tla
tnag
to
toan
toanyn
toaster
tobago
tobar
tobias
tocharish
today
todd
together
togo
toiag
toiggal
toiggalys
toiggit
tointon
tokyo
told
tolkien
tom
toma
tomaal
tomas
tomatoes
tombagey
tome
tomlinson
tomman
tommanyn
tommasi
tommy
tomorrow
tongey
tonkin
tonn
tonnagh
tonnyn
tony
too
toodaan
tooder
tooill
tooilley
tool
toole
toolynn
toolynnish
tooneesh
tooneeshagh
toor
toorinam
top
tops
tor
torah
toraigh
torc
torfaen
tori
torminalis
torn
toronto
torraghey
torres
torrey
torun
tory
toshee
tosheeaght
toshiagh
toshiaghey
toshiaght
toshtal
tostagh
tostid
tostyl
total
tough
tour
tourcoing
touree
tourey
tourism
towards
tower
towl
towlley
town
towns
townsend
towse
towseyn
towshan
towshanagh
towshanit
towshanyn
towshit
toy
toyrt
toyrtagh
toyrtys
tr
tra
traa
traaght
traaghtyn
traaghtys
traaghyn
traartys
traase
tracey
tracking
tracy
trade
tradishoon
tradishoonagh
tradishoonyn
tradition
traditional
traen
traenagh
traenal
traenyn
tragedy
tragh
traght
traghtee
traghtey
tragic
traid
traie
traieyn
train
trajan
tramman
tramp
tranlaase
tranny
trans
transactions
transgender
translation
transport
transsexual
trask
trass
travis
travolta
tre
treasure
treasury
treatment
treaty
tree
treealagh
treealtys
treen
treeoo
trees
treeskeealag
treger
treigit
treiglad
treisht
treishteilee
trek
trellag
trends
trent
tri
trial
triangle
tribe
tribune
trichoplax
trie
trieyn
trimmey
trimmid
trimshagh
trinaid
tringa
trinian
trinity
tristan
tro
troa
troailt
troailtagh
troailtee
troailtys
troar
troarag
troaragh
troaraght
troaragyn
troarey
troarit
troaryn
troddan
troggal
troggalaght
troggalit
troggalyn
troggalys
troggit
troiddey
troim
trome
tromlagh
trondheim
trongisva
trooid
troor
troorane
trooraneagh
trooreen
tropical
troshey
troy
troyn
trudgill
true
trujillo
truman
trump
truss
trust
trustyr
truth
ts
tsar
tsu
tsunami
tt
ttir
tu
tuarastyl
tuarastylyn
tuarym
tuarystal
tuarystallys
tuarystalyn
tuathail
tuberosum
tuberosus
tuchola
tucker
tudful
tudjeen
tudjeenyn
tuill
tuinney
tuittym
tullagh
tundra
tungsten
turdus
turkagh
turkee
turkey
turkish
turkmenish
turkmenistaan
turlach
turner
turneyr
turrys
turrysagh
turrysaght
turrysid
turryssagh
turryssee
turryssyn
tushtey
tutela
tuvalu
tv
tvøroyri
tweet
twentieth
twenty
twi
twist
twitter
two
twoaie
twoaieagh
tx
ty
tyler
tyndall
tyne
tynwald
type
typha
u
ua
uachtair
uci
ucla
udaina
udmurt
uefa
ughtar
ughtaryn
ughtarys
uhel
ui
uill
uillin
uillinagh
uinnag
uk
ukraine
ukrainian
ukrstat
uladh
ulitina
ullanish
ullee
ulley
ulste
ulster
ultagh
ultimate
ulysses
um
un
una
und
undaagee
under
undercover
understanding
underwood
undinagh
undinys
undinyssyn
une
unesco
ungaar
ungaaragh
ungaarish
ungaarisheyryn
unicode
union
unit
united
univ
universal
universe
universita
universite
universities
university
unjin
unnane
unnaneagh
unnanee
unnaneys
unnaneysagh
unnaneysey
unnaneysit
unnaneyssey
unnaneyssit
unnid
unnidagh
unnidyn
unnish
until
unwin
uo
up
update
upon
upper
uppsala
upss
uraanus
uranus
urban
urla
urley
urree
urza
us
usa
usda
use
used
uses
ushag
ushagyn
ushlagh
ushlee
ushtagh
ushtaghyn
ushtee
ushtey
ushylagh
using
uss
usually
ut
utah
utc
utgaard
utrecht
uusimaa
uv
v
va
vaagh
vaaghyn
vaaish
vaare
vaarle
vaase
vaatey
vaayl
vac
vacteyryn
vadagascar
vaddaght
vaduz
vagher
vagheragh
vagheryn
vaghtal
vagnaidagh
vagnaishum
vahlhausen
vaie
vaik
vainney
vainshtyr
vair
vakin
val
valaysia
valdømi
vale
valencia
valentina
valentine
valera
valjagh
valjaght
valjyn
valley
valor
valta
valtagh
valtish
value
vampire
van
vanannan
vanc
vancouver
vandarin
vane
vanessa
vaney
vangladesh
vanglane
vanglaneyn
vann
vannee
vannin
vanninagh
vannishter
vantaa
vanuatu
var
vard
vardaght
varel
vargey
variety
varitaan
varoc
varr
varranys
varrey
varriaght
varroo
varshyl
vart
vascagh
vascish
vassadoan
vassadoanish
vaughan
vaveyr
vavilov
vay
vayr
vayrey
vayrnt
ve
vea
veagh
veaghagh
veaghee
veaghey
veain
veainyn
vean
veanagh
veanit
veanvooir
veanvooiragh
veashnys
veayn
vecsico
veddyn
vee
veeagheyder
veeagheyderyn
veeal
veeghyn
veeiley
veeilley
veein
veen
veenaghey
veenid
veenidyn
veer
veerys
veeryssyn
vees
veg
vega
vegas
veggan
veggey
veh
veih
veill
veillagh
veiyn
veksico
vel
vela
velaroosh
velarooshish
veleesh
velg
ven
veneesh
veneeshish
veneswaalagh
veneswaaley
venrein
ventura
ventyr
venus
veoir
veoiraght
vepsish
vera
verb
verbs
verc
verlag
verleen
vermont
verna
vernon
veronica
verrish
versailles
verse
vertebra
vertebrae
vertebragh
vertebraghyn
vertebree
vervine
very
verði
vespucci
vess
vestey
vestit
vestmanna
vez
vi
via
vian
vible
vic
vice
victor
victoria
victorianagh
victorious
video
vie
vieauid
vienna
vietnam
vietnamagh
vietnamish
view
viggar
viggo
vihan
vii
viii
viking
vil
vila
viljyn
villa
village
villages
ville
villeneuve
villey
villioon
villish
vilnius
vin
vincent
ving
vinishter
vio
vioag
vioagh
vioagyn
vioee
vioghit
vioghys
viola
violence
vir
virgin
virginia
virjeeney
virtual
virus
viscount
vishaghey
vishee
vision
visit
vista
vitali
vitro
vittoria
vixen
viðareiði
vlaa
vlaaghey
vlaaghyn
vladimir
vlass
vlasstal
vleayst
vleaystey
vleeanagh
vleeaney
vleeantyn
vlein
vleinoil
vluckan
vluckaneyr
vluckaneyrys
vn
vo
voaldyn
voalley
voayl
voayrd
vocabulary
vod
voddagh
voddee
voddey
vodka
voee
vog
voggyl
voggylagh
voghrey
vogue
voice
voices
voir
voirrey
voish
vojvodina
vol
volcaan
volcaanagh
volcaanyn
volg
volga
volgan
volivia
vollagh
volodymyr
vols
volume
vomentum
von
vondeish
vondeishagh
vondeishyn
vongoil
vooadaghey
vooadys
vooan
vooar
vooarey
vooarheeragh
voodeeys
vooie
vooinjer
vooinjeragh
vooinjerys
vooir
vooiragh
vor
vorpommern
vors
vort
vosambeeck
voss
vote
voteyn
votish
votswaan
vouin
vour
vowel
vowels
voyager
voyllagh
voylley
vraane
vraar
vradda
vraddan
vras
vrasseel
vrastyl
vrat
vrattagh
vreck
vree
vreear
vreearyn
vreeockle
vreeshey
vreneen
vreneenagh
vreneenyn
vretin
vretnagh
vretnish
vretyn
vrish
vrishey
vrisht
vristol
vritaan
vritaanish
vriw
vriwnys
vro
vroogh
vrussyl
vrythonagh
vrythonish
vs
vuc
vuigh
vuill
vuillagh
vuinaghan
vuir
vulgare
vulgaris
vulgeyr
vullagh
vun
vunnaghey
vunneeaght
vunneydagh
vunneyder
vunnit
vunraght
vunraghtoil
vunscoill
vunstoo
vunstooghyn
vurmey
vus
vut
vutaan
vyn
vynlagh
vynneeys
vynreayrtan
vɔjɛ
w
wa
wabash
wade
wagner
wake
wald
wales
walk
walker
wall
wallace
walloon
walloonish
walpole
walsh
walt
walter
walton
wambule
wan
wanderers
wang
wanna
wannal
wannalagh
want
wappin
war
warbler
warburg
ward
warmia
warner
warren
warrior
warriors
wars
warszawa
warton
warwick
warwickshire
was
washington
wasserscheid
watch
watched
water
waters
watson
watterson
way
wayne
ways
we
wear
weather
weaver
web
webarchive
webcomics
website
webster
wedding
weddings
wee
weeds
week
weekly
weeks
weimar
weird
wejherowo
welch
welcome
well
wellington
wells
welsh
wendy
were
werner
wes
wesley
west
western
westfalen
westlife
westminster
wet
whaagh
whaiyl
whaiylagh
what
wheel
wheesh
wheiggaghyn
wheiggey
wheiggoo
wheigoo
when
where
which
while
whitaker
white
whitney
who
why
wichita
wicked
wickler
wide
wie
wiecie
wien
wiener
wiesbaden
wigan
wiki
wikimedia
wikipedia
wikiquote
wikisource
wiktionary
wilbur
wild
wilde
wilderness
wildlife
wiley
wilfrid
wilhelm
will
willem
william
williams
williamson
willis
willows
wilmington
wilson
wiltshire
win
wind
window
windsor
wing
wings
winner
winners
winnie
winning
wins
winsen
winston
winter
winters
wire
wirral
wirran
wirrish
wisconsin
wisdom
wise
wisła
witch
with
witherspoon
within
without
witt
wives
wo
woalley
woda
woese
woirrin
woirrinagh
woish
wojewo
wolf
wolfe
wolfgang
woman
women
won
wonder
wonderful
wonderland
wong
wood
woodrow
woods
woody
wooise
wooishlagh
worcester
worcestershire
word
words
work
working
works
world
worthies
would
wreck
wrecsam
wright
write
writer
writers
writing
writings
written
wrocław
wta
wu
wuhan
wuigh
www
wyddgrug
wylie
wyllin
wyn
wynn
wynne
wyoming
wyrwal
wyrwał
włocławek
x
xbiz
xcritic
xenon
xenoturbella
xenoturbellida
xi
xico
xii
xinjiang
xiv
xml
xrco
xvi
xxx
y
ya
yafo
yahoo
yakthungish
yale
yalloo
yallooyn
yamaicey
yangtze
yannoo
yantagh
yantys
yaren
yas
yasmin
yeaman
yeant
year
years
yeast
yeats
yee
yeeallyn
yeearree
yeearreeaght
yeeast
yeeastyn
yeeragh
yeesey
yehuda
yei
yeianagh
yeig
yeigoo
yellow
yellowknife
yen
yeomans
yerevan
yernagh
yernee
yernish
yernisheyryn
yerree
yerrey
yerrinagh
yersee
yes
yesh
yeshaghteyr
yet
yi
yiarg
yiarn
yiarrey
yiass
yiassagh
yindys
yindyssagh
yindyssyn
yinnagh
yiooldagh
yitzhak
yl
ylrey
ym
ymmoddee
ymmodee
ymmyd
ymmydee
ymmydey
ymmydeyr
ymmydeyryn
ymmydit
ymmydoil
ymmydyn
ymmyrc
ymmyrkagh
ymmyrkee
ymmyrkey
ymmyrkit
ymobbreeagh
yn
ynlaghey
ynlaghteyr
ynneig
ynnyd
ynnydagh
ynnydee
ynnydoil
ynnydyn
ynrican
ynrickan
ynsagh
ynsaghey
ynsee
ynseydagh
ynseydee
ynseyder
ynseyderyn
ynsit
ynys
yo
yolŋu
york
yorkshire
yosemite
yoshkar
you
yough
young
your
yourself
youth
youtube
yr
yrdjey
yrdjid
yrjaghey
yrjey
yrjid
yrjit
ys
yssaght
ysseraght
yu
yuan
yugoslaavey
yukon
yunnan
yuri
yvonne
z
za
zachary
zagreb
zaporizhzhia
zaragoza
zb
ze
zealand
zee
zeit
zendaya
zeniter
zero
zhe
zhejiang
zheng
zhi
zho
zi
zichyu
ziegler
zielona
zimmer
zimmerman
zio
zion
zip
zo
zoe
zoey
zol
zone
zoo
zoology
zootopia
zquez
zu
zuckermann
zur
{
|
}
~
¡
£
§
¨
©
«
¯
°
±
²
´
·
»
½
×
æ
ð
ø
þitt
þo
þu
ı
ł
łine
ło
ŋ
ǁ
ɑ
ɔ
ɕ
ə
ən
ɛ
ɟ
ɡ
ɡe
ɣ
ɨ
ɪ
ɫ
ɬ
ɭ
ɮ
ɯ
ɱ
ɲ
ɳ
ɴ
ɹ
ɺ
ɾ
ʀ
ʁ
ʂ
ʃ
ʍ
ʎ
ʐ
ʑ
ʒ
ʕ
ʝ
ʟ
ʢ
ʧ
ʰ
ʲ
ʷ
ʻ
ʼ
ʾ
ʿ
ˀ
ˈ
ˌ
ː
ˠ
̀
́
̂
̃
̄
̆
̇
̈
̉
̊
̋
̌
̓
̔
̚
̛
̝
̞
̢
̣
̤
̥
̦
̧
̨
̩
̪
̮
̯
̱
͂
ͅ
͠
͡
α
β
γ
ε
θ
ι
κ
μ
ν
ο
ον
ρ
ς
υ
φ
χ
ω
ϐ
ϕ
ϝ
ϵ
а
анна
в
вы
г
д
деньги
е
здесь
и
игровые
из
или
к
казино
как
л
м
марии
море
мост
н
на
не
ни
о
область
онлаи
по
республика
республикасы
россии
с
ская
скии
ского
советская
социалистическая
т
у
украі
хуи
ч
э
это
языка
і
ґ
ְ
ֲ
ִ
ֵ
ֶ
ַ
ָ
ֹ
ּ
־
ׁ
א
ב
ג
ד
ה
ו
ח
י
כ
ל
מ
מחוז
ן
נ
ס
ע
פ
צ
ק
ר
ש
ת
ا
ر
منطقة
َ
ِ
ّ
ٓ
ٔ
ٕ
ज
द
न
प
ब
भ
म
य
र
ल
व
ह
ा
ि
ी
ु
े
्
ੀ
ા
க
த
ந
ப
ற
ல
ா
ி
ே
்
ภ
་
ག
ང
ད
ན
བ
ཡ
ལ
ས
ི
ུ
ོ
ྒ
ྡ
ྱ
ྲ
က
င
ဆ
ပ
မ
လ
ာ
ိ
ု
ေ
ဲ
ဳ
့
း
္
်
ျ
ြ
ွ
​
‌
‎
–
—
‘
’
“
”
„
†
•
…
′
″
⁡
€
№
™
→
↔
↷
−
≈
⋅
③
④
⑦
─
└
├
△
◌
☉
♀
♂
⯓
ⴻ
ⵎ
ⵔ
⺀
⺄
⺆
⺈
⺊
⺌
⺕
⺝
⺸
⺼
⿰
⿱
⿲
⿳
⿴
⿵
⿶
⿷
⿸
⿹
⿺
⿻
。
〢
い
う
か
し
た
っ
て
と
な
に
の
は
ま
も
ゃ
ゅ
ゆ
ょ
る
れ
を
ん
゙
ァ
ア
ィ
イ
ウ
エ
オ
カ
ク
ケ
コ
ソ
タ
ッ
テ
ト
ハ
ヒ
フ
マ
メ
モ
ユ
ラ
リ
ル
レ
ン
ー
㇁
㇂
㇄
㇇
㇈
㇉
㇓
㐁
㐄
㐅
㐌
㐫
㐬
㐭
㐮
㐱
㑒
㒵
㒸
㒼
㓁
㓞
㔾
㕛
㕣
㖾
㘝
㚅
㚇
㚔
㚘
㝉
㝡
㝴
㝵
㞋
㞢
㞷
㠩
㠭
㠯
㡀
㡭
㡿
㢲
㢴
㣇
㣺
㥯
㪅
㫄
㫐
㫒
㫺
㬅
㬎
㬥
㬰
㲋
㳄
㷠
㸒
㸚
㸦
㼌
㼲
㽞
㿟
䀠
䂞
䍃
䏍
䒑
䖍
䖒
䖝
䖵
䙴
䚻
䜌
䝿
䡛
䧹
䪞
一
丁
丂
七
丄
丅
丆
万
丈
三
上
下
丌
不
与
丏
丐
丑
专
且
丕
世
丘
丙
业
东
丞
丢
丣
两
严
並
丨
丩
个
丫
丬
中
丮
丰
丱
串
丵
丶
丷
丸
丹
为
主
丽
丿
乀
乂
乃
久
乆
乇
么
义
之
乌
乍
乎
乏
乐
乑
乔
乖
乗
乘
乙
乚
乛
乜
九
乞
也
习
乡
乳
乾
亀
亅
了
亇
予
争
事
二
亍
于
亏
亐
云
互
亓
五
井
亘
亚
亜
亞
亟
亠
亡
亢
交
亥
亦
产
亨
亩
享
京
亭
亮
亯
亰
亲
亳
亶
亷
人
亻
亼
亾
仁
今
介
仌
从
仐
仑
仒
仓
仕
他
付
仝
代
令
以
仮
任
企
伊
伏
伐
休
会
伯
但
位
何
佘
余
作
佥
使
來
侈
侌
侖
侯
侵
便
保
俞
信
修
倉
倍
候
倠
備
傣
僉
僕
儿
兀
允
兂
元
兄
充
兆
兇
先
光
兊
克
兌
免
兑
兒
兓
兔
党
兜
兟
入
全
兩
兪
八
公
六
兮
兰
共
关
兵
其
具
典
兹
兼
冀
冂
冃
冄
内
冈
冉
冊
冋
册
再
冎
冏
冐
冒
冓
冖
冗
冘
军
农
冝
冡
冥
冫
冬
冷
准
几
凡
凢
凵
凶
凷
凸
凹
出
函
凾
刀
刁
刂
刃
刄
刅
分
切
刍
刑
刕
刖
列
刘
则
初
別
利
别
到
制
刺
則
削
剌
前
剡
剽
劉
力
功
加
劦
助
劫
劳
劵
勃
勇
勉
勒
動
務
勞
勤
勹
勺
勻
勾
勿
匀
匂
包
匆
匈
匊
匋
匍
匕
化
北
匚
匝
匡
匪
匱
匸
匹
区
医
匽
匿
區
十
卂
千
卄
卅
卆
升
午
卉
半
卌
华
卑
卒
卓
单
卖
南
卜
卝
卞
占
卡
卢
卣
卤
卦
卩
卪
卬
卯
印
危
即
却
卵
卷
卸
卻
厂
厃
厄
历
厈
厉
厌
厓
厘
厚
原
厤
厥
厨
厭
厲
厶
厷
厸
去
厼
厽
叀
参
參
叅
又
叉
及
友
双
反
叐
发
叒
叔
叕
取
受
叚
叜
叟
口
古
句
另
叩
只
召
可
台
叱
史
右
叵
号
司
叹
吂
各
吅
合
吉
吊
吋
同
名
后
吏
向
吕
君
吝
吞
否
含
启
吳
吴
吹
吾
呂
呆
呈
告
员
呙
周
命
咅
和
咎
咠
咢
咨
咸
咼
哀
品
哉
員
哥
哲
唐
商
啇
問
啚
啬
啻
善
喜
喬
單
喿
嗇
噩
嚴
囊
囗
囘
囙
囚
四
回
囟
因
囧
囬
困
囱
囷
固
国
圂
圅
國
圍
圓
土
圡
圣
圥
在
圭
地
圶
圼
坐
坒
坚
坴
垂
垔
垚
埀
埋
埶
執
基
堂
堅
堆
堇
堯
報
場
塞
墨
壘
士
壬
壮
壯
声
壳
壴
壹
壺
壽
夂
处
夅
夆
备
夊
夋
夌
复
夏
夒
夕
外
夗
夘
多
夜
夢
大
夨
天
太
夫
夬
夭
央
失
夲
头
夷
夸
夹
夻
夾
奂
奄
奇
奈
奉
奎
奏
奐
契
奓
奔
奚
奞
奠
奢
奥
奭
女
奴
奻
好
如
妄
妙
妟
妥
妻
妾
姑
委
姜
威
娄
婁
婴
嬰
嬴
子
孑
孔
孕
孖
字
存
孚
孛
孝
孟
季
孤
学
孫
孱
學
宀
宁
宂
它
宅
宇
守
安
宋
完
宏
宓
宗
官
定
宛
宜
宝
客
宣
室
宮
宰
害
家
容
宾
宿
寄
寅
密
富
寒
察
寧
審
寫
寬
寮
寸
对
寺
寻
寽
対
寿
封
尃
射
将
將
專
尉
尊
尋
尌
對
小
少
尒
尓
尔
尖
尗
尚
尞
尢
尣
尤
尧
尨
尭
就
尸
尹
尺
尻
尼
尽
尾
尿
局
居
屈
屋
屎
屏
屑
展
屖
屚
属
屠
屡
屬
屮
屯
屰
山
屵
屾
岁
岂
岑
岡
岩
岳
岸
峯
島
崇
崑
崔
崖
崙
崩
嵬
嶲
巂
巛
川
州
巟
巠
巢
巤
工
左
巧
巨
巩
巫
差
己
已
巳
巴
巷
巸
巽
巾
巿
帀
市
布
希
帚
帛
帝
带
師
席
帶
常
干
平
年
幵
并
幷
幸
幺
幻
幼
幽
幾
广
庁
広
庄
庆
床
底
店
庚
府
度
庫
庭
庶
康
庸
廉
廌
廛
廣
廩
廴
延
廷
建
廾
廿
开
弁
弃
弄
弇
弋
式
弓
弔
引
弗
弘
弜
弟
弥
弦
弱
張
強
强
彊
彌
彎
彐
彑
当
彔
录
彖
彗
彝
彡
形
彥
彦
彧
彭
彳
役
彼
往
待
律
徒
得
徙
從
復
微
徵
徽
心
忄
必
忌
忍
志
忝
忠
忩
快
念
忽
忿
思
怠
急
怱
恆
恒
恩
恭
息
悉
患
悤
悲
悶
惠
惡
惢
愁
愈
意
愛
感
慈
慧
慮
憂
憲
應
戀
戈
戉
戊
戋
戌
戍
戎
成
我
戒
戔
或
戚
戠
戢
截
戲
戶
户
戹
戼
戾
房
所
扁
扇
手
扌
才
打
托
执
承
折
拉
拜
拿
掌
推
提
摩
支
攴
攵
收
攸
改
放
政
敄
敏
敕
敖
敗
敝
敞
敢
散
敦
敫
敬
数
敷
數
斂
文
斉
斊
斗
斤
斥
斩
斬
斯
新
方
於
施
斿
旁
旋
族
无
旡
既
旣
日
旦
旧
旨
早
旬
旱
旲
时
旾
昆
昇
昌
昍
明
昏
易
昔
昗
昜
星
春
昬
是
昱
昴
昷
時
晃
晋
晏
普
景
晶
智
暑
暴
曇
曩
曰
曲
曳
更
曷
書
曹
曼
曾
替
最
朁
會
月
有
朋
服
朔
朕
朗
望
朝
木
朩
未
末
本
札
朮
术
朱
朵
朶
朿
杀
杏
杜
束
条
来
東
杲
杳
松
析
林
枚
果
枝
枲
枼
某
柔
查
柬
柰
柴
标
栗
桀
桑
桼
梁
條
梟
梨
棘
棠
棥
森
楚
業
楽
榮
樂
樊
標
欠
次
欣
欮
欲
欶
欽
款
歆
歇
歛
止
正
此
步
武
歨
歪
歮
歯
歰
歲
歴
歷
歸
歹
歺
死
殳
段
殷
殸
殹
殺
殻
殿
毋
毌
母
每
毒
比
毕
毚
毛
毳
氏
氐
民
气
気
氣
水
氵
氶
氷
永
氺
氾
求
汉
汝
汞
江
沃
沓
沖
沙
沝
河
治
泉
法
波
泣
泥
泰
洋
洛
洪
活
派
流
浙
浦
浪
浮
海
淡
淮
清
渚
渠
湖
湯
準
滿
漢
漫
漸
火
灬
灭
灰
灵
灷
炅
炎
炏
炗
炙
炭
為
烈
烏
烝
焉
無
焦
焱
然
煞
熊
熏
燕
營
燮
爪
爫
爭
爯
爰
爱
爲
爵
父
爻
爽
爾
爿
片
牙
牚
牛
牜
牟
牢
牧
牪
牽
犀
犬
犭
犮
狂
狄
狊
独
狺
猋
猒
猪
献
獒
獻
玄
率
玉
王
玟
玨
现
珎
班
琴
瑟
瑩
璠
瓜
瓦
甘
甚
生
産
用
甫
甬
田
由
甲
申
电
甶
男
甸
甹
画
甾
畀
界
畏
畐
留
畜
畟
畢
畧
畨
番
畫
異
畱
當
畺
畾
疊
疋
疌
疑
疒
疾
癶
癸
癹
登
發
白
百
皀
皃
的
皆
皇
皋
皐
皕
皮
皷
皿
盃
盆
盇
盈
益
盍
盎
监
盒
盖
盛
盡
監
盤
盧
目
直
相
盾
省
眇
眉
看
眔
眞
真
眷
眼
眾
着
睘
睪
睿
瞏
瞢
瞿
矍
矛
矞
矢
矣
知
矦
短
石
破
碎
磊
磨
示
礻
礼
祖
祟
票
祭
禀
禁
福
禸
禹
禺
离
禽
禾
禿
秀
秃
秉
秋
科
秝
秦
移
稟
穀
穌
穴
究
穹
空
穿
突
窄
窒
立
竒
竜
竝
竟
章
童
竹
笑
笠
筆
等
答
箕
算
箴
節
篤
篭
米
粉
粛
粟
粤
粦
粲
糞
糸
糹
系
約
納
素
索
紫
累
細
絜
絫
絲
維
綿
縣
繇
纍
纟
缶
网
罒
罔
罕
罗
罙
罡
罢
罪
署
罷
羅
羊
羌
羍
美
羔
羕
羗
羞
羡
羣
群
義
羲
羸
羽
翁
翏
習
翕
翟
翠
翼
老
耂
考
者
耆
而
耎
耑
耒
耳
耴
耶
耷
聂
聊
聖
聚
聶
聿
肀
肃
肅
肉
肖
肙
肥
肩
肯
育
肴
胃
背
胡
胥
能
脊
脩
膚
臣
臤
臧
自
臬
臭
臯
臱
至
致
臺
臼
臽
臾
臿
舀
舂
舄
與
興
舉
舌
舍
舛
舜
舞
舟
般
艮
良
色
艸
艹
艾
芒
芔
芬
芮
花
芳
芺
芻
苏
苔
苗
苟
若
苦
英
茶
茸
荅
草
荒
荣
荼
莆
莧
莫
莽
菆
菊
菐
華
萬
落
葉
著
葛
董
葵
蒙
蒦
蒼
蓋
蓬
蓺
蔑
蔡
蕉
蕭
薄
薛
薦
薰
藍
藏
藥
蘭
虍
虎
虐
虒
虔
處
虖
虗
虘
虚
虛
虜
虞
虫
虽
蚤
蚩
蜀
蜜
蟲
蠡
血
行
衍
衛
衣
衤
表
衮
衰
袁
袞
褭
褱
襄
襾
西
覀
要
覃
見
規
覓
覧
親
覽
见
角
解
言
訁
訇
計
話
詹
語
誩
読
諸
讠
话
语
谷
豆
豈
豊
豐
豕
豖
豙
象
豦
豩
豪
豸
貇
貝
貞
貟
負
貢
貧
貪
貫
責
貳
貴
買
費
賁
資
賈
賏
賓
賔
賛
賞
賢
賣
質
賴
贊
贝
贡
责
贯
贲
贵
赖
赞
赤
赦
走
越
足
路
蹇
身
躬
車
軍
軎
軟
輦
车
辛
辜
辟
辥
辰
辱
農
辵
辶
边
辽
达
过
近
连
迷
追
退
送
逆
逐
通
速
造
逢
連
逮
進
遀
遂
過
道
達
遣
適
遷
遺
邊
邑
邕
那
邦
邪
郎
郑
部
郭
都
鄉
鄭
酉
酋
配
酓
釆
采
里
重
野
量
金
釒
錢
钅
長
镸
长
門
閃
閉
開
閏
閑
閒
間
閔
閵
閻
闌
门
间
闷
闽
阑
阜
阝
阿
降
陳
隆
隊
隋
隡
隨
隱
隶
隹
隺
隻
隼
隽
难
雀
雁
集
雈
雋
雍
雐
雔
雙
雚
雜
雝
離
難
雨
雩
雪
雲
零
雷
需
震
霍
霜
霝
霞
霸
靈
靑
青
非
靡
面
靣
革
韋
韦
韭
韯
韱
音
頁
頃
項
須
頗
頡
頻
顛
页
風
风
飛
飞
食
飠
養
饣
首
香
馬
馮
駦
马
骨
高
髟
鬥
鬯
鬲
鬼
魚
魯
鮮
鱼
鲁
鳥
鳳
鸟
鹵
鹿
麃
麗
麥
麦
麻
黃
黄
黍
黎
黑
黒
黨
黹
黽
黾
鼎
鼓
鼠
鼻
齊
齋
齐
齒
齿
龍
龙
龜
龟
龠
龰
龱
龴
龵
龶
龷
龸
龹


者
艹
﻿
２
？
🜨
𠀁
𠀃
𠀆
𠀉
𠀎
𠀐
𠁁
𠁣
𠂆
𠂇
𠂈
𠂉
𠂊
𠂋
𠂎
𠂒
𠂔
𠂛
𠂡
𠂢
𠂤
𠂬
𠂭
𠂹
𠃊
𠃋
𠃌
𠃍
𠃎
𠃑
𠃓
𠃔
𠃜
𠄌
𠄎
𠄠
𠄢
𠆢
𠆥
𠇍
𠈌
𠌵
𠓜
𠔉
𠔥
𠔼
𠔽
𠔿
𠕀
𠕁
𠕋
𠘧
𠘨
𠙻
𠙼
𠚏
𠚒
𠚤
𠚪
𠣏
𠤎
𠤕
𠥓
𠦄
𠦑
𠦝
𠧒
𠧗
𠧪
𠩺
𠪚
𠫓
𠫔
𠫤
𠬛
𠬝
𠬞
𠬢
𠬤
𠬶
𠮛
𠮦
𠮷
𠯑
𠱠
𠳮
𠷎
𡈼
𡉀
𡉵
𡌥
𡍮
𡏳
𡕒
𡕩
𡕰
𡖅
𡗗
𡗜
𡘆
𡘤
𡧱
𡨄
𡩧
𡬠
𡭽
𡰣
𡰥
𡰪
𡰯
𡰱
𡷈
𡸁
𡿨
𡿩
𡿪
𡿺
𢀖
𢀛
𢀩
𢁙
𢆉
𢆰
𢆶
𢇁
𢇇
𢉖
𢌬
𢌿
𢏚
𢑑
𢑚
𢖻
𢙣
𢛳
𢦏
𢦒
𢧵
𢼄
𢾕
𣁋
𣄼
𣅀
𣅽
𣍘
𣎳
𣎵
𣏋
𣏼
𣗥
𣥂
𣥖
𣦵
𣦼
𣧄
𣪊
𣪠
𣬉
𣳾
𣶒
𤇾
𤊽
𤐫
𤓰
𤔔
𤕨
𤣩
𤰇
𤰔
𤰞
𤴓
𤴔
𤽄
𥁑
𥁕
𥃦
𥃩
𥃭
𥇡
𥑟
𥘅
𥘈
𥝢
𥫗
𥱡
𦈢
𦉪
𦉬
𦉼
𦍌
𦍒
𦎧
𦐇
𦓔
𦔮
𦘒
𦙃
𦚏
𦣝
𦣞
𦣻
𦥑
𦥔
𦥯
𦨉
𦭝
𦰩
𧆞
𧈧
𧘇
𧰨
𧴪
𧴮
𧵩
𧾷
𨸏
𨾴
𩙿
𩠐
𩫏
𩵋
𪉷
𪜀
𪟽
𪠲
𪩲
𫇦
𫔭
𫜸
𫝀
𫠣
𫠩
𫢉
𫥞
𫩏
𫩠
𫪡
𫲽
𫶧
𬀷
𬐘
𬗌
𬙙
𬛸
𬜯
𬟩
𬯁
𬴘
𬺻
𬼉
𬼖
𭀰
𭁈
𭁨
𭅰
𭑈
𭕄
𭗼
𭤨
𭥫
𭻾
𮅕
𮊿
𮍌
𮍏
𮓗
𮥼
𮧮
廾
𰀁
𰀄
𰀈
𰀉
𰀕
𰀠
𰀡
𰀢
𰀪
𰁜
𰃮
𰆊
𰆘
𰋙
𰕎
𰢴
𰧭
𰯲
00--
01--
02--
03--
08--
14--
17--
40--
63--
65--
67--
69--
71--
77--
80--
82--
89--
90--
96--
a--
aa--
aah--
ab--
aber--
ac--
ach--
acou--
ad--
aer--
aff--
ag--
aght--
ai--
air--
ak--
al--
ali--
alka--
all--
aly--
am--
ama--
amoe--
an--
ana--
ancha--
ang--
anth--
antrapoayl--
anven--
ap--
appro--
aqu--
ar--
arau--
arc--
archae--
ard--
argen--
arr--
art--
as--
ash--
ask--
asp--
ass--
astu--
at--
atmosp--
au--
audi--
av--
ay--
az--
b--
ba--
bad--
bai--
ban--
bann--
bar--
baveyr--
be--
bei--
bel--
ben--
ber--
bernh--
bew--
bh--
bha--
bi--
bie--
bil--
bio--
bir--
bla--
blea--
blu--
bo--
bog--
boir--
bol--
boo--
bos--
bot--
bou--
boy--
br--
bras--
bre--
bri--
brid--
bro--
bu--
bun--
bundes--
bur--
but--
bwo--
by--
c--
ca--
cad--
caer--
cag--
cai--
cal--
cam--
can--
cap--
car--
cas--
cat--
cau--
caul--
ce--
cele--
celt--
cen--
ch--
cha--
che--
chi--
chimm--
chir--
chle--
cho--
chon--
chooi--
chor--
chra--
chraghey--
chremey--
chru--
chu--
chumaa--
chyn--
ci--
cin--
cl--
cla--
cle--
cli--
clie--
clif--
clu--
cni--
co--
coe--
cohoyr--
col--
coll--
collo--
colo--
com--
compo--
comys--
con--
coo--
cor--
cos--
cosg--
cosmai--
cou--
cove--
coyr--
cra--
crai--
cram--
cran--
crapl--
cre--
crig--
cro--
cron--
cru--
cu--
cugh--
cult--
cum--
cur--
cy--
cyto--
d--
da--
dalma--
dar--
dau--
daw--
day--
de--
deayr--
deb--
defi--
den--
der--
des--
deuteros--
dh--
di--
dia--
dicotyle--
die--
diff--
dist--
divers--
do--
doar--
dom--
don--
doo--
dor--
dr--
dra--
drei--
drum--
du--
dun--
dung--
dy--
dz--
e--
ea--
ec--
eccle--
echin--
ed--
eddyr--
edge--
edu--
ee--
ef--
eg--
egg--
ei--
eig--
eisen--
el--
ele--
elec--
ell--
em--
embr--
emmer--
en--
eng--
eo--
ep--
er--
es--
essen--
est--
et--
ethno--
etru--
eu--
euro--
ex--
expl--
f--
fa--
fai--
faki--
fal--
fam--
far--
fashi--
fay--
fe--
fea--
femin--
feoil--
fi--
fig--
figh--
fill--
fire--
fitz--
flo--
flu--
fo--
fod--
fon--
for--
fow--
fr--
fre--
fred--
free--
fu--
ful--
fy--
fyl--
fyshoayl--
fø--
g--
ga--
gaa--
gab--
gaed--
gala--
galac--
gan--
gar--
gas--
gau--
gd--
ge--
geaish--
geeas--
geir--
gentle--
geo--
geog--
ger--
gh--
gha--
ghar--
ghol--
ghor--
ghun--
gi--
gil--
gleiyn--
glioo--
glo--
go--
gor--
gou--
gra--
gre--
grea--
gree--
gri--
gro--
gu--
gw--
gwa--
gy--
gø--
h--
ha--
hab--
had--
haf--
hag--
hal--
har--
has--
hat--
hay--
he--
hebr--
hed--
hee--
heer--
hei--
heine--
hel--
hemichor--
hen--
her--
hey--
hi--
hie--
high--
hind--
hipp--
hir--
his--
ho--
hob--
hok--
hol--
hoo--
hope--
hors--
hot--
how--
hoy--
hr--
hu--
huff--
humph--
hund--
hy--
hybr--
hym--
hymby--
i--
iau--
ic--
id--
if--
il--
im--
in--
inc--
ind--
indus--
ing--
ini--
insp--
inst--
int--
inter--
io--
ir--
iro--
is--
it--
iu--
j--
ja--
japo--
je--
jee--
ji--
jo--
ju--
k--
ka--
kaby--
kal--
kar--
kat--
kay--
ke--
kee--
kei--
kel--
ken--
ker--
khoek--
ki--
kil--
kilo--
kim--
kin--
kippee--
kle--
kno--
ko--
komm--
kor--
kri--
ku--
kur--
kurd--
kyn--
l--
la--
lag--
lan--
land--
lapp--
lau--
le--
legi--
leo--
les--
lhar--
lhe--
lhi--
lhiag--
lhong--
li--
life--
lig--
lin--
link--
lio--
liv--
ll--
llan--
lo--
lok--
long--
lor--
los--
losh--
lu--
ly--
lyn--
lyr--
m--
ma--
mac--
mag--
magg--
magni--
mai--
mal--
man--
map--
mar--
mau--
may--
mc--
mcm--
me--
mea--
mean--
med--
mee--
meegra--
mel--
men--
mer--
meso--
met--
meta--
mh--
mhana--
mi--
mia--
micro--
mid--
mik--
mil--
min--
mo--
moha--
mol--
mon--
moo--
mor--
mou--
mr--
mu--
mult--
mun--
mur--
mw--
my--
myn--
myth--
n--
na--
nan--
nar--
nd--
ne--
nee--
ner--
neu--
new--
news--
ng--
nh--
ni--
nico--
no--
nor--
norð--
nu--
nuci--
nure--
ny--
o--
oar--
ob--
obser--
oc--
ocs--
od--
og--
ok--
ol--
old--
olloosc--
ommid--
on--
oo--
ooas--
ooash--
oor--
op--
or--
ora--
os--
osh--
ott--
ou--
out--
over--
p--
pa--
pain--
pan--
par--
pas--
pat--
pe--
pel--
pen--
per--
pes--
pet--
ph--
pha--
pho--
pi--
pic--
pick--
pin--
pio--
pir--
pit--
pl--
plas--
plo--
plou--
po--
poan--
poh--
pol--
pop--
por--
pr--
pre--
pri--
prin--
prindeys--
pro--
pry--
psy--
pu--
pueb--
pul--
q--
qu--
qua--
quall--
r--
ra--
rab--
rag--
rai--
raisey--
re--
rea--
recog--
red--
ree--
reeas--
reg--
regi--
rein--
rela--
ren--
rept--
res--
rhe--
rhi--
rhu--
rhym--
ri--
rieu--
rn--
ro--
rob--
rog--
ron--
roo--
ros--
rs--
ru--
run--
ry--
s--
sa--
saa--
sabr--
sac--
sam--
san--
sar--
sc--
scaa--
scar--
sce--
sch--
sco--
se--
sea--
see--
sel--
selec--
sem--
ser--
sh--
sha--
shass--
she--
sheck--
shelt--
shenn--
shi--
shill--
shimbos--
shors--
shri--
si--
sig--
sik--
sin--
situ--
sk--
skea--
sked--
ski--
sky--
sla--
sle--
slo--
smol--
sn--
sna--
snie--
so--
sol--
some--
son--
soo--
sor--
soyl--
sp--
spaa--
spor--
squ--
sr--
st--
sta--
ste--
sti--
sto--
stro--
stug--
su--
sub--
succe--
sul--
sum--
supple--
sur--
sve--
sw--
swa--
sy--
syll--
sym--
t--
ta--
taishby--
tamh--
tan--
tar--
te--
tear--
techni--
tel--
temp--
ter--
terri--
teuto--
th--
the--
thu--
ti--
til--
time--
tiu--
to--
togh--
toil--
tor--
tra--
trans--
tre--
tri--
tro--
troggey--
tru--
ts--
tschere--
tu--
tur--
twi--
ty--
u--
ua--
uach--
uk--
ul--
ull--
ult--
um--
un--
una--
uni--
unnan--
up--
urba--
urs--
urt--
us--
ush--
v--
va--
vagh--
val--
van--
var--
ve--
vee--
veg--
ven--
vep--
ver--
vi--
vic--
vik--
vo--
vol--
voo--
vra--
vun--
vyn--
w--
wa--
wan--
war--
was--
we--
wea--
wel--
whis--
white--
wielko--
wiggyn--
wiki--
wil--
win--
wit--
wo--
wood--
x--
xi--
xian--
y--
ya--
yaz--
yee--
yer--
yi--
yl--
ym--
yn--
yo--
yr--
ys--
yu--
z--
za--
ze--
zo--
zucker--
þ--
þing--
ɕ--
ə--
ɡ--
ɪ--
ʃ--
μ--
μο--
ρ--
в--
д--
игро--
к--
ка--
ко--
л--
м--
н--
но--
од--
п--
с--
сл--
т--
то--
ч--
язык--
י--
מ--
--0
--06
--1
--2
--3
--4
--5
--6
--7
--8
--80
--9
--a
--aa
--aan
--ab
--abin
--able
--ac
--ach
--ad
--adh
--ae
--af
--afagh
--ag
--age
--agh
--aghan
--aghey
--aght
--aghyn
--aghys
--agyn
--ah
--ai
--aid
--aie
--ail
--ailt
--air
--ak
--aks
--al
--ala
--alagh
--alys
--am
--an
--anagh
--ance
--and
--ane
--aneagh
--anee
--aneyn
--ann
--ant
--any
--anyn
--ar
--aragh
--ard
--aria
--arius
--art
--ary
--arys
--as
--ast
--at
--ate
--ated
--ati
--ation
--au
--aw
--ay
--ayl
--b
--ba
--bagh
--baghyn
--base
--be
--bel
--berg
--bes
--bey
--bh
--bi
--bil
--ble
--bo
--bs
--burg
--bury
--by
--byn
--c
--ca
--cal
--cas
--cat
--ce
--ceae
--ception
--ces
--ceus
--ch
--chd
--cht
--ci
--ck
--co
--cock
--cs
--ct
--ction
--ctions
--cula
--cus
--cy
--d
--da
--dae
--dagh
--dail
--dal
--dd
--de
--ded
--dee
--der
--deryn
--derys
--deyr
--dez
--di
--die
--dit
--dle
--dler
--do
--ds
--dt
--du
--dur
--dy
--dyn
--dyr
--dys
--e
--ea
--eagh
--eaght
--eal
--ed
--ee
--eed
--een
--eenit
--eenyn
--eeyn
--eg
--eil
--el
--ell
--ella
--elli
--em
--eman
--en
--ena
--ence
--ene
--ened
--ens
--enstein
--ent
--ents
--enyn
--eo
--er
--eraght
--ere
--erg
--ern
--ero
--ers
--ery
--eryn
--es
--ess
--est
--et
--eth
--ett
--ette
--ey
--eyder
--eyderyn
--eydys
--eyn
--eyr
--eyragh
--eyryn
--eyrys
--ez
--f
--ff
--field
--fs
--ft
--ful
--g
--ga
--gal
--ge
--gee
--ger
--ges
--gey
--gh
--ghe
--ghee
--ghey
--ghid
--ghit
--ght
--ghyn
--ghys
--gin
--git
--gl
--gn
--go
--gs
--gton
--gu
--gue
--gy
--gyn
--gyr
--gys
--h
--ha
--ham
--he
--hes
--hey
--hi
--hia
--hin
--hip
--hir
--hirr
--hl
--hn
--hs
--ht
--hteyr
--htyn
--hu
--hyn
--hyte
--i
--ia
--iagh
--iah
--ial
--ian
--ians
--ibia
--ic
--ica
--ical
--icle
--ics
--icus
--id
--idae
--idyn
--ie
--ied
--iel
--ien
--ier
--ies
--iest
--ifolius
--iformes
--ig
--igh
--ight
--ih
--ii
--ik
--il
--ila
--ilagh
--ill
--iltyn
--im
--in
--ina
--inaghey
--ine
--ing
--ings
--ington
--ink
--inn
--ino
--ins
--inys
--io
--iola
--ion
--ione
--ions
--ios
--ious
--ip
--ir
--ira
--irce
--ireland
--irt
--is
--ish
--ision
--ism
--ist
--istik
--it
--ita
--itan
--ities
--ition
--ito
--ity
--iu
--ium
--ius
--iva
--ival
--ive
--ived
--iver
--ix
--iy
--iyn
--iz
--j
--ja
--jagh
--jar
--jey
--ji
--ju
--jum
--jyn
--jys
--jyssagh
--k
--ka
--ke
--ki
--kins
--ko
--ks
--l
--la
--lagh
--laghey
--lal
--lan
--land
--lann
--laz
--lby
--ld
--le
--led
--lee
--lem
--ler
--let
--lew
--ley
--lf
--lg
--li
--lic
--lid
--lin
--ling
--lit
--lity
--lk
--ll
--lla
--llane
--lli
--llin
--lls
--llus
--lly
--lo
--lock
--logical
--logy
--lon
--ls
--lt
--lton
--ltz
--ly
--lyn
--lys
--lz
--m
--ma
--man
--me
--ment
--ments
--mes
--mey
--mic
--mium
--mmag
--mmee
--mmey
--mos
--mouth
--ms
--myn
--n
--na
--nag
--nagh
--nal
--namint
--nan
--nce
--nces
--ncy
--nd
--nda
--ne
--nee
--neg
--ner
--nes
--ness
--ney
--neyder
--ng
--ngton
--ni
--nia
--nicus
--nid
--nin
--ning
--nit
--nk
--nka
--nko
--nn
--nney
--no
--ns
--nse
--nsis
--nson
--nt
--nte
--nto
--num
--nus
--ny
--nyn
--nys
--o
--ob
--ock
--od
--oe
--ogy
--oi
--oid
--oil
--oin
--ok
--ol
--ology
--om
--omic
--omyces
--on
--onia
--ons
--onyn
--oo
--oon
--oonee
--oose
--ophyta
--or
--ord
--ore
--orm
--ors
--os
--ot
--ota
--otte
--ou
--ous
--ov
--ova
--ovich
--ow
--owitz
--p
--pa
--pe
--pee
--pes
--ph
--phe
--phia
--phyta
--pot
--pp
--ppal
--pus
--q
--r
--ra
--rag
--ragh
--raghey
--raght
--raghtyn
--raghyn
--ral
--ran
--rand
--rd
--re
--ree
--rey
--rg
--ri
--rid
--rie
--rien
--ries
--rim
--rin
--rinys
--ris
--rit
--riz
--rk
--rkagh
--rn
--rna
--rni
--ro
--ron
--rp
--rpe
--rr
--rrym
--rs
--rt
--rth
--rum
--ry
--ryl
--rym
--ryn
--rys
--s
--sa
--sagh
--saghey
--sboro
--se
--sed
--see
--sen
--sey
--sfield
--sh
--shire
--si
--sica
--sid
--sion
--sis
--sit
--sive
--sk
--ska
--soa
--son
--ss
--ssen
--sson
--ssyl
--ssyn
--st
--star
--struction
--styn
--sus
--sy
--syn
--t
--ta
--tag
--tagh
--tal
--tan
--tation
--tc
--te
--tee
--ter
--tes
--tey
--th
--tic
--tid
--tie
--tin
--tine
--tion
--tions
--tis
--tish
--tive
--tnys
--to
--ton
--town
--ts
--tt
--tte
--ttyl
--tum
--tus
--ty
--tyn
--tys
--tz
--u
--uc
--uca
--ude
--ue
--uel
--uge
--ught
--ul
--ula
--ule
--um
--un
--ur
--ura
--ure
--uri
--us
--ut
--ution
--uu
--ux
--v
--va
--vagh
--ve
--ver
--vers
--ves
--vi
--vish
--vity
--vy
--w
--we
--wer
--wick
--wo
--worth
--wr
--x
--xy
--y
--ya
--yder
--ye
--yer
--yl
--yllyn
--ylyn
--ym
--ymasoom
--yn
--ynagh
--yney
--ynt
--yotic
--yr
--yragh
--yrid
--yrtagh
--yryn
--ys
--ysagh
--yssyn
--yu
--z
--ze
--zeg
--zh
--zi
--zta
--ð
--α
--а
--в
--е
--и
--м
--н
--о
--ра
--т
--ть
--х
--ч
--я
