!
"
#
##0
##1
##10
##11
##12
##13
##14
##15
##16
##17
##18
##19
##2
##20
##21
##22
##23
##24
##25
##26
##27
##28
##29
##3
##30
##31
##32
##33
##34
##35
##36
##37
##38
##39
##4
##40
##41
##42
##43
##44
##45
##46
##47
##48
##49
##5
##50
##51
##52
##53
##54
##55
##56
##57
##58
##59
##6
##60
##61
##62
##63
##64
##65
##66
##67
##68
##69
##7
##70
##71
##72
##73
##74
##75
##76
##77
##78
##79
##8
##80
##81
##82
##83
##84
##85
##86
##87
##88
##89
##9
##90
##91
##92
##93
##94
##95
##96
##97
##98
##99
%
&
'
(
)
*
+
,
-
.
/
0
00
000
01
02
03
04
07
1
10
100
1000
11
110
12
120
1237
13
130
135
14
15
150
1561
1569
16
1623
17
1721
1758
1768
1775
1776
1777
1779
1782
1792
1795
18
1806
1812
1813
1814
1816
1817
1821
1823
1825
1827
1833
1842
1844
1850
1856
1858
1861
1862
1864
1867
1870
1879
1883
1891
1893
1897
1898
19
1900
1901
1902
1903
1904
1905
1906
1907
1908
1909
1910
1911
1912
1913
1914
1915
1917
1918
1919
1920
1921
1922
1923
1924
1925
1926
1927
1928
1929
1930
1931
1932
1933
1934
1935
1936
1937
1938
1939
1940
1941
1943
1944
1945
1946
1947
1948
1949
1950
1951
1952
1953
1954
1955
1956
1957
1958
1959
1960
1961
1962
1963
1964
1965
1966
1967
1968
1969
1970
1971
1972
1973
1974
1975
1976
1977
1978
1979
1980
1981
1982
1983
1984
1985
1986
1987
1988
1989
1990
1991
1992
1993
1994
1995
1996
1997
1998
1999
2
20
200
2000
2001
2002
2003
2004
2005
2006
2007
2008
2009
2010
2011
2012
2013
2014
2015
2016
2017
2018
2019
2020
2021
21
210
22
226
23
24
25
250
26
27
28
286
289
29
3
30
300
3000
31
32
33
34
35
36
37
38
39
4
40
41
412
42
43
44
45
46
47
48
49
5
50
500
507
51
52
53
55
56
57
5756
58
59
6
60
600
61
62
63
639
64
65
66
67
68
69
7
70
700
72
75
77999
788
79
8
80
800
8070
81
82
83
85
86
89
9
90
92
9256
94
95
9984
:
;
<
=
>
?
[
\
]
^
_
a
aba
abrinis
acaru
access
acel
aci
acim
acinonyx
acs
administrativai
administrativais
administrativi
administrativu
adress
adresu
adven
adzvinskys
afrika
afrikys
aglyuna
aglyunys
agruok
ai
ail
ailineica
ailini
ailis
ais
aivi
aiz
aizajim
aizasuoc
aizasuoce
aizjam
aizkraukl
aizli
aizprasejums
aizpu
aizsuociejs
aizvard
aja
ajim
aka
akac
akademeja
akademejis
akmin
akmini
akneis
akti
aktivi
al
alban
aleksandra
alfabeta
alfabets
allen
aluojis
alz
am
amerika
amerikys
ami
amu
an
ana
anas
anatolejs
anca
and
andorra
andris
andryva
andryvs
andz
angl
angli
angliskai
ani
anna
annys
antologeja
anu
ap
apaks
apduovana
apgabal
apgabali
aphelocoma
api
apjam
apjamu
apkalpoj
apleice
apleici
apleicin
apleicini
apleicis
apleik
apleikma
apli
apma
apmekl
apmi
aprel
apreli
aprin
aproksta
apru
apstuokl
apstuoklini
apvi
apvydu
apzeimoj
apzin
ar
arabu
archive
arhitekturys
arhivu
ari
armeja
armejis
arrots
article
as
asa
aste
astes
astis
asu
asus
asv
atas
atdal
atdale
atdareita
atdareits
atdu
atdzims
ati
atjaunynoj
atjaunynuos
atjaunynuot
atjaunynuota
atl
atlan
atmeja
atmejis
atmeju
atmu
atostuma
atpakal
atpyutys
atru
ats
atsagri
atsagul
atsal
atsalda
atsarads
atsarass
atsaroda
atsaru
atsas
atsateiku
atsevis
atspaida
atta
atteisteibas
atti
atzare
audeibys
auderu
audim
auds
audyskais
audysku
audze
audzies
aug
augl
augs
augstaine
augstainis
augsts
augstsku
augstu
augstuma
augstumam
augstums
augstuo
augstuokais
augstuos
augu
auguma
auguoji
auguoju
augus
augusta
augusts
aulejis
aun
aurata
auri
auris
auru
aus
australeja
australejis
australia
austrejis
austreju
auteiba
autocel
autoceli
autore
autors
autoru
auz
aven
aves
aviacejis
avydu
azara
azari
azarmale
azarmalis
azars
azarsola
azarsolu
azarsolys
azaru
azeja
azejis
azerbaidz
b
ba
badia
bal
baltu
baroka
baru
bas
baseina
batvin
baum
bava
bayern
baza
bazilika
bazn
bazneica
bazneicni
bazneicu
bazneicys
bazni
be
beidze
beidzs
beigom
beigs
beigu
beiguos
beiguse
beja
bejs
bejus
bejuse
bel
bele
ben
bengalensis
ber
beringa
bes
bet
beverinys
bez
bezdeleiga
bezdeleigys
bi
biblioteka
biblioteku
bibliotekys
bierz
bierzpil
binis
biolib
bis
bitu
biznesa
bl
bloks
blontu
bo
bohe
bol
bolsoj
bolss
bolsuoja
bolsuos
bolsuots
bolta
boltkri
boltu
boltuos
boltys
bolva
bolvu
bon
bondarovys
borkovas
borkovys
brazileja
breidaks
breivuo
bri
britu
brodaiz
bru
bruol
bryunys
bu
bukmuiz
bul
bulgarejis
buoren
burti
burtim
burtini
burtu
bykakmin
byudams
byun
byus
byut
byutu
c
ca
calta
canadensis
canidae
canis
cap
cape
car
cara
caracal
cars
casna
cat
category
catholic
catopuma
cats
catu
caur
ce
cecropis
ceiba
ceibas
ceibu
ceibys
ceiksti
cein
ceirul
ceja
cejis
ceju
cel
celi
celim
cen
centra
centraluo
centraluos
centris
centrs
centru
centrys
cepli
chaus
chicago
ci
cieli
cierkva
cierkvu
cierkvys
cies
cik
ciklopedeja
ciklopedejis
cikom
cil
citrona
cm
colocolo
com
commons
computer
concolor
corvus
cs
ct
cu
cukra
cukrys
cuvier
cyanocorax
cyanolyca
cyblys
cybul
cybuli
cybulim
cylv
cylva
cylys
cynoj
cys
cyskuodu
cyta
cytam
cyti
cytim
cytom
cyts
cytu
cytuos
cytur
cytus
cytys
cyukys
d
da
dabasu
daber
daboj
dabojami
dabuoja
dabuojs
dabuot
dabuotu
dagda
dagdys
dagul
dai
dailis
dal
dale
dalei
dalej
dalejums
dali
dalikt
dalineica
dalini
dalis
dam
dama
damat
dami
dams
dan
daneja
danejis
daneju
dani
dar
dara
darbeiba
darbeibai
darbeibu
darbeibys
darbini
dareit
dareitova
dareitovys
dareituoja
dareituoji
dareituojs
dareituoju
dareja
darejs
darejus
darejuse
dars
daru
das
dasas
dasi
dasle
dasna
dasne
dasys
data
datakys
dati
datim
datora
dators
datoru
datu
datubaza
daudz
daudzejis
daudzeju
daudzi
daudzskaits
daudzu
daudzums
daudzuok
daugavpils
daugova
daugovpil
daugovpili
daugovu
daugovys
daugpil
daugpili
davi
davoj
davom
davuos
daz
de
deiba
deibu
deibys
deiga
deigys
deis
deit
dej
deja
dejis
deju
dekabra
deklinaceja
deks
deksu
dekteri
dekteru
del
demokratisku
demokratiskuo
den
denavydpustum
dendrocitta
deputats
der
deram
deri
derim
derlands
deutsche
deutschland
deve
di
dialekta
diardi
diel
diena
dija
dinaburg
dinavejis
dini
direktors
dis
disertaceju
div
divdesmit
divejim
diveju
divu
diz
dizel
dluz
dni
dns
do
doba
dobys
doca
doktora
dokumentu
dol
dom
dora
dorba
dorbi
dorboja
dorbs
dorbu
dorbuojuos
dorbus
doru
dostojevska
dpli
dra
dre
dreiba
dreibu
dreibys
dreidz
dreidzs
dreiz
dri
drik
dris
dru
druh
drujis
drupeit
dryca
drypata
drys
ds
du
dubna
dubul
duos
dus
dve
dvein
dvorc
dybyns
dybynuota
dynaburga
dynaburgs
dynaburgu
dynavid
dys
dyun
dz
dze
dzeida
dzeive
dzeivi
dzeivini
dzeivis
dzeivni
dzeivoj
dzeivoju
dzeivova
dzeivul
dzeivuli
dzeivuoja
dzeivuojs
dzeivuojus
dzeivuot
dzeivuotuoji
dzeivuotuojim
dzeivuotuoju
dzeja
dzejas
dzejis
dzeju
dzel
dzen
dzi
dzierkal
dzil
dzili
dzims
dzinini
dzis
dzyms
dzymta
dzymtu
dzymtuo
dzymtys
dzymus
dzymuse
e
east
ed
eesti
egl
eibu
eibys
eica
eidz
eipas
eiropys
eis
eisa
eistyn
eistynu
eistynuos
eisu
ej
ekonomika
ekonomikys
ekonomiskuos
ekspertu
ekzistej
el
elementi
elementu
els
elu
eluokais
eluokuo
emais
emaitejis
en
enciklope
encyclopedia
english
eni
eona
eonovs
eons
erel
eru
es
esis
etrim
etrys
eura
eurazeja
eurazejis
europa
europe
european
europys
euru
eurys
eva
evic
ez
ezeri
ezers
ezs
f
faili
fails
faktu
fakul
februara
federaceja
federacejis
federaluo
federativuo
feiman
fel
felidae
felis
ferdinands
festival
festivala
fil
filials
filma
filmys
filologejis
fiona
fiziks
fol
folklora
folklors
folklorys
fon
fona
fondu
for
forma
formom
formu
formys
fox
fran
franc
francis
franku
fri
funkcejis
futbola
g
ga
gabalen
gabalenim
gada
gadi
gai
gail
gais
gaisa
gaisma
gaismys
gaisu
gal
gale
gali
galis
garu
garuma
garums
garz
gatava
gatave
gatavis
gavien
gazeta
gedimina
gel
generaldireceja
geoffroy
geoffroyi
geografiskai
geografiskuo
gepards
gerba
gerbs
gercogiste
gercogistis
germanu
gersikys
gi
gimnazeja
gin
gl
gli
gne
go
goda
godam
godi
godim
gods
godu
goduos
godus
godusymta
godusymtu
gola
golam
goldam
goldman
golos
golva
golvmi
golvonais
golvoni
golvonu
golvonuo
golvonuos
golvu
golvys
golvysmi
gon
gona
gondreiz
google
gora
goreigos
gors
goru
gothards
gotu
gov
gr
gra
gradi
graiz
gramatika
gray
gregora
greivys
greku
gri
grib
gribi
grifs
gruomota
gruomotom
gruomotu
gruomotys
gruoveru
grupa
grupys
grybuli
gs
gt
gtin
gts
gu
guigna
gul
guma
gums
gun
guoja
guojs
gvineja
h
ha
head
hilaire
himna
himnys
hirundo
hokeja
homo
htm
html
http
https
i
ia
ianam
ians
icins
id
iedi
ieds
iedzi
igaun
igauneja
igaunejis
igauneju
ii
iii
il
ile
im
ima
imdb
impe
imperators
imperejis
in
ina
indoeuropi
indreicys
industrejis
informaceja
informacejis
informaceju
ini
inis
instituta
instituts
internatpamats
internats
internet
ip
iprage
ir
ira
iraid
irs
iru
is
isbn
islama
island
iso
isors
iste
isti
istis
istrys
it
itai
itaidys
ital
italeja
italejis
itali
itama
ite
itei
iti
itu
ituo
ituos
ityma
itys
iucn
iudin
iudini
iz
izace
izacel
izaglobuojus
izalikaliejuse
izas
izcel
izdavumu
izdevni
izdu
izgleiteibas
izgleitojamaji
izglobuot
izguoja
izi
izjam
izlaids
izli
izlu
izpil
izs
izsaceiba
izsaceibys
izslivs
izslyvus
izsoka
iztak
izvard
izvolta
j
ja
jackson
jai
jam
jama
janina
janvara
janvari
japani
japoneja
jau
jauna
jaunagoda
jaunagods
jaunais
jauni
jaunmeitovys
jauno
jaunovys
jaunu
jaunuo
jaunys
java
je
jeb
jefa
jei
jersikys
jes
jevg
jezuitu
jezupa
jezups
jezus
ji
jim
jima
jims
jimt
jimts
jis
jiura
jiursola
jiursolu
jiuru
jiurys
jo
jom
jons
jonu
js
ju
jubatus
jugendstil
jul
juleja
juma
jums
jumu
jun
juo
juon
juos
jusi
jys
k
ka
kab
kac
kad
kai
kaida
kaidu
kaidys
kaine
kairaja
kais
kaita
kaitu
kaituos
kaitys
kak
kal
kale
kalen
kalendars
kam
kan
kanada
kanals
kanalu
kanepu
kapca
kara
karal
karogs
karten
karu
kas
kasdi
kastulinys
kato
katol
katuol
katuoli
kaunatys
kaunotys
kaunys
kaupraine
kaupris
kaupru
kausa
kavieklis
kazimirs
ke
keguma
keire
keisiel
kel
kemps
kenberga
keneja
kenejis
kepovys
kerr
ketlers
kevic
kg
ki
kienen
kieneste
kiera
kierta
kierti
kierts
kiertu
kiertuos
kiertys
kilba
kilometru
kilometrus
kim
kimejis
kimzi
kina
kini
kinopoisk
kinys
kir
kira
kiras
kireiba
kireibu
kireibys
kireiga
kireigi
kireigim
kireigu
kirs
kiru
kirys
kl
kla
klase
klasis
kle
kles
kli
klimata
klimats
kliva
klu
klubs
kluos
kluot
klys
km
kne
knuoja
ko
koc
kod
koda
kods
kodu
kola
kolai
kolas
kolka
kolkoza
kolkys
kolna
kolni
kolnim
kolns
kolnu
kolom
kolpoj
kolu
koluos
koluotuojim
koluotuojs
koluotuoju
kolys
kom
komanda
komisejis
komponists
komuna
komys
kon
kongo
kongresa
konigzi
konsepsjons
konstan
kontrolis
koordinatys
kopi
kopu
kora
koraspa
koreja
koreji
korejis
korpusa
koru
kotru
koza
kra
krauklis
kreit
kri
kriejuma
kriejums
kriejumu
kristi
kroksta
krosta
kru
kruosa
kruoslova
kruoslovys
krys
krysta
krystapil
krysts
krystus
krytul
kryumu
kryutez
kryuts
kryvandys
ks
kslas
ksne
ksnis
ksta
kste
kstis
ksts
kstu
kti
kts
ku
kubmi
kul
kultu
kultura
kulturu
kulturviesturis
kulturviesturiskuo
kulturys
kumbul
kunigaiks
kuo
kuok
kuorl
kuormi
kuorms
kuormu
kuorsova
kuorsovys
kuorta
kuos
kuove
kuozynda
kuprovys
kur
kura
kuram
kurama
kuri
kurim
kurs
kursi
kuru
kuruos
kurus
kuryma
kurys
kurzemis
kus
kustu
kval
kvi
kys
l
la
labeibys
labi
labtik
lads
ladslaiku
laduoju
lai
laidi
laik
laika
laikagruomota
laikavydu
laiki
laikroksta
laikrokstu
laiks
laiku
laikvuordu
laistuve
laiza
language
languages
las
lasejuma
lasejumi
lasejums
lasejumu
lasi
latgal
latgale
latgales
latgali
latgalian
latgalica
latgalies
latgalim
latgaliskai
latgaliski
latgalisku
latgaliskuo
latgaliskuos
latgalys
latgola
latgolai
latgolas
latgolu
latgolys
latin
latv
latveja
latvejis
latveju
latvi
latvies
latvija
latvijas
latvyskai
lauru
lauskys
le
leic
leici
leics
leidakys
leidumni
leidz
leidza
leidzaskan
leidzeiga
leidzeigs
leidzeigys
leidzi
leidzonaine
leidzonainis
leiksna
leiksnys
leikuma
leikums
leita
leivuona
leivuons
lej
lejis
lel
lela
lelais
lelaja
lelajim
lelaju
lelakmin
leldi
leli
lellaivu
lels
lelu
leluma
lelumam
lelums
lelumu
leluo
leluoka
leluokais
leluoki
leluoks
leluoku
leluokuo
leluokuos
leluos
lelys
lem
leopard
leopards
leopardus
leptailurus
lg
li
lici
liga
light
lighthouse
likvida
likvidieja
limbaz
lineja
linejis
linnaeus
lis
literaru
literaruos
literats
literatu
literatura
literaturu
literaturys
literim
literu
litinis
litri
litris
livonejis
lizeiku
lo
loba
lobaja
lobi
lobs
lobu
lobuok
lobuos
lopa
lopom
lopu
lopys
lozdulejis
lpp
lrra
ls
lsdsp
lt
ltg
ltv
lu
lubuona
lubuons
ludza
ludzys
lukas
lums
luoc
luok
luots
luotuoja
luotuoju
lupus
luse
lv
lykumu
lyni
lynsa
lynu
lynx
lys
lyugs
lyukstys
m
ma
mads
magistris
mail
main
maisi
maizis
maja
makla
maksimil
mal
male
malgas
malni
malnovys
malns
malnuo
malnuos
malta
maltas
maltys
mammals
man
manul
mara
marejis
margarita
marin
marmorata
mars
marta
mas
masys
materiali
materials
me
medn
meikli
meiksta
mejis
mekle
mel
men
mes
metri
metropolejis
mez
mi
michael
michigan
mienes
mienesi
mieness
miers
miglini
mihails
mik
mil
milijoni
milijonim
min
mine
minekl
minhene
minhenis
miniekl
miniekli
minieklis
minis
ministru
mirs
mis
mitologeja
mitologejis
mln
mm
mo
mobilu
model
modelies
modyune
modyunis
moj
mola
molina
molu
molys
moskova
moskovys
moz
moza
mozais
mozam
mozu
mozuo
mozuok
mozys
mpls
ms
mu
mucovys
mudovys
muiz
mula
muma
mumi
mums
mumu
muna
muokslini
muokslys
muokul
muola
muos
muotainis
mura
museum
mustela
muzeja
muzejs
muzyka
muzykys
mylti
myltu
myltus
myna
myra
myrs
myrus
mys
myssva
myurini
myusdi
myuslaikim
myuslaiku
myusu
myuz
n
na
nabeja
naceju
nacik
nacionalais
nacionaluo
nacionaluos
nai
nakai
nakod
nakts
nalel
nalela
nalelys
nali
nam
name
nami
nams
nanu
napalela
napatuol
napaval
napi
napol
napys
naratys
narcissus
nas
naskaita
nato
natuol
natuoli
natur
nautra
nav
nava
navin
navydim
navydreitu
navydu
navydvokoru
nazcik
nazkod
nazkodejuo
nazkodejuos
nazkur
ne
nebulosa
nei
neiba
neibu
neibys
neica
neicgal
neigais
neigi
neiguo
neiguos
neits
nem
neofelis
nes
net
new
news
ni
nierzys
nigripes
nijs
nikod
nikolaja
nim
nis
niu
niule
niulejuo
nivi
nkuors
no
nojabra
nokia
nom
nome
noms
nomu
norvegeja
norvegejis
norvegi
norvegu
notiochelidon
nova
novads
nr
ns
nu
nuoja
nuojis
nuos
nuovis
nyctereutes
nys
o
obadivejis
obadiveju
obeju
objekta
objekti
objekts
objektu
of
oficialai
oficialo
oficialuo
ogota
ogotys
ogruok
oj
okeana
oknu
oktobra
okupa
ola
oleja
olejs
oleju
olimpiskajuos
olu
olyuksnys
om
ombumuiz
omotys
on
ona
onai
onas
onca
ondrupinis
online
ontons
onu
onuos
onys
opera
opinku
opskovys
opys
orden
ordin
ordini
ordyna
org
organizaceja
organizacejis
organizaceju
organizies
oro
ortografejis
os
oskars
osotys
osu
osyuna
otkon
otocolobus
otto
ova
ovs
ovu
ovuos
ovys
ozbora
ozbors
ozboru
p
pa
pacel
padaleita
padali
padola
padu
pagasti
pagasts
pagastu
pagrauda
pagri
pagul
pajeros
pajiemi
pakal
pakl
pakuopi
pal
pala
paleidz
paleigs
pali
palykus
pamata
pamats
pamatsku
pamatu
paneju
panthera
paplateits
par
para
paradza
parapeja
parapejai
parapejis
pardalis
pardofelis
pardus
parec
pareizraksteibys
parka
parks
parku
parlamentarisku
parlaments
parostai
parostais
parostu
parostuo
parteja
partejis
parteju
partu
paru
paruoda
paruode
pas
pasaca
pasacel
pasadarejs
pasadora
pasaja
pasaruoda
pasaruodi
pasauka
pasaukai
pasaukom
pasaukts
pasauku
pasaukys
pasaul
pasauli
pasaz
passeriformes
pastateita
pastateits
pastateja
pastini
pasu
pat
patautys
patmalis
pats
paval
pavalis
pavasara
pda
pdf
pe
pebral
pedagogs
peibys
peigais
peira
peisi
peisu
pel
perekl
perekli
periodika
perisoreus
peru
petel
petrochelidon
petru
pi
pica
pie
piec
pil
pili
piliskolns
pirmini
pirms
pkolns
pl
placu
planaveibys
planavi
planetys
plas
plasi
plaukstini
pli
plieseigais
plok
plotums
pluok
pluota
pluots
pluotu
plysu
po
pocock
podoces
poezeja
poezejis
pog
pogosta
pogosti
pogostim
pogosts
pogostu
point
pol
polacka
politika
politiks
politiku
populars
por
portals
portuga
portugali
pos
posta
posyunis
pp
pr
pran
pranc
pravoslavu
preil
preili
premeja
preses
presis
press
pret
prezidents
pri
prionailurus
procesa
process
procesu
profelis
profil
progne
programa
programys
projekta
projekts
projektu
protocol
protokols
protokolu
provin
pru
pruotini
pruottelefonim
pruottelefonu
pryus
ps
psalidoprocne
psl
psrs
pu
public
publica
publice
publicists
publikaceja
publikacejis
pul
puma
pums
punkts
puol
puoleja
puolejis
puoli
puor
puordru
puordu
puorguoja
puori
puorlaida
puorlaide
puorlaidis
puorlaidys
puorlaiz
puorman
puormej
puors
puorsauce
puorsaukta
puorsaukts
puorstaipteikla
puortykys
puorva
puorve
puorvierss
puotarni
puovula
purynu
pus
puse
pusei
pusi
pusis
puslopu
pusrutul
pussola
pussolys
puta
putni
putnu
putnys
putruomu
putyns
putys
pylda
pyldys
pypyri
pypyru
pyrma
pyrmais
pyrmaja
pyrmi
pyrms
pyrmu
pyrmuo
pyrmuos
q
r
ra
radeis
radeit
radeja
radejis
radneiga
raisteiba
raisteibu
raisteibys
rajona
rajonu
raksteiba
raksteibys
raksteis
raksteit
raksteita
raksteiti
raksteits
raksteja
rakstejs
raksti
rakstini
rakstni
ram
ranca
ras
rauda
raudive
rauga
rdi
rds
rdz
rdzinis
re
red
redaktors
redz
redzi
regiona
regionali
regions
regionu
registra
regularai
reiga
reigai
reigys
reindeer
reitim
reitu
reitulatvejis
reiz
reizi
reizis
reja
rejai
rejis
rekovys
rel
religeju
reorganizej
republika
republikys
res
resursu
retrieved
revol
rez
rezervats
rezultata
rezultats
ri
ribinis
rim
riparia
ris
rkiun
rkste
rkstis
rkuonu
rmastinis
rn
rni
rnim
rns
rnu
ro
roberts
rod
roduos
roga
rogoukys
rokmuzykants
rokoko
roksta
roksti
rokstoms
roksts
rokstu
role
roma
romans
romas
romys
rs
rseite
rsna
rsoj
rsteikla
rsuojs
rt
rtini
rtu
ru
rubiginosus
rudin
rudza
rudzu
rufus
ruguoju
rul
runa
runda
runoj
runoju
runys
ruoda
rupain
rupu
rus
rutuleis
rys
ryuc
rzeme
rzemis
rzovys
rzu
s
sa
saaugus
saber
sabi
saceisim
sacel
sadaleja
sadalejs
sadora
sadraudzebys
sadraudzeiba
sadraudzeibys
sadurs
saeima
sagatava
sagri
sai
saime
saimei
saimesteibys
saimi
saimis
saimisteiba
saimisteibys
saimni
saint
saitom
saitys
saje
sak
sakn
sakstygola
sal
saldus
sali
sama
samaisa
samal
sami
samiereigais
samu
san
sanu
saprati
sapru
sariedi
saroksta
saroksts
sarokstu
sas
sasadola
sasadora
sasadoru
sasauksme
sasaveici
sasi
saski
saskys
saspri
sast
sastuoja
sataisa
sataiseita
sataiseits
sataiseja
sateikams
sateikamys
sative
sauc
sauce
saukts
saul
saule
saulis
sausi
savi
schinz
schreber
se
seibom
seibu
seibys
seil
seima
seiman
seimys
sejis
seles
seminara
sen
seneji
seneju
senejuos
septeituos
septembri
septen
septenim
serval
ses
sevi
sevim
sevis
sevkura
sevkurs
sevkuru
sezona
si
sibira
sici
sieleja
sielejis
sien
sil
silvestris
simbols
simten
sin
sirds
sistema
sistemu
sistemys
ska
skaidra
skaista
skaistumu
skaistvabalis
skaita
skaitam
skaiteis
skaiteit
skaiteits
skaiteja
skaitl
skaits
skaitu
skan
skolns
skoloj
skri
skrynda
sku
sla
slavu
slu
slys
sme
smel
smil
smis
smogim
smolkai
sna
sni
so
socialistiskuo
socialu
socialuo
soka
sokolku
sol
sola
solai
soldons
solnys
solom
solon
solsaimesteibai
soltu
solu
solujuon
solujuoni
soluos
solys
sorgojama
sorgojamu
sorkonaja
sorkoni
south
sova
sovai
soveibni
soveibys
soveiga
soveigs
soveigys
sovetu
sovom
sovru
sovs
sovu
sovus
sovval
sovys
spa
spaiti
spani
spe
specialiteta
specialo
specialu
species
speidyns
spi
spiel
sporta
spri
spu
spuornu
ss
ssrs
st
sta
stabul
staceja
stacejis
staceju
stafecka
stal
stam
stan
standarta
stanislava
staroveri
staroveru
starp
state
stateiba
stateis
stateit
stateita
stateits
stateitu
stateja
statis
statistics
statistika
statuss
statusu
ste
steiba
steibai
steibom
steibu
steibuos
steibys
stelenbos
sti
stil
stila
stinis
stiskaja
stisku
stiskuo
stiskuos
stota
stoti
stots
stotu
stra
straume
strix
strods
strodu
struodova
sts
stu
studeju
studentu
studiejs
studin
studini
stul
stum
stumreitu
stumu
stumvokoru
stun
stuos
stuosts
stuov
stuovi
stuovu
styga
stykla
stypru
styprys
su
sulu
sun
sunquist
suoc
suoca
suoce
suocu
suoda
suodu
suoka
suokta
suoku
suokuma
suokuos
suol
suomejis
suomeju
suomu
suomugru
suonkauleis
suova
susa
sutru
sv
sva
svacainis
svahili
svareiga
svareigs
svareigu
svareiguoki
svaren
sves
svi
svietneica
svitys
svors
sylajuon
sylmolys
syltuma
symta
symten
symtu
sys
system
syuteis
syuteits
t
ta
tachycineta
tadz
tai
taida
taidi
taids
taidu
taidus
taidys
taigys
taipat
taipos
tais
taisa
taise
taiseis
taiseits
taisis
taiss
taju
tak
taka
taku
takys
tal
talina
talins
tam
tamdiel
tapa
tas
tauni
tauta
tautas
tauteibu
tauts
tautu
tautys
tautysdzi
taxonu
te
teatra
teatri
teatris
teci
tehnologeja
tehnologejis
tehnologeju
tei
teic
teik
teikla
teiklavi
teiklu
teja
tejis
teju
tejuos
tekstim
tekstu
tekstus
tel
telefonu
tem
temminck
temminckii
temperatura
temu
ten
teologejis
tera
terburga
terehova
teritoreja
teritorejis
teritorejom
teritoreju
teritorejuos
teritoriskais
termini
termins
terneta
terpil
terpili
ters
teta
tetu
tev
the
thomas
ti
tic
ticeiba
ticeibu
ticeibys
ticeigi
ticeigu
tics
tiemej
tiemies
tierdzeibys
tierga
tigrinus
tik
tika
tikai
tiks
tikt
til
tim
tina
tini
tinovys
tins
tipa
tis
tistu
tivs
tki
tku
tkus
tne
tni
tnis
to
tod
toj
tojamuo
toju
tok
tom
topa
tors
toru
tova
tovu
tovys
tra
tradicejis
tradicionalais
tradicionals
trais
transmission
transporta
trasuns
trauciejumim
travel
treis
trejmiereiga
trejmiereigs
treju
tres
tri
tru
truo
trys
ts
tt
tu
tuks
tuma
tuo
tuoja
tuojs
tuoju
tuokuos
tuol
tuos
tuot
tuota
tuoti
tuots
tuotuoja
tur
turcejis
ture
turi
turisma
turistu
turku
turu
tus
tveris
tvi
tvuordu
tygrs
tyka
tyktu
tylts
tyltu
tyma
tymsai
tys
tyukstu
tyvai
tyvuma
tyvuokuo
u
uceja
uci
udin
udviga
udvigs
ugure
ukc
ukolna
ukrain
ukraina
ukraini
uks
ul
uma
ume
ums
un
uncia
und
unesco
universiteta
universitets
universitetu
university
uo
uobel
uodu
uojs
uok
uonu
uorais
uore
uoreju
uoris
uors
uorsts
uos
uota
uots
uotu
uove
upe
upeite
upeitis
upi
upis
uplinska
upmalis
upu
uralu
urbanskis
url
urna
urnala
urnals
urnalu
urocissa
urocyon
us
ustobys
utaru
uva
uve
uz
uzjims
uzskateits
v
va
vabal
vabalis
vacmi
vacs
vacu
vacuma
vacumu
vacuoku
vad
vadeiba
vadeito
vadeituojs
vadeituoju
vadeja
vadumam
vadumi
vadynuotuojs
vai
vaicuojumim
vaidu
vain
vaine
vaini
vaira
vairuok
vairuoki
vairuokys
vajadzeibys
vajag
val
valdi
valdni
valeimu
valen
valna
valoda
vam
vamuotis
van
vandal
vanoms
var
vara
varakl
varams
vard
vardpu
vare
vareibu
vari
varkys
vars
varu
ve
vede
vedeja
vedejis
vedeju
vedu
vef
veicarejis
veice
veicis
veinu
veipa
veireits
veiri
veirs
veiskups
veja
vejis
veju
vel
vengreja
vengrejis
vengru
ventspil
vera
veremu
verhn
veri
verseja
versejis
ves
vests
vi
vicebskys
viecis
vieja
vienka
vieri
viern
viers
viersa
viersliga
viersu
viersyune
viersyunis
vierteibys
viesteitivu
viestule
viesture
viesturi
viesturis
viesturiskai
viesturiskais
viesturiski
viesturisku
viesturiskuo
viesturiskuos
viesturni
vii
vikipedeja
vikipedejis
vikiteka
vil
vileks
vim
vin
viri
vis
viski
vitel
viverrinus
vjl
vo
voda
vodam
vodi
vods
vodte
vodu
vogys
voi
vokorim
vokoru
vol
volda
volds
voldu
volu
von
voru
vorys
vosorys
vota
vs
vu
vuiceibu
vuiceibys
vuiceji
vuicejuos
vuicejus
vuicejuse
vulpes
vuoceja
vuocejis
vuoceju
vuoci
vuocu
vuorda
vuordam
vuordi
vuordim
vuordineica
vuords
vuordu
vuordus
vuorkovys
vuorna
vuornys
vus
vyda
vyds
vydsdal
vydsgul
vydslaiku
vydsmuiz
vydss
vydssku
vydu
vydums
vydyskai
vydyskais
vydyskuo
vydzeme
vylki
vylks
vyrovi
vyrtu
vyrtys
vys
vysa
vysaideiba
vysaidu
vysaiduos
vysaiz
vyscaureigais
vysi
vysim
vyskai
vysnovys
vysod
vysom
vyss
vysu
vysuci
vysucies
vysuleluokais
vysuleluokuo
vysuos
vysus
vysusva
vysuvaira
vysys
w
wales
we
web
wiedii
wikimedia
wild
wilson
wolf
world
www
x
xiii
xiv
xix
xvi
xviii
xx
y
yagouaroundi
ydi
ydu
you
ys
yun
z
za
zal
zalta
zam
zamaine
zamainis
zamos
zams
zamsaime
zamyn
zapi
zaudieja
ze
zeiba
zeime
zeimebys
zeimeiba
zeimeibu
zeimeibys
zeimeiga
zeimeigs
zeimeigu
zeimeiguoku
zeimis
zeimoj
zeimuot
zekne
zeknes
zeknis
zel
zeme
zemes
zemgal
zemi
zemis
zemisvieri
zemisviersa
zemni
zemu
zi
ziern
zin
zina
zine
zineiba
zineibu
zineibys
zinini
zinis
zinisku
zipf
zipfa
zis
zivs
zmin
zna
zne
znis
znu
znys
zoology
zs
zt
ztu
ztys
zu
zuls
zvaigz
zvaigzne
zvi
zviergzdin
zviers
zvieru
zyla
zyluo
zynoma
zynoms
zynuos
zys
zyvu
{
|
}
~
«
°
²
³
»
½
łobez
ˈ
̀
́
̂
̃
̄
̆
̇
̈
̊
̋
̌
̣
̧
̨
α
θ
а
библиотека
в
г
е
евгении
и
кошка
м
н
п
по
россии
с
санкт
ская
ф
ְ
ֱ
ִ
ֶ
ָ
ּ
־
א
ב
ד
ה
ז
י
ל
ן
ר
ٔ
ा
–
—
’
“
”
„
†
•
…
′
″
€
↔
↷
−
③
④
⑦
⺀
⺄
⺆
⺈
⺊
⺌
⺕
⺝
⺸
⺼
⿰
⿱
⿲
⿳
⿴
⿵
⿶
⿷
⿸
⿹
⿺
⿻
〢
コ
ユ
㇁
㇂
㇄
㇇
㇈
㇉
㇓
㐁
㐄
㐅
㐌
㐫
㐬
㐭
㐮
㐱
㑒
㒵
㒸
㒼
㓁
㓞
㔾
㕛
㕣
㖾
㘝
㚅
㚇
㚔
㚘
㝉
㝡
㝴
㝵
㞋
㞢
㞷
㠩
㠭
㠯
㡀
㡭
㡿
㢲
㢴
㣇
㣺
㥯
㪅
㫄
㫐
㫒
㫺
㬅
㬎
㬥
㬰
㲋
㳄
㷠
㸒
㸚
㸦
㼌
㼲
㽞
㿟
䀠
䂞
䍃
䏍
䒑
䖍
䖒
䖝
䖵
䙴
䚻
䜌
䝿
䡛
䧹
䪞
一
丁
丂
七
丄
丅
丆
万
丈
三
上
下
丌
不
与
丏
丐
丑
专
且
丕
世
丘
丙
业
东
丞
丢
丣
两
严
並
丨
丩
个
丫
丬
中
丮
丰
丱
串
丵
丶
丷
丸
丹
为
主
丽
丿
乀
乂
乃
久
乆
乇
么
义
之
乌
乍
乎
乏
乐
乑
乔
乖
乗
乘
乙
乚
乛
乜
九
乞
也
习
乡
乳
乾
亀
亅
了
亇
予
争
事
二
亍
于
亏
亐
云
互
亓
五
井
亘
亚
亜
亞
亟
亠
亡
亢
交
亥
亦
产
亨
亩
享
京
亭
亮
亯
亰
亲
亳
亶
亷
人
亻
亼
亾
仁
今
介
仌
从
仐
仑
仒
仓
仕
他
付
仝
代
令
以
任
企
伊
伏
伐
休
会
伯
但
位
何
佘
余
作
佥
使
來
侈
侌
侖
侯
侵
便
保
俞
信
修
倉
倍
候
倠
備
僉
僕
儿
兀
允
兂
元
兄
充
兆
兇
先
光
兊
克
兌
免
兑
兒
兓
兔
党
兜
兟
入
全
兩
兪
八
公
六
兮
兰
共
关
兵
其
具
典
兹
兼
冀
冂
冃
冄
内
冈
冉
冊
冋
册
再
冎
冏
冐
冒
冓
冖
冗
冘
军
农
冝
冡
冥
冫
冬
冷
几
凡
凢
凵
凶
凷
凸
凹
出
函
凾
刀
刁
刂
刃
刄
刅
分
切
刍
刑
刕
刖
列
刘
则
初
別
利
别
到
制
刺
則
削
剌
前
剡
剽
劉
力
功
加
劦
助
劫
劳
劵
勃
勇
勉
勒
動
務
勞
勤
勹
勺
勻
勾
勿
匀
匂
包
匆
匈
匊
匋
匍
匕
化
北
匚
匝
匡
匪
匱
匸
匹
区
医
匽
匿
區
十
卂
千
卄
卅
卆
升
午
卉
半
卌
华
卑
卒
卓
单
卖
南
卜
卝
卞
占
卡
卢
卣
卤
卦
卩
卪
卬
卯
印
危
即
却
卵
卷
卸
卻
厂
厃
厄
历
厈
厉
厌
厓
厘
厚
原
厤
厥
厨
厭
厲
厶
厷
厸
去
厼
厽
叀
参
參
叅
又
叉
及
友
双
反
叐
发
叒
叔
叕
取
受
叚
叜
叟
口
古
句
另
叩
只
召
可
台
叱
史
右
叵
号
司
叹
吂
各
吅
合
吉
吊
吋
同
名
后
吏
向
吕
君
吝
吞
否
含
启
吳
吴
吹
吾
呂
呆
呈
告
员
呙
周
命
咅
和
咎
咠
咢
咨
咸
咼
哀
品
哉
員
哥
哲
唐
商
啇
問
啚
啬
啻
善
喜
喬
單
喿
嗇
噩
嚴
囊
囗
囘
囙
囚
四
回
囟
因
囧
囬
困
囱
囷
固
国
圂
圅
國
圍
圓
土
圡
圣
圥
在
圭
地
圶
圼
坐
坒
坚
坴
垂
垔
垚
埀
埋
埶
執
基
堂
堅
堆
堇
堯
塞
墨
壘
士
壬
壯
声
壳
壴
壹
壺
壽
夂
处
夅
夆
备
夊
夋
夌
复
夏
夒
夕
外
夗
夘
多
夜
夢
大
夨
天
太
夫
夬
夭
央
失
夲
头
夷
夸
夹
夻
夾
奂
奄
奇
奈
奉
奎
奏
奐
契
奓
奔
奚
奞
奠
奢
奥
奭
女
奴
奻
好
如
妄
妙
妟
妥
妻
妾
姑
委
姜
威
娄
婁
婴
嬰
嬴
子
孑
孔
孕
孖
字
存
孚
孛
孝
孟
季
孤
学
孫
孱
學
宀
宁
宂
它
宅
宇
守
安
宋
完
宏
宓
宗
官
定
宛
宜
宝
客
宣
室
宮
宰
害
家
容
宾
宿
寄
寅
密
富
寒
察
寧
審
寫
寬
寮
寸
对
寺
寻
寽
対
寿
封
尃
射
将
將
專
尉
尊
尋
尌
對
小
少
尒
尓
尔
尖
尗
尚
尞
尢
尣
尤
尧
尨
尭
就
尸
尹
尺
尻
尼
尽
尾
尿
局
居
屈
屋
屎
屏
屑
展
屖
屚
属
屠
屡
屬
屮
屯
屰
山
屵
屾
岁
岂
岑
岡
岩
岳
岸
峯
島
崇
崑
崔
崖
崙
崩
嵬
嶲
巂
巛
川
州
巟
巠
巢
巤
工
左
巧
巨
巩
巫
差
己
已
巳
巴
巷
巸
巽
巾
巿
帀
市
布
希
帚
帛
帝
带
師
席
帶
常
干
平
年
幵
并
幷
幸
幺
幻
幼
幽
幾
广
広
庄
床
底
店
庚
府
度
庫
庭
庶
康
庸
廉
廌
廛
廣
廩
廴
延
廷
建
廾
廿
开
弁
弃
弄
弇
弋
式
弓
弔
引
弗
弘
弜
弟
弥
弦
弱
張
強
强
彊
彌
彎
彐
彑
当
彔
录
彖
彗
彡
形
彥
彦
彧
彭
彳
役
彼
往
待
律
徒
得
徙
從
復
微
徵
心
忄
必
忌
忍
志
忝
忠
忩
快
念
忽
忿
思
怠
急
怱
恆
恒
恩
恭
息
悉
患
悤
悲
悶
惠
惡
惢
愁
愈
意
愛
感
慈
慧
慮
憂
憲
應
戀
戈
戉
戊
戋
戌
戍
戎
成
我
戒
戔
或
戚
戠
戢
截
戲
戶
户
戹
戼
戾
房
所
扁
扇
手
扌
才
打
托
执
承
折
拉
拜
拿
掌
推
提
摩
支
攴
攵
收
攸
改
放
政
敄
敏
敕
敖
敗
敝
敞
敢
散
敦
敫
敬
数
敷
數
斂
文
斉
斊
斗
斤
斥
斩
斬
斯
新
方
於
施
斿
旁
旋
族
无
旡
既
旣
日
旦
旧
旨
早
旬
旱
旲
时
旾
昆
昇
昌
昍
明
昏
易
昔
昗
昜
星
春
昬
是
昱
昴
昷
時
晃
晋
晏
普
景
晶
智
暑
暴
曇
曩
曰
曲
曳
更
曷
書
曹
曼
曾
替
最
朁
會
月
有
朋
服
朔
朕
朗
望
朝
木
朩
未
末
本
札
朮
术
朱
朵
朶
朿
杀
杏
杜
束
条
来
東
杲
杳
松
析
林
枚
果
枝
枲
枼
某
柔
查
柬
柰
柴
栗
桀
桑
桼
梁
條
梟
梨
棘
棠
棥
森
楚
業
楽
榮
樂
樊
欠
次
欣
欮
欲
欶
欽
款
歆
歇
歛
止
正
此
步
武
歨
歪
歮
歯
歰
歲
歴
歷
歸
歹
歺
死
殳
段
殷
殸
殹
殺
殻
殿
毋
毌
母
每
毒
比
毕
毚
毛
毳
氏
氐
民
气
氣
水
氵
氶
氷
永
氺
氾
求
汝
汞
江
沃
沓
沙
沝
泉
法
波
泣
泥
泰
洛
洪
活
派
流
浦
浪
浮
淡
淮
清
渚
渠
湯
滿
漸
火
灬
灭
灰
灵
灷
炅
炎
炏
炗
炙
炭
為
烈
烏
烝
焉
無
焦
焱
然
煞
熊
熏
燕
營
燮
爪
爫
爭
爯
爰
爱
爲
爵
父
爻
爽
爾
爿
片
牙
牚
牛
牜
牟
牢
牧
牪
牽
犀
犬
犭
犮
狂
狄
狊
独
狺
猋
猒
猪
献
獻
玄
率
玉
王
玟
玨
珎
班
琴
瑟
瑩
瓜
瓦
甘
甚
生
産
用
甫
甬
田
由
甲
申
电
甶
男
甸
甹
画
甾
畀
界
畏
畐
留
畜
畟
畢
畧
畨
番
畫
異
畱
當
畺
畾
疊
疋
疌
疑
疒
疾
癶
癸
癹
登
發
白
百
皀
皃
的
皆
皇
皋
皐
皕
皮
皷
皿
盃
盆
盇
盈
益
盍
盎
监
盒
盖
盛
盡
監
盤
盧
目
直
相
盾
省
眇
眉
看
眔
眞
真
眷
眼
眾
着
睘
睪
睿
瞏
瞢
瞿
矍
矛
矞
矢
矣
知
矦
短
石
破
碎
磊
磨
示
礻
礼
祟
票
祭
禀
禁
禸
禹
禺
离
禽
禾
禿
秀
秃
秉
秋
科
秝
秦
移
稟
穀
穌
穴
究
穹
空
穿
突
窄
窒
立
竒
竜
竝
竟
章
童
竹
笑
笠
筆
等
答
箕
算
箴
節
篤
篭
米
粉
粛
粟
粤
粦
粲
糞
糸
糹
系
約
納
素
索
紫
累
細
絜
絫
絲
維
綿
縣
繇
纍
纟
缶
网
罒
罔
罕
罗
罙
罡
罢
罪
署
罷
羅
羊
羌
羍
美
羔
羕
羗
羞
羡
羣
群
義
羲
羸
羽
翁
翏
習
翕
翟
翠
翼
老
耂
考
者
耆
而
耎
耑
耒
耳
耴
耶
耷
聂
聊
聖
聚
聶
聿
肀
肃
肅
肉
肖
肙
肥
肩
肯
育
肴
胃
背
胡
胥
能
脊
脩
膚
臣
臤
臧
自
臬
臭
臯
臱
至
致
臺
臼
臽
臾
臿
舀
舂
舄
與
興
舉
舌
舍
舛
舜
舞
舟
般
艮
良
色
艸
艹
艾
芒
芔
芬
芮
花
芳
芺
芻
苔
苗
苟
若
苦
英
茶
茸
荅
草
荒
荣
荼
莆
莧
莫
莽
菆
菊
菐
華
萬
落
葉
著
葛
董
葵
蒙
蒦
蒼
蓋
蓬
蓺
蔑
蔡
蕉
蕭
薄
薛
薦
薰
藍
藏
藥
蘭
虍
虎
虐
虒
虔
處
虖
虗
虘
虚
虛
虜
虞
虫
虽
蚤
蚩
蜀
蜜
蟲
蠡
血
行
衍
衛
衣
衤
表
衮
衰
袁
袞
褭
褱
襄
襾
西
覀
要
覃
見
規
覓
覧
親
覽
见
角
解
言
訁
訇
計
詹
誩
諸
讠
谷
豆
豈
豊
豐
豕
豖
豙
象
豦
豩
豪
豸
貇
貝
貞
貟
負
貢
貧
貪
貫
責
貳
貴
買
費
賁
資
賈
賏
賓
賔
賛
賞
賢
賣
質
賴
贊
贝
贡
责
贯
贲
贵
赖
赞
赤
赦
走
越
足
路
蹇
身
躬
車
軍
軎
軟
輦
车
辛
辜
辟
辥
辰
辱
農
辵
辶
边
达
过
近
连
迷
追
退
送
逆
逐
通
速
造
逢
連
逮
進
遀
遂
過
道
達
遣
適
遷
遺
邊
邑
邕
那
邦
邪
郎
部
郭
都
鄉
酉
酋
配
酓
釆
采
里
重
野
量
金
釒
錢
钅
長
镸
长
門
閃
閉
開
閏
閑
閒
間
閔
閵
閻
闌
门
间
闷
阑
阜
阝
阿
降
陳
隆
隊
隋
隡
隨
隱
隶
隹
隺
隻
隼
隽
难
雀
雁
集
雈
雋
雍
雐
雔
雙
雚
雜
雝
離
難
雨
雩
雪
雲
零
雷
需
霍
霜
霝
霞
霸
靈
靑
青
非
靡
面
靣
革
韋
韓
韦
韭
韯
韱
音
頁
頃
項
須
頗
頡
頻
顛
页
風
风
飛
飞
食
飠
養
饣
首
香
馬
馮
駦
马
骨
高
髟
鬥
鬯
鬲
鬼
魚
魯
鮮
鱼
鲁
鳥
鳳
鸟
鹵
鹿
麃
麗
麥
麦
麻
黃
黄
黍
黎
黑
黒
黨
黹
黽
黾
鼎
鼓
鼠
鼻
齊
齋
齐
齒
齿
龍
龙
龜
龟
龠
龰
龱
龴
龵
龶
龷
龸
龹
者
艹
﻿
？
𐌱
𐌹
𠀁
𠀃
𠀆
𠀉
𠀎
𠀐
𠁁
𠁣
𠂆
𠂇
𠂈
𠂉
𠂊
𠂋
𠂎
𠂒
𠂔
𠂛
𠂡
𠂢
𠂤
𠂬
𠂭
𠂹
𠃊
𠃋
𠃌
𠃍
𠃎
𠃑
𠃓
𠃔
𠃜
𠄌
𠄎
𠄠
𠄢
𠆢
𠆥
𠇍
𠈌
𠌵
𠓜
𠔉
𠔥
𠔼
𠔽
𠔿
𠕀
𠕁
𠕋
𠘧
𠘨
𠙻
𠙼
𠚏
𠚒
𠚤
𠚪
𠣏
𠤎
𠤕
𠥓
𠦄
𠦑
𠦝
𠧒
𠧗
𠧪
𠩺
𠪚
𠫓
𠫔
𠫤
𠬛
𠬝
𠬞
𠬢
𠬤
𠬶
𠮛
𠮦
𠮷
𠯑
𠱠
𠳮
𠷎
𡈼
𡉀
𡉵
𡌥
𡍮
𡏳
𡕒
𡕩
𡕰
𡖅
𡗗
𡗜
𡘆
𡘤
𡧱
𡨄
𡩧
𡬠
𡭽
𡰣
𡰥
𡰪
𡰯
𡰱
𡷈
𡸁
𡿨
𡿩
𡿪
𡿺
𢀖
𢀛
𢀩
𢁙
𢆉
𢆰
𢆶
𢇁
𢇇
𢉖
𢌬
𢌿
𢏚
𢑑
𢑚
𢖻
𢙣
𢛳
𢦏
𢦒
𢧵
𢼄
𢾕
𣁋
𣄼
𣅀
𣅽
𣍘
𣎳
𣎵
𣏋
𣏼
𣗥
𣥂
𣥖
𣦵
𣦼
𣧄
𣪊
𣪠
𣬉
𣳾
𣶒
𤇾
𤊽
𤐫
𤓰
𤔔
𤕨
𤣩
𤰇
𤰔
𤰞
𤴓
𤴔
𤽄
𥁑
𥁕
𥃦
𥃩
𥃭
𥇡
𥑟
𥘅
𥘈
𥝢
𥫗
𥱡
𦈢
𦉪
𦉬
𦉼
𦍌
𦍒
𦎧
𦐇
𦓔
𦔮
𦘒
𦙃
𦚏
𦣝
𦣞
𦣻
𦥑
𦥔
𦥯
𦨉
𦭝
𦰩
𧆞
𧈧
𧘇
𧰨
𧴪
𧴮
𧵩
𧾷
𨸏
𨾴
𩙿
𩠐
𩫏
𩵋
𪉷
𪜀
𪟽
𪠲
𪩲
𫇦
𫔭
𫜸
𫝀
𫠣
𫠩
𫢉
𫥞
𫩏
𫩠
𫪡
𫲽
𫶧
𬀷
𬐘
𬗌
𬙙
𬛸
𬜯
𬟩
𬯁
𬴘
𬺻
𬼉
𬼖
𭀰
𭁈
𭁨
𭅰
𭑈
𭕄
𭗼
𭤨
𭥫
𭻾
𮅕
𮊿
𮍌
𮍏
𮓗
𮥼
𮧮
廾
𰀁
𰀄
𰀈
𰀉
𰀕
𰀠
𰀡
𰀢
𰀪
𰁜
𰃮
𰆊
𰆘
𰋙
𰕎
𰢴
𰧭
𰯲
0--
12--
13--
15--
16--
17--
18--
19--
5--
7--
8--
9--
a--
ab--
ad--
aga--
agen--
agl--
ai--
aiz--
ak--
al--
aleks--
aleksand--
am--
ama--
an--
ap--
apdu--
apsa--
apsty--
ar--
argen--
arh--
arheo--
arhitek--
as--
at--
atmosfe--
ato--
atro--
atsa--
atsaro--
atza--
au--
aus--
auto--
azar--
b--
ba--
bal--
ban--
be--
ben--
bez--
bi--
bie--
bio--
blo--
bo--
boli--
br--
bra--
bre--
brei--
breiv--
bro--
bu--
by--
c--
ca--
ce--
ch--
ci--
cier--
co--
cu--
cy--
cyano--
cyu--
d--
da--
dabu--
dadure--
dagu--
dar--
das--
dator--
de--
dei--
demo--
demokra--
di--
dig--
div--
do--
dok--
dra--
drama--
dru--
du--
duo--
dy--
dz--
dzi--
dzy--
e--
ed--
egip--
ei--
eir--
ek--
eke--
eks--
ekto--
el--
ele--
empi--
ene--
energ--
es--
etno--
euro--
f--
fa--
fizi--
g--
ga--
gar--
ge--
gene--
geo--
geologi--
ger--
gerco--
gl--
gla--
glo--
gluo--
go--
gol--
gr--
gre--
grei--
gryu--
gu--
h--
ha--
ho--
horva--
i--
id--
il--
in--
ir--
is--
iu--
iz--
iza--
izali--
izda--
izgle--
izmon--
ja--
jaun--
je--
jiu--
jiur--
jo--
ju--
juo--
k--
ka--
kal--
kat--
kate--
katego--
kau--
ke--
keis--
ki--
kie--
kilo--
ko--
kolek--
kolum--
kom--
komuni--
kon--
konkre--
kop--
kri--
kro--
kru--
ks--
ku--
kuo--
kur--
kus--
l--
la--
lab--
laik--
lau--
laure--
le--
lei--
lel--
li--
lie--
lin--
lo--
lu--
luksem--
ly--
lyku--
ma--
madaga--
mag--
mal--
mala--
maln--
mar--
mate--
matem--
me--
mei--
meit--
meksi--
mi--
mili--
mo--
mon--
mu--
muo--
muor--
my--
myu--
myus--
n--
na--
naatka--
naci--
nai--
napal--
nar--
nau--
ne--
nei--
ni--
nige--
no--
novem--
nu--
nuo--
o--
ofi--
oj--
olimpi--
omo--
on--
org--
orto--
os--
p--
pa--
paglo--
pal--
pamat--
papla--
parla--
pas--
pasa--
pasapla--
pasta--
pat--
pazeis--
pe--
pedagogi--
pede--
pei--
pers--
pi--
pie--
pilis--
pir--
pl--
pla--
ple--
plo--
po--
poe--
pol--
popul--
pozi--
pp--
pr--
pre--
prez--
princi--
pro--
produ--
prof--
pruottele--
pu--
pun--
puor--
puty--
pyl--
pyrma--
r--
ra--
ran--
rau--
re--
redak--
rei--
rel--
religi--
ri--
ro--
rs--
rt--
rti--
ru--
ruby--
runuo--
ruo--
s--
sa--
sag--
saglo--
sak--
sal--
sas--
satvers--
sau--
se--
sei--
sekun--
selis--
ser--
sh--
si--
sig--
sim--
ska--
skais--
skro--
skryn--
sla--
slo--
so--
sol--
sor--
st--
sta--
sti--
sto--
struk--
struo--
stu--
sty--
stypry--
styu--
su--
suo--
suri--
svie--
sy--
sylt--
syu--
t--
ta--
tais--
te--
tele--
teo--
tepie--
ter--
th--
ti--
tiemi--
tis--
to--
toj--
ton--
tra--
tradici--
tre--
tu--
tul--
tve--
tvei--
ty--
tys--
u--
ugu--
uni--
unive--
univers--
uo--
uor--
upl--
urug--
us--
uz--
v--
va--
vade--
vaja--
val--
vale--
ve--
vei--
veis--
vene--
vesel--
vi--
vie--
vik--
vjet--
vo--
vui--
vuo--
vy--
vyd--
vys--
vysu--
w--
wa--
we--
wh--
win--
wri--
x--
y--
yus--
z--
zam--
ze--
zem--
zi--
zo--
zu--
zuo--
zvier--
zy--
лео--
мих--
н--
с--
--0
--09
--1
--2
--3
--4
--5
--6
--7
--71
--8
--84
--87
--9
--99
--a
--ai
--ain
--ais
--al
--ala
--alu
--am
--ama
--an
--ans
--ants
--ars
--aru
--as
--ava
--aver
--ba
--bl
--bu
--bys
--c
--ca
--can
--ce
--ceiguo
--ch
--d
--da
--de
--di
--dia
--ds
--du
--e
--ec
--eci
--ei
--eiba
--eigi
--eigs
--eigu
--eit
--eja
--eji
--ejis
--ejs
--eju
--ejuma
--ejums
--ejuo
--eki
--ekl
--el
--eli
--em
--en
--er
--es
--et
--ew
--f
--feja
--fejis
--fisku
--fs
--g
--ga
--ge
--gejis
--geju
--gs
--gu
--h
--i
--ian
--iba
--ibom
--ibu
--ibys
--ic
--ida
--idon
--idu
--ieja
--iejs
--ies
--iga
--igi
--igs
--igta
--igu
--iguo
--iguos
--igys
--ika
--iku
--im
--imi
--in
--ine
--ini
--ion
--is
--isku
--ists
--it
--ita
--iti
--its
--iv
--ivu
--iz
--j
--ja
--je
--ji
--jis
--js
--ju
--k
--ka
--kai
--kavuota
--ki
--kis
--ks
--kt
--kta
--ktu
--ku
--kuo
--kuos
--kys
--l
--la
--lais
--laja
--le
--li
--lo
--ls
--lu
--m
--ma
--mbra
--me
--mi
--mies
--ms
--mu
--n
--na
--ndi
--ndu
--ne
--neja
--ng
--ni
--nia
--ns
--nu
--o
--oboj
--oda
--oj
--oja
--oji
--ojs
--oju
--ok
--oka
--okys
--ol
--om
--oms
--on
--ona
--ons
--or
--ora
--ors
--os
--ot
--ota
--ots
--otu
--p
--pa
--pe
--pi
--pu
--r
--ra
--rd
--re
--rejs
--rg
--rga
--rgys
--ri
--rka
--rs
--ru
--ruma
--ry
--s
--sa
--se
--si
--sis
--ska
--skai
--ski
--sku
--ss
--st
--su
--t
--ta
--te
--tej
--ti
--tim
--tion
--tiva
--tne
--ts
--tta
--tu
--tys
--u
--uc
--ugs
--uka
--ukt
--uku
--umi
--umu
--una
--uo
--uos
--ur
--us
--use
--ut
--v
--va
--ve
--vi
--vic
--vs
--vu
--vuos
--w
--x
--y
--ynoj
--ynuot
--ys
--z
--za
--ze
--zma
--ая
--и
