!
"
#
##0
##1
##10
##11
##12
##13
##14
##15
##16
##17
##18
##19
##2
##20
##21
##22
##23
##24
##25
##26
##27
##28
##29
##3
##30
##31
##32
##33
##34
##35
##36
##37
##38
##39
##4
##40
##41
##42
##43
##44
##45
##46
##47
##48
##49
##5
##50
##51
##52
##53
##54
##55
##56
##57
##58
##59
##6
##60
##61
##62
##63
##64
##65
##66
##67
##68
##69
##7
##70
##71
##72
##73
##74
##75
##76
##77
##78
##79
##8
##80
##81
##82
##83
##84
##85
##86
##87
##88
##89
##9
##90
##91
##92
##93
##94
##95
##96
##97
##98
##99
$
%
&
'
(
)
*
+
,
-
.
/
0
00
000
00043
00280
003
007
00937
01
010
02
025
03
0354
04
05
06
07
08
09
1
10
100
1000
10000
1002
101
102
1025
103
104
105
106
107
10794
108
109
1096
11
110
111
11273
113
11379
1138
114
115
116
117
118
119
12
120
1200
12013
12023
12033
1204
121
122
123
124
125
126
127
128
129
13
130
131
132
1320
133
134
135
13557
136
137
13737
1387
139
14
140
1400
141
1415
142
143
144
145
146
1461
147
1478
148
149
15
150
1500
1503
1507
1508
151
152
1520
1526
153
15320
1534
154
1547
155
156
1561
1569
158
159
1596
1598
16
160
1600
16019
161
1618
162
1620
1621
1628
163
1634
1635
164
1640
1648
165
1657
166
1667
167
1672
1676
1677
169
1693
1697
1699
17
170
1700
1701
1704
1706
1709
1716
172
1721
1726
1727
1728
173
1733
1738
174
1740
1747
175
1752
1753
1754
1756
1757
1758
176
1761
1763
1765
1766
177
1772
1773
1778
178
1784
1787
1788
179
1790
1791
1792
1793
1795
1796
1797
1798
1799
18
180
1800
1802
1804
1805
1806
1807
1808
1809
181
1810
1811
1812
1813
1814
1815
1816
1817
1818
1819
182
1820
1821
1822
1823
1824
1825
1826
1827
1828
1829
183
1830
1831
1832
1833
1834
1835
1836
1837
1838
1839
184
1840
1841
1842
1843
1845
1846
1847
1848
1849
185
1850
1851
1852
1853
1854
1855
1856
1857
1858
1859
1860
1861
1862
1863
1864
1865
1866
1867
1868
1869
187
1870
1871
1872
1873
1874
1875
1876
1877
1878
1879
188
1880
1881
1882
1883
1884
1885
1886
1887
1888
1889
1890
1891
1892
1893
1894
1895
1896
1897
1898
1899
19
190
1900
1901
1902
1903
1904
1905
1906
1907
1908
1909
191
1910
1911
1912
1913
1914
1915
1916
1917
1918
1919
192
1920
1921
1922
1923
1924
1925
1926
1927
1928
1929
193
1930
1931
1932
1933
1934
1935
1936
1937
1938
1939
194
1940
1941
1942
1943
1944
1945
1946
1947
1948
1949
1950
1951
1952
1953
1954
1955
1956
1957
1958
1959
196
1960
1961
1962
1963
1964
1965
1966
1967
1968
1969
197
1970
1971
1972
1973
1974
1975
1976
1977
1978
1979
198
1980
1981
1982
1983
1984
1985
1986
1987
1988
1989
199
1990
1991
1992
1993
1994
1995
1996
1997
1998
1999
2
20
200
2000
2001
2002
2003
2004
2005
2006
2007
2008
2009
201
2010
2011
2012
2013
2014
2015
2016
2017
2018
2019
202
2020
2021
2022
2024
203
204
206
207
208
209
21
210
212
214
215
216
217
218
219
22
220
222
223
224
225
226
227
228
23
230
235
236
237
238
239
24
240
242
244
245
247
248
249
25
250
2500
251
252
257
258
26
260
2600
262
265
266
267
269
27
270
272
273
275
276
278
28
280
282
285
288
29
290
294
295
298
3
30
300
3000
301
302
305
31
310
317
318
319
32
320
321
322
323
324
325
326
327
328
329
33
330
331
332
333
339
34
340
343
344
348
35
350
3500
351
352
354
355
3573
358
36
360
362
365
366
37
371
375
38
3852
39
390
395
396
397
399
4
40
400
4000
401
405
406
41
410
411
412
414
415
42
420
422
423
428
429
43
430
432
434
436
439
44
440
442
446
4467
4469
447
448
45
450
451
452
455
456
458
46
460
462
463
464
47
476
48
483
49
494
496
5
50
500
5000
51
511
513
515
517
52
521
525
527
53
530
535
54
55
550
552
553
554
555
56
5614
57
574
58
59
5934
6
60
600
6000
606
61
62
620
63
630
631
64
640
65
650
66
67
670
671
679
68
682
69
7
70
700
7000
7055
71
712
72
73
74
7420
75
750
7567
76
77
7742
78
780
79
791
8
80
800
8001
805
81
810
81666666666714
82
83
8331
834
835
8354
84
85
850
852
857
86
87
87118
87548
88
885
89
890
89416
9
90
900
908
91
92
920
93
94
95
950
9502432
96
960
963
965
97
970
978
98
99
990
:
;
<
=
>
?
@
[
\
]
^
_
`
a
ab
aba
abba
abc
abies
abiturje
abo
about
abraham
absolwe
abweitung
aby
ac
aca
academia
ach
achillea
achim
aconitum
ad
ada
adam
addis
addons
adenauer
adjektiw
adjektiwach
adjektiwow
adjektiwy
adl
adolf
adom
adonis
adonisowa
adonisro
adwerb
adwerby
ae
aere
aesticampiani
afghanistan
afghanistanom
afiksow
africa
african
africe
afrika
afrikaans
afrikan
afriki
afriku
afroaziske
ag
aglomeracija
agne
agnes
agricultural
agriculture
ah
ai
aichele
aigner
ailantifolia
ainu
aiton
aj
aju
ajuca
ajuce
ajucego
ak
akacija
akademia
akademie
akademije
akademiji
akademischer
akcepte
ake
akelaja
akelei
akich
akle
ako
akorake
akorakich
akow
aktiwist
aktiwne
aktiwnje
aktiwny
aktualna
aktualne
aktualnje
aktualny
akuzatiw
al
ala
alan
alaska
alba
alban
albert
alberto
albin
albinus
albrecht
album
ale
aleksander
aleksandr
aleksandro
alexander
alexandra
alfabes
alfabet
alfabeta
alfanumeriskeje
alfons
alfred
algeriska
algeriskej
algi
ali
alianca
alkaloidy
alkohola
all
alle
allem
allen
allende
allioideae
allium
alnus
alojs
alpach
alpha
alpina
alpinum
alpow
alpowa
alpska
alpski
als
alt
alte
alten
alternatiwne
altgr
alto
am
amaconasu
amar
amarylisowych
amaryllidaceae
amen
america
american
americana
americe
amerika
amerikan
ameriki
ameriska
ameriski
ami
amna
amne
amnozelene
amny
ams
amsterdam
amt
amta
amtoju
amtska
amtskej
amtski
amty
amur
amurowa
amus
amy
an
ana
anach
anam
ananas
anatolske
and
andach
andorra
andow
andra
andre
andrea
andreas
andree
andrej
andrew
andricki
android
andrzej
andy
ane
anemona
anemone
anfa
angaz
angela
angeles
angelo
angels
angiosperm
angola
anguilla
angus
angustifolia
anhaltska
anhaltskej
anhaltskeje
anhaltskeju
ani
anis
anisum
anja
anje
anju
ank
anka
ankara
ankowa
anku
anna
anne
annegret
annua
annuus
anow
anry
ansambel
ansamblu
anska
anske
anski
ant
antarktika
antarktis
anthony
anti
antice
antifas
antigua
antiki
antile
antje
antologija
antologijow
antologiju
anton
antoni
antonio
any
anych
ao
apache
apetit
apg
apiaceae
apioideae
apo
app
appan
aprikoza
apryl
apryla
aprylom
aprylu
aquilegia
ar
ara
arabiske
arabiskego
arabs
arabska
arabske
arabskeje
arabskeju
arabski
araka
aramejs
aranz
arat
archa
architekt
architektura
archiv
archive
archiw
arcybiskup
arda
are
area
arg
argemone
argentinska
argentinskej
argentinskeje
argentinskeju
argentinski
arizona
arja
arje
arjow
arka
arki
arktiski
arlachcerwjene
arm
armeja
armeje
armen
armstrong
arnos
arnowski
aroma
aromatiski
arow
art
arten
arthur
artikel
arts
aruba
arvensis
ary
arz
as
asar
asc
asch
ases
aset
asetki
asetych
asimilacija
asopis
aspekt
asteraceae
asteroidowy
asteroidy
astronom
astronomie
astronomija
astronomije
astronomiju
astronomiska
astronomiske
astronomiski
astronomiskich
astronomy
asuncio
asurini
at
ata
atd
ate
atej
atlantiskego
atlantiskem
atlantiski
atlantiskim
atlas
atom
atoma
atomow
atomy
atrata
atych
au
auct
audio
auf
aufl
auflage
august
augusta
augusto
augustus
aurantium
aureum
aus
australia
austriacum
auto
ava
avellana
avena
avium
awa
awach
awaren
awdna
awdne
awdny
awdnym
awdu
awe
awem
awgusc
awgust
awgusta
awicar
awidła
awidłowna
awidłowne
awidłownje
awidłownosc
awiznik
awje
awna
awne
awniski
awo
awokado
awokut
awopis
awopisnu
awopisu
awow
awske
awstralija
awstraliji
awstralska
awstralskej
awstralskeje
awstralski
awstriska
awstriskej
awstriskeje
awstriskeju
awstriski
awstrisko
awta
awto
awtonomna
awtonomnego
awtonomny
awtor
awtora
awtorje
awtorka
awtorki
awtorow
awtory
awy
awych
axel
az
azerbajdz
azerska
azes
azija
azije
aziji
aziju
aziska
aziskej
aziz
azowske
azərbaycan
ał
ała
ałka
ało
b
ba
baba
baby
baccata
bach
back
bad
baden
bagnach
bagnocypresowych
bagnowa
bagnowe
bahamy
bahr
bahrain
baill
bajka
bajki
bajkow
baku
bala
balkan
balko
ballade
balls
balo
baltiske
baltiskego
baltiskem
baltiskich
baltiskim
balto
bamz
banana
bance
band
bandy
banglades
banja
banjowych
banka
banki
barack
barbados
barbuda
barcelona
baribal
barlin
barlinja
barlinjom
barlinju
bars
bart
barta
bartels
bartoszyce
barwa
barwjenje
barwjenju
barwow
barwu
barwy
bas
baschkirisch
based
basel
basen
basic
basilicum
basketball
baskis
baskiska
basni
basnikar
basnikarska
basnje
basnjow
batalin
baum
bautzen
bay
bayerska
bayerskej
bayerskeje
baz
baza
baze
bazilikum
bazowe
bazowych
bazy
bbc
bben
bd
bda
be
beast
beatles
bechtle
beck
becker
beeskow
bei
beijing
beitra
beitrag
bejnje
bele
belgiska
belgiske
belgiskej
belgiskeje
belgiskeju
belgiski
belize
ben
benedikt
benin
benjamin
beno
benth
ber
bergar
bergen
berger
berlin
berliner
bermudy
bern
bernard
bernd
bernhard
beru
besonderer
best
beste
bestimmung
bestimmungsbuch
betulaceae
bezkow
bezkowa
bełchato
bhutan
bi
biała
białostocka
białystok
biblija
biblije
bibliografija
bibliografije
bibliographie
bibliographisches
biblioteka
biblioteki
bice
biden
bie
bieb
biedenkopf
bielefeld
big
bikpela
bild
bildatlas
bill
bilong
bimbawka
bin
binder
bingen
biobliographisches
biografija
biografiski
biographie
biol
biologie
bis
biskopicy
biskup
biskupstwa
biskupstwo
bislama
bislams
bissau
bitwa
bitwje
bixa
biłgoraj
bjarnat
bje
bjedrich
bjero
bjo
bke
black
blackwell
blake
ble
blechen
blechena
blida
blido
blis
bliske
bliskego
bliskem
blisko
bliskosc
bliz
blok
blong
bloom
blu
blue
bluesowy
blume
blumen
blun
blus
blv
bna
bne
bnica
bnosc
bny
bnych
bo
bob
bobby
bobo
bobr
bocatius
boce
bocne
bocnych
bodo
bog
boga
bogata
bogate
bogatej
bogaty
bogatych
bogota
bogowka
bogumil
bogumił
bogumiła
bogusławski
bohuwe
boiss
bojt
bok
boka
bokach
boki
bokoma
bokow
boksar
boku
bolesław
boliviska
boliwiska
boliwiskej
boliwiskeju
bolte
bom
boma
bomach
bombus
bomje
bomki
bomow
bomowa
bomy
bon
boniek
bonn
bono
book
books
boraginaceae
borago
bordeaux
borets
boris
bork
borkh
borkowy
bors
bosco
bosna
bosnia
bosniska
bosniskej
bosniskeje
bosporus
boston
bot
botanica
botanical
botanicky
botanik
botanikar
botany
botsuana
botswana
bow
boy
boys
boz
br
bra
bramborska
bramborske
bramborskego
bramborskej
bramborskeje
bramborskeju
bramborskem
bramborski
brandenburg
brandt
brandtowa
branibor
braniewo
brankac
bras
brasil
brassica
brassicaceae
bratislava
bratislavska
brats
brazil
brazilska
brazilskej
brazilskeje
brazilskeju
brazilski
bre
break
brema
bremen
bremer
bretonska
brian
briefe
briesen
brigitte
bringing
britain
britaniska
britaniske
britaniskeje
britannica
british
britiska
britiske
britiskego
britiskeje
britiski
britton
brjazowych
brjazyna
brjazynje
brjazynka
brjog
brjoga
brjogach
brjogu
brjoze
bro
brod
brodajcate
brodnica
brody
broken
bromus
bronis
bronkow
brooklyn
browa
broz
brozdz
bru
bruce
bruk
bruna
brune
brunei
brunicowu
bruno
bruny
brusy
brylaty
brzes
brzez
brzozo
btu
bu
bubliny
buch
buchanan
buche
buchu
budapest
budar
buddha
budestecy
budu
budys
budz
buk
buka
bukecy
bukow
bukowicki
bukowina
bukowinka
bukowka
bukowych
bulgar
bulgarje
bull
bur
bura
burat
burg
burkina
burow
burske
burskego
burski
burundi
bury
bus
busch
buske
butterfly
buz
by
byc
bydgoszcz
bydle
bydlen
bydli
bydlili
bydlił
bydliła
bydliło
byhleguhre
byli
bys
byto
bytosc
bywa
bywaju
bywał
bywała
byws
był
była
byłej
było
bz
błaz
bło
błomjenjach
błos
błota
błotach
błotow
błys
c
ca
cach
caesar
caicos
cak
cakany
calendula
california
californica
caltha
calvin
calystegia
cam
camargo
cambridge
cameron
cami
campbell
camponotus
can
canada
canadensis
candida
candolle
canescens
canidae
canis
canta
canum
cape
car
cara
caras
cardamine
cardaria
carl
carlos
carmen
carna
carne
carnego
carnej
carnem
carnica
carnivora
carnogo
carny
carnym
caroba
carojstwo
carolina
carpinifolia
carrie
carstens
carter
carum
cas
casa
casach
case
casnik
casnika
casnikar
casniki
casniku
casom
casopis
casopisa
casopisow
casopisu
casow
casowa
casowe
casowje
casowy
caspari
cass
castanea
castanopsis
castro
casu
casy
cazow
cd
cde
cdeji
cdot
cdu
ce
cedra
cedrus
ceglin
cej
cejdejku
cejle
cele
celow
cenas
cenis
cenit
census
center
centimetrow
central
centralna
centralnego
centralnej
centralneje
centralnoafrikan
centralny
centrum
centruma
centrumje
ceptar
ceptaris
ceptarja
cera
cerasifera
cerasus
ceres
cerje
cerkwi
cerkwine
cerkwiny
cerkwja
cerkwje
cerkwjejno
cerkwjen
cerna
cernjow
cersk
ceru
cerwjena
cerwjene
cerwjenego
cerwjenej
cerwjeneje
cerwjenje
cerwjenobruna
cerwjenojte
cerwjeny
cerwjenych
cerwjenym
cery
cesc
cesne
cesny
cesnym
ceste
cesto
cetnje
cetny
ceuta
ceła
cełe
cełego
cełej
cełeje
cełem
cełk
cełkowna
cełkownje
cełku
cełoks
cełole
cełu
ceły
ch
cha
chad
chada
chadaju
chadna
cham
chan
chanat
char
charakter
charja
charles
charlie
che
chemije
chemiju
chemikar
chemiska
chemiski
chemiskich
cheng
cher
chi
chicago
chile
chilska
chilskej
chilskeje
chilskeju
chilski
china
chins
chinska
chinskej
chinskeje
chinskeju
chinski
chle
chmjel
chmjela
cho
chojnan
chojnice
chopili
chopin
chor
chorwatow
chorwatska
chorwatskej
chorwatskeje
chorwatskeju
chorwatski
chorwaty
chorzo
chos
chow
chowa
chowan
chowanje
chowar
chowas
chowe
chowy
chr
chrestomatija
chris
christa
christian
christiana
christina
christoph
christopher
chro
chrobry
chromosomowa
chroniki
chrystian
chrzano
chse
cht
chto
chtoz
chu
chuang
chudych
chur
church
chy
chys
chłodnych
ci
cia
cie
cierzyna
cil
cio
citat
citrona
citrus
city
civitates
ck
cka
cke
cken
cker
cki
cko
ckow
ckowny
ckowy
cksichtigung
cku
clark
clarke
class
classification
claude
clav
clematis
cleopatra
cm
cna
cnar
cnarstwa
cnarstwo
cne
cnego
cnej
cneje
cnem
cnik
cnikow
cnje
cnjejs
cnosc
cnu
cny
cnych
cnym
cnymi
co
codiakalnej
cogodla
cogoz
cole
colombia
com
coma
commons
commonwealth
commonwealtha
communis
comosus
completes
comuna
comy
comz
cona
conach
cone
connor
conow
conrad
consolida
constance
convar
convolvulaceae
convolvulus
cony
cooper
cora
cordata
cornuta
cornwall
coronopus
corre
corylus
cos
cottbus
coult
coville
cow
cowar
cowka
cowki
cowku
cowu
cowy
coz
cołnom
cracovia
crane
crantz
crataegus
crenata
creole
crescent
crispa
crownoz
cruz
cs
csu
cu
cucumis
cucurbita
cucurbitaceae
cujo
cukor
cukora
culture
cum
cuniculus
cupressaceae
cupressus
curitiba
curtis
curuba
cus
custa
cuze
cuzore
cuzych
cy
cyathophylle
cybula
cybulinka
cycaki
cycakow
cyclamen
cygan
cykach
cyki
cylindriski
cyma
cyn
cyna
cyni
cynis
cynił
cynje
cyny
cyparissia
cypern
cypk
cyplis
cypresa
cypresowe
cypresowych
cyril
cyrila
cys
cysła
cysło
cyta
cytanka
cytas
cywe
cyz
cył
cz
cza
czarna
cze
czesław
czno
cłonk
cłonka
cłonkami
cłonki
cłonkom
cłonkow
cłowjek
cłowjeka
cłowjekow
cłowjeske
d
da
dach
daj
dajo
dajs
daju
dajucy
dalej
dali
dalokeje
daloko
dalokosc
dals
dam
dama
damna
damy
dan
dana
danc
dance
dane
daniel
daniz
danja
danje
dannenberg
dany
danych
dar
darbni
darbnja
darjow
darmstadt
darstellung
das
data
database
dataja
dataje
dataji
datajow
date
datiw
datow
datowa
datum
daty
dave
david
davis
dawa
dawaju
dawali
dawanje
dawid
dawne
day
daß
dał
dała
dało
dbaden
dc
ddr
ddruz
de
dean
debian
debora
dec
december
decembera
decemberje
decembra
decembrje
define
definicija
definicije
definiciji
definitny
dego
dej
dejali
dejał
deje
dejm
deker
deklare
deklinacija
deklinacije
deklinaciji
deklinaciju
del
delaware
delhi
della
delnje
delnjoserbski
delta
dem
demokratische
demokratiska
demokratiskeje
demokratiskeju
demokratiski
den
denn
dennis
dentaria
dentata
departement
departementow
department
depsku
der
derbno
derbstwa
derje
derjeme
derwan
des
deschanel
descr
desna
desu
detaile
detlef
deus
deuterium
deutsch
deutsche
deutschen
deutscher
deutsches
deutschland
deutschlands
dewastacija
deyzidoxs
di
dia
dialeks
dialekt
dialekta
dialektach
dialektow
dialekty
diarra
dicaprio
dich
dictionary
die
dieter
dietmar
dietrich
diferenca
diference
diferencu
diftongi
digital
digitalize
diktator
dioksid
dion
dipl
diplomat
diplomowy
direktnje
direktny
direktor
dirigent
dirk
diskute
dispela
displaystyle
dispoziciji
dissen
distribucije
diversity
dj
dk
dka
dkami
dke
dki
dko
dkp
dku
dkupka
dla
dlan
dlaz
dle
dlejs
dli
dlinina
dlininow
dlininowe
dlininowego
dlininowy
dlininu
dlininy
dlis
dmies
dna
dne
dnego
dnej
dneje
dneju
dnem
dnemu
dnik
dnika
dniki
dnikow
dnipro
dnja
dnjach
dnje
dnjejs
dnjepr
dnjo
dnjow
dnju
dnos
dnosc
dnota
dnotu
dnoty
dnu
dnw
dny
dnych
dnym
dnymi
do
doba
dobje
dobna
dobne
dobnje
dobny
dobra
dobre
dobrjoług
dobros
dobrowo
dobrus
dobry
dobrzyn
dobu
doby
dobys
dobywar
dobył
dobyła
dodas
dode
dogromady
dogrona
dogrono
doi
dojs
dojz
dok
doko
dokradne
dokradnje
dokradnjej
dokradnjejs
dokradnosc
dokradny
dokulaz
dokument
dokumentach
dokumentacija
dokumentariski
dokumentation
dokumente
dokumenty
dokładnje
dokładny
dole
dolina
dolinje
dolna
dolne
dolnej
dolneje
dolnem
dolni
dolnonims
dolnonimski
dolnos
dolnosakska
dolnoserbs
dolnoserbska
dolnoserbske
dolnoserbskego
dolnoserbskej
dolnoserbskeje
dolnoserbskem
dolnoserbski
dolnoserbskich
dolnoserbsko
dolnoserbsku
dolnołuz
dolnu
dolny
dolnych
dom
doma
domacna
domacne
domacny
domas
domestica
domin
domine
dominika
dominikan
dominikana
domje
domka
domnosc
domnostna
domnostne
domnostnica
domnostnik
domnostnje
domnostny
domnostnych
domnostnym
domoj
domorodny
domow
domowina
domowinskeje
domowinski
domowiny
domowni
domowniski
domownja
domownje
domownjowe
domownju
domu
domy
don
donald
donatec
done
dong
donnerhak
doors
dopisowar
dopo
dopomina
dopomnjen
dopomnjes
dopołne
dopołnje
dopre
doris
dorjecy
dornic
dorosc
dorothea
dorownje
dos
dosc
dosega
dostali
dostanjo
dostanu
dostas
dostał
dostała
dostało
dostojewskij
dotychme
douglas
dow
dowak
dowaka
dowali
dowana
dowane
dowanja
dowanje
dowanju
dowany
dowanych
dowar
dowarja
dowas
dował
dowało
dowe
downa
downie
downje
dowo
dowy
doz
dozdrjaju
doł
dołoj
dołojce
dpe
dpołdnja
dpołdnjo
dpołdnjoafrikan
dpołdnjowa
dpołdnjowe
dpołdnjowego
dpołdnjowej
dpołdnjoweje
dpołdnjoweju
dpołdnjowem
dpołdnjowosłowjan
dpołdnjowu
dpołdnjowy
dpołdnjowych
dpołdnjowym
dpołdnju
dpołnoc
dpołnocna
dpołnocne
dpołnocnego
dpołnocnej
dpołnocneje
dpołnocneju
dpołnocnem
dpołnocnje
dpołnocno
dpołnocnoc
dpołnocnogermaniske
dpołnocnu
dpołnocny
dpołnocnych
dpołnocnym
dpołnocy
dpre
dr
dra
draba
drachhausen
drama
dramatikar
dramy
drastwa
drastwje
drastwu
drastwy
drawidske
dre
drebkau
drehnow
drei
dresden
drje
drjenow
drjenowje
drjew
drjewa
drjewinu
drjewjan
drjewjane
drjewjanopołobs
drjewjenjopołabski
drjewjone
drjewo
drjez
drjowk
drjowku
dro
drobna
drod
droga
drogach
drogi
drogow
drogowan
drogowanje
drogował
drogowych
drogu
droz
droze
drozelene
dru
drude
druga
druge
drugego
drugej
drugeje
drugem
drugemu
drugi
drugich
drugim
drugimi
drugu
druhe
druhi
druz
dry
drzej
ds
dsb
dstwa
dstwje
dswo
dtirol
dtitelom
du
dub
dubium
dublin
dubrawa
duc
duce
duchon
duchowny
duchu
ducy
dujo
dujotej
duju
dujuca
dujuce
dujucej
dujucem
dujucy
dujucych
dulcis
dum
dumme
dunaj
durch
durian
durins
durinska
durinskej
durinskeje
dus
dvoch
dwa
dwanasc
dwaz
dwe
dweju
dwjacor
dwjacora
dwjacorje
dwjacorna
dwjacorne
dwjacornego
dwjacornej
dwjacorneje
dwjacornem
dwjacornosłowjan
dwjacorny
dwjacoropomorskem
dwo
dwor
dy
dyla
dym
dynastije
dypk
dypka
dypkate
dypki
dypkom
dypkoma
dypkow
dypku
dyrlich
dytar
dz
dzajts
dzemske
dzemskich
działdowo
dzki
dztwo
dła
dłach
dło
dłow
dłujka
dłujke
dłujkej
dłujkem
dłujki
dłujkich
dłujkim
dłujko
dłujkojs
dłujkojte
dłujkole
dłujkopo
dłujkosc
dłujkowjacornej
dłujkowogonkaty
dłujkozajts
dłujku
dłymi
dłymoki
dłymoko
dłymokosc
e
early
east
eastern
ebe
eberhard
ebert
ebro
ebuski
ebuz
ebuza
ebuzom
ebuzu
ec
eca
ece
ecego
ecej
eceje
ech
echod
echosłowakska
echosłowakskeje
echosłowakski
echow
echy
ecowas
ecy
ecych
ed
eden
edews
edewzes
edicions
edinburgh
edith
edition
editor
edme
edmjat
edmjaty
edmjenja
edmund
edna
edne
ednego
edneje
ednje
ednu
edny
ednych
ednym
edpomorska
edpomorskej
edpomorskeje
eds
edsedar
edsedarja
edsedarje
edsedarstwo
edstaja
edstajenje
edsłowje
edsłowo
eduard
edward
edłoga
ee
eesti
ef
efezanam
efredaktor
egle
ego
egon
egyptojs
egyptojska
egyptojskej
egyptojskeje
egyptojski
ehlad
ei
eichler
eigenschaften
ein
eine
einem
einen
einer
eines
einfu
einja
eisenbahn
eisenhu
eisenreich
ej
ejcerwjeny
eje
ejkow
ejow
ejs
eju
ek
eks
eksamen
eksemplarow
eksiste
eksistencu
eksokarp
ekuador
ekupc
ekwator
ekwatora
ekwatorialna
ekwatorje
ekwatorom
ekwatoroweju
el
ela
elatius
elbe
ele
elektriskich
elektronegatiwitu
elektronegatiwity
elektronow
elektronoweje
elektrony
element
elementow
elementy
elew
eli
elikowska
elina
elipsoid
elipsoida
elipsoiz
eliptiske
elis
eliza
elizabeth
elka
elke
elow
elowa
elsaska
elska
elske
elski
elster
elstwa
elstwo
elu
em
eme
emiraty
emje
emmanuel
emo
ems
emu
emus
en
ena
enc
encian
encyclopaedia
encyclopedia
encyklopedija
endemit
endokarp
ene
energija
energiju
eng
engel
engels
engelska
engelske
engelskego
engelskej
engelskeje
engelskeju
engelskem
engelski
engelsku
engler
english
eni
enica
enicy
enicyn
enik
enika
enim
enił
enja
enjach
enje
enjeju
enjer
enjo
enjony
enjow
enju
enkarjowa
enko
ens
enya
enych
enzyklopa
eo
epastyr
epika
epo
epos
epre
eps
epus
epytowanja
epytowanjach
epytujomy
er
era
ercy
erdbeere
erde
ere
erectum
erfurt
erhard
erhardt
eric
ericaceae
erich
erik
erika
eris
eritreja
erje
erjo
erjow
erkawa
erlica
erlina
ern
ernest
ernje
ernst
erobruna
eromski
erozelene
ers
ersen
ertl
eru
erwin
ery
es
esajz
esc
esculenta
esejist
esiw
esk
eska
eske
eskego
eskej
eskeje
eskeju
eskem
eski
eskich
eskimo
esko
esky
esle
esp
esperanto
esperantore
esse
est
estajar
estajił
estajiła
estajone
estas
este
estiano
estnis
estniska
estniski
estre
estupne
estupnego
estupnych
esty
et
eta
etable
ethnologue
etiopiska
etniska
etniski
eto
etrajuca
etrog
etwo
eu
eukaryotow
eukaryoty
euphorbia
euphorbiaceae
eurazije
euraziji
euro
europa
europe
europeada
european
europje
europska
europske
europskego
europskej
europskeje
europskem
europski
europskich
europskim
europu
europy
eurozonje
eva
evangeliom
evans
everest
evo
evolution
ewangelijach
ewangelium
ewangelski
ewaz
ewc
ewjes
ewjez
ewo
ewros
ewzeli
ewzes
ewzeł
ex
exkursionsflora
experience
extinct
ez
eze
ezpołdnica
ezwokrejsne
eł
eła
ełanja
ełanje
ełk
eło
ełoz
f
fa
fabaceae
fabian
fabijan
faculty
fagaceae
fagus
fake
faki
fakt
faktiski
falcata
falklandy
familija
familije
familiji
familiju
farar
fararja
fararjom
fas
faska
faso
fattu
fdp
fe
februar
februara
februarje
federacija
federacije
federaciji
federaciju
fehrow
felber
felidae
feliks
feliksowy
felis
felixsee
felujo
felujops
feluju
femininum
fennec
fer
ferdinand
ferenc
fermentacije
fermente
ferox
ferro
ferrowy
festiwal
ff
ffentlichungen
fichte
fidz
fiedler
figa
figura
fijałka
filip
filipendula
filipiny
filipjanam
film
filma
filmach
filmje
filmografija
filmow
filmowa
filmowe
filmowy
filmy
filomenej
filozof
fin
finance
fini
finnisch
finougriskich
fins
finska
finskej
finskeje
finski
finskich
finsko
firefox
firmy
fischer
fisher
fit
fl
fla
flakata
flammea
flavum
flora
floraweb
florian
floribunda
florida
fo
folklorist
folklorny
fonem
fonema
fonemow
fonemy
for
forma
formach
formas
formje
formow
formu
formula
formule
formy
forschungen
forst
fort
fortgeschrittene
forum
foster
fotograf
fotografija
fotografije
fotowy
foundation
fr
fra
frac
fragaria
frakcije
frame
franc
franca
france
franch
francis
francisco
franciszek
francojs
francojska
francojske
francojskego
francojskej
francojskeje
francojskeju
francojski
francojskich
francojsku
frangula
frank
frankami
franke
frankenthal
frankfurt
franki
frankobrod
frankobroda
frankobrodom
frankobroz
frankow
frano
franz
frau
frauendorf
fred
freddie
freie
freiheit
frencel
frencl
frido
friedrich
fritz
friulska
frizis
friziska
from
fru
fryca
fryco
fryderyk
frys
fu
fun
funk
funkcije
funkciju
funkcionar
funkcione
futrowan
futur
future
fuzionowali
fyzika
fyzikar
fyziki
fyziku
g
ga
gabriel
gabun
gadowate
gagauska
gajs
gajucy
galatam
galeobdolon
galerija
gali
galicija
galis
galium
gambija
gandhi
ganja
gape
gar
garba
garci
garten
gary
gas
gat
gatojce
gaty
gauck
gaulle
gautama
gaz
gał
gałuz
gałuzach
gałuzow
gałuzy
gdan
gdy
gdynia
gdyz
ge
gegen
geho
gel
gemeinwohl
gen
gene
generacija
generacije
generacijow
general
generalny
genitiw
genitiwom
genscher
gentiana
genus
genusa
genuse
genusy
geo
geocentriska
geograf
geografije
geografiska
geografiske
geografiskego
geografiskej
geografiskeje
geografiskeju
geografiskem
geografiski
geografiskich
geografisko
geografisku
geometriski
geor
georg
george
georges
georgia
georgiska
georgiskej
georgiskeje
gepard
ger
gera
geral
gerald
gerat
gerhard
german
germanen
germaniske
germaniskich
germplasm
gerundium
geschichte
geschichten
gesellschaft
gespenst
gespra
gets
gewu
ghana
gi
giacoma
giacomo
gibanja
gibanje
gibraltar
gibujo
gies
gigantea
gineja
ginkgo
giona
giovanni
girl
gitarist
giuseppe
giz
gjarnys
glabra
glad
gladhouse
gle
glej
gli
glinicka
glinjane
globus
glu
gmbh
gmejna
gmejnach
gmejnje
gmejnow
gmejnska
gmejnske
gmejnskego
gmejnski
gmejnskimi
gmejny
gmelinii
gmina
gne
gniezno
gnilawa
gnjenje
gnjenju
gnjo
gnu
gnuli
gnus
gnuł
gnuła
go
godfather
gojc
gokowc
gokowcowych
gold
golfje
golte
golub
gom
gon
google
gora
gorams
got
gott
gottfried
gotthold
gottlieb
gov
gow
gowo
gowy
goz
gołe
gołkojcach
gołkojce
gr
gra
grabina
graebn
graf
grafikar
grafiske
grafiski
graham
grajar
grajarja
grajarje
grajarjow
grajarka
grajne
grajo
grajotej
graju
gramatika
gramatiki
gramatiku
gramatiski
grammar
grammatica
grammatik
grana
granach
granatowe
grande
grandis
granica
granice
granicny
granicu
granicujo
granicuju
granicy
grant
grany
grapefruit
gras
grass
graubu
gray
grał
grała
gre
great
green
greene
greenwich
greenwichski
greenwichu
gregor
gregorjaniskej
gregorjaniskeje
gregorjaniskem
greifswald
grenada
grenadiny
gres
gribow
griby
grich
grichis
grichiska
grichiske
grichiskego
grichiskej
grichiskeje
grichiskeju
grichiskem
grichiski
grin
griseb
gro
grobla
groblach
grobli
groch
grod
groda
grodk
grodka
grodku
grodno
gromadu
gromaz
gron
groni
gronis
gronił
groniła
groniło
gronje
gronka
gropne
gropnje
grosso
grossularia
grossulariaceae
group
groz
groß
große
großer
großharthau
großkmehlen
großnaundorf
großra
gru
grudzia
grunwald
gruyter
gry
grys
gryzarje
gs
gsb
gu
guadeloupe
guadelupa
guarani
guaranis
guaraniske
guaraniski
guatemala
guawa
guba
gubaty
gubin
gubina
gubka
gubkatych
gubu
guby
gudz
guernsey
guevara
guhrow
gui
guineja
guineju
gujo
guju
gulka
gun
gurage
gusc
gusor
gusta
gustav
gustaw
gusto
gustosc
gustych
gut
guts
guyana
guyanu
guyo
gwe
gymnazialny
gymnazij
gymnazium
gymnaziuma
gymnaziumje
gyo
gysi
gł
gładka
gładke
głaz
gło
głodny
głog
głogowe
głos
głosow
głowa
głowan
głowkach
głowki
głowna
głowne
głownego
głownej
głowneje
głownje
głowny
głownych
głownym
głowu
głowy
h
ha
haab
habent
habola
habrachc
hac
haiku
haiti
hajna
hajndrich
hajno
hajo
hala
halle
hals
hamburg
hamburga
hamburgu
hamilton
han
hana
hand
handbook
handbuch
handrekojc
handrij
handrik
handwo
hanelora
hanggre
hanka
hanks
hannover
hannoverje
hannoverskem
hans
hanso
hants
hanus
hanzo
hap
har
harald
harfa
harmonija
harmonije
harmoniji
harmoniju
harrachov
harrassowitz
harris
harrison
harry
hartmut
has
hasan
haselbachtal
haspelmath
hat
hauke
haus
havel
hayata
he
head
heart
hebe
hebrejam
hecker
hedera
hedysarum
heesters
heide
heidelbeere
heidelberg
heilmittel
heinemann
heinersbru
heinrich
heinricha
heinrichowa
heinz
hejdus
hektar
hektary
helena
helianthus
heliopause
helioscopia
helix
hell
helleborus
helmut
helmuta
helsinki
hem
hemisferje
hemisfery
hen
hendrich
hendricha
hendrix
hendrys
henry
henryk
hens
hepburn
herb
herba
herbert
herberta
hercegovina
hercegowina
hercegowinje
hercegowinska
hercegowiny
heritage
herman
hermann
hermanojce
herodesa
herr
herzegovina
herzog
hessen
hesłom
heterophylla
heuss
heute
hexe
hi
hia
hieronim
hierro
hilda
hill
hills
hilz
himalaja
himalaje
hinc
hindi
hindis
hindiski
hirsuta
historia
historija
historikar
historikarje
historische
historiska
historiske
historiskej
historiski
historiskich
history
hit
hl
hlavni
hle
hlej
hler
hling
hnchen
ho
hochoza
hochozy
hochschulen
hodz
hof
hoffm
hoffmann
hofmann
hohenzollern
hola
hollande
hols
holstein
home
honduras
hongkong
hook
hora
horicontom
horni
hornja
hornjoserbs
hornjoserbskich
hornjołuz
hornow
horst
hort
hortensija
hory
hot
hotzenplotz
house
how
howacej
howard
hren
hrer
hrige
hrjehor
hro
hrsg
hrung
hsb
ht
htm
html
http
https
hu
huber
hubert
hudz
hugo
humboldtowej
humorist
humulus
hundert
hungors
hungorska
hungorskej
hungorskeje
hungorskeju
hungorski
hupac
hurmi
hus
huska
hustetojc
hustetowa
huta
hybrida
hybridny
hybridum
hydrangea
hymna
hymny
hynaks
hync
hys
i
ian
ibe
ibliz
ibn
ibrjog
ibrjoga
ibrjogom
ibrjogu
ibrjoze
ibuti
ic
ica
icach
icar
ice
ich
ichego
ichem
ichod
ichow
ichowa
ichupe
ichy
ichym
icka
icnokwe
icon
icu
icy
icyna
icynki
icynow
icyny
id
idas
idatne
idatnje
idle
idne
ido
idu
idło
ie
igle
ignacy
igo
igor
igotował
ihr
ihren
ii
iii
ij
ija
ijan
ijanow
ijas
ijes
ijo
ijos
iju
ik
ika
ikach
ikatu
ike
iki
ikistan
ikokrajne
ikokrajny
ikow
ikowna
ikowne
ikownem
ikowny
ikowy
iks
ikład
ikłady
ikłaz
il
ilapate
ile
ili
illinois
ilustracija
ilustracije
ilustrator
ilustre
ilustrita
im
ima
images
imdb
ime
imejo
imi
imjejo
imjeju
imjes
imo
imperatiw
imperfekt
imperium
imperiuma
imujo
imuju
in
ina
inach
inami
inc
index
indian
indikatiw
indiska
indiskego
indiskej
indiskeje
indiskeju
indiskem
indiski
indiskim
indo
indoarijske
indoeuropska
indoeuropske
indoeuropski
indoeuropskich
indoeuropskim
indoneziska
industrialnik
industrijowe
ines
infinitiw
info
infokas
informacija
informacije
informacijow
information
ingolf
ingrid
iniciator
inje
inkluziwnje
inne
inosk
inoski
inow
inowe
inowrocław
inowrocławski
inowych
ins
insa
insajs
insektow
insekty
inske
inskego
inski
insku
institucije
institucijow
institus
institut
instituta
institute
instituts
instrument
instrumental
instrumentow
intendant
intensiwnje
intermedia
international
internationale
internes
internet
internetowe
internetowej
internetowem
internetowy
interpunkcija
interview
inu
inv
iny
inz
iony
ipa
ipo
ipomoea
ipowe
ipoznas
iprage
ips
ir
irak
irakom
iran
iranje
iranom
ire
ireland
iris
irkutsk
irmgard
iroda
irodna
irodne
irodnego
irodny
irodnych
irodnym
irodosle
irodowe
irody
irownaj
irownanje
irownanju
irownowanju
iroz
irs
irska
irske
irskej
irskeje
irskeju
irski
irskich
irucka
is
isa
isabel
isamem
isbn
iser
iserka
iskeje
iski
iskich
island
islands
islandska
islandskeje
islandski
isle
iso
isow
ispomnjes
israel
israela
israelom
israelski
issn
ist
ista
istada
istadas
istanbul
istaw
istawy
istow
istup
istupił
istupny
iswo
isłowa
isłus
it
ita
itals
italska
italske
italskego
italskej
italskeje
italskeju
italski
itane
itom
itomnosc
itowar
its
iv
ivan
iw
iwa
iwadle
iwadła
iwadło
iwadłowe
iwadłownica
iwadłownik
iwadłowy
iwe
iwje
iwjone
iwjony
iwka
iwne
iwnik
iwny
iwo
iwosc
iwotnik
iwy
iwzes
iwzeł
ix
iz
izma
izna
iznamjenja
iznow
izny
izole
izuk
izukowanje
izukujo
ił
iła
iłej
iłka
iło
iłuk
j
ja
jablonec
jabłon
jabłuka
jabłuko
jabłukowy
jabłus
jac
jacek
jack
jackfruit
jacki
jackie
jackson
jacmjen
jacques
jaden
jadna
jadnab
jadnak
jadnake
jadnanja
jadnanje
jadnar
jadnasc
jadne
jadnej
jadneje
jadneju
jadno
jadnodomna
jadnogo
jadnole
jadnom
jadnora
jadnore
jadnorje
jadnory
jadnotka
jadnotki
jadnotliwe
jadnotliwych
jadnu
jadnuc
jadnym
jadran
jagger
jagoda
jagodka
jagodki
jagody
jahn
jahrbu
jahre
jahrhundert
jahrhunderts
jaja
jajko
jajkow
jajojte
jajowate
jako
jakob
jakub
jakuba
jama
jamach
jamaika
jamaiski
james
jamu
jamy
jan
jana
janas
jancz
jane
janeiro
janej
janikowo
jano
janowa
janowy
jans
janske
jantra
januar
januara
januarje
janusz
janz
japan
japonica
japonicum
japos
jar
jargon
jarosław
jas
jasen
jasne
jasnje
jasny
jason
jats
java
jawi
jawis
jawje
jazor
jazora
jazorach
jazorina
jazoris
jazorje
jazoro
jazorom
jazorow
jazory
jazz
jazzowy
jałowjen
jc
jca
jce
jcowych
jcy
jcyna
je
jean
jeden
jedła
jeff
jeffrey
jegły
jej
jeje
jeju
jelenia
jemen
jemenom
jemjelica
jemjelnica
jen
jena
jenc
jenje
jennifer
jenoz
jens
jeps
jerjeł
jersey
jerzy
jes
jest
jewo
jezus
jezusa
jezusowe
jfalu
ji
jich
jidis
jill
jim
jima
jimi
jindr
jir
jis
jka
jna
jne
jnje
jnow
jnski
jnu
jny
jo
joachim
joan
jochen
joe
jogo
joh
johann
johanna
johannes
johannisbeerstrauch
john
johnny
johnson
jole
jolic
jom
jomu
jon
jonas
jonathan
jones
jonna
jopara
jordan
jordana
jordaniska
jore
jorodnikojske
jose
josef
joseph
josip
journal
jowali
jowanje
jowar
jował
jozef
jpg
jr
js
jsach
jska
jske
jskej
jskeje
jski
jsko
jsku
jsow
jsy
ju
juan
judeo
judy
jugendlexikon
juglans
jugosłowjan
jules
julian
juliana
julij
julija
juliju
julius
juncea
jung
junge
junij
junija
juniju
juniperus
jupiter
jura
jurij
jurija
jurist
juro
jus
justin
jutta
juz
jva
jwoda
jwodstwa
jwodstwje
jwodstwo
jz
k
ka
kabaretist
kabinet
kabpils
kach
kaczyn
kaikai
kaiserowa
kaj
kajetan
kajmany
kak
kaki
kakosc
kala
kalawa
kalendar
kalendarja
kalendarju
kaliforniska
kaliforniskej
kaliforniskeje
kaliningrad
kalkate
kallfell
kalmyska
kalts
kam
kamala
kambodz
kamc
kamerun
kamerunom
kami
kamien
kamjen
kamjenicy
kamjentnych
kan
kanada
kanadiska
kanadiski
kanadu
kanady
kanal
kanariske
kanariskich
kanaz
kanclar
kanclarja
kanclarje
kandidat
kandidaty
kank
kanka
kanton
kantonje
kantor
kap
kapitalismus
kapitel
kapsla
kapsle
kapslowy
kapsne
karac
karadz
karambola
kardamom
kardinal
karel
karels
karibiske
karibiskem
karieru
karl
karla
karlo
karlsruhe
karnikel
karol
karola
karrenbauer
karska
kartuzy
kas
kaseta
kasper
kaspiske
kaspiskego
kastanija
kasze
kata
katalan
katalogu
kataloniska
katar
kate
kategorija
kater
katja
katolska
katolskeje
katolski
katolskich
katowice
katu
katy
kauderwelsch
kaulfu
kawkaza
kawkazu
kaz
kazachstan
kazan
kazimierz
kazimierza
kazn
kazni
kaznjow
kazusow
kał
kałpjen
kb
kc
kde
ke
kec
kego
kej
keje
keju
kejz
kek
kelly
keltiska
keltiske
keluch
kelus
kem
ken
kenija
kenneth
kenrick
kenz
ker
kerc
kerk
kerki
kerkonos
ketlicojc
kevin
kg
khan
ki
kich
kichac
kiefer
kiel
kiersznowski
kiesinger
kightley
kijas
kijew
kilank
kilomejtarjow
kilometer
kilometerje
kilometrow
kim
kin
kind
kinder
kinderbuchpreis
king
kino
kinspork
kirche
kirgiziska
kiribati
kirs
kisalina
kisaliny
kisała
kisałe
kisc
kislik
kislika
kit
kita
kito
kitts
kiwano
kiwi
kjagelojta
kjaglojta
kjarchob
kjarchobje
kjarcma
kjarliz
kjarmus
kladogram
klasa
klasiska
klasy
klaus
klawe
kle
klein
kleine
kleines
klemens
kli
kliem
kliemowa
klima
klos
klub
kluba
km
knautia
kne
kniglicki
knigłach
knigłow
knigły
knigłys
kniha
knihow
knoblauch
knochac
know
ko
koatlet
koatletka
kobjela
kobołk
kobołkowych
koch
kocor
koda
koehne
kogo
kohl
kojc
kojte
kojty
kokla
kokos
kokosowe
kokot
kokota
kola
kolkwitz
kolonija
kolosanam
kolumbiska
kolumbiskej
kolumbiskeju
kolumbiski
kom
koma
kombinacije
kombine
komety
komikar
komisija
komisije
komiteja
komorow
komorowa
komorowje
komory
kompaß
kompjuteroweje
kompleksne
kompleksny
kompletne
kompletnje
kompone
komponenta
komponist
komponistka
kompozicijach
kompozicije
kompoziciju
komu
komunistiska
komunistiskeje
komunistiski
komuz
kon
koncert
koncerty
kondicional
konference
konferency
kongo
kongresa
konjugacija
konjunktiw
konomie
konrad
konserwatiwny
konserwe
konsonant
konsonanta
konsonantach
konsonantami
konsonantow
konsonanty
konstanta
konstantin
konstrukter
kontakt
kontinens
kontinent
kontinenta
kontinentalne
kontinenty
kontrole
kontrolu
konwerb
konwerby
koordinaty
koordine
kopackosadowe
kopan
kopar
kopenhagen
kops
koptische
kor
korea
korean
koreja
korejan
koreji
koreju
korinc
korjen
korjenje
korla
kornis
korniska
korutan
korzym
kos
kosc
kosmos
koso
kosovo
kosowa
kosowo
kosta
kosyk
kotare
kotarez
kotarych
kotarymi
kotaryz
kova
kow
kowa
kowar
kowe
kowej
kowje
kowk
kowu
kowy
kowych
kowym
koz
koła
koło
kp
kr
kra
krabat
krabata
kradu
kragaty
kraj
kraja
krajach
kraje
krajina
krajinowa
krajinu
krajiny
krajne
krajnego
krajnem
krajnemu
krajnu
krajny
krajnych
krajnym
krajow
kraju
krako
krakow
krakowje
kral
krala
kralojska
kralojstwa
kralojstwje
kralojstwo
kralom
kralow
kralowka
kralowki
kramp
kraszewskego
kraszewski
krause
krawc
krawcec
krawcojc
krawz
kre
kreditnog
kreise
kreises
krejz
krejza
krejzach
krejzam
krejze
krejzow
krejzu
kremer
kreolska
kreslar
kreslenje
kresse
kreta
krick
krickach
krida
krim
kristusa
kristusom
kristusowy
kristusu
kritikar
krizy
krjasa
krjen
krjok
kro
krob
krodo
krona
kronje
kronowa
kronowe
kronowej
kronowych
kropnja
kros
krosno
krotka
krotke
krotkem
krotki
krotkich
krotkim
krotko
krotkopo
krotkowjacornej
krotkowjacornem
krotkozajts
krots
kru
krus
krustpils
kruz
krygar
krynica
krzysztof
ks
ku
kuangsi
kuba
kuban
kubas
kubs
kubłan
kubłanje
kuc
kuchar
kuchni
kuhschelle
kuiperowy
kujawska
kujawski
kujawsko
kukel
kukol
kukow
kukowje
kula
kulawata
kule
kuli
kulka
kulki
kulkowa
kulojta
kulojte
kulojty
kulow
kulowas
kulowata
kulowate
kulowaty
kulowem
kulowje
kultiwe
kultur
kultura
kulturach
kulturelne
kulturje
kulturna
kulturne
kulturnego
kulturnik
kulturny
kulturnych
kulturnym
kulturu
kultury
kulu
kumkwat
kums
kumwałd
kuniny
kunst
kunth
kunze
kupa
kupach
kupami
kupce
kupił
kupje
kupka
kupkach
kupkam
kupki
kupkow
kupkowu
kupku
kupny
kupow
kupował
kupowy
kupu
kupy
kurjo
kurs
kursa
kurse
kurt
kurwjerch
kurz
kus
kusk
kut
kutno
kutow
kuts
kuty
kuwait
kuz
kve
kw
kwadrat
kwadratnem
kwadratny
kwadratnych
kwas
kwe
kwis
kwitarjow
kwitula
kylie
kypc
kyriliski
kłaz
kłos
kłoski
l
la
labkraut
laburnum
lach
laden
lady
lag
lago
lajnert
lake
laki
lam
lambda
lami
lamiaceae
lamium
lan
lancetojte
land
landesarchivs
landkreis
lang
lange
language
languages
lanka
lany
lanz
laos
lapate
lapy
lar
larik
larix
larry
larwy
las
laso
lasowar
lasowarjow
lat
latifolia
latifolium
latin
latk
lattke
lausitz
lausitzer
law
lawa
lawendel
lawrence
laz
lazyn
lbach
lbne
lby
lc
lcy
le
leben
lebensbaum
leber
lech
ledeb
lee
legenda
legislaturnej
legnica
lehmann
lehrbuch
leinwand
leipner
leipzig
lej
leja
lejnik
lejowe
leksikon
lektor
lektorka
lema
lemata
lemberk
len
lena
lengua
lenim
lenin
lenja
lenje
lenju
lenka
lennon
lens
leo
leon
leonard
leonardo
leone
leopardus
leopold
lepidium
lepus
ler
les
lesa
leskien
lesko
lesotho
lesow
leswig
leszek
let
letis
letiska
letiskej
letiski
letterman
lewanje
lewis
lexikon
lez
li
lia
libani
libanon
liberec
liberecky
liberia
libes
libo
libs
libyska
lic
licba
licbje
licbne
licbniki
licbnikow
licbu
licby
lice
licenim
licenja
licenje
licenju
lichotna
lichotne
lichotnego
lichotny
lichotnych
lichotu
lichy
licy
lidzbark
liebe
lieberose
liebknecht
liechtenstein
liechtensteinska
life
liga
liju
like
liklik
lili
lilongwe
limba
limes
limeta
lin
lindl
line
linealne
lingua
linguistic
linija
linije
liniji
linijow
liniju
link
linke
linked
linne
linsa
linux
linuxa
linz
lipa
lipina
lipje
lipno
lips
lipsc
lipsk
lipska
lipsku
lis
lisa
lisc
lischewsky
list
listowa
listowe
listowych
listy
lit
litaws
litawska
litawske
litawskej
litawskeje
litawskeju
litawski
literarna
literarne
literarny
literatur
literatura
literaturje
literaturny
literaturu
literatury
lithocarpus
lits
liu
live
liverpool
lił
liła
liło
lk
lka
lkel
lker
lki
ll
ller
lln
ln
lna
lnd
lne
lnej
lnikow
lnje
lny
lnych
lnym
lo
lod
lodka
lodki
lodowane
lodowany
loituma
lojban
lokatiw
lom
lon
lona
london
londona
londonje
lone
long
lony
lonych
lopez
lorenc
los
lotar
lothar
lotowe
lotowego
lotowy
lotowym
lou
louis
louisiana
lour
love
low
lowanje
lp
lr
ls
lsc
lsd
lsk
lska
lske
lskego
lskej
lskeje
lskeju
lskem
lski
lskich
lskim
lsko
lu
lubaczo
lubarto
lubelski
lubelskie
lubin
lubina
lubinje
lubjej
lublin
lubnjow
lubnjowje
lubolce
lubolz
luboraz
lubos
lubosc
lubowas
lubował
lubus
lubuskem
luchs
lucia
lucida
luckau
lud
luda
ludlicenju
ludmila
ludnosc
ludoju
ludospyt
ludow
ludowa
ludowe
ludowego
ludowej
ludoweje
ludowem
ludowu
ludowy
ludowych
ludwig
ludwigshafen
ludwik
ludy
luis
lujo
luju
luka
lukas
lukin
lus
lusatia
lutea
luther
lutki
luxemburg
luxemburgska
luz
ly
lycalopex
lynx
lyrika
lyrikar
lyriki
lze
m
ma
mac
macao
machac
maciej
mack
maclise
macrophylla
madagaskar
madagaskarje
madama
madame
madeira
madge
madlena
madonna
madrid
maemo
magacin
magacina
magdeburg
magee
magna
maguire
maharas
mahatma
mail
main
mainland
mainz
maizie
maj
maja
maje
major
majs
maju
mak
makeba
makedon
makino
makowych
maks
maksimalna
maksimalnje
maksimalnu
malawi
malaysia
malayzija
malayziski
malczewski
malediwy
males
mali
malija
maliju
malina
malink
malinkowa
mallorca
malmo
malsnje
malta
maltas
malus
malva
malxetal
mam
mama
maminej
maminore
maminu
mamutowy
mamy
man
mana
manager
manchu
mandarina
mandela
mandla
mandlowe
mandlowy
mandshurica
mandz
manfred
manfreda
mango
manihot
maniok
mann
mannheim
manning
mans
manuskript
manz
map
mar
marakuja
maranha
marcin
marcus
mare
marek
margarete
margita
margot
marhold
mari
maria
marian
marie
marija
marije
marijina
marina
marino
mario
marion
maritimus
marja
marjana
marjany
marje
marjorie
mark
marka
marke
marki
marko
markojska
marlene
marokko
marron
mars
marseillaise
marshall
mart
martin
martina
martinique
martius
martrar
marus
marx
marxa
mas
masa
maskulinum
masu
mat
mata
matej
matejko
matematice
matematika
matematikar
matematiki
material
materija
mato
matthejusa
matthew
matthias
matthiola
matus
mauretan
mauritius
max
maxi
maxim
maxima
may
maya
mayer
mayotte
mazowiecka
mazowiecki
mazowieckie
mazowske
mazowskej
mazowskem
mazurskej
mazurskem
mała
małe
małego
małej
małeje
małem
małka
małke
małkej
małki
małkich
małko
małksa
małksowy
mało
małokalkate
małopo
mału
małuc
mały
małych
małym
mb
mba
mbo
mccartney
mdr
me
mechy
mecklenburg
mecklenburgska
media
medicinu
meego
mehr
mehrja
meje
mejstar
mejstarstwa
mejstarstwo
melcher
melchior
melilla
men
mene
mer
meri
meridian
meridiana
meridianje
meridianom
meridiany
merkel
merkur
merr
mes
mesic
mespilus
metal
metale
meteoroidy
meter
metoda
metodow
metody
metrow
metzler
mexico
mexikan
mexiko
mey
meyer
meyers
mi
miasto
mic
michael
michail
michał
michała
michałk
michel
michigan
michx
mick
mickiewicz
mickiewicza
microcarpa
microsoft
midt
mie
mieczysława
mies
mieszko
mihalic
mike
mikołaj
mikławs
mil
mila
milan
milbradt
mile
miliardy
milii
milimetrow
milinarnja
milinu
milion
miliona
milionami
milionow
miliony
mill
millefolium
miller
milos
mimo
mina
minh
miniplanety
ministar
ministarski
minnesota
minor
minsk
minu
minuta
minutach
minutow
minuty
miny
mio
miq
miquelon
mir
mirabela
miriam
mis
mississippi
missouri
mit
mita
mittelalter
mitteleuropas
mitterrand
miłoraz
mj
mjadwjez
mjasec
mjaseca
mjasecach
mjasece
mjasecnik
mjasecow
mjasecu
mjaz
mjaztym
mjazy
mjazynarodna
mjazynarodne
mjazynarodnego
mjazynarodnej
mjazynarodnje
mjazynarodny
mjazysłowjan
mjel
mjen
mjena
mjeni
mjenim
mjenja
mjenjach
mjenjej
mjenjow
mjenjowana
mjenjowane
mjenjowany
mjenjowanych
mjenjowe
mjenju
mjenjujo
mjenow
mjers
mjertyn
mjez
mk
ml
mlac
mlitz
mln
mloko
mm
mmel
mnich
mnichy
mnjo
mnogolicbne
mo
mobile
mocy
model
moderator
moderatorka
moderna
moderne
modernego
modernem
modibo
modifice
modl
modus
moench
mogu
mohammad
mohan
mohanom
mohn
moja
moks
moku
moldawska
moldawskej
molecular
molekul
molekulargenetiskich
molekule
moll
moller
mollerus
mon
monaco
monako
monarchija
monde
mongolow
mongols
mongolska
mongolske
mongolskej
mongolski
monica
monika
mono
monogr
monotypiski
mont
montana
montanum
monte
montenegro
montserrat
moody
morawy
mordar
more
morfem
morfologija
morfologiji
morgan
morjo
morling
morphologie
morrison
mortwa
mos
mosambik
mosambikom
moschata
moskewske
moskowski
moskwa
moskwje
moskwy
most
mount
mouton
moz
mozilla
mra
mre
mroja
mrojow
mrokawa
mroz
mrozoju
ms
mske
mskej
mski
msko
mt
mu
mucha
mucke
muell
muka
muki
muku
mulde
multimediske
mumbai
mundart
murjar
murje
mus
musali
musał
musała
muse
museum
music
musikgeschichte
muske
muskece
muskego
muski
muskich
muslimiskej
muslimy
muster
mustwa
mustwje
mustwo
musy
mute
muz
muza
muzej
muzeja
muzejownik
muzeum
muzeuma
muzika
muzikar
muzikarjow
muziki
muzikowa
muzikowe
muzikowy
muzikowych
muziku
my
myanmar
myosotis
myrsinoideae
myrsinowych
mys
mysle
mysli
myta
myto
mło
młode
młodostne
młods
młody
młodych
młoge
młogi
młogich
młogolicbne
młos
młoz
młyn
młynk
młynkowa
n
na
nabe
nabo
naboz
nacerwjenje
nach
nad
nadawk
nadawki
nadejz
nadir
nadpad
nadpo
nadroznych
naga
nage
nagel
nagelowa
nagle
naglowa
nagora
nagras
nagrał
nagłe
nahuatl
najs
nakai
nako
nakon
naks
nakład
nakłada
nakładnik
nakładnistwa
nakładnistwje
nakładnistwo
nakłonjach
nale
nam
namaka
namakajomy
namakaju
namakali
namakanki
namakas
namakał
namakała
name
namen
namibija
namo
nams
nan
nana
nanejmjenjej
napac
napisas
napisał
napisała
napne
napo
naps
nar
naraz
nare
naroda
narodami
narodna
narodne
narodnego
narodneje
narodnu
narodny
narodnych
narodow
narodowu
naroz
nas
nasajz
nasc
nasle
naspomnjenje
naspomnjeł
naspomnjeło
naspomnjone
nastali
nastanjo
nastanu
nastas
nastawa
nastawk
nastawki
nastawkow
nastał
nastała
nastało
nastupa
nastupanju
nastupnosc
nasua
nasuella
nasyp
nasypach
nat
national
nationalgalerie
natur
naturfu
natwar
natwari
natwarił
natwarjenje
natwarjona
natwarjone
natwarjony
nau
nauru
nave
nawe
nawigaciji
nawigaciju
nawigaciska
nawjedowanim
nawjedowar
nawjedowarjom
nawjedował
nawka
nawros
nawuknuł
naya
naz
nazalne
nazalnje
nazalnych
nazelen
nazgo
nazyma
nazymje
nazymska
nazymske
nazymski
nazymy
nałog
nałogi
nałogow
nałoz
nc
nchen
ncia
ncipe
ncu
nd
nda
nde
nden
ndig
ndr
ne
ned
nedo
negatiwnje
neglectum
nego
neil
neiße
nej
nejblis
nejbliz
nejbogats
nejcesc
nejdlejs
nejdłyms
neje
nejkrots
nejle
nejmjen
nejmłods
nejnis
nejnows
nejpjerwjej
nejpopularnjejs
nejs
nejskerjej
nejstars
nejsławnjejs
neju
nejwaz
nejwe
nejwus
nejwuznamnjejs
nejz
nejznas
nekrolog
nektar
nelson
nem
nemecky
nen
nena
neotrop
nepal
neptun
neruda
nerwy
net
network
neu
neue
neuen
neuendorf
neuer
neues
neuguinea
neuhausen
neukirch
neumann
neumannojc
neustrelitz
neutralne
nevada
nevis
new
news
newton
nez
ng
nger
ngua
ni
nia
nic
nica
nice
nich
nicholson
nicht
nicolas
nidzica
nie
nieder
niederlausitz
niederlausitzer
niedersorbisch
niedersorbische
niedersorbischen
niedersorbisches
nieswurz
niez
nig
nigdy
niger
nigerija
nigerom
night
nigra
nigrum
nijo
nijos
nik
nika
niki
nikol
nikow
nil
nila
nili
nim
nima
nimc
nimce
nimcow
nimi
nimjernosc
nims
nimska
nimske
nimskego
nimskej
nimskeje
nimskeju
nimskem
nimskemu
nimski
nimskich
nimskim
nimskimi
nimsko
nimskore
nimsku
nin
nina
ninski
niny
niro
nis
niska
niske
niski
nisou
nitki
niwa
niz
nił
niła
nja
njaboga
njach
njaju
njajuce
njama
njamaju
njamo
njan
njaso
njasu
njata
njate
njaty
nje
njebja
njebjaske
njebjaskego
njebjaskej
njebjaski
njebjaskich
njebjelc
njebjo
njebju
njeby
njeca
njechorn
njedajo
njedaloko
njeeksiste
njegle
njego
njej
njeje
njejo
njejs
njejsom
njejstej
njejsu
njejz
njekwis
njeme
njemo
njenadpadne
njenc
njenja
njenjami
njenjaso
njenje
njenju
njepila
njepo
njepowe
njeps
njepłas
njesko
njesme
njespiwny
njeswac
njewe
njewo
njewospjetujo
njewustupujo
njewuz
njez
njezabyn
njezme
njeznaty
njezrosc
njo
njogo
njojski
njok
njom
njomu
njone
njowny
nju
nk
nka
nkate
nky
nlandska
no
nobelowe
nobelowego
noc
nocc
nocy
noeuropejski
noeuropski
nofriziska
noga
nogi
nom
nomen
nominatiw
nomine
non
nonimskeje
norbergowa
norbert
nord
nordhoff
nordiskeje
nordrhein
normalne
normalneju
normalnje
normalny
norman
normandija
north
northern
norwegs
norwegska
norwegskej
norwegskeje
norwegski
nos
nosar
nosc
nose
nosece
nosowy
nostny
nosy
nosłowjan
not
notne
nova
november
now
nowa
nowak
nowaka
nowe
nowego
nowej
noweje
nowela
nowem
nowember
nowembera
nowembra
nowembrje
nowina
nowinow
nowiny
nowka
nowo
nowosc
nowoseelandska
nowoseelandskeje
nowoseelandski
nowotny
nows
nowu
nowy
nowych
nowym
noz
noze
np
npiv
nr
ns
nschwalde
nsldz
nste
nt
nta
ntejs
nter
nther
nto
nu
nudicaule
nuk
nul
nulowego
nulowy
nulu
numerusa
nuphar
nur
nurney
nuts
nutt
nvu
ny
nych
nyi
nyks
nykus
nym
nymi
nymphaea
nymphaeaceae
nysa
nysowem
nysowo
nysu
nysy
nz
o
ob
obama
oberlausitz
oberlausitzer
obersorbischen
oberz
objekt
objekta
objektow
objekty
oblasc
obojte
obres
observatory
oby
oc
occidentalis
ocean
oceana
oceanje
oceanom
och
ochotona
ochu
ocimum
od
odeg
oder
odorata
odra
odriny
odru
odry
oe
of
official
officinale
officinalis
ofice
oficialna
oficialne
oficialnje
oficialny
oficielna
oficielne
oficielneje
oficielnje
oficielny
ogo
ohio
ohne
ohorn
ohrid
ohridski
oi
ois
ojc
ojcach
ojce
ojen
ojenja
ojenje
ojenjow
ojska
ojski
ojte
ojty
oju
okrilla
oktober
oktobera
oktoberom
oktobra
oktobrje
ol
olaf
old
oldenburg
olecko
oleracea
oliver
oliwa
ologie
ologische
olsem
olsztyn
olsztynek
olympiske
olympiski
om
oma
omach
oman
omje
omne
omniglot
omu
omy
on
ona
once
one
onego
onej
oneje
onem
onims
onk
onka
onkami
onki
onkow
onkowa
onkowe
onkowego
onkowem
onkowy
onkowych
onku
online
onop
onosc
ontario
onu
ony
onych
onymi
oortiska
opeator
open
openoffice
opera
operowa
operu
opery
oplejs
opole
opus
opła
opłe
opłych
or
ora
oranz
orawina
oregon
orellana
org
organ
organizacija
organizacije
organizaciju
organizator
organize
orgelach
orientale
orientalis
oriente
origin
originalne
originalnje
originalny
orkney
ornakec
ornica
orny
ors
orstwa
ort
ortografija
ortografiji
ortsnamen
ortsnamenbuch
oryctolagus
orzeszkowa
orłowicza
os
oscar
osetija
osiedle
osijek
oskar
oslo
osmanske
ost
oste
ostro
ostruz
ostrzeszo
ostsee
oswald
osym
ota
otej
otfried
other
otiska
otiskeje
otiski
ottendorf
otto
ou
ova
over
ow
owa
owalne
owan
owana
owane
owanim
owanja
owanje
owanju
owanka
owany
owar
owas
ował
owała
owc
owe
owego
owej
owem
owje
owka
ownik
ownjach
ownje
owny
owu
owy
owych
owym
oxford
oxycoccus
oz
ozems
ozemska
ozemske
ozemskej
ozemskeje
ozemski
ołc
ołs
ołta
ołte
ołtojte
ołtozelene
ołtu
ołty
ołtych
ołtym
p
pa
pabianice
pablo
pacifiku
pacino
packaty
packu
pad
pada
padach
paderewski
padorownje
padow
pady
paeonia
page
pai
paje
pak
paketow
pakistan
pakistanje
pakistanom
pakowjez
paks
palestina
pali
pall
palustris
pama
pan
panama
panc
panda
pandemija
pandy
pane
panero
pank
panorama
panthera
papaja
papaver
papaveraceae
pappel
paprika
papua
par
para
paraguay
paraguayja
paraguayju
paralelnje
parazitiski
paris
parisa
pariski
parisu
park
parkach
parku
parlamens
parlament
parlamenta
parses
parsk
part
partei
particip
partikla
partikle
partitiw
partnar
partnarje
party
parum
parviflora
pas
pastwach
pata
patricia
patrick
patta
pau
paul
paulo
paw
pawlowa
pawoł
pawoła
pax
paz
pc
pd
pdf
pe
peak
pedagog
pedagoga
pedagogowka
pedro
peitz
peitzer
peking
pela
pelargonija
pelargonium
pendula
pennsylvania
people
pepo
per
perfekt
perikarp
perioz
pernak
pernambuco
pers
persica
persis
persiski
perspektiwy
peru
peruwje
peter
petersburg
petersburgu
peterzilija
petit
petra
petrick
pfalcojska
pfalcojskeje
pfer
pflanzen
pflanzenfu
pflanzennamen
pflanzenportra
pflanzenr
pflanzenwelt
phenakospermum
phi
phil
philadelphia
philip
philipp
philologie
php
phylogeny
pi
pianist
piaski
pica
pican
picea
picne
picnja
picnjo
picnju
pico
picu
pidgin
pierre
pijo
piju
pikinini
pimenov
pinaceae
piniekowa
pinkerton
pinochet
pinus
pione
piotr
piotrko
pip
pipanojce
pis
pisali
pisan
pisana
pisane
pisanja
pisanje
pisanju
pisany
pisas
pisał
pisała
pisin
pisma
pismik
pismika
pismikami
pismiki
pismikom
pismikow
pismje
pismo
pismojstwa
pismojstwo
pismom
pismow
pismowstwa
pisnej
pisneje
pisnje
pisum
pisz
pitahaya
pits
pittkunings
pius
piwa
piwarnje
piwo
pił
pjacywa
pjan
pjas
pje
pjec
pjej
pjelch
pjen
pjenjez
pjenjeze
pjepjer
pjera
pjerinate
pjerkow
pjero
pjers
pjerwjej
pl
pla
plan
planet
planety
planowa
planowe
planoweje
plant
plantarum
plants
plany
plata
platycladus
ple
plena
ples
plon
plowa
plunkett
plural
plurala
pluraliski
pluralu
plus
pluskwamperfekt
pluto
plzen
pn
pno
po
poaceae
pochada
pod
podde
podgorica
podlaski
podleskem
podstupim
podstupimske
podłu
poezija
pogjarzlina
pogoda
pohl
pohonc
poir
pojark
pokarpatskem
pokaza
pokazali
pokazas
pokazujo
pokazuju
pol
pola
polarne
polarny
pole
politikar
politikarka
politiki
politiku
politische
politiska
politiske
politiskego
politiski
politiskich
polo
poloju
poloma
polonia
polska
polski
polskiego
polu
pomagas
pome
pomelo
pomhaj
pomina
pomjen
pomjenjenje
pomjenjona
pomjenjone
pomjenjony
pomjenjonych
pomjenjowali
pomjenjowana
pomjenjowane
pomjenjowanje
pomjenjowany
pomjenjujo
pomjenjuju
pomnik
pomnika
pomoc
pomocne
pomocny
pomocu
pomocy
pomorske
pomorskej
pomorskem
pomorskie
pompidou
pona
pool
pop
popajz
popojcach
popojce
popowa
popowy
pops
popularnosc
popularny
populus
por
porbandar
porchow
pore
porow
port
porta
portal
portugalska
portugalskeje
portugalski
portugis
portugiziski
posesiwne
posledni
post
postpozicije
potaninii
potom
potsdam
potter
povec
powe
powiat
powiaty
powjerch
powjercha
powjerchu
pows
poz
pozdz
pozicija
pozicijach
pozicije
poziciju
pozitiwnje
poznan
poznanju
poł
połc
połkuli
połkupa
połkupje
połkupu
połkupy
połne
połnoc
połny
połobske
połobskich
połojca
połojcy
połoz
południe
pp
ppiu
pr
pra
prades
praga
pragi
praha
praks
prare
prasłowjan
pratensis
pratyja
pratyjarje
pratyje
pratyji
prawobydlarjow
prawopisny
praze
pre
predigergesellschaft
preferujo
prefikse
prefiksow
preilack
preis
premier
premierminister
prepozicija
prepozicije
prepozicijow
prepoziciju
pres
presl
press
preteritum
preußler
prezens
prezente
prezident
prezidenta
prezidentka
prezidentoju
prezidentom
prezidenty
pri
primulaceae
primulowych
princ
prince
prionailurus
pris
priwatiw
prjatkar
prjatkarske
prjatkowanja
prjawoz
prjawozu
prjedy
pro
problem
problemow
procentow
proces
procese
procowar
procyon
procyonidae
produce
producent
producentka
produkciju
produkt
produktiwny
produkty
prof
profesor
profesora
profesory
program
programa
programy
project
projekt
projekta
projektach
projektow
projekty
promjenja
promjenjach
promjenjenja
promowe
pronomen
pronomena
pronomenach
pronomenow
pronomeny
pros
prowinca
prowince
prowincow
prowincu
prowincy
proza
proze
prozy
prunifolia
prunus
prus
prys
przeworsk
ps
pseudonym
psowic
psowica
psy
ptas
ptolemeus
pttk
pu
publ
publice
publicist
publicistika
publicistka
publikacijow
publique
puc
puccina
puccini
puck
puckowina
puerto
puknu
pula
pulegioides
pulsatilla
puma
pumila
pupajca
pupawa
pupki
pupkowe
puri
purple
purpurascens
purpurbarwny
purpurea
pursh
pus
pusc
puschmann
pustych
putin
puts
puławy
pyrenaica
pyrenejow
pyrenejska
pyrinae
pyrus
pys
pyta
pytan
pytanje
pytas
płas
płod
płoda
płodami
płodnik
płodnika
płodow
płodowa
płodowe
płodowego
płodoweje
płodowem
płodowy
płodowych
płodowym
płody
płomje
płomjenja
płomjenjowa
płon
płona
płone
płonego
płoni
płonina
płoninach
płoninje
płoninow
płoninu
płoniny
płonjak
płonje
płony
płonych
płotach
płoz
q
qua
quatre
que
queen
quelle
quercus
qui
qwerty
qwertz
r
ra
rach
rachow
racibo
rack
racki
rad
rada
radeberg
radija
radijo
radio
radius
radiusa
radnica
radom
radomsko
radosc
radus
radwor
radworju
rady
radyserb
radziejo
raf
rafael
raimondo
rainer
raj
rajch
rajs
raju
rak
rakecy
rakowe
ralbicy
rali
ralph
ram
rambutan
ramiku
ramnow
ramo
ran
rana
rane
ranem
rangsdorf
ranja
ranje
rano
ranunculaceae
ranunculus
rapper
rar
ras
rasch
rau
rawa
rawp
rawska
ray
raz
raza
raze
razoju
razow
rał
rała
rało
rb
rbb
rbis
rby
rc
rca
rce
rchb
rche
rcowan
rcu
rd
re
reagan
records
red
reda
redakcija
redakciji
redaktor
redaktora
redaktorka
reddo
redige
redo
reduce
ref
reference
regel
regenzauberlied
regia
region
regiona
regionach
regionalna
regionalne
regionalnych
regionje
regionow
regiony
rehder
reimann
reinhard
reise
reja
rejowan
rejowar
rejtinga
reju
relatiwnje
ren
rene
repens
reportar
reportaz
reprezente
republic
republice
republika
republiki
republiku
republiky
res
research
resources
resp
respektiwnje
revista
revolution
rewe
rewolucije
rewolucionar
reykjavi
rez
rezulte
rg
rgen
rgens
rgoj
rhamnaceae
rhamnus
rheinland
rhinanthus
rho
ri
ribes
rich
richard
richardson
richter
rico
rietz
riga
rijki
rik
rika
riki
riku
rili
rin
rinach
ringelblume
ringen
ringlota
rinow
riny
rio
ris
rita
rivera
rizo
rił
riła
rja
rjadowane
rjam
rjaschen
rje
rjec
rjech
rjechy
rjej
rjejc
rjejcach
rjejce
rjelc
rjelca
rjen
rjenja
rjenje
rjenju
rjents
rjepo
rjes
rjeta
rjetow
rjo
rjom
rjona
rjone
rjoneje
rjony
rjow
rju
rk
rka
rkac
rkach
rkacowe
rkacowych
rke
rki
rkisch
rkische
rkosłodka
rkow
rkowach
rkowy
rku
rlitz
rna
rnberg
rne
rnej
rneje
rnem
rner
rnik
rnis
rnje
rno
rnosc
rnoserb
rnoserbs
rnoserbska
rnoserbske
rnoserbskego
rnoserbskej
rnoserbskeje
rnoserbskem
rnoserbski
rnołuz
rnu
rny
rnych
rnym
ro
rob
robert
roberto
roberts
robertson
robin
roby
rocha
rock
rockowa
rockowy
rod
roda
rodach
rodami
rodne
rodnje
rodny
rodoju
rodom
rodow
rodowe
rody
roem
roger
rogers
rogow
rogowe
rogoz
rohrkolben
roj
roju
rok
rolach
rolan
rolanskej
rolany
roll
rolling
rolna
rolnikar
rolny
roloff
rolu
rom
roma
roman
romaniska
romaniskich
romantika
romantiki
romjanam
romje
romska
romske
romskego
romskem
romski
romsko
ronald
rondo
ronica
ronicowych
rorka
rorku
ros
rosa
rosaceae
rosc
rose
rosmarin
rost
rostlina
rostlinach
rostlinam
rostlinami
rostlinje
rostlinow
rostlinske
rostlinskich
rostlinu
rostliny
rostock
rostu
rot
rothmaler
rotwica
rouen
row
rowa
rowali
rowan
rowana
rowane
rowanja
rowanje
rowanju
rowano
rowany
rowanych
rowas
rował
rowała
rowało
rowe
rowje
rowna
rowne
rownem
rownina
rowninje
rowninu
rowniny
rowno
rownocasnje
rownosc
rownoz
rowny
rownych
rowy
roy
royal
roz
rozc
rozdz
rozeznawa
rozeznawaju
rozeznawajucy
rozeznawanje
rozeznawas
rozgrona
rozgrono
rozgłos
rozgłosowa
rozgłosowy
rozhelony
rozhlad
rozhlada
rozme
rozmjej
roznogas
rozpadnu
rozporach
rozps
rozpukliny
rozpus
rozraz
rozre
rozs
rozsuz
rozwe
rozz
rs
rska
rske
rskego
rskej
rskeje
rskeju
rskem
rski
rskich
rskim
rsku
rst
rsta
rstowa
rta
rtach
rte
rtels
rtem
rtembergska
rtembergskej
rterbuch
rtk
rtow
rttemberg
rttembergska
rttembergskej
rttembergskeje
rty
ru
ruanda
rubjaz
rubra
rubrum
ruca
ruce
rucenje
ruch
rucnikar
rucym
rudi
rudnych
rudolf
rujany
rujo
rujotej
ruju
rujuca
rujuce
rujucy
rujucych
ruka
rukow
ruku
rum
ruma
rumburk
rumia
rumje
rumnostnje
rumoju
rumun
rumuns
rundschau
runjewonline
rupestris
rupr
rus
rusin
ruska
ruski
rusojska
rusojske
rusojskej
rusojskeje
rusojskeju
rusojski
rusojskich
rusojsko
rusy
ruta
rutaceae
ruth
rutowych
ruty
ry
ryba
rybow
ryby
rychtar
rydb
ryn
ryna
rypin
rypotka
rys
rz
rze
rzeszo
rzkresse
s
sa
saale
saar
saarbru
saarland
saarlandska
sabina
sabine
sach
sachgebiete
sachsen
sad
sada
sadnik
sadow
sadowy
sadowych
sadu
sady
sahara
sahary
sahra
saint
sajz
sakska
sakskego
sakskej
sakskeje
sakskeju
sakskem
sakski
saksko
salat
salicaceae
salomonow
salvador
salzburg
sam
sama
sambija
sambiju
same
samej
samica
samice
samjaki
samo
samoa
samostatne
samostatnej
samostatnosc
samostatny
samske
samskego
samskej
samskeje
samskem
samski
samskim
samsku
samuel
samym
san
sandwich
sanguineum
sankt
sanok
sanskrit
santa
santiago
sarah
sarajewo
sarda
sardiniska
sardis
sardiske
sardiski
sas
saterfrizis
saterland
satirikar
sativa
sativum
saturn
saturna
saudi
sauer
save
sawana
saxoniae
saz
sboz
sc
scabiosa
scandens
sce
scena
scenariskich
scełego
scha
schacksdorf
schadowanka
schadz
schafgarbe
schauer
schaumkraut
sche
scheel
schen
schenkendo
schilling
schleife
schltdl
schlu
schmidt
schmogrow
schneid
schneider
scho
schober
scholz
schrenk
schriften
schro
schronisko
schu
schule
schult
schultze
schulz
schwarz
schwarze
schwegler
schweinfurt
schwela
schwerin
science
scott
sdaj
se
sea
seamonkey
sean
sebastian
sebje
sebna
sebne
sebnje
sebnosc
sebny
sect
sed
sedlarjow
sedlen
sedlis
sednuł
sedym
sedła
sedło
sedłom
sedłow
see
seerose
segaju
sei
seidel
sein
seine
sejm
sejma
sejmje
sejmoju
sejz
sekcija
sekcijow
sekretar
sekundach
sekundy
sem
seme
seminar
seminara
semitiske
semje
semjenis
semjenja
semjenjakow
semjenjow
semjenjowe
semjenjowych
sempervirens
sen
senebiera
senegal
senf
senftenberg
sepicy
september
septembera
septemberje
septembra
septembrje
sequoia
sequoiadendron
serb
serbach
serbam
serbami
serbin
serbiska
serbiskego
serbiskej
serbiskeje
serbiskeju
serbiski
serbisko
serbow
serbs
serbska
serbske
serbskego
serbskeho
serbskej
serbskeje
serbskeju
serbskem
serbskemu
serbski
serbskich
serbskim
serbskimi
serbsko
serbsku
serbstwa
serbstwo
serbterm
serby
sergej
serija
serije
seriji
service
ses
sewastopol
sewny
seybold
seychelle
sg
sh
shanghai
she
shehbaz
si
sibirica
sibirskej
sibirskeje
sich
siciliska
siddhartha
sie
sieb
sieboldiana
siedlce
siegfried
siemens
sienfan
sienkiewicz
sieradz
sierra
sigmund
sike
sikorski
sil
silvestris
simbabwe
simmersdorf
simon
simone
sin
sina
sinapis
sinensis
singapur
singular
singulara
singularje
singularny
sint
siorowski
siprage
site
sk
ska
skala
skalny
skalnych
skandinawiska
skandinawiskej
skałach
skałar
ske
skego
skej
skeje
skeju
skem
skemu
skerjej
ski
skich
skie
skiego
skiej
skim
skimi
sko
skopje
skoro
skowa
skowe
skowy
skowych
skrotcona
skrotconka
skrz
sks
sku
skupina
skutki
sl
sla
slavic
slavische
slawen
slawische
slawist
slawistiki
slawistiku
slawistka
sle
sleumer
slink
slopis
slovensko
slovensky
sm
smalanka
small
smata
smate
smaty
smaz
sme
smith
smjas
smjers
smjerz
smogorjow
smoler
smuz
smy
sna
snaz
sne
sni
snica
snjar
snje
snjej
sno
snooker
sny
snych
so
soba
sobje
sobota
sobow
sobowe
sobu
sobuawtor
sobuz
sobuzałoz
soby
soc
socialdemokratiski
socialistiska
socialistiskeje
socialistiski
socialne
society
sofia
sofija
software
sok
soko
sokoł
sol
solanaceae
solanum
solawa
sole
solz
som
somalia
somalija
sometimes
sonet
soneta
sonetow
sonety
song
sonja
sonnenblume
sophie
sopot
sopran
sorabicus
sorabija
sorabist
sorabistice
sorabistika
sorabistiki
sorabistiku
sorben
sorbisch
sorbische
sorbischen
sorbischer
sorbus
sorbzilla
sors
sorta
sortach
sorte
sorten
sortow
sorty
sos
sotra
sots
soul
soulowy
south
sow
sowa
sowjetska
sowjetskego
sowjetskeje
sowjetski
soziale
soł
sp
spa
spach
spadkow
span
sparganium
spas
spd
spe
specialne
specielnje
species
specifiski
specimen
speciosum
speedway
spektrum
spermatophyta
spermatophytina
spi
spicatum
spiegel
spinacia
spinat
spiraea
spiraeoideae
spisał
spise
spisowac
spisowas
spisy
spitzbergen
spiw
spiwa
spiwan
spiwanje
spiwar
spiwarka
spiwała
spiwow
spiwy
spiwyz
spjerchlinow
spjerchliny
splendens
spo
spodar
spohn
spomnjen
spomnjes
spork
sport
sportowy
spot
spoz
sprache
sprachen
spree
spreewald
spreewaldes
spremberg
spreng
sprewja
sprjewi
sprjewino
sprjewiny
sprjewja
sprjewje
sps
spuren
spus
sr
sre
sri
srjedz
srjejz
srjez
srjoda
sroki
srpska
ss
ssel
sseldorf
sser
ssere
ssp
st
sta
stach
stachowa
stadt
staj
staja
stajenje
stajenju
stajis
stajił
stajona
stakim
stal
stali
stalin
stam
stameny
stan
standardny
stanislaw
stanisław
stanisława
stanjo
stanu
stap
stara
staraju
stare
starego
starej
stareje
starem
starjejs
starka
starki
staro
starocerkwinosł
starogard
staropo
starops
starorusojski
starosc
starosta
starosty
starowe
stars
starstwje
starstwo
stary
starych
starym
stas
stat
stata
statach
statam
statami
states
statistik
statistiski
statkowanja
statkowanje
statkował
statkujo
statna
statne
statnego
statneje
statnik
statnu
statny
statnych
statoju
statom
statow
status
staty
staw
stawa
stawiznach
stawiznam
stawiznar
stawizniski
stawiznow
stawizny
stawje
stawnje
stał
stała
stało
ste
stecky
stefan
stefanie
steffen
stego
stein
steinbachs
steinmeier
stej
stempel
stenselowa
stephen
sterreich
steve
steven
stil
stka
stna
stnach
stnami
stne
stnje
stno
stnu
stny
stnych
sto
stockholm
stog
stoj
stojas
stojał
stojała
stoje
stojece
stojecy
stojecych
stojnis
stoki
stole
stolica
stolicu
stolicy
stoltenberg
stom
stoma
stone
stones
stopjen
stopjenju
stopnjach
stopnjami
stopnje
stopnjow
stopnjowa
stopnjowej
stopnjoweje
storkow
storm
story
stosc
stow
stoł
stołk
stołka
stołkach
stołki
str
stra
strait
stralsund
stranka
strasburger
stratan
strausberg
strelicija
strelitzia
striesow
strittmatter
strjawa
strjaz
stron
strona
stronach
stronami
stronje
stronki
stronow
stronu
strony
strowje
struktura
strukturu
struktury
strumica
sts
stu
stuart
studa
stude
student
studentow
studentske
studenty
studia
studien
studij
studija
studije
studiju
studium
studiumje
study
stuhr
stupił
stuttgart
stwa
stwje
stwo
stwoju
stwom
stwu
sty
styri
styrich
styriks
styriroz
styrjoch
styrnasc
su
subfamily
subgenus
subjekt
subsp
substanca
substantiw
substantiwach
substantiwje
substantiwow
substantiwy
subtribus
suc
sucha
suche
suchy
suchych
suchym
suckata
sudan
sudanom
sudnik
suffruticosa
sufiks
sufiksa
sufikse
sufiksom
sufiksow
sul
sultan
sun
sunbird
sunt
sur
surinam
surowa
surowin
sus
susedne
susednych
susedy
suspende
suz
svalbard
sve
sven
sw
swahili
swahils
swajz
swasiska
swastika
swe
swj
swjatemu
swl
swo
swoj
swojej
swojeje
swojich
swojim
swojogo
swoju
sy
syk
sylt
sylvatica
sylvestris
sym
symbol
symbole
syn
syna
synchronowy
synchrony
synonym
synonymy
syre
syriska
syrje
syrotka
system
systema
systemach
systematice
systematics
systematika
systemje
systemow
systemy
sz
szczecin
szczytno
szentendre
szlak
szymborska
szymon
słaba
słabje
słan
sławny
słod
słoda
słodka
słodke
słodkich
słodkosc
słokowa
słon
słoneje
słonoweje
słony
słow
słowa
słowach
słowaks
słowakska
słowakske
słowakskej
słowakskeje
słowakskeju
słowakski
słowami
słowian
słowin
słowjan
słowjanow
słowjany
słowje
słowjen
słownik
słownika
słownikar
słowniku
słownych
słowo
słowom
słowoskład
słowow
słoz
słuchanju
słuchogras
słupsk
słus
słuz
słyn
słynica
słynicowa
słynicy
słys
t
ta
tabela
tach
tadaloko
tadeusz
tadic
tadz
tadło
tadłow
taiwan
tajo
tak
taka
take
takego
takej
takem
taki
takich
takim
taku
tallinn
tam
tamarillo
tami
tan
tandem
tangelo
tanis
tanja
tanne
tansanija
tansaniji
tar
tara
taraxacum
taraz
tare
taregoz
tarejez
tarejuz
tarejz
taremz
tarez
tarjow
tarjowych
taruz
tarych
tarychz
tarymz
taryz
tas
taschenfu
taschenlexikon
tasol
tasta
tastatura
tastaturje
tastatury
tastow
tasty
tauer
tavo
taxodiaceae
taxodium
taxon
taxonomy
taylor
tbe
tbłys
tchylenja
tchylenje
tczew
te
tebe
tebje
techniki
techniska
techniski
tegdejs
tegdy
tego
teichland
teichrose
teil
tej
teje
tejnska
tejnskej
tejs
teju
teke
teksc
tekst
teksta
tekstach
tekstow
tekstowy
teksty
telewizija
telewiziji
telewizijna
telewizijny
tem
temperatura
temperaturami
temperaturu
temperatury
temre
temu
temy
ten
tencas
tene
tenisowy
tennessee
tenor
tenpflanzen
teolog
teologa
teologije
teologiju
teorija
teorije
teoriju
ter
tera
tergi
teritorij
teritorija
teritorije
teritorijow
teritoriju
teritorium
teritoriuma
teritoriumje
terminologie
terminologija
terminusy
terni
terorist
terra
tervomaa
tes
tesalonic
testamens
testament
testamenta
texas
text
texte
tez
tgle
th
tha
thailandska
thalictrum
tharaeus
tharuns
that
the
thell
theodor
thomas
thomson
thory
thraker
thu
thuja
thunb
thunderbird
thymian
thymus
ti
tiassa
tibet
tica
tiere
tilia
tilich
tillich
tilney
time
timidus
timor
timotejej
tina
tirol
tirola
titel
titelom
title
titusej
tj
tk
tka
tkalc
tkata
tkaz
tkaze
tkazowas
tkazujo
tkazujucy
tkow
tkubłar
tkul
tkłonach
tl
tla
tme
tna
tne
tnej
tneje
tnica
tnik
tnis
tnje
tnowotki
tnoz
tnu
tny
tnych
tnymi
to
tobago
todaloko
toflowa
togo
togodla
tok
toki
tokpisins
tola
tolkien
tom
toma
tomas
tomasz
tomaszo
tomata
tome
tomentosa
tomu
ton
tonga
toni
topinambur
topis
topoł
torm
torr
torre
torres
torsten
torta
torun
tos
tot
tour
tow
towa
towali
towane
towanje
towanju
towar
towaris
towaristwa
towaristwo
towaristwow
towarstwo
towas
tował
towe
towego
towej
toweje
towy
tołske
tpadnu
tpo
tpowe
tr
tra
tradicije
tradiciji
tradiciju
tradicionelne
tradicionelnje
trajdowych
trajne
trajo
tran
transitiwne
transkripcija
tre
trenar
trentino
tres
tribus
tribusa
tribusoju
tribusom
tricolor
trifolium
trinidad
trjeba
trjebne
trjebule
tro
tropach
tropiska
tropiskich
tropy
trosł
trosła
trow
trowska
tru
trudla
trybunalski
trzebiel
trzyn
ts
tsajz
tschernitz
tstawk
tstawkom
tstojece
tstotka
tstotku
tsypkowych
tt
tte
ttenstadt
ttrige
tu
tuareg
tuchylu
tude
tudy
tuja
tujo
tuju
tumicy
tun
tuneziska
tunguzske
tuo
tupa
tupe
tupela
tupi
tupiske
turcz
turek
turistiski
turistow
turizm
turjej
turjeju
turkmen
turkmenistan
turkojs
turkojska
turkojske
turkojskej
turkojskeje
turkojskeju
turkojski
turks
turm
turne
turnow
tusk
tuvalu
tuz
tv
twar
twarc
twarde
twardej
twardeju
twardnica
twardopackate
twardopackaty
twardowanje
twardy
twari
twarili
twarił
twarje
twarjenja
twarjenje
twarjenju
twaroz
twarske
twarski
twarz
twe
twisna
twisne
twisnje
twisnosc
twisny
twisnych
twisujo
twisuju
two
twobros
twoja
twoje
tworba
twołana
twołany
ty
tyca
tych
tykan
tym
tymi
typ
typa
typha
typhaceae
typiska
typiske
typiski
tys
tysac
tyz
tz
tze
tzw
tła
tłe
tło
tłozelene
tłuste
tłustosc
tłusty
tłych
u
ua
uahe
uber
ubs
ubska
ubski
ubuntu
uby
uc
ucher
udo
uflitowar
uga
uganda
ugandu
ugi
ugow
ujgurska
ujo
uju
uk
uki
ukowo
ukr
ukraina
ukrainarje
ukrainje
ukrainska
ukrainski
ukrainu
ukrainy
ul
ula
ulach
ule
uli
ullstein
ulmaceae
ulmer
ulmus
ulow
ulrich
ulske
ulskem
ulski
ulskich
ulu
um
ume
un
una
und
unesco
ungarische
unicode
unija
unije
uniji
union
unired
united
univ
universita
university
uniwersis
uniwersita
uniwersitach
uniwersitu
uniwersity
uniwersum
uniwersuma
uniwersytet
uno
uns
unter
unterricht
untersuchungen
unterwegs
unu
up
upan
upc
upcu
upe
upy
ur
ural
uralskich
uranus
urdus
urja
urman
urnalist
urnalista
urnalistka
urnalistki
urowanju
ursidae
ursula
ursus
uruguay
us
usa
usbekistan
usda
user
uska
uske
uskeje
ut
uta
utc
ute
utf
uty
uwe
uz
v
va
vaccinium
val
vale
valencia
valparai
van
vanuatu
var
varphi
vatikan
vattenfall
ve
veb
vella
venezuela
venus
vera
verb
verde
verfassungsschutzbericht
vergissmeinnicht
verlag
verlagsbuchhandlung
vernalis
vero
veronica
version
verum
verwendung
veszpre
vetschau
vi
via
vicia
victoria
vietnam
vietnama
view
vii
viii
viktor
vil
villa
vilnius
vincent
viola
virginia
viridis
viscaceae
viscum
vista
vita
vitis
vladimi
vlət
vo
vogel
vokalharmonie
vol
volk
volker
volkseigener
volume
vom
von
vor
vorpommern
vortaro
vulgaris
vulpes
vy
w
wa
wachow
wacka
wacław
wadelsdorf
waga
wagenknecht
wagu
waju
waldst
walery
wales
walizis
wall
walt
walter
walther
wam
wami
wan
wanem
wanje
wanpela
war
warians
warianta
wariantach
wariantu
warianty
warie
warietetnosc
warmin
warnoc
wars
warsta
warsty
warszawa
warta
was
washington
wassermann
watson
waz
wała
wałtora
wcyna
we
web
webowy
websedło
website
webstrona
webstronje
webstrony
wedojska
wedojski
weds
wedska
wedskej
wedskeje
wedski
weg
weimar
weizsa
weiß
wejherowo
wejsan
wejsne
wejsny
wejsnymi
welcher
welt
welzow
wem
wen
wenden
wendisch
wendische
wendischen
wendischer
wendisches
wendland
wendowojskem
wenedyk
wenkowne
wenkownego
wenkowny
wenn
wenus
wenzel
werb
werba
werbach
werben
werbje
werbow
werby
werner
wersija
wersije
wersiji
wersiju
west
western
westfalen
westfalska
westfalskej
weto
wezymskego
wezymski
wgs
white
wic
wica
wicar
wicarska
wicarskej
wice
wiceprezident
wicy
widejow
widobne
wie
wiebelsheim
wieczorek
wielki
wielkie
wielun
wien
wiersze
wieruszo
wiesbaden
wiesen
wiesengrund
wight
wikach
wikawa
wiki
wikidruz
wikimedia
wikimediskem
wikimediskich
wikipedija
wikipedije
wikipediji
wikipediju
wikipo
wikisource
wikispecies
wiknica
wikowan
wiktor
wildapfel
wildwachsende
wilhelm
will
willard
willd
willi
william
williams
willy
wilson
win
wina
winde
windows
winicach
winikam
wink
winklerowa
wino
winowa
winowc
winowy
winski
winu
wioletne
wir
wird
wirtschaft
wis
wisata
wisece
wisecych
wissen
wissenschaft
wissenschaften
wisła
wisława
wisłu
witaj
witaminy
witebski
with
witka
witkojc
witkowych
wittenberg
wiz
wjacor
wjacorje
wjadł
wjadła
wjas
wjasele
wjaska
wjazon
wjednik
wjednistwom
wjedro
wjedu
wjela
wjelcej
wjele
wjelec
wjelgin
wjelicka
wjelicki
wjelika
wjelike
wjelikego
wjelikej
wjelikeje
wjelikeju
wjelikem
wjeliki
wjelikich
wjelikie
wjelikim
wjelikobritaniska
wjelikopo
wjelikosc
wjeliku
wjelkomlokowych
wjelkowe
wjen
wjeras
wjerbnje
wjerbno
wjerbowych
wjerch
wjercha
wjerchojstwa
wjerchojstwo
wjerchom
wjerchu
wjers
wjertnych
wjes
wjez
wka
wladimir
wladimirowic
wliw
wliwom
wne
wny
wo
wob
wobalka
wobalki
wobcerbu
wobcerk
wobcerka
wobcerkach
wobcerku
wobchad
wobchadniski
wobdane
wobe
wobej
wobeju
wobgle
wobgranicowany
wobgrozona
wobkne
wobkruz
wobks
woblicenje
woblico
woblicys
woblubowane
woblubowany
wobme
wobora
wobps
wobraz
wobraze
wobrazow
wobrazowy
wobrazy
wobros
wobrotna
wobrotnej
wobrotneju
wobrotnyma
wobs
wobsajz
wobsedlenje
wobsedlona
wobsedlone
wobsedlony
wobsejz
wobstas
wobstatk
wobstatki
wobstoj
wobstojał
wobstoje
wobstojnosc
wobswe
wobtwarz
wobwe
wobwliwował
wobydlar
wobydlarja
wobydlarjach
wobydlarjami
wobydlarje
wobydlarjow
wobyma
wobz
wobzwadne
wobłuk
wobłuka
wobłukach
wobłuki
wobłukowa
wobłuku
wocko
woda
wodz
wogen
wogle
wognjowa
wogonk
wogonkach
wogonkate
wogonkatych
wogonki
woidke
wojewo
wojto
wok
wokal
wokala
wokalach
wokalami
wokale
wokalna
wokalnej
wokalnu
wokaloma
wokalow
wokatiw
wokna
woko
wokognus
wokolina
wokolinje
wokolnosc
wokołkach
wokołki
wokołkojtych
wokołkowych
wokoło
wokrejs
wokrejsa
wokrejse
wokrejsne
wokrejsow
wokrejsu
wokrjesu
wola
wolf
wolff
wolfgang
wolfsmilch
wolga
wolin
wolumen
woman
women
won
wona
woni
wono
wood
wopak
wope
wopis
wopisanje
wopisał
wopismje
wopisowas
wopisujo
wople
wopo
wopon
wopor
wopowan
wopros
wops
wopus
wopyt
wopytał
wopłonjone
wopłoz
worak
worjejce
worklecach
worklecy
world
wornar
wort
wos
wosebnje
wot
wotme
wotrow
wotroz
wots
wotwołane
wowc
wows
woz
wołanje
wołał
wołbramecy
wołojnik
wołyn
wright
wrjosowych
wro
wroblik
wrocław
wros
wrota
ws
wsow
wsy
wu
wube
wubrane
wubras
wuc
wucabnica
wucabnik
wucabnika
wucabniki
wucabnikow
wucba
wucbnica
wucbnicow
wucbu
wucby
wuchace
wuchada
wuchadaju
wuchadnis
wucho
wuchoda
wucony
wucył
wud
wudac
wudane
wudas
wudawa
wudawar
wudawas
wudawał
wudał
wudała
wudało
wudwo
wudwor
wugle
wuglik
wuglikowe
wuglikowy
wugo
wugranja
wugranjas
wugroni
wugronijo
wugronjenje
wugronjenju
wuje
wujs
wuknik
wuknikam
wukniki
wuknikow
wuknjen
wuknjenje
wuknjo
wuknus
wuknuł
wuknuła
wukraju
wukubłanje
wulew
wulewa
wulewje
wulff
wulicowan
wulicowanja
wulicowar
wulicujo
wulicuju
wulka
wulkan
wulke
wulki
wum
wumarła
wumarłe
wumarłych
wume
wumo
wumre
wunamakar
wunjaso
wupada
wupo
wups
wupys
wuraz
wurazowa
wure
wurlis
wurosc
wurostkach
wurostki
wurostkow
wurownane
wus
wusajz
wusc
wuscynu
wuska
wuske
wusko
wusle
wusme
wusmjers
wusoka
wusoke
wusokej
wusokeju
wusokem
wusoki
wusokich
wusokos
wusokosc
wusoku
wuspe
wustajen
wustup
wustupił
wustupowanja
wustupowas
wustupował
wustupujo
wustupujotej
wustupuju
wuswe
wutka
wutkate
wutkowych
wuts
wutwo
wuwija
wuwijanje
wuwili
wuwis
wuwił
wuwiła
wuwiło
wuwo
wuwucujo
wuwzes
wuz
wuznam
wuznama
wuznamjenjonych
wuznamna
wuznamne
wuznamny
wuzwo
wułoz
www
wy
wyk
wylem
wylema
wyli
wysokie
wzgo
władysław
władysławowo
włocławek
włoz
x
xhtml
xi
xii
xiii
xls
xp
xv
xvi
xxiii
y
ya
ybar
yca
yce
ycenje
ych
ycka
ycko
yconki
ycu
ycy
ydojske
ydojsko
ydow
year
yet
yi
yja
yjo
yju
yk
ykne
yknje
ykno
yknu
yknych
yli
ylowje
ym
ymi
ymjerojce
yn
yna
ynach
ynami
ynje
ynka
ynom
ynoma
ynow
ynu
yny
york
yorku
you
young
your
youtube
ypojta
yrina
yrinje
yrinoma
yrinowe
yrinowego
yrinowy
yrinowych
yrinu
yriny
yris
yrjen
yrjenim
yrjenja
yrjenje
yrjona
yrjone
yrjonej
yrjony
yrjuju
yrne
yroka
yroke
yroki
yrokich
yroko
yrokosc
yrs
ys
yska
yske
yskego
yskej
yskeje
yskem
yski
yskich
yta
ytawa
yte
ytej
ytne
yty
ytych
yu
ywa
ywaju
ywali
ywana
ywane
ywanej
ywanja
ywanje
ywanju
ywany
ywar
ywas
ywatej
ywał
ywała
ywe
ywidła
ywis
ywjen
ywjenja
ywjenje
ywjenjobe
ywjenju
ywk
ywne
ywnosc
ywo
ywom
ywoweje
ywy
ywych
yzop
ył
yła
yłej
yło
z
za
zabe
zabrze
zabył
zac
zachadnosc
zachadny
zachopi
zachopijo
zachopiju
zachopili
zachopina
zachopinaju
zachopis
zachopił
zachopiła
zachopiło
zachopjen
zachopk
zacynjony
zago
zagreb
zagrodach
zagrodna
zagrodne
zagrodneje
zagrodny
zagronita
zahnwurz
zajm
zajmne
zajs
zajts
zajz
zak
zakaz
zako
zakrjejc
zaks
zakład
zakładna
zakładne
zakładnej
zakładnych
zakłady
zakłaz
zale
zalew
zalewa
zalewje
zalewom
zaliznjak
zame
zamenhof
zamo
zamordowany
zamos
zamre
zan
zana
zander
zane
zanja
zanje
zany
zapis
zapisk
zapo
zapowe
zapre
zaps
zapus
zapust
zar
zare
zarjad
zarosc
zas
zasajz
zasedlenja
zasej
zaspach
zastojnik
zastojnstwa
zastojnstwo
zastupił
zastupjarje
zastupjone
zastupnik
zastupniki
zastupny
zastupujucy
zasuz
zasłuz
zawe
zawitk
zawjadł
zawjez
zawo
zawod
zawros
zaz
zazaki
zazdas
zał
załom
załoz
załzojs
załzy
zba
zbe
zbigniew
zbo
zbow
zbuz
zby
zbytk
zc
zd
zda
zdalone
zdalonosc
zdarnje
zdas
zdatna
zdatne
zdatny
zdatnych
zdne
zdo
zdonk
zdonka
zdonkom
zdonkow
zdow
zdowy
zdrjaju
zdrjałe
zdrjałosc
zdro
zdun
zdy
zdz
zdze
ze
zebnica
zeder
zef
zefa
zeit
zeitung
zeißholz
zej
zejler
zejlera
zejlerja
zela
zele
zelena
zelene
zeleni
zelenina
zeleninu
zelenojte
zelenu
zeleny
zelenych
zeleznica
zeleznicow
zeleznicowe
zeleznicowej
zeleznicy
zelis
zelo
zelowych
zem
zemi
zemicy
zemja
zemjach
zemjan
zemje
zemjerdz
zemju
zemre
zemske
zemskego
zemskej
zemskeje
zemskem
zemskemu
zemski
zepe
zernka
zes
zeserbs
zest
zestaja
zestajane
zestajanych
zestajar
zestajał
zestajił
zestajiła
zestajony
zeta
zez
zga
zgierz
zgo
zgorzelec
zgromadne
zgromadnje
zgromadnosc
zgromaz
zgu
zgubili
zgubił
zgubiła
zielona
ziergeho
zimmermann
zisch
zjadnos
zjawił
zjawiła
zjawjenje
zjawjone
zjawne
zjawnosc
zje
zjewjenje
zk
zka
zkach
zki
zkow
zkowa
zkowe
zkowego
zkowej
zkoweje
zkowem
zkowemu
zkowy
zkowych
zkowym
zku
zle
zmakał
zme
zmo
zmysle
zna
znajo
znajobnosc
znam
znamje
znamjeni
znamjenijo
znamjenja
znamjes
znamus
znamy
znas
znata
znate
znatego
znatej
znatu
znaty
znatych
znatym
znał
znała
zne
znego
znej
znem
znicenje
znja
znje
znowa
znowego
znuts
zny
znymi
zo
zootiere
zor
zoran
zowych
zrazom
zre
zrn
zrosc
zrownane
zrownany
zsa
zsef
zu
zubate
zubatymi
zucc
zujo
zuju
zuk
zuki
zukow
zum
zur
zuru
zuzana
zw
zwe
zwei
zwenka
zwenkowne
zwischen
zwisk
zwjazk
zwo
zwuraznja
zy
zyk
zyka
zykowe
zyma
zymje
zymske
zymskego
zymski
zymu
zymy
zynje
złego
złota
złote
złotna
złotoz
złoty
złoz
zły
złym
{
|
}
~
£
¤
§
¨
«
­
¯
°
±
²
³
´
µ
·
º
»
½
×
ß
æ
ærø
ø
đinđic
ı
ł
ła
łabnosc
łac
łaju
łali
łan
łane
łanis
łanje
łar
łarnje
łas
łask
łat
łatgalskej
łatyn
łaz
łazu
łał
łała
łc
łcow
łcowka
łe
łej
łka
łnoc
ło
łobez
łobis
łobja
łobje
łobjo
łobju
łogrod
łogroz
łokas
łom
łopjen
łopjena
łopjenami
łopjenjami
łopjenka
łopjenkami
łopjenkow
łopjeno
łopjenow
łopjenowe
łopjenowy
łopjenowych
łoruse
łoruska
łoruskej
łoruskeje
łoruskeju
łoruski
łow
łowe
łoz
łstwa
łstwo
łstwowy
łu
łuc
łuce
łuchow
łucna
ług
ługowych
łuka
łukach
łukajcyny
łukojce
łukow
łus
łuty
łuz
ły
łych
łym
łymi
ŋ
œ
ſ
ſa
ſajs
ſc
ſo
ɑ
ɔ
ə
ɛ
ɡ
ɣ
ɲ
ɾ
ʃ
ʒ
ʲ
ˇ
ˈ
ˌ
ː
ːː
ˑ
̀
́
̂
̃
̄
̆
̇
̈
̉
̊
̋
̌
̓
̔
̛
̣
̥
̦
̧
̨
̩
̪
̯
͂
͡
α
β
δ
ευ
ζ
η
κατα
λ
ξ
ο
π
ς
φ
ψ
ω
ϕ
а
б
баи
в
г
д
е
ж
з
и
к
л
м
меня
море
н
на
о
п
р
с
саи
т
у
ф
х
ц
ч
ш
щ
ъ
ы
ь
э
ю
я
ђ
і
ј
љ
њ
ћ
џ
ѣ
ҍ
ө
ְ
ִ
ַ
ָ
ּ
ֿ
׃
א
און
גא
דא
די
הא
ון
זיי
ט
י
ך
ל
ם
מ
ן
ס
פ
ר
רא
שפ
ر
َ
ُ
ّ
ْ
ٔ
ं
ई
ए
क
ग
ज
ट
त
द
ध
न
प
भ
म
र
ल
व
श
स
ह
़
ा
ि
ी
ु
ू
े
ो
्
া
ਦ
ਲ
ਿ
ੀ
ੱ
ં
ગ
ા
ો
్
동
‌
‎
‏
–
—
‘
’
‚
“
”
„
†
•
…
′
″
⁡
€
№
↑
→
↔
↷
−
∘
⋅
③
④
⑦
─
│
┌
┐
└
┘
├
┤
┬
┴
┼
►
◄
☉
⺀
⺄
⺆
⺈
⺊
⺌
⺕
⺝
⺸
⺼
⿰
⿱
⿲
⿳
⿴
⿵
⿶
⿷
⿸
⿹
⿺
⿻
〢
ぇ
こ
し
そ
て
ゃ
ゅ
ょ
゙
コ
ユ
㇁
㇂
㇄
㇇
㇈
㇉
㇓
㐁
㐄
㐅
㐌
㐫
㐬
㐭
㐮
㐱
㑒
㒵
㒸
㒼
㓁
㓞
㔾
㕛
㕣
㖾
㘝
㚅
㚇
㚔
㚘
㝉
㝡
㝴
㝵
㞋
㞢
㞷
㠩
㠭
㠯
㡀
㡭
㡿
㢲
㢴
㣇
㣺
㥯
㪅
㫄
㫐
㫒
㫺
㬅
㬎
㬥
㬰
㲋
㳄
㷠
㸒
㸚
㸦
㼌
㼲
㽞
㿟
䀠
䂞
䍃
䏍
䒑
䖍
䖒
䖝
䖵
䙴
䚻
䜌
䝿
䡛
䧹
䪞
一
丁
丂
七
丄
丅
丆
万
丈
三
上
下
丌
不
与
丏
丐
丑
专
且
丕
世
丘
丙
业
东
丞
丢
丣
两
严
並
丨
丩
个
丫
丬
中
丮
丰
丱
串
丵
丶
丷
丸
丹
为
主
丽
丿
乀
乂
乃
久
乆
乇
么
义
之
乌
乍
乎
乏
乐
乑
乔
乖
乗
乘
乙
乚
乛
乜
九
乞
也
习
乡
乳
乾
亀
亅
了
亇
予
争
事
二
亍
于
亏
亐
云
互
亓
五
井
亘
亚
亜
亞
亟
亠
亡
亢
交
亥
亦
产
亨
亩
享
京
亭
亮
亯
亰
亲
亳
亶
亷
人
亻
亼
亾
仁
今
介
仌
从
仐
仑
仒
仓
仕
他
付
仝
代
令
以
任
企
伊
伏
伐
休
会
伯
但
位
何
佘
余
作
佥
使
來
侈
侌
侖
侯
侵
便
保
俞
信
修
倉
倍
候
倠
備
僉
僕
儿
兀
允
兂
元
兄
充
兆
兇
先
光
兊
克
兌
免
兑
兒
兓
兔
党
兜
兟
入
全
兩
兪
八
公
六
兮
兰
共
关
兵
其
具
典
兹
兼
冀
冂
冃
冄
内
冈
冉
冊
冋
册
再
冎
冏
冐
冒
冓
冖
冗
冘
军
农
冝
冡
冥
冫
冬
冷
几
凡
凢
凵
凶
凷
凸
凹
出
函
凾
刀
刁
刂
刃
刄
刅
分
切
刍
刑
刕
刖
列
刘
则
初
別
利
别
到
制
刺
則
削
剌
前
剡
剽
劉
力
功
加
劦
助
劫
劳
劵
勃
勇
勉
勒
動
務
勞
勤
勹
勺
勻
勾
勿
匀
匂
包
匆
匈
匊
匋
匍
匕
化
北
匚
匝
匡
匪
匱
匸
匹
区
医
匽
匿
區
十
卂
千
卄
卅
卆
升
午
卉
半
卌
华
卑
卒
卓
单
卖
南
卜
卝
卞
占
卡
卢
卣
卤
卦
卩
卪
卬
卯
印
危
即
却
卵
卷
卸
卻
厂
厃
厄
历
厈
厉
厌
厓
厘
厚
原
厤
厥
厨
厭
厲
厶
厷
厸
去
厼
厽
叀
参
參
叅
又
叉
及
友
双
反
叐
发
叒
叔
叕
取
受
叚
叜
叟
口
古
句
另
叩
只
召
可
台
叱
史
右
叵
号
司
叹
吂
各
吅
合
吉
吊
吋
同
名
后
吏
向
吕
君
吝
吞
否
含
启
吳
吴
吹
吾
呂
呆
呈
告
员
呙
周
命
咅
和
咎
咠
咢
咨
咸
咼
哀
品
哉
員
哥
哲
唐
商
啇
問
啚
啬
啻
善
喜
喬
單
喿
嗇
噩
嚴
囊
囗
囘
囙
囚
四
回
囟
因
囧
囬
困
囱
囷
固
国
圂
圅
國
圍
圓
土
圡
圣
圥
在
圭
地
圶
圼
坐
坒
坚
坴
垂
垔
垚
埀
埋
城
域
埶
執
基
堂
堅
堆
堇
堯
塞
墨
壘
士
壬
壯
声
壳
壴
壹
壺
壽
夂
处
夅
夆
备
夊
夋
夌
复
夏
夒
夕
外
夗
夘
多
夜
夢
大
夨
天
太
夫
夬
夭
央
失
夲
头
夷
夸
夹
夻
夾
奂
奄
奇
奈
奉
奎
奏
奐
契
奓
奔
奚
奞
奠
奢
奥
奭
女
奴
奻
好
如
妄
妙
妟
妥
妻
妾
姑
委
姜
威
娄
婁
婴
嬰
嬴
子
孑
孔
孕
孖
字
存
孚
孛
孝
孟
季
孤
学
孫
孱
學
宀
宁
宂
它
宅
宇
守
安
宋
完
宏
宓
宗
官
定
宛
宜
宝
客
宣
室
宮
宰
害
家
容
宾
宿
寄
寅
密
富
寒
察
寧
審
寫
寬
寮
寸
对
寺
寻
寽
対
寿
封
尃
射
将
將
專
尉
尊
尋
尌
對
小
少
尒
尓
尔
尖
尗
尚
尞
尢
尣
尤
尧
尨
尭
就
尸
尹
尺
尻
尼
尽
尾
尿
局
居
屈
屋
屎
屏
屑
展
屖
屚
属
屠
屡
屬
屮
屯
屰
山
屵
屾
岁
岂
岑
岡
岩
岳
岸
峯
島
崇
崑
崔
崖
崙
崩
嵬
嶲
巂
巛
川
州
巟
巠
巢
巤
工
左
巧
巨
巩
巫
差
己
已
巳
巴
巷
巸
巽
巾
巿
帀
市
布
希
帚
帛
帝
带
師
席
帶
常
干
平
年
幵
并
幷
幸
幺
幻
幼
幽
幾
广
広
庄
床
底
店
庚
府
度
庫
庭
庶
康
庸
廉
廌
廛
廣
廩
廴
延
廷
建
廾
廿
开
弁
弃
弄
弇
弋
式
弓
弔
引
弗
弘
弜
弟
弥
弦
弱
張
強
强
彊
彌
彎
彐
彑
当
彔
录
彖
彗
彡
形
彥
彦
彧
彭
彳
役
彼
往
待
律
徒
得
徙
從
復
微
徵
心
忄
必
忌
忍
志
忝
忠
忩
快
念
忽
忿
思
怠
急
怱
恆
恒
恩
恭
息
悉
患
悤
悲
悶
惠
惡
惢
愁
愈
意
愛
感
慈
慧
慮
憂
憲
應
戀
戈
戉
戊
戋
戌
戍
戎
成
我
戒
戔
或
戚
戠
戢
截
戲
戶
户
戹
戼
戾
房
所
扁
扇
手
扌
才
打
托
执
承
折
拉
拜
拿
掌
推
提
摩
支
攴
攵
收
攸
改
放
政
敄
敏
敕
敖
敗
敝
敞
敢
散
敦
敫
敬
数
敷
數
斂
文
斉
斊
斗
斤
斥
斩
斬
斯
新
方
於
施
斿
旁
旋
族
无
旡
既
旣
日
旦
旧
旨
早
旬
旱
旲
时
旾
昆
昇
昌
昍
明
昏
易
昔
昗
昜
星
春
昬
是
昱
昴
昷
時
晃
晋
晏
普
景
晶
智
暑
暴
曇
曩
曰
曲
曳
更
曷
書
曹
曼
曾
替
最
朁
會
月
有
朋
服
朔
朕
朗
望
朝
木
朩
未
末
本
札
朮
术
朱
朵
朶
朿
杀
杏
杜
束
条
来
東
杲
杳
松
析
林
枚
果
枝
枲
枼
某
柔
查
柬
柰
柴
栗
桀
桑
桼
梁
條
梟
梨
棋
棘
棠
棥
森
楚
業
楽
榮
樂
樊
欠
次
欣
欮
欲
欶
欽
款
歆
歇
歛
止
正
此
步
武
歨
歪
歮
歯
歰
歲
歴
歷
歸
歹
歺
死
殳
段
殷
殸
殹
殺
殻
殿
毋
毌
母
每
毒
比
毕
毚
毛
毳
氏
氐
民
气
氣
水
氵
氶
氷
永
氺
氾
求
汝
汞
江
沃
沓
沙
沝
泉
法
波
泣
泥
泰
洛
洞
洪
活
派
流
浦
浪
浮
海
淡
淮
清
渚
渠
湯
滿
漸
潭
火
灬
灭
灰
灵
灷
炅
炎
炏
炗
炙
炭
為
烈
烏
烝
焉
無
焦
焱
然
煞
熊
熏
燕
營
燮
爪
爫
爭
爯
爰
爱
爲
爵
父
爻
爽
爾
爿
片
牙
牚
牛
牜
牟
牢
牧
牪
牽
犀
犬
犭
犮
狂
狄
狊
独
狺
猋
猒
猪
献
獻
玄
率
玉
王
玟
玨
珎
班
琴
瑟
瑩
瓜
瓦
甘
甚
生
産
用
甫
甬
田
由
甲
申
电
甶
男
甸
甹
画
甾
畀
界
畏
畐
留
畜
畟
畢
畧
畨
番
畫
異
畱
當
畺
畾
疊
疋
疌
疑
疒
疾
癶
癸
癹
登
發
白
百
皀
皃
的
皆
皇
皋
皐
皕
皮
皷
皿
盃
盆
盇
盈
益
盍
盎
监
盒
盖
盛
盡
監
盤
盧
目
直
相
盾
省
眇
眉
看
眔
眞
真
眷
眼
眾
着
睘
睪
睿
瞏
瞢
瞿
矍
矛
矞
矢
矣
知
矦
短
石
破
碎
磊
磨
示
礻
礼
社
祟
票
祭
禀
禁
禸
禹
禺
离
禽
禾
禿
秀
秃
秉
秋
科
秝
秦
移
稟
穀
穌
穴
究
穹
空
穿
突
窄
窒
立
竒
竜
竝
竟
章
童
竹
笑
笠
筆
等
答
箕
算
箴
節
篤
篭
米
粉
粛
粟
粤
粦
粲
糞
糸
糹
系
約
納
素
索
紫
累
細
絜
絫
絲
維
綿
縣
繇
纍
纟
缶
网
罒
罔
罕
罗
罙
罡
罢
罪
署
罷
羅
羊
羌
羍
美
羔
羕
羗
羞
羡
羣
群
義
羲
羸
羽
翁
翏
習
翕
翟
翠
翼
老
耂
考
者
耆
而
耎
耑
耒
耳
耴
耶
耷
聂
聊
聖
聚
聶
聿
肀
肃
肅
肉
肖
肙
肥
肩
肯
育
肴
胃
背
胡
胥
能
脊
脩
膚
臣
臤
臧
自
臬
臭
臯
臱
至
致
臺
臼
臽
臾
臿
舀
舂
舄
與
興
舉
舌
舍
舛
舜
舞
舟
般
艮
良
色
艸
艹
艾
芒
芔
芬
芮
花
芳
芺
芻
苔
苗
苟
若
苦
英
茶
茸
荅
草
荒
荣
荼
莆
莧
莫
莽
菆
菊
菐
華
萬
落
葉
著
葛
董
葵
蒙
蒦
蒼
蓋
蓬
蓺
蔑
蔡
蕉
蕭
薄
薛
薦
薰
藍
藏
藥
蘭
虍
虎
虐
虒
虔
處
虖
虗
虘
虚
虛
虜
虞
虫
虽
蚤
蚩
蜀
蜜
蟲
蠡
血
行
衍
衛
衣
衤
表
衮
衰
袁
袞
褭
褱
襄
襾
西
覀
要
覃
見
規
覓
覧
親
覽
见
角
解
言
訁
訇
計
詹
誩
諸
讠
谷
豆
豈
豊
豐
豕
豖
豙
象
豦
豩
豪
豸
貇
貝
貞
貟
負
貢
貧
貪
貫
責
貳
貴
買
費
賁
資
賈
賏
賓
賔
賛
賞
賢
賣
質
賴
贊
贝
贡
责
贯
贲
贵
赖
赞
赤
赦
走
越
足
路
蹇
身
躬
車
軍
軎
軟
輦
车
辛
辜
辟
辥
辰
辱
農
辵
辶
边
达
过
近
连
迷
追
退
送
逆
逐
通
速
造
逢
連
逮
進
遀
遂
過
道
達
遣
適
遷
遺
邊
邑
邕
那
邦
邪
郎
郡
部
郭
都
鄉
酉
酋
配
酓
釆
采
里
重
野
量
金
釒
錢
钅
長
镸
长
門
閃
閉
開
閏
閑
閒
間
閔
閵
閻
闌
门
间
闷
阑
阜
阝
阿
降
陳
隆
隊
隋
隡
隨
隱
隶
隹
隺
隻
隼
隽
难
雀
雁
集
雈
雋
雍
雐
雔
雙
雚
雜
雝
離
難
雨
雩
雪
雲
零
雷
需
霍
霜
霝
霞
霸
靈
靑
青
非
靡
面
靣
革
韋
韦
韭
韯
韱
音
頁
頃
項
須
頗
頡
頻
顛
页
風
风
飛
飞
食
飠
養
饣
首
香
馬
馮
駦
马
骨
高
髟
鬥
鬯
鬲
鬼
魚
魯
鮮
鱼
鲁
鳥
鳳
鸟
鹵
鹿
麃
麗
麥
麦
麻
黃
黄
黍
黎
黑
黒
黨
黹
黽
黾
鼎
鼓
鼠
鼻
齊
齋
齐
齒
齿
龍
龙
龜
龟
龠
龰
龱
龴
龵
龶
龷
龸
龹
者
艹
﻿
？
𠀁
𠀃
𠀆
𠀉
𠀎
𠀐
𠁁
𠁣
𠂆
𠂇
𠂈
𠂉
𠂊
𠂋
𠂎
𠂒
𠂔
𠂛
𠂡
𠂢
𠂤
𠂬
𠂭
𠂹
𠃊
𠃋
𠃌
𠃍
𠃎
𠃑
𠃓
𠃔
𠃜
𠄌
𠄎
𠄠
𠄢
𠆢
𠆥
𠇍
𠈌
𠌵
𠓜
𠔉
𠔥
𠔼
𠔽
𠔿
𠕀
𠕁
𠕋
𠘧
𠘨
𠙻
𠙼
𠚏
𠚒
𠚤
𠚪
𠣏
𠤎
𠤕
𠥓
𠦄
𠦑
𠦝
𠧒
𠧗
𠧪
𠩺
𠪚
𠫓
𠫔
𠫤
𠬛
𠬝
𠬞
𠬢
𠬤
𠬶
𠮛
𠮦
𠮷
𠯑
𠱠
𠳮
𠷎
𡈼
𡉀
𡉵
𡌥
𡍮
𡏳
𡕒
𡕩
𡕰
𡖅
𡗗
𡗜
𡘆
𡘤
𡧱
𡨄
𡩧
𡬠
𡭽
𡰣
𡰥
𡰪
𡰯
𡰱
𡷈
𡸁
𡿨
𡿩
𡿪
𡿺
𢀖
𢀛
𢀩
𢁙
𢆉
𢆰
𢆶
𢇁
𢇇
𢉖
𢌬
𢌿
𢏚
𢑑
𢑚
𢖻
𢙣
𢛳
𢦏
𢦒
𢧵
𢼄
𢾕
𣁋
𣄼
𣅀
𣅽
𣍘
𣎳
𣎵
𣏋
𣏼
𣗥
𣥂
𣥖
𣦵
𣦼
𣧄
𣪊
𣪠
𣬉
𣳾
𣶒
𤇾
𤊽
𤐫
𤓰
𤔔
𤕨
𤣩
𤰇
𤰔
𤰞
𤴓
𤴔
𤽄
𥁑
𥁕
𥃦
𥃩
𥃭
𥇡
𥑟
𥘅
𥘈
𥝢
𥫗
𥱡
𦈢
𦉪
𦉬
𦉼
𦍌
𦍒
𦎧
𦐇
𦓔
𦔮
𦘒
𦙃
𦚏
𦣝
𦣞
𦣻
𦥑
𦥔
𦥯
𦨉
𦭝
𦰩
𧆞
𧈧
𧘇
𧰨
𧴪
𧴮
𧵩
𧾷
𨸏
𨾴
𩙿
𩠐
𩫏
𩵋
𪉷
𪜀
𪟽
𪠲
𪩲
𫇦
𫔭
𫜸
𫝀
𫠣
𫠩
𫢉
𫥞
𫩏
𫩠
𫪡
𫲽
𫶧
𬀷
𬐘
𬗌
𬙙
𬛸
𬜯
𬟩
𬯁
𬴘
𬺻
𬼉
𬼖
𭀰
𭁈
𭁨
𭅰
𭑈
𭕄
𭗼
𭤨
𭥫
𭻾
𮅕
𮊿
𮍌
𮍏
𮓗
𮥼
𮧮
廾
𰀁
𰀄
𰀈
𰀉
𰀕
𰀠
𰀡
𰀢
𰀪
𰁜
𰃮
𰆊
𰆘
𰋙
𰕎
𰢴
𰧭
𰯲
􀃆
00--
01--
05--
13--
15--
16--
17--
85--
86--
92--
93--
a--
ab--
ac--
aca--
ad--
adminis--
afro--
ag--
ah--
ai--
ailu--
aj--
ak--
ako--
al--
ala--
alex--
all--
alo--
alpe--
alpi--
alt--
am--
amac--
amno--
an--
ana--
and--
anso--
antro--
ap--
api--
app--
ar--
ara--
arc--
arm--
as--
at--
atis--
atmos--
au--
aus--
aw--
awstr--
awstra--
az--
azor--
b--
ba--
bag--
bak--
bal--
bale--
balo--
bang--
bank--
barb--
barents--
barw--
barwoj--
bas--
bau--
bay--
be--
ben--
benga--
ber--
betle--
bi--
biblio--
bie--
bija--
bio--
biologi--
bja--
bo--
boden--
bog--
boli--
bot--
br--
bra--
brady--
bre--
brit--
brja--
brju--
bro--
bronz--
bru--
bu--
buddhi--
buk--
bunde--
bur--
bus--
błu--
c--
ca--
campe--
can--
capi--
car--
cas--
cata--
ce--
cej--
cent--
cer--
cełkow--
ch--
cha--
chi--
chloro--
cho--
chsi--
chu--
ci--
cico--
cie--
ciele--
citro--
ck--
cle--
co--
coll--
colo--
com--
compu--
con--
cons--
coo--
cor--
cory--
cow--
coł--
cre--
cu--
cy--
cys--
cz--
d--
da--
dar--
daw--
de--
dec--
del--
demo--
der--
di--
dia--
digi--
direk--
dise--
dist--
dj--
do--
doby--
dok--
dom--
dopo--
dos--
dow--
dpołdnjowo--
dr--
drapalc--
dro--
du--
dub--
duc--
dum--
dwjacorno--
dwjacoro--
dy--
dz--
dzie--
dłujko--
e--
eb--
ebjaſ--
ech--
ed--
edcas--
eds--
edsta--
ee--
ege--
ei--
ein--
ej--
ek--
eklip--
ekon--
ekonom--
eks--
eksak--
el--
em--
en--
enk--
epi--
epo--
epy--
er--
erob--
ers--
es--
esp--
estaj--
et--
etiopis--
etno--
eu--
euraz--
ew--
ewan--
ewis--
ewje--
ex--
ez--
f--
fa--
fac--
far--
farizej--
fe--
felic--
fer--
fid--
figu--
fil--
fin--
fir--
fitz--
fl--
fla--
fo--
folk--
fonet--
fono--
for--
fr--
fra--
fred--
frei--
frie--
fry--
fu--
g--
ga--
gar--
ge--
gel--
geo--
geodeti--
ger--
ghe--
gi--
gla--
glas--
gli--
glo--
go--
got--
gow--
goł--
gr--
gra--
gri--
grje--
gro--
grund--
gry--
gu--
gui--
gun--
gł--
gło--
h--
ha--
haj--
har--
he--
hea--
hed--
heil--
hen--
herce--
hercegow--
hi--
hindu--
hiri--
hit--
ho--
hob--
hoł--
hra--
hu--
hybr--
hym--
i--
ibe--
ibi--
ibrjo--
ic--
ice--
id--
idat--
ide--
ideal--
ija--
il--
illy--
ilus--
im--
in--
inc--
indo--
indonez--
ink--
inte--
inter--
ion--
ipa--
ir--
irow--
is--
it--
ita--
iw--
iwa--
iwis--
iwo--
iz--
izamk--
izuk--
j--
ja--
jadno--
jago--
jas--
je--
jeru--
jerus--
ji--
jns--
jo--
ju--
k--
ka--
kalk--
kam--
kan--
kap--
kar--
kard--
karna--
kas--
kato--
kaz--
ke--
kelti--
ken--
ker--
ki--
kin--
kirgiz--
kisa--
klas--
kli--
ko--
kolon--
kom--
kommu--
kon--
konse--
koordi--
koordinat--
kop--
kor--
korek--
kos--
kr--
kra--
kraj--
kralo--
krit--
krotko--
ks--
ku--
kub--
kulk--
kur--
kurd--
kut--
kw--
kym--
kło--
l--
la--
ladi--
lag--
lan--
landes--
las--
lav--
le--
lej--
leks--
les--
leut--
li--
libys--
lic--
ligu--
lin--
lit--
ljubl--
lk--
ll--
ln--
lo--
lod--
logi--
loka--
lou--
low--
lu--
lub--
ly--
m--
ma--
mac--
macro--
mai--
mal--
mala--
mam--
man--
map--
mar--
mas--
mat--
mało--
mb--
mc--
me--
meb--
medi--
melanes--
men--
mer--
mi--
mic--
mikro--
mil--
minera--
minis--
mir--
mis--
misi--
mit--
mj--
mjazy--
ml--
mo--
mobi--
moder--
moha--
mon--
mongo--
mora--
morfo--
morfologi--
mu--
mul--
muska--
muta--
mutw--
my--
mys--
n--
na--
naciona--
nacionalsoci--
nad--
napo--
narod--
narow--
nas--
naspo--
naspom--
nawuk--
nd--
ndis--
ne--
nega--
nej--
ner--
neu--
ng--
ni--
nie--
nigero--
nja--
nje--
njo--
nland--
no--
nom--
nor--
norbergow--
norweg--
nos--
nowgo--
nowo--
ns--
nu--
nul--
ny--
o--
ob--
oben--
obersor--
oboj--
obserwa--
od--
okc--
ol--
om--
on--
or--
ora--
orche--
org--
organ--
os--
oti--
ow--
owa--
oz--
oł--
p--
pa--
pacif--
pal--
pampel--
pan--
par--
pav--
pco--
pcoł--
pe--
per--
period--
pho--
phry--
pi--
piw--
pja--
pje--
pl--
pla--
pn--
po--
pod--
podol--
pokaz--
pol--
polit--
poma--
pomo--
ponia--
pop--
portuga--
pozit--
poł--
pr--
pra--
prakti--
predi--
pref--
pri--
priwa--
prja--
pro--
procow--
prze--
ps--
psy--
pu--
pup--
purpu--
py--
pyrene--
pło--
płu--
q--
qu--
r--
ra--
rad--
ram--
rat--
rb--
rc--
re--
real--
reali--
ref--
refor--
reg--
rej--
rek--
repreze--
res--
reto--
rewo--
rezid--
rhe--
ri--
ro--
roh--
rom--
ros--
rot--
row--
roz--
ru--
rubi--
ruhl--
ruko--
rum--
ry--
rz--
s--
sa--
sal--
sales--
salom--
salomon--
sam--
samo--
san--
sate--
saterfriesi--
sc--
scar--
sch--
sco--
se--
sed--
see--
sei--
seku--
sem--
ser--
sewje--
sh--
si--
sie--
sil--
situ--
situac--
sk--
ske--
skła--
sl--
slob--
slove--
sm--
sna--
so--
sobin--
sobu--
soci--
sol--
som--
sora--
sorb--
sow--
sp--
spa--
spe--
spi--
spje--
spjerchl--
spo--
sporof--
sprach--
squa--
sr--
st--
sta--
staj--
standar--
staro--
staw--
ste--
stno--
sto--
str--
stu--
su--
sub--
suc--
suk--
sus--
sw--
sy--
syk--
sym--
syn--
syris--
sz--
sła--
sław--
t--
ta--
takso--
tam--
tan--
tar--
tbagro--
te--
tech--
teich--
tele--
telewiz--
tem--
temat--
ten--
teor--
teoret--
ter--
th--
the--
thie--
ti--
til--
tka--
tl--
to--
todalo--
tofl--
tok--
tom--
tpoł--
tr--
tra--
tradi--
tre--
trje--
trjef--
tro--
tru--
ts--
tsto--
tt--
tu--
tuchy--
two--
ty--
tyrren--
tz--
tło--
u--
ua--
uba--
ubs--
uet--
ul--
uligi--
um--
un--
uns--
up--
ur--
us--
v--
va--
ve--
venezu--
ver--
vi--
vil--
vo--
w--
wa--
wan--
war--
wariac--
we--
web--
welling--
wid--
wie--
wil--
win--
wir--
wit--
wje--
wjed--
wjeli--
wjeliko--
wjelk--
wo--
wob--
wobgranic--
woblu--
wobwliw--
wol--
wopa--
wose--
wu--
wuc--
wucyn--
wud--
wug--
wujas--
wuk--
wukła--
wulic--
wus--
wusoc--
wustatk--
wuw--
wuwuc--
wuz--
wuzamk--
wuzwi--
wy--
wło--
x--
xi--
y--
ya--
yca--
yco--
yk--
yn--
yu--
yw--
ywa--
ył--
z--
za--
zab--
zah--
zahro--
zas--
zasto--
zastoj--
zastupn--
zastupo--
zd--
zda--
ze--
zelez--
zem--
zgroma--
zgu--
zie--
zjaw--
zk--
zmak--
zo--
zu--
zw--
zwis--
zwo--
zwobra--
zwuc--
zy--
zym--
zło--
ß--
ł--
ła--
łar--
łaz--
łe--
ło--
łu--
ſ--
а--
б--
в--
кара--
м--
мо--
н--
с--
т--
яз--
ө--
דע--
ל--
--0
--1
--2
--3
--3333
--4
--5
--6
--6667
--7
--8
--9
--a
--aa
--ac
--aceae
--ach
--acija
--ack
--ady
--ae
--agus
--ai
--aj
--al
--ale
--ali
--alna
--alny
--am
--ami
--an
--ana
--and
--ane
--anju
--ann
--any
--ar
--ard
--ari
--aris
--arje
--as
--ase
--at
--ata
--ation
--atum
--aty
--au
--ault
--aw
--awski
--az
--ał
--ała
--b
--ba
--be
--berg
--bet
--bi
--bo
--bos
--bs
--bt
--bu
--buch
--burg
--by
--c
--ca
--cator
--ce
--cea
--ceae
--ch
--chen
--cija
--cije
--ciju
--cin
--ck
--cka
--cki
--co
--cow
--cta
--ctos
--cu
--cy
--cych
--cym
--d
--da
--dae
--dard
--dd
--de
--deae
--di
--dium
--dl
--do
--dor
--dorf
--ds
--dska
--dt
--du
--dy
--dz
--e
--ea
--eae
--ec
--ed
--efer
--eg
--ego
--ei
--ej
--eje
--ek
--el
--ell
--ella
--em
--en
--ensis
--ent
--entia
--enz
--er
--era
--es
--et
--eum
--ey
--f
--fa
--ff
--ft
--g
--ga
--gal
--gals
--gan
--ge
--gh
--gija
--gije
--go
--gosc
--gs
--gu
--gua
--gue
--h
--ha
--hard
--he
--her
--hn
--ho
--hr
--ht
--hu
--hy
--i
--ia
--iaceae
--ial
--ian
--iana
--iat
--iation
--ib
--ic
--ica
--ice
--ich
--iciji
--icki
--icum
--icz
--id
--ida
--idae
--ideae
--ident
--ides
--ie
--iec
--ien
--iensis
--ier
--ies
--ig
--ii
--ij
--ija
--ije
--iji
--ijo
--iju
--ik
--ika
--iki
--ikt
--iku
--il
--illa
--ille
--im
--imi
--in
--ina
--ine
--ing
--ini
--ino
--inu
--iny
--io
--ioletne
--ion
--ions
--ior
--ip
--ir
--is
--isch
--ischen
--ise
--iska
--iske
--iskej
--iskem
--iski
--isku
--ismus
--ist
--it
--itz
--ium
--ius
--iw
--iwna
--ix
--iz
--ize
--izmy
--j
--ja
--jach
--jam
--jc
--je
--ji
--jił
--jo
--jom
--jona
--jone
--jony
--jos
--jow
--jowa
--js
--jt
--jta
--jte
--jty
--ju
--jucego
--jucy
--jz
--k
--ka
--kar
--kau
--kcije
--ke
--kego
--kej
--keje
--ker
--ki
--kim
--kl
--knuł
--ko
--kow
--ks
--ku
--kunde
--l
--la
--lce
--ld
--le
--lea
--lehre
--lei
--leny
--ley
--lf
--li
--lica
--licher
--liske
--ll
--lla
--lle
--lm
--lna
--lne
--lnje
--lnu
--lny
--lo
--log
--low
--ls
--lt
--lu
--ly
--lz
--m
--ma
--me
--metrije
--mi
--mje
--mmer
--mo
--mow
--mp
--mu
--mus
--my
--n
--na
--nalne
--nał
--nc
--nca
--nd
--ndorf
--ne
--nea
--nego
--nem
--ner
--nes
--ney
--ng
--ni
--nia
--nik
--nim
--nist
--nja
--nje
--njejs
--njow
--nju
--nki
--nn
--no
--ns
--nse
--nsee
--nsis
--nski
--nson
--nt
--nte
--nu
--nus
--ny
--nych
--nz
--nze
--o
--ob
--obs
--od
--og
--ojs
--ojske
--ojstwo
--ojta
--oju
--ok
--oko
--ol
--ola
--ole
--om
--oma
--on
--one
--ony
--op
--or
--ore
--orum
--ory
--os
--osa
--osc
--ov
--ovic
--ow
--owa
--owali
--ował
--owe
--owej
--oweje
--oweju
--owo
--owski
--owu
--owy
--owych
--owym
--owymi
--oyd
--oz
--p
--pa
--pe
--pel
--pk
--pki
--po
--pon
--pow
--ps
--pum
--py
--r
--ra
--ragua
--rch
--rd
--re
--reich
--rer
--rf
--rg
--ri
--ria
--rie
--rium
--rje
--rn
--rna
--rne
--ro
--rs
--rsk
--rt
--ru
--ry
--rz
--s
--sa
--sai
--sat
--sau
--sc
--sch
--schrift
--sdorf
--se
--sel
--ser
--si
--sije
--siju
--sis
--sk
--ska
--ske
--skego
--skej
--skeje
--skeju
--ski
--skich
--sko
--sku
--sky
--sl
--smus
--son
--st
--ster
--stwa
--stwo
--sty
--su
--sum
--sy
--sz
--słowjan
--t
--ta
--tacija
--taciju
--tag
--tal
--tale
--tawa
--te
--tej
--tel
--ten
--ter
--th
--ti
--tic
--tice
--tics
--tik
--tika
--tiki
--tin
--tion
--tis
--tiske
--tiski
--tiv
--tka
--tle
--tna
--tne
--to
--ton
--tor
--tosc
--tow
--try
--ts
--tt
--tu
--tum
--tus
--twa
--twje
--ty
--tych
--tz
--u
--ua
--uch
--ud
--ue
--uer
--ujo
--uju
--uk
--ulosa
--um
--un
--ung
--ur
--uru
--us
--usa
--use
--uss
--ut
--uß
--v
--va
--ve
--vi
--vic
--vu
--w
--wa
--was
--we
--wej
--weje
--werda
--wi
--wiki
--wje
--wo
--wow
--ws
--wska
--wski
--wu
--wy
--wych
--x
--y
--ya
--ych
--ye
--yer
--yi
--ym
--yn
--yna
--yo
--yon
--ys
--z
--za
--ze
--zel
--zen
--zi
--zm
--zma
--zu
--zy
--zyn
--ß
--ße
--ł
--ła
--łe
--łn
--ło
--а
--д
--и
--л
--лика
--р
--ן
