!
"
#
##0
##1
##10
##11
##12
##13
##14
##15
##16
##17
##18
##19
##2
##20
##21
##22
##23
##24
##25
##26
##27
##28
##29
##3
##30
##31
##32
##33
##34
##35
##36
##37
##38
##39
##4
##40
##41
##42
##43
##44
##45
##46
##47
##48
##49
##5
##50
##51
##52
##53
##54
##55
##56
##57
##58
##59
##6
##60
##61
##62
##63
##64
##65
##66
##67
##68
##69
##7
##70
##71
##72
##73
##74
##75
##76
##77
##78
##79
##8
##80
##81
##82
##83
##84
##85
##86
##87
##88
##89
##9
##90
##91
##92
##93
##94
##95
##96
##97
##98
##99
$
%
&
'
(
)
*
+
,
-
.
/
0
00
000
01
0140
02
020
03
04
05
050
06
07
08
09
1
10
100
1000
100402
101
1016
102
103
1038
104
105
106
107
108
1080
109
11
110
111
1111
112
1126
114
115
116
117
118
1187
119
1199
12
120
1204
121
122
123
124
125
126
1261
127
1276
128
129
13
130
1305
1307
131
132
133
134
135
136
137
138
139
14
140
1402
1404
1405
1406
1407
1408
1409
141
1410
1411
1412
1413
1414
1415
1416
1417
1418
1419
142
1420
1421
1422
1423
1424
1425
1426
1427
1428
1429
143
1430
1431
1432
1433
1434
1435
1436
1437
1444
145
1453
1457
146
147
148
1485
149
1492
1493
15
150
1500
1502
1503
151
1511
1519
152
1521
1524
153
1536
154
1541
1547
155
1550
1557
1562
1564
1566
157
1575
1578
158
1581
1582
1587
16
160
1600
1607
161
1610
1612
1619
162
1621
163
1630
1632
1633
1635
1637
1638
1639
164
1642
1649
1650
1653
1654
1655
1659
1660
1661
1666
1667
167
1670
1672
1674
1677
1678
168
1684
1689
169
1690
1691
1695
1699
17
170
1700
1701
1703
1704
1707
1709
171
1710
1711
1712
1713
1714
1719
172
1720
1724
1725
1728
173
1732
1735
1736
1737
1738
1739
174
1740
1741
1744
1747
175
1750
1751
1755
1756
1759
176
1761
1762
1765
1768
1769
177
1770
1771
1773
1775
1776
1777
1778
1779
1780
1781
1782
1783
1784
1785
1786
1787
1788
1789
179
1790
1791
1792
1793
1794
1795
1796
1797
1799
18
180
1801
1802
1803
1804
1805
1806
1807
1808
1809
181
1810
1811
1812
1813
1814
1815
1816
1817
1818
1819
1820
1821
1822
1823
1824
1825
1826
1827
1828
1829
183
1830
1831
1832
1833
1834
1835
1836
1837
1838
1839
184
1840
1841
1842
1843
1844
1845
1846
1847
1848
1849
185
1850
1851
1852
1853
1854
1855
1856
1857
1858
1859
186
1860
1861
1862
1863
1864
1865
1866
1867
1868
1869
1870
1871
1872
1873
1874
1875
1876
1877
1878
1879
188
1880
1881
1882
1883
1884
1885
1886
1887
1888
1889
1890
1891
1892
1893
1894
1895
1896
1897
1898
1899
19
190
1900
1901
1902
1903
1904
1905
1906
1907
1908
1909
191
1910
1911
1912
1913
1914
1915
1916
1917
1918
1919
192
1920
1921
1922
1923
1924
1925
1926
1927
1928
1929
193
1930
1931
1932
1933
1934
1935
1936
1937
1938
1939
1940
1941
1942
1943
1944
1945
1946
1947
1948
1949
195
1950
1951
1952
1953
1954
1955
1956
1957
1958
1959
196
1960
1961
1962
1963
1964
1965
1966
1967
1968
1969
197
1970
1971
1972
1973
1974
1975
1976
1977
1978
1979
198
1980
1981
1982
1983
1984
1985
1986
1987
1988
1989
199
1990
1991
1992
1993
1994
1995
1996
1997
1998
1999
2
20
200
2000
2001
2002
2003
2004
2005
2006
2007
2008
2009
201
2010
2011
2012
2013
2014
2015
2016
2017
2018
2019
202
2020
2021
2022
203
204
205
206
207
209
21
210
211
212
213
214
215
216
217
219
22
220
221
222
223
224
227
228
23
230
232
234
235
237
239
24
243
244
246
247
25
250
251
253
257
26
262
265
269
27
270
275
279
28
280
281
283
287
29
293
296
297
299
3
30
300
3000
301
303
304
305
306
308
31
313
314
316
32
320
322
323
325
326
33
330
333
335
338
339
34
340
341
343
348
35
350
352
355
356
36
361
37
373
38
380
39
395
4
40
400
4000
401
402
409
41
415
42
43
44
440
45
450
455
459
46
47
479
48
480
49
5
50
500
507
508
51
52
53
54
55
56
57
58
59
6
60
600
602
61
62
623
626
63
634
639
64
65
650
66
660
663
666
67
6736
68
683
69
693
7
70
700
7022
707
71
72
724
727
73
74
747
75
750
757
76
77
777
78
781
786
79
8
80
800
81
814
82
83
84
85
850
86
866
87
88
883
89
9
90
900
91
92
93
94
95
96
97
978
979
98
99
:
;
<
=
>
?
[
\
]
^
_
`
a
aa
aadati
aalo
aalolo
abad
abadi
abbas
abbasiyah
abbey
abd
abdel
abdul
abdullah
abdurrahman
abel
abeli
abjad
about
abrahah
abraham
abu
abuki
ac
academy
acara
access
accessdate
ace
aceh
achmad
acid
act
ad
ada
adabu
adalah
adaline
adam
adams
adanya
adaptasi
adaro
adat
adati
ade
adha
adimulyo
adipala
adipati
admin
administrasi
administratif
administration
adnan
adolf
adu
adulyadej
advice
afc
aff
afganistan
afghanistan
afonso
afrianti
africa
afrika
after
agak
agam
agama
agar
age
agen
agency
agresi
agung
agus
agustus
ahadi
ahali
ahaya
ahli
ahmad
ahmed
ahok
aids
air
airbus
airlines
airmadidi
airways
aita
ajang
ajangale
ajaran
ajibarang
akademi
akademik
akali
akan
akbar
akhir
akhirnya
akibat
akihito
aksara
akses
aksi
aktif
aktivis
aktor
aktris
akurat
al
ala
alabama
alam
alami
alan
alas
alasan
alasani
alaska
alat
alato
albania
albay
albert
album
ale
aleksander
aleksandr
alex
alexander
alexis
alfabet
alfonso
alfred
ali
alian
aliansi
alih
alihu
alik
alikusu
alimo
alinguwa
alipo
aliran
aliyo
aljazair
alkimia
all
alla
allah
allende
almarhum
alo
alokasi
alolo
alphabet
alternatif
aluh
aluku
alumu
alva
alwi
am
amadeus
amai
amali
aman
amanah
amanat
ambal
ambon
ambulu
ambuwa
amendemen
america
american
amerika
amfibi
ami
amila
amin
amino
amir
amirul
among
amonggedo
amongo
ampana
ampar
ampe
ampelgading
ampibabo
amplas
amsterdam
amundsen
an
ana
anabolisme
anak
anaknya
analisis
analiyo
ananta
anas
anatolia
anatomi
ancalong
ancaman
ancient
and
anderson
andes
andi
andir
andre
andreas
andres
andrew
android
andy
ang
angeles
anggaberi
anggadu
anggalomoare
anggana
anggeraja
anggota
anggrek
angin
angiotensin
angka
angkasa
angkat
angkatan
angkut
anglo
angola
angry
ani
anies
animal
animasi
anion
anjatan
anjing
anjongan
anna
anne
anno
annual
anorganik
antapani
antar
antara
antaranews
antaranya
antariksa
antarktika
antartika
antasari
anthony
anthropology
anti
anto
antoinette
anton
antonio
antono
anugerah
anwar
anyar
ao
apa
apakah
aparat
apartheid
apbd
apbn
api
apingo
aplikasi
apollo
apotheosis
apple
april
aquino
ar
arab
araba
arabi
arabia
arafat
aragon
arah
arahan
aranio
arc
arcamanik
arcandra
archimedes
archive
archives
are
area
argentina
argo
arif
arifin
aris
aristoteles
arizona
arjasa
arjosari
arjuna
armada
armenia
armstrong
army
arnold
arsip
arsitek
art
artape
artefak
arthur
arti
article
articles
artikel
artileri
artiliyo
artis
aru
arus
as
asa
asal
asali
asaliliyo
asalnya
asam
asasi
asean
aset
asia
asian
asing
asinua
asisten
asli
asmara
asosiasi
asparaga
aspek
association
astambul
astana
asteroid
astronom
astronomi
astronomy
astronot
at
ata
atap
atas
atau
ataupun
ath
athena
ati
atinggola
atiyo
atlantik
atlas
atlet
atmosfer
ato
atol
atom
atomic
aturangi
au
august
auguste
augustus
aur
australia
australian
austria
authority
authors
awa
awak
awaknya
awal
awali
awan
awang
awangpone
award
awards
awu
awuhu
awuta
aya
ayabu
ayah
ayahnya
ayatollah
ayita
ayu
ayula
ayuwa
ayyubi
azerbaijan
azeri
aziz
b
ba
baao
baate
babadan
babak
babakan
babat
babi
babilonia
bachtiar
bad
badai
badak
badan
badas
badegan
baden
badudu
bagi
bagian
bagus
bahagia
bahan
bahari
bahasa
bahkan
bahodopi
bahrain
bahwa
baiduri
baik
baja
bajeng
bajo
bakal
bakar
bakasi
bakat
bakau
baker
bakteri
bakti
baku
bakung
bala
balaesang
balai
balajari
balangga
balantak
balap
balas
balatan
bale
baleango
balen
bali
balik
balikpapan
balinggi
balkan
balon
balong
balongan
baltik
baltimore
balung
balusu
bambalihe
bambang
bambu
ban
banari
banawa
band
banda
bandar
bandara
bandung
bangga
banggai
bangge
bangka
bangkalan
bangkinang
bangkok
bangkurung
bangladesh
bangodua
bangsa
bangsawan
bangun
bangunan
bangusa
bani
banjar
banjarbaru
banjarejo
banjarmasin
banjarnegara
banjarsari
banjir
bank
bankir
bantaeng
bantarsari
bantayo
banten
bantuan
bantur
banua
banwaan
banyak
banyakan
banyuasin
banyumanik
banyumas
banyuwangi
baolan
bapak
bappenas
bara
barak
baraka
barang
barangay
barangi
barat
baraya
barcelona
bard
barebbo
barito
baroko
barombong
baron
barong
barru
baru
baruadi
baruga
basa
baseball
based
basidondo
basis
basket
basri
bass
basuki
baswedan
batade
batak
batam
batang
batanga
batangaliyo
batanghari
batangiyo
batango
batas
batauga
batavia
baterai
baterei
bato
battery
batu
batuan
batubara
batudaa
batudaka
batui
batununggal
batupoaro
baturraden
bau
baubau
baula
baureno
bavaria
bawah
bawang
bay
baya
bayan
bayern
bayi
bbc
bbm
be
beasiswa
beatles
bebas
bebasi
beberapa
bec
becak
beda
bedah
bee
beethoven
begin
begitu
beijing
beitrag
beji
bekas
bekasi
bekerja
belajar
belakang
belanda
belarus
belas
belawan
bele
beleliyo
belengkong
belgia
belitung
bell
belum
ben
bencana
benda
bendera
bendo
bendungan
benediktus
bener
bengali
bengalon
bengkal
bengkulu
bengo
benito
benjamin
benowo
benteng
bentian
bentor
bentuk
bentuknya
benua
berada
beragam
beragama
berakhir
berakhirnya
beralih
berapi
berarti
berasal
berat
berau
berawak
berayan
berbagai
berbanding
berbasis
berbeda
berbentuk
berbunyi
berdarah
berdasarkan
berdaulat
berdiri
berdirinya
beredar
beresi
berfungsi
bergabung
berganti
bergantung
bergelar
bergerak
berguna
berhasil
berhenti
berhubungan
berikut
berikutnya
beringin
berita
beritasatu
berjalan
berjarak
berjudul
berjumlah
berkaitan
berkas
berkebangsaan
berkekuatan
berkembang
berketurunan
berkuasa
berkunjung
berlaku
berlangsung
berlanjut
berlawanan
berlayar
berlin
bermain
bermuatan
bernama
bernard
bernhard
bernilai
beroperasi
berpasangan
berperan
berpindah
bersalah
bersama
bersatu
bersaudara
bersenjata
bersidang
bersifat
bersuara
bersubsidi
bertabrakan
bertahan
bertanggung
bertempat
bertempur
bertemu
bertugas
berubah
berujung
berupa
berusaha
berusia
bervariasi
berwarna
besar
besaran
beserta
besi
besok
best
besuki
besulutu
betina
betoambari
beyog
bhakti
bhopal
bhumibol
bhutan
bhutto
bia
biak
biaro
biasa
biasaliyo
biasanya
biatan
biau
bibilohu
bibit
bibiyahu
bid
bidang
biduk
big
bihu
biihu
bikol
bila
bilal
bilalang
bilangan
bilango
bilateral
bilato
bili
bilinta
bill
billy
bilohe
bilohelo
biloli
bilongu
bilonguliyo
bilu
biluhu
bilulo
bilungala
bima
bin
bina
binakal
binangun
binapemdes
binatangi
binggungo
binjai
binta
bintang
binte
biografi
biokimia
biokimiawan
biologi
biologis
biology
bioteknologi
bira
birds
biringbulu
biringkanaya
birma
biro
biromaru
biru
bisa
bisnis
bisnisi
bissappu
bito
bitung
biyasa
biyasaliyo
biyawa
bizantium
black
blake
blimbing
blitar
blog
blok
blue
bluluk
bo
boalemo
boat
bob
bobby
bobo
boboli
bobotsari
boccoe
bode
boeing
boer
bogor
bogota
boheli
bohemia
bohito
bohu
bohulio
bohuliyo
boito
bojonegoro
bojong
bojongloa
bojongsari
bokan
bokat
bola
bolaang
bolak
bolango
bolano
bole
boli
bolivia
boliyohuto
bolkiah
bolo
bolshevik
bolu
bom
bombana
bonaparte
bonda
bondo
bondoala
bondowoso
bone
bonegunu
boneka
bonepantai
bongan
bongas
bongkudai
bongo
bongohulawa
bongomeme
bongopini
boni
bonjol
bonorowo
bontang
bonto
bontoala
bontocani
bontolempangan
bontomarannu
bontonompo
bontotiro
book
books
booth
boris
borneo
borobudur
bosnia
bosporus
boston
bot
botani
botany
botha
boti
botia
botiya
botiye
botolinggo
botu
botubulota
botumoito
botupingge
botutihe
bowo
boy
boyband
boyd
boyi
boyito
boyolangu
bpr
bps
brad
brahe
brasil
braun
brazil
brgy
brian
brigade
brigadir
brimob
britania
britannica
british
broadcasting
bromo
brondong
brown
browser
bruce
brunei
bruto
bt
bu
buah
buahbatu
bualemo
buatan
buaya
buayan
bubar
buboto
bubu
bubulan
bubutan
budak
budaya
budayawan
buddha
budha
budi
bugis
buhetiyo
buheto
buhi
buhu
bujur
buka
bukaka
bukal
bukan
bukateja
bukit
bukitkerman
bukittinggi
buko
bukti
buku
bula
bulagi
bulak
bulalo
bulan
bulango
bulat
bulawa
bulenditi
bulgaria
buliya
bulo
bulonga
bulotu
bulu
bulukumba
bulukumpa
buluspesantren
bulutangkis
bumi
bumn
bunda
bundar
bunder
bune
bung
bunga
bungale
bungalio
bungaliyo
bungaya
bunggo
bungi
bungin
bungkal
bungku
bungo
bunobogu
bunta
buntu
buntulia
bunuh
bunyi
bunyinya
buol
bupati
burgemeester
burhan
burisrawa
burma
burr
bursa
burton
buruh
buruna
burung
burungi
bus
busana
busang
bush
business
buta
buti
butiye
buton
butt
butu
buwa
buyat
by
byzantium
c
ca
cabang
cabangi
caesar
cagub
cahaya
cairan
calcutta
california
calon
calvin
camarines
cambridge
camp
campbell
campuran
campurdarat
can
canada
canadian
canberra
candi
candisari
candiwulan
cantian
cape
capital
capres
cara
carl
carlo
carlos
carolina
carter
cartman
cases
castro
cat
catanduanes
catatan
catherine
cattle
catur
cawagub
cawapres
cc
cd
cdc
ce
ceaus
ceko
cekoslovakia
cekoslowakia
celah
celebes
cendana
cendekiawan
cenrana
census
center
central
century
ceo
cepat
cephalopoda
cerita
cerme
cermee
cerpen
cetak
ch
cha
chad
chairil
champions
change
changing
channel
chaplin
chapman
character
characteristics
charles
charlie
charter
che
chechnya
chef
chekhov
chemical
chemistry
chen
cheng
cheras
chi
chicago
child
chili
china
chordata
chris
christiaan
christian
christmas
christopher
chrome
churchill
cia
ciamis
cibeunying
cibiru
cicendo
cidadap
cikal
cilacap
cilegon
cilodong
cilongok
cimahi
cimanggis
cimanggu
cina
cinambo
cincin
cinere
cinta
ciparay
cipari
cipayung
cipta
cirebon
ciri
cite
cities
citra
city
ciudad
civil
clark
classification
claude
claudius
clinton
club
cm
cnn
co
coba
coblong
cocos
code
col
cole
college
columbia
columbus
com
combined
comedy
comes
committee
commons
company
comparative
computer
concorde
conference
cong
congress
connecticut
considered
content
continent
continents
contoh
contohnya
contributor
control
convention
cook
coon
copernicus
copyright
cornelis
corona
coronavirus
corporate
corporation
countries
country
county
course
cov
cover
covid
creek
crime
crocus
cruz
cs
cu
cuaca
cukup
cuma
cup
curahdami
curie
curio
cut
cuti
cyber
d
da
daa
daadata
daata
dabo
dabu
dada
dadaata
dadata
daerah
daet
daftar
dagang
daha
dahlan
dahsyat
daily
dako
dakota
dakwaan
dala
dalala
dalalo
dalam
dale
damai
damanga
damangiyo
damango
dame
dampak
dampal
dampelas
dan
dana
danau
daniel
dapat
daputari
darah
darat
daratan
dari
daring
daripada
darurat
darus
darussalam
darwin
das
dasar
dasari
data
database
datahe
datahu
datala
datar
dataran
date
dates
dati
daulima
daun
daur
david
davis
dawuhan
day
daya
dayak
dayeuhluhur
days
dc
de
dead
death
debo
debu
debutnya
dec
december
deddy
dede
dee
deep
deepublish
definisi
definitif
definition
deheto
dehu
dekade
dekan
dekat
deket
dekker
deklarasi
dekret
del
delapan
delegasi
delhi
deli
delo
delomiyo
delomo
delta
demam
dembe
demi
demikian
demokrasi
demokrat
demokratik
demokratis
demonstran
demonstrasi
den
denai
deng
dengan
denggu
dengilo
denmark
dennis
denny
denpasar
depan
departemen
department
depok
depresi
depula
deputi
der
derajat
derawan
des
desa
desain
desember
design
desis
desy
detail
detik
detikfinance
detiknews
detohu
deutsche
deuyito
development
dewa
dewan
dewanagari
dewantara
dewaruci
dewasa
dewi
dex
dharma
dhien
di
dia
diabadikan
diabaikan
diadakan
diadaptasi
diadopsi
diagnosis
diagnostik
diakses
diakui
dialek
diam
diambil
diameter
dian
diana
dianggap
diangkat
diantaranya
dianugerahi
dianut
diarsipkan
diasingkan
diawali
dibaca
dibagi
dibajak
dibakar
dibalaka
dibandingkan
dibangun
dibatalkan
dibawah
dibebaskan
dibedakan
dibentuk
diberhentikan
diberi
diberikan
diberlakukan
dibom
dibuang
dibuat
dibubarkan
dibuka
dibunuh
dibutuhkan
dicabut
dicatat
diciptakan
dick
dictionary
diculik
didakwa
didefinisikan
didi
didirikan
didu
diduduki
diduga
didukung
die
diego
dieksekusi
diesel
diftong
diganti
digantikan
digelar
digital
digulingkan
digunakan
dihancurkan
dihapus
dihentikan
dihitung
dihu
dihukum
diikuti
diila
diipo
dijadikan
dijatuhi
dijatuhkan
dijual
dijuluki
dikalahkan
dikeluarkan
dikembalikan
dikembangkan
dikenal
diketahui
dikirim
diklasifikasikan
diktator
dikuasai
dila
dilaksanakan
dilakukan
dilancarkan
dilanda
dilantik
dilaporkan
dilarang
dilarutkan
dile
dileliyo
diludu
diluncurkan
diluuari
diluwari
dimainkan
dimana
dimekarkan
dimembe
dimiliki
dimuka
dimulai
dimulainya
din
dinamai
dinamakan
dinas
dinasti
ding
dingin
dinh
dini
dinobatkan
dinonaktifkan
dinosaurs
dinosaurus
dinyatakan
dioksida
dioperasikan
dipakai
dipaksa
dipasang
dipatenkan
dipergunakan
diperingati
diperkenalkan
diperkirakan
diperoleh
dipertunjukkan
dipilih
dipimpin
diplomat
diplomatik
dipo
diponegoro
diproduksi
diproklamirkan
dipublikasikan
diratifikasi
dirayakan
direbut
direktorat
direktur
direpresentasikan
diresmikan
diri
dirilis
dirinya
dirjen
dirk
dirut
disahkan
disandera
discovery
disease
disebabkan
disebut
diselenggarakan
diselesaikan
diserahkan
diserang
disetujui
disiarkan
disingkat
disiplin
disney
displaystyle
distribusi
district
distrik
ditahan
ditandatangani
ditangkap
ditayangkan
ditembak
ditempatkan
ditemukan
ditenggelamkan
diterapkan
diterbangkan
diterbitkan
diterima
ditetapkan
ditimbulkan
ditorpedo
ditulis
ditunjuk
diturunkan
ditutup
diubah
diumumkan
diusulkan
divisi
diwakili
diya
diyakini
diyalu
djalaludin
djarot
djawatan
djpk
dki
dkk
dna
do
doda
doi
dokter
doktor
dokumen
dokumentasi
dokuteri
dolar
dollar
dolo
dolomi
dolomo
domain
domestik
domingo
domini
dominika
don
donald
dondo
donggala
donggo
dongko
donorojo
dosen
double
douglas
douwes
down
download
doyi
dpd
dpr
dprd
dq
dr
drama
dramawan
dresden
drs
drummer
du
dua
dudetu
dudu
duduk
dudula
duduta
dudutu
dudutuliyo
duhelo
duhi
duhiadaa
duhu
duke
dukuh
dukungan
dulahe
dulahiyo
dulahu
dulamayo
dulo
dulohupa
dulomo
dulopula
dulota
dulu
dulungo
duluo
dulupi
duluwo
dumai
dumbo
dumodupo
dumoga
dungaliyo
dungga
dunggala
dungingi
dungito
dungiyo
dungo
dunia
duniya
dunula
dupoto
duran
durenan
duri
dusun
duta
dutu
dutula
duulo
duungo
dwi
dwibibir
dwight
dwihuruf
dwikora
dz
e
ea
earl
earth
east
eastern
echinodermata
eclipse
economic
ed
eddy
edi
edinburgh
edirne
edisi
edison
edition
editor
editors
edmund
edu
eduardo
education
edward
edwin
eela
eenta
eeya
eeyanggu
efek
efektif
effendi
eiffel
ein
einstein
eisenhower
ejaan
ekologi
ekonom
ekonomi
ekor
ekosistem
eksekusi
eksekutif
ekskresi
ekspedisi
ekspresi
eksternal
ekuador
el
ela
elba
electric
elektrik
elektrodinamika
elektrokimia
elektrolit
elektromagnetik
elektromagnetisme
elektron
elektronik
elektronika
elektrosintesis
elektrostatik
elemen
elizabeth
ellen
elliott
elsevier
emas
emil
emirat
emisi
emma
empat
empire
en
enam
encyclopaedia
encyclopedia
end
endemik
energi
energy
engau
enggadu
enggeleti
england
english
enrekang
ensiklopedi
ensiklopedia
enta
ente
entropi
environment
enzim
epguides
episode
episodes
epsilon
er
era
erat
eremerasa
eric
eritrea
ernest
ernst
eropa
erry
erwin
es
esa
escu
esdm
esi
estonia
et
ethiopia
ethnicity
ethnologue
etnis
etruska
eukariotik
eurasia
euro
europe
european
eva
ever
everest
evolusi
evolution
evolutionary
explorer
eya
f
fa
facebook
facto
facts
fadel
fair
faisal
fakta
fakultas
falkland
family
fan
farha
fase
fat
fatih
fauzi
fc
fe
februari
february
federal
federasi
felix
fenisia
fenomena
ferdinand
fernando
ferry
festival
fi
ficardo
fidel
field
fifa
figures
fiji
file
files
filipina
film
filosofi
filsafat
filsuf
filum
final
finlandia
firaun
first
fisik
fisika
fisikawan
fisiologi
fitri
fitur
fkip
fleet
fleming
flight
florence
flores
florida
fm
fonem
fonetik
football
for
forbes
force
forces
ford
forever
forkel
formal
format
formula
fort
forum
fosfat
fosil
foto
fotografer
fotografi
fotosintesis
foundation
four
fox
frac
franc
france
francis
francisco
franco
frank
franklin
frans
fransiskus
franz
frederick
free
frekuensi
friedrich
friends
fritz
from
front
fu
full
fun
function
functions
fund
fungsi
fyord
g
gaambari
gabon
gabriel
gabungan
gading
gadjah
gadung
gaga
gagal
gagasan
gajah
gajahmungkur
galaksi
galang
galangan
galeri
galilei
galileo
gallery
gam
gama
gamal
gambangi
gambar
gambari
gambia
gambir
games
gamma
gampengrejo
ganapu
ganapuliyo
ganda
gandhi
gandrungmangu
gandusari
gangga
gantarang
gantarangkeke
ganti
gantikan
gantung
gara
garam
garden
garfield
garis
garisi
garnisun
garry
garuda
gary
gas
gates
gatot
gaulle
gawang
gay
gaya
gayam
gayamsari
gayo
gayungan
gaza
gebang
gedangan
gede
gedebage
gedung
geger
gejala
gelar
gelombang
gelora
gemari
gempa
gen
gencatan
general
generasi
generation
generator
genetics
genetik
genetika
genteng
genting
gentuma
genuk
genus
geofisika
geografi
geografis
geographic
geography
geologi
georg
george
georges
georgia
gerak
gerakan
gerald
gerard
gerbang
gereja
gerhana
gerilyawan
gerindra
germanium
ghana
ghetto
ghost
gigi
gini
ginjal
gio
giovanni
girl
girlband
girls
gitar
gitaris
giuseppe
glagah
glenn
global
glossar
glottolog
glyph
gmail
go
goa
gobel
god
gogh
gol
golden
golkar
golongan
gombong
gondang
goodman
google
gorbachev
gordon
goro
gorontalo
gorut
gosong
gov
government
governor
gowa
grace
grafis
graham
grammatische
grand
grant
gravitasi
gray
great
greek
greenwich
gregorian
gregorius
gregory
grenada
gresik
grogol
group
grujugan
grup
gu
gua
guam
guard
guatemala
gubeng
gubernur
gudang
guevara
gugus
guide
guides
guillotine
guinea
gula
gumay
gumbasa
gumelar
gunawan
gunung
gunungpati
gunungsari
gunungsitoli
gurah
guru
gurun
gustaf
gustav
gusti
guy
guyana
h
ha
haag
habari
habibie
habis
habitat
hadi
hadiah
hadis
haga
haiti
hajar
haji
hak
hakim
haku
hal
halaman
hale
half
halim
hall
halley
halmahera
ham
hama
hamengkubuwana
hamengkubuwono
hamid
hamisi
hammarstro
hampang
hampir
hampiran
hamzah
han
hancur
handayani
handil
hangat
hani
hans
hantu
hanya
happy
hara
harahap
harald
harapan
harbor
hard
harding
harga
hargo
hari
harian
harimau
harinya
harits
harold
harris
harrison
harry
harta
harun
harus
harvard
harvey
has
hasan
hasil
hasili
haspelmath
hassan
hasyim
hat
hati
hatta
haurgeulis
have
hawai
hawaii
haya
he
health
hebat
hebiyahu
hebiyahulo
heewani
heheliliya
heinrich
hektar
hektare
hele
helen
helium
helumo
helvetia
hemo
hemohutu
hemokaraja
hemolulade
hemoluladu
hemongajari
hencke
hendra
hendrik
henri
henry
hepohutuwoliyo
hepomake
hepomakeliyo
hepopohunaliyo
hepotombilu
hercules
herman
hermann
hero
herschel
heru
heryawan
herzegovina
hetanggula
hetanggulala
hetanggulaliyo
hetanggulalo
hetanggulo
hetulade
hetumula
hewan
hewani
hi
hiambola
hiasan
hiburan
hidayat
hideki
hidrogen
hidung
hidup
hieroglif
hihede
hiheolio
hiheoliyo
hihewoliyo
hihide
hihihede
hihile
hiihewoliyo
hijau
hijriah
hijriyah
hila
hilama
hilamaliyo
hilang
hilawo
hileyiliyo
hilir
hill
hilu
himalaya
himbunguwa
hina
hindia
hindu
hingga
hipotesis
hiroshima
hirupa
his
historia
historical
history
hitam
hitler
hitolawa
hitumula
hiv
hiyalo
hiyambola
hj
hlm
hms
ho
hollywood
holocaust
holontalo
honda
honduras
hong
hongaria
hormon
hosni
hotel
hour
house
houston
how
howard
html
http
https
hu
hua
huang
hubungan
hudiyo
hudu
hudungu
hugo
huhebu
huhutu
hui
huidu
hukum
hukuman
hukumani
hukumu
hula
hulala
hulalo
hulangiyo
hulango
hulapa
hulawa
hulinta
huliyaliyo
hulo
hulondalo
hulontalo
hulonthalangi
hulonthalo
hulu
hulude
hululo
hulungo
human
humas
humaya
huna
hunaliyo
hungaria
hungayo
hungiyo
hungo
hungoliyo
huntu
huruf
hurupu
husein
hussain
hussein
hut
huta
hutagalung
hutan
hutiya
huwali
huwange
huwango
huwi
huwo
huwoyongo
huyi
hyderabad
i
ia
iain
ialah
ian
iast
ibm
ibn
ibnu
ibrahim
ibu
ibukota
ibukotaliyo
ibunya
ic
id
ide
identik
idi
idola
idris
idu
idul
ignasius
ignasiusi
ii
iii
ijen
ikan
ikatan
ikip
ikis
iklan
iklim
ikut
il
ila
ilabulo
ilanggango
ilato
ileengi
ilegal
ilengi
ilimi
ilimu
ilir
illinois
ilmiah
ilmu
ilmuwan
ilo
iloduhenga
ilodungga
iloheluma
ilomata
ilomataliyo
ilopateya
ilotawa
ilowwali
image
imaginationland
imam
iman
imbalan
imbihu
imf
imigran
imintihu
imlek
imperium
in
inal
inang
inc
inci
incubator
indah
indeks
independen
independence
index
india
indian
indiana
indianapolis
indische
individu
indo
indochina
indonesia
indonesian
indra
indramayu
induk
induksi
industri
infeksi
info
informasi
informatika
information
inggeleti
inggidu
inggris
ingin
ingo
ini
inilah
inke
inkubator
inovasi
insiden
insinyur
institut
institute
institution
insulin
int
inta
intan
intelektual
intelligence
inter
interaksi
interaktif
internal
internasional
international
internet
intervensi
inti
introduction
invasi
invertebrata
invertebrate
investasi
ion
ipa
ipad
ipm
iqbal
ir
ira
irak
iran
iraq
iri
irian
irish
irlandia
is
isaac
isbat
isbn
isidro
isilamu
isimu
isinini
iskan
islam
islamic
island
islandia
ismail
iso
isotop
isra
israel
issn
istana
istanbul
istilah
istimewa
istri
it
italia
itb
ito
its
itu
iucn
iv
ivan
iwan
iwo
iwoimendaa
ix
iya
iyati
iyo
iyomo
j
ja
jabar
jabat
jabatan
jabataniliyo
jabatannya
jaboti
jabung
jack
jackson
jacob
jacques
jadi
jailolo
jajahan
jajaran
jakarta
jalan
jalanan
jalur
jam
jamaika
jamak
jaman
jamani
jambangan
jambesari
jambi
jambon
jambore
james
jan
janan
jane
janeiro
janggut
janji
jantung
januari
january
japan
japanese
japangi
jarak
jarang
jari
jaringan
jasa
jasin
jason
jassin
jateng
jati
jatibarang
jatilawang
jatimulyo
jatirejo
jatisari
jatuh
jatuhnya
jauh
jawa
jawab
jawi
jaya
jayapura
jazirah
jazz
jdih
jean
jeanne
jefferson
jejak
jejaring
jelas
jemaah
jembatan
jember
jenangan
jenazah
jenderal
jendral
jeneponto
jenewa
jenis
jepang
jerman
jermanik
jersey
jeruk
jeruklegi
jesse
jet
jetis
jika
jilid
jim
jima
jimmy
jin
jiwa
jkt
jo
joa
joan
joe
joest
johan
johani
johann
johannes
john
johnson
joho
johor
joins
joko
jokowi
jombang
jonan
jones
jong
jordan
jorge
jose
josef
joseon
joseph
journal
joyce
jpg
jpnn
jr
ju
juan
juara
judul
juga
jules
juli
julian
juliane
julius
julukan
july
juma
jumat
jumlah
jumula
jumulaliyo
june
juni
junior
junta
juntinyuat
jupiter
jurnal
jurnalis
juru
jururakam
jurusan
jusuf
juta
jutaan
juventus
k
ka
kaambungu
kabaena
kabar
kabel
kabila
kabinet
kabisat
kabul
kabupaten
kadal
kadatua
kademangan
kadera
kadia
kadin
kadipaten
kahu
kai
kaimer
kairo
kaisar
kajang
kajian
kajuara
kakas
kaki
kala
kalah
kalaja
kalasi
kalau
kalawat
kalbar
kalender
kaler
kali
kalibagor
kalidawir
kaligondang
kalimanah
kalimantan
kalimat
kalinya
kaliorang
kalitengah
kaliwungu
kalla
kaltim
kaluku
kaman
kamaru
kamboja
kambowa
kambu
kambungu
kamera
kamerun
kami
kamil
kamp
kampak
kampanye
kampar
kampung
kampus
kamus
kan
kanada
kanan
kandangan
kandanghaur
kandat
kandungan
kanker
kanselir
kant
kantor
kantori
kapal
kapali
kapas
kapasitas
kapoiala
kapontori
kapten
kapupaten
karabakh
karaja
karajaliyo
karakter
karakteristik
karamat
karang
karangampel
karangan
karanganyar
karangbinangun
karanggayam
karanggedang
karanggeneng
karangjambu
karangkemiri
karanglewas
karangmoncol
karangpilang
karangpucung
karangreja
karangrejo
karangsambung
karangsari
karangtalun
karangtengah
karangturi
karat
karawo
karbohidrat
karbon
kardinal
karena
karesidenan
karibia
karim
karir
karirliyo
karl
karno
kartanegara
kartini
karya
karyawan
kasih
kasimbar
kasparov
kastil
kasur
kasus
kata
katabolisme
katai
katedral
kategori
kation
katode
katolik
kaubun
kauditan
kaum
kauman
kawa
kawangkoan
kawasa
kawasan
kawat
kawunganten
kaya
kayen
kayini
kayu
kazakhstan
ke
keadaan
keadilan
keamanan
kebakaran
kebangkitan
kebangsaan
kebanyakan
kebasen
kebebasan
keberadaan
keberhasilan
kebijakan
kebon
kebonagung
kebonsari
kebudayaan
kebumen
kecamatan
kecelakaan
kecepatan
kecil
kecuali
kedaulatan
kedelapan
kediri
kedokan
kedokteran
kedua
keduanya
kedudukan
kedungbanteng
kedungpring
kedungreja
kedungwaru
kedutaan
keempat
keenam
keesokan
kegagalan
kegiatan
kehakiman
kehidupan
kehilangan
kehormatan
kejadian
kejahatan
kejobong
kejuaraan
kekaisaran
kekalahan
keke
kekebalan
kekerasan
kekhalifahan
kekosongan
kekuasaan
kekuasaannya
kekuatan
kelahiran
kelak
kelapa
kelas
kelautan
kelay
kelayan
kelenjar
keliling
kelima
kelly
kelompok
keluar
keluarga
keluarganya
kelumpang
kelurahan
kema
kemajuan
kemampuan
kemangkon
kemantan
kemanusiaan
kematian
kembali
kembang
kembangan
kembangbahu
kembaran
kemenangan
kemendagri
kemenkeu
kementerian
kemerdekaan
kemerdekaannya
kemiri
kemiskinan
kemranjen
kemudian
kemungkinan
kemuning
kenaikan
kencana
kendahe
kendal
kendali
kendaraan
kendari
kenjeran
kennedy
kenohan
kenya
kenyataan
kepada
kepadatan
kepala
kepanduan
kepausan
kepemimpinan
kepercayaan
kepolisian
keppres
kepresidenan
kepri
kepulauan
kepung
keputusan
kera
kerajaan
kerangka
keras
kereta
kerinci
kerja
kerjasama
kertanegara
kertas
kertasemaya
kerusakan
kerusuhan
kesatuan
kesehatan
kesembilan
kesepakatan
kesimpulan
kesugihan
kesuksesan
kesultanan
kesusastraan
ket
keterangan
ketiga
ketika
ketua
keturunan
keuangan
kevin
kewarganegaraan
kewirausahaan
kg
kh
khalifah
khan
khas
khatulistiwa
khi
khomeini
khrushchev
khusus
khususnya
khz
ki
kiaracondong
kidshealth
kidul
kiev
kiki
kikingo
kikino
kilogram
kilometer
kim
kimia
kimiawan
kindang
king
kingdom
kini
kinovaro
kintom
kippur
kira
kiri
kiribati
kisah
kita
kitab
klabang
klan
klasifikasi
klasik
klinis
klirong
klub
kluet
km
knil
knot
ko
koadaan
koalisi
kodam
kode
koepcke
koes
koeswoyo
kokalukuna
kokoliyo
kolaka
koleksi
kolo
kolombia
kolonel
kolongan
koloni
kolonial
koluarga
komam
komandan
komando
kombinasi
komedi
komedian
komersial
komet
komik
komisaris
komisi
komite
komodo
kompas
kompleks
komponen
komponis
komposer
komposisi
komputer
komunikasi
komunis
komunitas
konawe
kondisi
konduktor
konfederasi
konferensi
konflik
kong
kongbeng
konghucu
kongo
kongres
konsentrasi
konsep
konser
konservatif
konsonan
konstanta
konstantin
konstantinopel
konstantinus
konstitusi
konstitusional
konsumen
kontak
kontrol
konvensi
koord
koordinat
koordinator
kopassus
koperasi
kopi
koran
korban
korea
korona
korosi
korps
korupsi
kosmologi
kosmonot
kosovo
kosta
kota
kotabaru
kotabunan
kotak
kotaliyo
kotamadya
kotamobagu
kotanya
kotaraya
koto
kouangan
kovalen
kp
kpk
kramat
krangkeng
kras
krayan
kredit
krembangan
kri
kriket
krisis
kristen
kritik
kritikus
kroasia
krocok
kromosom
kroya
ks
ksatria
ksi
ku
kuala
kualitas
kuantum
kuaro
kuat
kuba
kubu
kucing
kuda
kudeta
kuil
kuin
kuis
kulawi
kuliah
kulisusu
kulit
kulon
kulu
kumolo
kumparan
kumpulan
kunci
kuning
kuningan
kunjang
kunjungan
kuno
kunyit
kupang
kur
kura
kurang
kurdi
kurniawan
kursi
kurt
kusuma
kutai
kutasari
kutowinangun
kutub
kuwait
kuwarasan
kwandang
kyai
kyoto
kyu
l
la
laba
labobo
labuan
labuhan
ladongi
lady
lage
lagi
lagu
lahan
lahat
lahepa
lahir
lahirmati
lahu
lailatul
lain
lainnya
laju
lakariki
lakarsantri
lake
lakea
laksamana
laku
lakudo
lakuliyo
lalabu
lali
lalonggasumeeto
lalu
lama
lamahu
lamala
lambandia
lambang
lambi
lambunu
lambuya
lamingiyo
lamo
lamongan
lampasio
lampu
lampung
lamu
lamuru
lancet
land
landas
landscape
lang
lange
langga
langgatiyo
langgato
langit
langka
langsa
langsung
language
languages
lanjut
lanka
lantari
lantik
lantobu
lanud
laos
lapandewa
lapangan
lapata
lapatao
lapatio
lapatiyo
lapatiyoma
lapato
lapian
lapisan
laplace
laporan
lappariaja
larangan
laren
larry
larutan
larva
lasalimu
last
latambaga
latar
lati
latihan
latin
lato
latoma
latunga
latvia
lau
laut
lautan
law
lawang
lawato
lawrence
layahu
layanan
layang
layar
layi
layito
le
lea
leader
leadership
league
lebak
lebanon
lebar
lebe
lebih
lech
ledakan
ledungga
lee
leeto
left
legenda
legendaris
legislatif
leicester
leiden
leipzig
lelea
lembaga
lembah
lembang
lembo
lemito
lemo
lenggota
lengkap
lengkong
lengkungan
lenin
leningrad
leo
leonardo
leone
leopold
lepas
lepton
les
lestari
leste
letkol
letnan
leto
letter
letters
letup
letusan
lewat
lewis
lhokseumawe
li
lia
liang
liberal
liberia
library
libur
libureng
libya
life
liga
lihat
lihu
likupang
lilingo
liluhu
lima
limba
limbata
limboto
limbu
limited
limo
limongoliyo
limpoe
limu
limutu
lincoln
lindu
line
lingga
linggelo
lingkar
lingkungan
link
linnaeus
lintang
lintas
lintasan
lintidu
linula
lio
lipi
lipu
lipuliyo
liputan
lisa
lisan
lisensi
list
listiana
listrik
liter
literature
lithuania
lito
little
liu
live
lively
livescience
living
livonia
liyamoliyo
liyo
ller
lo
loa
lobalajari
loboli
lobu
lobutu
locuti
lodehu
lodidi
lodihu
lodudu
lodulahu
lodunggaya
loe
logam
logo
lohama
lohbener
lohe
lohehu
loheyi
lohidu
lohihewo
lohihilawo
lohile
lohimbunguwa
lohuduta
lohula
lohumbuta
lohuta
lohutu
lohuwalingayi
loji
lokal
lokaraja
lokasi
loke
lokomotif
lola
lolade
loladu
lolak
lolango
lolawo
lolayan
loleleyangi
loli
lolo
loloda
lolola
lololadu
lololimo
lolopata
lolos
lolulade
loluladu
loma
lomake
lomaso
lombok
lombongo
lomoli
lomongu
lomu
lona
londo
london
long
longohi
longsor
lonika
lontar
lonto
look
lootapu
lopo
lopohuna
lopolayi
lopoluwalo
lopoma
lopota
lopotihulo
lopotuwawu
lopowali
lopulito
lor
lord
lore
los
losarang
losikola
lota
lotaawunu
lotaluhu
lotapu
lotawu
lotawunu
lotitola
lotiwayito
lotowuli
lou
louis
louisiana
love
lowali
lower
loyitohu
lsm
ltd
lu
luar
luas
lubang
lubuk
ludwig
luis
luka
lukisan
lukman
lulus
lumadu
lumajang
lumalilo
lumbir
lumpur
lumuwalayi
lumuwalo
lunak
lunar
lunggongiyo
lunggongo
lurus
luther
luwu
luwuk
ly
m
ma
maa
mac
macam
macarthur
maccini
mada
madagaskar
madala
made
madelo
madinah
madison
madiun
madrid
madura
maduran
maesan
magellan
magetan
magnet
magnetik
magnus
mahabharata
mahasiswa
mahkamah
mahkota
mahmud
mahmudi
mai
maimun
main
maiwa
majalah
majapahit
majelis
majenang
majid
major
maju
maka
makam
makanan
makassar
makau
make
makedonia
makes
makhluk
makmur
maksimum
makuta
maladewa
malaka
malali
malam
malang
malaya
malaysia
malcolm
maleo
mali
malik
malino
mallusetasi
malo
malowali
malta
malu
malua
maluku
mamajang
mamalia
mambo
mammal
mamo
mamosalato
mampu
man
mana
manado
manager
manajemen
manajer
mananggu
manchester
manchuria
mandala
mandalajati
mandarin
mandat
mandela
mandiraja
mandiri
mandonga
manfred
manganitu
manggala
manggarai
manila
manokwari
mansoer
mantan
mantikulore
mantoh
mantup
manuel
manuju
manunggal
manusia
many
mao
maos
maradeka
marang
marawola
marc
march
marco
marcos
mare
marelan
maret
marga
margaret
mari
maria
marie
marine
marinir
mario
mariri
maris
marisa
mariso
mark
markas
marmara
maroko
mars
marshal
marshall
marti
martin
martir
marvin
mary
marzuki
mas
masa
masaatiya
masahuru
masalah
masalle
masaloka
masama
masatiya
masehi
masih
masina
masing
masjid
maskapai
masker
maso
massa
massachusetts
massal
masuk
masyarakat
masyumi
mata
matahari
mataram
mate
matematika
matematikawan
materi
material
mathbf
mathe
mathematics
mati
mato
matolodulahu
matsushita
matt
matthew
mattiro
mau
maulana
maulid
maupun
maurice
mauritania
mauritius
mawasangka
max
may
maya
mayang
mayi
mayilowali
mayjen
mayor
mayoritas
mbu
mc
mcdonald
me
mealo
medali
medan
medi
media
mediawiki
medical
medicine
medis
mediterania
medium
medungga
meela
meembidu
meeraji
meeteri
megawati
mehmed
mehmet
mei
meiji
meja
mejoyo
mekanika
mekar
mekarsari
mekkah
mekong
meksiko
mela
melaksanakan
melakukan
melalui
melambangkan
melancarkan
melanda
melantik
melarang
melarikan
melati
melawan
melayu
melbourne
meledak
meledakkan
melepas
melepaskan
meletus
melewati
melibatkan
melihat
melingkar
melintasi
meliputi
meluhu
melukai
meluncur
meluncurkan
memahami
memakai
memaksa
memanfaatkan
memangi
memasuki
mematenkan
mematikan
membagi
membakar
membangun
membantu
membatalkan
membatasi
membawa
membayar
membebaskan
membedakan
membeli
membentuk
memberi
memberikan
memberinya
memberontak
membidu
membolehkan
membom
membran
membuat
membubarkan
membuka
membuktikan
membunuh
memenangi
memenangkan
memerintahkan
memicu
memilih
memiliki
memimpin
meminta
memisahkan
mempatenkan
mempawah
memperingati
memperkenalkan
memperoleh
mempersilahkan
mempertahankan
memproduksi
memproklamasikan
memproklamirkan
memprotes
mempunyai
memulai
memungkinkan
memutuskan
menabrak
menahan
menaklukkan
menandai
menandakan
menandatangani
menang
menanggal
menangkap
menara
menarik
mencakup
mencalonkan
mencapai
mencari
mencegah
mencetak
menciptakan
mencoba
mendagri
mendapat
mendapatkan
mendarat
mendeklarasikan
menderita
mendirikan
menduduki
mendukung
menegaskan
menelan
menembak
menembaki
menembakkan
menembus
menemukan
menengah
menenggelamkan
menentang
menentukan
menerapkan
menerbitkan
menerima
menerus
menetapkan
menewaskan
mengabaikan
mengadakan
mengadopsi
mengajar
mengajukan
mengakhiri
mengakibatkan
mengaku
mengakui
mengalahkan
mengalami
mengalir
mengambil
mengandung
menganeksasi
menganggap
menganti
mengatakan
mengawali
mengedarkan
mengelilingi
mengeluarkan
mengembalikan
mengembangkan
mengenai
mengenal
mengenang
mengepung
mengesahkan
mengevakuasi
menggambarkan
mengganti
menggantikan
menggulingkan
menggunakan
mengguncang
menghadapi
menghancurkan
menghantarkan
menghapuskan
menghasilkan
menghentikan
menghubungkan
mengikuti
menginvasi
mengirim
mengirimkan
mengisi
mengizinkan
mengklaim
mengorbit
menguasai
mengubah
mengudara
mengumumkan
mengundurkan
mengunjungi
mengusir
menikahi
menimbulkan
meninggal
meninggalkan
meninggalnya
meningkat
meningkatkan
menit
menjabat
menjadi
menjalani
menjalankan
menjalin
menjatuhkan
menjelang
menjual
menjuarai
menobatkan
menolak
menpora
mental
menteri
mentri
menui
menuju
menulis
menunjuk
menunjukkan
menuntut
menurut
menutup
menyampaikan
menyandera
menyatakan
menyebabkan
menyeberangi
menyebut
menyebutnya
menyelamatkan
menyelesaikan
menyerah
menyerahkan
menyerang
menyerbu
menyetujui
menyusul
mepanga
merah
meraih
merangin
merangkap
merapi
meratifikasi
merauke
merayakan
merdeka
merebut
mereka
merekomendasikan
meresmikan
meriah
meriam
merilis
merkurius
merriam
merujuk
merupakan
mesangat
mesin
mesir
mesjid
meski
meskipun
messier
meta
metabolisme
metal
meter
meteri
metode
metro
metropolitan
mewakili
mexico
meyalo
meyambo
mg
mhz
mi
michael
michiel
michigan
microbiology
microsoft
miguel
mijen
mike
mikhail
mil
milan
milango
milenium
miliar
milik
milimeter
milisi
militan
militer
miller
million
milton
milyar
mimbar
minahasa
minangkabau
mineral
minggu
minh
mini
minta
minyak
mirip
mirit
misalnya
misi
misikini
misil
misionaris
miss
mississippi
missouri
mitologi
mitra
miyamoto
mj
mlarak
mm
mo
moali
mobaca
mobalajari
mobata
mobil
mobile
moboli
mobu
mobutu
modaha
modayag
modehu
model
modelo
modelomo
moderen
modern
modeto
modi
modihu
modo
modudu
modukungi
modul
modungohe
mohamad
mohammad
mohammed
mohelu
mohengu
mohihewo
mohiiheo
mohile
mohiyo
mohon
mohualinga
mohuheli
mohumayawa
mohutata
mohuto
mohutu
mohuwalinga
moilong
moitohu
mojo
mojokerto
mojosari
mokalaja
mokaraja
mokarawo
mokupe
mola
molahangi
molahu
molalahu
molamahu
molamingo
molandu
molanggato
molantu
molawani
moldova
molecular
molecule
molekul
molekular
molekuler
moleleyangi
moli
molihu
molinggahu
mollulade
molo
molobunga
molohidu
mololadu
mololangi
mololimo
mololohe
mololohu
molotingo
molotolo
molu
molulade
moluladu
moluluhi
momake
momarenta
momayango
momili
momilohe
momilohu
momoli
momoliliyo
momongu
momota
momunu
momutu
mona
monako
monano
monarki
mondo
monetary
moneter
monga
mongaturu
mongilu
mongo
mongobuwa
mongodula
mongodulahu
mongohi
mongol
mongolia
mongoliyo
mongolola
mongondow
mongongoto
mongotiyombu
mongowala
monica
monika
monjadi
monoarfa
monopoli
monroe
montallat
montenegro
montho
monto
monumen
mooali
mooat
moonu
moore
mootilango
mopa
mopakei
mopanggelo
mopatato
mopatu
mopecahi
mopiyohu
mopo
mopoaita
mopobaalajari
mopobilohe
mopobilohu
mopohuna
mopomulo
mopona
mopopakei
mopopalajari
mopopatata
moposababu
mopota
mopotihulo
mopotolimo
mopotunu
mopotuwawu
mopoyimo
mopugad
mopula
mopulito
mopulo
mopulu
mopunyai
moputi
mopuya
more
moreekeni
morfologi
morgan
mori
moro
morowali
morse
morujuki
mosikola
moskow
moskwa
most
mosuji
mota
motabiya
motanggala
motanggalo
motanggomo
motapu
motembedu
moti
motinulopo
motitihutu
motogp
motohila
motombanga
motombilu
motonggeyamo
motongkad
motor
motota
mototoheto
motto
moturuti
motutu
moutong
mowalahe
mowali
moyidu
moyitohu
moyitomo
mozambik
mozart
mph
mpr
mprs
mr
mrebet
mrna
ms
mts
mu
muara
muatan
mubarak
muda
mudah
mudik
mughal
muhammad
muhammadiyah
mukti
mulai
mulanya
mulayi
muli
mulia
mulo
mulolo
muloolo
multatuli
multiseluler
mulya
mulyo
mulyorejo
muncul
munculnya
mundur
munggiyango
mungkin
munich
munisipalitas
munjungan
muntai
murad
murhum
murid
murni
musa
musashi
museum
musi
musibah
musical
musik
musiki
musikus
musim
musisi
muslim
muslimin
mussolini
mustafa
musti
mw
my
myanmar
myths
n
na
nabi
nabire
nada
naga
nagorno
naha
naik
nama
namanya
nambo
namun
nancy
nanggala
nani
nantinya
nantu
napoleon
napoli
narkissos
nasa
nascar
nasdem
nasional
nasionalis
naskah
nasser
nasution
natal
nathan
nation
national
nations
natsir
natural
naturalis
nature
nauru
naval
navy
nawangan
nazi
ncov
nd
ne
nebula
negara
negarawan
negatif
negeri
nehru
neil
nelson
nepal
neptunus
nero
net
netral
network
neutron
nevada
new
newfoundland
news
newton
next
ng
nga
ngaamila
ngadiluwih
ngadirojo
ngah
ngala
ngaliyan
ngancar
ngango
nganjuk
ngantru
ngc
ngebel
ngimbang
ngo
ngobotu
ngodiminggu
ngohelili
ngohilaya
ngohuntuwa
ngohuyi
ngolihu
ngolo
ngongala
ngoolo
ngope
ngophiya
ngopita
ngopohiya
ngota
ngotaawunu
ngotaliyo
ngotao
ngotayade
ngotayadu
ngotupa
ngrayun
ngunut
ngurah
nguyen
nh
nias
nica
nicolas
nicolaus
niger
nigeria
night
nika
nikaragua
nikita
nikolai
nikolay
nilai
nilon
nin
nintendo
nirlaba
nirsuara
nixon
no
nobel
noerdin
nokilalaki
nol
nomor
nomoro
non
nona
nonsubsidi
noor
nopember
nopemebr
noraniza
nordhoff
normal
norman
norte
north
northern
norway
norwegia
not
note
nova
novel
novelis
november
now
ntb
nu
nuangan
nucleus
nudibranch
nudibranchia
nugini
nugroho
nuhon
nukleat
nukleotida
nukleus
nuklir
nunukan
nupedia
nur
nurdin
nurhaliza
nurul
nusa
nusantara
nusawungu
nutrisi
nya
nyak
nyamuk
nyawa
nyepi
o
oas
obat
objek
oclc
october
ocu
oda
ode
odelo
odito
oditoliyo
odiya
odiyamola
odiye
odu
oduhenga
odungga
of
ofensif
off
office
official
ogan
ogodeide
ohama
ohila
ohio
ohu
ohunaliyo
ois
okezone
okinawa
oksidasi
oksigen
oktober
olah
olahraga
olato
old
ole
oleh
olele
oleo
oli
olimoliyo
olimpiade
olio
oliver
oliyo
olo
olobu
olomiyo
olomo
olongia
olongiya
olongiyaliyo
olowala
oloyihi
oluhuta
oluolio
oluoliyo
oluwo
oluwoliyo
oma
oman
omar
ombita
ombongo
ombulo
omega
omo
omolu
omong
on
one
onembute
onggo
ongka
online
only
onto
ontonga
ooma
oonto
opatiyo
openu
opera
operasi
operation
operator
opituliyo
opo
oposisi
optik
opu
opula
opuladuluwoliyo
opulatuwawu
or
orang
orange
orasa
orbit
orbital
orde
ordo
org
organ
organik
organisasi
organisme
organization
orleans
ortodoks
ortografi
osababu
osaka
oslo
ossetia
ostrogoth
ota
otak
otapu
otawa
otiyoliyo
oto
otohila
otolopa
otoluliyo
otomatis
otomotif
otonom
otonomi
otoritas
otot
otto
ottoman
otutu
over
overview
owa
owali
owaluliyo
oxford
oyile
oyo
oyoto
p
pa
paapa
pabean
pabrik
pacific
paciran
pacitan
pada
padamara
padang
padangguni
padat
padengo
padjadjaran
padureso
pagar
page
pagerwojo
pagi
pagimana
pagu
paguat
paguyaman
pahami
pahangga
pahlavi
pahlawan
pajak
pajukukang
pak
pakaakasi
pakal
pakar
pakava
pake
pakel
pakem
pakis
pakistan
pakta
paku
pakubuwana
pala
palakka
palang
palangka
palaran
palasa
palau
pale
paleleh
palembang
palestina
pali
paling
palipa
pallangga
palolo
palopo
palu
paluwala
paman
pamarenta
pamean
pameran
pamona
pamukan
pan
panakkukang
panama
panas
panasonic
panca
pancasila
pancoran
pandan
pandang
pandansari
pandawa
pandemic
panganiban
pangeran
panggola
panggul
panggung
pangi
pangimba
pangkalan
pangkalpinang
panglima
panitia
panjang
panji
pantai
panyaki
panyileukan
pao
papa
papan
papar
papua
para
paracaya
paraguay
parah
paralu
parameter
parang
parangloe
pare
parenta
parepare
pari
pariaman
parigi
paris
pariwisata
park
parker
parlemen
part
partai
partikel
partisan
paru
pasal
pasali
pasang
pasangan
pasar
pasarwajo
pasca
pascarongga
pasekan
paser
pasha
pasi
pasien
pasifik
pasir
paskah
passi
pasti
pasukan
pasukannya
pata
patali
pateda
patemon
paten
patihu
patikraja
patilanggio
patimpeng
patimuan
patodu
patrick
patriot
pattallassang
patu
patuju
patung
paul
paulo
paulus
paus
payakumbuh
payango
payu
payungga
pbb
pcr
pd
pdf
pdi
pe
peak
pearl
pearson
pebruari
pecah
pecahan
pecatur
pedagang
pedaging
pedalaman
pedoman
pedro
pedurungan
pegawai
pegunungan
pejabat
pejagoan
pejuang
pekalongan
pekan
pekanbaru
pekerja
pekerjaan
pekuncen
pelabuhan
pelafalan
pelajar
pelaksana
pelaksanaaan
pelaksanaan
pelaku
pelantikan
pelatih
pelaut
pelawak
pelayaran
pele
pelem
pelepasan
peling
pelita
pelopor
pelukis
peluncuran
peluru
pemahat
pemain
pemakaman
pemanfaatan
pembagian
pembajakan
pembalap
pembangunan
pembantaian
pembawa
pembebasan
pembela
pembentukan
pemberantasan
pemberontak
pemberontakan
pembinaan
pembuahan
pembuat
pembuatan
pembubaran
pembukaan
pembunuh
pembunuhan
pemegang
pemekaran
pemeliharaan
pemenang
pemeran
pemerintah
pemerintahan
pemerintahannya
pemilih
pemilihan
pemilik
pemilu
pemimpin
pemogokan
pemprov
pemuda
pemukim
pemungutan
pemusik
penaklukan
penamaan
penampakan
penampilan
penandatanganan
penanggalan
penari
penarikan
penasehat
penasihat
pencabutan
pencak
pencarian
pencegahan
pencipta
pendapat
pendapatan
pendaratan
pendek
penderita
pendidikan
pendiri
pendirian
penduduk
pendudukan
pendudukliyo
penduduknya
pendukung
peneliti
penelitian
penembak
penembakan
penemu
penemuan
penemuannya
penentuan
penerangan
penerapan
penerbang
penerbangan
penerbit
penerbitan
penerima
penetapan
pengacara
pengadegan
pengadilan
pengakuan
pengalaman
pengaliran
pengamat
pengamatan
penganugerahan
pengarang
pengaruh
pengasingan
pengawal
pengawasan
pengeboman
pengelolaan
pengembangan
pengendalian
pengepungan
pengetahuan
pengganti
pengguna
penggunaan
penghantar
penghapusan
penghargaan
pengkajian
pengkhianatan
pengobatan
penguasa
pengujian
pengukuran
pengunduran
pengurus
pengusaha
peningkatan
penjabat
penjaga
penjahat
penjajahan
penjara
penjelajah
pennsylvania
penobatan
penonton
pensiun
pentadiyo
pentadu
penting
penugasan
penuh
penulis
penulisan
penumpang
penumpangnya
penutupan
penyair
penyakit
penyanyi
penyatuan
penyebab
penyebaran
penyelenggaraan
penyelesaian
penyerahan
penyerangan
penyiar
penyimpanan
penyusun
people
peore
peperangan
per
peradaban
peraih
perairan
perak
peralatan
peran
peranan
perancang
perancis
perang
perangkat
peraturan
perawatan
perayaan
perbandingan
perbankan
perbatasan
perbedaan
perbudakan
percepatan
percobaan
perdagangan
perdamaian
perdana
perdanakusuma
perdananya
perekonomian
perempuan
perencanaan
peresmian
pereyi
pergerakan
pergi
perguruan
perhubungan
perikanan
periksa
peringatan
peringkat
perintah
perintis
periode
peristiwa
perjalanan
perjanjian
perjuangan
perkembangan
perlawanan
perlindungan
permai
permainan
permanen
permata
permendagri
permukaan
permulaan
pernah
pernapasan
pernikahan
pero
perolehan
perpanjangan
perpres
perpustakaan
pers
persahabatan
persamaan
persandian
persatuan
persegi
persemakmuran
persen
perserikatan
persero
persetujuan
persia
persiapan
personel
personil
pertahanan
pertama
pertamanya
pertamax
pertamina
pertandingan
pertanian
pertempuran
pertemuan
pertengahan
pertumbuhan
pertunjukan
peru
perubahan
perumahan
perusahaan
perusak
perwakilan
perwira
pesan
pesawat
pesepak
pesisir
pesta
pesulap
peta
petahana
petanahan
petani
petasia
petenis
peter
petersburg
petinju
petisah
petrus
petualang
petugas
pewaris
ph
phil
philip
philippe
philippine
phillip
photo
php
physics
pi
piagam
piala
pianis
piano
pictures
pidana
pidato
pidiyo
pierre
pieter
pigmen
pihak
pilaakasi
pilakasi
pilake
pilar
pilgub
pilipina
pilkada
pilo
pilobaca
pilohayanga
pilohutu
pilohutuliyo
pilomulo
pilopo
pilopona
piloposiari
pilopota
pilopotatapuliyo
pilopotihuliyo
pilot
pilotutu
pilotutuliyo
pimental
pimpin
pimpinan
pinang
pindah
pinembani
pinjaman
pink
pinogu
pintu
pinyuh
pio
pipibol
pipikoro
pisa
pisang
pita
pitara
pito
pitu
pius
pj
pjs
pki
pks
plan
planck
planet
planning
plastik
plh
plosoklaten
plt
plus
pluto
pm
pmc
pmid
pnb
pneumonia
pni
po
poasia
pob
pobaca
pobbutuwa
poblacion
pobo
pogalan
pohala
pohalaa
pohilawo
pohutu
pohutuo
pohutuwolo
pohuwato
poigar
point
pojok
pokok
pola
polahi
polame
polandia
polar
pole
poleang
polele
polelea
polewali
poli
polimerase
polinggona
polipeptida
polisi
political
politik
politikus
politisi
poliyama
polo
polobu
polodulahe
polohungo
polonia
polopalo
polri
polu
polupi
pomake
pomalaa
pombalap
pomongu
pomutitiyo
pon
poncowarno
ponda
pondidaha
pondidikan
pondok
ponelo
pongaru
ponggok
pongotota
ponoliti
ponolitian
ponorogo
ponre
pontianak
ponto
pooli
pop
popateya
popayato
popo
popohuna
popohunalo
populasi
population
populer
porna
poroses
porosesi
poroyek
port
portal
portugal
portugis
pos
posinggalo
posisi
positif
poso
post
postal
potanga
potapuo
potensial
potret
potunu
powell
power
pp
ppp
prabowo
prabumulih
praha
praja
prajekan
prajurit
praktik
pramuka
pranala
prancis
prasasti
prasejarah
prefektur
prembun
premium
presenter
presiden
president
press
prevention
pria
pribadi
pribumi
prima
primata
primates
primer
prince
princeton
principia
pringkuku
prinsip
priok
prix
pro
problem
probolinggo
prodeskel
produk
produksi
produsen
produser
prof
profesi
profesional
profesor
profil
program
project
prokariotik
proklamasi
promosi
pronojiwo
properti
propinsi
prosea
proses
prosesi
protein
protektorat
protes
protestan
proto
protokol
proton
provinces
provinsi
proyek
prusia
pssi
pt
pu
puasa
public
publications
publik
publikasi
published
publishers
publishing
pucanglaban
pucuk
pudak
puerto
puisi
pujananting
pujangga
pujer
pukul
pula
pulang
pulanga
pulau
pulaulaut
pulausebuku
pulausembilan
pule
pulitiyo
pulito
pulo
pulu
pulubala
puluh
puluhan
pulung
pun
punah
puncak
puncu
pungsi
punjuru
punung
punya
pupa
purbalingga
puriala
puring
purn
purnama
purple
purwoasri
purwodadi
purwojati
purwokerto
purworejo
purwosari
pusat
puselemba
pustaka
putaran
puteh
putih
putita
putitiyo
putito
putra
putranya
putri
putungo
putusani
puu
puudoc
puuwatu
q
qadar
qatar
qing
quebec
qur
quru
r
ra
rachmad
rachman
radar
raden
radiasi
radio
radioaktif
radiologi
rafael
raga
ragam
rahasia
rahayu
rahim
rahman
rahmat
rahmati
rai
rainier
rais
raj
raja
rajasa
rakaman
raksasa
rakyat
ramadan
ramadani
ramadhan
ramba
rambut
rancangan
rancasari
randangan
ranger
rangka
rangkaian
rani
ranieri
rano
rantau
rante
rapat
rapper
rappocini
rapu
rarowatu
rasa
rasi
rasial
rasul
rasulullah
rata
ratolindo
ratu
ratulangi
ratus
ratusan
rawa
rawalo
ray
raya
rayfield
raymond
rcti
rd
re
read
reagan
reaksi
real
recording
red
redaksi
redoks
ref
references
referendum
referensi
reformasi
region
regional
regol
reichstag
rejo
rejosari
rejotangan
rekaman
rekan
rekor
rektor
relatif
relativitas
religion
remaja
rembang
rencana
rendah
rene
replacement
report
repository
representasi
reproductive
reproduksi
reptil
republic
republican
republik
republika
research
residen
residence
resmi
resolusi
resources
restoran
retrieved
return
review
revolusi
revolusioner
rez
reza
rezim
rhinopias
ri
riaja
riattang
riau
ribosom
ribosomal
ribu
ribuan
richard
richmond
richter
ricky
riden
ridho
ridwan
right
rika
riko
rilau
rincian
ring
ringinrejo
rings
rinkonada
rio
riset
risiko
risno
ritual
ritus
river
riwayati
rizal
rm
rms
rna
ro
roald
robert
robin
rock
roda
roem
roger
roh
roket
roma
romahurmuzy
roman
romania
romawi
rombongan
rome
rommel
romulus
ronald
rongga
roosevelt
ross
routa
routledge
rowo
rowokele
roy
royal
rp
rrt
rt
ruang
ruangan
rudal
rudi
rudolf
rudy
ruhollah
rukun
rumah
rumania
rumbia
rumpun
rumus
rungkut
runtuh
rupa
rupawa
rupiah
rusa
rusak
rusia
rusli
russia
rutherford
rwanda
s
sa
saarati
saat
saati
sababu
sabah
sabang
sabongi
sabtu
sabu
sabuk
sadaniang
sadar
sadat
saddam
sadikin
sah
sahabati
saham
sahara
sahu
sahutu
said
saifuddien
saigon
sail
sains
saint
saja
sajak
saka
sakit
sakti
salah
salahuddin
salak
salasa
salatiga
saleh
salib
salim
saling
salju
salo
salomekko
salu
saluran
salvador
sam
sama
samarinda
samaturu
sambaliung
sambas
sambe
sambeng
sambikerep
sambit
samboja
sambutan
samoa
sampai
sampanahan
sampang
sampara
sampe
sampel
sampolawa
sampung
samudera
samudra
samuel
samurai
san
sana
sanangi
sandaran
sandera
sandi
sandiaga
sandiwara
sang
sangat
sangatta
sanger
sangia
sangihe
sangkulirang
sanskerta
santa
santo
sapi
sar
saraf
sarah
saratoga
sarawak
sarekat
sari
sarirejo
sarjana
saronde
sars
sastra
sastrawan
satelit
satu
satuan
satunya
saturnus
satwa
saud
saudara
saudi
sausu
saw
sawahan
sawahlunto
sawangan
sawoo
saya
sayori
school
science
sciencedirect
scott
sd
sdn
se
sea
searah
search
season
sebab
sebagai
sebagaimana
sebagian
sebaliknya
sebanyak
sebaran
sebastian
sebelah
sebelum
sebelumnya
sebenarnya
seberang
sebesar
sebuah
sebulu
sebut
sebutan
secara
second
sedang
sedangkan
sederhana
sedikit
sedikitnya
sedunia
see
segala
segedong
segera
segitiga
seharga
sehari
sehat
sehati
sehingga
sei
seiring
sejahtera
sejak
sejarah
sejarawan
sejauh
sejenis
sejumlah
sekali
sekaligus
sekaran
sekarang
sekda
sekelompok
sekitar
sekitarnya
sekjen
sekolah
sekretariat
sekretaris
seks
sekunder
sekutu
sel
selain
selalu
selam
selama
selamat
selandia
selanjutnya
selat
selatan
selayang
selayar
selepas
selesai
selor
seluler
seluruh
semakin
semampir
semarang
sembilan
sembo
semen
semenanjung
sementara
semesta
semi
semikonduktor
semit
semitik
sempor
semua
sen
senapan
senat
senator
senayan
sendang
sendiri
senegal
sengau
sengketa
seni
seniman
senior
senjata
sensus
senter
sentimeter
sentra
sentral
senyawa
seorang
seoul
sepak
sepanjang
sepeda
sepember
seperti
sepertiga
september
septemeber
sepuluh
seram
serambi
serang
serangan
serangga
serangkaian
seratus
serbia
serentak
sergey
seri
serial
seribu
series
serikat
seril
sering
seringkali
serius
serta
serupa
service
sesar
seseorang
sesi
sesuai
sesuatu
setahun
setara
setelah
setempat
setengah
setia
setiabudi
setiap
setiawan
setidaknya
setkab
setuju
seumur
severus
sewaktu
sh
shah
shakespeare
sham
sheikh
shio
sho
shogun
sholah
short
show
shu
si
siang
siantan
siantar
siap
siapa
siaran
siattinge
siau
siberia
sibulue
sidamulya
sidang
sidareja
sidoan
sidoarjo
sidodadi
sidomukti
sidomulyo
sidorejo
sierra
sifat
sigi
sikh
siklon
siklus
sikola
sikolah
sikolaliyo
silat
silita
siluji
silusuniya
silva
siman
simbol
simfoni
simmons
simo
simokerto
simon
simpang
sin
sina
sinar
sindang
sindonews
sindue
singa
singapore
singapura
singkat
singkil
single
siniu
sinoa
sintesis
sinyal
siompu
siotapina
sipatana
sipatanaliyo
sipatiliyo
sipil
siprus
sipuu
sir
siregar
sirenja
sirkuit
sisa
sisi
sistem
sistim
siswa
siti
situasi
situs
sk
skadron
skala
skandal
ski
skizze
skor
skotlandia
skuadron
slahung
slamet
sleman
sliyeg
slobodan
slogan
slovenia
slowakia
sm
sma
sman
smart
smith
smithsonian
smk
smp
smpn
so
soal
social
society
soebardjo
soedirdja
soeharto
soekarno
soekarnoputri
soeprapto
soeryadjaya
soetomo
sojara
sojol
sokaraja
solar
solo
solok
solokuro
solomon
solusi
somadata
somalia
somba
something
sometimes
sondang
song
sooko
sopang
soppeng
sorawolio
sorong
soropia
sosial
sosialis
sosiolog
sosok
south
southeast
southern
soviet
soyo
soyuz
sp
space
spanyol
special
species
spektrum
spencer
sperma
spesialisasi
spesies
spesifik
spiritual
spons
spontan
sqrt
square
sr
srengat
sri
sriwijaya
sruweng
ss
st
stabil
stadion
stadium
staf
stalin
stalingrad
stanbul
standar
standard
stanley
star
stasiun
state
states
statistics
statistik
status
statusliyo
stenga
stephen
steve
steven
stewart
stone
story
stough
strategi
strategis
street
strike
strip
structure
struktur
struktural
stuart
stub
studi
studies
studio
study
su
suaka
suami
suara
suatu
sub
subadra
subang
subdisiplin
subianto
submarine
subordo
subulussalam
suci
sudah
sudan
sudimoro
sudirman
sudut
suez
sugihwaras
sugio
sugiono
suharso
suhu
suka
sukabumi
sukagumiwang
sukajadi
sukamaju
sukasari
sukmajaya
sukodadi
sukolilo
sukomanunggal
sukorame
sukorejo
sukosari
sukowono
sukses
suksesi
suku
sulawesi
sulit
sulsel
sultan
sultra
sulu
sulut
sumalata
sumatera
sumatra
sumba
sumbang
sumbar
sumbawa
sumber
sumberagung
sumberejo
sumbergempol
sumbersari
sumberwringin
sumedang
summa
sumpah
sumpahnya
sumpiuh
sumsel
sumur
sumut
sun
sunan
sunda
sung
sungai
sungaidurian
sunggal
super
superfamili
sur
surabaya
surakarta
surat
suriah
suriname
suruh
surya
suryadharma
susa
susanto
susilo
susu
susunan
sutan
sutarmidji
sutiyoso
sutradara
sutradaraliyo
sutrisno
suvorin
suwawa
suwiryo
suzuki
swasta
swedia
swift
swiss
syafruddin
syair
syamsuddin
syamsul
syara
syarat
syarif
syawal
sydney
syed
syekh
syiah
syndrome
system
systems
syuro
t
ta
taa
taambati
taapulu
taawunu
taba
tabang
tabaru
tabe
tabel
table
tabongo
tabrakan
tabua
tabukan
tabuliyo
tabung
tabur
tabuwa
tada
tag
tagalog
taganrog
tagulandang
tahanan
tahap
tahe
tahta
tahtanya
tahu
tahun
tahuna
tahunan
taiwan
tak
takbulat
takhta
taksonomi
tala
talaga
talang
talatako
talawaan
tali
taliban
talilo
tallo
talo
talu
taluditi
taluhe
taluhiyo
taluhu
tamako
tamalanrea
tamalate
taman
tamanan
tamani
tamaniliyo
tamansari
tamat
tamate
tambahan
tambak
tambakrejo
tambaksari
tambang
tambati
tamiang
tamil
tampak
tampil
tampilkan
tamu
tan
tanah
tanaman
tanambulava
tanantovea
tanda
tandes
tanduk
tanduo
tanete
tang
tangan
tangani
tangerang
tangga
tanggal
tanggaliyo
tanggalo
tanggetada
tanggomo
tanggu
tanggula
tangguliyo
tanggulo
tanggung
tangkis
tango
tangota
tangsel
tani
tanjung
tanjungbalai
tanjungpinang
tanjungsari
tanpa
tantu
tanzania
taopa
tap
tapa
tapen
tapi
tapos
tapu
tapuliyo
tarakan
target
tarian
tarik
tarokan
taruna
tasikmalaya
tasman
tata
tatanga
tatoareng
tau
taunu
tauwa
tawaeli
tawanan
tawar
tawu
tawuliyo
tawunu
tawuunu
tawuwalo
taya
tayade
tayadiyo
tayadu
taylor
tbk
te
teater
tebing
teeto
teeye
tegal
tegalampel
tegalombo
tegalrejo
tegalsari
tegangan
tekanan
teknik
teknis
teknologi
teks
tektonik
teladan
telaga
telah
telegraf
telegram
telekomunikasi
telen
telepon
teleskop
televisi
tellu
teluk
telur
tembak
tembakan
tembalang
tembok
tembung
tempat
templat
tempo
tempur
tempursari
tenaga
tengah
tenggara
tenggarang
tenggarong
tenggelam
tenggilis
tengku
tenilo
tenis
tennessee
tentang
tentara
tenzing
teolog
teologi
teori
tepi
tepian
terakhir
terapan
terbagi
terbaik
terbakar
terbang
terbanyak
terbatas
terbentuk
terbentuknya
terbesar
terbit
terbuat
terbuka
terbunuh
terburuk
tercatat
terdapat
terdekat
terdiri
tergabung
terhadap
terikat
terinfeksi
terintegrasi
teritori
terjadi
terjadinya
terjauh
terjemahan
terjun
terkait
terkaya
terkecil
terkemuka
terkenal
terlalu
terletak
terlibat
terlihat
terluka
termasuk
terminal
termodinamika
termuda
ternama
ternate
teroris
terowongan
terpadu
terpanjang
terparah
terpilih
terpisah
terrance
territory
tersangka
tersebut
tersedia
tersendiri
tersusun
tertembak
tertentu
tertinggi
tertua
tertutup
terus
terusan
terutama
tes
test
tetangga
tetap
tetapi
tetapkan
tete
teto
teungku
tewas
texas
teye
th
thai
thailand
thamrin
thariq
that
thatcher
the
theodore
theodosius
theory
third
thomas
thrakia
three
ti
tiang
tiap
tiba
tibawa
tibet
tidak
tidi
tidore
tiga
tigaon
tihedu
tihengo
tihi
tihuto
tiiloliyo
tiket
tikung
tikus
tilabatayila
tiladu
tilala
tilama
tilamuta
tilanggula
tilanggulaliyo
tilango
tilapulo
tilayadiyo
tilayo
tili
tililahepa
tililahepo
tilimihula
tilimihulo
tilimimbulu
tilo
tiloan
tilolimo
tiloliyo
tilongkabila
tilu
tiluladiyo
tiluladu
tilumula
tilumulaliyo
tilumuwoto
tim
timbul
time
times
timi
timongolio
timongoliyo
timor
timorensis
timothy
timur
timuru
tinangkung
tindak
tindakan
tinelo
tinepo
tingga
tinggal
tinggi
tinggimoncong
tingkat
tingohu
tinju
tinombo
tinondo
tio
tioman
tionghoa
tiongkok
tipe
tirawuta
tiro
tirto
titanic
titihede
titik
title
titles
tito
tiya
tiyamo
tiyamoliyo
tiyo
tiyombu
tjahaja
tjahjo
tlogosari
tni
to
toari
toba
tobata
todelomo
togean
togo
tohe
toho
toilet
toili
tojo
toko
tokoh
tokugawa
tokyo
tol
tola
tolangohula
toli
toliliyo
tolinggula
tolitihu
tolitoli
tolo
tolohu
tolopani
tom
tombariri
tombolang
tombolo
tombusabora
tomimbihu
tomini
tommasinianus
tomohon
tomolito
tompobulu
ton
tondano
tonga
tongauna
tonggeyamo
tongkok
toniya
tonra
tontonunu
tonu
tony
too
toonu
top
topics
topik
toribulu
torpedo
torue
tota
total
totala
totikum
toto
totobu
totolu
totombulua
totombuluwa
tou
tower
town
towolota
towolotaliyo
toyitato
toyungo
tr
tradisi
tradisional
tragedi
traktat
trans
transcontinental
transfer
transisi
transkripsi
transplantasi
transportasi
treatment
treaty
trenggalek
trey
tri
tribun
tribunnews
triliun
trinidad
trisakti
trna
tropis
truk
truman
tsar
tsunami
tu
tua
tual
tuan
tuau
tuawu
tubuh
tudu
tuduhan
tuduliyo
tugas
tugasi
tugu
tuhan
tuheta
tuhiyango
tuja
tujuan
tujuh
tukar
tukdana
tula
tulade
tuladenggi
tuladiyo
tuladu
tulakan
tulali
tulalo
tulang
tulidu
tulisan
tulu
tulungagung
tumbihe
tumbilo
tumbilotohe
tumbuhan
tumenggung
tumu
tumula
tumulo
tumumula
tumumulo
tumuota
tumuwota
tumuwoto
tunas
tunge
tunggal
tunggulo
tunisia
tunjuk
tuntang
tuntungan
tunu
turi
turkey
turki
turkmenistan
turun
turusi
tutu
tutuliyo
tutulo
tutumuliyo
tutumulo
tutupa
tutuwawu
tutuyan
tuwa
tuwanga
tuwangiyo
tuwango
tuwawu
tuwawuliyo
tuwewu
tuwo
tuwota
tuwotiyo
tuwoto
tv
tvguide
tvri
tvshows
two
tycho
tyler
tyson
u
uang
uap
ubu
uda
udanawu
udara
ude
udipo
udu
uefa
uepai
uganda
ugm
ui
uin
uito
uji
ujian
ujung
ujungberung
uk
ukraina
ukuran
ul
ula
ulama
ulang
ulangi
ulapato
ular
ulaweng
ulijadi
ulongo
ulu
ulubongka
uluere
ulysses
umar
umat
umati
umayyah
umkm
umum
umumnya
umur
umuru
un
una
unaaha
und
undang
under
unge
uni
unik
union
unit
united
universal
universe
universitas
university
uno
unsrat
unsur
untai
unte
unting
untuk
untungi
uolo
up
upacara
upaya
upo
uponula
upsilon
uranus
urban
url
uruguay
urusani
urutan
us
usa
usaha
usahaliyo
usai
use
usia
uskup
usman
uss
usu
usul
uta
utahu
utama
utan
utara
uti
utiya
utiye
uto
utomo
utonu
utoonu
utsmani
utsmaniyah
uu
uumumu
uumuru
uumuruliyo
uwa
uwaliyo
uwalo
uwe
uweewo
uweewoliyo
uwewo
uwewolio
uwewoliyo
uwito
uwitoyito
uwo
uwolo
uyito
uyitoliyo
uzbekistan
v
va
vaksin
valensi
van
vanuatu
variasi
vatikan
vec
vektor
venesia
venezuela
venus
verde
versi
version
verstappen
vertebrata
vertebrates
vertikal
very
veteran
vi
via
vicente
victor
victoria
video
viet
vietnam
view
vii
viii
villa
vincent
vinci
vinzons
virgin
virginia
virtual
virus
viruses
visual
viva
vivaldi
vladimir
voc
vokal
vokalis
vol
volta
volume
von
voyager
vs
vu
w
wa
wabula
wabup
wadala
wafat
wage
wagub
wahana
wahau
wahid
wahu
wahyu
waisak
wajah
wajib
wajibu
wajo
wakil
wakili
wakilnya
wakorumba
waktu
wakutu
wala
walanda
walanta
walao
walaupun
walea
wales
wali
walie
walikota
walikotamadya
walimomo
walker
wall
wallace
wallachia
walt
walter
walu
wambulu
wamilo
wanareja
wang
wanggarasi
wangon
wangsa
wanita
wantimpres
wanto
wanu
war
warga
warisan
warna
wars
warsawa
warta
wartabone
wartawan
waru
washington
watade
watch
watergate
wates
watingo
watiya
wato
watson
watu
watubangga
watulimo
wau
waw
wawa
wawancara
wawotobi
wawu
way
wayi
wayitiyo
wayito
we
weather
web
webarchive
website
webster
wee
weewo
west
western
westminster
wetan
wewo
what
which
who
wib
widasari
wide
widodo
wijaya
wiki
wikilatih
wikimania
wikimedia
wikipedia
wikipedian
wilayah
wilayahnya
wilhelm
will
willem
william
williams
wilson
wina
windows
windsor
winong
winston
wirausahawan
wis
wisata
wisatawan
wita
with
wiyogo
wiyung
wlahar
wo
wole
wolfgang
woli
wolilu
wolimomo
wolio
woliyo
wolo
wololo
wolomo
wolota
wolotaliyo
woloto
wolowa
woluo
woluwo
wombu
wong
wonggeduku
wonocolo
wonodadi
wonokromo
wonorejo
wonosari
wonu
wonua
wood
wopato
wopatota
wori
world
wringin
wu
wua
wuhan
wuleya
wulingo
wulito
wulodu
wumbuta
wundulako
wungguli
wunu
wutatiyo
wuto
wuwa
wuwate
wuwumbuta
www
x
xi
xii
xiii
xiv
xv
xvi
xviii
xx
y
ya
yahoo
yahudi
yahya
yaitu
yakni
yale
yali
yaman
yan
yang
yasin
yasser
yat
yati
yayasan
ye
year
years
yeltsin
yerusalem
yi
yibu
yila
yilalu
yilapata
yilapato
yilate
yilawoliyo
yiliyala
yilo
yiloali
yilobu
yilobungiyo
yilotapu
yilotapuliyo
yilowali
yilumolo
yilumonggu
yilumuwalo
yimbupulu
ying
yinulo
yiresmiliyo
yitaato
yitato
yito
yitohe
yitohu
yogyakarta
yohanes
yom
yordania
york
you
young
your
youtube
yu
yuan
yudhoyono
yugoslavia
yunani
yuri
yusuf
yuta
z
zainal
zaini
zainuddin
zaire
zaman
zambia
zanzibar
zap
zat
zef
zeppelin
zhang
zhao
zimbabwe
zip
zona
zone
zu
zulu
zur
{
|
}
~
£
§
«
°
±
²
·
º
»
×
ß
ð
ø
ħ
ı
ŋ
ɑ
ɛ
ɡ
ɤ
ʃ
ʋ
ʕ
ʰ
ʷ
ʼ
ˈ
ˌ
ː
̀
́
̂
̃
̄
̆
̇
̈
̉
̊
̌
̓
̔
̛
̣
̦
̧
̨
̩
̲
͂
͡
α
β
δ
ε
ζ
η
θ
λ
μ
ν
ο
π
ρ
ς
υ
φ
χ
ω
ϵ
ا
الا
العربية
بن
ة
ل
َ
ِ
ْ
ٓ
ٔ
ٕ
ज
त
न
प
भ
र
ल
श
ा
ि
ी
ु
ू
े
ो
्
ং
দ
ব
ল
শ
া
ে
্
‎
–
—
‘
’
“
”
•
…
′
″
‹
›
€
→
↔
↷
−
∫
≈
≡
③
④
⑦
⺀
⺄
⺆
⺈
⺊
⺌
⺕
⺝
⺸
⺼
⿰
⿱
⿲
⿳
⿴
⿵
⿶
⿷
⿸
⿹
⿺
⿻
、
「
〢
お
し
の
゙
゚
ア
イ
コ
ス
ト
フ
ユ
ー
㇁
㇂
㇄
㇇
㇈
㇉
㇓
㐁
㐄
㐅
㐌
㐫
㐬
㐭
㐮
㐱
㑒
㒵
㒸
㒼
㓁
㓞
㔾
㕛
㕣
㖾
㘝
㚅
㚇
㚔
㚘
㝉
㝡
㝴
㝵
㞋
㞢
㞷
㠩
㠭
㠯
㡀
㡭
㡿
㢲
㢴
㣇
㣺
㥯
㪅
㫄
㫐
㫒
㫺
㬅
㬎
㬥
㬰
㲋
㳄
㷠
㸒
㸚
㸦
㼌
㼲
㽞
㿟
䀠
䂞
䍃
䏍
䒑
䖍
䖒
䖝
䖵
䙴
䚻
䜌
䝿
䡛
䧹
䪞
一
丁
丂
七
丄
丅
丆
万
丈
三
上
下
丌
不
与
丏
丐
丑
专
且
丕
世
丘
丙
业
东
丞
丢
丣
两
严
並
丨
丩
个
丫
丬
中
丮
丰
丱
串
丵
丶
丷
丸
丹
为
主
丽
丿
乀
乂
乃
久
乆
乇
么
义
之
乌
乍
乎
乏
乐
乑
乔
乖
乗
乘
乙
乚
乛
乜
九
乞
也
习
乡
乳
乾
亀
亅
了
亇
予
争
事
二
亍
于
亏
亐
云
互
亓
五
井
亘
亚
亜
亞
亟
亠
亡
亢
交
亥
亦
产
亨
亩
享
京
亭
亮
亯
亰
亲
亳
亶
亷
人
亻
亼
亾
仁
今
介
仌
从
仐
仑
仒
仓
仕
他
付
仝
代
令
以
任
企
伊
伏
伐
休
会
伯
但
位
何
佘
余
作
佥
使
來
侈
侌
侖
侯
侵
便
保
俞
信
修
倉
倍
候
倠
備
僉
僕
儿
兀
允
兂
元
兄
充
兆
兇
先
光
兊
克
兌
免
兑
兒
兓
兔
党
兜
兟
入
全
兩
兪
八
公
六
兮
兰
共
关
兵
其
具
典
兹
兼
冀
冂
冃
冄
内
冈
冉
冊
冋
册
再
冎
冏
冐
冒
冓
冖
冗
冘
军
农
冝
冡
冥
冫
冬
冷
几
凡
凢
凵
凶
凷
凸
凹
出
函
凾
刀
刁
刂
刃
刄
刅
分
切
刍
刑
刕
刖
列
刘
则
初
別
利
别
到
制
刺
則
削
剌
前
剡
剽
劉
力
功
加
劦
助
劫
劳
劵
勃
勇
勉
勒
動
務
勞
勤
勹
勺
勻
勾
勿
匀
匂
包
匆
匈
匊
匋
匍
匕
化
北
匚
匝
匡
匪
匱
匸
匹
区
医
匽
匿
區
十
卂
千
卄
卅
卆
升
午
卉
半
卌
华
卑
卒
卓
单
卖
南
卜
卝
卞
占
卡
卢
卣
卤
卦
卩
卪
卬
卯
印
危
即
却
卵
卷
卸
卻
厂
厃
厄
历
厈
厉
厌
厓
厘
厚
原
厤
厥
厨
厭
厲
厶
厷
厸
去
厼
厽
叀
参
參
叅
又
叉
及
友
双
反
叐
发
叒
叔
叕
取
受
叚
叜
叟
口
古
句
另
叩
只
召
可
台
叱
史
右
叵
号
司
叹
吂
各
吅
合
吉
吊
吋
同
名
后
吏
向
吕
君
吝
吞
否
含
启
吳
吴
吹
吾
呂
呆
呈
告
员
呙
周
命
咅
和
咎
咠
咢
咨
咸
咼
哀
品
哉
員
哥
哲
唐
商
啇
問
啚
啬
啻
善
喜
喬
單
喿
嗇
噩
嚴
囊
囗
囘
囙
囚
四
回
囟
因
囧
囬
困
囱
囷
固
国
圂
圅
國
圍
圓
土
圡
圣
圥
在
圭
地
圶
圼
坐
坒
坚
坴
垂
垔
垚
埀
埋
埶
執
基
堂
堅
堆
堇
堯
塞
墨
壘
士
壬
壯
声
壳
壴
壹
壺
壽
夂
处
夅
夆
备
夊
夋
夌
复
夏
夒
夕
外
夗
夘
多
夜
夢
大
夨
天
太
夫
夬
夭
央
失
夲
头
夷
夸
夹
夻
夾
奂
奄
奇
奈
奉
奎
奏
奐
契
奓
奔
奚
奞
奠
奢
奥
奭
女
奴
奻
好
如
妄
妙
妟
妥
妻
妾
姑
委
姜
威
娄
婁
婴
嬰
嬴
子
孑
孔
孕
孖
字
存
孚
孛
孝
孟
季
孤
学
孫
孱
學
宀
宁
宂
它
宅
宇
守
安
宋
完
宏
宓
宗
官
定
宛
宜
宝
客
宣
室
宮
宰
害
家
容
宾
宿
寄
寅
密
富
寒
察
寧
審
寫
寬
寮
寸
对
寺
寻
寽
対
寿
封
尃
射
将
將
專
尉
尊
尋
尌
對
小
少
尒
尓
尔
尖
尗
尚
尞
尢
尣
尤
尧
尨
尭
就
尸
尹
尺
尻
尼
尽
尾
尿
局
居
屈
屋
屎
屏
屑
展
屖
屚
属
屠
屡
屬
屮
屯
屰
山
屵
屾
岁
岂
岑
岡
岩
岳
岸
峯
島
崇
崑
崔
崖
崙
崩
嵬
嶲
巂
巛
川
州
巟
巠
巢
巤
工
左
巧
巨
巩
巫
差
己
已
巳
巴
巷
巸
巽
巾
巿
帀
市
布
希
帚
帛
帝
带
師
席
帶
常
干
平
年
幵
并
幷
幸
幺
幻
幼
幽
幾
广
広
庄
床
底
店
庚
府
度
庫
庭
庶
康
庸
廉
廌
廛
廣
廩
廴
延
廷
建
廾
廿
开
弁
弃
弄
弇
弋
式
弓
弔
引
弗
弘
弜
弟
弥
弦
弱
張
強
强
彊
彌
彎
彐
彑
当
彔
录
彖
彗
彡
形
彥
彦
彧
彭
彳
役
彼
往
待
律
徒
得
徙
從
復
微
徵
心
忄
必
忌
忍
志
忝
忠
忩
快
念
忽
忿
思
怠
急
怱
恆
恒
恩
恭
息
悉
患
悤
悲
悶
惠
惡
惢
愁
愈
意
愛
感
慈
慧
慮
憂
憲
應
戀
戈
戉
戊
戋
戌
戍
戎
成
我
戒
戔
或
戚
戠
戢
截
戲
戶
户
戹
戼
戾
房
所
扁
扇
手
扌
才
打
托
执
承
折
拉
拜
拿
掌
推
提
摩
支
攴
攵
收
攸
改
放
政
敄
敏
敕
敖
敗
敝
敞
敢
散
敦
敫
敬
数
敷
數
斂
文
斉
斊
斗
斤
斥
斩
斬
斯
新
方
於
施
斿
旁
旋
族
无
旡
既
旣
日
旦
旧
旨
早
旬
旱
旲
时
旾
昆
昇
昌
昍
明
昏
易
昔
昗
昜
星
春
昬
是
昱
昴
昷
時
晃
晋
晏
普
景
晶
智
暑
暴
曇
曩
曰
曲
曳
更
曷
書
曹
曼
曾
替
最
朁
會
月
有
朋
服
朔
朕
朗
望
朝
木
朩
未
末
本
札
朮
术
朱
朵
朶
朿
杀
杏
杜
束
条
来
東
杲
杳
松
析
林
枚
果
枝
枲
枼
某
柔
查
柬
柰
柴
栗
桀
桑
桼
梁
條
梟
梨
棘
棠
棥
森
楚
業
楽
榮
樂
樊
欠
次
欣
欮
欲
欶
欽
款
歆
歇
歛
止
正
此
步
武
歨
歪
歮
歯
歰
歲
歴
歷
歸
歹
歺
死
殳
段
殷
殸
殹
殺
殻
殿
毋
毌
母
每
毒
比
毕
毚
毛
毳
氏
氐
民
气
氣
水
氵
氶
氷
永
氺
氾
求
汝
汞
江
沃
沓
沙
沝
泉
法
波
泣
泥
泰
洛
洪
活
派
流
浦
浪
浮
淡
淮
清
渚
渠
湯
滿
漸
潜
潮
火
灬
灭
灰
灵
灷
炅
炎
炏
炗
炙
炭
為
烈
烏
烝
焉
無
焦
焱
然
煞
熊
熏
燕
營
燮
爪
爫
爭
爯
爰
爱
爲
爵
父
爻
爽
爾
爿
片
牙
牚
牛
牜
牟
牢
牧
物
牪
牽
犀
犬
犭
犮
狂
狄
狊
独
狺
猋
猒
猪
献
獻
玄
率
玉
王
玟
玨
珎
班
琴
瑟
瑩
瓜
瓦
甘
甚
生
産
用
甫
甬
田
由
甲
申
电
甶
男
甸
甹
画
甾
畀
界
畏
畐
留
畜
畟
畢
畧
畨
番
畫
異
畱
當
畺
畾
疊
疋
疌
疑
疒
疾
癶
癸
癹
登
發
白
百
皀
皃
的
皆
皇
皋
皐
皕
皮
皷
皿
盃
盆
盇
盈
益
盍
盎
监
盒
盖
盛
盡
監
盤
盧
目
直
相
盾
省
眇
眉
看
眔
眞
真
眷
眼
眾
着
睘
睪
睿
瞏
瞢
瞿
矍
矛
矞
矢
矣
知
矦
短
石
破
碎
磊
磨
示
礻
礼
祟
票
祭
禀
禁
禸
禹
禺
离
禽
禾
禿
秀
秃
秉
秋
科
秘
秝
秦
移
稟
穀
穌
穴
究
穹
空
穿
突
窄
窒
立
竒
竜
竝
竟
章
童
竹
笑
笠
第
筆
等
答
箕
算
箴
節
篤
篭
米
粉
粛
粟
粤
粦
粲
糞
糸
糹
系
約
納
素
索
紫
累
細
絜
絫
絲
維
綿
縣
繇
纍
纟
缶
网
罒
罔
罕
罗
罙
罡
罢
罪
署
罷
羅
羊
羌
羍
美
羔
羕
羗
羞
羡
羣
群
義
羲
羸
羽
翁
翏
習
翕
翟
翠
翼
老
耂
考
者
耆
而
耎
耑
耒
耳
耴
耶
耷
聂
聊
聖
聚
聶
聿
肀
肃
肅
肉
肖
肙
肥
肩
肯
育
肴
胃
背
胡
胥
能
脊
脩
膚
臣
臤
臧
自
臬
臭
臯
臱
至
致
臺
臼
臽
臾
臿
舀
舂
舄
與
興
舉
舌
舍
舛
舜
舞
舟
般
艦
艮
良
色
艸
艹
艾
芒
芔
芬
芮
花
芳
芺
芻
苔
苗
苟
若
苦
英
茶
茸
荅
草
荒
荣
荼
莆
莧
莫
莽
菆
菊
菐
華
萬
落
葉
著
葛
董
葵
蒙
蒦
蒼
蓋
蓬
蓺
蔑
蔡
蕉
蕭
薄
薛
薦
薰
藍
藏
藥
蘭
虍
虎
虐
虒
虔
處
虖
虗
虘
虚
虛
虜
虞
虫
虽
蚤
蚩
蜀
蜜
蟲
蠡
血
行
衍
衛
衣
衤
表
衮
衰
袁
袞
褭
褱
襄
襾
西
覀
要
覃
見
規
覓
覧
親
覽
见
角
解
言
訁
訇
計
詹
語
誩
諸
讠
谷
豆
豈
豊
豐
豕
豖
豙
象
豦
豩
豪
豸
貇
貝
貞
貟
負
貢
貧
貪
貫
責
貳
貴
買
費
賁
資
賈
賏
賓
賔
賛
賞
賢
賣
質
賴
贊
贝
贡
责
贯
贲
贵
赖
赞
赤
赦
走
越
足
路
蹇
身
躬
車
軍
軎
軟
輦
车
辛
辜
辟
辥
辰
辱
農
辵
辶
边
达
过
近
连
迷
追
退
送
逆
逐
通
速
造
逢
連
逮
進
遀
遂
過
道
達
遣
適
遷
遺
邊
邑
邕
那
邦
邪
郎
部
郭
都
鄉
酉
酋
配
酓
釆
采
里
重
野
量
金
釒
錢
钅
長
镸
长
門
閃
閉
開
閏
閑
閒
間
閔
閵
閻
闌
门
间
闷
阑
阜
阝
阿
降
陳
隆
隊
隋
隡
隨
隱
隶
隹
隺
隻
隼
隽
难
雀
雁
集
雈
雋
雍
雐
雔
雙
雚
雜
雝
離
難
雨
雩
雪
雲
零
雷
需
霍
霜
霝
霞
霸
靈
靑
青
非
靡
面
靣
革
韋
韦
韭
韯
韱
音
頁
頃
項
須
頗
頡
頻
顛
页
風
风
飛
飞
食
飠
養
饣
首
香
馬
馮
駦
马
骨
高
髟
鬥
鬯
鬲
鬼
魚
魯
鮮
鱼
鲁
鳥
鳳
鸟
鹵
鹿
麃
麗
麥
麦
麻
黃
黄
黍
黎
黑
黒
黨
黹
黽
黾
鼎
鼓
鼠
鼻
齊
齋
齐
齒
齿
龍
龙
龜
龟
龠
龰
龱
龴
龵
龶
龷
龸
龹
ꦤ
ꦩ
꧀
者
艹
﻿
：
？
�
𠀁
𠀃
𠀆
𠀉
𠀎
𠀐
𠁁
𠁣
𠂆
𠂇
𠂈
𠂉
𠂊
𠂋
𠂎
𠂒
𠂔
𠂛
𠂡
𠂢
𠂤
𠂬
𠂭
𠂹
𠃊
𠃋
𠃌
𠃍
𠃎
𠃑
𠃓
𠃔
𠃜
𠄌
𠄎
𠄠
𠄢
𠆢
𠆥
𠇍
𠈌
𠌵
𠓜
𠔉
𠔥
𠔼
𠔽
𠔿
𠕀
𠕁
𠕋
𠘧
𠘨
𠙻
𠙼
𠚏
𠚒
𠚤
𠚪
𠣏
𠤎
𠤕
𠥓
𠦄
𠦑
𠦝
𠧒
𠧗
𠧪
𠩺
𠪚
𠫓
𠫔
𠫤
𠬛
𠬝
𠬞
𠬢
𠬤
𠬶
𠮛
𠮦
𠮷
𠯑
𠱠
𠳮
𠷎
𡈼
𡉀
𡉵
𡌥
𡍮
𡏳
𡕒
𡕩
𡕰
𡖅
𡗗
𡗜
𡘆
𡘤
𡧱
𡨄
𡩧
𡬠
𡭽
𡰣
𡰥
𡰪
𡰯
𡰱
𡷈
𡸁
𡿨
𡿩
𡿪
𡿺
𢀖
𢀛
𢀩
𢁙
𢆉
𢆰
𢆶
𢇁
𢇇
𢉖
𢌬
𢌿
𢏚
𢑑
𢑚
𢖻
𢙣
𢛳
𢦏
𢦒
𢧵
𢼄
𢾕
𣁋
𣄼
𣅀
𣅽
𣍘
𣎳
𣎵
𣏋
𣏼
𣗥
𣥂
𣥖
𣦵
𣦼
𣧄
𣪊
𣪠
𣬉
𣳾
𣶒
𤇾
𤊽
𤐫
𤓰
𤔔
𤕨
𤣩
𤰇
𤰔
𤰞
𤴓
𤴔
𤽄
𥁑
𥁕
𥃦
𥃩
𥃭
𥇡
𥑟
𥘅
𥘈
𥝢
𥫗
𥱡
𦈢
𦉪
𦉬
𦉼
𦍌
𦍒
𦎧
𦐇
𦓔
𦔮
𦘒
𦙃
𦚏
𦣝
𦣞
𦣻
𦥑
𦥔
𦥯
𦨉
𦭝
𦰩
𧆞
𧈧
𧘇
𧰨
𧴪
𧴮
𧵩
𧾷
𨸏
𨾴
𩙿
𩠐
𩫏
𩵋
𪉷
𪜀
𪟽
𪠲
𪩲
𫇦
𫔭
𫜸
𫝀
𫠣
𫠩
𫢉
𫥞
𫩏
𫩠
𫪡
𫲽
𫶧
𬀷
𬐘
𬗌
𬙙
𬛸
𬜯
𬟩
𬯁
𬴘
𬺻
𬼉
𬼖
𭀰
𭁈
𭁨
𭅰
𭑈
𭕄
𭗼
𭤨
𭥫
𭻾
𮅕
𮊿
𮍌
𮍏
𮓗
𮥼
𮧮
廾
𰀁
𰀄
𰀈
𰀉
𰀕
𰀠
𰀡
𰀢
𰀪
𰁜
𰃮
𰆊
𰆘
𰋙
𰕎
𰢴
𰧭
𰯲
09--
14--
15--
16--
25--
a--
aa--
ab--
ac--
ad--
adven--
ag--
air--
ais--
akti--
akumu--
al--
am--
amb--
an--
ana--
ang--
angg--
anu--
ap--
apa--
ar--
as--
at--
au--
aust--
ayu--
az--
b--
ba--
baga--
baitur--
bal--
bam--
ban--
bar--
bart--
basi--
bat--
be--
belg--
ber--
berm--
berp--
bert--
bi--
bib--
bio--
bis--
bo--
bonto--
botu--
br--
bran--
bre--
bri--
bro--
broad--
broo--
bu--
bulo--
bulu--
bun--
bur--
bura--
c--
ca--
cak--
cal--
capa--
car--
caro--
ce--
cel--
chi--
cho--
ci--
cin--
cla--
co--
com--
commu--
con--
const--
cra--
cre--
cri--
cu--
cul--
d--
da--
dai--
dal--
dar--
de--
di--
dig--
din--
dipe--
diper--
dist--
dja--
do--
dog--
dom--
don--
dong--
dou--
dr--
dra--
du--
dun--
e--
ear--
ed--
eks--
el--
ele--
elektr--
em--
emb--
en--
eng--
engg--
epi--
eq--
er--
es--
eu--
ex--
f--
fa--
fak--
fal--
fara--
fe--
fel--
fi--
filo--
fo--
fon--
fu--
g--
ga--
gad--
gam--
gan--
gar--
gastr--
ge--
gen--
geo--
geome--
ger--
gi--
gib--
gil--
glu--
go--
gra--
gre--
gri--
gu--
gua--
guadal--
h--
ha--
habs--
hal--
har--
he--
hel--
heli--
hemo--
hepo--
her--
hi--
hihi--
hil--
him--
hipo--
hit--
ho--
hol--
hu--
hum--
hun--
hy--
i--
ic--
ich--
igna--
il--
ila--
ilo--
im--
imm--
in--
infra--
ino--
inst--
inves--
ir--
is--
it--
j--
ja--
jam--
jati--
je--
jes--
ji--
jo--
ju--
k--
ka--
kabu--
kai--
kal--
kali--
kan--
karang--
kath--
kayu--
ke--
kedu--
kedung--
kem--
ken--
ker--
ket--
kh--
ki--
kle--
kne--
ko--
kom--
kon--
konst--
kontr--
kra--
kre--
ku--
kun--
l--
la--
lam--
lambu--
lami--
lan--
law--
le--
lele--
lem--
len--
letj--
ley--
li--
lib--
ling--
lis--
lo--
lohu--
lom--
lon--
lopo--
loti--
lu--
lumu--
ly--
m--
ma--
mac--
madu--
mag--
mah--
mak--
mam--
man--
mar--
mara--
mc--
me--
mel--
mem--
meme--
memper--
men--
mena--
mend--
mene--
mener--
meng--
menye--
mer--
mi--
miche--
midd--
mik--
mikro--
mil--
mina--
mo--
mohi--
mohu--
mola--
molo--
mome--
momu--
mon--
mond--
mong--
mongo--
mono--
moo--
mopo--
moti--
moy--
mu--
mun--
mur--
my--
n--
na--
nan--
nar--
ne--
ng--
nga--
ngo--
ni--
nic--
nico--
niko--
no--
nur--
o--
oce--
odu--
of--
oli--
on--
ong--
or--
orig--
os--
ota--
oyin--
p--
pa--
pal--
pala--
pale--
pan--
pang--
pangg--
par--
pas--
pat--
pav--
pe--
pem--
pema--
pembe--
peme--
pemi--
peminda--
pemu--
pen--
pena--
penam--
pend--
penda--
peng--
pengam--
penge--
penye--
per--
pere--
pi--
pilo--
pin--
pla--
po--
poli--
polo--
pon--
pong--
poo--
pop--
popo--
pori--
pr--
pra--
pre--
pri--
pro--
pu--
pur--
purwa--
puu--
q--
qa--
qan--
qu--
que--
r--
ra--
rach--
ram--
ran--
re--
rece--
reg--
ren--
repre--
revol--
rho--
ri--
rie--
ro--
ru--
ruju--
ruk--
s--
sa--
sab--
sai--
sal--
sam--
san--
sar--
sch--
schu--
sco--
se--
sel--
sem--
ser--
serd--
set--
sev--
sh--
si--
sido--
sil--
sim--
sime--
simp--
sin--
sjah--
sk--
so--
soe--
soed--
sp--
st--
ste--
sto--
su--
sug--
suka--
suko--
sul--
sule--
sup--
swe--
sya--
syah--
t--
ta--
tab--
tai--
tak--
tal--
talu--
tam--
tan--
tar--
tara--
tawu--
te--
tem--
ter--
tere--
terp--
tert--
th--
ti--
tili--
tilom--
tim--
tin--
to--
tom--
tou--
toy--
tr--
tra--
tri--
tu--
tum--
tun--
tung--
tur--
u--
uk--
ul--
ula--
ulu--
un--
ung--
up--
upo--
uri--
us--
v--
va--
val--
valen--
ven--
ver--
vi--
vo--
vol--
vul--
w--
wa--
we--
wel--
whi--
whit--
wid--
wil--
win--
wo--
wono--
wopa--
wor--
wu--
x--
y--
ya--
ye--
yi--
yila--
yilohi--
yilu--
yu--
yud--
z--
za--
zo--
zul--
đ--
ا--
--0
--1
--10
--2
--3
--4
--5
--6
--7
--8
--9
--a
--aa
--aan
--aft
--ah
--ahi
--ai
--aji
--ak
--aka
--aku
--akwa
--al
--am
--an
--ango
--annya
--ano
--ao
--ap
--ar
--ara
--aran
--ard
--ari
--ary
--as
--asi
--at
--atan
--ate
--atur
--au
--awu
--b
--ba
--bah
--bar
--bardir
--bat
--be
--ber
--bi
--bik
--bo
--bon
--bos
--bu
--burg
--by
--c
--ca
--cal
--caya
--ce
--ces
--ch
--cio
--ck
--cky
--co
--cock
--craft
--ct
--cu
--cy
--d
--da
--daa
--dadi
--dak
--dau
--dd
--de
--der
--dge
--dh
--di
--dio
--do
--dom
--ds
--du
--duo
--dy
--dz
--e
--ected
--ed
--ef
--ei
--ejo
--ek
--el
--ell
--elo
--em
--en
--eng
--ens
--er
--ers
--es
--est
--et
--ey
--ez
--f
--faat
--fah
--fer
--fi
--g
--ga
--gahu
--gal
--gala
--gan
--gar
--gat
--ge
--ger
--gga
--ggu
--gh
--gi
--gia
--gie
--gkat
--gli
--gn
--go
--gon
--gsi
--gu
--gut
--gy
--h
--ha
--hai
--han
--hara
--harjo
--he
--her
--heto
--hi
--hirkan
--hiyo
--hn
--hu
--hutu
--i
--ia
--ial
--ian
--iano
--ib
--ic
--ico
--id
--ie
--igh
--ih
--ik
--ika
--ikan
--il
--ile
--im
--in
--ina
--inasi
--ine
--ing
--io
--ion
--ip
--ir
--is
--isasi
--isi
--ism
--isme
--it
--itno
--ium
--ius
--iwa
--iya
--iyo
--j
--ja
--jah
--jar
--jaran
--jati
--jen
--ji
--jo
--ju
--jung
--k
--ka
--kai
--kal
--kan
--kar
--kara
--kas
--ke
--ki
--ko
--kon
--kota
--kr
--ks
--ksa
--ktif
--ku
--kus
--l
--la
--lade
--lah
--lai
--lan
--lar
--las
--lasi
--lawoto
--le
--lele
--lem
--ler
--ley
--li
--lia
--lio
--lis
--liyo
--lk
--ll
--lla
--llah
--lle
--lli
--lls
--lo
--log
--logi
--ls
--lt
--lu
--luhu
--luk
--ly
--m
--ma
--mad
--mar
--mat
--mayi
--mba
--mbah
--mbo
--me
--men
--mer
--mi
--min
--mo
--mpul
--mu
--my
--n
--na
--nan
--nca
--nd
--nda
--ndi
--ndo
--ne
--ner
--ng
--nga
--ngan
--ngga
--nggo
--nggu
--nggulo
--ngi
--ngkut
--ngo
--ngun
--ni
--nia
--nik
--ningrat
--nn
--nny
--no
--ns
--nsi
--nt
--nta
--nti
--ntifikasi
--nto
--nu
--nus
--ny
--nya
--nzo
--o
--oa
--od
--oi
--ok
--oka
--ol
--olo
--om
--ome
--on
--onal
--ong
--ono
--ons
--oon
--op
--or
--ora
--ori
--os
--ov
--ox
--p
--pa
--pan
--ph
--pi
--ping
--po
--psi
--pu
--q
--que
--r
--ra
--rah
--ran
--rang
--rap
--rat
--rd
--rds
--re
--rejo
--ren
--rent
--res
--rg
--rge
--rgi
--ri
--ria
--ris
--rius
--rja
--rjo
--rk
--rn
--rno
--ro
--ron
--row
--rry
--rs
--rsa
--rt
--rta
--rti
--rto
--ru
--rum
--rus
--rut
--ry
--s
--sa
--sari
--sas
--sasi
--sat
--sco
--se
--sh
--si
--sil
--sis
--sit
--so
--son
--ss
--st
--sta
--ster
--stik
--stry
--su
--sus
--sut
--syah
--t
--ta
--tai
--tam
--tama
--tan
--tar
--tara
--tas
--tasi
--tati
--tatif
--te
--ted
--ten
--ter
--th
--ti
--tie
--tih
--tik
--tina
--ting
--tion
--tis
--to
--tor
--tory
--ts
--tt
--tta
--tu
--tul
--tung
--tur
--ty
--tz
--u
--uan
--ud
--uddin
--uga
--ul
--ullah
--ulo
--um
--uma
--un
--une
--ung
--uo
--ur
--ures
--uru
--us
--usi
--ut
--uts
--v
--va
--ve
--w
--wa
--walo
--wan
--wate
--wati
--wi
--witz
--wn
--wo
--ws
--wu
--x
--y
--ya
--yade
--yalo
--yan
--ye
--yi
--yn
--yo
--yonga
--ys
--z
--za
--ze
--zi
