!
"
##0
##1
##10
##11
##12
##13
##14
##15
##16
##17
##18
##19
##2
##20
##21
##22
##23
##24
##25
##26
##27
##28
##29
##3
##30
##31
##32
##33
##34
##35
##36
##37
##38
##39
##4
##40
##41
##42
##43
##44
##45
##46
##47
##48
##49
##5
##50
##51
##52
##53
##54
##55
##56
##57
##58
##59
##6
##60
##61
##62
##63
##64
##65
##66
##67
##68
##69
##7
##70
##71
##72
##73
##74
##75
##76
##77
##78
##79
##8
##80
##81
##82
##83
##84
##85
##86
##87
##88
##89
##9
##90
##91
##92
##93
##94
##95
##96
##97
##98
##99
%
&
'
(
)
*
+
,
-
.
/
0
000
01
017
02
03
04
05
06
07
08
09
1
10
100
1000
101
102
103
104
105
106
107
108
109
11
110
111
112
113
114
115
116
117
118
119
12
120
121
122
123
125
126
127
128
13
130
131
132
133
1333
134
135
136
138
139
14
140
1400
1409
141
142
145
1450
146
147
1475
149
15
150
1500
151
153
154
1540
155
157
1572
158
159
1598
16
160
1600
161
1610
162
1626
163
1643
1648
165
166
167
1675
169
1696
17
170
1702
171
1715
172
173
174
1747
1749
175
1758
1759
176
1760
1761
1762
1764
1765
1766
1767
1768
1769
177
1770
1771
1773
1774
1775
1776
1777
1778
1779
178
1780
1781
1782
1783
1784
1785
1786
1787
1788
1789
1790
1791
1792
1793
1794
1795
1796
1797
1798
1799
18
180
1800
1801
1802
1803
1804
1805
1806
1807
1808
1809
181
1810
1811
1812
1813
1814
1815
1816
1817
1818
1819
182
1820
1821
1822
1823
1824
1825
1826
1827
1828
1829
183
1830
1831
1832
1833
1834
1835
1836
1837
1838
1839
184
1840
1841
1842
1843
1844
1845
1846
1847
1848
1849
185
1850
1851
1852
1853
1854
1855
1856
1857
1858
1859
186
1860
1861
1862
1863
1864
1865
1866
1867
1868
1869
187
1870
1871
1872
1873
1874
1875
1876
1877
1878
1879
188
1880
1881
1882
1883
1884
1885
1886
1887
1888
1889
189
1890
1891
1892
1893
1894
1895
1896
1897
1898
1899
19
190
1900
1901
1902
1903
1904
1905
1906
1907
1908
1909
191
1910
1911
1912
1913
1914
1915
1916
1917
1918
1919
192
1920
1921
1922
1923
1924
1925
1926
1927
1928
1929
193
1930
1931
1932
1933
1934
1935
1936
1937
1938
1939
194
1940
1941
1942
1943
1944
1945
1946
1947
1948
1949
1950
1951
1952
1953
1954
1955
1956
1957
1958
1959
196
1960
1961
1962
1963
1964
1965
1966
1967
1968
1969
1970
1971
1972
1973
1974
1975
1976
1977
1978
1979
198
1980
1981
1982
1983
1984
1985
1986
1987
1988
1989
199
1990
1991
1992
1993
1994
1995
1996
1997
1998
1999
2
20
200
2000
2001
2002
2003
2004
2005
2006
2007
2008
2009
201
2010
2011
2012
2013
2014
2015
2016
2017
2018
2019
2020
2021
2022
203
204
205
208
209
21
210
213
215
216
219
22
220
222
223
225
228
23
230
231
232
236
237
238
24
240509
242
245
246
247
248
25
250
252
253
254
259
26
260
27
271
272
274
279
28
280
29
290
291
292
294
299
3
30
300
3000
30000
305
306
308
309
31
310
311
313
314
316
32
320
321
322
323
324
325
327
329
33
330
3305
331
332
336
339
34
340
342
344
347
349
35
350
352
353
354
355
356
357
36
360
363
364
365
366
37
38
387
39
4
40
400
4000
41
42
43
44
440
448
45
46
47
48
49
5
50
500
51
511
52
53
54
55
56
57
58
59
6
60
600
61
62
63
64
65
66
67
68
69
7
70
700
71
72
73
74
75
76
77
78
79
8
80
800
83
84
85
85088
87
87985
88
89
9
90
900
92
93
94
95
96
97
978
98
99
:
;
<
=
>
?
[
\
]
^
_
a
aal
aala
aalaf
aalafa
aalxo
aase
ab
aba
abassensis
abava
abbeville
abbotti
abbreviatus
abdafa
abday
abdi
abdiizvugal
abditomys
abdualbar
abduef
abdumimaks
abe
abeillia
abel
abelii
abella
abeomelomys
aberti
abguz
abic
abica
abicote
abidi
abieticola
abietinoides
abietorum
abjek
ablusus
abra
abrae
abramov
abrawayaomys
abrikol
abrocoma
abrocomidae
abroscopus
abrotcaf
abrotcafa
abrotcafo
abrotce
abrothrix
abrugol
abruka
abruptus
abstrusus
aburria
abyssinica
abyssinicus
ac
acaciae
acadicus
acanthagenys
acanthidops
acanthion
acanthis
acanthisitta
acanthisittidae
acanthiza
acanthizidae
acanthorhynchus
acanthornis
acapulcensis
acariensis
accipiter
accipitridae
accipitriformes
aceramarcae
aceratos
acerodon
aceros
achaetops
acinonyx
acku
acomys
aconaemys
acouchy
acridotheres
acritillas
acrobata
acrobates
acrobatidae
acrobatornis
acrocephalidae
acrocephalus
acropternis
acrus
acryllium
actenoides
actes
acticola
actinodura
actitis
actophilornis
actuosa
actuosus
aculeatus
acum
acutorostrata
acutus
adailensis
adala
adalaf
adalafa
adam
adamauae
adametzi
adamoi
adams
adamsi
adamsoni
adangensis
addax
adelomyia
adersi
adipicaudatus
adjubera
admirata
adocetus
adolf
adolfi
adolfifriderici
adolphei
adq
adre
adriatika
adsitus
adspersus
aduncus
adusta
adustus
adversus
aechmophorus
aedium
aeeclis
aegagrus
aegatensis
aegithalidae
aegithalos
aegithina
aegithinidae
aegolius
aegotheles
aegothelidae
aegypius
aegyptius
aeliani
aellen
aello
aenigmatica
aenigmaticus
aenigmatolimnas
aepeomys
aepyceros
aepycerotinae
aepypodius
aepyprymnus
aequalidens
aequalis
aequatorialis
aequatoris
aequatorius
aequinoctialis
aeretes
aereus
aerodramus
aeromys
aeronautes
aerosus
aestiva
aestivus
aestuans
aestuarina
aeta
aethalops
aethia
aethiopicus
aethiops
aethomys
aethopyga
afanasjev
afer
affinis
afgana
afghanus
afizcek
afizon
afra
africaeaustralis
africana
africanus
afrika
afrikaf
afrikafa
afropavo
afrosoricida
afrotis
aftaf
after
afzelius
agag
agamia
agapornis
agay
age
agelaioides
agelaius
agelastes
agelasticus
agency
agilis
agj
aglaeactis
aglaiocercus
agraphospiza
agrarius
agrawal
agrestis
agricolae
agricolai
agriornis
agropsar
aguilera
ahlselli
ahmansonorum
ahoenobarbus
ai
ailuridae
ailuroedus
ailuropinae
ailuropoda
ailurops
ailurus
aimi
aimophila
ainu
airensis
aitken
aitkeni
aix
ajax
akakuyol
akan
akanac
akangol
akangoldunol
akialoa
akka
akletos
akodon
akodontius
akoles
akraf
aksat
aksateaf
akt
akusumol
al
alacer
alacris
aladay
aladayos
alaemon
alaicus
alan
alaotrensis
alascensis
alashanicus
alaska
alaskanus
alatir
alauda
alaudala
alaudidae
alb
alba
albatus
alberico
albert
albertis
albertisii
albescens
albibarbis
albicans
albicauda
albicaudatus
albicaudus
albicollis
albida
albidens
albifrons
albigena
albignac
albigula
albigularis
albinasus
albinucha
albipes
albirostris
albispinus
albiventer
albiventris
albivexilli
albocaudata
albocinereus
albocollaris
albogularis
albojubatus
alboniger
albonotata
albopunctatus
alborufus
albotorquatus
albuja
albulus
albus
alca
alcedinidae
alcedo
alcelaphinae
alcelaphus
alces
alcidae
alcippe
alcorni
alcover
aldan
aldo
aleadryas
alecto
alectoris
alectroenas
alectrurus
alectura
aleksandr
aleksandrisi
aleksey
alessandria
aletesciurus
alethe
aleut
alexander
alexandra
alexandrae
alexandre
alexandri
alexandromys
alexis
alfari
alfaroi
alfred
alfredi
alger
algira
algirensis
algirus
ali
alice
alionycteris
alipiopsitta
aliquantulus
aliskandarya
alisterus
aljazair
alka
allactaga
allactaginae
allactodipus
allan
alle
allegheniensis
allegoria
allen
alleni
allenia
allenopithecus
allex
allocebus
allocricetulus
allonge
alma
alnafo
alnorum
aloga
alopecoenas
alophoixus
alopochelidon
alopochen
alorensis
alouatta
alouattinae
alp
alperin
alpha
alpherakyi
alphonse
alphonsei
alpicola
alpina
alpinus
alston
alstoni
alstro
altaica
altaicus
altelopik
alticola
alticolus
altifrontalis
altiplanensis
altissimus
altitudinis
altivallis
alto
altobello
alton
altum
alub
alube
alubeaksat
aluboy
aluboya
aludeve
alvar
alvares
alvarez
alvarezi
am
amadina
amalocichla
amandava
amato
amatus
amaurolimnas
amaurornis
amaurospiza
amazilia
amazona
amazonetta
amazonicus
ambarvalis
ambiguus
amblyceps
amblycercus
amblyonyx
amblyornis
amblyospiza
amblyramphus
amblyrhiza
amblysominae
amblysomus
ame
amecensis
amedeo
ameghino
ameghinoi
america
american
americana
americanus
amerika
amerikaf
amerikafa
amerikik
amhegino
amicus
amidaf
amidafa
amizda
amizdiz
amizdok
amizdoy
ammodillus
ammodorcas
ammodramus
ammomanes
ammomanopsis
ammon
ammonastes
ammoperdix
ammophilus
ammosov
ammospermophilus
ammotragus
amoenus
amoyensis
ampeliceps
ampelioides
ampelion
ampelornis
amphialus
amphibius
amphinectomys
amphispiza
amplus
ampullatus
amurensis
amytornis
an
ana
anabacerthia
anabar
anabathmis
anabazenops
anadir
anadyrensis
anairetes
anak
anakuma
analogus
anambensis
aname
anameda
anameon
anamkaf
anamkafa
anaplectes
anarhynchus
anas
anastasae
anastomus
anathana
anatidae
anatinus
anatolica
anatolicus
anchietae
ancistrops
and
andalgalomys
andamanensis
andelys
andersen
anderseni
anderson
andersoni
andes
andigena
andina
andinomys
andinus
andium
andorra
andrainarivo
andre
andrea
andreas
andrews
andrewsi
andriaholinirina
andriantompohavana
androdon
andropadus
androphobus
ane
anerythrus
aneyara
angabol
angarensis
angas
angasii
angelcabrerai
anglais
anglia
angola
angolae
angolensis
angonicus
angoniensis
angouya
anguinae
angularis
angulatus
angusi
angusta
angustapalata
angustiae
angusticeps
angustidens
angustifrons
angustirostris
anhima
anhimidae
anhinga
anhingidae
anhuiensis
aniakensis
animal
animosus
aniskin
anisognathus
anisomys
anitae
anj
ankaranensis
ankoliae
ann
anna
annamensis
annamiticus
annandalei
anne
annectens
annellatus
annexus
annobonensis
annulata
annulatus
annulus
anodorhynchus
anomalospiza
anomaluridae
anomalurinae
anomaluromorpha
anomalurus
anomalus
anonymomys
anonymous
anopetia
anorrhinus
anotomys
anourosorex
anous
ans
ansell
anselli
ansellorum
anser
anseranas
anseranatidae
anseriformes
ansorgei
ant
antaf
antafa
antarktika
antechinomys
antechinus
anthipes
anthobaphes
anthocephala
anthochaera
anthony
anthonyi
anthornis
anthoscopus
anthracinus
anthracoceros
anthracothorax
anthreptes
anthus
antiaf
antibes
antidorcas
antigone
antillensis
antilocapra
antilocapridae
antilope
antilophia
antilopinae
antilopinus
antimena
antineae
antinorii
antion
antioquia
antiquorum
antiquus
antisensis
antoine
anton
antoniae
antonii
antonio
antrostomus
antsingy
antwerpen
anubis
anumara
anumbius
anurolimnas
anurophasis
anvers
anyuste
anyusteaksat
anyustoy
anyustoya
aonyx
aotcaf
aotidae
aotus
apache
apalharpactes
apalis
apaloderma
apalopteron
ape
apeco
apella
aperea
apereoides
aphanapteryx
aphanocrex
aphanotriccus
aphantochroa
aphelocephala
aphelocoma
aphrastura
aphrastus
aphrodroma
apicalis
apiz
aplin
aplini
aplodontia
aplodontiidae
aplodontus
aplonis
apodemoides
apodemus
apodidae
apodiformes
apoensis
apollinaris
apomys
aporodon
apre
apricus
aprositornis
aprosmictus
aproteles
apsaka
apta
aptafa
aptenodytes
apterygidae
apterygiformes
apteryx
aptiskafa
apus
aquaticus
aquila
aquilo
aquilonius
aquilus
ar
ara
araba
arabaf
arabica
arabicus
arabik
arabs
arabupu
arachnoides
arachnothera
araeum
arai
arak
aramidae
aramides
aramidopsis
aramus
araneus
arapeniwer
arapovac
aras
aratinga
araya
arayaf
arborea
arboreus
arborimus
arborophila
arbres
arc
arcalus
arcanator
archaeological
archbold
archboldia
archboldomys
arche
archer
archeri
archilochus
arcium
arctic
arctica
arctictis
arcticus
arctocebus
arctocephalus
arctogalidia
arctoidea
arctoides
arctonyx
arctos
arcuatus
ardea
ardeidae
ardenna
ardeola
ardeotis
arenae
arenalis
arenaria
arenarius
arendsi
arenicola
areniticola
arenivagus
arequipae
arequipe
arerunguaensis
arescens
areskol
arfakiensis
argentata
argentatus
argenteocinereus
argentescens
argenteuil
argenteus
argentina
argentinaf
argentinius
argentinus
argentiventer
argurus
argusensis
argusianus
argynnis
argyrodytes
argyropulo
argyropus
aricana
aridulus
ariel
aries
arimalius
arispa
arizelocichla
arizonae
arizonensis
arkal
arkive
arkod
arktika
armand
armandvillei
armatus
arme
armena
armenia
armenian
armenica
armstrong
arnee
arnhemensis
arnholdi
arnuxii
aroaensis
aroche
arotievaf
arotievik
arpa
arredondo
arredondoi
arremon
arremonops
arrhenii
arriagensis
arrogans
arsenjevi
arses
art
artamella
artamidae
artamus
artata
arte
artemesiae
artemisia
artemisiospiza
artexo
arthur
arthuri
arti
artiodactyla
artisornis
artiste
artlapira
artnir
artnis
artowara
artowasik
arts
artus
arula
arunchi
arundinax
arundinicola
arundinum
aruscensis
arvalis
arvicanthis
arvicola
arvicolinae
arxangelsk
arxea
aryabertensis
aryon
aryona
arzenti
arzentiok
asanka
asarcornis
ascanius
asfarol
ashaninka
ashbyia
ashtoni
asia
asiaeorientalis
asiaf
asiafa
asiatica
asiaticus
asinus
asio
askir
asomatus
aspakol
aspalax
aspatha
asper
aspumta
assamensis
assimilis
assis
assise
asthenes
astol
astopol
astrapia
astutus
asut
asutez
at
ata
atalotriccus
atchinensis
atela
atelerix
ateles
atelidae
atelier
atelinae
atelocynus
atelornis
ater
aterrimus
athene
atherodes
atherurus
atilax
atimastillas
atlantica
atlanticus
atlantika
atlantisia
atlantoxerus
atlapetes
ato
atoer
atrata
atratus
atricapillus
atriceps
atrichornis
atrichornithidae
atrinasus
atrirelictus
atrirufus
atristriatus
atrodorsalis
atronasus
atrovarius
attagis
attenboroughi
attenuata
attenuatus
atthis
atticora
attila
attwateri
atys
au
aubinnii
aubryi
auceps
audax
audebert
audeberti
audubon
audubonii
auf
auffray
augastes
augustana
auguste
augustidens
augustin
augustins
aulacorhynchus
auliscomys
ault
aultoves
aumo
aumur
aurantius
aurata
auratus
aurea
aureiventris
aureogaster
aureola
aureospinula
aureoventris
aureus
aurgol
aurgukol
auricularis
auriculatus
aurifrons
aurigineus
aurignacian
auriparus
aurita
auritus
auriventer
aurobrunneus
auropunctatus
auroreus
aus
ausensis
auspicatus
austen
australia
australis
austrinus
automne
automolus
autoportrait
autumn
auvers
aux
auyantepui
auzembergeri
av
ava
avafrika
avahi
avara
avarus
avct
avctbd
avcte
avec
aveem
avellanarius
averianov
averini
aves
avia
avibase
aviceda
avicinnia
avila
avilapiresi
avius
avk
avocettula
avosetta
avunculus
awahnee
awalk
awalkera
awalkereka
awalkikxo
awalt
awaltaf
awashensis
awentol
awira
axapafa
axis
ayadol
ayadukol
ayaf
ayafa
ayik
ayikeem
ayikya
ayikyaf
ayikye
ayikyevik
ayikyevikya
ayitia
ayres
aythya
ayvasedapur
az
azandica
azara
azarae
azdas
aze
azega
azeka
azekaf
azekafa
azekapa
azekexa
azen
azil
azilxo
azon
aztecus
azu
azubol
b
ba
babari
babaulti
babax
baberi
babi
babina
babuljas
babyrousa
babyrussa
bachman
bachmani
backs
bactrianus
baden
badende
badia
badius
baeodon
baeolophus
baeopogon
baeops
baeri
bagobus
bahrkeetae
baibacina
baie
baigneuse
bailey
baileyi
bailwardi
bain
baiomys
baird
bairdi
bairdii
bak
bakar
baker
bakeri
bakuda
bakudey
bal
balabra
balae
balaena
balaeniceps
balaenicipitidae
balaenidae
balaenoptera
balaenopteridae
balcanica
balcanicus
balcon
balearica
balem
balemda
baleme
balemeaf
balemeaksat
balemoy
balemoya
balgaria
bali
balica
balicus
baliensis
balikunica
baliolus
balionycteris
ball
balneator
baloutch
balsac
balsaci
balta
baluchi
baluensis
balun
bam
bambino
bambusicola
bamendae
ban
bana
bancana
bancanus
bancarus
bancatol
bancekol
bancimol
bancol
bancoldunoleem
bancudol
bandarum
banderanus
bandicota
bang
bangs
bangsi
bangsia
bangsii
banguei
bangueyae
banks
banksi
banksianus
banliz
banlize
bannikov
bannisteri
bantu
banugale
banwell
baoulei
baptista
baptistae
baptiste
bar
barabash
barabensis
barakshin
baramensis
barandana
barang
barata
barbara
barbarabrownae
barbarensis
barbarus
barbatus
barbei
barber
barberi
barbiensis
barbour
barbouri
barclay
bare
bareaf
bareafa
bareaksat
barenda
barendok
barents
bargentimaf
barkril
barkrilekwa
barkrilidja
barkrilotsa
barloy
barn
barnardi
barnardius
barnes
barnett
barney
baron
baroy
baroya
baroyu
barque
barquez
barrerae
barrett
barriere
barriga
barrowensis
bartels
bartelsi
bartelsii
bartlett
bartoni
bartramia
baryphthengus
baryshnikov
bas
basari
bashanov
basileuterus
basilicae
basilii
basilinna
basilornis
baskevich
baspexo
bassaricyon
bassariscus
basse
bassi
bassin
bastardi
basuticus
bat
bata
bataille
batakaf
batakafa
batara
batchelder
batcoba
batcuol
batdume
bate
bateau
bateaux
bates
batesi
bathmocercus
bathyergidae
bathyerginae
bathyergus
bati
batinde
batis
batkane
batlize
bato
batomys
baton
batrachostomus
battan
battista
batu
batuana
batuanus
batugale
batwatol
baudelaire
baudinettei
bauer
bavaricus
bavicorensis
bawazol
bayern
bayonii
bazer
bazhanov
bazincourt
bd
bdeogale
be
bea
beamys
beardi
beatae
beatragus
beatus
beauforti
beauvois
beaux
beccarii
bechstein
bechthold
bechuanae
beck
becker
bedakol
beddardi
bedfordi
bedfordiae
bedom
beecheyi
beecrofti
beend
beendest
beendiz
beendos
begama
begitschevi
bei
beicekol
beirae
beisa
bejaya
bejol
beka
belangeri
belarusa
belbeuf
belca
belcon
beldingi
belfieldi
belga
belgaf
belira
belisa
beliyina
bell
bellier
bellieri
bellula
bellus
belomys
belosludov
belti
belzebul
belzebuth
bemmel
ben
bendeyen
bendirii
bene
beneden
benefactus
benelon
benga
bengalensis
benina
benjamin
bennett
bennettianus
bennettii
bensley
benson
bensoni
benus
beothucus
bepra
berardius
berberana
berck
berdmorei
berenicornis
beretica
beretraf
berezovskii
berg
berga
bergi
bergmans
bering
beringei
beringensis
beringiana
beringianus
berk
berkeleyensis
berkenhout
berlandier
berlandieri
berlepsch
berlepschia
berlin
berlioz
berma
bermuteo
bernard
bernardi
bernardinus
bernardo
bernardus
bernhardi
bernieria
bernieridae
bernsteini
berry
berthae
bertrand
berylmys
berzin
besanafa
besanafo
besara
bessy
beta
betpakdalaensis
betsabea
betsava
betsileo
betsileoensis
bettongia
bettoni
betulina
bevular
bewafa
beweem
beza
bezoarticus
bhutanensis
biacensis
bias
biatas
bibimys
bicolor
bicornis
bidens
bie
biedermanni
bierstadt
bieti
bijiangensis
bikarijica
bil
bilarni
bilimitatus
bilkis
billardierii
billitonus
bilotol
bimaculatus
bindi
bingen
binjol
binka
binominata
binotata
binturong
bioga
biologiae
biptikya
bira
biradom
biradoma
biraf
birafa
birdseyei
bireem
birula
birulai
birungensis
bisaga
bishopi
bison
bisovol
bissauguinea
bistriata
bisulcus
biswamoyopterus
biswasi
bitejaf
biugbol
bixe
biziura
bjo
bjølstad
blafotaf
blafotafa
blahout
blaine
blainei
blainville
blainvillei
blainvillii
blair
blakeraf
blanca
blanche
blandus
blanford
blanfordi
blanfordimys
blangorum
blarina
blarinella
blarinomys
blasius
blastocerus
bleda
bleisch
bleyenberghi
bli
blicki
blid
bliind
bliopik
blir
blira
bliragropeem
blis
blisa
bliss
blitchi
blitvica
blizdekol
blizdol
bloeker
blossom
blouchi
blumenbach
blyth
blythii
blythipicus
bo
bobak
bobrinskii
bocaf
bocafa
bocage
bocagei
bocagia
boccamela
bocki
bocourti
boddaert
bodjim
boeadi
boeadii
boehmi
boetticher
bogdanovi
bogota
bogotensis
boher
bohor
boie
boiei
boieldieu
bois
boissonneaua
boitard
bojanus
bolabatuensis
bolami
bolbopsittacus
bolborhynchus
bolcaya
bolcoy
bole
bolei
bolemoreus
boli
bolivaris
bolivia
boliviae
boliviana
boliviensis
bolk
bolkay
bolkayi
bolus
bombycilla
bombycillidae
bombycinus
bon
bonaerensis
bonafidei
bonaparte
bonariensis
bonasa
bonasus
bondae
bondar
bonettoi
bongensis
bongolavensis
bonheur
bonhote
bonhotei
boniara
boniaxo
bonilla
bonnaterre
bonnevillei
bonol
bontanus
bonvicino
booduga
booensis
boonsongi
boonsyatol
boosmani
booth
boothiae
boquetensis
bor
boranus
bord
bordeaux
bords
borealis
boris
boristhenicus
borjasensis
borkhausen
borneanus
borneensis
borneoensis
boromys
bororensis
bororo
borovnik
borowski
bos
boselaphus
bosnaxercegovina
bosniaca
bost
bostam
bostap
bostrychia
bostxo
botaurus
botnica
botswana
bottae
bottai
bottegi
bottegoides
boudin
bouet
bougainville
bougival
bouille
boulevard
boullangerensis
boulware
bouquet
bourbon
bourloni
bourret
boutourlinii
bouvier
bouvieri
bovidae
bovinae
bowdich
bowdoini
bowersi
boxi
boyaca
boyeskorov
boylii
boz
bra
brac
braccatus
brachialis
brachiones
brachycephala
brachycercus
brachyceros
brachycope
brachycrania
brachygalba
brachylagus
brachyonyx
brachyotis
brachyotus
brachypteracias
brachypteraciidae
brachypteryx
brachyramphus
brachyrhynchus
brachysoma
brachytarsomys
brachyteles
brachyura
brachyuromys
brachyurus
bradfield
bradfieldi
bradt
brady
bradypodidae
bradypterus
bradypus
brahma
branderi
brandon
brandt
brandti
brandtii
branickii
braniol
branta
brants
brantsii
bras
brasil
brasila
brasiliensis
brass
brauer
braueri
braum
braun
brauner
brauneri
brauni
bravo
brazenor
brazierhowelli
brazza
brazzaville
bre
bredanensis
brehm
breiza
brelichi
brendae
bresitanol
bresitayol
bresitevol
bresitimol
bresitol
bresitukol
bresituzol
bresol
brest
brevetianus
brevicauda
brevicaudata
brevicaudus
breviceps
brevidens
brevinasus
brevipes
brevirostris
breweri
brice
bricenii
bridgemani
bridgeri
bridgesi
brighti
brinuga
briscoe
brisson
britana
britanaf
britanafa
british
bro
broadbenti
broadbrooks
broccus
brochus
brockman
brockmani
brodiei
broen
bromwich
brongersma
bronner
bronte
brooke
brookei
brookes
brooks
brooksi
broom
brosset
brotogeris
brotomys
brouillard
broweri
brown
browni
brownii
brskvenjak
bruce
brucei
brucepattersonius
brucii
bruijni
brumbacki
brume
brumfield
brunensis
bruneri
brunii
brunnea
brunnescens
brunneus
bruntol
brus
bruxa
bruxeem
bruxelles
bruyas
bryansk
bryant
bryanti
bryophilus
bu
bualdo
bubalis
bubalornis
bubalus
bublitz
bubo
bubulcus
buc
bucanetes
buccanodon
bucco
bucconidae
bucculentus
bucephala
buceros
bucerotidae
bucerotiformes
bucharensis
buchariensis
buckland
buckleyi
bucku
bucorvidae
bucorvus
budgetti
budini
budorcas
bueae
buechneri
buehleri
buenavista
buergersi
buettikoferi
bufo
bug
bugimo
bugimoza
bukimol
bukol
bulbivorus
bullaris
bullata
bullatus
bulleri
bullimus
bulmerae
bulol
bulweria
bumbuz
bumbuzok
bumkida
bumkidek
bungei
bunguranensis
bunites
bunkeri
bunnii
bunoae
bunolagus
bunomys
bunopithecus
buntingi
buomi
buphagidae
buphagus
burbidgei
burchell
burchellii
burda
bureau
burgner
burhinidae
burhinus
burkina
burlace
burlacei
burmeister
burnett
burns
burramyidae
burramys
burrus
bursarius
burt
burti
burton
burtoni
burundia
buryata
busarellus
buselaphus
buskensis
busuangae
butastur
butcim
buteo
buteogallus
buterne
buthraupis
butler
butleri
butorides
butteri
buxtoni
bwafa
bweha
by
byatti
bycanistes
byrnei
c
ca
caama
caballus
cabanis
cabassous
caboti
cabral
cabrali
cabrera
cabrerae
cabrerai
cacajao
cacatua
cacatuidae
cachinus
cacicus
cacodemus
cacomantis
cacomitli
cacsilensis
cactophilus
cadim
cadimeem
caeca
caecutiens
caenolestes
caenolestidae
caerulescens
caesar
caesia
cafer
caffer
caffra
cafra
cagottis
cahirinus
cahni
cai
caillebotte
cairina
caissara
calabarensis
calaby
calabyi
calamanthus
calamianensis
calamonastes
calamonastides
calamospiza
calandrella
calcariidae
calcarius
calcochloris
caldas
caledoniae
calendulauda
calicalicus
calidior
calidris
california
californiana
californianus
californica
californicus
californiensis
caligata
caligatus
caligavis
caliginea
caliginosus
calinescu
callacanthis
callaeas
callaeidae
callahan
callewaerti
callicebinae
callicebus
callida
callidus
callimico
calliope
callipepla
callipeplus
calliphlox
callipygus
callistomys
callistus
callithrix
callitrichinae
callitrichus
callocephalon
calloceps
callonetta
callorhinus
callosciurinae
callosciurus
callospermophilus
callosus
callotis
calochaetes
calocitta
caloenas
calomys
calomyscidae
calomyscus
calonectris
caloperdix
caloprymnus
caloramphus
calothorax
calura
caluromyinae
caluromys
caluromysiops
calurus
calvertensis
calvus
calypso
calypte
calyptocichla
calyptomena
calyptophilidae
calyptophilus
calyptophractus
calyptorhynchus
calyptura
camacho
camaret
camargensis
camarhynchus
camaroptera
cambojensis
cambridge
camelidae
cameloides
camelopardalis
camelus
cameron
cameronensis
cameroni
camerunensis
camfrout
camille
camoae
camp
campanae
campanius
campbelli
campbelliae
campephaga
campephagidae
campephilus
campestris
campethera
campi
campicoloides
campochaera
camptorhynchus
camptostoma
campylopterus
campylorhamphus
campylorhynchus
camtschatica
camus
cana
canadensis
canal
canariensis
canaster
cancrivorus
candace
candango
candelensis
candidula
candidus
canescens
canfieldiae
canicaudus
caniceps
canicollis
canicrus
canidae
caniformia
canigula
caninus
canipes
canirallus
canis
caniscus
caniventer
cannes
cannet
cannomys
cansdalei
cansulus
cansumys
cansus
cantor
cantorchilus
canus
canya
cao
caobangis
caovansunga
caparoae
capensis
caperea
capillosa
capitalis
capito
capitonidae
capolongo
caporiaccoi
capra
capreolinae
capreolus
capricornis
caprimulgidae
caprimulgiformes
caprimulgus
caprinae
caprinus
caprolagus
capromyidae
capromyinae
capromys
capsalis
capsiempis
capucinus
caputi
cara
caracal
caracara
caracas
caracasensis
caracolus
caraya
carbo
carchensis
carcinophaga
cardellina
cardinalidae
cardinalis
cardiocraniinae
cardiocranius
carduelis
cariacou
cariama
cariamidae
cariamiformes
caribou
caridonax
carillus
carimatae
cariol
carl
carleton
carlhubbsi
carlo
carlos
carlosensis
carlottae
carmeli
carmelitae
carmen
carminis
carnivora
caroli
caroline
carolinensis
carpatica
carpenteri
carpi
carpitalpa
carpococcyx
carpodacus
carpodectes
carpomys
carpornis
carpospiza
carraway
carri
carrikeri
carruthers
carruthersi
cartagena
cartagoensis
carter
carterodon
carterornis
cartier
cartilagonodus
cary
caryi
caryomys
caryothraustes
cascadensis
casensis
casinycteris
casiornis
caspica
caspicus
cassiculus
cassin
cassiquiarensis
castan
castaneoventris
castaneus
castanops
castanotus
castanurus
castor
castoridae
castorimorpha
castroviejoi
casuariidae
casuariiformes
casuarius
catagonus
catalinae
catalogue
catamblyrhynchus
catamenia
cataponera
catavinensis
catellus
caterina
catharopeza
cathartes
cathartidae
catharus
cathe
catherinae
catherine
catherpes
catodon
caton
catopuma
catreus
catriscus
catskill
catskills
catta
catus
cauca
caucae
caucasica
caucasicus
caucensis
caucinus
caudalis
caudata
caudatus
caudimaculatus
caudivarius
caurina
caurinus
cautley
cauui
cavator
cavazza
cave
cavendishi
caves
cavia
caviidae
caviinae
cavirostris
cayana
cayoensis
cdot
ce
cebidae
cebifrons
cebinae
ceblepyris
cebus
cecropis
ceda
ceksna
cel
celack
celebensis
celebesica
celemda
celeme
celemoy
celenda
celer
celeripes
celeris
celeus
celsus
cenera
censo
census
central
centralis
centrasiaticus
centricola
centroamericana
centrocercus
centropus
centrosa
cepapi
cepapoides
cephalophinae
cephalophus
cephalopterus
cephalopyrus
cephalorhynchus
cephalotes
cephodes
cephus
cepphus
ceramicus
cerasina
cerasophila
ceratogymna
ceratopipra
ceratotherium
cercartetus
cercibis
cercocebus
cercococcyx
cercomacra
cercomacroides
cercopithecidae
cercopithecinae
cercopithecoidea
cercopithecus
cercotrichas
cerdocyon
cereopsis
cerf
cernagora
cerorhinca
cerquera
cerradensis
cerrosensis
certans
certhia
certhiaxis
certhidea
certhiidae
certhilauda
certhionyx
certus
cervantes
cervicalis
cervicapra
cervicolor
cervidae
cervinae
cervinipes
cervinus
cervus
ceryle
cesar
cetacea
cettia
cettiidae
ceuthmochares
ceylonensis
ceyx
cha
chacarius
chacoensis
chadensis
chaeropodidae
chaeropus
chaetocauda
chaetocercus
chaetodipus
chaetomys
chaetophractus
chaetopidae
chaetops
chaetoptila
chaetorhynchus
chaetura
chaillu
chake
chakraborty
chalcomitra
chalcoparia
chalcophaps
chalcopsitta
chalcostigma
chalybura
chama
chamaea
chamaepetes
chamaetylas
chamaeza
chamek
champ
championi
champs
chanco
changaica
chanleri
chapadensis
chapeau
chapini
chapman
chapmani
chapskii
charadriidae
charadriiformes
charadrius
charbinensis
charitospiza
charlemagne
charleroi
charles
charlotte
charltonii
charmosyna
chasen
chasiempis
chasse
chasseur
chattin
chauna
chaus
che
cheesman
cheesmani
cheever
cheirogaleidae
cheirogaleoidea
cheirogaleus
chelemys
chelictinia
chelidoptera
chelidorhynx
chemin
chen
chengi
chenonetta
chenorhamphus
chenu
cheramoeca
cherem
chernyavskii
cherrie
cherriei
chersomanes
chersophilus
chesser
cheval
chevrieri
cheybani
cheyennensis
chialtanensis
chianfengensis
chiapensis
chibchanomys
chicago
chicamocha
chichingensis
chien
chihuahuae
chiliensis
chillae
chilomys
chimarrogale
chimborazo
chimie
chinanteco
chinchilla
chinchillidae
chinchilloides
chinchillula
chinensis
chinga
chionidae
chionis
chionomys
chiricahuae
chirindensis
chiriquensis
chiromyscus
chironax
chironectes
chiropodomys
chiropotes
chiroptera
chiropus
chiroxiphia
chiruromys
chlamydera
chlamydochaera
chlamydotis
chlamyphorus
chleuasicus
chlidonias
chloephaga
chlorestes
chloridops
chloris
chlorocebus
chloroceryle
chlorocharis
chlorochrysa
chlorocichla
chlorodrepanis
chlorophanes
chlorophoneus
chlorophonia
chloropicus
chloropipo
chloropseidae
chloropsis
chlorornis
chlorospingus
chlorostilbon
chlorotalpa
chlorothraupis
chlorus
chner
choate
chobiensis
chocoensis
chodsigoa
choloepus
cholornis
choma
chondestes
chondrohierax
chontali
chora
chordeiles
chotanus
chre
christian
christidis
christie
christii
christoff
christopher
christyi
chroicocephalus
chrotogale
chrotomys
chrotorrhinus
chrysaeolus
chrysea
chrysillus
chrysippus
chrysocephala
chrysochloridae
chrysochloridea
chrysochlorinae
chrysochloris
chrysococcyx
chrysocolaptes
chrysocomus
chrysocorythus
chrysocyon
chrysodeirus
chrysogaster
chrysolampis
chrysoleuca
chrysolophus
chrysomelas
chrysomma
chrysomus
chrysonotus
chrysophilus
chrysophlegma
chrysopsis
chrysopus
chrysopygus
chrysorrhous
chrysospalax
chrysospila
chrysothlypis
chrysura
chrysuronia
chrysuros
chrysurus
chubb
chudeaui
chunga
chunyi
church
churchi
chuscensis
chutuchta
cichladusa
cichlocolaptes
cichlopsis
cicinnurus
cickin
ciconia
ciconiidae
ciconiiformes
cicur
ciel
ciesta
ciestey
ciestok
cigavol
cigognanii
ciliatus
cilicicus
cinamomeus
cinclidae
cinclidium
cinclocerthia
cinclodes
cincloramphus
cinclosoma
cinclus
cinderella
cinderensis
cineraceus
cinerascens
cinerea
cinereiceps
cinereicollis
cinereiventer
cinereoaenea
cinereoargenteus
cinereoflava
cinereofusca
cinereus
cineris
cingulata
cinnameus
cinnamomeus
cinnamomum
cinnycerthia
cinnyricinclus
cinnyris
cintrae
circaetus
circus
cirdata
cirdataxo
ciridops
cirnei
cissa
cissomela
cissopis
cisticola
cisticolidae
cistothorus
cit
cita
cite
citellus
citernii
cites
citrinellus
cittura
ciuktedol
ciuktol
ciuktumol
civetta
civettictis
civettina
civitatis
ckolnik
cladorhynchus
claessen
clamator
clamitans
clancey
clanga
clangula
clara
claravis
clarkei
clarkii
clarus
claude
clavium
cle
cleberi
cleesei
clelland
clementae
cleopatra
clepticus
cleptornis
clibanornis
clidomys
climacteridae
climacteris
clinton
close
cloud
clovis
clunius
clusius
clymene
clyomys
clytoceyx
clytoctantes
clytolaema
clytomyias
clytorhynchus
clytospiza
cm
cnemarchus
cnemophilidae
cnemophilus
cnemoscopus
cnemotriccus
cnipodectes
cnossius
co
coba
coca
cocalis
coccopygia
coccothraustes
coccycua
coccygis
coccymys
coccyzus
cochinensis
cochlearius
cochoa
cockerell
cockerelli
cockrum
cockrumi
coelestis
coeligena
coendou
coenensis
coenocorypha
coenosus
coereba
coeruleoalba
coetzeei
cofol
cofre
cognatus
cognition
coibae
coibensis
coimbra
coimbrai
cokii
col
colaptes
colburni
cole
colgan
colibri
coliidae
coliiformes
colinus
colius
coll
collaris
collett
colletti
colliaei
collinus
collis
collium
collocalia
colloque
colluricincla
colobinae
colobus
colocolo
coloeus
colombia
colombiana
colombianus
colomys
colonia
colonus
coloratus
colorhamphus
coludo
columba
columbiana
columbianus
columbidae
columbiensis
columbiformes
columbina
colyn
com
comata
come
cometes
commersonii
comosa
compacta
compactus
compsospiza
compsothraupis
comte
comus
con
conard
concavus
concinna
concinnus
concisa
concisor
concolor
conditor
condorensis
condylura
conepatus
confinalis
confinis
confinus
confucianus
congica
congicus
congo
congobelgica
congosorex
conilurus
coninga
conioptilon
conirostrum
connectens
connochaetes
connori
conopias
conopophaga
conopophagidae
conopophila
conostoma
conothoa
conothraupis
conoveri
conrad
conscius
consitus
consobrinus
conspicillatus
constantiae
constantinus
consul
consularis
contacts
conte
conterras
conti
continentalis
continentis
contopus
contractus
contreras
conuropsis
convelatus
convention
convergens
convexus
convolutor
conya
cookii
cooksoni
coombsi
cooper
cooperae
cooperi
cope
copei
copperbelt
coppois
copsychus
coquerel
coquereli
cora
coracias
coraciidae
coraciiformes
coracina
coracopsis
coracornis
coragyps
corapipo
corbet
corbetti
corcoracidae
corcorax
cordier
cordieri
coreana
coreanus
coreensis
corinnae
cormobates
cornalia
coronata
coronatus
corriae
corsac
corsicanus
corvidae
corvinella
corvus
cory
corydon
coryphaspiza
coryphistera
coryphomys
coryphospingus
corythaeola
corythaixoides
corythopis
corythornis
cos
coscoroba
cossypha
cossyphicula
costaricensis
costarika
costarikaf
cothurnata
cotinga
cotingidae
cotopaxi
cotterill
cottoni
cottoradunol
coturnicops
coturnix
coua
coucang
coucha
couchant
couche
coucher
couchi
couchii
coues
couesi
couguar
cour
courbet
coutourier
cowan
cowani
coward
coxenii
coyhaiquensis
coypus
cpogol
cracens
cracidae
cracticus
cranioleuca
craspedotis
crassicauda
crassicaudata
crassicaudatus
crassidens
crassirostris
crassispinis
crassodon
crassus
cratericus
crateromys
crateroscelis
cratodon
cratogeomys
craul
crawford
crawfordi
crawshaii
crawshayi
crax
cre
creagrus
creatophora
creber
creighton
cremnobates
cremnomys
cremoriventer
crenata
crenulata
creper
crepuscula
crespo
cretensis
cretica
creticus
cretzschmar
creurgops
crex
cricetidae
cricetinae
cricetomyinae
cricetomys
cricetulus
cricetus
crinifer
crinifrons
criniger
crinitus
crispus
cristata
cristatus
cristicauda
cristina
cristo
cristobalensis
crithagra
crnikovac
croatia
croatian
crocias
crocidura
crocidurinae
crociduroides
croconota
crocuta
cross
crossarchus
crossei
crossleyi
crossleyia
crossomys
crossoptilon
crotophaga
crowther
crowtheri
cruciger
crucigera
cruesemanni
crumpi
crunomys
crusalbum
crusnigrum
cruz
cruzlimai
cryophilus
crypsirina
cryptillas
cryptochloris
cryptoleucopteryx
cryptomys
cryptophaps
cryptopipo
cryptoprocta
cryptospilotus
cryptospiza
cryptosylvicola
cryptotis
crypturellus
crypturus
ctenodactylidae
ctenodactylomorphi
ctenodactylus
ctenomyidae
ctenomys
cuanza
cuanzensis
cubanus
cuculidae
cuculiformes
cucullatus
cuculus
cug
cuge
cugexa
cuglize
cugon
cugviele
cuja
culicicapa
culicivora
culionensis
culpaeus
cultellus
culturatus
cumanicus
cumberlandius
cumingi
cundinamarca
cunealis
cunha
cunicularius
cuniculidae
cuniculus
cunninghami
cuon
cupidineus
cuppedius
cupreus
curaeus
curasoae
curassavicus
cure
curioi
curryi
cursor
cursorius
curtatus
curticeps
curvostylis
curzoniae
cuscinus
cuscomys
cuscus
cuskol
custis
custos
cutchicus
cutia
cuvier
cuvieri
cuyonis
cwade
cwol
cyanea
cyanerpes
cyaneus
cyanicterus
cyanistes
cyanochen
cyanocitta
cyanocompsa
cyanocorax
cyanograucalus
cyanolanius
cyanolimnas
cyanoliseus
cyanoloxia
cyanolyca
cyanomitra
cyanophaia
cyanopica
cyanopsitta
cyanoptila
cyanoramphus
cyanus
cyclarhis
cycloceros
cyclopedidae
cyclopes
cyclopis
cyclopsitta
cyclotis
cygnus
cylindricauda
cylindricornis
cylipena
cymbilaimus
cymbirhynchus
cynanthus
cynictis
cynocephalidae
cynocephalus
cynogale
cynomys
cynopterus
cynosuros
cyornis
cyphorhinus
cyprius
cypseloides
cypsiurus
cypsnagra
cyrenaica
cyrensis
cyrtonyx
cystophora
czechowska
d
da
dabagala
dace
dacelo
dacnis
dacnomys
dacota
dacotensis
dactylinus
dactylomyinae
dactylomys
dactylopsila
dactylortyx
dadir
dadjuga
dadjugot
daemon
daghestanicus
daginik
dahl
dahli
dajna
dajnica
dajoma
daki
dakido
dakotensis
dalafa
dale
dalebout
dall
dalli
dalquest
dalquesti
dalstroy
daltoni
dam
dama
damaliscus
damarensis
dambrensis
dame
dammah
dammermani
dan
dana
dandolena
dane
danei
danford
danfossi
daniel
dankas
danmarka
danmarkaf
danmarkavaf
dans
dao
daphaenodon
daphne
daphoenositta
daption
daptrius
dar
darefa
darehshourii
darekeugal
darfurea
darienensis
dariensis
darlingi
dartmouthi
darwini
das
dasilvai
dasycercus
dasycrotapha
dasykaluta
dasylophus
dasymys
dasyornis
dasyornithidae
dasypodidae
dasypodinae
dasyprocta
dasyproctidae
dasypus
dasythrix
dasytrichus
dasyuridae
dasyurinae
dasyuroides
dasyuromorphia
dasyurus
database
datae
datca
daubentonia
daubentoniidae
daurica
dauricus
dauurica
dauuricus
davensis
david
davide
davidi
davidiana
davidianus
davies
davis
davisi
davisoni
davon
dawsoni
dayanus
dayi
de
dealbata
deauville
deaxelol
deaxipol
deaxol
deaxukol
deba
debak
debala
debalsaci
debanyesa
debout
debrot
decem
december
decemda
decemlineata
decemoya
decitda
decitor
deckenii
deconychura
decoratus
decula
decumanus
defassa
defilippi
definitus
defriesi
defua
dega
degraaffi
degus
dehne
dei
dejeani
dejnyov
dekay
deksaf
del
delacour
delacouri
delamerei
delanymys
delator
delectorum
deleornis
deletrix
delfini
delibes
delicatulus
delicatus
delichon
delimiz
delixa
della
delomys
delothraupis
delphinapterus
delphinidae
delphinus
delphis
delt
deltamys
deltarhynchus
delticola
dem
demerarae
demidovii
demissa
den
dendragapus
dendrexetastes
dendrocincla
dendrocitta
dendrocolaptes
dendrocopos
dendrocoptes
dendrocygna
dendrogale
dendrohyrax
dendrolagus
dendromurinae
dendromus
dendronanthus
dendroperdix
dendropicos
dendroplex
dendroprionomys
dendrortyx
dene
denigratus
deninger
denis
denniae
densirostris
dent
dentatus
denti
dentifer
deomyinae
deomys
deparma
departamento
dephomys
deppei
depressicornis
depressus
depuis
der
deraniyagala
derbianus
derbyanus
dere
dermoptera
derooi
deroptyus
des
desert
deserti
deserticola
desertor
desertorum
desmana
desmarest
desmarestianus
desmarestii
desmodilliscus
desmodillus
desmomys
desmoulins
desna
desperata
destructioni
destructor
det
detumidus
deusen
deux
devant
devexus
devia
deville
devilliersi
devis
devius
dhanda
dhofarensis
di
dia
diadema
dialeucos
diamondi
dian
diana
dianae
diaphorapteryx
diard
diardi
diardii
diazi
dicaeidae
dicaeum
dice
dicei
dicerorhinus
diceros
dichotomus
dichrous
dichrozona
dichurus
dickens
dickey
dickeyi
dicki
dickman
dicrostonyx
dicruridae
dicrurus
dictator
did
didactylus
didelphidae
didelphimorphia
didelphinae
didelphis
didelphoides
didunculus
die
diego
diehli
dieppe
dierckx
diersing
dieseneri
dieterlen
dieterleni
difficilis
digdatol
digiks
digir
digit
diglossa
dilafa
dilatus
dile
dilectus
dilgavukaf
dilizer
dilk
dimidiata
dimidiatus
dinaromys
dinemellia
dingo
dingol
dinner
dinnik
dinomyidae
dinomys
dinopium
diomedea
diomedeidae
diomys
diopsittaca
dioptrica
diphyllodes
diplogale
diplomesodon
diplomys
diplothrix
dipodidae
dipodillus
dipodinae
dipodoidea
dipodomyinae
dipodomys
dippenaar
diprotodontia
dipus
dir
dirbeko
dirbekoma
dirbekora
diref
direfa
dirgasik
dis
disa
discolor
discosura
dispar
displaystyle
dissimilis
distoechurus
dit
ditions
diuca
div
divatce
divatcepe
divefa
divergens
diversicornis
diversification
diversity
diversus
dives
divkawodara
dixiensis
dixon
dixonae
dixoni
djamdjamensis
djampol
djenetol
djenol
djonga
djuna
dnipro
dnister
do
dobigny
dobson
dobsoni
dobsonia
dobsonii
doceleguas
doda
dodingae
doevaf
doggetti
dogramacii
doi
dokuchaev
dolavirol
dolichocephalus
dolichocrania
dolichonyx
dolichotis
dolichura
dolichurus
doliornis
dollman
dollmani
dollmann
dologale
dolores
dolospingus
domaniewski
domega
domelicus
domestica
domesticus
domeykoanus
dominator
domingo
dominicanorum
dominikana
dominique
dominus
domon
domorum
don
donabe
donacobiidae
donacobius
donacophilus
donacospiza
dongfangensis
dongolana
dongolanus
donna
doorsiensis
dopewa
doppelmayri
dorbignyi
dorcas
dorcatragus
dorcopsis
dorcopsulus
dordrecht
doria
doriae
dorianus
doricha
doriferus
doris
dorora
dorota
dorothea
dorsalis
dorsata
doryfera
dos
dota
doteem
dotrak
douarnenez
douceti
douglas
douglasi
douglasii
doutt
downing
doye
draco
draconilla
dracula
dragunara
drake
drale
dratcera
dravidianus
dre
drelol
dremomys
drepanis
drepanoptila
drepanorhynchus
drepanornis
dreptes
drikon
driviakol
drom
dromadidae
dromaius
dromas
dromedarius
dromiciops
dromococcyx
drouhardi
drozba
drozbeka
drozbey
drozdovskii
drumef
drummond
dryas
drymocichla
drymodes
drymophila
drymornis
drymotoxeres
dryobates
dryocopus
dryolimnas
dryomys
dryoscopus
dsinezumi
dt
du
duarte
dubach
dubius
dubna
dubois
dubost
dubosti
dubusia
ducula
dudu
dudui
dueben
dufresne
dugdol
dugi
dugon
dugong
dugongidae
duhamel
dukelsky
dulidae
dulkeiti
dulus
dulwich
dum
dumetella
dumetia
dun
dundasi
dung
dunni
dunol
duodecimcostatus
dupetor
duprasi
dupreanum
durand
durangae
durangi
durant
duranti
durden
durga
durham
durrant
durranti
dusicyon
dussumieri
duthieae
duvaucelii
duvernoy
duz
dvina
dwellings
dwigubski
dyacopterus
dybowski
dybowskii
dyck
dymecodon
dysithamnus
dysmorodrepanis
dysoni
dzaga
dzs
døden
e
eaf
eafa
early
east
eaton
eau
ebeltaf
ebeltafa
ebeltikya
ebenus
ebidus
ebii
eborivorus
ebriosus
eburneae
ecaudatus
echimyidae
echimyinae
echimys
echinatus
echinista
echinoprocta
echinops
echinosorex
echinothrix
echiothrix
echmiatsin
echymipera
echymiperinae
eclectus
ecor
ecsedensis
ectopistes
ed
eda
edarata
edax
ede
edegotuk
edeni
edgabia
edgar
edgarda
edithae
edition
editorum
edjaftol
edje
edji
edolisoma
edvard
edwardii
edwards
edwardsi
edwardsii
edwin
eestia
effera
effet
egale
egan
egretta
egudo
eha
ehrenberg
ehrenbergi
eidolon
eine
eira
eirea
eireaf
eisentraut
eisentrauti
ekibol
ekman
ekuadora
el
elachura
elachuridae
elaenia
elanoides
elanus
elaphinus
elaphodus
elaphrornis
elaphurus
elaphus
elasmodontomys
elassodon
elassodontus
elata
elater
elator
elbeli
elburzensis
eldena
eldii
eldredge
electilis
electra
electromontis
electron
electus
elegans
elegantulus
eleoscytalopus
eleothreptus
elephantidae
elephantinus
elephantulus
elephas
elera
eleusis
elgonis
elgonius
eliasi
elibatus
eligmodontia
eliomys
eliot
elisabeth
eliurus
eliweem
elizabeth
ellasa
ellen
ellerman
ellermani
ellermann
elliot
ellioti
ellipsiprymnus
ellis
ellobius
elmakol
elmibol
elminia
elmol
elongata
elrod
elsa
elseyornis
eltay
elucus
elvira
ema
emarginata
emarginatus
emberiza
emberizidae
emberizoides
embernagra
emblema
emersa
emilia
emiliae
emilianus
emily
emini
eminia
emissus
emma
emmae
emmons
emmonsae
emmonsii
emon
emotus
empidonax
empidonomus
empidornis
empire
en
enciclope
encyclopedia
end
enders
endersi
energumenos
enfant
enfants
eng
enga
enganus
engberg
engelhardi
engla
englaf
englava
englavaf
englavon
engri
enhydra
enicognathus
enicurus
enide
enixus
enk
enodes
ensifera
entatsinol
entelloides
entellus
entomodestes
entomyzon
entre
entrerianus
enudris
environs
eoglaucomys
eolagurus
eolophus
eonis
eonycteris
eophona
eopsaltria
eos
eospalax
eothenomys
eozapus
ephippiger
ephippiorhynchus
ephippium
epieni
epimachus
epimelas
epinecrophylla
episoriculus
epixanthus
epixerus
epomophorus
epomops
epsilon
epthianura
equatoris
equidae
equina
equinus
equus
eragny
erault
eremalauda
eremiana
eremicus
eremitalpa
eremodipus
eremomela
eremophila
eremopterix
erethizon
erethizontidae
erethizontinae
erhard
erhenberg
erica
ericson
erignathus
erikssoni
erinaceidae
erinaceinae
erinaceomorpha
erinaceus
eriocnemis
erithacus
erlangeri
erminea
ernest
ernstmayri
eropeplus
erpornis
erro
ertra
erubescens
ervolia
erxeben
erxleben
erythraeus
erythrarchus
erythreae
erythrocebus
erythrocercidae
erythrocercus
erythrogaster
erythrogenys
erythrogonys
erythroleucus
erythromachus
erythropitta
erythropus
erythrotis
erythrotriorchis
erythrura
es
esacus
esau
escalante
eschrichtiidae
eschrichtius
eschscholtz
escuinapae
eskimo
esmeraldae
espada
espana
espanaf
espanava
espanavaf
espanavon
est
estadi
estanciae
estaque
estor
estrilda
estrildidae
estura
estuxa
esuae
eswatini
et
ethnologue
etigo
etol
etruscus
eubalaena
eubucco
euchoreutes
euchrepomis
eucometis
eudocimus
eudora
eudorcas
eudromia
eudynamys
eudyptes
eudyptula
euge
eugenes
eugenii
eugerygone
eugralla
eulabeornis
eulacestoma
eulacestomatidae
eulagos
eulampis
eulemur
eulidia
eulipoa
eumetopias
eumomota
eumyias
eumysopinae
euneomys
euneornis
eunymphicus
euodice
euoticus
eupetaurus
eupetes
eupetidae
eupetomena
euphagus
eupherusa
euphonia
euphractinae
euphractus
euphratica
euplectes
eupleres
eupleridae
euplerinae
eupodotis
eupsittula
euptilotis
euptilurus
eurasia
eurasiatique
eurillas
eurocephalus
europa
europaea
europaeus
europaf
europafa
europe
europik
euroscaptor
eurostopodus
euryceros
eurycerus
eurylaimidae
eurylaimus
euryptila
eurypyga
eurypygidae
eurypygiformes
euryspilus
eurystomus
euryzygomatomys
euscarthmus
euschistospiza
eutamias
eutoxeres
eutrichomyias
eutriorchis
eutropia
euxanthus
euxerus
eva
evagor
evansi
everetti
evergladensis
evermanni
eversmanii
eversmann
eversmanni
evexus
evilma
evirga
evla
evlon
evolution
evoronensis
evotis
evuskol
ewala
ewalafa
ewalama
ewalatum
ewaleem
ewava
exalbidus
excalfactoria
excelsior
excelsus
excubutor
exgeanus
exiguus
exilis
exilisciurus
eximius
exists
exitus
exoleta
expulsus
extimus
extractus
exulans
eyaf
eydoux
eyra
eyton
eyundol
eyundukol
ez
ezlopik
f
fa
faafinarol
fabricius
factbook
fada
fadaf
fagani
fagundes
falcifer
falcipennis
falco
falconer
falconeri
falconidae
falconiformes
falculea
falcunculus
faldimol
faldol
faldukol
fallax
fallenda
falls
faltaf
faltafa
famatina
famatinae
familiaris
famosus
famulus
fang
fanny
fanya
faol
faradjius
farasani
fardoulisi
fasciata
fasciatus
fascicularis
fasciculata
fassini
fatio
fatuellus
faulkner
fauna
faver
fay
fe
feae
fedjushini
feiler
feileri
feistner
felem
feliceus
felidae
feliformia
felina
felinae
felipei
felipensis
felis
felix
felli
fellowesgordoni
fellowsi
felovia
fels
felten
felteni
felusik
femme
femmes
femoralis
fenestratus
feng
fennicus
fenton
fentugal
fentugalaf
fentugalon
ferdinand
ferenc
fereon
feresa
ferghanae
fergussoniensis
ferme
ferminae
ferminia
ferna
fernandinae
fernandoni
feroculus
ferox
ferrari
ferrarii
ferreogrisea
ferreus
ferrilata
ferruginea
ferrugineus
fertilis
ferus
fervidus
festa
festina
fetisov
fetosus
feyerabend
fi
fiber
ficedula
fieldi
fierdol
figginsi
figurines
filchneri
filho
fille
filles
fimbriatus
finlayson
finlaysonii
finsch
finschi
fintar
fiona
fird
firday
firouzi
fischer
fischeri
fisheri
fitzgibbon
fitzinger
fitzroyi
fjeldsa
flagey
flaherty
flamarioni
flammifer
flannery
flavescens
flavicans
flavicauda
flavicaudatus
flaviceps
flavicollis
flavidens
flavidus
flavifrons
flavigula
flavigularis
flavimanus
flavior
flavipes
flavissimus
flavius
flaviventer
flaviventris
flavopunctatus
flavovittis
flavus
flaweza
flawezot
flek
fleming
flerov
fleuretae
fleurs
fli
flint
flioda
florenciae
florensis
flores
floresianus
floresiensis
floresii
floridana
floridanus
florisuga
flower
floweri
fluviatilis
fluvicola
fluvor
fo
foai
fochi
fociensis
fodax
fodiens
foetida
foina
folivora
folk
folletti
fontaine
fontanelus
fontanierii
fontinalis
for
forall
forbes
forbesi
fore
forment
formicariidae
formicarius
formicivora
formosanus
formosov
formosovi
formosus
formozov
fornesi
fornicatus
forpus
forresti
forster
forsteri
forsyth
forteyfamik
fortis
fortol
foss
fossa
fossana
fossata
fosse
fossor
fossveien
fosteri
fotsifotsy
foudia
foulehaio
fox
foxi
fr
fra
frac
fraenata
fragilicauda
franc
franca
francaf
francafa
francava
francavaf
francavon
francescae
francesco
franceville
francik
francis
francisco
francoisi
francolinus
frandseni
frankfurt
franklinii
franqueti
franz
fraser
fraseria
frater
fratercula
fraterculus
fraternus
fratrorum
fre
frechkop
frederic
fredericae
frederick
frederickena
freeden
freeman
fregata
fregatidae
fregetta
fregilupus
freitas
fremonti
frempol
frenata
frenatus
frerei
frette
frick
fridtjof
friedrich
frigicola
fringilla
fringillidae
frisch
frisen
from
frommi
frontalis
frontata
fronto
froriep
frosterus
frosti
froxaf
froxafo
frunku
frustror
fruticus
fu
fueginus
fuentes
fulgens
fulgida
fulica
fuliginatus
fuliginosa
fuliginosus
fulmarus
fulva
fulvastra
fulvescens
fulvetta
fulvicollis
fulvidina
fulvidior
fulvipes
fulviventer
fulvorufula
fulvus
fumeus
fumidus
fumosa
fumosus
funambulus
funereus
funestus
funisciurus
furax
furcifer
furnariidae
furnarius
furnessi
furo
furva
furvogaster
furvus
fusca
fuscata
fuscatus
fusciceps
fuscicollis
fuscifrons
fuscior
fuscipes
fuscoater
fuscocapillus
fuscogriseus
fuscomurina
fusconigricans
fusculus
fuscus
fusicaudus
fuzol
fwestiol
fyodor
g
ga
gaad
gaaropik
gaayano
gabbi
gabbii
gabona
gabonensis
gabriellae
gabrielle
gactornis
gadakiewega
gaderopa
gaderopaf
gaderopafa
gaderopik
gadesik
gadikya
gadikye
gaillardi
gaimard
gaimardi
galagidae
galago
galapagoensis
galbalcyrhynchus
galbol
galbula
galbulidae
galbus
galda
galdafe
galdolk
galea
galemys
galenomys
galeopterus
galerella
galericinae
galericulata
galerida
galeritus
galictis
galidia
galidictis
galidiinae
galili
gallaecius
gallardo
gallarum
gallicolumba
gallicrex
galliformes
gallinago
gallinula
gallirallus
galloperdix
gallus
galsworthy
gama
gamay
gambel
gambia
gambianus
gamda
gampsonyx
gampsorhynchus
gan
gana
ganana
gangarol
gangetica
ganzhorn
gaoligongensis
gapper
gapperi
garamantis
garbei
garbutt
garci
gardner
gardneri
gariza
garleppi
garmenjak
garnettii
garonne
garonum
garrido
garridoi
garritornis
garrod
garrodia
garrulax
garrulus
gartol
gartukol
gaspensis
gatol
gaubert
gaumeri
gaurus
gautier
gavia
gavicalis
gaviidae
gaviiformes
gaxin
gay
gazaf
gazaxo
gazda
gazella
gazellae
gazik
ge
geata
gecinulus
gedraf
gedrafa
gedrapafa
gedrosianus
gee
geeafrika
geeafrikaf
geef
geefa
geei
geeon
geesudana
geilt
geise
geissmann
geißenklo
geja
gekast
gelada
gelang
gelkeon
gelochelidon
gelt
geltron
gemaf
geminus
gena
genas
genest
genetta
genibarbis
gennaro
gennevilliers
genoways
gentil
gentileschi
gentilulus
gentim
geobiastes
geocapromys
geocerthia
geococcyx
geocolaptes
geoffory
geoffrensis
geoffroii
geoffroy
geoffroyi
geoffroyus
geogale
geokichla
geomyidae
geomys
geon
geopelia
geophaps
georg
george
georges
georgihernandezi
georychus
geositta
geospiza
geothlypis
geotrygon
geoxus
gepenol
geq
geral
geranoaetus
geranospiza
gerbe
gerbei
gerbillinae
gerbilliscus
gerbillurus
gerbillus
gerd
gerendel
germaini
germana
germanaf
germanafa
germanavaf
germanus
germany
gerone
geronefa
geroneon
geronticus
gerpi
gerrardi
gertrude
gervais
gerygone
getalte
getalteon
getalton
getulus
geuon
ghansiensis
ghosal
ghose
giao
gibbsii
giblir
gibsoni
gichiganus
gidley
giebel
giffardi
gigantea
giganteus
gigas
giglioli
gihr
gijaf
gijafa
gijapaf
gijarotif
gilberti
gilbertii
gildetca
gilesi
gill
gillespiei
gillii
gilmore
gilpin
giluwensis
gilvigularis
gilvus
gimalestur
gimpol
gindaxo
gindik
ginkgodens
ginnell
giovanni
giovannoni
giraffa
giraffidae
girbanensis
gisa
gistel
gitcabaner
gitir
giuditta
giuseppe
giva
glabafa
glaber
glacialis
glama
glamoc
glandifera
glanz
glareola
glareolidae
glareolus
glassi
glaucidium
glaucinus
glaucis
glaucomys
glauculus
glaucus
gleadowi
gliciphila
gliridae
glirina
gliroides
glironia
glirulus
glis
glise
global
globicephala
gloger
glossopsitta
gloveralleni
gloveri
glycichaera
glycifohia
glyphorynchus
glyphotes
gmelin
gmelini
gnorimopsar
gnou
go
godmani
goeldi
goeldii
goethalsia
gojukol
gola
golani
golapa
golde
golden
goldfuss
goldiei
golding
goldman
goldmani
goldmania
goleem
golenishchev
golia
goliath
golic
golunda
gominjak
goncourt
gong
gongshanensis
gonza
gonzales
gonzalesi
goodfellowi
goodman
goodpasteri
goodwin
goodwini
goral
gordon
gordoni
gordonorum
gorgasi
gorgon
gorilla
gornji
gorsachius
goslingi
gossypinus
gouazoubira
goudotii
gouen
gould
gouldi
gouldii
goundae
goura
govitaf
govitol
goyol
gozara
gr
gra
grabol
grabom
grabudol
gracilicaudatus
gracilinanus
gracilipes
gracilirostris
gracilis
gracillimus
gracula
gracupica
gradojevici
graecus
graells
graellsi
graffmani
grafisia
graham
grahamensis
grallaria
grallaricula
grallariidae
grallina
graminicola
grammomys
grammurus
grampia
grampus
granada
granaf
granafa
granafo
granarius
granatellus
granatensis
grand
grandala
grande
grandiceps
grandidier
grandidieri
grandis
grands
granger
grangeri
granjon
grant
granti
grantiella
grantii
granulipes
granvik
graomys
graphiurinae
graphiurus
grasse
grassei
grassianus
gratiosus
gratus
grau
graueri
graueria
gravipes
gravis
gray
graydidascalus
grayi
graysoni
gre
greely
greeni
greenwoodi
gregalis
gregorianus
gregorius
gregory
gregoryi
greifswald
grelt
grenadae
gressitti
grevyi
grewcockorum
greyi
griawiyisa
griawiyisi
griffith
griffithi
grimmia
grinnell
grinnelli
griseicauda
griseifrons
griseimanus
griseimembra
griseipes
griselda
griseoalbus
griseoflavus
griseogena
griseolus
griseorufus
griseotyrannus
griseoventer
griseoventris
griserufescens
grisescens
griseus
grisonax
grita
grivokasu
grobbeni
grocelon
groenlandicus
grote
group
groves
grubb
gruidae
gruiformes
grulich
grunniens
grupeckena
grupel
grupen
grupepena
gruper
grupet
grupeyer
grus
grustaks
grypus
gu
guadalcanaria
guadalupensis
guahybae
guairae
gualea
guamara
guangdongensis
guanicoe
guanta
guaporensis
guarani
guardia
guardiae
guariba
guaruba
guatemala
guatemalae
guatemalensis
guayol
guazaf
guazafa
guazikye
gubefa
gubeon
gubernatrix
gubernetes
guboyukaf
gud
guentheri
guereza
guerlinguetus
guerrerensis
guerreroensis
guevara
guiahouensis
guianae
guides
guigna
guillarmodi
guillaume
guille
guinasensis
guinea
guineae
guineensis
guira
gulaf
gulag
gularis
gulday
guldenstaedt
gulo
gulosa
gulosus
gundaf
gundi
gundlachi
gundlachianus
gunnar
gunnii
gunningi
gunnisoni
gunther
gunung
guo
gureev
guritcol
gurkha
gustac
gustaf
gustave
guthrie
guttatus
guttera
guttulus
gutturosa
guvaxa
guvaxot
guy
guyannensis
guzica
gwatkinsii
gweldipol
gyalophylax
gyas
gygis
gyldenstolpe
gymnicus
gymnobelideus
gymnobucco
gymnocaudus
gymnocercus
gymnocichla
gymnocrex
gymnoderus
gymnogyps
gymnomystax
gymnomyza
gymnophaps
gymnopithys
gymnorhina
gymnorhinus
gymnorhyncha
gymnoris
gymnotis
gymnura
gymnuromys
gymnurus
gypaetus
gypohierax
gyps
gyrator
h
ha
haagneri
haast
habbema
habessinicus
habetensis
habia
habromys
habroptila
hachette
hacketti
hadromys
hadrourus
haeckel
haematoderus
haematopodidae
haematopus
haematortyx
haemorhous
haeromys
hafferia
hafner
hagen
hageni
haggardi
hagmann
hahn
haidarum
haigi
hainaldi
hainana
hainanensis
hainanus
halcyon
haliaeetus
haliastur
halichoerus
halicoetes
hall
halland
halli
hallucatus
halobaena
halonifer
haltenorth
hamadryas
hamatus
hamburg
hamica
hamilton
hamiltoni
hamirostra
hamlyni
hammondi
han
handbook
handley
handleyi
handleyomys
hanglu
hanks
hanna
hans
hansen
hansruppi
hantu
hapalemur
hapalomys
hapalopsittaca
hapaloptila
haplochelidon
haplonycteris
haplophaedia
haplorrhini
haplospiza
happold
hararensis
hardwicke
hardy
hardyi
hare
harenna
harlan
harley
harmandi
harnieri
harold
harpactes
harpagus
harpax
harper
harpia
harpyionycteris
harpyja
harpyopsis
harrimani
harringtoni
harris
harrisii
harrison
harrisoni
harrissoni
harry
hartert
harterti
hartertula
hartlaub
hartlaubius
hartley
hartmannae
hartwigi
harveyi
harwoodi
hassama
hastata
hatfield
hatinhensis
hatt
hattai
hatti
haussa
haussanus
haussmann
haut
haute
havre
hawkeri
hayden
haydeni
hayman
hays
he
heaney
heaneyi
heavisidii
hecki
hector
hectori
hedenborgiana
hedydipna
heermanni
hefneri
heim
heimyscus
heine
heinrich
heinrichi
heinrichia
heiss
helarctos
heleia
helge
helgen
heliactin
heliangelus
helicolestes
heliobletus
heliodoxa
heliolais
heliomaster
heliopais
heliophobius
heliornis
heliornithidae
heliosciurus
heliothryx
heller
helleri
hellmayr
hellmayrea
hellwaldii
helmitheros
helogale
helopsaltes
helveolus
helvum
hemibelideinae
hemibelideus
hemicentetes
hemicircus
hemiechinus
hemigalinae
hemigalus
hemignathus
hemionus
hemiphaga
hemippus
hemiprocne
hemiprocnidae
hemipus
hemispingus
hemithraupis
hemitragus
hemitriccus
hemixos
hemmer
hemprich
hendecapleura
hendeei
hendersoni
henicopernis
henicophaps
henicorhina
henleyi
henri
henrici
henrik
henry
hensel
henseli
heptaxodontidae
heptaxodontinae
heptner
heptneri
heptopotamicus
herbert
herbertensis
herberti
herbicolus
herblay
hercegovinensis
herculais
heredia
heritage
herman
hermann
hermannsburgensis
hermaphroditus
hermitage
herna
hernandesii
hernandez
hernandezi
hernandezii
herpestes
herpestidae
herpetotheres
herpsilochmus
herreranus
hershkovitz
hershkovitzi
heslopi
hesperinus
hesperiphona
hesperius
hesperus
hessen
het
heteralocha
heterocephalus
heterocercus
heterodus
heterogeomys
heterohyrax
heteromirafra
heteromunia
heteromyias
heteromyidae
heteromyinae
heteromys
heteronetta
heterophasia
heteropsomyinae
heteropsomys
heterospingus
heteroxenicus
heteroxolmis
heude
heuglin
hewitt
hexaprotodon
hexolobodon
heymansi
hibbard
hibernica
hibernicus
hidalgo
hieraaetus
hierococcyx
higginsi
hiiumaa
hijuelos
hik
hilaire
hildegardeae
hilgerti
hill
hilliana
hillieriana
hiltonensis
hilzheimer
himalayana
himalayica
himantopus
himantornis
himatione
hindei
hinojosa
hinpoon
hinton
hintoni
hippocamelus
hippolais
hippopotamidae
hippopotamus
hippotraginae
hippotragus
hippurosus
hippurus
hircus
hirsch
hirst
hirsutus
hirta
hirtipes
hirtula
hirtus
hirundapus
hirundinea
hirundinidae
hirundo
his
hiska
hispanicus
hispida
hispidus
histoire
historical
history
histrionicus
histriophoca
histurgops
hiver
hlen
ho
hochstetter
hode
hodgson
hodgsoni
hodgsonii
hodomys
hodophilax
hoevenii
hoffeti
hoffmann
hoffmanni
hoffmannsegg
hoffmannsi
hoffmeister
hofmann
hofmeyri
hohenlohe
hohle
holden
holdereri
holding
hollander
hollandorum
hollister
hollisteri
holmberg
holochilus
holzneri
hombron
home
hominidae
homininae
hominoidea
homme
homo
homorus
hondoensis
hondurensis
honess
honfleur
honore
hood
hoogerwerfi
hoogstraal
hoogstraali
hooijer
hoojer
hooker
hookeri
hooki
hoole
hoolock
hooper
hooperi
hopiensis
hopkinsi
hoplites
hoplomyoides
hoplomys
hoploxypterus
horace
horizocerus
horizorhinus
hornaday
hornschuch
horornis
horribilis
horsfield
horsfieldii
hortulorum
hose
hosei
hosfield
hosonoi
hotsoni
hottentotus
houbaropsis
households
hova
how
howell
howelli
howi
hoyi
hoyningen
hr
hripa
hrv
hsia
hsu
http
https
hu
huachuca
huanchacae
huangensis
huangshanensis
hubbardorum
hubeiensis
huberti
hubrecht
huckaby
hucucha
hudson
hudsoni
hudsonica
hudsonicus
hudsonius
huene
huet
huey
hueyi
hughi
hugo
huixtlae
hulselmans
human
humblotia
humboldt
humboldtensis
humboldti
humboldtiana
humboldtii
humei
humeralifera
humeralis
humilis
hummelinck
hummelincki
humphreys
humulis
hungarica
hungarorum
hunteri
huronax
hurrianae
husson
hussoni
hutanis
hutterer
huttereri
hutton
huxley
huxleyi
hy
hyacinthinus
hyaena
hyaenidae
hybomys
hybridus
hydrictis
hydrobadistes
hydrobates
hydrobatidae
hydrochaeris
hydrochoerinae
hydrochoeris
hydrochous
hydrocoloeus
hydrodamalis
hydromys
hydrophasianus
hydropotes
hydroprogne
hydropsalis
hydrornis
hydrurga
hyemoschus
hylacola
hyladelphys
hylaeum
hylexetastes
hylia
hyliidae
hyliota
hyliotidae
hylobates
hylobatidae
hylocetes
hylocharis
hylochoerus
hylocichla
hylocitrea
hylocitreidae
hylocrius
hylocryptus
hyloctistes
hylomanes
hylomyoides
hylomys
hylomyscus
hylonympha
hylopetes
hylopezus
hylophaga
hylophilus
hylophylax
hylopsar
hylorchilus
hymenolaimus
hymenops
hyojironis
hyomys
hyosciurus
hypargos
hyperacrius
hyperborea
hypergerus
hyperoodon
hyperythrus
hypnelus
hypocnemis
hypocnemoides
hypocoliidae
hypocolius
hypocryptadius
hypoedaleus
hypogeomys
hypogramma
hypoleuca
hypoleucos
hypomelas
hypomicrus
hypophaeus
hypopyrrhus
hypositta
hypothymis
hypoxanthus
hypsibia
hypsibius
hypsignathus
hypsipetes
hypsiprymnodon
hypsiprymnodontidae
hyracoidea
hyrcanicus
hystricidae
hystricognathi
hystricomorpha
hystrix
i
iara
iba
ibeae
ibeanus
ibenik
ibex
ibidorhyncha
ibidorhynchidae
ibn
ibycter
ic
ica
icde
ice
ichangensis
ichihara
ichillus
ichneumia
ichneumon
ichnusae
ichthyaetus
ichthyomys
ics
icteria
icteridae
icteriidae
icterus
ictidomys
ictinaetus
ictinia
ictonyx
ictupol
ida
idahoensis
idatcol
idevol
idiopsar
idiurus
idjon
idukol
idul
idulugal
idulugalaf
idulugalon
iduna
iera
ife
ifrita
ifritidae
ignava
ignita
ignitus
igniventris
ignotus
ihering
iheringi
ii
iii
ik
ika
ike
ikovac
ikpa
iku
ikuzasa
ikz
il
ilaeus
ilana
ilanacek
ilava
ileile
ilicura
iliensis
ilimpiensis
illadopsis
illiger
illigeri
illinoensis
illuteus
ilo
ilovik
ilt
ilya
im
imaizumi
imaizumii
imarius
imbaburae
imbellis
imberbis
imhausi
imiskaf
imitabilis
imitator
immunis
imolk
imparilis
impavidus
imperator
imperfecta
imus
imwa
imwesa
imwugal
imwugalaf
imwugalon
in
ina
inaf
inafa
inafe
inafo
inafu
inaquosus
inas
inauris
inaurita
inca
incana
incanus
incaspiza
incautus
incensus
incertae
inclusus
incolatus
incomptus
incomtus
inconstans
ind
indefessus
indi
india
indica
indicator
indicatoridae
indicus
indigirka
indochinensis
indolagus
indonesia
indopacetus
indri
indriidae
industrius
indutus
ineptus
inermis
inesperatus
inexpectatus
inez
inezia
infernatus
infinitesimus
inflata
inflatus
info
infolatus
infraluteus
infulatus
infuscatus
infuscus
ingens
inger
ingrahami
ingrami
ingres
ingul
inia
inieem
iniidae
iniscatus
initis
inj
inkematol
inmollis
ino
inopinatus
inopinus
inornata
inornatus
inouye
inserta
insidiosus
insignis
insolitus
insoll
insonus
instabilis
instans
instituto
insulans
insularis
insularum
insulicola
int
inta
intaf
intafa
intafo
inte
intectus
intelligence
intensa
intensus
intercastellanus
interceptio
intermedia
intermedius
international
internationalis
internatus
internetxo
interparietalis
interpres
interrupta
intrudens
intufi
inundata
inunguis
inustus
investigator
invicta
invictus
inyoensis
inzol
ioanna
iodes
iodopleura
iole
iomys
iona
ip
ipeax
ipic
ipnaeum
ipom
ipomay
ipomiz
ipomot
ir
iraka
iraki
irana
irani
irania
iredale
irediparra
irena
irene
irenidae
irenomys
irgiz
iridophanes
iridosornis
iriomotensis
iris
irkutsk
irma
irolonis
ironokaf
irremotus
irrorata
irroratus
irrupta
irubar
irubasik
irubaxo
is
isaac
isaak
isabella
isabellae
isabellinus
isarogensis
isbn
ischyrus
ise
isen
island
islandavaf
isler
isleria
ismagilov
isodon
isolatus
isolobodon
ison
isoodon
isothrix
isphahanica
ispidina
israelita
isseli
issn
ist
istapantap
iste
istefa
isteon
istexo
isthmica
isthmicus
isthmius
isthmomys
istifa
istlente
istra
istricus
isttalte
isu
it
italia
italiaf
italiavaf
italiavon
italicus
itapeem
itatsi
itcabayol
iteem
ithaginis
itis
itna
ituriensis
ityopia
iucn
iv
ivamu
ivan
ivanitskaya
ivanovo
ivori
ivoriensis
ivrea
ixam
ixobrychus
ixonotus
ixoreus
ixos
ixtlani
iyelaf
iyelt
iz
izor
izva
izvafa
izvik
izvopa
izvopik
izvugalayak
j
ja
jabiru
jabouilleia
jacamaralcyon
jacamerops
jacana
jacanidae
jacchus
jack
jackson
jacksoni
jacobitus
jacques
jacquinot
jaculus
jacutensis
jadif
jadifa
jadion
jadiwik
jaftol
jaka
jaktol
jakutensis
jaliscensis
jamaika
james
jamesi
jameson
jamesorum
jampa
jan
janc
jane
janetta
jannic
jansa
japonensis
japonica
japonicus
jappe
jara
jardin
jardine
jardinii
jarocki
jarri
jasinsky
jaunes
javanensis
javanica
javanicus
javanus
jayakari
jaynes
jazaira
jean
jeanne
jeffersonii
jelskii
jemlahicus
jenkins
jenkinsi
jentink
jentinki
jerdon
jerdoni
jergol
jesupi
jeu
jeune
jeunes
jf
jiang
jiangkouensis
jibutia
jidol
jidoldunol
jijar
jijayar
jikel
jikelay
jime
jimela
jimenez
jingdongensis
jivot
jizdra
jo
joachim
jobiensis
joconde
johan
johann
johannes
johannis
johanssen
john
johnii
johnson
johnsoni
johnston
johnstone
johnstoni
johnstonii
jojobae
jollyae
jolonensis
jonas
jones
jonesi
jong
jontik
jontika
jontikedje
jontiko
jontikote
jontikviele
jordan
jordansi
jordon
jorge
jose
josef
josei
joseph
jotaf
jotafa
jourdan
jourdanii
jourensis
journal
jouvenetae
jowa
jowon
jr
juan
juara
juarezensis
jubatus
jubivo
jubula
jucunda
jucundus
judaei
judeae
judy
jugossicularis
juillet
julay
julayek
julayot
juldaschi
jules
juliamyia
julian
julianae
julie
juliette
juliomys
julius
jumtak
juncensis
junco
juninensis
juntae
jupar
jupiter
jura
jurado
jurgenson
juris
juruanus
juscelinomys
jusok
juste
justo
juvencus
jynx
k
ka
kaapori
kaatoer
kabay
kabdue
kabobo
kadarsanomys
kadiacensis
kadulaf
kaffensis
kafuensis
kagorol
kahari
kahuziensis
kaibabensis
kaike
kaiki
kaikion
kaiseri
kakamega
kal
kalaharica
kalaharicus
kale
kali
kaliapon
kalie
kalinowskii
kalion
kalmar
kalmykorum
kalubu
kaluga
kamenar
kameni
kamenjak
kamensis
kameruna
kamiya
kamptzi
kamtcatka
kamtschadalica
kamtschaticus
kan
kanada
kanchil
kandti
kane
kaneii
kangeanus
kangurol
kannabateomys
kano
kansuensis
kantor
kanuri
kao
kaokensis
kapbure
kapiti
kappeler
kappleri
kara
karabagh
karagan
karaginensis
karami
karamii
karasensis
karda
kare
karelini
karen
karguol
kariba
karimii
karimondjawae
karl
karlkoopmani
karpathorum
kartavseva
karvedol
karvemol
karvol
karvukol
kas
kasela
kaselica
kashkarov
kasi
kassari
kastchenko
kastschenko
kastschenkoi
katangae
kataui
katca
katceem
katcolk
katherine
kathiah
kathleenae
katinka
katite
katschemakensis
kaup
kaupifalco
kawoda
kawodafa
kawopik
kawot
kaxfanol
kaxtanol
kay
kazawar
kazaxo
kazbegica
kazuo
ke
keasti
keaysi
keeni
kefeliog
kelaart
kelaarti
kelabit
kelda
kelleni
kellog
kellogg
kelloggi
kelor
kelot
kelson
kelt
keltie
kelu
kempi
kenaiensis
kene
kenenina
kengee
keniae
kenibesa
kennedy
kennicott
kennicottii
keno
kenopia
kentacek
kentalte
kenthal
kenya
kenyoni
kepaita
kera
kerabau
keraf
kerafa
keramae
kerbis
kerdela
kereler
kereleyer
kerjenets
kerkhoveni
kermodei
kermouster
kernensis
kerodon
kerr
kerri
kershaw
kerstingi
keska
ketupa
ketyanya
kev
keve
kevmadara
kexuca
keyol
keyserling
kg
khajuria
khan
khur
ki
kiang
kiblayan
kiboko
kibonotensis
kielcek
kierulff
kiesling
kihaulei
kiiz
kiizey
kikuchii
kikuyuensis
kilimanjaro
kilwa
kima
kimi
kind
kindae
king
kingdon
kinlochii
kinoensis
kinzol
kipi
kipling
kipsay
kipsayok
kira
kirchenpaueri
kire
kiren
kirenga
kiria
kirjatc
kirk
kirka
kirkii
kirov
kirsch
kirtlandi
kiselyov
kishida
kisiwani
kitchener
kivu
kivuana
kivuensis
kizer
klaim
klais
klamathensis
klaptocz
kle
klepa
klepapa
klicka
klita
klobuc
klobuk
klodt
kloss
klossi
klossii
kluchorica
klyazma
km
knekus
knez
knighti
knipolegus
knoxjonesi
knutsoni
ko
koalol
kob
koba
kobara
kobasik
kobasikeem
kobaso
kobayashi
koblid
koblira
kobosensis
kobus
koch
kock
kocopa
kocopik
kodarensis
kodarol
kodiacensis
koe
koefa
koenir
koettlitz
koexo
kofordi
kogia
kohl
koiropotamus
kokcaga
kolavara
kolavasa
kolavasik
kolavasikya
kolavasikye
kolbi
kolesnikov
kolima
koljuschev
kollman
kollmannspergeri
kolna
kolom
kolombia
kolymensis
komarek
komi
komo
komodomys
komoria
kompanje
komsomol
kona
konak
konaka
konakara
konaki
konako
kondana
kondensis
konganensis
kongensis
kongo
kongoa
konig
konir
konstant
koo
koonir
koopmani
kopschi
kor
kordofanicus
kore
koreensis
koriakorum
korik
korinchi
koritnjak
kornat
kornati
korneev
korobik
korrigum
korzuxin
koshewnikowi
kosik
kosikeem
koslowi
kosmayad
kosmayar
kostroma
kosuteks
koswavayar
kot
kota
kotaf
kotafa
kotapedia
kotava
kotca
kotceem
koteivoira
kotiya
kotlize
koton
kotrafa
kotsakis
kottan
kotuy
kotviele
kou
kovalskaya
kovoa
kovoapa
kovoasa
kovoaxo
kovoon
koyara
koyutarula
kozhevnikovi
kozlovi
kraemeri
kraimol
krant
krapol
krapoldunol
krasnoyarsk
kratochvi
kratochvil
krauss
kraytacek
krda
krebsii
krefft
krefftii
krent
krepay
krepayot
kretami
kretsa
kretzoi
kreyaf
krijol
kril
krima
krimpa
krimta
krimtafa
krimtaxo
krimteem
krist
kristevafa
kristos
kriz
krpeljina
kruba
krugeri
krulded
krulder
kruldera
kruldesa
krys
ku
kuba
kudja
kudjot
kudjotya
kuhl
kuhlii
kuhn
kuhni
kuiper
kuksa
kuksama
kuksapa
kuksaxo
kulaf
kulan
kulinae
kulj
kum
kunkel
kunsi
kunsia
kupeornis
kurba
kurbaxo
kurdistanica
kuroda
kurodai
kuru
kurusta
kusk
kusnotoi
kustrol
kutab
kutas
kutcara
kuznetsov
kuzol
kvinne
kvinner
kwabe
kwaf
kwango
kwanza
kwatikol
kwoyol
l
la
labiatus
labilis
labiosus
laborifex
labradorensis
labradorius
lac
lace
lacedo
lacepede
lachuguilla
lacrymalis
lactens
lacustris
ladacensis
lademanni
ladewi
ladogensis
lae
laenatus
laevipes
lafresnaya
lafresnaye
lagenodelphis
lagenorhynchus
laghouat
lagidium
lagny
lagochilus
lagomorpha
lagonosticta
lagonotus
lagopus
lagorchestes
lagostomus
lagostrophus
lagothrix
lagotis
lagotricha
lagunae
lagurus
lahille
laingi
lake
lakedownensis
lakro
lalage
lama
lamara
lamarum
lambare
lambert
lambertoni
lambey
lambi
lami
lamia
laminatus
lamone
lamotte
lamottei
lamottemys
lampensis
lampia
lampornis
lamprolaima
lamprolia
lampropsar
lamprospiza
lamprotornis
lamula
lan
lana
lanatus
lancasteri
lancavensis
land
landscape
landschaft
landskap
lang
langbianis
langguth
langheldi
langi
langsdorffi
language
laniarius
laniger
lanigera
laniidae
laniisoma
lanio
laniocera
lanioturdus
lanius
lanka
lankavensis
lankester
lanon
lanosa
lanosus
lanuginosus
lanyon
lanyona
laosiensis
laotum
lapini
laptev
laptevi
lar
lara
larde
largha
laricorum
laridae
lariscus
laristanica
larkenii
larosterna
larry
larsen
larus
larvata
larvatus
larvivora
lascivus
lasiae
lasiopodomys
lasiorhinus
lasiotis
lasiotus
lasiura
lasiurus
lasius
last
lataste
latastei
lataxina
latebricola
lateralis
laterallus
lateris
latham
lathamus
lathrotriccus
laticaudatus
laticeps
laticilla
latidens
latifrons
latijugularis
latimanus
latinava
latinavon
latinorum
latipes
latirostra
latirostris
latona
latouchei
latrans
latrator
latro
latronum
latus
latvia
laucha
laumara
laura
laurenteus
laurentianus
laurie
laurillard
lava
lavada
lavarn
lavauden
lavaxo
lavdara
lavek
laverde
lavok
lavopafa
lavrenchenko
lavsa
lawesii
lawlor
lawrancei
lawrence
lawuana
laxmann
lay
layardi
layardii
lazell
ldensta
ldenstaedt
le
lea
leach
leadbeateri
leakyi
leander
lebaca
lebafa
lebasque
lebikya
lebombo
leca
leche
lecompte
leconte
lee
legata
legatus
leger
leggadina
legge
lehilahytsara
lehmann
lehmanni
lei
leigh
leightoni
leimacomys
leiopicus
leiothlypis
leiothrichidae
leiothrix
leipoa
leistes
leite
leithiinae
lekeon
lekeraporugal
lelwel
leman
lemkei
lemminus
lemmiscus
lemmus
lemniscatus
lemniscomys
lempol
lemur
lemuridae
lemuriformes
lemurinus
lemuroidea
lemuroides
lemurs
lena
lenglet
lenguarum
leniceps
lenis
lenomys
lenothrix
lenoxus
lente
lentefa
lenteon
lenton
lentor
lentrone
lentroneon
lenttalte
lenttalteon
lentulus
lentuon
leo
leon
leonardina
leonensis
leonina
leonis
leontopithecus
leopardus
leopoldamys
lepida
lepidocolaptes
lepidopyga
lepidopygia
lepidothrix
lepidura
lepidus
lepilemur
lepilemuridae
leporidae
leporides
leporillus
leporina
lepri
leptailurus
leptasthenura
leptoceros
leptocoma
leptodactylus
leptodon
leptomys
leptonychotes
leptonyx
leptopoecile
leptopogon
leptopterus
leptoptilos
leptosittaca
leptosomidae
leptosomiformes
leptosomus
leptotila
leptotrygon
lepturus
lepus
lerde
lerdeaksat
lerdoy
lereboullet
lernould
lervia
lerwa
les
lesbia
leschae
leske
lesko
lesotoa
lessa
lessing
lesson
lessonia
lestes
lestodelphys
lestoros
lestradei
lesueur
lesueurii
letaxo
letifera
leucas
leucippe
leucippus
leuckart
leucobaptus
leucoblephara
leucocarbo
leucocephalus
leucochloris
leucodactylus
leucodon
leucogaster
leucogenys
leucogeranus
leucolaemus
leucolimnaeus
leucomus
leucomystax
leuconedys
leuconota
leuconotopicus
leuconotus
leucoparia
leucopeza
leucophaeus
leucops
leucopsar
leucopternis
leucopus
leucorhinus
leucoryx
leucosarcia
leucosticte
leucostictus
leucostigma
leucostomus
leucotis
leucoumbrinus
leucourus
leucura
leucurus
lev
levaala
levantis
leve
levetirik
levi
levicula
levidensis
levipes
levis
levitan
levrnaka
lewinia
lewis
lewisi
lexa
lez
lgm
lhasaensis
lhoesti
li
libakol
liberia
liberiensis
liberiictis
libia
libidinosus
libol
liboldunol
libreville
libur
liburnau
liburni
libyca
libycus
lichenostomus
lichenstein
lichmera
lichtenstein
lichtensteini
lichtensteinii
licite
lickuca
lidam
lidawicka
lidicker
lidya
lie
liechtensteini
lietuva
life
lignicolor
ligoni
likhnova
likon
lilaeus
lilkol
lilljeborg
lima
limatc
limatus
limbatus
limbekol
limbol
limicola
limitaneus
limitaris
limitis
limnitsya
limnoctites
limnodromus
limnogale
limnomys
limnophilus
limnornis
limnothlypis
limosa
limosus
limpiae
limpopoensis
linaria
lindberghi
linde
lindemayer
lineatus
lingae
linge
lingeks
lingeropa
lingesik
lingexo
lingeyer
link
linnaeus
linsang
linsdale
linulara
linulus
linurgus
liocichla
liomys
lioparus
lioptilus
liosceles
lipara
lipaugus
lipostictus
lipotes
lis
lisant
lisboa
lise
lissodelphis
lissonycteris
lissotis
list
listikya
lithophilus
litocranius
litoreus
litoris
littledalei
littoralis
litvinov
liv
livingstone
livingstonei
livingstonianus
liwot
liwotak
lix
lixus
lize
lizor
lizukaf
lizukafa
ljetopis
llanensis
ller
lo
loa
loandae
loandicus
lobeliarum
lobodon
loboparadisea
lobotos
loche
lochmias
locks
lockwoodi
locustella
locustellidae
lodabrotcaf
lodam
loddigesia
loderi
lodorikaf
loedje
loeke
loempo
lofta
logijaf
logijafa
loire
lok
lokiewafa
lokon
lokriah
lokroides
loloon
loma
lonchothrix
lonchura
london
lonetal
long
longchamps
longicauda
longicaudata
longicaudatus
longicaudis
longicaudus
longiceps
longilingua
longimembris
longipes
longipilis
longirostris
longman
longrightarrow
lonnbergi
lontra
loon
loote
lopes
lopez
lophaetus
lophiomys
lophocebus
lophoceros
lophochroa
lophodytes
lophoictinia
lopholaimus
lophonetta
lophophanes
lophophorus
lophopsittacus
lophorina
lophornis
lophospingus
lophostrix
lophotibis
lophotis
lophotriccus
lophotriorchis
lophozosterops
lophura
lophuromys
lophurus
lopinafa
lopokefa
loquax
lordi
lorentzi
lorentzii
lorentzimys
lorenz
lorenzi
lorenzo
loriae
loriculus
lorik
loringi
lorini
loris
lorisidae
lorisiformes
lorius
loror
lorraineus
los
loschalchalerosorum
losea
lospa
lospama
lotkol
lotor
lou
loue
louiei
louis
louisae
louise
loup
louveciennes
louvre
lovati
loveridge
loviele
lowei
lowery
loweryi
lowi
lowii
lowkashkin
loxia
loxigilla
loxioides
loxipasser
loxodonta
loxodontomys
loxops
lozolonafa
lu
lualabae
luanda
lubek
luc
lucani
lucasana
luce
luci
luciae
lucida
lucidus
lucifer
lucifugus
lucina
lucmarinjak
lucrezia
lucrificus
luctuosa
ludev
ludia
ludibundus
ludlowi
ludovicianus
lugens
lugubris
luigi
luis
lukar
lukarica
lukens
lukolelae
lukoptaf
lukoptafa
lullula
lullulae
lum
lumholtzi
luna
lunaris
lunata
lunatus
lund
lunde
lundholm
lundi
lundomys
lunga
lunia
lunulatus
luo
lupaster
lupinus
lupus
luridavolta
lurocalis
lus
luscinia
luscus
lusitania
lusitanicus
lut
lutaoensis
luteicollis
luteiventris
lutensis
luteogaster
luteola
luteolus
lutescens
luteus
luther
lutillus
lutra
lutreola
lutreolina
lutreolus
lutrinae
lutris
lutrogale
lutulentus
luva
lux
luxe
luxemburg
luzmicel
luzonensis
luzonicus
luzoniensis
lya
lybica
lybiidae
lybius
lycalopex
lycaon
lychnuchus
lycocorax
lycoides
lydekker
lydekkerianus
lyelli
lylei
lymani
lymnocryptes
lynam
lyncodon
lyncornis
lyne
lynx
lyon
lyoni
lyratus
lyrurus
lys
lysteri
m
ma
mababiensis
mabel
mabirae
macaca
macaco
macarthuri
macarthurii
macassaricus
maccarthiae
macconnelli
maccoyi
macculus
macdonaldi
macdonnellensis
macdougalli
macedonicus
macgregoria
machado
machaerirhynchidae
machaerirhynchus
machaeropterus
macheiramphus
machetes
machetornis
machlolophus
machrinoides
machrinus
mackenziaena
mackenziei
mackenzii
mackilligini
mackinderi
mackinlay
mackloti
maclay
macleari
macleay
macleayi
macmillani
macneilli
macowi
macra
macroagelaius
macrocephalon
macrocephalus
macrocercus
macrocorpus
macrodon
macrogalidia
macrogeomys
macroglossus
macronectes
macronus
macronyx
macrophonius
macropodidae
macropodiformes
macropodinae
macropsalis
macropus
macropygia
macrorhinos
macrorhynchus
macroscelidea
macroscelides
macroscelididae
macrosceloides
macrosensis
macrosphenidae
macrosphenus
macrotarsomys
macrotis
macroura
macrourus
macrura
macruromys
macrurus
maculata
maculats
maculatus
maculicollis
madagascar
madagascariensis
madagasikara
madame
maddalena
madeirensis
madeleine
madogae
madonna
madoqua
madrensis
madromys
maenas
mafia
magadan
magdalena
magdalenae
magdalenian
magellanicus
mageshimae
maghrebi
magister
magna
magnificus
magriba
magumma
magyara
maharadatunkamsi
mahomet
mai
mailer
mailliard
maimanah
maini
maison
maisons
maji
major
majori
majoriae
majusculus
makalata
makedonia
makkovikensis
mal
mala
malabaricus
malaccana
malacocincla
malacomys
malaconotidae
malaconotus
malacopteron
malacoptila
malacorhynchus
malacothrix
malaitensis
malamud
malawi
malawia
malayana
malayanus
malcorus
maldonado
male
malec
malestur
malestura
malestus
malherbe
mali
malia
malimbus
malindangia
malitiosus
mallard
mallodelphys
mallomys
mallurus
malpaisomys
malsaver
malta
maluridae
malurus
malygin
malyopasik
mamadasa
mamewavaxa
mamfol
mamiratra
mammal
mammalia
mammelomys
mammuthus
mamorae
man
mana
manacus
managuensis
manatus
manavi
manchurica
mandarin
mandarinus
mandingo
mandingoa
mandjarum
mandrillus
mandshuricus
manengubae
manguensis
manicorensis
maniculatus
manidae
manipulus
manirtel
manis
manitobensis
manium
mann
manni
manningi
manorina
mansuetus
mantaf
mantafa
mantchurica
mantchuricus
mante
mantiqueirensis
manton
mantschuricus
manucodia
manul
manyadol
manyara
manyevol
manyukol
maquassiensis
maracaibensis
maracajuensis
maral
marat
maraxica
maraxina
marcai
marcanoi
marcel
marche
marchei
marchio
marcrurus
mare
mareca
mareeba
mares
margaret
margaretamys
margarettae
margarita
margaritae
margarobyas
margaroperdix
margarops
margarornis
marginata
marginatus
margotmarshae
marguerite
mari
maria
marianensis
marianna
marica
marie
marine
marinensis
marinhus
marinus
mario
mariol
mariposae
mariquensis
maritimensis
maritimus
mariupol
marjoriae
marjorita
mark
markhami
marleyi
marly
marmaronetta
marmorata
marmosa
marmosops
marmosurus
marmota
marne
marquet
marrensis
marseille
marshall
marshalli
marsupialis
marta
martensi
martes
marthe
martiensseni
martig
martin
martinensis
martinez
martini
martino
martinoi
martins
martinsi
martirensis
marungensis
mary
maryanto
marylandica
masae
masai
masalai
masarine
mascarenotus
mascarinus
mascotensis
maseru
masius
maslinjak
massaesyla
massaica
massaicus
massoia
massoutiera
mastacalis
mastacomys
mastomys
matabiru
matacus
matagalpae
matambuai
matanim
matela
mathbb
mathe
mathews
mathieu
matin
matiques
matrix
matschie
matschiei
matt
matteo
matthew
matthewsi
mattheyi
maubuisson
mauesi
maui
maulinus
maullinicus
maun
maupassant
maura
maurice
maurin
maurisca
mauritaniae
mauritia
mauritius
mavian
mawa
max
maxi
maxima
maximilien
maximowiczii
maximus
maxomys
maxwelli
maxwellii
mayensis
mayeri
maynardi
maynes
mayori
mayri
mayrornis
mayumbicus
maza
mazak
mazama
mazedol
mazenod
mazol
mbaiso
mbox
mcclelland
mcclellandii
mcclintock
mccoy
mcfarland
mcfarlane
mcilhennyi
mckenzie
mclaughlin
mcmurtrie
mcmurtry
mcpherson
me
mea
mead
mearns
mearnsi
mearnsia
mearsi
mechowi
mecocerculus
med
medellinensis
medellinia
medemi
medicaudatus
medina
mediterranea
medius
medjianus
medjitol
medjol
medvedev
medveditsa
medway
meester
meesteri
mefta
meftafa
meftava
meftavaf
meftavafa
meftaxo
megabyas
megacephalus
megaceros
megaceryle
megacrex
megadendromus
megadontomys
megadyptes
megaerops
megalaimidae
megalampitta
megalodous
megaloglossus
megalomys
megalonychidae
megalonyx
megalops
megalotis
megalotus
megalura
megalurus
megaoryzomys
megapodiidae
megapodius
megapotamus
megaptera
megarynchus
megascapheus
megascops
megasorex
megaspila
megastictus
megatriorchis
megaxenops
megazosterops
megenol
megol
megoldunol
megrupena
megudol
meier
meiglyptes
meila
meinertzhagen
meinertzhageni
meisje
mek
meka
mekisturus
melaenornis
melalophos
melampeplus
melampitta
melampittidae
melamprosops
melampus
melancoryphus
melanerpes
melania
melaniparus
melanitta
melanius
melankoli
melanocarpus
melanocephalus
melanochaita
melanocharis
melanocharitidae
melanochir
melanochlora
melanochra
melanocorypha
melanodera
melanodryas
melanogaster
melanoleuca
melanoleucus
melanomys
melanonyx
melanopareia
melanopareiidae
melanopepla
melanoperdix
melanophrys
melanops
melanopterus
melanoptila
melanorectes
melanorheus
melanospiza
melanotis
melanotus
melantho
melanura
melanurus
melas
melasmothrix
melchior
meld
meleagris
meles
meliarchus
melichneutes
melidectes
melidora
melierax
melignomon
melilestes
melini
meliphaga
meliphagidae
melipotes
melithreptus
melitograis
mellandi
melleri
mellisuga
mellivora
mellonae
melloria
mellot
melocichla
melogale
melomys
melonycteris
melopsittacus
melopyrrha
melospiza
melozone
meltada
melursus
melzolk
meminna
menagensis
menamicus
mendelssohn
mendeni
mendes
mendocinus
mendosus
meneleki
meneliki
menetes
mengermani
menges
menglaensis
menglalis
menn
ment
mentawi
menton
menura
menuridae
menzbier
menzbieri
menzies
mephistophiles
mephitidae
mephitis
mer
mera
merganetta
mergatus
mergellus
mergulus
mergus
meridae
meridensis
meridianus
meridionalis
merikol
meriones
meritus
merna
meropidae
meropogon
merops
merrem
merriam
merriami
mertens
mertensi
meru
merulaxis
mesechinus
mesembrinibis
mesembrinus
mesembriomys
mesey
mesidios
mesitornis
mesitornithidae
mesitornithiformes
mesocapromys
mesocricetus
mesomelas
mesomys
mesoplodon
mesopolius
mesopotamiae
mesopotamica
messorius
met
metabolus
metachirus
metallura
methi
metopidius
metopothrix
metriopelia
mewa
mexianae
mexicalis
mexicana
mexicanae
mexicanus
mexika
mexikaf
meyen
meyer
meyeri
meyers
mez
mezen
mhorr
mialon
mialukaf
mialukafa
mialukon
micaelamys
mical
michael
michaeli
michaelis
michel
michianus
michnoi
mico
miconax
micoureus
micrastur
micrathene
microakodontomys
microbates
microbiotheria
microbiotheriidae
microbullatus
microcarbo
microcavia
microcebus
microcerculus
microchera
microdillus
microdipodops
microdon
microdynamis
microeca
microgale
microgoura
microhierax
microhydromys
microlagus
microligea
micromacronus
micromonacha
micromurexia
micromys
micronisus
microparra
microperoryctes
microphthalmus
micropotamogale
microps
micropsitta
micropternus
micropteropus
micropus
micropygia
microrhopias
microryzomys
microsciurus
microstilbon
microtarsus
microtinus
microtis
microtus
microxenops
micrura
micrurus
micrus
midas
middendorff
middendorffi
middendorffii
midi
miel
mielaf
mielcek
mielon
migona
migratorius
miguel
migulin
mikan
miklo
miklouho
mikra
mikronesia
mila
milanoii
mile
miletus
milkatcik
millais
millardi
millardia
miller
milleri
millet
milleti
millicens
millsi
milne
milneedwardsii
miltazukaf
milvago
milvus
milyoltafa
mimax
mimetra
mimicus
mimidae
mimulus
mimus
minahassae
mincae
mindanensis
mindegol
mindorensis
mindorus
minensis
miniatus
minima
minimus
mink
minla
minnae
minnesota
mino
minor
minoricensis
minous
minusculus
minutissimus
minutoides
minutus
mionectes
miopithecus
miquihuanensis
mira
mirabilis
mirae
mirafra
miranda
mirapitanga
miravallensis
mirbeau
mirgorod
mirounga
mirus
mirza
miscix
mishra
misionensis
misonne
misonnei
misra
misraf
missouriensis
mistral
mit
mitchelli
mitchellii
mitchill
mitis
mitrata
mitratus
mitrephanes
mitrospingidae
mitrospingus
mittendorfi
mittermeier
mittermeieri
mitu
miurus
miv
mivart
mivdelt
mixail
miya
mizura
mjo
mladinj
mmler
mniotilta
mo
moava
moavukaf
modes
modestus
modicus
modigliani
modulatricidae
modulatrix
moe
moekote
moeliker
moellendorffi
moerescens
mogera
mogollonensis
mohavensis
moho
mohoidae
moholi
mohoua
mohouidae
moi
moire
mokca
mola
molaris
molat
moldova
molecular
molina
molinae
molitor
mollicomulus
mollipilosus
mollis
moloch
mologa
moloneyi
molothrus
molt
moltam
moluccensis
moma
momonga
momotidae
momotus
mon
mona
monachella
monachus
monarcha
monarchidae
monard
monardi
monasa
monastery
monax
monaxo
moncktoni
mondolfi
mone
monet
mongola
mongolica
mongolicus
mongoz
moni
monias
monoceros
monochromos
monodelphis
monodon
monodontidae
monoensis
monoides
monotremata
monsieur
monstrabilis
monstrosus
montagne
montagu
montague
montana
montanus
monte
montebelli
montecincla
monteiri
montenegrina
montensis
montereyensis
montfoucault
monticola
monticolomys
monticolus
monticularis
montifringilla
montis
montivaga
montmartre
montosa
monuments
moo
moojen
moojeni
moonsund
moorcroft
moore
moorei
mooreorum
mordax
mordeni
mordosus
moreni
moreotica
moresbyensis
morgan
morgani
morgen
mori
morio
morococcyx
morosa
morotaiensis
morozova
morphnarchus
morphnus
morrison
morroensis
mort
morte
morton
morulus
morus
mosanensis
moschata
moschatus
moschidae
moschiferus
moschiola
moschus
moskva
mosquensis
mossambica
mossambicus
mot
motacilla
motacillidae
mottoulei
motuoensis
mouhotei
moukol
moukolaf
moukolafa
moukolafi
moukolam
moulthrop
mount
mountain
mountains
moupinensis
moupinia
mouse
mouthier
mozambika
mrtovac
mrtovnjak
mt
mu
muelleri
muenninki
muenzneri
mugosaricus
muhu
muirhead
mujanensis
mukoda
mulatta
muliensis
mullah
mulleripicus
mulsant
multatuli
multiaculeatus
multicolor
multiplex
multivittata
munbyanus
munch
munda
mundia
mundus
mungo
mungos
mungotictis
munoai
muntiacus
muntjak
muoga
mupinensis
murelia
murexechinus
murexia
muriavensis
muricauda
muriculus
muricus
muridae
murie
murina
murinae
murinauralis
murinus
muritania
muroidea
muroides
murphy
murray
murrayi
murs
mursavi
murtoy
murtoyek
murtoyuk
mus
musanga
muscardinus
muscatensis
muscicapa
muscicapella
muscicapidae
muscigralla
muscipipra
muscisaxicola
musculinus
musculoides
musculus
musicus
musimon
musique
musophaga
musophagidae
musophagiformes
musschenbroekii
musser
musseri
mussoi
mustela
mustelidae
mustelinae
mustelinus
musteloides
mutabilis
mutacek
mutcol
mutcumol
mutesae
mutgigella
mutoni
mutus
muva
muvacek
muvakorackafa
muvareka
muvugal
muvugalaf
muvugalafa
muvugalon
muyskunol
myadestes
myanma
mycerobas
mycteria
mydaus
myers
myiagra
myiarchus
myiobius
myioborus
myiodynastes
myiomela
myiopagis
myioparus
myiophobus
myiopsitta
myiornis
myiotheretes
myiothlypis
myiotriccus
myiozetetes
mylomys
mynomes
myocastor
myocastoridae
myodes
myoictis
myoides
myomimus
myomorpha
myomyscus
myonycteris
myophonus
myoprocta
myops
myopus
myornis
myosciurus
myosorex
myosoricinae
myospalacinae
myospalax
myosuros
myot
myotomys
myoxinus
myrmeciza
myrmecobiidae
myrmecobius
myrmecocichla
myrmecophaga
myrmecophagidae
myrmelastes
myrmia
myrmoborus
myrmochanes
myrmoderus
myrmophylax
myrmorchilus
myrmornis
myrmothera
myrmotherula
myrtis
mysateles
mysoliae
mystacalis
mystacinus
mystacornis
mystax
mysticeti
mysticetus
mystromys
myurus
myza
myzomela
myzornis
mzabi
n
na
nabala
naboxa
nacional
nadeev
nadejda
nader
nadim
nadler
naemorhedus
nafalik
nagorno
nagtglasii
nair
nairobae
naivashae
nakila
nakwarolara
namaquensis
namibensis
namibia
namibornis
namiyei
namulol
nana
nancillus
nancyae
nancymaae
nandinia
nandiniidae
nanger
nangqenica
nanilla
nankey
nankeyot
nannococcyx
nannodes
nannomys
nannopsittaca
nannosciurus
nanonycteris
nansen
nanus
napaea
napaeozapus
napi
naples
napole
napoli
napothera
naptey
napu
nara
narda
naria
narica
narilt
nariltap
narin
narmol
narmukol
nasalis
nasica
nasicus
naso
nasoloi
nasomaculatus
nasonov
nassau
nasua
nasuella
nasuta
nasutus
natalae
natalensis
natalie
natanson
national
nationi
nativitatis
natterer
nattereri
natunae
natunensis
nature
naumann
naumov
nautica
nauticus
navigator
navus
nayaritensis
nayaur
nazbalkera
nazbar
nazbeik
nazbeikya
nazi
ncbi
nchez
nde
ndez
ne
neacomys
neafrapus
neal
neamblysomus
near
neavei
neblina
nebulicola
nebulosa
nebulosus
necator
necopinus
necromys
necropsar
necropsittacus
necrosyrtes
nectarinia
nectariniidae
nectogale
nectomys
nederlanda
nederlandaf
nederlandavafo
nefasatol
nefasesatol
negans
negatus
neglecta
neglectus
negligens
negrensis
negrina
negrinus
negrosensis
nehring
nehringi
neige
neill
neilli
nek
neken
nekev
nekir
nelkaf
nelkafa
nelkon
nelkot
nelson
nelsoni
nelsonia
nemaeus
nemestrina
nemoralis
nemorivaga
nemosia
nemunas
neobalaenidae
neobritannicus
neocaledonica
neocenus
neochelidon
neochen
neochmia
neocichla
neocossyphus
neocrex
neoctantes
neodon
neodrepanis
neofelis
neofiber
neohylomys
neolalage
neolestes
neomexicanus
neomixis
neomorphus
neomys
neopelma
neophascogale
neophema
neophoca
neophocaena
neophron
neopipo
neopsephotus
neopsittacus
neopteryx
neosittidae
neosuthora
neotamias
neotetracus
neothraupis
neotis
neotoma
neotominae
neotomodon
neotomys
neotragus
neovison
neoxolmis
nepalensis
nephelomyias
nephelornis
nereis
nergie
nerl
nero
nerskaya
nesaeus
nesasio
nesillas
nesiotes
nesioticus
nesiotites
neskinn
nesocharis
nesoclopeus
nesoctites
nesoenas
nesofregetta
nesokia
nesolagus
nesolestes
nesomyidae
nesomyinae
nesomys
nesonycteris
nesophila
nesophilus
nesophontes
nesophontidae
nesopsar
nesoptilotis
nesoromys
nesoryzomys
nesospingidae
nesospingus
nesospiza
nesotriccus
nesterovi
nestor
net
netscheri
netta
nettapus
neubronneri
neuf
neumann
neumanni
neurotrichus
neustadt
neusticomys
neuville
neuwied
neva
nevada
nevadensis
nevo
nevoyol
new
newcomb
newmani
newton
newtoni
newtonia
newzelanda
nexilis
nexus
neya
nez
ngamiensis
nghetinhensis
ngorongoro
ngottoensis
niagara
niasis
niata
nicaragua
nicaraguae
nicator
nicatoridae
nicholas
nicobarica
nicolas
nictitans
nidoensis
nie
niedersachsen
niens
niethammer
niethammeri
nietzsche
nifoviridis
nigella
niger
nigera
nigeria
nigeriae
nigerianus
nigeriensis
nigerrima
nigra
nigrensis
nigrescens
nigriauris
nigribarbis
nigricans
nigricauda
nigricaudatus
nigricaudus
nigriceps
nigricollis
nigricolor
nigrifrons
nigrimontana
nigripecta
nigripes
nigrirostris
nigrispinus
nigrita
nigritia
nigritus
nigrocinctus
nigrofusca
nigronuchalis
nigroviridis
nigrovittatus
nijni
nikiforov
nikkonis
nikolausi
nikolay
nikolsky
nil
nilagirica
nilaus
nilopegamys
nilotica
niloticus
nilssen
nilsson
niltava
nimbae
nimbasilvanus
nimr
ningaui
ningbing
ningpoensis
ninox
niobe
niosasik
nipalensis
niphanae
nipona
niponaf
nippon
nipponia
nir
nirnai
nisaetus
nishiwaki
nitca
nitedula
nitela
nitida
nitidula
nitidus
nitratoides
nivalis
niveatus
niveipes
niveiventris
nivicola
niviventer
njak
nko
nl
nnber
nnberg
no
noack
nobel
nobilis
noblei
noctivagus
nocturnus
nodler
noelafa
noeltafa
noir
noire
nok
nokol
nokoldunol
nola
nolda
noldafa
noldakorafa
noldakoramafa
noleem
nolthenii
nom
nomascus
nombre
nomonyx
nonnula
nono
nopalol
nope
norae
noravank
nord
norden
nordmann
nordquiest
nordquist
nordrhein
norfolcensis
norga
norgaf
norgavaf
normalis
norman
noronha
noronhomys
norosiensis
norris
norte
north
northbrook
northiella
norvegicus
norwood
nosophora
notamacropus
notata
notatus
notharchus
nothocercus
nothocrax
nothoprocta
nothura
notialis
notinus
notiochelidon
notiomys
notiomystidae
notiomystis
notioros
notiosorex
notius
notom
notomys
notopholia
notopteris
notoryctemorphia
notoryctes
notoryctidae
notre
nouhuysi
novaeangliae
novaeguineae
novaehollandiae
novaesi
novaya
noveboracensis
noved
novemcinctus
nover
noves
novesa
novgorod
novikov
novikovi
nox
ntgen
nther
nu
nubeem
nubiana
nubica
nubilus
nubrica
nuchalis
nucifraga
nuda
nudicaudatus
nudicaudus
nudipes
nudiventris
nudo
nudol
nudolya
nudolye
nue
nugeem
nuit
num
numarius
nume
numen
numenius
numida
numidica
numidicus
numididae
nunatakensis
nuria
nusatenggara
nussbaum
nuttalli
nuttallii
nuva
nuve
nuyafa
nuyuca
nyansae
nyanzae
nyasae
nyctanassa
nyctereutes
nycthemera
nyctibiidae
nyctibius
nycticeboides
nycticebus
nycticorax
nycticryphes
nyctidromus
nyctimene
nyctiphrynus
nyctipolus
nyctiprogne
nyctomys
nyctyornis
nyema
nyemanga
nyemila
nyemova
nyemuza
nyerere
nyi
nyikae
nymphicus
nystalus
nyula
nzel
nørregaard
o
oasicus
oates
oaxacae
oaxacensis
ob
oberholser
obesulus
obesus
obfuscatus
obiensis
oblaka
oblakapeem
oblakeem
oblativa
oblaxa
oblaxuzda
obliquidens
obliquus
obljak
obolenskii
obruc
obscura
obscuratus
obscurior
obscurus
observandus
obsoletus
obtusirostris
oc
ocaga
ocagera
occasius
occek
occidental
occidentalis
occiduus
occisor
occultus
oceania
oceanites
oceanitidae
oceanodroma
oceem
ochetorhynchus
ochoa
ochotensis
ochotona
ochotonidae
ochracea
ochraceiventer
ochraceocinereus
ochraceus
ochraspis
ochraventer
ochreata
ochrogaster
ochrogenys
ochrognathus
ochropus
ochrotomys
ochrourus
ochroxantha
ochrus
ochthoeca
ochthornis
ocius
oclc
oconnelli
ocreata
ocreatus
octave
octavus
octodon
octodontidae
octodontomys
octomys
ocularis
oculatus
oculocincta
ocyceros
ocydromus
ocypete
ocyphaps
ocythous
odayol
odobenidae
odobenus
odocoileus
odontoceti
odontophoridae
odontophorus
odontorchilus
odontospiza
odorata
oecomys
oeconomus
oedipus
oedistoma
oehser
oena
oenanthe
oenax
oenomys
oenos
oerstedii
oertzeni
of
offella
og
ogilby
ogilbyi
ogilbyii
ogilvie
ognev
ognevi
ognorhynchus
ogooue
ogouensis
ohiensis
ohioensis
ohionensis
oi
oiostolus
ois
oise
oiseaux
ojasti
ok
oka
okada
okadae
okanagana
okapia
okavango
oke
oken
okhotina
okiensis
okilik
oklahomae
okljuc
okol
okon
oku
okuensis
olaf
olallae
olallamys
olchonensis
old
olenyok
oleracea
olfers
olga
olgaf
olgalicusik
olib
oligoryzomys
olimpio
olithique
olitor
olivacea
olivaceous
olivaceus
oliveira
oliver
oliveri
oliviae
olivier
olivieri
olk
olkik
olkom
ollula
oloferne
ologiques
olonne
olor
olrogi
olson
olya
olyeem
olympica
olympicus
olympus
olyokma
omaf
omava
omayrol
omensis
omichlodes
ommatophoca
omnivora
on
onager
onara
onasa
onasik
onca
oncilla
oncostoma
ondatra
ondura
one
oneillornis
onkiro
ont
ontinaf
ontinafa
ontine
ontinuk
onychogalea
onychognathus
onychomys
onychoprion
onychorhynchus
onychostruthus
ooldea
op
opa
opaf
opafa
opdenboschi
opeem
operarius
ophion
ophrysia
opimus
opisthocomidae
opisthocomiformes
opisthocomus
opistholeuca
opisthoprora
opisthostictus
oporornis
opossum
opra
opranafa
opriskafa
optabilis
opulentus
oquirrhensis
oral
oralis
orangiae
orarius
orbicularis
orbigny
orbis
orca
orcaella
orcesi
orchesticus
orcinus
ord
ordaf
ordafa
ordii
ordinalis
oreamnos
oreas
oregona
oregonensis
oregoni
oregonus
orenburg
oreocetes
oreocharis
oreoica
oreoicidae
oreolais
oreomanes
oreomystis
oreonax
oreonympha
oreophasis
oreophilais
oreopholus
oreopolus
oreopsar
oreopsittacus
oreornis
oreortyx
oreoscoptes
oreoscopus
oreostruthus
oreothlypis
oreothraupis
oreotragus
oreotrochilus
oresterus
orestes
org
oribasus
oribates
oricolus
orientalis
orientis
origak
origensis
origin
origma
orii
orikaf
orikafo
orikalerkaf
orinoci
orinomus
orinus
oriolia
oriolidae
oriolus
oriomo
orion
oriturus
oriundus
orizabae
orle
orlov
ornans
ornata
ornatus
ornithion
ornithorhynchidae
ornithorhynchus
ornorectes
orophila
orophilus
orr
ortalis
orth
orthodon
orthogeomys
orthogonys
orthonychidae
orthonyx
orthopsittaca
orthorhyncus
orthotomus
ortygospiza
ortyxelos
orwell
orycteropodidae
orycteropus
oryctolagus
oryol
oryx
oryzoborus
oryzomys
oryzorictes
oryzorictinae
os
osbeck
osborni
oscar
osceola
osgood
osgoodi
osgoodomys
osilae
osimensis
osiris
osman
osmani
osny
osorio
osphranter
ostera
osteraf
osterafa
ostik
osuga
osvaldoreigi
osyotr
ota
otaria
otariidae
othai
othus
otididae
otidiformes
otidiphaps
otinus
otion
otis
otisorex
otoc
otocyon
otok
otolemur
otomyinae
otomys
otonyctomys
otopteropus
otosciurus
otospermophilus
ototylomys
otsa
otson
ottenwalder
otto
otular
otulara
otus
ou
oubanguii
oudemans
ouen
ourebi
ourebia
oustalet
oustaleti
ouwens
ovamboensis
over
ovibos
ovis
owen
oweni
owensi
owstoni
oxford
oxi
oxiana
oxianus
oxotsk
oxylabes
oxymycterus
oxypogon
oxyruncus
oxyura
oyapocki
oye
ozarkensis
ozotoceros
p
pa
pablo
paca
pacheco
pachycare
pachycephala
pachycephalidae
pachycephalopsis
pachycoccyx
pachyptila
pachyramphus
pachyuromys
pachyurus
pacifica
pacificus
pacifika
packer
pacos
paeba
paedulcus
paenulata
pag
pagensis
pagenstecher
pagodroma
pagophila
pagophilus
paguatae
paguma
pagurus
pagus
pahari
pailtega
pailtegaxo
paitana
pajeros
pak
pakapafa
pakava
pakistana
pako
pakon
palacios
palaestina
palatilis
palatina
palavas
palawanensis
palawanomys
palawanus
pale
paleobiology
paleolitic
palisot
pallas
pallasi
pallasii
pallasiomys
pallens
pallescens
palliata
palliates
palliatus
pallida
pallidicauda
pallidior
pallidipes
pallidiventris
pallidus
palliolata
pallipes
palmarius
palmarum
palmer
palmeri
palmeria
palmipes
palpator
paludicola
paludinosus
paludipasser
paludivagus
palustris
pambasileus
pamirensis
pamparum
pan
panama
panamensis
panamintinus
panasci
pandion
pandionidae
pandora
panganiensis
panglima
panguitchensis
paniscus
panitula
pannietensis
pannoniensis
pannosus
pansa
pantastictus
panterpe
panthera
pantherinae
pantholops
panuridae
panurus
panyptila
paolo
papagomys
papasula
papio
pappogeomys
papuanus
papuensis
par
parabuteo
paracou
paracrocidura
paracynictis
paradigalla
paradipus
paradisaea
paradisaeidae
paradiso
paradisus
paradoxornis
paradoxura
paradoxurinae
paradoxurus
paradoxus
paraechinus
paraensis
paragallinula
paraguae
paraguayanus
paraguensis
parahydromys
paraleptomys
paralios
parallelus
paralomys
paramelomys
paramensis
paramicrus
paramorum
paramurexia
paramythia
paramythiidae
paranaensis
parantechinus
parascalops
parascaptor
paratus
paraxerus
parbol
parc
parca
pardaliparus
pardalis
pardalotidae
pardalotus
pardicolor
pardina
pardinoides
pardinus
pardirallus
pardofelis
pardus
pargalu
paricola
paridae
parienti
paris
park
parkerthraustes
parkesia
parma
parmentierorum
parmoptila
parnaby
parnassius
paroaria
parophasma
paroreomyza
parotia
parotomys
parowanensis
parryi
parryii
party
parulidae
paruromys
parus
parva
parviceps
parvidens
parvipes
parvipsitta
parvula
parvulus
parvus
pas
pascal
pascalis
pasha
passer
passerculus
passerella
passerellidae
passeridae
passeriformes
passerina
pastasae
pastor
patagioenas
patagona
patagonicus
patagonum
patas
patavara
patavayana
patecta
patectama
patectolafe
patectoy
patira
patrick
patrius
patterson
pattersonianus
patton
pattoni
patzelti
paucidentata
paucituberculata
paul
paulamys
paulensis
pauli
paululus
paulus
pauxi
paveli
pavlinov
pavo
paxra
payer
paysage
paysages
paysanne
paz
pdf
pe
peak
peale
peang
pearson
pearsoni
pearsonii
pearsonomys
pearyi
peasei
pecari
pectinator
pectoralis
peculiosa
pedetes
pedetidae
pedionomidae
pedionomus
pedok
pedro
pedunculatus
peeli
peguensis
pegunensis
peintre
pelafa
pelagodroma
pelargopsis
pelea
pelecanidae
pelecaniformes
pelecanoides
pelecanus
pelengensis
pelii
peliperdix
pellorneidae
pellorneum
pelomys
pelops
peltohyas
peltops
pelurus
pelzeln
pelzelnii
pemaxo
pemaxoeem
pemaxoik
pemba
pembertoni
pen
penangensis
penard
penelope
penelopides
penelopina
peneoenanthe
peneothello
penicillata
penicillatus
peninsulae
peninsularis
penitus
pennant
pennanti
pennantii
pennatus
pennipes
pennsylvanicus
penricei
pentadactyla
pentalagus
penza
peponocephala
per
perak
perakensis
peraltus
peramelemorphia
perameles
peramelidae
peramelinae
peramplus
perblandus
perca
percek
percivali
perciz
percnostola
percom
percura
perda
perdicula
perditus
perdix
pere
perea
pereaksat
peregrina
peregrinus
peregusna
perenensis
perexiguus
perfava
perfulvidus
perfulvus
perfuscus
pergracilis
pergrisea
periclyzomae
pericrocotus
peridoneus
perieras
perijae
periparus
periporphyrus
perisoreus
perissocephalus
perissodactyla
perkins
perlutea
permiliensis
permira
pernanus
pernetta
perniger
pernigra
pernis
pernix
pernyi
perodicticus
perognathinae
perognathus
peromyscus
peron
peronii
peroryctes
perotae
perotensis
perov
peroy
peroya
perpallidus
perplanus
perplexus
perrensi
perrieri
perrin
perrini
perry
persa
persaxo
perse
persephone
persica
persicus
persimilis
personata
personatus
perspicillata
persson
perua
peruana
peruanum
peruanus
peruviana
peruvianus
peruviensis
pervagus
pervalens
pervarius
peshchev
peshev
pesim
pesso
peta
petauridae
petaurillus
petaurista
petauroidea
petauroides
petaurus
petcora
pete
peter
peterburg
peterhans
peters
petersi
petersii
peterson
petersoni
petilidens
petinomys
petit
petraea
petrochelidon
petrodromus
petrogale
petroica
petroicidae
petromarmota
petromuridae
petromus
petromyscus
petronia
petrophassa
petropseudes
petrov
petter
petteri
petteromys
petulans
peucaea
peucedramidae
peucedramus
peyrierasi
pez
pezay
pezitca
pezolkeem
pezopetes
pezophaps
pezoporus
pfalz
pfeffer
phacellodomus
phacochoerus
phaea
phaenicophaeus
phaenicophilidae
phaenicophilus
phaenomys
phaenostictus
phaeochroa
phaeomelas
phaeomyias
phaeopepla
phaeopus
phaeotis
phaethon
phaethontidae
phaethontiformes
phaethornis
phaetusa
phaeura
phaeurus
phaeus
phainopepla
phainoptila
phaiomys
phalacrocoracidae
phalacrocorax
phalaena
phalaenoptilus
phalanger
phalangeridae
phalangeriformes
phalangerinae
phalangeroidea
phalaropus
phalcoboenus
phaner
phapitreron
phaps
pharomachrus
phascogale
phascolarctidae
phascolarctos
phascolosorex
phascomurexia
phasianidae
phasianus
phasma
phayrei
phedina
phegornis
phelleoecus
phelpsia
phenacomys
phenax
pheucticus
pheugopedius
phibalura
phigys
philander
philantomba
philbricki
philemon
philentoma
philepitta
philesturnus
philetairus
philip
philipi
philippe
philippensis
philippi
philippii
philippinensis
philippsi
phillips
phillipsi
phillipsii
philohydor
philortyx
philosophie
philydor
phimosus
phipps
phlegopsis
phleocryptes
phloeomys
phlogophilus
phoca
phocaenoides
phocarctos
phocidae
phocoena
phocoenidae
phocoenoides
phodilus
phodopus
phoebastria
phoebetria
phoenicircus
phoeniconaias
phoenicoparrus
phoenicopteridae
phoenicopteriformes
phoenicopterus
phoeniculidae
phoeniculus
phoenicurus
pholidornis
pholidota
phonygammus
phragmacia
phrygilus
phylarchus
phylax
phylidonyris
phyllanthus
phyllastrephus
phyllergates
phyllis
phyllolais
phyllomyias
phyllomys
phylloscartes
phylloscopidae
phylloscopus
phyllotis
physalus
physeter
physeteridae
physique
phytotoma
pi
piacentinii
piakol
piakudol
piaya
pibaf
pica
picata
picathartes
picathartidae
picatus
piccola
piccolo
picea
piceus
pichiy
pichler
picidae
piciformes
picinum
pickford
picoides
picta
pictet
picticaudata
pictipes
pictus
piculus
picumnus
picus
pidonis
pierre
pierrei
pierreicolus
pietro
piezorina
pigme
pigra
piik
pika
pikene
piker
pikumche
pilarensis
pileatus
pilherodius
piliocolobus
pilirostris
pilkoda
pilkovon
pilleri
pilligaensis
pilorides
pilosa
pilosus
piluda
pimensis
pimtar
pimtayar
pinaf
pinafa
pinalensis
pinarochroa
pinarocorys
pinaroloxias
pinarornis
pinchaque
pinchon
pincol
pine
pinel
pinetis
pinetorum
ping
pinguinus
pinheiroi
pinicola
pinius
pinizelic
pinniped
pinto
pionites
pionopsitta
pionus
pipanacoctomys
piperi
pipilans
pipile
pipilo
pipra
pipraeidea
pipreola
pipridae
piprites
piranga
pirdot
pires
pirrensis
pis
piscivora
pissarro
pist
pistafa
pistok
pitangus
pithecheir
pithecheirops
pithecia
pitheciidae
pitheciinae
pithecophaga
pithys
pitmani
pitohui
pitta
pittasoma
pittidae
pittieri
pitts
pityriasidae
pityriasis
pl
place
placements
plage
plagiodontia
plagiodontinae
plaine
planic
planiceps
planifrons
planigale
planik
planirostris
planorum
plantinarensis
platacanthomyidae
platacanthomys
platalea
platanista
platanistidae
platycephalus
platycercus
platylophus
platyops
platyrhynchos
platyrhynchus
platyrinchus
platysmurus
platyspiza
platysteira
platysteiridae
platythrix
platyurus
plectorhyncha
plectrophenax
plectropterus
plegadis
plek
ples
plesius
plitka
ploceidae
plocepasser
ploceus
plougastel
pluie
plumbea
plumbeus
pluto
pluvialis
pluvianellidae
pluvianellus
pluvianidae
pluvianus
pnoepyga
pnoepygidae
po
poaiae
poana
poblacio
poche
pocock
pococki
podargidae
podargus
podica
podiceps
podicipedidae
podicipediformes
podilymbus
podoces
podogymnura
podomys
podoxymys
poe
poecile
poecilodryas
poecilogale
poecilolagus
poecilops
poecilotis
poecilotriccus
poegol
poelagus
poensis
poeoptera
poephila
poeppig
poeppigii
poey
pogdol
pogonias
pogoniulus
pogonocichla
pogonomelomys
pogonomys
pogonotriccus
pohle
pohlib
poiana
poicephalus
pointe
poke
pokefa
pokeon
pokeyaf
polaris
polemaetus
polenov
polia
poliakov
polihierax
polii
polinesia
poliocephala
poliocephalus
poliocrania
poliolais
polionotus
polioptila
polioptilidae
poliopus
polioxolmis
polius
poljakov
pollen
polli
polska
polskaf
polskavaf
polskik
polulus
polyboroides
polykomos
polyodon
polyonymus
polyplectron
polysticta
polystictus
polytelis
polytmus
pomarea
pomatorhinus
pomatostomidae
pomatostomus
pomel
pommes
pomo
ponceleti
pondoliae
pongo
pont
ponticus
pontifex
pontoise
pontoporia
poodytes
pooecetes
poospiza
popayanus
pope
population
poradro
poradroik
porcellus
porcinus
porculus
porcus
poriol
poron
porphyrio
porphyriops
porphyrolaema
porphyrospiza
port
portenkoi
porteousi
porteri
portoricensis
portrait
portrieux
portugala
portugalaf
portugalik
porzana
potamochoerus
potamogale
potapova
potenziani
potey
pothuis
potoroidae
potorous
potos
potosinus
potto
pouca
pour
pousargues
pousarguesi
povos
powell
powelli
ppell
pra
praedatrix
praetor
prajae
pranis
prantaf
praomys
pratcol
pratensis
prateri
pratti
prattorum
prdus
pre
preble
preblei
prehensilis
prehistoric
premaxillaris
premnoplex
premnornis
premuda
prentis
presbytis
presina
press
pretiellus
pretoriae
preussi
prevostensis
prevostii
preyxol
priam
pribilofensis
price
pricei
prietae
prigogine
prigoginei
prigogone
prijust
prilaxo
primate
primates
primigenius
primitivus
primolius
primulina
primus
prince
princee
princeps
principula
principulus
prinia
printemps
priodontes
prionailurus
prioniturus
prionochilus
prionodon
prionodontinae
prionodura
prionomys
prionops
priotelus
pris
priscus
prise
pritchett
prittwitzi
proboscidea
proboscideus
probosciger
procapra
procarduelis
procavia
procaviidae
procellaria
procellariidae
procellariiformes
procerus
procnias
procolobus
procyon
procyonidae
procyonoides
proditor
prodotiscus
proechimys
proedromys
proeulagus
profelis
progne
program
project
proklaci
proklaciza
prokladi
proklami
proklano
proklavu
prolagidae
prolagus
prolatus
prolemur
promenade
promeropidae
promerops
prometheomys
pronolagus
pronya
propithecus
prosciurillus
prosobonia
prosopeia
prostelay
prostewa
prosthemadera
proteles
proteus
protochromys
protonotaria
protoxerus
protva
proudhon
provocax
proximarinus
pruinosus
prunella
prunellidae
pruva
pruve
pryeri
prymnolopha
pryori
przewalski
przewalskii
przewalskium
psalidoprocne
psaltriparus
psammomys
psammophila
psammophilus
psarisomus
psarocolius
psel
pselliophorus
psephotellus
psephotus
pseudantechinus
pseudasthenes
pseudastur
pseudaxis
pseudelaenia
pseudeos
pseudhirundo
pseudibis
pseudoalcippe
pseudobias
pseudobulweria
pseudocalyptomena
pseudocheiridae
pseudocheirinae
pseudocheirus
pseudochelidon
pseudochirops
pseudochiropsinae
pseudochirulus
pseudocolaptes
pseudocolopteryx
pseudocrinitus
pseudohydromys
pseudois
pseudoleistes
pseudomys
pseudonapaea
pseudonestor
pseudonigrita
pseudopardalis
pseudopipra
pseudopodoces
pseudopotto
pseudorca
pseudorectes
pseudoryx
pseudoryzomys
pseudosaltator
pseudoscops
pseudoseisura
pseudotriccus
psilopogon
psilopsiagon
psilorhamphus
psilorhinus
psiloscops
psilurus
psittacara
psittacella
psittacidae
psittaciformes
psittacula
psittaculidae
psittaculirostris
psittacus
psitteuteles
psittinus
psittiparus
psittirostra
psittrichas
psophia
psophiidae
psophodes
psophodidae
psora
pt
pteridophora
pternistis
pterocles
pteroclidae
pterocliformes
pterodroma
pteroglossus
pteromys
pteromyscus
pteronetta
pteronura
pterophanes
pteropodidae
pteroptochos
pteruthius
ptilinopus
ptiliogonatidae
ptiliogonys
ptilocercidae
ptilocercus
ptilocichla
ptilonorhynchidae
ptilonorhynchus
ptilopachus
ptiloprora
ptilopsis
ptiloris
ptilorrhoa
ptilostomus
ptilotula
ptiloxena
ptychoramphus
ptyonoprogne
ptyrticus
pu
pucheran
pucheranii
pucrasia
puda
pudjonica
pudu
pueblensis
puerulus
puffinus
pugetensis
pugnax
puh
puhoatensis
puilexa
puisa
puits
pukey
pula
pulara
pulchellum
pulchellus
pulcher
pulcherrimus
pulchra
pulitzer
pullata
pullus
pulsatrix
pulverulenta
pulverulentus
pulvina
pulvinatus
puma
pumila
pumilio
pumilus
pumkik
punctata
punctatus
punctulatus
pundti
pune
punensis
punicans
punomys
pur
purara
purda
purgatus
purinus
purnella
purpureicephalus
purpureicollis
purus
pusa
pusaeus
pusanov
pusch
pusilla
pusillus
putaoensis
putcol
putcudol
putcukol
putcumol
putcungol
putcuvol
putcuxol
putorius
puzachenko
puzig
pyasina
pycnonotidae
pycnonotus
pycnoptilus
pycnopygius
pyctoris
pygacanthus
pygargus
pygarrhichas
pygathrix
pygeretmus
pygerythrus
pygiptila
pygmaea
pygmaeus
pygoscelis
pyramidum
pyrenaica
pyrenaicus
pyrenestes
pyrgilauda
pyriglena
pyrilia
pyrocephalus
pyroderus
pyrrhinus
pyrrhocoma
pyrrhocorax
pyrrholaemus
pyrrhomerus
pyrrhomyias
pyrrhonotus
pyrrhoplectes
pyrrhorhinos
pyrrhula
pyrrhura
pyrrocephalus
pyrroglaux
pyrropus
pytilia
q
qazvinensis
qinlingensis
qquad
quad
quadraticauda
quadratus
quadricornis
quadrimaculatus
quadriscopa
quadrivittatus
quadro
quadruplicatus
quaestor
quagga
quai
quarlesi
quarta
quasiater
quaternary
quatre
quebecensis
queiroz
quelchii
quelea
quelpartis
quemisia
querceti
quercinus
querula
quichua
quimper
quindianus
quinquestriatus
quintinensis
quiscalus
quitensis
quotus
quoy
quoyi
r
ra
rabarivola
rabinowitz
rabor
rabori
racontas
radde
raddei
rade
radespiel
radiata
radimef
radimi
radiminieem
radjah
rafael
raffles
rafflesii
raffrayana
rafinesque
ragazza
ragny
rahm
rahmi
rainer
raineyi
rainieri
rajah
rajputanae
rakotosamimanana
ralk
ralkkiraf
ralli
rallicula
rallidae
rallina
rallus
ralma
raltada
ramanantsoavanai
ramaromilanto
rami
ramirez
ramirohitra
ramona
ramphastidae
ramphastos
ramphocaenus
ramphocelus
ramphocinclus
ramphocoris
ramphodon
ramphomicron
ramphotrigon
ramsay
ramsayornis
rancedol
rancol
rancumol
rand
randensis
randia
randrianasoloi
randrianosolo
rangifer
ranjiniae
ranjitsinhi
ranova
ranyesa
rapax
raphanurus
raphicerus
raphus
rapit
raporafa
rapposa
rapti
raptor
raptorum
ras
rasamimanana
rasek
rasoloarison
ratiavatol
ratsikisol
ratsimbazafy
rattoides
rattus
ratufa
ratufinae
rava
ravacol
ravalduga
raveloarinoro
ravelobensis
raviventris
ravlem
ravlemafa
ravlemak
ravna
ravni
ravulus
ravus
rawaks
rawopaf
raxworthy
ray
rayaleh
raymond
rayol
raz
razafimanantsoa
razamiz
razamot
razeem
razeka
rbara
rcoles
rd
rdoba
rdstrand
re
rea
rebava
reca
recela
recessus
reclus
recurvirostra
recurvirostridae
red
redding
rediscovering
reductus
redunca
reduncinae
redur
redura
reduyuna
reduyur
reevesi
refa
refulgens
rega
regalis
regina
reginae
regulidae
regulus
rehn
reichardi
reichenbach
reichenow
reid
reigi
reinhardt
reinwardtipicus
reinwardtoena
reis
reissii
reithrodon
reithrodontomys
rekola
rekolafa
relicinus
relicta
relictus
religiosa
rem
remburera
reme
remi
remiz
remizidae
remnir
remota
remsen
remy
remyi
renard
rendilis
rene
renel
rengger
renoir
renschi
renugal
repens
reperticia
repin
repina
republic
res
research
resettlement
reshetnik
restrictus
ret
reticulata
retractus
retrorsus
retusus
retzius
reugale
reuvens
revoili
rex
reyes
reyi
rez
rhabdomys
rhabdops
rhabdornis
rhabdotorrhinus
rhagamys
rhagologidae
rhagologus
rhagomys
rhamphocharis
rhamphococcyx
rhaphidura
rhea
rhegmatorhina
rheidae
rheiformes
rhein
rheinardia
rheinland
rheithrosciurus
rheomys
rhinoceros
rhinocerotidae
rhinocrypta
rhinocryptidae
rhinogradoides
rhinopithecus
rhinoplax
rhinopomastus
rhinoptilus
rhinortha
rhinosciurus
rhionis
rhipidomys
rhipidura
rhipiduridae
rhizomyinae
rhizomys
rhizophagus
rhizoplagiodontia
rhizothera
rhoads
rhoadsi
rhodacanthis
rhodesiae
rhodinocichla
rhodinocichlidae
rhoditis
rhodius
rhodonessa
rhodopechys
rhodopis
rhodospingus
rhodospiza
rhodostethia
rhodothraupis
rhombomys
rhopias
rhopocichla
rhopophilus
rhopornis
rhynchocyclus
rhynchocyon
rhynchogale
rhyncholestes
rhynchomeles
rhynchomys
rhynchophanes
rhynchopsitta
rhynchortyx
rhynchospiza
rhynchostruthus
rhynchotus
rhynochetidae
rhynochetos
rhyticeros
rhytipterna
ri
riabus
riaf
ribeiro
ric
rich
richard
richardii
richardson
richardsoni
richardsonii
richmond
richmondi
richter
ricinae
rickart
ride
ridei
ridgway
ridgwayia
rielcek
rieta
rieur
rift
riga
rigidipenna
rigidus
rijust
rijustaf
rimator
rimofrons
ringen
ringens
rintjanus
rionegrensis
riparia
riparius
riparum
riska
riskeda
rissa
ristus
ritgen
ritratto
riudonensis
riukiuanus
riulk
rivage
rive
rivebol
river
rivie
rivol
rivukol
riwe
rixosa
riz
rkegren
rnikovac
ro
roachi
rob
robbins
robert
roberti
roberts
robertsi
robertson
robertsoni
robinson
robinsoni
roboratus
roborovskii
robsonius
robusta
robustulus
robustus
rocha
rochebrune
rochefort
rochelle
rocher
roches
rock
rocky
rodadis
rodaf
rode
rodega
rodentia
rodolphii
rodriguezi
roger
roi
roig
roigi
rollandia
rolleboise
rollulus
roloway
roma
romain
roman
romana
romania
romerolagus
romo
rompaey
romugal
ron
ronc
roncie
rondoensis
rondoni
rone
roneafrika
ronef
ronefa
roneka
roneon
ronon
rontaf
rontion
roos
roosevelti
rooseveltorum
roosmalen
roosmalenorum
ropexe
roraimae
roraimia
roryi
rosa
rosalia
rosalinda
rosamondae
rosanowi
rosario
rosenbergii
rosenhauer
roses
roseveari
rosida
rosii
rosmarus
ross
rossi
rossia
rossiaf
rossiafa
rossiavaf
rossiavon
rossica
rossii
rossiik
rossolimo
rostralis
rostratula
rostratulidae
rostratus
rostrhamus
roth
rothmann
rothschild
rothschildi
roti
rotir
rototan
rototar
rotterdam
rouen
rouge
rouges
rougetius
roulin
roumanicus
rousseaux
rousseloti
route
rovumae
rowettia
roxburgh
roxellana
royal
roylei
rozendaal
rozeti
rozokidol
rozokol
rster
rttemberg
ru
ruacana
ruandae
ruatanica
rubeculus
rubellus
rubescens
rubeus
rubex
rubicola
rubicunda
rubicundus
rubida
rubidior
rubidus
rubiginosus
rubra
rubricatus
rubricosa
rubrifrons
rubrirostris
rubrisciurus
rubriventer
rucervus
rucka
ruddi
rudinoris
rudolf
rudolfi
rudyard
rue
ruedas
ruedi
ruemmleri
rueppellii
rufa
rufescens
ruficaudatus
ruficaudus
ruficeps
ruficollaris
ruficollis
ruficrista
rufifrons
rufigenis
rufiji
rufilatus
rufina
rufinus
rufipes
rufiventer
rufiventris
rufobrachium
rufocanus
rufodorsalis
rufogriseus
rufomitratus
rufoniger
rufopallidus
ruftacek
rufulus
rufus
ruga
ruidosae
ruisseau
rujod
rujodaf
rukia
ruldar
rumeik
rummler
rumpi
rumpii
rumpler
runda
rune
runta
rupena
rupestris
rupeyen
rupicapra
rupicola
rupinarum
rupol
rupolya
rupornis
rupp
ruppi
ruricola
rusa
ruschii
rusconi
rusiges
russa
russatus
russell
russelli
russelliana
russeolus
russeus
russula
russulus
rustoda
ruthena
rutila
rutilus
ruvanensis
ruvuma
ruwenzorii
ruwenzorisorex
ruwenzorornis
ruxa
ruxeem
ruxton
ruyera
ruzic
rwanda
rwandae
ry
ryazan
ryder
rye
rylands
ryley
rynchops
ryner
s
sa
saaremaa
saarnaki
saba
sabaea
sabaeum
sabaeus
sabana
sabanalagus
sabanicola
sabanillae
sabanus
sabiensis
sabine
sables
sabrinus
sabulonis
sabulosus
sacana
saccharalis
saccostomus
sacer
sachalinensis
sachsen
sacobianus
sacra
sacramenti
sacramentoensis
sacraria
sacratus
sadiya
sadko
sadonis
sagax
sagei
sagitta
sagittalis
sagittariidae
sagittarius
saguinus
saha
sahalinensis
sahamae
sahamalazensis
saharae
sahariensis
said
saiga
saimensis
saimiri
saimiriinae
saint
sainte
sajanensis
sakartvela
sakesphorus
salaam
salae
salamonis
salanoia
salarius
salatana
sale
salebrosus
salenskii
salensky
salicornicus
salimalii
salinarum
salinensis
salinia
salinicola
salinoctomys
salinomys
salisbury
salle
salm
salocco
salome
salomonseni
salpinctes
salpingotulus
salpingotus
salpornis
salt
saltarius
saltator
saltatricula
saltatrixoides
saltiana
saltuensis
salute
salva
salvadora
salvadori
salvadorina
salvanius
salvin
salvini
salvinius
samara
samarensis
sambiranensis
samniticus
samuel
san
sanary
sanborn
sanborni
sanctacrucis
sanctaecruzae
sanctaemartae
sanctiluciae
sanctipaulensis
sanctorum
sand
sanda
sandborn
sanderson
sane
saneaksat
saneaytara
sanegayar
saneik
sanelia
saneliafa
saneliakirafa
saneliama
saneliiskafa
sanfelipensis
sanfordi
sangha
sangirensis
sangronizi
sangster
sanguinea
sanguinidens
sanila
sanjei
sankt
sanluisi
sanoy
sanoya
sanrafaeli
sanson
santa
santacruzae
santander
santanderensis
santaneaksat
santarosae
santo
santoleaksat
sanz
sapajus
sapayoa
sapayoidae
sapidus
sapiens
sapientis
sappho
sara
sarae
saratov
sarawakensis
sarbini
sarcogyps
sarcophanops
sarcophilus
sarcops
sarcoramphus
sardikya
sardikye
sardiniae
sardus
sare
sarkidiornis
saroglossa
sarothrura
sarothruridae
sasia
saskool
satanas
satarae
saterei
satrapa
satunin
satunini
saturata
saturatior
saturatus
saturnus
saudiya
saundersiae
saussure
saussurei
sauveli
savage
savamis
savannarum
savannius
savera
savi
savigny
savii
savilei
savorgnan
savrasov
savsaf
savsafa
savsafo
savsugal
saxa
saxalin
saxara
saxatca
saxatilis
saxicola
saxicolor
saxicolus
say
sayakik
sayornis
sayudasik
saz
scagliai
scaloni
scalopinae
scalops
scalopus
scandentia
scapanulus
scapanus
scapteromys
scaptochirus
scaptonyx
sce
sceloglaux
scelorchilus
scene
scenopoeetes
scepomycter
scey
schadenbergi
schaeferi
schaldach
schalleri
schantaricus
schantz
schaposchnikowi
scharicus
schaub
schauinslandi
scheffeli
scheffer
schefferi
schelkovnikovi
scherman
scherzeri
schetba
schidlovskii
schiffornis
schilling
schinz
schistaceus
schistes
schisticeps
schisticolor
schistochlamys
schistolais
schlegel
schlegeli
schlegelii
schliemann
schlitter
schlumbergeri
schmidi
schmidly
schmidti
schmitzi
schnee
scho
schodde
schoenicola
schoeniophylax
schomburgk
schomburgki
schouteden
schoutedenapus
schoutedeni
schouteni
schrank
schreber
schrenck
schrenckii
schrenk
schultzei
schwa
schwann
schwanni
schwartz
schwarz
schwarzi
schwarzianus
schweinfurthii
schwitzer
sciaphylax
science
sciences
scindiae
scioanus
scissirostrum
scitulus
sciureus
sciuridae
sciurillus
sciurinae
sciuromorpha
sciurotamias
sciurus
sclater
sclateri
sclateria
scleroptila
sclerurus
scolomys
scolopacidae
scolopax
scopidae
scopoli
scopus
scoticus
scotinomys
scotocerca
scotocercidae
scotopelia
scotophilus
scott
scottae
scotti
scottii
scottorum
scouteden
scriptus
scrofa
scrutator
scude
scully
scutisorex
scytalopus
scythrops
se
seali
sebadadunol
sebastia
sebucus
sechurae
seclusa
sedis
sedme
sedulus
seebeck
seg
segregatus
seimundi
seine
seistanica
seiurus
sejugis
sekeetamys
sel
selasphorus
selby
selenidera
seleucidis
selevinia
selina
selkirki
selousi
seltafa
seltay
seltevaf
seltom
selvportrett
selys
semicanus
seminolus
semioptera
semispinosus
semistriatus
semitorquatus
semivillosus
semlikiensis
semlikii
semnopithecus
semnornis
semnornithidae
semotus
semplei
sempuz
semyon
sen
senegala
senegalensis
senescens
senex
sengaani
senganus
seniculus
senilis
sennetti
sentevol
senyesa
seorsus
sephanoides
septemcinctus
septentrionalis
sequoiensis
serasani
serbia
serebrennikov
serengeti
serezkyensis
sergey
seri
sericatus
sericeus
sericornis
sericossypha
sericulus
serilophus
serinus
serotinus
serpophaga
serpuxov
serrensis
sersik
serval
servalina
sestra
sestrica
sestrice
set
setchuanus
setifer
seton
setonix
setopagis
setophaga
setornis
setosus
settlement
settlements
setulosus
setzer
setzeri
seuanezi
seurati
severnaya
severoxo
severoxomo
severtsov
severtzov
severtzovi
severzovi
sevia
sevieri
sex
sexcinctus
sga
shalmon
shamel
shanicus
shanseius
shantungensis
sharica
sharicus
sharmani
sharpe
sharpei
shaw
shawi
shawmayeri
sheila
sheldoni
shelley
shenbrot
shepherdi
sheppardia
sherman
shermani
shidlovsky
shih
shikarii
shikokensis
shinto
shiptoni
shiraishi
shirensis
shirley
shistacea
shitkovi
shoae
sholicola
shortridge
shortridgei
shufeldt
shukurovoi
shumaginensis
si
sialia
siamensis
siantanicus
siatos
siberiae
siberu
sibira
sibiraf
sibiria
sibirica
sibiricorum
sibiricus
sibirionetta
sibreei
sibuanus
sicalis
sicard
siccatus
siccovallis
siccus
sichuanensis
sichuanicus
sicista
sicistinae
sicula
sid
siday
sidopugaleem
sie
siebersi
siebold
siel
sielcek
sielon
sierra
sierrae
sierraleona
sifanicus
sigmodon
sigmodontinae
sigmodontomys
signata
signatus
sika
sikapusi
siki
sikimaria
sikimensis
silacea
silaceus
silba
silenus
silindensis
silva
silvaticus
silvestris
silvicultor
silvicultrix
sima
simalurensis
simcoxi
sime
simensis
simias
simiiformes
similis
simmonsi
simon
simonetta
simoni
simons
simonsi
simoxenops
simplex
simpson
simpsoni
simulans
simulator
simulatus
simulus
simum
simus
sin
sina
sinaf
sinafa
sinagai
sinaiticus
sinalis
sinaloae
sinaloensis
sincipis
sinclair
sindi
sindica
sinensis
singhala
singhei
sinhaleyus
sinia
sinica
sinistralis
sinka
sinkestol
sinnamariensis
sinosuthora
sint
sinu
sinualis
sinuensis
sinuosus
sinus
sinyuxa
siphonorhis
sipia
sipodotus
sipora
siporanus
siptornis
siptornopsis
sirenia
sirhassenensis
sirystes
siskiyou
sistu
sit
sites
sitkensis
sitta
sittasomus
sittende
sittidae
sittiparus
sivertsen
sjalusi
skala
skalon
skapa
skapafa
skeda
ski
skiperia
skriz
skrombedol
skrombol
slack
sladeni
slakazol
slakevol
slakimol
slakol
slakudol
slevini
sljh
sloggetti
slovenia
slovenska
smankol
smankudol
smeenki
smicrornis
sminthopsinae
sminthopsis
smirnov
smith
smithemani
smithersi
smithi
smithii
smithornis
smokvenjak
smokvica
smolen
smolensk
smuts
snavolzveri
snowornis
so
soblir
sobrinus
soccatus
sociabilis
socialis
society
socioambiental
soconuscensis
sodalis
sodid
sodir
sody
sodyi
soe
soederstroemi
soemmeringii
soemmerringii
sofia
soir
soist
sok
soka
sokasane
sokasaneeem
sokasanerotifa
sokolov
sokolovi
sol
solatus
soleil
solen
solenodon
solenodontidae
solisi
solisorex
solitaria
solitarius
soloensis
solokseropa
solokseropik
solomys
solper
solresol
soluma
solve
solwifa
som
somalestur
somalia
somalica
somalicus
somaliensis
somateria
somedir
somereni
somme
sommer
sommernatt
sommeromys
son
sonazbar
sondaica
sondaicus
songaricus
sonomae
sonora
sonoriensis
soperi
sophie
sordidulus
sordidus
sorella
sorellus
sorex
soriano
soricidae
soricina
soricinae
soricinus
soricipes
soricoides
soricomorpha
soriculus
sornborger
sotalia
sotid
sotigir
sotikae
sotir
sotre
souain
soudanicus
souef
souleyet
source
sous
sousa
south
souza
sovietaf
sovietafa
sowerby
soza
spadesuit
spadicea
spadiceus
spadix
spalacidae
spalacinae
spalacinus
spalacopus
spalax
sparrman
spartacus
spartonoica
spatiosus
spatula
spaulding
spechti
specialist
species
speciosa
speciosus
spectabilis
speculanas
speculipastor
spedol
spegazzinii
speke
spekei
spekii
spelaea
spelaeomys
spelaeornis
spencei
spencer
speothos
sperdol
spermophaga
spermophilopsis
spermophilus
sphecotheres
spheniscidae
sphenisciformes
spheniscus
sphenocichla
sphenoeacus
sphiggurus
sphinx
sphyrapicus
spicilegus
spikol
spilocuscus
spilogale
spilopelia
spiloptila
spilornis
spilosoma
spilotus
spinatus
spindalidae
spindalis
spinipinnis
spinosissimus
spinosus
spinus
spiradens
spissigrada
spitzenberger
spix
spixii
spiza
spizaetus
spizella
spizelloides
spiziapteryx
spizixos
spizocorys
splendens
splendidissima
splendidula
splendidus
spodiopsar
sponsorius
sponsus
sporophila
sporopipes
spotorno
spretus
spriggsarum
springer
spurelli
sqrt
squamicaudata
squamicaudis
squamipes
srilankamys
ssc
ssongeae
st
stabilis
stachyridopsis
stachyris
stactolaema
staffe
stager
stagonopleura
stakera
stalin
stangeri
stanhope
stanisław
stankovici
stanley
stanleyanus
stannarius
stanovoy
stansburyi
starcki
starnoenas
station
statistical
statistics
steatomys
steatornis
steatornithidae
steere
steerei
steerii
stefan
stein
steinbachi
steiner
steinhardti
steini
stejneger
stejnegeri
stelgidillas
stelgidopteryx
stella
stellaris
stellarum
stenella
steno
stenocephala
stenocephalemys
stenostira
stenostiridae
stepensis
stephani
stephanicus
stephanoaetus
stephanophorus
stephanoxis
stephen
stephennashi
stephens
stephensi
stercorariidae
stercorarius
sterle
sterna
sternoclyta
sternula
sterrhoptilus
stevensi
stevenson
stevensoni
stica
stictonetta
stigmatica
stigmaticus
stigmatura
stigmonyx
stikeenensis
stiltia
stimulax
stiphrornis
stipiturus
stirling
stirtoni
stizodon
stizorhina
stochomys
stockholm
stoddart
stoicus
stolenik
stoliczka
stoliczkana
stoliczkanus
stolida
stolzmann
stolzmanni
stomiopera
stone
stonei
storch
storer
storeyi
storka
storr
stoya
stra
straeten
straminea
stramineus
strand
stranden
strandi
strautman
streatori
streckeri
strega
strelzowi
strepera
strepsiceros
strepsirrhini
streptocitta
streptopelia
streptoprocne
stresemann
stresemannia
striata
striatus
strickland
strigidae
strigidorsa
strigiformes
strigocuscus
strigopidae
strigops
strix
striy
striz
stroganov
stroganovi
struthidea
struthio
struthionidae
struthioniformes
struthopus
stuartii
study
stuhlman
stuhlmanni
stukol
stundol
sturgisi
sturnella
sturnia
sturnidae
sturnornis
sturnus
sturt
styani
stylodipus
stymphalornis
styron
styx
su
sua
suara
suaveolens
subaffinis
subaurantiaca
subauratus
subcincta
subcristata
subflavus
subfuscus
subgrisescens
subgutturosa
subhemachalana
sublegatus
sublimis
sublineatus
sublucidus
submicrus
subnubilus
subpalmata
subquadricornutus
subrosea
subrufus
subsimilis
subsimus
subsolanus
subspinosus
substriatus
subtenuis
subterraneus
subtilis
subtilissima
subtropicus
sucre
suda
sudana
sudre
suffocans
suffusus
sugdalar
sugomel
suidae
suillus
suinae
suiriri
sukarn
sul
sula
sulcidens
sulem
sulemam
sulidae
suliformes
sultani
sum
sumaco
sumatrae
sumatraensis
sumatrana
sumatranus
sumatrensis
sumatrius
sumbanus
sumefa
sumi
sumichrasti
sunameri
suncoides
suncus
sundaicus
sundamys
sundasciurus
sundevall
sundevalli
sundevallii
sungorus
sunidica
sunset
suola
suomia
suomiaf
suomiavaf
superans
superciliaris
superiorensis
supernus
superstes
sur
sura
surbol
surculus
surda
surdaster
surdisorex
surdus
suria
suricata
suricatta
surifer
surnati
surnia
surniculus
sururae
sus
susak
susanna
sushkini
susiana
suslicus
sustol
suteks
sutera
suterot
suterotaf
suterotafo
suteroteem
suterotik
suteyen
suthora
sutton
suvom
suvomiz
suxara
suyanto
suzanne
sv
svalbard
sveriga
sverigaf
sverigavaf
sviridenko
sviyaga
svrs
swabian
swainson
swainsonii
swalius
swarth
swarthi
swatinia
swaynei
swenk
swetciskol
swinderianus
swinhoe
swinhoei
swinhoii
swinnyi
swiza
swizaf
swynnertoni
swynnertonia
sybilla
sye
syke
sykes
sylvanus
sylvaticus
sylvestris
sylvia
sylvicapra
sylvietta
sylviidae
sylvilagus
sylviorthorhynchus
sylviparus
sylvisorex
syma
symphalangus
symposiachrus
synallaxis
synaptomys
syncerus
syndactyla
syndactylus
syntheosciurus
synthliboramphus
sypheotides
syriaca
syriacus
syrichta
syrigma
syrmaticus
syrrhaptes
syrticus
systellura
sz
szalay
szechuanensis
t
ta
taccocua
tachornis
tachuris
tachybaptus
tachycineta
tachyeres
tachyglossidae
tachyglossus
tachymarptis
tachyoryctes
tachyoryctinae
tachyphonus
tacomensis
taczanowski
taczanowskii
tadae
tadava
tadavafa
tadeusz
tadled
tadlemwa
tadler
tadlesa
tadorna
taelafta
taelaftara
taeniopygia
taeniotriccus
taerae
taeromys
taiga
taiouanus
taiva
taivana
taivanus
tajacu
taka
takama
talakol
talamancae
talapoin
talara
talarum
talas
talassicus
talaudium
talazaci
talboti
talegalla
talga
talgeem
taller
talpa
talpidae
talpinae
talpinus
talpoides
talte
taltefa
talteon
taltexo
talyschensis
tamandua
tamariscinus
tamaulipensis
tamava
tamavafa
tamavageja
tamensis
tamias
tamiasciurus
tamiops
tan
tana
tanae
tanafa
tanakae
tanala
tanara
tanaragazaxo
tanarasokeem
tanarasokeemaf
tancrei
tanda
tandeon
tane
taneaf
taneafa
taneagadesik
taneaksat
taneatisik
taneon
tanezumi
tangalunga
tanganyika
tanganyikae
tangara
tani
tanja
tankatcafi
tanon
tanoxifa
tanoy
tanoya
tanoye
tanoyi
tansaniana
tantalus
tanu
tanyasaf
tanygnathus
tanysiptera
tanzania
tanzaniafa
taoniscus
tapanaf
tapanafa
tapecomys
tapera
tapeti
tapetillus
taphrolesbia
taphrospilus
tapiridae
tapirus
tapoatafa
taraba
tarabuli
tarandus
taratuta
tardigradus
tarella
tarfayensis
tarphonomus
tarrae
tarragon
tarsalis
tarsier
tarsiger
tarsiidae
tarsiiformes
tarsipedidae
tarsipes
tarsius
tarsomys
taruakol
tarusa
tasega
tasila
tasmacetus
tasmaniensis
tatara
tatarica
tate
tatei
tateomys
tatera
taterillus
taterona
tatouay
tatrica
tatricus
tattersall
tattersalli
tauraco
taurinsulae
taurinus
taurotragus
taurus
tavaratra
tavera
tavesik
tawa
tawaday
tawadayafa
tawadayik
tawadayikya
tawamidura
tawava
tawavo
tawavopa
tawavopik
tawetc
tawitawiensis
tawuz
taxicolor
taxidea
taxilla
taxinus
taxonomy
taxus
taya
tayassu
tayassuidae
taylor
taylori
taymir
taz
tazuk
tazukad
tazukar
tazukoy
tcabaner
tcabanera
tcabanes
tcabanesik
tcada
tcamol
tcardiol
tcatera
tcatesa
tcelda
tceremcan
tcerna
tcerski
tchagra
tchernyavsky
tcila
tcilea
tcileaf
tcipol
tcol
tcoley
tcoluk
tcubay
tcukotka
tculk
te
teapensis
teau
teberdina
tec
tegira
tegisaca
teguina
tehuantepecus
teke
tekudol
tel
tela
telacanthura
tele
teledromas
telespiza
teleus
telfairi
telfordi
teli
telibol
telibudol
teliz
telizeem
tellus
telmalestes
telo
telophorus
telum
telyona
temama
temchuki
temminck
temminckii
temminek
temminick
temnurus
temon
tempisque
temporalis
temps
tena
tenafa
tenaster
tende
tenebricus
tenecol
tenelliodus
tenellus
tener
teni
tenrec
tenrecidae
tenrecinae
tenrecomorpha
tenuipes
tenuirostris
tenuis
tephrodornis
tephromelas
tephrosceles
tephrozosterops
ter
terathopius
terca
tere
terenotriccus
terenura
teres
tereticaudus
teretistridae
teretistris
terminus
terpsiphone
terraenovae
terrarum
terre
terrestris
terricola
terricolor
terrosus
tersina
tersus
terutaus
terutus
tescorum
tesia
testa
testol
testone
tetley
tetracerus
tetradactyla
tetradactylus
tetrao
tetraogallus
tetraophasis
tetrastes
tetrax
teuszii
tev
teve
teveaksat
tevoy
tevoya
texanus
texensis
texianus
tey
teza
tezikya
th
thaeleri
thai
thaiwanensis
thalassarche
thalasseus
thalassoica
thalassornis
thalia
thallomys
thalmann
thalpomys
thalurania
thamin
thamnistes
thamnolaea
thamnomanes
thamnomys
thamnophilus
thamnornis
thamnos
thapsinillas
thaptomys
thar
thaumastura
the
thectocercus
theerapati
theodorverhoeveni
theresa
theresae
theristicus
theropithecus
thescelocichla
thetis
thibetana
thibetanus
thierry
thierryi
thikae
thinobia
thinocoridae
thinocorus
thinornis
thlypopsis
tholloni
thomas
thomasi
thomasomys
thomensis
thomomys
thompson
thompsoni
thomson
thomsoni
thomsonii
thonglongya
thoracatus
thornicrofti
thoulless
thous
thraupidae
thraupis
threatened
threnetes
threskiornis
threskiornithidae
thrichomys
thripadectes
thripophaga
thryomanes
thryonomyidae
thryonomys
thryophilus
thryorchilus
thryothorus
thu
thunberg
thylacinidae
thylacinus
thylacomyidae
thylamys
thylogale
thysanurus
ti
tianschanensis
tianshanica
tiaris
tibetana
tibetanus
tiburonensis
tibutaf
ticawaltara
tice
ticef
tichodroma
tichodromidae
tici
tickellia
tickir
tid
tiedemann
tienne
tiflov
tigid
tigir
tigira
tigis
tigisa
tigranes
tigrillo
tigrina
tigrinus
tigriornis
tigris
tigrisoma
tijuca
tikhonov
til
tildera
tillotson
tilmatura
tilonura
timalia
timaliidae
time
timealeyi
timeliopsis
times
timidus
timm
timminsi
timofeev
timorensis
timoriensis
timothy
tinamidae
tinamiformes
tinamotis
tinamus
tingia
tiomanicus
tionis
tippelskirchi
tique
tir
tis
tisa
tisu
titawaltara
tite
titi
titkraytacek
titthaecheilus
tityra
tityridae
tiv
tivius
tiyid
tiyir
tjaederi
tjerapai
tlacuatzin
tmetothylacus
to
toa
toba
tobolica
tocantinsi
tocantinus
tockus
tod
todd
tode
todidae
todiramphus
todirostrum
todus
togeanensis
togianus
togoa
togoensis
tohi
toits
tokoda
tokuda
tokudae
tokudaia
tol
tolai
tolda
tole
toleaf
toleafa
toleaksat
toledo
tolgenira
tolima
tollubekdunol
tolmomyias
tolna
tolonga
toloy
toloya
toloye
toloyi
toloyo
toloyu
tolstoy
tolteca
toltecus
tolucae
tolvolveyveem
tolypeutes
tolypeutinae
tombol
tomensis
tomentosus
tomes
ton
tonga
toni
tonkeana
tonkeanus
tonkinensis
tonquinia
tontalis
toole
topaza
topi
tora
toradjol
tordayi
torestava
torgos
tori
torigir
toritensis
torquata
torquatus
torques
torre
torrei
torreornis
torresi
torridus
torvus
toschi
tota
totasik
toufoeus
touit
toulon
tourka
tovarnjak
tovazol
tove
tovedol
tovipol
tovok
tovol
tovukol
tovumol
towara
tower
town
townsend
townsendi
townsendii
toxorhamphus
toxostoma
toz
toza
tozafa
tozeri
tra
trabe
trabeata
trachyphonus
trachypithecus
tragelaphus
tragocamelus
tragopan
tragulidae
tragulus
trai
traill
trakopik
tramerc
tramerka
tranier
tranieri
transbaicalicus
transbaikalicus
transcaspicus
transcaucasica
transcaucasicus
transitionalis
transitorius
transsylvanica
transsylvanicus
transvaalensis
trasiyid
traspur
travassosi
travel
traversia
traversii
travi
tre
tree
tregellasia
trelaf
trelafa
trelapaf
tremarctos
trepidus
treron
tretat
trevelyani
tribonyx
trichastoma
trichechidae
trichechus
trichodere
trichoglossus
tricholaema
tricholestes
trichopus
trichosurus
trichothraupis
trichotis
trichura
trichurus
trichys
tricinctus
triclaria
tricolor
tricuspis
tridactyla
tridactylus
tride
tridecemlineatus
tries
trig
trigonoceps
trilineata
trimez
trimucronatus
trimulic
tringa
trinidadensis
trinitatis
trinitatus
trinomys
trinotatus
tripartitus
tristis
tristrami
tristriatus
triton
trivialis
trivirgata
trivirgatus
trivittatus
trochalopteron
trochilidae
trochilus
trochocercus
trogarn
troglodytes
troglodytidae
trogon
trogonidae
trogoniformes
trogopterus
trois
tropez
tropica
tropicalis
troskol
trotteri
trouessart
troughton
trouville
trowbridge
trowbridgii
trstikovac
true
truei
trugon
trumbullensis
truncatus
truongsonensis
trutca
trutcastraga
tryphomys
tschadensis
tschaganensis
tscherskia
tschersky
tschiliensis
tschudi
tschudii
tschuktschorum
tschundi
tsenke
tsiyenol
tsna
tsolovi
tsss
tsuensis
ttneri
tu
tua
tubulidentata
tuconax
tucpastaxe
tucumana
tucumanus
tude
tueskol
tufek
tugol
tugolek
tuileries
tuke
tukrunol
tuksaxo
tula
tularensis
tularosae
tulduco
tulla
tullberg
tullbergi
tulon
tulwadunol
tumbalensis
tumbezia
tumidus
tumtikya
tumtikye
tumuli
tumulus
tundrarum
tundrensis
tungussensis
tunneyi
tunotrayar
tunuyara
tuoc
tupaia
tupaiidae
turacoena
turba
turci
turdidae
turdoides
turdus
turka
turkafa
turkin
turnagra
turneri
turnicidae
turnix
turov
turova
turovi
turowi
tursia
tursiafa
tursiops
turton
turtur
turuchanensis
tuvel
tuveli
tuvinicus
tuwava
tuwavaf
tuwavafa
tuwavaxo
tver
tvertsa
tweedii
twus
tylas
tyleri
tyleriana
tylomyinae
tylomys
tylorhinus
tymerlachsonorum
tympanoctomys
tympanuchus
tyoca
typhlomys
typhlops
typica
typicus
typus
tyranneutes
tyrannidae
tyrannopsis
tyrannulus
tyrannus
tytler
tytlerii
tyto
tytonidae
tytonis
u
ubangiensis
ubericolor
ucayalensis
ucayalii
uchidai
ucom
ucucha
ug
ugal
ugale
uganda
ugandae
ugra
ugyunak
uicn
uinta
uintensis
uispp
uja
ujeem
uka
ukaf
ukanol
ukraina
ukrainaf
ukrainafa
ukrainavon
ukrainicus
uksabol
uldinenon
uldinera
ulim
ulmer
ultima
uluk
ulyanovsk
umbrinus
umbristriata
umbrosus
umpquensis
un
una
unalascensis
uncia
unctuosus
und
underwoodi
undulatus
une
unesco
ungava
ungavensis
unge
unguiculatus
unguifera
unguja
unicinctus
unicolor
unicornis
uniformis
unistriata
unisulcatus
universite
university
univittatus
unja
upa
updike
upper
upton
upucerthia
upupa
upupidae
uraeginthus
uralensis
uranomys
urartensis
urartu
uratelornis
urbain
urbano
uria
urichi
urochroa
urocissa
urocolius
urocynchramidae
urocynchramus
urocyon
urodynamis
urogale
uroglaux
urolais
urolestes
uromyias
uromys
uropelia
uropsalis
uropsila
uropsilus
urorhipis
urosciurus
urosphena
urosticte
urothraupis
urotrichus
urotriorchis
ursidae
ursinus
ursus
urucuma
uruguayensis
urva
usambarae
usambarensis
usov
uspallata
ussuricus
ussuriensis
ust
ustulatus
ustus
usukotasa
ut
utah
utahensis
utahickae
utara
utca
utibilis
utif
utska
uvendewala
uvod
uzda
uzekol
uzungwensis
v
va
vaccarum
vace
vacillator
vae
vaeskol
vaf
vafa
vagans
vagee
vageeon
vageexo
vageiste
vagerone
vagetalte
vaginalis
vagrans
vahl
vaj
vakol
valaam
valdigak
valdiviae
valdivianus
vale
valente
valenteon
valentexo
valentiste
valentrone
valenttalte
valeve
valeveon
vali
validus
valin
valle
valley
vallicola
vallinus
vallotton
valqui
vamba
vambot
vamoe
vamoo
vampyr
van
vancourverensis
vancouverensis
vancouveri
vandel
vandeleuria
vandeuseni
vane
vanellus
vanga
vangidae
vanheurni
vanmiae
vanpir
vanpiyir
vanrosseni
vansara
vanzolinii
vaon
var
varafa
vardenis
vardonii
varecia
varengeville
varenne
varia
variabilis
variani
varians
variegata
variegates
variegatoides
variegatus
varilla
varius
varona
varone
varoneon
varonexo
varronis
varus
varynaensis
vas
vasco
vase
vasili
vasilyev
vasin
vassali
vatalte
vates
vatiteon
vaughn
vauriella
vawa
vawila
vaxe
vayaks
vayara
vayasa
vayasik
vazuza
ve
vebaltara
vebidus
ved
vedeyaf
vedeyafa
vedil
veem
vegedunava
vegedura
vegetus
vegungaf
vegungafa
vektar
vela
veldkampii
veles
velessiensis
veli
velika
velikya
vellerosus
velo
velox
velutinus
vema
venaticus
venatorius
venezia
venezuela
venezuelae
veniliornis
venise
venta
ventorum
ventralis
venusta
venustulus
venustus
vera
veraecrucis
veraecruscis
veraepacis
verecundus
vereschchagin
vereshchagin
vergel
verhageni
verheyen
verheyeni
verlag
vermeer
vermeiren
vermilingua
vermivora
vernaya
vernayi
vernet
verreaux
verreauxi
verreauxii
verrucosus
versailles
verschureni
versicolor
version
versteegi
vertokad
vertokayad
vertuma
verus
vescus
veseljuh
vesk
vesmanis
vesnol
vespuccii
vestara
vestasik
vestitus
vetcay
vetcayek
vetcayye
vetluga
vetulus
vevey
vexala
vexalasa
vexillaris
vexillarius
vexillifer
vey
veyafa
veyfirday
veyturkafa
veyyasa
viaria
viatorum
vicente
victoire
victor
victoria
victoriae
victorianjansae
victus
vicugna
vidua
viduidae
vie
vieillot
vieira
viel
viele
vieli
view
viga
vigens
viggers
vigilans
vigilis
vigne
vignei
vigors
vii
viii
vila
villa
village
villai
ville
villosa
villosissimus
villosus
vilsandi
vilyuy
vimkol
vincenti
vini
vinogradov
vinogradovi
viperinus
vir
virda
vireo
vireolanius
vireonidae
virgata
virginia
virginiae
virginiana
virginianus
viridis
viridonia
vis
visagiei
viscacia
vison
vita
vitalinus
vitcegda
vitim
vittata
vittatus
vitticollis
vitulina
vivar
vivax
viverra
viverricula
viverridae
viverrinae
viverrinus
vivien
vixasa
vizcaccia
vizcai
vladimir
vladivostok
vo
voa
voalavo
voapa
vociferans
voda
vodeni
vodenjak
vogel
vogelherd
voi
voigt
voja
vol
volans
volatinia
volcanism
voldum
volemys
volga
volkmanni
volnuchini
vologda
volruptesa
volruptesuca
vols
volson
voltcina
volveyoxi
volveyveem
volveyyasa
vombatidae
vombatiformes
vombatus
vome
vomerina
von
vonera
vor
voratus
vorax
vorbumol
vordermanni
vormela
vorontsov
vorya
vosmaeri
voss
vostotcni
vox
voxe
voxen
voxis
vre
vree
vrolik
vrouw
vruni
vucetich
vue
vuest
vuested
vuestesa
vuestexa
vugoya
vugoyuma
vugzol
vulcani
vulcanius
vulcanorum
vulcanus
vulgaris
vulgivaga
vulpecula
vulpes
vulpina
vulpinus
vultera
vultur
vumbae
vuquangensis
vwa
vwon
w
wabol
wafibol
wafokol
wafomol
wafra
wagela
wagler
wagner
wagneri
wahlbergi
wahwahensis
waikoy
waite
wakefield
wal
waldheim
waldronae
wale
walef
wali
walie
wallabia
wallacii
walleri
wallichii
wallowa
walter
walvedeyaf
walvedeyafa
wan
wang
wangchuk
wardi
ware
warkundol
warnemu
warolara
warren
warreni
warter
warzaca
warzaf
warzafa
warzera
warzesa
wasatchensis
washburn
washington
washingtoni
wasol
watasei
waterhouse
watersi
watsa
watson
watsoni
watts
wattsi
weasteukol
web
webbi
weber
weberi
weckerly
weda
wedafa
weddelli
weddellii
wedemol
weemsi
wegidol
wekixol
weksler
welfa
wellsi
welma
welmon
welmot
weltikya
welty
weluska
welwitschii
wenban
wenyaxik
werd
werda
werdelin
werdtoraf
werdxo
werpazol
werpol
werpukol
wertheri
west
westfalen
wetarensis
wetce
weti
wetmore
wetmorei
wetmorethraupis
wettstein
wetzel
wetzeli
wevala
weynsi
weyprecht
whartoni
whitaker
whitakeri
white
whiteheadi
whitei
whitelyi
whitesidei
whitmani
whitney
whytei
wickler
wico
wid
wida
widaki
widava
widavama
widavapa
widdringtonii
wideem
wideytafa
widikya
widot
wied
wiedii
wiedomys
wiegmann
wiener
wiftenol
wiftol
wiftovol
wigursol
wija
wikandapa
wikipedia
wikispecies
wiks
wil
wilcoxi
wilczek
wilde
wilderness
wilfredomys
wilhelm
wilhelmina
willett
willetti
william
williams
williamsi
williamsoni
willisornis
wilme
wilson
wilsoni
wilteem
wilttota
wimmeri
win
windhoekensis
winge
wingei
winka
winkeem
winkelmanni
winnemana
winnyae
winstoni
winta
winter
winthropi
winton
wintoni
winugaf
winugafa
winugafu
wira
wirikol
wisconsinensis
witafa
witalu
witalufa
witaluguinea
witca
with
witherbyi
witkot
witte
wittei
wivga
wivgatorik
wivgusik
wixedo
wixedoga
wocokol
wocol
wocolya
wocukol
wocumol
wocusol
woermanni
wogura
woinarski
wolf
wolffsohn
wolffsohni
wolfi
wollastoni
wollebaeki
wolters
womochel
wong
wood
woodfordi
woodfordia
woodhouse
woodi
woodman
woods
woodwardi
woolf
woolleyae
woosnami
wori
world
wortmani
wouk
woyek
wozencraft
wright
wrightae
wroughton
wroughtoni
wu
wuchihensis
wula
wulpa
wungel
wupe
wurmb
wurmbii
wutke
www
wynnei
wyulda
władysław
x
xabarovsk
xadola
xafnel
xanta
xantaf
xanthaeolus
xanthanotus
xanthipes
xanthocephalus
xanthogenys
xanthognathus
xanthomixis
xanthoprymnus
xanthopsar
xanthopus
xanthopygus
xanthosternos
xanthotis
xanthurus
xantippe
xanton
xatanga
xayastana
xe
xeftoara
xeftocek
xema
xenerpestes
xenicus
xenodacnis
xenoglaux
xenoligea
xenomys
xenoperdix
xenopipo
xenopirostris
xenops
xenopsaris
xenornis
xenospingus
xenospiza
xenotriccus
xenuromys
xenus
xerampelinus
xerinae
xeromys
xerophila
xerophilus
xerospermophilus
xerotrophicus
xerus
xim
ximenez
ximinez
xiphidiopicus
xiphocolaptes
xipholena
xiphorhynchus
xix
xo
xolmis
xonukera
xonukesik
xorol
xrvatska
xu
xusedol
xusikol
xusol
xusumol
xviii
xx
xxx
y
ya
yabol
yaburol
yafa
yagouaroundi
yakimensis
yaksyatol
yakui
yakushimae
yalden
yaldeni
yalestaca
yamal
yamashinai
yamba
yambik
yana
yang
yanguiensis
yanka
yankariensis
yantot
yantotaf
yapeni
yarkandensis
yarrow
yasa
yates
yaxol
ye
yearbook
yebalensis
yedjago
yedjagoda
yedjagoza
yelmensis
yemeni
yenbutra
yendol
yeniseensis
yepes
yepesi
yerbury
yerevan
yerres
yesoensis
yesus
yikya
yikye
yinaxot
yiwol
yo
yoke
yolandae
yolt
yoltar
yoltayar
yoltkiraf
yoltkirafa
yon
yona
yonenagae
york
yosemite
yoshikurai
yoshiyuki
young
youngi
youngman
youngsoni
youtube
yoy
yucantanensis
yucatanensis
yucataniae
yucatanica
yucatanicus
yudin
yuenshanensis
yuhina
yukonensis
yukonicus
yulei
yumanensis
yunanensis
yundacek
yunganus
yungarum
yungipicus
yunnanensis
yuyapol
yvonnae
z
za
zaava
zabaikala
zabduyusa
zabel
zacatecae
zachidovi
zadar
zae
zaedyus
zaglossus
zagorodnyuk
zagreb
zakariai
zalkin
zalophus
zambesiensis
zambeziensis
zambia
zamicrus
zammaranoi
zamora
zamorae
zanclostomus
zanisikya
zanjonensis
zanne
zanudar
zanzibar
zanzibaricus
zapetcok
zaphaeus
zaphiri
zapodinae
zapus
zaramody
zaratornis
zarhynchus
zarudnyi
zavattariornis
zavzar
zaza
zazda
zborowski
ze
zebra
zebrilus
zebroides
zechi
zegol
zelebor
zeledonia
zeledoniidae
zelotomys
zemlya
zemni
zena
zenaida
zenkerella
zenkeri
zenki
zentrygon
zerda
zerkanel
zertek
zertekey
zertekiz
zertekos
zertekot
zertekum
zertekuz
zetta
zeylanicus
zeylanius
zeylonensis
zhang
zheng
zibellina
zibetha
zibethicus
ziegler
zima
zimara
zimbabwea
zimbol
zimmeensis
zimmeri
zimmerius
zimmerman
zimmermann
zimmermanni
zinki
zinseri
ziosk
ziphiidae
ziphius
zo
zodius
zola
zolonaf
zolonafa
zolotarev
zonalis
zonerodius
zonotrichia
zoonavena
zoothera
zornjak
zorrino
zosteropidae
zosterops
zosterornis
zovdaks
zquez
zu
zubko
zuca
zukowsky
zuleika
zuliae
zuluensis
zuniensis
zunigae
zuptay
zuptayok
zuxol
zvartnots
zveri
zverieem
zverifa
zverimi
zveriopafa
zygodontomys
zygogeomys
zygomaticus
zyli
zyzomys
{
|
}
~

¢
«
°
±
²
³
·
»
×
øvre
œuvre
̀
́
̂
̃
̄
̆
̇
̈
̊
̋
̌
̓
̣
̦
̧
̨
α
η
ι
π
ς
ϵ
а
бе
бере
берег
берега
берегу
близ
большая
большои
в
валааме
весна
вечер
вид
во
волге
грозои
д
день
деревня
дождя
дорога
дочери
дубы
е
за
заж
зима
и
из
к
корень
котава
крыму
л
лес
леса
лесная
леснои
лесу
м
мельница
моря
мы
н
на
озеро
ока
окрестностях
он
осеннии
осень
остров
острове
п
парке
пеи
перед
портрет
после
пруд
река
репинои
роща
ручеи
с
солнечныи
сосновом
сосновыи
сосны
сумерки
т
у
утро
художника
ч
этюд
я
является
язык
էջմիածնի
ս
᛫
‎
‐
–
—
’
†
•
‰
⁡
→
↔
↷
∀
∃
∈
∏
∑
−
∫
≈
≥
⋅
③
④
⑦
►
♠
⟶
⟹
⟼
⺀
⺄
⺆
⺈
⺊
⺌
⺕
⺝
⺸
⺼
⿰
⿱
⿲
⿳
⿴
⿵
⿶
⿷
⿸
⿹
⿺
⿻
〢
コ
ユ
㇁
㇂
㇄
㇇
㇈
㇉
㇓
㐁
㐄
㐅
㐌
㐫
㐬
㐭
㐮
㐱
㑒
㒵
㒸
㒼
㓁
㓞
㔾
㕛
㕣
㖾
㘝
㚅
㚇
㚔
㚘
㝉
㝡
㝴
㝵
㞋
㞢
㞷
㠩
㠭
㠯
㡀
㡭
㡿
㢲
㢴
㣇
㣺
㥯
㪅
㫄
㫐
㫒
㫺
㬅
㬎
㬥
㬰
㲋
㳄
㷠
㸒
㸚
㸦
㼌
㼲
㽞
㿟
䀠
䂞
䍃
䏍
䒑
䖍
䖒
䖝
䖵
䙴
䚻
䜌
䝿
䡛
䧹
䪞
一
丁
丂
七
丄
丅
丆
万
丈
三
上
下
丌
不
与
丏
丐
丑
专
且
丕
世
丘
丙
业
东
丞
丢
丣
两
严
並
丨
丩
个
丫
丬
中
丮
丰
丱
串
丵
丶
丷
丸
丹
为
主
丽
丿
乀
乂
乃
久
乆
乇
么
义
之
乌
乍
乎
乏
乐
乑
乔
乖
乗
乘
乙
乚
乛
乜
九
乞
也
习
乡
乳
乾
亀
亅
了
亇
予
争
事
二
亍
于
亏
亐
云
互
亓
五
井
亘
亚
亜
亞
亟
亠
亡
亢
交
亥
亦
产
亨
亩
享
京
亭
亮
亯
亰
亲
亳
亶
亷
人
亻
亼
亾
仁
今
介
仌
从
仐
仑
仒
仓
仕
他
付
仝
代
令
以
任
企
伊
伏
伐
休
会
伯
但
位
何
佘
余
作
佥
使
來
侈
侌
侖
侯
侵
便
保
俞
信
修
倉
倍
候
倠
備
僉
僕
儿
兀
允
兂
元
兄
充
兆
兇
先
光
兊
克
兌
免
兑
兒
兓
兔
党
兜
兟
入
全
兩
兪
八
公
六
兮
兰
共
关
兵
其
具
典
兹
兼
冀
冂
冃
冄
内
冈
冉
冊
冋
册
再
冎
冏
冐
冒
冓
冖
冗
冘
军
农
冝
冡
冥
冫
冬
冷
几
凡
凢
凵
凶
凷
凸
凹
出
函
凾
刀
刁
刂
刃
刄
刅
分
切
刍
刑
刕
刖
列
刘
则
初
別
利
别
到
制
刺
則
削
剌
前
剡
剽
劉
力
功
加
劦
助
劫
劳
劵
勃
勇
勉
勒
動
務
勞
勤
勹
勺
勻
勾
勿
匀
匂
包
匆
匈
匊
匋
匍
匕
化
北
匚
匝
匡
匪
匱
匸
匹
区
医
匽
匿
區
十
卂
千
卄
卅
卆
升
午
卉
半
卌
华
卑
卒
卓
单
卖
南
卜
卝
卞
占
卡
卢
卣
卤
卦
卩
卪
卬
卯
印
危
即
却
卵
卷
卸
卻
厂
厃
厄
历
厈
厉
厌
厓
厘
厚
原
厤
厥
厨
厭
厲
厶
厷
厸
去
厼
厽
叀
参
參
叅
又
叉
及
友
双
反
叐
发
叒
叔
叕
取
受
叚
叜
叟
口
古
句
另
叩
只
召
可
台
叱
史
右
叵
号
司
叹
吂
各
吅
合
吉
吊
吋
同
名
后
吏
向
吕
君
吝
吞
否
含
启
吳
吴
吹
吾
呂
呆
呈
告
员
呙
周
命
咅
和
咎
咠
咢
咨
咸
咼
哀
品
哉
員
哥
哲
唐
商
啇
問
啚
啬
啻
善
喜
喬
單
喿
嗇
噩
嚴
囊
囗
囘
囙
囚
四
回
囟
因
囧
囬
困
囱
囷
固
国
圂
圅
國
圍
圓
土
圡
圣
圥
在
圭
地
圶
圼
坂
坐
坒
坚
坴
垂
垔
垚
埀
埋
埶
執
基
堂
堅
堆
堇
堯
塚
塞
墨
壘
士
壬
壯
声
壳
壴
壹
壺
壽
夂
处
夅
夆
备
夊
夋
夌
复
夏
夒
夕
外
夗
夘
多
夜
夢
大
夨
天
太
夫
夬
夭
央
失
夲
头
夷
夸
夹
夻
夾
奂
奄
奇
奈
奉
奎
奏
奐
契
奓
奔
奚
奞
奠
奢
奥
奭
女
奴
奻
好
如
妄
妙
妟
妥
妻
妾
姑
委
姜
威
娄
婁
婴
嬰
嬴
子
孑
孔
孕
孖
字
存
孚
孛
孝
孟
季
孤
学
孫
孱
學
宀
宁
宂
它
宅
宇
守
安
宋
完
宏
宓
宗
官
定
宛
宜
宝
客
宣
室
宮
宰
害
家
容
宾
宿
寄
寅
密
富
寒
察
寧
審
寫
寬
寮
寸
对
寺
寻
寽
対
寿
封
尃
射
将
將
專
尉
尊
尋
尌
對
小
少
尒
尓
尔
尖
尗
尚
尞
尢
尣
尤
尧
尨
尭
就
尸
尹
尺
尻
尼
尽
尾
尿
局
居
屈
屋
屎
屏
屑
展
屖
屚
属
屠
屡
屬
屮
屯
屰
山
屵
屾
岁
岂
岑
岡
岩
岳
岸
峯
島
崇
崎
崑
崔
崖
崙
崩
嵬
嶲
巂
巛
川
州
巟
巠
巢
巤
工
左
巧
巨
巩
巫
差
己
已
巳
巴
巷
巸
巽
巾
巿
帀
市
布
希
帚
帛
帝
带
師
席
帶
常
干
平
年
幵
并
幷
幸
幺
幻
幼
幽
幾
广
広
庄
床
底
店
庚
府
度
庫
庭
庶
康
庸
廉
廌
廛
廣
廩
廴
延
廷
建
廾
廿
开
弁
弃
弄
弇
弋
式
弓
弔
引
弗
弘
弜
弟
弥
弦
弱
張
強
强
彊
彌
彎
彐
彑
当
彔
录
彖
彗
彡
形
彥
彦
彧
彭
彳
役
彼
往
待
律
徒
得
徙
從
復
微
徵
心
忄
必
忌
忍
志
忝
忠
忩
快
念
忽
忿
思
怠
急
怱
恆
恒
恩
恭
息
悉
患
悤
悲
悶
惠
惡
惢
愁
愈
意
愛
感
慈
慧
慮
憂
憲
應
戀
戈
戉
戊
戋
戌
戍
戎
成
我
戒
戔
或
戚
戠
戢
截
戲
戶
户
戹
戼
戾
房
所
扁
扇
手
扌
才
打
托
执
承
折
拉
拜
拿
掌
推
提
摩
支
攴
攵
收
攸
改
放
政
敄
敏
敕
敖
敗
敝
敞
敢
散
敦
敫
敬
数
敷
數
斂
文
斉
斊
斗
斤
斥
斩
斬
斯
新
方
於
施
斿
旁
旋
族
无
旡
既
旣
日
旦
旧
旨
早
旬
旱
旲
时
旾
昆
昇
昌
昍
明
昏
易
昔
昗
昜
星
春
昬
是
昱
昴
昷
時
晃
晋
晏
普
景
晶
智
暑
暴
曇
曩
曰
曲
曳
更
曷
書
曹
曼
曾
替
最
朁
會
月
有
朋
服
朔
朕
朗
望
朝
木
朩
未
末
本
札
朮
术
朱
朵
朶
朿
杀
杏
杜
束
条
来
東
杲
杳
松
析
林
枚
果
枝
枲
枼
某
柔
查
柬
柰
柴
栗
桀
桑
桼
梁
條
梟
梨
棘
棠
棥
森
楚
業
楽
榮
樂
樊
欠
次
欣
欮
欲
欶
欽
款
歆
歇
歛
止
正
此
步
武
歨
歪
歮
歯
歰
歲
歴
歷
歸
歹
歺
死
殳
段
殷
殸
殹
殺
殻
殿
毋
毌
母
每
毒
比
毕
毚
毛
毳
氏
氐
民
气
氣
水
氵
氶
氷
永
氺
氾
求
汝
汞
江
沃
沓
沙
沝
泉
法
波
泣
泥
泰
洛
津
洪
活
派
流
浦
浪
浮
淡
淮
清
渚
渠
湯
滿
漸
火
灬
灭
灰
灵
灷
炅
炎
炏
炗
炙
炭
為
烈
烏
烝
焉
無
焦
焱
然
煞
熊
熏
燕
營
燮
爪
爫
爭
爯
爰
爱
爲
爵
父
爻
爽
爾
爿
片
牙
牚
牛
牜
牟
牢
牧
牪
牽
犀
犬
犭
犮
狂
狄
狊
独
狺
猋
猒
猪
献
獻
玄
率
玉
王
玟
玨
珎
班
琴
瑟
瑩
瓜
瓦
甘
甚
生
産
用
甫
甬
田
由
甲
申
电
甶
男
甸
甹
画
甾
畀
界
畏
畐
留
畜
畟
畢
畧
畨
番
畫
異
畱
當
畺
畾
疊
疋
疌
疑
疒
疾
癶
癸
癹
登
發
白
百
皀
皃
的
皆
皇
皋
皐
皕
皮
皷
皿
盃
盆
盇
盈
益
盍
盎
监
盒
盖
盛
盡
監
盤
盧
目
直
相
盾
省
眇
眉
看
眔
眞
真
眷
眼
眾
着
睘
睪
睿
瞏
瞢
瞿
矍
矛
矞
矢
矣
知
矦
短
石
破
碎
磊
磨
示
礻
礼
祟
票
祭
禀
禁
禸
禹
禺
离
禽
禾
禿
秀
秃
秉
秋
科
秝
秦
移
稟
穀
穌
穴
究
穹
空
穿
突
窄
窒
立
竒
竜
竝
竟
章
童
竹
笑
笠
筆
等
答
箕
算
箴
節
篤
篭
米
粉
粛
粟
粤
粦
粲
糞
糸
糹
系
約
納
素
索
紫
累
細
絜
絫
絲
維
綿
縣
繇
纍
纟
缶
网
罒
罔
罕
罗
罙
罡
罢
罪
署
罷
羅
羊
羌
羍
美
羔
羕
羗
羞
羡
羣
群
義
羲
羸
羽
翁
翏
習
翕
翟
翠
翼
老
耂
考
者
耆
而
耎
耑
耒
耳
耴
耶
耷
聂
聊
聖
聚
聶
聿
肀
肃
肅
肉
肖
肙
肥
肩
肯
育
肴
胃
背
胡
胥
能
脊
脩
膚
臣
臤
臧
自
臬
臭
臯
臱
至
致
臺
臼
臽
臾
臿
舀
舂
舄
與
興
舉
舌
舍
舛
舜
舞
舟
般
艮
良
色
艸
艹
艾
芒
芔
芬
芮
花
芳
芺
芻
苔
苗
苟
若
苦
英
茶
茸
荅
草
荒
荣
荼
莆
莧
莫
莽
菆
菊
菐
華
萬
落
葉
著
葛
董
葵
蒙
蒦
蒼
蓋
蓬
蓺
蔑
蔡
蕉
蕭
薄
薛
薦
薰
藍
藏
藤
藥
蘭
虍
虎
虐
虒
虔
處
虖
虗
虘
虚
虛
虜
虞
虫
虽
蚤
蚩
蜀
蜜
蟲
蠡
血
行
衍
衛
衣
衤
表
衮
衰
袁
袞
褭
褱
襄
襾
西
覀
要
覃
見
規
覓
覧
親
覽
见
角
解
言
訁
訇
計
詹
誩
諸
讠
谷
豆
豈
豊
豐
豕
豖
豙
象
豦
豩
豪
豸
貇
貝
貞
貟
負
貢
貧
貪
貫
責
貳
貴
買
費
賁
資
賈
賏
賓
賔
賛
賞
賢
賣
質
賴
贊
贝
贡
责
贯
贲
贵
赖
赞
赤
赦
走
越
足
路
蹇
身
躬
車
軍
軎
軟
輦
车
辛
辜
辟
辥
辰
辱
農
辵
辶
边
达
过
近
连
迷
追
退
送
逆
逐
通
速
造
逢
連
逮
進
遀
遂
過
道
達
遣
適
遷
遺
邊
邑
邕
那
邦
邪
郎
部
郭
都
鄉
酉
酋
配
酓
釆
采
里
重
野
量
金
釒
錢
钅
長
镸
长
門
閃
閉
開
閏
閑
閒
間
閔
閵
閻
闌
门
间
闷
阑
阜
阝
阿
降
陳
隆
隊
隋
隡
隨
隱
隶
隹
隺
隻
隼
隽
难
雀
雁
集
雈
雋
雍
雐
雔
雙
雚
雜
雝
離
難
雨
雩
雪
雲
零
雷
需
霍
霜
霝
霞
霸
靈
靑
青
非
靡
面
靣
革
韋
韦
韭
韯
韱
音
頁
頃
項
須
頗
頡
頻
顛
页
風
风
飛
飞
食
飠
養
饣
首
香
馬
馮
駦
马
骨
高
髟
鬥
鬯
鬲
鬼
魚
魯
鮮
鱼
鲁
鳥
鳳
鸟
鹵
鹿
麃
麗
麥
麦
麻
黃
黄
黍
黎
黑
黒
黨
黹
黽
黾
鼎
鼓
鼠
鼻
齊
齋
齐
齒
齿
龍
龙
龜
龟
龠
龰
龱
龴
龵
龶
龷
龸
龹
者
艹
？
𠀁
𠀃
𠀆
𠀉
𠀎
𠀐
𠁁
𠁣
𠂆
𠂇
𠂈
𠂉
𠂊
𠂋
𠂎
𠂒
𠂔
𠂛
𠂡
𠂢
𠂤
𠂬
𠂭
𠂹
𠃊
𠃋
𠃌
𠃍
𠃎
𠃑
𠃓
𠃔
𠃜
𠄌
𠄎
𠄠
𠄢
𠆢
𠆥
𠇍
𠈌
𠌵
𠓜
𠔉
𠔥
𠔼
𠔽
𠔿
𠕀
𠕁
𠕋
𠘧
𠘨
𠙻
𠙼
𠚏
𠚒
𠚤
𠚪
𠣏
𠤎
𠤕
𠥓
𠦄
𠦑
𠦝
𠧒
𠧗
𠧪
𠩺
𠪚
𠫓
𠫔
𠫤
𠬛
𠬝
𠬞
𠬢
𠬤
𠬶
𠮛
𠮦
𠮷
𠯑
𠱠
𠳮
𠷎
𡈼
𡉀
𡉵
𡌥
𡍮
𡏳
𡕒
𡕩
𡕰
𡖅
𡗗
𡗜
𡘆
𡘤
𡧱
𡨄
𡩧
𡬠
𡭽
𡰣
𡰥
𡰪
𡰯
𡰱
𡷈
𡸁
𡿨
𡿩
𡿪
𡿺
𢀖
𢀛
𢀩
𢁙
𢆉
𢆰
𢆶
𢇁
𢇇
𢉖
𢌬
𢌿
𢏚
𢑑
𢑚
𢖻
𢙣
𢛳
𢦏
𢦒
𢧵
𢼄
𢾕
𣁋
𣄼
𣅀
𣅽
𣍘
𣎳
𣎵
𣏋
𣏼
𣗥
𣥂
𣥖
𣦵
𣦼
𣧄
𣪊
𣪠
𣬉
𣳾
𣶒
𤇾
𤊽
𤐫
𤓰
𤔔
𤕨
𤣩
𤰇
𤰔
𤰞
𤴓
𤴔
𤽄
𥁑
𥁕
𥃦
𥃩
𥃭
𥇡
𥑟
𥘅
𥘈
𥝢
𥫗
𥱡
𦈢
𦉪
𦉬
𦉼
𦍌
𦍒
𦎧
𦐇
𦓔
𦔮
𦘒
𦙃
𦚏
𦣝
𦣞
𦣻
𦥑
𦥔
𦥯
𦨉
𦭝
𦰩
𧆞
𧈧
𧘇
𧰨
𧴪
𧴮
𧵩
𧾷
𨸏
𨾴
𩙿
𩠐
𩫏
𩵋
𪉷
𪜀
𪟽
𪠲
𪩲
𫇦
𫔭
𫜸
𫝀
𫠣
𫠩
𫢉
𫥞
𫩏
𫩠
𫪡
𫲽
𫶧
𬀷
𬐘
𬗌
𬙙
𬛸
𬜯
𬟩
𬯁
𬴘
𬺻
𬼉
𬼖
𭀰
𭁈
𭁨
𭅰
𭑈
𭕄
𭗼
𭤨
𭥫
𭻾
𮅕
𮊿
𮍌
𮍏
𮓗
𮥼
𮧮
廾
𰀁
𰀄
𰀈
𰀉
𰀕
𰀠
𰀡
𰀢
𰀪
𰁜
𰃮
𰆊
𰆘
𰋙
𰕎
𰢴
𰧭
𰯲
14--
15--
16--
75--
8--
9--
a--
aal--
ab--
abdi--
abdu--
abrot--
ac--
acag--
ad--
afi--
afr--
ag--
agva--
ai--
al--
ali--
alo--
am--
an--
ana--
apt--
ar--
ara--
arch--
art--
as--
at--
au--
aus--
av--
ay--
ayta--
az--
b--
ba--
baig--
ban--
banner--
bar--
bas--
bat--
bataka--
be--
beau--
beg--
bel--
bem--
ber--
bew--
bi--
bic--
bio--
bip--
bira--
bis--
bla--
bli--
blo--
bo--
bou--
bowe--
bra--
bre--
bri--
bru--
bu--
bur--
bw--
by--
c--
ca--
cam--
can--
cap--
car--
cas--
cau--
ce--
ces--
che--
chil--
cho--
chr--
clau--
clo--
co--
com--
con--
cor--
cou--
cru--
cu--
cultu--
d--
da--
dak--
de--
dek--
di--
dil--
dim--
diz--
do--
dol--
dra--
dru--
du--
dul--
dum--
dza--
e--
ebel--
ebelta--
ed--
edu--
eka--
el--
elup--
emu--
en--
er--
es--
et--
exo--
exu--
f--
fa--
fala--
falta--
fam--
fe--
fen--
fer--
fi--
fleu--
flo--
fo--
fr--
frof--
fu--
ful--
g--
ga--
gab--
gal--
gam--
gar--
gat--
ge--
ged--
gel--
ger--
gi--
gija--
gil--
gla--
gluya--
go--
god--
gol--
gom--
gos--
gr--
gra--
griaw--
gru--
gu--
guer--
gui--
gur--
guy--
gw--
h--
ha--
har--
he--
hei--
her--
hes--
his--
ho--
hol--
hor--
hu--
hun--
hur--
hydro--
i--
ic--
ica--
id--
ik--
ika--
il--
im--
in--
ir--
iru--
is--
it--
iv--
iye--
iz--
j--
ja--
je--
jo--
jon--
jov--
ju--
k--
ka--
kal--
kar--
ke--
ken--
ker--
kes--
kev--
ki--
kis--
kla--
ko--
kola--
kon--
kos--
kot--
kra--
krul--
ku--
kun--
kur--
kut--
ky--
l--
la--
lar--
lau--
lav--
le--
leb--
len--
lent--
leuco--
lev--
li--
lin--
lo--
lu--
lum--
lyuma--
m--
ma--
mac--
macro--
mad--
mag--
mai--
mal--
malsa--
man--
mar--
mas--
math--
mau--
me--
mi--
mic--
midu--
mil--
min--
mo--
mom--
mon--
mont--
mor--
mos--
mou--
mu--
mya--
n--
na--
nar--
naz--
ne--
nen--
ni--
nic--
nico--
nim--
nis--
no--
nu--
nubav--
ny--
nya--
nye--
o--
oc--
ok--
om--
on--
ont--
op--
or--
ora--
os--
ot--
ou--
ox--
p--
pa--
pal--
pan--
par--
patec--
pav--
pay--
pe--
pet--
pi--
pil--
pilko--
pin--
pit--
pl--
po--
pom--
poz--
pri--
pro--
pu--
pul--
pulvir--
py--
qu--
r--
ra--
radi--
ran--
rapo--
raw--
raz--
re--
rem--
ren--
ri--
ro--
ron--
rou--
row--
ru--
rufi--
rum--
rus--
rø--
s--
sa--
san--
sar--
savsa--
sc--
sca--
se--
ser--
set--
sha--
si--
sid--
sk--
skuy--
sle--
so--
sol--
spo--
squ--
st--
sta--
stak--
stat--
ste--
stu--
su--
sug--
sur--
sw--
swav--
swaxili--
sy--
sz--
t--
ta--
tab--
tad--
tal--
tan--
tap--
tar--
taw--
tca--
tce--
tcu--
te--
tel--
ten--
th--
ti--
tic--
ticu--
tim--
to--
tol--
tom--
tor--
tra--
tre--
tri--
trin--
tru--
tsi--
tu--
ty--
u--
ud--
uldi--
un--
ut--
v--
va--
val--
van--
var--
ve--
vege--
vei--
ven--
ver--
vey--
vi--
vil--
vin--
vo--
vol--
volvey--
vru--
vu--
vul--
vur--
w--
wa--
wal--
wals--
war--
wel--
wen--
whit--
wi--
wil--
winug--
wo--
x--
xe--
xu--
y--
ya--
ye--
yer--
yev--
yo--
z--
za--
zam--
zav--
ze--
ziliy--
zo--
zolo--
zw--
в--
д--
да--
к--
кот--
л--
лод--
м--
ме--
н--
обла--
опуш--
п--
пас--
пет--
по--
ран--
рек--
реч--
с--
се--
сол--
т--
--0
--00
--1
--2
--3
--4
--5
--6
--7
--8
--82
--9
--a
--ad
--af
--afa
--afe
--aid
--ain
--ak
--akaf
--al
--ald
--am
--ama
--amaf
--an
--ano
--ap
--ar
--ara
--ary
--as
--asa
--asikya
--ation
--au
--ava
--awa
--axa
--axo
--ay
--aya
--ayar
--az
--b
--ba
--bafa
--bert
--burera
--c
--ca
--ce
--cek
--ch
--chi
--chs
--ci
--cie
--ck
--cka
--ckaf
--co
--cs
--d
--da
--daf
--de
--dey
--dge
--die
--djer
--do
--dom
--ds
--dunol
--e
--ea
--ed
--eem
--ef
--ek
--eke
--el
--ela
--em
--en
--er
--era
--eren
--ern
--es
--esa
--esik
--et
--eus
--eva
--exo
--ey
--eyer
--f
--fa
--fe
--fi
--fiyir
--fo
--ft
--g
--ga
--gal
--gar
--ge
--gen
--ger
--gi
--gid
--gie
--gin
--go
--gut
--gy
--h
--ha
--ham
--he
--i
--ia
--iae
--ic
--ics
--id
--ie
--ier
--ig
--ii
--ik
--ikeem
--ikya
--il
--im
--in
--inda
--ine
--ing
--ings
--ini
--io
--ion
--ique
--ir
--ira
--is
--isa
--iyir
--j
--jer
--k
--ka
--kaf
--kafa
--ke
--keem
--ker
--ki
--kik
--kir
--kiraf
--kirafi
--kon
--ks
--kt
--kya
--kye
--l
--la
--laf
--ld
--le
--les
--li
--lia
--lik
--linae
--lir
--lje
--ll
--lle
--llon
--lly
--lo
--lon
--ls
--lsk
--lt
--ly
--m
--ma
--mas
--mbe
--me
--meem
--mi
--mier
--mo
--mys
--n
--na
--nae
--naf
--nafa
--nburg
--nce
--nd
--nda
--ne
--ner
--ng
--nga
--ni
--nia
--nid
--nik
--nk
--nne
--no
--non
--nor
--ns
--nt
--nte
--nya
--o
--oc
--oda
--ogy
--ok
--ol
--oli
--om
--omys
--on
--ons
--opik
--or
--os
--ostris
--ot
--ote
--ov
--ova
--oy
--oz
--oza
--p
--pa
--paf
--pafa
--pe
--phala
--phy
--pik
--pon
--que
--ques
--quet
--r
--ra
--raf
--rc
--rd
--re
--rg
--ri
--rie
--rk
--rka
--rn
--ro
--ros
--rs
--rt
--ry
--s
--sa
--saf
--se
--sen
--si
--sik
--sk
--so
--son
--ss
--sse
--st
--stus
--susik
--susikya
--sy
--sław
--t
--ta
--taf
--tafa
--taga
--tara
--tc
--tca
--tch
--te
--tes
--ti
--tie
--tinae
--tion
--to
--ton
--tt
--tta
--tte
--tum
--tus
--u
--uca
--ud
--ue
--uk
--ul
--um
--ur
--ura
--us
--usa
--usik
--uson
--ut
--ux
--uyud
--uyur
--uz
--v
--va
--vaf
--ven
--vi
--vio
--vitc
--vo
--von
--w
--wa
--wak
--we
--well
--wer
--x
--xa
--xe
--xo
--y
--ya
--yad
--yar
--yas
--ye
--yed
--yen
--yer
--yid
--yir
--yr
--yur
--z
--za
--zek
--zi
--а
--ая
--ве
--вы
--д
--е
--и
--ии
--к
--ка
--о
--ов
--р
--ря
--т
--х
--ы
--ыи
--ь
--я
