!
"
#
##0
##1
##10
##11
##12
##13
##14
##15
##16
##17
##18
##19
##2
##20
##21
##22
##23
##24
##25
##26
##27
##28
##29
##3
##30
##31
##32
##33
##34
##35
##36
##37
##38
##39
##4
##40
##41
##42
##43
##44
##45
##46
##47
##48
##49
##5
##50
##51
##52
##53
##54
##55
##56
##57
##58
##59
##6
##60
##61
##62
##63
##64
##65
##66
##67
##68
##69
##7
##70
##71
##72
##73
##74
##75
##76
##77
##78
##79
##8
##80
##81
##82
##83
##84
##85
##86
##87
##88
##89
##9
##90
##91
##92
##93
##94
##95
##96
##97
##98
##99
$
%
&
'
(
)
*
+
,
-
.
/
0
00
000
01
02
03
04
05
06
08
09
1
10
100
1000
101
102
104
105
106
107
108
109
11
110
111
112
113
114
115
116
117
118
119
12
120
122
123
124
125
126
127
128
129
13
130
131
132
133
134
135
136
138
139
14
140
141
142
143
144
146
148
149
1492
1499
15
150
1500
151
152
154
155
156
1564
157
158
1594
1599
16
160
161
1616
162
1621
1623
163
1634
1636
1640
1643
1648
165
1650
166
167
1674
168
169
17
170
1700
1707
171
172
1721
1727
173
1730
174
1740
175
1750
1762
1768
177
1770
1775
1776
178
1780
1783
1789
1791
1795
1796
18
180
1800
1804
1805
1806
1808
1809
181
1810
1811
1813
1815
1816
1817
1819
182
1820
1821
1822
1823
1824
1825
1826
1828
1829
183
1830
1833
1835
1836
1837
1839
184
1840
1842
1843
1847
1848
1849
185
1850
1859
1860
1861
1862
1863
1864
1865
1866
1867
1868
1869
187
1870
1871
1873
1874
1876
1879
188
1880
1881
1883
1884
1885
1886
1887
1888
1889
189
1890
1891
1892
1893
1894
1895
1896
1897
1898
1899
19
190
1900
1901
1902
1903
1904
1905
1906
1907
1908
1909
191
1910
1911
1912
1913
1914
1915
1916
1917
1918
1919
1920
1921
1922
1923
1924
1925
1926
1927
1928
1929
193
1930
1931
1932
1933
1934
1935
1936
1937
1938
1939
194
1940
1941
1942
1943
1944
1945
1946
1947
1948
1949
195
1950
1951
1952
1953
1954
1955
1956
1957
1958
1959
196
1960
1961
1962
1963
1964
1965
1966
1967
1968
1969
1970
1971
1972
1973
1974
1975
1976
1977
1978
1979
1980
1981
1982
1983
1984
1985
1986
1987
1988
1989
199
1990
1991
1992
1993
1994
1995
1996
1997
1998
1999
2
20
200
2000
2001
2002
2003
2004
2005
2006
2007
2008
2009
201
2010
2011
2012
2013
2014
2015
2016
2017
2018
2019
202
2020
2021
2022
2023
2024
2025
2026
203
204
205
206
207
208
209
21
210
212
213
215
216
218
219
22
220
221
222
224
225
228
23
230
231
235
24
240
241
242
245
246
247
249
25
250
251
252
253
256
257
259
26
260
261
263
264
265
267
268
27
270
271
272
274
276
277
279
28
280
281
285
286
288
289
29
290
291
293
294
295
297
298
299
3
30
300
3000
301
302
304
305
308
31
312
318
32
322
325
329
33
330
331
332
333
334
335
337
338
339
34
340
341
342
343
344
345
347
348
349
35
350
351
352
353
355
36
360
363
365
37
370
38
39
4
40
400
401
404
41
410
42
43
430
44
45
46
47
48
488
49
5
50
500
5000
51
52
529
53
54
55
56
57
58
589
59
599
6
60
600
61
62
63
64
65
66
67
676
68
69
7
70
700
71
72
720
73
74
75
750
76
765
77
78
780
79
8
80
800
81
82
83
84
85
86
87
88
89
892
9
90
900
91
92
920888
93
94
944
95
96
97
978
98
99
:
;
<
=
>
?
@
[
]
^
_
a
aan
abandona
abao
abath
abc
abcs
abel
abilidad
abilidat
abimelek
abismo
abo
abogado
aboli
abolishon
abou
about
abraham
abram
abrevia
abreviacion
abreviashon
absoluto
abundansia
abundantemente
abuso
academico
academie
academy
acapulco
acaso
acceptatie
acceso
accion
acepta
acerca
act
actividad
actividadnan
activista
activo
acto
actonan
actor
actriz
actua
actual
actualmente
acuerdo
aculeata
acusa
ad
ada
adam
adapta
ade
ademas
aden
adhetivo
adi
adiccion
adishonal
adkiri
administracion
administration
administrativo
adn
ado
adolf
adopta
ador
adora
adorashon
adriana
adriano
adsl
adulto
adventista
adverbio
ae
aereo
aeroli
aeropuerto
aeropuertonan
afc
afecta
afekta
afganistan
afilia
afo
africa
african
africano
afrika
afrikaans
afrikano
afrikanonan
afro
afromerikano
after
again
agan
age
agenda
agensia
agensianan
agente
agradabel
agrega
agricultura
agrikultura
agrikultural
agrupashon
agus
ahinda
aholibama
ai
ainda
air
aire
aires
airlines
airport
airu
airways
aise
aix
ajax
akade
akademia
akademiko
aki
akinan
aklama
akompan
akountent
akse
aksepta
aksesibel
akseso
akshon
akshonista
akshonistanan
akshonnan
aksidente
aktitut
aktividat
aktividatnan
aktivista
aktivo
akto
aktonan
aktor
aktris
aktua
aktual
aktualmente
aktuashon
akuario
akuedukto
akueduktonan
akuerdo
akusa
al
ala
alabama
alabes
alan
alaska
alaves
alba
albanese
albania
albert
alberto
albies
album
alcansa
alcohol
alegre
alejandro
aleksandr
alema
aleman
alemania
alemannan
aleu
alex
alexander
alexandra
alexia
alfabe
alfabet
alfonso
alfred
algemeen
algemene
algeria
alghero
algo
algu
algun
ali
aliado
aliadonan
aliansa
alicia
alkalde
alkansa
all
allen
alliance
alm
alma
almasen
almaza
aloe
alonso
alrededor
als
alsa
altagracia
altar
alternativo
alto
altu
altura
alumno
alumnonan
alvarez
am
amado
amalia
amateur
amazonas
ambiental
ambiente
ambos
ame
amentu
america
american
americano
americas
amerigo
amerika
amerikano
ami
amienda
amiga
amigo
amigoe
amigonan
amigu
amigunan
amistad
amistat
amont
amor
amoreo
amplia
ampliamente
amplio
amsberg
amsterdam
an
ana
analisa
analista
anan
anansi
and
andere
andes
andin
ando
andorra
andre
andres
andrew
andrews
android
andruw
aneksa
anfitrion
angel
angela
angeles
anglo
anglofo
angochi
angola
anguilla
anima
animado
animal
animalnan
anita
aniversario
anja
ankra
ann
anna
anne
ano
anochi
ansa
anta
antan
antananarivo
antepasadonan
anterior
anteriormente
antes
anthony
anti
antia
antiano
antias
antigua
antiguo
antik
antillen
antillenhuis
antilles
antilliaans
antilliaanse
antiyano
antiyas
anto
antofagasta
antoine
antologia
anton
antonette
antonia
antonio
antriol
antropologia
anual
anualmente
anula
anuncia
anunsia
anza
ao
aosche
aose
apa
aparato
aparece
aparensia
aparese
apart
aparta
apartament
aparte
apenas
apertura
apesar
aplica
aplika
aplikashon
apo
apolinario
aposto
apoya
apoyo
apple
aprecia
aprecio
aprel
apresia
apresio
april
aproba
aprobacion
aprobashon
aproksimadamente
apropia
aproximadamente
apulia
apunta
ar
arabe
arabia
arabir
aram
arawak
archipielago
architektura
archive
archived
archivo
are
area
areanan
aregla
areglista
areglo
arei
arena
arend
arends
areski
aresta
arfaksad
argentina
argentino
argon
argumenta
argumento
argumentonan
ari
ariadne
ariane
ariba
arido
arikok
arion
aristo
aristote
arizona
arka
arkansas
arkeo
arkeolo
arkeologia
arkeologico
arkitectura
arkitekto
arkitektura
arma
armanan
armenia
armenio
armstrong
arnhem
arnold
aros
arsenal
art
arte
arthur
arti
article
articulo
artificial
artifisial
artikel
artikulo
artist
artista
artistanan
artistico
artistiko
arts
aruba
arubaanse
arubano
arubiano
as
asamblea
aselera
asepta
aserka
asesina
asesinato
asesino
asia
asiento
asigna
asin
asina
asistensia
asisti
asjoe
asocia
asosia
asosiashon
aspekto
aspektonan
asporaat
aspx
assad
association
asta
astrologia
asumi
asuncio
asunto
asuntonan
asuntu
asuntunan
at
ata
ataka
atake
atakenan
ataniro
atardi
atatu
atenas
atencion
atende
atenshon
aterisa
aterisahe
athetivo
atkeri
atkiri
atla
atlanta
atlantico
atlantiko
atlas
atle
atleta
atletanan
atletismo
atministrashon
atministrativo
atmo
atmosfera
ato
atomiko
atrae
atrakshon
atraktivo
atras
atraves
atribui
atrobe
au
august
augustus
aumenta
aumento
aunke
australia
australiano
austria
austriako
authority
auto
autonomia
autonomo
autor
autoridad
autoridadnan
autoridat
autorisa
autorisacion
ava
avansa
avb
avenida
averahe
avianca
aviashon
avion
avionnan
aviso
avp
aw
awa
awanan
award
awards
awaseru
away
awe
awendia
awo
awor
aworaki
axis
ay
aya
ayanan
ayera
ayo
ayrton
ayudo
az
azerbaijan
azteka
b
ba
baby
bachelor
back
bacuna
bad
bade
baden
bagdad
baha
bahada
bahamas
bahi
bahia
bahrein
bai
baila
bailabel
bailado
bailarina
baile
baka
bakanan
bakoba
bakteria
bal
bala
balada
balansa
balashi
balentien
bali
balia
balkenende
ball
ballet
ballista
ballroom
balor
baltiko
baltimore
bamba
ban
banari
banchi
banco
band
banda
bandabou
bandanan
bandera
bandona
bang
bangkok
bangladesh
bank
bankario
bankero
banko
bano
bantamweight
bao
bapor
bar
bara
barack
baranan
baranca
baranka
barbados
barbara
barber
barbuda
barbule
barcadera
barcelona
barco
baren
barera
bari
barika
bario
barionan
barker
barku
barkunan
barquisimeto
barranquilla
bas
basa
base
baseball
baselmans
basemat
basha
bashi
basic
basico
basiko
basis
basketball
basquiat
basta
bastante
bata
bataya
bate
bati
batisa
battle
bautisa
bay
bayendo
bayern
bbc
bc
be
beach
beatles
beatrix
beaujon
bebe
bebida
beek
beeknan
beeldvorming
beer
beerseba
beibel
beisbo
beisbol
bejing
bek
beka
bel
bela
belarus
belasting
belgica
belgika
belgrado
belize
belkacem
belle
bello
belnem
belo
ben
bencho
bende
bendedo
bendi
bendicion
bendishon
bendishona
bendishonnan
benefisio
benin
benito
benjamin
bennan
bennett
benny
benta
bentana
berdad
berdadero
berdat
berde
bergen
berlin
bermuda
bernadina
bernard
bernardo
bernhard
berry
bes
besaril
besindario
bessude
best
bestia
bestianan
bestuurscollege
beth
betico
betrian
beyesa
beyonce
beyond
bezig
bhi
bhutan
bi
bia
biaha
biahe
biba
bibando
bibante
bibida
bibienda
biblioteca
biblioteka
bibliotekario
bibo
bibu
bida
biden
bie
biehes
bien
bienal
bienestar
biennan
biento
bientu
bieu
bieunan
big
bij
bikker
bil
bilha
bilingual
bill
billboard
bills
bin
bina
bini
binida
binimento
binti
bio
biografia
biolo
biologia
biologiko
bion
bira
birando
birgen
birmingham
bis
bisa
bisabo
bisami
bisando
bisendario
bishita
bishitante
bishop
bisin
bisindario
bismarck
bissau
bista
bisti
biuda
biyete
biyon
blachi
blachinan
black
blackberry
blanco
blanko
blanku
blauw
blica
blika
bliko
blinder
blo
bloemhof
blog
bloki
blossom
blou
blu
blue
blues
bmx
bna
bnk
bo
board
bob
bobby
boca
bodied
boeing
boekhoudt
boeli
boes
bog
boga
bogaerts
bogota
bohi
boka
bola
bolan
bolbe
boli
bolivariana
bolivia
bolo
bologna
bomba
bombero
bon
bonaire
bonaireaans
bonchi
bond
boneiro
boneiru
boneriano
boney
bonnanaro
booi
book
books
bordeaux
bordo
boris
born
bos
boskaljon
bosnia
boso
boston
boter
boto
boton
botswana
bou
boulevard
bouterse
boy
boys
brasa
brasi
brasil
brasilen
braves
brazil
brazzaville
breda
brel
brenneker
bretania
brevemente
brian
brievengat
brigitha
brigitte
brika
brinda
bringa
bringamosa
brion
brita
britania
britanico
britaniko
britannia
britannica
british
britney
bro
broken
brokke
bron
brons
brote
brouwerij
brouwn
brown
browser
bru
brua
bruce
bruela
brug
bruha
brunei
brusela
bruto
bu
bubali
bubaliplas
buchi
buda
budapest
budismo
bue
buelo
buelonan
buena
buenos
buey
bufete
bujumbura
buki
bukinan
bula
bulgaria
bundesla
bundesland
bunita
buraku
bureau
buriku
burikunan
burkina
burundi
bus
busca
bush
business
buska
busto
but
buta
bute
by
c
ca
caba
cabai
caballero
cabamento
cabay
cabayero
cabes
cabo
cache
cacho
cada
cadena
cadushi
cafe
cafeina
caft
cagliari
cah
caha
caicos
calabria
calendario
calidad
california
calister
calvin
calypso
cam
cama
camacuri
camara
camber
cambia
cambio
cambodja
cambridge
camelia
caminda
campan
campania
campeon
campeonato
campo
can
cana
canada
canal
cancela
cancer
cancion
cancionnan
candela
candidato
cant
canta
cantando
cantante
cantica
cantidad
canto
capa
capacidad
capital
capitan
capitulo
capriles
caquetio
cara
caracas
caracter
caracteristica
carai
carbon
care
careda
carera
carga
cargeghe
cargo
caribbean
caribe
caribense
caribisch
carl
carlos
carmen
carnaval
carni
carolina
carta
cartagena
cartera
cas
casa
case
cashero
casi
casibari
casnan
caso
casonan
castellano
castilia
castro
catalan
catar
catecismo
categoria
category
cato
catolico
causa
cay
caya
cayenne
cayente
cayman
cba
cbs
cd
cdc
cdu
ce
cecilia
ced
ceda
cedric
celebra
celebracion
celsius
celso
censo
census
cent
center
centraal
central
centre
centro
centroamericano
centrum
century
cera
ceramica
ceramico
cerca
cercania
ceremonia
ceremonial
cereus
certamen
cesar
cfu
cfw
ch
cha
chad
chadwick
chakuto
champions
championship
chance
change
chano
chanson
chapi
charla
charles
charleston
charlie
charrie
chart
charter
chavez
chavo
che
check
checo
chen
chens
chespirito
cheung
chi
chicago
chiki
chikito
chikitu
chikitunan
child
chile
chileno
chili
chilindrina
china
chines
chipre
chobolobo
chong
chris
christian
christina
christmas
christopher
chronicle
chubatu
churandy
church
churchill
cia
ciclista
ciclo
cien
ciencia
cientifico
cierto
cifra
cijntje
cilinder
cincinnati
cinco
cindy
cine
cinelandia
cinemark
cio
circulacion
ciro
cita
citar
citation
cite
citer
city
ciudad
ciudadano
ciudadanonan
civil
civilisado
ckv
cl
cla
clannad
clara
clase
clasico
clasifica
classic
claude
claudius
claus
clausura
clima
clinton
club
clube
clubnan
clyde
cm
cnn
co
coa
coach
coalicion
coca
cocabladeren
coco
code
codrongianos
coffee
coffie
cohen
coi
coke
cola
cole
coleccion
colegio
coleman
colga
collection
college
collins
colo
colombia
colombiano
colon
colonia
colonial
colonianan
colony
color
colorado
colornan
columbia
columbus
com
combina
combinacion
combo
come
comedia
comediante
comendador
comentario
comercial
comerciante
comercio
comienso
comision
comite
commandeur
commissie
commons
commonwealth
communicacion
como
compagnie
compan
compania
companianan
company
compara
comparti
compartimento
compas
competencia
competencianan
competi
compleho
completa
completamente
completo
compone
componi
comportacion
composicion
composicionnan
compositor
compra
compronde
computer
comun
comune
comunicacion
comunidad
comunista
con
concacaf
concepcio
concepto
concerni
concierto
conciertonan
concreto
condecora
condecoracion
condicion
condicionnan
conecta
conexion
confederacion
confederation
conferencia
confirma
conflicto
conforme
congo
conhunto
conkista
conmemora
conoce
conoci
conocimento
conosi
consecutivo
consehero
conseho
conservacion
considera
consisti
consistiendo
constancia
constata
constelacion
constitucion
constitucional
constitui
construccion
constructora
construi
consulta
conta
contact
contacto
contagio
contene
contenido
content
contesta
continental
continente
continua
contra
contract
contrario
contribucion
contribui
control
cook
cooke
cooper
cooperacion
copa
copia
cora
coral
corant
core
corecto
coredo
coreografo
coriente
corne
cornelio
cornelis
coro
corona
coronavirus
corporation
correa
corsen
corsica
corsou
corsow
corta
corte
cortico
corticu
cos
cosecha
costa
costanan
country
county
couplet
courtney
cov
covid
cpa
cpim
crates
crazy
crea
creatividad
creativo
crece
crecemento
crema
cria
crioyo
crisis
cristal
cristian
cristiano
cristina
cristo
critica
crksv
croes
crow
cruz
csm
cu
cua
cuadra
cuadro
cual
cualkier
cuanto
cuarenta
cuarentena
cuarta
cuater
cuatro
cuba
cubano
cubri
cuenta
cuentanan
cuero
cuerpo
cuido
cultiva
cultura
cultural
cultureel
culturele
cultuur
cuminda
cuminsa
cuminsamento
cuminsando
cuminza
cumpli
cumpra
cune
cunsa
cunucu
cup
cura
curac
curacao
curason
curazon
curie
curiel
curitiba
curpa
curso
cushina
custumber
cvb
czechia
d
da
daal
dado
dag
dagblad
dahmer
daimari
dak
dakota
dal
dam
dama
damas
dan
dance
dande
dane
dangerously
dangui
daniel
danki
dansa
dap
dar
dat
data
database
date
dato
datonan
datu
dave
davelaar
david
davis
day
daylight
de
dean
debate
debe
debenan
debi
debrot
debut
debuta
decada
december
decision
declara
declaracion
deco
decoracion
decreta
decreto
dedica
dedika
defende
defensa
defensor
defini
definicion
definishon
definition
definitivamente
definitivo
defunto
degrada
dei
dekada
deklamado
deklara
deklarashon
dekreta
dekreto
del
delaster
delaware
delegacion
delegashon
della
delta
demanda
demasiado
democracia
democratic
democratico
demokra
demokrasia
demokrat
demokratiko
demostra
den
dengue
denomina
denominashon
denota
densidat
denter
dentro
departamento
departamentu
depende
dependensianan
dependiendo
dependiente
depo
deporte
deportenan
deportista
deportistanan
deportivo
deposita
depreshon
depresia
depresiashon
depues
der
dera
derechi
derechinan
derecho
derechonan
deriva
derota
derotando
des
desaroya
desaroyo
desaroyonan
desaster
desastre
describi
descubri
descubrimiento
desde
dese
desea
desember
desemboka
desende
desendensia
desendiente
desendientenan
deseo
deseonan
desi
desierto
designa
desiree
desishon
desishonnan
deskanso
deskonosi
deskribi
deskripshon
deskubri
desmantela
desparse
despedida
despue
despues
destaka
destina
destinashon
destino
destiny
destrui
destruie
destrukshon
destruktivo
detaye
detekta
detencion
detene
detenido
determina
deu
devela
development
deze
dhaka
dharma
di
dia
diabe
diadomingo
diadumingu
dialecto
dialekto
dialuna
diamars
diameter
diana
dianan
diarea
diariamente
diario
diasabra
diaz
diccionario
dicho
dicidi
dick
dictionary
did
die
diego
dies
diesdos
dieshete
diesinku
dieskuater
diesnuebe
diesocho
diesseis
diessinku
diestres
diesun
diferencia
diferensha
diferensia
diferente
difi
dificil
difisil
difunto
digital
digna
dignidat
digo
digrafo
dijk
dijkhoff
dikamente
diki
diko
dikon
diktador
diktadura
dilanti
diluvio
dina
dinamarka
dinastia
dindial
dino
dios
diosnan
diploma
diplomatiko
diptongo
diputado
diputadonan
direccion
directamente
directiva
directo
director
direkshon
direktamente
direktiva
direkto
direktor
dirigente
dirigi
dirksz
disciplina
disco
discurso
discusion
disease
disen
disfruta
disidi
disiplina
diskero
disko
diskriminashon
diskulpa
diskurso
diskushon
diskuti
disney
disolbe
disolucion
disolushon
disolve
disparse
dispone
disponibel
disposishon
dispuesto
disputa
distancia
distancing
distansha
distanshamentu
distansia
distincion
distingui
distinkshon
distinshon
distribui
distribuidor
distribushon
districto
distrikto
distrito
distritonan
disturbionan
dit
diva
diversidat
divi
dividi
dividivi
divino
divishon
division
dj
dja
djabie
djabierna
djadumingu
djahuebs
djaluna
djamars
djarason
djasabra
djawe
djaweps
dje
djei
djente
djey
djibouti
djis
djo
djoin
dm
dna
do
doble
docente
doctor
doctorandus
documento
documentonan
doen
dog
doha
dokter
dokumenta
dokumentalista
dokumentario
dokumento
dollar
dolo
dolor
dom
domacasse
domestiko
domina
dominante
domingo
dominica
dominikana
dominikano
dominio
domino
don
donald
dong
door
doorman
doors
dor
doran
dos
dosente
dosis
douglas
dow
down
dp
dr
dra
drag
drai
drama
dramaturgo
drastico
dream
dreams
drecha
drechi
drenta
drie
drif
droga
drs
dru
druk
drumi
drums
du
duana
duda
duel
duinkerk
duke
dumfries
dumping
dun
duna
dunabo
dunado
dunami
dunando
duo
duque
dura
duracion
duradero
durante
durashon
duru
dus
dushi
dutch
dvd
dvg
dztwo
e
eagle
earl
early
earth
east
ebola
echo
economia
economic
economico
economics
economie
ecuador
ecury
ed
edad
edat
eddie
eddy
ede
edgar
edgard
edicion
edificio
edifisio
edifisionan
edinburgh
edishon
edison
edita
edition
editor
edjean
edo
edsilia
edu
educac
educacion
education
eduka
edukado
edukador
edukashon
edukativo
edward
edwin
ee
een
eerste
eerstekamer
efecto
efectonan
efektivo
efekto
efektonan
efikas
efisiensia
efisiente
efrai
efrain
efron
egipsio
egipsionan
egipto
eh
ehe
ehecuta
ehecutivo
ehekushon
ehekuta
ehekutivo
ehempel
ehemplar
ehemplo
eherce
eherse
ehersito
ei
eik
eiland
eilanden
eilandenregeling
eilandgebied
einan
eindhoven
eis
eisden
ekipa
ekipo
ekiponan
ekivalente
ekono
ekonomia
ekonomikamente
ekonomiko
ekonomista
ekosistema
eks
eksakto
ekselente
eksepshon
eksepto
ekshibi
ekshibishon
eksigi
eksistensia
eksistente
eksisti
eksito
eksitoso
ekspande
ekspanshon
eksperensia
eksperto
ekspertonan
eksploshon
eksplota
eksponi
eksporta
eksportashon
eksposishon
ekspresa
ekspreshon
ekstende
ekstenso
eksterior
eksterno
ekstinshon
ekstinto
ekstremo
ekuador
ekuator
el
ela
elabora
ele
eleccion
eleccionnan
electoral
electricidad
elegi
elekshon
elekshonnan
elekta
elektoral
elektriko
elektro
elemento
elementonan
eleutheria
eleva
elhage
elias
elifaz
eligi
eligio
elimina
eliminashon
elis
elisabeth
elizabeth
elmar
elvis
em
eman
emancipatie
emancipation
emansipa
emansipashon
embahada
embahador
embaraso
embargo
emblema
emergencia
emergensia
emigra
emilio
emily
emina
emiratonan
emisora
emiti
emma
emmabrug
emmanuel
emocion
emperador
emperio
emperor
empi
empleado
empleadonan
empleo
empresa
empresanan
empresarial
empresario
en
enbes
encarga
encargo
encera
encontra
encyclopedia
encyclopedie
end
ende
endra
enemigu
enemigunan
energia
enfasis
enfermedat
enfermeria
enfermero
enfoka
enfoke
enfoque
enfrenta
enfrente
eng
engan
engels
english
enith
enkabesa
enkarga
enkargo
enkontra
enkuanto
enkuentro
enok
enorme
enos
enrique
ensayo
ensen
ensera
ensiklopedia
entertainment
entidad
entidat
entidatnan
entiero
entrada
entrante
entre
entrega
entrenado
entrenador
entretenementu
entretenimento
entrevista
environment
envolvi
enya
enzo
ep
epi
epidemia
epidemic
epidemio
epidemiologia
episodio
epoca
equator
equivalente
er
era
erashonnan
erasmus
eredero
ergilio
eric
erik
eritrea
erna
ernesto
ernst
ero
eror
erosi
error
erupshon
es
esaki
esakinan
esau
escala
esce
escobar
escolar
escrito
escritor
escudo
escultura
esei
eseinan
esenario
esensia
esensial
esey
esfera
esfuerso
eskala
esklabu
esklavonan
eskolar
eskoses
eskosia
eskrito
eskritor
eskritora
eskudo
eskultor
eskultura
esnan
espacial
espacio
espan
espasial
espasio
especie
esperanto
espesialmente
espesie
espesienan
esposa
esposanan
esposo
espresso
est
esta
establece
estableci
establese
establesi
establesimentu
estadista
estado
estadonan
estados
estatal
estatua
este
estilo
estima
estonia
estrecho
estrella
estrellas
estrena
estrikto
estudio
estudionan
esun
esunnan
et
etapa
etc
ete
eterno
ethnologue
etimolo
etimologico
etiopia
etno
etnomusiko
ets
etty
eu
euge
eugene
eurasia
euro
eurolang
europa
europe
european
europeo
eustatius
eva
evalua
evangelio
evelyn
evento
eventonan
events
everon
evertsz
evidencia
evidensia
evita
evolua
evolushon
ex
exacto
excepcion
exclusivamente
exhibi
existencia
existente
existi
exito
exitoso
expande
expansion
experience
experiences
experimental
explora
explotashon
exporta
exportashon
exposicion
expresa
expresion
extende
exterior
extra
extremo
ey
eynan
ez
f
fa
fabor
faborabel
fabrica
fabrika
face
facebook
fachada
facilidad
facilidadnan
facto
factory
facultad
fada
faha
fair
faktor
faktornan
fakultat
falcon
falta
fam
fama
fame
famia
famianan
familiar
famoso
fan
farao
faries
faro
farrell
fase
fashion
fasil
fasilidat
fasilidatnan
fasilita
fasilmente
faso
fauna
faya
fayece
fayecimento
fayecimiento
fayese
fayesimentu
fayit
fayo
fc
fe
feat
febru
februari
february
fecha
federacion
federal
federashon
federashonnan
federatie
federation
feest
feita
fel
felipe
felis
felisidat
felix
femenino
feminista
feno
fenomeno
ferdinand
ferguson
fermina
fernando
fero
ferrari
ferry
festival
festivalnan
festivo
feyenoord
feyerabend
ffb
ffk
fi
fia
fiansa
ficcion
fidel
fiel
field
fierce
fiesta
fiestanan
fifa
figura
figuranan
fiha
fiho
fiji
fijo
fikamente
fiko
fikonan
file
filipinas
filisteonan
film
filma
filo
filosofi
filosofia
filosofo
fin
final
finalisa
finalista
finalmente
financieel
financiero
finansa
finansia
finansiero
fine
fini
finlandia
fio
firma
firmamentu
firme
first
fiscal
fishi
fisica
fisico
fisiko
fiskal
fisko
fl
flaku
flamingo
flecha
flip
flor
flora
florenza
flores
florese
floria
florida
florin
florinas
florinda
flornan
flota
flotante
floyd
flu
fluho
fm
fo
focus
fofoti
foi
fol
folklo
folklor
folklorico
fomenta
fondo
fondonan
fondu
fone
fontaine
fontein
food
football
for
forma
formacion
formal
formalmente
formanan
formando
formashon
formula
forsa
forsanan
fort
fortaleza
forti
fortifika
fortuna
foto
found
foundation
fout
fr
fracasa
fraccion
frakshon
fraktura
franc
franca
france
frances
francesco
francia
francis
francisca
francisco
franco
francois
francombat
frank
frankfurt
franklin
frans
franses
fransesnan
fransia
fransisco
frase
fre
freddie
fredis
free
freestyle
frekuensia
frekuente
frekuentemente
frena
french
frente
fresku
fria
friends
fries
friesland
frika
frishide
frits
friu
from
front
frontera
fronteranan
froude
frukti
frumencio
fruta
ft
fu
fuente
fuentenan
fuera
fuerte
fuertemente
ful
full
funchi
funcion
funciona
funda
fundacion
fundado
fundadonan
fundador
fundamental
fundamentu
fundashon
fundeshi
fungi
funk
funkshon
funshon
funshona
funshonnan
futbo
futbol
futbolista
future
futuro
g
ga
gabinete
gabinetenan
gabriel
gaga
gai
galaad
galileo
galin
gallery
galo
game
games
gan
gana
ganado
ganador
ganando
ganashi
gara
garantia
garantisa
garci
garcia
garganta
garmers
garoshi
gary
gas
gasnan
gasolin
gasto
gaston
gastonan
gastu
gaulle
gay
gayle
gaza
gdp
ge
gedichten
geel
geen
geerdink
gel
gemeente
gen
gena
gene
genera
generaal
generacion
general
generalmente
generashon
genero
geno
geografia
geografiko
geolo
geologia
geometrico
george
georges
georgetown
georgia
georgiano
gerais
gerald
gerar
gerard
gerensia
germa
german
germaniko
germano
gerrit
gerstenbluth
geschiedenis
get
gezaghebber
ghana
gibbs
gibi
gibson
gico
giko
gilbert
gilmar
gimen
gimnasia
gina
gio
giovanni
girigori
girigorio
girl
girls
giselle
giuseppe
giusti
giza
gladius
glas
glasgow
glenn
global
globo
gloria
gloukoma
gmt
go
goberna
gobernacion
gobernado
gobernador
gobernashon
gobie
gobierno
gobiernonan
gobiernu
godal
godett
godfried
goede
goedgedrag
gogh
gol
gold
golden
golfo
golpe
gomez
gomora
gonzalez
good
google
gordon
gorsira
gosa
gosen
gotanan
gotico
gouden
gov
government
gra
graba
grabashon
grace
grado
gradu
gradua
gradualmente
graf
grama
gramatica
gramatical
gramatikal
grammy
gran
grand
grande
grandemente
grandi
grandinan
grandioso
grandura
grasia
gratis
grave
great
grecia
green
greenwich
gregoriano
gregorio
gregory
grenada
grenadines
grens
gresia
griego
griegonan
griep
griffel
griffier
grip
groenlandes
groenlandia
groningen
groot
group
growell
grupo
gruponan
guadeloupe
guam
guardia
guatemala
guayaquil
gubernamental
gueni
guera
gueranan
gueria
guerra
guest
guia
guiana
guillermo
guillfred
guinea
guitara
gumbs
gusta
gustavo
guy
guyana
gymnasium
h
ha
haag
haar
haarlem
habaai
haber
habilidad
habita
habitante
habitantenan
habitat
habla
habri
haci
hacie
haf
hagar
hai
haiku
haile
haiti
haitiano
hala
hall
halloween
halsa
halto
haltu
haltura
hamaikino
hamber
hamburg
hamor
han
hanchu
hanchura
handel
hanja
hanoi
hans
hanya
hapon
hapones
happy
haran
hard
hardin
hari
harris
harry
harvard
harvnb
has
haseth
hasi
hasibo
hasie
hasiele
hasiendo
hasimi
hasta
hato
havana
haven
haviser
havo
hawai
hawaii
hay
haya
hayando
haß
hbo
hdi
he
health
heart
heathrow
heber
hebreo
hebro
hecho
hectar
hefe
hefenan
heijes
hel
helena
helmin
help
helsinki
hemisferio
hende
hendenan
hendrik
henk
henny
henri
henrique
henriquez
henry
hensley
henter
henteramente
hep
here
herencia
herensia
herida
herman
hermana
herna
herrera
heru
herusalem
herzegovina
herzogovina
hessen
hesus
het
heteo
hey
heyer
heyliger
hi
hib
hiba
hidro
hidrogeno
high
hill
hilo
hilu
hilversum
himalaya
himno
hinca
hindu
hinduismo
hinka
hinter
hip
hipo
his
hisa
hisamentu
hispan
histo
historia
historiado
historiadonan
historical
historicamente
historico
historikamente
historiko
history
hit
hitler
hitnan
hitovi
hits
ho
hoben
hobennan
hoe
hoevertsz
hogeschool
hoh
hoi
holiday
holland
hollandia
holloway
holo
homber
home
homenahe
hon
hondius
honduras
hong
hongaria
honolulu
honor
honra
hoofdklasse
hooi
hooiberg
hop
hopi
horacio
horcan
hordan
hordania
horizontal
horizonte
horkan
hortence
hose
hospital
hospitalisa
host
hot
hotel
hotelero
hotelnan
house
houston
how
howell
hoyer
htm
html
http
https
hu
huan
hub
hubble
hubenil
hubentud
hubentut
hubert
hudaismo
hudicial
hudisial
hudiu
hudiunan
hudson
hues
hugo
hui
huis
hulanda
hulandes
hulandesnan
huma
human
humanidat
humanista
humanitario
humano
humilde
humor
hundi
hundu
hunga
hungado
hungando
hungria
hunta
hunto
huntu
hura
hurado
huramenta
huramentu
huri
huridico
hurisprudencia
hurista
husa
husticia
hustifika
hustisia
hustu
huza
huzga
i
ia
ibb
ibero
ibn
icons
icu
id
idaho
idea
ideal
ideanan
identidat
identifica
identifika
identiteit
ideologia
idioma
idiomanan
ido
if
ig
iglesia
igual
ii
iii
ijs
ik
il
ilegal
illinois
illuminati
iluminashon
ilustra
ilustrashon
ima
imagen
imagennan
imdb
imelda
imigrantenan
imita
impakto
imperial
imperio
implementa
impone
importa
importancia
importansha
importansia
importante
importashon
imposibel
imposishon
imprenta
impuesto
impulso
imunidat
in
ina
inaugura
inbestiga
inbestigashon
inc
incheon
include
inclui
incluso
incluyendo
incorpora
independencia
independensia
independent
independiensia
independiente
independientemente
independisa
index
indi
india
indiana
indica
indicacion
indies
indigeno
indika
indiko
indio
indirekto
indische
individual
individuo
indjan
indjannan
indo
indones
indonesia
industria
industrial
industrie
inerto
infanteri
infantil
infekshon
infekta
influencia
influensha
influensia
influenza
informa
informacion
informashon
informatica
information
informe
infrastructura
infrastruktura
ingenieria
ingeniero
ingestacion
inglatera
inglaterra
ingles
inglesnan
ingredientenan
ingreso
inicia
inicialmente
iniciativa
inicio
inisia
inisial
inisialmente
inisiativa
inisio
inka
inklui
inkluso
inkluyendo
inkonkluso
inkorpora
inougura
inougurashon
inovashon
inovativo
insekto
insel
insertidumbre
insidente
insisti
inskribi
inspekshon
inspira
inspiracion
instala
instalashon
instancia
instansia
instante
institucion
institui
institushon
institut
institute
instituto
institutonan
instituut
instruccion
instrukshon
instrume
instrumental
instrumento
instrumentonan
insular
insulina
integra
integracion
integral
integrante
integrashon
integridat
intelektual
inteligente
intelligence
intencion
intenshon
intensivo
intenso
intento
inter
interakshon
interaktua
interes
interesa
interesante
interesnan
interimregeling
interino
interior
interkambio
interlingua
interna
internacional
internacionalmente
internashonal
internashonalista
international
interne
internet
interno
interogashon
interpreta
interpretashon
interview
into
introduccion
introduci
introdukshon
introdusi
inuktitut
invadi
invashon
inventa
invershon
inverti
investiga
investigacion
investigado
investigadornan
investigashon
invierno
invita
invoka
involvi
ios
ipa
iphone
ipko
ipod
ir
irak
iran
irani
irausquin
irlanda
irlandes
is
isa
isaac
isaak
isabelle
isbn
ishantely
isla
islam
islamabad
islamiko
islamita
islanan
island
islandia
islands
islariba
ismael
iso
isola
isolashon
israel
israeli
istanbul
isu
it
italia
italiano
italo
itcz
item
itost
its
ittiri
itunes
itwe
itwest
iv
iva
ivan
ix
izaline
izzy
j
ja
jaar
jac
jackson
jacob
jacobo
jacobs
jacques
jae
jafet
jago
jah
jahovi
jahovic
jaime
jair
jakarta
jako
jamaica
jamanota
james
jamison
jan
janchi
jandi
jandino
janeiro
janga
janiro
jansen
januari
january
jared
java
jay
jazz
jc
je
jean
jeanne
jefferson
jeffrey
jega
jemyma
jenner
jeroen
jersey
jesus
jetstar
jim
jimmy
jirafales
jo
job
jobs
jodocus
joe
johan
johannes
john
johnny
johnson
join
jonathan
jonckheer
jones
jong
jongh
joplin
joran
jordan
jos
jose
joseph
jossy
journal
joyce
jpg
jr
ju
jua
juan
juancho
juba
juda
judeska
judith
juegos
jules
juli
julian
juliana
julianabrug
juliano
julie
julien
julio
july
jumpin
june
juneteenth
juni
junior
juniors
jurickson
just
justin
juventus
juwana
k
ka
kaba
kabai
kabamentu
kabayero
kabei
kabes
kabesante
kabo
kabritu
kabritunan
kacho
kachu
kada
kadena
kadushi
kaha
kai
kaida
kaiman
kain
kaina
kairo
kale
kalidat
kalifar
kalki
kalkula
kalkulashon
kalkulo
kalor
kam
kama
kamara
kamber
kambia
kambio
kambionan
kamel
kamelnan
kamer
kamerun
kaminda
kampamentu
kampamentunan
kampan
kampeon
kampeonato
kampion
kampionato
kampo
kan
kana
kanaan
kanal
kanalnan
kananeonan
kanaria
kancha
kandela
kandidat
kandidato
kansa
kansas
kansela
kanser
kansio
kansion
kansionnan
kant
kanta
kantando
kantante
kantidat
kantika
kantikanan
kanto
kantor
kantoutor
kantu
kapa
kapas
kapasidat
kapita
kapital
kapitalista
kapitan
kapitulo
kaptura
kara
karakter
karakteri
karakterisa
karakteristika
karantena
karate
karbon
kardashian
kardashians
kareda
karel
karera
karga
kargado
kargo
karibe
kariben
karibense
karim
karin
karl
karma
karnaval
karne
karni
karpata
karpinte
karta
kartera
kas
kasa
kasi
kasnan
kaso
kasonan
kaspiko
kassav
kasteel
katedral
kategoria
katholieke
katibu
katibunan
kato
katoliko
kausa
kaya
kayente
kazachs
kazachstan
kazakstan
ke
keda
kedando
kedorlaomer
keeping
keha
keintura
keith
keizer
kelly
kemen
ken
kende
kendenan
kenepa
kenia
kennedy
kentucky
kere
ketikoti
keto
ketu
kevin
keyboard
keys
kg
ki
kia
kibbelaar
kibra
kibrahacha
kico
kid
kido
kiebro
kier
kiermen
kies
kiev
kiko
kilometer
kilometro
kim
kima
kimico
kimiko
king
kingdom
kingsale
kingston
kiper
kirguistan
kiribati
kirindongo
kisas
kiss
kit
kita
kitara
kitarista
kitts
kizzy
kla
klapchi
klaro
klas
klase
klasifika
klasifikashon
klasiko
klasnan
klave
klei
klein
kleo
kliente
klima
klimanan
klip
klm
klup
klupnan
km
knika
kniko
know
knowles
ko
koalishon
koba
kobra
kobransa
kock
kodo
koeiman
koffie
kofundado
kohe
kolaborashon
kolebra
kolega
kolegio
kolekshon
kolekshona
kolekshonnan
kolekta
kolektivo
kolo
kolombiano
kolonia
kolonial
kolonialismo
kolonialistanan
kolonianan
kolonisa
kolonisashon
komandante
kombati
kombina
kombinashon
kome
komedia
komediante
komendador
komersial
komersiante
komersiantenan
komersio
komete
komienso
komisario
komisarionan
komishon
komo
komodidat
kompa
kompakto
kompan
kompani
kompania
kompanianan
kompara
komparabel
komparashon
komparti
kompensashon
kompetensia
kompeti
kompila
kompilashon
kompleho
kompleta
kompletamente
kompleto
kompletu
komplikashonnan
kompone
komponente
komportashon
komposishon
komposishonnan
kompositor
kompra
komprende
komprenshon
komprimi
komprobante
komproe
kompromiso
kompronde
komun
komunidat
komunika
komunikashon
komunista
komunmente
kon
kondekora
kondekorashon
kondena
kondishon
kondishonnan
kondukta
kondusi
konekshon
konekta
konferensha
konferensia
konfiabel
konfiansa
konfirma
konflikto
konfliktonan
konforme
konfronta
konfundi
kong
kongo
kongoles
kongregashon
kongreso
konhunto
koning
koningin
koninklijke
koninkrijk
koninkrijksrelaties
konkista
konklui
konklushon
konmemora
konmemorashon
konmemorativo
konose
konosemento
konosementu
konosi
konosido
konosimentu
konseha
konsehero
konseho
konsekuensia
konsekuentemente
konsekutivo
konsenshi
konsentra
konsentrashon
konsepto
konserni
konserva
konservativo
konservatorio
konsidera
konsiensia
konsiente
konsientisashon
konsierto
konsiertonan
konsisti
konsistiendo
konsonante
konstante
konstantemente
konstata
konstelashon
konstitui
konstitushon
konstitushonal
konstituyente
konstrui
konstrukshon
konstruktivo
konsul
konsulta
konsultativo
konsultivo
kont
konta
kontado
kontagio
kontagioso
kontainer
kontakto
kontami
kontene
kontenido
kontentu
kontesta
kontinental
kontinente
kontinentenan
kontinua
kontinuamente
kontinuo
kontr
kontra
kontrakshon
kontrakt
kontrakto
kontrali
kontrario
kontrasta
kontrato
kontribui
kontribushon
kontro
kontrol
kontrola
kontroversial
konvenshon
konverti
konvoi
kony
koolman
kopa
koper
koperonan
kopia
kor
kora
koral
korant
kore
korea
koreano
koredo
korekto
koresponde
koriente
koro
korona
koronashon
korsou
korta
korte
kortiko
kortiku
korto
korupshon
kos
kosecha
kosnan
kosovo
kosta
kostal
kostanan
kosto
kousa
kousando
kralendijk
krater
krea
kreado
kreando
kreashon
kreativo
kreensia
krese
kresementu
kresiente
kreyente
kri
kria
krianan
krioyo
kris
krisis
kristal
kristian
kristianismo
kristo
kristu
kriterionan
kritika
kro
kroata
kroatia
kroon
krudo
krus
krusa
krusero
ks
ksamen
ksdo
kseo
ksimo
ksito
kter
ktika
ktikamente
ktiko
ktima
ktober
ku
kua
kuadra
kuadrado
kuadrat
kuadro
kual
kuala
kualifika
kualifikashon
kualke
kualkier
kuantu
kuarenta
kuater
kubano
kubri
kubriendo
kuchu
kue
kueba
kuebanan
kuenta
kuentanan
kuerpo
kueru
kuestion
kuhn
kuida
kuido
kuiperi
kula
kulmina
kulo
kulonan
kulpabel
kultiva
kultura
kultural
kulturanan
kuminda
kuminsa
kuminsamentu
kuminsando
kumpli
kumplimentu
kumpra
kune
kunst
kunukero
kunuku
kunukunan
kura
kurasolen
kurason
kurpa
kurpanan
kurso
kursonan
kushina
kustumber
kustumbernan
kuwait
kvp
l
la
laar
laat
laba
laban
labor
labora
laboral
laboratorio
labour
lacle
laden
ladies
lady
lag
laga
lagami
lagando
lago
lagoen
lagonan
lagos
lagu
lagun
laguna
laira
lale
lama
laman
lamanan
lamannan
lamar
lamchi
lamek
lampe
lana
land
landado
landamento
landamentu
landen
landsbesluit
landsverordening
lang
language
lanka
lannoy
lansa
lansamentu
lanta
lantamento
lantamentu
lante
lanthu
laos
lapso
laraha
largo
largu
largura
larmonie
las
laser
laso
lasonan
last
lastra
lastu
lat
latin
latina
latino
latinoame
latitut
lauffer
laura
lava
law
lazio
lda
ldu
le
lea
league
leandro
lebacs
lech
lechi
lee
leendert
leeuwen
left
legal
legalmente
legendario
leger
legislacion
legislado
legislashon
legislativo
legislatura
lei
leiden
leinan
leito
lele
lenga
lenganan
lenguahe
lenin
lennon
lenz
leo
leon
leone
leontiev
ler
les
lesa
lesamento
lesnan
lesotho
let
letonia
letra
letranan
letter
letterlijk
leu
leven
levi
levy
ley
leyenda
leynan
lf
lfabe
lga
lgaro
lgika
li
lia
liber
libera
liberal
liberashon
liberia
libertad
libertador
libertat
libia
libo
libremente
lica
lichaam
lico
lider
lidera
liderazgo
lidernan
lido
liechtenstein
life
liga
liganan
light
liguria
lihe
like
likido
liko
liku
lima
limita
limpi
limpia
lin
lincoln
linea
lingua
linguistica
lingwi
lingwista
links
lio
lionel
lip
lisboa
lisensia
lisis
list
lista
listanan
lit
lite
literalmente
literario
literatura
literatuur
lithium
lithosfer
litnan
little
lituania
live
liverpool
lives
lloyd
llws
lnan
lo
local
localisa
lockdown
locual
locutor
lodo
lodz
logo
logonan
logra
logrando
logro
lokal
lokalisa
lokalisashon
lokashon
loke
lokual
lomba
lombardia
lombardo
london
londra
londres
loonstra
lopez
lora
lord
los
lote
lou
louis
louisa
louisiana
louvain
love
lower
lp
lt
lta
ltimo
ltu
lubida
lublin
luc
lucha
luchado
luchtvaart
lucia
lucien
lucila
lucille
lucina
ludwig
luga
luganan
lugar
luho
luhoso
luigi
luis
lukashenko
lula
lumpur
luna
lunanan
lus
lusnan
luxembourg
luxemburg
luz
m
ma
maar
maart
maarten
maatschappij
macaco
macedonia
machu
macron
macuarima
madagascar
madame
madonna
madrid
maduro
maestra
maestria
maestro
maestronan
mag
magazin
magazine
magdalena
magic
magma
magnitut
mahalaleel
mahos
mail
main
maine
mainshi
mainta
maishi
major
makaku
make
makpela
maksimo
makutu
mal
malasia
malbado
maldat
maldishona
maldivas
malesa
malesanan
malgrat
mali
mall
malmok
malo
malta
malu
mama
mamanan
mamre
man
management
manager
managua
manase
mancha
manchester
mand
manda
mandami
mandarin
mandatario
mandato
mando
mandra
mane
maneha
maneho
manera
manga
mangasina
mangel
mango
manhattan
manifesta
manifestacion
manifestashon
manila
manitoba
mankomunidat
mannan
mansell
mansur
mantel
mantencion
mantene
mantenshon
manuel
map
mapa
mapanan
mar
mara
maracaibo
maraka
marca
marcas
marcel
march
marcha
marchena
marcial
marco
marcos
maremoto
marfil
margaretha
margarita
margen
mari
maria
mariana
marie
marin
marina
marine
marinero
marino
mario
marisol
maritimo
mark
marka
markt
marley
marlin
marlon
marmer
maroko
marquand
marseille
marshall
mart
marta
marten
martha
marti
martin
martina
martinique
martinus
martis
marugg
mary
maryland
mas
masa
masal
masculino
masha
mashin
maske
maskulino
masomenos
massa
massachusetts
master
mat
mata
matami
matanan
matando
matansa
matema
matematica
mateo
materia
material
materialnan
materianan
materno
matheeuws
matrimonio
matter
matthew
matusalen
mau
mauretania
maurice
mavo
max
maximiliano
maximo
may
mayo
mayor
mayordomo
mayori
mayoria
mayoritario
mayornan
mayra
mbe
mber
mbernan
mbo
mbolo
mc
mcb
mccartney
me
medaya
medayista
media
mediano
mediante
medical
medicina
medicinal
medicine
medico
medida
medidanan
medieval
mediko
medina
medio
medionan
medisina
meditera
mediteranio
meer
mehikano
mehora
mehorashon
mei
meimei
melbourne
melfor
melilla
melodia
melody
memoria
memphis
men
menasa
menciona
mengua
meno
menor
menos
mensahe
menshona
mental
mente
mep
mer
merca
mercator
mercury
merdia
merengue
mericano
meridian
merikano
merikanonan
meritorio
merka
merkado
merkansia
merryweather
mes
mesa
mescla
mescos
meskla
meskos
mesora
meste
mester
mesun
met
meta
metal
metalnan
metanan
meteorolo
meter
method
metodo
metro
metropolitano
meulenhoff
meulens
mexicano
mexico
mey
mez
mfk
mg
mi
mia
miami
mica
michael
michel
michelle
michiel
michigan
microsoft
midi
mie
miedu
miembresia
miembro
miembronan
mientras
mientrastanto
migrante
migrashon
miguel
miho
mihor
mijn
mika
mike
mikel
miko
mikronesia
miksto
mil
milano
milenio
miles
milita
militante
militar
militarnan
milka
millerson
million
milly
milwaukee
min
mina
minanan
minas
mineralnan
minh
miniatura
minimo
minister
ministerial
ministerio
ministerionan
ministernan
ministro
minnesota
minoria
minoritario
minsk
minu
minut
mion
mir
mira
mirando
mirna
misa
misanan
miseriko
mishi
mishon
mision
miss
mississippi
missouri
misterio
mita
mitar
mitchell
mitigation
mito
mitologia
mix
miya
miyon
mlb
mm
mo
mobil
mobilisa
mocion
moda
mode
model
modelo
moderno
modernu
modifika
modo
moises
moko
moldavia
moleku
molekular
moli
molina
momento
momentu
monaco
monarca
monarka
monarkia
mondi
mondinan
moneda
monedanan
monetario
mongolia
monopolio
monoteismo
monster
mont
montamentu
montan
montana
montante
monte
monteleone
montenegro
montevide
monton
montreal
montserrat
monumental
monumento
moral
morales
more
mormon
morning
mortal
morto
mosaiko
moske
mosku
most
motibo
motibu
motibunan
motivo
moto
motor
moulay
mount
mountain
move
movement
movemento
movementu
movementunan
moveshon
movimento
movimiento
mozambique
mp
mpa
mpb
mpel
mpelnan
mper
mpico
mpiko
mpo
mr
ms
mtenar
mtv
mu
mucha
muchanan
mucho
muchu
muda
muha
muhe
muhenan
muher
muller
mulo
multa
multideportivo
multilingual
multilingualismo
multipartidista
multiple
multiplika
multitut
mundial
mundialmente
mundo
mundu
municipio
munisipal
munisipio
munisipionan
mural
muraya
murayanan
muri
muros
museo
museum
musi
music
musica
musical
musico
musik
musika
musikal
musiko
mussolini
mustafa
mustra
mutuo
muzik
mw
my
myanmar
n
na
naar
nabega
nace
nacemento
naci
nacimento
nacion
nacional
nacionalidad
nacionnan
nada
naf
nagasaki
nai
nakor
name
named
namibia
nan
nancho
nancy
nanishi
nanse
nanzi
napoleon
napoli
nasa
nase
nasementu
nashon
nashonal
nashonalidat
nashonan
nashonnan
nasi
nassau
natal
natalee
national
nations
nativo
nativonan
nato
natural
naturalesa
naturalisa
naturalmente
nature
nauru
nave
navu
nazi
nchen
ncipe
nd
nder
ndez
ndu
ndum
ne
nea
nebraska
necesario
necesidad
nederland
nederlanden
nederlands
nederlandse
negativo
nege
neglisha
negosha
negoshi
negoshinan
negosiante
nehru
neil
nel
nelson
nenga
neo
neon
nepal
nero
nesesario
nesesidat
nesesidatnan
net
netherlands
netwerk
network
neutral
nevada
neverland
nevis
new
news
nfasis
ng
ngaro
ngulo
nha
nhat
ni
nicaragua
nickelson
nico
nicola
nicolaas
nicolas
nicole
nicosia
niet
nieto
nieuw
nieuwe
nieves
niewindt
nifica
nificacion
nifika
nifikando
nifikashon
nigeria
night
nightclubs
nijmegen
nika
nikiboko
niko
nilda
nilo
nimo
nin
nina
ningun
nir
nito
nitro
niun
nivel
nivelnan
nivra
nko
nl
no
nobel
nobenta
nobo
nochi
noe
noemi
noir
noka
nomber
nombra
nombramento
nombramentu
nomina
nominativo
nomo
non
noord
nora
nord
norma
normal
normalmente
norman
normanan
nort
norte
north
nortost
nortwest
noruega
nos
not
nota
notabelmente
notario
note
noticia
noticiacla
notisia
nottingham
noufraga
nova
nove
novela
november
novial
novo
novosibirsk
now
nr
ns
nsula
nt
ntes
ntesis
ntiko
ntnan
nto
ntoma
ntomanan
ntrakt
ntras
ntro
nu
nubia
nubian
nubianan
nuebe
nueva
nuklear
nukleo
numa
number
numbernan
numeral
numeroso
nunavut
nunca
nunka
nuoro
nv
nydia
o
ob
obama
obedese
obhetivo
obheto
obhetonan
obispado
obispo
obispu
oblast
obliga
obligatorio
obra
obranan
obrero
observa
obtene
obteniendo
ocacion
ocasion
occidental
occitano
ocean
oceano
oceanonan
ochenta
ocho
oclc
october
ocupa
ocupacion
oda
oduber
oeste
of
ofer
oferta
official
officier
offringa
oficial
oficialmente
oficina
ofishi
ofisial
ofisialmente
ofisialnan
ofisina
ofrece
ofrenda
ofrese
oh
ohio
oil
ois
ojeda
ok
okashon
okashona
oklahoma
oksi
oksidental
oktober
okupa
okupando
okupashon
okuri
ol
ola
olanan
olbia
old
oli
olifanti
olimpico
olimpiko
oliver
oloshi
om
oman
omar
omikron
ompi
on
onan
onderwijs
one
onesto
ongeveer
online
ontvanger
ontwikkeling
oops
oost
oosterhout
op
opcion
open
openbaar
openbare
opera
operacion
operashon
operashonal
operativo
ophetivo
opheto
ophetonan
opinion
oponente
oportunidad
oportunidat
oposicion
oposishon
oprah
opreshon
opserva
opservashon
opta
optene
or
ora
oral
oran
oranan
oranje
oranjestad
orden
ordena
ordenansa
ordo
orea
org
orgaan
organisa
organisacion
organisacionnan
organisado
organisador
organisashon
organisashonnan
organismo
organismonan
organization
organo
organonan
orgel
orguyo
orguyoso
ori
oria
oriental
orientashon
oriente
origen
origin
origina
original
originalmente
orioles
orka
orkan
orkesta
orlando
orleans
orman
oro
oropa
oropeo
oropeonan
ortografia
os
osama
ose
osea
osean
oseania
oseano
osilo
oso
ossi
ost
other
oti
otmar
otomano
otorga
otra
otro
otrobanda
otronan
otto
ouditoria
ougu
oumenta
oumento
ounke
our
oustria
out
oute
outo
outonomia
outonomo
outor
outoridat
outoridatnan
outornan
over
overval
oxford
oxigeno
ozon
ozzie
p
pa
pabao
pablo
pabou
pacheco
pacific
padan
paden
pader
padu
padua
pafo
pafor
pag
paga
page
pagina
pago
pai
pais
paisahe
paisnan
pakete
pakiko
pakistan
pakus
pal
palabra
palabranan
palabrua
palacio
palermo
palestina
palestino
palm
palo
palomba
palombanan
palu
palunan
pan
panaderonan
panama
panamericano
panamerikano
pandemia
pandemic
panort
pantone
paolo
pap
papa
papel
paper
papia
papiado
papiadonan
papiamentista
papiamento
papiamentu
papua
par
para
parada
paradera
paradise
paraguana
paraguay
paralimpico
paramaribo
parana
parce
parece
pareha
parese
paresido
pareu
parha
parhanan
pari
pariba
paricuti
paris
park
parke
parkenan
parker
parlamentario
parlamento
paro
parokia
parse
parsialmente
part
parte
parti
participa
participacion
participante
particular
partido
partidonan
partikular
partikularmente
partinan
partisipa
partisipantenan
partisipashon
partner
partnernan
parto
party
pas
pasa
pasado
pasahero
pasaheronan
pasando
pasat
pasco
pashent
pasi
pasifiko
paskel
pasku
paso
pasobra
pasombra
pasonan
passim
pastoor
pastor
pastoria
pasu
pasuit
patras
patria
patrick
patrimonio
patriotico
patronchi
patu
paul
paula
pauletta
paulo
paz
pazuid
pdb
pdf
pdr
pdvsa
pe
pedagogico
pedro
pega
pekuliar
pela
pele
peleg
peli
pelicula
peliger
peligroso
pelikula
pelotero
pena
penal
penh
peni
peninsula
pennsylvania
pensa
pensamentu
pension
penso
penteko
people
pepsi
per
percura
percy
perde
perdi
perdida
pereira
pereke
perez
perfekto
perio
periodista
periodo
periodonan
perlman
permanente
permanese
permiso
permiti
pero
pers
persona
personahe
personahenan
personal
personalidat
personanan
pertenece
pertenese
peru
peruano
pesar
pesei
peso
peter
peters
peterson
peticion
petishon
petro
petroleo
petrolero
petroleum
petroli
petrolio
petronia
philip
philippe
philips
philipsburg
phillips
philosophy
phnom
phone
php
pi
pia
pianista
piano
piar
picher
pida
pidanan
pidgin
pidi
pido
piedra
piedranan
piemonte
pier
piercing
pierre
piesa
piesanan
piet
pieter
pietermaai
pieters
pietersz
pik
pika
piko
pila
pilar
pilium
piloto
pim
pin
pinedo
pinta
pintamento
pintamentu
pinto
pintor
pintura
pinturanan
pionero
pipa
pipita
pirata
piratanan
pisa
pisas
pisca
piscado
piscina
piska
piso
pista
pitcher
pl
pla
plaate
placa
place
plachi
plachinan
plaga
plaka
plama
plamamentu
plan
planeta
plania
planifikashon
plankinan
plano
planonan
planta
plantacion
plantashi
plantashinan
plantashon
plas
plasa
plaser
plat
plata
plataforma
plate
plato
play
playa
playanan
player
playoff
plaza
pleita
plenchi
plenipotenciario
plenipotensiario
pleno
plesman
ploaghe
plu
plural
plus
pm
pnp
po
pober
pobla
poblacion
poblashon
pobresa
pochi
poco
poder
podernan
poderoso
podise
poe
poema
poemanan
poesi
poesia
poeta
point
poka
poko
pokopoko
polaco
polako
polar
poli
policial
polis
polisial
politeismo
politica
political
politico
politie
politika
politikamente
politiko
polo
polonia
pomerania
pompilius
pon
pone
poni
poniendo
ponson
pont
pontnan
ponton
pool
pop
popper
popular
popularidad
popularidat
popularisa
populashon
population
por
porco
porsentahe
porshento
porshon
port
porta
portal
portanan
portero
porto
portuario
portugal
portugue
portugues
pos
posee
posibel
posibelmente
posibilidad
posibilidat
posicion
posishon
posishona
positivo
posnan
post
postula
potencial
potret
power
poznan
poznatih
pp
ppa
ppt
pra
practica
praktika
praktikanan
praktikante
pre
precies
predesesor
predominante
preferi
pregunta
preguntanan
preis
preliminar
premia
premier
premio
prens
prensa
preokupa
preokupashon
prepara
preparashon
preparatorio
preposicion
prepusio
presencia
presensia
presenta
presentacion
presentado
presentador
presentashon
presentashonnan
presente
preserva
preservashon
preshon
presidencia
presidensia
presidensial
president
presidente
presidi
presis
presley
press
presta
prestamista
prestashon
prestatario
prestigioso
pret
pretende
pretu
preveni
preventivo
previamente
pri
prijs
prima
primariamente
primario
primera
primeramente
priminti
primitivo
primoge
primoitura
primordial
primordialmente
prince
princesa
princeton
principal
principalmente
principe
principio
prins
prinses
prinsesa
prinsipal
prinsipalmente
prinsipe
prinsipio
prinsipionan
prisma
prisonero
priva
prizo
prizon
pro
proba
probablemente
problema
problemanan
procedente
procedura
proceso
proclama
produccion
producer
produci
producto
productonan
productor
produkshon
produkshonnan
produkto
produktonan
produktor
produsi
profar
profeshon
profeshonal
profesion
profesional
profesor
professor
profil
profundidat
profundisa
profundo
programa
programanan
progresa
progresista
progresivo
progreso
prohibi
prohibishon
project
proklama
prokurador
prolonga
prome
promedio
prominente
promotor
promove
promovendus
promulga
pronomber
pronostika
pronto
pronunsia
pronunsiashon
propaga
propaganda
propiedad
propiedat
propiedatnan
propietario
propio
propo
propone
proporshon
proposicion
proposishon
proposito
propulshon
prosa
prosedente
prosedura
proseso
prosesonan
prospera
prosperidat
prostat
prostitushon
prostituta
proteccion
proteha
protehe
protehi
protekshon
protesta
protestanan
protestant
protestantismo
proto
protocol
protonnan
provee
provence
provensia
proverbio
provincia
provinsia
provinsial
provinsianan
provoka
proximo
proyecto
proyectonan
proyekto
proyektonan
prueba
prusia
psait
pseud
pseudo
pt
pte
ptiko
ptolomeo
pu
public
publica
publicacion
publicamente
publico
publika
publikashon
publikashonnan
publiko
publishers
pueblo
pueblonan
puerto
pues
puesto
puestonan
pulmon
punda
punt
punta
puntanan
punto
puntonan
puntr
puntra
puppy
pura
purba
puru
pusha
put
putin
pwa
px
q
qaeda
qatar
quartier
que
quebec
queda
queen
qui
quico
quita
quito
r
ra
raad
rabbit
rabe
rabia
rabu
race
racing
radial
radikal
radio
radionovela
radulphus
rafael
ragtime
rail
rails
rais
raisi
raisnan
raiz
raket
raketnan
rama
ramo
ramon
rancho
rand
randal
randall
randia
rangers
rango
ranh
ranka
ranking
rant
rap
rapidamente
rapido
raport
raporta
rapper
rapport
raquel
ras
rasa
rasial
rasismo
rasmijn
rason
rastafari
ratifica
ratifika
raton
ray
raymond
rbita
rca
rctv
rda
rdat
rde
rden
rdi
rdia
rdida
rdo
rdoba
rdu
re
rea
reagan
reakshon
real
realidad
realidat
realisa
realisashon
realismo
reality
realmente
realms
reanan
rebecca
rebeka
rebeldia
rebelion
rebiba
recauda
rechasa
rechaso
recht
recien
recomendacion
reconoce
reconocemento
reconoci
reconocimento
reconocimiento
record
recorda
recordino
records
rector
recupera
recuperacion
red
redakshon
redaktor
reduci
redusi
reemplasa
ref
refeneria
refere
referendum
referensia
referi
referiendo
refina
refineria
refinerianan
refleha
refnan
reforma
reformanan
reformashon
reforsa
refugio
refunjol
regalo
regarda
regering
reggae
regimen
reginald
regio
region
regional
regionan
regionnan
registra
registro
regla
reglamento
reglanan
regresa
regreso
regula
regular
regularmente
rei
reich
reichskommissariat
reina
reinado
reinan
reino
rekeri
rekisitonan
reko
rekobra
rekohe
rekonose
rekonosementu
rekonosi
rekonosimentu
rekonstrui
rekorda
rekupera
rekurso
rekursonan
relacion
relaciona
relacionnan
relashon
relashona
relashonnan
relata
relativamente
relato
relatonan
released
relevante
religion
religionnan
religioso
remarkabel
remedi
remix
remplasa
remplasando
renchi
rene
renoba
renobacion
renombra
reo
repandus
reparti
repartimento
repatria
report
reporta
reportero
representa
representacion
representando
representante
representantenan
representashon
representativo
repu
republic
republica
republika
republikanan
republikano
reputashon
res
resalta
rescate
research
reserva
reserve
reseta
residencial
residensia
residensial
residente
residentenan
residual
resien
resientemente
resistencia
resistensia
reskata
reskoek
resolve
resorta
respectivamente
respektivamente
respektivo
respeta
respiratorio
responde
responsabel
responsabilidad
responsabilidat
resta
restante
restauracion
restaurant
resto
restonan
restora
restorant
restrikshon
restructura
restruktura
restu
restunan
resulta
resultado
resultadonan
resultando
resurekshon
ret
retene
retira
retiro
reto
retrieved
reu
reuel
reuni
reunion
reunionnan
revela
review
revisa
revista
revolucion
revolucionario
revolushon
revolushonario
rey
rez
rgano
rhuggenaath
ri
rib
riba
rica
ricardo
richard
richter
ricibi
ricky
rico
ridder
ridderplaat
ridderstap
ride
riesgo
rif
rigaud
rights
rignald
rijksministerraad
rijna
rika
rikamente
rikesa
riko
riku
rima
rin
rina
rincon
ring
rio
rios
ripara
ripiti
risibi
rita
ritmiko
ritmo
rito
ritual
riu
riunan
river
rivie
rk
rkura
rm
rme
rmino
rmiti
rmr
rms
rmula
rnam
rnamen
rnan
rne
rno
rnu
rnunan
ro
roa
road
roadmarch
robert
robertico
roberto
robes
robesou
robez
robin
robinson
rocco
rock
rocky
rodger
rodolfo
roep
roger
roi
rojer
rol
roland
roll
roma
romance
romania
romaniko
romano
romanonan
romanov
romeno
romeo
ronald
ronaldo
ronchi
rond
ronde
rondo
rondona
rondu
ronnie
ront
rooi
rooms
roosevelt
rosa
rosalia
rosario
rosea
roseau
rosenstand
rotashon
rotterdam
rou
rowley
roxy
roy
royal
royalfamily
rozendal
rp
rpi
rquez
rs
rsio
rsito
rsou
rsssf
rt
rta
rti
rtika
rtiku
rts
ru
ruanda
ruben
ruby
rudolf
rudy
rufo
rufus
rui
ruiz
ruman
rumannan
rumbo
run
rupaul
rus
rusia
rusiano
ruso
ruta
rutgers
ruth
ruthmilda
rutte
rverwaltung
ryan
s
sa
saba
sabana
sabi
sabiduria
sabroso
saca
sachsen
sacramento
sagrado
sahara
saint
sainte
sais
sak
saka
saku
sala
salamanca
salarial
salario
salba
sale
saleh
sali
salida
salin
salle
salo
salomo
salomon
salsa
salt
salu
salubridad
salubridat
salud
salvador
salzburg
sam
sambil
sambuya
sambuyamentu
samoa
samuel
san
sandal
sandra
sanger
sangura
sano
santa
santana
santiago
santo
santos
santu
sara
sarah
sarai
saratov
saravah
sardegna
sardegno
sardo
sars
saserdote
saserdotenan
sasha
sassari
sate
satelite
saudita
savaneta
say
scadta
scandal
schaduw
scheepvaart
scherpenheuvel
schiphol
school
schoop
schotte
schottegat
schouten
schreuders
schrikkeljaar
schwengle
science
sciences
scientific
scirbi
scoge
scohe
scol
scolnan
scondi
score
scott
screening
scritura
scucha
scur
se
sea
search
season
seattle
seba
sebastian
seccion
seco
second
secretario
secreto
sector
secundario
sede
segregashon
segu
seguidamente
segun
segunda
segundo
seguridad
seguridat
seguro
seir
seis
seka
sekretario
sekreto
sekshon
sekso
seksual
sektor
seku
sekuestra
sekundario
sekura
sela
selassie
selebra
selebrashon
selebrashonnan
seleccion
selekshon
selekshonnan
self
selva
semanal
semeleer
semi
semper
sen
senado
senador
senato
sende
senegal
senior
senk
sensacion
senso
sentensia
sentido
sentimento
sentral
sentro
sentronan
seoul
separa
separacion
separashon
septe
september
ser
sera
seramentu
serbes
serbia
serca
seremonia
seri
seriamente
serie
series
serio
serka
serkania
sernan
sero
seronan
sertifikashon
seru
serunan
servia
services
servicio
servio
servisio
servisionan
sesenta
sesis
set
setar
setenta
seu
severo
sevinger
sexologia
seyo
sfera
sfn
sh
shairon
shakespeare
shanayah
shanghai
shap
sharlon
shawn
shell
shelter
shelu
shelunan
shen
shent
sherman
shete
shi
shinishi
sho
shoco
shon
shopping
show
shownan
si
sia
sic
sica
siddhartha
sidney
sie
siegu
siempre
siencia
siendo
siensia
sienti
sientifico
sientifiko
sierra
sierto
siete
sifra
sifranan
sigi
siglo
siglonan
signifikante
signo
sigui
siguiendo
siguiente
sigur
sigura
siguramente
siguridad
siguridat
sika
sikem
siklo
siko
sikonan
sil
silesia
siligo
silva
silvanie
silver
silveria
sima
simadan
siman
simbolisa
simboliza
simbolo
simbolonan
simeon
simia
similar
simo
simon
simpel
simplemente
sin
sincronisa
sindikal
sindikalista
sindikato
sine
sineasta
sinembargo
singapore
singapura
single
singles
singular
sinku
sinkuenta
sino
sint
sinta
sinterklaas
sinti
sintimentu
sintomanan
sir
sirbi
sirbibo
sirbido
sirbishi
siri
siria
sirkula
sirkulashon
sirkumsida
sis
sistema
sistemanan
sita
site
sitio
sito
situa
situacion
situashon
siudad
siudadano
siudadanonan
siudat
siudatnan
sivil
sivilisashon
sivilisashonan
sk
ska
skandinavia
skapa
skateboard
ske
skeda
skelet
sker
skibi
skirbi
sklabisa
sklabitud
sklabitut
skohe
skohi
skol
skolnan
skonde
skondi
skor
skos
skouder
skoutismo
skritura
sku
skuch
skucha
skulo
skur
skuridat
sla
slagbaai
slam
slavernij
slem
sling
sloot
slovakia
slovenia
smaak
smak
smal
smith
smo
snan
sneek
snoa
so
soberania
soberano
sobra
sobre
sobrebibi
sobrevivi
social
socialista
sociedad
society
sodoma
sofia
sofo
softball
software
solamente
solar
soldatnan
solicitud
solido
solista
solo
solomon
somalia
sombra
son
song
sonia
soporta
soria
sorry
sorto
soru
sosega
sosial
sosialista
sosiedat
sosode
sosten
sostene
sostenibel
soul
south
sovie
sovietica
sovietico
sovietiko
sox
spa
spaans
spaanse
space
spada
spain
span
spar
spatha
spe
spears
special
specialisa
specialisacion
specialmente
species
specifico
specula
spera
speransa
speshal
speshalisa
spesi
spesial
spesialisa
spesialmente
spesifiko
spie
spion
spiritu
spiritual
splica
splicacion
splika
splikashon
split
sport
sprockel
sputnik
sr
sra
sri
srpska
ssc
st
sta
staatsregeling
stabil
stabilidat
stablese
stad
stadion
stakeholder
stalin
stampia
stan
standaard
standard
standardisa
standart
stanford
stanley
star
start
stashon
stashona
stat
state
staten
states
statia
statie
statistics
statistiek
statistik
statnan
status
statuto
statutonan
statuut
statuutdag
ste
stefanelli
stephany
stephen
ster
sterreich
steve
steven
stichting
sticusa
stika
stikamente
stikanan
stiko
stim
stima
stimula
stipula
sto
stockholm
stof
stoma
stop
store
storia
stories
story
stran
stranhero
strate
strategia
stratford
strea
streanan
street
strepi
strepia
stret
stroba
strofe
structura
struktura
strukturanan
stu
studia
studiante
studiantenan
studies
studio
stuyvesant
style
su
sua
suak
suave
suavisa
sub
subcampeon
subdividi
subi
subkontinente
subt
sucesor
sucu
sudan
sue
suecia
sueko
suela
suesia
suffisant
suficiente
sufisiente
sufri
sugeri
suheto
suicidio
suidad
suidat
suidatnan
suisa
suiso
suit
suitost
suitwest
suku
sulla
suma
sumamente
sumatra
suministra
sumpin
sun
sunchi
sung
sunu
sup
super
superficie
superfisie
superfisio
superior
supervisa
supervishon
supervision
supkampeon
supla
supmarino
supone
supremo
supsidiario
supstansial
supuestamente
supuesto
sur
suramericano
surgi
surinam
suriname
surnam
surpasa
survivor
suseso
susesonan
susesor
sushi
suspendi
sussex
sustantivo
suvarnabhumi
suzanne
suzy
sv
svet
svg
swaziland
sweet
switch
sydney
systema
t
ta
taal
tabat
tabata
tabatin
tabe
tabla
tafelberg
tag
tahith
tai
tailandia
taino
taipei
taiwan
tajikistan
take
taki
tal
talbes
talcahuano
tale
talento
talentoso
taliban
talisman
talismannan
tamar
tambe
tambo
tambu
tampoco
tampoko
tan
tanda
tankero
tanki
tanto
tantu
tanzania
taoyuan
tapa
tapushi
tapushinan
tarda
tare
tarea
tareanan
target
tarifa
taryn
tata
tatanan
tavia
tawata
tawatin
tayer
taylor
tbol
te
team
teater
teatral
teatro
tecnica
tecnico
tecnologia
ted
teheran
tei
teknolo
teknologia
teknologiko
teksas
teksto
tekstonan
tekto
tektoniko
tel
telearuba
telecurac
telecuracao
telefo
telefon
telekomunikashon
teles
televisa
televishon
televisio
television
tema
temanan
temblor
temor
tempel
tempera
temperatura
tempestat
tempio
template
tempo
temporada
temporal
temporalmente
tempran
tempu
tempunan
ten
tende
tene
teni
teniendo
tenista
tennessee
tennis
teo
teori
teoria
ter
tera
teracota
teranan
teremoto
tereno
terenonan
teresa
tergu
teritorial
teritorio
teritorionan
termina
terminal
termino
terminologia
ternan
terorismo
terorista
terra
terser
tersera
terwijl
tesis
tesorero
tesoro
test
testigu
testigua
testigunan
testimonio
tevreden
texas
text
texto
teza
th
than
that
the
theater
theo
thessaly
they
thiel
this
thode
thomas
ti
tica
tico
tienda
tijden
tika
tikamente
tiki
tiko
til
tilburg
tim
time
times
timnan
timo
timor
tin
tina
tip
tipicamente
tipico
tipikamente
tipiko
tipo
tiponan
tira
tiru
tirzo
tis
titanic
title
titula
titulando
titulo
tjin
tjon
tmiko
to
tobago
toca
tocante
toch
todd
todo
todonan
todopoderoso
toezicht
toka
tokado
tokamentu
tokante
toke
tokio
tokyo
toma
tome
tomo
ton
tonga
tono
tony
too
top
topa
topografia
toppenberg
toque
toren
tormenta
torneo
torneonan
toronto
torres
torsten
torto
tortura
toscana
total
totalmente
tou
tounan
tour
tourism
town
toya
tr
tra
trabao
trabou
trabounan
tradicion
tradicional
tradishon
tradishonal
tradishonalmente
tradishonnan
traduci
tradukshon
traduktor
tradusi
trafico
trafikashon
trafiko
tragedia
trah
traha
trahado
trahadonan
trahador
trahadornan
trahamento
trahamentu
trahando
train
training
tram
trang
trankil
transatla
transferi
transforma
transicion
transishon
transmishon
transmision
transmiti
transport
transporta
transportashon
transporte
trapi
trappers
tras
traslada
traspasa
traspaso
trat
trata
tratado
tratamento
tratamentu
trato
trayektoria
tre
trece
trein
trempan
trenidat
tres
trese
tribunan
trinidad
trinta
trio
tripulante
tristesa
tristu
tromp
trompet
trono
tropanan
tropical
tropikal
trump
trupa
trupial
tsunami
tu
tuel
tui
tula
tulo
tulonan
tum
tuma
tumando
tumba
tumi
tuminan
tunesia
tur
turi
turismo
turista
turistico
turkia
turkmenistan
turko
turno
tuvalu
tv
tweede
twente
twitter
twitty
two
tyrone
u
ubica
ubika
ue
uefa
uganda
uit
uk
ukrania
ukraniano
ulandes
ultimo
ultramar
ulyanovsk
un
una
und
unda
under
unesco
uni
unico
unidad
unidat
unidos
unie
uniko
union
unit
united
universal
universidad
universidade
universidat
universidatnan
universitario
universiteit
university
universo
uno
unu
up
upb
upload
urbano
urirama
ursell
uruguay
us
usa
usando
use
uso
usual
usualmente
usuario
usuarionan
utah
utc
utilidat
utilisa
utrecht
uts
uz
uza
uzando
uzbekistan
uzo
v
va
vacuna
vader
valde
valdivia
vale
valei
valencia
valentin
valle
valley
valor
van
vanessa
vannier
vanuatu
var
varia
variabel
variacion
variante
variashon
variedad
variedat
varios
varsovia
vaticano
vatikano
vaye
ve
vecindario
vegas
vegetashon
vehi
velosidat
veneto
venezia
venezolano
venezuela
venus
vera
verbo
verde
vereniging
verf
vermont
verona
versailles
vershon
version
verso
verzameld
vespo
vespucci
vesti
vez
vi
via
vice
vicente
vicepresidente
victima
victor
victoria
video
vidio
vidria
vientiane
vietjet
vietnam
vietnamita
view
vigente
vigila
vigor
vii
viii
viktima
viktoria
vila
villagra
vincent
viola
violacion
violashon
violencia
violensia
violento
violin
virgen
virgin
virginia
virus
visa
visage
vise
visepresidente
vishon
visibel
vista
visual
vitesse
viuda
vlaanderen
vladimir
vo
voc
vocabulario
vocal
voetbal
voetbalbond
voice
voivodat
vokabulario
vokal
vol
volga
volk
volka
volkan
volkaniko
volkannan
volleyball
volumen
voluntario
von
voor
vorming
vos
vota
voto
votonan
voz
vries
vrieswijk
vrolijk
vudu
vuelo
vulgar
vurnon
vwo
w
wabi
waf
wageningen
wajcberg
wak
walbeeck
walburg
wall
wallonie
wals
walter
want
wanta
war
warawara
warda
wardado
warwaru
was
washington
watapana
water
waterpolo
watty
wawoe
way
waya
wazo
wbc
we
web
website
webu
weekly
weer
weg
wega
weganan
wela
welga
welo
wem
wendru
wepsait
wepsite
wer
were
werk
werleman
wernet
wesley
west
westminster
westpunt
wesu
wesunan
wever
what
white
whiteman
who
wic
wie
wiel
wiels
wiki
wikimedia
wikipedia
wil
wild
wilhelmina
wilhelmus
will
willem
willems
willemstad
william
williams
willy
wilson
wim
wind
windhoek
windows
windpark
windsurf
windward
winfrey
winklaar
winners
winston
winter
wiri
wisconsin
wiskunde
with
wladimir
wo
wojewo
woman
women
worde
wordo
wordt
wordu
world
wout
wowo
wowonan
wright
writing
wuhan
www
wycliffe
wyoming
x
xander
xavier
xi
xiii
xima
xiomara
xix
xm
xvi
xvii
xx
y
ya
yaga
yale
yam
yama
yamada
yame
yanu
ye
year
yega
yegada
yegando
yemen
yen
yena
yerba
yiu
yiunan
yo
yobe
yobida
yolanda
yong
yora
york
you
young
your
youth
youtube
yu
yuana
yubi
yuda
yudansa
yugoslavia
yui
yuli
yunan
yuni
z
zaken
zambia
zanzibar
ze
zeeland
zelandia
zeta
zibeon
zie
zijn
zika
zilpa
zilveren
zimbabwe
zimmerman
zion
zita
zoar
zomer
zona
zonanan
zone
zonido
zouk
zu
zuid
zuit
zulia
zumbi
zuylen
{
|
}
~
¡
«
°
±
²
³
·
»
½
¿
×
đo
ʻ
ʾ
ʿ
ˈ
ˌ
ː
̀
́
̂
̃
̄
̆
̇
̈
̉
̊
̋
̌
̓
̛
̣
̧
̨
͂
α
ε
ν
ο
ς
του
а
б
в
г
д
е
ж
з
и
к
л
м
н
о
п
р
романов
с
т
у
ф
ѡ
ا
الا
ب
ت
د
ع
ل
ه
َ
ِ
ّ
ْ
ٔ
ٕ
ा
ौ
्
্
ા
ு
င
န
မ
ာ
ု
ေ
်
ြ
​
‌
‎
–
—
‘
’
“
”
„
†
•
…
′
″
€
→
↔
↷
−
③
④
⑦
☆
⺀
⺄
⺆
⺈
⺊
⺌
⺕
⺝
⺸
⺼
⿰
⿱
⿲
⿳
⿴
⿵
⿶
⿷
⿸
⿹
⿺
⿻
〢
゙
゚
ク
コ
ト
ハ
ユ
ル
ワ
ン
ー
㇁
㇂
㇄
㇇
㇈
㇉
㇓
㐁
㐄
㐅
㐌
㐫
㐬
㐭
㐮
㐱
㑒
㒵
㒸
㒼
㓁
㓞
㔾
㕛
㕣
㖾
㘝
㚅
㚇
㚔
㚘
㝉
㝡
㝴
㝵
㞋
㞢
㞷
㠩
㠭
㠯
㡀
㡭
㡿
㢲
㢴
㣇
㣺
㥯
㪅
㫄
㫐
㫒
㫺
㬅
㬎
㬥
㬰
㲋
㳄
㷠
㸒
㸚
㸦
㼌
㼲
㽞
㿟
䀠
䂞
䍃
䏍
䒑
䖍
䖒
䖝
䖵
䙴
䚻
䜌
䝿
䡛
䧹
䪞
一
丁
丂
七
丄
丅
丆
万
丈
三
上
下
丌
不
与
丏
丐
丑
专
且
丕
世
丘
丙
业
东
丞
丢
丣
两
严
並
丨
丩
个
丫
丬
中
丮
丰
丱
串
丵
丶
丷
丸
丹
为
主
丽
丿
乀
乂
乃
久
乆
乇
么
义
之
乌
乍
乎
乏
乐
乑
乔
乖
乗
乘
乙
乚
乛
乜
九
乞
也
习
乡
乳
乾
亀
亅
了
亇
予
争
事
二
亍
于
亏
亐
云
互
亓
五
井
亘
亚
亜
亞
亟
亠
亡
亢
交
亥
亦
产
亨
亩
享
京
亭
亮
亯
亰
亲
亳
亶
亷
人
亻
亼
亾
仁
今
介
仌
从
仐
仑
仒
仓
仕
他
付
仝
代
令
以
任
企
伊
伏
伐
休
会
伯
但
位
何
佘
余
作
佥
使
來
侈
侌
侖
侯
侵
便
保
俞
信
修
倉
倍
候
倠
備
僉
僕
儿
兀
允
兂
元
兄
充
兆
兇
先
光
兊
克
兌
免
兑
兒
兓
兔
党
兜
兟
入
全
兩
兪
八
公
六
兮
兰
共
关
兵
其
具
典
兹
兼
冀
冂
冃
冄
内
冈
冉
冊
冋
册
再
冎
冏
冐
冒
冓
冖
冗
冘
军
农
冝
冡
冥
冫
冬
冷
几
凡
凢
凵
凶
凷
凸
凹
出
函
凾
刀
刁
刂
刃
刄
刅
分
切
刍
刑
刕
刖
列
刘
则
初
別
利
别
到
制
刺
則
削
剌
前
剡
剽
劉
力
功
加
劦
助
劫
劳
劵
勃
勇
勉
勒
動
務
勞
勤
勹
勺
勻
勾
勿
匀
匂
包
匆
匈
匊
匋
匍
匕
化
北
匚
匝
匡
匪
匱
匸
匹
区
医
匽
匿
區
十
卂
千
卄
卅
卆
升
午
卉
半
卌
华
卑
卒
卓
单
卖
南
卜
卝
卞
占
卡
卢
卣
卤
卦
卩
卪
卬
卯
印
危
即
却
卵
卷
卸
卻
厂
厃
厄
历
厈
厉
厌
厓
厘
厚
原
厤
厥
厨
厭
厲
厶
厷
厸
去
厼
厽
叀
参
參
叅
又
叉
及
友
双
反
叐
发
叒
叔
叕
取
受
叚
叜
叟
口
古
句
另
叩
只
召
可
台
叱
史
右
叵
号
司
叹
吂
各
吅
合
吉
吊
吋
同
名
后
吏
向
吕
君
吝
吞
否
含
启
吳
吴
吹
吾
呂
呆
呈
告
员
呙
周
命
咅
和
咎
咠
咢
咨
咸
咼
哀
品
哉
員
哥
哲
唐
商
啇
問
啚
啬
啻
善
喜
喬
單
喿
嗇
噩
嚴
囊
囗
囘
囙
囚
四
回
囟
因
囧
囬
困
囱
囷
固
国
圂
圅
國
圍
圓
土
圡
圣
圥
在
圭
地
圶
圼
坐
坒
坚
坴
垂
垔
垚
埀
埋
埶
執
基
堂
堅
堆
堇
堯
塞
墨
壘
士
壬
壯
声
壳
壴
壹
壺
壽
夂
处
夅
夆
备
夊
夋
夌
复
夏
夒
夕
外
夗
夘
多
夜
夢
大
夨
天
太
夫
夬
夭
央
失
夲
头
夷
夸
夹
夻
夾
奂
奄
奇
奈
奉
奎
奏
奐
契
奓
奔
奚
奞
奠
奢
奥
奭
女
奴
奻
好
如
妄
妙
妟
妥
妻
妾
姑
委
姜
威
娄
婁
婴
嬰
嬴
子
孑
孔
孕
孖
字
存
孚
孛
孝
孟
季
孤
学
孫
孱
學
宀
宁
宂
它
宅
宇
守
安
宋
完
宏
宓
宗
官
定
宛
宜
宝
客
宣
室
宮
宰
害
家
容
宾
宿
寄
寅
密
富
寒
察
寧
審
寫
寬
寮
寸
对
寺
寻
寽
対
寿
封
尃
射
将
將
專
尉
尊
尋
尌
對
小
少
尒
尓
尔
尖
尗
尚
尞
尢
尣
尤
尧
尨
尭
就
尸
尹
尺
尻
尼
尽
尾
尿
局
居
屈
屋
屎
屏
屑
展
屖
屚
属
屠
屡
屬
屮
屯
屰
山
屵
屾
岁
岂
岑
岡
岩
岳
岸
峯
島
崇
崑
崔
崖
崙
崩
嵬
嶲
巂
巛
川
州
巟
巠
巢
巤
工
左
巧
巨
巩
巫
差
己
已
巳
巴
巷
巸
巽
巾
巿
帀
市
布
希
帚
帛
帝
带
師
席
帶
常
干
平
年
幵
并
幷
幸
幺
幻
幼
幽
幾
广
広
庄
床
底
店
庚
府
度
庫
庭
庶
康
庸
廉
廌
廛
廣
廩
廴
延
廷
建
廾
廿
开
弁
弃
弄
弇
弋
式
弓
弔
引
弗
弘
弜
弟
弥
弦
弱
張
強
强
彊
彌
彎
彐
彑
当
彔
录
彖
彗
彡
形
彥
彦
彧
彭
彳
役
彼
往
待
律
徒
得
徙
從
復
微
徵
心
忄
必
忌
忍
志
忝
忠
忩
快
念
忽
忿
思
怠
急
怱
恆
恒
恩
恭
息
悉
患
悤
悲
悶
惠
惡
惢
愁
愈
意
愛
感
慈
慧
慮
憂
憲
應
戀
戈
戉
戊
戋
戌
戍
戎
成
我
戒
戔
或
戚
戠
戢
截
戲
戶
户
戹
戼
戾
房
所
扁
扇
手
扌
才
打
托
执
承
折
拉
拜
拿
掌
推
提
摩
支
攴
攵
收
攸
改
放
政
敄
敏
敕
敖
敗
教
敝
敞
敢
散
敦
敫
敬
数
敷
數
斂
文
斉
斊
斗
斤
斥
斩
斬
斯
新
方
於
施
斿
旁
旋
族
无
旡
既
旣
日
旦
旧
旨
早
旬
旱
旲
时
旾
昆
昇
昌
昍
明
昏
易
昔
昗
昜
星
春
昬
是
昱
昴
昷
時
晃
晋
晏
普
景
晶
智
暑
暴
曇
曩
曰
曲
曳
更
曷
書
曹
曼
曾
替
最
朁
會
月
有
朋
服
朔
朕
朗
望
朝
木
朩
未
末
本
札
朮
术
朱
朵
朶
朿
杀
杏
杜
束
条
来
東
杲
杳
松
析
林
枚
果
枝
枲
枼
某
柔
查
柬
柰
柴
栗
桀
桑
桼
梁
條
梟
梨
棘
棠
棥
森
楚
業
楽
榮
樂
樊
欠
次
欣
欮
欲
欶
欽
款
歆
歇
歛
止
正
此
步
武
歨
歪
歮
歯
歰
歲
歴
歷
歸
歹
歺
死
殳
段
殷
殸
殹
殺
殻
殿
毋
毌
母
每
毒
比
毕
毚
毛
毳
氏
氐
民
气
氣
水
氵
氶
氷
永
氺
氾
求
汝
汞
江
沃
沓
沙
沝
泉
法
波
泣
泥
泰
洛
洪
活
派
流
浦
浪
浮
淡
淮
清
渚
渠
湯
滿
漸
火
灬
灭
灰
灵
灷
炅
炎
炏
炗
炙
炭
為
烈
烏
烝
焉
無
焦
焱
然
煞
熊
熏
燕
營
燮
爪
爫
爭
爯
爰
爱
爲
爵
父
爻
爽
爾
爿
片
牙
牚
牛
牜
牟
牢
牧
牪
牽
犀
犬
犭
犮
狂
狄
狊
独
狺
猋
猒
猪
献
獻
玄
率
玉
王
玟
玨
珎
班
琴
瑟
瑩
瓜
瓦
甘
甚
生
産
用
甫
甬
田
由
甲
申
电
甶
男
甸
甹
画
甾
畀
界
畏
畐
留
畜
畟
畢
畧
畨
番
畫
異
畱
當
畺
畾
疊
疋
疌
疑
疒
疾
癶
癸
癹
登
發
白
百
皀
皃
的
皆
皇
皋
皐
皕
皮
皷
皿
盃
盆
盇
盈
益
盍
盎
监
盒
盖
盛
盡
監
盤
盧
目
直
相
盾
省
眇
眉
看
眔
眞
真
眷
眼
眾
着
睘
睪
睿
瞏
瞢
瞿
矍
矛
矞
矢
矣
知
矦
短
石
破
碎
磊
磨
示
礻
礼
祟
票
祭
禀
禁
禸
禹
禺
离
禽
禾
禿
秀
秃
秉
秋
科
秝
秦
移
稟
穀
穌
穴
究
穹
空
穿
突
窄
窒
立
竒
竜
竝
竟
章
童
竹
笑
笠
筆
等
答
箕
算
箴
節
篤
篭
米
粉
粛
粟
粤
粦
粲
糞
糸
糹
系
約
納
素
索
紫
累
細
絜
絫
絲
維
綿
縣
繇
纍
纟
缶
网
罒
罔
罕
罗
罙
罡
罢
罪
署
罷
羅
羊
羌
羍
美
羔
羕
羗
羞
羡
羣
群
義
羲
羸
羽
翁
翏
習
翕
翟
翠
翼
老
耂
考
者
耆
而
耎
耑
耒
耳
耴
耶
耷
聂
聊
聖
聚
聶
聿
肀
肃
肅
肉
肖
肙
肥
肩
肯
育
肴
胃
背
胡
胥
能
脊
脩
膚
臣
臤
臧
自
臬
臭
臯
臱
至
致
臺
臼
臽
臾
臿
舀
舂
舄
與
興
舉
舌
舍
舛
舜
舞
舟
般
艮
良
色
艸
艹
艾
芒
芔
芬
芮
花
芳
芺
芻
苔
苗
苟
若
苦
英
茶
茸
荅
草
荒
荣
荼
莆
莧
莫
莽
菆
菊
菐
華
萬
落
葉
著
葛
董
葵
蒙
蒦
蒼
蓋
蓬
蓺
蔑
蔡
蕉
蕭
薄
薛
薦
薰
藍
藏
藥
蘭
虍
虎
虐
虒
虔
處
虖
虗
虘
虚
虛
虜
虞
虫
虽
蚤
蚩
蜀
蜜
蟲
蠡
血
行
衍
衛
衣
衤
表
衮
衰
袁
袞
褭
褱
襄
襾
西
覀
要
覃
見
規
覓
覧
親
覽
见
角
解
言
訁
訇
計
詹
誩
諸
讠
谷
豆
豈
豊
豐
豕
豖
豙
象
豦
豩
豪
豸
貇
貝
貞
貟
負
貢
貧
貪
貫
責
貳
貴
買
費
賁
資
賈
賏
賓
賔
賛
賞
賢
賣
質
賴
贊
贝
贡
责
贯
贲
贵
赖
赞
赤
赦
走
越
足
路
蹇
身
躬
車
軍
軎
軟
輦
车
辛
辜
辟
辥
辰
辱
農
辵
辶
边
达
过
近
连
迷
追
退
送
逆
逐
通
速
造
逢
連
逮
進
遀
遂
過
道
達
遣
適
遷
遺
邊
邑
邕
那
邦
邪
郎
部
郭
都
鄉
酉
酋
配
酓
釆
采
里
重
野
量
金
釒
錢
钅
長
镸
长
門
閃
閉
開
閏
閑
閒
間
閔
閵
閻
闌
门
间
闷
阑
阜
阝
阿
降
陳
隆
隊
隋
隡
隨
隱
隶
隹
隺
隻
隼
隽
难
雀
雁
集
雈
雋
雍
雐
雔
雙
雚
雜
雝
離
難
雨
雩
雪
雲
零
雷
需
霍
霜
霝
霞
霸
靈
靑
青
非
靡
面
靣
革
韋
韦
韭
韯
韱
音
頁
頃
項
須
頗
頡
頻
顛
页
風
风
飛
飞
食
飠
養
饣
首
香
馬
馮
駦
马
骨
高
髟
鬥
鬯
鬲
鬼
魚
魯
鮮
鱼
鲁
鳥
鳳
鸟
鹵
鹿
麃
麗
麥
麦
麻
黃
黄
黍
黎
黑
黒
黨
黹
黽
黾
鼎
鼓
鼠
鼻
齊
齋
齐
齒
齿
龍
龙
龜
龟
龠
龰
龱
龴
龵
龶
龷
龸
龹


者
艹
﻿
？
𠀁
𠀃
𠀆
𠀉
𠀎
𠀐
𠁁
𠁣
𠂆
𠂇
𠂈
𠂉
𠂊
𠂋
𠂎
𠂒
𠂔
𠂛
𠂡
𠂢
𠂤
𠂬
𠂭
𠂹
𠃊
𠃋
𠃌
𠃍
𠃎
𠃑
𠃓
𠃔
𠃜
𠄌
𠄎
𠄠
𠄢
𠆢
𠆥
𠇍
𠈌
𠌵
𠓜
𠔉
𠔥
𠔼
𠔽
𠔿
𠕀
𠕁
𠕋
𠘧
𠘨
𠙻
𠙼
𠚏
𠚒
𠚤
𠚪
𠣏
𠤎
𠤕
𠥓
𠦄
𠦑
𠦝
𠧒
𠧗
𠧪
𠩺
𠪚
𠫓
𠫔
𠫤
𠬛
𠬝
𠬞
𠬢
𠬤
𠬶
𠮛
𠮦
𠮷
𠯑
𠱠
𠳮
𠷎
𡈼
𡉀
𡉵
𡌥
𡍮
𡏳
𡕒
𡕩
𡕰
𡖅
𡗗
𡗜
𡘆
𡘤
𡧱
𡨄
𡩧
𡬠
𡭽
𡰣
𡰥
𡰪
𡰯
𡰱
𡷈
𡸁
𡿨
𡿩
𡿪
𡿺
𢀖
𢀛
𢀩
𢁙
𢆉
𢆰
𢆶
𢇁
𢇇
𢉖
𢌬
𢌿
𢏚
𢑑
𢑚
𢖻
𢙣
𢛳
𢦏
𢦒
𢧵
𢼄
𢾕
𣁋
𣄼
𣅀
𣅽
𣍘
𣎳
𣎵
𣏋
𣏼
𣗥
𣥂
𣥖
𣦵
𣦼
𣧄
𣪊
𣪠
𣬉
𣳾
𣶒
𤇾
𤊽
𤐫
𤓰
𤔔
𤕨
𤣩
𤰇
𤰔
𤰞
𤴓
𤴔
𤽄
𥁑
𥁕
𥃦
𥃩
𥃭
𥇡
𥑟
𥘅
𥘈
𥝢
𥫗
𥱡
𦈢
𦉪
𦉬
𦉼
𦍌
𦍒
𦎧
𦐇
𦓔
𦔮
𦘒
𦙃
𦚏
𦣝
𦣞
𦣻
𦥑
𦥔
𦥯
𦨉
𦭝
𦰩
𧆞
𧈧
𧘇
𧰨
𧴪
𧴮
𧵩
𧾷
𨸏
𨾴
𩙿
𩠐
𩫏
𩵋
𪉷
𪜀
𪟽
𪠲
𪩲
𫇦
𫔭
𫜸
𫝀
𫠣
𫠩
𫢉
𫥞
𫩏
𫩠
𫪡
𫲽
𫶧
𬀷
𬐘
𬗌
𬙙
𬛸
𬜯
𬟩
𬯁
𬴘
𬺻
𬼉
𬼖
𭀰
𭁈
𭁨
𭅰
𭑈
𭕄
𭗼
𭤨
𭥫
𭻾
𮅕
𮊿
𮍌
𮍏
𮓗
𮥼
𮧮
廾
𰀁
𰀄
𰀈
𰀉
𰀕
𰀠
𰀡
𰀢
𰀪
𰁜
𰃮
𰆊
𰆘
𰋙
𰕎
𰢴
𰧭
𰯲
0--
15--
16--
17--
a--
aar--
ab--
aba--
abo--
abst--
abu--
acu--
ad--
ade--
adi--
adminis--
adri--
ae--
af--
ag--
agu--
ak--
aku--
al--
ali--
alp--
am--
an--
ano--
ao--
apel--
apo--
ar--
ara--
aro--
arte--
as--
asce--
at--
au--
audit--
auto--
ay--
az--
b--
ba--
bac--
bar--
bau--
be--
ben--
ber--
berg--
berk--
bi--
biblio--
bielo--
bio--
bis--
bo--
bol--
bon--
bot--
bra--
bre--
bri--
brid--
brie--
broad--
bu--
budi--
bur--
bura--
but--
c--
ca--
cab--
cai--
cal--
cam--
can--
cas--
cath--
cau--
ce--
ch--
cha--
chi--
cir--
citeref--
cl--
cla--
co--
com--
con--
cons--
conve--
cor--
cos--
cou--
cri--
cro--
cu--
d--
da--
dal--
de--
dek--
demons--
depo--
des--
dev--
di--
dia--
die--
dies--
diffe--
dis--
discri--
diserta--
dist--
divo--
dja--
do--
documenta--
donas--
dr--
du--
e--
ed--
ee--
ei--
eks--
eksigen--
ekspedi--
ekspl--
el--
ele--
em--
emer--
en--
eng--
epi--
era--
es--
espe--
este--
et--
eu--
eve--
ex--
experen--
experien--
expl--
ey--
f--
fa--
fac--
fal--
favo--
fe--
fer--
fi--
fin--
finan--
fl--
flam--
fo--
footnote--
fos--
fr--
fre--
ft--
fu--
g--
ga--
gala--
gali--
gar--
ge--
geh--
gen--
gene--
geo--
ger--
gi--
gia--
gle--
go--
god--
gri--
gro--
gros--
gu--
gue--
h--
ha--
ham--
har--
he--
her--
hesu--
hi--
ho--
hol--
homo--
hon--
hu--
hur--
hus--
i--
ia--
id--
il--
ilu--
ima--
imp--
impres--
in--
infec--
ino--
inter--
inve--
ir--
is--
isa--
j--
ja--
je--
jeugd--
jo--
ju--
k--
ka--
kata--
kathe--
ke--
ken--
ki--
kins--
kla--
ko--
kon--
konfe--
konk--
kor--
kra--
kri--
ks--
ku--
l--
la--
lat--
lau--
le--
les--
lguis--
li--
lib--
linguis--
lo--
lu--
ly--
m--
ma--
mag--
mal--
man--
mar--
mas--
mat--
me--
med--
mel--
men--
mer--
mi--
mid--
mikro--
mil--
min--
mo--
moni--
monu--
mor--
mos--
movi--
mpiu--
mu--
multi--
munic--
my--
n--
na--
nau--
naz--
nd--
ne--
neder--
nervi--
new--
ni--
nic--
no--
nos--
ns--
nti--
nu--
nutri--
o--
oa--
ob--
of--
off--
oho--
ol--
ole--
oly--
om--
on--
oo--
oost--
op--
or--
ora--
orto--
os--
ot--
ou--
p--
pa--
pan--
par--
para--
pas--
patron--
pe--
per--
pes--
pi--
pic--
pl--
plas--
ple--
po--
pol--
por--
pos--
poses--
poten--
pre--
preferen--
pri--
pro--
prog--
pronun--
pti--
pu--
publi--
q--
qu--
r--
ra--
rac--
radio--
ray--
re--
rebel--
reci--
reco--
red--
reg--
rekomenda--
relation--
res--
ret--
rho--
rhy--
ri--
rijks--
ro--
rob--
rota--
row--
rs--
ru--
rui--
s--
sa--
san--
satel--
satis--
sca--
sch--
se--
sefa--
seme--
sen--
ser--
sexu--
sh--
sho--
si--
sig--
sik--
simp--
sk--
skar--
slo--
so--
soci--
soli--
solus--
son--
sorp--
spe--
spi--
sra--
st--
sta--
ste--
sti--
su--
sub--
sup--
super--
sur--
sw--
sy--
t--
ta--
tab--
te--
tele--
ten--
teo--
ter--
th--
thi--
ti--
to--
tr--
trans--
tre--
tri--
tron--
tru--
tu--
tw--
ty--
u--
ult--
un--
uni--
up--
ur--
v--
va--
var--
ve--
ver--
vere--
vi--
vil--
vo--
vol--
vrij--
w--
wa--
wal--
we--
wiki--
wil--
win--
wo--
work--
x--
xi--
xx--
ya--
ye--
z--
ze--
zon--
zuid--
--0
--1
--2
--3
--4
--5
--6
--7
--8
--9
--a
--aal
--ab
--able
--ad
--ado
--ag
--agen
--ah
--ai
--ak
--aka
--al
--am
--an
--ante
--ar
--ara
--ard
--ardo
--ario
--ary
--as
--ashon
--at
--au
--az
--b
--ba
--baai
--be
--bel
--berg
--bi
--bilidat
--ble
--bo
--bol
--br
--burg
--c
--ca
--cat
--ce
--ces
--ch
--chi
--cho
--ci
--cia
--cio
--cion
--ck
--co
--cs
--ct
--cta
--ction
--ctivo
--cto
--cts
--ctus
--culo
--cy
--d
--da
--dad
--damente
--dat
--dda
--ddy
--de
--dero
--des
--di
--disi
--do
--donan
--dor
--ds
--dt
--du
--dy
--e
--ea
--ece
--ed
--ef
--ei
--ek
--el
--ela
--ell
--en
--ena
--enan
--enburg
--ence
--encia
--endo
--ens
--ente
--entu
--eo
--er
--ern
--ero
--ers
--eru
--es
--esa
--ese
--est
--et
--ew
--ex
--f
--fa
--ff
--fika
--fly
--fonds
--ft
--g
--ga
--gal
--ge
--ger
--gi
--gia
--glo
--go
--got
--grafia
--gro
--gs
--gu
--h
--ha
--he
--hi
--hon
--i
--ia
--ial
--iano
--ic
--ica
--ice
--ico
--id
--idad
--idat
--ie
--ier
--ies
--ifica
--igo
--ijk
--ik
--ika
--ikamente
--iko
--ilia
--illa
--im
--imo
--in
--ina
--ine
--ing
--ingu
--ini
--ino
--io
--ion
--iona
--ip
--is
--isa
--isacion
--ism
--ismo
--ist
--ista
--isti
--ita
--itario
--itie
--ito
--ity
--ius
--ividat
--ivo
--iz
--j
--ja
--je
--jn
--k
--ka
--ke
--kel
--ki
--kman
--ko
--kso
--ktivo
--kto
--l
--la
--lano
--lar
--ld
--lde
--le
--len
--li
--ll
--lla
--lle
--lli
--lls
--lmente
--lo
--logia
--lon
--ls
--ltor
--ly
--m
--ma
--man
--me
--mena
--ment
--mente
--mento
--mentu
--mi
--mico
--mo
--mon
--munication
--my
--n
--na
--nal
--nan
--nario
--nce
--ncia
--ncy
--nd
--nda
--nde
--ndo
--ne
--neo
--ner
--nes
--ng
--ngo
--ngs
--ni
--nia
--nk
--nny
--no
--ns
--nsa
--nse
--nsia
--nt
--nta
--nte
--ntenan
--ntinua
--nto
--ntu
--nus
--ny
--nza
--o
--og
--ok
--ol
--ologia
--om
--on
--op
--or
--os
--ot
--ou
--ough
--p
--pa
--pe
--phy
--pie
--plein
--po
--pol
--poort
--pto
--r
--ra
--ral
--rd
--re
--ren
--res
--rg
--ri
--ria
--rido
--ries
--riken
--rin
--rio
--rionan
--ris
--risa
--rka
--rm
--rn
--ro
--rs
--rt
--rta
--rte
--rto
--ru
--ry
--s
--sa
--se
--sha
--shal
--shi
--shon
--shonnan
--si
--sia
--sidio
--sio
--sion
--sive
--sivo
--smo
--so
--sola
--son
--sor
--ss
--st
--sta
--ste
--stiko
--straat
--t
--ta
--tape
--te
--tes
--th
--tha
--ti
--tia
--tic
--tico
--tie
--tika
--tiko
--tion
--tisa
--tiva
--tivo
--tje
--to
--tor
--ts
--tt
--tta
--tte
--tu
--tura
--ty
--u
--ua
--ual
--ud
--ui
--ul
--ula
--um
--un
--ur
--ura
--us
--ut
--v
--va
--ve
--ven
--vention
--ver
--vi
--vin
--vio
--vo
--vy
--w
--wa
--wan
--well
--wk
--x
--y
--ya
--z
--za
--ze
--zhou
--zo
--zon
--υ
