!
"
#
##0
##1
##10
##11
##12
##13
##14
##15
##16
##17
##18
##19
##2
##20
##21
##22
##23
##24
##25
##26
##27
##28
##29
##3
##30
##31
##32
##33
##34
##35
##36
##37
##38
##39
##4
##40
##41
##42
##43
##44
##45
##46
##47
##48
##49
##5
##50
##51
##52
##53
##54
##55
##56
##57
##58
##59
##6
##60
##61
##62
##63
##64
##65
##66
##67
##68
##69
##7
##70
##71
##72
##73
##74
##75
##76
##77
##78
##79
##8
##80
##81
##82
##83
##84
##85
##86
##87
##88
##89
##9
##90
##91
##92
##93
##94
##95
##96
##97
##98
##99
%
&
'
(
)
*
+
,
-
.
/
0
00
01
02
03
04
06
07
08
09
1
10
100
102
104
105
106
107
11
110
111
114
115
117
119
12
120
122
124
125
128
129
13
132
133
134
136
137
138
139
14
143
146
149
15
150
151
152
153
154
158
159
16
160
161
162
163
164
165
166
167
168
169
17
170
171
172
173
174
175
18
180
182
185
187
189
19
192
194
196
1967
197
199
1994
1995
1996
1997
1998
1999
2
20
200
2000
2002
2004
2005
2006
2007
2008
2009
2010
2012
2013
2014
2015
203
205
206
208
21
211
212
214
218
22
221
223
226
227
229
23
232
234
236
24
243
244
245
246
247
25
252
253
256
257
258
26
260
261
263
265
27
27316
274
275
276
28
280
286
29
3
30
300
302
303
304
306
307
308
309
31
310
311
312
313
314
316
317
318
319
320
321
322
325
328
33
330
331
333
335
336
338
339
34
340
342
344
345
346
347
348
349
350
351
353
354
355
356
357
358
36
364
365
367
370
376
377
380
381
382
383
384
385
386
388
389
39
390
391
392
393
394
395
396
397
398
4
400
402
404
405
406
407
408
410
412
413
417
419
42
420
422
425
426
427
428
43
430
436
44
45
46
47
48
484
49
5
50
500
51
53
54
55
56
6
60
65
66
67
68
69
7
70
71
72
73
74
75
78
79
8
80
82
83
84
85
86
87
88
89
9
90
91
92
93
94
95
97
:
;
<
=
>
?
[
\
]
^
_
`
a
ab
ablaut
about
above
abstract
abundance
acc
according
account
acid
actually
ad
add
adj
af
afar
africa
afrika
after
aftra
again
against
age
aggilus
ago
agree
ahmakuni
ahs
ai
aipistaule
aj
ak
akin
al
ala
alan
ale
alja
all
allis
almost
alone
along
alphabet
already
also
alternative
although
always
alþiza
am
among
an
ana
anan
ancient
and
anda
anglo
angry
animal
another
answer
ant
any
anything
apalai
apls
appearance
appropriate
ar
arabic
arba
archive
are
aren
arka
arm
arms
around
art
article
as
asilus
ask
ass
astray
at
ata
atjan
atta
attested
au
auk
av
away
awiz
axe
az
b
ba
back
bad
bagms
bai
bals
band
barley
barn
based
basi
basically
basis
battle
bau
be
bear
beat
beautiful
because
become
been
beer
before
beg
behind
behrens
being
below
bend
besides
best
better
between
bi
big
bind
bindan
birch
bird
birth
bit
biudan
black
ble
bleakgh
bler
blind
blo
blood
bo
board
boat
body
boka
bokareis
bokos
book
boot
born
borrowed
borrowing
botan
both
bottom
bow
bra
branch
brannjan
bread
break
breast
bridge
bright
bring
brother
brought
brunna
build
burn
but
button
buy
by
c
caesar
cake
call
called
came
can
cannot
care
carry
carrying
case
cast
cause
cave
century
certain
cf
change
changed
changing
charge
cheese
cherry
chief
child
chocolate
choice
choose
city
cj
class
claus
clean
clear
close
code
coffee
cognate
colour
com
come
comes
comfort
command
comment
common
community
comp
company
completely
computer
consider
consonant
corn
cornwall
correct
could
couldn
country
course
cove
cover
cp
create
crim
cross
cry
culture
cup
custom
cut
d
da
dag
daga
dagis
dags
dan
dance
dare
dark
dat
date
dau
daughter
day
days
de
dead
deaf
dear
death
declension
deed
dem
den
deny
depart
der
deriv
derived
des
desert
desire
destroy
di
dictionary
didn
die
difference
different
din
dis
discuss
discussion
dispute
dius
divide
do
does
doesn
doing
don
door
down
downs
drau
draw
dreiban
dress
drink
drive
drus
drusts
dry
ds
du
dumb
dutch
dwell
e
each
ear
early
earth
east
easy
edit
ei
eight
eis
eisarna
either
elder
else
elsewhere
emperor
empire
en
encyclopedia
end
ending
endure
eng
england
english
enough
enter
equivalent
error
et
etc
etymological
etymology
europe
even
evening
ever
every
everybody
evil
ewe
exactly
example
except
excuse
existing
explain
extension
eye
f
fa
face
fact
fagriþa
fai
fall
false
fame
family
far
farwa
fas
fasteis
father
fau
fc
fear
feast
feather
feed
fem
female
feminine
fi
fidur
field
fight
file
fill
filu
fin
find
fine
fire
first
fit
fiþra
fjo
flaskilo
fn
fo
follow
following
foolish
foot
for
force
foreign
form
forms
forth
found
four
fr
fra
fragka
fragment
frai
fram
frank
free
french
fro
from
fruit
fruma
fu
full
fully
funins
further
futhark
fuþark
g
ga
gadrauhts
gaggan
gai
gala
game
garda
gards
gate
ge
gen
gender
general
genre
ger
gerhard
german
germanic
get
gi
giant
giban
gift
gitan
give
gk
glad
glorify
glorious
glory
glow
go
goat
god
goddess
going
gold
good
gospel
got
goth
gothic
goths
gov
govern
governor
gr
gramm
gre
great
greek
green
grimm
group
grow
grundu
guess
guma
guta
gutan
gutiska
h
ha
haban
had
hai
hair
hals
hand
handu
hansa
happen
happy
hard
has
hasten
hau
have
haven
having
he
head
hear
heart
hebrew
hell
help
her
here
het
hh
hide
high
higher
highest
highway
hill
himma
hindar
his
hist
history
hit
hla
hlahjan
hliuþ
hna
hneiwan
ho
hold
hole
holy
home
homosexuality
honour
horn
house
how
however
hra
hriggs
hs
ht
hta
hts
http
https
hu
hul
human
hun
hund
hunda
hundred
hunds
huns
hus
husband
hw
i
ibjan
ic
icel
icelandic
iddja
idea
ideas
identity
if
iga
igkaland
ih
ihan
ii
iii
ikan
iks
il
ila
ili
iljan
ill
ils
im
ims
in
ina
increase
indeed
indef
infaurmati
information
ini
injure
inn
inna
ins
inside
instead
interesting
internet
interrog
interrogative
into
ir
iron
irr
is
isar
isbn
isjan
isn
iso
ist
it
italian
itan
iti
itjan
its
iv
iw
iwa
iwi
iws
iz
iza
iþjis
j
ja
jah
jan
john
join
joy
jpg
jr
ju
judgment
jugga
just
k
ka
kai
kau
keep
keis
kevin
kill
kind
kingdom
kiss
knot
know
knowledge
known
knuppa
ko
koehn
kramjan
kunds
kuni
kunnan
kuns
kunþi
kusts
l
la
lack
lacking
lagjan
lai
lament
lan
land
landisks
language
languages
last
lat
later
latin
lau
laugh
law
lay
lc
le
lead
leave
left
leian
leiks
leisei
let
letter
letters
lh
li
lie
life
lift
light
like
likely
linden
lingu
linguistics
link
linnan
list
lit
literally
literatur
literature
little
liuga
liugan
ll
load
loan
loanwords
long
look
looking
looks
loose
lord
lot
love
low
lower
ls
ltan
lust
m
ma
made
mahteigs
mahts
mai
make
makes
mal
male
man
mana
manifest
manna
manner
many
mari
mark
martin
masc
masculine
master
mats
mau
mawi
may
maybe
me
mean
meaning
means
meant
measure
meet
mel
meljan
member
men
merciful
mercury
mercy
mereins
message
messages
met
mhg
mi
michael
middle
midja
might
mighty
mill
mills
mind
miþ
mja
ml
mn
mo
mobile
modei
modern
money
moon
moonspell
more
most
mostly
mother
mount
mountain
mr
mrs
mt
mu
much
multitude
munds
museum
music
must
my
myth
n
na
nadrs
nah
nahts
name
names
nasa
nati
national
natural
nature
nau
navigation
ne
near
need
needed
neg
neologism
neologisms
net
network
neut
neuter
neutral
neutrois
never
new
ni
nia
nibls
nice
night
nih
niman
niu
niuja
nja
nn
no
noise
nom
normal
norse
north
norw
norway
norwegian
not
note
notice
noun
now
ns
nu
num
o
observe
oe
of
off
offer
offering
official
often
ohg
ok
okay
old
olive
on
once
one
oneself
only
ons
open
openly
opinion
or
orange
order
org
original
other
others
otherwise
our
out
over
own
p
pa
page
pai
paper
part
particle
pass
passage
paul
peace
peach
people
perceive
perhaps
pers
person
personal
peru
philosophy
phone
pity
pl
place
places
play
please
pleasure
plum
plur
poet
point
pol
pole
policy
poor
portal
poss
possible
post
power
pp
pr
praise
prau
precious
prefer
prefix
prep
pres
present
press
pret
pretty
preview
priest
prince
probably
problem
problems
program
pronounciation
property
protect
proto
proud
pru
pure
push
put
putting
q
qian
qiman
qino
qiss
qiu
question
quite
r
ra
rahnja
rai
rain
ran
rather
raþja
rban
rd
rda
rdan
rdei
rdeis
rdjan
rds
re
read
ready
real
really
reason
receive
recommend
reconstructed
red
region
reiki
rel
remain
remember
remembrance
remove
rest
restore
reveal
reverence
reward
rgs
rh
rhts
ri
right
ring
rinnan
riqis
rise
rk
rka
rki
rms
rn
rna
rnan
rno
ro
road
rock
roman
romance
romanian
room
root
round
row
rpan
rr
rra
rran
rs
rsan
rstw
rts
ru
ruan
rule
ruler
rumons
run
runa
rus
russian
rþa
rþr
rþs
s
sa
sacrifice
saei
sagum
sahts
sai
saian
said
sakum
sally
salta
sama
same
sanda
sandjan
sarah
sateins
satjan
sau
saxon
say
sc
se
sea
seal
search
season
second
secret
see
seems
seen
sei
seina
seize
semantics
sen
send
sending
sense
sent
sentence
servant
serve
service
set
sex
sexual
sf
shake
shall
share
she
shield
shikku
ship
shoe
short
should
shouldn
show
shut
si
sibja
sibun
side
sign
sik
silba
silent
similar
simple
simply
sin
since
sind
sing
sit
sitan
ska
skau
skeirjan
skin
skip
skuggwa
slahan
slight
sm
smiþons
smoke
sn
sna
snow
so
sober
some
someone
something
sometimes
somewhere
son
song
soon
sorry
soul
sound
source
south
spanish
spau
speak
speaking
spilla
spirit
spring
spruce
st
sta
stafs
stai
stand
standan
start
stasseis
state
stau
stay
staþs
stem
stems
stibna
stick
stigqan
still
stoma
stone
str
strange
street
strength
strife
strike
strive
strong
subculture
such
suffer
suffering
suffix
suggest
suggestion
suggestions
suicide
sun
sundro
sunna
suns
sure
surjo
survived
sv
sw
swa
swai
swarts
swe
swea
swedish
sweet
swein
system
t
ta
tai
take
taken
talk
talking
tau
te
teach
teacher
tear
television
tell
tense
term
terms
test
text
th
than
thank
thanks
that
the
their
them
then
there
therefore
these
they
thief
thing
things
think
thinking
this
those
though
thought
threaten
three
thrones
through
throw
ti
tigjus
time
tiuhan
to
today
together
tomato
tomb
ton
too
totally
tou
tous
towards
town
tr
transkuni
translate
translated
translation
translations
tree
tribe
trouble
true
truly
try
tuggla
turn
tv
twa
two
type
u
ubeins
ubida
ubil
ubjan
ubjands
uf
ufar
ufs
uga
uh
uhs
uja
ujan
ujo
uks
ums
un
una
unan
und
undar
under
understand
understanding
union
unless
uns
until
unto
up
upjan
upon
ur
ure
us
use
used
useful
uses
using
usjan
ut
utc
uts
uþ
uþs
v
va
van
vapor
ve
verb
very
vessel
vi
vii
voice
vowel
vus
w
wa
wageins
wai
wait
wall
wan
want
wanting
war
wardja
was
wasn
wata
watch
water
wato
wau
way
we
weak
weather
web
website
week
weiha
weihs
wein
weina
weis
weit
weitjan
well
welsh
west
wf
what
wheal
when
where
whether
which
while
white
who
whole
why
wife
wigan
wigs
wiki
wikipedia
wild
will
willing
windan
wine
wings
wis
wisan
wise
wish
wiss
wissei
wisti
wit
with
within
without
witness
wk
wm
wn
woman
women
wonder
wood
word
words
work
world
worship
worth
would
wouldn
write
wrjan
wrong
wulfila
wulþags
wv
www
x
xristus
y
year
years
yes
yet
you
young
younger
your
z
zealand
zho
zis
zylbath
{
|
}
~
§
«
­
°
±
´
·
»
ð
þ
þa
þar
þat
þata
þau
þiuda
þliuga
þunar
ƕa
ƕan
ƕas
ƕe
ƕeits
ɴ
ʀ
ʲ
ʹ
ʿ
ˈ
ː
˘
̀
́
̂
̃
̄
̅
̆
̇
̈
̊
̌
̓
̔
̣
̧
̨
̱
͂
ͅ
͵
΄
α
ε
η
και
ν
ο
ρ
ς
το
υ
ω
в
л
н
ְ
ֶ
ַ
ָ
ּ
ב
ז
כ
ל
ן
ע
م
ٔ
प
स
ा
ृ
्
᛫
᛬
ា
្
‎
–
—
‘
’
“
”
„
•
‭
›
↔
↷
③
④
⑦
⺀
⺄
⺆
⺈
⺊
⺌
⺕
⺝
⺸
⺼
⿰
⿱
⿲
⿳
⿴
⿵
⿶
⿷
⿸
⿹
⿺
⿻
〢
コ
ユ
㇁
㇂
㇄
㇇
㇈
㇉
㇓
㐁
㐄
㐅
㐌
㐫
㐬
㐭
㐮
㐱
㑒
㒵
㒸
㒼
㓁
㓞
㔾
㕛
㕣
㖾
㘝
㚅
㚇
㚔
㚘
㝉
㝡
㝴
㝵
㞋
㞢
㞷
㠩
㠭
㠯
㡀
㡭
㡿
㢲
㢴
㣇
㣺
㥯
㪅
㫄
㫐
㫒
㫺
㬅
㬎
㬥
㬰
㲋
㳄
㷠
㸒
㸚
㸦
㼌
㼲
㽞
㿟
䀠
䂞
䍃
䏍
䒑
䖍
䖒
䖝
䖵
䙴
䚻
䜌
䝿
䡛
䧹
䪞
一
丁
丂
七
丄
丅
丆
万
丈
三
上
下
丌
不
与
丏
丐
丑
专
且
丕
世
丘
丙
业
东
丞
丢
丣
两
严
並
丨
丩
个
丫
丬
中
丮
丰
丱
串
丵
丶
丷
丸
丹
为
主
丽
丿
乀
乂
乃
久
乆
乇
么
义
之
乌
乍
乎
乏
乐
乑
乔
乖
乗
乘
乙
乚
乛
乜
九
乞
也
习
乡
乳
乾
亀
亅
了
亇
予
争
事
二
亍
于
亏
亐
云
互
亓
五
井
亘
亚
亜
亞
亟
亠
亡
亢
交
亥
亦
产
亨
亩
享
京
亭
亮
亯
亰
亲
亳
亶
亷
人
亻
亼
亾
仁
今
介
仌
从
仐
仑
仒
仓
仕
他
付
仝
代
令
以
任
企
伊
伏
伐
休
会
伯
但
位
何
佘
余
作
佥
使
來
侈
侌
侖
侯
侵
便
保
俞
信
修
倉
倍
候
倠
備
僉
僕
儿
兀
允
兂
元
兄
充
兆
兇
先
光
兊
克
兌
免
兑
兒
兓
兔
党
兜
兟
入
全
兩
兪
八
公
六
兮
兰
共
关
兵
其
具
典
兹
兼
冀
冂
冃
冄
内
冈
冉
冊
冋
册
再
冎
冏
冐
冒
冓
冖
冗
冘
军
农
冝
冡
冥
冫
冬
冷
几
凡
凢
凵
凶
凷
凸
凹
出
函
凾
刀
刁
刂
刃
刄
刅
分
切
刍
刑
刕
刖
列
刘
则
初
別
利
别
到
制
刺
則
削
剌
前
剡
剽
劉
力
功
加
劦
助
劫
劳
劵
勃
勇
勉
勒
動
務
勞
勤
勹
勺
勻
勾
勿
匀
匂
包
匆
匈
匊
匋
匍
匕
化
北
匚
匝
匡
匪
匱
匸
匹
区
医
匽
匿
區
十
卂
千
卄
卅
卆
升
午
卉
半
卌
华
卑
卒
卓
单
卖
南
卜
卝
卞
占
卡
卢
卣
卤
卦
卩
卪
卬
卯
印
危
即
却
卵
卷
卸
卻
厂
厃
厄
历
厈
厉
厌
厓
厘
厚
原
厤
厥
厨
厭
厲
厶
厷
厸
去
厼
厽
叀
参
參
叅
又
叉
及
友
双
反
叐
发
叒
叔
叕
取
受
叚
叜
叟
口
古
句
另
叩
只
召
可
台
叱
史
右
叵
号
司
叹
吂
各
吅
合
吉
吊
吋
同
名
后
吏
向
吕
君
吝
吞
否
含
启
吳
吴
吹
吾
呂
呆
呈
告
员
呙
周
命
咅
和
咎
咠
咢
咨
咸
咼
哀
品
哉
員
哥
哲
唐
商
啇
問
啚
啬
啻
善
喜
喬
單
喿
嗇
噩
嚴
囊
囗
囘
囙
囚
四
回
囟
因
囧
囬
困
囱
囷
固
国
圂
圅
國
圍
圓
土
圡
圣
圥
在
圭
地
圶
圼
坐
坒
坚
坴
垂
垔
垚
埀
埋
埶
執
基
堂
堅
堆
堇
堯
塞
墨
壘
士
壬
壯
声
壳
壴
壹
壺
壽
夂
处
夅
夆
备
夊
夋
夌
复
夏
夒
夕
外
夗
夘
多
夜
夢
大
夨
天
太
夫
夬
夭
央
失
夲
头
夷
夸
夹
夻
夾
奂
奄
奇
奈
奉
奎
奏
奐
契
奓
奔
奚
奞
奠
奢
奥
奭
女
奴
奻
好
如
妄
妙
妟
妥
妻
妾
始
姑
委
姜
威
娄
婁
婴
嬰
嬴
子
孑
孔
孕
孖
字
存
孚
孛
孝
孟
季
孤
学
孫
孱
學
宀
宁
宂
它
宅
宇
守
安
宋
完
宏
宓
宗
官
定
宛
宜
宝
客
宣
室
宮
宰
害
家
容
宾
宿
寄
寅
密
富
寒
察
寧
審
寫
寬
寮
寸
对
寺
寻
寽
対
寿
封
尃
射
将
將
專
尉
尊
尋
尌
對
小
少
尒
尓
尔
尖
尗
尚
尞
尢
尣
尤
尧
尨
尭
就
尸
尹
尺
尻
尼
尽
尾
尿
局
居
屈
屋
屎
屏
屑
展
屖
屚
属
屠
屡
屬
屮
屯
屰
山
屵
屾
岁
岂
岑
岡
岩
岳
岸
峯
島
崇
崑
崔
崖
崙
崩
嵬
嶲
巂
巛
川
州
巟
巠
巢
巤
工
左
巧
巨
巩
巫
差
己
已
巳
巴
巷
巸
巽
巾
巿
帀
市
布
希
帚
帛
帝
带
師
席
帶
常
干
平
年
幵
并
幷
幸
幺
幻
幼
幽
幾
广
広
庄
床
底
店
庚
府
度
庫
庭
庶
康
庸
廉
廌
廛
廣
廩
廴
延
廷
建
廾
廿
开
弁
弃
弄
弇
弋
式
弓
弔
引
弗
弘
弜
弟
弥
弦
弱
張
強
强
彊
彌
彎
彐
彑
当
彔
录
彖
彗
彡
形
彥
彦
彧
彭
彳
役
彼
往
待
律
徒
得
徙
從
復
微
徵
心
忄
必
忌
忍
志
忝
忠
忩
快
念
忽
忿
思
怠
急
怱
恆
恒
恩
恭
息
悉
患
悤
悲
悶
惠
惡
惢
愁
愈
意
愛
感
慈
慧
慮
憂
憲
應
戀
戈
戉
戊
戋
戌
戍
戎
成
我
戒
戔
或
戚
戠
戢
截
戲
戶
户
戹
戼
戾
房
所
扁
扇
手
扌
才
打
托
执
承
折
拉
拜
拿
掌
推
提
摩
支
攴
攵
收
攸
改
放
政
敄
敏
敕
敖
敗
教
敝
敞
敢
散
敦
敫
敬
数
敷
數
斂
文
斉
斊
斗
斤
斥
斩
斬
斯
新
方
於
施
斿
旁
旋
族
无
旡
既
旣
日
旦
旧
旨
早
旬
旱
旲
时
旾
昆
昇
昌
昍
明
昏
易
昔
昗
昜
星
春
昬
是
昱
昴
昷
時
晃
晋
晏
普
景
晶
智
暑
暴
曇
曩
曰
曲
曳
更
曷
書
曹
曼
曾
替
最
朁
會
月
有
朋
服
朔
朕
朗
望
朝
木
朩
未
末
本
札
朮
术
朱
朵
朶
朿
杀
杏
杜
束
条
来
東
杲
杳
松
析
林
枚
果
枝
枲
枼
某
柔
查
柬
柰
柴
栗
桀
桑
桼
梁
條
梟
梨
棘
棠
棥
森
楚
業
楽
榮
樂
樊
欠
次
欣
欮
欲
欶
欽
款
歆
歇
歛
止
正
此
步
武
歨
歪
歮
歯
歰
歲
歴
歷
歸
歹
歺
死
殳
段
殷
殸
殹
殺
殻
殿
毋
毌
母
每
毒
比
毕
毚
毛
毳
氏
氐
民
气
氣
水
氵
氶
氷
永
氺
氾
求
汉
汝
汞
江
沃
沓
沙
沝
泉
法
波
泣
泥
泰
洛
洪
活
派
流
浦
浪
浮
淡
淮
清
渚
渠
湯
滿
漢
漸
灣
火
灬
灭
灰
灵
灷
炅
炎
炏
炗
炙
炭
為
烈
烏
烝
焉
無
焦
焱
然
煞
熊
熏
燕
營
燮
爪
爫
爭
爯
爰
爱
爲
爵
父
爻
爽
爾
爿
片
牙
牚
牛
牜
牟
牢
牧
牪
牽
犀
犬
犭
犮
狂
狄
狊
独
狺
猋
猒
猪
献
獻
玄
率
玉
王
玟
玨
珎
班
琴
瑟
瑩
瓜
瓦
甘
甚
生
産
用
甫
甬
田
由
甲
申
电
甶
男
甸
甹
画
甾
畀
界
畏
畐
留
畜
畟
畢
畧
畨
番
畫
異
畱
當
畺
畾
疊
疋
疌
疑
疒
疾
癶
癸
癹
登
發
白
百
皀
皃
的
皆
皇
皋
皐
皕
皮
皷
皿
盃
盆
盇
盈
益
盍
盎
监
盒
盖
盛
盡
監
盤
盧
目
直
相
盾
省
眇
眉
看
眔
眞
真
眷
眼
眾
着
睘
睪
睿
瞏
瞢
瞿
矍
矛
矞
矢
矣
知
矦
短
石
破
碎
磊
磨
示
礻
礼
祟
票
祭
禀
禁
禸
禹
禺
离
禽
禾
禿
秀
秃
秉
秋
科
秝
秦
移
稟
穀
穌
穴
究
穹
空
穿
突
窄
窒
立
竒
竜
竝
竟
章
童
竹
笑
笠
筆
等
答
箕
算
箴
節
篤
篭
米
粉
粛
粟
粤
粦
粲
糞
糸
糹
系
約
納
素
索
紫
累
細
絜
絫
絲
維
綿
縣
繇
纍
纟
缶
网
罒
罔
罕
罗
罙
罡
罢
罪
署
罷
羅
羊
羌
羍
美
羔
羕
羗
羞
羡
羣
群
義
羲
羸
羽
翁
翏
習
翕
翟
翠
翼
老
耂
考
者
耆
而
耎
耑
耒
耳
耴
耶
耷
聂
聊
聖
聚
聶
聿
肀
肃
肅
肉
肖
肙
肥
肩
肯
育
肴
胃
背
胡
胥
能
脊
脩
膚
臣
臤
臧
自
臬
臭
臯
臱
至
致
臺
臼
臽
臾
臿
舀
舂
舄
與
興
舉
舌
舍
舛
舜
舞
舟
般
艮
良
色
艸
艹
艾
芒
芔
芬
芮
花
芳
芺
芻
苔
苗
苟
若
苦
英
茶
茸
荅
草
荒
荣
荼
莆
莧
莫
莽
菆
菊
菐
華
萬
落
葉
著
葛
董
葵
蒙
蒦
蒼
蓋
蓬
蓺
蔑
蔡
蕉
蕭
薄
薛
薦
薰
藍
藏
藥
蘭
虍
虎
虐
虒
虔
處
虖
虗
虘
虚
虛
虜
虞
虫
虽
蚤
蚩
蜀
蜜
蟲
蠡
血
行
衍
衛
衣
衤
表
衮
衰
袁
袞
褭
褱
襄
襾
西
覀
要
覃
見
規
覓
覧
親
覽
见
角
解
言
訁
訇
計
詹
誩
諸
讠
谷
豆
豈
豊
豐
豕
豖
豙
象
豦
豩
豪
豸
貇
貝
貞
貟
負
貢
貧
貪
貫
責
貳
貴
買
費
賁
資
賈
賏
賓
賔
賛
賞
賢
賣
質
賴
贊
贝
贡
责
贯
贲
贵
赖
赞
赤
赦
走
越
足
路
蹇
身
躬
車
軍
軎
軟
輦
车
辛
辜
辟
辥
辰
辱
農
辵
辶
边
达
过
近
连
迷
追
退
送
逆
逐
通
速
造
逢
連
逮
進
遀
遂
過
道
達
遣
適
遷
遺
邊
邑
邕
那
邦
邪
郎
部
郭
都
鄉
酉
酋
配
酓
釆
采
里
重
野
量
金
釒
錢
钅
長
镸
长
門
閃
閉
開
閏
閑
閒
間
閔
閵
閻
闌
门
间
闷
阑
阜
阝
阿
降
陳
隆
隊
隋
隡
隨
隱
隶
隹
隺
隻
隼
隽
难
雀
雁
集
雈
雋
雍
雐
雔
雙
雚
雜
雝
離
難
雨
雩
雪
雲
零
雷
需
霍
霜
霝
霞
霸
靈
靑
青
非
靡
面
靣
革
韋
韦
韭
韯
韱
音
頁
頃
項
須
頗
頡
頻
顛
页
風
风
飛
飞
食
飠
養
饣
首
香
馬
馮
駦
马
骨
高
髟
鬥
鬯
鬲
鬼
魚
魯
鮮
鱼
鲁
鳥
鳳
鸟
鹵
鹿
麃
麗
麥
麦
麻
黃
黄
黍
黎
黑
黒
黨
黹
黽
黾
鼎
鼓
鼠
鼻
齊
齋
齐
齒
齿
龍
龙
龜
龟
龠
龰
龱
龴
龵
龶
龷
龸
龹
ꜜ
者
艹
？
�
𐌰
𐌱
𐌲
𐌳
𐌴
𐌵
𐌶
𐌷
𐌸
𐌹
𐌺
𐌻
𐌼
𐌽
𐌾
𐌿
𐍀
𐍁
𐍂
𐍃
𐍄
𐍅
𐍆
𐍇
𐍈
𐍉
𐍊
𐤍
𠀁
𠀃
𠀆
𠀉
𠀎
𠀐
𠁁
𠁣
𠂆
𠂇
𠂈
𠂉
𠂊
𠂋
𠂎
𠂒
𠂔
𠂛
𠂡
𠂢
𠂤
𠂬
𠂭
𠂹
𠃊
𠃋
𠃌
𠃍
𠃎
𠃑
𠃓
𠃔
𠃜
𠄌
𠄎
𠄠
𠄢
𠆢
𠆥
𠇍
𠈌
𠌵
𠓜
𠔉
𠔥
𠔼
𠔽
𠔿
𠕀
𠕁
𠕋
𠘧
𠘨
𠙻
𠙼
𠚏
𠚒
𠚤
𠚪
𠣏
𠤎
𠤕
𠥓
𠦄
𠦑
𠦝
𠧒
𠧗
𠧪
𠩺
𠪚
𠫓
𠫔
𠫤
𠬛
𠬝
𠬞
𠬢
𠬤
𠬶
𠮛
𠮦
𠮷
𠯑
𠱠
𠳮
𠷎
𡈼
𡉀
𡉵
𡌥
𡍮
𡏳
𡕒
𡕩
𡕰
𡖅
𡗗
𡗜
𡘆
𡘤
𡧱
𡨄
𡩧
𡬠
𡭽
𡰣
𡰥
𡰪
𡰯
𡰱
𡷈
𡸁
𡿨
𡿩
𡿪
𡿺
𢀖
𢀛
𢀩
𢁙
𢆉
𢆰
𢆶
𢇁
𢇇
𢉖
𢌬
𢌿
𢏚
𢑑
𢑚
𢖻
𢙣
𢛳
𢦏
𢦒
𢧵
𢼄
𢾕
𣁋
𣄼
𣅀
𣅽
𣍘
𣎳
𣎵
𣏋
𣏼
𣗥
𣥂
𣥖
𣦵
𣦼
𣧄
𣪊
𣪠
𣬉
𣳾
𣶒
𤇾
𤊽
𤐫
𤓰
𤔔
𤕨
𤣩
𤰇
𤰔
𤰞
𤴓
𤴔
𤽄
𥁑
𥁕
𥃦
𥃩
𥃭
𥇡
𥑟
𥘅
𥘈
𥝢
𥫗
𥱡
𦈢
𦉪
𦉬
𦉼
𦍌
𦍒
𦎧
𦐇
𦓔
𦔮
𦘒
𦙃
𦚏
𦣝
𦣞
𦣻
𦥑
𦥔
𦥯
𦨉
𦭝
𦰩
𧆞
𧈧
𧘇
𧰨
𧴪
𧴮
𧵩
𧾷
𨸏
𨾴
𩙿
𩠐
𩫏
𩵋
𪉷
𪜀
𪟽
𪠲
𪩲
𫇦
𫔭
𫜸
𫝀
𫠣
𫠩
𫢉
𫥞
𫩏
𫩠
𫪡
𫲽
𫶧
𬀷
𬐘
𬗌
𬙙
𬛸
𬜯
𬟩
𬯁
𬴘
𬺻
𬼉
𬼖
𭀰
𭁈
𭁨
𭅰
𭑈
𭕄
𭗼
𭤨
𭥫
𭻾
𮅕
𮊿
𮍌
𮍏
𮓗
𮥼
𮧮
廾
𰀁
𰀄
𰀈
𰀉
𰀕
𰀠
𰀡
𰀢
𰀪
𰁜
𰃮
𰆊
𰆘
𰋙
𰕎
𰢴
𰧭
𰯲
19--
20--
3--
4--
5--
6--
7--
9--
a--
ab--
ac--
acti--
ad--
af--
aftu--
ag--
aggi--
ai--
ak--
al--
ald--
am--
an--
and--
ang--
any--
ap--
app--
appo--
aq--
ar--
as--
at--
au--
b--
ba--
bai--
be--
beg--
bi--
bl--
bla--
bo--
bre--
bri--
bu--
budd--
c--
calcu--
car--
cate--
ce--
ch--
cha--
chri--
cl--
co--
col--
collec--
con--
confu--
cre--
creat--
cruc--
cur--
d--
da--
de--
dec--
deci--
deutsc--
di--
dis--
do--
dra--
du--
e--
ed--
ei--
ele--
em--
en--
est--
ete--
every--
ex--
f--
fa--
fe--
fee--
fei--
fet--
fi--
fin--
fle--
for--
fot--
fr--
fre--
fri--
frisa--
fu--
g--
ga--
gal--
gar--
ge--
gi--
gil--
go--
gr--
grand--
gro--
gu--
gut--
h--
ha--
haf--
hal--
har--
hat--
he--
her--
hlagk--
ho--
homo--
ht--
hun--
i--
im--
impe--
in--
influ--
instru--
inte--
inter--
ir--
is--
it--
iz--
j--
ja--
je--
ju--
jug--
k--
ka--
ke--
kei--
kius--
kuk--
kun--
l--
la--
lc--
le--
lei--
leik--
li--
lo--
lu--
m--
ma--
mag--
maj--
man--
mat--
me--
mi--
mik--
mil--
mis--
ml--
mo--
mol--
mon--
mt--
mu--
mul--
my--
n--
na--
naz--
ne--
neces--
ni--
no--
o--
ostro--
p--
pa--
pe--
pen--
per--
pet--
pi--
pl--
por--
pr--
pro--
produc--
prop--
propo--
pur--
q--
qi--
qu--
r--
ra--
re--
rec--
rep--
rh--
ri--
rig--
rk--
rn--
ro--
rose--
rs--
ru--
s--
sa--
sab--
sal--
sc--
sch--
se--
sh--
shep--
si--
sig--
sil--
sin--
sk--
sko--
sla--
sm--
sn--
so--
soci--
sok--
sol--
sp--
spe--
st--
ste--
su--
sub--
sum--
sw--
swe--
sy--
t--
ta--
tar--
te--
tem--
th--
ti--
to--
tr--
trad--
trans--
tre--
tro--
tu--
tw--
u--
ug--
un--
unbe--
up--
ur--
us--
v--
va--
ve--
vi--
vill--
vo--
vor--
vul--
w--
wa--
wag--
wai--
wak--
wal--
wau--
we--
wi--
wil--
win--
wo--
wor--
wu--
y--
z--
þ--
þei--
þi--
þiu--
ƕil--
μ--
ν--
τ--
--0
--1
--2
--3
--4
--5
--6
--7
--8
--9
--a
--ach
--age
--al
--am
--an
--ap
--ar
--are
--ary
--ate
--ately
--ation
--ative
--au
--ay
--b
--ba
--be
--berry
--c
--ca
--cal
--ce
--ch
--ck
--ct
--d
--da
--do
--ds
--dy
--e
--ect
--ed
--ei
--eins
--eis
--el
--en
--ence
--ep
--er
--eration
--es
--ess
--est
--et
--ey
--f
--fe
--fs
--ft
--ful
--g
--ge
--ggs
--gh
--gl
--gn
--gne
--graph
--gs
--gue
--h
--he
--hen
--hs
--i
--ia
--ian
--ic
--ice
--ide
--ies
--ify
--in
--ing
--ion
--is
--ish
--ished
--isks
--it
--ity
--ive
--ja
--jan
--jo
--k
--ka
--ke
--kei
--ks
--l
--la
--ld
--le
--leiko
--less
--lf
--ljo
--lk
--lm
--lo
--logy
--ls
--lt
--ly
--m
--ma
--man
--mb
--ment
--ms
--n
--na
--nan
--nce
--nd
--ne
--ned
--ness
--ng
--ngs
--ni
--ning
--nisks
--no
--ns
--nt
--nts
--o
--od
--on
--onal
--or
--os
--ous
--ow
--p
--pan
--pe
--per
--pt
--r
--ra
--ral
--rd
--re
--rg
--ri
--rl
--rry
--rs
--rt
--ry
--s
--se
--sh
--sks
--ss
--ssus
--st
--ster
--sts
--t
--ta
--tal
--tan
--tch
--te
--ter
--th
--ti
--tic
--ting
--tion
--tive
--tly
--to
--tor
--truct
--truction
--ts
--ty
--u
--ug
--ul
--um
--us
--v
--va
--val
--ve
--vi
--via
--w
--wa
--wi
--x
--y
--z
--za
--ze
--þ
--þa
--þi
--þo
--þs
--ʀ
--ι
