!
"
#
##0
##1
##10
##11
##12
##13
##14
##15
##16
##17
##18
##19
##2
##20
##21
##22
##23
##24
##25
##26
##27
##28
##29
##3
##30
##31
##32
##33
##34
##35
##36
##37
##38
##39
##4
##40
##41
##42
##43
##44
##45
##46
##47
##48
##49
##5
##50
##51
##52
##53
##54
##55
##56
##57
##58
##59
##6
##60
##61
##62
##63
##64
##65
##66
##67
##68
##69
##7
##70
##71
##72
##73
##74
##75
##76
##77
##78
##79
##8
##80
##81
##82
##83
##84
##85
##86
##87
##88
##89
##9
##90
##91
##92
##93
##94
##95
##96
##97
##98
##99
$
%
&
'
(
)
*
+
,
-
.
/
0
00
000
01
02
03
04
05
06
07
08
09
1
10
100
1000
103
104
11
110
117
118
12
128
13
14
1492
1493
1494
15
1509
1534
1564
16
160
1600
1655
1657
1658
1660
169
17
1750
1760
1776
1783
1787
1789
1795
1796
1799
18
1800
1804
1820
1822
1824
1827
1828
1830
1831
1832
1834
1838
1840
1843
1846
1849
1864
1865
1867
1869
1872
1879
1881
1883
1889
1893
19
190
1900
1901
1907
1910
1911
1912
1914
1917
1918
1919
1920
1921
1922
1926
1928
1930
1931
1932
1933
1935
1937
1938
1939
1940
1941
1943
1944
1945
1947
1948
1949
1950
1951
1953
1954
1955
1956
1957
1958
1960
1961
1962
1963
1964
1965
1966
1967
1968
1969
1970
1971
1972
1973
1974
1975
1976
1977
1978
1979
1980
1981
1982
1983
1984
1985
1986
1987
1988
1989
1990
1991
1992
1993
1994
1995
1996
1997
1998
1999
2
20
200
2000
2001
2002
2003
2004
2005
2006
2007
2008
2009
2010
2011
2012
2013
2014
2015
2016
2017
2018
2019
2020
2021
21
22
220
221
222
23
235
24
25
250
26
27
28
29
3
30
300
31
310
312
32
33
34
35
36
37
38
39
4
40
400
41
415
42
43
44
45
46
47
48
49
5
50
500
51
52
521
53
54
55
56
57
58
59
6
60
61
62
63
64
65
66
67
68
69
7
70
71
72
73
74
75
76
77
78
79
8
80
800
8018
81
82
84
85
87
9
90
900
92
93
94
95
96
978
98
99
:
;
<
=
>
?
[
\
]
^
_
a
aaba
aabit
aachipelago
aachitecha
aad
aada
aadiens
aadineri
aaf
aafa
aafn
aafspring
aagan
aaganaiz
aaganizieshan
aaganizim
aaganizm
aagianik
aagiu
aagos
aajentiina
aakialaji
aaklan
aal
aalduo
aalmuos
aalso
aalsuo
aam
aamaz
aami
aamschrang
aan
aanda
aar
aaran
aas
aat
aata
aatadax
aatariti
aatbiit
aatifishal
aatikl
aatilari
aatis
aatistik
aatom
aats
aazwie
ab
abaashan
abalish
abalishan
abc
abgerufen
abiliti
abitat
abjek
abjektiv
about
abov
abschrak
absens
abu
abzaab
abzavieshan
abzoerv
academic
accessed
achiiv
achiivment
achribiut
act
ad
ada
adaels
adap
adaptieshan
adawaiz
adawandem
adierent
adishan
adishanal
adisi
adminischrietiv
adolt
adoltud
advaans
advais
advans
advoket
advokiet
afek
afi
afier
afis
afisa
african
afrika
afrikan
afro
afta
against
age
agen
agiument
agnastisizim
ago
agostos
agriiment
agrikolcha
agrikolcharal
agrikolchral
ah
ahn
ai
aibiirian
aid
aida
aidentifai
aidentiti
aidialaji
aidie
aidiilizim
aidiya
aijrojin
aikuu
ail
ailan
ailandem
ailant
ailanz
aili
ainstain
aipatisis
airilan
airish
ais
ait
aitem
aizak
ajres
ak
akademik
akan
akchual
aki
akiupai
akiupieshan
akliem
akliis
aknalij
akompini
akompniment
akompong
akount
akses
akshan
akta
aktievian
aktiv
aktivis
aktiviti
aktuoba
akwaya
akyuut
al
alai
alan
alang
alayans
alboert
albom
album
alduo
alexander
alfabet
ali
alidie
aligzanda
aljibra
all
allan
allmusic
almaza
almuos
aloi
also
aluon
alzheimer
alzwel
am
amenment
america
american
amerika
amerikan
ammad
amoerka
amoerkan
amoerkaz
amount
an
ana
analaiz
analisis
analysis
anareri
anatuolia
anc
anchopalaji
ancient
and
anda
andastan
andastandin
andiiz
andisn
andre
andrew
anduora
andyuuras
aneda
angga
anggila
anggl
angglikan
angglo
animal
anju
anlain
anles
ann
annals
anof
anres
ansista
antaatika
antel
antem
anti
antiiga
antikuiti
antikwiti
antiliiz
antisipiet
antuoni
anuova
any
anz
ap
apaataid
apachuniti
apaint
aparieshan
apariet
apasl
apastalik
apier
apierans
apinis
aplai
aplikieshan
apm
apozishan
apra
apraximetli
april
apruoch
aptikal
ar
ara
arab
arabik
araiv
araiz
arawak
archimedes
archive
archives
are
aredi
ares
ariebia
arienjment
arijin
arijinal
arijinali
arijiniet
aristakl
aritmitik
arong
aroun
around
arself
art
arthur
aruuba
as
asasiniet
aschranama
aschranami
aschranamikal
aschria
aschrian
aschrielia
asembli
ashanti
asian
asid
asis
askaadn
asoert
asosieshan
asosiet
aspek
aspital
association
astaraid
asuosiet
asyuum
at
atak
atamik
atemp
atenshan
atenz
ates
atheism
atiinian
atityuud
atlantik
atletix
atliit
atmosfier
atom
atoman
august
authorlink
av
avaid
avalanch
avielebl
avielobl
avrij
awaad
awiernis
ax
axep
axes
axfad
axijen
axtiel
aya
ayan
ayis
az
azwel
b
ba
baabiedoz
baabyuuda
baada
baan
baara
baatelmi
bab
babilan
bad
badi
badili
bagdad
baha
bai
baibl
bailajikal
bailoji
bait
bak
baka
bakbuon
bakgrong
bakl
baklfiil
baktiiria
baktiirial
bale
baltimore
ban
banaana
banggladesh
bangk
bangla
bank
baptaiz
baptis
baptizam
basilika
basshunter
bastan
batani
baxait
baxin
bay
baya
bbc
bc
bce
be
beatles
bebrij
belarus
belief
belisario
beljiom
belt
benifit
benit
bennett
beri
bes
beta
between
bi
bie
biejing
bieli
bies
biesik
biesis
biesn
bievia
bifuo
big
biga
bigin
bigis
bignin
biif
biikl
biiklz
biin
biit
bikaa
bikom
bikomps
bikoms
bikomz
bil
bilang
bilangx
bildin
bilian
biliib
biliif
biliiv
biliiz
biluo
bing
biniz
binuon
biography
bitwiin
bitwix
biyain
biyan
biyevia
bizantiin
bizniz
bk
bke
bki
black
blackwell
blak
blakwel
blica
blod
blue
bluu
bluuz
bob
bod
boerchel
boert
boertplies
bolb
bolivia
bon
bongjri
boni
book
books
born
bos
bosnia
bostamanti
boston
bot
boun
bout
braad
braada
braadis
braadkyaas
braadli
brait
branch
branz
bratwiet
brazil
bred
breda
bredadem
brian
brief
brien
briif
brij
bring
britannica
british
britn
brok
brokop
brokout
brong
broun
brown
buda
buddhism
budis
budizim
bufo
buk
buka
bulgieria
buod
buoda
buogl
buolt
buoran
buot
burden
bush
but
bwai
by
byuuti
bə
c
ca
caesar
california
call
called
cambridge
campbell
campo
can
cancer
care
caribbean
carl
catalina
catholic
cattle
cause
causes
cd
centers
century
chaaj
chaalz
chaat
chaata
chadishan
chadishanal
chailud
chaina
chaini
chainiiz
chais
chalinj
champian
champianship
chang
change
chanil
chansfaam
chansfor
chanspotieshan
chanspuot
chanzmishan
chanzmit
chanzmitid
chapta
chapter
character
charlemagne
charles
chat
chek
chekia
chicago
chiemba
chien
chienj
chierman
chiif
chiiz
chikin
children
chili
china
chinese
chobl
choch
chokcha
cholera
cholerae
chos
chrabl
chradishan
chradishanal
chradishanali
chrai
chraib
chrajidi
chrak
chrang
chrangga
chransfaam
chransfamieshan
chransliet
chranzishan
chranzista
chranzlit
chrapikal
chrayal
chrech
chren
chrent
chret
chried
chrieda
chrien
chrienin
chries
chriet
chrii
chriit
chriiti
chriitment
chrilaani
chrinidad
chris
christopher
chrokcha
chros
chruu
chuon
chuot
church
chuu
chuup
chuut
chuuz
citation
cite
city
civil
clarendon
climate
clinical
clint
co
cochrane
cohen
cold
colombia
color
com
come
committee
common
commons
companion
company
comparative
complete
conference
consciousness
constitution
control
country
coverley
creole
critical
crosby
cross
cudjoe
cultural
culture
d
da
daa
daade
daama
daans
daata
dah
dahn
dainamix
dainasti
dairek
dairekli
daivoers
daivoersiti
dakchrin
dakiumenchri
dakiument
dakta
dala
damij
daminant
daminiet
daminiika
daminikan
dan
danal
daniel
das
dat
data
database
datde
david
day
dayabiitis
dayalag
dayalagdem
dayalek
dayariya
dayaspora
dayat
dayuod
de
death
december
ded
definishan
definition
dege
deh
dehn
dehself
deism
deked
dekied
deklarieshan
del
deli
dem
demanschriet
demaya
demde
dementia
demself
demya
den
denise
denmaak
densiti
dep
department
depiuti
der
des
det
detwach
development
dezat
di
diabetes
dibiet
dictionaries
dictionary
did
dide
die
diego
dieli
dierfuo
dierfuor
diet
dieta
dievid
difain
difen
difens
difiit
difikolti
difinishan
difrah
difrahn
difran
difrans
difrant
difrenshal
difrent
digrii
diikan
diil
diip
diiyti
dijital
diklain
diklarieshan
diklier
dikriis
diktieta
diktietaship
diliva
dimaan
dimakrasi
dimenshan
dimenshanal
dimokratik
dinaminieshan
dinuot
dipaatment
dipen
dipendant
dipreshan
diraiv
direkshan
direkta
dis
disaada
disaid
dischrai
dischribyuushan
dischrik
discrimination
disease
diseases
disemba
disendant
disent
dish
disijan
disiplin
diskoshan
diskova
diskovri
diskraib
diskriminieshan
diskripshan
diskuos
disnchri
dispait
displie
dispyuut
distans
distant
distingguish
distingk
distingshan
disya
ditek
ditiel
ditoermin
divaid
divaidop
divain
divais
divelop
divelopment
divijan
diyiti
dizain
dizaya
diziiz
dj
dm
dna
do
doch
domestik
domien
dominggo
don
donald
dong
dos
dout
dowizim
dr
drink
du
dunant
duo
dwaaf
dwiin
dysentery
e
early
east
eastern
eastwood
eba
ebi
ebri
ebribadi
ebridie
ebriting
eccles
economic
ed
eda
edgar
ediek
edikieshan
edikieshanal
edikiet
edited
edition
editor
edkwaata
edkwaataz
eds
edu
eduad
education
educational
edwad
edward
ef
effectiveness
efoert
egzak
egzakli
egzamin
egzampl
egzekiutiv
egzibit
egzis
egzistans
eh
ehn
ein
einstein
ej
ekuaduor
el
elenik
elimenchri
eliment
elizabeth
elp
els
elsevier
elt
elvis
emfasaiz
emisfier
empaiya
empara
empaya
en
ena
enaji
encyclopedia
encyclopædia
energy
england
english
eni
enri
enta
entapraiz
entatienment
entiti
epik
epos
era
eradem
erediti
eric
eritij
eroduotos
error
es
esechra
eskobiich
espeshal
espeshali
establish
establishment
estetix
estimet
estimiet
estimietid
estuonia
et
etc
etix
etnik
eu
europe
european
eva
evaluushan
every
evidens
evri
exasaiz
exchienj
exchrak
exchriim
exep
exidos
exikyuushan
exikyuut
exilent
exkiep
exkluudn
expan
expanshan
expek
expidishan
expiirians
expiiriens
explien
explorieshan
expluor
expluora
expluosiv
expres
expreshan
expuoja
expuot
expuoz
extablish
extablishment
exten
extensiv
extingk
extoernal
f
fa
faa
faada
faal
faam
faama
faamal
faamali
faamasyuutikal
faambli
faamieshan
faamin
faar
faas
fact
faib
fain
fainal
fainali
fait
faiv
fak
fakolti
fakta
fala
falara
falaradem
falarin
falciparum
falmot
false
fambili
fambli
familia
family
far
farin
faris
fasilitiet
fasta
fat
fax
faya
fe
febiweri
february
fedaral
fedarieshan
federation
feminis
feminism
feminizim
festival
fi
fiction
fidem
fieba
fiel
fielia
fiem
fiemos
fier
fiero
fies
fiet
fiez
fif
fiftiin
figa
fii
fiicha
fiil
fiilin
fiim
fiimiel
fiitos
fiiva
fikshan
filasafa
filasafi
filasafikal
filasifa
filasifi
file
filipiinz
finamina
finans
finanshal
finish
finlan
first
fish
fiskal
five
fiwi
fix
fizikal
fiziks
fizishan
fizisis
fizix
flag
flai
flarida
flat
flieva
fliit
flim
florish
flowaz
flu
fluid
fluo
fluorbuod
fluu
foerda
foerdinan
fon
fondamental
fongdieshan
fongshan
food
for
forda
form
fos
fostaim
fotografi
foun
founda
foundation
foundieshan
foundin
four
frah
frahm
frahn
frakshan
fram
fran
franc
francis
frangka
frank
frans
fred
frederic
free
freedom
frejrik
fren
french
freud
fried
friedrich
friem
friez
frii
friidam
friidom
friikuensi
friikuent
friikuentli
from
fruut
ft
fu
ful
fuli
full
fuo
fuok
fuokos
fuon
fuos
fuot
fuotiin
fut
futbaal
future
fuud
fyuil
fyuu
fyuucha
fyuujan
g
gaa
gaadn
gaan
gad
gades
gaidans
galang
games
ganariya
ganja
garvey
gaspl
gat
gatik
gay
gayana
gdp
ge
gender
general
geneva
gens
george
germanic
get
gi
gial
gialari
gialaxi
gialiliyo
giandi
gias
giem
giemz
gien
giita
gilt
gilti
gini
gitaar
glaas
gleaner
gliesia
global
gluob
gluobal
gluobalaizieshan
gluobali
go
gobament
goban
gobna
god
golf
gon
google
gordon
gov
govament
government
gps
graas
grama
gran
grant
graviti
gravitieshan
gravitieshanal
great
greatest
greenwood
grenidiinz
grien
griep
gries
griet
grieta
grietis
grii
griik
griin
griinlan
griis
grinieda
grong
grounz
group
groups
gruo
gruot
gruup
gu
guadiluup
guatimaala
gubak
gud
gudz
guide
guidelines
guol
guolin
guot
guuru
gwaan
gyaad
gyaadn
gyaavi
h
ha
haabit
haal
haalso
haat
habjek
had
hada
hafrika
hafrikan
haiku
haislan
hakiupai
hall
hana
handbook
hanimal
hapl
hatlantik
have
he
health
heart
hebri
hen
heni
henry
hepik
heritage
heroes
herzegovina
hexchienj
hexplien
hexten
hier
high
hihn
hiikual
hiis
hiizi
hilekchomagnetik
hill
hills
him
himij
hina
hindia
hindian
hingglish
hingkluud
hip
his
historical
history
hit
hitalian
hiv
hoerli
hoerlia
hoerlies
hoert
hofishal
homo
hopewell
horli
house
how
howa
html
http
https
huang
human
huol
hush
i
ia
iab
ian
iazwel
ibaada
ibn
id
ide
ideas
identity
idifain
idishan
idon
ie
iebl
iebriam
ied
ieh
iej
ieja
iejan
iejensi
iejent
iejiz
iem
ienchent
ienshent
iepril
ier
ierdem
ieria
ierin
ieriya
ierkraaf
ierpuot
iet
ieti
ifek
ifektiv
ifishensi
iguaana
igz
ih
ihingkluud
ihm
ihn
ihself
ii
iibm
iibn
iibruu
iich
iii
iijip
iikanami
iikanamik
iikanamiks
iikual
iilin
iin
iina
iip
iira
iiro
iiroz
iis
iistan
iit
iityuopia
iityuopian
iizi
ijipshan
ikalaji
ikanami
ikanamik
ikanamix
ikiah
ikiapital
ikom
ikosistim
ikualiti
ikwiejan
ikwieta
il
ilebm
ilek
ilekchanik
ilekchik
ilekchikal
ilekchomagnetik
ilekchran
ilekchranik
ilekchrik
ilekchrikal
ilekchrixiti
ilekshan
iliad
ilizibet
ilnis
ilokiet
iloschrieshan
im
imaita
imajinieshan
imansipieshan
imf
imidiet
imij
imijin
imoerj
impak
impierment
impiirial
impiirializim
impirikal
implai
implaiment
impliment
impruuv
impruuvment
impuot
impuotans
impuotant
impuoz
imself
imuos
imuoshan
imuoshanal
imyuun
in
ina
inabit
inabitant
inans
inc
inchadokshan
inchajuus
inchres
indencha
index
india
indian
indies
indii
indiiz
indijinos
indikiet
indipendans
indipendant
indipendens
indivijal
indivijual
indiz
indo
indoschri
indoschrial
induizim
induu
ine
infamieshan
infection
infections
infekshan
infekshos
infinet
inflieshan
influens
influenshal
influenza
information
infrachokcha
infuos
infuosment
ingglan
ingglish
ingiej
ingk
ingkaapariet
ingkluoz
ingkluud
ingkluudn
ingkompas
ingkorij
ingkriis
ingkriisinli
ingkwairi
ingriidient
iniebl
iniem
inikualiti
inishal
inishali
inishiet
inishitiv
injin
injinier
injinierin
injri
injuus
inkluud
inkluudn
inkom
inkriis
inlaitnment
inna
ino
insaida
insaiklopidia
inschrokshan
inschrument
inschument
inshuor
insis
insiulin
inspaya
instans
insted
institute
instityuushan
instityuut
intagobamental
intaikl
intanashinal
intanashinali
intanet
intarakshan
intelijens
intelijent
inten
intenshan
international
intestin
intiga
intigral
intiiria
intilekchal
intilekchual
into
intoernal
intoerprit
intoerpritieshan
intopritieshan
introduction
invairament
invairamental
invairamentalizim
invalid
invalv
invenshan
invent
inventa
invesment
investigieshan
investigiet
invied
inviejan
ip
ipa
ipac
iprage
ipred
irak
iran
iranian
irashanal
is
isaac
isbn
ischri
ischriagrafi
iself
isenshal
ishu
isla
island
ispanyuola
issue
istarik
istarikal
istarikali
istuorian
it
itali
italian
itek
itla
iton
its
iv
ivalv
ivenchali
ivenchual
ivent
iventdem
iweh
iwena
iwuda
iwuona
iyuuz
izlam
izlamik
izrel
j
ja
jaagrafi
jaagrafik
jaagrafikal
jaahra
jaaj
jaalajikal
jaaloji
jaamechri
jaamichri
jab
jackson
jacques
jahra
jain
jainizim
jainop
jaint
jamaica
jamaican
james
jamieka
jan
janet
janiweri
january
japan
japaniiz
jaz
jazz
jdf
jean
jenaral
jenariet
jenda
jenisis
jenkins
jet
jiemz
jiin
jiizas
jimi
jinaral
jinarali
jinarieshan
jinariet
jinetik
jiotoermal
jkf
jlp
jm
joan
joerk
joerman
joermani
joermanik
joernal
joerni
jogz
john
johnson
joj
jojment
jonathan
jones
jorman
jormani
jos
joseph
jostis
journal
jr
jraa
jraaf
jraama
jraayn
jrai
jraib
jramatik
jrap
jres
jriim
jrog
juan
juice
julai
july
jumieka
jumiekan
june
juozif
jurisdikshan
justice
juu
juudem
juudizm
juulios
juun
juunia
juupita
juurin
juus
juuti
juuwish
juwish
k
ka
kaa
kaaban
kaaf
kaafi
kaakasos
kaal
kaali
kaan
kaanwal
kaaparieshan
kaaparietiv
kaas
kaaz
kagnitiv
kain
kaina
kalalu
kalanaizieshan
kalani
kalanidem
kalaps
kalara
kalek
kalekshan
kalektiv
kalektiviti
kalektivli
kalij
kaman
kamanli
kamanwelt
kambinieshan
kamedi
kamik
kamiunis
kamiunizam
kamplex
kanchosnis
kanchovoershal
kanchraas
kanchrak
kanchribiut
kanchribyuushan
kanchruol
kanchuol
kandishan
kandok
kandokta
kanek
kanekshan
kanfedarieshan
kanfes
kanflik
kanfoerm
kanfyuushanizim
kanfyuushos
kanfyuuz
kanggo
kanggres
kanggrigieshan
kangka
kangkues
kangkwes
kansavieshan
kanschrok
kanschrokshan
kansenchrieshan
kansep
kansepshan
kansida
kansidarieshan
kansis
kansoern
kansoernin
kansoert
kansoervativ
kansomshan
kanstant
kanstityuent
kanstityuushan
kanstityuushanal
kanstityuut
kansyuum
kansyuuma
kant
kantak
kantempareri
kantenshan
kantent
kantes
kantex
kantien
kantinent
kantinental
kantiniu
kantinyuiti
kantinyuos
kanvenshan
kanvik
kanvoert
kaptik
karier
karispan
karispandans
karispandin
karl
kas
kasta
kazaxtan
ke
kech
kenia
khaldun
khan
ki
kiabinet
kiachrin
kiah
kiahn
kiakl
kiaklik
kiaklikizim
kialinda
kialkiulos
kiampien
kianabis
kianada
kianal
kianan
kiangkro
kianiedian
kiansa
kiapasita
kiapasiti
kiapcha
kiapital
kiapitalis
kiapitalizam
kiapo
kiaptin
kiarakta
kiaraktaraiz
kiaraktaristik
kiaribiyan
kiarier
kiastiil
kiatigari
kidni
kie
kiebl
kiekos
kieman
kiepebl
kier
kiergistan
kies
kiev
kii
kil
kilamiita
kilamita
kilogram
kim
kimikal
kimischri
kin
kindom
king
kingdam
kingdom
kingston
kinston
kip
kits
kiubik
klaas
klaimit
klak
klarindan
klasifai
klasifikieshan
klasik
klasikal
kliem
klier
kliin
klinikal
kliopachra
kluodin
kluos
kluosli
kluoz
km
knowledge
koernel
koerv
koh
kojo
kola
kolcha
kolcharal
kolchral
kolombia
kolombian
kolombos
koloni
koltiviet
koluonial
kom
komaan
komaanda
kombain
kombat
kombinieshan
komboshan
komiin
komin
komishan
komit
komitii
komiunikieshan
komiunikiet
komiuniti
komoershal
kompas
kompier
kompini
komplex
kompliit
komplikieshan
kompni
kompoun
kompozishan
kompraiz
kompuonent
kompuoz
kompuoza
kompyuuta
konchri
konchridem
kongsl
kop
kopl
koran
koransi
korant
korantli
kori
koria
korian
kostom
kot
koufut
kount
kounti
kova
kozn
kraaf
kraas
kraim
krais
kraisis
kraitiiria
kramwel
krap
kredit
krieshan
kriet
krikit
kriminal
krishna
kristal
kristian
kristianiti
kristifa
kristiyan
kritik
kritikal
kritisaiz
kritisizim
krixtifa
kros
kroun
kruoyesha
kryuol
kualiti
kuantiti
kuantom
kuda
kudn
kuestian
kuik
kuiktaim
kuiziin
kuk
kukin
kum
kumop
kuo
kuod
kuodifai
kuoknat
kuol
kuoma
kuor
kuos
kuostal
kuot
kwaadinet
kwaashi
kwaata
kwiin
kwik
kyaa
kyaah
kyabij
kyahn
kyapital
kyaribiyan
kyuuba
l
la
laa
laad
laaj
laaja
laajis
laan
laanch
laanin
laas
laaya
labour
laibiiria
laibnits
laif
laifstail
laiftaim
laik
laikli
lain
laisn
lait
laiv
lajik
lajikal
lak
laka
lan
lancet
landan
lang
langga
langgis
langgwij
langka
langsaida
language
languages
languij
languijdem
langwij
lao
laozi
larry
las
last
lata
latn
latvia
law
laws
layabiliti
le
learning
lebl
lee
lef
legisi
lejisliecha
lejislieta
lejislietiv
lenin
lent
leo
leonard
les
lesa
let
leta
levant
lewis
lgbt
li
lib
libaral
libaralizim
libati
libm
libn
library
lichicha
lie
lieba
liebl
liek
liet
lieta
lieya
life
light
lii
liid
liida
liidadem
liidaship
liidn
liif
liig
liigal
liigali
liiwad
likl
liklmuos
likuid
limit
limited
limitid
limon
lincoln
linggua
lingguistik
lingguistix
lingk
lionaado
lis
lisn
litarali
litareri
literary
literature
lituyenia
liv
live
livin
lizban
lob
locke
logzimboerg
lokieshan
lokiet
lokono
london
long
los
lou
louda
louis
louise
love
ltd
luk
luo
luokal
luokiet
luowa
luu
luuk
luusha
luuwi
luuz
luwiiz
m
ma
maach
maagan
maak
maakit
maakitin
maakos
maali
maaman
maasn
maasta
maatiniik
maatn
maax
maaxis
machyuoriti
macmillan
mad
mada
madagiaska
madan
madanizim
madoern
madorn
magaziin
magl
magnetik
magnityuud
mahayaana
mahtah
maigriet
maikal
maikro
mail
main
maina
mainariti
mainin
maita
majariti
major
majrid
making
makril
malaria
malieria
malikyuul
mamal
man
manaak
manaaki
manaki
manchesta
mandela
mandem
mangkala
mangkl
manifakchrin
manij
manija
manijment
maniteri
manley
manli
mansarat
mantigo
many
mao
map
marako
maral
march
marcus
mari
marid
mariino
mariwaana
mark
marley
maroons
marson
martin
maruun
maruundem
marx
mary
mas
mashiin
masiv
mask
maskita
mata
matamatishan
matiirial
matimatikal
matimatishan
matimatix
mats
max
may
mayami
me
meaning
mechiz
mechrik
medal
medalis
media
medical
medicine
medikal
medikieshan
medisn
meditarienian
meditieshan
meja
mejament
mek
meka
meki
mekin
mekop
mellitus
memba
membadem
membaship
memphis
memri
men
menshan
mental
mentien
merika
merriam
mesopotiemia
metad
metadalaji
metafizix
metal
metod
mexiko
mi
michael
mid
midia
midiival
midiom
mie
mieja
miel
mien
mienlan
mienli
mieri
migl
miglsex
miidia
miidiom
miil
miin
miinin
miinz
miit
miita
mikelanjelo
mikianikal
mikianix
mikianizim
mileniom
milian
milichri
military
militeri
milk
milki
minaral
mind
minischri
minista
minit
mis
mishan
mishineri
mishineridem
miss
mit
mitalaji
miunisipaliti
mix
mixcha
mobail
moch
modern
moerda
moerj
moerka
moerkan
molti
moltipl
moltiplikieshan
monggol
mongx
moni
mont
morant
more
morkan
mortality
mos
moskowitz
mosl
most
mount
mountn
mountndem
mout
movement
mozlim
mp
muh
muhammad
muo
muod
muona
muor
muos
muoshan
muosli
muotaim
muoto
muoziz
museum
music
muud
muun
muuv
muuvebl
muuvin
muuvment
muzlim
my
myuusik
myuuzik
myuuzikal
myuuziom
myuuzishan
n
na
naa
naadan
naam
naamal
naamali
naaman
naat
naatiis
naatsi
naatwes
naawie
nachral
nadan
naida
naija
naijiiria
nail
nain
naintiint
nait
nalij
name
names
naminal
nan
nani
napuolian
nar
narain
narieta
naritiv
nasa
nashinal
nashinaliti
nashinalizim
nat
national
nations
nato
natural
nature
navigieshan
navl
nd
neba
nedalanz
negitiv
neh
nehn
nelson
nepal
nesiseri
nesta
net
netwok
neva
new
news
newton
nex
ng
niam
nib
niebarin
niecha
nieli
niem
nier
nieshan
nietiv
niid
niivis
nikaragua
nikniem
niolitik
niuu
nj
no
nobadi
nof
noftaim
nomba
non
nondiles
norman
north
norval
not
notn
nou
noun
novemba
november
nowadiez
nuevo
nuo
nuon
nuoroda
nuoshan
nuot
nuotebl
nuoz
nyuu
nyuuchran
nyuuchrient
nyuuklier
nyuuklios
nyuumuonia
nyuutan
nyuutn
nyuuz
nyuuzpiepa
o
obia
obl
observer
october
oed
oerb
oerban
oerli
oert
oertkwiek
of
ofens
official
ofishal
ofishali
okiejan
okor
old
olimpik
olimpix
olokaas
oltimet
oltimetli
omoch
on
one
onggari
onggl
ongl
onjrid
online
only
ont
ontalaji
op
opa
opec
opm
opraizin
optel
opuonent
opuoz
or
org
organization
orientieshan
origin
original
orijinal
orijiniet
orikien
orli
ort
os
ostionaid
otaman
other
ou
oueba
oul
our
ous
ousomeba
out
outa
outbriek
outsaid
outsaida
over
oxford
p
pa
paadna
paadnaship
paak
paakinsn
paal
paalimenchri
paaliment
paarat
paas
paat
paati
paatikl
paatli
pachiz
pachri
page
pages
pah
pahn
paint
pakij
pakistan
palgrave
palimat
palisi
palitikal
palitishan
palitix
paluushan
pan
panamaa
pandemik
pani
panish
pantiyizim
pap
papers
papila
papilieshan
papilos
papiula
papiulieshan
papyulieshan
paragwai
paris
parish
part
pasebl
pasibl
pasifik
paskal
pasobl
past
patan
pati
patisipiet
patois
patrick
patwa
paul
pavati
payanier
pazitiv
pbs
pd
pdf
pempem
pen
penalti
penguin
peninsiula
peninsula
penjulom
penn
pennsylvania
people
pepapat
peri
persnal
person
peruu
peter
petroleum
pg
philadelphia
philip
philosophical
philosophy
physics
pianis
piano
pich
picha
pichruoliom
pie
piechran
piej
pien
pient
pienta
pientin
piepa
pier
pierans
pierre
pigfut
piik
piipl
piipldem
piiplz
piiriad
piis
piita
piiz
pik
pikni
pinyin
piriad
pirichual
pirit
pitni
plaant
place
plan
planit
planiteri
plant
plantieshan
plat
plazma
pleja
plie
plieg
plien
plierait
plies
pliet
plieto
plieya
plos
pluural
pmid
pnp
po
poblik
poblikieshan
poblish
poblishin
poe
poerchis
poerjan
poermanent
poerpos
poersn
poersnal
poetry
pofaam
pofaama
pofaamans
policy
poliis
political
politics
politikal
pols
pon
pong
ponishment
population
por
porjan
port
portland
portrait
porzhan
posent
posepshan
posiiv
posnal
pospektiv
potenshal
potikiula
poupeye
poverty
powa
powaful
pozes
pozeshan
pozishan
pp
prablem
prabli
practice
prafit
praim
praimeri
praimerili
praimri
prais
praivit
praiz
prajek
praktikal
praktis
praktishana
praminent
prapa
prapati
praps
prases
pratistant
pravins
praya
pred
predout
prefa
pregnansi
pres
presha
president
press
prevention
prezans
prezant
prezent
prezident
pridaminant
pridik
priez
prii
priicha
priis
priivios
priivos
priivosli
primier
princeton
pring
prins
prinsipl
print
printin
priparieshan
pripier
privalens
privenshan
privent
priyischri
prizaab
prizent
prizn
prodok
prodokshan
prodoktiviti
profesa
profeshan
profeshanal
profeshnal
projuus
projuusa
prokliem
promuot
pronongx
pronongxieshan
pronunciation
propuoz
prosiija
protek
protekshan
provaid
providencia
provijan
pruogram
pruogres
pruoses
pruosesin
pruotan
pruotes
pruotiin
pruotis
pruoto
pruoz
pruuf
pruuv
psychology
public
publications
published
publishers
publishing
pudong
punjab
punjabi
puo
puochret
puoim
puok
puol
puolan
puolish
puop
puor
puos
puoshan
puosmadanizim
puostal
puot
puotigal
puotigiis
puotlan
puoto
puoychri
puoym
puoymdem
puoyt
push
put
pythogaras
pyuuriti
q
qin
queen
quote
r
raa
raayal
rabat
raboert
radikal
raichuu
rais
rait
raita
raitdong
raitin
raitn
raits
raival
raiz
rak
rakit
ralph
random
rang
rangk
rap
rapa
rapid
rashanal
rastafarai
ratifai
raya
rayal
rayalti
rayas
rd
re
rebl
red
reda
redieshan
ref
refa
reference
refrans
rege
reggae
regional
regiulieshan
regla
rejiment
rekaad
rekanaiz
rekanishan
religion
religions
religious
relitiv
relitiviti
relitivli
rem
renasaans
renesans
renminbi
report
reptail
repu
res
research
retrieved
rev
revaluushan
revaluushaneri
review
reviews
revilieshan
reynolds
rezaluushan
ri
riak
riakshan
rialiti
riba
ribelian
ribeliyan
rica
rich
richard
richriiv
richual
ridemshan
ridim
ridmik
rie
ried
riedio
rielwie
rien
rienj
rier
ries
rieshal
riesho
riet
riez
rifaam
rifain
riflek
rights
rigyaad
rigyaadin
riich
riid
riida
riif
riijan
riijanal
riika
riiko
riil
riili
riisant
riisent
riizn
rijek
rijekshan
rijuus
rikaad
rikaadid
rikomen
rikuaya
rikues
rikwaya
rilai
rilieshan
rilieshanship
riliet
rilietid
riliis
rilijan
rilijos
rimien
rimuuv
rinoun
rio
ripiit
riplies
ripliesment
ripoblik
riprizent
riprizentieshan
riprizentitiv
riprodokshan
riprojuus
ripuot
risaach
rischrik
rise
risepshan
risiiv
rispan
rispans
rispansibiliti
rispek
rispektivli
ristuor
rita
ritoern
riva
rivaival
riviil
rivoers
rivuolt
rix
rizaid
rizis
rizistans
rizoerv
rizolt
rizuos
ro
robert
robinson
rock
rofli
rogbi
rogers
roland
rom
roman
romans
ron
ronald
rong
ronin
ronwe
rosha
roshan
rough
roun
routledge
roy
ruod
ruodwie
ruol
ruom
ruoman
ruomantik
russian
ruul
ruut
s
sa
saab
saabis
saach
saadi
saal
saalfish
sage
sah
said
saida
saikalaji
saikalajikal
saikl
sail
sain
saint
saipros
sairos
sait
saiyans
saiyantifik
saiyantis
saiz
sakratiiz
salid
saluushan
salvaduor
salvieshan
sam
samyuel
san
sanders
sang
sangsta
sanitieshan
sanskrit
santa
santo
santyaago
sar
sasayati
satilait
satisfai
savrin
sayabiin
sayans
sayantifik
sayantis
schneider
schravinski
schres
schriit
schrik
schrogl
schrokcha
schuu
schuudent
schwarze
science
sciences
scientific
se
seacole
sebm
sebral
second
sed
see
seh
sekan
sekanderi
sekiula
sekl
sekla
seklment
sekshan
sekta
sel
seldem
self
selibriet
semi
semikandokta
sen
senchral
senchri
senit
sens
sensos
sensri
senta
sentans
separiet
sepret
septemba
september
service
set
setn
setop
sex
sexism
sexizim
sexual
sexually
sexyual
sexyuali
sfier
shaap
shaare
shaat
shain
shalom
sheet
shel
shi
shiekspier
shiep
shier
shif
shinto
ship
shipin
shuda
shuga
shuo
shuopah
shuor
si
siaga
sibl
siblaizieshan
siblizieshan
sidela
siefiti
sieh
sieka
siekrid
siel
siem
sient
sierra
signal
signifai
signifikans
signifikant
signifikantli
sii
siid
siij
siik
siikizim
siikuens
siikuol
siim
siin
siirial
siiriz
siiros
siit
siiza
siizn
siiznin
sik
sikhism
sikioriti
siknis
silasi
silek
silekshan
silestial
silibl
silva
sima
simbal
simichri
simila
simon
simpl
simpli
simtam
simtom
sin
sing
singa
singgapuor
singgl
singh
singin
singkuma
sinigag
sins
sint
sintetik
sinting
sinuo
sir
sista
sistim
sistimatik
siti
sitieshan
sitiet
sitizn
sitiznship
sitn
sivier
sivik
sivilaizieshan
sivilizieshan
sivl
six
sixt
sixtiin
sk
skala
skalaship
skat
skatish
skia
skiel
skil
skolpcha
skolpta
skriin
skripcha
skuop
skuul
skwier
slaitli
slavery
slieb
sliebri
sliev
slievdem
slievri
sliip
slovakia
sloviinia
sluo
smadi
smith
so
sob
sobatamik
sobchakshan
sobjek
sobjik
sobkantinent
sobsikuent
sobstans
soch
social
society
soda
sodan
sodn
sodorn
soerbia
soerfis
soerkit
soerkl
soertn
soervie
sofa
sofishant
sofrij
soh
sohn
sohtaim
sojes
sokses
soksesa
soksesful
sokseshan
solfa
som
soma
somaraiz
some
somtaim
somwe
son
song
songs
soplai
sopres
sopreshan
sopuot
sorfis
sori
soria
sorka
sorong
sorvis
sosaiyati
sostien
soun
sout
south
soutiis
soutwes
sovaiv
sovaival
soxesful
spais
span
spanish
speaking
specific
spekchrom
spen
speshal
speshalaiz
spien
spies
spieskraaf
spiich
spiid
spiik
spiika
spiikin
spiishi
spiishiz
spisifik
spisifikali
spred
spring
springer
spuot
spuots
ssr
st
staaf
staar
staat
stail
stak
stamp
standad
stanford
star
state
states
statiu
steda
stedi
steit
stem
step
stephen
sti
stiediom
stiej
stiek
stieshan
stiet
stietment
stietos
stiets
stietsman
stiim
stil
stimiulos
stob
stodi
stoerlin
stone
stop
story
strategies
stuart
studies
study
stuon
stuor
styuu
styuujo
such
suck
sudan
suing
suisaid
suitsalan
suleiman
sumaal
sumaala
sumaalis
suoja
suol
suola
suolo
suos
suoshal
suoshalis
suosialaji
suoso
suoviet
supriim
supuot
surinam
susan
suun
suup
suutebl
swayili
swiidish
swiidn
swiit
symptoms
syntax
system
systematic
t
ta
taak
taat
tag
tai
taikl
taim
taimz
taino
taip
taiwan
taiz
taki
tale
tamarind
tamas
tan
tanak
tandad
tap
tapik
taranto
tarif
tax
taxieshan
taylor
tea
teaching
tek
teknalaji
tekniik
teknikal
tekop
tel
telifuon
telikomiunikieshan
teliskuop
telivijan
tell
tempareri
tempicha
template
ten
tenshan
tent
tera
terapi
terichri
tes
tesla
testiment
tex
texbuk
texcha
text
textbook
th
that
the
their
them
then
theory
they
third
this
thomas
thompson
those
thought
three
through
tialaji
tibetan
tide
tiebl
tiek
tiel
ties
tieta
tigeda
tii
tiich
tiicha
tiichin
tiim
tiiri
tik
tikrinta
til
time
times
tin
ting
tingk
tingka
tingkin
tingz
tioluojan
tioretikal
tiori
tip
tipikal
tipikali
tireschrial
tishu
tiyizim
to
toch
tod
today
todi
toerd
toerki
toerm
toermdem
toerminal
toermz
toertiin
toerx
ton
tong
too
top
torm
toti
toun
touzn
town
trade
tradition
transmitted
treatment
tu
tubako
tubiego
tugiada
tui
tuo
tuokio
tuon
tuor
tuori
tuoris
tuorizim
tuotal
tuu
tuul
tuurizam
tuusididiiz
tuwaad
tuwaadz
tuwadz
tv
twelb
twenti
twentiet
two
tyuuring
u
ud
uda
uk
uman
un
una
und
understanding
union
united
universe
university
uoba
uobasii
uobasiiz
uochi
uol
uola
uoli
uoliip
uolis
uolnis
uom
uoma
uon
uona
uonaship
uop
uoral
uoshan
uoshania
uova
up
upanishad
upanishads
update
us
usa
use
used
ush
uu
uufa
v
vaayj
vailens
vairal
vairos
vais
vajrayaana
vakyuom
vali
valiu
valparaiyso
value
valyuu
valyuum
vamitin
van
varayati
vatikan
vaxiin
vaya
veda
vega
vejitebl
vekta
velasiti
venablz
venizuela
venyuu
vesl
vi
vibrio
vidio
viega
viena
vieri
vieriebl
vierieshan
vierios
vietnam
viikl
vijan
vijual
vikchri
vilij
vinchi
vinsn
visibl
visit
vizebl
voerchual
voerjan
voerjin
voers
voertex
voertibret
voilens
voilent
vokiabileri
vol
volcha
volga
volume
vuokal
vuot
vyuu
w
wa
waa
waah
waal
waar
waarfier
waarin
waata
waga
wagna
wah
wahn
waid
waidli
waidpred
waif
wail
wails
wain
wait
wall
wamek
wan
wananeda
wanda
wandem
waneda
wans
wantaim
war
was
washington
washintan
way
wayales
we
web
websait
website
webster
weda
weh
wehn
wehna
wel
welsh
welt
wen
wena
weni
wentaim
wepaat
wepan
wes
wesmolan
west
westan
western
westmoreland
wet
what
wheat
when
which
white
who
wi
wich
wid
widin
widoutn
wie
wiek
wiela
wielaz
wier
wiet
wiev
wievlent
wiik
wiil
wiit
wikimedia
wikipidia
wil
wilhelm
wiliam
wiliamz
william
williams
win
wina
wing
winta
winwad
wit
with
witjraa
wizdam
wod
woddem
woerl
wok
woka
wokdem
wokin
wol
wolwaid
woman
women
woodard
words
work
works
worl
world
wos
wosara
woship
wot
wto
wuda
wuol
wuola
wuoliip
wuona
www
x
y
ya
yaad
yaak
yaav
yai
yaidem
yale
year
years
yelo
yeria
yet
yier
yiil
yon
yong
yongga
york
you
ys
yu
yuan
yunait
yunaitid
yunian
yunivoers
yunivoersal
yunivoersiti
yuoga
yuropian
yuropiyan
yurugwai
yusien
yuujal
yuujali
yuukrien
yuula
yuuman
yuumaniti
yuumanizim
yuuna
yuunait
yuunaitid
yuunian
yuunifai
yuuniik
yuunit
yuuniti
yuunivorsiti
yuuro
yuurop
yuuropian
yuuropiyan
yuus
yuusful
yuusij
yuut
yuuz
yuuza
z
zayan
zeit
ziilant
ziiro
zimbabue
zoroastrianism
zuon
{
|
}
£
¥
°
²
·
×
ʰ
ʻ
ʿ
ˈ
ː
ːˈ
̀
́
̂
̃
̄
̆
̇
̈
̊
̌
̓
̔
̣
̧
̩
̪
͂
ͅ
͜
α
ε
η
ι
ν
ο
π
ρ
ς
ω
ְ
ַ
ּ
י
ת
ا
بن
ع
ل
محمد
ه
ي
َ
ِ
ّ
ٔ
ٕ
ی
ग
त
थ
द
न
म
ह
ा
ि
ी
े
्
া
ਗ
ਬ
ਰ
ਸ
ਾ
ਿ
ੀ
ੰ
ં
ા
‌
‎
–
—
―
‘
’
“
”
„
•
′
⁄
↔
↷
−
√
③
④
⑦
⺀
⺄
⺆
⺈
⺊
⺌
⺕
⺝
⺸
⺼
⿰
⿱
⿲
⿳
⿴
⿵
⿶
⿷
⿸
⿹
⿺
⿻
〢
コ
ユ
ー
㇁
㇂
㇄
㇇
㇈
㇉
㇓
㐁
㐄
㐅
㐌
㐫
㐬
㐭
㐮
㐱
㑒
㒵
㒸
㒼
㓁
㓞
㔾
㕛
㕣
㖾
㘝
㚅
㚇
㚔
㚘
㝉
㝡
㝴
㝵
㞋
㞢
㞷
㠩
㠭
㠯
㡀
㡭
㡿
㢲
㢴
㣇
㣺
㥯
㪅
㫄
㫐
㫒
㫺
㬅
㬎
㬥
㬰
㲋
㳄
㷠
㸒
㸚
㸦
㼌
㼲
㽞
㿟
䀠
䂞
䍃
䏍
䒑
䖍
䖒
䖝
䖵
䙴
䚻
䜌
䝿
䡛
䧹
䪞
一
丁
丂
七
丄
丅
丆
万
丈
三
上
下
丌
不
与
丏
丐
丑
专
且
丕
世
丘
丙
业
东
丞
丢
丣
两
严
並
丨
丩
个
丫
丬
中
丮
丰
丱
串
丵
丶
丷
丸
丹
为
主
丽
丿
乀
乂
乃
久
乆
乇
么
义
之
乌
乍
乎
乏
乐
乑
乔
乖
乗
乘
乙
乚
乛
乜
九
乞
也
习
乡
乳
乾
亀
亅
了
亇
予
争
事
二
亍
于
亏
亐
云
互
亓
五
井
亘
亚
亜
亞
亟
亠
亡
亢
交
亥
亦
产
亨
亩
享
京
亭
亮
亯
亰
亲
亳
亶
亷
人
亻
亼
亾
仁
今
介
仌
从
仐
仑
仒
仓
仕
他
付
仝
代
令
以
任
企
伊
伏
伐
休
会
伯
但
位
何
佘
余
作
佥
使
來
侈
侌
侖
侯
侵
便
保
俞
信
修
俳
倉
倍
候
倠
備
僉
僕
儿
兀
允
兂
元
兄
充
兆
兇
先
光
兊
克
兌
免
兑
兒
兓
兔
党
兜
兟
入
全
兩
兪
八
公
六
兮
兰
共
关
兵
其
具
典
兹
兼
冀
冂
冃
冄
内
冈
冉
冊
冋
册
再
冎
冏
冐
冒
冓
冖
冗
冘
军
农
冝
冡
冥
冫
冬
冷
几
凡
凢
凵
凶
凷
凸
凹
出
函
凾
刀
刁
刂
刃
刄
刅
分
切
刍
刑
刕
刖
列
刘
则
初
別
利
别
到
制
刺
則
削
剌
前
剡
剽
劉
力
功
加
劦
助
劫
劳
劵
勃
勇
勉
勒
動
務
勞
勤
勹
勺
勻
勾
勿
匀
匂
包
匆
匈
匊
匋
匍
匕
化
北
匚
匝
匡
匪
匱
匸
匹
区
医
匽
匿
區
十
卂
千
卄
卅
卆
升
午
卉
半
卌
华
卑
卒
卓
单
卖
南
卜
卝
卞
占
卡
卢
卣
卤
卦
卩
卪
卬
卯
印
危
即
却
卵
卷
卸
卻
厂
厃
厄
历
厈
厉
厌
厓
厘
厚
原
厤
厥
厨
厭
厲
厶
厷
厸
去
厼
厽
叀
参
參
叅
又
叉
及
友
双
反
叐
发
叒
叔
叕
取
受
叚
叜
叟
口
古
句
另
叩
只
召
可
台
叱
史
右
叵
号
司
叹
吂
各
吅
合
吉
吊
吋
同
名
后
吏
向
吕
君
吝
吞
否
含
启
吳
吴
吹
吾
呂
呆
呈
告
员
呙
周
命
咅
和
咎
咠
咢
咨
咸
咼
哀
品
哉
員
哥
哲
唐
商
啇
問
啚
啬
啻
善
喜
喬
單
喿
嗇
噩
嚴
囊
囗
囘
囙
囚
四
回
囟
因
囧
囬
困
囱
囷
固
国
圂
圅
國
圍
圓
土
圡
圣
圥
在
圭
地
圶
圼
坐
坒
坚
坴
垂
垔
垚
埀
埋
埶
執
基
堂
堅
堆
堇
堯
塞
墨
壘
士
壬
壯
声
壳
壴
壹
壺
壽
夂
处
夅
夆
备
夊
夋
夌
复
夏
夒
夕
外
夗
夘
多
夜
夢
大
夨
天
太
夫
夬
夭
央
失
夲
头
夷
夸
夹
夻
夾
奂
奄
奇
奈
奉
奎
奏
奐
契
奓
奔
奚
奞
奠
奢
奥
奭
女
奴
奻
好
如
妄
妙
妟
妥
妻
妾
姑
委
姜
威
娄
婁
婴
嬰
嬴
子
孑
孔
孕
孖
字
存
孚
孛
孝
孟
季
孤
学
孫
孱
學
宀
宁
宂
它
宅
宇
守
安
宋
完
宏
宓
宗
官
定
宛
宜
宝
客
宣
室
宮
宰
害
家
容
宾
宿
寄
寅
密
富
寒
察
寧
審
寫
寬
寮
寸
对
寺
寻
寽
対
寿
封
尃
射
将
將
專
尉
尊
尋
尌
對
小
少
尒
尓
尔
尖
尗
尚
尞
尢
尣
尤
尧
尨
尭
就
尸
尹
尺
尻
尼
尽
尾
尿
局
居
屈
屋
屎
屏
屑
展
屖
屚
属
屠
屡
屬
屮
屯
屰
山
屵
屾
岁
岂
岑
岡
岩
岳
岸
峯
島
崇
崑
崔
崖
崙
崩
嵬
嶲
巂
巛
川
州
巟
巠
巢
巤
工
左
巧
巨
巩
巫
差
己
已
巳
巴
巷
巸
巽
巾
巿
帀
市
布
希
帚
帛
帝
带
師
席
帶
常
干
平
年
幵
并
幷
幸
幺
幻
幼
幽
幾
广
広
庄
床
底
店
庚
府
度
庫
庭
庶
康
庸
廉
廌
廛
廣
廩
廴
延
廷
建
廾
廿
开
弁
弃
弄
弇
弋
式
弓
弔
引
弗
弘
弜
弟
弥
弦
弱
張
強
强
彊
彌
彎
彐
彑
当
彔
录
彖
彗
彡
形
彥
彦
彧
彭
彳
役
彼
往
待
律
徒
得
徙
從
復
微
徵
心
忄
必
忌
忍
志
忝
忠
忩
快
念
忽
忿
思
怠
急
怱
恆
恒
恩
恭
息
悉
患
悤
悲
悶
惠
惡
惢
愁
愈
意
愛
感
慈
慧
慮
憂
憲
應
戀
戈
戉
戊
戋
戌
戍
戎
成
我
戒
戔
或
戚
戠
戢
截
戲
戶
户
戹
戼
戾
房
所
扁
扇
手
扌
才
打
托
执
承
折
拉
拜
拿
掌
推
提
摩
支
攴
攵
收
攸
改
放
政
敄
敏
敕
敖
敗
敝
敞
敢
散
敦
敫
敬
数
敷
數
斂
文
斉
斊
斗
斤
斥
斩
斬
斯
新
方
於
施
斿
旁
旋
族
无
旡
既
旣
日
旦
旧
旨
早
旬
旱
旲
时
旾
昆
昇
昌
昍
明
昏
易
昔
昗
昜
星
春
昬
是
昱
昴
昷
時
晃
晋
晏
普
景
晶
智
暑
暴
曇
曩
曰
曲
曳
更
曷
書
曹
曼
曾
替
最
朁
會
月
有
朋
服
朔
朕
朗
望
朝
木
朩
未
末
本
札
朮
术
朱
朵
朶
朿
杀
杏
杜
束
条
来
東
杲
杳
松
析
林
枚
果
枝
枲
枼
某
柔
查
柬
柰
柴
栗
桀
桑
桼
梁
條
梟
梨
棘
棠
棥
森
楚
業
楽
榮
樂
樊
欠
次
欣
欮
欲
欶
欽
款
歆
歇
歛
止
正
此
步
武
歨
歪
歮
歯
歰
歲
歴
歷
歸
歹
歺
死
殳
段
殷
殸
殹
殺
殻
殿
毋
毌
母
每
毒
比
毕
毚
毛
毳
氏
氐
民
气
氣
水
氵
氶
氷
永
氺
氾
求
汉
汝
汞
江
沃
沓
沙
沝
泉
法
波
泣
泥
泰
洛
洪
活
派
流
浦
浪
浮
淡
淮
清
渚
渠
港
湯
滿
漸
火
灬
灭
灰
灵
灷
炅
炎
炏
炗
炙
炭
為
烈
烏
烝
焉
無
焦
焱
然
煞
熊
熏
燕
營
燮
爪
爫
爭
爯
爰
爱
爲
爵
父
爻
爽
爾
爿
片
牙
牚
牛
牜
牟
牢
牧
牪
牽
犀
犬
犭
犮
狂
狄
狊
独
狺
猋
猒
猪
献
獻
玄
率
玉
王
玟
玨
珎
班
琴
瑟
瑩
瓜
瓦
甘
甚
生
産
用
甫
甬
田
由
甲
申
电
甶
男
甸
甹
画
甾
畀
界
畏
畐
留
畜
畟
畢
畧
畨
番
畫
異
畱
當
畺
畾
疊
疋
疌
疑
疒
疾
癶
癸
癹
登
發
白
百
皀
皃
的
皆
皇
皋
皐
皕
皮
皷
皿
盃
盆
盇
盈
益
盍
盎
监
盒
盖
盛
盡
監
盤
盧
目
直
相
盾
省
眇
眉
看
眔
眞
真
眷
眼
眾
着
睘
睪
睿
瞏
瞢
瞿
矍
矛
矞
矢
矣
知
矦
短
石
破
碎
磊
磨
示
礻
礼
祟
票
祭
禀
禁
禸
禹
禺
离
禽
禾
禿
秀
秃
秉
秋
科
秝
秦
移
稟
穀
穌
穴
究
穹
空
穿
突
窄
窒
立
竒
竜
竝
竟
章
童
竹
笑
笠
筆
等
答
箕
算
箴
節
篤
篭
米
粉
粛
粟
粤
粦
粲
糞
糸
糹
系
約
納
素
索
紫
累
細
絜
絫
絲
維
綿
縣
繇
纍
纟
缶
网
罒
罔
罕
罗
罙
罡
罢
罪
署
罷
羅
羊
羌
羍
美
羔
羕
羗
羞
羡
羣
群
義
羲
羸
羽
翁
翏
習
翕
翟
翠
翼
老
耂
考
者
耆
而
耎
耑
耒
耳
耴
耶
耷
聂
聊
聖
聚
聶
聿
肀
肃
肅
肉
肖
肙
肥
肩
肯
育
肴
胃
背
胡
胥
能
脊
脩
膚
臣
臤
臧
自
臬
臭
臯
臱
至
致
臺
臼
臽
臾
臿
舀
舂
舄
與
興
舉
舌
舍
舛
舜
舞
舟
般
艮
良
色
艸
艹
艾
芒
芔
芬
芮
花
芳
芺
芻
苔
苗
苟
若
苦
英
茶
茸
荅
草
荒
荣
荼
莆
莧
莫
莽
菆
菊
菐
華
萬
落
葉
著
葛
董
葵
蒙
蒦
蒼
蓋
蓬
蓺
蔑
蔡
蕉
蕭
薄
薛
薦
薰
藍
藏
藥
蘭
虍
虎
虐
虒
虔
處
虖
虗
虘
虚
虛
虜
虞
虫
虽
蚤
蚩
蜀
蜜
蟲
蠡
血
行
衍
衛
衣
衤
表
衮
衰
袁
袞
褭
褱
襄
襾
西
覀
要
覃
見
規
覓
覧
親
覽
见
角
解
言
訁
訇
計
詹
語
誩
諸
讠
语
谷
豆
豈
豊
豐
豕
豖
豙
象
豦
豩
豪
豸
貇
貝
貞
貟
負
貢
貧
貪
貫
責
貳
貴
買
費
賁
資
賈
賏
賓
賔
賛
賞
賢
賣
質
賴
贊
贝
贡
责
贯
贲
贵
赖
赞
赤
赦
走
越
足
路
蹇
身
躬
車
軍
軎
軟
輦
车
辛
辜
辟
辥
辰
辱
農
辵
辶
边
达
过
近
连
迷
追
退
送
逆
逐
通
速
造
逢
連
逮
進
遀
遂
過
道
達
遣
適
遷
遺
邊
邑
邕
那
邦
邪
郎
部
郭
都
鄉
酉
酋
配
酓
釆
采
里
重
野
量
金
釒
錢
钅
長
镸
长
門
閃
閉
開
閏
閑
閒
間
閔
閵
閻
闌
门
间
闷
阑
阜
阝
阿
降
陳
隆
隊
隋
隡
隨
隱
隶
隹
隺
隻
隼
隽
难
雀
雁
集
雈
雋
雍
雐
雔
雙
雚
雜
雝
離
難
雨
雩
雪
雲
零
雷
需
霍
霜
霝
霞
霸
靈
靑
青
非
靡
面
靣
革
韋
韦
韭
韯
韱
音
頁
頃
項
須
頗
頡
頻
顛
页
風
风
飛
飞
食
飠
養
饣
首
香
馬
馮
駦
马
骨
高
髟
鬥
鬯
鬲
鬼
魚
魯
鮮
鱼
鲁
鳥
鳳
鸟
鹵
鹿
麃
麗
麥
麦
麻
黃
黄
黍
黎
黑
黒
黨
黹
黽
黾
鼎
鼓
鼠
鼻
齊
齋
齐
齒
齿
龍
龙
龜
龟
龠
龰
龱
龴
龵
龶
龷
龸
龹
者
艹
？
𠀁
𠀃
𠀆
𠀉
𠀎
𠀐
𠁁
𠁣
𠂆
𠂇
𠂈
𠂉
𠂊
𠂋
𠂎
𠂒
𠂔
𠂛
𠂡
𠂢
𠂤
𠂬
𠂭
𠂹
𠃊
𠃋
𠃌
𠃍
𠃎
𠃑
𠃓
𠃔
𠃜
𠄌
𠄎
𠄠
𠄢
𠆢
𠆥
𠇍
𠈌
𠌵
𠓜
𠔉
𠔥
𠔼
𠔽
𠔿
𠕀
𠕁
𠕋
𠘧
𠘨
𠙻
𠙼
𠚏
𠚒
𠚤
𠚪
𠣏
𠤎
𠤕
𠥓
𠦄
𠦑
𠦝
𠧒
𠧗
𠧪
𠩺
𠪚
𠫓
𠫔
𠫤
𠬛
𠬝
𠬞
𠬢
𠬤
𠬶
𠮛
𠮦
𠮷
𠯑
𠱠
𠳮
𠷎
𡈼
𡉀
𡉵
𡌥
𡍮
𡏳
𡕒
𡕩
𡕰
𡖅
𡗗
𡗜
𡘆
𡘤
𡧱
𡨄
𡩧
𡬠
𡭽
𡰣
𡰥
𡰪
𡰯
𡰱
𡷈
𡸁
𡿨
𡿩
𡿪
𡿺
𢀖
𢀛
𢀩
𢁙
𢆉
𢆰
𢆶
𢇁
𢇇
𢉖
𢌬
𢌿
𢏚
𢑑
𢑚
𢖻
𢙣
𢛳
𢦏
𢦒
𢧵
𢼄
𢾕
𣁋
𣄼
𣅀
𣅽
𣍘
𣎳
𣎵
𣏋
𣏼
𣗥
𣥂
𣥖
𣦵
𣦼
𣧄
𣪊
𣪠
𣬉
𣳾
𣶒
𤇾
𤊽
𤐫
𤓰
𤔔
𤕨
𤣩
𤰇
𤰔
𤰞
𤴓
𤴔
𤽄
𥁑
𥁕
𥃦
𥃩
𥃭
𥇡
𥑟
𥘅
𥘈
𥝢
𥫗
𥱡
𦈢
𦉪
𦉬
𦉼
𦍌
𦍒
𦎧
𦐇
𦓔
𦔮
𦘒
𦙃
𦚏
𦣝
𦣞
𦣻
𦥑
𦥔
𦥯
𦨉
𦭝
𦰩
𧆞
𧈧
𧘇
𧰨
𧴪
𧴮
𧵩
𧾷
𨸏
𨾴
𩙿
𩠐
𩫏
𩵋
𪉷
𪜀
𪟽
𪠲
𪩲
𫇦
𫔭
𫜸
𫝀
𫠣
𫠩
𫢉
𫥞
𫩏
𫩠
𫪡
𫲽
𫶧
𬀷
𬐘
𬗌
𬙙
𬛸
𬜯
𬟩
𬯁
𬴘
𬺻
𬼉
𬼖
𭀰
𭁈
𭁨
𭅰
𭑈
𭕄
𭗼
𭤨
𭥫
𭻾
𮅕
𮊿
𮍌
𮍏
𮓗
𮥼
𮧮
廾
𰀁
𰀄
𰀈
𰀉
𰀕
𰀠
𰀡
𰀢
𰀪
𰁜
𰃮
𰆊
𰆘
𰋙
𰕎
𰢴
𰧭
𰯲
12--
13--
14--
15--
16--
17--
18--
19--
8--
9--
a--
aak--
aal--
aam--
ab--
abri--
ac--
ad--
adv--
advo--
afi--
ai--
aiso--
ak--
aku--
al--
ali--
alko--
altoern--
alz--
am--
an--
ana--
anti--
ap--
app--
ar--
as--
at--
au--
b--
ba--
bai--
bar--
bayo--
be--
bed--
ben--
benj--
ber--
bi--
bib--
bl--
bo--
bot--
br--
bre--
bu--
buu--
c--
ca--
cap--
car--
ch--
cha--
chr--
chranz--
chri--
chuo--
cla--
co--
col--
con--
cri--
d--
da--
dar--
day--
dayag--
de--
ded--
des--
desim--
di--
dif--
dij--
diplu--
dis--
dong--
dr--
du--
e--
ed--
ef--
egz--
el--
em--
emi--
en--
eni--
environ--
ep--
ern--
es--
est--
et--
evi--
evri--
ex--
exk--
ey--
f--
fa--
far--
fer--
fi--
fila--
fl--
fle--
flo--
fo--
g--
ga--
gar--
ge--
ger--
gi--
go--
gr--
gram--
gre--
gu--
h--
ha--
haag--
hakt--
har--
he--
hegz--
hemp--
her--
hex--
him--
hin--
hinta--
ho--
hon--
i--
ia--
ie--
ig--
ih--
ii--
ikuiv--
il--
ilos--
im--
imaj--
imi--
in--
ina--
indepen--
inta--
inter--
interv--
inti--
inv--
ip--
is--
it--
iv--
ivanj--
iw--
j--
ja--
je--
jo--
jox--
jr--
juni--
k--
ka--
kaa--
kamp--
kan--
kangk--
kanj--
kans--
kaz--
ke--
kel--
ki--
kialkiu--
kiar--
kiat--
kilo--
kla--
ko--
kom--
komp--
kr--
kri--
ku--
kya--
kyu--
l--
la--
lab--
laj--
lan--
lang--
le--
lef--
lej--
li--
lik--
lin--
m--
ma--
mag--
maj--
mak--
mal--
man--
mang--
mani--
manipiu--
maniu--
mari--
mate--
me--
medi--
mem--
meta--
mi--
mil--
mis--
mo--
mon--
mor--
motiv--
mu--
muo--
my--
n--
na--
ne--
ni--
nico--
nie--
nigo--
no--
nor--
nu--
nyuu--
o--
obi--
oe--
oer--
of--
ok--
ol--
op--
or--
os--
ous--
out--
p--
pa--
pai--
par--
pe--
per--
pi--
pis--
pit--
po--
pr--
pram--
prej--
prez--
pri--
prig--
princ--
priz--
pro--
prob--
proc--
progr--
pyu--
q--
qu--
r--
rai--
rak--
ran--
rasta--
re--
regiu--
rez--
ri--
riz--
ro--
rou--
ru--
s--
sa--
sakr--
sakri--
sch--
se--
sen--
sh--
sha--
she--
si--
sii--
sk--
skel--
sku--
so--
sob--
soer--
soerkiu--
sox--
sp--
spec--
st--
su--
sum--
sup--
sur--
syuup--
t--
ta--
tap--
te--
tech--
teri--
tes--
th--
ti--
to--
tor--
tr--
tu--
tyuu--
u--
un--
uo--
v--
ve--
vel--
vi--
vic--
vil--
vir--
w--
wa--
wal--
we--
wi--
wil--
wo--
x--
y--
yu--
yuuk--
yuun--
z--
zi--
zoro--
τ--
ا--
--0
--1
--2
--3
--4
--5
--6
--7
--8
--86
--9
--a
--able
--ach
--acha
--ad
--adem
--ai
--ain
--ait
--aiz
--aji
--ak
--al
--alaji
--ali
--am
--ama
--an
--ans
--ant
--ar
--ary
--as
--atik
--b
--baal
--bl
--bs
--c
--ce
--ch
--cha
--chal
--charin
--chral
--chri
--chual
--ck
--co
--ct
--cy
--d
--da
--dem
--dent
--di
--die
--din
--dn
--do
--ds
--e
--eb
--ebl
--ed
--edia
--ek
--el
--em
--en
--ens
--ent
--ents
--er
--eri
--erian
--ers
--ery
--es
--eshan
--et
--eta
--etik
--ey
--f
--fai
--ful
--g
--ga
--ggo
--gh
--gis
--gl
--go
--grafi
--gs
--h
--ha
--hal
--han
--hi
--hiu
--hn
--hop
--hos
--i
--ia
--ial
--ian
--ib
--ibl
--ic
--ich
--id
--ieshan
--if
--ii
--iil
--iiz
--ij
--iji
--ik
--ikal
--il
--iliti
--im
--ima
--in
--ing
--io
--ion
--is
--ishan
--ism
--ist
--it
--ita
--iteri
--iti
--itiv
--ity
--iula
--iv
--ive
--iya
--iz
--izam
--izim
--j
--ja
--ji
--jik
--k
--ka
--kal
--kan
--ki
--kl
--kli
--kos
--kratik
--kshan
--l
--la
--laji
--le
--ler
--ley
--lf
--li
--lian
--lin
--liti
--ll
--lo
--logy
--ls
--ly
--lz
--m
--ma
--man
--maz
--ment
--mi
--mic
--mik
--ms
--msn
--my
--n
--na
--nal
--nce
--nd
--nda
--ne
--neri
--ng
--ni
--nia
--nin
--nis
--niti
--nja
--nn
--no
--ns
--nt
--ntier
--ny
--o
--ol
--ology
--om
--on
--op
--or
--ors
--ory
--os
--out
--p
--pa
--pl
--ps
--pshan
--r
--ra
--ral
--ret
--ri
--ria
--rin
--ris
--rit
--riti
--rk
--rn
--rop
--rs
--rt
--ry
--s
--sa
--say
--schri
--ses
--sh
--shan
--si
--sipant
--sis
--siv
--sn
--st
--stan
--t
--ta
--tal
--tan
--tans
--tch
--te
--ter
--ters
--th
--thing
--ti
--tic
--tid
--tij
--tik
--tion
--tions
--tiv
--tix
--to
--tom
--try
--ts
--tt
--tter
--ty
--u
--ual
--uel
--ul
--ula
--um
--uo
--uod
--uok
--uom
--uoz
--ur
--us
--ut
--v
--va
--val
--ve
--vl
--vn
--w
--we
--wn
--wok
--x
--y
--ya
--yn
--z
--za
--zam
--zembl
--zieshan
--zim
--ɑ
--ι
