!
"
#
##0
##1
##10
##11
##12
##13
##14
##15
##16
##17
##18
##19
##2
##20
##21
##22
##23
##24
##25
##26
##27
##28
##29
##3
##30
##31
##32
##33
##34
##35
##36
##37
##38
##39
##4
##40
##41
##42
##43
##44
##45
##46
##47
##48
##49
##5
##50
##51
##52
##53
##54
##55
##56
##57
##58
##59
##6
##60
##61
##62
##63
##64
##65
##66
##67
##68
##69
##7
##70
##71
##72
##73
##74
##75
##76
##77
##78
##79
##8
##80
##81
##82
##83
##84
##85
##86
##87
##88
##89
##9
##90
##91
##92
##93
##94
##95
##96
##97
##98
##99
$
%
&
'
(
)
*
+
,
-
.
/
0
00
000
00016
002
0022
002542
007522
01
02
0205820375
03
04
05
06
07
08
09
1
10
100
1000
1002
1007
101
1012
1016
102
103
1037
1038
1039
104
105
1050
106
107
108
1080
1084
1086
1090
1093
11
110
1100
1105
111
1111
112
1125
1126
113
1135
114
1144
1145
1146
1147
1148
115
1150
1152
1177
1182
1184
1188
1189
1190
1195
1196
12
120
1200
121
1225
1230
1232
125
1250
1260
1262
127
1278
128
1287
1290
1291
1299
13
130
1300
1302
1303
1308
1313
1314
1317
132
1320
1324
1327
1330
1331
134
1344
1347
1348
1349
135
1350
1353
1355
1365
1369
1385
1394
14
140
1400
1406
141
1410
143
1437
144
145
14570
1461
147
148
1480
1488
1490
1496
15
150
1500
1504
1512
1521
1523
1525
1529
153
155
1568
1570
1594
16
160
1600
1603
1618
162
1622
1623
1632
1635
1648
1650
167
1680
1688
1689
1690
1697
1698
17
170
1700
1707
1708
1709
1710
1711
1713
1716
1717
1719
172
1720
1725
1740
1741
175
1750
1755
1756
1763
1766
1770
1771
1772
1773
1774
1775
1777
1778
1779
1783
1789
179
1790
1792
1793
1794
1795
1796
1797
1798
18
180
1800
1801
1803
1804
1806
1810
1811
1813
1814
1815
1816
1817
1818
1820
1821
1822
1823
1824
1825
1826
1827
1829
183
1830
1832
1834
1835
1837
1838
1839
184
1840
1842
1843
1844
1845
1846
1847
1848
1849
185
1850
1853
1854
1856
1857
1858
1859
1860
1861
1862
1863
1864
1865
1866
1868
1869
187
1870
1871
1872
1874
1875
1876
1877
1878
1879
188
1880
1881
1882
1883
1884
1885
1886
1887
1888
1889
189
1890
1891
1892
1893
1895
1896
1897
1898
1899
19
190
1900
1901
1902
1903
1904
1905
1906
1907
1908
1909
1910
1911
1912
1913
1914
1915
1916
1917
1918
1919
192
1920
1921
1922
1923
1924
1925
1926
1927
1928
1929
193
1930
1931
1932
1933
1934
1935
1936
1937
1938
1939
194
1940
1941
1942
1943
1944
1945
1946
1947
1948
1949
195
1950
1951
1952
1953
1954
1955
1956
1957
1958
1959
196
1960
1961
1962
1963
1964
1965
1966
1967
1968
1969
197
1970
1971
1972
1973
1974
1975
1976
1977
1978
1979
198
1980
1981
1982
1983
1984
1985
1986
1987
1988
1989
1990
1991
1992
1993
1994
1995
1996
1997
1998
1999
2
20
200
2000
2001
2002
2003
2004
2005
2006
2007
2008
2009
201
2010
2011
2012
2013
2014
2015
2016
2017
2018
2019
202
2020
2021
2022
203
205
206
208
21
210
211
213
215
22
220
221
223
225
226
23
230
2307
231
232
235
238
24
240
242
245
248
25
250
2500
251
256
259
26
260
261
262
265
267
269
27
270
271
273
275
276
278
28
280
281
285
288
29
292
295
299
3
30
300
3000
301
302
303
304
31
310
31031
311
313
314
317
318
32
320
321
325
326
328
329
33
330
336
337
34
340
341
343
344
349
35
350
352
355
357
358
359
36
360
362
363
364
365
37
370
38
380
381
382
384
385
39
392
395
399
4
40
400
4000
402
405
406
41
410
415
416
418
42
420
421
423
427
43
430
435
44
440
443
444
45
450
456
458
46
460
462
47
470
48
486
49
490
491
495
498
5
50
500
51
517
52
521
525
527
528
53
530
534
54
540
55
550
555
56
569
57
58
580
59
590
593
596
6
60
600
61
62
620
63
64
65
650
658
66
6616
67
673
68
69
7
70
700
70070
708
71
72
727
728
73
74
742
75
750
753
76
7650
768
769
77
770
773
774
777
78
788
79
792
7954
8
80
800
81
817
82
823
8286
829
83
8392
84
85
850
86
862726425
87
87629
88
89
896
89735
9
90
900
91
916475
92
927754
93
935071
937329
937640
939233
94
95
950
96
962
97
978
98
9801574
9814506
99
991
:
;
<
=
>
?
[
\
]
^
_
`
a
aa
aach
aache
aachebligg
aad
aade
aafang
aagfange
aagumend
aahald
aal
aale
aam
aame
aamee
aare
aarisch
aaschiv
ab
abda
abdai
abdeilung
abdomen
abdrede
aber
abfaggle
abg
abgebaud
abgebrennt
abgefaggeld
abgeleesd
abgelehnd
abgerisse
abgerufen
abgrenze
abgrenzung
abgrisse
abgrufe
abgschlosse
abgschnidde
abha
ablaide
ableng
abm
abodhekersbu
aboncourt
about
abreschviller
abril
abrill
abs
absatz
abschdimmung
abschdond
abschnitt
absischd
abt
abtei
abteilung
abuse
academic
acb
access
accessed
account
ach
achain
achd
achde
ache
achen
achs
achsema
acht
achza
action
ad
adaincourt
adam
addigl
adelange
adeliche
adenner
adiggel
adiggl
adla
adlandig
adler
adminisdradivi
administration
adolf
adress
affairs
affe
affelboch
affolderbach
afra
afriga
afrika
ag
again
against
agde
agdiv
agdsja
agduell
agduelle
agency
agentur
agger
agglome
agiro
agnes
agumend
agung
ah
ahukewi
ai
aiabescha
aich
aicheschda
aier
aigendlisch
aigeschafde
aingedaild
ainische
air
airopa
ais
aisch
aische
aischendlisch
aischene
aischeni
aischini
aischn
aischndlisch
aischndlische
aischne
aise
aisebahn
aiwohner
aiwuhna
ajg
ajoncourt
akademie
akira
aktion
aktuell
al
alabama
alain
alaincourt
alarm
alastair
albach
albe
albert
albestroff
albrecht
album
ald
alda
aldanadive
aldar
alde
aldebach
aldeheem
alder
aldes
aldgrieschisch
aldi
aldperdel
aldrhoi
aldrib
aldschdad
aldschdadd
aldschdadt
alemannische
alex
alexander
alfred
algerie
algrange
all
alla
alladings
alle
allee
allem
allen
allende
aller
allerdings
alles
allg
allgemeine
allgemoin
allgmoin
alli
allm
allma
allwail
alom
alpe
alphonse
als
alsace
alsde
alseborn
alsemol
alses
alsn
also
alsting
alt
alta
altda
alte
alten
altenhofen
alter
alternative
altertu
altes
altkirch
altlosse
altpo
altrip
altrippe
altviller
altwihr
always
alwe
alzette
alzey
alzing
am
amanvillers
amarin
amd
amdlisch
ame
amele
america
american
ameriga
ameriganische
amerika
amerikaner
amerikanische
amerikonische
amis
ammerschwihr
amne
amnesia
amonn
amorba
amorbach
amos
amsterdam
amt
amtlich
amtliche
amtlisch
amtsschbrooch
amtsschbrooche
an
ana
analyse
analysis
ancerville
anchoring
ancy
and
ande
andelnans
andere
anderem
anderen
anderson
andisemidismus
andre
andreas
anfa
anfang
angeles
angelhofer
angeot
anges
angevillers
angwiller
anilin
anjoutey
ann
anna
annan
annare
anne
anner
annere
annerem
anneri
annern
annersch
annerscht
anno
annwailer
annweiler
anonyme
ans
anselm
anslmonn
ansunschde
ant
anthologie
antike
antilly
antoine
anton
anze
anzeling
apach
appeal
appel
appell
apple
applied
april
arabisch
arbeit
arbeitskreis
arc
archa
arches
archiv
archive
ard
arde
ardiggl
ardikel
are
arelse
arg
argancy
argie
argument
argumentation
argumentieren
arguments
argumentum
arisch
arischded
armand
arme
armee
arnhem
arnold
aronson
arraincourt
arriance
arrondissement
arry
ars
art
arten
arthur
article
artikel
arzviller
as
asch
aschbach
aschbegd
asche
aschedswiller
aschidegd
asiadische
asie
aspach
ass
association
at
atatu
atlas
attilloncourt
attitudes
attractive
au
auch
audiodataie
audo
audoba
audobahn
audofahre
audomadisch
audonome
audor
audore
audorided
audoridedsagumend
audos
audun
aue
auf
aufl
auflage
aufstieg
auftrag
augny
augsburg
auguschd
auguschdinagloschda
auguscht
august
aulnois
aumetz
aurisch
aus
ausa
ausbau
ausbildung
auschdralie
auschdria
ausde
ausdehnung
ausdrigg
ausdrugg
ausem
auserdemm
ausg
ausga
ausgab
ausgabe
ausgawe
ausgebaud
ausgebaut
ausgebra
ausgedehnd
ausgepra
ausgeschdorb
ausgewa
ausgewannerd
ausgewwe
ausgong
ausgrawunge
ausgschbroche
ausgschdellt
ausiewe
ausla
auslond
ausm
ausnahm
ausnahme
aussach
aussache
aussage
ausschbrooch
ausschdellung
ausschderwe
ausschließlich
aussehe
ausseje
aussem
ausserdem
aussichtsplattform
aussichtsturm
ausstellung
austerlich
austria
auswa
auswahl
auswannerer
auswiagunge
auszaischnung
auszunudze
autor
autreche
autumnale
auwald
aux
auxelles
außa
außada
außadem
außahalb
außam
auße
außer
außerda
außerdem
außerdemm
außerhalb
außerm
avold
avril
awa
awer
awerschmi
awwa
awwe
awwee
awwer
axel
axolotl
ay
az
azoudange
b
ba
baade
baage
baam
baar
babbeld
babbelt
babbld
babble
babier
bach
back
backfire
baculum
bad
badai
baddai
baddeberg
bade
baden
badisch
badische
badischen
badisches
baerenthal
baggad
baggasee
baggaseeje
baggaseje
bahai
bahn
bahnhof
bai
baian
baide
baidem
baidema
baiere
baiern
baijan
baim
baina
bains
bairisch
bairische
baisbiel
baischbiel
balamend
bald
bali
balin
balka
ball
ban
band
banderf
banner
bannwihr
banvillars
barack
barbara
barbarossa
barbe
bardai
barembach
barezwiller
barge
bargholz
bargholzza
barnwiller
barogge
baron
barr
barrwiller
barst
bartholoma
bas
base
based
basel
basf
basgedball
basierd
basiert
basis
bass
bassd
basse
bassel
bassemberg
bassiad
bassierd
bassiere
bassiert
bastian
bastien
batschwiller
batterf
bau
baud
baude
baudrecourt
baue
bauer
bauern
bauernfeind
baufa
bauland
baure
baurekriech
bauwe
bauweag
bauwerk
bavilliers
bawle
bayan
bayarische
bayer
bayerische
bayerischen
bayern
bayrisch
bayrische
bazoncourt
bb
bbc
bbd
bbds
bbe
bbes
bbt
bbts
bd
bde
bdriewb
bds
be
bea
beaucourt
bebaud
bebaut
bebauung
beck
becker
beckmann
become
bedaidende
bedaidung
bedaitung
bedd
bede
bedeggd
bedeidende
bedeidung
bedeutung
bedeutungserkla
bedingunge
bedong
bedra
bedraache
bedrieb
bedriwwe
beede
beeder
beehl
beel
beem
beeme
been
beende
beer
beere
beese
befasse
befasst
befaßt
befind
befinne
before
begge
beginn
beginnd
beginne
beginnend
begonne
begrawe
begrenzd
begrenzt
begriff
begriffe
begru
beha
behalten
behavior
behavioral
beherde
beherrscht
behren
bei
beide
beim
being
beischbiel
beischbiele
beischpiel
beispiel
beitra
beitrag
beka
bekannd
bekannde
bekanndeschde
bekannt
bekonnd
bekonnde
bel
beleed
belesch
belfort
belgisch
belgische
belgje
beliebd
belief
beliefs
bellefosse
bellemagny
bellschde
belmont
belsem
ben
bena
benachbarde
benannt
benitzt
bennett
benochbade
bensem
bensemer
benudzd
benutze
benutzt
benz
ber
beraids
beraisch
berch
berchfried
berchrigge
berchzawwere
bereisch
bereische
berfelle
berg
berge
bergschdrooß
bergstraße
bergstrooß
bericht
beriemd
berischd
berjermeischder
berlin
berliner
berling
bermesens
bermont
bermuda
bern
bernard
bernd
bernha
bernhard
bernhardt
bersch
berschborre
bersetzt
bersetzung
bersetzungen
bersing
bersviller
bertrand
bertrange
beru
beruf
berufe
berviller
berwartschda
berwartstein
besadzungszon
besakih
besch
bescha
beschd
beschda
beschde
beschdehd
beschdehe
beschdeht
beschdimmd
beschdonn
beschelbrunn
beschra
beschreibung
beschreiwung
beschriwwe
besedzd
besetzt
besidz
besiedeld
besiedelde
besiedelt
besiedlung
besitz
besitzer
besonders
besonners
besonnerschd
bessa
bessare
besser
bessere
bessoncourt
best
bestehd
besteht
bester
besucht
beta
bethonvilliers
betra
betrieb
betriebssu
betriwwe
bettborn
better
betting
bettviller
between
betze
beux
bevelgarung
bevelgarungsdischd
bevelgerung
bevelkerung
bevelkerungsdischd
bevo
bevor
bevora
bewa
bewachse
bewalded
bewohnd
bewohner
bey
beyren
beza
bezahle
bezaichned
bezaichnet
bezaischnd
bezaischned
bezaischnung
bezeichnet
beziehe
bezieht
beziehung
beziehunge
beziehungsweis
bezirg
bezirge
bezirk
bezirksa
bezirksverband
bezuch
bf
bgriff
bi
biachama
bias
biascha
biases
bibiche
bibliographie
bibliothek
bibliotheken
biden
biding
bied
biede
bielefeld
biene
bier
bierthel
biese
big
bihl
biiwl
bilanz
bild
bilda
bilde
bilder
bildern
bildhauwa
bildt
bildung
billione
bin
bindnis
bing
binge
bingen
bining
binsfeld
biografie
biographie
biologische
bioncourt
bionville
biospha
bip
bircher
birgamaischda
birkert
birscha
bis
bisch
bischa
bischarai
bischd
bischdimma
bischdum
bische
bischeef
bischef
bischer
bischese
bischo
bischof
bischoff
bischt
bischuf
bisher
bisherische
bismaak
biss
bisse
bissel
bisses
bissje
bissl
bist
bisten
bistum
bitche
bitsch
bitschwiller
bitte
biwwels
bizing
bißje
bla
bladd
blads
bladz
blaibd
blaise
blaiwe
blake
blancherupt
blange
blank
blasonierung
blatz
blau
bledsinn
bleed
bleede
bleibt
bleiwe
blick
bliede
bliehe
blies
bliesbruck
bligg
blimcheskaffee
blind
blindhaid
blindness
bliwwe
blodelse
blog
blogs
blohze
blond
blonse
bloo
bloomaulorde
bloos
blooß
blos
bloss
blouß
bloß
blues
blumeschda
blumme
blummeaade
blummepeder
blut
bnudzd
bnuzd
bo
bobby
bock
bockrem
bod
bodde
bode
body
bogal
bohhof
bohne
bohnekraud
bohnekraut
bohnenkraut
boialwe
boiama
boiema
boim
boinderschem
boing
bois
bojalwe
bojama
bolesław
bolidig
bolidiger
bolidigg
bolidigga
bolidisch
bolidische
bolitiker
bolivje
bollheimer
bollwiller
bombe
bonhomme
bonn
bood
boode
boofze
book
books
boron
bosselshu
bossue
boston
botans
both
bots
boucheporn
boulageois
boulange
boulay
bourg
bourgaltroff
bourgogne
bourogne
bourscheid
bousbach
bousse
bousseviller
boust
boustroff
bouzonville
bouzonvillois
bra
braach
braaremisch
braiba
braid
braide
brain
brand
brandebursch
brasil
brasilja
brasilje
bratislava
bratte
brauch
brauchd
brauche
brauchen
braucht
braun
braunschweig
braut
brav
brd
bre
brebotte
breidenbach
breis
breistroff
breit
breitenau
breitenbach
brema
bremen
brenne
brennt
brentano
bresidend
bresidenschafd
bretagne
brettnach
brezlfeschd
bri
brid
bridde
briddische
bride
bridische
brieder
brief
briefe
brieh
brigg
brigge
brigger
brigitte
brihl
bring
bringd
bringe
bringen
bringt
briq
brisa
brisach
brisch
britannica
bro
brobagonda
broblem
brochd
brockhaus
brod
brodugd
brogramm
brombach
brombachtal
bromisch
bromischdal
brond
bronvaux
bronze
broque
brot
brouderdorff
brown
brozend
brozess
bru
bruce
bruch
bruche
bruchhof
bruckedswiller
bruda
bruder
bruhra
brumbach
brunn
brunne
brunneregion
bruno
brunscht
brurer
bruschd
brusel
bscha
bschda
bschdehd
bschdehe
bschdeht
bschdeje
bschdimmd
bschdimmde
bschdimme
bschefdischde
bscher
bschlosse
bschriwwe
bse
bsedzd
bsidz
bsiedeld
bsiedelde
bsiedld
bsitz
bsondas
bsuchd
bsunna
bsunnas
bsunnaschd
bsunnaschda
bsunners
bsunnerschd
bt
bts
bu
buc
buch
buche
buchschdawe
buchsweiler
buchy
buckelquader
buding
bueno
buggl
buhl
bulgarie
bulgarien
bull
bulletin
bulwersche
bunaken
bund
bundahl
bundes
bundesamt
bundeslicha
bundesliga
bundeslond
bundesrepublik
bundesschdaad
bundsandschda
bunna
bunnesla
bunnesschdaad
bunnesschdaade
buntsandschda
buntsondschda
bur
burba
burch
burcha
burche
burchegrupp
burchfelse
burchruin
burg
burgalben
burge
burgen
burgenlexikon
burgenparadies
burger
burgund
bursch
bursche
busch
buschdawe
business
buss
but
buu
buuch
buwe
buxwiller
bvelgarung
by
bzaischned
bzaischnung
bzw
c
ca
cable
california
cambridge
campaign
camps
can
candidate
canner
canton
cappel
captandum
cardamine
carl
carling
carol
carolina
caroline
carota
case
caspary
cassini
catherine
cattenom
caucasian
cc
cd
cdu
cent
center
central
centre
century
cernay
ceylan
ch
cha
chailly
chako
chambrey
change
chaplin
charles
charlotte
charly
charmois
chaussy
chaux
chavanatte
chavannes
chazelles
chba
chbagmainde
chd
chda
chde
che
chebrunn
cheerleader
chef
chelba
chelbe
chemin
cheminot
chems
chen
chene
chennutzungsplan
cher
chi
chicago
chicourt
chieulles
chile
chilenische
china
chlich
chlisch
choice
choices
chor
chr
chris
chrischde
chrischdedum
chrischdi
chrischdian
chrischdlische
chrischdus
christian
christine
christoph
christophe
christus
chronica
chronik
chs
chse
chst
cht
chte
chtelse
chy
chzall
cid
city
civitas
ck
cke
cken
cker
ckert
ckwiller
claims
class
classical
claude
claus
clause
cle
clemens
cleuves
climate
clinton
clouange
club
cm
cnn
co
cobra
cocheren
code
codex
cognition
cognitive
cohen
coin
coincy
cole
colligny
colmar
colmen
colmer
colroy
com
comedyanten
committee
common
commons
communaute
commune
communes
communication
company
compjuder
complete
computer
comte
comtois
concepcio
conceptual
conde
conference
confluences
conrad
consensus
conserva
conservatism
conspiracy
constant
consumer
contemporary
conthil
control
conway
cook
copi
corny
corporate
cosme
coteaux
coume
country
courcelles
court
courtavon
courtelevant
covid
craincourt
cranes
cravanche
cre
creutzwald
critical
croix
cuculi
cunelie
curitiba
curtis
cuvry
d
da
daa
daach
daade
daag
daagschdellt
daal
daaschberg
dabbisch
dabei
dabo
dach
dadei
dafir
dafu
dag
dagege
dageje
dahl
dahn
dahner
dai
daidlisch
daidsch
daidscha
daidsche
daidschi
daidschlond
dail
daile
daintree
daisch
daischte
daisem
daits
daitsch
daitscha
daitsche
daitscher
daitsches
daitschi
daitschla
daitschland
daitschlond
daiwel
dal
dalem
dali
dalstein
damals
dambach
damid
damit
dammschdadt
dammstadt
dan
dance
danewe
dange
dangerous
daniel
daniela
danielle
danjoutin
dann
danne
dannefels
danoch
danooch
dar
dard
darf
darin
dark
darm
darmschdadt
darmstadt
darschdelle
das
dass
dassa
dassde
dasse
dassene
dasses
dassma
dat
data
database
date
datei
daten
daucht
dauer
dausend
dausende
david
davis
davu
davuu
dazu
dazukumme
dazwische
daß
daßa
daßes
daßs
daßsa
daßse
dchen
dd
dda
dde
dder
ddisch
ddl
ddr
dds
ddschafd
de
dea
debadde
debai
debate
debating
debei
debus
december
deception
decision
decisions
decker
ded
deden
dedn
dee
deed
deede
deel
deeld
deele
deer
deet
defense
defia
definiert
definition
definizion
defir
defu
degohl
deha
dehinna
dehn
dei
deidsche
deil
deile
deils
deitlich
deitsch
deitsche
deitscher
deitschla
deitschland
deitschlond
del
delle
delme
delse
dem
demag
demid
demit
demm
democracy
demogradie
demokradische
demokratie
den
dene
denen
deng
dengd
denge
denglisch
dengmol
denis
denk
denke
denken
denkmalpflege
denkmol
denkmolschudz
denn
denne
denney
deno
denoch
denoh
denoo
denting
departement
department
der
deranze
derbrunn
derburba
derburnhaipt
derch
derching
dere
derf
derfe
derfel
derfer
dergem
derha
derherge
derkem
derkemer
derkm
derla
dermodere
dermorschwi
dermschda
dern
dernahn
derraischbe
derre
derrebach
derreddere
derstanbach
dersulzba
dertro
derzaid
des
deschdniskea
desdeweje
desdewesche
desdo
deshalb
design
desinformation
desmol
dess
dessau
desse
dessen
deswa
desweege
desweesche
deswege
desweje
deswesche
det
dettwiller
deutsch
deutsche
deutschen
deutscher
deutsches
deutschland
deutschlandfunk
deutschlands
deux
development
devoa
devu
devun
devuu
dez
dezemba
dezember
dezu
dezukumme
dezuu
dezwische
dfb
dfg
dhessisches
dhu
di
diagonisse
dialegd
dialegde
dialeggd
dialeggde
dialekt
dialekte
dialektik
diane
dibborg
dich
dicht
dick
dicke
dictator
dictionary
dictionnaire
did
didena
didier
didn
die
diedesfeld
dief
diefe
diefeba
diefebach
diefewene
dieffenbach
diefma
diefschde
diele
diene
dienschd
dient
dier
diere
diese
diesen
dieser
dieses
dieter
dietrich
dietwiller
dieuze
diffembach
diger
diggdadur
digital
digitale
digitales
digitalisat
dii
dilemma
dilibri
dilje
dimin
ding
dinge
dingler
dinglerwerke
dingmert
dinn
dinne
dinotherium
dio
diphtongierung
dir
diregd
diregde
direggd
direggde
direkt
disch
dischd
dischder
dische
discht
disgust
disinformation
diskussion
diskutiert
displaystyle
disseldorf
dissertation
dissonance
dissonanz
district
distroff
dition
dits
diverse
dizier
dl
dliche
dmc
dnoch
do
doad
doaf
doan
doann
dobai
dobelli
doch
dochda
dochder
dochter
dod
dode
dodebai
dodebei
dodefa
dodefer
dodefier
dodefir
dodefor
dodefu
dodemid
dodemit
dodeno
dodenoch
dodevor
dodevu
dodevun
dodezu
dodmid
dodmidd
dodorch
dodorsch
dodraus
dodriwwa
dodro
dodruff
dodruffhie
dodrum
dodursch
dodvoa
dodvu
dodzu
doe
does
dogumend
doh
dohea
doher
dohie
doi
dokter
dokumentation
doll
dollar
doller
dollere
dom
doma
dome
domes
domid
domidd
domidse
dominique
domit
domolische
domols
don
donald
donau
dong
donn
donoch
doo
dood
doode
door
dor
dora
dorans
dorch
dorchs
dord
dordische
dordrecht
dore
dorf
dors
dorsch
dorschflosse
dorschs
dorschsedze
dort
dorunna
dos
dossene
dossenheim
doubt
douglas
dovun
doß
doßa
doßde
doßs
doßse
dpfalz
dq
dr
dra
draache
drache
drachefels
draditionell
dradizion
drai
draiegg
draifaldischkaidskea
draila
draiwe
draißischja
draus
dreck
dreesde
dreffe
dreht
drei
dreieck
dreißischja
drennd
drenne
dresde
drew
dria
dridd
dridde
driddel
driddgreeschd
driddl
driemba
drimba
drin
dring
drinn
dritt
dritte
driwwa
driwwe
driwwer
dro
drobena
drodzda
drodzdem
drohd
droht
drubbe
druchschluss
druck
druf
druff
drugg
druli
drum
drumerum
drumm
drumrum
druppe
ds
dsch
dt
dte
dter
dtische
du
dua
duajsch
duajschmesser
duasch
duaschde
dub
dubbeglas
duch
dud
dudd
duddwailer
duden
dudenho
duds
due
duhn
duht
dum
dumboch
dumm
dummgaade
dummherr
dummschissel
dun
dunggle
dunk
dunkel
dunkle
dunnersbersch
dunnersberschkra
dunnerschbergkra
dunning
durch
dursch
durschs
dut
duts
duud
duuda
duun
dvu
dwds
dwest
dynamikum
dz
dzd
dze
dzu
dzung
e
ea
eabfolschegriesch
ead
eafolsch
eainnad
ean
eanaijad
earefriedhof
easch
easchd
easchda
easchde
easchmol
easchte
easedzd
east
eawaidad
eaweend
ebbes
eberbach
eberhard
ebersing
ebi
ebook
ech
echelscha
echo
economic
economics
ed
edekowe
ederbi
edesem
edition
edlische
edsma
edu
eduard
education
edwa
edward
ee
eefach
eel
eem
een
eena
eener
eeni
eens
eerscht
eerstain
eestraisch
eestreich
efa
efach
efacha
efache
efangelisch
efdas
effect
effects
effegd
effeggd
effekt
effekte
effendlisch
effendlische
effendlischkaid
effiziendare
effizienzschdaischarung
egal
egg
egli
egschdra
eguenigue
eh
ehema
ehemalichi
ehemalisch
ehemalische
ehemolisch
ehemolische
eher
ehess
ehnedd
ehr
ehre
ehreamdlische
ehreamtliche
ehrenamdlische
ehrfurschd
ehrn
ei
eich
eichborn
eichentlich
eier
eigene
eigentlich
ein
eincheville
eine
einem
einen
einer
eines
einfu
einische
einst
eintrag
einwohner
eiroba
eiropa
eis
eischene
eise
eiwohna
eiwohner
eiwuhner
eja
ejemolisch
ejemolische
eldare
eldere
eldschd
election
elefand
elemend
elemende
elena
elf
elisabeth
elizabeth
ellebach
elliot
elri
elsa
elsass
elsaß
else
elsenz
elwe
elwedridschle
elwedritsche
em
eme
emil
emily
emli
emm
emma
emmanuel
emme
emodzionel
emol
emotional
empfunne
empirische
ems
emschwi
en
enagie
enaus
enchenberg
encyclopedia
end
ende
enderle
endgildisch
endhalde
endla
endlong
endschaidung
endschaidunge
endschdanne
endschdonne
endwedda
endwiggeld
endwiggld
endwigglung
ene
ener
enere
enerer
energy
eng
engadin
engebach
engel
engelmann
engl
engla
england
englisch
englische
english
englond
eni
enn
enne
enner
ennere
ennery
ennre
ennrer
enoi
entdeckt
entfernt
entfernung
entha
enthalde
entschdanne
entschdonn
entscheidungen
entschtanne
entschtonn
entstanne
entstehung
entweder
entwickelt
entwicklung
enuf
enunna
environs
enzyklopa
epfenbach
epflbach
epidemiology
episode
epling
eppelsheim
equus
er
eraignis
eraigniss
eraus
erb
erbach
erbaud
erbaut
erbe
erbfolchekriech
erbfolgekriech
erching
erd
erdeel
erdo
ere
ereffned
erer
erfi
erfolch
erfolg
erfolsch
erfolschraisch
erforschd
erforschung
erfunne
erga
ergebbd
ergebnis
ergebniss
ergebnisse
ergewnis
ergewnisvazerrung
ergewwe
ergla
erhal
erhalde
erhaldene
erhall
erhalte
eric
erich
erik
erinnare
erinnarung
erinnarunge
erinnert
erinnerung
eristische
erkenne
erkla
erla
erlebach
ermi
ermorded
ern
erna
ernannd
ernannt
ernde
ernestviller
ernolsheim
ernst
ero
eroberung
erraischd
erraische
errbach
erreiche
erreicht
erreische
errichd
error
ers
ersch
erschd
erschda
erschde
erschdemol
erschder
erschdes
erschdi
erschdmol
erschdmols
erschdreggd
ersche
erscheint
erschiene
erscht
erschte
erschtmols
ersetzt
erst
erste
erstein
ersten
erum
erwa
erwachsene
erwed
erwede
erweiderde
erwin
erza
erzbischdum
erzbischof
es
esch
eschbach
eschbe
eschde
eschdlich
eschdliche
eschdlisch
eschdlische
eschdreisch
eschelbronn
eschelbrunner
escherange
eschlbrunn
eschtringe
eschwiller
esdlisch
esdlische
ese
esel
esperanto
ess
esse
essen
essert
essisch
est
estas
et
etc
eteimbes
eth
ethwiller
etienne
etliche
etlische
etting
etwa
etwas
eu
euch
eugen
eur
euro
euroba
eurome
europa
europe
european
eva
evaluation
evangelisch
evangelische
even
events
evidence
evolution
evongelischi
ewe
ewefalls
ewene
ewerburnhaipt
ewernahn
eweso
ewwerbach
ewwerdsem
ewwerhard
ex
exe
exemplare
exischdiere
exischdiert
existiert
exklav
experimend
experiment
experimental
export
exposure
extra
ey
f
fa
faab
faawe
fabien
fabrice
fabrigg
fabrigge
facebook
faces
fach
fachbereich
fachhochschul
fact
facts
fade
fadie
fagde
faggde
fahre
fahrn
fahrt
fahrwa
faia
faier
faierra
faierrad
faija
faijabachhaus
faind
fake
fakten
falbe
falck
faldki
falkeburch
fall
fallacies
fallacious
fallacy
falle
falleri
fallt
falsch
falsche
false
falsification
fameck
familie
familien
familije
familje
fan
fang
fange
fangs
fangt
far
farb
farenzvafelschung
farr
farschviller
farwe
fas
fasch
faschd
fascht
fasnacht
fasnachtsfaier
fasse
fassenachd
fassene
fassung
fast
faulquemont
fauna
faverois
fc
fck
fd
fde
fdische
fdp
fe
fea
feadisch
fear
februa
februar
february
fedd
federadsionskra
feelschluss
feeslis
fehischkaide
fehla
fehle
fehler
fehlschluss
fehlt
fehrbach
feier
feiert
feierwehr
feld
felder
feldkamp
fell
felon
fels
felse
felseburch
felseland
felselond
felsenburgen
fensch
fenschder
fer
ferderung
ferdinand
ferdisch
ferije
fernand
fernau
fernseh
fernsehfilm
fernsehserie
ferr
fers
ferschdedu
ferschdedum
ferschder
ferus
feschd
feschda
feschde
feschdlond
feschdung
fescht
fest
festinger
festschrift
feuer
feuerbach
feuerbachpark
feuerrad
feuerwehr
ff
ffd
ffe
ffelfalde
ffene
ffer
ffesta
ffh
ffholz
ffoffe
fi
fia
fiad
fiare
fiehrd
fiehre
fiehrt
fiel
field
fiele
fier
fierd
fiere
fieß
figur
figure
fihre
files
fille
film
filme
filosofie
fimf
fimpf
fin
finale
financial
find
findet
findt
finf
finlond
finn
finne
finnisch
finnische
finocchiaro
finonzielle
fir
firma
firme
first
fis
fisch
fischbach
fischer
fischmaagd
fitness
fitzroy
fixem
fla
flaaschblumm
flach
flache
flagg
flasch
flasche
flassbeck
fld
fle
fleckeschda
fleisheim
fleming
flesch
flesche
fleury
flieder
fliegenden
fliehe
fliescha
flieschel
fliesst
fließd
fließe
fließend
fließt
fliss
flo
flocourt
flora
florange
florimont
flu
fluchblatz
flug
flugzaisch
fluss
fluud
flying
fo
foam
fodos
fohr
foi
folche
folchende
folge
folgen
folgende
folgendes
folgeschburg
folsch
folscha
folschd
folsche
folschende
fomo
fong
fongd
fontaine
fontenelle
fontoy
food
for
forbach
force
fore
forest
forges
form
formal
forme
formel
forscha
forschd
forschdwa
forschung
forst
forster
fort
fortschwihr
forum
fosche
fossieux
fotos
fouday
foulcrey
fouligny
foundation
foussemagne
foville
fr
fra
fraa
fraae
frai
fraiburch
fraidaach
fraie
fraihaid
fraii
fraiji
frais
fraischdaad
framing
franc
francaltroff
france
franche
francis
francisco
franck
frangford
frank
franke
frankeschda
frankfurt
frankraich
frankreich
franz
franzeesisch
franzeesische
franzesisch
franzesische
franzo
franzoose
franzose
fraquelfing
frau
fraue
frauenberg
frauwe
fre
free
frehnige
frei
freibad
freiburg
freie
freien
freier
freiherr
freistroff
freiwillisch
frelsem
fremde
frequency
fresge
freund
freunde
frey
freybouse
freyming
fri
fria
fribourg
friddrichsfeld
friede
friedel
frieden
friedhof
friedhofsgraiz
friedhofskabell
friedl
friedrich
friedrisch
frieer
frieh
friehe
frieher
friehere
friehjohr
frieja
friejohr
frier
friere
fries
friese
friher
frija
frijare
frije
frisch
frischde
frisea
fritz
fro
froch
froche
frohmi
froidefontaine
from
frong
fronge
frongedahl
frongford
frongraisch
fronkreich
fronsesische
frontcover
frontie
fronzeesisch
fronzeesische
fronzesisch
fronzesische
fronzoose
fronzose
frooch
frooche
fru
fruucht
frz
ft
fte
fu
fuchzeh
fuchzisch
fuerboch
fum
fun
fund
fundament
fundamentalisten
funde
fung
funk
funn
funne
fusion
fusioniert
fuss
future
fuß
fußball
fußgennem
fwg
g
ga
gaa
gaade
gaaned
gaarbuerj
gaawe
gab
gabler
gabriel
gabs
gadde
gaddung
gaiberg
gail
gaishu
gaispi
gaiwene
galileo
games
gandrange
ganedd
gang
gange
gangga
ganglie
ganix
ganse
ganz
ganze
gar
garaasch
garagen
gare
garnison
garnix
garten
gary
gas
gaschd
gasse
gaston
gaul
gavena
gawe
gawerschwihr
gawiller
gbaide
gbaud
gbied
gbliwwe
gbrochd
gd
gde
gdroffe
ge
gea
gean
geb
geba
gebabbeld
gebaide
gebannte
gebaud
gebaut
gebb
gebbd
gebbds
gebbt
gebbts
gebd
gebds
gebied
gebiede
gebiedsreform
gebiet
gebiete
gebild
gebirge
geblib
geblibb
gebliewe
gebliwwe
geboode
geboore
gebore
gebr
gebra
gebraachd
gebracht
gebrauchd
gebraucht
gebroch
gebrochd
gebroche
gebrocht
gebrung
gebt
gebts
gebunne
geche
gechend
gechesatz
geda
gedauad
gedauert
gedder
gedengd
gedenkdafel
gedenkt
gedichte
gediend
gedient
gedischd
gedischde
gedischt
gedoffel
gedra
gedrennd
gee
geed
geede
geeje
geele
geema
geerscht
gefa
gefahr
gefall
gefeiert
gefiehrt
gefillt
gefong
gefunn
gege
gegeiwwer
gegen
gegend
geghert
gegliedert
gegner
gegrind
gegrinded
gegrindede
gegrindet
gegrindt
gegru
geguggt
geh
geha
gehadd
gehall
gehat
gehatt
gehd
gehds
gehe
geheerd
geheere
geheert
geheimnisse
gehen
gehere
gehert
gehn
gehne
geho
geht
gehts
geiger
geisswa
geje
gejeiwwa
gejen
gejend
gejeschda
geka
gekaafd
gekennd
gekennt
gekoschd
gela
geld
gelde
gelebd
gelebt
gelege
gelegt
geleje
gelernt
geleschd
gell
geloff
geloss
gelossd
geloßd
gelse
gelung
gelunge
gelurt
gema
gemaagung
gemaagungsfla
gemach
gemachd
gemacht
gemaind
gemainde
gemainderad
gemajkung
gemakung
gemargung
gemarkung
gemeind
gemeinde
gemeinden
gemeinderat
gemeindereform
gemeld
gemesse
gemies
gemißd
gemoinde
gemu
gen
gena
genannd
genannt
genaral
genau
genaue
genauso
genennd
genennt
general
genonnt
gensedreggsee
gentium
genuch
genudzt
genumm
genumme
genutzt
geo
geografisch
geographic
geographie
geographisch
geography
geologie
geologische
geometrie
georg
george
georges
georgia
georgian
georgie
gepra
gequellde
ger
gera
gerbe
gerd
geredd
geredt
gerhard
gering
geringe
gerischd
germa
germain
german
germane
germanische
germany
germersche
gern
gernot
gerolsem
gerschbach
gertwiller
gesa
gesaat
gesamtgemeinde
gescha
geschaffd
geschafft
geschbielt
geschd
geschdonn
geschdorb
gesche
geschede
geschedeel
geschend
gescheniwwa
geschesadz
geschesaid
geschichd
geschicht
geschichte
geschichten
geschichtliche
geschitzt
geschlecht
geschlosse
geschmack
geschna
geschnd
geschribb
geschriwwe
geschwa
gesellschaft
gesetz
gesieh
gess
gesse
gesteine
gesunge
getra
gewa
gewe
geween
geweiht
gewelld
gewesd
gewese
gewessd
gewesse
gewest
gewinne
gewisse
gewo
gewohnt
geworn
geworre
gewuhnt
gewunn
gewunne
gewwe
gewwen
geza
gezaischd
gezindt
gezo
gezoche
gezoge
gfa
gfahre
gfaiad
gfaijad
gfalle
gfange
gfangene
gfeadad
gfehla
gfehld
gfeiert
gfiad
gfiehl
gfiehld
gfilld
gflohe
gflosse
gfonge
gfrochd
gfu
gfunne
gg
gge
gger
gglisch
ggschde
gha
ghaaße
ghabd
ghabt
ghad
ghaiad
ghaid
ghalde
ghat
ghatt
ghead
gheare
gheat
ghed
gheerd
gheere
gheert
gherd
ghere
gheren
ghert
ghet
gho
gholfe
gi
gibbd
gibbds
gibd
gibds
gibfel
gibfl
gibt
gibts
giddarischde
gilbert
gild
gildisch
gilles
gilt
gimmeldinge
gimnasijum
gimnasjum
ging
gings
ginschdisch
gion
gippert
giromagny
givrycourt
gla
glaa
glaabd
glaabe
glaawe
glaawen
glai
glaich
glaiche
glaisch
glaische
glaischzaidisch
glaiwische
glan
glas
glasenberg
glashitt
glauwe
glawe
glawen
gleene
glehd
glei
gleich
gleischzeidisch
gleje
glencore
gleschda
glich
gliche
glick
gliederung
glisch
glise
global
globale
gloschda
gloschder
glu
gluck
gma
gmachd
gmacht
gmaind
gmainde
gmbh
gmeind
gmeiner
gmies
gmoind
gmol
gnade
gnannd
gnau
gnd
gnennt
gniff
gnu
gnuch
gnudzd
gnumme
go
goans
goch
god
godd
goddes
goddesdienschd
godisch
godische
goethe
goetzenbruck
goin
golba
gold
golde
goldene
goldener
goldne
golf
gondrom
gong
gonge
gons
gonse
gonz
gonze
gonzes
gonzi
good
google
gorze
gosse
gott
gottfried
gottlieb
gouv
gra
graad
graaichgau
graawe
grab
grabschda
grad
grade
graf
grafd
grafe
grafeda
grafendahn
graff
graffenried
grafschafd
grafschaft
graifswald
grais
graisreform
graisschdad
graiz
graizung
gramm
grand
grande
grands
grandvillars
granid
granit
gras
grasse
grathoff
grau
gravelotte
grawb
grawe
gre
great
greegschd
greeschd
greeschde
greescht
greewa
greeß
greeßa
greeßare
greeßer
greeßere
gregor
gregschde
greifswald
grein
greiner
grenadiere
grens
grenz
grenzd
grenze
grenzende
grenzt
greschde
greß
greßer
greßere
gribbda
gridisch
griech
griechisch
gried
griehd
grien
griene
grienschdadd
grienschdadt
gries
griesch
griesche
grieschisch
grieschische
griese
griesheim
grieweworschd
griff
griffe
griggt
grigt
grimm
grin
grind
grinde
grinder
grindorff
grindung
grinnschdadt
grischbe
grischd
grischdedum
grischdus
gro
grong
gronig
grooß
grooße
grooßi
gros
grosbliederstroff
grosmagny
grosne
gross
grosse
grostenquin
group
grouße
groußes
groß
großbridannje
große
großen
großer
großes
großherzogtum
großi
großschda
gru
grub
grubb
grubbe
grumbeere
grund
grundsa
grundschda
grundschul
grundschule
grundviller
grupp
gruppe
gruuße
gruyter
gruß
gruße
grußi
gsa
gsaad
gsaat
gsachd
gsamde
gsangbicha
gsangbuch
gscha
gschafd
gschaffd
gschaffe
gschafft
gschaidad
gschberrd
gschbield
gschbra
gschbroche
gschd
gschda
gschdald
gschdanne
gschde
gschdeggd
gschdein
gschdeine
gschdelld
gschderf
gschdoawe
gschdonne
gschdorf
gschdorwe
gschefd
gschehe
gscheje
gschengd
gschichd
gschicht
gschidzd
gschiggd
gschischd
gschischde
gschischt
gschlosse
gschpielt
gschriwwa
gschriwwe
gschwa
gsedz
gsedzd
gsedze
gsehe
gseje
gsellschafd
gsellschafdlische
gsiedeld
gsien
gsischad
gsunde
gsundhaid
gsunge
gt
gu
guardian
guck
gud
gude
gudi
gue
guebenhouse
guebwiller
guelshardt
guersviller
guerting
gugg
guggd
gugge
guggschd
guggt
guggug
gugschd
guide
guinzeling
gulde
gummerschdorf
gundersheim
gungelse
gungwiller
gunnerschem
gunschtett
guntzviller
guschdav
gut
gute
guth
guud
guude
guudes
guudi
guverna
guy
gwa
gwaihd
gweahaus
gwehlt
gwesd
gwese
gwessd
gwesst
gwest
gwonne
gworre
gwunne
gymnasie
gymnasium
gymnasiums
gypte
gzaischd
h
ha
haabdsa
haad
haafe
haardt
haas
haast
hab
habd
habe
habekost
haben
habsburger
habsbursch
habsburscha
habt
had
hadberg
hadd
hadde
hadderod
haffmans
hagen
hagenau
hagene
hagondange
haguenau
hai
haid
haide
haidedirml
haidelsbursch
haidige
haidisch
haidische
haidlba
haidlberg
haidsche
haidwi
haidzudaach
haifisch
hailbronn
hailisch
hailische
hailsche
haimersdorf
hain
hainrisch
hairad
hairade
haisa
haise
haiser
hait
haitre
haiwi
haiß
haiße
hal
halb
halbinsel
hald
halde
halfra
hall
halle
hallebad
halo
halpern
halt
halwa
halwe
halwer
ham
hambach
hambacha
hambacher
hamblin
hamburch
hamburg
han
hanau
hand
handbook
handbuch
handicapping
hang
hange
hann
hannes
hanni
hannover
hans
hanse
hansen
hanser
hanviller
harald
hard
hardt
hargarten
harold
harprich
harrsch
harry
hartmann
hartmut
harvard
has
haspelschiedt
hass
hat
hats
hatt
hatte
hatten
hatter
haubd
haubdord
haubdsa
haubdschdadd
haubdschdadt
haubdschdrooß
haubdsidz
haubdung
haubdunge
hauconcourt
hauenstein
haufe
hauptauslescher
hauptsa
hauptschdadt
hauptschtadt
hauptstadt
haus
hause
hausmacher
haut
haute
hautfliggler
havange
have
hawe
hawen
haww
hawwe
hawwen
hawwense
hawwn
hayange
hayes
haß
haßloch
haßlocher
hd
he
hea
heag
health
heare
heazoch
hebra
hechler
hechsd
hecke
hed
hedd
hedden
heddesbach
hee
heeaschbiel
heeb
heef
heegschde
heeh
heene
heer
heerd
heere
heert
heesd
heesds
heese
heest
heeßd
heeße
heeßt
heeßts
heft
hegda
hegdaa
heggdar
heggschd
heggschde
hegschd
hegschde
hegscht
heh
heha
hehe
heher
hehere
hehl
heid
heidelberg
heidelberger
heidelberjer
heidiche
heidisch
heidische
heidlberg
heidlberjer
heilikriz
heilische
heim
heimat
heineken
heiner
heinrich
heinz
heiser
heit
heitere
hektar
helfe
helft
hell
helle
hellimer
helmschd
helmut
hemschprung
hemshof
hen
henderson
henn
henri
henridorff
henriville
henry
hense
heppene
her
heracleum
herausgeber
herausrachend
herberger
herbert
herbschd
herd
herdt
here
heren
herero
hergeschdellt
hergschdelld
hergschdellt
herkunfd
hermann
hermerschberch
herodes
herr
herre
herren
herrlese
herrlisheim
herrmann
herrn
herrschafd
herrschaft
herrschd
herrscher
herschdellung
hershey
herve
hervorgange
herxem
herz
herzoch
herzochdum
herzog
hess
hesse
hessen
hessenheim
hessisch
hessische
hessischen
hessisches
hestroff
het
hetschboch
hett
hettange
hetteschla
heuristics
heute
hewwe
hex
hg
hi
hia
hie
hiechllond
hiegschdeld
hier
hilbesheim
hilf
hilfe
hill
hillary
hilsprich
himmel
himml
hin
hindsight
hingelsbix
hinkel
hinna
hinnagrund
hinnare
hinne
hinner
hinnere
hinnerleib
hinnerm
hinnersta
hiroshi
hirsch
hirschhorn
his
hisch
hischdoarische
hischdoarisches
hischdorisch
hischdorische
hischdorisches
hischkaide
hisdorisch
hisdorische
historique
historisch
historische
historischen
historischer
historisches
history
hitler
hitred
hiwwe
hl
hlba
hlbach
hlbi
hld
hlde
hle
hlen
hlisch
hlt
hlung
hlunge
hlwi
hm
hme
hmer
hn
hnd
hnde
hnder
hne
hnel
hner
hnhof
hnlich
hnlisch
hnlische
hnlisches
hnschdens
hnt
hnung
hnunge
ho
hoch
hochalemannisch
hochdaidsch
hochdaitsch
hochdaitsche
hochdeitsch
hochdeitsche
hoche
hochfla
hochgeba
hochi
hochschdifd
hochschul
hochwasser
hockt
hod
hoda
hodd
hodda
hodde
hodder
hoddma
hoddmade
hoddmas
hoddmase
hoddmol
hoddn
hodds
hoddsde
hoddse
hoddsisch
hoddsn
hode
hodm
hodma
hodn
hods
hodse
hof
hoffe
hoffenheim
hoffmann
hogge
hoggemer
hoggene
hohe
hohenstein
hohgeft
hohi
hohl
hohle
hohrod
hoi
hoinrich
hoinrisch
hoit
hol
hole
holla
holland
holler
holling
holschda
holstein
holunder
holving
holz
holzmaagd
hombach
hombourg
homburg
home
homepage
homepeidsch
homer
hominem
hommert
hon
hond
hondel
hondeld
hondl
hondle
hondlunge
hong
honn
hooch
hoor
hopp
hoppe
horn
hornbach
horns
horst
horwrig
hosch
hoschd
hoschde
hoste
hot
hots
hott
hotter
hottviller
houmpa
house
houve
how
hp
hr
hrd
hre
hrend
hrendde
hrer
hrhunnerd
hriche
hrigen
hrisch
hrische
hrisches
hrlich
hrlisch
hrnd
hrr
hrsg
hrt
hrung
hrungsfonds
ht
htm
html
http
https
hu
huber
hubert
hubris
hud
hudson
huffalde
hugo
human
humba
humborch
humborjer
humburg
humor
humoresken
hunawihr
hundsangen
hundsbe
hunnad
hunnerd
hunnert
hunsrick
hunsrigg
hunsriggisch
hunsriggische
hunsrik
hus
huschderheh
hutzel
hutzle
huuscht
hynkel
i
ia
iam
ian
iane
iare
iba
iblumm
ich
id
idalie
idalje
idaljener
idaljenisch
idee
ideschiff
idiotikon
idref
idsch
ie
iebse
iep
iewene
if
ifra
ig
igglem
ignorance
ignorantiam
ignorierd
ignoriere
ih
ihm
ihn
ihne
ihr
ihra
ihre
ihrem
ihren
ihrer
ihrm
ihrn
ihrne
ii
iii
ikea
ilias
illusion
illusions
illusory
ilse
ilwese
im
ima
imma
imme
immer
imne
in
ina
inc
indaned
inde
indem
indema
indernazionale
index
indiana
indie
individual
indogermanische
induschdrialisierung
induschdrie
ine
inem
inflata
influence
info
infoamazione
informadsione
information
informatione
informationen
informazione
informazionssischdem
informaziunssyschdem
informazjone
infrastruktur
ingenieur
ingwiller
inhald
inhalt
inmidde
inn
inna
innahalb
innare
inne
innem
innen
innere
innerhalb
inneschdadt
innwohner
ins
inschrifd
insekde
insekte
insel
inseln
insgsamd
insgsamt
insgsomd
insl
insle
insming
institut
institute
intelligent
international
internationale
internationalen
internet
internetpra
interview
introduction
inwohna
inwohner
inwohnerzahl
inzwische
ios
ip
ipa
iran
irdische
irische
irland
irlond
irschend
irschendwie
irschnd
irving
is
isa
isbn
isch
ischa
ischboch
ischd
ischde
ische
ischer
isches
ischn
ischs
ischse
ischterze
ise
isenach
ises
island
isn
ispi
israel
iss
issa
isse
isser
isses
issn
issue
issues
ist
istanbul
iswiller
it
italie
italien
iteba
its
iv
iwa
iwam
iwe
iwil
iwriche
iwuhner
iwwa
iwwaall
iwwablaibsl
iwwabligg
iwwade
iwwahaubd
iwwam
iwwan
iwwanumm
iwwanumme
iwwarall
iwwarisch
iwwarische
iwwas
iwwazaischd
iwwazaische
iwwazaischung
iwwazaischunge
iwwer
iwweraal
iwwerall
iwwerga
iwwergang
iwwergewwe
iwwergong
iwwerhaupt
iwwerm
iwwernemme
iwwernumm
iwwernumme
iwwers
iwwersedzung
iwwersetzung
iwwerwa
iwwerwald
iwwerwiegend
iwwlisch
ix
iz
ize
iß
j
ja
jaahunad
jaahunnad
jacky
jacob
jacques
jagd
jahhunad
jahr
jahrbuch
jahre
jahres
jahrfeier
jahrhundert
jahrhunderts
jahrhunnerd
jahrhunnert
jahunnad
jakob
james
jan
jana
janua
januar
january
januwa
japan
japon
jazehnde
jazz
je
jean
jeda
jede
jedem
jedenfalls
jeder
jedes
jedi
jedm
jedn
jedoch
jeds
jedz
jedzad
jedzd
jemond
jennifer
jensen
jer
jerusalem
jessica
jesu
jesuidde
jesus
jettinge
jetz
jetzd
jetzert
jetzische
jetzt
jeune
jevons
jewails
jeweils
jezad
jg
jh
jiddisch
jiddische
jidisch
jidische
jiidische
jingare
jinger
jingere
jingschde
jo
joa
joachim
joah
joahunnad
joahunnade
joahunnerd
joar
joare
job
jockgrim
joe
joh
joha
johann
johannes
john
johnson
johonn
johr
johre
johrhunnad
johrhunnat
johrhunnerd
johrhunnerdelong
johrhunnert
jomond
jonas
jonathan
joncherey
jones
jooa
joor
joore
joorhunnad
jose
josef
josefskea
josefskeasch
joseph
josephus
joshua
jost
josua
journal
jouy
jov
joy
jr
jsch
jstor
ju
jubila
juchend
judd
judde
juddehof
jude
judenhof
judgment
judgments
jugend
juli
julien
julius
july
june
jung
junge
jungholz
jungschda
juni
juniore
jupiter
jura
jury
jussy
justin
k
ka
kaad
kaade
kaaf
kaafd
kaafe
kaafen
kaam
kabarett
kabd
kabell
kabutt
kadegorie
kadholisch
kadohlische
kadoligge
kadolisch
kadolische
kadolischi
kafd
kafe
kaffee
kafreidag
kahneman
kairo
kaisa
kaisaraisch
kaiser
kaiserdom
kaiserliche
kaiserschbarig
kaiserslautern
kaiserslautre
kal
kald
kalde
kalhausen
kalifornie
kalk
kall
kallschdadt
kallsruh
kallsruher
kaltblut
kam
kame
kamma
kammer
kampf
kanada
kanal
kandel
kanfen
kann
kannel
kanns
kanton
kap
kapell
kapita
kapitel
kappelkinger
kapsweyer
karangasem
karde
karl
karlbach
karlsruh
karlsruhe
karlsruher
karneval
karoline
karriere
karschbach
karte
kaschdell
kasern
kaserne
kat
katalog
katharina
katholisch
katholische
katholischi
katt
katze
katzenberger
kaukasus
kaum
kaysersberg
kb
ke
kea
keach
kead
keasch
keasche
keddigkeit
kee
keen
keenich
keenig
keenigraisch
keenisch
keenischraisch
kees
keese
keffena
kehrd
kehre
kehrt
kein
keine
kelde
keldisch
keldische
keller
kellerei
kellyanne
keltische
kemal
kemplich
ken
kend
kenich
kenisch
kenn
kennd
kenne
kennen
kenner
kennt
kerb
kerbach
kerch
kerd
keren
kerl
kern
kernel
kerner
kernschdadt
kerrbrich
kersch
kersche
kerwe
keschde
keschdeba
keschdebersch
keschdeweg
kesseldorf
ketsch
ketscha
ketzige
kevin
key
kfz
kg
khad
ki
kiefer
kieffer
kiel
kiene
kiere
kies
killaphrase
killerphrasen
kilomeda
kilomeder
kilometer
kim
kimmd
kimmel
kind
kinder
king
kinna
kinne
kinner
kinnerschul
kinnrem
kinschdla
kinschdler
kiosk
kirch
kirche
kirchen
kirchengeschichte
kirchheim
kirsch
kirschbromisch
kisch
kischd
kla
klaa
klang
klass
klasse
klaus
klee
kleene
klein
kleine
kleines
klenne
kleve
kliewer
klima
klimba
klingmann
kloine
kloppe
kloschda
kloschder
kloster
klotz
klub
km
knabb
knabenkraut
knapp
knehrige
knoche
knode
know
knowledge
ko
koa
koan
koann
koaz
kobb
koblenz
koch
kochd
koche
kocher
kocherbach
kochersberg
kocherthal
kognitive
kognitiven
kohl
kohle
kohlhammer
koi
koischboch
kollerinsel
kolonie
komboniert
komm
komma
komme
kommer
kommerzielle
kommissar
kommission
kommt
kommunalvaband
kommunalwahl
kommunikation
kommwis
komplett
komponje
kond
konde
kondinend
kondroll
kongo
kongress
kongreß
konkordad
konkurrenz
konn
konna
konnd
konnde
konns
konnt
konnte
konrad
konsonande
konzerde
koordinaten
kopp
korb
korke
korregd
korz
korze
koschde
kpd
kra
krabb
krafd
kraft
kraichgau
krais
kraischbach
kraischgau
kraisfraie
kraisfraii
kraiszahl
kraitche
kraiz
kraiznach
krappere
kraus
kraut
kreirisch
kreirischer
kreis
kreisbeschreibung
kreise
kreisen
kreisfreie
kreiz
kreuzfahrt
kridisch
kriech
krieche
kriecht
krieg
krieger
kriegt
krieht
kriesch
kriet
krim
krimi
krimis
kris
krischd
krischdalle
krischdalline
krische
krischen
krit
kro
kroad
kron
krong
kru
kruger
ksc
ku
kuafa
kuapa
kuhunda
kuldur
kuldure
kuldurelle
kultur
kulturdenkma
kulturelles
kumm
kummd
kumme
kummen
kummt
kunschd
kunscht
kunst
kur
kuran
kurfa
kurferschd
kurfu
kurmoinz
kuro
kurosawa
kurpa
kurpalz
kurpfa
kurpfalz
kurs
kurt
kurwu
kurz
kurze
kurzkrimi
kusel
kwa
kz
l
la
laach
laacha
laache
laade
laaf
laafd
laafe
laaft
labaroche
labor
lac
lach
lachambre
lachapelle
lachd
lache
lacollonge
lacs
ladain
ladainisch
ladainische
ladeberg
ladeinisch
ladeinische
laden
lady
lag
lage
lagis
lagrange
laichd
laid
laida
laide
laiderschwiller
laidung
laie
laihd
laije
laimba
laimbach
laininga
laininge
laininger
laischd
laischdung
lait
lamadeleine
lambach
lambadm
lambdazismus
lambrecht
lampedusa
lampertheim
land
landa
landaach
landach
landau
landes
landesamt
landesgschischdliche
landeskunde
landeswahlleiter
landgraf
landgrais
landkra
landkreis
landkreise
landschafde
landschaft
landstuhl
landwa
landwirdschafdlich
landwirtschaft
laneuveville
lang
lange
langebromisch
langer
langi
langsam
languages
lapoutroie
laquenexy
largue
larivie
lasse
lassen
lat
laud
lauda
laude
laudeburich
lauder
laudere
laudre
lauf
laumesfeld
launstroff
laurent
laut
lauter
lautre
lautrer
law
lawrence
layme
lba
lbe
lccn
lch
ld
lda
ldare
lde
lder
ldere
lderschba
ldersche
ldeschde
ldighofe
ldisch
ldnis
ldnisse
ldschd
ldschde
ldstai
ldwi
le
leads
learning
lebd
leben
lebetain
lebt
lech
leda
leder
ledschd
ledschdare
ledschde
lee
leeb
leere
leese
leet
leewe
leeß
leffl
legend
lehe
lehm
lehmann
lehn
lehr
lehrer
leicht
leid
leider
leie
leimbach
leiningen
leipzig
leit
lela
lemba
lemberch
lemberg
lemma
lemud
leng
lengelsheim
lenor
lent
leo
leon
leonard
leopold
lepuix
ler
lern
lerne
lerrer
les
leschd
lesche
leschion
lese
leser
lessy
lestat
lesung
lesunge
letschde
letscht
letzte
letzten
leval
levoncourt
lewe
leweschda
lewwe
lewwer
lewwerworschd
lewwewese
lexikon
ley
lf
lfd
lfde
lfe
lfi
lft
lga
lgelse
lhu
li
liar
liard
library
libschde
libye
licensing
lichd
lichdeschda
licht
lichteberch
lichtenberg
lidaradua
lidda
lideradur
lie
lieb
liebe
liebedswi
liebsderf
liechd
lieche
liecht
lied
lieda
lieder
liederschiedt
liegd
liege
liegt
liehd
lieje
lies
liesch
lieschd
liesche
liescht
lieux
liewe
life
liga
ligd
lige
liggd
ligge
liggt
ligl
ligt
lije
lik
like
limburg
limburgisch
limburgische
limbursch
linaria
linda
lindre
ling
linge
lingefeld
lingge
lings
lingsrhoinisch
linguasphere
linie
linje
link
links
linux
liocourt
lisa
lisch
lischd
lischde
lischdeschdain
lischdjohr
lische
lischt
list
liste
lit
literatur
little
live
lixheim
lixing
lk
lkerung
lkerungsstand
lkwiller
ll
lla
lld
llda
lldegschd
lle
llen
ller
llere
llerschdorf
lleschdorf
llewiller
llfert
llhi
llisch
llki
llt
llzi
lmerschba
ln
lo
loand
lobach
loch
lochwiller
lodringa
lodringe
lodringisch
lodringische
lofeld
logele
logga
logic
logical
logically
logik
logisch
logischa
logische
logo
loh
lohr
lohse
loie
loininge
loire
lokale
lommerange
lomsem
lond
londau
londgra
londgraf
londgrais
londkra
londkrais
londkreis
london
londschafd
londschafde
londschduul
londvogd
londwa
londwerdschafd
long
longe
longeville
longhaus
longi
longsom
lorquin
lorrain
lorraine
lorry
lorsch
lorscher
los
loschd
loss
lossd
losse
lossen
losst
lothar
lothr
lothringe
lothringen
lothringer
lothringisch
lothringisches
louis
loutzviller
louvigny
love
loßd
loßt
lp
ls
lsa
lschesta
lschwi
lse
lsisch
lsische
lstett
lt
lte
lteba
ltena
ltene
ltig
ltki
ltnisse
ltschde
ltwiller
lu
luc
lucas
lucien
lucy
ludda
luddwisch
ludwich
ludwichshafe
ludwig
ludwigshaafe
ludwigshafe
ludwigshafen
ludwisch
lufd
lufdfaischdischkaid
luft
lugsebursch
lui
luise
luitpoldturm
lung
luppy
luther
lutherische
lutran
lutz
lutzelbourg
luxembourg
lußhardt
lying
lyoner
lz
lza
lzawald
lze
lzer
lzerland
lzerwald
lzisch
lzische
lzischen
lzischer
lzisches
lzischi
m
ma
maa
maagd
maagdpladz
maala
mach
machd
mache
machen
macheren
macht
mad
maddemadig
maddin
made
magazin
magazine
magdebursch
magnus
magny
mai
maiene
maikammer
main
maine
mainz
maire
maires
mairie
maischd
maischde
maischdens
maizie
major
majoran
make
makes
making
mal
malche
maler
malroy
malz
man
management
manager
manche
manchmol
mandala
manderen
manfred
mangelnde
manhattan
manipulation
mann
manne
mannem
mannemer
mannheim
mannheimer
mannschafd
mannschaft
manom
mansche
manschmo
many
mar
marange
marau
marburg
marc
marcel
march
marckolsheim
marco
maria
marianne
marie
marine
mario
mark
marketing
markgraf
markgrafschaft
markt
markus
marly
marsal
martin
martine
marx
marxe
mas
maschall
maschd
maschde
maschin
maschine
maschinebau
mass
masse
massisch
massiv
materie
matrial
mattha
matthias
matzera
maua
maudach
mauer
mauern
mauerreschde
maure
maurice
mauwa
max
maxbursch
maxdorf
maximilian
maximilianstraße
maxstadt
may
mayer
maß
mb
mba
mbade
mbse
mcdonald
md
mder
mdlische
me
mea
meahaid
measchd
meat
meckrem
meckse
meckser
med
meda
meder
medersche
media
medie
medien
medije
medizin
medizinische
medropolregion
meds
mee
meeda
meeder
meend
meenen
meent
meenung
meenz
meer
meeresschbiggl
meeresschbischl
meeresspiechel
meeschder
meeschlisch
megglebursch
meglisch
meh
mehr
mehrere
mehrhaid
mehrmols
mehrschd
mehrschde
mei
mein
meine
meiner
meischd
meischde
meischdens
meischdns
meisenthal
melchior
melde
meleboges
melfang
melibocus
melibokus
mellag
melodie
memory
mendale
meng
menge
menoncourt
mensch
mensche
menschen
menschevaschdond
menschlische
ment
mental
mer
mercieca
meri
merian
meriga
merika
merikwiller
mering
merkmole
merlebach
meroux
mers
mersche
merten
mery
merz
merzalwe
merze
meschd
meschlisch
meschlischawais
meschlische
meschlischkaid
meschlischkaide
mesquita
message
messe
messin
mestroff
met
meter
method
methode
methuen
metz
metzeresche
metzervisse
meurthe
mexiko
meyer
meyers
mg
mgv
mhz
mi
mia
mich
michael
michaels
michel
michelbach
mid
mida
midawaider
midd
midda
midde
middebai
middel
middelalda
middelalder
middelalderlische
middem
middl
middla
middlalda
middlare
middle
middlere
middlgebirsche
middlmea
middlmeer
middloiropa
middlpungd
middlschiff
middm
middna
mide
midem
midglied
midglieda
midglieder
midgliedern
midm
midna
miellbeasch
miesebach
mikwe
milde
mildeberg
mildes
milhu
milich
milida
milita
miller
milliarde
millijone
million
millione
millionen
milliune
milljone
milly
milsch
mim
mimling
mimlingdal
mina
minche
mind
minde
minded
mindeschdens
mindung
mineralien
mines
minh
minichhause
minischdapra
minischderpra
minsche
minschmaya
minschner
minschwiller
minudde
minude
minz
minze
mio
mir
mirrem
misch
mische
mischelbach
mischlbach
mischung
miss
misse
missen
missing
missionare
missschda
mit
mitglied
mitglieder
mitm
mitt
mitte
mitteilungen
mittelalta
mittelalter
mittelalters
mittelbronn
mittelrheinische
mittem
mittersheim
mittlere
mixed
mißd
mlich
mlisch
mm
mma
mmd
mme
mmeha
mmenau
mmer
mmerba
mmerki
mmersche
mmerschma
mmlisch
mne
mo
moarids
mob
model
modell
moder
modere
modern
moderne
modor
mogradie
mohr
moi
moin
moinde
moine
moinung
moinz
mol
moler
molla
mollki
molse
molsheim
momend
momerstroff
monad
monaggo
monarchie
monarschie
monche
mond
monday
mondelange
mondorff
mondsee
money
monin
monkey
monn
monnem
monnemer
monneren
monnschafd
monsche
monschmol
monster
monswiller
mont
montagne
montbe
montbouton
montbronn
montenach
montigny
montois
montreux
moore
moos
moosch
moral
moralisch
moralische
mord
mordbra
more
morge
morgen
morgenpost
morhange
moritz
morje
morlautre
morlautrer
morsbach
morsche
morschwi
morschwiller
morvillars
morville
mos
mosbach
moschd
moschellandsba
mose
mosel
moselfra
mosellan
moselle
moslfra
mossbach
mossig
most
motive
mount
mouterhouse
moval
moyenvic
moyeuvre
mpertschloch
mpfd
mpfe
mpfung
mpi
ms
msa
mschdroff
mt
mter
mu
mudda
muddamilich
mudder
mulhouse
mulitimediadataie
muller
multimedia
mund
mundaade
mundaat
mundart
mundarten
mundartgedichte
mundartlideradur
mundschenk
munster
munwiller
munze
murbach
mursel
muschlkalk
musee
museum
museums
museumsbahn
musical
musigg
musik
muss
mussig
mustafa
mutter
mutzig
muß
mußbach
my
n
na
nabf
naboleon
nabor
nach
nachbarschdaade
nachd
nachdem
nachdenkseiten
nachds
nachem
nachrichten
nachrichtliches
nacht
nacional
nadialisch
nadierlich
nadierlisch
nadirlisch
nadler
nadur
nadurpaak
nadurpark
nadurraimlische
nadurschutz
nadzion
nadzionalpaag
nagel
nah
nahe
nahrung
nai
naia
naid
naida
naideschdoi
naidorf
naie
naiginea
naii
naije
naijes
naiji
nailosse
naimaagd
naimiehl
nain
naischd
naischdad
naischdadd
naischdadt
naischdadter
naischen
naizaid
nam
name
nan
nancy
nange
nanni
naomi
napoleon
nare
nassau
nation
national
nationalbibliothek
nationale
nationen
nato
natu
natur
nature
naturpark
naturschutz
nau
nauer
naus
nauseam
navigationsleiste
nawer
nawiller
nazi
nazis
nch
nche
nchen
nchmeyer
nd
nda
nde
nded
ndelse
nden
nder
nderad
nderat
ndet
ndfunk
ndgrais
ndhause
ndig
ndisch
ndische
ndischen
ndla
ndli
ndlo
ndnis
ndre
ndschafd
ndschaft
ndschda
ndser
ndstain
ndt
ndung
ndunge
ndwa
ndwi
ndwiggld
ne
neadlisch
neadlische
neckar
neckarsteinach
ned
nedd
nee
need
needisch
neewe
neffe
negative
negga
neggar
neggara
negger
neggerdal
neggerhause
neggerschda
neggersteinach
negschd
negschde
neh
nei
neiburg
neidorf
neie
neierte
neies
neiffer
neiki
neilosse
nein
neistadt
nej
nem
nemark
nemmd
nemme
nemmen
nemmt
nen
nennd
nenne
nennt
ner
nerat
nerdlich
nerdliche
nerdlisch
nerdlische
nere
nes
nestler
nestroff
net
nett
netz
netzwerk
neu
neuauflage
neuburg
neue
neuen
neuer
neues
neuf
neufchef
neumann
neunkirchen
neustadt
neuviller
never
new
newa
newam
newe
newede
newem
newer
news
newwa
newwer
nf
nfl
nftgreeschte
ng
nga
ngd
nge
ngeldorf
ngeloch
ngelse
ngen
nger
ngerhosle
ngerin
ngerscha
ngersche
ngert
nggisch
nggische
nggri
ngisch
ngische
ngischi
ngischkaid
ngl
nglich
nglisch
ngnis
ngschd
ngschde
ngse
ngt
ngwiller
nha
nheim
nhn
nhof
ni
nicht
nichts
nicolas
nicole
nid
nidasaksa
niderbrucke
niderlauterbach
niderviller
nie
nied
niedala
niedalande
niedalonde
niedaschla
niedaschlaach
nieder
niederbronn
niedermi
niederrhein
niederrhoi
niedersa
niederschla
niederstaibrunn
niederstinzel
niedervisse
niedrischere
niemand
niffer
nig
nige
niger
nigeria
niggolaus
nigreich
nikola
nikolaus
nimmd
nimmer
nimmermehr
nimmi
nimmie
nimmt
ning
nisch
nische
nischer
nit
nitt
nitting
niwwer
nix
nk
nka
nke
nkel
nkhu
nkisch
nkische
nkt
nmattenwag
nn
nna
nnad
nnan
nnare
nnarunge
nnd
nnde
nne
nneki
nnem
nnen
nner
nnerd
nnere
nneregg
nnert
nnes
nni
nnich
nniche
nnisch
nnische
nnischer
nnle
nnlische
nnre
nnrer
nnschafd
nnsche
nnswiller
nnt
no
noad
noade
noadweschdlisch
noame
noch
nochbergema
nochde
nochdem
nochdemm
nochem
nochemol
nochgewiese
nochm
nochn
nochrischde
noda
nodemm
noh
nohm
noi
noisseville
nom
nome
nomen
nomol
noms
non
nond
nonde
nonna
nonnd
nonnde
nonnebach
noo
nooch
nooda
noode
noodem
noohfolcher
noom
noome
noomol
nor
norbert
nord
nordamerika
nordbade
norde
nordesdlische
nordirlond
nordoschde
nordowerdaitsch
nordpa
nordpalz
nordpolarmeer
nordrhoi
nordsee
nordvogesen
nordweschde
nordweschdrusslond
nore
normal
normale
normalerweis
normalnull
normdate
norre
north
northen
norton
norwege
not
nothweiler
nousseviller
nova
nove
novemba
november
novillard
novitatem
now
nowemba
nr
nre
ns
nsch
nschba
nschbe
nschde
nschderf
nschdregg
nsche
nschmol
nschter
nsdap
nse
nsm
nstadt
nsten
nster
nsu
nt
nta
ntel
nter
nther
ntze
nu
nua
nuch
nuchemol
nudelsieb
nudzd
nudze
nudzung
nuff
null
numme
nun
nung
nunna
nunner
nur
nutze
nutzung
nußloch
nversche
nw
ny
nz
nza
nzchi
nze
nzeesisch
nzel
nzelne
nzene
nzer
nzesisch
nzesische
nzigschd
nzisch
nzische
nzne
nzt
nzwiller
o
oa
oad
oade
oadsdeel
oafong
oag
oagfonge
oagriff
oagugge
oalach
oam
oan
oande
oanere
oannare
oaschl
oasischde
ob
obama
obba
ober
oberdorf
obergailbach
oberha
oberhoffen
oberla
oberma
obermi
obermu
oberraischbi
obersept
oberstaibrunn
oberstinzel
obervisse
oberzent
obfa
oblast
obreck
obs
obschd
obse
obwohl
obwohls
occupational
oclc
oda
odda
oddade
oddas
oddaschdadt
odder
oddhainrisch
oddo
odeel
odenwald
odenwaldes
oder
odere
odewa
odewald
odewaldkreis
odile
odium
oehrling
of
ofang
ofd
ofderse
offd
offe
offebach
offemont
offenbach
offene
offesischdlisch
officinalis
offiziell
offizielle
offizielli
offne
offwiller
ofong
oft
og
ogdoba
ogdowa
ogdower
ogebaud
ogeblisch
ogfonge
ogugge
oh
ohne
oi
oidrigg
oidrugg
oifluss
oiflusse
oig
oigema
oigemeindt
oigenumme
oigerischt
oigfiad
oigma
oigong
oigschdelld
oigsedzd
oigsedzt
oigsetzt
oihaid
oinische
oirischdung
oirischdunge
oiro
oiroba
oiropa
ois
oisadz
oischdellung
oischdellunge
oischedzung
oischnierung
oischra
oise
oisedzd
oisedze
oiwannerer
oiwohna
oiwohner
oiwuhner
oiwuhnern
okdower
oktober
old
olifin
olivier
olm
olti
om
omd
omerigo
omerikonische
omt
on
onare
onaschda
onde
ondie
ondword
one
onepage
ong
onglhoofa
ongschd
onlain
online
only
onn
onna
onnan
onnare
onnarem
onnares
onnari
onnaschda
onner
onnere
onnerem
onneres
onneri
onnre
ons
onschdadd
oo
oofang
oofangs
oogfange
oogfonge
ooschte
op
open
operations
or
ora
oradour
orange
orbey
orchis
ord
orde
ordenswald
ordnung
ordsbirgamaischda
ordschafd
ordsda
ordsdail
ordsdeel
ordsgema
ordskern
ordsna
ordsname
oreskes
orewald
org
organe
organisation
organisierd
organization
organizational
orgel
orginal
original
originals
ormersviller
orne
oro
orra
orre
orrer
orschwihr
orschwiller
ort
orte
ortsda
ortsgema
ortsgemeinde
ortslexikon
ortsna
ortsnecknamen
os
osch
oschd
oschdare
oschde
oschdere
oschderhas
oschdersunndag
oschdsee
oschte
oschtfra
osde
oseba
osischde
oskar
osmane
osmanisch
osmanische
ost
ostern
ostfra
oswald
otail
otterschda
ottmersche
otto
ottrott
ou
oudewald
oudrenne
oulewald
our
ourewa
ourewald
ourewaldkreis
out
outcome
outlook
outre
over
owend
owens
owerherge
owermorschwi
owermorschwihr
owerrhaialemannisch
owwa
owwabojama
owwaelsass
owwapalz
owware
owwarhoi
owwe
owwer
owweranze
owwerbrucke
owwerburch
owwerdaitsche
owwere
owwerhalb
owwerlauf
owwerliga
owwerrhoi
owwerrhoiewene
owwerzent
oxford
ozean
p
pa
paa
paag
paakea
paar
pabschd
paddnaschafd
pages
pagesperso
paif
paket
pala
palas
palaschd
palatina
palatinatus
palatine
palatines
palazzo
pals
palz
palzgraf
palzgrafe
palzki
palzkis
pandemie
pange
pann
panorama
paper
paradies
paradox
parallel
parameter
pardai
pardaien
paris
parisa
park
parlament
parodie
parra
parrai
parre
parrei
parrer
parrka
partei
partement
pascal
pascha
pastafari
patois
patrice
patrick
patterns
paul
pays
pdf
pe
pearson
peason
pech
pechelbronn
peda
peer
peeter
peffer
pelsa
pelsawald
pelsin
pelsisch
pelsische
peltre
pennsilfaanisch
pennsylvania
pennsylvanisch
people
per
performance
perm
persenlische
perso
person
personal
personality
persone
personifikation
perspective
persuasion
peter
petit
petite
petitefontaine
petitmagny
petra
petrus
pf
pfa
pfalz
pfarrer
pfatterhu
pferd
pfi
pfitzenmeier
pflanze
pflanzen
pg
ph
phaffans
phalsbourg
phane
philadelphia
philip
philipp
philippe
philippsbourg
philosoph
philosophie
philosophy
pho
phonetic
php
phrase
physik
pi
piel
pieler
pielzaid
pierre
pierrevillers
pierrot
pilcher
pilger
pils
pilscha
pingschde
pinto
pirate
pirmasens
pirmasenser
pirmin
pirminius
pital
pittsburgh
pl
pla
pladd
pladz
plaine
planet
plant
planze
plappeville
plateau
platon
platt
platz
plesnois
plo
plonke
plural
plus
pmc
pmid
po
pogrom
pogrome
pohl
pokal
pol
pole
polidisch
polidische
political
politicians
politico
politics
politik
politiker
politisch
politische
politischen
polnisch
polnische
poor
pop
popula
population
populum
porcelette
pordal
pordugiesisch
portal
porte
portes
poschde
poscht
post
pouilly
pour
pournoy
power
pp
ppele
ppewihr
ppje
ppschwihr
pr
pra
practical
prais
praiße
praißische
praktisch
pratensis
pre
precision
preference
preis
president
presidential
press
pressburg
presse
pri
prima
primacy
princeton
print
printsec
prinz
prioa
privade
privat
private
pro
problem
probleme
probonde
processes
processing
prodeschdande
prodesdandisch
product
produktion
professor
programm
programme
project
projekd
projekt
propaganda
prospect
proste
provence
provinz
prowinz
prozend
prozent
prozess
przewalski
przewalskigail
pse
psischologie
psischologische
psychological
psychologie
psychology
pu
public
publishing
pubmed
pund
pungd
pungde
punkt
punkte
pura
purrmann
putin
puttelange
puzieux
pvre
pwv
q
qua
quack
quadrate
qualida
quarterly
quasi
quatre
que
quell
quelle
quellen
quer
quermbach
querschbach
quetschkommod
quirin
quoque
quote
qwelle
r
ra
raa
raache
raadhaus
raawisch
rache
rad
raderschderf
radersche
radhaus
radio
rahling
rahme
rahmen
raich
raichsschdadt
raid
raide
raif
raih
railinge
rainer
rainhardsmi
rais
raisch
raischd
raische
raischsdaach
raischska
raischslond
raise
raisea
ralf
ramschda
ramstein
ran
rand
range
ranger
ranrupt
raphae
rard
rass
rasse
rathaus
rather
ration
ratzwi
raum
raumfahrt
raus
rausg
rausgewwe
rausgewwer
rauskumme
rauskummt
raville
raymond
rbt
rch
rche
rchingen
rd
rda
rde
rdel
rder
rderbuch
rderverein
rdisch
rdische
rdl
rdlich
rdlisch
rdlische
rds
rdschafd
rdschafdlisch
rdschafdlische
rdschafdswaggsdum
re
readings
real
reality
realschul
reasoning
rebfla
rebound
rebublig
rech
rechbarg
rechion
recht
rechte
rechts
rechtsverordnung
reclam
recouvrance
red
redd
redde
redden
redlach
redorische
redscha
redt
reductio
reema
reemaba
reemer
reemisch
reemische
ref
refarensfehla
reffenthal
reform
reformadsion
reformadzion
reformazion
refrain
regelma
regensburch
regensburg
regiad
regierd
regiere
regierende
regierung
regierunge
regierungsbezirg
regierungsbezirk
regierungsbra
regierungspra
region
regional
regionale
regionalkultur
regionalliga
regione
register
regse
rehaus
rehbach
reich
reichsstadt
reih
reiner
reinhard
reinhold
reinige
reischt
reise
reiskerje
rejel
reladiv
relations
relichion
religiese
religion
relischion
relischione
rem
remer
remische
remischer
remmele
ren
rene
renne
renoviert
renovierung
rentgen
report
reppe
repra
republig
republik
rer
res
reschd
reschde
reschdfeadischung
reschds
reschehart
reschel
reschelma
reschie
reschion
reschione
reschle
reschna
reschned
rescht
reschts
research
residenz
resource
rest
resuldad
retschwiller
rettel
review
reviewed
revoludsion
revoludsiona
revolution
rewe
rewoludzion
rewoluzion
rey
reyersviller
rezensionen
rezonville
rf
rfd
rfe
rfer
rfolsch
rg
rga
rgd
rge
rgemer
rgen
rger
rgermeister
rgi
rha
rhai
rhaifra
rhailand
rhain
rhainau
rhalde
rhe
rhei
rheifra
rhein
rheinland
rheinpfalz
rheni
rhetoric
rhetorical
rhetorik
rhetorische
rhin
rho
rhoi
rhoiba
rhoiewene
rhoifra
rhoihesse
rhoihessisch
rhoihessische
rhoiinsel
rhoila
rhoiland
rhoilond
rhoiniedarung
rhoipalz
rhoizawere
rhotazismus
ri
ria
ribeauville
ribes
ric
rich
richard
richdung
riche
richeling
richemont
richewihr
richtig
richtung
richwiller
ridda
ridder
ridselz
ried
riedse
riervescemont
rieschbi
riesische
riesling
rig
rigge
riggguggfehla
riggrunn
riggschlach
rikewa
rilze
rimdidim
rimling
ring
ringe
ringen
rio
riograndenser
rique
risch
rischd
rischda
rischde
rischdisch
rischdische
rischdisches
rischdischkaid
rischdung
rische
risike
risiko
risk
risse
risshoffe
ritter
river
rives
riwwa
rje
rk
rka
rke
rkei
rker
rkheim
rki
rkla
rkm
rkt
rle
rlebach
rlich
rlp
rm
rme
rmeck
rmene
rmer
rmesens
rmesenser
rmische
rmschde
rn
rna
rnberg
rnd
rne
rner
rnwaffe
ro
robbins
robert
roche
rod
rodalb
rode
rodem
rodemack
rodere
rodliggende
roger
roggehause
roggehu
rohnacher
rohrbach
roi
roiewene
roine
roland
rolbing
role
rolf
roll
rolle
rom
roma
romagny
roman
romanisch
romanische
romanum
rombach
rombas
romoanische
romy
ronald
rond
rood
roode
rooreschda
roose
roppe
ropperzwiller
roppeviller
rorschwihr
roschtai
rose
rosegaade
rosen
rosenberg
roseno
rosheim
rosinepigge
ross
rosselange
rosselle
rot
rote
rotem
roth
rothau
rothaus
rothenberger
rott
roubaix
roud
rouffach
rouge
rougegoutte
rougemont
rouhling
rouse
roussy
route
router
routledge
rp
rr
rra
rraischd
rre
rrem
rrenanze
rrn
rrschafd
rs
rsch
rscha
rschba
rschd
rschda
rschdbischuf
rschde
rschdemol
rsche
rscher
rschhorn
rscht
rschzawere
rsinge
rt
rte
rtel
rtene
rter
rterbuch
rth
rtigen
rtl
rtma
rtner
rts
rtschaft
rttemberg
ru
ruchem
rudolf
rue
ruf
rufe
ruffa
ruh
ruhisch
ruin
ruine
rum
ruma
rumbach
rund
runde
rundrum
rundschau
rung
runge
rungen
runna
rupprecht
ruprecht
rupreschd
russ
russe
russenweiher
russia
russisch
russische
russland
russlond
ruth
ruuwiller
rußlond
rwa
rwe
rwed
rwet
rwi
rwu
rz
rza
rzba
rze
rzfalde
s
sa
saa
saabrigge
saach
saachd
saachdma
saache
saachen
saachn
saacht
saad
saal
saala
saaland
saalbach
saale
saales
saalond
saan
saapa
saapalz
saar
saarbrigge
saare
saargemi
saarla
saarland
saarlond
saat
sach
sachd
sache
sachen
sachsen
sacht
sacred
sadd
safety
saft
sag
sage
sagen
sagg
sagse
sahne
saht
sai
said
saida
saidda
saiddem
saide
saidem
saidm
saie
saigedier
saigediere
saim
sain
saina
saine
sainer
sainere
sainre
saint
sainte
saison
sait
saksa
salbert
salija
salins
salvador
salz
salzburg
samba
same
sammle
sammlung
sampi
samuel
samurai
san
sanctuary
sand
sandschda
sangd
sankt
sanne
sanry
sans
sant
santa
sante
sap
sarah
sarralbe
sarrebourg
sarreguemines
sarreinsming
satureja
satz
sauer
saulnois
saulxures
saumaache
saverne
says
sba
sbarje
sc
sch
scha
schaade
schaal
schacht
schachter
schadde
schade
schadt
schaffd
schaffe
schaiwert
schalbach
schalom
scharlemanje
schatz
schauschbielern
schba
schbaija
schbaijadoaf
schbaijagau
schbaijara
schbaijmara
schbaijmarisch
schbaimara
schbajia
schbanije
schbanisch
schbanje
schbargl
schbaya
schbayabach
schbayra
schbeda
schbedare
schbeder
schbeeda
schbeeschbach
schbessat
schbeyer
schbidz
schbiel
schbield
schbiele
schbielzaisch
schbieß
schbießbrode
schbija
schbijalaxsee
schbitz
schboddnome
schbord
schbresche
schbrischdma
schbroch
schbroche
schbrooch
schbrooche
schbroochforscher
schbroochraum
schbruch
schbure
schd
schda
schdaad
schdaade
schdaadlisch
schdaadlische
schdaag
schdad
schdadd
schdaddbrond
schdaddda
schdadddeel
schdaddeel
schdaddg
schdaddgfunne
schdaddmauwa
schdadion
schdadt
schdadtbezirge
schdadtda
schdadtdail
schdadtgebied
schdadtkreis
schdadtmauer
schdadtra
schdadtrad
schdadtreschde
schdadtwald
schdadus
schdahl
schdaldunge
schdammd
schdamme
schdammt
schdand
schdandaddeitsch
schdarg
schdarge
schdark
schdarke
schdatt
schdaufa
schde
schdebursch
schded
schdedd
schdeed
schdehd
schdehe
schdehne
schdeht
schdeje
schdejen
schdell
schdelld
schdelle
schdellung
schder
schderschafd
schderschaft
schderschafte
schdick
schdiel
schdifd
schdift
schdigg
schdigga
schdil
schdimm
schdimmd
schdimme
schdogg
schdolle
schdolz
schdond
schdra
schdraid
schdralije
schdreck
schdreemung
schdregg
schdregge
schdrof
schdroh
schdrohmonn
schdrooß
schdrooße
schdroß
schdrugdur
schds
schduagadd
schdudende
schdudesee
schdudiad
schdudierd
schdudiert
schdudije
schdudium
schdudje
schdufe
schduggat
schduhl
schdund
schdunn
schdunne
schdurm
sche
schee
scheen
scheena
scheene
scheer
schel
schema
schemie
schemische
schenau
schenk
scher
scherer
scherwiller
schgetz
schi
schichte
schidze
schiela
schieler
schiene
schiff
schiffaschdadd
schiiler
schild
schildgra
schildmauer
schiller
schilling
schimmeldewoog
schina
schitze
schiwwerschdadd
schiwwerschdadt
schki
schla
schlabbe
schlachd
schlacht
schlau
schlechde
schlechte
schleddebach
schleichert
schleschd
schleschde
schlesie
schlesser
schleswig
schlettsta
schli
schlierbi
schließd
schließe
schließend
schließlich
schließlisch
schlimm
schlisch
schlische
schlissel
schlissl
schlo
schloss
schlossberch
schloß
schluss
schlussfolscharung
schluß
schmale
schmi
schmidt
schmiedtuam
schmitt
schneckenbusch
schnee
schneider
schnell
schneller
schnidd
schnoebelen
scho
schobbe
schoi
schoiagumend
schoinagumend
schoind
scholz
schon
schoof
school
schopenhauer
schopp
schopper
schorbach
schorle
schorsch
schpa
schpeyer
schpeyerer
schpi
schpiel
schpira
schra
schraiwe
schreibt
schreibweise
schreiwe
schridd
schriese
schriesemer
schriesemit
schriesheim
schrifd
schrifdlisch
schrifdschdella
schrifdschdeller
schrift
schriftdaitsch
schriftenreihe
schriwwe
scht
schta
schtadt
schtatt
schteburi
schter
schterin
schterschafte
schtraußbuwe
schtroß
schtroße
schtudiert
schu
schudz
schuh
schuhfabrik
schuhinduschdrie
schuhinduschtrie
schuhmuseum
schul
schuld
schulde
schule
schulhaus
schultz
schum
schun
schuna
schunmol
schunn
schunsch
schunschd
schutz
schuul
schwa
schwach
schwaddse
schwaighu
schwaische
schwaiz
schwaizer
schwann
schwarz
schwarzbach
schwarzbachdal
schwarze
schwarzer
schwatzwald
schwawe
schwazeagger
schwazebach
schwazwald
schwea
schwede
schwedisch
schwedische
schwedzinga
schwedzinge
schweer
schweitzer
schweiz
schweizer
schweizerisches
schwemmfa
schwer
schwerd
schwere
schwert
schwetzinga
schwetzinge
schwetzinger
schwetzt
schweyen
schwi
schwierisch
schwihr
schwiller
schwimmbad
schwobe
science
scientific
scope
scy
sd
sda
sdr
se
sea
search
season
sebastian
sebbdemba
sebdemba
sebdember
sec
sechs
secretary
sedimende
sedzd
see
seeba
seebach
seee
seeje
seel
seem
seen
seeschl
seeschla
seeschle
seggd
seggs
segs
sehe
sehen
sehn
sehr
sei
seibel
seid
seide
seille
seim
sein
seine
seinem
seiner
seinere
seit
seitda
seite
seiten
seje
sejen
sel
selbad
selber
selbschd
selbschda
selbschdiwwaschedzung
selbschdiwwazaischung
selbscht
selbst
selbstverlach
selbstverlag
selde
seldene
self
sell
sella
selle
sellem
sellemols
seller
selles
seltz
selwa
selwad
selwe
selwer
selz
sem
sen
sender
sene
seng
sense
senz
sepp
sept
september
ser
serge
serie
series
sermamagny
server
servigny
ses
sescht
setzt
sevenans
sex
sfraie
sgaie
shatterhand
short
show
showbuzzdaily
si
sibirje
sibylla
sich
sicha
sicher
sichs
sicht
side
sidend
sidende
sident
sideschtlich
sidfra
sidhessisch
sidhessische
sidhessisches
sidium
sidlich
sidlische
sidz
sidzvertailung
sie
siech
sied
sieda
siedameriga
siede
siedhesse
siedhessische
siedla
siedler
siedlich
siedliche
siedlisch
siedlische
siedlischi
siedlung
siedlunge
siedlungs
siedlungsfla
siedoschde
siedpa
siedpalz
siedschinesische
siedweschd
siedweschde
siedweschdlisch
siedweschdlische
siedweschdpalz
siedwescht
siedweschtpalz
siedwestpalz
sieg
siegfried
siehd
siehe
siehschde
sieht
sien
sierck
sierez
siersthal
siewe
sige
sigginger
signale
sihn
siide
sije
silene
sillegny
sillon
sillsbrunn
silly
silvange
silwa
silwasee
silwer
silwerne
sim
simon
sin
sinagog
sind
singe
sinn
sinns
sinnse
sins
sinse
sio
sis
sisch
sischa
sischahaid
sischd
sischda
sischdem
sische
sischen
sischer
sischs
site
situation
sitz
sitze
sitzung
siwwe
siwweldinge
sla
slawe
slawische
slond
slovic
slowakai
sm
smartphones
smi
smith
so
soa
social
society
sodass
sofdwa
sofia
soford
sog
soga
sogaa
sogar
sogena
sogenannde
sogenonde
sogenonnte
sohn
soi
soim
soin
soina
soine
soiner
soinere
soinerzeit
soko
solanum
solche
sold
soldade
soldate
solgne
soll
solld
sollde
solle
solln
sollt
solsche
some
somid
sommer
sommerau
sommerlatt
sommlung
sond
sondan
sonderheft
sondern
sondschda
song
sonne
sonnern
sonntag
sons
soo
sophia
sophie
sorde
sorsche
sorscht
sort
sotschi
sotzeling
sou
soucht
soultz
soultzbach
sous
souvera
soviel
sowaid
sowas
sowie
sowjetunion
sowohl
sozial
soziale
sozialisdische
sozialpsychologie
sozijale
sp
spa
space
spachbi
spaghetti
spaghettimonsters
spd
special
speier
speyer
speyerbach
speyerer
speyrer
speziell
sphondylium
spicheren
spiegel
spiel
spield
spieldaa
spiele
spieler
spielt
spirensis
spitz
sprach
sprache
sprecher
springer
sprooch
sprooche
sr
sre
ss
ssa
ssd
sse
ssel
sseldorf
sser
sserburig
ssert
ssig
ssisch
ssische
ssischen
sst
st
sta
staab
staat
staate
stadd
stadion
stadt
stadtda
stadtentwicklung
stadtgeschichte
stadtmauer
staffel
stafford
staiba
staisulz
stallman
stammt
stand
standard
stanford
stanley
stanselz
star
stark
starnebarg
state
states
statistik
statistische
statistisches
statt
status
stauffenberg
staweba
ste
stee
steebruch
stefan
steffen
stehe
stehen
stehn
steht
steige
stein
steinbach
steiner
steini
stell
stelld
stelle
stephan
sterben
stern
sternberg
sterreich
steve
sti
stichwort
stick
stiftung
stil
stiring
stlich
sto
stoggholm
stoll
stooswihr
storksoh
story
strasbourg
straw
straße
streck
streit
strom
stroosburi
strooß
stru
struth
stu
stuckange
studie
studien
studies
studium
study
stumpf
stundwiller
sturzelbronn
stuttgart
stuttgarter
su
suarce
such
suchd
suche
sud
sudoc
suhn
suisse
sulawesi
sultan
sulz
sulzba
sulzere
sulzma
summa
summer
sun
sunderna
sundgau
sundhofe
sung
sungerschderf
sunn
sunna
sunnan
sunndag
sunnekeenisch
sunnern
sunnesee
sunnesyschdem
sunsch
sunschd
sunscht
superior
supp
sur
susan
susanne
sutter
suzanne
sv
swf
swil
swiller
swisch
swr
sy
sylvain
sylvestris
sylvie
symbol
synagog
synagoge
synergie
synonym
synonyme
syringa
system
t
ta
tabell
tach
tag
tages
tail
tairies
tal
talange
talent
talga
talgans
talljewefze
taman
tang
tanschda
tanstein
tarquimpol
taschenbuch
tat
tatsa
tatsach
tau
taunus
tavris
taxonomie
te
team
teau
teaux
teba
technik
techniques
tee
teen
tees
teil
tel
telefon
telet
temberadure
tembl
temblolaach
ten
tendenz
tenois
ter
terex
term
terra
territoire
territorium
terville
terzia
teschnigg
teschnigge
teschnische
tesla
test
teting
texas
texde
text
texte
tha
thal
thaler
than
thann
that
the
theada
theader
their
them
thema
theme
theodor
theologie
theorie
theories
theory
there
these
they
thiancourt
thierry
thing
things
think
thinking
thionville
this
thomas
thon
thor
thorax
through
thu
thymian
tiam
tibisch
tibische
tiche
tiddel
tidl
tief
tiefewene
tierarde
tiere
tiiringa
time
times
timur
tipische
tipp
tirgische
tirkai
tirkei
tirm
tirol
tirta
titel
titus
to
tobacco
tobias
tod
today
todschlachagumend
tokio
ton
tonne
tonnen
top
topographia
tor
torcheville
torm
toromanisch
torsten
tourismus
tourismusregion
town
tra
tradition
traditionell
traiba
trainer
trang
trange
traum
tre
tremmel
treue
triathlon
tricks
trier
trifels
trigne
tritteling
triumph
trodz
trois
troja
tromborn
tropole
trotha
trotz
trotzda
trotzdem
tru
trubbe
trump
trumps
truppe
truth
ts
tschechie
tschechisch
tschoffe
tsg
tt
tte
tteba
ttedorf
ttelbarige
ttelhu
ttelse
ttelwihr
tten
ttene
tter
tterba
ttersche
tteschwi
ttingen
ttla
ttle
ttma
ttre
ttschet
ttse
ttwiller
tu
tuam
tueffont
tulla
tun
turbu
turischde
turm
turquestein
tus
tut
tv
tversky
tweet
tweets
twitter
two
tymologique
typ
typisch
tz
tza
tze
tzeda
tzel
tzelhu
tzelsta
tzen
tzig
tzlich
tzlisch
tzne
tzt
u
ua
uabha
uaschbringlisch
ubschdadt
ubud
uckange
ude
udssr
uefa
uf
ufa
ufde
ufer
uff
uffa
uffbaue
uffde
uffdraach
uffdrede
uffem
uffg
uffga
uffgab
uffgawe
uffgbaud
uffgebaud
uffgebaut
uffgeleesd
uffgeleest
uffgelesd
uffgemach
uffgenumme
uffgewwe
uffgmachd
uffgrund
uffgschdeld
uffgschdelld
uffkumme
ufflaach
ufflach
ufflag
uffm
uffmergsomkaid
uffn
uffnemme
uffs
ufgebaud
ufgebaut
ufgleesd
ufgrund
uflo
ufm
ufna
ufs
ug
ugfa
uhne
uhr
uhrzaigasinn
uhrzaigersinn
uk
ukraine
ukrainische
ule
ulfebachdal
ulrich
um
uma
umde
ume
umfassd
umfeld
umfong
umg
umga
umgebrochd
umgebung
umgewung
umgewwe
umiddelbaa
umkumme
umma
ums
umschda
umschdridde
umschlosse
umse
umso
umsta
umweld
umwelt
un
una
unabha
uncertainty
und
unde
under
unem
unen
unesco
ungan
ungarn
ungefa
ungersche
ungfa
ungu
uni
union
united
universal
universida
universided
universita
university
universum
uniwersida
unix
unm
unma
unn
unna
unnade
unnaelsass
unnahbare
unnam
unnana
unnanehme
unnare
unnas
unnaschaid
unnaschaide
unnaschdidzung
unnaschied
unnaschiedliche
unnaschiedlisch
unnaschiedlische
unnasuchd
unnasuchunge
unnde
unne
unnem
unnen
unner
unnerburch
unnerda
unnerdorf
unnere
unnergebrocht
unnergrund
unnerhalb
unnerm
unnernehme
unnernemme
unnerrischd
unnerschaide
unnerscheidung
unnerschied
unnerschiede
unnerschiedlich
unnerschiedliche
unnerschiedlisch
unnerschiedlische
unnes
unnma
unns
unnse
uno
unprecedented
uns
unsa
unsan
unsare
unser
unsere
unter
untera
unterm
untersuchungen
up
updated
ur
ural
urbain
urban
urbeis
urcerey
urkund
urkunde
urkundlich
urkundlisch
urschbringlich
urschbringlisch
urschbringlische
urschbrung
urwes
us
usa
use
user
uses
usw
utigam
uua
uuabha
uub
uug
uugfa
uugfea
uune
uzname
v
va
vaa
vabindung
vabinnung
vabode
vabondsg
vabra
vabraid
vabraided
vabraidung
vabrauch
vabraucha
vabrennd
vabunne
vada
vadda
vadder
vadra
vadrauwe
vadrede
vaeffendlischd
vafahre
vafassung
vaga
vagesse
vagla
vaglaisch
vaglaische
vagongehaid
vaha
vahalde
vaheldnis
vahinnad
vahinnare
vahl
vakaafd
vakaafe
vakaafsflesch
vakea
val
valaach
valdieu
valdoie
vale
valentin
validity
valle
valley
valmunster
valoan
valoore
valore
valparai
valuschd
vamaide
van
variable
variande
varoi
varoin
varoine
varsberg
vasalle
vaschda
vaschdeagd
vaschdeje
vaschdonne
vaschiedene
vaschiedne
vaschwerungstheorije
vasuch
vasuchd
vasuchdma
vasuche
vasuchen
vatikanischen
vauthiermont
vaux
vawaldung
vawaldungssidz
vawaldungswisseschafde
vawegseld
vawend
vawond
vaza
vazerrung
vb
ve
veckersviller
veckring
ved
vegelshofe
veldenz
velgamoad
velger
vellescot
veloor
veloss
veltehouf
veltenhof
venans
venninge
vents
ver
vera
verain
verainischd
verainischde
verainischung
verb
verbal
verbandsgema
verbandsgemeinde
verbindung
verbondsgema
verbra
verbreidt
verbreit
verbunne
verda
verdel
verecundiam
verein
vereins
vereinten
verfiechung
verfu
vergewwe
vergleich
verha
verhas
verkaafe
verkaaft
verkehr
verkehrsfla
verkehrsverbund
verla
verlach
verlag
verlags
verlagsanstalt
verlagsgesellschaft
verlasse
verliehe
verlieren
verlore
verne
verny
vero
veroi
verpa
verschiedene
verschiedne
verschierene
version
verstand
versuchd
vertra
vertrag
verwa
verwalded
verwaldung
verwaldungssidz
verwandt
verwend
verwendt
verwendung
verwenne
very
verza
verzeichnis
vescemont
veschl
vette
vfk
vfl
vfr
vg
vgl
vi
via
viaf
vibersviller
vic
video
videos
viea
viech
viecher
vieh
viel
viele
vielfach
viellaischd
vielleicht
vielzahl
vier
viescher
vietnam
vieux
vignoble
vignobles
vigny
vigy
vii
viii
villa
village
villars
ville
viller
villers
vincent
vionville
virginia
virming
visual
vitamin
vitry
viva
vo
voa
voadapa
voadapals
voade
voaga
voahea
voaliewe
voam
voaschdadd
vochel
vodderpalz
vogel
vogelgrien
vogese
vokal
vokale
vol
volg
volgelse
volk
volker
volkskunde
volksmund
volkswagen
voll
volle
voller
vollschda
volltegschde
volmerange
volstroff
volume
vom
von
vor
vorallem
vorbai
vorbei
vorbild
vordere
vorderpa
vorderpalz
vorga
vorgschischd
vorhande
vorhanne
vorher
vorhondene
vorkumme
vorlach
vorm
vorn
vorne
vorpommern
vorpommre
vorschdelle
vorschdellunge
vorsidz
vorsitzende
vorsitzender
vorurdeel
vosges
vox
vrahovice
vremont
vrn
vs
vu
vul
vulgaris
vum
vumm
vumme
vumne
vun
vuna
vunde
vundem
vunem
vung
vunm
vunn
vunna
vunnde
vunnem
vunnere
w
wa
waa
waahaid
waam
waan
waans
waar
waara
waardtuam
waare
waas
waaschoints
waasgau
wabbe
wachse
wachst
wackelse
wadds
wadigaan
wadikaan
wadikan
waffe
wagner
wagschaid
wagse
wah
wahl
wahle
wahre
wahrschains
wahrscheinlich
wahrschoinlich
wahschoinlisch
waibscht
waid
waida
waidare
waide
waider
waidere
wail
waila
wailer
wailma
wails
wailse
waimara
wais
waise
waisrem
waisseburch
waisseburich
wait
waitere
waiß
waiße
waißeburch
waißebursch
waißrusslond
wald
walda
waldfischbach
waldfla
waldgebied
waldgebiet
waldhouse
waldlehrpad
waldmark
waldsee
waldweistroff
waldwisse
wale
walker
wall
walldoaf
walldorf
walldu
wallfahrt
walschbronn
walscheid
waltenheim
walter
walther
walton
walwich
wamiba
wamma
wammer
wana
wand
wandel
wann
wanna
wanns
wannsde
wannse
wanzwi
wappe
wappenbuch
war
wara
ware
waren
wariande
warn
warndt
warre
wars
warum
was
wasa
waschtha
wasde
wasgau
washington
wasma
wasn
wason
wassa
wassadurm
wassafla
wassapalaschd
wassaschdoff
wasse
wasser
wasserli
water
wattelse
way
we
wea
wead
weads
weag
web
weber
websaid
webseite
website
webster
wech
weche
wechelnburch
wechsel
weck
wedd
wedda
wedder
wedebrunne
weder
wee
weech
weege
weeje
weenscha
weer
wees
weesch
weesche
weeß
weg
wege
wegg
wegge
wehld
wehling
wehrend
wei
weiblische
weid
weida
weidare
weide
weider
weidere
weier
weiher
weihnachde
weihnachten
weil
weiler
weils
wein
weinheim
weinstrasse
weinstraße
weis
weise
weisen
weisrem
weiss
weit
weiter
weitere
weiß
weiße
weißeburch
weja
weje
welche
weld
weldall
weldgriech
weldgriesch
weldkriech
weldkrieg
weldkriesch
weldkulduaeawe
weldlische
weldwaid
well
welle
weller
welles
welli
welsche
welse
welt
weltall
weltkriech
weltkrieg
weltkriesch
weltweit
wem
wen
wenara
wenau
wende
wendel
wengerde
wenisch
wenischa
wenische
wenn
wennich
wennicher
wennisch
wennischa
wennische
wennischer
wer
werach
werba
werburba
werd
werda
werddeberg
werde
werden
werder
werderbuchnetz
werds
werdschafd
were
weren
werenzhu
werg
werge
werk
werke
werklich
werkzaisch
wern
werner
werra
werrd
werre
werren
werrense
werrn
werschd
werschdorf
wersche
werscht
werschwiller
werstrooss
wert
werth
wertra
wertschaft
werwung
wes
wesa
wesch
weschd
weschde
weschdfaale
weschdlich
weschdliche
weschdlisch
weschdlische
weschdpa
weschdpalz
weschdsaid
weschdufa
wesche
weschede
weschem
weschm
weschmiehl
weschnitz
weschtfa
weschthu
weschtlich
weschtliche
wesd
wesde
wesdlisch
wesdlische
wese
wesendlisch
wesendlische
west
western
westlich
weswesche
wettbewerb
wetter
what
whataboutism
when
who
why
wi
wia
wichdich
wichdigschde
wickersche
wickerschwi
wida
widbru
widda
widdahold
widdaholung
widdalesche
widdaschbruch
widdeba
widdelsbacher
widder
widsole
wie
wieda
wiede
wieder
wiema
wien
wiena
wiener
wiera
wies
wiesbaden
wieschd
wiese
wiesviller
wieviel
wigipedia
wihr
wiki
wikimedia
wikipedia
wikiquote
wikisource
wild
wildbahn
wilde
wilden
wildentenweg
wildersbach
wiley
wilhelm
wilhelmsfeld
will
willa
wille
willer
willerwald
william
willibald
wilson
wiltzhu
wimmerschbach
wimpfe
win
winburi
wind
winda
winder
windows
winfried
winga
wingen
wingersheim
wingert
wingl
wingolf
winn
winne
winnweiler
winnwiller
winter
winzer
winzerdorf
winzle
wir
wira
wird
wirddeba
wirddeberg
wirge
wirglisch
wirkt
wirkung
wirra
wirrdeba
wirre
wirrer
wirth
wirtschaft
wisata
wisawie
wisch
wischdigschde
wischdigsde
wischdisch
wischdischa
wischdische
wischdisches
wischdischi
wiss
wissbade
wissd
wisse
wissembourg
wissen
wissenschaft
wissenschaftliche
wisseschafd
wisseschafde
wisseschafdla
wisseschafdlisch
wisseschafdlische
wisseschaft
wissloch
with
wittelse
wittene
witterschdorf
witz
wo
woa
woad
woams
woamsa
woann
wobai
wobei
woch
woche
wocheend
woerr
wohl
wohne
wohnen
wohngebied
wohnunge
wohr
wohrhaid
woi
woibau
woibaugebied
woibrand
woifeschd
woiguud
woihnachde
woihnachdsmaagd
woikella
woil
woinem
woippy
woireewe
woischdroos
woischdrooß
woischdroß
wold
wolf
wolferschdorf
wolfga
wolfgang
woll
wolld
wollde
wolle
wollen
wolln
wollt
wolminschter
wolschwi
woma
womma
woms
won
wonn
wonna
wonnde
wonnegau
wonns
wonnse
wonse
wor
wora
word
worde
wore
working
world
worms
wormsa
wormser
worn
worr
worre
worrn
worschd
worschdmaagd
worschdsupp
worscht
worschtmarkt
wort
wortherkunft
wos
would
woustviller
wu
wua
wude
wuem
wuen
wuh
wuhne
wuhnt
wuma
wunsch
wurd
wurde
wurden
wurfholz
wus
wuse
wussd
wutz
wwa
wwe
wwer
www
wœlfling
wœrth
x
xa
xanrey
xaver
xe
xhu
xiv
xla
xls
xocourt
xxii
y
yale
year
york
you
your
youtube
yu
yutz
yves
z
za
zabern
zahl
zahle
zaich
zaiche
zaid
zaide
zaidung
zaidunge
zaisch
zaischd
zaische
zaischen
zaischnd
zaischnung
zaischnunge
zait
zallebarg
zamenhof
zamme
zammegschlosse
zammeha
zammehang
zammeschluß
zaschdead
zauberburg
zb
zdf
ze
zee
zeehlt
zeh
zehn
zehna
zeich
zeid
zeidung
zeigt
zeischnunge
zeit
zeite
zeitschrift
zeitung
zelois
zem
zemend
zendimeder
zendrale
zendrum
zent
zentrale
zentrum
zerick
zerschderd
zerschdert
zerschderung
zerschdo
zersto
zewen
zi
ziag
zidaad
zidierd
ziegelhausen
ziehd
ziehe
ziehen
zieht
ziel
zield
ziele
ziemlich
ziemlisch
ziesch
zigglhause
zimmer
zimmermann
zimmlisch
zinfd
zinse
zire
zirgl
zirich
zischa
zischdern
zoche
zoll
zom
zommange
zomme
zommehong
zorn
zoufftgen
zrigg
zsomme
zu
zua
zuch
zucker
zuda
zudade
zude
zudem
zuem
zuerschd
zuerscht
zufa
zufluss
zug
zuga
zugemacht
zugeschlaache
zugga
zugger
zuglaisch
zugong
zugriff
zuhera
zukinfdische
zukunfd
zukunft
zuledschd
zuletzt
zum
zumindschd
zumne
zuna
zung
zur
zurick
zurigg
zuriggkumme
zuru
zurzaid
zusa
zusamme
zusammen
zusammenarbeit
zuschda
zuschdand
zuschdimmung
zusomme
zuuch
zuviel
zuvor
zuzehause
zwa
zwaa
zwai
zwaifl
zwar
zwe
zweck
zwecke
zwedd
zwedde
zwedder
zweddes
zwee
zweebrigge
zweebrigger
zweemol
zwegg
zwei
zweibru
zweiter
zwelf
zwett
zwette
zwingeberg
zwische
zwischede
zwischem
zwischen
zwischm
zwiwwl
zwiwwle
zwiwwlkuche
zwo
zwodde
zwonsisch
zwonzisch
{
|
}
§
«
­
®
°
±
²
³
´
·
»
¼
½
ß
ßd
ße
ßer
ßere
ßisch
ßischdes
ßische
ßt
łobez
œting
ɐ
ɔ
ɛ
ʃ
ʰ
ʳ
ˈ
ˌ
ː
ˑ
̀
́
̂
̃
̄
̆
̇
̈
̊
̋
̌
̓
̔
̧
̨
̯
͂
α
π
ς
υ
округ
федеральныи
‎
‐
–
—
‘
’
‚
“
”
„
†
•
…
′
″
ⁿ
€
№
⅓
→
↔
↷
−
⋅
③
④
⑦
⺀
⺄
⺆
⺈
⺊
⺌
⺕
⺝
⺸
⺼
⿰
⿱
⿲
⿳
⿴
⿵
⿶
⿷
⿸
⿹
⿺
⿻
〢
コ
ユ
㇁
㇂
㇄
㇇
㇈
㇉
㇓
㐁
㐄
㐅
㐌
㐫
㐬
㐭
㐮
㐱
㑒
㒵
㒸
㒼
㓁
㓞
㔾
㕛
㕣
㖾
㘝
㚅
㚇
㚔
㚘
㝉
㝡
㝴
㝵
㞋
㞢
㞷
㠩
㠭
㠯
㡀
㡭
㡿
㢲
㢴
㣇
㣺
㥯
㪅
㫄
㫐
㫒
㫺
㬅
㬎
㬥
㬰
㲋
㳄
㷠
㸒
㸚
㸦
㼌
㼲
㽞
㿟
䀠
䂞
䍃
䏍
䒑
䖍
䖒
䖝
䖵
䙴
䚻
䜌
䝿
䡛
䧹
䪞
一
丁
丂
七
丄
丅
丆
万
丈
三
上
下
丌
不
与
丏
丐
丑
专
且
丕
世
丘
丙
业
东
丞
丢
丣
两
严
並
丨
丩
个
丫
丬
中
丮
丰
丱
串
丵
丶
丷
丸
丹
为
主
丽
丿
乀
乂
乃
久
乆
乇
么
义
之
乌
乍
乎
乏
乐
乑
乔
乖
乗
乘
乙
乚
乛
乜
九
乞
也
习
乡
乳
乾
亀
亅
了
亇
予
争
事
二
亍
于
亏
亐
云
互
亓
五
井
亘
亚
亜
亞
亟
亠
亡
亢
交
亥
亦
产
亨
亩
享
京
亭
亮
亯
亰
亲
亳
亶
亷
人
亻
亼
亾
仁
今
介
仌
从
仐
仑
仒
仓
仕
他
付
仝
代
令
以
任
企
伊
伏
伐
休
会
伯
但
位
何
佘
余
作
佥
使
來
侈
侌
侖
侯
侵
便
保
俞
信
修
倉
倍
候
倠
備
僉
僕
儿
兀
允
兂
元
兄
充
兆
兇
先
光
兊
克
兌
免
兑
兒
兓
兔
党
兜
兟
入
全
兩
兪
八
公
六
兮
兰
共
关
兵
其
具
典
兹
兼
冀
冂
冃
冄
内
冈
冉
冊
冋
册
再
冎
冏
冐
冒
冓
冖
冗
冘
军
农
冝
冡
冥
冫
冬
冷
几
凡
凢
凵
凶
凷
凸
凹
出
函
凾
刀
刁
刂
刃
刄
刅
分
切
刍
刑
刕
刖
列
刘
则
初
別
利
别
到
制
刺
則
削
剌
前
剡
剽
劉
力
功
加
劦
助
劫
劳
劵
勃
勇
勉
勒
動
務
勞
勤
勹
勺
勻
勾
勿
匀
匂
包
匆
匈
匊
匋
匍
匕
化
北
匚
匝
匡
匪
匱
匸
匹
区
医
匽
匿
區
十
卂
千
卄
卅
卆
升
午
卉
半
卌
华
卑
卒
卓
单
卖
南
卜
卝
卞
占
卡
卢
卣
卤
卦
卩
卪
卬
卯
印
危
即
却
卵
卷
卸
卻
厂
厃
厄
历
厈
厉
厌
厓
厘
厚
原
厤
厥
厨
厭
厲
厶
厷
厸
去
厼
厽
叀
参
參
叅
又
叉
及
友
双
反
叐
发
叒
叔
叕
取
受
叚
叜
叟
口
古
句
另
叩
只
召
可
台
叱
史
右
叵
号
司
叹
吂
各
吅
合
吉
吊
吋
同
名
后
吏
向
吕
君
吝
吞
否
含
启
吳
吴
吹
吾
呂
呆
呈
告
员
呙
周
命
咅
和
咎
咠
咢
咨
咸
咼
哀
品
哉
員
哥
哲
唐
商
啇
問
啚
啬
啻
善
喜
喬
單
喿
嗇
噩
嚴
囊
囗
囘
囙
囚
四
回
囟
因
囧
囬
困
囱
囷
固
国
圂
圅
國
圍
圓
土
圡
圣
圥
在
圭
地
圶
圼
坐
坒
坚
坴
垂
垔
垚
埀
埋
埶
執
基
堂
堅
堆
堇
堯
塞
墨
壘
士
壬
壯
声
壳
壴
壹
壺
壽
夂
处
夅
夆
备
夊
夋
夌
复
夏
夒
夕
外
夗
夘
多
夜
夢
大
夨
天
太
夫
夬
夭
央
失
夲
头
夷
夸
夹
夻
夾
奂
奄
奇
奈
奉
奎
奏
奐
契
奓
奔
奚
奞
奠
奢
奥
奭
女
奴
奻
好
如
妄
妙
妟
妥
妻
妾
姑
委
姜
威
娄
婁
婴
嬰
嬴
子
孑
孔
孕
孖
字
存
孚
孛
孝
孟
季
孤
学
孫
孱
學
宀
宁
宂
它
宅
宇
守
安
宋
完
宏
宓
宗
官
定
宛
宜
宝
客
宣
室
宮
宰
害
家
容
宾
宿
寄
寅
密
富
寒
察
寧
審
寫
寬
寮
寸
对
寺
寻
寽
対
寿
封
尃
射
将
將
專
尉
尊
尋
尌
對
小
少
尒
尓
尔
尖
尗
尚
尞
尢
尣
尤
尧
尨
尭
就
尸
尹
尺
尻
尼
尽
尾
尿
局
居
屈
屋
屎
屏
屑
展
屖
屚
属
屠
屡
屬
屮
屯
屰
山
屵
屾
岁
岂
岑
岡
岩
岳
岸
峯
島
崇
崑
崔
崖
崙
崩
嵬
嶲
巂
巛
川
州
巟
巠
巢
巤
工
左
巧
巨
巩
巫
差
己
已
巳
巴
巷
巸
巽
巾
巿
帀
市
布
希
帚
帛
帝
带
師
席
帶
常
干
平
年
幵
并
幷
幸
幺
幻
幼
幽
幾
广
広
庄
床
底
店
庚
府
度
庫
庭
庶
康
庸
廉
廌
廛
廣
廩
廴
延
廷
建
廾
廿
开
弁
弃
弄
弇
弋
式
弓
弔
引
弗
弘
弜
弟
弥
弦
弱
張
強
强
彊
彌
彎
彐
彑
当
彔
录
彖
彗
彡
形
彥
彦
彧
彭
彳
役
彼
往
待
律
徒
得
徙
從
復
微
徵
心
忄
必
忌
忍
志
忝
忠
忩
快
念
忽
忿
思
怠
急
怱
恆
恒
恩
恭
息
悉
患
悤
悲
悶
惠
惡
惢
愁
愈
意
愛
感
慈
慧
慮
憂
憲
應
戀
戈
戉
戊
戋
戌
戍
戎
成
我
戒
戔
或
戚
戠
戢
截
戲
戶
户
戹
戼
戾
房
所
扁
扇
手
扌
才
打
托
执
承
折
拉
拜
拿
掌
推
提
摩
支
攴
攵
收
攸
改
放
政
敄
敏
敕
敖
敗
敝
敞
敢
散
敦
敫
敬
数
敷
數
斂
文
斉
斊
斗
斤
斥
斩
斬
斯
新
方
於
施
斿
旁
旋
族
无
旡
既
旣
日
旦
旧
旨
早
旬
旱
旲
时
旾
昆
昇
昌
昍
明
昏
易
昔
昗
昜
星
春
昬
是
昱
昴
昷
時
晃
晋
晏
普
景
晶
智
暑
暴
曇
曩
曰
曲
曳
更
曷
書
曹
曼
曾
替
最
朁
會
月
有
朋
服
朔
朕
朗
望
朝
木
朩
未
末
本
札
朮
术
朱
朵
朶
朿
杀
杏
杜
束
条
来
東
杲
杳
松
析
林
枚
果
枝
枲
枼
某
柔
查
柬
柰
柴
栗
桀
桑
桼
梁
條
梟
梨
棘
棠
棥
森
楚
業
楽
榮
樂
樊
欠
次
欣
欮
欲
欶
欽
款
歆
歇
歛
止
正
此
步
武
歨
歪
歮
歯
歰
歲
歴
歷
歸
歹
歺
死
殳
段
殷
殸
殹
殺
殻
殿
毋
毌
母
每
毒
比
毕
毚
毛
毳
氏
氐
民
气
氣
水
氵
氶
氷
永
氺
氾
求
汝
汞
江
沃
沓
沙
沝
泉
法
波
泣
泥
泰
洛
洪
活
派
流
浦
浪
浮
淡
淮
清
渚
渠
湯
滿
漸
澤
火
灬
灭
灰
灵
灷
炅
炎
炏
炗
炙
炭
為
烈
烏
烝
焉
無
焦
焱
然
煞
熊
熏
燕
營
燮
爪
爫
爭
爯
爰
爱
爲
爵
父
爻
爽
爾
爿
片
牙
牚
牛
牜
牟
牢
牧
牪
牽
犀
犬
犭
犮
狂
狄
狊
独
狺
猋
猒
猪
献
獻
玄
率
玉
王
玟
玨
珎
班
琴
瑟
瑩
瓜
瓦
甘
甚
生
産
用
甫
甬
田
由
甲
申
电
甶
男
甸
甹
画
甾
畀
界
畏
畐
留
畜
畟
畢
畧
畨
番
畫
異
畱
當
畺
畾
疊
疋
疌
疑
疒
疾
癶
癸
癹
登
發
白
百
皀
皃
的
皆
皇
皋
皐
皕
皮
皷
皿
盃
盆
盇
盈
益
盍
盎
监
盒
盖
盛
盡
監
盤
盧
目
直
相
盾
省
眇
眉
看
眔
眞
真
眷
眼
眾
着
睘
睪
睿
瞏
瞢
瞿
矍
矛
矞
矢
矣
知
矦
短
石
破
碎
磊
磨
示
礻
礼
祟
票
祭
禀
禁
禸
禹
禺
离
禽
禾
禿
秀
秃
秉
秋
科
秝
秦
移
稟
穀
穌
穴
究
穹
空
穿
突
窄
窒
立
竒
竜
竝
竟
章
童
竹
笑
笠
筆
等
答
箕
算
箴
節
篤
篭
米
粉
粛
粟
粤
粦
粲
糞
糸
糹
系
約
納
素
索
紫
累
細
絜
絫
絲
維
綿
縣
繇
纍
纟
缶
网
罒
罔
罕
罗
罙
罡
罢
罪
署
罷
羅
羊
羌
羍
美
羔
羕
羗
羞
羡
羣
群
義
羲
羸
羽
翁
翏
習
翕
翟
翠
翼
老
耂
考
者
耆
而
耎
耑
耒
耳
耴
耶
耷
聂
聊
聖
聚
聶
聿
肀
肃
肅
肉
肖
肙
肥
肩
肯
育
肴
胃
背
胡
胥
能
脊
脩
膚
臣
臤
臧
自
臬
臭
臯
臱
至
致
臺
臼
臽
臾
臿
舀
舂
舄
與
興
舉
舌
舍
舛
舜
舞
舟
般
艮
良
色
艸
艹
艾
芒
芔
芬
芮
花
芳
芺
芻
苔
苗
苟
若
苦
英
茶
茸
荅
草
荒
荣
荼
莆
莧
莫
莽
菆
菊
菐
華
萬
落
葉
著
葛
董
葵
蒙
蒦
蒼
蓋
蓬
蓺
蔑
蔡
蕉
蕭
薄
薛
薦
薰
藍
藏
藥
蘭
虍
虎
虐
虒
虔
處
虖
虗
虘
虚
虛
虜
虞
虫
虽
蚤
蚩
蜀
蜜
蟲
蠡
血
行
衍
衛
衣
衤
表
衮
衰
袁
袞
褭
褱
襄
襾
西
覀
要
覃
見
規
覓
覧
親
覽
见
角
解
言
訁
訇
計
詹
誩
諸
讠
谷
豆
豈
豊
豐
豕
豖
豙
象
豦
豩
豪
豸
貇
貝
貞
貟
負
貢
貧
貪
貫
責
貳
貴
買
費
賁
資
賈
賏
賓
賔
賛
賞
賢
賣
質
賴
贊
贝
贡
责
贯
贲
贵
赖
赞
赤
赦
走
越
足
路
蹇
身
躬
車
軍
軎
軟
輦
车
辛
辜
辟
辥
辰
辱
農
辵
辶
边
达
过
近
连
迷
追
退
送
逆
逐
通
速
造
逢
連
逮
進
遀
遂
過
道
達
遣
適
遷
遺
邊
邑
邕
那
邦
邪
郎
部
郭
都
鄉
酉
酋
配
酓
釆
采
里
重
野
量
金
釒
錢
钅
長
镸
长
門
閃
閉
開
閏
閑
閒
間
閔
閵
閻
闌
门
间
闷
阑
阜
阝
阿
降
陳
隆
隊
隋
隡
隨
隱
隶
隹
隺
隻
隼
隽
难
雀
雁
集
雈
雋
雍
雐
雔
雙
雚
雜
雝
離
難
雨
雩
雪
雲
零
雷
需
霍
霜
霝
霞
霸
靈
靑
青
非
靡
面
靣
革
韋
韦
韭
韯
韱
音
頁
頃
項
須
頗
頡
頻
顛
页
風
风
飛
飞
食
飠
養
饣
首
香
馬
馮
駦
马
骨
高
髟
鬥
鬯
鬲
鬼
魚
魯
鮮
鱼
鲁
鳥
鳳
鸟
鹵
鹿
麃
麗
麥
麦
麻
黃
黄
黍
黎
黑
黒
黨
黹
黽
黾
鼎
鼓
鼠
鼻
齊
齋
齐
齒
齿
龍
龙
龜
龟
龠
龰
龱
龴
龵
龶
龷
龸
龹
者
艹
？
𠀁
𠀃
𠀆
𠀉
𠀎
𠀐
𠁁
𠁣
𠂆
𠂇
𠂈
𠂉
𠂊
𠂋
𠂎
𠂒
𠂔
𠂛
𠂡
𠂢
𠂤
𠂬
𠂭
𠂹
𠃊
𠃋
𠃌
𠃍
𠃎
𠃑
𠃓
𠃔
𠃜
𠄌
𠄎
𠄠
𠄢
𠆢
𠆥
𠇍
𠈌
𠌵
𠓜
𠔉
𠔥
𠔼
𠔽
𠔿
𠕀
𠕁
𠕋
𠘧
𠘨
𠙻
𠙼
𠚏
𠚒
𠚤
𠚪
𠣏
𠤎
𠤕
𠥓
𠦄
𠦑
𠦝
𠧒
𠧗
𠧪
𠩺
𠪚
𠫓
𠫔
𠫤
𠬛
𠬝
𠬞
𠬢
𠬤
𠬶
𠮛
𠮦
𠮷
𠯑
𠱠
𠳮
𠷎
𡈼
𡉀
𡉵
𡌥
𡍮
𡏳
𡕒
𡕩
𡕰
𡖅
𡗗
𡗜
𡘆
𡘤
𡧱
𡨄
𡩧
𡬠
𡭽
𡰣
𡰥
𡰪
𡰯
𡰱
𡷈
𡸁
𡿨
𡿩
𡿪
𡿺
𢀖
𢀛
𢀩
𢁙
𢆉
𢆰
𢆶
𢇁
𢇇
𢉖
𢌬
𢌿
𢏚
𢑑
𢑚
𢖻
𢙣
𢛳
𢦏
𢦒
𢧵
𢼄
𢾕
𣁋
𣄼
𣅀
𣅽
𣍘
𣎳
𣎵
𣏋
𣏼
𣗥
𣥂
𣥖
𣦵
𣦼
𣧄
𣪊
𣪠
𣬉
𣳾
𣶒
𤇾
𤊽
𤐫
𤓰
𤔔
𤕨
𤣩
𤰇
𤰔
𤰞
𤴓
𤴔
𤽄
𥁑
𥁕
𥃦
𥃩
𥃭
𥇡
𥑟
𥘅
𥘈
𥝢
𥫗
𥱡
𦈢
𦉪
𦉬
𦉼
𦍌
𦍒
𦎧
𦐇
𦓔
𦔮
𦘒
𦙃
𦚏
𦣝
𦣞
𦣻
𦥑
𦥔
𦥯
𦨉
𦭝
𦰩
𧆞
𧈧
𧘇
𧰨
𧴪
𧴮
𧵩
𧾷
𨸏
𨾴
𩙿
𩠐
𩫏
𩵋
𪉷
𪜀
𪟽
𪠲
𪩲
𫇦
𫔭
𫜸
𫝀
𫠣
𫠩
𫢉
𫥞
𫩏
𫩠
𫪡
𫲽
𫶧
𬀷
𬐘
𬗌
𬙙
𬛸
𬜯
𬟩
𬯁
𬴘
𬺻
𬼉
𬼖
𭀰
𭁈
𭁨
𭅰
𭑈
𭕄
𭗼
𭤨
𭥫
𭻾
𮅕
𮊿
𮍌
𮍏
𮓗
𮥼
𮧮
廾
𰀁
𰀄
𰀈
𰀉
𰀕
𰀠
𰀡
𰀢
𰀪
𰁜
𰃮
𰆊
𰆘
𰋙
𰕎
𰢴
𰧭
𰯲
00--
07--
09--
10--
11--
12--
13--
14--
15--
16--
17--
18--
21--
80--
82--
83--
85--
88--
89--
92--
93--
95--
978--
a--
aa--
ab--
abg--
abge--
abged--
abger--
abs--
absch--
ac--
ach--
ad--
aero--
ag--
ah--
ai--
ais--
akt--
aktiv--
al--
ald--
alem--
all--
aller--
als--
alt--
am--
an--
and--
aner--
ang--
ans--
ant--
ara--
arm--
arwaids--
as--
ass--
at--
au--
audo--
aue--
auer--
auf--
aus--
ausg--
ausge--
ausgla--
auto--
b--
ba--
bade--
bahn--
bai--
ban--
bar--
bas--
bau--
bay--
be--
bea--
bedaiden--
beer--
bei--
bel--
ben--
bena--
beob--
beowa--
ber--
berg--
bese--
best--
bet--
betai--
bett--
betze--
beza--
beze--
bi--
bier--
bild--
bin--
bio--
birke--
bla--
ble--
bli--
blo--
blu--
bo--
bod--
boo--
bos--
bour--
bra--
brau--
braun--
bre--
bri--
bro--
bru--
bruch--
bu--
buch--
bundes--
bunnes--
bur--
burch--
burg--
c--
ca--
cer--
ch--
cha--
che--
chs--
ck--
cla--
co--
colo--
com--
con--
conse--
corp--
cory--
cra--
cri--
cult--
d--
da--
daach--
daams--
dai--
dail--
daitsch--
dal--
dalhu--
dar--
dau--
de--
deck--
dei--
deidsch--
del--
dem--
deng--
der--
des--
di--
diag--
die--
dienschd--
diff--
diggda--
diph--
disc--
dl--
do--
dod--
dode--
dodua--
doku--
dom--
dor--
dorsch--
dos--
dr--
drai--
dre--
drei--
dro--
dt--
du--
dun--
dz--
e--
ea--
ead--
eainna--
ech--
eck--
eco--
ed--
ee--
eff--
effiz--
eh--
ehe--
ehr--
ei--
eich--
ein--
eis--
ele--
eller--
else--
em--
emig--
emoti--
en--
end--
eng--
ent--
ento--
ents--
entspre--
environ--
epp--
er--
eraus--
erb--
erd--
erhe--
ern--
ero--
erza--
es--
esch--
est--
et--
eu--
ewe--
ex--
exam--
expla--
explo--
f--
fa--
fach--
fahr--
fai--
faija--
fas--
fast--
fd--
fe--
fehl--
feld--
fels--
fer--
fers--
feschd--
ff--
ffentli--
fi--
finan--
finn--
fisch--
fla--
fle--
fli--
flo--
flu--
fluuch--
fo--
for--
foto--
frai--
fre--
frei--
fremd--
fro--
fronse--
fru--
ft--
fu--
g--
ga--
gar--
gd--
ge--
geb--
gebi--
gee--
gefer--
geg--
geje--
gek--
gemein--
gen--
genu--
geo--
ger--
gesche--
geschichts--
gesund--
gewa--
gewerbe--
gfo--
gha--
ghe--
gi--
gimm--
gimna--
glas--
gle--
gli--
glima--
glo--
gma--
go--
gold--
golf--
govern--
grab--
gras--
gre--
gri--
groß--
gru--
grumm--
grund--
gsamd--
gsamt--
gsch--
gso--
gu--
guin--
h--
ha--
haab--
haar--
habs--
habsbu--
hai--
haid--
halde--
ham--
hand--
hang--
hans--
hanse--
har--
harm--
hau--
haubd--
haupt--
haus--
he--
heag--
hee--
hehe--
hei--
heidels--
heimat--
hems--
hen--
her--
herme--
herr--
heyls--
hi--
hie--
hig--
hilde--
hin--
his--
hl--
hm--
ho--
hoch--
hof--
hoh--
hohe--
holtz--
holz--
hond--
hoo--
how--
hr--
hu--
hus--
i--
id--
ide--
ideo--
ie--
ieb--
ig--
iggel--
ii--
im--
impo--
improve--
in--
indica--
indr--
infra--
ing--
inne--
ins--
inter--
inve--
ip--
iro--
irr--
irre--
is--
it--
itter--
iwa--
iww--
iwwa--
iwwer--
j--
ja--
jachd--
je--
jetter--
jewail--
jie--
jii--
jin--
jo--
johres--
johrhu--
ju--
jung--
k--
ka--
kaddo--
kado--
kaiser--
kal--
kand--
katze--
kauf--
kaukas--
ke--
kenn--
ki--
kim--
kimms--
kir--
kirr--
kla--
kle--
kli--
klu--
kno--
ko--
koi--
kolo--
kolu--
kom--
komb--
kombon--
konf--
konfessi--
kons--
konson--
korz--
krais--
kre--
kri--
kridi--
ku--
kumm--
kurfir--
kwa--
l--
la--
ladoi--
lage--
land--
landes--
lau--
laur--
ld--
le--
lee--
lei--
leon--
lewwer--
li--
lider--
lieb--
lied--
lig--
linde--
linksrhoi--
lit--
lk--
ll--
lo--
lob--
lokal--
lomb--
lond--
londes--
long--
ls--
lu--
lud--
lufd--
lup--
luschd--
ly--
lz--
m--
ma--
maa--
maagd--
mad--
mag--
mai--
mal--
man--
mar--
mas--
mat--
me--
mea--
medall--
mee--
mega--
meh--
mehr--
mei--
mens--
mer--
mess--
mexi--
mi--
micro--
mid--
middel--
middl--
mie--
miet--
mill--
miss--
mit--
mittel--
mittler--
mm--
mme--
mo--
mol--
monch--
monibu--
moor--
morsch--
mos--
ms--
mu--
mudda--
muggas--
mund--
mundaad--
mundart--
my--
myt--
n--
na--
nach--
nadsi--
nadur--
naherholungs--
nai--
nain--
nd--
nder--
ndes--
ndli--
ne--
ned--
neg--
negger--
nei--
nen--
nes--
neu--
new--
nft--
ng--
nge--
ni--
nie--
nied--
nieda--
niedage--
nieder--
nk--
nn--
nna--
no--
noad--
noch--
noo--
nor--
nord--
nordeschd--
not--
ns--
nu--
nz--
o--
oa--
oan--
ob--
ober--
of--
offe--
og--
oge--
ogger--
oh--
oi--
oig--
oige--
oiged--
oiger--
ois--
okto--
om--
on--
onna--
oo--
op--
or--
ord--
ords--
ort--
orts--
ortsvor--
os--
oschd--
ost--
ot--
ott--
otter--
ou--
ower--
owwa--
owwer--
p--
pa--
paag--
paffe--
palz--
pat--
pattna--
pe--
peder--
per--
persen--
pf--
pfa--
pfei--
pi--
pl--
pla--
platt--
plo--
po--
popu--
pord--
pre--
pri--
pro--
probabi--
prote--
pu--
pul--
py--
q--
qua--
quadrat--
qui--
r--
ra--
rac--
rad--
radsmidg--
raff--
ran--
rat--
rats--
rau--
raupen--
raus--
rausg--
rb--
rch--
rd--
rder--
rds--
re--
reag--
red--
ref--
regi--
rei--
reichs--
rein--
rek--
rem--
ren--
reno--
rer--
res--
reschd--
reu--
reze--
rf--
rfah--
rg--
rhe--
rhein--
rhoi--
rhoin--
ri--
rich--
rie--
ring--
rk--
rke--
rki--
rm--
rn--
ro--
rode--
roi--
rom--
rose--
rosen--
rott--
rr--
rs--
rsch--
rt--
ru--
rz--
s--
sa--
saa--
saar--
sach--
sal--
salz--
sat--
sau--
saua--
sc--
sch--
scha--
schae--
schaus--
schbe--
schbo--
schbre--
schbroch--
schd--
schdadd--
schdadt--
schdor--
sche--
schi--
schna--
scho--
schorna--
schreib--
schuh--
schwe--
schwei--
scient--
se--
seg--
sel--
sen--
sendem--
separat--
ser--
ses--
shi--
si--
sid--
sideschd--
sidos--
sie--
sieb--
sied--
siedeschd--
sil--
sim--
sin--
ski--
skul--
slo--
sm--
so--
sog--
sogen--
sor--
sp--
spa--
spee--
speh--
ss--
sse--
st--
sta--
stadt--
statt--
stauf--
ste--
stein--
sto--
stra--
stre--
stu--
su--
sub--
summer--
sun--
sunn--
sy--
syna--
t--
ta--
tal--
tau--
te--
tech--
teil--
tem--
temberadur--
ter--
terri--
tesch--
the--
theored--
thi--
tho--
ti--
tibb--
tie--
tief--
tip--
to--
tour--
tra--
tradizi--
tre--
tri--
tripp--
tro--
tru--
truus--
ts--
tu--
turn--
ty--
u--
ua--
uf--
uff--
uffg--
uffs--
uffzu--
ug--
uhr--
um--
umg--
umge--
umwelt--
un--
una--
uni--
unna--
unner--
uns--
ur--
ursp--
us--
utten--
uu--
uug--
v--
va--
vadaid--
val--
vale--
van--
vatika--
ve--
ver--
verb--
verfi--
vermudl--
vi--
vic--
viel--
viertel--
vo--
voa--
volgs--
volks--
vor--
w--
wa--
wah--
wahl--
wai--
waib--
wal--
wald--
wassa--
we--
web--
wee--
weg--
wehr--
wei--
weib--
weihn--
weihnachts--
wein--
weld--
welt--
weltraum--
wem--
wen--
werd--
werk--
wes--
weschd--
wescht--
west--
whi--
wi--
wichd--
widda--
wies--
wiki--
wild--
will--
win--
wind--
winzi--
wir--
witten--
wo--
wohn--
woi--
woihn--
wolfs--
wu--
x--
y--
z--
za--
zahl--
zaid--
zamme--
ze--
zei--
zeit--
zers--
zi--
zie--
zu--
zug--
zuge--
zuged--
zuminde--
zwe--
zwi--
ß--
--0
--1
--2
--3
--4
--5
--6
--7
--8
--9
--a
--aan
--ab
--ach
--ad
--adur
--af
--afd
--aft
--ag
--ai
--aid
--ail
--ain
--aja
--al
--ale
--am
--an
--ana
--ance
--and
--ane
--ang
--ange
--ar
--araije
--are
--ari
--arm
--art
--ary
--as
--ase
--at
--ation
--atz
--au
--aus
--awe
--ay
--azion
--b
--ba
--bach
--bad
--bank
--bar
--bare
--bau
--bb
--bd
--be
--bedruch
--ben
--ber
--berg
--beza
--boch
--born
--bruck
--bs
--bst
--bu
--buch
--burg
--buri
--bursch
--c
--ca
--ce
--ces
--ch
--cha
--chbiel
--chd
--che
--chel
--chl
--chluss
--chnidd
--chniddlisch
--chs
--chse
--cht
--ck
--cke
--cking
--ckt
--ct
--ction
--ctive
--cula
--cum
--cy
--d
--da
--dad
--dadt
--daischung
--dal
--dd
--de
--deel
--der
--derium
--des
--di
--diad
--die
--direktion
--div
--dl
--dler
--dlich
--do
--dorf
--dra
--drooß
--ds
--dsion
--dt
--du
--dum
--dumm
--dung
--dus
--dy
--dz
--dzd
--dze
--e
--eb
--eba
--eck
--ed
--eda
--edaild
--ede
--edzd
--ee
--eer
--ef
--egg
--eh
--ehd
--ehe
--ehend
--ehofe
--eht
--ei
--eim
--eit
--el
--ela
--ele
--ell
--elld
--elle
--ellt
--elt
--em
--en
--ence
--end
--ene
--ens
--ent
--enumme
--enz
--er
--erd
--ere
--erei
--ering
--ern
--ert
--erweis
--es
--esie
--esse
--et
--ete
--ett
--ette
--etzt
--ew
--ewe
--ext
--ez
--eza
--f
--fa
--fald
--fd
--fe
--fel
--feld
--feschd
--ff
--ffe
--ffl
--fla
--fod
--folga
--fort
--fra
--ft
--fte
--fu
--ful
--g
--ga
--gan
--gau
--gd
--gdiv
--ge
--gebied
--gebiet
--gel
--gg
--ggd
--gge
--gie
--gio
--gl
--gong
--grenz
--grubb
--gs
--gse
--gt
--gu
--gung
--gus
--h
--ha
--haid
--hal
--hall
--haupt
--haus
--hd
--he
--heim
--hem
--her
--hi
--hie
--hin
--hl
--hld
--hn
--hof
--hoffen
--hold
--hr
--hrt
--ht
--hu
--hung
--i
--ia
--iad
--iae
--ial
--iale
--ib
--ibd
--ible
--ibt
--ic
--ical
--ich
--iche
--icht
--ick
--ics
--icum
--id
--ida
--ide
--ided
--ider
--iderd
--idung
--idunge
--idzd
--ie
--iege
--ier
--ierd
--ierde
--iere
--iert
--ies
--ifd
--ife
--ig
--iga
--igd
--ige
--iger
--igg
--iggel
--igung
--iht
--ii
--ije
--ik
--ika
--iker
--il
--ile
--im
--ima
--immt
--in
--ind
--ine
--ing
--inge
--ini
--io
--ion
--ip
--ir
--irad
--is
--isch
--ische
--ischung
--ise
--isierd
--ismus
--it
--ities
--ity
--ium
--ius
--iv
--ival
--ive
--iwe
--iße
--j
--ja
--jare
--je
--jegd
--k
--ka
--kaid
--kaide
--ke
--keit
--kel
--ker
--kes
--ki
--kin
--kra
--ks
--kson
--kt
--l
--la
--land
--lbach
--ld
--lde
--le
--leaks
--legt
--ler
--lf
--li
--lia
--lich
--liche
--lichen
--lin
--ling
--lis
--lisch
--lische
--lisches
--lje
--ll
--lla
--lld
--lle
--llt
--lm
--lming
--ln
--lo
--lond
--lor
--los
--ls
--lsaß
--lschboch
--lse
--lt
--ltung
--ltz
--lung
--ly
--lz
--m
--ma
--man
--mann
--mara
--maua
--mberg
--md
--me
--meer
--meeschda
--mend
--mer
--mes
--mi
--middl
--mie
--min
--mm
--mme
--mmel
--mmung
--mo
--mol
--mols
--mon
--mp
--mse
--mt
--mu
--museum
--n
--na
--nad
--nc
--nce
--nces
--nd
--nda
--nddeel
--nde
--nder
--ndorf
--ne
--ned
--nehma
--nem
--ner
--ness
--nfels
--ng
--ngd
--nge
--nheim
--ni
--nie
--nik
--nis
--nisch
--nische
--nisse
--nn
--nna
--nnd
--nne
--nnte
--nnung
--no
--ns
--nsis
--nstein
--nt
--nthal
--nung
--ny
--nz
--o
--och
--od
--ode
--of
--off
--og
--ogie
--ogy
--oi
--ois
--ok
--ol
--ologe
--omm
--on
--ond
--ong
--onge
--ont
--or
--ord
--ore
--orf
--orsch
--ort
--orwe
--os
--oss
--osse
--ot
--othy
--ott
--ox
--oy
--p
--pa
--pd
--pf
--poschd
--pp
--ppe
--pra
--preis
--pt
--pte
--pungd
--punkt
--quin
--r
--ra
--raad
--rad
--raich
--raisch
--ral
--rase
--raum
--rb
--rce
--rch
--rd
--rde
--re
--reckt
--reich
--reid
--reit
--rer
--reschd
--ret
--rf
--rg
--rge
--ri
--ribb
--rie
--rieb
--rin
--ring
--ris
--rm
--rn
--rnadsionale
--ro
--roff
--rom
--rot
--rre
--rs
--rt
--ru
--rum
--rung
--rv
--ry
--s
--sa
--saal
--sache
--sade
--sadz
--said
--sau
--sb
--sba
--sbach
--sburg
--sch
--schafd
--schafdswahl
--schaft
--schd
--schda
--schde
--schdifd
--sche
--sd
--sdaach
--sde
--sdeil
--sdorf
--se
--see
--sey
--sfeld
--sfla
--sg
--sh
--shaafe
--shafe
--sheim
--si
--siv
--sive
--ska
--sl
--sle
--sma
--smann
--sne
--so
--son
--sort
--sreform
--ss
--sschul
--sse
--ssl
--sso
--sst
--ssystem
--st
--sta
--ster
--stett
--stra
--stroff
--stroß
--su
--sverein
--sveroi
--swahl
--sza
--t
--ta
--tag
--tal
--tation
--te
--ted
--tel
--ten
--ter
--tes
--th
--thal
--tics
--tiech
--tin
--tion
--tive
--tlich
--to
--tra
--trepp
--troff
--ts
--tsch
--tt
--tum
--turm
--ty
--tz
--tze
--u
--ua
--ual
--ub
--ubd
--uches
--uck
--ud
--ue
--uel
--uer
--ues
--ufa
--uffbau
--ug
--uistic
--ul
--ults
--um
--un
--una
--ung
--unge
--ur
--urd
--urm
--uropa
--us
--ut
--uwbd
--uwe
--ux
--uzd
--uß
--ußen
--v
--va
--vakea
--val
--ve
--verordnung
--w
--wa
--wal
--wald
--wb
--we
--wea
--weag
--weg
--wegs
--wehr
--wel
--werk
--wi
--wn
--wo
--wu
--wung
--wurf
--x
--xe
--y
--yl
--ys
--z
--za
--zahl
--zaid
--zd
--ze
--zeit
--zel
--zend
--zig
--zion
--zione
--zle
--zu
--zuch
--zz
--ß
--ßd
--ße
--ßichja
