!
"
#
##0
##1
##10
##11
##12
##13
##14
##15
##16
##17
##18
##19
##2
##20
##21
##22
##23
##24
##25
##26
##27
##28
##29
##3
##30
##31
##32
##33
##34
##35
##36
##37
##38
##39
##4
##40
##41
##42
##43
##44
##45
##46
##47
##48
##49
##5
##50
##51
##52
##53
##54
##55
##56
##57
##58
##59
##6
##60
##61
##62
##63
##64
##65
##66
##67
##68
##69
##7
##70
##71
##72
##73
##74
##75
##76
##77
##78
##79
##8
##80
##81
##82
##83
##84
##85
##86
##87
##88
##89
##9
##90
##91
##92
##93
##94
##95
##96
##97
##98
##99
$
%
&
'
(
)
*
+
,
-
.
/
0
00
000
01
012
0140
02
03
04
05
06
07
08
081
09
1
10
100
1000
1002
101
1016
102
103
105
10665
109
1093
11
110
111
112
1136
117
12
120
121
125
126
128
13
132
14
1450
14651858
15
150
1500
152
1545
1561
16
1624
1626
1636
164
1660
1665
1669
17
1758
18
180
1800
1803
1809
1849
1850
1852
1857
1864
1865
1867
1868
1875
1877
1880
1881
1882
1885
1886
1887
1888
1889
189
1890
1891
1892
1896
1898
1899
19
1900
1901
1902
1903
1904
1905
1906
1907
1908
1909
1910
1911
1912
1913
1914
1915
1916
1917
1918
1919
1920
1921
1922
1923
1924
1925
1926
1927
1928
1929
1930
1931
1932
1933
1934
1935
1936
1937
1938
1939
1940
1941
1942
1943
1944
1945
1946
1947
1948
1949
1950
1951
1952
1953
1954
1955
1956
1957
1958
1959
1960
1961
1962
1963
1964
1965
1966
1967
1968
1969
197
1970
1971
1972
1973
1974
1975
1976
1977
1978
1979
1980
1981
1982
1983
1984
1985
1986
1987
1988
1989
1990
1991
1992
1993
1994
1995
1996
1997
1998
1999
2
20
200
2000
2001
2002
2003
2004
2005
2006
2007
2008
2009
201
2010
2011
2012
2013
2014
2015
2016
2017
2018
2019
2020
2021
2022
209
21
215
22
224
225
23
230
235
24
240
241
242
243
245
246
25
250
25530442
26
261
262
263
27
28
2845864949
29
290
291
296
299
3
30
300
31
32
33
34
35
350
36
365
366
37
371
37277
38
380
382
383
385
39
4
40
400
41
42
421
429
43
44
45
46
47
48
49
494
5
50
500
51
52
53
54
55
56
5688008
569
57
58
59
599
6
60
61
61682
62
63
64
65
66
67
672
6736
68
685
7
70
700
71
7234
75
76
77
79
8
80
800
81
82
83
84
84586
85
89
9
90
900
91
92
93
930
930369
93142
94
95
97
978
98
9859
99
9963
9966
9973
999
999516496
:
;
<
=
>
?
@
[
\
]
^
_
a
aa
aaaai
aba
abako
abalaka
abanda
abandaki
abandi
abania
abba
abc
abe
abeba
abeti
abgerufen
abi
abidjan
abika
abimisaki
abo
abomaka
abord
abota
abotama
abotamaka
abotamaki
abotami
about
above
abrahama
abril
absence
abu
abuse
ac
acade
academia
academy
accents
accident
accord
accords
accra
accueil
acide
acte
action
actions
actrice
actualite
actuel
acute
ad
adelf
adiac
adidas
administration
administrative
adolphe
adorables
adoula
adresse
adult
adɛlɛ
ae
aequatoria
afa
afabɛ
afdl
affaire
affaires
afili
afonso
afri
africa
africain
africaine
africaines
africains
africamuseum
african
africana
africanum
africultures
afrika
afrikansi
afrique
afrisson
afro
after
against
age
agence
agents
agriculture
agrifor
ah
ahidjo
ahmadou
ahmed
ahnt
ai
aid
aide
ailleurs
aime
aimelia
ainsi
air
aires
airways
ais
aise
ajoute
aka
ake
akela
akeli
akendaki
aketi
ako
akobelela
akoka
akoki
akoli
akoma
akomaka
akomaki
akomi
akon
akosa
akoti
akozala
aku
akufa
akufaka
akufaki
akufi
akutanaka
akɔ
al
alain
alakisaki
alandi
alata
albania
albert
albertville
album
alcapone
alchimie
alcohol
alcoholism
ale
alexandre
alfred
ali
aliaka
alias
alima
alimentation
alinga
alingaka
alingaki
alingi
alisation
alise
alje
aljeria
all
allafrica
allah
alle
allen
allergic
allergie
allergies
allergy
alliance
alo
alobaki
alobi
alors
alpes
alphonse
alpi
also
alta
alto
alube
aluki
alvaro
am
ama
amada
amadou
amazon
amazoni
amba
ambulance
ame
ameli
amen
ameri
america
american
amerika
ami
amini
amoni
amor
amour
amoxicillin
amoxicilline
amphimas
ampicillin
amsterdam
an
analysis
anaphylaxis
ance
ances
ancien
ancienne
and
andre
ane
angeles
anges
anglais
angle
ango
angola
angolense
anicet
animaldiversityweb
animateur
anjelu
anna
annales
anne
annexe
annonce
anoalite
anorexie
ans
anta
antartika
anti
antibiotics
antibiotique
anticorps
antivirus
antoine
antonio
antonov
anvers
ao
aou
apesaki
apesi
apo
aponami
aponi
apple
applique
apprentissage
apps
apre
apri
april
aprili
apɔ
apɛ
apɛsi
aquin
arabe
arabia
arbres
arche
architecture
archive
archived
archives
are
argent
argentina
arkive
armas
arme
arona
arre
arrondissement
arrondissements
art
arte
arthur
article
articles
articulation
artist
artiste
arts
aruba
as
asa
asala
asalaka
asalaki
asali
asbl
asengeli
asengi
ashem
asi
asia
asie
asilisaki
aso
asp
aspirine
aspx
assainissement
assemble
assemblee
assigned
association
asthma
asɛ
at
ata
atako
atanga
atangaka
ate
athle
ati
atikele
ation
atlanti
atlantic
atlantique
atlas
atome
atomi
attempt
attention
au
aube
aubert
aucun
aucune
audio
auf
aug
augu
august
augustin
aujourd
aushi
aussi
australia
auteur
autobiography
autre
autres
aux
ava
avait
avant
avc
avec
avenir
aventures
avenue
aviation
avion
avoir
avoka
avril
awa
award
awards
awei
awilo
awuti
aya
ayaki
aye
ayebani
ayebisi
ayei
aza
azala
azalaka
azalaki
azali
azalki
azerbai
azi
azia
azo
azongaki
azur
azwa
azwaka
azwaki
azwi
azɛrbayza
b
ba
bab
baba
babale
babandaki
babandi
babateli
babe
babengaka
babengi
babi
babo
babola
baboti
babu
babundi
baby
babɔ
babɛ
bacillus
bacte
bade
badollar
baenga
bafa
bafacteur
bafandaka
bafandi
bafungoli
bago
bai
baka
bakala
bakambi
bakanja
bakatolike
bake
bakei
bakisa
bakli
bako
bakoka
bakokaki
bakoki
bakoko
bakolo
bakoma
bakomi
bakompanyi
bakongo
bakonzi
bakosa
bakosala
bakozala
bakri
bakristu
baku
bakuba
bakufa
bakufaka
bakufaki
bakufi
bakɔ
bakɛ
bakɛsɛ
bala
balaba
balabala
balakisaka
balandi
bale
bali
balingaki
balingi
balise
baloba
balobaka
balobi
baltimore
balubakat
bamama
bamanisa
bamba
bamboka
bambula
bameki
bami
bamisi
bamisioni
bamumpɛ
bana
banamongo
band
banda
bandako
bandalu
bandeira
bandeke
bandeko
bandi
bandimi
bandundu
bandɛkɛ
banei
banga
banganga
bangi
bango
bangomba
bani
baninga
bank
bankombo
banks
bankɔ
banque
banso
bansɔ
banto
bantoma
bantous
bantu
banyama
banza
banze
banzela
banzembo
banzo
banɔ
baoyo
bapanzi
bapaya
bapesa
bapesaka
bapesi
baptiste
bapuwa
bapɔna
bapɛ
barabi
barbara
barcelona
barking
barly
barranquilla
barre
bartlett
barumbu
baruti
bas
basa
basala
basalaka
basalaki
basaleka
basalela
basalelaka
basaleli
basali
basambisi
basanaka
basango
basani
basankusu
basanza
basapoli
base
based
basengeli
basho
basi
basila
basili
baskin
basoda
basoko
bass
basse
basu
basusu
basɔda
bat
bata
batata
batatoli
bate
bati
bato
batterie
batu
batɛ
bau
baudouin
bava
bavua
baya
bayaka
baye
bayeba
bayebi
bayei
bayekoli
bayi
bayu
bayuda
baza
bazala
bazalaka
bazalaki
bazali
bazangi
bazar
bazo
bazuaka
bazuaki
bazui
bazwa
bazwaka
bazwaki
bazwamaka
bazwami
bazwi
bbc
bcbg
bcc
bcg
bck
bd
be
beau
beauffort
beaux
bebe
became
bedel
before
bei
beki
beleo
belezi
belge
belges
belgique
beljika
belkhodja
belle
bemba
ben
benga
beni
benin
benoi
benoit
benziger
ber
berlin
bern
bernard
best
beteleme
beti
between
beyond
bi
bia
bibale
bibandaka
bibende
bibiliya
bible
bibli
biblia
bibliographie
bibliothe
bichir
bidens
bien
biens
bienvenu
bifelo
bifu
big
bigumba
bije
bikeko
bikela
biko
bikoki
bikolo
bikoro
bilamba
bilanga
bild
bile
bilei
bileko
bilembo
bilenge
bili
bilili
bill
bilo
biloko
bilɔ
bilɛngɛ
binama
bing
bingu
bingumba
bino
binso
binza
biographie
biographies
biography
bipa
bipai
bipayi
birago
birth
bis
bisa
bisanga
bisau
bise
bisi
bisika
biso
bisu
bisusu
bita
bite
biteni
biteyelo
bitstream
bitu
bituka
bituluku
bitumba
biyamba
biye
biyi
bizaleli
bizali
black
blaise
blanc
ble
bleu
blindness
blog
blogi
bloomberg
bmj
bo
boa
bob
boba
bobateli
bobe
bobebi
bobele
bobeti
bobi
bobimisi
bobo
bobokoli
bobola
bobomi
bobongisi
bobongo
bobongoli
boboto
bobu
bobɔ
bobɔngɔ
bobɛ
body
boeck
boeing
boende
bogota
bohumbu
boi
bois
boka
bokaboli
bokabwani
bokambemi
bokambi
bokangami
bokangi
bokasi
bokauki
boke
bokebi
bokei
bokeli
bokengi
bokeseni
bokli
boko
bokokani
bokoki
bokoli
bokolisi
bokolo
bokolongono
bokomi
bokono
bokonzi
bokoti
boku
bokulaka
bokundoli
bokungu
bokuse
bokɔ
bokɔnɔ
bokɛ
bokɛsɛni
bola
bolai
bolamu
bolanda
bolandi
bolasie
bolei
bolembu
bolingo
bolo
bolobo
boloko
bololo
bolongoli
bolu
boluki
bolya
boma
bombo
bomeli
bomi
bomoi
bomoko
bomoto
bomoyi
bomwa
bomwana
bomɔ
bomɔi
bomɛmi
bon
bona
bondeko
bondimi
bondo
bondɔbɔ
bonene
bonganga
bongo
bongɔndɔ
boni
bonka
bonkita
bonkɔ
bono
bonobo
bonsomi
bonsɔ
bonza
bonze
bonɛ
book
books
bope
bopemi
bopesi
bopɔnami
bora
bordeaux
border
borne
bosa
bosaleli
bosali
bosalisi
bosangisi
bose
bosembo
bosenga
boso
bosoto
boston
bosu
bosɔ
bota
botangi
botanical
botanique
bote
boti
boto
botongi
botswana
botulisme
botɔmbɔki
bou
bouge
bouger
boulenger
bouvieri
bowe
boya
boyambi
boyangeli
boye
boyebi
boyekoli
boyi
boyibanda
boyike
boyo
boyokani
boyu
boza
bozali
bozangi
bozindo
bozinga
bozito
bozongisi
bozwi
br
braeckman
brain
bral
brale
branham
brasil
brazil
brazza
brazzaville
bre
breastfeeding
brenan
brita
british
bronze
bruney
bruno
bruxelles
bs
bu
bua
buda
budget
buenos
bugume
building
buka
bukama
bukasa
bukavu
buku
bula
bulamatari
bulayumi
bule
bulgaria
bulimie
bulletin
bumba
bundu
bunya
burden
bureau
burkina
burundi
bus
bush
bushiri
bushnell
business
businga
but
buta
butembo
butu
butuka
buye
buzali
bwa
bwaka
bwanga
bwango
bwanya
bwenza
by
bya
byango
bɔ
bɔngɔ
bɛ
bɛndɛ
c
ca
cacert
caf
cahiers
cain
cali
california
call
calmette
caludji
cambridge
cameroun
camp
campagne
campus
can
canada
cancer
cancertopics
cap
cape
capital
capitale
capone
caracte
carai
care
carie
carl
carlyto
carre
carrie
carte
cas
cases
catalogue
cataractes
catch
cate
cathe
catholique
cause
causes
cbr
cc
ccci
cd
cdc
ce
cec
ceeba
cefaki
cela
celeo
celta
celui
cembre
census
cent
center
centimes
central
centrale
centre
century
cerea
cerf
ces
cet
cette
cfc
cfk
cfl
cfm
cfmk
cfu
ch
cha
chai
champions
change
chansons
chant
chanteur
chanteurs
chants
chaplin
chapter
chapwe
chaque
charge
charite
charles
charte
che
chef
cheikh
chemin
chemins
chez
chicago
chickenpox
child
children
chimie
china
chine
chinois
chloroquine
choc
choix
chorus
chre
christ
christian
christophe
chronic
chronique
chronologie
chrysichthys
ci
cial
ciale
cicos
cie
ciel
cieux
cilt
ciluba
cine
circonscriptions
circulation
cishugi
cit
citation
cite
cites
city
civil
civile
civilisations
claire
class
classe
classification
claude
cle
clinical
clinics
clinton
clip
cliquer
club
cm
co
coast
coca
cochrane
code
codes
coeur
col
cola
cole
colette
coll
collaboration
collaborators
colle
collection
college
colombia
colonial
coloniale
colonie
colonies
colonisation
colonne
color
com
combat
come
comite
comme
comment
commerce
commerciale
commission
committee
common
commons
communaute
commune
communication
communications
como
compagnie
compagnies
company
comparer
comple
compositeur
composition
compte
conakat
concert
condition
conditioninfo
confe
confirmation
conflit
confusion
congas
congo
congolais
congolaise
congolaises
congolese
congonline
congopage
congoprofond
congre
conomique
conomiques
conscience
conseil
conservation
conside
constitution
constitutionnelle
construction
consulte
contact
contamine
contemporaine
content
contes
continent
contraception
contrat
contre
contributeur
contributeurs
contro
control
convention
conventions
coope
copa
coquilhatville
costalago
cote
cou
countries
country
coup
cour
courant
courrier
cours
couverte
covid
crash
cre
cret
crime
crise
crit
crite
critiques
criture
crivain
csk
cuba
cultural
culture
culturel
culturelle
culturels
cupe
curite
current
cuvette
cycle
cyclotis
cyrille
cœur
d
da
dabany
dagenham
daget
dagogique
daille
daisy
dakar
dallas
damas
dame
damɛ
dan
danger
dangu
daniel
dans
dar
dard
das
data
database
date
david
davis
day
dc
de
death
debaba
debout
dec
decantor
december
decine
deezer
defao
defoe
deja
del
dela
deluxe
dem
demba
democratic
demokrasi
demokrati
demokratiki
den
denis
dent
department
deplick
depression
depuis
der
dernier
derrie
des
desc
desire
dessin
dessins
destin
details
deux
devant
development
devient
di
dia
diagnosis
diagnostic
dialium
diamond
diane
diantantu
dias
diaspaul
dich
dictionary
dictionnaire
didier
die
diego
diels
dien
dietrich
dieu
dieudonne
diffe
digital
digitalcongo
dilolo
dina
dindo
dindon
diome
diop
dipanda
diplo
diplomatique
dique
dir
dire
direct
directeur
direction
discogs
discontinued
discours
discussion
disease
diseases
diski
disorder
disorders
distance
distichodus
district
dit
dite
diterane
dition
ditions
ditu
diversite
dix
dj
djan
djemila
djili
djo
djuna
dm
dmpguide
dms
do
doctorat
documentaire
documentation
documents
doi
dokotolo
doktolo
dola
dollars
domaine
dominer
dominguez
dominique
don
donc
donne
donnera
dont
dorment
dos
dose
douala
double
doudou
dour
down
dp
dr
drc
droit
droits
drug
drugs
drum
du
duala
ducati
ducation
duculot
during
duvalle
dvd
dyosɛ
dzemi
dzokanga
dɔ
dɛsɛ
e
east
eating
eau
eba
ebakisaka
ebale
ebamba
ebanda
ebandaka
ebandaki
ebandela
ebandelaka
ebandeli
ebandelo
ebandi
ebatelaka
ebe
ebele
ebembe
ebende
ebengami
ebengeli
ebima
ebimaka
ebimaki
ebimelaka
ebimi
ebimisaka
ebimisaki
ebimisami
ebinamaka
ebo
eboka
ebola
ebolo
ebomaka
ebonga
ebongi
ebongisami
ebongo
ebotami
ebre
ebu
ebɔ
ebɛ
ebɛbɛlɛ
ecole
ed
eda
edema
edisioni
edited
edition
editions
editor
edouard
edu
education
edward
efa
efelo
effects
effet
efu
eh
einsiedeln
ejipte
eka
ekabola
ekabolamaka
ekaboli
ekabwa
ekabwani
ekakoli
ekambami
ekanga
ekangami
ekaniselo
ekatamaki
ekateli
eke
ekeke
ekeko
ekela
ekelama
ekelamaka
ekelamaki
ekele
ekembe
ekesa
ekeseni
ekeyi
eki
ekitaka
ekitisaka
ekle
eklesya
eklezya
eko
ekobo
ekoka
ekokaka
ekokaki
ekokana
ekokani
ekoki
ekoko
ekokoma
ekokota
ekolaka
ekolakisa
ekolo
ekoma
ekomaka
ekomaki
ekomama
ekomami
ekomelaka
ekomi
ekono
ekopekisa
ekopesa
ekosa
ekosala
ekosalisa
ekosengela
ekosila
ekota
ekoti
ekoya
ekozala
eku
ekufa
ekulu
ekumisi
ekwate
ekwatorial
ekɔ
ekɔlɔ
ekɛ
ekɛsɛ
ekɛsɛni
el
ela
elai
elaka
elaki
elakisaka
elakisi
elamba
elamu
elandaka
elandaki
elandanaka
elandani
elandi
elanga
elastica
ele
election
eleison
eleka
elekaka
eleki
eleko
eleli
elembo
elenge
elengo
elephantidae
elephas
eli
eliba
elikia
elikya
elili
elimo
elingi
elizabeth
elle
elo
eloba
elobaki
elobamaka
elobami
elobi
eloko
eloli
elombe
elonga
elongi
elongo
elongobani
elu
ely
elɔ
elɔngɔ
elɛngɛ
em
emataka
embala
embe
emela
emelami
ememaka
ememaki
emeneya
emergency
emi
emisɔ
eml
emmanuel
emonanaka
emonani
emoniseli
emoto
empire
emɔ
en
ena
enama
encore
encyclope
ende
endimami
energie
enfants
eng
engbunduka
engebene
engineering
england
english
engu
engumba
engɛ
enne
enregistre
enregistrement
enseignement
entandrophragma
entre
entrepreneur
entreprise
entreprises
enugu
enver
enɛ
enɛnɛ
epa
epai
epanzani
epati
epayi
epe
epekiseli
epesaka
epesaki
epesamaka
epesami
epesi
epi
epidemiological
epidemiology
episkopi
episkopo
eposa
epu
epɛ
equateur
er
erazi
erc
eric
ero
eropa
erreur
es
esa
esala
esalaka
esalaki
esalamaka
esalamaki
esalami
esalelaka
esaleli
esalema
esalemaka
esalemaki
esalemi
esali
esalisaka
esanga
esangani
esangisi
esantu
esclavage
ese
esengaka
esengami
esenge
esengelaka
esengelaki
esengeli
esengi
esengo
esi
esika
esila
esilaki
esili
esita
eso
esode
espace
espania
espe
espoir
essai
essential
essentialmedicines
est
esta
esther
esu
esuku
esungaka
esɛ
esɛngɔ
esɛngɛ
et
eta
etabe
etali
etanda
etando
etat
etats
etazini
etc
ete
eteli
eteni
etern
eteyelo
ethnologue
eti
etienne
etikala
etiopi
eto
etongama
etongamaka
etongamaki
etu
etudes
etuka
etumangele
etumba
etungisaka
eu
euge
euro
europa
europe
european
euti
eux
eva
evandaka
evariste
every
evidence
ewu
ewuta
ewutaka
ewuti
ex
examen
excellence
exemo
exemple
existe
expe
exploitation
exploiter
explorer
exportations
exposure
expression
extra
extraordinaire
eya
eyaki
eyamba
eyano
eye
eyebana
eyebanaki
eyebani
eyenga
eyes
eyi
eza
ezala
ezalaka
ezalaki
ezalela
ezaleli
ezali
ezanga
ezangi
ezi
ezo
ezongaka
ezwa
ezwaka
ezwaki
ezwamaka
ezwamaki
ezwami
ezwi
f
fa
fabregas
fabrice
face
facebook
fact
facteur
facteurs
facts
factsheets
faculte
failure
faire
fait
faka
fakoly
fala
falanse
falansia
falaze
fali
fall
fally
famasi
famille
fao
faso
fatou
faune
faustin
faut
faux
fayard
fe
feat
featuring
feb
februari
february
febuari
febwa
fela
felly
felt
femme
femmes
fense
fer
fera
ferdinand
ferm
fernando
ferre
festival
feu
feux
fever
fi
ficarre
fiche
fichier
fie
field
fifa
fifi
fili
filiale
filime
fille
filles
film
filme
fils
fin
final
finances
finie
finilanda
finitive
first
fishbase
flam
flammarion
flamme
flavour
fleuve
flight
flora
floribert
fm
foi
foie
fois
fololo
fonction
fonctionnement
fondateur
fondation
fonds
fontaine
food
for
force
fore
forestie
format
formation
formatstatements
forme
former
formerly
formes
formulaire
fort
forte
forum
fossilworks
fou
foundation
fr
franc
france
franceville
franche
francis
francisco
franco
francophone
francophonie
frank
frankie
franse
fransia
fre
free
freebsd
french
frm
from
fromme
frontie
fruits
fs
ft
fu
fufu
full
fulu
funtumia
fut
future
fɛ
fɛlɛ
g
ga
gabon
gabriel
gabɔ
gaertn
gal
gala
galement
galileo
gallimard
gandhi
garcia
garden
garvey
gates
gation
gauche
gb
gbadolite
gbagba
gbagbo
gbd
ge
gecoco
gemena
gende
gene
general
genetic
genie
genre
gentil
geographic
geographical
george
georges
georgia
gestion
ghana
gide
gilbert
gili
gims
gine
gion
gional
gions
girl
gizenga
glarus
gle
glise
global
glonass
glopro
gloria
gnathonemus
go
gola
golwa
goma
gombe
good
google
gorie
gorilla
gorille
gott
gouvernement
gouverneur
gouverneurs
gov
government
governor
gps
gra
gradur
grale
grand
grande
grandes
grands
grave
gre
great
gregɔr
gresi
griot
grippe
group
groupe
groupement
groupements
groups
grupema
grupo
gsm
gu
gue
guerre
guesso
guide
guideline
guidelines
guinea
guitare
guitares
guthrie
guti
guvenema
guvɛnɛma
guy
guyguy
gwadelupe
h
ha
haiku
haiti
hall
hallain
hamilton
harmattan
harvnb
has
hatier
haut
have
havre
hbo
he
head
health
heart
hehren
heiko
helsinki
henri
henry
hepatitis
her
heritage
herman
hermann
hero
heure
heures
hilaire
his
histoire
historia
historic
historical
historique
history
hl
ho
holanda
holding
home
homme
hommes
hong
honneur
hook
hop
how
hrsg
htm
html
http
https
hui
human
humanite
hunger
hussein
huum
hydrocynus
hygiene
hypotension
i
iaaf
ibale
ibandi
ibm
ibn
ibra
ice
ich
id
ide
idrojɛ
if
ignace
ii
iii
ike
ikoki
ikɛ
il
ile
ilebo
ilingi
illustre
ils
ilunga
im
image
imme
immunise
immunite
immunology
impe
importante
impr
in
ina
inalco
included
inde
independe
index
india
indonesia
indonezi
industrie
infecte
infection
infections
infectious
inflammation
influence
influenceur
info
infobox
information
informatique
inga
inganos
ingas
inge
ingɔnza
ingɛlandi
ingɛlɛ
initiative
inmarsat
inongo
inscrit
insect
inso
instagram
institut
institute
int
inte
interface
international
internationale
interne
internes
internet
interneti
interpre
intervention
interventions
interview
intitule
into
introduction
invalide
inɛ
iou
ip
ipupa
ipv
irak
iran
iris
irlandi
is
isa
isbn
ische
isidore
isifi
isiro
isizulu
islamu
island
islands
ismae
israel
issn
isu
isusu
it
ita
italia
italya
itimbiri
itis
its
itu
itunes
ituri
iv
ivoire
iye
iyi
izalaka
izali
j
ja
jacob
jacques
jadi
jah
jahres
jakarta
jamai
jamaike
jamais
james
jan
januar
januari
january
janvier
japan
japon
japonais
jardin
jaune
jazz
jb
je
jean
jeannette
jeannine
jessy
jesus
jeune
jeuneafrique
jeunes
jeunesse
jeux
jimmy
jo
jobs
johannesburg
john
joly
jonas
jones
jose
joseph
josky
jospin
jour
journal
jours
jpg
jps
jr
jude
judo
jugement
juillet
juin
jules
juli
july
june
juni
jusqu
justice
justin
justine
k
ka
kabalo
kabange
kabila
kabinda
kabongo
kaboni
kabose
kabund
kabuya
kabwana
kaka
kala
kalaka
kalakala
kalala
kalambay
kalamu
kalayi
kale
kalemie
kalle
kalonji
kalundu
kama
kamanda
kamanyola
kamara
kamba
kambundji
kamerun
kamina
kaminyɔ
kamwani
kana
kanada
kananga
kanda
kandi
kanga
kani
kanisa
kanku
kanton
kanza
kapaya
karate
karl
karthala
kasa
kasaflo
kasai
kaseya
kashamura
kasi
kasongo
kastɔro
kasɛ
kata
katanga
kate
kategorie
kati
katika
katikati
katolike
katumbi
kawata
kazadi
kdl
ke
kela
kelasi
kende
kenge
kenji
kenya
kester
kg
kh
ki
kia
kiambukuta
kiamvu
kibangu
kiese
kifwafwa
kigali
kikongo
kikwit
kikɔ
kilembe
kili
kilo
kim
kimba
kimbangu
kimbanse
kimbembe
kimia
kimokonzi
kin
kina
kindoki
kindu
king
kingasani
kingdom
kingo
kingudingudi
kingwana
kini
kinkala
kino
kinsa
kinsasa
kinsha
kinshasa
kinyarwanda
kipushi
kirundi
kisa
kisaka
kisanga
kisangani
kisasa
kisi
kisimo
kiss
kiswahi
kiswahili
kitawala
kiti
kitoko
kitu
kitɔ
kivu
kiwanzenza
kizunguzungu
kleine
klementina
kli
klisto
km
kn
ko
koba
kobakisa
kobalola
kobalusa
kobanda
kobanga
kobatela
kobe
kobeba
kobebisa
kobela
kobenga
kobeta
kobi
kobika
kobikisa
kobikisama
kobima
kobimela
kobimisa
kobo
kobokola
koboma
kobongisa
kobongola
kobota
kobotama
koboya
kobunda
kobundisa
kobungisa
kobɔngisa
kobɛ
kobɛlɛ
kobɛtɛ
kofa
kofanda
koffi
kofu
kofungwama
koka
kokabola
kokabolama
kokamba
kokanga
kokangama
kokangisa
kokanisa
kokata
kokauka
kokela
kokende
koki
kokima
kokita
kokitisa
koko
kokoba
kokoka
kokokisa
kokola
kokolisa
kokoma
kokosola
kokota
kokotisa
koku
kokufa
kokundola
kokutana
kokɔ
kokɛndɛ
kola
kolakisa
kolala
kolamba
kolanda
kolandaka
kolandana
kolandela
kole
koleka
kolekisa
kolela
kolelas
koli
kolia
kolinga
koliya
kolo
koloba
kolobama
kolobela
kolombi
kolongola
kolongua
kolongwa
kolosoy
koluka
kolwezi
koma
komata
komatisa
kombo
komeka
komela
komelisa
komema
komi
komibatela
komini
komipesa
komitungisa
komiyoka
komo
komona
komonana
komonisa
kompani
kompanyi
kompi
komɔ
komɛma
konde
kondima
kondimana
kong
kongo
kongolo
koningana
koningisa
kontina
kopanza
kopanzana
kopasola
kope
kopekisa
kopema
kopesa
kopesama
kopu
kopɛ
kopɛsɛ
kora
kore
korneye
kosa
kosakana
kosakola
kosala
kosalama
kosalela
kosalema
kosalisa
kosangana
kosanganisa
kosangisa
kosanza
kose
kosenga
kosengela
kosepela
kosi
kosila
kosilisa
kosimba
koso
kosokola
kosolola
kosomba
kosovo
kosu
kosuba
kosukola
kosunga
kota
kotala
kotambola
kotanga
kotangisa
kotava
kotazo
kotdivuar
kotelemela
koteya
koti
kotia
kotika
kotiya
koto
kotondisa
kotonga
kotraiter
kotungisa
kotɛ
kou
koumba
koumela
kouta
kova
kovanda
kovi
kovimba
kowuta
koya
koyaka
koyamba
koyangela
koye
koyeba
koyebisa
koyekola
koyi
koyo
koyoka
koza
kozala
kozanga
kozela
kozonga
kozongela
kozongisa
kozua
kozuwa
kozwa
kozwama
kp
kri
krie
kristadelfe
kristo
kristu
ktron
ku
kua
kuba
kufaki
kuna
kunda
kundu
kusangila
kuti
kutu
kwa
kwame
kwango
kwasa
kwempa
kwilu
kwivre
kwɛlɔ
kya
kyamundu
kɔ
kɔli
kɛ
l
la
lab
labou
lac
lacey
lacoste
lacs
ladi
laffon
laka
laki
lama
lamaka
lamata
lame
lami
lana
lancet
land
landa
lang
langa
langages
langi
language
langue
languedoc
langues
lani
laprosperiteonline
larousse
las
lasi
lassy
last
latin
latina
latine
lation
latrine
latɛ
laure
laurent
lausanne
lazariste
lazaristes
le
league
lebou
lection
lections
lectrique
lectriques
lectronique
leipzig
leka
leki
lekilosi
lela
lelaka
lele
leli
lelo
lema
lemaka
lemba
leone
lepa
les
lesa
lestin
lesula
let
leta
lettre
lettres
leu
leur
leurs
lewis
lexique
lexiques
ley
li
lia
liaison
liale
lialemani
lialemaniki
liarabi
lias
liba
libaku
libala
libale
liban
libanda
libandeli
libe
libela
libele
libenge
liberia
liberte
libi
libo
liboke
liboko
libongo
liboso
libota
library
libre
libu
libulu
libumu
libwa
libɔ
libɔlɔ
libɛ
libɛki
lidjo
lidusu
lie
liechtenstein
lien
liens
lifalama
lifalanse
life
lifu
light
ligne
lignes
ligomba
ligreki
ligresi
lika
likabo
likama
likambo
likanisi
likanza
likasi
likati
like
likelelo
likembe
liki
likindo
likita
likitana
liko
likoki
likolo
likombi
likonza
likonzi
likroasi
liku
likutu
likwala
likɛ
lila
lilandi
lilatina
lili
lilita
liloba
lim
limbaya
limbe
limelo
limete
limites
limpinga
limpu
limɛmya
lina
linda
lindanda
linene
linga
lingala
lingi
lingo
lingomba
linguistique
lingwala
lingɛlɛ
lingɛlɛsa
lingɛlɛsi
linini
link
linnaeus
linne
linterlingue
linux
linyo
linɛ
liorer
liosita
lipa
lipanda
lipapu
lipaso
lipatɛ
lipeka
lipo
lipopo
lipu
lipulutugɛ
liputrugɛ
lipɔlɔ
lire
liromansh
lisa
lisabethville
lisakoli
lisala
lisalisi
lisanga
lisano
lisanɔ
lisapo
lisasala
lise
lisi
lisinwa
lisipelanto
lisitwale
lisolisi
lisolo
lisololi
lispanyoli
lissouba
list
liste
lisu
lisungi
lisusu
lisɛkisi
lita
litali
litaliano
lito
litomba
litoti
litte
little
litu
litwani
litɔkɔ
litɛ
live
livecode
liver
living
livingstone
livre
liwa
lix
liya
liyanzi
liye
lizala
lizali
lizapɔ
lizi
liziba
lizɛ
ljika
lloyd
ln
lo
loba
lobango
lobi
lobino
loboko
lobɔ
locomotives
lodja
logiciel
loi
loka
lokasa
loke
loki
lokito
loko
lokola
lokole
lokolo
lokota
loku
lokumu
lokwa
lola
lole
lolendo
lolenge
lomami
lombu
lomeko
lomi
lomposo
london
londoni
londres
long
longo
longomba
longondo
longue
lonka
lopa
lope
lopes
lophira
lopita
lopitalo
loposo
lors
los
losa
losambo
losu
lotango
lotili
loto
lotomo
louis
louise
louvain
love
lowi
loxodonta
loya
loye
loyembo
lozali
lozano
lp
lu
lua
lualaba
luambo
luba
lubamba
lubumbashi
lucie
luebo
lui
luka
lukeni
lukolela
luksamburg
luluabourg
lumie
lumumba
lunda
luta
luther
lutumba
luye
luzali
luzɛ
lya
lyango
lyce
lyon
lyɔ
lɔ
lɛ
lɛjika
lɛki
lɛlɔ
lɛsi
m
ma
maba
mabale
mabanckou
mabanga
mabe
mabele
mabende
mabene
mabi
mabiala
mabiki
mabila
mabina
mabo
maboko
mabongisi
mabota
mabunda
mabɔ
mabɔkɔ
mabɛ
madame
made
madesu
madihano
madoka
mafu
mafuta
magazi
magazine
mahatma
mahomet
mai
main
maintenance
maire
mais
maison
maitre
major
maka
makaba
makabo
makala
makalekale
makambo
makanda
makanisi
makanza
makasi
make
makedonya
makelele
makelelo
maki
makila
mako
makoki
makoko
makolo
makoma
makomami
makomi
makono
makonza
makotelema
maku
makɔ
makɛ
makɛlɛ
mala
maladi
maladie
maladies
malako
malamu
malandi
malapterurus
malaria
malariya
malasi
malawi
malayalam
malcolm
male
malebo
malele
malembe
malewa
malherb
mali
malili
malnutrition
maloba
malonga
malu
maluku
mama
maman
mambe
mambi
mamelo
mampinga
mampu
man
mana
management
manda
mandanda
mandjumba
mando
mandombe
maneno
mangangu
mangbetu
mangifera
mango
mangomba
mangwana
mangwele
mani
maniata
maniema
manneken
manning
manso
mansɔ
mantique
manuel
many
manyɔ
manza
manɛ
map
mapa
mapapu
mapata
mapinzo
maponami
maponomi
mapu
mapɔnɔmi
mar
marc
marcel
march
marche
marcus
maria
mariage
marie
marien
marillac
maritime
mark
marko
marley
marque
mars
marseille
marsi
marthe
martial
martin
martyru
marzo
marɔkɛ
mas
masa
masamba
masanga
masano
masapo
masedoni
masela
masi
masikini
masina
masini
masiya
masolo
mason
massamba
masu
masuba
masumu
masusu
masuwa
masɛ
mat
mata
matadi
matali
matanga
matari
matata
matayo
match
mate
matete
mateya
mati
matie
matiques
matiti
mato
matondo
matoyi
matsuo
matumu
matɛmbɛlɛ
mau
maurice
mavuba
mawa
mawampanga
maximus
may
maye
mayele
mayi
mayo
mayombe
mayumbe
mayɛ
mazalaka
mazali
mazembe
mb
mba
mbaka
mbaki
mbala
mbama
mbamaka
mbandaka
mbango
mbangu
mbano
mbanza
mbata
mbaya
mbe
mbela
mbele
mbeli
mbelo
mbembe
mbenga
mbengi
mbeto
mbeya
mbi
mbilinga
mbisa
mbisaka
mbisi
mbiye
mbo
mboka
mbokamosika
mbola
mbolaka
mbole
mboli
mbomba
mbombo
mbonda
mbonge
mbongo
mbongwana
mbota
mbotama
mbote
mbouity
mboyo
mbu
mbuisi
mbuji
mbula
mbulamata
mbulamatari
mbulu
mbuma
mbuyi
mbuyulu
mbwa
mbwaku
mbwe
mbwisa
mbwisi
mbɔ
mbɛ
mbɛbu
me
med
media
mediacentre
medical
medicine
medicines
medina
mediterane
mei
meilleur
meilleure
mela
melodia
melu
membre
menga
meningitis
ment
mento
ments
mes
mesure
met
meta
mettre
mexico
mexiko
mf
mfumu
mg
mgr
mi
mia
miango
miba
mibale
mibali
mibange
mibe
mibeko
mibembo
mibu
mibundi
michael
michel
michtom
micro
microsoft
middle
midi
mie
mignon
mika
mikakatano
mikanda
mikano
mike
mikili
miko
mikoki
mikolo
mikonzi
miku
mikɔlɔ
mikɛ
mila
milai
milangi
mile
mileli
milelisi
milieu
miliki
milimo
milioni
militaire
milk
mille
milliard
milliards
million
millioni
millions
milu
milulu
mimbo
mimesano
min
minaire
mindele
mindondo
mindu
mindule
mindɛ
mine
minei
minene
mines
minganga
mingayi
mingi
mingo
minh
mini
minie
minisele
ministe
ministre
ministɛlɛ
minkanda
mino
minoko
minso
minuti
minyo
minzɔ
minɔkɔ
minɛ
mipanzi
mipiko
mique
misa
misala
misalisi
misamu
misapi
misato
misatu
mise
misi
misili
miso
misolo
miss
missiles
mission
missionnaire
missouri
misu
misuni
misunyi
misusu
misyo
mit
mita
mitange
mitano
miti
mitindo
mito
mits
mitshopo
mitsopo
mitu
mituka
mituya
mixte
miye
miyi
miyindo
miyoyo
mizali
mizi
miziki
mizisa
ml
mm
mme
mo
moba
mobali
mobandisi
mobateli
mobe
mobeko
mobembo
mobi
mobikisi
mobile
mobimba
mobimisi
mobo
moboti
mobu
mobulu
mobundi
mobutu
mobɔ
mobɛ
mocratie
mocratique
mode
model
modern
moderne
modification
modifications
modifier
module
mohamed
mohombi
moi
moignage
moindo
moins
moipolitik
moire
mois
moise
moka
mokambi
mokanda
mokano
mokapo
moke
mokele
mokeli
mokenge
mokesa
moki
mokili
mokitaki
mokitani
moko
mokoki
mokolo
mokomi
mokoni
mokono
mokonza
mokonzi
mokosa
mokristo
moku
mokumba
mokuse
mokɔ
mokɔlɔ
mokɔndɔ
mokɔngɔ
mokɛ
mola
molai
molakisi
molangi
molangwa
molayi
molegbe
molende
moli
moliba
molili
molimo
molisi
molo
molobeli
molongo
molu
moluki
molunge
molɔ
molɔngɔ
momba
mombele
mombeye
mombo
mombongo
momboto
mombɔ
moment
mompɛpɛ
mon
mona
monaco
monama
monasitɛ
monastery
monde
mondial
mondiale
mondu
mondɛ
mone
monene
mongaba
mongala
monganga
mongelu
mongo
mongoli
mongongo
moni
moninga
monkanda
monkoma
monkɔ
monographie
monoko
monsisa
mont
montenegro
montoki
montpellier
montre
montunga
monuc
monuments
monyɔlɔ
monyɛlɛ
monzɔ
monɔkɔ
monɛ
monɛnɛ
mopakoli
mopanzi
mopaya
mope
mopepe
mopɛpɛ
more
morel
mormyrops
morragique
morris
mort
mortality
morton
mosa
mosakoli
mosala
mosali
mosani
mosantu
mosapi
mosapoli
mose
mosi
mosika
moske
mosku
moso
mosolo
most
mosu
mosuni
mosusu
mosɔ
mosɔlɔ
mosɔpɔ
mot
mota
motane
motango
mote
motema
moti
motindo
moto
motoba
mots
motu
motuka
motuya
motɛ
mou
moustafa
moutouari
mouvement
mova
movie
moya
moyambi
moyangeli
moye
moyen
moyens
moyi
moyindo
moyokano
moza
mozali
mozambi
mozambique
mozindo
mp
mpa
mpadi
mpaka
mpalata
mpalu
mpamba
mpanzi
mpanzu
mpasi
mpata
mpate
mpe
mpela
mpema
mpene
mpenza
mpete
mpeza
mpi
mpiana
mpiko
mpla
mpo
mpolo
mpona
mposa
mpose
mposo
mpota
mpote
mpoyo
mpu
mputu
mputulu
mpwe
mpɔ
mpɔndu
mpɛ
mpɛmbɛ
mpɛpɔ
mr
ms
msh
msiri
mu
mua
muana
mubiala
mujinga
muke
mukendi
mukoko
muku
mulumba
mumps
mumpɛ
munan
mundeze
mundibu
mundo
munene
mungbere
mungwa
musala
muse
musefu
museum
music
musica
musicien
musiciens
musique
musiques
mususu
mutombo
mutos
mutu
mutuka
muye
muzali
muzito
mv
mvemba
mvrios
mvris
mvu
mw
mwa
mwamba
mwambe
mwambi
mwana
mwango
mwanza
mwasi
mwe
mwene
mwenze
mwepu
mwete
mwi
my
mya
myspace
mɔ
mɔkɛ
mɛ
mɛlɛ
mɛtɛlɛ
n
na
nabango
nac
nacional
nai
naino
nairobi
naissance
naka
nakati
name
names
namibia
nana
nancy
nanga
nango
nani
nanp
nanu
nario
nasima
nat
natal
nathalie
nation
national
nationale
nationales
nationaux
nations
natural
nature
naturel
naturelle
nause
navigation
nayango
naye
nayo
nazaleti
nazali
ncbi
ncia
ncipe
nd
nda
ndaka
ndakisa
ndako
ndaku
ndala
ndambo
ndambu
ndami
ndaywel
nde
ndeke
ndeko
ndeli
ndelo
ndembo
ndenge
ndi
ndika
ndimbola
ndinga
ndingisa
ndisa
ndji
ndjili
ndo
ndoi
ndoki
ndolo
ndombe
ndombolo
ndongo
ndu
nduka
ndɔ
ndɔki
ndɛkɛ
ne
necotrans
neglected
negro
nei
neige
nelson
nengapeta
nergie
nes
net
neti
network
neurology
new
news
ng
nga
ngaba
ngafu
ngai
ngaka
ngala
ngalie
ngaliema
ngama
ngamaka
ngambo
ngami
ngana
ngando
nganga
nganzi
ngayibata
ngb
ngba
ngbaa
ngbaka
ngbanda
ngbɛlɛ
nge
ngela
ngele
ngeli
ngenge
ngi
ngiama
ngiri
ngisa
ngisi
ngo
ngobila
ngola
ngolaka
ngoli
ngolo
ngomba
ngombe
ngondo
ngonga
ngongo
ngoy
ngu
ngubu
ngungi
ngungu
nguya
ngwa
ngwana
ngwele
ngwɛlɛ
ngɔ
ngɔndɔ
ngɛ
ngɛli
ngɛlɛ
ngɛngɛ
nhlbi
ni
niaaa
niaid
niama
niari
nice
nichd
nie
niger
nih
nil
niloticus
nimeri
nimi
nin
nini
nionso
nioso
nisi
niveau
nixon
nizer
nizeria
nk
nka
nkama
nkamba
nkanda
nkanga
nkasa
nkembo
nki
nkinga
nkisi
nkita
nko
nkoa
nkokoso
nkoli
nkolo
nkoma
nkombo
nkota
nkoto
nkrumah
nku
nkulu
nkumu
nkunza
nkuwu
nkwokoso
nkɔ
nkɔi
nkɛ
nl
no
noblesse
noe
noir
noire
noirs
noki
nola
nole
nom
nome
nomine
nominis
nomme
non
nor
norbert
nord
nordi
normal
normandi
north
northern
norvej
nos
nossa
not
notamment
note
notes
notre
nottola
noureddine
nous
nouveau
nouveaux
nouvelle
nouvelles
november
novembre
novo
novɛ
novɛmbɛ
now
ns
nsa
nsambo
nsango
nsanza
nse
nsi
nsima
nsinga
nso
nsoka
nsolo
nsomi
nsu
nsuka
nsɔ
nsɛlɛ
nt
nta
ntaba
ntalo
ntango
nte
ntembe
nther
nti
ntina
ntinu
nto
ntoki
ntoma
ntonga
ntoto
ntu
ntuku
ntumba
ntɔ
nu
number
numbering
numbi
nume
nutritif
nutrition
ny
nya
nyama
nyamabo
nyamankɛ
nyami
nyangu
nyau
nyboma
nyei
nyiragongo
nyo
nyoka
nyongo
nyonso
nyoso
nyɔ
nz
nza
nzala
nzambe
nzambi
nzanga
nze
nzela
nzembo
nzete
nzi
nziem
nzinga
nzinzi
nzo
nzoka
nzoto
nzotu
nzu
nzuzi
nzɔ
nzɔku
nɔ
nɔki
nɛ
o
obe
objectif
oblige
occidental
oce
ocean
ocs
oct
october
octobre
odinatɛ
oem
of
office
official
officiel
ographie
ographique
ogusiti
oh
oil
ois
ok
okapi
okati
okito
okoki
oksijɛ
okto
oktober
ola
old
ole
olingi
olive
olma
ologie
ologique
olomide
omar
omo
omobu
oms
on
onard
onatra
one
oni
online
ont
ontario
onu
opb
ope
openoffice
opera
ophile
opold
opoldville
opposition
or
oral
orales
orchestre
ordinaire
ordinateur
ordinateurs
ordinatɛrɛ
ordre
org
organisation
organization
oriental
orientale
original
originally
origines
oro
ortaasya
orthodoxe
os
oseani
osengeli
ostrali
other
oti
otraco
otrish
otto
ou
ouest
ouragan
ours
outbreak
outil
outils
outras
ouvrage
over
overview
oxford
oxyge
oyeba
oyo
oza
ozali
ozo
ozua
ozui
p
pa
pack
page
pages
pain
paix
pakala
pakapa
pakista
pala
palais
palaki
palata
palato
palema
palmas
paluku
pamba
pan
pandemia
pandemie
pandunia
pantekote
papa
paper
papy
par
para
parace
paracetamol
parasites
paratyphique
paratyphoi
parc
parents
parfait
pari
paris
park
parke
parker
parks
parle
parlement
parler
parlons
paroisse
part
partement
parti
participation
partie
parties
partition
partout
party
pas
pascal
pascaline
pasha
pasi
pasifi
passa
passage
pasteur
pata
patience
patient
patients
patou
patrice
patrimoine
patu
patum
paul
paulis
paulo
payi
pays
paysage
paz
pc
pdf
pdq
pe
peau
peck
pediatrics
pedro
peinture
pela
pelecanus
pelezida
peli
pellegrin
pelo
peluche
pema
pembeni
pendance
pendant
pene
penepene
pense
pentagone
penza
people
pepe
performance
permet
perse
personal
personnelle
personnels
perspectives
peru
pesa
pesaka
pesi
pete
petelo
peter
peters
petit
petite
peu
peuple
peuples
peut
pg
pharmacopoeia
phe
philadelphia
philippe
phillis
philosophie
phone
photos
php
phrase
physique
pi
piano
pica
pidemie
pie
piere
pierre
pieux
pili
pilipi
pilipili
pine
piololo
piptadeniastrum
pis
pissa
pitbull
place
placer
plan
plant
plantes
plants
planɛ
plateaux
plateforme
please
plumes
plus
plusieurs
pmid
po
poche
pocket
poe
point
pointe
points
poke
pole
polele
police
politi
politiki
politique
politiques
poll
polo
poloni
polypterus
pomba
pona
pont
pool
populaire
popular
population
populations
poque
por
port
portail
portant
porte
portefeuille
portugais
portugal
posa
position
poso
possibilite
possible
post
poste
pota
potentiel
potiez
poto
poumon
pour
pourcentage
pouvez
pouvoir
povo
pp
pr
practice
pratique
pre
premie
premier
premiers
president
presque
press
presse
presses
pression
preuve
prevention
prezida
pri
pria
prie
primaire
primary
prince
prison
prive
prix
pro
proble
problems
production
productions
produit
programme
progre
progress
project
projet
projets
prophe
propos
proprie
prospe
prosta
prostate
prote
protection
proteine
proton
provence
province
provinces
provinsi
pterocarpoides
pu
pub
public
publication
publications
publics
publie
publique
publishers
publishing
puerto
puis
puise
puissance
pulu
pulupulu
pulutugal
puma
pusu
pute
putumayo
pwantenwa
pyre
pɔ
pɔli
pɔlɔvɛ
pɔpi
pɛ
pɛmbɛ
pɛnɛ
pɛnɛpɛnɛ
pɛtɛ
q
qadi
qu
quand
quartier
quateur
quatre
que
quel
quelques
quentin
question
qui
quipe
quiz
r
ra
rabies
race
racine
radical
radio
rafael
rage
rail
rails
railway
raire
raison
ral
rale
ramakrishna
rance
raoul
rap
raphae
rapide
rapie
rapport
rard
ration
rature
ray
raymond
rd
rdc
re
reaction
reafor
real
recent
recherche
recherches
recommande
recommendation
recommendations
record
records
recueil
red
redmond
ref
references
reggae
regia
region
regional
rein
reine
relation
relier
religieux
religion
relijio
remix
remporte
rence
rences
rene
renvoye
renvoyer
rep
report
republi
republic
republiki
rer
res
research
reserved
resistance
ressources
resultat
resultsdetail
retour
retrieved
reuters
review
reviews
revue
rfi
rhode
ri
ria
ric
rich
richard
ricky
rico
rie
riel
rielle
riels
rien
rience
ries
rieur
rieure
rika
ril
rin
ring
rio
rios
rique
riques
ris
risch
risk
risque
ritage
rite
rites
ritier
river
rivie
rn
ro
robbins
robert
roberto
robinio
rock
roga
roger
roi
rois
roise
roma
roman
rome
roosevelt
ros
rosa
rose
rouge
rouges
round
roussillon
route
routes
royal
royaume
rsi
rte
ru
rubber
rue
ruje
rule
rulers
rumba
rusi
russie
russo
rwanda
ry
rythmique
rɔ
s
sa
sabu
sacre
sahara
sai
saint
sainte
saire
saka
sakania
sakata
saki
sala
salama
salle
salmonelle
salut
salvador
sam
sama
samba
sambo
san
sana
sangha
sangi
sango
sanitation
sankara
sankuru
sans
santa
sante
santo
santrafri
santu
sanza
sapa
sarah
sassou
satellite
sato
satune
sauvegarde
savimbi
savoir
savorgnan
saye
sce
scheut
schilthuis
school
science
sciences
scotopelia
scram
script
se
search
seau
seaux
second
secondaire
secondary
secteur
section
see
seele
seigneur
seka
sekele
seko
sele
selon
semaine
sence
sene
senegal
senegale
senemongaba
senga
sengeli
senghor
sens
sent
senta
sentation
sente
sept
septe
september
septembere
septembre
sera
serge
serpent
serve
service
services
ses
sese
session
setifika
seuil
seul
sex
sfe
shaba
shaggy
shakira
sheet
shekia
shi
shimi
shina
shnɛ
short
should
shvits
si
sia
sibiti
sida
sidafri
sident
sidi
sie
siekle
sierra
signaki
signature
signe
signer
signs
sik
sika
siki
sikisiki
sikoyo
sili
sima
simaro
simba
simo
simon
simple
since
sinda
singa
singes
single
sinus
sinusite
sinusitis
sipre
sire
sirie
sistɛ
sita
site
sites
situation
sitɛ
six
sizarail
skin
skɔ
slave
slovakia
slovenia
smith
sncc
sncz
so
sobre
social
sociale
sociales
sociaux
socie
society
soda
soeurs
sohiza
soins
soir
soit
soki
soko
sokola
sol
soleil
solennite
solo
solola
solution
some
somo
son
songolo
sonodisc
sont
sony
soo
sophie
sor
sorbonne
sortie
soso
souci
souk
source
sources
sous
south
souther
souvenirs
souvent
souzi
sp
spe
species
specific
speller
spirituelle
sport
square
st
standard
stanford
stanley
stanleyville
star
stars
state
states
station
statistics
status
statut
ste
stefania
stephen
sterling
steve
sto
stock
stories
story
str
stress
stroke
stu
studies
studio
study
style
stɛ
su
succe
sucrie
sud
sudani
sudi
suffit
suis
suisse
suite
suivi
suivre
suka
sukali
suku
sultat
sultats
sume
supe
superba
suppl
supplement
suppose
sur
surtout
sus
svizzer
swe
sweet
swisi
switzerland
syllart
sylvain
symphonie
symptomes
symptoms
syndrome
synodontis
syntaxe
synthe
syste
system
systematic
sywor
sɔ
sɔki
sɛ
sɛkɛ
sɛtɛ
t
ta
tab
tableau
tabu
taekwondo
tait
taiwan
taka
taksi
tala
talatala
tales
tali
talo
tam
tama
tamaka
tami
tamol
tana
tanaka
tanganyika
tango
tani
tansi
tant
tanzania
tarascon
tard
task
tat
tata
tati
tats
taux
tawh
taxon
taxonomic
taxonomy
taxons
tb
te
technique
techniques
technologies
technology
tee
tel
tela
telama
tele
telecom
telephone
teli
tels
tem
template
temps
tenke
tension
tentativelists
teofil
teritware
terminalia
termine
terminologie
terminus
terra
terrain
terre
territoire
territoires
territoriale
territories
tervuren
tes
test
teste
tetanus
tetanɔ
teu
texte
textes
th
that
the
their
theo
therapy
there
thierry
this
thomas
thomson
thys
thysville
ti
tibe
tie
tien
tienne
tigre
tii
tika
tiken
time
times
timor
tina
tinnitus
tino
tique
tisa
tisi
tisme
titanic
titina
title
titre
titres
titule
to
togo
toi
toile
toilette
tokoki
tokyo
toli
tolo
toloba
toma
tome
tomo
ton
tonga
topics
total
toto
toujours
toulouse
tour
tous
tout
toute
town
toxine
toye
toyebi
tozali
tp
trabalho
trade
traditionnels
traditions
traduction
traduire
train
traite
traitement
trange
transfe
transition
translate
translation
transmission
transmitted
transport
transports
travail
travaux
travel
travers
tre
treatment
tres
tresor
tria
triangle
trois
trop
tropical
tropicale
tropicos
trouble
trouve
ts
tsadi
tschiel
tshadi
tshala
tshela
tshibaka
tshibangu
tshikapa
tshiluba
tshimanga
tshisekedi
tshisungu
tshombe
tshopo
tshuapa
tsn
tsu
tu
tude
tudes
tue
tuka
tuku
tulu
tumba
tumeur
tundra
tunis
tunisia
turc
turkewich
turki
turquie
tutu
tv
twenty
twitter
two
tyfus
type
types
typhoid
typhoide
typhus
tɔ
tɛ
tɛkɛ
tɛli
tɛlɛ
tɛmpɛlɔ
u
ua
ubangi
ubundu
ubuntu
udps
uele
uganda
uicn
uk
ukraine
ultimatum
um
uma
un
unassigned
und
under
une
unesco
ungri
uni
unies
union
unique
unis
unita
unite
united
universal
universitaire
universitaires
universite
university
up
update
urbain
urban
urgence
us
usa
usd
use
used
ut
uta
utc
utilisateur
utilise
utiliser
v
va
vaccin
vaccination
vaccine
vaccines
vale
valentin
valeur
valider
valle
valls
value
van
vanda
vange
var
varicella
varicelle
vasculaire
vaterland
vatika
vatikani
ve
veil
veloppe
veloppement
verbe
verbist
verbum
verde
verhaegen
verlag
vers
version
versions
vert
vertigo
vi
vice
vicente
vicicongo
vicinaux
victoire
victor
victoria
vide
video
videos
vie
vient
vierge
vietnami
view
vih
village
villages
ville
villes
vilu
vincent
vincentienne
violence
viral
virunga
virus
vis
vision
visual
vitamine
viva
vivre
viɛnɛ
voa
vocabulaire
voici
voie
voies
voile
voir
voix
vol
volume
volution
von
vont
vos
votre
vous
voyage
vrai
vre
vrier
vu
vubu
vue
vɔ
w
wa
wabeladio
wali
walker
wamba
wana
wangata
wapi
war
was
washington
watanabe
watch
water
wawa
we
web
website
weekly
welt
welw
wemba
wendo
wenge
wenze
wer
were
werrason
wesita
west
what
whc
wheatley
when
which
while
white
who
why
wide
wiki
wikidata
wikimapia
wikimedia
wikipe
wikipedia
wikispecies
wikitravel
wilkerson
wilkersonpublications
will
willame
william
williams
willy
windows
with
wo
wolo
word
world
worldcat
wright
wunda
wuta
www
wɛ
wɛbɛ
wɛlɛ
wɛnzɛ
x
xv
xx
xxx
y
ya
yaba
yah
yahoo
yaka
yako
yamaka
yambo
yango
yannick
yanwa
yaounde
yawe
yaya
ye
year
years
yebisa
yehova
yellow
yelo
yerusale
yerusalemi
yesu
yezu
yi
yir
yo
yoakima
yoane
yogo
yoka
yoko
york
yosefu
you
youlou
young
your
youtube
yoze
yozefu
yu
yuli
yuni
yura
yves
yy
yɔ
z
za
zabat
zacharie
zai
zaiko
zaire
zairois
zala
zali
zamba
zambi
zambia
zambie
zando
zanzibar
zapo
zapɔ
ze
zela
zemi
zi
zia
zimbabwe
zinga
ziya
zo
zolo
zolona
zomi
zona
zone
zonga
zongo
zu
zulu
zuluna
zurich
zuwa
zuwama
zya
zɛ
{
|
}
~
§
«
®
°
²
´
·
º
»
×
œuvre
œuvres
ɔ
ɔkɔtɔ
ɔkɔtɔbɛ
ə
ɛ
ɛlɛ
ɛngɛ
ɛntɛrnɛ
ɛɛ
ʻ
ˈ
ː
˚
̀
́
̂
̃
̄
̆
̇
̈
̊
̌
̓
̔
̛
̞
̣
̧
̨
̯
̸
͂
α
απρι
ε
η
ιου
μα
μβρης
μβριος
νοε
οκτω
ριος
ς
а
в
и
ָ
ּ
ׁ
י
ל
ש
ا
مسجد
ٔ
ા
ᵉ
​
‌
‎
‏
‑
–
—
‘
’
“
”
„
†
•
…
′
″
→
↔
↷
③
④
⑦
☉
✓
➜
⺀
⺄
⺆
⺈
⺊
⺌
⺕
⺝
⺸
⺼
⿰
⿱
⿲
⿳
⿴
⿵
⿶
⿷
⿸
⿹
⿺
⿻
〢
コ
ユ
㇁
㇂
㇄
㇇
㇈
㇉
㇓
㐁
㐄
㐅
㐌
㐫
㐬
㐭
㐮
㐱
㑒
㒵
㒸
㒼
㓁
㓞
㔾
㕛
㕣
㖾
㘝
㚅
㚇
㚔
㚘
㝉
㝡
㝴
㝵
㞋
㞢
㞷
㠩
㠭
㠯
㡀
㡭
㡿
㢲
㢴
㣇
㣺
㥯
㪅
㫄
㫐
㫒
㫺
㬅
㬎
㬥
㬰
㲋
㳄
㷠
㸒
㸚
㸦
㼌
㼲
㽞
㿟
䀠
䂞
䍃
䏍
䒑
䖍
䖒
䖝
䖵
䙴
䚻
䜌
䝿
䡛
䧹
䪞
一
丁
丂
七
丄
丅
丆
万
丈
三
上
下
丌
不
与
丏
丐
丑
专
且
丕
世
丘
丙
业
东
丞
丢
丣
两
严
並
丨
丩
个
丫
丬
中
丮
丰
丱
串
丵
丶
丷
丸
丹
为
主
丽
丿
乀
乂
乃
久
乆
乇
么
义
之
乌
乍
乎
乏
乐
乑
乔
乖
乗
乘
乙
乚
乛
乜
九
乞
也
习
乡
乳
乾
亀
亅
了
亇
予
争
事
二
亍
于
亏
亐
云
互
亓
五
井
亘
亚
亜
亞
亟
亠
亡
亢
交
亥
亦
产
亨
亩
享
京
亭
亮
亯
亰
亲
亳
亶
亷
人
亻
亼
亾
仁
今
介
仌
从
仐
仑
仒
仓
仕
他
付
仝
代
令
以
任
企
伊
伏
伐
休
会
伯
但
位
何
佘
余
作
佥
使
來
侈
侌
侖
侯
侵
便
保
俞
信
修
倉
倍
候
倠
備
僉
僕
儿
兀
允
兂
元
兄
充
兆
兇
先
光
兊
克
兌
免
兑
兒
兓
兔
党
兜
兟
入
全
兩
兪
八
公
六
兮
兰
共
关
兵
其
具
典
兹
兼
冀
冂
冃
冄
内
冈
冉
冊
冋
册
再
冎
冏
冐
冒
冓
冖
冗
冘
军
农
冝
冡
冥
冫
冬
冷
几
凡
凢
凵
凶
凷
凸
凹
出
函
凾
刀
刁
刂
刃
刄
刅
分
切
刍
刑
刕
刖
列
刘
则
初
別
利
别
到
制
刺
則
削
剌
前
剡
剽
劉
力
功
加
劦
助
劫
劳
劵
勃
勇
勉
勒
動
務
勞
勤
勹
勺
勻
勾
勿
匀
匂
包
匆
匈
匊
匋
匍
匕
化
北
匚
匝
匡
匪
匱
匸
匹
区
医
匽
匿
區
十
卂
千
卄
卅
卆
升
午
卉
半
卌
华
卑
卒
卓
单
卖
南
卜
卝
卞
占
卡
卢
卣
卤
卦
卩
卪
卬
卯
印
危
即
却
卵
卷
卸
卻
厂
厃
厄
历
厈
厉
厌
厓
厘
厚
原
厤
厥
厨
厭
厲
厶
厷
厸
去
厼
厽
叀
参
參
叅
又
叉
及
友
双
反
叐
发
叒
叔
叕
取
受
叚
叜
叟
口
古
句
另
叩
只
召
可
台
叱
史
右
叵
号
司
叹
吂
各
吅
合
吉
吊
吋
同
名
后
吏
向
吕
君
吝
吞
否
含
启
吳
吴
吹
吾
呂
呆
呈
告
员
呙
周
命
咅
和
咎
咠
咢
咨
咸
咼
哀
品
哉
員
哥
哲
唐
商
啇
問
啚
啬
啻
善
喜
喬
單
喿
嗇
噩
嚴
囊
囗
囘
囙
囚
四
回
囟
因
囧
囬
困
囱
囷
固
国
圂
圅
國
圍
圓
土
圡
圣
圥
在
圭
地
圶
圼
坐
坒
坚
坴
垂
垔
垚
埀
埋
埶
執
基
堂
堅
堆
堇
堯
塞
墨
壘
士
壬
壯
声
壳
壴
壹
壺
壽
夂
处
夅
夆
备
夊
夋
夌
复
夏
夒
夕
外
夗
夘
多
夜
夢
大
夨
天
太
夫
夬
夭
央
失
夲
头
夷
夸
夹
夻
夾
奂
奄
奇
奈
奉
奎
奏
奐
契
奓
奔
奚
奞
奠
奢
奥
奭
女
奴
奻
好
如
妄
妙
妟
妥
妻
妾
姑
委
姜
威
娄
婁
婴
嬰
嬴
子
孑
孔
孕
孖
字
存
孚
孛
孝
孟
季
孤
学
孫
孱
學
宀
宁
宂
它
宅
宇
守
安
宋
完
宏
宓
宗
官
定
宛
宜
宝
客
宣
室
宮
宰
害
家
容
宾
宿
寄
寅
密
富
寒
察
寧
審
寫
寬
寮
寸
对
寺
寻
寽
対
寿
封
尃
射
将
將
專
尉
尊
尋
尌
對
小
少
尒
尓
尔
尖
尗
尚
尞
尢
尣
尤
尧
尨
尭
就
尸
尹
尺
尻
尼
尽
尾
尿
局
居
屈
屋
屎
屏
屑
展
屖
屚
属
屠
屡
屬
屮
屯
屰
山
屵
屾
岁
岂
岑
岡
岩
岳
岸
峯
島
崇
崑
崔
崖
崙
崩
嵬
嶲
巂
巛
川
州
巟
巠
巢
巤
工
左
巧
巨
巩
巫
差
己
已
巳
巴
巷
巸
巽
巾
巿
帀
市
布
希
帚
帛
帝
带
師
席
帶
常
干
平
年
幵
并
幷
幸
幺
幻
幼
幽
幾
广
広
庄
床
底
店
庚
府
度
庫
庭
庶
康
庸
廉
廌
廛
廣
廩
廴
延
廷
建
廾
廿
开
弁
弃
弄
弇
弋
式
弓
弔
引
弗
弘
弜
弟
弥
弦
弱
張
強
强
彊
彌
彎
彐
彑
当
彔
录
彖
彗
彡
形
彥
彦
彧
彭
彳
役
彼
往
待
律
徒
得
徙
從
復
微
徵
心
忄
必
忌
忍
志
忝
忠
忩
快
念
忽
忿
思
怠
急
怱
恆
恒
恩
恭
息
悉
患
悤
悲
悶
惠
惡
惢
愁
愈
意
愛
感
慈
慧
慮
憂
憲
應
戀
戈
戉
戊
戋
戌
戍
戎
成
我
戒
戔
或
戚
戠
戢
截
戲
戶
户
戹
戼
戾
房
所
扁
扇
手
扌
才
打
托
执
承
折
拉
拜
拿
掌
推
提
摩
支
攴
攵
收
攸
改
放
政
敄
敏
敕
敖
敗
敝
敞
敢
散
敦
敫
敬
数
敷
數
斂
文
斉
斊
斗
斤
斥
斩
斬
斯
新
方
於
施
斿
旁
旋
族
无
旡
既
旣
日
旦
旧
旨
早
旬
旱
旲
时
旾
昆
昇
昌
昍
明
昏
易
昔
昗
昜
星
春
昬
是
昱
昴
昷
時
晃
晋
晏
普
景
晶
智
暑
暴
曇
曩
曰
曲
曳
更
曷
書
曹
曼
曾
替
最
朁
會
月
有
朋
服
朔
朕
朗
望
朝
木
朩
未
末
本
札
朮
术
朱
朵
朶
朿
杀
杏
杜
束
条
来
東
杲
杳
松
析
林
枚
果
枝
枲
枼
某
柔
查
柬
柰
柴
栗
桀
桑
桼
梁
條
梟
梨
棘
棠
棥
森
楚
業
楽
榮
樂
樊
欠
次
欣
欮
欲
欶
欽
款
歆
歇
歛
止
正
此
步
武
歨
歪
歮
歯
歰
歲
歴
歷
歸
歹
歺
死
殳
段
殷
殸
殹
殺
殻
殿
毋
毌
母
每
毒
比
毕
毚
毛
毳
氏
氐
民
气
氣
水
氵
氶
氷
永
氺
氾
求
汝
汞
江
沃
沓
沙
沝
泉
法
波
泣
泥
泰
洛
洪
活
派
流
浦
浪
浮
淡
淮
清
渚
渠
湯
滿
漸
火
灬
灭
灰
灵
灷
炅
炎
炏
炗
炙
炭
為
烈
烏
烝
焉
無
焦
焱
然
煞
熊
熏
燕
營
燮
爪
爫
爭
爯
爰
爱
爲
爵
父
爻
爽
爾
爿
片
牙
牚
牛
牜
牟
牢
牧
牪
牽
犀
犬
犭
犮
狂
狄
狊
独
狺
猋
猒
猪
献
獻
玄
率
玉
王
玟
玨
珎
班
琴
瑟
瑩
瓜
瓦
甘
甚
生
産
用
甫
甬
田
由
甲
申
电
甶
男
甸
甹
画
甾
畀
界
畏
畐
留
畜
畟
畢
畧
畨
番
畫
異
畱
當
畺
畾
疊
疋
疌
疑
疒
疾
癶
癸
癹
登
發
白
百
皀
皃
的
皆
皇
皋
皐
皕
皮
皷
皿
盃
盆
盇
盈
益
盍
盎
监
盒
盖
盛
盡
監
盤
盧
目
直
相
盾
省
眇
眉
看
眔
眞
真
眷
眼
眾
着
睘
睪
睿
瞏
瞢
瞿
矍
矛
矞
矢
矣
知
矦
短
石
破
碎
磊
磨
示
礻
礼
祟
票
祭
禀
禁
禸
禹
禺
离
禽
禾
禿
秀
秃
秉
秋
科
秝
秦
移
稟
穀
穌
穴
究
穹
空
穿
突
窄
窒
立
竒
竜
竝
竟
章
童
竹
笑
笠
筆
等
答
箕
算
箴
節
篤
篭
米
粉
粛
粟
粤
粦
粲
糞
糸
糹
系
約
納
素
索
紫
累
細
絜
絫
絲
維
綿
縣
繇
纍
纟
缶
网
罒
罔
罕
罗
罙
罡
罢
罪
署
罷
羅
羊
羌
羍
美
羔
羕
羗
羞
羡
羣
群
義
羲
羸
羽
翁
翏
習
翕
翟
翠
翼
老
耂
考
者
耆
而
耎
耑
耒
耳
耴
耶
耷
聂
聊
聖
聚
聶
聿
肀
肃
肅
肉
肖
肙
肥
肩
肯
育
肴
胃
背
胡
胥
能
脊
脩
膚
臣
臤
臧
自
臬
臭
臯
臱
至
致
臺
臼
臽
臾
臿
舀
舂
舄
與
興
舉
舌
舍
舛
舜
舞
舟
般
艮
良
色
艸
艹
艾
芒
芔
芬
芮
花
芳
芺
芻
苔
苗
苟
若
苦
英
茶
茸
荅
草
荒
荣
荼
莆
莧
莫
莽
菆
菊
菐
華
萬
落
葉
著
葛
董
葵
蒙
蒦
蒼
蓋
蓬
蓺
蔑
蔡
蕉
蕭
薄
薛
薦
薰
藍
藏
藥
蘭
虍
虎
虐
虒
虔
處
虖
虗
虘
虚
虛
虜
虞
虫
虽
蚤
蚩
蜀
蜜
蟲
蠡
血
行
衍
衛
衣
衤
表
衮
衰
袁
袞
褭
褱
襄
襾
西
覀
要
覃
見
規
覓
覧
親
覽
见
角
解
言
訁
訇
計
詹
語
誩
諸
讠
谷
豆
豈
豊
豐
豕
豖
豙
象
豦
豩
豪
豸
貇
貝
貞
貟
負
貢
貧
貪
貫
責
貳
貴
買
費
賁
資
賈
賏
賓
賔
賛
賞
賢
賣
質
賴
贊
贝
贡
责
贯
贲
贵
赖
赞
赤
赦
走
越
足
路
蹇
身
躬
車
軍
軎
軟
輦
车
辛
辜
辟
辥
辰
辱
農
辵
辶
边
达
过
近
连
迷
追
退
送
逆
逐
通
速
造
逢
連
逮
進
遀
遂
過
道
達
遣
適
遷
遺
邊
邑
邕
那
邦
邪
郎
部
郭
都
鄉
酉
酋
配
酓
釆
采
里
重
野
量
金
釒
錢
钅
長
镸
长
門
閃
閉
開
閏
閑
閒
間
閔
閵
閻
闌
门
间
闷
阑
阜
阝
阿
降
陳
隆
隊
隋
隡
隨
隱
隶
隹
隺
隻
隼
隽
难
雀
雁
集
雈
雋
雍
雐
雔
雙
雚
雜
雝
離
難
雨
雩
雪
雲
零
雷
需
霍
霜
霝
霞
霸
靈
靑
青
非
靡
面
靣
革
韋
韦
韭
韯
韱
音
頁
頃
項
須
頗
頡
頻
顛
页
風
风
飛
飞
食
飠
養
饣
首
香
馬
馮
駦
马
骨
高
髟
鬥
鬯
鬲
鬼
魚
魯
鮮
鱼
鲁
鳥
鳳
鸟
鹵
鹿
麃
麗
麥
麦
麻
黃
黄
黍
黎
黑
黒
黨
黹
黽
黾
鼎
鼓
鼠
鼻
齊
齋
齐
齒
齿
龍
龙
龜
龟
龠
龰
龱
龴
龵
龶
龷
龸
龹
者
艹
﻿
）
？
🜨
𠀁
𠀃
𠀆
𠀉
𠀎
𠀐
𠁁
𠁣
𠂆
𠂇
𠂈
𠂉
𠂊
𠂋
𠂎
𠂒
𠂔
𠂛
𠂡
𠂢
𠂤
𠂬
𠂭
𠂹
𠃊
𠃋
𠃌
𠃍
𠃎
𠃑
𠃓
𠃔
𠃜
𠄌
𠄎
𠄠
𠄢
𠆢
𠆥
𠇍
𠈌
𠌵
𠓜
𠔉
𠔥
𠔼
𠔽
𠔿
𠕀
𠕁
𠕋
𠘧
𠘨
𠙻
𠙼
𠚏
𠚒
𠚤
𠚪
𠣏
𠤎
𠤕
𠥓
𠦄
𠦑
𠦝
𠧒
𠧗
𠧪
𠩺
𠪚
𠫓
𠫔
𠫤
𠬛
𠬝
𠬞
𠬢
𠬤
𠬶
𠮛
𠮦
𠮷
𠯑
𠱠
𠳮
𠷎
𡈼
𡉀
𡉵
𡌥
𡍮
𡏳
𡕒
𡕩
𡕰
𡖅
𡗗
𡗜
𡘆
𡘤
𡧱
𡨄
𡩧
𡬠
𡭽
𡰣
𡰥
𡰪
𡰯
𡰱
𡷈
𡸁
𡿨
𡿩
𡿪
𡿺
𢀖
𢀛
𢀩
𢁙
𢆉
𢆰
𢆶
𢇁
𢇇
𢉖
𢌬
𢌿
𢏚
𢑑
𢑚
𢖻
𢙣
𢛳
𢦏
𢦒
𢧵
𢼄
𢾕
𣁋
𣄼
𣅀
𣅽
𣍘
𣎳
𣎵
𣏋
𣏼
𣗥
𣥂
𣥖
𣦵
𣦼
𣧄
𣪊
𣪠
𣬉
𣳾
𣶒
𤇾
𤊽
𤐫
𤓰
𤔔
𤕨
𤣩
𤰇
𤰔
𤰞
𤴓
𤴔
𤽄
𥁑
𥁕
𥃦
𥃩
𥃭
𥇡
𥑟
𥘅
𥘈
𥝢
𥫗
𥱡
𦈢
𦉪
𦉬
𦉼
𦍌
𦍒
𦎧
𦐇
𦓔
𦔮
𦘒
𦙃
𦚏
𦣝
𦣞
𦣻
𦥑
𦥔
𦥯
𦨉
𦭝
𦰩
𧆞
𧈧
𧘇
𧰨
𧴪
𧴮
𧵩
𧾷
𨸏
𨾴
𩙿
𩠐
𩫏
𩵋
𪉷
𪜀
𪟽
𪠲
𪩲
𫇦
𫔭
𫜸
𫝀
𫠣
𫠩
𫢉
𫥞
𫩏
𫩠
𫪡
𫲽
𫶧
𬀷
𬐘
𬗌
𬙙
𬛸
𬜯
𬟩
𬯁
𬴘
𬺻
𬼉
𬼖
𭀰
𭁈
𭁨
𭅰
𭑈
𭕄
𭗼
𭤨
𭥫
𭻾
𮅕
𮊿
𮍌
𮍏
𮓗
𮥼
𮧮
廾
𰀁
𰀄
𰀈
𰀉
𰀕
𰀠
𰀡
𰀢
𰀪
𰁜
𰃮
𰆊
𰆘
𰋙
𰕎
𰢴
𰧭
𰯲
00--
11--
13--
14--
15--
16--
17--
18--
28--
6--
7--
8--
83--
9--
a--
aba--
abo--
abr--
abɛ--
ac--
ad--
afa--
ag--
air--
aka--
ake--
ako--
akɛ--
al--
ali--
alo--
am--
ami--
an--
ans--
apo--
app--
appli--
appre--
ar--
ard--
as--
asa--
asha--
asi--
at--
ati--
atta--
au--
auto--
ave--
aye--
azo--
b--
ba--
baba--
babi--
babo--
baka--
bake--
bako--
bal--
bala--
bali--
bami--
bar--
basa--
base--
bat--
bata--
bati--
batu--
baya--
be--
bel--
belgi--
ben--
bi--
bio--
biza--
blo--
bo--
boka--
boko--
bol--
bole--
bon--
bong--
bos--
bosa--
bota--
boto--
bou--
br--
bri--
bro--
bu--
bɔ--
bɛ--
c--
ca--
cai--
cal--
car--
cas--
cau--
ce--
cel--
cellu--
cer--
ch--
cha--
cheva--
ci--
cis--
cla--
cli--
co--
col--
com--
communi--
con--
congo--
conte--
contri--
coor--
cor--
cove--
cre--
cri--
cro--
cru--
cu--
cy--
d--
da--
de--
dem--
den--
des--
det--
deve--
di--
dia--
dif--
dig--
disco--
disp--
dj--
dji--
do--
doc--
dr--
du--
dɔ--
e--
eba--
ebe--
ebia--
ebo--
ebu--
eco--
ed--
efa--
effec--
efu--
eka--
eke--
eko--
eku--
ela--
ele--
eli--
elɛ--
em--
emon--
en--
endi--
envi--
environ--
ep--
epa--
epe--
epi--
er--
es--
esa--
ese--
esi--
esu--
et--
eta--
ete--
eti--
eto--
etɔ--
eu--
evi--
ex--
eze--
ezo--
f--
fa--
fe--
feb--
ferrovi--
fi--
fil--
file--
fin--
finan--
flo--
flu--
fluvi--
fo--
fon--
footb--
fr--
fri--
fu--
fɔ--
g--
ga--
gal--
gara--
ge--
ger--
gi--
giv--
glo--
go--
gol--
gramm--
gri--
gu--
guad--
gwa--
h--
ha--
hal--
har--
he--
hel--
hi--
ho--
hol--
hum--
hun--
i--
ibu--
il--
im--
in--
inclu--
indu--
inst--
install--
inter--
inve--
io--
ip--
ir--
ire--
is--
it--
j--
ja--
jo--
ju--
jup--
ka--
kai--
kal--
kali--
kar--
ke--
kel--
ken--
ki--
kim--
kin--
ko--
koko--
kole--
kolɛ--
kosa--
kose--
kota--
kote--
koto--
ku--
kwa--
kɔ--
kɛ--
l--
la--
lar--
le--
lea--
lec--
let--
leve--
lexi--
li--
lib--
liba--
lif--
lim--
lin--
lis--
lo--
loca--
lou--
lu--
lua--
lwa--
lɛ--
m--
ma--
madi--
mag--
mal--
man--
map--
mar--
mas--
masa--
mba--
mbi--
mcc--
me--
mes--
mf--
mi--
min--
mo--
mon--
mono--
mori--
mos--
mou--
mpu--
mu--
mul--
mwa--
mwi--
my--
mɔ--
n--
na--
naviga--
ncu--
nd--
nda--
ndu--
ndɔ--
ne--
neu--
nga--
ngw--
ni--
nko--
nku--
nl--
no--
nom--
nsa--
nse--
nta--
nto--
nu--
ny--
nya--
nze--
nzu--
nɔ--
o--
oba--
obe--
odo--
oeu--
of--
offi--
ok--
oko--
ola--
olo--
on--
opti--
or--
ori--
os--
ou--
oub--
oz--
p--
pa--
pal--
pan--
pap--
par--
pat--
pe--
pel--
per--
pha--
pharma--
pho--
pi--
pla--
ple--
plu--
pneum--
po--
poly--
pp--
pre--
preve--
pri--
pro--
psych--
pu--
pul--
pɔ--
q--
qu--
quoti--
r--
ra--
raco--
re--
ref--
ren--
ri--
ro--
rou--
ru--
rus--
s--
sa--
sal--
sar--
sau--
sch--
sco--
se--
seg--
ser--
sha--
she--
sho--
si--
sil--
so--
sol--
sor--
sou--
sp--
spe--
spi--
st--
str--
stu--
su--
sur--
sy--
sɛ--
t--
ta--
tar--
te--
ter--
th--
the--
ti--
to--
tor--
tra--
tre--
tri--
ts--
tsh--
tsha--
tshi--
tu--
u--
un--
uni--
univers--
up--
ur--
util--
v--
va--
vati--
ve--
ver--
vi--
virg--
vo--
vol--
vu--
w--
wa--
we--
wid--
wiki--
wil--
wit--
wo--
x--
ya--
ye--
yi--
yo--
yu--
z--
za--
ze--
zi--
zo--
ɛ--
م--
--0
--1
--2
--3
--4
--5
--6
--7
--73
--74
--78
--8
--87
--88
--9
--a
--ad
--age
--ain
--aire
--aires
--aki
--al
--ala
--am
--ama
--an
--ana
--ani
--ano
--ant
--ar
--ary
--as
--ase
--au
--b
--ba
--be
--beli
--bes
--bi
--ble
--bo
--bro
--bu
--c
--ca
--cal
--cale
--cat
--ce
--ch
--ck
--cky
--co
--cs
--ct
--ction
--ctive
--cts
--cus
--cy
--d
--da
--ddy
--de
--di
--dio
--dja
--dji
--do
--ds
--du
--dy
--dɛ
--e
--ed
--eiro
--ek
--el
--eli
--ement
--en
--ent
--er
--es
--et
--eur
--euse
--f
--fs
--fu
--ful
--g
--ga
--gana
--ge
--ght
--gi
--gie
--gite
--gne
--go
--gs
--gu
--gua
--gwa
--gy
--h
--ha
--han
--hard
--he
--hi
--i
--ia
--ial
--ian
--ic
--id
--ie
--ier
--ige
--ii
--il
--ille
--ima
--in
--ine
--ines
--ing
--ins
--io
--ion
--ions
--ique
--iques
--ir
--ira
--ire
--is
--isation
--ise
--isi
--isme
--iste
--it
--ite
--itif
--ition
--ity
--ium
--ive
--j
--ji
--k
--ka
--kaki
--kala
--kali
--ke
--ki
--ko
--ku
--kɔ
--kɛ
--l
--la
--lami
--ld
--le
--ler
--li
--lin
--lis
--lished
--ll
--lle
--lo
--logie
--ls
--lu
--ly
--lɔ
--lɛ
--m
--ma
--maka
--maki
--man
--mba
--mbe
--mbi
--mbo
--mbwi
--me
--meli
--melo
--ment
--mi
--mo
--mu
--mɔ
--mɛ
--n
--na
--nada
--naki
--nce
--nces
--ncy
--nd
--nda
--nde
--ndi
--ndo
--ndra
--ndre
--ndu
--ndzi
--ne
--nel
--ner
--nes
--ng
--nga
--ngani
--nge
--ngemi
--ngi
--ngo
--ngwi
--ngɛ
--ni
--nia
--nis
--nji
--nk
--nne
--no
--noli
--ns
--nt
--nts
--ntu
--nu
--ny
--nza
--nzi
--nɔ
--o
--oa
--oc
--od
--oki
--oko
--oma
--ome
--on
--ons
--or
--os
--ou
--p
--pa
--pe
--ph
--phie
--pi
--ple
--po
--pu
--pɔ
--pɛ
--pɛsɛ
--q
--que
--r
--ra
--ras
--rc
--rd
--rds
--re
--ren
--rg
--ri
--rix
--rk
--rks
--rman
--rmer
--rn
--rne
--ro
--ron
--rps
--rra
--rs
--rt
--ry
--s
--sa
--saki
--sant
--sation
--se
--seke
--sel
--sela
--seni
--ser
--sh
--si
--sis
--so
--ss
--ssa
--sse
--st
--sta
--su
--sɛ
--t
--ta
--taki
--te
--tent
--ter
--th
--ti
--tics
--tif
--tilite
--tion
--tions
--tive
--to
--tor
--tre
--ts
--tt
--tte
--tu
--tus
--ty
--tɔ
--tɛ
--u
--ua
--ual
--ue
--uel
--uka
--ul
--ulaire
--ult
--um
--ur
--ure
--urs
--us
--ute
--ux
--v
--va
--val
--ve
--vi
--via
--w
--wa
--way
--we
--wi
--wu
--x
--xi
--xt
--y
--ya
--yaki
--ye
--yi
--yo
--yu
--yɔ
--z
--za
--ze
--zi
--zoto
--ɔ
--ɛ
--ن
--ير
