!
"
#
##0
##1
##10
##11
##12
##13
##14
##15
##16
##17
##18
##19
##2
##20
##21
##22
##23
##24
##25
##26
##27
##28
##29
##3
##30
##31
##32
##33
##34
##35
##36
##37
##38
##39
##4
##40
##41
##42
##43
##44
##45
##46
##47
##48
##49
##5
##50
##51
##52
##53
##54
##55
##56
##57
##58
##59
##6
##60
##61
##62
##63
##64
##65
##66
##67
##68
##69
##7
##70
##71
##72
##73
##74
##75
##76
##77
##78
##79
##8
##80
##81
##82
##83
##84
##85
##86
##87
##88
##89
##9
##90
##91
##92
##93
##94
##95
##96
##97
##98
##99
$
%
&
'
(
)
*
+
,
-
.
/
0
00
000
001389
003
01
02
03
04
05
055
06
07
08
086
09
1
10
100
1000
101
102
103
104
105
106
107
108
109
1093
11
110
1100
111
112
113
1139
114
115
1156
116
117
118
119
12
120
1200
121
122
1221
123
1231
124
125
126
127
1270
1272
1273
1279
128
1280
1281
129
13
130
1300
1302
1303
131
1312
1316
1317
1319
132
13263
133
1334
134
135
136
137
138
139
14
140
1400
141
142
143
1438
144
145
146
147
148
149
15
150
1500
1505
1506
1507
1509
151
152
153
1531
154
155
156
157
158
1582
1586
159
16
160
1600
1604
1608
161
1610
1612
1613
1617
162
1626
1628
163
1630
1631
164
165
166
167
168
169
17
170
1700
1702
1703
1706
1708
1709
171
1714
1719
172
1720
1721
1723
1728
173
1730
1732
1734
1736
174
1749
175
1750
1755
1756
1757
176
177
1771
1773
1775
1776
178
1780
1781
1782
1786
179
1791
1792
1796
1797
1798
18
180
1800
1801
1804
1805
1808
1809
181
1811
1812
1817
182
1820
1824
1826
1827
1828
183
1831
1834
1835
1836
184
1840
1841
1843
1844
185
1850
1852
1854
1856
1857
1858
1859
186
1860
1861
1862
1863
1864
1865
1866
1867
1868
1869
187
1870
1871
1873
1874
1875
1876
1877
1878
1879
188
1880
1881
1882
1883
1884
1885
1886
1887
1888
1889
189
1890
1891
1892
1893
1894
1895
1896
1897
1898
1899
19
190
1900
1901
1902
1903
1904
1905
1906
1907
1908
1909
191
1910
1911
1912
1913
1914
1915
1916
1917
1918
1919
192
1920
1921
1922
1923
1924
1925
1926
1927
1928
1929
193
1930
1931
1932
1933
1934
1935
1936
1937
1938
1939
194
1940
1941
1942
1943
1944
1945
1946
1947
1948
1949
195
1950
1951
1952
1953
1954
1955
1956
1957
1958
1959
196
1960
1961
1962
1963
1964
1965
1966
1967
1968
1969
197
1970
1971
1972
1973
1974
1975
1976
1977
1978
1979
198
1980
1981
1982
1983
1984
1985
1986
1987
1988
1989
199
1990
1991
1992
1993
1994
1995
1996
1997
1998
1999
2
20
200
2000
2001
2002
2003
2004
2005
2006
2007
2008
2009
201
2010
2011
2012
2013
2014
2015
2016
2017
2018
2019
202
2020
2021
2022
2024
2025
203
2030
2035
204
205
206
207
208
209
21
210
2100
211
212
213
214
215
216
217
218
219
22
220
2200
221
222
223
224
225
226
227
228
229
23
230
231
232
233
234
235
236
237
238
239
24
240
241
242
243
244
245
246
247
248
249
25
250
2500
252
253
254
255
256
257
258
259
26
260
261
262
263
264
265
266
267
268
269
27
270
271
272
273
274
275
276
277
278
279
28
280
281
282
283
284
285
286
287
288
289
29
290
291
292
293
294
295
296
297
298
299
3
30
300
3000
301
302
303
304
305
306
307
309
31
310
311
312
313
314
315
316
317
318
319
32
320
3200
321
322
323
324
325
326
327
328
329
33
330
3300
331
332
333
334
335
336
337
338
339
34
340
341
342
343
344
345
346
347
348
349
35
350
351
352
353
354
355
356
357
358
359
36
360
361
362
363
364
365
366
367
368
369
37
370
372
373
374
375
376
377
378
38
380
384
386
389
39
390
395
397
4
40
400
4000
401
405
41
410
411
414
415
416
42
420
428
43
430
431
432
433
434
435
436
44
440
444
45
450
4506
451
452
456
459
46
462
466
47
473
479
48
484
487
49
490
493
498
5
50
500
5000
507
51
512
514
516
517
52
522
523
528
53
54
541
543
544
55
550
556
56
57
575
576
58
580
589
59
594
6
60
600
6000
605
608
61
62
624
625
63
630
633
634
635
64
642
643
65
650
653
66
67
68
688
689
69
690
695
699
7
70
700
7000
71
711
72
727
728
73
74
75
750
76
766
77
773
78
79
7904
8
80
800
802
803
81
82
820
822
826
83
831
836
84
847
85
85270
855
859
86
862
866
87
878
88
89
89476
9
90
900
905
91
911
913
917
92
93
93809
94
95
950
955
96
963
97
978
98
99
9900731
:
;
<
=
>
?
@
[
\
]
^
_
a
aa
about
academy
acref
admgor
africa
aif
akin
al
all
altai
altapress
american
an
and
andersen
archive
archivio
art
arts
as
asimov
asinus
at
aung
auto
award
awards
azerbaijan
b
bankı
bashenc
bbc
bd
be
berlin
bibliographisches
bibliothe
bigenc
biography
bnf
book
books
britannica
brockhaus
burma
by
c
cambridge
carl
caucasian
cd
center
charpentier
chel
chicago
christian
christiane
cities
city
cityname
co
com
committee
content
countries
country
cropper
curie
d
das
data
database
de
december
dela
den
der
des
deutsche
development
dfg
di
dictionary
die
discogs
doc
docs
doi
doudna
du
e
economic
ed
edu
ein
eine
election
en
encyclopedia
encyclopædia
engineering
equus
ernst
estonia
et
etnografia
eur
europe
f
fembio
fiction
first
for
forbes
foreign
foto
foundation
france
frauendatenbank
free
freedom
from
fu
full
g
garden
general
geo
geonames
georgian
ghez
gippert
gks
global
gmos
go
google
gov
great
greenpeace
guardian
h
hans
haqqında
hg
history
house
hrsg
html
http
https
hugo
i
id
ii
iii
im
in
index
info
inform
institut
institute
int
interfax
international
internet
is
isaac
isbn
issn
ist
its
iv
ix
j
james
jean
jennifer
jj
john
jost
journal
jpg
k
kazan
kyi
kzn
l
la
lang
laureate
laureates
le
left
lenta
les
letter
line
link
list
literature
m
magazine
main
march
maria
marie
mark
may
me
media
meduza
member
members
mit
modern
morrison
moscow
most
munzinger
murad
museum
myanmar
məlumat
n
na
nadia
nas
nasa
national
nationalbibliothek
nationale
net
new
news
newsru
nnov
no
nobel
nobelprize
nova
nu
nytimes
o
october
of
og
oh
ol
om
on
onguday
online
oq
org
oxford
p
page
pakistan
panoramio
paris
part
pasachoff
pdf
peace
people
personen
php
physics
pierre
pl
planeta
post
pp
press
prize
project
px
q
qadınlar
que
r
rayon
re
ref
region
regnum
relations
report
republic
research
retrieved
ricordi
rkəmli
rom
rosreestr
rowohlt
rp
ru
russia
russian
s
san
science
sciences
se
search
seealso
senate
september
si
siberia
sin
site
size
society
soldat
soviet
speculative
sslein
st
staatsbibliothek
states
storico
strickland
stub
study
suttner
suu
sv
t
tatar
tele
telegraph
text
textual
th
that
the
thumb
time
times
to
toni
top
transparency
travel
u
uk
und
union
university
untranslated
uploads
urbanica
us
ussr
utc
v
va
verlag
vi
victor
view
vii
viii
visit
vol
volhard
volkswagen
von
vtourisme
w
war
was
washington
wayback
weather
weatherbase
web
weekly
who
william
wissen
with
woman
women
world
wp
www
x
xi
xii
xiii
xiv
xix
xls
xv
xvi
xvii
xviii
xx
xxi
xxii
xxviii
xxx
y
year
years
york
young
youtube
z
zip
zu
zur
{
|
}
~
©
«
­
°
²
³
·
»
ʰ
ˈ
ː
̀
́
̄
̆
̇
̈
̊
̌
̓
̔
̧
̨
α
δ
ε
η
θ
ι
λ
а
аазыи
ааи
аан
аандык
аба
абаи
абакан
абас
абаш
август
августа
авиационныи
авиация
австрии
австрия
австро
автобиографиялык
автобус
автобустар
автоматизированныи
автомобильныи
автомобильных
автоном
автономнои
автономных
автор
автореферат
авторизация
авторов
авторы
агажы
агаи
агала
агару
агас
агат
агач
агачскии
агаш
агашка
агашкезим
агашла
агашта
агаштар
агаштардаҥ
агаштарды
агаштардыҥ
агаштарла
агаштарлу
агаштары
агаштаҥ
агашту
агаштыҥ
агашээлем
агеева
агентстве
агентство
агентствозы
агкгн
агломерацияда
агломерацияныҥ
агостини
аграрныи
агуна
агын
агынныҥ
агыны
агынында
агыныныҥ
агып
ада
адаган
адазы
адазын
адазыныҥ
адаи
адалат
адалган
адап
адаров
адарткы
адару
адаткан
административно
административныи
администрации
администрация
администрациязы
администрациязыныҥ
администрациялары
администрациялык
администрацияныҥ
админстрациязы
админстрациялык
адмирал
адмиралтеи
адрианов
ады
адыи
адыла
адын
адына
адынаҥ
ажа
ажу
ажуда
ажуныҥ
ажы
ажын
ажыныҥ
ажып
ажыра
азбука
азербаи
азиат
азии
азия
азияда
азияныҥ
азов
азово
азс
азулу
азыи
азык
азыраар
азыраары
азыраган
азыраи
азырал
азырап
аи
ак
акад
академиги
академии
академик
академика
академическии
академия
академиязы
академиязында
академиязыныҥ
академияныҥ
аказы
акалаган
акалака
акбулак
акин
аккаи
аккан
аккем
акко
актаи
актарда
актау
акташ
акташтыҥ
акте
акту
актуга
актуныҥ
актуру
актуруныҥ
акты
актыныҥ
актыҥ
акулова
акча
акчазы
акчазын
акчазына
акчала
акчаны
акчин
акјул
акјулдыҥ
ал
ала
алака
алала
алама
аламык
аламыктарда
алар
аларга
аларда
аларткы
алары
алат
алатан
алаха
алаҥуш
албаа
албаган
албазыҥ
албанла
албаты
албатызыныҥ
албатылык
албатыныҥ
алга
алгага
алгада
алгазы
алгалар
алгаларла
алгалары
алгаларын
алган
алгандар
алганы
алды
алдыла
алдына
алдынаҥ
алдында
алдындага
алдындагы
алдырткан
алдыртып
але
алеи
александр
александра
александринскии
александро
александрович
александровскии
алексеев
алексеевич
алексеевна
алексеи
алза
алмаз
алмысту
алт
алта
алтае
алтаи
алтаистика
алтаистиканыҥ
алтаистики
алталу
алтапресс
алтаю
алтая
алтгту
алтгу
алты
алтыгы
алтын
алтынду
алтынды
алтынчы
алу
алушкина
алынган
алынып
алып
аль
альберт
альва
альпии
альпинист
альфа
альфред
алюминии
амадаган
амаду
амадузы
амадулу
америкада
американ
американскии
американскои
американыҥ
амител
амур
амурскии
амфора
амыр
амыраар
амыралтага
амырдыҥ
ан
анаи
анализ
аналитическии
анатолии
аначак
англ
англии
англия
анда
андреа
андреевич
андреи
анду
анна
ано
анос
анохин
анохина
анохинниҥ
анри
ансамбли
ансамбльдыҥ
антигитлеровскии
антология
антон
антонович
антропоген
антропологии
ануи
анчада
анып
анышкинович
аныҥ
ао
ап
апарат
апарган
апарып
апенышева
аполлон
апостольскии
аппарат
аппаратура
апреля
аптека
апшерон
апшуяхта
апшыи
ар
арааи
араб
аразы
аразында
аразыныҥ
араи
аракы
арал
аралда
аралдарда
аралдыҥ
аранжировка
арасеи
арба
арбаи
арбынду
арга
аргадап
аргазы
аргалары
аргали
аргалу
аргамджи
аргамжи
аргамјы
аргачы
аргачылар
аргументы
аргут
аргымаи
арена
аржан
аржаны
арина
арка
аркада
аркалар
аркаларда
аркалары
арктическии
аркыт
аркыттыҥ
армии
армия
армияныҥ
армян
армяндар
армянскии
арнольд
арт
артап
артат
артель
артизи
артиллерии
артист
артисти
артисттериниҥ
арткан
арткандары
артур
артыбаш
артыбашта
артыбаштыҥ
артыгы
артык
артып
артыш
ару
арузы
арутаар
арх
архангельскии
архар
археологии
археология
археологиялык
археолого
архив
архивированная
архивировано
архивов
архивы
архиепископ
архиереи
архимандрит
архитектор
архитекторы
архитектура
архитектуралык
архитектураныҥ
архитектурно
архитектурныи
архитектуры
арчауш
арчын
арчыыр
ары
арыш
ас
асканаков
аскат
аскатта
аспак
аспакта
ассоциации
асср
аст
астаган
астаганы
астаганыла
астаи
астана
астап
астраханскии
астрель
астроном
асфальт
ат
аталык
атанган
аташ
аткарган
аткарылган
аткарып
атла
атлас
атмосферага
атмосфераны
атомныи
аттар
аттарды
аттардыҥ
аттарлу
аттары
атту
атты
аттыҥ
ау
аул
аун
афанасьевич
африкан
ачар
ачкан
ачтаганыла
ачык
ачыларда
ачылат
ачылган
ачылта
ачылтазы
ачылып
ачып
аш
ашкан
ашкана
ашту
аштыҥ
аэродром
аэропорт
аэропортко
аэропорты
ајарган
ајару
ајаруга
аҥ
аҥат
аҥдаи
аҥдап
аҥдар
аҥдардаҥ
аҥдарды
аҥдардыҥ
аҥдары
аҥду
аҥдык
аҥнаҥ
аҥныҥ
аҥчы
аҥы
аҥыланат
аҥылу
аҥылузы
аҥыр
б
ба
баазы
баалу
баарчык
баатыр
баатырлар
бабырган
бадан
бадар
бажы
бажына
бажынаҥ
бажында
бажыныҥ
база
базалар
базар
базат
базылат
базылган
базылып
базып
баи
баина
бак
бака
бакалавр
бактарга
бактыган
баку
бала
балага
балалу
балан
баланыҥ
балбак
балдар
балдарга
балдарды
балдардыҥ
балдарлу
балдары
балдарын
балдарына
балет
балета
балетмеи
балеттиҥ
балина
балкаш
балл
баллдаҥ
балобан
балтии
балтырган
балузын
балыгы
балык
балыктар
балыктарынаҥ
балыкташ
балыктаҥ
балыкту
балыкты
балыктыҥ
балыкчы
банк
банктар
банктарыныҥ
баптистов
баптисттердиҥ
бар
бара
бараан
барагаш
барагаштыҥ
барала
баранов
баранова
барантаева
барар
барарга
барарда
барат
баратан
бараткан
баратканы
барбарис
барбаросса
баргаа
барган
барза
барнаул
барнаула
барнаулга
барнаулда
барнаулдыҥ
барнауле
барнаульскии
барокко
барре
барс
барынтычы
барынтычылары
барып
баскан
баскет
баскетбольныи
бассеи
басты
бастыи
бастыра
бастыразы
батун
баш
башка
башказы
башкаланат
башкаланып
башкараачы
башкараачызы
башкараачызыныҥ
башкараачылары
башкарар
башкарат
башкаратан
башкарган
башкарткан
башкару
башкаруга
башкаруда
башкарузы
башкарузыла
башкарузын
башкарузында
башкарузыныҥ
башкаруны
башкаруныҥ
башкарып
башкир
башкирлер
башкирская
башкирскии
башкирское
башкортостан
башкортостанда
башкуш
башня
баштаар
баштаарда
баштаган
баштагандар
баштадып
баштаи
башталала
башталарда
башталат
башталган
башталганы
башталганынаҥ
башталганында
башталып
баштамы
баштанган
баштанып
баштап
баштапкы
баштапкылардыҥ
баштары
баштаткан
баштаҥкаи
баштаҥул
башту
башчы
башчызы
баян
бвжып
бд
бе
бедиреген
бедиреп
бедюров
бее
бежен
бежинчи
без
безматерных
безопасности
безопасность
беи
бек
беккерель
бел
белая
белгород
беле
белен
белетеген
белетеер
белетеери
белетеи
белетеп
беловодье
белого
белое
белои
белоруссия
белорусскии
белорустар
белтир
белтирдиҥ
белтири
белтиринде
белуха
белыи
бельтир
бельчекова
беляши
бербеген
бербеи
берген
бергендер
бергениле
бердск
бере
берег
берегу
берер
берерде
берет
бери
берилген
берилет
берилтелер
берип
беристе
берлин
берлинде
берлинниҥ
берта
бетсу
бетти
бечиртке
беш
бешпек
бешпелтир
бешпелтирдиҥ
бештиҥ
би
библиогр
библиографическии
библиографичесскии
библиотека
библиотеказы
библиотекалар
библиотекалары
библиотеканыҥ
библиотеки
бидинов
бизинле
бизнес
бизнеса
бии
билбес
билдирет
биле
биледе
билези
билезинде
билезине
билезиниҥ
билелер
билелери
билениҥ
билер
билетен
билим
билимде
билимдердиҥ
билимдериниҥ
билимди
билимниҥ
билимчи
билимчилер
билимчилердиҥ
билимчилери
билимчилериниҥ
билип
билу
бин
бинде
биография
биолог
биологическии
биология
биологиялык
биологияныҥ
биосферныи
бир
биржа
бириге
биригеле
биригет
биригип
биригу
бириккен
бириккенде
бириккени
бириккенинде
бириккенинеҥ
бириктирген
бириктирет
бириктирилген
бириктирип
бирлиги
бирлигиниҥ
бирлик
биру
бис
бисти
бистиҥ
битва
бичиген
бичигени
бичигениле
бичигенинде
бичиги
бичигинде
бичигине
бичигиниҥ
бичии
бичиир
бичиичи
бичиичизи
бичиичилер
бичиичилердиҥ
бичиичилериниҥ
бичиичиниҥ
бичик
бичикке
бичикте
бичиктер
бичиктерде
бичиктердиҥ
бичиктери
бичиктеринде
бичиктиҥ
бичикту
бичилген
бичилгени
бичилет
бичимел
бичимелдер
бичимелдердиҥ
бичимелдери
бичимелдеринде
бичип
бия
бије
бијениҥ
бк
благовещенскии
блэкберн
бно
бо
бобокова
бово
богаз
богатыи
бого
богон
богородицкая
богородицы
богуты
бодои
бодоштырат
бодоштыру
боевые
божиеи
божогон
божодоло
божодып
божои
божоп
божоткон
бозого
бозоголор
бои
бок
бол
болбогон
болбои
болбос
болгария
болгодыи
болгон
болгондор
болгоны
болгонын
болгонынаҥ
более
болзо
болзын
боло
бололо
болор
болорго
болордо
болоры
болорын
болот
болотон
болужар
болужыла
болужын
болужып
болук
болуп
болуш
болушкан
болушты
болуштыҥ
болушчы
болушчызы
болч
болчок
болып
больница
больницазы
больничныи
больныи
большая
больше
большевик
большевиктер
большие
большое
большои
бом
бомба
боом
боомныҥ
боочы
боочыда
боочызы
боочызына
боочызыныҥ
боочылар
боочылары
боочынаҥ
боочыныҥ
бор
борис
боро
бороҥот
борсык
борсыктии
борт
бортылдак
борщевик
борьба
бот
ботаническии
боуп
бофорттыҥ
бош
британ
британскои
бритт
брокгауз
брокгауза
бсэ
бу
бубен
бугузун
буддизм
буддии
будет
буду
будут
будущего
будущее
буи
бука
булак
булан
буланат
буландык
булгаков
булгар
булутту
бульварлар
бульварныи
бум
бунин
бураты
бургазы
бурлактар
бурулаган
бурулап
бурханизм
бурылган
бурят
бусныи
бустар
буттары
буудаи
буунты
буучаи
бы
бывшего
быжат
быжырар
быза
бызылган
бызылып
бызып
быи
был
была
были
было
быркырууш
быта
быть
бышев
бышевскии
бышевтиҥ
бюджет
бюджета
бюджетное
бюро
бюст
бюсты
в
ва
вагондор
вал
валдаи
валентин
валерии
валовои
валовыи
валютныи
вангари
вариант
варшава
варшавада
варшавскии
василек
василии
василиск
васильев
васильева
васильевич
васильевна
васильевскии
вашингтондо
вв
ввп
ввс
вгтрк
вднх
ведения
ведомости
век
века
веков
великая
великие
великии
великих
великобритании
великобритания
великого
великое
великои
венада
венгер
венгрия
вера
вермахт
вермахта
вермахттыҥ
вернадскии
версия
версиялар
вертишеи
вертоле
верх
верхнеобскии
верхнии
верхняя
верховного
верховныи
весна
вести
вестник
весь
ветерандары
ветераны
вече
веществолор
веществолордыҥ
взгляд
вид
видам
видатних
видео
византии
визитныи
виктор
викторович
високосныи
виталии
витаминдерле
вице
вич
вишня
вка
вклад
включая
вкп
владение
владимир
владимирович
владимировна
владимирскии
владислав
власти
власть
влксм
вместе
вмф
внесении
внутреннии
внутренних
внутригородским
во
вод
вода
водного
водном
водные
водныи
водных
водопровод
водосбор
водохранилище
водохранилищениҥ
воды
воевода
воениздат
военно
военное
военнослужащии
военныи
военных
возвышенность
возвышенностьтыҥ
воздуха
возможно
вознесенскии
возраст
возрождение
возы
возыныҥ
вои
воинскои
вокзал
вокзалдыҥ
вокруг
волга
волганыҥ
волги
волго
волгоград
волгограда
волгоградскии
волгоградскои
волгоградта
волеи
волжскии
вологодскии
володушка
волость
волостько
волостьтор
волостьторды
волостьтордыҥ
волостьтоҥ
волостьты
волостьтыҥ
волчек
вооруже
вопрос
вопросу
вопросы
воро
воронеж
воронежа
воронеже
воронежскии
воронежского
воронежскои
воронежте
воронежтиҥ
ворота
ворошиловскии
воскресенскии
восток
востока
востоке
восточная
восточно
восточного
восточнои
восточныи
впервые
врач
врачы
времени
время
вс
все
всего
всемирная
всемирного
всемирныи
всероссии
всесоюзная
всесоюзныи
всех
вскии
вступ
вступил
вся
вт
втб
вторая
второи
втыҥ
вуз
вузов
вузтардыҥ
вузтарыныҥ
вузы
вцик
вциом
вшэ
выборы
выдающихся
выемка
вып
выпуск
выпуска
высокогорная
высота
высотныи
высоцкии
выставка
выставкалар
выставочныи
высшая
высшего
высшее
высшеи
высшии
выше
вышла
вязников
вячеслав
г
га
габриела
гагарин
гагаринниҥ
гагпи
гагу
гада
газ
газет
газета
газетте
газеттер
газеттиҥ
газеты
газопровод
газпром
газы
гаи
гак
гакту
гактузы
гактулары
галар
галарга
галарда
галарды
галардыҥ
галары
галарына
галарында
галарыныҥ
галерея
галереялар
галина
галицкии
ган
ганыҥ
гарвардтыҥ
гбови
гвардеи
гвардии
гвардия
гг
где
ге
гез
геи
гек
гектар
гекту
ген
генерал
генерального
генеральныи
гени
геогр
географ
географические
географическии
географических
географического
географическое
география
географиязы
географиялык
геоинформационныи
геолог
геологии
геологическии
геологиялык
георг
георгиевич
георгиевскии
георгии
герань
гербе
герман
германиеи
германии
германия
германияга
германияда
германияла
германияныҥ
германскии
германскои
гернек
геродот
герои
герта
гескен
ги
гидрологическая
гидрометеоиздат
гидроузел
гимназия
гимназияныҥ
гин
гинде
гине
гиниҥ
гипотеза
гипперт
гиря
гитис
гитлер
гитлера
гкгн
гкчп
гл
глава
главная
главного
главныи
главы
глик
глюк
го
гоголь
гогольдыҥ
год
года
годах
годов
году
годы
гол
голдыҥ
голодец
голос
голубая
голубика
голубои
гольцовыи
гон
гончаров
гор
гора
горбаче
горная
горно
горного
горном
горные
горныи
город
города
городам
городами
городе
городище
городов
городок
городом
городская
городские
городским
городских
городского
городское
городскои
городу
горы
горькии
горьковскии
горького
горячко
гос
госкомстат
гостиница
государств
государства
государственная
государственного
государственное
государственнои
государственном
государственности
государственныи
государственных
государство
государстволык
государствоныҥ
гравии
град
градус
градуска
градустаҥ
граждан
граждандары
граждане
гражданин
гражданскии
гражданство
грамм
грамотазыла
грамоталарыла
гран
грани
гранит
границ
граница
границы
гранына
грация
гребнои
греи
грек
греко
греция
греческии
григориан
григории
григорьев
григорьевич
грин
гриф
грозныи
громотуха
гросс
грузин
грузиндер
грузообороды
грузооборот
грунт
группа
группазына
группы
груша
гтрк
гу
губернатор
губернаторы
губернии
губерния
губернияга
губернияда
губернияныҥ
губернская
губернские
губернскии
губскии
гуль
гуманитар
гуманитарные
гуманитарныи
гуннар
гуркин
гуркинниҥ
гусевка
гш
гы
гыда
гыр
гэс
гюго
д
да
дагы
дадылар
даи
дальневосточныи
дальнего
дальше
дания
данные
данныи
данным
данных
дап
дар
дарга
дарда
дардаҥ
дары
дарья
дат
дата
датан
датла
дату
даты
даудна
даҥ
два
две
движение
движения
дворец
дворцово
де
девы
деген
дегендери
дегени
дежет
дежетен
дезе
деи
дек
декабрь
декабря
декоративныи
дел
дела
делам
делегады
деледда
деление
делении
дели
дело
деловои
дельтазында
демидовтыҥ
демографиялык
демократ
демократия
демократиялык
демоскоп
день
деп
департамент
департамента
депутады
депутадына
депутат
депутатов
депутаттардыҥ
депутаттарыныҥ
дер
деревня
дерево
деревянко
деремне
деремнелер
деремнениҥ
держава
десять
дет
детеи
дети
детская
детскии
детско
детского
дешкен
деятель
деятельности
деятельность
деҥ
дж
джазатор
джан
джандар
джеи
джек
дженнифер
джоди
джон
джонсон
джордж
джунгар
дзержинскии
ди
диаметры
дивизия
дизаи
дикии
дикои
диксонныҥ
дилер
димитрии
динамика
динамо
диплом
дипломат
дирген
директоры
дирентаи
дирилген
дирип
дис
диск
диспансер
диссертации
диҥ
дк
длина
для
дмв
дмитриевич
дмитрии
дне
днеи
днепр
дни
дно
дня
до
доблести
добровольческии
договор
договора
доклад
докладов
доклады
доктор
докторскои
докторы
документал
документах
документов
документтер
документтерде
документы
долг
долгих
долгота
должность
долина
долины
долл
доллар
дом
дома
домов
домовыи
дон
дондо
донна
донныҥ
донскои
дону
доп
дор
дордо
дорович
доровна
дорог
дорога
дорогам
дороги
достоевскии
доходныи
доц
доцент
доценти
дошкольныи
доҥ
др
драма
драманыҥ
драматическии
драматург
драмы
древнеи
древнерусскои
древних
древняя
другие
другим
других
дружбы
дтп
ду
дуга
дуда
дума
думага
думы
дунаи
духовнои
духовныи
душа
души
душица
ды
дыжат
дыжыла
дылар
дылат
дылган
дын
дып
дыс
дыста
дыш
дыҥ
дьяконова
дюсш
дюфло
е
ева
евангельскии
евангельских
евгении
евдокимов
евич
евразии
евразия
евразияныҥ
евреи
евро
европа
европага
европада
европаныҥ
европе
европеи
европы
его
егор
егошиха
егрокн
единая
единиц
единица
ее
ежевика
ежегодник
ек
екатерина
екатеринбург
екатеринбурга
екатеринбурге
екатеринбургскии
екатеринбургта
екатеринбургтыҥ
екатерининскии
екатеринодар
ектиҥ
елангаш
елдепова
елена
елеусов
елизавета
елинек
елинектиҥ
ело
емельян
енисеи
енни
епархии
епархия
ер
ерде
ердиҥ
ередеев
ериле
есенин
если
естественныи
есть
ет
ефрон
ефрона
еще
ж
жан
же
желе
железнодорожныи
железнои
железные
женская
женскии
женщин
женщина
женщинах
женщины
жер
жерде
жет
жетен
жи
живе
живопись
животноводства
животные
животных
живут
жигит
жизни
жизнь
жимолость
жип
жителеи
жители
жить
жно
жныи
жо
жолио
жу
жуков
жуковскии
жуковтыҥ
журнал
журналда
журналдыҥ
журналист
журналисттер
журналисттериниҥ
жінок
з
за
забаи
заборенко
заведение
заведениелер
завод
завода
заводто
заводтор
заводтордыҥ
заводты
заводтыҥ
заводы
заглавия
загоровскии
загрязнения
заи
заказник
закон
закона
законы
закс
зал
залду
залив
заливте
залы
заморозки
заморских
зао
зап
запад
западная
западно
западноевропеи
западнои
западном
западныи
записка
записки
заповеднигинде
заповедник
заповедника
заповедникте
заповедниктеринде
заповедникти
заповедниктиҥ
зарегистрированных
зарипова
заря
заслуги
заслуженныи
застава
защиты
заҥ
заҥдары
заҥы
звания
зве
звезда
звезды
звери
звончиха
здание
здесь
здоровье
здравоохранение
здравоохранения
зе
зебра
зебразы
зеду
зееберг
зеле
земель
земле
земли
земля
земскии
зен
зер
зери
зет
зи
зилген
зиле
зимнее
зимнии
зин
зинде
зине
зинеҥ
зиниҥ
зиновьев
зип
златоуст
злобина
змееносец
знак
знамени
значение
значения
знези
знезиниҥ
зо
зодиака
золотая
золотои
зона
зонага
зонада
зоналар
зональныи
зоны
зоологическии
зоопарк
зоотехник
зу
зуттнер
зы
зыҥы
и
иа
ива
иван
ивана
иванов
иванова
иванович
ивановна
иволга
иги
игнатиха
игорь
ид
идел
идентификатор
идентификационныи
идеологическии
ижи
ижиле
ижин
ижинде
ижине
ижинеҥ
ижиниҥ
из
известия
известные
известных
изд
издание
издательскии
издательства
издательство
издательствозыныҥ
издательствоныҥ
измаи
изменении
изменениями
изобразительных
изобретатель
изу
изучение
изучению
изучения
изученность
ии
ик
икона
иконазыныҥ
иконы
икте
иктеген
иктеи
ил
илген
иле
илет
или
ильинка
ильинканыҥ
ильич
илья
им
имеет
имени
имеющии
император
императордыҥ
императорскии
императрица
империи
империя
империяда
империяныҥ
имэле
имя
ин
инв
инвестиционныи
инде
индекси
индексы
индии
индия
индоевропеи
индустриализация
индустрия
ине
инегень
инеҥ
инженер
инженерно
инженерныи
инженеров
иниҥ
инниҥ
инновационныи
инородныи
иностранныи
иностранных
институды
институдында
институдыныҥ
институт
института
институтка
институтта
институттар
институтты
институттыҥ
интервью
интернат
интернет
интерфакс
инфо
информ
информации
информационно
информационное
информационныи
информация
инфраструктура
инфраструктуразы
инфраструктуралык
инфраструктурныи
инфраструктуры
иня
иоанн
иоганн
иогач
иолго
иолгоныҥ
иосиф
ип
ипподром
иракта
иран
иранда
ирбис
ирбисту
ирен
ирина
ирис
иркит
иркутскии
иртыш
исетскии
исеть
искитим
ископаемыи
искра
искусств
искусства
искусственныи
искусство
искусствты
ислам
испан
исполкомныҥ
исполнение
исполнительного
исполнительныи
исследование
исследовании
исследования
исследовательскии
истежип
истории
историко
историография
историографияда
историческая
исторические
историческии
исторических
историческое
историческои
историю
история
источник
источниках
ит
итал
италия
итальян
итальяндап
итогам
итогах
итоги
иудаизм
иудеи
их
ич
ичер
ичи
ичиле
ичинде
ичине
ичинеҥ
ичиниҥ
ичкерлеер
ичкерлеп
ичкерлеш
ичпек
иш
ишке
ишмекчи
ишмекчилер
ишмекчилердиҥ
иште
иштебеи
иштеген
иштеер
иштеерге
иштеери
иштеи
иштенген
иштенер
иштеп
иштер
иштерге
иштерди
иштердиҥ
иштери
иштерин
иштеринде
иштеҥ
ишти
иштиҥ
ишту
ишчи
ишчизи
ишчилердиҥ
ишчилери
ишчилериниҥ
ишјал
июля
июня
иҥ
иҥгат
иҥкат
к
ка
каа
каан
каанга
каандык
каандыктыҥ
каанныҥ
кааны
каајы
кабаи
кабак
кабакту
кабан
кавалерии
кавалеры
каверзное
кавказ
кавказскии
кавказта
кавказтыҥ
кага
кадет
кадетскии
кадрин
кадринниҥ
кадыгы
кадыгын
кадык
кадын
кадынга
кадында
кадынды
кадынла
кадынныҥ
каждыи
кажы
кажызы
казак
казаков
казаковтыҥ
казакстан
казактар
казактардыҥ
казан
казанда
казани
казанка
казанныҥ
казанская
казанскии
казанское
казанскои
казанцев
казань
казарина
казах
казахстан
казахстана
казахстанла
казахстанныҥ
казахтап
казахтар
казачии
казылган
казып
казыр
казырларынаҥ
каи
каинчин
каинчинниҥ
как
какаи
какшак
кала
калага
калада
калазак
калазы
калазына
калазында
калазыныҥ
калала
калалар
калаларга
калаларда
калалардыҥ
калалары
калаларында
калаларыныҥ
калан
каланаков
каланаҥ
каланегир
каланы
каланыҥ
калат
калаш
калба
калбак
калбалу
калган
калганчы
калганы
калгуты
калгутыныҥ
календарь
калии
калина
калининград
калининниҥ
калининскии
калифорнии
калка
калкалардыҥ
калкин
калкинниҥ
калу
калужскии
калыгыныҥ
калык
калыктар
калыктардыҥ
калыктары
калыктарыныҥ
калыктыҥ
калыҥ
калыҥжып
калыҥы
кальскии
калјанко
кам
кама
камаанду
камааны
камаанын
камаи
каманыҥ
камду
камдузы
каменная
каменные
каменныи
камень
камерныи
камлак
камлакта
камлактыҥ
кампанияда
камру
камскии
камчылу
камык
камыш
кан
канаи
канал
канала
каналдар
канас
каначак
кандаракова
кандидады
кандидат
канду
кандыи
кандык
канныҥ
канскии
канского
канча
каныҥ
кап
капитан
капица
капустинская
кар
кара
карааи
карабулак
карагаи
карагат
карагем
карагол
караголдыҥ
карагыс
каракат
карако
каракол
караколдыҥ
каракунгои
карамаев
карамаева
караои
караоюк
карасу
карасук
карасуу
карачкаи
караҥ
караҥуи
каргаа
карган
каргана
карда
карды
кардыҥ
каркыраа
карл
карла
карлагаш
карлу
карман
карскии
карта
картазында
карте
карточка
карточказы
картошко
карты
кару
каруулу
карчага
каршу
каршулу
кары
карым
карындажы
карындаш
карындаштык
кас
каскад
каскак
каспа
каспаныҥ
каспии
кастакту
кастар
кат
катал
каталанскои
каталог
катанда
катанду
катандуныҥ
катап
катапка
каташ
категории
категория
катер
католикалык
католицизм
католическии
кату
катуни
катунскии
катуныҥ
катунь
кафедразында
кафедрал
кафедральныи
качан
качкан
качкын
качызы
качып
кају
кв
квадрат
квадратныи
квартал
квт
кг
ке
кебеделду
кебедели
кебезен
кебезенде
кебезенниҥ
кебезень
кедеи
кедери
кеендигиниҥ
кеендик
кеендикте
кеендиктиҥ
кеенеи
кезектеи
кезем
кезер
кезиги
кезигин
кезигиниҥ
кезик
кезикте
кезилген
кезип
кеи
кек
кектиҥ
келген
келгендер
келди
келеи
келеле
келер
келерде
келет
келетен
келеҥ
келзе
келижет
келижип
келин
келип
келишкен
келишпеи
келиштире
келтеи
келтеҥи
кем
кеме
кемеров
кемерово
кемеровскии
кемеровскои
кеми
кемиле
кемин
кеминде
кемине
кеминеҥ
кеминиҥ
кемју
кенеи
кензин
кенияда
кеп
кепке
кепту
кергил
кергилов
керегинде
кереези
кереес
кереестер
кереестердиҥ
кереестери
кереестиҥ
керек
керектер
керектерди
керектерин
керекту
керелеи
кереп
керептер
керептери
кеткин
кечер
кечетен
кечип
кечире
кечу
кеҥи
кеҥиниҥ
ки
кивер
киде
киев
киевскии
кижи
кижиге
кижизи
кижизине
кижиле
кижиликтиҥ
кижинеҥ
кижини
кижиниҥ
кизи
кизин
кизинде
кизиниҥ
кии
килик
километр
километрге
километрдеҥ
километринде
ким
кин
киндикова
киниҥ
кино
кинодо
кинозы
киноныҥ
кинорежиссе
киностудия
кинотеатр
кинотеатрлар
кинотеатры
кипреи
кирбеген
кирбеи
кирген
киргендери
киргени
киргенинде
киргенине
киргенинеҥ
киргениниҥ
кире
киреде
кирези
кирезинде
киреле
кирелте
кирелтези
кирер
кирерге
кирерде
кирет
кирилл
кириллов
кирип
кирлу
кировскии
кировтыҥ
кирпич
киртиген
киртидет
киртидип
киру
кирха
китаи
китая
кичеебес
кичи
кичилер
кичинек
кичу
киш
кке
ккен
кко
кл
клавишту
класс
класса
классика
классикалык
классицизм
класстарда
классту
классты
класстыҥ
кле
клевер
клеи
климады
климадына
климат
климатическии
климатлык
климатту
климаттыҥ
клиническая
клиническии
клу
клуб
клуба
клубтар
клубы
клюква
ключ
км
кн
книга
книги
книжного
книжное
книжныи
княжество
княжествоныҥ
князь
ко
кобы
кобыда
ков
ковскии
когда
код
кодекс
коды
кожевенныи
кожо
кожоҥ
кожоҥдои
кожоҥдор
кожоҥдордыҥ
кожоҥчы
кожоҥчызы
кожоҥы
кожулат
кожулган
кожулта
кожулып
кожуп
кожылат
кожылган
козлов
кои
кокоря
коксинскии
коксинского
коксу
кокышев
кокышевтиҥ
кол
колбогон
колбои
колбу
колбулар
колбулу
колго
количество
колледж
колледжи
колледжте
колледжти
коллекциязы
коллекциялар
коллекцияларында
колонизация
колтыгында
колхоз
колхозто
колхозтыҥ
колыи
колына
колында
колышкан
коль
кольцевои
кольцо
ком
команда
командазыныҥ
командование
комбинат
комдош
комдоштор
комедии
коми
комиссии
комиссия
комиссияныҥ
комитеди
комитединиҥ
комитет
комитета
комитеттиҥ
коммерсант
коммерсантъ
коммерциялык
коммерческии
коммуна
коммунал
коммунальныи
коммунист
коммунистическая
коммунистическии
компании
компания
компаниялар
компаниялардыҥ
компанияныҥ
комплекс
комплексная
комплекснои
комплексныи
комплекстер
комплексы
композитор
компьютерныи
комсомол
комсомолец
комсомольская
комсомольскии
комургаи
конвенция
конвертер
конгон
конгрессе
кондаков
кондитерскии
конец
конкурс
конок
конокко
конокто
коноктыҥ
конор
консерватория
константин
константинович
конституции
конституционныи
конституция
конституциязы
конструктивизм
консультанты
консультативныи
контексте
континентал
континенталга
континентальныи
контрнаступление
контроль
конф
конференции
конференция
конференцияда
конфликт
конца
концентрациязы
концертныи
коо
коол
коолдыҥ
коолы
коолыла
коолында
коомои
координаттары
копеечник
копеи
копия
кор
корабль
корбо
коргон
коргонныҥ
кореи
корень
коридор
коркышту
корогон
корогондорго
корогондордыҥ
короле
королевскии
корон
коронду
короты
корпус
корпусы
корреспондент
корреспонденти
корриган
корулаар
корулаарга
корулаары
корулаган
коруланар
корулап
корулу
корум
корумдар
корумду
корымду
коряков
космическии
космонавт
космоско
котельныи
котловина
которая
которое
которые
которыи
которых
кофе
кочевников
кочевых
кочеев
кочкор
кочо
кош
кошбулак
кошев
кошкон
коштои
кошту
кошты
којои
кпрф
кпсс
кравец
крае
краевед
краеведческии
краевого
краевои
краи
крапива
красная
красноармеец
красноармеи
красного
красногорскии
краснодар
краснодара
краснодарда
краснодардыҥ
краснодаре
краснодарскии
краснодарского
краснои
красносельск
красноярск
красноярска
красноярская
красноярске
красноярскии
красноярского
красноярскта
красные
красныи
кратер
краткая
краткие
краткии
края
краям
кремль
кремльде
кремльдиҥ
кремля
крепости
крепостнои
крепость
креске
крестту
крестьян
крестьяндар
крестьянских
кречет
кривоще
кризис
кристин
критик
кроме
кронштадтскии
крохаль
круизныи
крупнеи
крупным
крупных
крым
крымда
крымскии
ксв
ксу
ксуныҥ
ксуу
ктаман
кте
ктеи
ктер
ктери
ктеринде
ктеҥ
кти
ктии
ктирген
ктиҥ
кто
кту
ку
кубанскии
кубань
кубаш
кубее
кубка
кубок
кубулган
кубултар
кубулып
кудаи
кудрявцев
кужуртубулак
кужы
кужыла
кузбасс
кузбасскии
кузнец
кузнецкии
кузугы
кузук
кузьма
кузя
куи
кулаган
кулагаш
кулады
куладыныҥ
кулаш
културазыныҥ
кулузын
кулун
кулур
куль
культ
культовыи
культур
культура
культуразы
культуразыныҥ
культуралар
культуралардыҥ
культуралык
культураныҥ
культуре
культурно
культурного
культурное
культурныи
культуры
кумак
кумакла
кумакту
кумалыр
куманды
кумандылар
кумдус
кумжулу
кумир
кумшулу
куни
куницын
кунсткамера
купечество
кур
кураан
кураган
кураи
куран
куранду
кургак
курган
кургандар
кургандары
курганы
курмач
куропатка
курорт
курортныи
курс
курсак
курскии
курскта
курт
куру
курук
курултаи
курч
курчаи
курчаткан
курчууга
курјум
кускун
кускуннур
куу
кууи
куукарагаи
куучын
куучындап
куучындар
куучындары
куучынында
кучин
кучияк
кучияктыҥ
кучыи
куш
кушка
кушла
куштар
куштардаҥ
куштардыҥ
куштары
куштарыла
кушту
куштыҥ
куюм
кујур
кујурлу
кчи
кши
кшиниҥ
кшо
кы
кыдат
кыдаттап
кыдрашев
кыжы
кыжыла
кыжында
кызалаҥду
кызы
кызыдар
кызык
кызыл
кызылгат
кызылкаи
кызылкат
кызылташ
кызылто
кызылшыҥ
кызылјар
кызыныҥ
кызычак
кыи
кылбыш
кылганак
кылыгынаҥ
кылык
кымыскаи
кып
кыпчак
кыр
кыра
кырага
кырада
кыраи
кыралар
кыраларда
кыралардыҥ
кыраларлу
кыралары
кыраныҥ
кырбаштаи
кыргыс
кырда
кырдаҥ
кырды
кырдыҥ
кырлар
кырларга
кырларда
кырларды
кырлардыҥ
кырларлу
кырлары
кырларында
кырларыныҥ
кырлаҥ
кырлу
кырлык
кырлыктыҥ
кырсаи
кыртыжы
кыртыжын
кыртыжыныҥ
кырчын
кыры
кырында
кыс
кыска
кыскарта
кыскачак
кыскашту
кытат
кычыраачылар
кычырар
кычырган
кычыру
кычырып
кыш
кышка
кышкы
кышкыда
кыштар
кышту
кыштыҥ
кыҥыраар
кэрол
кюри
кюриге
кюрилер
кюрини
кюриниҥ
л
ла
лаборатория
лабораториязында
лагерле
лагерь
лазарь
лаи
ландшафттар
ландыра
ланжевен
ланып
лап
лаптап
лар
ларга
ларда
ларды
лардыҥ
ларла
лары
ларында
ласкердиҥ
латвия
латин
латиндап
лауреады
лауреат
лауреаттары
лауреаты
лбо
лв
лген
лгер
лгери
лгерлер
лгерлердиҥ
лгерлери
лгерлерин
лгерлик
лгерчи
лгерчиниҥ
лго
лден
лди
лдиҥ
лдо
лдор
лдорго
лду
ле
лебедь
лев
леви
левина
левинка
легем
легемниҥ
леген
ледовыи
леи
лекер
лекерде
лекери
лекерин
лекерлер
лекциялар
лелген
ленд
лениздат
ленин
ленина
ленинге
ленинград
ленинграда
ленинградскии
ленинградта
ленинградтаҥ
ленинниҥ
ленинскии
лента
леонид
леп
лер
лерге
лерде
лердеҥ
лерди
лердиҥ
лери
лериле
лерин
леринде
лериниҥ
лерле
лерлу
лермонтов
лермонтовтыҥ
лес
леса
лесная
леснои
лесов
лесопарк
лесостепнои
лесостепь
лесхоз
лет
летие
летию
летия
летнее
летнии
летопись
лешкен
лещ
лжедмитрии
ли
либерияныҥ
либо
лига
лигада
лиги
лигиниҥ
лидер
лиз
лии
лик
ликте
ликтер
ликтердиҥ
ликтери
ликтиҥ
ликту
лин
линген
линда
линде
лине
линет
линия
линиҥ
лип
липа
липецкии
лирикалык
лист
листок
лит
литва
литература
литературада
литературала
литературалык
литератураны
литератураныҥ
литературе
литературная
литературно
литературныи
литературовед
литературы
литинститутты
литография
лицеи
личныи
лишаи
лишь
лкам
лко
лку
лло
лмо
ло
лобачевскии
лов
лова
лович
ловна
ловскии
лог
лодка
лок
ломоносов
лондондо
лондонныҥ
лор
лордо
лоры
лорына
лорыныҥ
лосиныи
лошадь
лпх
лте
лтезин
лто
лту
лу
лугем
лугемниҥ
луговая
луиза
лук
лукои
луларда
луна
луне
лунного
луны
лучшие
лучших
лы
лыгы
лыгын
лык
лыктыҥ
лына
лында
ль
льва
лю
любительскии
любовь
людеи
люди
людмила
люк
лютеран
лютеранскии
лјик
м
ма
маадаи
маала
мааланыҥ
мааны
маанызы
мааныныҥ
маатаи
магазин
магазиндер
магистраль
магистральдыҥ
магнит
магуаи
магында
магыныҥ
мадам
мажакту
мажит
мажои
маи
мак
макарии
макка
макла
макошев
макошева
макс
максим
макта
мактар
мактарга
мактарда
мактардыҥ
мактаҥ
макты
мактыҥ
макушин
мал
малая
малга
малды
малдыҥ
маленькая
малчиев
малыи
малын
мамадаков
мамин
ман
манат
мандардыҥ
манов
манова
мансии
маны
маныҥ
марал
маралдыҥ
маральник
марга
маргаа
маргаандар
маргаандарда
маргаандардыҥ
маргаандары
маргалу
маргарита
мари
марии
мариинскии
мария
марияга
марияныҥ
марк
марков
маркстыҥ
марс
март
марта
маршрут
маршруттар
масканов
мастер
мастера
мастерскои
масштаб
матвеев
матвеевичтиҥ
математик
математика
математических
матери
материал
материалам
материалдар
материалов
материалы
матч
мать
машина
машиностроение
машиностроениениҥ
машиностроения
машиностроительныи
маэ
мая
маяк
маяковскии
маҥыр
мвд
мвт
мге
мгу
мгц
мде
мдеечи
мдемел
мдемелдери
мдемелдерин
мдер
мдерге
мдердиҥ
мдери
мдериниҥ
мдерле
мдерлу
мди
мдик
мду
ме
мегаполис
медали
медалин
медаль
медальдар
медальдарла
медальла
медведев
медведь
медиа
медико
медицина
медицинскии
медицинских
медицины
меен
меес
меесте
меестерде
между
международная
международного
международнои
международном
международные
международныи
международных
межелик
межрегиональныи
меи
мели
мемориал
мемориалы
мен
мендур
мениҥ
менниҥ
менныи
мень
менялась
мер
мерген
мердиҥ
меридиан
меркит
меркурии
мероприятиелер
мест
места
месте
местного
местности
место
месяц
металлическии
металлообработка
металлургическии
металлургия
метеостанция
метр
метрге
метрдеҥ
метро
метрополитен
метрополитенле
метрополитенниҥ
механическии
меценат
мече
мечет
мечети
мечеть
мечин
мечиртке
мешке
мешкези
мешкелер
мзо
ми
миасс
миг
миграционныи
миграция
мид
микеланджело
микрораи
миле
миллер
миллиард
миллион
миллионго
миллионер
миллионноҥ
миллионынчы
мин
минде
мине
минерал
мини
минин
министерства
министерство
министерствозы
министерствозыныҥ
министр
министров
миниҥ
минприроды
минскии
минского
минут
минутка
минуттаҥ
минэкономразвития
мир
мира
мире
мировая
мировои
миссионер
миссионерлер
миссионерскии
миссия
миссияныҥ
мистраль
митрополит
митрополия
мифологияда
мифы
михаи
михаил
мкад
мл
младшии
млекопитающии
млекопитающих
млн
млрд
мм
мне
мнение
мниҥ
много
мныи
мо
мобилизация
могои
могут
модель
модерн
модоров
мое
может
можно
мозер
мозерле
мои
молекулярныи
молодая
молоде
молот
молотов
молотовскии
молчанова
моможокова
момон
мон
монастыр
монастырдыҥ
монастырь
монгол
монголдоп
монголдыҥ
монголии
монголия
монгольских
монета
мониторинг
мониторинга
монныҥ
монография
монтальчини
монументал
море
моррисон
морскои
моря
моск
москва
москвага
москвада
москвадаҥ
москвала
москванаҥ
москваны
москваныҥ
москвда
москве
москвы
москов
московская
московскии
московского
московское
московскои
мост
мотовилихинскии
мотор
моторостроительныи
моты
моя
мрамор
мс
мск
му
муз
музеи
музея
музыкальнои
музыкальныи
музыкант
музыки
мукаева
мукур
мундус
муниципал
муниципального
муниципальныи
муниципальным
муниципальных
мурад
мурзаев
мусульман
мусульмандардыҥ
мута
мухор
муҥ
муҥга
муҥдар
муҥнаҥ
муҥы
мы
мыгу
мыгуны
мыгуныҥ
мыи
мынаи
мынаҥ
мында
мындагы
мындыи
мыны
мыныҥ
мыс
мысль
мьянманыҥ
мэр
мэра
мэрии
мюллер
мюрдаль
мячту
н
на
наадаи
набережныи
награждении
над
нада
надежда
наделении
надия
назад
название
названии
названия
назначения
наи
наиболее
наименовании
наличного
наличное
нам
нан
направлении
например
наралканыҥ
народа
народная
народного
народное
народностеи
народности
народныи
народных
народов
народы
нарын
нарынгол
нас
наса
населе
население
населением
населения
населенных
наследие
наследия
настоящее
наталья
наук
наука
науке
науки
наурыз
науч
научная
научно
научное
научнои
научныи
научных
нах
находится
нац
нации
национал
национализм
национальная
национального
национальнои
национальныи
национальных
нацист
нацистскои
начала
начале
начало
началом
наш
наша
нашеи
наших
ная
најылыктыҥ
наҥ
нбадыш
нбадышта
нбадыштаи
нбадыштаҥ
нге
нген
нги
нгу
нде
ндер
ндерде
ндердеҥ
ндерди
ндердиҥ
ндери
ндеринде
ндерлу
нди
ндик
ндирет
ндирип
ндо
нду
не
неба
нева
неверныи
невскии
неген
недвижимых
неде
неделеде
недеҥ
недоступная
нее
неж
независимая
неи
некеген
некоторые
некоторых
нелегал
нелли
нем
неме
немелер
немец
немецкии
немецтеп
немецтер
немецтердиҥ
немцев
немцтер
ненападении
нениҥ
неоплеи
нер
нере
нерелу
нерени
несколько
нет
нефтебаза
нефтеперерабатывающии
нефтехимическии
нефтехимия
нефть
нефтьти
нефтянои
неҥ
ни
нивальныи
нидерл
ние
нижегородская
нижегородскии
нижегородского
нижегородскои
нижне
нижнего
нижнем
нижнии
нижняя
нии
ниияли
ник
никита
никитин
никитина
никола
николаевич
николаевна
николаевск
николаи
николая
никольскии
никольское
ниле
ним
ними
нин
нина
нинде
нине
нинеҥ
ниниҥ
нип
ниу
них
ниҥ
нка
нкаајы
нкајы
нле
нн
ннеҥ
нниҥ
нность
нные
нныи
нным
нных
нныҥ
но
нобелевскии
нобелевского
нобелевскои
нобельдиҥ
нов
новая
новгород
новгорода
новгороде
новгородскии
новгородто
новгородтыҥ
новеи
нович
ново
новоалтаи
нового
новое
новои
новомосковскии
новониколаевск
новороссии
новосибир
новосибирск
новосибирска
новосибирская
новосибирске
новосибирскии
новосибирскои
новосибирскте
новосибирсктиҥ
новостеи
новости
новые
новыи
ногаи
ногон
нои
ном
номерами
ноор
ноп
норвегия
норвегияда
норвеж
носителеи
ноткы
ночь
ношев
ношкон
ноября
ноҥ
нпо
нта
нтв
нтизу
ну
нулевои
нур
нургуны
нчи
нчилу
нчыгыш
нчыгышта
нчыгыштаи
нчыгыштаҥ
нчыгыштыҥ
нштеи
ны
ные
ныи
ныла
ных
ныҥ
нью
о
оао
об
обелиск
обзор
оби
обл
областеи
области
областная
областного
областнои
область
областька
областьла
областьта
областьтар
областьты
областьтыҥ
областям
облепиха
облисполкомныҥ
облнациздат
обозрение
оборона
оборонныи
обороны
оборудование
оборудованиениҥ
обоснованию
обрабатывающии
образование
образовании
образования
образованиям
образовательное
образовательнои
образовательныи
обращения
обручев
обряды
обскои
обучения
общ
общая
общего
общеобразовательная
общеобразовательныи
общероссии
общества
общественно
общественныи
общество
обществоныҥ
общие
общии
община
объе
объедине
объединение
объект
объекта
объектов
объекттер
объекттерди
объекттиҥ
объекты
обыкновенная
обыкновенныи
обь
обьект
обьектов
обьекттер
огарь
огиз
огне
огни
ого
огош
один
однако
одним
одного
однои
одор
одорлоорго
одорлор
одорлордо
одорлу
одуванчик
одын
озе
озек
озеленение
озера
озере
озерное
озеро
озером
озо
озогы
озодо
озодоҥ
озолоп
ои
ок
ока
оккупацияда
оккупированныи
окладников
окол
около
округ
округа
округка
округов
округта
округтар
округтарда
округтыҥ
округы
округына
округында
округыныҥ
окружающеи
окружнои
оксид
октябрь
октябрьдыҥ
октябрьская
октябрьскии
октября
окулич
окунь
окылу
ол
олег
оленджулар
олимпии
олма
олор
олорго
олордо
олордоҥ
олорды
олордыҥ
олорло
ольга
олјондо
ом
омск
омска
омская
омске
омскии
омскои
омскта
омсктыҥ
он
она
онам
онгудаи
ондо
ондор
ондыи
оне
онирование
онкологическии
онлаи
онноҥ
онным
онных
онов
онои
онок
онос
оностыҥ
оноҥ
онсш
ончо
ончозы
оны
онызы
оныла
оныҥ
оодо
оозы
оозына
оозынаҥ
оозында
оозыныҥ
оок
оокторы
оон
ооо
оопт
оору
оорудаҥ
оорыган
оос
оошкы
оп
опера
операныҥ
операции
операция
операциялар
операцияны
операцияныҥ
описание
опко
оползень
ополчение
определено
опт
оптоҥ
опты
оптыҥ
опубликован
опубликовано
опыт
опытныи
ор
орган
организации
организация
организациялар
органныи
органы
орда
орданыҥ
орден
ордена
ордендерле
ордени
ордениле
орденин
ордениниҥ
орденле
орденниҥ
орды
ордына
ордында
ордынчызы
оре
оренбург
оренбургскии
ористы
орк
оркестр
оркто
орляк
орныккан
орныктырар
орныктырган
орныктырылган
оро
орои
ороктои
ором
оромдо
оромдор
оромдордо
оромдордыҥ
оромдоры
оромдорыныҥ
оромду
оромныҥ
оромы
оромында
оромыныҥ
ороон
ороонго
ороондо
ороондор
ороондорго
ороондордо
ороондордоҥ
ороондордыҥ
ороондорло
ороондорын
ороондорыныҥ
ороонды
ороонноҥ
ороонныҥ
орто
ортоаи
ортодо
ортодогы
ортозы
ортозыла
ортозын
ортозына
ортозынаҥ
ортозында
ортоку
ортолои
ортолыгы
ортолык
ортолыкта
ортолыктар
ортолыктыҥ
ортојылдык
ору
орудие
оружие
орус
орустап
орустар
орустардыҥ
оры
орык
освоение
освящать
осе
осетровыи
осипов
оскар
основания
основе
основная
основные
основы
особенности
особо
останкино
остров
острова
островов
островскии
острог
от
отв
отвагу
ответственныи
отд
отдел
отделение
отделения
отель
отечественная
отечественнои
отечественныи
отечеством
открылась
открыли
открылся
открыт
открытие
открытия
открытое
отку
отличниги
отличник
отнесении
отношении
отношения
ото
отогол
отрасли
отрасльдар
отряд
отто
оттыҥ
отурган
отургызары
отургызып
отургыскан
отче
отчет
офицерлер
официально
официальном
официальныи
охране
охраняемые
оценка
очерк
очерки
очы
ошкош
оыҥ
оҥ
оҥдои
оҥјараттаи
п
павел
павлинов
павлов
павлович
павлодар
павлодарскии
пазырык
пазырыктыҥ
пакистан
палата
палеолит
палеолиту
палкин
памяти
памятная
памятниги
памятник
памятники
памятников
памятных
память
панорама
пао
папитов
папоротник
парад
парашютту
париж
парижскии
парижте
парижтиҥ
парк
парка
парковкалар
парковки
паркового
парковыи
паркта
парктар
паркы
паркында
паровои
паром
пароход
пароходство
партизан
партизандар
партизандардыҥ
партизанскии
партии
партия
партиязыныҥ
партияныҥ
паслеи
паспарты
паспауул
паспауулдыҥ
паспорт
пассажир
пассажиро
пассажирооборот
пассажирскии
пастердиҥ
патмос
патриархально
пацифист
паш
пе
педагог
педагогикалык
педагогическии
пединститутта
педучилищени
пеже
пекарня
пекпеев
пелядь
пер
первая
первого
первое
первои
первомаи
первоцвет
первые
первыи
первых
перевал
перевод
переводе
перед
пережитки
перепелка
переписи
перепись
переписям
перераб
перестрои
переулок
переход
перехода
перечень
перечня
период
периода
пермде
перми
пермская
пермскии
пермского
пермскои
пермь
пермьде
пермьниҥ
перспективы
песни
песо
петербург
петербурга
петербурге
петербургка
петербургскии
петербургта
петербургты
петербургтыҥ
петр
петра
петров
петрович
петровна
петровскии
петроглиф
петроглифтер
петроград
петропавловскии
печати
печерскии
пилорама
пионер
писатели
писатель
писателя
письма
письмо
питер
пищевои
план
плана
планды
планета
планетарии
планы
планын
плато
платонов
платформа
платформазы
плеи
пло
плоскогорье
площади
площадкалар
площадь
плюс
по
победа
победе
победу
победы
побратимских
побратимы
поверхностных
повести
повесть
повлиявшие
поволжскии
поволжье
поволжьеде
поволжьениҥ
погибших
погода
погранзона
пограничныи
под
подбассеи
подвиг
подгольцовыи
подпольныи
поезд
поездка
пожарскии
познер
пои
пока
показателеи
показатели
покровскии
поле
полези
ползуновтыҥ
полиграфическии
поликлиника
политехническии
политик
политика
политиказы
политикалык
политики
политическии
политических
политического
полк
полковник
полктыҥ
полныи
половине
положение
положении
положения
полонии
полоса
полу
полынь
поль
пользования
польскии
польского
польша
польшада
польшаныҥ
поляк
поляктап
поляктар
поляна
помощь
попов
пореи
породалар
порт
портал
портр
поручению
посад
посвяще
посе
поселение
поселении
поселения
поселениям
поселкам
поселков
поселок
после
последние
пособие
поспелов
посреди
пост
постановление
постановлении
постоянного
постсоветскии
потанин
потанина
потанинниҥ
потапов
потапова
потаповтыҥ
потенциал
потери
поход
почва
поче
почему
почета
почетного
почта
почтаныҥ
почти
почтовыи
поэзия
поэзиязы
поэзияныҥ
поэма
поэмы
поэт
поэтикалык
поэтическии
поэттер
поэттердиҥ
поэттиҥ
появился
пояс
пояста
поястыи
пперт
ппс
пр
права
правда
правительства
правительство
правовои
православие
православная
православныи
праздник
практическои
предисловие
предприятие
предприятиези
предприятиелер
предприятиелерди
предприятиелердиҥ
предприятиелери
предприятиениҥ
предприятии
председ
председатели
председателиниҥ
председатель
председателя
представительстволоры
представляет
преемственность
президент
президента
президенте
президенти
президентиниҥ
президентке
президенттиҥ
президиума
президиумыныҥ
премии
премия
премиязыныҥ
премияныҥ
премьер
премьера
преображенскии
пресвятои
пресс
преступлении
пржевальскии
при
прибалтии
приборлор
приволжскии
приволжского
приволжье
пригородныи
придача
призе
признании
призыв
приказ
прикамье
прикаспии
прикладнои
приложение
примере
примечания
приморскии
принт
природа
природные
природныи
природных
природы
прирост
присвоении
приток
приход
приходскои
про
проблем
проблема
проблеме
проблемы
пробоина
программа
программазы
программы
прогресс
продолжительность
продуктов
продукты
продукция
продукцияныҥ
проект
проекти
проектин
проектныи
проекттер
проживающих
проза
прозаик
прозаныҥ
прои
производитель
производства
производственныи
производство
производствозы
производстволор
производстволык
производствоныҥ
происхождение
происхождении
пролив
промартель
промышленная
промышленного
промышленности
промышленность
промышленностьто
промышленностьтыҥ
промышленныи
промышленных
пропаганда
прорыв
просветитель
просветительскии
просвещения
проспект
проспекти
проспектинде
проспектте
пространства
пространстве
пространственного
протестантизм
против
противотанковыи
протока
протокол
протоколы
протон
проточныи
протяже
проф
профессионал
профессионально
профессионального
профессор
профессоры
проходит
прохоров
процент
проценти
процессы
псевдоним
псинген
псков
пти
птица
птицы
птиҥ
пто
птолемеи
пту
публицист
публичныи
пугаче
пуд
пузанов
пункт
пунктам
пунктов
пустогачев
пустогачева
путеводитель
путеи
путешествие
путешествии
путешествия
пути
путин
путь
пушка
пушкин
пушкина
пушкинниҥ
пчеген
пчегенниҥ
пыжы
пыреи
пьер
пьердиҥ
пьеса
пьесалары
пьесы
пяти
пятидесятниктер
пятыи
пять
р
ра
работа
работе
работник
работников
работу
работы
рабочии
рабочих
равнина
равнинада
равнинаныҥ
рада
радиактивность
радиактивныи
радиационныи
радиация
радии
радио
радиоактивность
радиоактивныи
радиовещание
радиоэлектронныи
радиусы
радлов
раз
раза
развитие
развитии
развитию
развития
развлекательныи
раздел
различного
размещение
раи
рак
ракет
ракета
рал
ралдар
ралдарлу
ралдары
ралдаткан
рам
рамы
ран
распоряжение
рассказал
рассказы
расстоянии
растения
расче
рбеи
рбк
рбо
рге
рген
ргендер
ргени
ргениле
рго
ргу
рде
рдеҥ
рди
рдиҥ
рднердиҥ
рдо
ре
реальныи
революционныи
революция
революциядаҥ
революциязы
революцияныҥ
регион
региона
регионал
региональная
регионального
региональнои
региональныи
региондо
регионныҥ
регионов
регионы
регистрация
регистрациялу
регрессия
ред
редактор
редакторы
редакциеи
редакция
редакциязы
редер
редилер
редип
реду
рее
реезинде
реен
реестр
реестра
реестре
реестры
реечи
реж
режим
режиссе
режиссер
режиссеры
резерфорд
резиденциязы
результаты
реи
рек
река
реке
рекеи
реки
реконструкция
рекорд
рекреационное
рекреационныи
ректиҥ
ректоры
релген
реле
религии
религиозные
религиозныи
религия
рельеф
рельефтиҥ
рельефы
ремонт
рен
ренген
рендерин
ренер
ренерге
ренет
ренип
рентген
ренчи
ренчиги
ренчик
ренчиктери
репин
репрессии
рер
рерге
рери
рерихтиҥ
респ
респубдиканыҥ
республик
республика
республикада
республикала
республикам
республикан
республиканыҥ
республике
республики
ресурс
ресурсов
ресурсы
рет
ретен
реткен
реформа
реформазы
реформалар
реформанаҥ
рецензия
речное
речнои
решение
решения
решле
рештиҥ
реҥ
ржд
рз
рзе
рзин
рзо
ри
риа
рид
рик
риктиҥ
рилбеи
рилген
риле
рилет
рилип
рим
римскии
римско
рин
рина
ринде
рине
ринеҥ
риниҥ
рио
рип
рис
рита
риш
рк
ркеген
ркеи
ркелген
ркеле
ркелет
ркеткен
ркка
рко
рку
рле
рлер
рло
рлу
рме
рмеде
рмо
рмосјиилек
рная
рныи
ро
роберт
ров
родина
родиола
родиолы
рождаемость
рождения
рождества
рождественскии
розалин
розничныи
розовая
рок
роли
роль
роман
романныҥ
романович
романы
романында
росводресурсов
росия
россии
россию
россия
россияга
россияда
россиянаҥ
россияныҥ
росстат
росстаттыҥ
рост
роста
ростов
ростова
ростовко
ростовская
ростовскии
ростовскои
ростовто
ростовты
ростовтыҥ
ростсельмаш
рот
ротскии
роща
рск
рсфср
рт
ртинчи
рткен
рто
рттер
рттерлу
рттиҥ
ртто
рту
ртуть
ртјалбракту
ру
рублеи
рубцовскии
руда
рудалар
рудник
рудои
рук
руководство
рукту
рукун
румын
румыния
руникалык
руси
русская
русские
русскии
русских
русского
русское
русскои
русском
русь
русьтыҥ
ручеи
рф
рче
рчо
ры
рыба
рыбин
рызы
рылган
рылчык
рылып
рынка
рынке
рыногында
рынок
рып
рычков
рышев
рябина
рядовои
рядом
рядта
с
са
саал
саат
саба
сабада
сабазы
сад
садар
садтар
садту
садтыҥ
саду
садуга
садуныҥ
сады
садып
сазы
саи
саксабаи
салават
салазан
салазанныҥ
салар
саларга
салары
салган
салгандар
салганду
салгыш
салгыштар
салк
салковои
салкои
салкын
салкындак
салкындар
салкындарлу
салкынду
салкынныҥ
салтарын
салымы
салынган
салып
сама
самара
самарада
самараныҥ
самаре
самарскии
самарскои
самары
самая
самбист
самбо
самболо
самои
самоле
самоуправления
самые
самыи
самык
самыков
самыктыҥ
самых
сан
санаа
санаага
сананган
сананып
санат
санатории
санаторно
санина
санитарныи
санкт
сапожников
сапсан
сар
сарас
саратан
саратанныҥ
саратов
саратовскии
саргаи
сарепта
сарлык
сармат
сартакова
сартакпаи
саруева
саруеваныҥ
сары
сарју
сас
сасмен
саста
састалган
састар
састарлу
састу
састыган
саткан
сау
саха
саян
саянныҥ
саяно
саҥыскан
сб
сборник
св
сведения
свердловскии
свердловскои
света
свете
светлана
свинец
свиристель
свободу
свод
свое
своего
своеи
свои
свыше
связи
связь
святитель
свято
святого
святои
священная
священник
се
себе
себи
себиниҥ
себя
север
северная
севернои
северныи
северо
сегизинчи
сегис
сегодня
сезон
сеи
сек
секретари
секретарь
сектор
секундка
села
селам
селе
село
сельма
сельская
сельским
сельских
сельского
сельское
сельскохозяи
сельхозартель
сема
семе
семеи
семен
семинария
семьи
сен
сеннои
сент
сентябрь
сентября
сергеевич
сергеи
сердечно
сердца
сереброплавильныи
сержант
серикпе
серикпези
серикпелер
серикпениҥ
серия
серкпе
серкпези
серкпелер
серкпениҥ
серлиф
серу
серье
сессии
сети
сеть
си
сиб
сибади
сибир
сибирде
сибирди
сибирдиҥ
сибири
сибирская
сибирские
сибирскии
сибирского
сибирское
сибирскои
сибирь
сигрид
сил
силу
силы
символы
симпозиум
симфоническии
синагога
синема
синии
синусси
систем
система
системага
системада
системазы
системазына
системазында
системалар
системе
системно
системы
сити
ск
ска
сказание
сказка
скала
ская
сквер
скверде
скверлер
скверы
скворец
ске
скен
ски
скиде
ские
скии
ским
скиф
ских
складтар
складчатыи
склодовская
ско
скобканыҥ
ского
ское
скои
ском
скому
скта
сктагы
скте
сктыҥ
ску
скульптор
скульптура
славы
славян
славяндар
славянскии
следует
слива
слобода
слова
словакия
словари
словарь
слово
сложности
служба
службы
см
смерти
сми
смоленск
смоленскии
снг
снк
сносок
со
соавтор
соавторы
собанскии
собои
собор
собордыҥ
соборныи
соборы
собрание
собрания
событии
собянин
сов
сова
соведи
соведине
совединиҥ
совершенствование
совет
совета
советов
советская
советскии
советских
советско
советского
советскои
советтиҥ
современная
современник
современного
современное
современнои
современные
современныи
совхоз
совхозныи
совхозто
совхозтыҥ
совхозыныҥ
согласно
согор
согот
согулган
согуп
согуш
согушта
согуштар
согуштыҥ
содержимого
созвездиеде
созвездии
создание
созывыныҥ
сои
сок
соккон
сокконныҥ
соксо
соктырган
соктырылган
сол
солдат
солнца
солнце
соловье
солонешныи
солоҥы
солу
солун
солунат
солунган
солундары
солунталар
солунып
солыган
солынар
солынган
солынып
солып
солыыр
сообщения
сообщество
соогы
соои
соок
сооко
сооктор
соокторлу
сооктыҥ
соору
сооружение
сооружениелер
сооруныҥ
соответствующим
соојындар
сорбоннада
сороноков
сортогои
сост
состав
составе
составил
составляет
состояние
состоянии
состоянию
состояния
сосудистои
сосудистыи
сотрудничества
сотрудничестве
сотрудничество
софья
социал
социалистическая
социалистическии
социалистических
социалистического
социально
социальнои
социальныи
сочи
союз
союза
союзка
союзтыҥ
соҥында
спартак
спб
спектакль
спектакльдар
спец
специал
специализированныи
специалисттер
специальностьло
специальныи
список
спк
спо
спокои
спорт
спорта
спортзал
спортивныи
спорткомплекс
спортло
спорттыҥ
спортчы
спортчызы
спортчылар
спортчылары
спортшкол
спортыныҥ
справка
справочник
спутник
спырна
среда
среди
средневековых
среднего
среднее
среднеи
среднем
среднерусскии
среднии
средняя
средств
среды
сс
сскии
сср
ссср
ссылка
ст
ставка
стадион
стадиондор
стадионныҥ
стал
стала
стали
сталин
сталинград
сталинграда
сталинградскии
сталинградта
сталинниҥ
сталинскии
стало
стан
становление
становления
станции
станция
станцияда
станциязы
станциялар
старая
старообрядческая
старообрядческии
старообрядчество
старшии
старыи
статистика
статистике
статистики
статистическии
статистическое
статузы
статузын
статус
статусе
статусом
статусту
статусты
статусы
статусын
статьи
статья
статьялар
статьялары
стационар
ства
стве
ственныи
ствие
ствии
ствия
ство
ствующих
стела
степан
степанов
степанович
степени
степениле
степенин
степень
степеньду
степнои
степь
стер
стереотип
стефан
сти
стиль
стильле
стинде
стине
стинеҥ
стиниҥ
стипендиязы
стихи
стихов
стиҥ
сто
столица
столице
столицеи
столицы
стоцена
стоценниҥ
стоянка
стоянки
стр
стран
стране
страница
страницы
страны
стратегии
стратегическии
стратегического
стратегия
стратегиялык
стрелковыи
стрикленд
стрит
строи
строительныи
строительства
строительство
строительству
строя
структура
структуразы
структурныи
сту
студент
студенттер
студенттердиҥ
студенческии
студия
стыт
су
субак
субактар
субъект
субъектов
суверенитет
сугаш
сугаштыҥ
сугул
сугулдыҥ
судак
судостроительныи
судоходство
суздальскии
суи
сула
султан
сулу
сур
сураган
суразаков
суразакова
суразаковтыҥ
сурак
сурактар
сурактарды
сурактарын
суракты
суранаш
сурап
сурб
сургал
сургут
суриковтыҥ
суркашев
суску
сускуныҥ
суу
сууга
суугуш
суугуштар
сууда
суузар
суузы
суузыла
суузын
суузына
суузында
суузыныҥ
суукуштар
суула
суулар
сууларга
сууларда
суулардаҥ
сууларды
суулардыҥ
сууларла
сууларлу
суулары
сууларыла
сууларыныҥ
суулу
суунаҥ
сууны
сууныҥ
суучактар
сууээлем
суујакалаи
суујараттаи
суховтыҥ
сухои
сущности
сфера
сфере
схема
сценарии
сша
съе
съезд
съезда
съезди
съездинде
съездиниҥ
сыгын
сыгырган
сыи
сымда
сымылты
сымылтыныҥ
сын
сындар
сындарга
сындардыҥ
сындары
сындарына
сындарынаҥ
сындарында
сындарыныҥ
сынныҥ
сыны
сыныныҥ
сыр
сыраҥаи
сырга
сыҥыранчы
сэ
сюмер
ся
сјиилек
т
та
таадазы
таан
таап
табар
табарар
табарган
табардыҥ
табару
табарулар
табары
табарып
табл
таблица
таблицада
табличка
табылбаган
табылган
табылганы
табылгы
табылып
табынтылар
табынча
табыш
табыштырган
тагыл
тагылдар
таджиктер
тажы
тажында
тазыл
тазылдар
тазылы
таи
так
также
такои
такып
тал
тала
талаи
талаҥ
талда
талдаган
талдалган
талдама
талдап
талдаштар
талдаштарда
талдаштарында
талду
талдуныҥ
талдура
талдыҥ
талеҥко
талицкое
талтар
тальник
там
тамак
таман
таманныҥ
тамара
тамыр
тан
тана
танак
танк
танковыи
танктар
таныш
тап
тапкан
тара
тарал
таралјы
тарбаган
тарбалјы
таркаган
таркаи
таркаттар
таркаты
таркатыныҥ
тарскии
тартар
тартыжу
тартыковтыҥ
тартылган
тартылып
тартып
тартыш
тартышкан
тары
тарыи
тас
таскадаачы
таскылдар
тасс
татар
татарлап
татарлар
татарлардыҥ
татарскии
татарстан
татарстанныҥ
татьяна
таш
ташанта
ташкент
ташко
ташла
ташта
таштагол
таштар
таштардыҥ
таштаҥ
ташту
таштыҥ
таҥ
таҥдалаи
таҥкы
таҥынаҥ
тв
тверскои
творческии
творчества
творчество
тгу
те
театр
театра
театрал
театрального
театральныи
театрда
театрдыҥ
театрлар
театрлардыҥ
театры
театрыныҥ
тебу
тег
тегенек
тегенекту
тегерик
тегериктерде
тегин
теермен
тезисы
теи
теке
текези
текст
тектоникалык
текущего
текши
текшироссии
текшироссиялык
теле
телевидение
телевидения
телевизионныи
телеканал
телекеи
теленгит
телесов
телеут
телеутов
телеуттар
телефон
телефонныи
телецкии
телецкого
телецкое
телеҥит
телеҥиттер
телкем
тема
темдеги
темдек
темдектеген
темдектегениле
темдектезе
темдектеи
темдектелген
темдектелет
темдектеп
темдектери
темдекту
темир
темиреи
темирјол
темирјолдо
темирјолдор
темирјолдордыҥ
темирјолдыҥ
темирјолло
температура
температуразы
температуразыныҥ
температуралар
температураныҥ
тен
тенант
тенденции
теория
теориялар
теорияны
тепсеҥ
тепсеҥде
тепсеҥдер
тепсеҥдерлу
тепсеҥи
тепсеҥинде
тепуков
тергее
тергееде
тергеелер
тергеелердиҥ
тергеелик
тергеени
тергеениҥ
тере
терек
теректи
теректиниҥ
теректу
тереҥ
тереҥи
теркишев
теркишева
термин
терра
территориальное
территориальном
территориальныи
территориальных
территории
территорию
территория
террор
террора
техника
техникалык
техниканыҥ
технико
техникум
техникумы
техническии
технических
технологии
технологическии
технология
технологиялар
технологиялык
технопарк
течения
теҥ
теҥери
теҥериде
теҥис
теҥистиҥ
ти
тижи
тизим
тии
тил
тилаштар
тилге
тилде
тилдер
тилдерге
тилдерде
тилдердеҥ
тилдердиҥ
тилдеҥ
тилди
тилдиҥ
тилду
тили
тилиле
тилле
тимурович
тин
тинг
тинга
тинге
тинги
тингинде
тингте
тип
типа
типо
типография
тираж
тиргеш
тиру
тишкишев
тишков
тиҥ
тка
ткан
тканыла
ткен
ткенге
ткенди
ткендик
ткенниҥ
тко
тку
тного
тныи
то
тобольскии
тобр
тобрак
тобыр
товарищество
того
тогузынчы
тогус
тодош
тодоҥ
тожла
тожоҥты
тожоҥтыныҥ
тожы
тои
токарчук
токои
токтобои
токтогон
токтодор
токтодоры
токтоду
токтодып
токтои
токтонок
токтоп
токтоткон
токшын
токыналу
толгои
толгон
толку
толо
толон
толоно
толоон
толстои
толтыра
толтырат
толыи
только
том
томах
томныҥ
томск
томска
томская
томске
томскии
томского
томскои
томуртка
томыртка
томь
тон
тони
тонн
тонна
тоо
тооалыжы
тооалыжыла
тооалыш
тоого
тоодо
тоозы
тоозыла
тоозын
тоозына
тоозынаҥ
тоозында
тооло
тоолоорго
тоолор
тоолу
тоомјылу
тооргы
тооргыны
тооргыныҥ
тоорчык
тоотои
топ
топоним
топонимическии
топтонок
топучии
тор
торбок
торбоков
торбос
торговли
торгово
торговыи
торко
торлоо
торот
торт
точка
тош
тошло
тоштор
тоштордоҥ
тошторынаҥ
тоштоҥ
тошту
тоштыҥ
тоҥ
тоҥбои
тоҥбок
тоҥгоныныҥ
тоҥмок
тоҥмокту
тоҥот
тоҥып
тоҥырып
тпеген
тр
трагы
трагыла
трагын
трагына
трагынаҥ
трагында
трагыныҥ
традиции
трак
тракт
тракта
трактор
тракторлор
тракторныи
тракту
трактыҥ
трамваи
транзит
трансгрессия
транспорт
транспорта
транспортко
транспортная
транспортныи
транспортто
транспорттыҥ
транссибирскии
трансформации
трасса
трассаныҥ
тре
требуется
тренер
тренери
третии
третья
три
трк
трлн
трои
троицк
троицкии
троллеи
тростник
труд
труда
трудового
трудовои
труды
трц
трясогуска
тся
ттиҥ
тту
ту
туба
тубалар
тубалардыҥ
туберкуле
тува
тувинского
тувинскои
тувинцев
тувы
туганбаев
тудала
тудар
тударга
тудары
тудат
тудатан
тудулар
тудулат
тудулатан
тудулган
тудулып
тудум
тудумдар
тудунар
тудуп
тудуш
тужар
тужы
тужында
тузаланар
тузаланарга
тузаланары
тузаланат
тузаланган
тузаланып
тузалу
тузы
туи
тула
тулаан
тулои
тумчук
тумчукту
тундра
тундрада
тундраныҥ
тундровыи
туныҥ
тур
тура
турага
турада
туразы
туразын
туразында
туразыныҥ
туралар
тураларда
тураларды
туралардыҥ
туралары
туранаҥ
тураны
тураныҥ
турар
турарда
турат
туратан
тураты
турачак
турачакта
турачактыҥ
турбаза
турбазалар
турган
тургандардыҥ
турганы
турганын
турганынаҥ
тургенев
тургуза
тургузаачызы
тургузар
тургузары
тургузат
тургузылган
тургузып
тургун
тургускан
турецкии
турза
туризм
туризма
туризмниҥ
турист
туристическии
туристов
туристскии
туристтер
туристтерге
туристтердиҥ
туристтерле
туркмен
туркмения
туркунына
турна
турналар
турочак
турочакскии
турочакского
туру
туружаачызы
туружаачылары
туружаачыларына
туружарга
туружат
туружып
турултазы
турултазыла
турумкаи
туруныҥ
туруп
турушкан
турушкандарга
турция
турчы
турчызы
тус
тусту
туткан
тутсын
туу
туузы
туузын
туулар
туулардыҥ
туулары
туулу
тууныҥ
туура
тууразы
туујылар
тушта
туштаар
туштабаи
туштагы
туштаи
туштап
тчик
ты
тыбыкова
тыва
тыганыла
тыи
тын
тынар
тынду
тындулар
тындулардаҥ
тындуларды
тындулардыҥ
тыныҥ
тып
тырмак
тыс
тысяч
тысячи
тыт
тытла
тыттар
тытту
тыш
тышкары
тыҥ
тыҥы
тыҥыган
тыҥыда
тыҥыи
тыҥып
тэц
тюрк
тюркологическии
тюркология
тюркских
у
уга
уголовныи
угы
угын
уда
удабаи
удаловка
удура
удурлажар
удурум
удурумга
уезд
уезда
уездныи
уездтиҥ
уефа
уже
узак
узел
узун
узунныҥ
узуны
узуныла
узы
узына
узында
уи
уильям
уильямс
ук
указ
указан
указать
указыла
укачин
укачина
укачинович
укок
укр
украин
украина
украинаны
украинаныҥ
украиндер
украинскии
украины
укталат
уктап
уктаткан
укту
ул
улав
улаган
улаганда
улаганныҥ
улаганскии
улаганского
улагашев
улагашевтиҥ
улажат
улаи
улалу
улалуга
улалуда
улалунаҥ
улалуныҥ
улам
уландрык
улар
улары
уларын
уларына
уларыныҥ
улгерлер
улицами
улицы
улу
улужаи
улузы
улузын
улузыныҥ
улус
улуска
улусла
улустар
улустары
улустаҥ
улусты
улустыҥ
ум
ун
ундылбаган
универсал
универсальныи
универсиада
университеди
университединде
университединиҥ
университет
университета
университетке
университетте
университеттер
университеттердиҥ
университетти
университеттиҥ
уникал
уникальныи
унсет
унц
управаныҥ
управление
управлениези
управления
ур
урал
урала
уралда
уралдаҥ
уралдыҥ
уральскии
уральского
уранныҥ
урбанова
урлу
урматов
уровень
уровне
уровнем
уровню
уровня
уроки
урочище
урсул
урсулга
урсулдыҥ
урчин
урчын
ус
ускуч
услуг
успенскии
устав
установлении
устардыҥ
устрои
устыҥ
усть
устье
утверждении
уте
утратившими
уул
уулалган
уулалткан
ууламјы
ууламјызы
ууламјылар
ууламјылу
ууланат
ууланган
уулдары
уулду
уулу
уулчак
уулы
уунда
уур
уфа
уфада
уфаныҥ
уфимскии
уфы
уч
учак
учар
участогы
участок
уче
учеб
учебно
учебныи
ученые
училище
училищеде
училищезин
училищелер
училищениҥ
учкан
учкур
учреждение
учреждениелер
учреждениелердиҥ
учреждениелери
учреждениелериниҥ
учреждении
учреждения
учун
учуп
учур
учура
учурлаган
учурлаи
учурлалган
учурлу
учуры
учурын
учы
учына
учынаҥ
учында
ушаи
ушкуш
ф
фабрика
фаи
факторы
факты
факультедин
факультедине
факультединиҥ
факультет
фап
фасмер
фауна
фашист
фгбу
фгоу
фгуп
фе
февраль
февральскии
февраля
федерал
федеральная
федерального
федеральное
федеральнои
федеральном
федеральныи
федеральных
федеративная
федерации
федерация
федерацияга
федерацияда
федерацияныҥ
федор
федорович
федоровна
фельдмаршал
феодальных
фермазы
фермер
фестивали
фестивалиниҥ
фестиваль
фестивальда
фестивальдар
фз
физик
физика
физикада
физикала
физики
физико
физиология
физическои
филармония
филармонияныҥ
филатов
филиал
филиалдары
филиалы
филин
филология
филологиялык
философиялык
философияныҥ
фильм
фин
финал
финансов
финансовыи
финансы
финляндия
финно
финскии
флаг
флаге
флагификация
флора
флот
флотилии
фольклор
фольклорист
фоменко
фон
фонд
фонда
фондтыҥ
фондыныҥ
фоняков
форель
форм
формирования
формы
форум
фото
фр
франк
франкфурт
франсуаза
франц
франции
франция
францияда
францияныҥ
француз
французтап
фрг
фредерик
фридрих
фронт
фронтко
фронтто
фронттыҥ
фронты
фрунзениҥ
фсб
фундаментал
функ
футбол
футболло
футболу
футбольныи
х
хазар
хакас
хакасского
хан
ханс
ханство
ханты
характер
характеристика
харьков
хвои
хворостовскии
хеи
химии
химик
химическии
химия
химияла
химияныҥ
хирург
хирургии
ходатаи
хозяи
хоккеи
холл
холодная
хорвицтиҥ
храм
храмдар
храмов
храмы
хребет
хрестоматиязы
христа
христиан
хроника
хронограф
хронология
хруще
худож
художеств
художественная
художественнои
художественныи
хх
ц
царица
царицын
царицына
царицында
царицынды
царицынскии
цария
царское
цвет
цев
цезарь
цен
центр
центра
центральная
центрально
центрального
центральнои
центральныи
центрам
центре
центров
церкви
церковно
церковь
циолковскии
цирк
цирковои
цитаты
цитированиениҥ
цифрах
цк
цска
цсу
цы
ч
чаар
чабак
чаган
чаганузун
чагат
чад
чаи
чак
чакка
чакта
чактарда
чактардыҥ
чактаҥ
чакту
чактыҥ
чакырдыҥ
чала
чалкан
чалканду
чалкандулар
чалык
чамал
чамалда
чамалдыҥ
чанаа
чапаевтиҥ
чаптыган
чаптынов
чаптыновтыҥ
чараган
чарас
чаргы
чаргыда
чаргыныҥ
чарльз
чарыш
чарышка
чарыштыҥ
час
часовня
часовнязы
часовои
части
частично
частныи
часть
частьтар
чачат
чачияков
чачкан
чачылган
чачыҥы
чаҥкыр
че
чеберлеп
чевалков
чевалкова
чевалковтыҥ
чеден
чедендер
чеи
чек
чел
челеби
челканцы
человек
человека
челябинск
челябинска
челябинская
челябинске
челябинскии
челябинскои
челябинскта
челябинскте
чем
чемал
чемала
чемальскии
чемальского
чемпион
чемпионады
чемпионат
чемпионатта
чемпионаттыҥ
чемпионы
чендек
чендектиҥ
ченешкен
черга
через
черет
черетту
черная
черневая
черника
черниковка
чернозе
черноморскии
черныи
черу
чет
четыре
чех
чехов
чеховтыҥ
чехословакияныҥ
чечек
чечектеи
чечектеп
чечектер
чечекту
чечен
чжи
чжиге
чжини
чи
чиби
чибилу
чибис
чибит
чибиттиҥ
чиж
чизи
чии
чик
чике
чил
чилдердиҥ
чиле
чилеп
чилер
чилердиҥ
чилери
чилериниҥ
чили
чимер
чин
чинина
чиниҥ
чиновников
чинчи
чип
числе
численности
численность
численностью
число
чистыи
чихачевтыҥ
чичаков
чичинов
чичке
чкаловтыҥ
чкин
чкиндер
чко
чку
член
чо
чодыла
чои
чоккон
чолмон
чолмоны
чолушман
чолушманныҥ
чолушпа
чолушпаныҥ
чолышман
чолышманныҥ
чон
чоо
чоокыр
чооныҥ
чопош
чопоштыҥ
чорос
чортон
чотогон
чотогоныла
чотои
чотолгон
чотолот
чочкина
чоҥмо
чтения
что
чтобы
чту
чу
чуваш
чуваштар
чудотворецтиҥ
чуи
чумышскии
чуя
чы
чыгала
чыгар
чыгара
чыгарар
чыгарары
чыгарат
чыгарган
чыгарда
чыгары
чыгарылган
чыгарып
чыгат
чыгатан
чыгы
чыгым
чыгымдаган
чыгымы
чыгыныҥ
чыгып
чыдаган
чыдажар
чыдаткан
чызы
чык
чыккан
чыкканча
чыкканы
чыкту
чыктыҥ
чылап
чымдык
чымыл
чын
чынга
чындык
чыныҥ
чырбыкчинович
чычкан
чычкандап
чычкандар
чычкандары
чычканы
чычрана
чычырана
чычыргана
чычырганазы
чыҥдыи
ш
шабалин
шабалинниҥ
шабла
шабланыҥ
шабуракова
шаи
шак
шалба
шаманизм
шаманству
шапшалдыҥ
шарапшын
шарпантье
шатинов
шатиновтыҥ
шатра
шахматла
шашыкман
шашыкманныҥ
шая
швед
шведскии
швеи
швеция
швецияныҥ
швецов
шебалино
шебалинскии
шебалинского
шевченко
шеи
шибее
шибееге
шибееде
шибеени
шибеениҥ
шиберти
шибертиниҥ
шибеты
шибилик
шие
шии
шиповник
широколиственныи
широта
широтныи
ших
шишковтыҥ
шиҥдеген
шиҥдегениле
шиҥдеер
шиҥдеерге
шиҥдеери
шиҥдеп
шиҥжу
шкалазы
шкен
шко
школ
школа
школго
школдо
школдор
школдорыныҥ
школды
школдыҥ
школы
школын
школына
школында
школыныҥ
шодоев
шоор
шоорноныҥ
шорлор
шоссе
шоҥкор
шпеи
шсе
штаб
штабы
штат
ште
штиҥ
што
шту
штук
штутгарт
шу
шуи
шукшинниҥ
шумаров
шунарак
шуурган
шуургандар
шуурганла
шуурып
шуҥмары
шыдар
шыку
шылтагы
шылтаи
шылтузында
шыргаи
шыркалу
шыҥ
щеглов
щегловск
щербакова
ъ
ы
ыжы
ыжык
ызаган
ыи
ык
ыкту
ыктуныҥ
ыл
ыла
ылаачын
ылар
ылат
ылбас
ылган
ылда
ылдар
ылдыҥ
ылтар
ылып
ым
ымдаар
ымдаган
ымдалган
ымдап
ымдар
ымдардыҥ
ымныҥ
ымы
ын
ына
ынаҥ
ынгы
ында
ындар
ынду
ынча
ыны
ыныныҥ
ыныргы
ыныргыда
ыныргыныҥ
ыныҥ
ып
ыр
ыраагында
ыраада
ыраак
ыраакта
ырада
ырак
ыракта
ыргаи
ырлык
ырлыктыҥ
ырысту
ыс
ыҥ
ыҥат
ыҥду
ыҥкат
ыҥчы
ь
э
эбире
эбиреде
эбирер
эбирет
эбирип
эвакуацияга
эволюция
эдвард
эдегинде
эдегинеҥ
эдер
эдерге
эдерде
эдери
эдет
эдетен
эди
эдил
эдилге
эдилген
эдилде
эдилди
эдилдиҥ
эдилет
эдилип
эдим
эдимдер
эдимдердиҥ
эдимдери
эдип
эдоков
эже
эжи
эземине
эзимниҥ
эи
экелген
экелгендер
экелет
экелетен
экелип
экз
эки
экилези
экинур
экинурдыҥ
экинчи
экинчизи
экијандаи
экологии
экологическая
экологические
экологическии
экологических
экологического
экологическои
экология
экологиялык
экологияныҥ
экономика
экономикада
экономиказы
экономиказын
экономиказына
экономиказында
экономиказыныҥ
экономикалык
экономиканыҥ
экономики
экономико
экономист
экономическая
экономические
экономическии
экономических
экономического
экономическое
экономо
экпинду
экспедиции
экспедиция
экспедицияга
экспедицияда
экспедициялар
экспедицияныҥ
экспериментал
эксперт
экспонаттар
экспорт
экспортко
экспресс
эку
эл
элбеде
элбек
элдер
электрическии
электрического
электронная
электронныи
электростанция
электротехническии
электроэнергия
элемент
элементтер
элементти
элементы
элен
элизабет
элик
эликманар
эликманардыҥ
эликтер
элчизи
эльфрида
эм
эмдеер
эмди
эмдиге
эмдиги
эмеген
эмезе
эмеи
эмери
эмериниҥ
эмес
эмеш
эмигрант
эмили
эмиль
эмтир
эмчи
эмчизи
эмчилер
эмчилиги
эмчилигиниҥ
эмчилик
эмчиликке
эмчиликте
эмчиликтиҥ
эндемик
эндемиктери
эне
энези
энезине
энезиниҥ
энергетика
энергетиктердиҥ
энергетическии
энергия
энесаи
энциклопедии
энциклопедическии
энциклопедия
энчи
энчизи
энчу
эп
эпос
эпоха
эпту
эр
эргиш
эре
эриктери
эриктерин
эркемен
эрлен
эрлик
эрмен
эрменду
эрмитаж
эрнест
эрте
эртен
эрчимду
эрчиш
эрчишке
эрчиштиҥ
эсерлер
эске
эски
эскиде
эссе
эстер
эстония
эт
эта
эткен
эткомбинат
этническии
этно
этнограф
этнографии
этнографическии
этнографических
этнографического
этнографическои
этнография
этнографиялык
это
этого
этот
эффективности
эхо
эчки
эчкилер
эчкиниҥ
эш
эштек
эштектер
эшту
ээлем
ээлемде
ээлемдер
ээлемдерге
ээлемдерде
ээлемдик
ээлемду
ээлемниҥ
ээлу
ээчии
эјеган
эјези
эҥ
эҥир
эҥирги
эҥирде
эҥмек
эҥмектиҥ
ю
юбилеи
юг
юго
юданов
южная
южно
южнои
южном
южныи
южскии
юлиан
юлии
юнеско
юного
юность
юношескии
юридическии
юрии
юрточныи
юрьевич
юстыд
юч
юю
я
явление
является
являются
ядерныи
ядро
ядрозы
яз
язык
языка
языками
языках
языке
языков
языковои
языкознание
яи
яков
якутии
ялатов
ялбаков
ялбакова
яломан
ялоу
январь
январьда
января
янганович
яндекс
япониеи
япония
яр
ярмарка
ярославскии
яшьләре
інформаціі
ј
ја
јаа
јааган
јаада
јааи
јаан
јаанаган
јаанадылган
јаанаи
јаанап
јаандары
јаантаи
јааны
јаап
јаар
јаба
јабаган
јабаганда
јабаганныҥ
јабызаган
јабызак
јабызап
јабык
јабылган
јабыс
јабыстаи
јада
јадар
јадарга
јадат
јадаҥдар
јадым
јадын
јадып
јажы
јажыл
јажына
јажытту
јазаар
јазаары
јазаган
јазаи
јазалган
јазалып
јазап
јазатыр
јазында
јаи
јака
јакааны
јаказы
јаказында
јакалаи
јакару
јакарузыла
јакшы
јакылта
јакылтазыла
јал
јаламан
јаламанныҥ
јалаҥ
јалаҥаи
јалаҥда
јалаҥдар
јалаҥдарда
јалаҥдардыҥ
јалаҥдарлу
јалаҥдары
јалаҥдарында
јалаҥду
јалаҥныҥ
јалаҥы
јалаҥыи
јалаҥында
јалбагаи
јалбагы
јалбак
јалбракту
јалтанбас
јалы
јаман
јанбаган
јанган
јандаи
јаны
јаныла
јанын
јанына
јанынаҥ
јанында
јанындо
јаныныҥ
јанып
јар
јара
јараа
јараар
јарабас
јарады
јарадыла
јарадына
јарадынаҥ
јарадында
јарамык
јарамыкту
јарандырар
јарар
јарат
јаратка
јараткан
јаратпаган
јаратпаи
јаратта
јараттаи
јараттары
јараттарында
јараттыҥ
јараш
јаргак
јаржактар
јаржактардыҥ
јаркынду
јарлаган
јарлалган
јарлар
јарлу
јарлузы
јарлык
јарман
јарт
јартаган
јартаи
јарталган
јартап
јарык
јарыктыҥ
јарым
јарымка
јарымортолык
јарымортолыкта
јарымортолыктыҥ
јарымы
јарымында
јас
јасагы
јасак
јаскы
јаскыда
јаста
јастыра
јастыразы
јастыҥ
јат
јаткан
јатканы
јатпаи
јаш
јашка
јаштаҥ
јашту
јаштуда
јаҥ
јаҥалбаи
јаҥар
јаҥга
јаҥда
јаҥду
јаҥды
јаҥжыгол
јаҥжыккан
јаҥмыр
јаҥмырдыҥ
јаҥнаҥ
јаҥныҥ
јаҥы
јаҥыла
јаҥын
јаҥына
јаҥынаҥ
јаҥыныҥ
јаҥырта
јаҥыртылган
јаҥыс
јаҥыскан
је
јебрен
јебренде
јебреннеҥ
јебренорус
једе
једеле
једер
једерге
једет
једетен
једим
једимдер
једимдери
једимду
једип
једишпеи
јеезе
јеезеге
јеезеде
јеезези
јеезезиле
јеезезинде
јеезезине
јеезезиниҥ
јеезениҥ
јеекен
јеерен
јекен
јекјии
јелбеген
јелечи
јепсеер
јепсел
јепселди
јепселду
јер
јербои
јерге
јерде
јердеҥ
јерди
јердиҥ
јери
јериле
јерим
јерин
јеринде
јерине
јеринеҥ
јериниҥ
јерле
јерлер
јерлерге
јерлерде
јерлердеҥ
јерлерди
јерлердиҥ
јерлери
јерлерин
јерлеринде
јерлерине
јерлеринеҥ
јерлериниҥ
јерлерле
јерлештерге
јерлик
јерликтер
јерлу
јерсилкиниш
јерсилкиништиҥ
јерјиилек
јес
јети
јетинчи
јетирген
јетиргениле
јетире
јетирер
јетирет
јетирип
јетиру
јетијылдык
јеткелек
јеткен
јеткер
јеткерлу
јеткил
јеткилдеген
јеткилдеери
јеткилдеи
јеткилделген
јеткилдеш
јеткилинче
јетпеи
јетре
јеҥ
јеҥген
јеҥес
јеҥестер
јеҥил
јеҥип
јеҥу
јии
јиилеги
јиилек
јиилектер
јиилектердеҥ
јиилектердиҥ
јиилекту
јиит
јииттер
јииттердиҥ
јик
јиктерде
јилбилу
јилбиркеп
јирме
јијигеи
јо
јоголгон
јоголорго
јоголордо
јоголткон
јоголтоло
јоголтор
јоголторго
јоголторы
јоголтып
јоголып
јогынаҥ
јодралу
јодро
јои
јок
јокко
јокто
јоктоҥ
јокту
јол
јолго
јолдо
јолдор
јолдордо
јолдорды
јолдордыҥ
јолдорло
јолдоры
јолдорыныҥ
јолдоҥ
јолдуаи
јолды
јолдыҥ
јолло
јоло
јолои
јолоныҥ
јолы
јолыла
јолын
јолыныҥ
јон
јонго
јондор
јонды
јондык
јонныҥ
јоны
јоныныҥ
јонјолои
јоон
јоонмои
јопон
јорокон
јоруктап
јорык
јорыкка
јорыктап
јорыкчы
јоҥјолои
ју
јуды
јул
јулдыҥ
јулукту
јураган
јуралган
јурамал
јурамалдар
јуранар
јурген
јурт
јуртаган
јуртаи
јуртап
јуртка
јуртла
јуртсоведи
јуртсоведине
јуртсовет
јуртта
јурттагы
јурттар
јурттарга
јурттарда
јурттарды
јурттардыҥ
јурттарла
јурттары
јурттаҥ
јуртты
јурттыҥ
јуртхоз
јурты
јуртына
јуртында
јуртээлем
јуртээлемде
јуругы
јурук
јуруктар
јуруктары
јурукчы
јурукчызы
јурукчылар
јурукчыларыныҥ
јут
јутту
јуттыҥ
јуу
јууга
јууган
јуугынаҥ
јуугында
јууда
јууи
јуук
јуукалар
јуукаларла
јуукаларлу
јууктаи
јуукташ
јуулажарга
јуулажып
јуулар
јуулашкан
јуулган
јуулыжып
јуунаҥ
јуунты
јуунтыда
јуунтызы
јуунтылардыҥ
јуунтылары
јууны
јуунында
јууныҥ
јууп
јуур
јууры
јуучыл
јуучылдарга
јуучылдардыҥ
јуучылдарыныҥ
јуҥма
јуҥмалу
јуҥмалуныҥ
јыбаш
јыдантык
јыду
јыдугем
јыдукара
јыдуларда
јыдунак
јыл
јылан
јыланду
јыланко
јылантык
јыланјастык
јылаҥаш
јылга
јылда
јылдар
јылдарга
јылдарда
јылдардаҥ
јылдардыҥ
јылдарында
јылдаҥ
јылды
јылдыгы
јылдыгына
јылдыгыныҥ
јылдык
јылдын
јылдыс
јылдыстар
јылдыҥ
јылкы
јылмаи
јылу
јылузы
јылуныҥ
јылы
јылыи
јымжак
јыоан
јыра
јыраа
јыраалар
јыракы
јыралар
јыргал
јыш
јыштыҥ
јј
ҥ
ҥдо
ҥду
ҥеи
ҥжик
ҥи
ҥкии
ҥку
ҥниҥ
ҥо
ҥу
ү
်
​
‎
‑
–
—
―
‘
’
“
”
„
†
•
…
‰
′
″
⁡
№
←
→
↔
↷
∑
−
∙
√
∞
≈
③
④
⑦
●
⺀
⺄
⺆
⺈
⺊
⺌
⺕
⺝
⺸
⺼
⿰
⿱
⿲
⿳
⿴
⿵
⿶
⿷
⿸
⿹
⿺
⿻
〈
〉
〢
コ
ユ
㇁
㇂
㇄
㇇
㇈
㇉
㇓
㐁
㐄
㐅
㐌
㐫
㐬
㐭
㐮
㐱
㑒
㒵
㒸
㒼
㓁
㓞
㔾
㕛
㕣
㖾
㘝
㚅
㚇
㚔
㚘
㝉
㝡
㝴
㝵
㞋
㞢
㞷
㠩
㠭
㠯
㡀
㡭
㡿
㢲
㢴
㣇
㣺
㥯
㪅
㫄
㫐
㫒
㫺
㬅
㬎
㬥
㬰
㲋
㳄
㷠
㸒
㸚
㸦
㼌
㼲
㽞
㿟
䀠
䂞
䍃
䏍
䒑
䖍
䖒
䖝
䖵
䙴
䚻
䜌
䝿
䡛
䧹
䪞
一
丁
丂
七
丄
丅
丆
万
丈
三
上
下
丌
不
与
丏
丐
丑
专
且
丕
世
丘
丙
业
东
丞
丢
丣
两
严
並
丨
丩
个
丫
丬
中
丮
丰
丱
串
丵
丶
丷
丸
丹
为
主
丽
丿
乀
乂
乃
久
乆
乇
么
义
之
乌
乍
乎
乏
乐
乑
乔
乖
乗
乘
乙
乚
乛
乜
九
乞
也
习
乡
乳
乾
亀
亅
了
亇
予
争
事
二
亍
于
亏
亐
云
互
亓
五
井
亘
亚
亜
亞
亟
亠
亡
亢
交
亥
亦
产
亨
亩
享
京
亭
亮
亯
亰
亲
亳
亶
亷
人
亻
亼
亾
仁
今
介
仌
从
仐
仑
仒
仓
仕
他
付
仝
代
令
以
任
企
伊
伏
伐
休
会
伯
但
位
何
佘
余
作
佥
使
來
侈
侌
侖
侯
侵
便
保
俞
信
修
倉
倍
候
倠
備
僉
僕
儿
兀
允
兂
元
兄
充
兆
兇
先
光
兊
克
兌
免
兑
兒
兓
兔
党
兜
兟
入
全
兩
兪
八
公
六
兮
兰
共
关
兵
其
具
典
兹
兼
冀
冂
冃
冄
内
冈
冉
冊
冋
册
再
冎
冏
冐
冒
冓
冖
冗
冘
军
农
冝
冡
冥
冫
冬
冷
几
凡
凢
凵
凶
凷
凸
凹
出
函
凾
刀
刁
刂
刃
刄
刅
分
切
刍
刑
刕
刖
列
刘
则
初
別
利
别
到
制
刺
則
削
剌
前
剡
剽
劉
力
功
加
劦
助
劫
劳
劵
勃
勇
勉
勒
動
務
勞
勤
勹
勺
勻
勾
勿
匀
匂
包
匆
匈
匊
匋
匍
匕
化
北
匚
匝
匡
匪
匱
匸
匹
区
医
匽
匿
區
十
卂
千
卄
卅
卆
升
午
卉
半
卌
华
卑
卒
卓
单
卖
南
卜
卝
卞
占
卡
卢
卣
卤
卦
卩
卪
卬
卯
印
危
即
却
卵
卷
卸
卻
厂
厃
厄
历
厈
厉
厌
厓
厘
厚
原
厤
厥
厨
厭
厲
厶
厷
厸
去
厼
厽
叀
参
參
叅
又
叉
及
友
双
反
叐
发
叒
叔
叕
取
受
叚
叜
叟
口
古
句
另
叩
只
召
可
台
叱
史
右
叵
号
司
叹
吂
各
吅
合
吉
吊
吋
同
名
后
吏
向
吕
君
吝
吞
否
含
启
吳
吴
吹
吾
呂
呆
呈
告
员
呙
呦
周
命
咅
和
咎
咠
咢
咨
咸
咼
哀
品
哉
員
哥
哲
唐
商
啇
問
啚
啬
啻
善
喜
喬
單
喿
嗇
噩
嚴
囊
囗
囘
囙
囚
四
回
囟
因
囧
囬
困
囱
囷
固
国
圂
圅
國
圍
圓
土
圡
圣
圥
在
圭
地
圶
圼
坐
坒
坚
坴
垂
垔
垚
埀
埋
埶
執
基
堂
堅
堆
堇
堯
塞
墨
壘
士
壬
壯
声
壳
壴
壹
壺
壽
夂
处
夅
夆
备
夊
夋
夌
复
夏
夒
夕
外
夗
夘
多
夜
夢
大
夨
天
太
夫
夬
夭
央
失
夲
头
夷
夸
夹
夻
夾
奂
奄
奇
奈
奉
奎
奏
奐
契
奓
奔
奚
奞
奠
奢
奥
奭
女
奴
奻
好
如
妄
妙
妟
妥
妻
妾
姑
委
姜
威
娄
婁
婴
嬰
嬴
子
孑
孔
孕
孖
字
存
孚
孛
孝
孟
季
孤
学
孫
孱
學
宀
宁
宂
它
宅
宇
守
安
宋
完
宏
宓
宗
官
定
宛
宜
宝
客
宣
室
宮
宰
害
家
容
宾
宿
寄
寅
密
富
寒
察
寧
審
寫
寬
寮
寸
对
寺
寻
寽
対
寿
封
尃
射
将
將
專
尉
尊
尋
尌
對
小
少
尒
尓
尔
尖
尗
尚
尞
尢
尣
尤
尧
尨
尭
就
尸
尹
尺
尻
尼
尽
尾
尿
局
居
屈
屋
屎
屏
屑
展
屖
屚
属
屠
屡
屬
屮
屯
屰
山
屵
屾
岁
岂
岑
岡
岩
岳
岸
峯
島
崇
崑
崔
崖
崙
崩
嵬
嶲
巂
巛
川
州
巟
巠
巢
巤
工
左
巧
巨
巩
巫
差
己
已
巳
巴
巷
巸
巽
巾
巿
帀
市
布
希
帚
帛
帝
带
師
席
帶
常
干
平
年
幵
并
幷
幸
幺
幻
幼
幽
幾
广
広
庄
床
底
店
庚
府
度
庫
庭
庶
康
庸
廉
廌
廛
廣
廩
廴
延
廷
建
廾
廿
开
弁
弃
弄
弇
弋
式
弓
弔
引
弗
弘
弜
弟
弥
弦
弱
張
強
强
彊
彌
彎
彐
彑
当
彔
录
彖
彗
彡
形
彥
彦
彧
彭
彳
役
彼
往
待
律
徒
得
徙
從
復
微
徵
心
忄
必
忌
忍
志
忝
忠
忩
快
念
忽
忿
思
怠
急
怱
恆
恒
恩
恭
息
悉
患
悤
悲
悶
惠
惡
惢
愁
愈
意
愛
感
慈
慧
慮
憂
憲
應
戀
戈
戉
戊
戋
戌
戍
戎
成
我
戒
戔
或
戚
戠
戢
截
戲
戶
户
戹
戼
戾
房
所
扁
扇
手
扌
才
打
托
执
承
折
拉
拜
拿
掌
推
提
摩
支
攴
攵
收
攸
改
放
政
敄
敏
敕
敖
敗
敝
敞
敢
散
敦
敫
敬
数
敷
數
斂
文
斉
斊
斗
斤
斥
斩
斬
斯
新
方
於
施
斿
旁
旋
族
无
旡
既
旣
日
旦
旧
旨
早
旬
旱
旲
时
旾
昆
昇
昌
昍
明
昏
易
昔
昗
昜
星
春
昬
是
昱
昴
昷
時
晃
晋
晏
普
景
晶
智
暑
暴
曇
曩
曰
曲
曳
更
曷
書
曹
曼
曾
替
最
朁
會
月
有
朋
服
朔
朕
朗
望
朝
木
朩
未
末
本
札
朮
术
朱
朵
朶
朿
杀
杏
杜
束
条
来
東
杲
杳
松
析
林
枚
果
枝
枲
枼
某
柔
查
柬
柰
柴
栗
桀
桑
桼
梁
條
梟
梨
棘
棠
棥
森
楚
業
楽
榮
樂
樊
欠
次
欣
欮
欲
欶
欽
款
歆
歇
歛
止
正
此
步
武
歨
歪
歮
歯
歰
歲
歴
歷
歸
歹
歺
死
殳
段
殷
殸
殹
殺
殻
殿
毋
毌
母
每
毒
比
毕
毚
毛
毳
氏
氐
民
气
氣
水
氵
氶
氷
永
氺
氾
求
汝
汞
江
沃
沓
沙
沝
河
泉
法
波
泣
泥
泰
洛
洪
活
派
流
浦
浪
浮
淡
淮
清
渚
渠
港
湯
滿
漸
火
灬
灭
灰
灵
灷
炅
炎
炏
炗
炙
炭
為
烈
烏
烝
焉
無
焦
焱
然
煞
熊
熏
燕
營
燮
爪
爫
爭
爯
爰
爱
爲
爵
父
爻
爽
爾
爿
片
牙
牚
牛
牜
牟
牢
牧
牪
特
牽
犀
犬
犭
犮
狂
狄
狊
独
狺
猋
猒
猪
献
獻
玄
率
玉
王
玟
玨
珎
班
琴
瑟
瑩
瓜
瓦
甘
甚
生
産
用
甫
甬
田
由
甲
申
电
甶
男
甸
甹
画
甾
畀
界
畏
畐
留
畜
畟
畢
畧
畨
番
畫
異
畱
當
畺
畾
疊
疋
疌
疑
疒
疾
癶
癸
癹
登
發
白
百
皀
皃
的
皆
皇
皋
皐
皕
皮
皷
皿
盃
盆
盇
盈
益
盍
盎
监
盒
盖
盛
盡
監
盤
盧
目
直
相
盾
省
眇
眉
看
眔
眞
真
眷
眼
眾
着
睘
睪
睿
瞏
瞢
瞿
矍
矛
矞
矢
矣
知
矦
短
石
破
碎
磊
磨
示
礻
礼
祟
票
祭
禀
禁
禸
禹
禺
离
禽
禾
禿
秀
秃
秉
秋
科
秝
秦
移
稟
穀
穌
穴
究
穹
空
穿
突
窄
窒
立
竒
竜
竝
竟
章
童
竹
笑
笠
筆
等
答
箕
算
箴
節
篤
篭
米
粉
粛
粟
粤
粦
粲
糞
糸
糹
系
約
納
素
索
紫
累
細
絜
絫
絲
維
綿
縣
繇
纍
纟
缶
网
罒
罔
罕
罗
罙
罡
罢
罪
署
罷
羅
羊
羌
羍
美
羔
羕
羗
羞
羡
羣
群
義
羲
羸
羽
翁
翏
習
翕
翟
翠
翼
老
耂
考
者
耆
而
耎
耑
耒
耳
耴
耶
耷
聂
聊
聖
聚
聶
聿
肀
肃
肅
肉
肖
肙
肥
肩
肯
育
肴
胃
背
胡
胥
能
脊
脩
膚
臣
臤
臧
自
臬
臭
臯
臱
至
致
臺
臼
臽
臾
臿
舀
舂
舄
與
興
舉
舌
舍
舛
舜
舞
舟
般
艮
良
色
艸
艹
艾
芒
芔
芬
芮
花
芳
芺
芻
苔
苗
苟
若
苦
英
茶
茸
荅
草
荒
荣
荼
莆
莧
莫
莽
菆
菊
菐
華
萬
落
葉
著
葛
董
葵
蒙
蒦
蒼
蓋
蓬
蓺
蔑
蔡
蕉
蕭
薄
薛
薦
薰
藍
藏
藥
蘭
虍
虎
虐
虒
虔
處
虖
虗
虘
虚
虛
虜
虞
虫
虽
蚤
蚩
蜀
蜜
蟲
蠡
血
行
衍
衛
衣
衤
表
衮
衰
袁
袞
褭
褱
襄
襾
西
覀
要
覃
見
規
覓
覧
親
覽
见
角
解
言
訁
訇
計
詹
誩
諸
讠
谷
豆
豈
豊
豐
豕
豖
豙
象
豦
豩
豪
豸
貇
貝
貞
貟
負
貢
貧
貪
貫
責
貳
貴
買
費
賁
資
賈
賏
賓
賔
賛
賞
賢
賣
質
賴
贊
贝
贡
责
贯
贲
贵
赖
赞
赤
赦
走
越
足
路
蹇
身
躬
車
軍
軎
軟
輦
车
辛
辜
辟
辥
辰
辱
農
辵
辶
边
达
过
近
连
迷
追
退
送
逆
逐
通
速
造
逢
連
逮
進
遀
遂
過
道
達
遣
適
遷
遺
邊
邑
邕
那
邦
邪
郎
部
郭
都
鄉
酉
酋
配
酓
釆
采
里
重
野
量
金
釒
錢
钅
長
镸
长
門
閃
閉
開
閏
閑
閒
間
閔
閵
閻
闌
门
间
闷
阑
阜
阝
阿
降
陳
隆
隊
隋
隡
隨
隱
隶
隹
隺
隻
隼
隽
难
雀
雁
集
雈
雋
雍
雐
雔
雙
雚
雜
雝
離
難
雨
雩
雪
雲
零
雷
需
霍
霜
霝
霞
霸
靈
靑
青
非
靡
面
靣
革
韋
韦
韭
韯
韱
音
頁
頃
項
須
頗
頡
頻
顛
页
额
風
风
飛
飞
食
飠
養
饣
首
香
馬
馮
駦
马
骨
高
髟
鬥
鬯
鬲
鬼
魚
魯
鮮
鱼
鲁
鳥
鳳
鸟
鹵
鹿
麃
麗
麥
麦
麻
黃
黄
黍
黎
黑
黒
黨
黹
黽
黾
鼎
鼓
鼠
鼻
齊
齋
齐
齒
齿
龍
龙
龜
龟
龠
龰
龱
龴
龵
龶
龷
龸
龹
者
艹
？
𠀁
𠀃
𠀆
𠀉
𠀎
𠀐
𠁁
𠁣
𠂆
𠂇
𠂈
𠂉
𠂊
𠂋
𠂎
𠂒
𠂔
𠂛
𠂡
𠂢
𠂤
𠂬
𠂭
𠂹
𠃊
𠃋
𠃌
𠃍
𠃎
𠃑
𠃓
𠃔
𠃜
𠄌
𠄎
𠄠
𠄢
𠆢
𠆥
𠇍
𠈌
𠌵
𠓜
𠔉
𠔥
𠔼
𠔽
𠔿
𠕀
𠕁
𠕋
𠘧
𠘨
𠙻
𠙼
𠚏
𠚒
𠚤
𠚪
𠣏
𠤎
𠤕
𠥓
𠦄
𠦑
𠦝
𠧒
𠧗
𠧪
𠩺
𠪚
𠫓
𠫔
𠫤
𠬛
𠬝
𠬞
𠬢
𠬤
𠬶
𠮛
𠮦
𠮷
𠯑
𠱠
𠳮
𠷎
𡈼
𡉀
𡉵
𡌥
𡍮
𡏳
𡕒
𡕩
𡕰
𡖅
𡗗
𡗜
𡘆
𡘤
𡧱
𡨄
𡩧
𡬠
𡭽
𡰣
𡰥
𡰪
𡰯
𡰱
𡷈
𡸁
𡿨
𡿩
𡿪
𡿺
𢀖
𢀛
𢀩
𢁙
𢆉
𢆰
𢆶
𢇁
𢇇
𢉖
𢌬
𢌿
𢏚
𢑑
𢑚
𢖻
𢙣
𢛳
𢦏
𢦒
𢧵
𢼄
𢾕
𣁋
𣄼
𣅀
𣅽
𣍘
𣎳
𣎵
𣏋
𣏼
𣗥
𣥂
𣥖
𣦵
𣦼
𣧄
𣪊
𣪠
𣬉
𣳾
𣶒
𤇾
𤊽
𤐫
𤓰
𤔔
𤕨
𤣩
𤰇
𤰔
𤰞
𤴓
𤴔
𤽄
𥁑
𥁕
𥃦
𥃩
𥃭
𥇡
𥑟
𥘅
𥘈
𥝢
𥫗
𥱡
𦈢
𦉪
𦉬
𦉼
𦍌
𦍒
𦎧
𦐇
𦓔
𦔮
𦘒
𦙃
𦚏
𦣝
𦣞
𦣻
𦥑
𦥔
𦥯
𦨉
𦭝
𦰩
𧆞
𧈧
𧘇
𧰨
𧴪
𧴮
𧵩
𧾷
𨸏
𨾴
𩙿
𩠐
𩫏
𩵋
𪉷
𪜀
𪟽
𪠲
𪩲
𫇦
𫔭
𫜸
𫝀
𫠣
𫠩
𫢉
𫥞
𫩏
𫩠
𫪡
𫲽
𫶧
𬀷
𬐘
𬗌
𬙙
𬛸
𬜯
𬟩
𬯁
𬴘
𬺻
𬼉
𬼖
𭀰
𭁈
𭁨
𭅰
𭑈
𭕄
𭗼
𭤨
𭥫
𭻾
𮅕
𮊿
𮍌
𮍏
𮓗
𮥼
𮧮
廾
𰀁
𰀄
𰀈
𰀉
𰀕
𰀠
𰀡
𰀢
𰀪
𰁜
𰃮
𰆊
𰆘
𰋙
𰕎
𰢴
𰧭
𰯲
01--
05--
92--
99--
a--
al--
an--
ar--
art--
associ--
at--
au--
b--
ba--
bar--
be--
c--
ch--
che--
co--
col--
confe--
d--
da--
de--
del--
don--
e--
edit--
em--
eth--
f--
fe--
fr--
g--
germ--
gr--
gre--
h--
he--
i--
in--
itali--
j--
k--
kin--
kras--
l--
le--
lea--
li--
lib--
lu--
m--
ma--
me--
mo--
n--
na--
nati--
ni--
o--
op--
or--
p--
pa--
palimp--
pe--
po--
pr--
r--
ra--
re--
ri--
ro--
s--
sch--
se--
sim--
st--
str--
stu--
swed--
t--
te--
th--
to--
tot--
u--
v--
w--
wi--
wo--
а--
аб--
аба--
абх--
авиа--
австр--
авт--
авто--
автом--
автомоби--
аг--
ага--
аи--
ак--
академ--
аква--
акци--
ал--
ала--
аль--
ам--
амбула--
амплит--
амыр--
ан--
ана--
аналитиче--
андр--
ансамбль--
анти--
антр--
антропологиче--
ар--
артил--
ару--
археологиче--
ас--
аст--
астра--
ат--
атмо--
атом--
афан--
афр--
ахил--
аш--
аҥ--
б--
ба--
бал--
бар--
баталь--
баш--
бе--
бел--
бер--
би--
библи--
билди--
био--
биографиче--
бирикти--
бла--
благо--
бли--
блок--
бо--
боб--
божо--
бор--
бри--
брян--
бу--
буд--
бух--
бы--
бюдже--
в--
ва--
введе--
вдов--
ве--
ведом--
вело--
вер--
верхне--
верш--
вет--
ветер--
веще--
ви--
вик--
вин--
вино--
вирту--
вла--
влия--
внеш--
во--
вое--
воз--
воздуш--
вол--
волж--
воло--
воро--
восс--
впади--
вре--
вс--
вт--
вхо--
вы--
выр--
выс--
г--
га--
гар--
ге--
ген--
гено--
гео--
ги--
гидр--
гидро--
гл--
гла--
глав--
глух--
го--
горно--
горьков--
гос--
госп--
граф--
гри--
гру--
группи--
гу--
гыр--
д--
да--
даге--
дани--
дар--
дв--
де--
дек--
дем--
демографиче--
дер--
деся--
дет--
дж--
дже--
джо--
ди--
дин--
длин--
дми--
днев--
до--
доб--
доку--
доро--
досто--
др--
драк--
древ--
древнерус--
древнетюрк--
ду--
духов--
е--
еги--
еди--
еже--
екат--
ельц--
ельцо--
ер--
ж--
жан--
жда--
же--
жи--
жу--
з--
за--
зав--
загрязне--
зал--
зареч--
зат--
зах--
защ--
заҥ--
зва--
зе--
зи--
зна--
зо--
зы--
и--
иг--
иде--
идеология--
иже--
из--
извест--
ик--
иль--
им--
име--
ин--
инве--
инду--
ино--
интер--
интерактив--
ирла--
ис--
иса--
испо--
исто--
историче--
ич--
иш--
ию--
к--
ка--
каал--
каза--
кал--
кам--
кан--
кап--
кар--
кара--
карта--
кат--
катун--
каче--
каш--
кв--
кварти--
ке--
кебе--
кем--
керчен--
ки--
кин--
кино--
кир--
кирле--
кирт--
киш--
кл--
клад--
кн--
кни--
ко--
ков--
кок--
кол--
колле--
колум--
ком--
кон--
конституцион--
конструк--
конц--
коо--
кор--
корот--
корса--
космиче--
космо--
кра--
крас--
кре--
креще--
кри--
крис--
кру--
круп--
ку--
кубул--
кузь--
кур--
курс--
куу--
кы--
кыл--
кыс--
кычы--
л--
ла--
лав--
лаге--
ландшаф--
ландшафт--
ле--
ледни--
лет--
ли--
либ--
линия--
листв--
лич--
ло--
лок--
лу--
луж--
ль--
лю--
м--
ма--
маг--
мак--
ман--
мдел--
ме--
мега--
меж--
мекси--
мен--
метал--
меч--
ми--
микро--
мин--
мир--
миф--
мно--
мо--
мол--
мон--
му--
муж--
муль--
мур--
мы--
мьян--
н--
на--
наблю--
наз--
наместниче--
направ--
науко--
нахич--
нациз--
нач--
началь--
најыл--
не--
неи--
нефте--
нефтя--
ни--
ниже--
низ--
нн--
но--
ново--
нор--
ну--
нык--
о--
об--
обком--
обли--
образователь--
обсерва--
общеоб--
оде--
оды--
ок--
ока--
оке--
окре--
октяб--
ол--
оль--
ом--
он--
оп--
оптиче--
ор--
ос--
осо--
от--
отече--
отк--
отрас--
офиц--
ох--
оҥ--
п--
памят--
пан--
пар--
парла--
паро--
пасп--
пат--
пе--
пен--
пер--
пере--
перспе--
печ--
печат--
пеще--
пи--
пла--
плац--
пле--
пло--
по--
пог--
под--
подроб--
пок--
поколе--
пол--
поли--
политиче--
полу--
пра--
прав--
право--
пре--
пред--
представ--
представитель--
прези--
при--
прибалти--
приз--
про--
провинция--
производ--
проте--
прус--
психиатриче--
публич--
р--
ра--
рав--
радио--
раз--
ран--
расположе--
рги--
ре--
реал--
ред--
рез--
реч--
реш--
ри--
рич--
рке--
ро--
рожде--
роспо--
рот--
рт--
ру--
руб--
рубцо--
руко--
русс--
ры--
рылыш--
ря--
ряз--
с--
са--
сав--
садовод--
сал--
сас--
св--
сверд--
сви--
свобод--
свя--
се--
севасто--
семин--
сер--
си--
симво--
ск--
ско--
сле--
слия--
служащ--
см--
смир--
снеж--
со--
соб--
совре--
сое--
соз--
сол--
солнеч--
соој--
сос--
сох--
соц--
соци--
союзникте--
сп--
спас--
спутни--
средне--
ст--
стар--
старо--
старосель--
статистиче--
сте--
сто--
стр--
стратегиче--
су--
суд--
судь--
сур--
сыр--
сю--
т--
та--
так--
тарк--
тарт--
тарх--
те--
теле--
тем--
теп--
теске--
тех--
техниче--
тече--
ти--
тибет--
тих--
то--
товар--
тозы--
толу--
том--
торже--
точ--
тр--
тра--
традицион--
три--
тру--
ту--
тувин--
тузалан--
тур--
турни--
туу--
тх--
ты--
тыр--
тысяче--
тыш--
тю--
тюрк--
тя--
у--
удоб--
удур--
удурла--
уз--
уза--
узбеки--
ук--
ул--
ун--
ур--
ураль--
ус--
устано--
ут--
уул--
уч--
участ--
уш--
ф--
фак--
фашиз--
фе--
фер--
физиче--
фила--
фило--
фон--
фото--
фр--
х--
хаба--
химиче--
хо--
ху--
ц--
цар--
це--
цех--
ци--
цив--
цифро--
ч--
ча--
чан--
чап--
чар--
че--
чек--
человече--
чер--
черно--
чехо--
чи--
чика--
чо--
чол--
что--
чу--
чы--
чыр--
ш--
ша--
шаман--
шар--
шах--
шаш--
ше--
ши--
шин--
шиш--
шиҥдел--
шкен--
шор--
шост--
шу--
шыр--
щ--
ы--
ыл--
ылчы--
ым--
ын--
ыр--
ыҥ--
э--
эвакуи--
эде--
эжи--
эк--
эко--
экономиче--
экс--
эксплу--
эл--
элек--
электр--
электро--
эль--
эм--
эмде--
эме--
эн--
эне--
эпи--
эр--
эрј--
эстафе--
эт--
этниче--
этно--
ээжи--
эје--
ю--
юж--
юсту--
я--
яб--
ядер--
яз--
яку--
яр--
ј--
ја--
јар--
јарта--
јат--
јаҥырт--
је--
јеҥди--
јилбирке--
јо--
ју--
қ--
ҥ--
ҥдешти--
ҥчабын--
--0
--1
--2
--3
--4
--5
--6
--7
--8
--9
--a
--an
--ar
--ary
--b
--c
--ce
--ces
--ch
--che
--cts
--d
--da
--dge
--e
--er
--es
--f
--g
--ga
--ge
--gn
--h
--ht
--i
--ia
--ic
--ical
--ik
--il
--ing
--ion
--ity
--k
--l
--ld
--ll
--ly
--m
--n
--nce
--nd
--nt
--o
--on
--or
--out
--ow
--p
--r
--ra
--rd
--rod
--rt
--ry
--s
--sk
--t
--ta
--u
--us
--v
--vo
--w
--x
--y
--z
--а
--ав
--аве
--аган
--агы
--ад
--ада
--ае
--аз
--азы
--азында
--аи
--акаи
--ал
--алу
--алык
--ам
--ама
--ами
--ан
--ание
--ании
--ания
--ап
--ар
--ары
--ат
--атан
--атель
--ать
--ах
--ации
--ацию
--ация
--ацияга
--аш
--ая
--аҥ
--б
--баган
--баи
--бас
--бес
--в
--ва
--вая
--ве
--вет
--вистскии
--вия
--вка
--вки
--вль
--вна
--вныи
--во
--вое
--вои
--вом
--вство
--втыҥ
--вы
--вые
--выи
--вых
--г
--га
--ган
--ге
--гем
--ген
--ги
--го
--графии
--графия
--гул
--гы
--д
--да
--даи
--дап
--дар
--дарды
--дардыҥ
--дары
--дат
--даҥ
--де
--деп
--дер
--деҥ
--ди
--дии
--дик
--дин
--дия
--диҥ
--до
--дои
--дор
--дта
--ду
--дукт
--дукттар
--ды
--дыи
--дык
--дыҥ
--е
--ев
--евтиҥ
--евыи
--еди
--едия
--ее
--еев
--еи
--ек
--еков
--ел
--еле
--ели
--ель
--еля
--ем
--ен
--ение
--ении
--ения
--ень
--ер
--ера
--ери
--ес
--ет
--ется
--еты
--ец
--ецтер
--ея
--еҥ
--жения
--жып
--з
--за
--зания
--земноморскии
--зи
--зии
--зине
--зия
--зо
--зов
--зон
--зы
--зыла
--зымак
--зын
--зына
--зында
--зыныҥ
--зя
--и
--иде
--ие
--изация
--изм
--изма
--ии
--ик
--ика
--ики
--иков
--ил
--иле
--иль
--им
--ин
--ина
--инал
--инде
--ине
--инеҥ
--иниҥ
--ины
--ип
--ирования
--ис
--ист
--ит
--ители
--итель
--ится
--ить
--их
--иц
--ица
--ич
--ическая
--ические
--ическии
--ических
--ического
--ическои
--ию
--ия
--ияга
--ияда
--иязы
--иҥ
--к
--ка
--казы
--кан
--кая
--ке
--кен
--ки
--ко
--кои
--кс
--кт
--кция
--кы
--л
--ла
--лак
--лап
--лар
--лардыҥ
--лары
--ларыныҥ
--лат
--лган
--ле
--лер
--ли
--ло
--лон
--лор
--лоры
--лта
--лу
--лы
--лык
--лып
--ль
--льно
--льт
--ля
--м
--ма
--ми
--му
--н
--на
--нак
--нар
--нат
--ная
--наҥ
--нд
--нда
--нде
--не
--нек
--неҥ
--ни
--ниги
--ние
--нии
--ник
--ников
--ница
--нию
--ния
--ниҥ
--нки
--нко
--нная
--нно
--нное
--ннои
--нную
--но
--нов
--ного
--ное
--нои
--ности
--ность
--ну
--ны
--ные
--ныи
--ным
--нып
--ных
--ныҥ
--нь
--ня
--няя
--о
--ов
--ова
--овая
--ович
--овка
--ового
--овое
--овскии
--овскои
--овыи
--овых
--ог
--огии
--огия
--ого
--ограф
--од
--ода
--ое
--ои
--ок
--ол
--оль
--ом
--ому
--он
--ор
--ос
--ота
--ою
--п
--па
--пас
--пии
--пия
--пп
--пс
--пыи
--р
--ра
--рг
--рга
--рган
--рд
--рда
--рде
--рдо
--рдыҥ
--ре
--ри
--рка
--рла
--рлу
--рма
--ро
--ру
--рх
--ры
--рын
--рына
--рында
--рыныҥ
--рып
--рь
--с
--са
--си
--сии
--ск
--ская
--ские
--скии
--ским
--ских
--ско
--ского
--ское
--скои
--ском
--скому
--со
--союзныи
--ст
--стат
--ство
--стыҥ
--сть
--стью
--сы
--сь
--ся
--т
--та
--таган
--таи
--тан
--тап
--тар
--тарды
--тардыҥ
--тары
--таҥ
--те
--тер
--тердиҥ
--тери
--теҥ
--ти
--тики
--тия
--тиязы
--тиҥ
--то
--тов
--тор
--тоҥ
--ттар
--ттер
--ту
--тулу
--ты
--тын
--тыҥ
--ть
--у
--ул
--ум
--ур
--ус
--ут
--ф
--фии
--фия
--х
--ха
--хая
--хи
--ход
--ц
--ца
--ции
--ция
--цкии
--ч
--ча
--чал
--че
--чева
--чек
--чи
--чие
--чик
--чнои
--чы
--чь
--ш
--ша
--ше
--шин
--шка
--шняя
--ще
--щеде
--ъ
--ы
--ые
--ыжат
--ыи
--ыла
--ым
--ын
--ына
--ынаҥ
--ында
--ыныҥ
--ып
--ыр
--ых
--ыш
--ыҥ
--ь
--ье
--ьная
--ьно
--ьного
--ьное
--ьные
--ьныи
--ьным
--ьон
--ьскии
--ьское
--ьскои
--ься
--ья
--э
--ю
--ют
--ющие
--ющии
--я
--яга
--яда
--яев
--як
--ят
--ятия
--ях
--јы
--ҥ
