!
"
#
##0
##1
##10
##11
##12
##13
##14
##15
##16
##17
##18
##19
##2
##20
##21
##22
##23
##24
##25
##26
##27
##28
##29
##3
##30
##31
##32
##33
##34
##35
##36
##37
##38
##39
##4
##40
##41
##42
##43
##44
##45
##46
##47
##48
##49
##5
##50
##51
##52
##53
##54
##55
##56
##57
##58
##59
##6
##60
##61
##62
##63
##64
##65
##66
##67
##68
##69
##7
##70
##71
##72
##73
##74
##75
##76
##77
##78
##79
##8
##80
##81
##82
##83
##84
##85
##86
##87
##88
##89
##9
##90
##91
##92
##93
##94
##95
##96
##97
##98
##99
$
%
&
'
(
)
*
+
,
-
.
/
0
00
000
01
02
0291
03
04
05
06
07
08
09
1
10
100
1000
101
102
103
104
105
106
107
108
109
11
110
1100
111
112
113
114
115
116
117
118
119
1199
12
120
1200
1208
121
1215
122
1220
1224
123
124
125
126
12697
127
128
1290
13
130
1300
131
132
1322
133
134
135
136
137
138
139
14
140
1400
141
142
143
144
145
1452
146
1466
1469
147
1475
1477
148
149
15
150
1500
1519
152
1524
1526
153
1532
154
155
1552
1556
1558
156
1564
1569
157
1577
158
1582
1585
1588
159
1590
1592
1596
1598
16
160
1600
1605
1607
1608
1613
1616
162
1623
1625
1627
1628
1630
1632
1635
1636
1638
1640
1642
1643
1644
1650
1654
166
1665
1684
1686
1688
1699
17
170
1700
1702
1703
1704
1707
1708
171
1711
1721
1724
173
1736
1743
1744
175
1750
1755
1756
1758
1759
1760
1762
1764
1765
1767
1768
177
1770
1771
1772
1773
1774
1775
1777
1778
1780
1781
1782
1783
1784
1785
1786
1787
1788
1789
179
1790
1791
1792
1793
1795
1796
1797
1799
18
180
1800
1801
1802
1803
1804
1805
1806
1808
1809
1810
1811
1812
1813
1814
1815
1816
1817
1818
1819
1820
1821
1822
1823
1824
1825
1826
1827
1828
1829
1830
1831
1832
1833
1834
1835
1836
1837
1838
1839
1840
1841
1842
1843
1844
1845
1846
1847
1848
1849
185
1850
1851
1852
1853
1854
1855
1856
1857
1858
1859
186
1860
1861
1862
1863
1864
1865
1866
1867
1868
1869
187
1870
1871
1872
1873
1874
1875
1876
1877
1878
1879
188
1880
1881
1882
1883
1884
1885
1886
1887
1888
1889
1890
1891
1892
1893
1894
1895
1896
1897
1898
1899
19
190
1900
1901
1902
1903
1904
1905
1906
1907
1908
1909
191
1910
1911
1912
1913
1914
1915
1916
1917
1918
1919
192
1920
1921
1922
1923
1924
1925
1926
1927
1928
1929
1930
1931
1932
1933
1934
1935
1936
1937
1938
1939
194
1940
1941
1942
1943
1944
1945
1946
1947
1948
1949
1950
1951
1952
1953
1954
1955
1956
1957
1958
1959
1960
1961
1962
1963
1964
1965
1966
1967
1968
1969
1970
1971
1972
1973
1974
1975
1976
1977
1978
1979
198
1980
1981
1982
1983
1984
1985
1986
1987
1988
1989
1990
1991
1992
1993
1994
1995
1996
1997
1998
1999
2
20
200
2000
2001
2002
2003
2004
2005
2006
2007
2008
2009
2010
2011
2012
2013
2014
2015
2016
2017
2018
2019
202
2020
2021
2022
204
21
210
211
212
213
214
217
218
219
22
220
221
223
224
226
227
228
23
230
231
232
234
235
236
237
238
239
24
240
241
242
243
244
245
246
248
25
250
2500
252
253
256
257
259
26
260
261
262
263
265
27
28
280
29
290
292
293
299
3
30
300
3000
31
310
313
314
315
317
318
32
320
321
323
324
33
330
333
334
338
34
342
35
350
36
37
370
38
39
4
40
400
4000
403
41
42
43
430
436
44
45
450
46
47
48
49
490
5
50
500
5000
51
52
53
530
54
55
550
56
57
570
58
59
6
60
600
6000
61
614
62
63
64
65
659
66
67
68
69
7
70
700
7000
71
72
73
74
75
750
76
764
77
78
79
8
80
800
8000
81
82
83
84
85
86
87
88
89
9
90
900
91
92
93
94
95
96
97
974
978
98
99
9949
:
;
<
=
>
?
[
\
]
^
_
`
a
aa
aabidsa
aabidsakogo
aabits
aabra
aabraham
aad
aado
aadomarvoga
aadomido
aadomiq
aadomisa
aadomit
aadro
aafriga
aal
aan
aani
aania
aanian
aapo
aare
aarne
aas
aasia
aasiahe
aasian
aasiast
aasovi
aasta
aastadso
aastaga
aastagadso
aastagaka
aastagakuu
aastagal
aastagan
aastagani
aastaganiq
aastagano
aastagapa
aastagapreemia
aastagaq
aastagaraamadu
aastagas
aastagasaa
aastagasaal
aastagasaani
aastagasaaniq
aastagasaas
aastagasaast
aastagasada
aastagasata
aastagasato
aastagast
aastagat
aastagatuhanda
aastagatuhandal
aastagatuhando
aastagido
aastagil
aastagist
aastagu
aastagul
aastak
aastaka
aastakka
aastakko
aastaku
aastakuu
aastakuul
aastakuun
aastal
aastan
aastani
aastano
aastapa
aastapreemia
aastaraamat
aastasaa
aastasaal
aastast
aastat
aastido
aastil
aastist
aastit
aavigu
aavik
abaci
abasiini
abau
abc
abel
abeli
abhaasi
abi
abielo
abielon
abiga
abigaq
abikaasa
abil
abis
abja
about
abu
ac
academia
action
ad
adam
adamsoni
adaq
adisto
ado
adolf
adolph
adson
adsoni
aeesti
aeg
aega
aeniidu
aeti
afanassi
afganistan
afganistani
afriga
afrikaani
afrikan
aga
agaq
agermaani
ago
agronuum
agu
ah
aheru
ahh
ahhemeniide
ahhun
ahi
ahija
ahitso
ahja
ahjo
ahli
ahmad
aho
ahto
ahummogu
ahunamaa
ahunat
ahvena
ahvokaadibu
ahvokaat
ai
aia
aian
aiaq
aid
aida
aidama
aidapera
aido
aig
aiga
aigaamaduq
aigladso
aigno
aigo
aigopite
aigopiten
aigraamat
aigraamatun
aigso
aigu
aika
aili
ain
aino
ainugo
ainuko
aiq
ait
aita
aiu
aiust
aivar
aivo
aja
ajal
ajalooline
ajalugu
ajama
ajamiso
ajaon
ajast
ajatolla
ajavaq
ajetus
aka
akadeemia
akadeemik
akadeemilidse
akateemik
akkadi
akkalasaami
akkon
akna
aknaloho
akno
ako
akordion
aks
aksa
aksamaa
aksamaal
aksamaalo
aksamaalt
aksel
aksi
akslaisi
akslaso
aksli
aktiivso
aktivist
aku
akustilino
al
ala
alaia
alaisi
alaja
alako
alakonnu
alaku
alal
alalo
alalt
alamb
alambhulk
alambhulko
alambjoosul
alambs
alambsorbi
alan
aland
alanu
alaq
alar
alas
alasi
alaskal
alaso
alast
alati
alato
alatskivi
alaveski
albaania
albert
alberta
albom
albomi
albomiq
albri
album
albumi
albummi
albums
aleksander
aleksandr
aleksandri
aleksandria
aleksandrian
aleksandrikooli
aleksis
alexander
alfred
algarv
algarvo
algkeelest
algkiil
algkooli
algkoolin
algkuul
algo
algoritm
algoritmi
alguso
algvo
ali
alidso
alighieri
aligult
aliin
aliini
alino
alist
all
alla
allah
allapoolo
allaso
alles
allilma
allo
allpuul
alluliina
alluma
alo
alomadso
alomano
alone
alono
alos
aloso
alossa
alosso
alost
alostaja
alostanuq
alostaq
alostiq
alosto
alostus
alostuso
alostust
alt
altri
alu
alumadso
alz
am
ama
amaa
amadeus
amaio
amalie
amazonas
amazonaso
ambla
ameeriga
ameerika
ameerikahe
ameerikan
ameerikast
ameheq
amen
american
amet
amiheq
amiihi
amiis
amiist
amisiq
ammo
amnesty
amo
amr
amstedam
amsterdam
amsterdami
amsterdamin
an
analu
and
anda
andaq
andas
anders
andi
andis
andit
andja
andma
andmed
andmido
andmino
andmiso
andmist
andmo
andnu
andnuq
ando
andorra
andre
andreas
andres
andrus
andruso
andsambli
andsi
andso
andsu
andsuma
andvaq
anette
ango
angola
ani
anija
ann
anna
annaq
anne
anneli
anni
annika
anniq
anno
ansambi
ansambli
ansamblin
ansambliq
ansamblist
anseku
ansv
ant
antarktiga
anti
antigua
antoloogia
anton
antoni
antropoloogia
ants
antsla
antslan
antsu
antti
anu
ao
aoarvamiso
aoarvamist
aoga
aogaq
aokira
aokiri
aokirja
aol
aoldo
aolehe
aolehen
aoleht
aolidso
aolugu
aoluku
aoluu
aoluulano
aoluulidso
aoluuliidsi
aoluulino
aoluuliso
aoluun
aoluust
aomo
aoni
aoniq
aopikku
aoq
aos
aosa
aosan
aost
aotino
aotlidso
aoviidu
apa
api
apia
apida
apja
apo
apoolino
apoolitso
apostli
apostlido
appi
apple
aprill
apuulkera
apuulso
aq
ar
araabia
araablaisi
araablaso
archimedes
archimedese
archive
ardit
are
arena
argentiina
argentina
arheoloogia
arhiiv
arhiivin
arhitekt
ariana
ariistaq
ariisto
ariistoga
aritmeetika
arkeoloogia
arm
armas
armasto
armastus
armastuso
armastust
armee
armeenia
armin
armo
arne
arno
arnold
aro
aroma
aroto
arotus
arq
arragu
arraso
ars
arsenal
arst
arstitiidla
arstitiidu
arthur
artikkel
artikli
artikliid
artiklin
artikliq
artiklit
artur
aru
aruku
aruma
arv
arvada
arvadaq
arvaku
arvamiisi
arvamino
arvamiso
arvanuq
arvaq
arvas
arvaso
arvat
arvata
arvatas
arvati
arvo
arvoga
arvokunsti
arvol
arvoq
arvosaamino
arvosaamiso
arvost
arvosu
arvota
arvoteooria
arvoteoorian
arvso
arvu
arwo
as
asaami
asi
asja
asjade
asjo
asju
asko
aso
asot
asotaja
asotajaliigo
asotamiso
asoto
aspects
assamblee
assu
ast
asta
astala
asti
astmo
astnuq
asto
astrahani
astrid
astronoomia
astso
astu
astuq
asukotus
asus
asustustihedus
asutadu
asuto
at
ata
atama
atas
ateena
ateenan
atlandi
ato
ats
attack
atu
atundja
au
audru
augli
august
augusti
auhind
auna
aunapu
aunuso
aurora
aus
ausa
austraalia
austraalian
austria
austrian
auto
autonuumno
autor
autori
autorido
autoriq
autoris
ava
avald
avaldamiso
avaldanuq
avaldaq
avaldo
avaligult
avalik
avavangimaja
aveeren
avit
avitanuq
avitaq
avitas
avitaso
avo
avvo
avvodoktor
avvohind
avvohinna
avvoliigo
avvos
avvosammas
avvus
b
ba
baas
baasin
babu
bachi
bad
baha
bahama
bakuu
balkani
ballaad
balodis
balti
baltic
baltica
balticu
baltimaio
baltis
banaanid
band
bangladeshi
bangui
baq
bar
barbadoso
barbara
barbuda
barclay
bartosiki
bas
baski
baskiiri
baskimaa
baskini
bass
basskitra
batman
batmani
bb
bbc
bbi
be
beast
beatbox
beatles
becki
beethoveni
belau
belgia
belize
beluts
ben
benini
benjamin
ber
bergman
berli
berliin
berliini
berliinin
bernard
bernardi
bernhard
berta
bertrand
bhutan
bhutani
bi
bido
big
bihari
bik
bika
bildtsi
bimo
bin
bioloogia
bioluug
birchbark
birma
bis
bissau
bist
bite
black
blairi
bli
blica
blogi
blood
bo
boliivia
bols
borsod
bosnia
botaanigaaian
botaanigaaid
botswana
bowie
br
bra
brahma
bralidso
brapa
braq
bras
brasiilia
brasiilian
bretooni
britannia
briti
browne
bru
bruce
brunei
bruno
bu
buda
budapest
budapesti
budapestin
buddha
budism
budismi
budismin
budkovsky
buenos
bulgaaria
burj
burkina
burundi
buss
bussiga
bussipia
by
c
ca
cabo
cale
california
can
cand
canis
canthi
carl
carli
cartier
cat
cc
cd
ce
celia
center
ceres
cgi
cha
chance
charles
chat
cherubini
chi
chris
christian
christoph
cia
cie
city
ckeri
cl
cm
co
coimbra
collins
colombia
columbia
com
come
commonsi
concepcio
concepcion
constanze
content
contra
cooki
corki
costa
cs
cum
d
da
daddy
dagido
dago
dagu
daguarmee
daguhe
dagujaon
dagumaa
dagumaio
dagumere
dagumeresoomo
dagumeri
dagumurdo
dagun
daguosan
daguosast
dagupoolitso
dagusaami
daguslaavi
dagusu
daguveeren
daguvo
dak
dal
dali
dangerous
daniel
danieli
dante
daq
dark
das
dasku
daugava
daugavpils
dav
david
day
dder
de
dea
dead
deadache
death
dedu
default
definits
dekaan
del
delfi
delta
dem
demeeste
demeestel
demokraatia
demokraatlidso
demokraatlino
den
dener
deneri
deq
der
deraalringkunnan
derats
des
descartes
det
deta
deti
detsember
detu
deutsch
devil
devlet
di
dia
die
diego
digar
dima
dimo
din
dio
diofantiliidsi
diogenes
diophantoso
diplomaat
diq
dir
direktri
dirigent
displaystyle
dissertationes
divando
diviis
diviisi
dja
djibouti
dla
dma
dmine
dmise
dmises
dmisest
dmist
dnepri
dnu
do
doha
doi
doktoritu
dollarit
domain
dominica
dominikaani
dominjon
don
donetski
doni
donneri
doonau
doonia
dostojevski
dotsent
douro
down
dr
dra
draal
draamatiatri
draamatiatrin
drakoni
drama
dramo
draoja
dre
dream
dri
druusiq
druuso
dryopteris
ds
dsa
dse
dsel
dsele
dselt
dsema
dsen
dsena
dseq
dses
dsest
dseta
dsi
dso
dsu
du
dublin
dublini
dud
duet
duga
duq
dus
dust
dut
duur
dv
dva
dvd
dz
e
ecuador
ecuadori
ed
eda
ede
edeeitu
edeja
edeku
edemiis
edenda
edenime
edenimi
edeotsan
edesi
edeso
edespiten
edetabo
edevano
edgar
edgaripa
edima
edit
edmund
eds
edu
eduard
eduardi
education
ee
eelami
eelektri
eelija
eelis
eelk
eelorikkus
eenia
eepos
eeposo
eeria
eero
ees
eesnimed
eest
eesti
eestih
eestihe
eestihte
eestikeeline
eestikeelist
eestikiilne
eestil
eestimaa
eestimaal
eestimaalo
eestin
eestis
eestist
eestit
eestla
eeva
ega
egal
egalo
egan
egapa
egaq
egau
eger
egeri
egu
eh
eheru
ehhi
ehin
ehit
ehita
ehiteda
ehitedi
ehitediq
ehitedu
ehitet
ehitiq
ehitiva
ehitu
ehk
ei
eichenbaumi
ein
eiq
eis
eisen
eisenschmidt
eita
eitu
ejuht
eka
eki
ekms
ekr
eksa
ekspedits
ekspress
eksta
eku
ekvatoriaal
el
ela
elanud
elatud
ele
elea
elektromagno
elektrooniga
elektroonilidso
elektroonilino
elemendi
elemendiq
element
elemente
eleti
elias
eliaso
eliit
elisabet
elisabeth
elise
elistvere
elizabeth
elkeni
ella
elle
ellen
elleri
elli
elliq
ello
elmar
elme
elmo
elo
eloaol
eloiga
eloka
elokotus
elokotuso
elokotussit
elokotusso
elokutso
eloliisi
elolino
eloliso
elolo
elolugu
elon
eloniguq
elonik
elonikka
elonikko
elonikku
elopaigaq
elopaik
elos
elost
elosuun
elotiidu
elotu
elt
elu
elulugu
elva
ema
emakeele
emakeelepa
emari
emil
emiq
emmaste
emptyset
ems
emuma
en
ena
enam
end
endel
endla
ene
energia
english
enko
enn
enne
enno
eno
ensv
ent
entsu
entsyklopeedia
enurm
enurmo
eosa
eosto
eots
eotsa
ep
epl
eplik
epneri
epolku
epvu
eq
equiv
era
eratosthenes
erdo
erelt
eri
eriala
erialal
eric
erik
erika
erinumber
eritands
eriti
eritrea
erki
erkki
erna
ernigivi
ernits
ernst
ernsti
ero
err
ersa
eru
es
esa
esi
esiera
esiki
esikiq
esimiis
esimuudu
esinda
esiq
esiqera
esiqhinda
esiqmuudu
esiqsaismiso
esiqsaisvusso
esiqsugumadso
esiqsugumaidsi
esiqsugumast
esiqsugutsit
esita
eski
eskiq
esko
esperanto
ess
essa
essema
essu
est
estcube
esti
estja
estonia
estonian
estonica
estonicae
esuu
eswatini
et
eta
etaguse
etas
etendu
eti
etioopia
ets
ette
ettekandit
ettekando
ettepano
ettetulo
ettevo
etu
etv
eu
eukleides
eukleidese
euler
euleri
eurominority
euroopa
europe
european
eurovisiooni
euru
euruupa
euruupahe
euruupan
euruupast
ev
eva
evad
eval
evald
evaleht
evaq
evar
evari
evarro
eve
evi
evoluts
f
fa
facebookin
faculdade
falklandi
faso
fasteri
fastro
fe
felipe
felix
feminismi
fenno
ferdinand
ferdinandi
fermat
festival
festivali
festivalil
fet
fi
fibonacci
fidz
filipiine
film
filme
filmen
filmi
filmin
filmina
filosoofia
filosoofian
filosoofiat
filosoofiliidsi
filosuuf
finland
finnic
finno
firma
fjodor
flora
fo
folk
folklore
folkloriste
fond
fondi
for
formaalso
forseliuso
forvo
fotoq
frac
franc
francis
franciscus
frangi
frank
franklini
franz
fred
friedebert
friedrich
friedrichi
friisi
fu
funktsioon
g
ga
gaasiteha
gaaso
gaeli
gagarini
gailiti
gal
galiitsia
gallagher
galo
galois
gambia
ganuse
gaq
gautama
ge
gede
gema
gemine
gemise
gen
geni
geograafia
geomeetria
geomeetriline
georg
george
georges
georgi
geray
gerhard
gerhardi
geri
germaani
gestik
geva
gg
ghana
gi
giga
gija
gikraami
gikunna
gil
gile
gima
gin
gine
ginea
giovanni
giq
giray
gis
gist
giste
glapai
glapaiu
glaq
glen
go
goethe
golfi
good
gooria
gooti
gorbats
gottfried
gottlieb
gottliebi
gov
government
gra
graafik
grammatika
grammatilist
grammi
grand
grande
gregoriuso
greif
grenada
gri
griffith
gro
gru
gruusia
gu
guam
guangxi
guatemala
guide
guinea
gulag
guq
gustav
gustavi
guyana
guð
gyo
h
ha
haabsaaro
haamasto
haan
haani
haanimaa
haanimiihhi
haanin
haanja
haankaso
haapsalu
haard
haava
haavama
haavapa
haavata
haavistma
haavistu
haavistuma
habo
habsburgo
hades
hafez
hageri
hagu
hai
haidaku
haigo
haigri
haigus
haiguso
haiku
hain
haina
hainakuu
hainakuun
hainaq
hainasuu
haino
hainsoo
haisutundmino
haisutundmiso
haiti
haka
haki
hakim
hal
haldjaq
haldjas
haldusjaotus
halepa
haljala
haljama
hall
halla
hallelujah
hallima
halliste
hallo
hallto
haloneni
halv
halva
halvas
halvasto
hambaq
hammas
hammast
hamo
hand
handi
hando
handu
hangunuka
hani
hanija
hanila
hanima
hanna
hannaga
hannes
hanni
hannu
hannusto
hans
hansen
hansi
hansoni
hanss
hao
hapno
hapsu
har
hara
harakma
harald
hard
hardi
hargi
hargla
harglo
hari
haridus
hariduso
haridustegela
hariligu
hariligult
hariligumb
hariligumbaq
hariligun
hariliguq
harilik
harilikko
harilikult
harino
harjo
harjomaa
harjomaal
harju
harjuma
harjumaa
harkivi
harkivin
harku
haro
harojo
harolino
haroq
haros
harrastusluulo
harrastusna
harrastustiatrido
harri
harro
harry
haruki
haruldaisi
harv
harva
harvaq
harvo
hatiku
haud
hauda
haudo
hauduma
haug
haugja
haugo
hauk
hauka
haukama
havva
havvo
he
hea
head
heaven
heavy
heebrea
heedu
heeska
hega
heibergi
heiki
heino
heinrich
heinrichi
heisri
heke
hekta
hektaari
helbi
hele
helen
helena
helepandmist
helepanno
helju
hell
hella
helle
hellekunnu
hellenurmo
hellest
hellu
helme
helmi
helsingi
helsingin
helsinki
helu
hema
hemb
hemba
hend
henda
hendedu
hendet
hendrik
hendu
henge
henn
henno
hennoste
henri
henrigu
henrik
henry
henu
heq
hera
herbert
herksa
hermann
heroni
herra
herrmanni
hersoni
hertsegoviina
hertsok
hest
hetero
hetiidla
hetiidu
hetorni
hetornin
hevesi
hh
hha
hhi
hi
hido
hiina
hiinan
hiinast
hiio
hiiomaa
hiiomaal
hiiop
hiir
hiire
hiirema
hiireq
hiiri
hija
hik
hikene
hikuul
hilana
hilba
hilda
hildegard
hilidso
hiline
hima
himmaku
himmasto
himmitses
himo
hind
hinda
hindi
hindrik
hindriku
hinduismi
hindustani
hing
hinga
hinge
hingelugo
hingi
hingiaig
hingiao
hingipa
hinna
hinnat
hinnatas
hinni
hino
hinsa
hip
hippophae
hiq
hirmu
hirvlaano
hisa
hisgu
hispaania
hispaanian
history
histu
hitleri
hiuso
hiusso
hja
hjo
hjuisi
hjus
hjuso
hk
hkeist
hken
hkene
hkese
hki
hkja
hkli
hkna
hko
hkohe
hkolt
hkon
hkost
hku
hl
hm
hma
hmi
hmitu
hmus
hmuso
hmusso
hn
hna
hni
hnija
ho
hobo
hoboala
hod
hoio
hoit
hoita
hoitaq
hoitja
hoitma
hoitmino
hoitmise
hoitmiso
hoitmist
hoitunu
hoitunuq
hoitvaq
holdi
holland
hollandi
hollandin
hollo
holsta
homo
hon
honduras
honduraso
hoobis
hoolo
hoono
hopo
horatius
horma
horoski
horsa
horvaadi
horvaatia
hot
hoto
hr
hri
hrik
hrima
ht
hta
hte
hti
htiga
htkujo
htm
htme
html
hto
htpa
htraamadu
htraamat
htraamatin
htsa
htsu
http
https
htu
htuleht
htvere
hu
huang
hugo
hukati
hukka
hukkasaamispaigan
hukkasaanuisi
hukkasaanuq
hul
hula
hulga
hulgaga
hulgan
hulgaq
hulgas
hulgast
hulgateooria
hulk
hulka
hulko
hull
hullu
human
humanitaartiidu
hummogu
hummoguhe
hummogujaon
hummogujaost
hummogumaa
hummogumaal
hummogumurdo
hummogun
hummogupiiri
hummogupoolidso
hummogupoolino
hummogupoolitso
hummoguseto
hummoguslaavi
hummogusu
hummoguveeren
hundilaano
hunt
hurda
hurdama
hurmi
hus
husari
huso
hust
huugu
huul
huulidsa
huulits
huulmaldaq
huulo
huult
huuma
huunido
huunist
huunit
huuno
huvi
huvikeskus
huvvi
huvvo
hva
hvi
i
ia
ib
ibn
id
ida
idaea
idas
ide
idee
idega
identiteedist
ideoloogia
idi
idina
idiq
ido
idoriist
idse
idsi
idsil
idso
idu
idupu
idus
ie
ien
iendatud
ieq
ierma
iest
iga
igadaq
igas
igatas
igati
ige
igest
igi
igil
igilo
igin
igist
igo
igor
iguisi
igus
iguso
igust
igustiidu
ihamaru
ihaste
ihatsi
ihe
iheri
ihho
iho
iholo
ihon
ihost
ii
iia
iih
iihn
iii
iin
iinka
iinkujo
iinotsan
iinpuul
iiri
iirimaa
iirimaad
iirimaal
iisaku
iispa
iisraeli
iist
iistko
iistvida
iistvo
ija
ik
ika
ikaig
ikamiso
ikas
ike
ikeisi
ikeisist
ikeist
ikene
ikenemaakund
ikese
ikeseq
ikest
ikeste
iki
ikja
ikka
iklo
iko
ikoq
iks
ikside
iku
ikuja
ikuma
ikuq
ikut
il
ilda
ildamba
ildampa
ile
ilias
iljapa
illadso
illatso
illi
illo
illos
ilm
ilma
ilmadu
ilmaga
ilmajaoq
ilmajaost
ilmaka
ilmamaa
ilmamere
ilman
ilmangi
ilmaq
ilmar
ilmariik
ilmaruumi
ilmaruumijaam
ilmaruumin
ilmaso
ilmast
ilmastu
ilmateenistu
ilmatiidu
ilmselt
ilmu
ilmunu
ilmunun
ilmunuq
ilmuq
ilmus
ilmuv
ilo
ilokira
ilomo
ilosa
ilosahe
ilosaq
ilosit
ilosto
ilu
ilumo
ilus
ilusa
ilusahe
ilves
ilvese
ilvesse
im
ima
imajo
imaligult
imalik
imaluisi
imalus
imaluso
imalust
imdb
imeq
imeta
imetajad
imi
imiq
immanuel
immeulmo
immipa
immisma
imo
imolo
imoq
imost
impeerium
impeeriumi
imperaatri
imsa
imu
imukuu
imukuul
imukuun
imulo
imuq
imust
in
ina
inara
inarisaami
inc
inda
index
india
indiaani
indiahe
indian
indiast
indo
indoneesia
indoo
indra
indrek
indsikurmu
induso
ine
inemiisi
inemiisiga
inemiisil
inemiisile
inemiisist
inemine
inemise
inemisegaq
inemisel
inemisele
inemiseo
inemiseq
inemisest
inemiso
inemist
info
information
infrastruktuuri
ingerikar
ingis
ingl
ingla
inglise
inglu
ingo
ini
inne
inneko
innemb
innemba
innembi
innembide
inneskidse
inneskidsest
inneskine
ino
insener
insino
inspektri
institute
instituudi
instituudin
instituut
integraalrehkendu
international
internet
interneti
internetin
internetitunnus
into
inuq
io
iollaq
ipa
ipo
iq
ir
ira
iraagi
iraak
iraan
iraani
iraanin
iraanist
iraanlaisi
iraanlaso
iraz
irazi
irazin
irboska
ireann
ireland
irratsionaalarvo
is
isa
isaac
isahe
isaherra
isahuuno
isaja
isaku
isal
isalo
isama
isamaa
isan
isaportaal
isaportaalin
isaportaalist
isaq
isas
isast
isasu
isat
isbn
ise
isi
isido
isiga
isigaq
isil
isildo
isile
isilo
isilt
isin
isiq
isis
isist
isit
iskna
isku
islam
islamabad
islami
islamivabariik
island
islandi
islandil
islandilo
islands
ismo
iso
issa
issn
issue
ist
ista
istaq
iste
istja
istku
istluisi
istluisil
istluso
istma
istmino
istmist
istmuudu
isto
istsuguno
istus
istuso
istva
isu
isuri
it
ita
itaalia
itaalian
itaaliast
itaq
itis
itja
itjaq
itliq
itlo
itlus
itluso
itmine
itmiso
itnuq
ito
its
itse
itses
itsme
itsmeliidsi
itsmenda
itsmeq
itsmes
itsmest
itsmevelistepa
itso
itsva
itu
itus
itvaq
iv
iva
ivama
ivan
ivaq
ivar
ivari
ivas
ivaski
ivi
ivido
ivil
ivilde
ivin
ivit
ivma
ivo
ivsaaro
ivuma
ivupuu
iwa
ix
iz
j
ja
jaagupi
jaak
jaama
jaamamo
jaan
jaani
jaanima
jaanimo
jaanipa
jaanitaro
jaanuar
jaanus
jaapan
jaapani
jaapanin
jacob
jacques
jada
jae
jaet
jaetas
jaeti
jaga
jagaja
jagamino
jagamiso
jaggo
jagi
jago
jagoarv
jagoarvo
jagoarvoq
jagono
jagosi
jahipida
jahuma
jaigi
jaik
jakapa
jakapi
jakaq
jakas
jakk
jakko
jakku
jako
jakob
jakobi
jakobilo
jakobsoni
jaku
jakuso
jala
jalaga
jalaka
jalaq
jalava
jalavarro
jalg
jalga
jalgo
jalgpall
jalgpalli
jalgpallima
jallai
jalmar
jamaica
james
jan
jane
janek
jani
janika
janka
jantra
jao
jaol
jaoldo
jaolt
jaon
jaoq
jaos
jaost
jaoto
jaq
jas
jast
jat
jaugamo
jauha
jauho
jazz
je
jean
jeemeni
jeesus
jeesuso
jeful
jide
jido
jil
jile
jilo
jim
jist
jit
jj
jjo
jm
jms
jne
jo
joachim
joba
jobs
joe
johan
johann
johanna
johannes
johannese
johanni
johanno
johanson
johansoni
john
johni
joht
johtumiso
jondo
jooga
joon
joono
joora
joosep
joosi
jooso
joosu
joosul
joq
jordaania
jordan
jordani
jos
jose
joseph
joud
joudnuq
joudo
joudso
joudu
joulukuu
joulukuul
joulukuun
joulukuust
joulupu
joulupuulpa
journal
jouso
jovvaq
jovviq
jovvu
jovvulidso
jpm
jt
ju
juba
jugoslaavia
jugu
juhan
juhani
juhat
juhataja
juhatajas
juhatas
juhatuso
juhi
juhiq
juhis
juhit
juho
juht
juhtmiso
juhtmo
juhto
juhtu
juhtus
juhul
juki
julgo
julia
juliane
julius
jumal
jumala
jumalanna
jumalat
jumalateenistu
jumalido
jumalik
jumalus
jummal
juraski
juri
juriidilidso
jurist
jussi
just
justus
jut
juto
jutt
jutto
juttu
jutu
jutud
jutuga
jutuisi
jutuko
jutuq
jutuso
jutussit
juu
juubo
juudama
juudas
juudi
juudiq
juuk
juuki
juulama
juuli
juuma
juun
juuni
juur
juurde
juure
juuri
juuriga
juuro
juuru
juusk
juuskma
juusko
juuskvaq
juuta
juuto
juvvaq
juvvas
k
ka
kaagja
kaagri
kaagu
kaal
kaala
kaald
kaaldvaq
kaalepi
kaamnitsa
kaamo
kaar
kaara
kaarama
kaarataudsa
kaardi
kaarel
kaarli
kaarma
kaaro
kaarsild
kaart
kaarto
kaas
kaasani
kaaso
kabo
kadaja
kadajama
kadastma
kadi
kado
kadri
kadrina
kae
kaejit
kaema
kaeman
kaemino
kaemiso
kaemist
kaemistorn
kaeq
kaes
kaet
kaeti
kafka
kah
kahe
kahjolik
kahkva
kahr
kahrila
kahro
kahru
kahruma
kahruvabarn
kahuski
kai
kaia
kaiaq
kaias
kaibo
kaido
kaidso
kaika
kaikal
kaikki
kaio
kaiq
kaisa
kait
kaits
kaitsa
kaitsaq
kaitse
kaitsja
kaitsma
kaitsmino
kaitsmiso
kaitsmist
kaitso
kaivandu
kaivo
kaja
kajakallas
kakko
kako
kaks
kaku
kakuma
kala
kalaja
kalamiis
kalapu
kalaq
kalatiik
kalda
kaldalo
kaldma
kaldo
kaldu
kalender
kalendri
kalev
kalevala
kalevi
kaliif
kalju
kaljulaid
kaljulaiu
kalkun
kalkuna
kalkuni
kalla
kallalo
kallas
kallaso
kallasto
kalle
kallendri
kalli
kallimb
kallio
kallis
kallo
kallost
kalm
kalmama
kalmistu
kalmo
kalmu
kalmuaian
kalmuaid
kalmuaida
kalmus
kalmusso
kalo
kaloga
kaluka
kama
kamassi
kambja
kambodz
kambro
kamja
kamm
kammo
kamo
kana
kanada
kanadan
kanadas
kanariguma
kanariku
kanarikuma
kanassaaro
kand
kandaq
kandas
kandi
kandidaadis
kandidaat
kandilidso
kandin
kandist
kandja
kandjat
kandlo
kandma
kandmino
kandsi
kandsima
kandso
kandvaq
kanepi
kanepin
kanepist
kanepma
kango
kangro
kanjon
kanjoni
kannahtaq
kannahtas
kannahtuso
kannap
kannel
kanni
kanno
kannu
kannuma
kant
kanti
kants
kantsi
kaolt
kaonu
kaonuq
kaot
kaotanuq
kaoto
kaotsihe
kaotuisi
kaplinski
kapo
kapto
kaq
kar
karabahhi
karadsima
karas
karaski
kargaq
kari
kariibi
karilatsi
karim
karis
kariso
karisso
karja
karjala
karksi
karl
karla
karli
karmos
karpaadi
karsti
karu
karula
karuse
karv
karva
karvano
karvaq
kas
kasagu
kasak
kasaritsa
kasastani
kaseti
kask
kaso
kaspia
kass
kassi
kassilaano
kassima
kassu
kassuq
kassuubi
kasto
kasu
kasuma
kasumiso
kasunu
kasunuq
kasuq
kasus
kasuso
kasusso
kasutas
kasuto
kasv
kasvai
kasvanduma
kasvatamiso
kasvato
kasvatuso
kasvi
kasviq
kasvo
kasvoq
kasvosu
kaswap
katai
katalaani
katar
katari
katariina
kati
katiidri
kato
katoligu
katri
katripa
kats
katsa
katsas
katsikvabahelle
katsikvabahellu
katsikvabahelu
katsk
katski
katsku
katso
katsto
katt
katto
katus
katuso
katusso
katvaq
kauba
kaubandus
kaubanduso
kaubatii
kaubo
kaudo
kaudu
kaugo
kaugu
kaukaasia
kaukaasian
kauksi
kaupa
kauplo
kaupmiis
kaupo
kaussja
kauzmanni
kava
kavadi
kavastu
kavva
kavvo
kavvuso
kd
ke
keda
keebi
keegi
keel
keele
keeleala
keelega
keelegaq
keeleh
keelekujo
keelel
keelele
keelemiis
keelen
keelepa
keelepesa
keelepruugin
keeleq
keeleru
keeles
keelesaaro
keelesaartest
keelest
keelestandardi
keelet
keeleti
keeletiidla
keeletiidu
keeli
keelidse
keelil
keelile
keelin
keeline
keelis
keelist
keelt
keema
keemia
keemik
keemilidse
keemiliidsi
keemiline
keerolidso
keha
kehra
kehtima
kehv
kehva
kehvemba
keila
keisri
keisrinna
keisririigi
keisririik
kel
kelba
keldi
keldre
keldrema
keldrima
keldu
kell
kella
kelle
kellel
ken
kene
kenya
keq
ker
kera
keraamiga
kerdi
kerekunnu
keres
kerese
kerge
kergehe
kergemb
kergemba
kerigu
keriguma
kerigumo
keriguopo
keriguq
kerik
kerikma
kerikuku
kerikuma
kerikun
kerikut
kerikutsi
kerko
kerkohe
kerkoma
kerkomo
kerkon
kerkoopo
kersna
kersti
kes
kese
keseq
keses
keset
kesev
kesk
keskaigno
keskaigso
keskao
keskaol
keskaost
keskel
kesken
keskera
keskest
keskjaon
keskjoosul
keskkooli
keskkoolin
keskkunnan
keskkuul
keskkuuli
keskliina
keskliinan
keskma
keskmaa
keskosa
keskosan
keskpa
keskpaigan
keskpaigas
keskpaigast
keskpank
keskso
kesku
keskus
keskuso
keskval
keskvo
kest
kesta
keste
kestel
kestnu
keti
kett
kev
keva
kevva
kg
kgb
khaan
khaani
khaaniriigi
khaaniriik
khalifa
khk
ki
kia
kibo
kido
kiga
kige
kiha
kihelkond
kihelkonna
kihelkonnan
kihlkund
kihlkunda
kihlkundo
kihlkunna
kihlkunnah
kihlkunnakooli
kihlkunnakuul
kihlkunnan
kihlkunnaq
kihlkunnast
kihnu
kiht
kiidi
kiiev
kiievi
kiievin
kiievit
kiik
kiil
kiild
kiilde
kiili
kiiliga
kiilihe
kiilin
kiilkunna
kiilne
kiilt
kiiora
kiiova
kiirdo
kiisa
kiiviti
kik
kikas
kikati
kikka
kikkakunt
kikkama
kikkaoja
kikkaseene
kikkasiin
kikkasiini
kil
kildama
kildinisaami
kilingi
kilka
killo
kilogrammi
kilomani
kilomiitre
kilomiitret
kilomiitri
kilomiitrit
kiltmaa
kiltre
kiltsi
kima
kimalaso
kimma
kimmu
kin
kind
kindlalo
kindral
kindralkupo
kindralmajor
king
kingdom
kingitu
kini
kink
kinka
kinkal
kinkalo
kinkaq
kinkast
kinni
kinniline
kinnine
kinnipida
kinniq
kinniqpida
kinnu
kino
kioma
kipo
kiq
kira
kirbla
kirbu
kireka
kirepi
kirga
kiri
kiribati
kirik
kiriku
kiristaja
kiriva
kirja
kirjakeele
kirjallisuuden
kirjandus
kirjapandmino
kirjastus
kirjeldus
kirjo
kirmas
kirmsi
kirodiq
kirot
kirotadas
kirotaja
kirotama
kirotamiso
kirotamist
kirotanu
kirotanuq
kirotaq
kirotas
kirotaso
kiroto
kirotuisi
kirotus
kirotuso
kirrik
kirriv
kirrumpa
kirsi
kirss
kirvo
kis
kisk
kiso
kist
kit
kita
kitarr
kiti
kitra
kitrat
kitsa
kitsas
kitso
kitta
kittsi
kitu
kiuduto
kiuma
kiumamo
kivestma
kivestu
kivi
kiviao
kiviaost
kivija
kivikalmo
kiviku
kivima
kivimu
kiviniidu
kivio
kivioja
kiviora
kivipuravik
kiviq
kivira
kivisild
kivist
kivitii
kivitu
kivve
kjamuni
kk
kka
kke
kki
kko
kku
kl
klaas
klaasi
klahvpilliq
klass
klassi
klassigalidso
klassikalidso
klassikalist
klassilidso
klassilino
klavo
klavvo
kli
kliima
klo
klopeedia
klopeediakirjastus
klubi
kluustro
km
kma
ko
kobo
koda
kodanik
kodanikko
kodavere
kodo
kodoela
kodoella
kodoja
kodolehe
kodoleheku
kodoleht
kodolugu
kodomaa
kodooppaja
kodorott
kodoso
kodosto
kodouurja
kodu
koduleht
koemo
koer
koeru
kogo
kogodus
kogoduso
kogohus
kogohuso
kogomik
kogon
kogonduso
kogoni
kogost
kogro
koguva
koh
kohanimed
kohe
kohegi
kohendatud
kohes
kohetuso
kohila
kohn
kohtla
kohtu
kohtumo
kohtun
kohus
kohust
kohv
kohvi
kohvik
koidula
koigo
koigu
koikku
koiku
koiola
koiolaku
koiolan
koit
koiva
kokko
kokkoko
kokkolugo
kokkopandmiso
kokkosa
kokkotulo
kokku
koko
kokri
kol
kolepi
kolereinu
kolga
kolhoosi
koli
kolinuq
kolisi
koliti
kolk
koll
kolledz
kollo
kolm
kolmanda
kolmandan
kolmandat
kolmandik
kolmapa
kolmas
kolme
kolmiku
kolmnuka
kolmo
kolo
kolodavitsa
kolodsi
koloogia
koloogiat
koloonia
kolooniaq
kolovere
kolski
koltasaami
koluug
koma
komaga
komando
kombido
kombit
kombo
komi
komisjoni
komitee
komma
kommisjoni
kommo
kommunismi
kommunistligu
kommunisto
kommuuna
komo
kompanii
kompleksarvo
kon
kong
kongi
kongo
kongressi
konnu
konnula
konso
konstant
kont
kontekstin
kontrabass
kontroll
kontrolli
kontrollikua
kontso
konvo
koobama
koobassaaro
koodima
koodivaihtuso
koogi
kool
kooldaq
kooli
koolih
koolijuhataja
koolijuht
koolilatsi
koolilatso
koolilo
koolima
koolimaja
koolimajan
koolimiis
koolin
koolina
koolioppus
kooliq
kooliraamat
kooliraamatido
kooliraamatit
koolist
koolitaro
koolito
koolitu
koolituso
koolivahtso
koolm
koolmeister
koolnuido
koolnuq
koolo
kooluq
kooni
kooniq
koonusso
koorasto
koordinaadiq
koorijuht
kooro
koorti
koos
koosseis
koplima
kopo
kor
kord
korea
korean
korgo
korguno
korgus
korguso
korgust
korgustigu
korgustigul
korgusvaih
korgutso
korjaja
korjama
korjamino
korjamiso
korneti
kornetin
kornidsa
koro
koroli
korrapa
kortin
kortostani
korvi
korvpall
kos
kose
kosilaso
koso
kosovo
kost
kostabi
kostu
koti
kotka
koto
kotoh
koton
kotsalo
kotsil
kotsilo
kottal
kottalo
kotun
kotus
kotuso
kotussido
kotussin
kotussit
kotusso
kotust
kpilliq
kra
kraadi
kraam
kraami
kraasna
kraat
kraati
kraato
kraav
kraavi
kraavima
krabi
krahvkund
krai
krats
kreeka
kreekan
kreiskoolin
kreutzwald
kreutzwaldi
kriguli
kriis
kriisa
kriisi
kriistaq
kriitik
krikmanni
krimm
krimmi
krista
kristiina
kristjan
kro
krooni
kroonikogo
kroonumo
krossi
kru
kruts
kruudu
kruuni
kruusi
kruut
kruuta
kruutkilomiitrit
kruutuso
kruutvormo
ks
ksi
ksne
kto
ku
kua
kuakundlaso
kuama
kuan
kubija
kubo
kudo
kudu
kuh
kui
kuidas
kuigi
kuigimuudu
kuigiq
kuigivo
kuiki
kuikiq
kuikli
kuimuudu
kuio
kuionu
kuis
kuiss
kuitas
kuiv
kuivo
kujjo
kujo
kujoga
kujogaq
kujoko
kujol
kujolino
kujono
kujonuq
kujoq
kujoragoja
kujosi
kujotas
kujoto
kuju
kuklaso
kuko
kuksi
kuku
kukuma
kul
kuld
kuldhordi
kuldmeda
kuldne
kuldnokaq
kuldnokk
kuldnokko
kuldri
kuldso
kull
kulla
kullama
kullamaa
kulli
kullo
kullu
kulo
kultuur
kultuuri
kultuuriakadeemia
kultuurikandja
kultuurikeskus
kultuurikeskuso
kultuurilidso
kultuurilino
kultuurima
kultuurimaja
kultuurimajan
kultuuriministri
kultuurin
kultuuripa
kultuuriprogramm
kultuurist
kultuuritegela
kultuuriuuringido
kultuuriuurmiisi
kultuurkapitali
kultuuro
kumb
kumbe
kumbo
kumma
kummagi
kummalgi
kummo
kummutuso
kumo
kun
kuna
kunagi
kunagidso
kunagiq
kund
kunda
kundo
kundsa
kunguso
kuni
kuniga
kunigriigipa
kuning
kuninga
kuningaima
kuningalo
kuninganna
kuningas
kuninglidso
kuningriigi
kuningriik
kunksilla
kunn
kunna
kunnaland
kunnaq
kunnas
kunnaso
kunnima
kunno
kunnuma
kunst
kunsti
kunstiakadeemia
kunstiaoluulano
kunstikuul
kunstimuuso
kunstin
kunstioppaja
kunstist
kunstnik
kunstnikko
kunsto
kunt
kunto
kuntpuu
kuopio
kuopion
kupall
kuperjanovi
kupo
kuq
kur
kura
kuramaa
kuramaal
kuraperve
kurdiq
kurdo
kuressaare
kurg
kurgja
kurgupeethellu
kurgupeethelu
kurguso
kuri
kuritso
kurja
kurk
kurku
kuro
kursi
kursuisi
kursuso
kurt
kurto
kuruski
kurvitsa
kusi
kusk
kuslapuu
kusma
kuso
kust
kusta
kuts
kutsiq
kutsma
kutsnuq
kutso
kutstas
kutsuq
kutsut
kutsutas
kutsutaso
kutsuti
kutsvaq
kuu
kuuba
kuud
kuuda
kuudsi
kuuga
kuuh
kuuk
kuuki
kuul
kuuld
kuuldaq
kuuldmino
kuuldmiso
kuuli
kuuliq
kuulma
kuulmeistre
kuulmeistri
kuulmeistriq
kuulmino
kuulmiso
kuulmist
kuulnuido
kuulo
kuulsa
kuulsamb
kuulsambaq
kuulsambit
kuulsampi
kuulsaq
kuulsas
kuulsat
kuulsuso
kuulu
kuuluma
kuuluq
kuulus
kuuluso
kuulusso
kuulut
kuulutaq
kuulutas
kuuluto
kuulutus
kuuluv
kuuluvaq
kuum
kuuma
kuumaq
kuun
kuunko
kuunolo
kuunsaiso
kuunsaison
kuunsaisun
kuuntu
kuup
kuupa
kuupo
kuur
kuura
kuus
kuusalu
kuusiku
kuuso
kuust
kuusto
kuustus
kuustuso
kuuugo
kuveidi
kuvvo
kv
kva
kvalt
kveeni
kygo
kyik
kylaleht
kyno
kyo
l
la
laadoga
laadu
laan
laano
laat
laato
laatro
laatu
labajalavalss
labo
ladina
ladinakeelitsest
laemb
laembalt
laemban
laembas
lag
lagi
lagja
lagono
lah
lahe
laheda
lahendamiso
lahendit
lahenguq
lahing
lahingu
lahki
lahkin
lahko
lahku
laho
lahoku
lahotas
lahoti
lahoto
laht
lahto
laid
laido
laidoner
laihja
lainat
laine
laino
lainso
laisi
laisk
laitsna
laiuse
laiuso
laiv
laiva
laivastigu
laivastik
laivo
laja
lajalt
lajaq
lajembalt
lajemban
lajo
lajos
lakja
lakjus
lakjuso
lakk
lako
lakovitsa
lalli
lamba
lambahanna
lambit
lammas
lammo
lan
lana
land
landesveer
landesveeri
landeswehri
lang
langenu
lango
language
languages
lanka
lanna
lannamo
lannuma
lano
lao
laos
laoso
laossaaro
laoto
lapa
lapi
lapjo
laps
larka
larry
las
lasidsa
lasiq
lasits
lask
laskmino
lasko
laso
last
lastas
laste
lasti
lasto
lasva
latgale
latgalen
latgali
latik
lats
latse
latsi
latsiaid
latsiga
latsikira
latsikodo
latsikoolitus
latsil
latsilo
latsiprogramm
latsivano
latso
lattigu
lattiku
laube
laud
laude
laudsi
lauga
laugama
laugo
laul
laula
laulami
lauldaq
laulik
laulja
lauljaq
laulma
laulmino
laulmiso
laulnuq
laulo
laulu
laulud
lauluga
lauluima
laulukirotaja
laululava
laululaval
lauluoppaja
laulupido
lauluq
lauluso
lauluvo
laulvaq
laura
lauri
lauridsa
laurima
laurits
lauso
laut
lava
lavastaja
lavva
lavvama
lavvaq
lawrence
lba
lbas
lbi
ld
lda
ldaq
ldas
ldav
lde
ldeitu
ldi
ldma
ldno
ldo
ldre
ldri
ldso
ldu
lduq
le
lea
learvo
lech
ledse
leedu
leedulaisi
leedun
leelo
leena
leerima
leesikma
leete
leeva
leevaku
leevi
lega
legend
legendi
lehe
leheku
lehekuu
lehekuud
lehekuul
lehekuun
lehel
lehemiis
lehen
lehepuu
leheq
lehhe
lehm
lehma
lehmi
lehmima
leht
lehta
lehte
lehti
lehtsalu
lehtu
lei
leib
leiba
leibnizi
leida
leili
leilmalidso
leima
leina
leipzigi
leiq
leisi
leiso
leitna
leivu
leja
lejo
leka
lekaehus
leksikon
lella
lema
lemb
lemba
lembit
lembitu
lembjuhataja
lemboppaja
lembsoots
lembsootska
lembsorbi
leminek
leminekit
lemma
len
lena
lendedi
lene
leningradi
lenini
lennart
lenzi
leo
leoki
leonardo
leone
leonhard
leopold
leoski
lepa
lepeq
lepiku
leping
lepingu
lepingut
lepinguvastalino
lepistu
lepp
lepu
leq
les
lesandit
lesando
lesanno
lesastmino
leskutso
lesno
lesotho
lespoolo
lessulut
lest
lesta
lestusi
lesvo
let
leta
letu
letung
letungi
letungilo
lev
leva
levinu
levisi
lg
lga
lgasto
lge
lgenakkaja
lgi
lgit
lgma
lgo
lgroodso
lgroodsoga
lgu
lguso
lh
lhulgan
li
liam
libeeria
liber
lidse
lidselt
lidseq
lidso
life
liga
ligemb
ligemba
light
ligi
ligida
ligult
liha
lihavo
lihha
liht
lihtensteini
lihtminnevaig
lihtsa
lihula
liibanoni
liibu
liido
liidon
liidost
liidsi
liidu
liig
liiga
liigaastagal
liigi
liigo
liigu
liigus
liigutaq
liiguto
liik
liike
liiki
liikja
liikma
liikmido
liikmino
liikmise
liikmiso
liikmist
liikmit
liikmo
liiku
liikuq
liimetsa
liin
liina
liinakooli
liinakuul
liinal
liinalo
liinama
liinamo
liinamu
liinan
liinao
liinaosa
liinapa
liinaq
liinas
liinast
liinatiatri
liinats
liinavalitsuso
liinavolikogo
liinja
liino
liinon
liinu
liis
liisa
liise
liisi
liisken
liismiti
liiso
liit
liito
liitrit
liitu
liitva
liitvabariik
liiv
liiva
liivaja
liivakma
liivakupalu
liivama
liivano
liivi
liivimaa
liivimaal
liivlaisi
liivlaso
lik
like
liko
likool
likooli
likooliliin
likoolin
likooliq
likoolis
likoolist
likoolo
likult
likuul
likuuli
likuulo
lill
lille
lilli
lim
lima
lin
lina
linaja
linask
lind
linda
lindamiso
lindas
lindora
lindoravaq
lindoravit
lindorrav
lindstro
line
linguistic
linguistics
linn
linna
linnaja
linnas
linnasja
linnuk
linnuva
lino
lins
linte
liopilaisi
liopilano
liopilaso
liopilast
lipa
lipo
lipp
lippu
lipu
lipuma
lipuq
lipus
lipuu
liq
lis
lisa
lisas
liseq
lisministri
liso
lisrahvas
lissabon
lissaboni
list
listaku
lit
litside
litsido
litsit
litsmo
litso
litteraria
little
liuhka
live
livo
liwlandi
lja
ljo
lk
lka
lke
lki
lkiq
lkira
lkiri
lkja
lko
ll
lla
lladso
llakas
llama
llano
llaq
llatsido
llatso
lle
llema
llen
lleri
lli
llisto
llo
llu
llumajanduso
llumajandustiidla
llumiis
llutu
lm
lma
lmemba
lmit
lmiti
lmo
lmsuut
lne
lnu
lnuq
lo
lobiso
lodi
loe
loeng
loengido
loengit
loengu
loenguq
loeq
loet
loetas
loeti
lohk
lohko
lohoma
lohusuu
loko
loll
lome
lomp
london
londoni
londonin
loni
loodo
loodus
looduso
loogama
loogiga
looja
loom
looming
loomingu
loomingulidso
loomingun
loomingut
loomo
loomuligu
loomuligult
loomulik
loomupera
loonasu
loonia
loonian
loonuq
loosi
loosu
loovaq
lord
lordi
los
loser
loss
lossi
lotte
louhimies
louis
love
lp
lpuul
lq
lsaman
lse
lss
lssi
lt
ltre
ltri
ltsamaa
ltus
ltuvuso
lu
luba
lubasi
lubat
lubati
lubjama
lublini
lucia
ludvig
ludwig
luggemisse
lugi
lugo
lugu
luhamaa
luhamo
luhasuu
luhta
luhto
luid
luiga
luigi
luio
luisi
luko
lukso
luku
lumbiq
lumi
lummo
lumo
lump
lund
lupa
lupaq
lus
lusma
luso
lust
lusti
lustima
lutheri
lutika
luto
lutsi
lutsu
luu
luud
luudi
luudu
luuduq
luudus
luuduskaitso
luuduslidso
luudusligult
luuduslino
luuduso
luudusopo
luudust
luudustiidla
luudustiidu
luuga
luuja
luujas
luujit
luukaso
luulajasaami
luule
luulo
luum
luuma
luumino
luumiso
luumist
luunja
luunjan
luuq
luuro
luuska
luust
luustoja
luut
luutsinapa
luutsniku
luutso
luutuso
luuva
luuvili
luvvaq
lv
lva
lvahe
lvamaa
lvan
lvast
lve
lvivi
lvo
ly
m
ma
maa
maad
maadlo
maaga
maaha
maahha
maaija
maailm
maailma
maailmakira
maailmameistre
maailmameistrevo
maailmameistrivo
maailman
maailmapera
maailmast
maaja
maakera
maakooro
maakund
maakunda
maakundo
maakunna
maakunnan
maakunnapiire
maakunnaq
maakunnas
maakunnast
maal
maale
maaleht
maali
maalikunstnik
maalo
maalt
maamo
maan
maano
maantii
maapa
maaq
maar
maarahva
maarahvas
maardu
maaritsan
maarja
maarjapa
maas
maasik
maasikama
maasikma
maast
maastigukaitso
maateaduslik
maatiga
maatigan
maatigatiidu
maatiidu
maatik
maatikan
maatikast
maatikat
maatikido
maatikilo
maatikus
maatilidso
maatiliidsi
maatilino
maatu
maau
maausk
maava
maavalla
macbeth
madagaskar
madagaskari
madala
madalamb
madalaq
madaq
madis
madise
madiso
madisso
madsa
magama
magdaleena
magno
magnus
magnuso
mago
mah
maha
mahaq
mahlakuu
mahlakuun
mahlama
maht
mahtja
mai
maia
maid
maigu
maiguga
maik
mail
main
maio
maiso
maiste
mait
maitsmiso
maitso
maja
majako
majala
majan
majandus
majanduslidso
majanduso
majandusteaduskond
majandustiidla
majandustiidu
majandusu
majapida
majaq
majja
majjai
majjo
major
maka
makas
mako
maksab
mal
malaisia
malawi
malda
maldaq
mali
mall
malle
mallika
malo
malta
mamasto
mammama
man
mandela
mandoliin
mango
manifest
mannheimi
manni
mano
manolo
manoq
mansi
mansiq
manso
mant
manu
manuq
mao
maon
maoori
maq
mar
maradona
maranama
mare
margi
margus
mari
maria
marie
mariko
marilyn
marima
marimaa
marino
marja
marjama
marjo
marju
mark
marko
markus
markuso
maroko
marpurg
marpurgi
marshalli
mart
marti
martin
martini
martna
maru
marxi
mary
mas
masingu
masma
mass
massa
massaq
massin
massinit
massma
masso
massuq
mast
masto
mata
matal
mateeria
matemaatiline
mathbb
mathcal
mathilde
mati
matima
matk
matka
matkapa
mato
mats
matsi
matsima
matt
matteus
matteuso
matthissoni
mattias
mattissoni
matu
matusma
matuso
matusso
mauri
mauritaania
mauritiuso
max
mb
mba
mbahe
mbal
mbalo
mbalt
mbamiso
mban
mbaq
mbas
mbast
mbat
mbide
mbido
mbihe
mbil
mbilo
mbin
mbist
mbit
mbjaolt
mbla
mbol
mbolido
mboliq
mbolis
mbre
mbreko
mbrekunna
mbrepandja
mbrepandmiso
mbretegemist
mbretso
mbru
mbu
mburk
mbva
me
mea
meda
media
meditsiini
meedia
meegoma
meeldivad
meele
meelega
meelen
meelest
meelika
meeliku
meelis
meelu
meemasku
meemi
meenikunno
meerapalo
mees
meetodi
meetodit
mehaaniga
mehe
mehele
meheq
mehest
mehhigo
mehhiko
mehhikon
mehikuurma
mehila
mehka
mehmed
mehu
meid
meie
meije
meiji
meil
meile
meinhard
meist
meistre
meistreq
meistrevo
meistri
meka
melkor
meltssaaro
memoriae
men
menuid
mera
merca
merd
merde
mere
merel
merema
meremaa
meremaal
meren
mereni
merepinna
merepinnast
mereso
merest
mereva
meri
merilai
merle
mes
mesopotaamia
messi
mest
metacritic
metafu
metal
metali
metalist
mets
metsa
metslang
mezo
með
mi
mia
miaq
michael
michelangelo
microsoft
mid
mida
midagi
middendorffi
mido
midselt
mie
migu
mihe
mihele
miheq
mihhail
mihkel
mihkli
mihklipa
mii
miiasto
miid
miihi
miikse
miiksi
miil
miilde
miildu
miilima
miilt
miilva
miim
miina
miiq
miis
miisi
miisist
miist
miitre
miitret
miitri
miitrit
mik
mike
mikila
mikita
mikk
miko
mikroneesia
miks
miku
mikuma
mil
miljoni
miljonit
mill
mille
milvi
min
mina
mind
minda
mine
minek
minekit
minema
mineq
mineraal
mineraaliq
mineraalo
mineva
minevigu
minga
ministeeriu
ministre
ministri
ministriq
mink
minka
minkaga
minkagi
minkal
minkalo
minkan
minkaq
minkas
minkast
minkpera
minna
minnen
minnevaig
minnevao
minno
mino
minotit
minti
minu
miq
miranda
mirbeau
mis
misaig
misaol
mise
misega
misel
misele
misen
miseq
mises
misest
miskeskus
miskolci
miso
misoppaja
miss
misso
mist
misto
misu
mit
mita
miti
mitmido
mitmin
mitmit
mitmo
mitmus
mitmuso
mitmust
mito
mitond
mitte
mitteammo
mitteta
mittetu
mittetulosaamisu
mitu
mitund
mitusada
mkoti
mm
mma
mmas
mmatas
mmati
mme
mmekund
mmemb
mmend
mmer
mmeri
mmi
mmind
mmista
mmo
mmu
mn
mnaasium
mnaasiumi
mnaasiumin
mnaasiummi
mne
mnenda
mnendsu
mnes
mnest
mnil
mnit
mo
mod
modell
mohni
moires
moks
moksa
moldova
molo
molohk
molohka
monaco
monarhia
monarkia
mongoli
mongoliq
mongoolia
monster
monsterman
monto
monument
monzo
mood
moodor
moodu
moodus
moodustas
moodustaso
moodusto
moonama
moorama
moorima
mooso
mooste
moosto
mordva
moritz
moro
mortimer
mos
moskva
moskvan
moslo
moto
mount
moz
mozart
mozarti
mp
mpa
mpi
mpia
mpiama
mr
mri
mrimaa
mrimaal
mtu
mu
mua
muadso
muama
muano
muaobono
mud
mudaja
mudaku
mudsu
muduri
muguq
muhamediuso
muhammad
muhkamo
muhu
muhumaa
muhun
muial
muialo
muialt
muid
muido
muidoki
muidu
muil
muin
muinas
muinasao
muinastalo
muino
muinsuskaitso
muio
muisi
muiso
muist
muistidso
muistino
muistitso
muisto
mujjal
mul
mulda
mulgi
mulgimaa
mulgimaal
mulk
mulku
mulla
mulle
mullo
muna
munama
munapu
munaq
munast
mungaq
munna
munno
muno
muq
murakami
muraski
murati
murd
murde
murded
murdido
murdist
murdit
murdja
murdo
murima
muro
murrak
murro
murru
mus
music
muskli
musklido
muskliq
muso
must
musta
mustahamba
mustaja
mustajo
mustama
mustaq
mustas
mustastja
mustela
mustikma
mustima
mustja
mustjala
mustjo
mustla
mustlaisi
mustlaskiil
mustlaso
mustoja
mustuja
mutik
muto
mutsu
mutugaq
muu
muud
muudku
muudo
muudsa
muudu
muuhulgan
muuk
muuq
muuseum
muusia
muusiga
muusigakooli
muusigakuul
muusigamiis
muusigaoppaja
muusigat
muusik
muusika
muusikast
muusikat
muusikido
muuso
muust
muut
muuta
muutaq
muutmino
muutmiso
muutu
muutudaq
muutuisi
muutuja
muutumino
muutunuq
muutuq
muutus
muutuso
muutuvaq
my
myni
n
na
naabriq
naadaq
naano
naanuq
naapka
naaq
naas
naaso
naat
naata
naati
naba
nad
naftat
naga
nagelmaa
nago
nagu
nagy
naha
nahaga
nahk
nahka
nahtsipa
naid
naido
nail
nailo
nain
naine
naisaokira
naisi
naisipa
naissoo
naist
naista
naisto
najalg
nak
naka
nakanuq
nakas
nakati
nakka
nakkama
nakkas
nakkaso
nakrima
naksi
naksiq
naksitralliq
naksivaq
nal
nalja
nall
nalo
namiibia
namuudo
namuutmissu
nan
nanomiitret
naon
napa
napoleon
napoleoni
napoli
naq
naraamadu
naraamat
naraamatun
narodny
naruskiku
narva
narvan
narvast
narvat
nasa
naso
nast
nastia
nastik
nastu
national
nations
nato
natu
naturaalarv
naturaalarvo
nauru
nava
navara
navaraoppus
navarra
navi
navitroll
navitrolla
navormo
nchenin
ncipe
nd
nda
ndaja
ndal
ndama
ndamino
ndamiso
ndamist
ndanuq
ndaq
ndas
nde
ndi
ndide
ndido
ndiku
ndil
ndimaal
ndin
ndinud
ndiq
ndist
ndit
ndki
ndlepa
ndma
ndmine
ndmu
ndo
ndra
ndri
ndrott
ndsa
ndse
ndseq
ndsi
ndu
nduisi
ndus
ndusma
nduso
ndust
ne
need
neeger
neenedsi
neesia
negatiivso
negi
negro
neh
neid
neide
neioko
neissari
neist
neitsu
nela
nele
neli
nelipu
nelja
nella
nelli
nelson
nema
nemaa
nemaal
nemma
nen
nende
neoq
nepal
nepali
neq
nes
nesama
nese
neseq
nesma
nesse
nessema
nessu
nest
nestki
net
neta
network
neu
never
nevise
new
newell
news
newton
newtoni
ng
nga
nge
ngeq
ngi
ngido
ngiga
ngiq
ngit
ngita
ngiti
ngja
ngma
ngmine
ngmises
ngnu
ngo
ngon
ngoq
ngsepa
ngu
nguga
ngun
ngut
nguto
ngutoro
ngva
nha
ni
nia
nic
nicaragua
nicht
nicolas
nicole
nido
nietzsche
nige
nigeeria
nigeri
nigest
night
nigle
nigo
nigu
nigula
niguq
nii
niidu
niikavva
niimuudu
niinimetet
niinimitet
niinisto
niipall
niisama
niisamato
niit
niivo
nik
nika
nikaguq
nike
nikest
nikke
nikko
nikkonnast
nikku
nikkunnast
niko
nikolai
nila
nilbo
nima
nimaa
nime
nimega
nimegaq
nimeka
nimekira
nimekiri
nimekirja
nimel
nimelidse
nimeline
nimelt
nimeq
nimes
nimest
nimeta
nimeteda
nimetedi
nimetediq
nimetet
nimetu
nimi
nimiso
nimistu
nimit
nimita
nimiteda
nimitedi
nimitediq
nimitet
nimiteta
nimitu
nimmada
nimmas
nimmat
nimmatas
nimmati
nimme
nimmi
nimmiraamat
nimmist
nimo
nin
ning
nink
ninn
nipernaadi
niq
nis
nisada
nisama
nisja
nisma
nissi
nissoni
nist
nisto
nit
niue
nivalis
nk
nka
nkieli
nkoolin
nmaa
nmeren
nn
nna
nnal
nnap
nne
nni
nnipa
nnist
nno
nnoga
nnon
nnost
nnu
no
noarootsi
nobeli
nogo
nogu
nohipalo
noid
noido
noil
noilo
noin
noist
nol
non
noodasku
nool
noolo
noor
noorilo
nooro
noq
norra
norran
norrast
north
norway
nos
nost
not
nova
novaator
novelliavvohind
november
novgorodi
npida
npoolo
npuul
nr
nsi
nsv
nsvl
nt
ntaks
nthal
nthali
nti
ntse
ntsegi
ntsegiq
ntsel
ntseq
ntsestki
ntside
ntsidegi
ntsin
ntsit
ntsitki
nu
nud
nuia
nuja
nuka
nukakivi
nukan
nukk
nukko
nulga
nulgah
nulgan
nulgast
nulk
nulka
null
nummo
nupiq
nuq
nur
nurmeotsa
nurmi
nurmma
nurmo
nursi
nus
nuudlid
nuul
nuuq
nuur
nuuri
nuurivolikogo
nuurmiis
nuuruso
ny
nyt
o
obi
obinitsa
obinitsan
objekt
oblasti
oblastin
obo
obso
octave
ode
odo
odu
odysseus
odysseuse
oe
oeku
oetteli
of
office
og
oh
ohon
ohtlik
ohto
ohuko
ohvitseri
oi
oigo
oinas
ois
oisi
oja
ojala
ojari
ojja
oki
oko
oksanen
oksaneni
oktoober
oku
okupatsiooni
ol
ola
olaf
olavi
oldas
oldekopi
oldest
ole
oled
oleks
olema
olen
olev
olevat
olga
olgo
olgon
olgu
oli
olidso
olin
olko
oll
olla
ollaq
olle
olli
olliq
ollivaq
olliwa
ollo
ollus
olluso
ollussit
ollusso
olnu
olnuq
olo
oloko
olt
olu
oluko
oluq
olustvere
om
oma
omaani
omgi
omma
ommaq
ommavaq
on
ona
onat
one
oni
onit
only
ontario
onufri
oo
oodid
oodo
oodsipalo
ooilmaaigso
ooko
oon
ooni
oonilino
oonin
ooniq
oonisu
oono
oopo
ooq
oort
ooso
oost
op
opadaq
opas
opat
opatas
opati
opilaisi
opilano
opilaso
opilast
opimato
opis
opma
opmino
opmiso
opmist
opnu
opnuq
opo
opp
oppaja
oppajaq
oppajat
oppajido
oppama
oppamino
oppamiso
oppamist
oppas
oppetusse
oppi
oppiq
oppo
oppuisi
oppus
oppuso
oppust
opso
opvaq
oq
or
ora
orajo
oraso
orava
oravama
oravil
ordo
ordu
org
organ
organisats
organisatsiooni
organization
orgo
orig
originaalpa
orinoco
orionis
orkestrijuht
oro
oroma
oron
oroq
ortuma
ortusku
oru
os
osa
osaka
osakund
osakunna
osalda
osalidso
osalino
osalt
osan
osaq
osariigi
osariigin
osas
osast
osavo
oscar
osce
osjama
oskar
oskari
osmanno
oso
osola
oss
ossa
ossaq
osso
ost
osta
ostaq
ostma
osto
osula
osuu
oswald
ot
ota
otamiso
otanuq
otaq
otas
otaso
other
oti
oto
ots
otsa
otsaga
otsahn
otsan
otsaq
otsast
otsitas
otso
otsus
otsuso
otsusso
otsust
ott
otto
otuisi
otuso
ou
ougrienne
oulu
oulun
out
ov
ova
over
ovi
ovidius
ovo
oxford
p
pa
paabo
paaburissa
paadima
paali
paapua
paar
paari
paarku
paaro
paarsada
paasapa
paast
paastukuu
paavo
paavst
pablo
padari
pae
paganamaa
page
pago
pahija
pahtpa
pai
paide
paido
paidra
paiga
paigal
paigan
paiganimmi
paigapa
paigaq
paigast
paigon
paik
paika
paiko
paiku
paisja
paisto
paistu
paistus
paistuso
paiu
paju
pajusaar
pajusaaro
pajusalu
pakistan
pakistani
pakistanin
pakk
pakmiso
pako
paks
pakso
paksu
pakut
pal
palako
palama
palanduma
palanuma
palas
paldiski
palee
palestiina
palgi
palgiq
palgo
palja
palju
palk
palka
palki
palko
pall
palli
pallima
pallo
palo
palohk
palohka
paloja
paloku
paloma
palomo
paloto
paloveere
palu
paluju
paluku
paluma
paluoja
palvo
pan
panama
pand
panda
pandaq
pandas
pandi
pandja
pandma
pandmino
pandmiso
pandnu
pandnuq
pando
pandso
pandvaq
pandz
pang
panga
pangi
pankjavitsa
panko
pann
panna
panniq
pano
panso
pant
panti
pantiq
pantuq
pantus
papp
pappi
papro
paradise
paraguay
parapalo
paras
pards
pardsi
pardsilomp
pardsilump
pardsimo
parem
pargi
pargin
parhilla
parhilladso
parhillaki
parhillano
parhillaq
pari
pariis
pariisi
pariisin
parim
paris
park
parksepa
parlamendi
parlamendin
parlament
parlamentaarno
parmu
parmuma
parmupill
paro
paron
partei
partia
partsi
parvo
passima
passiq
pasteuri
pastor
pataljon
pataljoni
patarei
patrasoni
patupera
paul
pauli
paulopriit
pauluso
pausakunnu
pdf
pe
pea
peal
peda
pedagoogiga
pedagoogigatiidla
pedagoogilidso
pedaja
pedeja
peebo
peebu
peedo
peegelda
peenemb
peenu
peep
peet
peeta
peeter
peethelle
peethellu
peethelu
peeti
peetri
peetu
pega
pegaq
pegasus
pehme
pehmeh
pehmehu
pehmeja
pehmendu
pehmeq
pehmes
peipsi
peiq
peiva
peking
pekka
peko
pekot
pela
pele
pelga
peline
pelli
pelska
penda
penni
pensionilo
peo
peopesa
people
pera
perda
pere
pereh
perekunna
peremehe
pereq
peri
perimu
periolo
peris
perisalambhulk
periselt
perismo
perit
peritollo
perli
permi
permikomi
pernaano
perra
perrault
perre
perrehe
perrekunda
perrekunna
perrekunnast
perrema
perremiis
perren
perrenimi
persema
perst
peru
peruu
perve
perveq
pesa
pess
pessa
pesti
peta
petab
peter
peterburgin
peterburi
peterburin
peterburki
peterson
petersoni
petri
petrogradi
pets
petsere
petseri
petserimaa
pettai
petus
phil
philip
philipp
philologiae
php
pi
pia
piaaigo
piaaigu
pida
pidada
pidi
pidiq
pidiva
pido
pidolidso
pidolik
pierre
pihkva
pihkvahe
pihkvan
pihlama
pihlo
piho
pihta
pihtkund
pii
piibli
piigandi
piigasto
piigli
piili
piim
piima
piinu
piipsema
piir
piire
piiren
piiret
piiri
piirika
piiril
piirima
piirini
piirioja
piiriq
piiris
piirissaaro
piirist
piirivalvo
piirkund
piirkunda
piirkundlidso
piirkundliidsi
piirkundlino
piirkundo
piirkunna
piirkunnan
piirkunnaq
piirkunnast
piiroja
piiruja
piisi
piiskop
piiskopi
piiskopkunna
piitimesaami
piitre
piitrejo
piitrepa
pik
pika
pikemb
pikemba
pikk
pikka
pikki
pikkja
pikkma
pikkudso
pikkuisi
pikkuno
pikkus
pikkusastmo
pikkusasto
pikkusmo
pikkuso
pikkusvaelduso
pikligadso
piklik
pikne
piku
pil
pildi
pildiq
pilgutaja
pilistvere
pill
pillardi
pille
pilli
pillima
pillimiis
pilliq
pilt
pilte
pilti
pilv
pilvik
pilvre
pina
pind
pindala
pindalamo
pindalast
pindi
pini
piniq
pinna
pinnast
pinne
pino
pinyin
pipo
pire
pisa
pisila
pistols
pistu
pit
pita
pitchfork
pite
piteh
piten
pitka
pito
pitsita
pitsu
piusa
pl
plaadi
plaagi
plaan
plaani
plaano
plaat
plaati
plado
plaki
plaksi
planet
platon
platoni
plats
platsi
plessi
pli
pligult
ploom
ploomi
ploomipuu
plotnikova
pluum
pmalda
po
poig
poiga
poiglatsi
poigo
pois
poisiko
poisiq
poisko
poiss
poisso
poja
pojaq
pokolduva
pole
polgu
poliitiga
poliitik
poliitikat
poliitilidso
poliitiliidsi
poliitilino
poliitilist
politico
politsei
polk
polka
polkovnik
polli
polo
poloda
polu
pommidiq
pomo
pon
poni
poodi
poodiq
poodo
pool
poola
poolako
poolan
poole
poolidso
poolino
poolitso
poolo
pop
popis
popmuusiga
popmuusikat
populaarno
populaarso
population
pormeistri
port
portugal
portugali
portugalin
porvoo
pos
positiivso
position
post
posti
postimees
postimehe
postimiis
postmark
pp
ppa
ppe
ppetus
ppi
ppo
ppu
pra
praadimi
pragi
prahan
prantsusmaa
prantsusmaal
prantsusmaalo
prantsuso
preeksa
preemia
preeria
prehistoric
preisi
presidendi
presidendil
presidendis
presidendivalimiisil
president
presidenti
press
pressi
pri
prii
priinime
priinimi
priinimmi
priis
priit
prints
printsess
pritsi
prix
pro
probleeme
probleemi
productions
profesri
programm
programmi
programmo
prohvesri
prohvo
projekti
projektitiatri
pronksi
pronksiaol
proosa
proosakira
proto
protokolli
protsent
protsenti
protsesse
provindsi
provindsin
provints
provintsi
provintsin
pru
pruugin
pruugiq
pruugit
pruugita
pruugitas
pruugiti
pruuk
pruuki
pruukiq
pruukma
pruukmino
pruukmiso
pruukmist
pruukmisto
pruukvaq
pruumo
pruun
pruuniq
pruuv
pruuvo
psa
psehe
psemba
psi
pso
psu
pt
pteromys
ptruu
ptu
pu
public
pudo
pudru
puerto
puga
pugritso
puhas
puhast
puhh
puhja
puhko
puhkpilliq
puhm
puhma
puhmo
puhta
puhul
puid
puiga
puijo
puio
puja
pujaq
puka
puksovi
pul
pulga
pulk
pulko
pulli
pulst
pulsti
pun
punahain
punaku
punano
pundi
pundo
pundsa
pundsu
puni
punk
punkt
punkti
punktist
punkto
punn
pur
purka
purus
pus
puspuri
pust
putaansuu
putin
putini
puttu
putu
putus
putuso
pututamiso
puu
puud
puudus
puuduso
puul
puula
puulmo
puulo
puulpa
puulpu
puulsaar
puulsaaro
puulso
puult
puupa
puuq
puura
puuri
puurmani
puusepa
puusmo
puust
puusta
puustusma
puustuso
puut
puuti
puutli
puuto
puutri
puutrin
puutriprogramm
puutriso
puutu
puuvila
puuvili
q
qolo
queen
qırım
r
ra
raa
raadama
raadi
raadio
raadiomiis
raadion
raadiosaatit
raagi
raagsilla
raakva
raamadu
raamaduh
raamadukogo
raamadukoko
raamadun
raamadupida
raamaduq
raamadust
raamat
raamatido
raamatin
raamatit
raamatu
raamatuga
raamatun
raamatust
raamatut
raamega
raasiku
raatus
raatuso
rabama
rad
rada
radio
radokuu
radokuuni
rae
rafael
ragnar
raguli
raha
rahama
rahha
rahman
rahmani
raho
rahol
raholepu
rahu
rahulepu
rahulo
rahuma
rahva
rahvaarv
rahvaarvo
rahvaha
rahvajutto
rahvakallendri
rahvakultuuri
rahval
rahvalaul
rahvalaulo
rahvalaulu
rahvalauluq
rahvalik
rahvalo
rahvaloendus
rahvaloenduso
rahvalugo
rahvaluulo
rahvamaja
rahvamuusiga
rahvapera
rahvaq
rahvaro
rahvas
rahvast
rahvastik
rahvastiku
rahvastikunaitajad
rahvasuun
rahvatiatri
rahvavabariigi
rahvavabariik
rahvaviis
rahvido
rahvilo
rahvus
rahvuskultuuri
rahvuslidso
rahvusligu
rahvuso
rahvuspark
rahvusvaiho
rahwa
raigla
rail
raimo
raimond
raimondi
rainer
raisto
raivo
rajoon
rajooni
rajoonin
rajooniq
rajuun
raketiq
rakke
rakko
rako
rakvere
rakveren
rama
ramat
rammstein
rammuka
ramo
randa
rane
rango
ranna
rannaku
rannu
raot
raotas
raoti
rapla
raplan
rapuntsli
raq
ras
raske
raso
rasso
rast
rasva
rat
ratas
rats
ratsava
ratsionaalso
ratsiuun
ratta
rattaq
raud
rauda
raudja
raudoja
raudsaaro
raudsepa
raudsepp
raudtii
raudtiid
raudtiijaam
raudtiijaama
raudtiipia
raudtiisild
raudvasara
raukas
raul
rautina
ravitso
ravva
ravvaaig
ravvaaol
ravvast
rayyan
rba
rbaidz
rberi
rbja
rbla
rbo
rd
rda
rdamiso
rdapite
rde
rdi
rdikuu
rdil
rdima
rdimiku
rdipa
rdja
rdla
rdmine
rdmise
rdmist
rdno
rdo
rdsa
rdsi
rdsija
rdso
rdu
rdus
rdvo
re
reaalarv
reaalarvo
reaalarvoq
reba
rebane
records
red
reformats
reformiera
regi
register
registreeriti
registrin
rehekuu
rehekuul
rehekuun
rehema
rehetaro
rehkend
rehkenda
rehkendeda
rehkendu
reht
rehti
rehvormiera
reidle
reigi
reimanni
rein
reinhold
reinholdi
reinu
reise
reisi
reko
rekord
rektor
rektri
relill
remix
rene
renee
renessansi
reni
repa
repu
republic
republika
req
res
residents
resissu
rest
resto
restu
ret
return
reuters
review
revoluts
revolutsiooni
rey
reykjavi
reza
rg
rga
rgaastmo
rgas
rgassaaro
rge
rgen
rgi
rgiga
rgiq
rgis
rgit
rgita
rgitu
rgkunn
rgma
rgnas
rgo
rgoleht
rgolehti
rgon
rgoro
rgoron
rgova
rgu
rguhavva
rguja
rgula
rhapsody
rhead
ri
ria
rian
riba
rica
richard
rico
rida
ridala
rido
riga
rigolfipark
rigu
riguq
rihema
rihhard
riho
rii
riia
riiama
riian
riiast
riidi
riiga
riigen
riigest
riigi
riigiammo
riigihu
riigikandso
riigikantselei
riigikeeles
riigikiil
riigiko
riigikogo
riigikogon
riigikogu
riigikohus
riigil
riigile
riigilipp
riigilipus
riigimiis
riigimo
riigin
riigipa
riigipark
riigipo
riigipu
riigiq
riigis
riigist
riigiusk
riigivapi
riigivo
riigliq
riik
riike
riikevaiho
riiki
riikligu
riiklik
riiklino
riiko
riina
riisipere
riist
riistaq
riisto
riitsaaro
rija
rik
rikas
rikka
rikkamb
rikma
riksuu
ril
rilama
rilaq
rilaulja
rile
rima
rimiis
rimmi
rin
rina
ring
ringi
ringin
ringkunna
rio
ripa
ripuso
riq
risema
rist
rista
riste
ristema
risti
ristika
ristikivi
ristima
ristipa
ristipuu
ristiso
ristiti
ristiusk
ristiuso
ristiusu
ristja
ristku
risto
rit
rita
rito
rits
ritsike
ritsiku
ritu
rja
rjaal
rjaali
rjaalo
rjamaa
rjo
rjoono
rjuun
rk
rka
rke
rkega
rki
rkiq
rkja
rkla
rkma
rkmenistan
rkmenistani
rkna
rko
rla
rlatsi
rlatsigu
rlau
rli
rlijo
rm
rma
rmand
rmang
rmango
rmangon
rmanni
rme
rmeq
rmi
rmiq
rmist
rmk
rmo
rmsi
rmuja
rmus
rn
rna
rnaatri
rneri
rno
rnomaa
rnomaal
rnon
rnu
ro
roald
robert
robodiq
rock
roela
rogosi
rohilidso
rohilino
rohko
roho
rohto
roido
rokeelidse
rokeelidseq
rokeeline
rokeelist
rokeelitside
rokeelitsit
rokeste
rokiilne
rokiilse
rokiilsen
rokka
rokkansambli
roko
roks
rol
roland
roll
rolli
rolo
rolt
roly
rom
romaa
romaad
romaal
romaalo
romaalt
romaan
romaani
romaania
romaanikira
romaanin
romaano
roman
romanss
romeo
romo
ronald
rong
rongi
roo
roobi
roodsi
roodsin
roodsist
rooma
roonimo
roosa
roosan
roose
roosi
roosisaaro
rooste
rootsi
rootsma
roovik
ros
rosenbergi
rosma
rosmal
ross
rosuu
roth
rothi
roti
rotiq
rott
rotto
rpa
rpalo
rq
rqha
rqkuulmist
rra
rraga
rragaq
rral
rrald
rraldadas
rraldaja
rraldama
rraldamino
rraldamiso
rraldamist
rraldanuq
rraldaq
rraldas
rraldo
rralduisi
rraldus
rralduso
rralidso
rralik
rralino
rran
rrand
rrandi
rrandido
rrandit
rrapera
rras
rrast
rre
rro
rs
rsa
rschelmanni
rsepa
rsepp
rsi
rsia
rsima
rsja
rsjama
rsla
rso
rss
rst
rstiriik
rstna
rsto
rsu
rsuma
rt
rta
rtekuu
rtekuun
rtema
rtepa
rti
rto
rts
rtsja
rtso
rtsu
rtu
ru
rubo
rubriigin
rudolf
ruitlaso
ruma
rumaa
rumeenia
rummi
rummu
rumor
rumori
runebergi
runneli
ruperti
rus
rusima
russelli
russia
rust
ruto
ruttu
ruublit
ruuga
ruuh
ruuksu
ruum
ruumajaq
ruumalamo
ruumi
ruumin
ruumiq
ruumlaso
ruumo
ruunama
ruus
ruusa
ruusama
ruusha
ruusma
ruusmaa
ruutsi
ruutslaisi
ruutslaso
rv
rva
rvakandi
rval
rvalmo
rvalo
rvalt
rvama
rvangimaja
rvaq
rvaso
rvatoorium
rvatooriumi
rve
rvekene
rveku
rvel
rvelilli
rvema
rven
rveq
rvere
rves
rvest
rvi
rvin
rviq
rvist
rvistu
rvma
rvo
rvu
rvuisi
rwanda
s
sa
saa
saab
saad
saadet
saadi
saadik
saadja
saado
saadut
saaga
saagi
saagri
saaja
saajaka
saajaq
saak
saaki
saalin
saalomoni
saalusso
saama
saami
saamino
saamiq
saamiso
saamist
saan
saaniq
saanu
saanuq
saaq
saar
saarde
saari
saariga
saarja
saarlaso
saarnama
saaro
saart
saasiq
saaso
saat
saatma
saatmiso
saato
saatse
saatserinna
saatso
saava
saavaq
sabbe
sabo
sada
sadama
sadamaliin
sadamino
sadamiso
sadanuq
sado
sadramo
safaviido
sagaro
sago
sai
saia
saiaq
saias
saie
saigi
saika
sain
saina
sainakallendri
saint
saio
saiq
sais
saisma
saiso
saisoga
saisogaq
saison
saistaq
saistuisi
saistuisist
saistuso
saisva
saisvaq
saivaq
sajandi
sajandil
sakala
sako
saksa
saku
sakudi
salme
salmi
salmo
saluma
saluora
salvador
salvo
salzburgi
salzburgin
sama
samal
saman
samanimeline
samaq
samba
sambia
samm
samma
sammamuudu
sammas
sammo
sammu
samoa
samojeedi
sampsa
samson
samuel
san
sandi
sandima
sandisuu
sandman
sandra
sangasto
sann
sanna
sannama
sannan
sannapera
sanskriti
santo
sapi
sapp
sappho
saq
sar
sara
sarapuu
sarapuuma
saraq
sard
sariso
sarnadso
sarnano
sarnatso
saru
sarv
sarvo
sass
sassaniido
sast
satam
satas
sato
satto
sau
saudi
sauo
saurova
savi
savihoovi
savija
savikukont
savima
savioja
savioru
savipo
savisaaro
savist
savistuma
savo
savvi
savvohind
savvuritsik
schmalzi
school
schro
schwartz
schwartzi
scriptstyle
se
sea
seal
seandja
sebastian
seda
sedda
see
seeh
seen
seeneq
seeni
seeniq
seenka
seest
seestka
sega
segaq
segi
sego
seh
sei
seisuga
seitse
seja
seka
sekka
sekreta
sel
seldsi
seldsin
seldsiq
seldsitegela
seldz
sele
selet
seleta
seleteda
seletu
selge
selgehe
selgemba
selges
selget
selim
selle
selli
selts
seltse
seltsi
sem
sema
semaidi
semiidi
semina
semo
sen
sene
senegal
seni
seo
seod
seoga
seol
seon
seoniqaoniq
seooso
seos
seost
sepa
sepikuama
sepp
seppo
september
seq
serbia
serbla
sermus
serva
serverin
ses
sest
seto
setodo
setokeeline
setoko
setomaa
setomaal
setomaalt
setoq
setosit
setu
setukeste
seura
sex
sfa
sfnv
sgyo
sh
shakespeare
sharo
si
sia
sib
sibula
sid
siddha
sido
sierra
siga
sigalidso
sigalino
sign
sigur
sigurros
siia
siidile
siih
siil
siili
siim
siimneq
siin
siini
siis
siist
siitmise
sik
sika
sikalaano
sikama
sikan
sikat
sikira
sikk
sikksaaro
siksa
sil
silbi
silbin
sild
sildaru
sile
silla
sillama
sillapa
sille
sillema
silm
silma
silmi
silva
silvi
silvia
sima
simman
simmuli
simula
simuna
simunapa
sin
sina
sindi
singa
singapur
singapuri
singli
sini
sinidse
sinija
sinima
sinine
sinist
sinivabarn
sinn
sinna
sinno
sino
sintenis
siq
siraamat
sirgo
sirgutii
sirje
sirp
sirvikallendri
sis
sisaldas
sise
siseh
sisehn
sisema
sisemaa
siseministri
sisen
sisest
siski
siskiq
siso
sisse
sisseka
sissen
sissera
sissetulo
sissiq
sist
sisu
sit
sitso
situ
siug
siuma
sja
sjoo
sk
skandinaavia
skandinaavian
skandinaaviast
skasunu
skasunuisi
skasunul
skasunuq
ske
skeskus
ski
skiil
skiili
skiq
skivi
skja
skmiso
sko
skogo
skriitik
sks
sku
skulptuur
skund
skunda
skunna
skunnan
skunst
skunsti
skunstnik
skuu
skuun
sl
sla
slaavi
slands
slauso
slavic
slidse
slidselt
sligu
sligult
sliidsi
slik
sline
slist
slovaki
slovakkia
sloveenia
sma
smaa
smaal
smaalt
smeres
sministeeriu
sminnevaig
smith
smithi
smuusiga
smuusik
smuuso
sna
snerd
snimega
so
socie
society
soe
soeko
soema
soemo
soeoja
soeq
soessaaro
sofi
soino
soio
solda
soldan
solon
soloni
somaalia
some
sommeri
soo
soodi
sooliguq
soolik
soolikido
soome
soomo
soomusrongi
soomusrongo
soono
sootska
soovit
soovito
sorbi
sordi
sordo
sormuli
sort
sorti
soti
sotilas
sotimaa
sotsiaal
sotsiaalso
sotsialistlik
south
sovhoosi
sovhoosin
spa
special
speethelu
spetsiaalkaardi
sponsoriir
spordi
sporditegela
sporditiidu
sport
sportlano
spotify
spp
spreemia
sqrt
sri
sru
ss
ssa
ssaaro
ssammas
sse
sseia
ssel
ssele
ssen
sseq
sses
ssest
ssi
sside
ssiga
ssigu
ssik
ssikeele
ssikiil
ssikiili
ssikiilt
ssilma
ssin
ssiq
ssist
ssit
sso
ssu
ssuu
st
sta
staabiu
staadion
staadioni
staatus
staatuso
staatust
stahvli
stalini
stamaa
standard
standardru
stanislaw
stanuq
staq
star
stat
statistiga
statistigaammo
statistikaamet
ste
steda
stediq
stedu
steem
stefan
stem
stema
stemi
stemin
stemiq
stemmi
stet
steve
sti
stiguma
stiidla
stiil
stiilin
stiim
stiina
stik
stikuma
stja
stma
stmiso
sto
stockholm
stokholm
stokholmi
stokholmin
stpuult
stra
stre
strema
stri
strikuul
struktuur
struktuuri
stto
stu
studia
studies
stus
stuso
stvere
su
subset
subseteq
sudaani
sudak
sugu
sugudso
sugukeeleq
sugukunda
sugukunna
sugukunnast
sugulaisi
sugulano
sugulaskeeleq
sugulaso
sugumadso
sugumaidsi
suguno
sugupuu
sugust
sugutsit
sugutso
suguvo
suhka
suhto
suicide
suidsu
suits
suku
sukugi
sukugiq
sul
sulamiso
sulanuq
sulbi
sulev
sulg
sulgo
sullo
sulo
suluma
summa
sumo
sund
sunda
sunnit
sunniti
sunnitu
suomalais
suomalaisen
suomen
supo
suq
sur
suri
suriname
surma
surmani
surmanuhklus
surmanuhkluso
surmanuhklust
surnuaida
susanna
susi
susso
sutaq
suto
suu
suud
suudla
suuhara
suuhto
suuja
suuku
suula
suulidso
suuma
suumlaisi
suumlaso
suumo
suun
suuna
suunan
suuni
suuq
suur
suurbritannia
suurbritannian
suurdo
suure
suuri
suurja
suurkannahtaja
suurku
suurma
suurmeri
suuro
suurt
suurtii
suurtu
suurudso
suuruisi
suuruno
suurus
suuruso
suurust
suurvu
suus
suusaar
suusaaro
suusahu
suust
suut
suuta
suuv
suve
suvi
suvisto
suvo
sv
svaasimaa
sveidsin
sveits
sveitsi
sven
svente
svo
swift
swifti
syda
synaraamat
sys
sz
sza
sze
szlo
t
ta
taa
taad
taado
taaga
taago
taal
taan
taani
taanin
taanlaisi
taanlaso
taarka
taas
taast
taavi
taba
tabina
tabivere
tabo
tadz
taga
tagaeitu
tagaja
tagaku
tagala
tagalaul
tagano
tagasi
tagasitulo
tah
taha
tahaq
tahat
tahetas
taheti
taheva
tahevamo
tahiq
tahkuranna
tahr
tahra
taht
tahtmino
tahtmiso
tahtmist
tahtnud
tahtnuq
tahto
tahtso
tahtvaq
tai
taidsi
taimo
taiva
taivahe
taivan
taivas
taivaskua
taivast
taivata
taja
tajaq
tajas
tajat
tajido
tak
takah
takan
takast
tal
talaq
talina
tall
talla
talliin
talliina
talliinan
talliinast
talliko
tallima
tallinn
tallinna
tallinnan
tallitaso
tallituso
tallituspu
tallo
talo
talolo
talomiis
talon
talopida
talopoigo
taloq
talorahva
talorahvakuul
talost
talsipu
talu
talupoegade
talv
talvino
talvitso
talvo
tama
tamino
tamiso
tamist
tamm
tamme
tammistu
tammo
tammsaare
tammsaaro
tampere
tamra
tamula
tan
tands
tandsiq
tandsja
tandso
tandsuq
tandsus
tanel
tango
taningo
tank
tannil
tansaania
tanuq
tao
taotlo
tapa
tapio
taplo
tapmino
tapmiso
tapo
tapp
tapuma
taq
tarbis
tarbo
targo
tarja
tark
tarkus
tarkuso
tarkvara
tarmo
tarnalumbi
taro
tarro
tarto
tartohe
tartomaa
tartomaal
tarton
tartost
tartot
tartu
tartuensis
tartus
tarvastu
tarvilidso
tarviliidsi
tarvilino
tarvis
tarvit
tarvitadas
tarvitama
tarvitamino
tarvitamiso
tarvitaq
tarvitas
tarvitaso
tarvito
tarvituso
tas
tasadso
tasano
tasapinna
tasatso
taso
tast
tat
tatari
tatarlaisi
tatriku
taudsa
tauli
tav
tavalidso
taylor
te
tea
teaduste
teataja
teatajan
teater
teba
teda
tedi
tediq
tedre
tedrema
tedu
tee
teeb
teeda
teedu
teele
teema
teeneline
teenetema
teenistu
teenu
tege
tegehu
tegel
tegela
tegeles
tegeligult
tegema
tegemiisi
tegemiisist
tegemine
tegemisalono
tegemise
tegemisel
tegemiseq
tegemises
tegemisest
tegemist
tegeva
tegevu
tegi
tegija
tego
tegomoodu
tegomoodun
tegonimi
tegoso
tegotso
tegu
teh
teha
teheran
tehn
tehu
tei
teid
teie
teije
teiq
teism
teiva
tekema
tekev
tekira
tekk
tekku
teknoloogia
teko
tekst
tekste
teksti
tekstid
tekstiq
teku
tel
teld
telda
teldi
tele
telecom
telecommunications
teleja
televis
telidse
teliidsi
telnu
telt
telu
tema
temma
temmal
temperatuur
templi
templit
ten
tenka
tenkuun
tenna
tennu
teno
teoloogilino
teooria
teoreetilidse
teorem
teos
teoso
teossit
teosso
teppo
teq
tera
teras
tere
termin
terminit
terra
territoorium
territooriumi
territooriumil
territooriumiq
terve
terveh
terveharv
terveht
terven
terveq
terveqarvoq
terves
tervet
tervidearvo
tervu
tes
tesa
tessa
test
testamendi
testament
tesugumano
tet
teta
teti
tett
tetta
tettas
tetti
tettiq
tettu
tetu
that
the
theodor
they
this
thomas
ti
tia
tialaso
tiatri
tiatriateljee
tiatrin
tiatrit
tidse
tidseq
tiganiku
tihe
tihehu
tihemetsa
tihti
tihtipa
tihtsa
tii
tiia
tiibedi
tiid
tiida
tiide
tiidla
tiidma
tiidmiisi
tiidmine
tiidmise
tiidmiseq
tiidmist
tiido
tiidru
tiidsa
tiidu
tiidva
tiigi
tiigiq
tiigri
tiik
tiil
tiin
tiina
tiine
tiinidema
tiinu
tiiq
tiirotas
tiist
tiit
tiiti
tiitli
tiiu
tika
tilga
tilidse
tilleoro
tilsi
tilsin
tima
timaa
time
times
timma
timo
timur
tin
tina
tindi
tine
tingimu
tinko
tioro
tiq
tir
tirgu
tisgu
tiskund
tiskunda
tiskundlidso
tiskundlino
tiskuningriigi
tiskuningriigin
tiskuningriigist
tiskuningriik
tiskunna
tiskunnan
tiskunnategela
tiskunnatiidu
tiso
tispank
tisriigen
tisriigiq
tisriike
tisriikega
tissi
tist
tista
tistu
tisu
tisza
tit
titside
titsit
tja
tjat
tjido
tk
tku
tla
tle
tleja
tlema
tlemiisi
tlemine
tlemise
tlemist
tleq
tles
tleseq
tli
tlido
tlidso
tligult
tliguq
tligus
tlik
tlimo
tlino
tliq
tlist
tlo
tlu
tluso
tm
tma
tmia
tmiisi
tmiisil
tmine
tmino
tmise
tmiso
tmist
tmo
tnik
tnits
tnitsapa
tnu
tnuq
to
tobago
toda
toet
toetiq
togo
tohe
toheq
tohi
tohiq
tohkri
tohtri
tohtro
tohvri
toila
toim
toimetaja
toimo
toimu
toimus
toit
toivo
tokelau
tokio
toku
tol
tolli
tollo
toloogia
toloogian
tome
tomi
tonga
tonni
tony
too
toodo
toodsi
toolamaa
toolo
toom
toomas
toomo
toona
toonadso
toonaq
toono
toonuq
tootseni
top
topo
tori
torma
torn
torni
tornima
torno
toro
toroko
toronto
toropill
torro
tossu
tougas
tour
tourism
tr
tra
traadi
traat
trad
tradits
traditsionaal
traditsioonilidso
trago
transilvaania
travel
tre
treffneri
trehva
treisi
trek
trepima
treq
treski
trigonomeetria
trigunimi
triguq
triin
triinu
trik
trimurti
trinidad
tro
troll
trolla
trooja
troopilino
tros
trotski
tru
trummi
trummiq
truuta
ts
tsa
tsaar
tsaella
tsah
tsama
tsan
tsandustiidla
tsaq
tsast
tsatiidla
tsatu
tsaveli
tse
tsehhi
tsehkenda
tsel
tsela
tsella
tselt
tsen
tseni
tsep
tsepa
tseq
tses
tsest
tshod
tsi
tsia
tsiama
tsiberi
tsiberihe
tsiberin
tsibiputin
tside
tsiga
tsiguq
tsih
tsihin
tsihiq
tsihis
tsiht
tsihte
tsihti
tsihtkapitali
tsiili
tsiistre
tsiistri
tsik
tsikit
tsiklikrossi
tsiko
tsikult
tsil
tsilgutaja
tsili
tsill
tsin
tsinda
tsiotso
tsiq
tsira
tsirgu
tsirguko
tsirguma
tsirguq
tsirk
tsirko
tsirr
tsis
tsist
tsit
tsivilisats
tsja
tski
tskiq
tskits
tsko
tso
tsolli
tson
tsooru
tsoorukant
tsopa
tspill
tsto
tsu
tsuko
tsus
tsuso
tsustegela
tsutajad
tsutsu
tt
tta
ttaq
tte
ttegi
ttekokko
ttema
ttemuudu
tten
tteq
ttest
tti
ttide
ttido
ttist
ttit
tto
ttu
tu
tubala
tubina
tud
tudo
tudulinna
tugino
tuglaso
tugo
tuhanda
tuhandit
tuhando
tuhapa
tuhat
tuid
tuisi
tuko
tukooban
tuksami
tuksima
tulba
tuld
tule
tuleb
tuli
tulija
tull
tullaq
tullewa
tulli
tulliq
tullivaq
tullo
tulnu
tulnuq
tulo
tulti
tulunduslik
tuma
tumb
tumbaq
tummo
tumo
tumpi
tund
tundaq
tundas
tundma
tundmino
tundmiso
tundmist
tundo
tundu
tundvaq
tuneesia
tungi
tungo
tunn
tunni
tunnisma
tunnist
tunnistanuq
tunnistaq
tunnisto
tunno
tunnus
tunnuso
tunnusso
tunnust
tunnusto
tuntematon
tuntu
tuntumb
tuntuq
tuntus
tuq
turg
turgi
turism
turniiri
turu
turvast
tus
tuso
tust
tusti
tut
tutvas
tutvustus
tuu
tuuaigso
tuud
tuudaigo
tuudaigu
tuudi
tuuga
tuuiist
tuujaos
tuuka
tuuko
tuul
tuula
tuule
tuulelo
tuuli
tuulikki
tuulingu
tuulja
tuulo
tuulse
tuuma
tuumapa
tuumkerik
tuun
tuup
tuupa
tuupera
tuus
tuusama
tuust
tuvalu
tuvvaq
tv
tva
tvaq
tya
tyo
u
ua
uandimaa
ubaja
ubina
ubinit
ud
udmiso
udmurdi
udmurto
udo
udsali
udso
ug
uga
ugala
uganda
ugandi
uge
ugo
ugri
ugria
ugrilainen
ugu
uh
uhko
uhtja
ui
uibo
uibopuu
uibu
uibuja
uibuma
uibumo
uiguma
uiq
uja
ujako
ujaq
ujja
uk
uki
ukraina
ukrainahe
ukrainalo
ukrainan
ukrainast
ukrainat
ukraine
ukrainlaisi
ukrainlaso
uku
ukuaru
ul
uldis
ull
ulmaniso
ulmo
um
uma
umaette
umahuisi
umahuso
umahusso
umahust
umaka
umako
umal
umalo
umalt
uman
umanik
umano
umapera
umaq
umar
umas
umast
umasu
umatso
umavaiho
umaval
umavalitsuisi
umavalitsus
umavalitsuso
umbarvamino
umbja
umblo
umbo
umi
umilo
umin
umist
umma
ummako
ummaleelo
ummamuudu
ummaq
ummi
ummilo
ummist
ummo
umo
un
una
unaeesti
unahummogu
unan
unao
unaosan
unapuulkera
unaro
unasu
und
underground
undi
undritzi
undso
unesco
ungari
ungarihe
ungarin
ungarist
ungarit
ungarlaisi
ungarlaso
ungavitsa
ungru
ungvere
uni
unik
united
universidade
universitatis
university
uno
up
upa
upanis
upe
upi
upin
uppin
uppsala
uppsalan
uppsalast
uq
ura
uraasia
uralic
uraq
urbo
urdu
urmas
uro
urot
uruguay
uruupa
uruupahe
uruupan
uruupast
uruuplaisi
uruuplaso
urvasto
urve
us
usa
usan
usbekistani
usk
uskliguq
uskmino
usko
uskso
usku
usma
uso
usolidso
usolino
uson
uss
usso
ust
usu
usuoppaja
usutiidla
usutiidu
ut
utar
utika
utlib
utra
utria
uu
uudised
uue
uueks
uulitsan
uumajasaami
uun
uuni
uuno
uur
uurali
uuri
uurimusi
uuriq
uurit
uuritas
uurja
uurma
uurmino
uurmiso
uurmistu
uurnuq
uuro
uurvaq
uus
uusi
uusna
uvas
v
va
vaaba
vaabina
vaadatud
vaaksaaro
vaalima
vaao
vaara
vaarkali
vaartsma
vaba
vabadusso
vabahelle
vabahelu
vabahuso
vabahusristi
vabahusso
vabahust
vabahusvo
vabakutso
vabalt
vabariigi
vabariigin
vabariigis
vabariigist
vabariik
vabariiki
vabariiklaisi
vabariiklaso
vabarna
vabas
vabast
vabastiq
vabasto
vabatahtliguq
vabrik
vabrikun
vaccinium
vad
vadsa
vaeldus
vaelduso
vaeno
vaeso
vaest
vaga
vaglaq
vagola
vagula
vahe
vaheja
vahel
vahele
vaheliha
vahelo
vaheoja
vaher
vaheraho
vahet
vahima
vahingu
vahistadu
vaht
vahtra
vahtsido
vahtsit
vahtso
vahur
vahuri
vai
vaia
vaidva
vaig
vaigla
vaih
vaihho
vaiho
vaiht
vaihto
vaihtus
vaihtuso
vaike
vaikno
vaiko
vaikso
vaim
vaimo
vaimu
vaimulik
vain
vaindlano
vaindlaso
vainlaisi
vainlaso
vaino
vaio
vaivara
vaja
vakamaa
vakari
vaksali
val
vala
valaq
vald
valda
valdis
valdkund
valdo
valdorhvpedagoogiga
valdur
valera
valev
valga
valgamaa
valgan
valge
valgido
valgja
valgo
valgu
valgus
valguso
valgust
valgustusao
vali
valik
valimiisi
valimiisil
valimiskogo
valimiso
valimist
valit
valitas
valiti
valits
valitsiq
valitso
valitsus
valitsuse
valitsusliido
valitsuso
valitsust
valitus
valjala
valka
valla
vallah
vallakirotaja
vallalidso
vallalo
vallamaja
vallan
vallaq
vallas
vallasisene
vallast
vallavano
vallima
valliq
vallo
vallut
vallutadaq
vallutamiso
vallutaq
vallutiq
valluto
valmiera
valmis
valmisto
valo
valpri
valsi
valss
valt
valter
valteri
valton
valtoni
valvo
vamb
vambola
van
vana
vanaao
vanaesa
vanaima
vanajo
vanakreeka
vanaku
vanal
vanaliinastuudion
vanalo
vanamiis
vanamo
vanan
vanaoja
vanapakan
vanapera
vanapo
vanaq
vanarima
vanas
vanaso
vanast
vanasto
vanataro
vanaussaiama
vanavano
vanavara
vanavinne
vancouveri
vando
vanemuine
vanemuiso
vange
vangi
vangimaja
vangimajan
vangimajja
vangimajjo
vangin
vangiq
vanglakotusside
vanglateenistu
vango
vanha
vanna
vanno
vannu
vannudso
vannuso
vano
vantaa
vanuatu
vao
vaon
vaotuso
vapi
vapo
vapp
vaq
var
vara
varahadso
varahampa
varast
varatso
varbla
varbuso
vardja
vardjama
vari
variandi
variandiq
variant
varianti
variguma
varikma
variste
varjo
varo
varra
varrampa
varro
vars
varsama
varssavi
varstu
vas
vasi
vasila
vasilama
vask
vaski
vaskna
vaso
vassili
vast
vasta
vastalidso
vastano
vastapa
vastapiten
vastas
vastaso
vastavo
vastlapa
vasto
vastse
vastseliina
vastu
vastus
vastussit
vastusso
vat
vatikani
ve
vedaq
vedela
vedelu
vedo
veebruar
veel
veenu
veera
veere
veereh
veeren
veereq
veerest
veeta
vei
veidemb
veidemba
veidembu
veidu
veini
veiq
veitse
veitu
vele
veleq
veli
velikaja
veljo
vellekene
vello
velvet
vemb
vemba
vendti
vene
veneetsia
venezuela
venezuelan
vepsa
vepsla
veq
verb
verbe
verbi
verd
verde
vere
verega
verest
vereta
vereva
verevide
vergilius
verhulitsa
veri
verija
verioja
veriora
verrev
verrevma
versailles
version
verska
verskan
vesi
veske
veski
veskija
veskima
vest
veszpre
vet
vetel
vett
vette
vevokaal
vezi
vi
via
vicious
victor
victoria
vida
vide
video
vidi
vido
vidrike
vidzeme
vietnam
vietnami
vietnamin
view
viga
vigala
vigu
vigun
viguq
viha
vihatso
vihk
vihkla
vihm
vihma
vihmako
vihmamo
vii
viia
viid
viidi
viie
viiel
viiemeistre
viiemeistri
viien
viienda
viies
viiesepa
viiesepp
viiest
viieto
viiga
viii
viikberg
viikingiq
viikogo
viikogoq
viil
viilgi
viima
viimsi
viin
viina
viinakuaja
viinalill
viinama
viini
viinin
viiol
viioli
viiolima
viiolit
viiq
viir
viira
viirama
viiratsi
viirde
viirksu
viirt
viis
viisadang
viise
viisi
viisika
viisiq
viist
viit
viitina
viitka
viitma
viitso
viive
viivi
vik
vika
vikerkaar
vikerraadio
viki
vikipeedia
vikku
viktor
vil
vila
vilde
vilepi
vilets
vili
vilja
viljandi
viljandimaa
viljandin
viljo
villa
ville
villem
villiga
villu
vilusto
vin
vincent
vindla
vinne
vinnekeeline
vinnela
vinnemaa
vinnemaad
vinnemaaga
vinnemaal
vinnemaalo
vinnemaalt
vinnen
vinni
vinnora
vio
vipoig
vipuja
viq
virgo
viritta
viro
viromaa
viromaal
viron
virosi
virr
viru
viruskundra
virve
vis
visas
visatas
visati
visela
vislapuu
visnapuu
visseli
vissi
vist
vit
vita
vitis
viupera
vivva
vjuun
vkkf
vkp
vladimir
vli
vlima
vlu
vm
vms
vo
vodi
vokaal
vokaalmitmuso
voki
vol
volans
voldemar
volga
volikogo
volituso
volli
volmeri
volo
vomsu
von
voolaine
vooro
vor
vorm
vormi
vormiq
vormo
vormsi
vorstima
vorumaa
vs
vu
vungi
vuuri
vv
vva
vvaq
vve
vvedu
vvekuu
vvelidse
vvelidselt
vvelidseq
vveligult
vvelik
vveline
vvend
vvenda
vvendu
vveste
vvet
vvi
vvo
vvoandja
vvokoda
vvokogo
vvokogodo
vvokogoliido
vvokogoliidolo
vvokogoliidon
vvokogoliit
vvokua
vvu
vvukogo
w
wa
waid
waimel
wakra
wanna
war
washington
wastne
watch
way
wałe
we
web
weel
weikenne
weizenbergi
wenne
wenwolde
west
what
white
whitney
who
wiki
wikimedia
wikipedia
wilde
wilhelm
will
willem
william
williami
windows
winny
with
wo
wolfgang
wolfgangi
woman
woodardi
wordpress
world
would
wrangeli
wrangell
wrangelli
wsoy
wundt
www
x
xi
xianfan
xii
xiii
xiv
xix
xvi
xvii
xx
y
yle
ylipulli
yma
ynno
ynys
york
yorki
you
young
your
youtube
z
za
zagroso
zandi
zaporiz
zarathustra
ze
zemple
zetod
zeus
zeusi
zimbabwe
znik
zu
zur
{
|
}
~
§
«
­
°
²
³
´
·
º
»
½
×
æ
ð
ø
þ
þo
þu
ħ
ı
łobez
ŋ
ƶ
ɑ
ʲ
ʻ
ʼ
ʾ
ˈ
ː
̀
́
̂
̃
̄
̆
̇
̈
̉
̊
̋
̌
̓
̔
̛
̣
̦
̧
̨
̬
̭
̸
͂
α
δ
ε
η
ι
ο
π
ρ
ς
σ
а
б
в
г
е
и
империи
к
л
м
о
он
пе
по
раи
рос
россии
с
скии
скои
спб
тр
у
ц
ы
ь
э
і
ָ
ֹ
ּ
ב
ا
ٓ
ٔ
त
म
र
ा
ि
्
‌
‎
‒
–
—
―
‘
’
“
”
„
†
•
…
′
″
⁡
←
→
↔
↷
∅
∈
−
∞
∣
∩
∪
≡
≤
⊂
⊆
⋂
⋃
③
④
⑦
♭
⺀
⺄
⺆
⺈
⺊
⺌
⺕
⺝
⺸
⺼
⿰
⿱
⿲
⿳
⿴
⿵
⿶
⿷
⿸
⿹
⿺
⿻
〢
カ
コ
ユ
㇁
㇂
㇄
㇇
㇈
㇉
㇓
㐁
㐄
㐅
㐌
㐫
㐬
㐭
㐮
㐱
㑒
㒵
㒸
㒼
㓁
㓞
㔾
㕛
㕣
㖾
㘝
㚅
㚇
㚔
㚘
㝉
㝡
㝴
㝵
㞋
㞢
㞷
㠩
㠭
㠯
㡀
㡭
㡿
㢲
㢴
㣇
㣺
㥯
㪅
㫄
㫐
㫒
㫺
㬅
㬎
㬥
㬰
㲋
㳄
㷠
㸒
㸚
㸦
㼌
㼲
㽞
㿟
䀠
䂞
䍃
䏍
䒑
䖍
䖒
䖝
䖵
䙴
䚻
䜌
䝿
䡛
䧹
䪞
一
丁
丂
七
丄
丅
丆
万
丈
三
上
下
丌
不
与
丏
丐
丑
专
且
丕
世
丘
丙
业
东
丞
丢
丣
两
严
並
丨
丩
个
丫
丬
中
丮
丰
丱
串
丵
丶
丷
丸
丹
为
主
丽
丿
乀
乂
乃
久
乆
乇
么
义
之
乌
乍
乎
乏
乐
乑
乔
乖
乗
乘
乙
乚
乛
乜
九
乞
也
习
乡
乳
乾
亀
亅
了
亇
予
争
事
二
亍
于
亏
亐
云
互
亓
五
井
亘
亚
亜
亞
亟
亠
亡
亢
交
亥
亦
产
亨
亩
享
京
亭
亮
亯
亰
亲
亳
亶
亷
人
亻
亼
亾
仁
今
介
仌
从
仐
仑
仒
仓
仕
他
付
仝
代
令
以
任
企
伊
伏
伐
休
会
伯
但
位
何
佘
余
作
佥
使
來
侈
侌
侖
侯
侵
便
保
俞
信
修
倉
倍
候
倠
備
僉
僕
儿
兀
允
兂
元
兄
充
兆
兇
先
光
兊
克
兌
免
兑
兒
兓
兔
党
兜
兟
入
全
兩
兪
八
公
六
兮
兰
共
关
兵
其
具
典
兹
兼
冀
冂
冃
冄
内
冈
冉
冊
冋
册
再
冎
冏
冐
冒
冓
冖
冗
冘
军
农
冝
冡
冥
冫
冬
冷
几
凡
凢
凵
凶
凷
凸
凹
出
函
凾
刀
刁
刂
刃
刄
刅
分
切
刍
刑
刕
刖
列
刘
则
初
別
利
别
到
制
刺
則
削
剌
前
剡
剽
劉
力
功
加
劦
助
劫
劳
劵
勃
勇
勉
勒
動
務
勞
勤
勹
勺
勻
勾
勿
匀
匂
包
匆
匈
匊
匋
匍
匕
化
北
匚
匝
匡
匪
匱
匸
匹
区
医
匽
匿
區
十
卂
千
卄
卅
卆
升
午
卉
半
卌
华
卑
卒
卓
单
卖
南
卜
卝
卞
占
卡
卢
卣
卤
卦
卩
卪
卬
卯
印
危
即
却
卵
卷
卸
卻
厂
厃
厄
历
厈
厉
厌
厓
厘
厚
原
厤
厥
厨
厭
厲
厶
厷
厸
去
厼
厽
叀
参
參
叅
又
叉
及
友
双
反
叐
发
叒
叔
叕
取
受
叚
叜
叟
口
古
句
另
叩
只
召
可
台
叱
史
右
叵
号
司
叹
吂
各
吅
合
吉
吊
吋
同
名
后
吏
向
吕
君
吝
吞
否
含
启
吳
吴
吹
吾
呂
呆
呈
告
员
呙
周
命
咅
和
咎
咠
咢
咨
咸
咼
哀
品
哉
員
哥
哲
唐
商
啇
問
啚
啬
啻
善
喜
喬
單
喿
嗇
噩
嚴
囊
囗
囘
囙
囚
四
回
囟
因
囧
囬
困
囱
囷
固
国
圂
圅
國
圍
圓
土
圡
圣
圥
在
圭
地
圶
圼
坐
坒
坚
坴
垂
垔
垚
埀
埋
埶
執
基
堂
堅
堆
堇
堯
塞
墨
壘
士
壬
壯
声
壳
壴
壹
壺
壽
夂
处
夅
夆
备
夊
夋
夌
复
夏
夒
夕
外
夗
夘
多
夜
夢
大
夨
天
太
夫
夬
夭
央
失
夲
头
夷
夸
夹
夻
夾
奂
奄
奇
奈
奉
奎
奏
奐
契
奓
奔
奚
奞
奠
奢
奥
奭
女
奴
奻
好
如
妄
妙
妟
妥
妻
妾
姑
委
姜
威
娄
婁
婴
嬰
嬴
子
孑
孔
孕
孖
字
存
孚
孛
孝
孟
季
孤
学
孫
孱
學
宀
宁
宂
它
宅
宇
守
安
宋
完
宏
宓
宗
官
定
宛
宜
宝
客
宣
室
宮
宰
害
家
容
宾
宿
寄
寅
密
富
寒
察
寧
審
寫
寬
寮
寸
对
寺
寻
寽
対
寿
封
尃
射
将
將
專
尉
尊
尋
尌
對
小
少
尒
尓
尔
尖
尗
尚
尞
尢
尣
尤
尧
尨
尭
就
尸
尹
尺
尻
尼
尽
尾
尿
局
居
屈
屋
屎
屏
屑
展
屖
屚
属
屠
屡
屬
屮
屯
屰
山
屵
屾
岁
岂
岑
岡
岩
岳
岸
峯
島
崇
崑
崔
崖
崙
崩
嵬
嶲
巂
巛
川
州
巟
巠
巢
巤
工
左
巧
巨
巩
巫
差
己
已
巳
巴
巷
巸
巽
巾
巿
帀
市
布
希
帚
帛
帝
带
師
席
帶
常
干
平
年
幵
并
幷
幸
幺
幻
幼
幽
幾
广
広
庄
床
底
店
庚
府
度
庫
庭
庶
康
庸
廉
廌
廛
廣
廩
廴
延
廷
建
廾
廿
开
弁
弃
弄
弇
弋
式
弓
弔
引
弗
弘
弜
弟
弥
弦
弱
張
強
强
彊
彌
彎
彐
彑
当
彔
录
彖
彗
彡
形
彥
彦
彧
彭
彳
役
彼
往
待
律
徒
得
徙
從
復
微
徵
心
忄
必
忌
忍
志
忝
忠
忩
快
念
忽
忿
思
怠
急
怱
恆
恒
恩
恭
息
悉
患
悤
悲
悶
惠
惡
惢
愁
愈
意
愛
感
慈
慧
慮
憂
憲
應
戀
戈
戉
戊
戋
戌
戍
戎
成
我
戒
戔
或
戚
戠
戢
截
戲
戶
户
戹
戼
戾
房
所
扁
扇
手
扌
才
打
托
执
承
折
拉
拜
拿
掌
推
提
摩
支
攴
攵
收
攸
改
放
政
敄
敏
敕
敖
敗
敝
敞
敢
散
敦
敫
敬
数
敷
數
斂
文
斉
斊
斗
斤
斥
斩
斬
斯
新
方
於
施
斿
旁
旋
族
无
旡
既
旣
日
旦
旧
旨
早
旬
旱
旲
时
旾
昆
昇
昌
昍
明
昏
易
昔
昗
昜
星
春
昬
是
昱
昴
昷
時
晃
晋
晏
普
景
晶
智
暑
暴
曇
曩
曰
曲
曳
更
曷
書
曹
曼
曾
替
最
朁
會
月
有
朋
服
朔
朕
朗
望
朝
木
朩
未
末
本
札
朮
术
朱
朵
朶
朿
杀
杏
杜
束
条
来
東
杲
杳
松
析
林
枚
果
枝
枲
枼
某
柔
查
柬
柰
柴
栗
桀
桑
桼
梁
條
梟
梨
棘
棠
棥
森
楚
業
楽
榮
樂
樊
欠
次
欣
欮
欲
欶
欽
款
歆
歇
歛
止
正
此
步
武
歨
歪
歮
歯
歰
歲
歴
歷
歸
歹
歺
死
殳
段
殷
殸
殹
殺
殻
殿
毋
毌
母
每
毒
比
毕
毚
毛
毳
氏
氐
民
气
氣
水
氵
氶
氷
永
氺
氾
求
汝
汞
江
沃
沓
沙
沝
油
泉
法
波
泣
泥
泰
洛
洪
活
派
流
浦
浪
浮
淡
淮
清
渚
渠
湯
滿
漢
漸
火
灬
灭
灰
灵
灷
炅
炎
炏
炗
炙
炭
為
烈
烏
烝
焉
無
焦
焱
然
煞
熊
熏
燕
營
燮
爪
爫
爭
爯
爰
爱
爲
爵
父
爻
爽
爾
爿
片
牙
牚
牛
牜
牟
牢
牧
牪
牽
犀
犬
犭
犮
狂
狄
狊
独
狺
猋
猒
猪
献
獻
玄
率
玉
王
玟
玨
珎
班
琴
瑟
瑩
璠
瓜
瓦
甘
甚
生
産
用
甫
甬
田
由
甲
申
电
甶
男
甸
甹
画
甾
畀
界
畏
畐
留
畜
畟
畢
畧
畨
番
畫
異
畱
當
畺
畾
疊
疋
疌
疑
疒
疾
癶
癸
癹
登
發
白
百
皀
皃
的
皆
皇
皋
皐
皕
皮
皷
皿
盃
盆
盇
盈
益
盍
盎
监
盒
盖
盛
盡
監
盤
盧
目
直
相
盾
省
眇
眉
看
眔
眞
真
眷
眼
眾
着
睘
睪
睿
瞏
瞢
瞿
矍
矛
矞
矢
矣
知
矦
短
石
破
碎
磊
磨
示
礻
礼
祟
票
祭
禀
禁
禸
禹
禺
离
禽
禾
禿
秀
秃
秉
秋
科
秝
秦
移
稟
穀
穌
穴
究
穹
空
穿
突
窄
窒
立
竒
竜
竝
竟
章
童
竹
笑
笠
筆
等
答
箕
算
箴
節
篤
篭
米
粉
粛
粟
粤
粦
粲
糞
糸
糹
系
約
納
素
索
紫
累
細
絜
絫
絲
維
綿
縣
繇
纍
纟
缶
网
罒
罔
罕
罗
罙
罡
罢
罪
署
罷
羅
羊
羌
羍
美
羔
羕
羗
羞
羡
羣
群
義
羲
羸
羽
翁
翏
習
翕
翟
翠
翼
老
耂
考
者
耆
而
耎
耑
耒
耳
耴
耶
耷
聂
聊
聖
聚
聶
聿
肀
肃
肅
肉
肖
肙
肥
肩
肯
育
肴
胃
背
胡
胥
能
脊
脩
膚
臣
臤
臧
自
臬
臭
臯
臱
至
致
臺
臼
臽
臾
臿
舀
舂
舄
與
興
舉
舌
舍
舛
舜
舞
舟
般
艮
良
色
艸
艹
艾
芒
芔
芬
芮
花
芳
芺
芻
苔
苗
苟
若
苦
英
茶
茸
荅
草
荒
荣
荼
莆
莧
莫
莽
菆
菊
菐
華
萬
落
葉
著
葛
董
葵
蒙
蒦
蒼
蓋
蓬
蓺
蔑
蔡
蕉
蕭
薄
薛
薦
薰
藍
藏
藥
蘭
虍
虎
虐
虒
虔
處
虖
虗
虘
虚
虛
虜
虞
虫
虽
蚤
蚩
蜀
蜜
蟲
蠡
血
行
衍
衛
衣
衤
表
衮
衰
袁
袞
褭
褱
襄
襾
西
覀
要
覃
見
規
覓
覧
親
覽
见
角
解
言
訁
訇
計
詹
語
誩
諸
讠
谷
豆
豈
豊
豐
豕
豖
豙
象
豦
豩
豪
豸
貇
貝
貞
貟
負
貢
貧
貪
貫
責
貳
貴
買
費
賁
資
賈
賏
賓
賔
賛
賞
賢
賣
質
賴
贊
贝
贡
责
贯
贲
贵
赖
赞
赤
赦
走
越
足
路
蹇
身
躬
車
軍
軎
軟
輦
车
辛
辜
辟
辥
辰
辱
農
辵
辶
边
达
过
近
连
迷
追
退
送
逆
逐
通
速
造
逢
連
逮
進
遀
遂
過
道
達
遣
適
遷
遺
邊
邑
邕
那
邦
邪
郎
部
郭
都
鄉
酉
酋
配
酓
釆
采
里
重
野
量
金
釒
錢
钅
長
镸
长
門
閃
閉
開
閏
閑
閒
間
閔
閵
閻
闌
门
间
闷
阑
阜
阝
阿
降
陳
隆
隊
隋
隡
隨
隱
隶
隹
隺
隻
隼
隽
难
雀
雁
集
雈
雋
雍
雐
雔
雙
雚
雜
雝
離
難
雨
雩
雪
雲
零
雷
需
霍
霜
霝
霞
霸
靈
靑
青
非
靡
面
靣
革
韋
韦
韭
韯
韱
音
頁
頃
項
須
頗
頡
頻
顛
页
風
风
飛
飞
食
飠
養
饣
首
香
馬
馮
駦
马
骨
高
髟
鬥
鬯
鬲
鬼
魚
魯
鮮
鱼
鲁
鳥
鳳
鸟
鹵
鹿
麃
麗
麥
麦
麻
黃
黄
黍
黎
黑
黒
黨
黹
黽
黾
鼎
鼓
鼠
鼻
齊
齋
齐
齒
齿
龍
龙
龜
龟
龠
龰
龱
龴
龵
龶
龷
龸
龹
者
艹
：
？
𠀁
𠀃
𠀆
𠀉
𠀎
𠀐
𠁁
𠁣
𠂆
𠂇
𠂈
𠂉
𠂊
𠂋
𠂎
𠂒
𠂔
𠂛
𠂡
𠂢
𠂤
𠂬
𠂭
𠂹
𠃊
𠃋
𠃌
𠃍
𠃎
𠃑
𠃓
𠃔
𠃜
𠄌
𠄎
𠄠
𠄢
𠆢
𠆥
𠇍
𠈌
𠌵
𠓜
𠔉
𠔥
𠔼
𠔽
𠔿
𠕀
𠕁
𠕋
𠘧
𠘨
𠙻
𠙼
𠚏
𠚒
𠚤
𠚪
𠣏
𠤎
𠤕
𠥓
𠦄
𠦑
𠦝
𠧒
𠧗
𠧪
𠩺
𠪚
𠫓
𠫔
𠫤
𠬛
𠬝
𠬞
𠬢
𠬤
𠬶
𠮛
𠮦
𠮷
𠯑
𠱠
𠳮
𠷎
𡈼
𡉀
𡉵
𡌥
𡍮
𡏳
𡕒
𡕩
𡕰
𡖅
𡗗
𡗜
𡘆
𡘤
𡧱
𡨄
𡩧
𡬠
𡭽
𡰣
𡰥
𡰪
𡰯
𡰱
𡷈
𡸁
𡿨
𡿩
𡿪
𡿺
𢀖
𢀛
𢀩
𢁙
𢆉
𢆰
𢆶
𢇁
𢇇
𢉖
𢌬
𢌿
𢏚
𢑑
𢑚
𢖻
𢙣
𢛳
𢦏
𢦒
𢧵
𢼄
𢾕
𣁋
𣄼
𣅀
𣅽
𣍘
𣎳
𣎵
𣏋
𣏼
𣗥
𣥂
𣥖
𣦵
𣦼
𣧄
𣪊
𣪠
𣬉
𣳾
𣶒
𤇾
𤊽
𤐫
𤓰
𤔔
𤕨
𤣩
𤰇
𤰔
𤰞
𤴓
𤴔
𤽄
𥁑
𥁕
𥃦
𥃩
𥃭
𥇡
𥑟
𥘅
𥘈
𥝢
𥫗
𥱡
𦈢
𦉪
𦉬
𦉼
𦍌
𦍒
𦎧
𦐇
𦓔
𦔮
𦘒
𦙃
𦚏
𦣝
𦣞
𦣻
𦥑
𦥔
𦥯
𦨉
𦭝
𦰩
𧆞
𧈧
𧘇
𧰨
𧴪
𧴮
𧵩
𧾷
𨸏
𨾴
𩙿
𩠐
𩫏
𩵋
𪉷
𪜀
𪟽
𪠲
𪩲
𫇦
𫔭
𫜸
𫝀
𫠣
𫠩
𫢉
𫥞
𫩏
𫩠
𫪡
𫲽
𫶧
𬀷
𬐘
𬗌
𬙙
𬛸
𬜯
𬟩
𬯁
𬴘
𬺻
𬼉
𬼖
𭀰
𭁈
𭁨
𭅰
𭑈
𭕄
𭗼
𭤨
𭥫
𭻾
𮅕
𮊿
𮍌
𮍏
𮓗
𮥼
𮧮
廾
𰀁
𰀄
𰀈
𰀉
𰀕
𰀠
𰀡
𰀢
𰀪
𰁜
𰃮
𰆊
𰆘
𰋙
𰕎
𰢴
𰧭
𰯲
15--
16--
17--
a--
aa--
aad--
aak--
ab--
abe--
abi--
abo--
abso--
ad--
af--
ah--
ahi--
ai--
aiandus--
aig--
ain--
aja--
ak--
aka--
akade--
ako--
aks--
aksa--
al--
ala--
alamb--
ale--
alg--
alga--
algu--
ali--
all--
alo--
alos--
alp--
alu--
am--
an--
ana--
anato--
and--
angu--
ant--
ao--
aol--
aoluu--
apa--
apo--
apt--
ar--
aresti--
aristo--
aritmeeti--
arm--
ars--
aru--
arvo--
arwa--
as--
asso--
asut--
at--
ate--
au--
ava--
avvo--
avvu--
b--
ba--
bag--
bahr--
bar--
bass--
be--
belg--
ben--
ber--
bi--
bibliog--
bis--
bisaa--
bo--
br--
bra--
bu--
budi--
c--
ca--
can--
carol--
cat--
ce--
cha--
che--
chhinna--
cl--
co--
com--
commu--
con--
cu--
d--
da--
dagu--
dan--
de--
demo--
den--
des--
di--
diferent--
digi--
dis--
do--
don--
dr--
dra--
du--
e--
ed--
ede--
edim--
edin--
ee--
eesti--
eg--
ega--
eh--
ehm--
ei--
eks--
el--
ele--
elek--
elektrooni--
elo--
elos--
en--
ep--
er--
era--
eri--
ern--
es--
esi--
esiq--
ess--
esz--
et--
etno--
ette--
eu--
euraa--
ev--
eva--
eve--
ex--
f--
fa--
farma--
fe--
fi--
filmi--
filo--
flo--
fo--
folklo--
for--
fred--
fu--
g--
ga--
gal--
ge--
gen--
geomeetril--
geopo--
gi--
gla--
go--
golde--
gra--
grenad--
gu--
h--
ha--
haa--
haab--
hal--
haldus--
ham--
hapas--
hapu--
haridus--
he--
heege--
heeri--
hhi--
hi--
hii--
hik--
hil--
hirm--
hk--
hl--
hm--
ho--
home--
ht--
htu--
hu--
hulk--
huul--
huvi--
i--
ia--
ie--
ig--
igi--
igu--
igus--
ii--
iist--
ik--
ika--
iki--
iku--
il--
ilma--
ilmu--
ilo--
im--
ima--
imo--
imu--
in--
infi--
ing--
ini--
inne--
insti--
inte--
io--
ir--
ira--
is--
isa--
isi--
ist--
ista--
it--
iv--
iva--
j--
ja--
jaani--
jahi--
jai--
jala--
jao--
je--
jo--
joon--
ju--
juht--
junt--
justiits--
jutu--
k--
ka--
kaa--
kaar--
kae--
kah--
kai--
kal--
kala--
kan--
kana--
kand--
kang--
kap--
kar--
kas--
kasu--
kasv--
kasvata--
kato--
kats--
katsik--
ke--
keele--
keeli--
keero--
kel--
ker--
kerigu--
kes--
kesk--
keskkon--
ki--
kiil--
kikka--
kil--
kinniq--
kir--
kirjut--
kis--
kit--
kivi--
kl--
km--
ko--
koda--
kodo--
koe--
kogo--
kogu--
koh--
kohani--
kohtu--
kokko--
kokkopu--
kokku--
kolm--
kolo--
koma--
kommu--
komp--
kompleks--
kon--
konf--
koo--
kooli--
koom--
koor--
kor--
korja--
korralda--
kos--
koton--
kre--
kri--
kriiti--
krit--
kro--
kroba--
kru--
kruut--
ku--
kua--
kui--
kujo--
kuld--
kultuuri--
kunsti--
kur--
kuul--
kuun--
kva--
ky--
l--
la--
laa--
laadivael--
laba--
laend--
lah--
lahe--
lai--
laim--
laja--
laje--
laskur--
latsi--
laug--
laul--
laulu--
lava--
lavva--
ld--
lda--
lde--
le--
lem--
lemb--
lep--
les--
let--
lev--
lge--
li--
liechten--
liha--
liht--
liigu--
liina--
liit--
liiva--
lim--
lina--
lind--
lingu--
lip--
lipu--
lis--
lisa--
lit--
lk--
lki--
llu--
lm--
lo--
loe--
lont--
lt--
ltuma--
ltuvu--
lu--
lub--
lurk--
lus--
luu--
luudus--
lv--
lvul--
ly--
m--
ma--
maa--
maati--
maga--
magy--
mah--
mal--
man--
manda--
mano--
mar--
mas--
massin--
may--
mb--
mba--
mbre--
mbu--
me--
meel--
meele--
mehe--
mere--
metal--
mi--
mid--
mii--
miis--
mine--
ministri--
mis--
mit--
mma--
mme--
mn--
mne--
mo--
mokor--
monot--
moodu--
morfo--
moto--
mu--
mus--
muu--
muusiga--
muut--
my--
myan--
n--
na--
naa--
naam--
naba--
nag--
nd--
nda--
ndi--
ne--
neli--
nes--
neu--
ng--
ngo--
ngu--
ngutund--
ni--
nic--
nii--
nime--
nis--
nk--
nna--
nne--
no--
nor--
novelli--
nt--
nu--
o--
oe--
oh--
ohv--
oi--
oja--
oka--
oku--
ol--
ola--
oli--
olu--
om--
oma--
on--
oo--
ooni--
op--
opia--
opira--
oppa--
or--
ora--
orbi--
orgaani--
os--
ost--
ot--
ots--
p--
pa--
paari--
pak--
pal--
palanu--
pale--
palu--
pann--
pansi--
para--
pargi--
pe--
peen--
pek--
pennsy--
per--
pere--
peri--
peris--
pi--
pii--
piiri--
pik--
pikk--
pil--
pilli--
pini--
pinna--
pl--
ple--
pli--
po--
pommi--
pop--
populaa--
pos--
post--
pra--
praas--
prakti--
pri--
priitah--
pro--
pru--
pt--
pu--
puhk--
pul--
pun--
pur--
puu--
puud--
puug--
puul--
puusa--
pythago--
q--
qua--
que--
qui--
r--
ra--
raha--
rahu--
rahva--
rahvus--
ram--
ras--
raud--
rd--
rda--
rdsu--
rdu--
re--
reaal--
regi--
regionaal--
rehe--
reile--
rg--
rge--
rgo--
rgu--
rh--
ri--
rii--
riigi--
rik--
rikon--
ril--
risem--
rist--
rja--
rje--
rk--
rla--
rmi--
rn--
rnq--
ro--
rohi--
rokk--
roo--
ros--
roti--
rq--
rs--
rt--
ru--
rv--
rva--
rval--
rve--
rvi--
s--
sa--
saa--
saar--
saat--
saavu--
sada--
saga--
saks--
saksa--
sama--
san--
sar--
savi--
sc--
se--
sea--
see--
sel--
sem--
seo--
seto--
sh--
si--
sigine--
sigu--
siidi--
sil--
sini--
sirvi--
sise--
sisse--
sit--
sk--
ske--
skeel--
sl--
slov--
so--
soe--
soo--
sop--
sotsi--
spordi--
ss--
sso--
st--
sta--
ste--
sti--
stipe--
sto--
su--
sub--
sugu--
sul--
sur--
sure--
surnu--
suu--
suur--
sv--
sval--
svei--
sy--
t--
ta--
taa--
taga--
tah--
tai--
taja--
tak--
tal--
talo--
tam--
tamm--
tan--
tap--
tarvi--
tas--
te--
tea--
tee--
tego--
teh--
tei--
tek--
tel--
tele--
telekommu--
ten--
teoreeti--
ter--
tes--
tex--
tha--
ti--
tia--
tiatri--
tii--
tiibe--
tiin--
tis--
tisem--
tit--
to--
too--
tr--
tra--
tre--
tro--
tru--
ts--
tsa--
tse--
tsendi--
tsi--
tsibipu--
tsu--
tt--
tte--
tu--
tug--
tugi--
tuhk--
tul--
tund--
tutvu--
tuu--
tuum--
u--
ua--
ud--
ue--
uh--
ui--
ujo--
uk--
ul--
um--
uma--
un--
una--
unga--
uni--
up--
us--
usk--
uso--
usu--
ut--
uu--
uur--
uuri--
v--
va--
vaba--
vabahus--
vaeldu--
vahe--
vai--
vaim--
val--
valdorhv--
vali--
valla--
vana--
var--
vara--
vas--
vask--
vasta--
ve--
vel--
vere--
vi--
vii--
vikaht--
viki--
viku--
vil--
vin--
virgu--
viron--
viru--
vis--
vo--
vokaal--
vol--
vu--
vve--
vvo--
w--
wa--
we--
web--
wiedem--
wik--
wil--
wis--
wo--
wool--
x--
y--
yli--
z--
za--
ze--
þ--
đ--
в--
г--
к--
м--
н--
с--
у--
язы--
--0
--1
--2
--3
--4
--5
--6
--7
--8
--9
--a
--aadi
--aal
--aalso
--aari
--aarso
--aat
--ade
--adi
--af
--ahe
--ai
--aia
--aid
--aig
--aigo
--aja
--ajaq
--ajis
--ak
--al
--ala
--ale
--also
--alun
--ama
--amino
--amiq
--amiso
--amist
--an
--ana
--ang
--ani
--aniq
--ano
--anuq
--ao
--aoja
--aol
--ap
--apa
--aq
--ar
--ara
--are
--ari
--aro
--as
--ased
--aso
--ast
--at
--ate
--ation
--ato
--atri
--auja
--aulo
--av
--avi
--b
--ba
--bel
--bergi
--bet
--bi
--bo
--c
--ca
--ce
--ch
--cho
--ci
--cio
--ck
--co
--ct
--cy
--d
--da
--daq
--das
--de
--den
--dge
--di
--diga
--do
--dor
--ds
--dsa
--dse
--dsi
--dso
--du
--duq
--dus
--duso
--e
--ed
--edi
--edu
--eegi
--ega
--egi
--eh
--ehe
--ei
--eja
--ek
--el
--ela
--eld
--ele
--elu
--em
--emb
--en
--eni
--ep
--epa
--eq
--er
--ere
--erit
--ern
--es
--est
--et
--ey
--f
--ff
--fi
--fo
--g
--ga
--gaq
--gas
--gaso
--ge
--ges
--gi
--giq
--git
--gla
--go
--gs
--gu
--gun
--gy
--h
--ha
--he
--helu
--hi
--hn
--ho
--hof
--ht
--hu
--i
--ia
--iatri
--id
--ide
--ido
--idsi
--idu
--ie
--ig
--iga
--igaq
--igu
--iguq
--ih
--iidsi
--iidu
--iir
--iisi
--ik
--iku
--il
--ila
--ile
--ilino
--ilo
--ima
--in
--ina
--ine
--ing
--ingu
--ini
--ino
--inus
--io
--ion
--iooni
--ioonin
--ip
--ipu
--iq
--ique
--ir
--iri
--irmine
--is
--isi
--ism
--ismi
--iso
--ist
--it
--itsido
--iu
--iuun
--iv
--ivaq
--ivere
--ivi
--j
--ja
--jaam
--jago
--jao
--jate
--jit
--jo
--juht
--k
--ka
--kan
--kas
--ke
--keelitsest
--keskus
--ki
--kiil
--kiq
--kira
--kivi
--kko
--ko
--kogo
--koja
--kond
--konna
--kooli
--koori
--kri
--ks
--ksa
--ksaaro
--kt
--ku
--kund
--kus
--kuu
--kuul
--l
--la
--laisi
--lano
--laso
--laul
--ld
--lda
--ldo
--le
--li
--lidso
--ligo
--ligu
--liguq
--liidsi
--liin
--lik
--likku
--lino
--list
--ll
--lo
--lomp
--lon
--ls
--lt
--lu
--lugu
--luku
--lump
--ly
--m
--ma
--maa
--maal
--mada
--madso
--maja
--mani
--mb
--mba
--mbas
--mbo
--me
--meq
--mi
--miis
--min
--mino
--miq
--miso
--mist
--mo
--mp
--mu
--muuso
--n
--na
--nce
--nd
--nda
--ndi
--ndo
--ne
--ng
--ngi
--ngu
--nhof
--ni
--niga
--nik
--niq
--nit
--nius
--nn
--nna
--nni
--nno
--no
--ns
--nt
--nts
--nu
--nuq
--nurk
--o
--od
--oga
--ogia
--ogiat
--oja
--ok
--ol
--olo
--omo
--on
--oni
--oo
--oogia
--ooli
--opa
--oppaja
--oq
--or
--ori
--os
--osa
--oso
--p
--pa
--palu
--pargi
--pe
--pera
--pi
--pida
--pido
--pidu
--po
--preemia
--ps
--psu
--pu
--puu
--q
--que
--r
--ra
--rada
--ral
--rd
--re
--rf
--rg
--rgi
--ri
--ris
--rium
--rje
--rk
--ro
--rona
--rr
--rs
--rt
--ru
--rv
--ry
--s
--sa
--saar
--sahe
--salu
--se
--sed
--ser
--sh
--si
--sido
--siq
--sit
--sjon
--sk
--ska
--ski
--sm
--so
--son
--soni
--soo
--ss
--ssi
--sso
--sson
--ssoni
--ssu
--st
--stas
--ste
--stki
--sto
--stu
--su
--sus
--suso
--sust
--suu
--suut
--t
--ta
--tama
--taq
--tas
--tav
--te
--ted
--tegela
--th
--ti
--tiidu
--tion
--tis
--tka
--to
--town
--tri
--ts
--tse
--tsido
--tsit
--tso
--tu
--tud
--tus
--tuso
--ty
--u
--ub
--ud
--ude
--ug
--uga
--uhe
--uisi
--uja
--uko
--uku
--ul
--uli
--ulit
--ulo
--ult
--um
--umiso
--un
--unuq
--uq
--ur
--uru
--us
--use
--uso
--ust
--usto
--ut
--uti
--uu
--uut
--v
--va
--valt
--vano
--vaq
--ve
--vi
--viku
--vno
--vo
--vski
--vso
--vu
--vust
--w
--wa
--wani
--we
--ws
--x
--y
--yo
--z
--zi
--а
--в
--и
--ика
