!
"
#
##0
##1
##10
##11
##12
##13
##14
##15
##16
##17
##18
##19
##2
##20
##21
##22
##23
##24
##25
##26
##27
##28
##29
##3
##30
##31
##32
##33
##34
##35
##36
##37
##38
##39
##4
##40
##41
##42
##43
##44
##45
##46
##47
##48
##49
##5
##50
##51
##52
##53
##54
##55
##56
##57
##58
##59
##6
##60
##61
##62
##63
##64
##65
##66
##67
##68
##69
##7
##70
##71
##72
##73
##74
##75
##76
##77
##78
##79
##8
##80
##81
##82
##83
##84
##85
##86
##87
##88
##89
##9
##90
##91
##92
##93
##94
##95
##96
##97
##98
##99
$
%
&
'
(
)
*
+
,
-
.
/
0
00
000
01
0140
02
03
04
05
06
07
08
09
1
10
100
1000
101
1016
104
1080
109
1093
11
1111
115
117
118
119
12
120
126
128
13
14
15
150
1500
16
1600
17
170
1798
1799
18
1800
1801
1816
1818
1819
1820
1821
1834
1835
1836
1840
1844
1846
1848
1850
1852
1856
1857
1858
1860
1869
1870
1871
1873
1874
1875
1876
1877
1878
1879
1880
1881
1884
1885
1890
1892
1893
1894
1895
1896
1897
1898
1899
19
1900
1901
1902
1903
1905
1906
1907
1909
1910
1911
1912
1913
1914
1915
1916
1917
1918
1919
1920
1921
1922
1923
1925
1926
1927
1928
1929
1930
1931
1932
1933
1934
1935
1936
1937
1938
1939
1940
1941
1942
1943
1944
1945
1946
1947
1948
1949
1950
1951
1952
1953
1954
1955
1956
1957
1958
1959
1960
1961
1962
1963
1964
1965
1966
1967
1968
1969
197
1970
1971
1972
1973
1974
1975
1976
1977
1978
1979
1980
1981
1982
1983
1984
1985
1986
1987
1988
1989
1990
1991
1992
1993
1994
1995
1996
1997
1998
1999
2
20
200
2000
2001
2002
2003
2004
2005
2006
2007
2008
2009
2010
2011
2012
2013
2014
2015
2016
2017
2018
2019
2020
2021
2022
203
2095
21
22
220
23
2307
23245604
235
24
240
25
250
26
27
28
29
3
30
300
31
32
33
34
35
350
36
37
38
380
39
4
40
400
41
42
43
44
45
46
47
48
49
5
50
500
51
52
53
54
540
55
56
57
58
59
6
60
600
61
61728
62
63
64
65
67
6736
68
7
70
700
71
72
74
75
76
77
78
79
8
80
800
81
82
83
85
87
88
89
9
90
91
92
93
94
95
96
97
978
98
9859
99
:
;
<
=
>
?
@
[
\
]
^
_
`
a
aa
aaron
ab
aba
ababhali
ababini
abaculi
abacus
abadala
abadlali
abafana
abafazi
abafunda
abafundi
abahlala
abahlali
abahlanu
abahlobo
abakhulu
abakhwetha
abakwa
abalandeli
abaleke
abali
abalishumi
abamalunga
abambalwa
abambe
abamhlophe
abamnyama
abancinane
abancinci
abane
abangama
abangaphezu
abangazange
abaninzi
abantetho
abantsundu
abantu
abantwana
abanye
abaphambili
abaphandi
abaphila
abaphuma
abaphumeleleyo
abasebenza
abasebenzi
abasebenzisa
abasele
abasemagunyeni
abasibhozo
abasixhenxe
abathathu
abathe
abathembu
abathetha
abathi
abathile
abatsha
abavela
abaxhasi
abaye
abayi
abazali
abazange
abazimeleyo
abaziwayo
abazizigidi
abboud
abe
abelungu
abemi
abenza
abesuthu
abhalwa
abhalwe
abizwa
abkhazia
abo
abomvu
abona
abonakale
abone
abosulelekileyo
about
abraham
abramus
abuja
abuye
abuyele
ac
academic
academy
access
accessdate
accessed
according
accounting
acid
acids
act
active
ad
adam
adams
ade
adelaide
adi
adla
administration
adult
afana
affairs
afike
africa
african
africans
afrika
afrikaans
afrikaner
afro
after
afumane
afumaneka
afunde
again
against
agasti
age
agency
ages
agricultural
agriculture
ahamba
ahambe
ahh
ahlala
ahlale
ahlaziyekileyo
ahlukeneyo
aids
air
airborne
airport
aka
akafani
akakho
akatsuki
akazange
akhawunti
akhe
akhethekileyo
akho
akhoyo
akowabo
akuba
akufika
akufuneki
akukho
akunjalo
akunye
akusingawo
akuthethi
akuyo
akuzange
akwa
akwazi
al
alan
alandelayo
alandelelana
alaskha
albert
albertina
album
ale
alex
alexander
alexandra
alexandria
alexis
alfred
algebra
algebraic
algeria
ali
alice
aliqela
alishumi
all
allan
allen
allmusic
alloys
alo
along
alphabet
also
alt
although
alukho
aluminium
alveoli
alves
am
ama
amabali
amabandla
amabanga
amabanjwa
amabhaca
amabhinqa
amabhulu
amabini
amacala
amacandelo
amachiza
amaculo
amacwecwe
amadami
amade
amadoda
amafama
amafutha
amagama
amagcisa
amagosa
amagqabi
amagqunukhwebe
amagumbi
amahlanu
amahlathi
amahle
amahlubi
amahlwili
amajoni
amakhadi
amakhulu
amakhwenkwe
amakomkhulu
amalahle
amalinge
amalungelo
amalungu
amampondo
amampondomise
amanani
amancinane
amanda
amandla
amandulo
amane
amangesi
amangqika
amanina
amaninzi
amanqaku
amantombazana
amanyathelo
amanye
amanyeneyo
amanzi
amaphakathi
amaphepha
amaphondo
amaphupha
amapolisa
amaqanda
amaqela
amaqhosha
amaqondo
amarharhabe
amasebe
amasele
amashishini
amashumi
amasiko
amathambo
amathandathu
amathathu
amathe
amathole
amathuba
amathumbu
amatyala
amatye
amatyeli
amava
amawaka
amaxesha
amaxhoba
amaxhosa
amayeza
amaziko
amazinyo
amazon
amazulu
amazwe
amazwekazi
amazwi
ambalwa
ame
amehlo
america
american
amhlophe
ami
aminyaka
amnyama
among
amount
amparo
amsterdam
an
ana
anac
analog
analysis
analytical
anamashumi
ananye
anatomy
anayo
anc
ancestors
ancestry
ancient
and
anderson
andre
andrew
andries
andy
ane
anesihlanu
anesithathu
anesithoba
anesixhenxe
anetyuwa
angakwazi
angama
angamanani
angamashumi
angaphandle
angaphantsi
angaphaya
angaphezu
angazange
ange
angel
angeles
angle
angles
anglo
anikwe
animal
animals
animation
anime
anje
ann
anna
anne
annual
anos
another
antarctic
antarctica
antetho
anthem
anthony
anti
antsundu
any
aorta
aos
apartheid
apha
aphakamileyo
aphambili
aphantsi
aphesheya
aphezulu
aphinde
apho
aphuma
aphume
apple
approximately
april
aqala
aqale
aqonde
aquka
ar
arabhu
archaea
archbishop
archibald
architects
archive
archived
are
area
areas
argentina
argentine
arhente
aristotle
arithmetic
armstrong
army
arnold
around
art
arteries
arterioles
arthur
article
artist
arts
as
asakhasayo
ase
aseafrika
asebenza
asebenze
asebenzisa
asel
asemelika
asemzantsi
asetyenziswa
aseyurophu
asezantsi
asia
asian
asibhozo
asinto
asixhenxe
aso
asoloko
associated
association
astrolabe
astronomy
asuka
asuke
asweleke
at
atatu
athabathe
athathe
athe
athetha
athethe
athi
athile
atlantic
atle
atletico
atmosphere
atom
atomic
atoms
atresia
atria
atrial
atrium
atshintshe
atsho
atyheli
au
audio
august
austra
australasia
australia
australian
austria
author
authorities
authority
auto
available
avela
avuke
award
awarded
awards
awathi
away
awo
awodwa
axis
aya
aye
ayibethwa
ayidaho
ayikho
ayiyo
ayizange
ayo
aza
azalwe
aze
azi
azibiza
azii
azikwazi
aziwa
azo
b
ba
baba
babantu
babbage
babe
babhali
babizwa
babo
babuya
bach
bachelor
bacinga
bacinge
back
bacon
bacteria
baculum
bad
bada
badala
bade
badibana
badla
badlala
bafaka
bafika
bafike
bafudukela
bafumana
bafumane
bafumanisa
bafuna
bafunda
bafunde
bafundi
bahamba
bahlala
baka
bakayise
bakhe
bakho
bakuba
bakuthi
bakwazi
bala
bale
bali
balizwa
balkan
balo
bam
bamabritane
bamalunga
bamazwe
bambi
banabantwana
band
bandeirantes
bangaphezulu
bani
baninzi
bank
banks
bantu
bantwana
banzi
baphele
baphelela
baphinda
baphuma
baqala
barbara
barcelona
barker
barry
base
baseafrika
basebenzisa
basebritane
based
basekuhlaleni
basemzantsi
baseroma
basetyhini
basic
basis
baskin
baso
basoloko
basuka
bat
bates
bathathe
bathe
bathetha
bathi
bats
bavela
bawo
bawuthanda
bay
baya
baye
bayo
bayoloji
baza
bazalwa
baze
bazimanya
bazo
bbc
bc
be
beach
bean
beaufort
bebanga
bebonke
becala
became
because
become
becomes
bee
been
beer
before
befuna
befunda
begins
behlabathi
being
bekhula
bekusithi
bekuthi
belali
beli
bell
belo
bemveli
ben
benani
benedict
benjamin
benni
benson
bento
benza
benze
benziwa
bephethe
berlin
bernhardt
besebenza
besebenzisa
besenza
besintu
besisu
besithi
besixhosa
besiya
besizwe
best
bethelsdorp
bethetha
bethu
between
bexesha
beyond
beza
bezisoloko
bezizwe
bhanya
bhanyabhanya
bhayi
bhola
bhubhane
bhuti
bi
bible
big
biko
bile
bill
billboard
billion
billy
binary
bing
biography
biology
biota
biotic
birds
birth
bit
bits
black
blindness
blog
blood
blue
board
bob
bobabini
bodwa
body
boer
bois
bokuqala
bokwe
bold
boleyn
boloke
bolwandle
bombutho
bomhlaba
bomntu
bomvu
bomzantsi
bomzimba
bona
bond
bonds
bonke
book
books
born
bosnia
both
botswana
box
boys
br
braai
brain
branch
brasil
brasileira
brasileiro
brazil
brazilian
brenda
brian
bridge
brilliant
britain
britane
britannica
british
broadcast
bronze
brothers
brown
brownlee
bruce
bryan
bucala
buhle
building
buildings
built
buka
bulgarian
bulgarians
bull
bulletin
bundle
bungama
bungqina
burden
burger
burning
bush
business
busisiwe
but
butler
by
c
cable
cables
cala
calcium
calculator
california
call
called
calulo
cambridge
came
campbell
campeonato
campinas
campus
can
canada
candelo
candida
candidiasis
canine
cannibalism
cannibals
canzibe
cape
capillaries
capillary
capital
carbon
card
cardiac
cardinal
career
cargo
carl
carlos
carmen
carnivores
carolina
carter
cat
catarinense
category
cattle
causa
caused
causes
cava
cbf
cd
cdc
ce
cell
cells
cemetery
census
center
centers
centimeter
central
centre
century
certain
chain
chaka
chalmers
champion
champions
championship
championships
chancellor
change
chapter
charge
charles
charlotte
chatha
check
chemical
chemicals
chemistry
chetnik
chetniks
chicago
chicken
chief
child
children
chile
chin
china
chinese
chloride
chlorine
choanal
chris
christ
christian
christmas
christopher
chromosome
chromosomes
chu
chuang
church
cia
cipher
circulation
circulatory
ciskei
citation
cite
citeweb
city
clan
clark
classical
clean
click
climate
clinical
cloning
clouds
club
clube
clubs
cm
cnn
co
coach
coast
coatings
code
coffee
cohen
cold
colenso
colin
college
collins
colombia
colony
color
colour
columbia
column
com
come
comes
commerce
commission
committee
common
commons
commonwealth
communist
community
commutative
companion
company
compare
complete
complex
components
composition
compound
compounds
computer
computing
concentration
concept
confederations
congo
congress
consciousness
constitution
constitutional
contemporary
content
continents
control
convention
cool
cools
cooper
copa
copper
copy
core
corn
coronavirus
corporation
could
council
countries
country
county
course
court
cov
covid
cox
cr
crate
crates
created
credit
crisis
croatian
crosby
cross
crown
ct
culo
cultural
culture
cultures
cup
curitiba
current
cusp
cut
cutaneous
cwaka
cwecwe
cycle
cyril
d
da
daily
dala
dalindyebo
dance
daniel
dark
das
data
database
date
daughter
dave
david
davis
day
days
dc
de
dead
dean
death
debut
dec
december
decimal
defenders
defined
definition
degree
del
democratic
denis
denominator
department
deprecated
der
derby
derived
des
desert
design
designed
detachments
development
device
devices
deyi
df
di
diagnosis
diagonal
dialects
diamond
diana
diastole
dibanisa
dick
dictionary
did
die
died
different
diffusion
digital
digits
dimensions
dio
dioxide
direction
director
discourse
discovery
disease
diseases
disemba
displaystyle
distance
distribution
district
dividend
divisio
division
divisor
dj
dlamini
dlomo
dna
do
doctor
does
dog
doi
dolophu
domestic
don
donald
done
dordrecht
dos
double
douglas
down
doyle
dr
drama
drawn
dream
drive
drug
du
duathlon
dube
duke
dunga
durban
during
dyunivesithi
dzanibe
e
ea
each
eafrika
earl
earliest
early
earth
east
eastern
eat
ebakhwetheni
ebalaseleyo
ebaluleke
ebalulekileyo
ebandakanya
ebangela
ebantwaneni
ebantwini
ebekelwe
ebekwe
ebhaliweyo
ebhalwe
ebhayi
ebhekisa
ebizwa
ebola
ebomini
ebomvu
ebonakala
ebonisa
ebotswana
ebrazil
ebudeni
ebudodeni
ebuhlanti
ebukhosini
ebuntwaneni
ebusika
ebusuku
ebutsheni
ebuyela
ebuza
ecace
ecacileyo
ecaleni
ecalifornia
ecawa
ecg
echaza
echina
ecology
economic
economics
ecuador
ecula
ed
edabini
edgar
edibanisa
edikeni
edirne
edited
edith
edition
editor
edla
edlala
edlalwa
edlulileyo
edmund
edolophini
eds
edu
education
educational
edumileyo
edward
edwin
ee
eekhemikhali
eekhilomitha
eemitha
efana
efanayo
efanelekileyo
efikile
efort
efrance
efumana
efumaneka
efuna
efunda
efundisa
efuneka
egama
egazi
egazini
egcina
egcuwa
egg
eghana
egoli
egqibeleleyo
ehamba
ehlabathi
ehlabathini
ehlala
ehleli
ehlotyeni
ei
eight
ein
either
ejamani
ejapan
ejele
ejongene
ekapa
ekhatywayo
ekhaya
ekhayelitsha
ekhayeni
ekhethekileyo
ekhondweni
ekhoyo
ekhula
ekimberley
ekroonstad
ekubeni
ekufeni
ekufikeni
ekufuneka
ekufuphi
ekugqibeleni
ekuhambeni
ekuhlaleni
ekukhanyeni
ekukhuleni
ekulweni
ekunciphiseni
ekunene
ekunye
ekupheleni
ekuqaleni
ekusebenziseni
ekuswelekeni
ekuthi
ekuthinteleni
ekuthiwa
ekutyeni
ekuvukeni
ekuyo
ekwabelwana
ekwakusithiwa
ekwenzeni
ekwenziwa
ekwi
ekwindla
el
ela
elalibizwa
elalini
elandela
elandelayo
elangeni
elathi
elaziwa
elder
electric
electrical
electricity
electromagnetic
electron
electronic
electrons
elele
element
elements
elephant
eli
elibalaseleyo
elibizwa
elibomvu
elide
elidlulileyo
elifumaneka
elifutshane
eligama
elijongene
elikhulu
elikomkhulu
elimele
eliminated
elimnyama
elinamandla
elinambini
elinanye
elincinane
elinesibhozo
elinesibini
elinesihlanu
elinesithoba
elinesixhenxe
elingama
elingu
elininzi
elinolwazi
elinye
eliphakathi
eliphambili
eliphantsi
elipheleleyo
eliphezulu
eliphinda
eliqhalo
elisetyenziswa
elishumi
elisuka
elithetha
elithi
elithile
elitsha
elivela
eliya
eliyi
elizabeth
elizayo
elizimeleyo
elizinze
elizwekazi
elizweni
ellen
elo
elokishini
elolu
elona
elondon
elovedale
elsevier
elubala
elubhacweni
eluhlobo
elula
elungileyo
eluntwini
elusuthu
eluvalelweni
elvis
elwandle
em
emacaleni
emafini
emagqabini
email
emakhaya
emakhayeni
emalunga
emampondweni
emandla
emantla
emanzini
emaphandleni
emathunjini
emaxhoseni
emazantsi
embalwa
embeleni
embi
embindini
embryo
emculweni
emdaka
emehlweni
emele
emelika
emergency
emerging
emfundo
emfutshane
emhlabeni
emhlophe
emi
emibini
emide
emidlalo
emihlanu
emikhulu
emile
emily
emine
eminem
emini
emininzi
eminyaka
eminye
emiphungeni
emisebenzini
emithandathu
emithathu
emithini
emkhosini
emlanjeni
emlilweni
emlonyeni
emlungwini
emma
emnandi
emntla
emntwini
emnyama
emnye
emonti
emoyeni
empire
empty
empuma
empumalanga
emsebenzini
emthatha
emtshatweni
emva
emveni
emzantsi
emzimbeni
emzini
en
enabantu
enamandla
enatal
encediswa
encinane
encinci
encryption
encyclopedia
encyclopædia
end
endala
endalweni
endaweni
ende
endleleni
endlini
endlwini
endogenous
endoi
endwendwela
ene
eneminyaka
eneneni
energy
enesihloko
enetherlands
enew
eng
engabonakaliyo
engama
engamanzi
engamashumi
engaphantsi
engaphaya
engaqhelekanga
engazange
engcono
engcwele
engekho
engena
engeyiyo
engezantsi
engilane
engilani
engineering
england
english
engqondweni
engu
engumntu
eninzi
enjalo
enje
enjenge
enkomo
enkosi
enkulu
enkundleni
enlarge
ensemble
entabeni
entanyeni
entertainment
entetho
entla
entlango
entle
entliziyweni
entloko
entolongweni
entsha
entshona
environment
environmental
enxulumene
enye
enza
enze
enzima
enziwe
ep
epalamente
eparis
ephakamileyo
ephakathi
ephambili
ephantsi
epheleleyo
ephethe
ephezulu
ephidemikhi
ephilayo
ephilileyo
ephindwa
ephuma
epic
epidemiological
epidemiology
epitoli
epoland
epreli
eqhelekileyo
eqingqiweyo
eqonce
eqongeni
equals
equation
equations
equator
equka
erhawutini
erhini
eric
ernest
erobben
error
es
esaphila
esaziwa
esco
escotland
ese
esebenza
esebenzisa
esekelwe
esele
eselula
esemazantsi
esempuma
esemthethweni
esenza
esenziwe
esetyenziswa
esezantsi
eshiya
eshushu
esi
esiba
esibalulekileyo
esibangelwa
esibhakabhakeni
esibhedlele
esibhozo
esibindini
esibizwa
eside
esidla
esidlangalaleni
esifana
esifutshane
esihambisayo
esihloko
esikhulu
esikhumbeni
esikolweni
esilandelayo
esilwa
esinga
esingathi
esingesi
esingesini
esingu
esinye
esiphezulu
esiphila
esiphilayo
esisetyenziswa
esisiseko
esisuka
esiswini
esithethwa
esithi
esithile
esitsha
esitsho
esivela
esixhoseni
esiya
esiyi
esiza
eso
esoloko
esona
esosulelayo
esoweto
essential
est
estate
esuka
esuthwini
eswatini
et
etc
ethambileyo
ethanda
ethandwa
ethe
ethekwini
ethetha
ethethwayo
ethi
ethile
ethu
etranskei
etyheli
eu
euclid
eugene
eukaryotes
euler
eunited
europe
european
evans
evela
evelisa
even
ever
every
evidence
evolution
ewashington
ewe
ewisconsin
ewonke
ex
example
excelsior
exchange
exesi
exhaphakileyo
eya
eyaba
eyadlulayo
eyahlukeneyo
eyahlukileyo
eyakhe
eyakhiwe
eyakuthi
eyapapashwa
eyathi
eyayibizwa
eyayiphakathi
eyayisakuba
eyaziwa
eyaziwayo
eye
eyedwa
eyedwarha
eyekhala
eyenkanga
eyenza
eyenzeka
eyenzekayo
eyenziwa
eyenziwe
eyesibini
eyesilimela
eyethupha
eyi
eyijiya
eyindumasi
eyinkunzi
eyiyo
eyodwa
eyokuqala
eyokwindla
eyomdumba
eyomeleleyo
eyomnga
eyomqungu
eyomsintsi
eyona
eyonanto
eyugoslavia
eyunivesithi
eyurophu
eza
ezahlukeneyo
ezahlukileyo
ezalelwa
ezalwa
ezama
ezambia
ezandleni
ezantsi
ezathi
ezaziwa
ezaziwayo
eze
ezelwe
ezemidlalo
ezenza
ezenzeka
ezenzelwe
ezenziwa
ezenziwayo
ezenziwe
ezi
ezibalulekileyo
ezibangela
ezibangelwa
ezibi
ezibini
ezibizwa
ezibomvu
ezibonakalayo
ezibonakalisa
ezidaleka
ezidla
ezidolophini
ezifana
ezifanayo
ezifanelekileyo
ezifileyo
ezifumaneka
ezifunwa
ezigidi
ezihamba
ezihlala
ezihlelelekileyo
ezii
ezikhoyo
ezikhula
ezikhulu
eziko
ezikolweni
ezikuyo
ezikwi
ezilalini
ezili
eziliqela
ezilishumi
ezilokishini
ezilungileyo
ezimalunga
ezimandla
ezimanyeneyo
ezimbalini
ezimbalwa
ezimbi
ezimbini
ezimdaka
ezimeleyo
ezimhlophe
ezimile
ezimnyama
ezincancisayo
ezincinane
ezincinci
ezindlwini
ezine
ezinee
ezinethambo
ezingama
ezingamanzi
ezingamashumi
ezingaphezu
ezingaphezulu
ezingekho
ezingqonge
ezininzi
ezinjalo
ezinje
ezinkulu
ezintabeni
ezintandathu
ezintathu
ezintlanu
ezintle
ezinto
ezintsha
ezinxulumene
ezinye
ezinzima
eziphambili
eziphantsi
eziphefumlayo
eziphezulu
eziphila
eziphilayo
eziphilileyo
eziphuma
eziqhelekileyo
eziquka
ezisebenza
ezisebenzisa
ezisemhlabeni
ezisemthethweni
ezisetyenziselwa
ezisetyenziswa
ezishushu
ezisi
ezisisiseko
ezisixhenxe
ezisuka
ezithandwayo
ezithe
ezithetha
ezithethwa
ezithi
ezithile
ezivela
ezixhaphakileyo
eziya
eziye
eziyi
ezizii
ezizitho
ezizodwa
ezizwe
ezo
ezobupolisa
ezolimo
ezona
ezonto
ezopolitiko
ezosulelayo
ezulwini
f
face
faced
fact
factbook
factors
facts
faith
faku
fame
family
far
farm
farming
fassie
fast
fat
father
fats
fatty
fc
feature
features
february
federation
female
females
fenerbahc
ferdinand
festival
fever
few
fiction
field
fields
fifa
fig
figures
file
film
final
finals
finite
fire
first
fish
five
fiziki
flats
fletcher
flies
flora
flow
flower
flowering
flowers
fm
following
food
foods
football
footballer
footnotepavlovi
footnotetomasevich
for
force
forced
forces
ford
forest
form
former
forming
forms
formula
fort
found
foundation
founded
four
fox
frac
fraction
fractions
franc
france
frances
franchise
francis
francisco
frank
franklin
franz
fred
frederick
free
freedom
frere
fresh
friedrich
from
front
frontier
ft
fu
fuels
full
function
fungi
fungus
fusion
futebol
futhi
future
fuze
g
ga
gaba
gabriel
galatasaray
gallbladder
gama
game
gametes
gandhi
gardens
gas
gases
gauteng
gave
gay
gaye
gazette
gazi
gca
gcaleka
gcse
ge
gene
general
genes
genus
geographic
geography
geometry
george
georgia
geqe
gerald
german
germans
germany
gert
get
ghana
ghirlandaio
giant
gidi
girl
give
given
gland
glass
global
globo
go
goal
goat
goats
god
gold
good
goodman
google
gordimer
gospel
gov
govan
government
governor
gqirha
gqoba
gqolo
graham
grammy
grant
grass
grasses
gravity
gray
great
greater
greatest
greek
green
ground
group
groups
grow
gu
guarani
guardian
guerrillas
guide
guinea
gurmukhi
guy
gxebe
h
ha
had
half
hall
hamba
hamilton
hand
handbook
hands
hani
hans
hansen
haploid
hard
harding
hardware
hare
harold
harrison
harry
has
have
having
hayi
he
head
health
heart
heat
heinz
held
helen
helena
helium
help
hemorrhagic
henry
hepatitis
her
herbert
here
heritage
herman
herzegovina
heso
high
higher
hikmet
hilbert
hill
him
himself
hindi
hip
his
historical
history
hit
hiv
hlabathi
hlanga
hlathi
hlelo
hlobo
hlubi
hlula
hlulwa
holy
home
hon
hong
honorary
honoris
honour
hop
hope
horizontal
hospital
hot
house
houston
how
howard
however
htm
html
http
https
hubbard
hugh
human
humans
hundred
hydrogen
i
ia
iafrika
iarctica
iba
ibala
ibalaseleyo
ibali
ibaluleke
ibalulekileyo
ibandakanya
ibanga
ibangela
ibayoloji
ibe
ibekwe
ibhalwa
ibhalwe
ibhayi
ibhayibhile
ibhekisa
ibhodi
ibhokhwe
ibhokisi
ibhola
ibhotile
ibhunga
ibizwa
ibonakala
ibonakalisa
ibonisa
ibotswana
ibuffalo
ibunzi
icala
icandelo
ice
icebo
ichaza
ichelsea
ichiza
ict
iculo
icwecwe
id
idabi
ide
idibana
idibanisa
idla
idlaba
idlala
idlalwa
idlalwe
idolophu
idols
if
ifana
ifilimu
ifilosofi
iflegi
ifort
ifowuni
ifumana
ifumaneka
ifuna
ifuthe
igadi
igalelo
igama
igazi
igesi
ighana
igila
ignored
igolide
igosa
igqwetha
igramma
igreece
igumbi
igunya
igusha
igutsi
ihafu
ihamba
ihambe
ihashe
ihepatitis
ihlabathi
ihlala
ihlale
ihlathi
ii
iibhotile
iidolophu
iidyunivesithi
iifowuni
iigusha
iii
iikhemikhali
iikhompyutha
iikhowudi
iiklabhu
iikopi
iileta
iilwandle
iilwimi
iimbaleki
iimbali
iimbasa
iimbewu
iimeko
iimela
iimfazwe
iimfuno
iimgm
iimoto
iimpahla
iimpawu
iimpundu
iimveku
iimveliso
iincwadi
iindaba
iindawo
iindibano
iindidi
iindlebe
iindleko
iindlela
iindwendwe
iingalo
iingcali
iingcambu
iingcango
iingcongconi
iingoma
iingqondo
iingxaki
iingxangxasi
iingxelo
iingxoxo
iinjongo
iinkalo
iinkampani
iinkcukacha
iinkokheli
iinkomo
iinkonzo
iinkosi
iinkqubo
iinkukhu
iinkundla
iinkwenkwezi
iinqanawa
iinqwelo
iintaba
iintaka
iintetho
iintlanga
iintlanzi
iintlobo
iintloko
iintombi
iintsana
iintsapho
iintsholongwane
iintshukumo
iintsomi
iintsuku
iintyatyambo
iinwele
iinyamakazi
iinyanga
iinyawo
iinyoka
iinzame
iitafile
iithoyilethi
iityuwa
iiveki
iiyunithi
ijamani
ijelo
ijikeleza
ijolise
ikakhulu
ikapa
ikarati
ikhaba
ikhadi
ikhankatha
ikhaya
ikhe
ikhemistri
ikho
ikholeji
ikhompyutha
ikhona
ikhondo
ikhowudi
ikhulu
ikhupha
ikhuphe
ikoloni
ikomkhulu
ikopi
ikude
ikumkani
ikuyo
ikwa
ikwabizwa
ikwasetyenziswa
ikwazi
ikwaziwa
ikwenza
ilahleko
ilali
ilandelayo
ilanga
ileta
ili
ilibode
ilifa
iligama
ilindle
ilitye
ilizwe
ilizwi
illinois
ilokishi
ilula
ilulwimi
ilungelo
ilungu
imaginary
imalariya
imali
imalunga
imanyano
imaski
imazi
imbali
imbasa
imbeko
imbeleko
imbewu
imbila
imbiza
imbola
imbongi
imbono
ime
imeko
imela
imele
imelika
imephu
imetal
imfazwe
imfundiso
imfundo
imfuneko
imhlophe
imi
imiba
imibala
imibhalo
imibongo
imiboniso
imibono
imibutho
imibuzo
imicimbi
imida
imidange
imidlalo
imifanekiso
imifuno
imigama
imigaqo
imigqaliselo
imihla
imihlaba
imikhosi
imilambo
imilenze
imilinganiselo
imimandla
imini
iminyaka
imiphefumlo
imiphunga
imiqathango
imisebenzi
imitha
imithambo
imithetho
imithi
imithombo
imixube
imiyalelo
imiyalezo
imizekelo
imizi
imizimba
imizuzu
imo
imonti
imoto
imozulu
impacts
impahla
impempe
impendulo
impi
impilo
important
impuma
impumelelo
imvelaphi
imveliso
imvo
imvula
imvume
imvumi
in
inabantu
inabemi
inani
inc
inciba
incinane
incinci
incisors
include
includes
including
incoko
incopho
incwadana
incwadi
indaba
indalo
indawo
indebe
independent
index
india
indian
indima
individual
indiya
indlala
indlebe
indlela
indlovu
indlu
indo
indoda
industrial
ine
inee
inene
infection
infections
infectious
infinite
influenza
info
information
ingaba
ingakanani
ingakumbi
ingakwazi
ingama
ingaphezulu
ingasentla
ingasetyenziswa
ingca
ingcali
ingcamango
ingcambu
ingcinezelo
ingcwaba
ingeniso
ingenziwa
ingingqi
ingoma
ingozi
ingqalelo
ingqokelela
ingqokolela
ingqondo
ingqongqo
ingqumbo
ingubo
inguqulelo
ingxaki
ingxelo
ingxoxo
inika
inikwa
ininzi
inja
injalo
injongo
inkampani
inkangeleko
inkcaso
inkcazelo
inkcazo
inkcubeko
inkobe
inkokeli
inkokheli
inkoliso
inkolo
inkomfa
inkomo
inkonzo
inkosazana
inkosi
inkosikazi
inkqubela
inkqubo
inkukhu
inkulu
inkululeko
inkulumbuso
inkumbulo
inkundla
inkunzi
inkwenkwe
inkwenkwezi
inkxaso
inobunzima
inombolo
inoveli
input
inqaku
inqalathi
inqanaba
inqanawa
inqwelo
inside
institute
institutes
institution
int
intaba
intanethi
integer
integers
intergers
interlingue
internal
international
internet
intestine
intetho
intlalo
intlambo
intlanga
intlango
intlanzi
intle
intliziyo
intloko
intlonipho
into
intombazana
intombi
intonjane
introduction
intsalela
intsebenziswano
intsha
intshatsheli
intsholongwane
intshukumo
intsimbi
intsingiselo
intsomi
intsusa
intwana
invalid
invention
inxalenye
inxaxheba
inxenye
inyama
inyanga
inyaniso
inye
inyongo
inzala
inzalo
inzululwazi
inzuzo
iol
ion
ions
ipa
ipac
ipalamente
iparis
iphakathi
iphandemikhi
iphantsi
iphela
iphepha
iphephandaba
iphinde
iphondo
iphulo
iphuma
iphume
iphumelele
iphupha
ipitoli
ipl
iprage
iprotini
iqala
iqale
iqanda
iqela
iqembu
iqhalo
iqhawe
iqhenqa
iqonga
iquka
iqulathe
iqumrhu
iran
irekhodi
ireland
irhuluneli
iriphabliki
iron
irrational
irving
is
isaac
isabc
isahluko
isahlulo
isakhiwo
isakhono
isandi
isandla
isango
isantya
isazinge
isbn
isebe
isebenza
isebenze
isebenzisa
isekelwe
isenokuba
isenokusetyenziswa
isenzi
isenziwa
isenzo
isetyenziselwa
isetyenziswa
isetyenziswe
ishishini
ishumi
isi
isialbania
isiba
isibhakabhaka
isibhulu
isibindi
isicelo
isiciko
isicyrillic
isidalwa
isidanga
isidima
isidlo
isidudu
isiduko
isidumbu
isifo
isifuba
isifundo
isigaba
isigama
isigidimi
isigqibo
isigrike
isigulo
isigwebo
isihlalo
isihloko
isijamani
isijapani
isikali
isikhululo
isikhumba
isikhundla
isiko
isikolo
isilwanyana
isimaphambili
isimboli
isimelabizo
isimilo
isimo
isindebele
isingesi
isini
isininzi
isipedi
isiphumo
isiphuthukezi
isiqaqa
isiqingatha
isiqithi
isiseko
isiserbia
isisingesi
isisotho
isisuthu
isiswati
isithembu
isithethe
isithethi
isithuba
isitovu
isitshixo
isitswana
isitya
isityalo
isivenda
isivumelwano
isixa
isixeko
isixhobo
isixhosa
isiya
isiza
isizalo
isizathu
isizukulwana
isizulu
isizwe
island
islets
isohlwayo
isoka
isol
isoloko
isonka
israel
issn
ist
istanbul
isuka
iswekile
it
ita
itachi
italian
italy
itapevi
itayitile
ithala
ithambo
ithatha
ithathe
ithe
ithemba
ithetha
ithi
ithile
ithuba
itranskei
its
itsha
itshantliziyo
itsho
ityala
ityhefu
ityuwa
iv
ivela
ivenkile
ivumba
ivumela
ivutha
iwaka
iwebhusayithi
iwikipedia
iwonga
iworld
ixabiso
ixesha
ixhaphakile
ixhoba
iya
iyafana
iyahambelana
iyakuba
iyakuthi
iyakwazi
iye
iyeza
iyi
iyinto
iyintoni
iyityhefu
iyodwa
iyonke
iyunivesithi
iyurophu
iza
izaci
izakha
izakhiwo
izakhono
izama
izandi
izandla
izangqa
ize
izenzi
izenzo
izi
izibalo
izibizo
izibongo
izicwangciso
izidalwa
izidanga
izidlwengu
iziduko
izifo
izifundo
iziganeko
izigidi
izigqibo
izigulo
izihlalo
izihlandlo
izihlobo
izihlunu
iziko
izikolo
izikumkani
izilo
izilonda
izilwanyana
izimbiwa
izimvo
izinambuzane
izindlu
izinga
izinja
izinto
izintso
izinyanya
izinze
iziphumo
iziqhamo
iziqinisekiso
iziqithi
iziqu
izisa
izitshixo
izitulo
izityalo
izivakalisi
izixeko
izixhobo
iziyobisi
izizathu
izizwe
izondlo
izono
izulu
izwe
izwi
j
jabavu
jack
jackson
jacob
jacobus
jacques
jamani
james
jan
jane
janeiro
january
januwari
japan
japanese
jean
jeff
jelo
jersey
jerusalem
jikelele
jim
jimmy
jize
joan
joe
johannes
johannesburg
john
johnny
johns
johnson
jonathan
jones
jonga
jordan
jose
joseph
journal
joyce
jpg
jr
jstor
ju
judge
julayi
julian
julius
july
jump
june
juni
junior
juniors
just
justice
justnje
k
ka
kabini
kabob
kabuhlungu
kacanzibe
kade
kadisemba
kadube
kaffiraria
kagaba
kagqirha
kahintsa
kajanuwari
kajulayi
kajuni
kakade
kakama
kakhulu
kakubi
kakuhle
kakumkani
kaloku
kaloliwe
kamabonakude
kamama
kamasipala
kameyi
kamlawu
kamongameli
kamva
kananjalo
kancinane
kancinci
kandlambe
kanene
kangaka
kangakanani
kangako
kangangoko
kangangokuba
kangqika
kanina
kanjalo
kanjani
kankqoyi
kanobom
kanoni
kant
kantantala
kanti
kantsikana
kanye
kapa
karate
karhulumente
karl
kasally
kaseptemba
kasol
kate
kathathu
kathixo
katom
kayako
kayise
kazakhstan
kazwelonke
ke
keep
kei
kelly
kemp
ken
kennedy
kenneth
key
keyboards
kg
khan
khangela
khawujonge
khaya
khelekenkce
khemikhali
khemistri
kho
khoi
khompyutha
khon
khona
khumalo
khumbula
khwela
kick
killed
kim
kimberley
kind
king
kingdom
klerk
km
knives
knockout
know
knowledge
known
knox
ko
kobhubhane
kobukumkani
kobushushu
kodwa
koko
kokona
koku
kokuba
kokukhanya
kokuqala
kokusweleka
kokutya
kokwabo
kolawulo
kolo
koloni
kolu
koluntu
kolwandle
kolwazi
kolwimi
kombane
komhlaba
komkhulu
komlambo
komlanjana
komntu
komnyaka
komnye
komoya
komthetho
komzimba
kona
kong
kongezwe
konke
konoha
konyaka
koomabonakude
korea
korhulumente
kosovo
kosta
kosuku
kowabo
kowama
kowe
krestu
kristu
kruger
krune
ku
kub
kuba
kubafazi
kubafundi
kubakho
kubaluleke
kubalulekile
kubalwa
kubandakanya
kubandakanywa
kubangele
kubantu
kubantwana
kube
kubekho
kubekwe
kubelula
kubemi
kubhalwa
kubhekiswa
kubini
kubizwa
kubo
kubomi
kubonakala
kubonakale
kubonisa
kubukumkani
kubulawa
kucanzibe
kudala
kude
kudityaniswa
kudla
kufa
kufika
kufike
kufunda
kufundwa
kufuneka
kufuneke
kufunyanwe
kufuphi
kufutshane
kugcinwe
kuhamba
kuhlala
kuhle
kuhlobo
kujongwe
kujuni
kuka
kukho
kukhokelele
kukholelwa
kukhona
kukhula
kukhuphiswano
kukuba
kukudla
kukufa
kukuphela
kukusebenzisa
kukuthi
kukutya
kukuzalwa
kukwakho
kukwenza
kula
kulaa
kulandela
kulandelayo
kulandele
kulapho
kulawulo
kule
kuleyo
kulo
kulonina
kuloo
kulowo
kuluhlu
kulula
kulungile
kuluntu
kulwandle
kulwimi
kum
kuma
kumabhinqa
kumabonakude
kumagama
kumalungu
kumamkeli
kumanani
kumantla
kumanzi
kumaqela
kumaqoma
kumashumi
kumasiko
kumasipala
kumaxesha
kumazantsi
kumaziko
kumazwe
kumbindi
kumboniso
kumculo
kumdlalo
kumele
kumgama
kumgaqo
kumgca
kumhla
kumhlaba
kumkani
kumlambo
kummandla
kumntla
kumntu
kumnyaka
kumphakathi
kumsebenzi
kumsitho
kumzabalazo
kumzantsi
kumzi
kunaleyo
kunamhlanje
kune
kunene
kunenye
kunezinye
kungabikho
kungekho
kungekudala
kungena
kungenjalo
kungenxa
kungenzeka
kungoku
kungokuba
kuni
kunikwa
kuninzi
kunjalo
kuno
kunokuba
kunokwenzeka
kunxweme
kunyaka
kunyanzelekile
kunye
kunzima
kuphando
kuphandwa
kuphekwa
kuphela
kuphinda
kuphuhliso
kuphuma
kuphume
kuqala
kuqale
kuqikelelwa
kuqondwe
kuqoqosho
kuquka
kurhulumente
kusapho
kusasa
kuse
kusebenza
kusenjalo
kusenokuba
kusenokwenzeka
kusenzeka
kusenziwa
kuseptemba
kusetyenziswa
kusetyenziswe
kushishino
kushiyeka
kusini
kusithiwa
kuso
kusoloko
kusuke
kusuleleko
kususwe
kutata
kuthatha
kuthe
kuthelekiswa
kutheni
kuthetha
kuthethwa
kuthi
kuthiwa
kuthiwe
kuthotho
kutsha
kutshazimpuzi
kutshiwo
kutsho
kutya
kuvele
kuwe
kuwo
kuxa
kuxhaphakile
kuxhelwe
kuxhomekeke
kuya
kuyakuthetha
kuyaphi
kuye
kuyenzeka
kuyi
kuyimfuneko
kuyinto
kuyo
kuza
kuzalwa
kuze
kuzo
kuzwelonke
kw
kwa
kwaba
kwabakho
kwabantsundu
kwabantu
kwabantwana
kwabanye
kwabo
kwabonakala
kwacaca
kwada
kwade
kwafika
kwafuneka
kwahlwa
kwakhe
kwakhiwa
kwakhiwe
kwakho
kwakhona
kwakufuneka
kwakukho
kwakungekho
kwakunye
kwakweli
kwala
kwalandela
kwalapha
kwalapho
kwale
kwalo
kwaloo
kwam
kwama
kwamagama
kwamanani
kwamandla
kwamanina
kwamanye
kwamanzi
kwamaqela
kwamathematika
kwamaxesha
kwamaxhosa
kwamazwe
kwamenza
kwanda
kwandlambe
kwanezinye
kwanga
kwangaloo
kwango
kwangoko
kwantu
kwanyanzeleka
kwaphela
kwaphuhliswa
kwaqala
kwasa
kwaso
kwathi
kwathiwa
kwatsho
kwavela
kwawo
kwaxhosa
kwaye
kwayena
kwayo
kwaza
kwazalwa
kwaze
kwaziwa
kwazo
kwazulu
kwe
kwedini
kwee
kweelwandle
kweelwimi
kweemaski
kweemeko
kweempawu
kweenkosi
kweentlobo
kweentsholongwane
kweentsuku
kweenyanga
kwegama
kwegazi
kwela
kwelanga
kweli
kwelinye
kwelizwe
kwelo
kwelokuba
kwelona
kwemali
kwemfazwe
kweminyaka
kweminye
kwemithi
kwenani
kwenciba
kwendalo
kwendlela
kwengqondo
kwenkulungwane
kwentliziyo
kwento
kwentombi
kwentsholongwane
kwenu
kwenyanga
kwenye
kwenza
kwenzeka
kwenzeke
kwenziwa
kwenziwe
kweqela
kweshumi
kwesi
kwesifo
kwesihloko
kwesikhumba
kwesinye
kwesiqingatha
kwesizwe
kweso
kwethuba
kwexesha
kweyedwarha
kweyekhala
kweyesilimela
kweyethupha
kweyokwindla
kweyomdumba
kweyomnga
kweyomqungu
kweyomsintsi
kwezandi
kwezentlalo
kwezi
kwezifo
kwezigidi
kwezilwanyana
kwezinga
kwezinto
kwezinye
kwezizwe
kwezo
kwezopolitiko
kwezoqoqosho
kwi
kwibhodi
kwibhola
kwicala
kwicandelo
kwicawa
kwicwecwe
kwidabi
kwidolophu
kwidyunivesithi
kwigama
kwihlabathi
kwii
kwiidolophu
kwiikhompyutha
kwiilwimi
kwiimbasa
kwiimeko
kwiimfazwe
kwiincwadi
kwiindawo
kwiindlela
kwiingingqi
kwiinkqubo
kwiintlobo
kwiintsuku
kwiinyanga
kwiitshathi
kwiiveki
kwikhaya
kwikholam
kwikholeji
kwikhompyutha
kwikomkhulu
kwikota
kwilali
kwilixa
kwilizwe
kwilizwekazi
kwilokishi
kwimagazini
kwimathematika
kwimbali
kwimeko
kwimfazwe
kwimfundo
kwimidlalo
kwimihla
kwimimandla
kwiminyaka
kwimiphunga
kwimithambo
kwimizi
kwimpilo
kwimpuma
kwimveliso
kwinani
kwincwadi
kwindalo
kwindawo
kwindlela
kwindlu
kwingingqi
kwingoma
kwingqokolela
kwinkcubeko
kwinkolo
kwinkomfa
kwinkqubo
kwinkulungwane
kwinkundla
kwinqanaba
kwintetho
kwintlalo
kwinto
kwintshona
kwinyanga
kwinzululwazi
kwiphepha
kwiphephandaba
kwiphondo
kwiqela
kwisandi
kwisangqa
kwisebe
kwisibhedlele
kwisigaba
kwisigrike
kwisikhululo
kwisikhundla
kwisikolo
kwisilatini
kwisingesi
kwisiqithi
kwisithili
kwisithuba
kwisitishi
kwisixeko
kwisizalo
kwisizwe
kwixesha
kwiyunivesithi
kwizakhiwo
kwizifundo
kwizigidi
kwiziko
kwizikolo
kwizilwanyana
kwizinga
kwizinto
kwizityalo
kwizixeko
kwizizukulwana
kwizizwe
l
la
laa
laba
labantu
labasetyhini
label
labemi
labo
laboratory
lady
lakhe
lakho
lakhutshwa
lakowabo
lakudala
lakwa
lala
lale
lalifutshane
lalo
lam
lama
lamadoda
lamalungu
lamaphondo
lamashumi
lamazwe
lancet
land
lang
langa
langasekhohlo
langasekunene
langerhans
langoku
language
languages
laqala
large
largest
larry
las
lase
laseafrika
lasebrazil
lasekunene
laselusuthu
lasemelika
lasempuma
lasemzantsi
lasentshona
laserhabe
laseyurophu
lasisivakalisi
laso
last
late
later
lathi
latin
laura
law
lawo
laws
layal
layo
laza
laziwa
laziwayo
lazo
le
lead
leader
leaders
leadership
leading
league
learn
learning
lebanese
lebhola
ledolophu
lee
leencwadi
left
leibniz
leishmaniasis
lekhemikhali
leli
lelinye
lelona
lemfazwe
lemfundo
lemidlalo
leminyaka
lempuma
lemveli
lena
lendawo
lendlela
lendlu
lengcinezelo
lenkomo
lenkonzo
lenkosi
lentliziyo
lento
lentshona
lenyama
lenziwa
lenziwe
leo
leonard
leone
leprosy
leqela
les
leshumi
lesi
lesibini
lesigrike
lesilatini
lesithathu
lesixhosa
lesizwe
lesotho
less
let
lethu
letters
level
lewis
leyo
lezemfundo
lezempilo
lezigidi
lezilwanyana
lezinto
lezizwe
lezopolitiko
li
lia
libe
liberia
libertadores
libhalwe
libhekisa
libizwa
library
licandelo
lide
lidla
lifana
life
lifetime
ligama
ligaqa
ligcwele
light
lihamba
lihlala
lijikeleza
lika
likathixo
likayise
like
likhaya
likhulu
likomkhulu
lilikhulu
lilingana
lilizwe
lilo
lilonke
lilungu
limited
linani
lincinane
linda
line
linguist
linguistics
linikwa
linikwe
link
linux
linye
lion
liphantsi
liphela
liphezulu
liphinde
liphuma
liqela
liqikelelwa
liquid
liquids
lisa
lisebe
lisebenza
lisenokuba
lisetyenziswa
lisiko
lisithi
lisiya
list
lisuka
literacy
literary
literature
lithathwa
lithe
lithetha
lithi
little
live
livela
livele
living
liwaka
lixa
lixesha
liye
liyi
lize
liziko
lizwe
lizwekazi
ll
lo
lobugcisa
lobukumkani
lobunzululwazi
lobushushu
local
logic
lokhuseleko
loku
lokuba
lokubhala
lokufa
lokugonya
lokugqibela
lokujongana
lokulawula
lokulima
lokungena
lokuqala
lokurekhoda
lokuthetha
lokuthintela
lokutya
lokwenza
lolawulo
lolona
lolu
loluntu
lolunye
lolwazi
lombutho
lomculo
lomdaniso
lomdlalo
lomgaqo
lomgca
lomhlaba
lomlambo
lomntu
lomoya
lomqolo
lomsebenzi
lomtshato
lomzabalazo
lomzantsi
lomzimba
lona
london
long
lonke
lonto
lonyaka
loo
look
lophando
lord
los
losapho
losasazo
louis
love
lovedale
lowo
lozano
lp
ltd
lu
lubandakanya
lube
lubizwa
lucas
lucky
lude
ludla
ludwig
luhlala
luhlobo
luhlu
luiz
luka
lukarhulumente
lukhulu
lukhwekhwe
lula
lullabies
lulo
luluntu
lulwazi
lulwimi
luninzi
lunxulumano
lunye
luphawu
luphondo
lusapho
lusebenzisa
lusetyenziswa
lusuku
lusuleleko
luthetha
luthi
luthuli
luya
luye
lwaba
lwabafundi
lwabantu
lwabantwana
lwabo
lwakhe
lwakho
lwalo
lwamagama
lwamalungu
lwamanani
lwamazwe
lwandle
lwaqala
lwase
lwasemzantsi
lwawo
lwayo
lwaza
lwazi
lwazo
lwe
lwee
lweelwimi
lweenkobe
lweentsholongwane
lwegama
lwehlabathi
lwekoloni
lwemithi
lwemveli
lwenkobe
lwentsholongwane
lwenziwa
lwenziwe
lwesi
lwesibini
lwesifo
lwesingesi
lwesintu
lwesithathu
lwesityalo
lwesixhosa
lwesizulu
lwesizwe
lwexhwili
lwezakhono
lwezandla
lwezi
lwezilwanyana
lwimi
m
ma
mabandla
mabini
mac
macala
macalana
machine
macmillan
macqueen
made
madiba
madikizela
madoda
madonna
madrid
mafutha
magama
magazine
magema
magic
magwalandini
maharaj
mahluko
mail
main
major
make
makeba
makedoni
makemake
makes
makhe
making
makiwane
makube
makubekho
malangana
malaria
malcolm
male
males
malformed
mali
malunga
mama
mammals
man
management
manani
mandela
mandithi
mandla
mandulo
manga
mangcu
maninzi
many
manyano
manzi
manzini
map
maphandle
maqela
maqoma
march
margaret
marhamncwa
maria
marie
maritz
mark
marriage
married
marshall
martin
marvin
mary
masekela
maseko
masithi
mask
masks
mass
master
math
mathematical
mathematicians
mathematics
mathematika
mathrm
maths
matsha
matshi
matshini
matter
matthew
matthews
maurice
max
maxa
maxeke
maxesha
maxhosa
may
maze
mazwe
mazwekazi
mazwi
mba
mbali
mbasa
mbeki
mbewu
mbhalo
mbini
mbo
mbombela
mbono
mbuso
mbutho
mccarthy
mccartney
mcgraw
mdala
mde
mdlalo
me
mean
meaning
means
measure
measured
measurement
meat
mechanical
mechanics
media
medical
medicine
medium
meiosis
meko
melbourne
melika
members
memory
men
mendeleev
menzi
merriam
metal
metals
metro
metropolitan
mexico
meyi
mfana
mfaz
mfazi
mfazwe
mfo
mfondini
mfundisi
mfundo
mgama
mgca
mhla
mhlaba
mhlawumbi
mhlophe
mhudi
mi
mibhalo
mibini
mibuzo
mice
michael
michel
michelangelo
microbiology
middle
migca
miguel
mihailovic
mihla
miles
military
milk
miller
million
milnerton
milton
mine
mineiro
minerals
mini
mining
mininzi
minister
minority
minus
minyaka
miriam
misebenzi
missing
mission
missionaries
missionary
mithathu
mithetho
mithi
mixed
mkhulu
mkhwebane
mladenovi
mlambo
mlilo
mm
mmandla
mna
mncinane
mnguni
mntla
mntu
mntungwa
mntwana
mnyama
mnye
model
modern
module
mofolo
mole
molecular
molecule
molecules
molteno
mongameli
montenegrin
month
moon
moonchild
moore
more
morena
morre
morris
mortality
mosaic
most
mother
moto
mount
mountain
mouse
move
moved
movement
moves
movie
moya
mp
mpawu
mpela
mphahlele
mpharanyana
mphathiswa
mpikiswano
mpondo
mpuma
mpumalanga
mqhayi
mr
msaki
msebenzi
msitho
msuthu
mthatha
mthetho
mthethweni
mthombo
mthubi
mtshato
much
multiple
mundo
municipalities
municipality
murray
musa
museum
music
musical
must
mutual
mva
mveliso
mvume
mvumi
mxube
my
myalezo
mzansi
mzantsi
mzekelo
mzi
mzimba
mzimkhulu
n
na
naanko
naba
nabafazi
nabafundi
nabahlobo
nabani
nabantu
nabantwana
nabanye
nabasebenzi
nabazali
nabo
nako
naku
nakuba
nakubani
nakubantu
nakumzantsi
nakwamanye
nakwezinye
nakwi
nakwii
nala
nalapho
nalawo
nale
naleyo
naliphi
nalo
naloo
nalowo
naluphi
nam
nama
namadoda
namagama
namakhulu
namanani
namandla
namanye
namanzi
namasebe
namashumi
namasiko
namava
namaxhosa
namazwe
name
namecite
named
names
namhla
namhlanje
namnye
nanamhla
nande
nanga
nangakumbi
nangaphandle
nangaphezulu
nange
nangee
nango
nangoko
nangoku
nangona
nani
nanini
nanko
nanku
nantoni
nantonina
nantsi
naruto
nasa
nase
nasempuma
nasemzantsi
nasentshona
nasiphi
naso
natal
natala
nathi
nation
national
nations
native
natural
nature
naude
nawe
nawo
nawuphi
naxa
naye
nayiphi
nayo
nazi
nazo
ncam
nceda
ncinane
ncwadi
ncwane
nd
ndaba
ndaweni
ndawo
ndawonye
ndebele
ndibe
ndikutyele
ndima
ndithe
ndithetha
ndithi
nditsho
ndizeke
ndlebe
ndlela
ndlovu
ndlu
ndoda
ne
near
nebizwa
nee
need
needed
neemeko
neempawu
neendaba
neendawo
neendlela
neenkomo
neenkonzo
neentaka
neenyawo
nefuthe
negalelo
negama
negative
negazi
neglected
nehlabathi
neil
nekhaya
nekuthiwa
nele
neli
nelson
nelspruit
nelungu
nembali
nemfundo
nemiboniso
nemibutho
nemidlalo
nemigaqo
nemilambo
neminyaka
neminye
nemiphunga
nemisebenzi
nemithetho
nemithi
nempilo
nemvelaphi
nenani
nendawo
nendlela
nendoda
nengcinezelo
nengoma
nenkampani
nenkcubeko
nenkolo
nenkosikazi
nentatheli
nento
nentombi
nenyama
nenye
neqela
nerves
neshumi
nesi
nesibhulu
nesidima
nesifo
nesiko
nesingesi
nesitswana
nesixhosa
nesouth
net
netherlands
nethi
nethunga
netrayethloni
network
networks
neutrons
never
new
newcastle
news
newspaper
newton
nexesha
neyathi
neyayifudula
neye
neymar
nezandi
nezi
nezibizwa
nezibongo
nezifo
nezifundo
nezigidi
nezilwanyana
nezinto
nezinye
nezithethe
nezityalo
nezixhobo
nezizwe
nezo
nezolo
nezopolitiko
ng
ngaba
ngabafazi
ngabantu
ngabantwana
ngabanye
ngabathwa
ngabazali
ngabemi
ngabo
ngabom
ngabona
ngako
ngakumbi
ngakunxweme
ngala
ngale
ngalinye
ngalo
ngaloo
ngalunye
ngama
ngamadoda
ngamafutshane
ngamagama
ngamakhulu
ngamalungu
ngamanani
ngamandla
ngamanqaku
ngamanye
ngamanzi
ngamapolisa
ngamaqela
ngamasebe
ngamasiko
ngamaxesha
ngamaxhosa
ngamazwe
ngamehlo
ngamnye
nganto
nganye
ngaphakathi
ngaphambi
ngaphambili
ngaphandle
ngaphantsi
ngaphaya
ngaphesheya
ngaphezu
ngaphezulu
ngasekhohlo
ngasekunene
ngasekupheleni
ngasempuma
ngasemva
ngasentla
ngasentshona
ngasese
ngasinye
ngaso
ngathi
ngawo
ngaxesha
ngaxeshanye
ngaye
ngayo
ngazo
ngconde
ngcono
ngcu
nge
ngebala
ngecawa
ngee
ngeelwimi
ngeempumlo
ngeendawo
ngeendlela
ngeenjongo
ngeenkwenkwezi
ngeentlanga
ngeentlobo
ngegalelo
ngegama
ngehlabathi
ngekhulu
ngeli
ngelinye
ngelishwa
ngelithi
ngelixa
ngelixesha
ngelizwe
ngelizwi
ngelo
ngemali
ngembali
ngembasa
ngemfazwe
ngemfundo
ngemihla
ngemini
ngeminyaka
ngemisebenzi
ngempumelelo
ngemvelaphi
ngenani
ngendawo
ngendlela
ngenene
ngengoma
ngengqondo
ngenjongo
ngenkulungwane
ngentetho
ngento
ngenxa
ngenxeni
ngenyanga
ngenye
ngeqhina
ngesandla
ngesantya
ngesi
ngesibhulu
ngesidanga
ngesiduko
ngesiko
ngesilungu
ngesingesi
ngesiquphe
ngesixhosa
ngesizathu
ngesizulu
ngesondo
ngethemba
ngethuba
ngexa
ngexesha
ngeyethupha
ngeyomdumba
ngezandla
ngezantsi
ngezi
ngezibalo
ngezifundo
ngezilwanyana
ngezinto
ngezinye
ngezopolitiko
ngingqi
ngo
ngoaprili
ngoba
ngobisi
ngobomi
ngobuchule
ngobude
ngobukhulu
ngobunjalo
ngobunzululwazi
ngodisemba
ngofebruwari
ngohlobo
ngojanuwari
ngojulayi
ngojuni
ngoko
ngokobuhlanga
ngokokude
ngokokutsho
ngokomfanekiselo
ngokomthetho
ngokomzimba
ngoku
ngokuba
ngokubaluleka
ngokubanzi
ngokubhekiselele
ngokubona
ngokucacileyo
ngokuchanekileyo
ngokuchasene
ngokudibana
ngokudibanisa
ngokufanayo
ngokufanelekileyo
ngokufumana
ngokufutshane
ngokugqibeleleyo
ngokugqithisileyo
ngokuhamba
ngokujonga
ngokukhawuleza
ngokukhululekileyo
ngokukodwa
ngokulandelelana
ngokulinganayo
ngokumandla
ngokungathi
ngokunjalo
ngokunxulumene
ngokupheleleyo
ngokuqhelekileyo
ngokusebenzisa
ngokusemthethweni
ngokusesikweni
ngokusetyenziswa
ngokusuka
ngokuthe
ngokuthi
ngokutsha
ngokutsho
ngokutya
ngokuya
ngokwabo
ngokwahlukana
ngokwahlukeneyo
ngokwakhe
ngokwakho
ngokwakwa
ngokwale
ngokwalo
ngokwanda
ngokwaneleyo
ngokwaseburhulumenteni
ngokwayo
ngokwazo
ngokwe
ngokwebala
ngokwee
ngokwembali
ngokwemveli
ngokwendalo
ngokwendlela
ngokwenene
ngokwentlalo
ngokwenza
ngokwenzeka
ngokwenziwa
ngokwesiko
ngokwesiqhelo
ngokwesondo
ngolawulo
ngolo
ngolu
ngoluhlobo
ngolunye
ngolwandle
ngolwazi
ngolwimi
ngoma
ngomatshi
ngomatshini
ngombala
ngombane
ngomeyi
ngomhla
ngomlilo
ngomlomo
ngomntu
ngomnyaka
ngomnye
ngomoya
ngomzila
ngomzuzwana
ngonaphakade
ngoni
ngononophelo
ngonovemba
ngonyaka
ngonyama
ngoo
ngophawu
ngoseptemba
ngosuku
ngowama
ngowe
ngowona
ngoxa
ngoxolo
ngoyena
ngoyi
ngqalelo
ngqika
ngqo
ngqokolela
ngqondweni
ngu
nguban
ngubani
ngugqirha
ngulo
ngumama
ngumasipala
ngumatshini
ngumbhali
ngumbutho
ngumculi
ngumdlali
ngumdlalo
ngumfazi
ngumfundisi
ngumgama
ngumgca
ngumhlaba
ngumkhenkce
ngumkhosi
ngumlambo
ngummandla
ngumntu
ngumntwana
ngumongameli
ngumoya
ngumsebenzi
ngumthetho
ngumxube
ngumzekelo
ngumzi
ngumzimba
ngundlunkulu
ngunyana
nguphondo
ngurhulumente
ngutata
nguwe
nguye
nguyise
ngxaki
ngxelo
ngxoxo
ni
nibe
nicholas
nile
nina
nine
nini
ninja
ninzi
nio
nithi
nitrogen
nja
njalo
njani
nje
njengakwi
njengazo
njenge
njengedolophu
njengee
njengegama
njengelungu
njengemvumi
njengenani
njengendawo
njengendlela
njengento
njengenxalenye
njengenyama
njengenye
njengesifo
njengesiqhelo
njengesixhobo
njengeyona
njengo
njengoko
njengokuba
njengolwimi
njengombhali
njengomfundisi
njengomlawuli
njengomntu
njengomnye
njengomongameli
njl
njongo
nkampani
nkomo
nkonzo
nkosi
nkosikazi
nkosiyamntu
nkosiyane
nkqi
nkqu
nkqubo
nkulu
nkunzi
nkwali
nkwenkwe
no
noba
nobel
nobhala
nobomi
nobumba
nobume
nobungakanani
nobunzima
nobusuku
nocalu
nocalucalulo
node
nohlanga
nohlobo
nojohn
nokama
noko
nokokuba
noku
nokuba
nokubhala
nokufa
nokufunda
nokugcina
nokungena
nokuphefumla
nokusebenza
nokusetyenziswa
nokutya
nokwenziwa
nolawulo
noluntu
nolunye
nolwandle
nolwazi
nolwimi
noma
nomama
nombhali
nombutho
nomculo
nomdla
nomfazi
nomfundisi
nomgama
nomhlaba
nomkhosi
nomkhuhlane
nomkristu
nomntla
nomntu
nomnye
nomongameli
nomoya
nomphezulu
nomsebenzi
nomthetho
nomyeni
nomzantsi
non
nondlambe
nonelson
nonina
noninzi
nonmetal
nonmetals
nontetha
nonyana
noo
noorhulumente
nophuhliso
noqoqosho
nor
norharhabe
norhulumente
normal
norman
north
northern
norton
nosapho
nosuleleko
not
notata
note
nothando
nothe
novel
novela
novemba
november
now
nowalter
nowe
noxa
noyise
nqwa
ntaba
ntaka
ntanga
ntantala
ntetho
ntle
ntliziyo
ntlobo
ntloko
nto
ntombi
ntoni
ntsapho
ntsholongwane
ntshona
ntshukumo
ntsikana
ntsuku
ntu
ntuli
ntwana
ntweni
nuclear
nucleus
number
numbers
numerals
nupedia
nusas
nutrition
nxamnye
nxaxheba
ny
nyaka
nyama
nyanga
nyango
nyawuza
nye
nzima
nzulu
o
obele
obhalwe
obizwa
object
objects
obomvu
obona
obu
obukhoyo
obukhulu
obumnyama
obungama
obushushu
ocean
oceania
ochre
oclc
ococekileyo
october
oda
odd
odlala
odlalwa
odolo
odwa
of
ofana
ofanayo
off
office
official
officially
ofisi
often
ogama
ogonyo
ogqwesileyo
oh
ohamba
ohio
ohlange
ois
okanye
okayafrica
oko
okoko
okokoko
okokuba
okokugqibela
okokuqala
okona
oksijin
oksijini
okthobha
oktobha
oku
okuba
okugonya
okukhulu
okulawula
okumandla
okunene
okunye
okuqala
okuqhelekileyo
okwangoku
okwaziyo
okwe
okwenzeka
okwesibini
okwexeshana
olandelayo
old
oli
olimpiki
oliver
olo
olona
olu
olubizwa
olude
olufana
oluhlaza
olukhulu
olulodwa
olumandla
olumnyama
oluncinci
olungaphaya
olungu
oluninzi
oluntu
olunxulumene
olunye
oluphezulu
olusemthethweni
olusetyenziswa
oluthe
oluthethwa
oluthethwayo
oluthi
oluthile
olutsha
oluvela
olwandle
olwela
olwenzeka
olwenziwa
omabini
omalunga
omane
ombane
omdala
omde
omhlaba
omhle
omhlophe
omkhulu
omncinane
omncinci
omninzi
omnyama
omnye
omthi
omtsha
omzantsi
omzimba
on
once
onchocerciasis
one
onempilo
ongangama
ongcolileyo
onjalo
onke
online
only
ontsundu
onyaka
onzima
oo
oogqirha
oololiwe
oonobumba
oonozakuzaku
oonyana
oorhulumente
open
opening
opera
operating
ophakamileyo
ophakathi
ophando
ophantsi
ophezulu
ophilayo
ophumeleleyo
opinion
opland
opt
oqhelekileyo
oqingqiweyo
or
oral
orange
order
orders
ordinal
oregon
oregoni
org
organ
organic
organisation
organism
organisms
organization
organs
origin
original
origins
orlando
os
oscar
osebenza
osebenzisa
osele
ossetia
osuka
othandwa
othe
other
others
othetha
othi
othile
ottoman
our
ouro
out
outbreak
output
ovela
over
overseas
ovum
ovuthuzayo
owaba
owabangumama
owathi
owayengu
owayesakuba
owazalwa
owaziwa
owaziwayo
owenza
owenziwa
owenziwe
own
owona
owosulelayo
oxford
oxidation
oxide
oxygen
oya
oye
oyena
oyi
oyile
oyingcwele
oyinkwenkwe
oyintloko
oza
ozalwa
ozele
p
pa
pacific
page
pair
paki
pan
pancreas
pandemic
paraguay
paraguayans
parameter
parameters
paris
park
parliament
part
particle
particles
parts
party
paterculus
patrick
pattern
paul
paulista
paulo
pc
pdf
peace
pec
pele
peninsula
penis
people
percentage
periodic
permaculture
person
personal
peru
peter
pg
ph
pha
phakade
phakathi
phambi
phambili
phandle
phando
phantse
phantsi
phases
phawu
phaya
phepha
phesheya
phetsheya
phezu
phezulu
phi
phil
philadelphia
philip
philosophy
phinda
phinde
phindo
phindwa
phindwe
phiri
phofu
phondo
phosphate
phosphates
phosphide
phosphides
phosphorus
photosynthesis
php
phulo
phyllis
physical
physics
physiology
pi
pictures
pierre
piet
pietermaritzburg
pipistrellus
plaatje
plaatjie
place
places
planet
plant
plants
plascon
plasma
plaster
plastic
platinum
platinumb
play
please
plus
pmc
pmid
poetry
point
poland
pole
police
political
politician
politics
pollution
ponte
pop
pope
population
port
portal
portuguese
position
positive
post
power
powers
pp
practice
practices
predation
premier
presence
present
president
presley
press
preta
pretoria
prevention
primary
prime
primera
prince
princess
princeton
principal
principles
printers
prison
prize
pro
problems
proceedings
process
processing
prof
professional
profile
program
programa
programmable
programming
programs
progress
project
projects
prokaryotic
proper
properties
property
prophet
protector
proteins
protocol
proton
protons
provided
province
prussia
psychology
pt
public
publication
publications
published
publishers
publishing
pulmonary
puppet
put
pxtemplate
q
qala
qaphela
qela
qelele
qhalo
qho
qongeni
qrs
quantum
quarks
que
queen
quotient
qwaba
r
rabbi
rabies
race
raceyi
radiation
radio
rain
ralph
ramaphosa
ranking
rap
rational
ratu
ray
raymond
rd
re
reach
reaction
read
reagan
real
reasoning
received
recopa
record
records
rectangle
red
rede
ref
reference
refs
reggae
region
regional
regulations
reinet
related
relations
release
releases
relembre
relief
rene
report
represented
reproduction
republic
research
reserve
resource
resources
respiration
respiratory
responsibility
retief
retrieved
reuters
rev
review
revolution
rharhabe
rhodes
rholihlahla
rhoqo
rhubusana
rhulumente
ria
rica
rice
rich
richard
richards
rie
right
rights
rio
river
rivers
rk
road
robben
robbins
robert
robin
robinson
rock
roger
roman
romance
romania
ron
ronald
ronaldo
root
roots
rose
rotation
round
routledge
roy
royal
rsssf
rtha
rubusana
rule
runners
russell
russia
ruth
ryan
s
sa
saa
saba
sabantu
sabbath
sabc
sabo
safety
saharan
sahistory
said
saint
sakhe
sakhiwo
sakhono
sakudala
sally
salo
salts
sam
sama
samabanga
samandulo
samas
samaxhosa
samazulu
same
samuel
san
sana
sandile
sanelly
sanger
santa
santos
sarah
sase
sasejapan
sasemelika
sasemonti
sasemzantsi
saseserbia
saso
sathi
sathiywa
saul
saunders
sawo
say
saya
sayo
says
saziwa
sazo
sbt
scale
schistosomiasis
school
schools
schwarze
science
sciences
scientific
scientists
scolari
scored
scorer
scotland
scott
screen
script
se
sea
search
sebe
sebenzisa
sechaba
second
secondary
security
see
seed
seeds
seelwimi
segama
sekusithiwa
sel
sele
selec
self
selope
semfundo
semi
seminyaka
semngciphekweni
senani
senior
sense
sento
sentsholongwane
senyongo
senza
senziwa
senzo
sephepha
septemba
september
serb
serbo
serbs
series
server
service
sesi
sesibini
sesinye
sesithathu
sesona
sesotho
set
sethu
seven
several
sex
sexesha
sexual
sezizathu
sezulu
sfn
shady
shaka
shakespeare
shall
sharpeville
shaw
she
sheet
sheridan
short
should
show
si
sibala
sibande
sibe
sibini
sibizwa
sibona
sibonisa
side
sidla
siduko
sifo
sifumaneka
sifundo
sign
signal
signs
sigqibo
sihlala
sijonge
sika
sikali
sikelel
sikho
sikhulu
sikhundla
siko
sikolo
silva
simahla
simon
simple
since
sine
singathi
singer
singesi
singh
single
sinye
siphila
siqithi
sir
sisebenzisa
siseko
sisetyenziswa
sisi
sisibindi
sisifo
sisifundo
sisilwanyana
sisiphumo
sisiqalo
sisiseko
sisithi
sisitya
sisixeko
sisixhobo
sisizwe
sisoloko
sisulu
site
sithe
sithetha
sithethwa
sithi
sitsho
sityalo
sivela
six
sixeko
sixhaphake
siya
siye
siza
sizathu
size
sizwe
slater
slavic
slope
slovo
small
smit
smith
snake
snodgrass
so
sobugqirha
sobukwe
soccer
social
society
sodium
software
soga
sokokuba
sokuba
sokubhala
sokuphatha
sokuqala
sokuqhankqalaza
sol
solano
solid
solids
solo
solomon
solution
some
somerset
sometimes
somntu
somthi
somzimba
son
sona
song
sonke
sotho
soul
soulistic
sound
source
south
southern
sowetan
sowetanlive
soweto
soxolo
space
spacecraft
spain
spanish
speakers
special
species
specific
specified
sperm
spin
spirit
sport
sports
spread
springer
sqrt
squad
square
sr
st
stadium
staff
standard
star
stars
start
state
states
station
statistics
status
steel
steele
stephen
steve
steven
stevie
stewart
steyitsi
still
stomach
stone
stories
story
street
strong
structure
structures
struggle
stub
student
students
studies
studio
study
style
sub
subatomic
substance
substances
such
suka
suke
sukuba
sul
sulfate
sulfide
sulfur
sulfuric
sulphur
sum
sun
surface
susan
suthu
sweden
switzerland
sydney
symbol
symbols
syndrome
system
systematic
systemic
systems
systole
t
table
taffarel
tafile
tag
take
takes
tambo
tata
taylor
tb
te
tea
teacher
teaching
team
teams
techniques
technology
ted
telegraph
telenovela
tell
template
ten
tenerife
tengo
teresa
term
terms
terra
territories
territory
texas
text
th
thabo
thambo
than
that
thatha
the
theatre
their
thelekisa
them
thema
thembu
themselves
then
theodore
theories
theory
therapy
there
therefore
these
they
thiago
thina
thing
things
think
third
this
thixo
thoba
thole
thomas
thompson
thomson
thornhill
those
thought
three
through
thuba
thus
tico
tiles
tim
time
times
timeslive
timothy
tin
tissue
tissues
title
tiyo
to
today
together
togu
tom
tony
too
took
tools
top
tournament
town
traditional
train
transcendental
transcription
transkei
translated
translation
transmission
travel
treatment
tree
trees
trevor
tribe
tropical
true
trust
truth
tsatsi
tshawe
tshazimpuzi
tshekisho
tshintsho
tu
tuberculosis
turkey
turkish
turner
tutu
tv
two
tyhutyha
type
types
tywala
tzu
u
uabram
ualbertina
ualexander
uamanda
uba
ubach
ubambe
ubani
ubawo
ube
ubeke
ubesithi
ubhala
ubhale
ubhalwa
ubhaptizo
ubiko
ubini
ubisi
ubizo
ubizwa
ubomi
ubone
ubrenda
ububanzi
ububi
ubuchule
ubudala
ubude
ubudlelwane
ubugcisa
ubugqi
ubuhlanga
ubuhle
ubuhlobo
ubuhlwempu
ubukho
ubukhosi
ubukhulu
ubukumkani
ubume
ubuncinane
ubungakanani
ubungqina
ubuni
ubuninzi
ubunjani
ubuntu
ubunzima
ubunzulu
ubushushu
ubuso
ubusuku
ubuthi
ubuthongo
ubutyebi
ubuxoki
ubuye
ucarmen
ucarolus
uchaka
uchaza
ucinga
ucinge
ucrosby
uct
ud
udade
udavid
udavide
ude
udibene
udidi
udla
udlalwa
udon
udonga
udube
udumo
uefa
ueuclid
ufaku
ufana
ufatima
ufika
ufike
ufikelele
ufumana
ufumene
ufuna
ufunda
ufunde
ufundo
ugaba
ugaye
ugcaleka
ugeorge
ugonyo
ugq
ugqatso
ugqirha
uhamba
uhambe
uhambo
uharry
uhelen
uhintsa
uhlala
uhlanga
uhlaza
uhleli
uhlobo
uhlolo
ujabavu
ujacob
ujames
ujane
ujoe
ujohn
ujordan
ujoseph
ujosi
uk
ukama
ukanti
ukhapitali
ukhe
ukhenketho
ukhetho
ukhula
ukhule
ukhuni
ukhuphiswano
ukhuseleko
ukobe
ukodlula
ukongeza
ukopha
ukraine
ukrainian
ukristu
uku
ukuba
ukubala
ukubaleka
ukubaluleka
ukubamba
ukubetha
ukubhala
ukubhalwa
ukubheka
ukubhekisa
ukubizwa
ukubona
ukubonisa
ukubonwa
ukubulala
ukubuyela
ukuchaza
ukucula
ukudibanisa
ukudlala
ukufa
ukufana
ukufika
ukufikelela
ukufumana
ukufunda
ukufundisa
ukugcina
ukuhamba
ukuhambisa
ukuhla
ukuhlala
ukuhlamba
ukujonga
ukukhanya
ukukhawuleza
ukukhetha
ukukhula
ukukhululeka
ukukhupha
ukukhusela
ukukhuthaza
ukukwenza
ukulala
ukulandela
ukulandelelana
ukulawula
ukulawulwa
ukulunywa
ukulwa
ukumela
ukumelana
ukumila
ukumkani
ukunceda
ukuncipha
ukunciphisa
ukunene
ukungabikho
ukungalingani
ukungcola
ukungena
ukungondleki
ukunika
ukunqanda
ukunxiba
ukunyuka
ukuphatha
ukuphefumla
ukuphela
ukuphendula
ukuphila
ukuphinda
ukuphucula
ukuphuhlisa
ukuphuma
ukuphumelela
ukuphungula
ukuqala
ukuqhubela
ukuqinisekisa
ukuqonda
ukusasaza
ukusasazeka
ukusebenza
ukusebenzisa
ukusebenzisana
ukusenga
ukusetyenziswa
ukusoloko
ukusombulula
ukusuka
ukusukela
ukususa
ukususela
ukuswela
ukuthabatha
ukuthatha
ukuthetha
ukuthi
ukuthintela
ukutsala
ukutshata
ukutshintsha
ukutsho
ukutya
ukuva
ukuvana
ukuvela
ukuvelisa
ukuvula
ukuxhasa
ukuxhatshazwa
ukuya
ukuyisebenzisa
ukuza
ukuzala
ukuzalwa
ukuze
ukuzimela
ukuziphatha
ukwa
ukwahlukana
ukwahlula
ukwahlulwa
ukwakha
ukwakhiwa
ukwanda
ukwandisa
ukwazi
ukwaziwa
ukwehla
ukwenza
ukwenzeka
ukwenzela
ukwenziwa
ulandingwe
ulawulo
uleonardo
ulepoqo
ulindiwe
ulingana
uloliwe
uludwe
uluhlu
uluntu
ulusu
ulutsha
uluvo
ulwandle
ulwaphulo
ulwazi
ulwimi
um
umagema
umahluko
umakhanda
umakhulu
umalefane
umam
umama
umanyano
umaqoma
umargaret
umarvin
umary
umasipala
umatholengwe
umatshini
umaxeke
umba
umbala
umbane
umbele
umbhali
umbhalo
umbona
umbongo
umboniso
umbono
umbuso
umbutho
umbuzo
umchamo
umcimbi
umculo
umda
umdali
umdaniso
umdibaniso
umdla
umdlali
umdlalo
umdlezana
umele
umfana
umfanekiso
umfazi
umfo
umfundi
umfundisi
umgada
umgama
umgangatho
umgaqo
umgca
umgodeli
umgubo
umhla
umhlab
umhlaba
umhlala
umhlomi
umhobe
umichelangelo
umiriam
umjikelo
umkakhe
umkhatshane
umkhondo
umkhonto
umkhosi
umkhuhlane
umkhwebane
umkhwetha
umlambo
umlenze
umlibo
umlilo
umlinganiselo
umlo
umlomo
ummandla
umngqusho
umngxuma
umninawa
umnqwazi
umnt
umntakwabo
umntla
umntu
umntwana
umnu
umnwe
umnxeba
umnyaka
umongameli
umongo
umonostatos
umotloang
umoya
umphakathi
umphandi
umphathi
umphathiswa
umphefumlo
umphezulu
umqala
umqeqeshi
umqhubi
umqombothi
umsaki
umsebenzi
umsengi
umsila
umsitho
umthendeleko
umthetho
umthi
umtsalane
umtshato
umutswairo
umxhelo
umxholo
umxube
umyalelo
umyalezo
umyeni
umyinge
umz
umzantsi
umzekelo
umzi
umzila
umzimba
umzobo
un
unanamhla
unani
unaruto
unathi
uncedo
und
under
undlambe
undp
une
unelson
unesco
ungcoliseko
ungena
ungqika
ungquzulwano
ungubani
ungumntu
unguye
unika
unina
uninzi
union
unisa
unit
united
units
universe
universities
university
unjingalwazi
unknown
unkosi
unkosikazi
unobangela
unobangelasifo
unobumba
unokutela
unonabe
unongqawuse
unoni
unontetha
unsc
untantala
until
untsikana
untsikane
unxele
unxibelelwano
unxulumano
unxweme
unyaka
unyana
unyango
unyawo
unyulo
up
upamina
upaul
upawulos
update
uphalo
uphando
uphawu
uphela
uphinda
uphinde
uphondo
uphuhliso
uphumelele
uplaatje
uprising
uqala
uqale
uqeqesho
uqhankqalazo
uqhayisa
uqikelelo
uqobo
uqoqosho
uranium
uray
urban
urharhabe
urhulumente
url
urubusana
uruguay
us
usa
usally
usana
usandile
usanelly
usapho
usaqhwithi
usasazeko
usasuke
use
usebenza
usebenze
usebenzisa
used
usenokuba
user
uses
usetyenziswa
ushishino
using
usisulu
usiya
usoga
usoloko
usolomon
usually
usuka
usuke
usuku
usuleleko
usulelo
utambo
utata
uthando
uthatha
uthe
uthelekiso
uthetha
uthethe
uthi
uthile
uthixo
uthomas
uthotho
uthuli
uthuthula
utiyo
utom
utshintsho
utsho
utywala
uvan
uvavanyo
uvela
uvele
uwalter
uwauchope
uwilliam
uwinnie
uxanduva
uxilongo
uxinzelelo
uxolo
uya
uyakuba
uyakwazi
uyazi
uye
uyesu
uyi
uyilo
uyise
uyolile
uz
uza
uzahara
uzala
uzalelwe
uzalo
uzalwa
uzalwe
uze
uzele
uzimele
uzola
uzwelakhe
uzwelizayo
v
vaccine
vaccines
vacuum
valentine
valley
value
values
valve
valves
van
variable
variables
various
ve
vector
velocity
vena
ventricle
ventricles
ventricular
vereeniging
veronica
very
vi
via
vice
vicente
victor
victoria
victory
video
vienna
view
vii
viii
viljoen
village
vine
viral
virginia
virus
viruses
visceral
voice
voices
vol
volume
von
vs
w
wa
waabhala
waabhubhela
waafika
waathi
waazalelwa
waazalwa
waba
wababhali
wabafundi
wabanegalelo
wabanjwa
wabantu
wabe
wabekwa
wabhala
wabhengeza
wabizwa
wabo
wabona
wabonakala
wabonisa
waboniswa
wabuya
wabuyela
wacebisa
wacelwa
wachitha
wachongwa
wacula
wada
wadala
wade
wadibana
wadlala
waduma
wafa
wafika
wafudukela
wafumana
wafuna
wafunda
wagqiba
wagqwesa
waguqukela
wahamba
wahlala
wakha
wakhe
wakhetha
wakho
wakhokela
wakhulela
wakhululwa
wakhupha
wakubona
wakwa
wakwazi
wale
wales
walishiya
walk
walker
wall
wallace
walo
walt
walter
walwa
wam
wama
wamajoni
wamakrestu
wamanina
wamanqindi
wamanzi
wamashumi
wamawaka
wamaxhosa
wamazwe
wambetha
wambi
wamkela
wamkelwa
wamnika
wamshiya
wancedisa
wanga
wangena
wanika
wanikezela
wanikwa
wanyama
wanyulwa
waphawula
waphela
waphendula
waphinda
waphuma
waphumelela
waqala
waqalisa
waqaphela
waqhuba
waqhubeka
waququzelela
war
warner
warren
wars
was
wase
wasebenza
wasebenzisa
wasebenzisana
wasebritane
wasejamani
waseka
wasemelika
wasempumalanga
wasemzantsi
wasentshona
wasetyhini
waseyurophu
washicilela
washington
washiya
wasuka
wasungula
wasutywa
wasweleka
watch
water
wathabatha
wathatha
wathetha
wathi
wathiywa
wathumela
wathunyelwa
watshata
watshintsha
watsho
watson
watyikitya
wauchope
wavalelwa
wave
wavuka
wavula
wawo
wawongwa
way
waya
wayalela
waye
wayecinga
wayedume
wayefuna
wayehamba
wayehlala
wayekhona
wayeneminyaka
wayengomnye
wayengu
wayengumbhali
wayengumfazi
wayengumfundisi
wayengumntu
wayesaziwa
wayesebenza
wayesele
wayesithi
wayesoloko
wayethetha
wayeyimvumi
wayila
wayo
waza
wazala
wazalelwa
wazalwa
waze
wazi
wazibandakanya
wazibonakalisa
wazimanya
wazisa
waziwa
wazo
we
weafrika
wearing
web
webandla
webhola
website
webster
wedolo
wedolophu
wee
weengoma
weenkosi
wefilim
wegazi
wehlabathi
weli
welinye
welizwe
well
wellington
wemfundo
wemidlalo
wemka
wempatho
wen
wena
wencwadi
wendlu
wengcinezelo
wengingqi
wengoma
wenkomo
wenkosi
wenkululeko
wenkulungwane
wenkundla
wentlalo
wento
wentshukumo
wenza
wenze
wenziwa
wenziwe
wephondo
weqela
weqonga
were
werner
wesi
wesibini
wesihlanu
wesikolo
wesine
wesithandathu
wesithathu
wesithili
wesixeko
wesixhenxe
wesixhosa
wesizwe
wesley
west
western
wethambo
wethu
wets
wexesha
weza
wezempilo
wezi
wezilwanyana
wezimbiwa
wezinto
wezizwe
wezopolitiko
what
when
where
which
while
white
who
whole
whom
whose
why
wife
wiki
wikipedia
wild
wilhelm
will
willan
willem
william
williams
wilson
win
winners
winnie
winter
with
within
without
witwatersrand
wobuhlobo
wobulali
wocalucalulo
wofika
wokokuba
woku
wokuba
wokugqibela
wokulwa
wokuphila
wokuqala
wokuzalwa
wokwahlula
woluntu
wolutsha
wolwandle
wolwazi
woman
wombona
wombutho
womculo
women
womhlaba
womntu
womnyaka
womzantsi
wona
wonder
wonke
wonyaka
wonyulwa
woods
wophando
wophuhliso
word
words
work
worked
workers
working
world
would
woyisa
woza
wright
writing
written
www
x
xa
xaxe
xesha
xeshikweni
xesibe
xhosa
xolo
y
ya
yaapapashwa
yaaqala
yaba
yabafundi
yabantu
yabantwana
yabasebenzi
yabathembu
yabe
yabeka
yabekwa
yabizwa
yabo
yabona
yaboniswa
yabumini
yafumana
yafunyanwa
yaguqulelwa
yahluke
yahlukile
yahlulwe
yakha
yakhe
yakhiwa
yakho
yakhululwa
yakowethu
yakuba
yakudala
yakwa
yakwazulu
yala
yalandelwa
yale
yalo
yaloo
yam
yama
yamabhulu
yamagama
yamakhulu
yamalungu
yamampondo
yamanani
yamandulo
yamanzi
yamashumi
yamatyala
yamaxhosa
yamazwe
yanamhlanje
yandisa
yangaphakathi
yangaphambili
yangasekhohlo
yangasekunene
yangena
yangoku
yangumhla
yapapashwa
yaphela
yaphumelela
yaqala
yarhawuti
yase
yaseafrika
yaseburhulumenteni
yasefort
yasekapa
yasekhaya
yasekorea
yasekwa
yaselondon
yasemelika
yasemntla
yasemzantsi
yasentshona
yaseqonce
yasescotland
yaseyurophu
yasezimbabwe
yaso
yasuka
yathatha
yathi
yawo
yaye
yayi
yayibhalwe
yayisaziwa
yayo
yaza
yaze
yaziwa
yaziwayo
yazo
ye
yeafrika
yeanc
year
years
yeast
yebantu
yebhola
yeboah
yecawa
yedolophu
yedwa
yee
yeedolophu
yeematshini
yeendaba
yeendawo
yeendlela
yeenziwa
yegama
yegazi
yegolide
yehla
yehlabathi
yekhemikhali
yekhompyutha
yelali
yelanga
yeli
yelizwe
yellow
yem
yemali
yembali
yemfazwe
yemifuno
yemihla
yeminyaka
yeminyanya
yemithetho
yemithi
yemveli
yena
yenani
yendalo
yendawo
yendele
yendlela
yengingqi
yenkcubeko
yenkomo
yenkosi
yenkqubo
yenkululeko
yenkulungwane
yento
yentshona
yenu
yenye
yenza
yenze
yenzeka
yenzeke
yenzelwe
yenziwa
yenziwe
yephondo
yepolitiki
yeqela
yeqonga
yeshumi
yesi
yesibini
yesihlanu
yesilimela
yesine
yesingesi
yesininzi
yesintu
yesiqhelo
yesithandathu
yesithathu
yesixhosa
yesizwe
yesu
yethu
yeyokokuba
yeyokuba
yeyona
yeza
yezembe
yezemfundo
yezempilo
yezi
yezibalo
yezigidi
yezilwanyana
yezinto
yezinye
yezizwe
yezona
yezopolitiko
yhini
yhiyo
yi
yidolophu
yikoloni
yikumkani
yile
yiloo
yimbongi
yimeko
yimfazwe
yimvumi
yincwadi
yindawo
yindlala
yindlela
yindoda
yingcali
yingqokolela
yingxaki
yingxelo
yinkampani
yinkokheli
yinkomo
yinkosi
yinkosikazi
yinkqubo
yintetho
yintliziyo
yintloko
yinto
yintombi
yintoni
yintsholongwane
yintwana
yinxalenye
yinyama
yinyanga
yinyaniso
yiphondo
yise
yiyiphi
yiyo
yiyunivesithi
yo
yoba
yobisi
yobomi
yobu
yobukrestu
yobukumkani
yobuso
yodumo
yodwa
yohlobo
yokhuphiswano
yoko
yokokuba
yoku
yokuba
yokubala
yokubhala
yokucinga
yokufumana
yokufunda
yokugcina
yokugqibela
yokuhamba
yokuhlala
yokuhlinza
yokujikeleza
yokulahla
yokulala
yokuphila
yokuphuma
yokuqala
yokusebenza
yokusebenzisa
yokusenga
yokuthetha
yokutya
yokutyela
yokuzalwa
yokuziphatha
yokwenza
yolawulo
yolu
yoluntu
yolwazi
yolwimi
yomanyano
yombane
yombutho
yomculo
yomgaqo
yomginwa
yomhlaba
yomkhosi
yomngxuma
yomntu
yomoya
yomsebenzi
yomthetho
yomxhosa
yomzantsi
yomzimba
yona
yonke
yonyaka
yonyulo
yoo
yophando
yophuhliso
york
you
young
your
youth
youtube
yowama
yowiso
yoyisa
yugoslav
yunivesithi
yurophu
z
za
zaba
zabantsundu
zabantu
zabelungu
zabo
zabucala
zahluke
zakhe
zakho
zakowabo
zakudala
zakwa
zakwantu
zakwaxhosa
zala
zalapha
zale
zalo
zam
zama
zamabanga
zamaculo
zamajamani
zamanani
zamandulo
zamanzi
zamatyala
zamatye
zamaxhosa
zamazwe
zanda
zande
zangaphambili
zange
zase
zaseafrika
zaseburhulumenteni
zasekhaya
zasekuhlaleni
zasemelika
zasemzantsi
zasendle
zasentshona
zaseyurophu
zathi
zawo
zaye
zayo
zaza
zazenziwe
zaziwa
zazo
ze
zealand
zee
zeelwimi
zeenwele
zegazi
zehlabathi
zeit
zekhompyutha
zeli
zelizwe
zemali
zemathematika
zemfazwe
zemidlalo
zemihla
zeminyaka
zemithi
zemk
zemveli
zendalo
zengqondo
zentetho
zentliziyo
zenza
zenze
zenzeka
zenzelwe
zenziwa
zenziwe
zenzululwazi
zephondo
zero
zesi
zesibindi
zesifo
zesingesi
zesintu
zesixhosa
zesizwe
zethu
zezi
zezifo
zezifundo
zezilwanyana
zezinto
zezinye
zezityalo
zezo
zezona
zezulu
zi
ziba
zibaluleke
zibandakanya
zibangela
zibe
zibekwe
zibizwa
zibomvu
zibonakala
zibonisa
zichaza
zico
zidalwa
zide
zidibene
zidinga
zidityanisiwe
zidla
zifana
zifo
zifumane
zifumaneka
zifuna
zifundo
zihamba
zihambe
zihlala
zihlanjiwe
zihleli
zii
ziilwimi
ziimpawu
ziinkosi
ziintlobo
ziintsholongwane
zijonge
zika
zikarhulumente
zikawonke
zikho
zikhona
zikhula
zikhule
zikhuphe
zikhutshwe
ziko
zikwakho
zikwazi
zilandelayo
zili
zilishumi
zilwanyana
zimalunga
zimbabwe
zimbalwa
zimbini
zimpawu
zinamandla
zinambuzane
zinc
zinceda
zincinane
zine
zinee
zingaphaya
zingaphi
zininzi
zinjalo
zinkulu
zintathu
zinto
ziphantsi
ziphefumla
ziphila
ziphilayo
ziphile
ziphinde
ziphumo
ziqale
ziquka
zisasazeka
zisebenza
zisebenzisa
zisenokuba
zisenokusetyenziswa
zisenza
zisetyenziselwa
zisetyenziswa
zisixhenxe
zisiya
zisoloko
zisuka
zithathwa
zithathwe
zithe
zithi
zitsho
zityalo
zivela
zixhaphake
zixhobo
ziya
ziyakwazi
ziye
ziyinxalenye
zize
zizifo
zizifundo
zizigidi
zizii
ziziintlobo
zizilwanyana
zizinto
zizizwe
zizo
zizonke
zoba
zobomi
zobuso
zodwa
zokhuseleko
zokokuba
zokuba
zokudlala
zokufunda
zokugonya
zokugqibela
zokuhlala
zokuqala
zokuthetha
zokutya
zokutyela
zokwenza
zolawulo
zoluntu
zolwandle
zolwazi
zolwimi
zombini
zomculo
zomelele
zomhlaba
zomntu
zomsebenzi
zomthetho
zomthi
zomthonyama
zomzantsi
zomzimba
zona
zondeni
zone
zonk
zonke
zonyango
zophando
zophuhliso
zopolitiko
zoshishino
zulu
zuma
{
|
}
~

£
¨
°
²
·
º
¼
½
×
÷
łobez
ʰ
ʻ
ˈ
ː
̀
́
̂
̃
̄
̆
̈
̌
̓
̔
̣
̧
̱
̸
͂
͡
α
η
π
ς
д
ا
स
ी
े
ි
​
‍
‎
–
—
‘
’
“
”
•
…
‬
‭
′
″
⁄
™
⅓
←
→
↔
↷
−
≤
≥
⋯
③
④
⑦
❤
⺀
⺄
⺆
⺈
⺊
⺌
⺕
⺝
⺸
⺼
⿰
⿱
⿲
⿳
⿴
⿵
⿶
⿷
⿸
⿹
⿺
⿻
〢
え
も
ん
゙
コ
ト
ユ
ラ
㇁
㇂
㇄
㇇
㇈
㇉
㇓
㐁
㐄
㐅
㐌
㐫
㐬
㐭
㐮
㐱
㑒
㒵
㒸
㒼
㓁
㓞
㔾
㕛
㕣
㖾
㘝
㚅
㚇
㚔
㚘
㝉
㝡
㝴
㝵
㞋
㞢
㞷
㠩
㠭
㠯
㡀
㡭
㡿
㢲
㢴
㣇
㣺
㥯
㪅
㫄
㫐
㫒
㫺
㬅
㬎
㬥
㬰
㲋
㳄
㷠
㸒
㸚
㸦
㼌
㼲
㽞
㿟
䀠
䂞
䍃
䏍
䒑
䖍
䖒
䖝
䖵
䙴
䚻
䜌
䝿
䡛
䧹
䪞
一
丁
丂
七
丄
丅
丆
万
丈
三
上
下
丌
不
与
丏
丐
丑
专
且
丕
世
丘
丙
业
东
丞
丢
丣
两
严
並
丨
丩
个
丫
丬
中
丮
丰
丱
串
丵
丶
丷
丸
丹
为
主
丽
丿
乀
乂
乃
久
乆
乇
么
义
之
乌
乍
乎
乏
乐
乑
乔
乖
乗
乘
乙
乚
乛
乜
九
乞
也
习
乡
乳
乾
亀
亅
了
亇
予
争
事
二
亍
于
亏
亐
云
互
亓
五
井
亘
亚
亜
亞
亟
亠
亡
亢
交
亥
亦
产
亨
亩
享
京
亭
亮
亯
亰
亲
亳
亶
亷
人
亻
亼
亾
仁
今
介
仌
从
仐
仑
仒
仓
仕
他
付
仝
代
令
以
任
企
伊
伏
伐
休
会
伯
但
位
何
佘
余
作
佥
使
來
侈
侌
侖
侯
侵
便
保
俞
信
修
倉
倍
候
倠
備
僉
僕
儿
兀
允
兂
元
兄
充
兆
兇
先
光
兊
克
兌
免
兑
兒
兓
兔
党
兜
兟
入
全
兩
兪
八
公
六
兮
兰
共
关
兵
其
具
典
兹
兼
冀
冂
冃
冄
内
冈
冉
冊
冋
册
再
冎
冏
冐
冒
冓
冖
冗
冘
军
农
冝
冡
冥
冫
冬
冷
几
凡
凢
凵
凶
凷
凸
凹
出
函
凾
刀
刁
刂
刃
刄
刅
分
切
刍
刑
刕
刖
列
刘
则
初
別
利
别
到
制
刺
則
削
剌
前
剡
剽
劉
力
功
加
劦
助
劫
劳
劵
勃
勇
勉
勒
動
務
勞
勤
勹
勺
勻
勾
勿
匀
匂
包
匆
匈
匊
匋
匍
匕
化
北
匚
匝
匡
匪
匱
匸
匹
区
医
匽
匿
區
十
卂
千
卄
卅
卆
升
午
卉
半
卌
华
卑
卒
卓
单
卖
南
卜
卝
卞
占
卡
卢
卣
卤
卦
卩
卪
卬
卯
印
危
即
却
卵
卷
卸
卻
厂
厃
厄
历
厈
厉
厌
厓
厘
厚
原
厤
厥
厨
厭
厲
厶
厷
厸
去
厼
厽
叀
参
參
叅
又
叉
及
友
双
反
叐
发
叒
叔
叕
取
受
叚
叜
叟
口
古
句
另
叩
只
召
可
台
叱
史
右
叵
号
司
叹
吂
各
吅
合
吉
吊
吋
同
名
后
吏
向
吕
君
吝
吞
否
含
启
吳
吴
吹
吾
呂
呆
呈
告
员
呙
周
命
咅
和
咎
咠
咢
咨
咸
咼
哀
品
哉
員
哥
哲
唐
商
啇
問
啚
啬
啻
善
喜
喬
單
喿
嗇
噩
嚴
囊
囗
囘
囙
囚
四
回
囟
因
囧
囬
困
囱
囷
固
国
圂
圅
國
圍
圓
土
圡
圣
圥
在
圭
地
圶
圼
坐
坒
坚
坴
垂
垔
垚
埀
埋
埶
執
基
堂
堅
堆
堇
堯
塞
墨
壘
士
壬
壯
声
壳
壴
壹
壺
壽
夂
处
夅
夆
备
夊
夋
夌
复
夏
夒
夕
外
夗
夘
多
夜
夢
大
夨
天
太
夫
夬
夭
央
失
夲
头
夷
夸
夹
夻
夾
奂
奄
奇
奈
奉
奎
奏
奐
契
奓
奔
奚
奞
奠
奢
奥
奭
女
奴
奻
好
如
妄
妙
妟
妥
妻
妾
姑
委
姜
威
娄
婁
婴
嬰
嬴
子
孑
孔
孕
孖
字
存
孚
孛
孝
孟
季
孤
学
孫
孱
學
宀
宁
宂
它
宅
宇
守
安
宋
完
宏
宓
宗
官
定
宛
宜
宝
客
宣
室
宮
宰
害
家
容
宾
宿
寄
寅
密
富
寒
察
寧
審
寫
寬
寮
寸
对
寺
寻
寽
対
寿
封
尃
射
将
將
專
尉
尊
尋
尌
對
小
少
尒
尓
尔
尖
尗
尚
尞
尢
尣
尤
尧
尨
尭
就
尸
尹
尺
尻
尼
尽
尾
尿
局
居
屈
屋
屎
屏
屑
展
屖
屚
属
屠
屡
屬
屮
屯
屰
山
屵
屾
岁
岂
岑
岡
岩
岳
岸
峯
島
崇
崑
崔
崖
崙
崩
嵬
嶲
巂
巛
川
州
巟
巠
巢
巤
工
左
巧
巨
巩
巫
差
己
已
巳
巴
巷
巸
巽
巾
巿
帀
市
布
希
帚
帛
帝
带
師
席
帶
常
干
平
年
幵
并
幷
幸
幺
幻
幼
幽
幾
广
広
庄
床
底
店
庚
府
度
庫
庭
庶
康
庸
廉
廌
廛
廣
廩
廴
延
廷
建
廾
廿
开
弁
弃
弄
弇
弋
式
弓
弔
引
弗
弘
弜
弟
弥
弦
弱
張
強
强
彊
彌
彎
彐
彑
当
彔
录
彖
彗
彡
形
彥
彦
彧
彭
彳
役
彼
往
待
律
徒
得
徙
從
復
微
徵
心
忄
必
忌
忍
志
忝
忠
忩
快
念
忽
忿
思
怠
急
怱
恆
恒
恩
恭
息
悉
患
悤
悲
悶
惠
惡
惢
愁
愈
意
愛
感
慈
慧
慮
憂
憲
應
戀
戈
戉
戊
戋
戌
戍
戎
成
我
戒
戔
或
戚
戠
戢
截
戲
戶
户
戹
戼
戾
房
所
扁
扇
手
扌
才
打
托
执
承
折
拉
拜
拿
掌
推
提
摩
支
攴
攵
收
攸
改
放
政
敄
敏
敕
敖
敗
敝
敞
敢
散
敦
敫
敬
数
敷
數
斂
文
斉
斊
斗
斤
斥
斩
斬
斯
新
方
於
施
斿
旁
旋
族
无
旡
既
旣
日
旦
旧
旨
早
旬
旱
旲
时
旾
昆
昇
昌
昍
明
昏
易
昔
昗
昜
星
春
昬
是
昱
昴
昷
時
晃
晋
晏
普
景
晶
智
暑
暴
曇
曩
曰
曲
曳
更
曷
書
曹
曼
曾
替
最
朁
會
月
有
朋
服
朔
朕
朗
望
朝
木
朩
未
末
本
札
朮
术
朱
朵
朶
朿
杀
杏
杜
束
条
来
東
杲
杳
松
析
林
枚
果
枝
枲
枼
某
柔
查
柬
柰
柴
栗
桀
桑
桼
梁
條
梟
梨
棘
棠
棥
森
楚
業
楽
榮
樂
樊
欠
次
欣
欮
欲
欶
欽
款
歆
歇
歛
止
正
此
步
武
歨
歪
歮
歯
歰
歲
歴
歷
歸
歹
歺
死
殳
段
殷
殸
殹
殺
殻
殿
毋
毌
母
每
毒
比
毕
毚
毛
毳
氏
氐
民
气
氣
水
氵
氶
氷
永
氺
氾
求
汝
汞
江
沃
沓
沙
沝
泉
法
波
泣
泥
泰
洛
洪
活
派
流
浦
浪
浮
淡
淮
清
渚
渠
湯
滿
漸
火
灬
灭
灰
灵
灷
炅
炎
炏
炗
炙
炭
為
烈
烏
烝
焉
無
焦
焱
然
煞
熊
熏
燕
營
燮
爪
爫
爭
爯
爰
爱
爲
爵
父
爻
爽
爾
爿
片
牙
牚
牛
牜
牟
牢
牧
牪
牽
犀
犬
犭
犮
狂
狄
狊
独
狺
猋
猒
猪
献
獻
玄
率
玉
王
玟
玨
珎
班
琴
瑟
瑩
瓜
瓦
甘
甚
生
産
用
甫
甬
田
由
甲
申
电
甶
男
甸
甹
画
甾
畀
界
畏
畐
留
畜
畟
畢
畧
畨
番
畫
異
畱
當
畺
畾
疊
疋
疌
疑
疒
疾
癶
癸
癹
登
發
白
百
皀
皃
的
皆
皇
皋
皐
皕
皮
皷
皿
盃
盆
盇
盈
益
盍
盎
监
盒
盖
盛
盡
監
盤
盧
目
直
相
盾
省
眇
眉
看
眔
眞
真
眷
眼
眾
着
睘
睪
睿
瞏
瞢
瞿
矍
矛
矞
矢
矣
知
矦
短
石
破
碎
磊
磨
示
礻
礼
祟
票
祭
禀
禁
禸
禹
禺
离
禽
禾
禿
秀
秃
秉
秋
科
秝
秦
移
稟
穀
穌
穴
究
穹
空
穿
突
窄
窒
立
竒
竜
竝
竟
章
童
竹
笑
笠
筆
等
答
箕
算
箴
節
篤
篭
米
粉
粛
粟
粤
粦
粲
糞
糸
糹
系
約
納
素
索
紫
累
細
絜
絫
絲
維
綿
縣
繇
纍
纟
缶
网
罒
罔
罕
罗
罙
罡
罢
罪
署
罷
羅
羊
羌
羍
美
羔
羕
羗
羞
羡
羣
群
義
羲
羸
羽
翁
翏
習
翕
翟
翠
翼
老
耂
考
者
耆
而
耎
耑
耒
耳
耴
耶
耷
聂
聊
聖
聚
聶
聿
肀
肃
肅
肉
肖
肙
肥
肩
肯
育
肴
胃
背
胡
胥
能
脊
脩
膚
臣
臤
臧
自
臬
臭
臯
臱
至
致
臺
臼
臽
臾
臿
舀
舂
舄
與
興
舉
舌
舍
舛
舜
舞
舟
般
艮
良
色
艸
艹
艾
芒
芔
芬
芮
花
芳
芺
芻
苔
苗
苟
若
苦
英
茶
茸
荅
草
荒
荣
荼
莆
莧
莫
莽
菆
菊
菐
華
萬
落
葉
著
葛
董
葵
蒙
蒦
蒼
蓋
蓬
蓺
蔑
蔡
蕉
蕭
薄
薛
薦
薰
藍
藏
藥
蘭
虍
虎
虐
虒
虔
處
虖
虗
虘
虚
虛
虜
虞
虫
虽
蚤
蚩
蜀
蜜
蟲
蠡
血
行
衍
衛
衣
衤
表
衮
衰
袁
袞
褭
褱
襄
襾
西
覀
要
覃
見
規
覓
覧
親
覽
见
角
解
言
訁
訇
計
詹
誩
諸
讠
谷
豆
豈
豊
豐
豕
豖
豙
象
豦
豩
豪
豸
貇
貝
貞
貟
負
貢
貧
貪
貫
責
貳
貴
買
費
賁
資
賈
賏
賓
賔
賛
賞
賢
賣
質
賴
贊
贝
贡
责
贯
贲
贵
赖
赞
赤
赦
走
越
足
路
蹇
身
躬
車
軍
軎
軟
輦
车
辛
辜
辟
辥
辰
辱
農
辵
辶
边
达
过
近
连
迷
追
退
送
逆
逐
通
速
造
逢
連
逮
進
遀
遂
過
道
達
遣
適
遷
遺
邊
邑
邕
那
邦
邪
郎
部
郭
都
鄉
酉
酋
配
酓
釆
采
里
重
野
量
金
釒
錢
钅
長
镸
长
門
閃
閉
開
閏
閑
閒
間
閔
閵
閻
闌
门
间
闷
阑
阜
阝
阿
降
陳
隆
隊
隋
隡
隨
隱
隶
隹
隺
隻
隼
隽
难
雀
雁
集
雈
雋
雍
雐
雔
雙
雚
雜
雝
離
難
雨
雩
雪
雲
零
雷
需
霍
霜
霝
霞
霸
靈
靑
青
非
靡
面
靣
革
韋
韦
韭
韯
韱
音
頁
頃
項
須
頗
頡
頻
顛
页
風
风
飛
飞
食
飠
養
饣
首
香
馬
馮
駦
马
骨
高
髟
鬥
鬯
鬲
鬼
魚
魯
鮮
鱼
鲁
鳥
鳳
鸟
鹵
鹿
麃
麗
麥
麦
麻
黃
黄
黍
黎
黑
黒
黨
黹
黽
黾
鼎
鼓
鼠
鼻
齊
齋
齐
齒
齿
龍
龙
龜
龟
龠
龰
龱
龴
龵
龶
龷
龸
龹
者
艹
️
﻿
？
￼
🌹
🍾
🎉
🏃
👙
👨
👯
💁
😂
😝
🤣
🤰
🤸
🥰
🩲
𠀁
𠀃
𠀆
𠀉
𠀎
𠀐
𠁁
𠁣
𠂆
𠂇
𠂈
𠂉
𠂊
𠂋
𠂎
𠂒
𠂔
𠂛
𠂡
𠂢
𠂤
𠂬
𠂭
𠂹
𠃊
𠃋
𠃌
𠃍
𠃎
𠃑
𠃓
𠃔
𠃜
𠄌
𠄎
𠄠
𠄢
𠆢
𠆥
𠇍
𠈌
𠌵
𠓜
𠔉
𠔥
𠔼
𠔽
𠔿
𠕀
𠕁
𠕋
𠘧
𠘨
𠙻
𠙼
𠚏
𠚒
𠚤
𠚪
𠣏
𠤎
𠤕
𠥓
𠦄
𠦑
𠦝
𠧒
𠧗
𠧪
𠩺
𠪚
𠫓
𠫔
𠫤
𠬛
𠬝
𠬞
𠬢
𠬤
𠬶
𠮛
𠮦
𠮷
𠯑
𠱠
𠳮
𠷎
𡈼
𡉀
𡉵
𡌥
𡍮
𡏳
𡕒
𡕩
𡕰
𡖅
𡗗
𡗜
𡘆
𡘤
𡧱
𡨄
𡩧
𡬠
𡭽
𡰣
𡰥
𡰪
𡰯
𡰱
𡷈
𡸁
𡿨
𡿩
𡿪
𡿺
𢀖
𢀛
𢀩
𢁙
𢆉
𢆰
𢆶
𢇁
𢇇
𢉖
𢌬
𢌿
𢏚
𢑑
𢑚
𢖻
𢙣
𢛳
𢦏
𢦒
𢧵
𢼄
𢾕
𣁋
𣄼
𣅀
𣅽
𣍘
𣎳
𣎵
𣏋
𣏼
𣗥
𣥂
𣥖
𣦵
𣦼
𣧄
𣪊
𣪠
𣬉
𣳾
𣶒
𤇾
𤊽
𤐫
𤓰
𤔔
𤕨
𤣩
𤰇
𤰔
𤰞
𤴓
𤴔
𤽄
𥁑
𥁕
𥃦
𥃩
𥃭
𥇡
𥑟
𥘅
𥘈
𥝢
𥫗
𥱡
𦈢
𦉪
𦉬
𦉼
𦍌
𦍒
𦎧
𦐇
𦓔
𦔮
𦘒
𦙃
𦚏
𦣝
𦣞
𦣻
𦥑
𦥔
𦥯
𦨉
𦭝
𦰩
𧆞
𧈧
𧘇
𧰨
𧴪
𧴮
𧵩
𧾷
𨸏
𨾴
𩙿
𩠐
𩫏
𩵋
𪉷
𪜀
𪟽
𪠲
𪩲
𫇦
𫔭
𫜸
𫝀
𫠣
𫠩
𫢉
𫥞
𫩏
𫩠
𫪡
𫲽
𫶧
𬀷
𬐘
𬗌
𬙙
𬛸
𬜯
𬟩
𬯁
𬴘
𬺻
𬼉
𬼖
𭀰
𭁈
𭁨
𭅰
𭑈
𭕄
𭗼
𭤨
𭥫
𭻾
𮅕
𮊿
𮍌
𮍏
𮓗
𮥼
𮧮
廾
𰀁
𰀄
𰀈
𰀉
𰀕
𰀠
𰀡
𰀢
𰀪
𰁜
𰃮
𰆊
𰆘
𰋙
𰕎
𰢴
𰧭
𰯲
00--
15--
16--
17--
18--
19--
58--
6--
8--
a--
ab--
aba--
ababe--
abang--
abe--
abo--
abr--
ac--
act--
acu--
ad--
afu--
agc--
aguqu--
ah--
ajon--
ak--
aka--
akhu--
aku--
al--
ali--
aling--
am--
ama--
amabo--
amag--
amah--
amaq--
an--
ana--
ane--
anga--
angi--
anto--
aph--
aqh--
ar--
arc--
argu--
as--
ase--
ash--
ast--
at--
ath--
att--
au--
aux--
av--
awa--
away--
axa--
aya--
ayi--
ayifu--
azi--
b--
ba--
bab--
babe--
babeh--
bacu--
baf--
bafu--
bah--
baka--
bakhu--
bal--
bam--
bama--
bane--
bang--
banx--
baph--
baq--
baqh--
bar--
base--
bat--
bay--
bazi--
be--
bec--
bed--
beh--
belu--
bem--
ben--
ber--
bh--
bha--
bhe--
bi--
bio--
biolog--
bo--
bom--
bon--
bos--
bot--
br--
bri--
bu--
bun--
bur--
c--
cal--
cam--
car--
carp--
cas--
ce--
ch--
chan--
chap--
char--
che--
cho--
ci--
cit--
cla--
cle--
cli--
clo--
co--
colo--
com--
competit--
con--
cond--
condit--
conserv--
conta--
cor--
cp--
cr--
cur--
cy--
cya--
d--
da--
dan--
de--
dec--
def--
den--
dep--
descr--
descript--
di--
diffe--
dig--
dip--
dis--
dist--
do--
doc--
dor--
dr--
du--
e--
ea--
eb--
ebe--
ebha--
ebi--
eco--
ed--
ee--
ef--
effe--
egq--
egypt--
eh--
eham--
ek--
ekh--
eku--
ekuc--
ekuda--
ekuth--
ekwa--
el--
ela--
elase--
electro--
eli--
elic--
elif--
elinesi--
elise--
elo--
em--
emb--
emer--
emi--
emp--
emq--
en--
end--
ene--
eng--
engc--
engu--
eni--
enq--
ent--
enx--
ep--
eph--
epha--
ephe--
ephi--
equ--
er--
es--
esa--
ese--
esi--
esifu--
esint--
esiq--
esise--
eso--
et--
eth--
ets--
eu--
ex--
exh--
eya--
eyayi--
eyi--
eza--
ezazi--
ezi--
ezic--
ezicha--
ezij--
ezili--
ezing--
ezinge--
ezise--
ezo--
f--
fal--
fau--
fed--
feder--
fin--
flu--
fo--
foot--
footpr--
free--
fru--
fu--
g--
ga--
gali--
gar--
garr--
gc--
ge--
gen--
ger--
gi--
glo--
go--
goal--
god--
gq--
gr--
gra--
gram--
green--
gu--
gui--
h--
ha--
ham--
han--
he--
hid--
hlu--
ho--
hor--
hot--
hu--
hun--
hy--
i--
ia--
iaf--
ib--
iba--
ibe--
ibh--
ibha--
ibi--
ibon--
ic--
ica--
id--
ide--
idolo--
if--
ifi--
ifum--
ig--
igc--
igq--
ih--
ii--
iif--
iim--
iimfu--
iimp--
iin--
iing--
iingc--
iinj--
iint--
iip--
ijon--
ik--
ikha--
ikhu--
ikhwe--
iko--
ikwa--
ila--
ili--
im--
ima--
imag--
imf--
imi--
imp--
imve--
in--
ind--
inda--
indi--
indo--
inee--
infe--
ing--
inga--
inge--
ingq--
ingu--
ini--
init--
inj--
inko--
ino--
inq--
int--
inter--
ints--
inyibi--
ip--
iph--
iq--
iqh--
ir--
irha--
is--
isen--
ish--
isi--
isiq--
isis--
isith--
iso--
it--
ita--
ith--
itha--
itho--
itsh--
iv--
ivu--
iwe--
ix--
ixha--
iy--
iya--
iyi--
iza--
izi--
izikh--
izith--
j--
ja--
jac--
je--
jen--
jenk--
jes--
jo--
joh--
jon--
ju--
k--
ka--
kah--
kam--
kang--
kay--
ke--
kh--
kha--
khe--
ko--
koku--
kom--
koon--
kr--
ku--
kub--
kube--
kuc--
kucha--
kud--
kufa--
kufu--
kuh--
kuhla--
kuk--
kuka--
kuku--
kule--
kum--
kuma--
kun--
kung--
kuno--
kunq--
kuph--
kuq--
kuqh--
kuqhuty--
kusi--
kut--
kuth--
kuv--
kuvu--
kux--
kuya--
kwa--
kwaba--
kwabe--
kwama--
kwase--
kwe--
kwee--
kwengc--
kwesi--
kweze--
kwezo--
kwi--
kwib--
kwif--
kwii--
kwin--
kwinc--
kwint--
kwisi--
kwizi--
l--
la--
laba--
lakwa--
lama--
lan--
lase--
lau--
le--
lea--
lee--
leg--
len--
lend--
lesi--
li--
lib--
lifu--
lih--
lika--
likwa--
lin--
ling--
liq--
lit--
liya--
lo--
lob--
lobo--
lobun--
loku--
lokuh--
lolwa--
lom--
lu--
lub--
luba--
lun--
luph--
luq--
lwa--
lwase--
lwe--
lwee--
m--
ma--
mah--
malu--
man--
maq--
mar--
marac--
mat--
mate--
may--
mba--
mbu--
me--
mem--
men--
mf--
mh--
mi--
micr--
mid--
mif--
mkh--
mkhwa--
mlo--
mngx--
mo--
mon--
mor--
mp--
mq--
mu--
mult--
multili--
mus--
mutat--
mv--
my--
mz--
n--
na--
naba--
naku--
nakwi--
nama--
nanga--
nase--
nc--
nd--
ndin--
ndis--
ne--
nee--
nem--
nemi--
nemib--
nemp--
nent--
ner--
nes--
nesi--
neza--
nezi--
ng--
nga--
ngama--
ngan--
ngc--
nge--
ngee--
ngen--
ngend--
ngeny--
ngep--
ngesi--
ngi--
ngo--
ngob--
ngoko--
ngoku--
ngokwase--
ngokwe--
ngoo--
ngq--
ngu--
ngum--
ni--
nick--
nje--
njenga--
njenge--
njengo--
nka--
nkc--
no--
nob--
nokh--
noku--
nokuh--
nokwa--
nom--
nomy--
nont--
nosa--
not--
now--
nq--
nt--
nto--
nuc--
nx--
ny--
nz--
o--
obe--
obu--
of--
oh--
oka--
okh--
oku--
ol--
olu--
om--
ome--
omniv--
on--
one--
ongu--
oo--
oph--
oq--
or--
os--
out--
owaw--
oyi--
p--
pa--
pac--
pal--
par--
pas--
pass--
pe--
pen--
per--
pers--
petr--
ph--
pho--
phos--
phy--
pi--
pit--
pla--
po--
poly--
pr--
pre--
premo--
pro--
product--
prot--
q--
qat--
qu--
r--
ra--
rac--
rail--
ran--
re--
requi--
res--
respir--
rest--
rev--
rid--
rie--
ris--
riv--
ro--
roo--
ru--
rus--
s--
sa--
saba--
sama--
sase--
sch--
sculp--
se--
sect--
see--
sen--
ser--
sh--
sha--
shi--
sho--
si--
sib--
siba--
sid--
sifu--
siga--
sih--
sika--
sil--
sili--
sing--
siq--
sisa--
sisi--
siya--
sku--
so--
soku--
sokuc--
som--
south--
sp--
spi--
st--
str--
stre--
su--
sub--
sur--
sw--
t--
ta--
te--
tech--
th--
the--
thu--
ti--
to--
tot--
tr--
trans--
tre--
tri--
trill--
ts--
tsh--
tu--
tw--
tya--
tyhe--
u--
ub--
uba--
ube--
ubon--
ubu--
ubulu--
ubun--
uco--
ucwa--
ud--
uf--
ufa--
ufu--
uga--
uguqu--
uh--
uk--
ukh--
uku--
ukub--
ukuc--
ukufu--
ukukh--
ukun--
ukung--
ukuqwa--
ukush--
ukux--
ukuxha--
ul--
uli--
ulo--
ulu--
um--
umb--
umbu--
umk--
umli--
umph--
umq--
umth--
umz--
un--
unc--
une--
unga--
ungu--
ungum--
uni--
uno--
unom--
unont--
unt--
up--
uph--
upha--
uphe--
uphi--
uq--
ur--
urh--
us--
use--
ush--
usib--
ut--
uth--
uto--
utsha--
uv--
uve--
uvi--
uvu--
ux--
uya--
uyi--
uyo--
uz--
uze--
uzi--
v--
ve--
ver--
vespert--
vi--
vin--
vit--
vol--
w--
wa--
waa--
waba--
wabhub--
wabu--
wac--
wafu--
wag--
wah--
wakhu--
wam--
wama--
wapa--
waq--
waqh--
war--
wase--
wath--
wav--
waya--
waye--
wayengu--
wazi--
we--
web--
wed--
wee--
wen--
wenj--
went--
wezi--
wi--
wo--
wobu--
woh--
woku--
wom--
won--
woo--
wosu--
wr--
x--
xa--
xha--
y--
ya--
yaba--
yaf--
yafu--
yah--
yakwa--
yam--
yama--
yani--
yaq--
yase--
yayi--
ye--
yee--
yem--
yen--
yent--
yesi--
yez--
yh--
yi--
yim--
yimi--
yimp--
yin--
yint--
yo--
yobu--
yoku--
yom--
yomp--
z--
za--
zabe--
zah--
zakhi--
zakwa--
zama--
zase--
ze--
zee--
zemi--
zes--
zesi--
zezi--
zi--
zib--
zibe--
zic--
zidi--
zifu--
zigq--
zih--
zii--
ziint--
zikh--
zine--
zinee--
zing--
zinq--
zint--
zise--
zit--
zith--
ziv--
zix--
ziya--
zizi--
zo--
zobu--
zoku--
zokufu--
zom--
--0
--1
--2
--3
--4
--5
--6
--66
--7
--8
--9
--a
--ad
--afa
--ah
--ahla
--ak
--akanya
--al
--ala
--ald
--am
--ambo
--an
--ane
--ani
--ano
--ans
--ant
--anwa
--ari
--ary
--as
--at
--ate
--ates
--atho
--athu
--ation
--ay
--ayo
--b
--ba
--baluleke
--balwa
--bana
--bane
--banga
--be
--beka
--bekwa
--belana
--bele
--beni
--benzisa
--berg
--bhaca
--bhakabhaka
--bhala
--bhali
--bhalwa
--bhe
--bhedlele
--bhekisa
--bhile
--bhinqa
--bhlikhi
--bhobho
--bhozo
--bhu
--bhulu
--bi
--bikho
--bin
--bindi
--bini
--biso
--biza
--bizo
--bizwa
--ble
--bliki
--bo
--boka
--bongo
--bonisa
--bonwa
--bosch
--bs
--bu
--bula
--bulo
--burg
--bwe
--c
--ca
--cace
--cal
--car
--ce
--cebo
--cent
--cetyiswa
--ch
--chaza
--chiza
--cillary
--cimbi
--cinga
--cisa
--ciso
--ck
--co
--cs
--ct
--cula
--cwangciso
--cy
--d
--da
--dabi
--dalwa
--dathu
--dayo
--de
--ded
--di
--dibana
--dla
--dlali
--dlela
--dlo
--dluliseka
--do
--doda
--ds
--du
--dwa
--dwe
--dy
--e
--ebe
--ed
--eda
--ede
--eka
--eke
--eki
--ekisa
--eko
--el
--ela
--elayo
--ele
--eleka
--eleke
--eli
--elwa
--elwe
--en
--ena
--ene
--eni
--ent
--ente
--ents
--er
--ere
--ers
--ery
--es
--eshe
--et
--etyenziswa
--ey
--eyo
--eze
--f
--fa
--fana
--fazi
--ff
--fika
--fikelela
--fo
--frentshi
--frey
--fu
--fuduka
--ful
--fumana
--fumaneka
--funa
--funda
--fundi
--fundisa
--fundiswa
--fundo
--funyanwa
--futha
--futhe
--futshane
--g
--ga
--gadeiro
--galiso
--ganeko
--gangatho
--gcina
--gcisa
--gcuka
--ge
--ger
--ght
--gi
--gical
--gidi
--gie
--gies
--giso
--go
--goli
--goma
--gosa
--gqabi
--gqiba
--gqwetha
--grike
--gs
--gu
--gula
--gulana
--gumbi
--gunya
--gwa
--gwe
--gxile
--gxina
--gxothwa
--gy
--h
--ha
--habhlikhi
--hambelana
--hambisa
--he
--hekisa
--hi
--hing
--hini
--hla
--hlali
--hlanu
--hle
--hlela
--hlo
--hloko
--hlolokazi
--hlunu
--hlwa
--ho
--hoba
--hosi
--hu
--hulu
--hwa
--hwe
--hy
--i
--ia
--ial
--ian
--ic
--ical
--ics
--id
--ie
--ied
--iers
--ies
--ight
--ign
--iki
--il
--ila
--ile
--ilo
--im
--in
--ina
--ine
--ing
--ings
--ini
--io
--ion
--ious
--ir
--iro
--is
--isa
--ise
--iselwa
--ish
--ishi
--ism
--iso
--ist
--ite
--ites
--ity
--ium
--iva
--ive
--iwe
--ix
--iyo
--ja
--jah
--je
--ji
--jikeleza
--jingqi
--joni
--juda
--k
--ka
--kala
--kalelo
--kalisa
--kalise
--kalo
--kama
--kamisa
--kamo
--kanga
--kanyiswa
--kathi
--kayo
--kaza
--kazi
--ke
--keke
--kela
--kele
--kelela
--kelo
--kelwa
--kelwe
--kha
--khali
--khe
--khelela
--khilomitha
--kho
--khu
--khula
--khulelwa
--khulu
--khuni
--khusela
--khutshwa
--khwenkwe
--ki
--kile
--kisa
--kishi
--kiso
--ko
--komanisi
--ks
--kwa
--kwazi
--kwe
--l
--la
--lahle
--lali
--lana
--land
--laphu
--lar
--lawula
--ld
--le
--led
--leji
--leka
--lekanga
--leke
--lekile
--lekiswa
--leko
--lela
--lelana
--lele
--lelo
--lelwa
--lelwano
--leni
--lets
--ley
--leyo
--li
--lica
--lifa
--lisayo
--lisi
--liswa
--ll
--lle
--llular
--lo
--loba
--lobongela
--loji
--loliwe
--lona
--ls
--lt
--lu
--luleke
--lulekile
--lulwane
--lunga
--lungu
--lw
--lwa
--lwane
--lwanyana
--lwazi
--lwe
--lweni
--ly
--m
--ma
--mali
--mazantsi
--mb
--mba
--mbala
--mbe
--mbeni
--mbezi
--mbi
--mbiwa
--mbo
--mdaka
--me
--mela
--mele
--ment
--mes
--mfundi
--mfundiso
--mgangatho
--mi
--migaqo
--minwe
--misa
--mise
--mishinari
--mishini
--miswa
--mitha
--mka
--mkela
--mla
--mlo
--mlungwini
--mmangaliso
--mo
--mokhrasi
--mond
--mongikazi
--mpahla
--mpawu
--mpilo
--mpucuko
--ms
--my
--mzini
--n
--na
--nc
--nce
--nch
--ncoko
--ncy
--nd
--nda
--ndakanyeka
--nde
--ndebe
--ndela
--ndi
--ndidi
--ndisa
--ndiswa
--ndla
--ndle
--ndlela
--ndo
--ndoqo
--ne
--neni
--ner
--ney
--ng
--nga
--ngafaniyo
--ngaqhelekanga
--ngca
--ngcali
--ngcambu
--ngcinga
--ngcingo
--nge
--ngela
--ngelwa
--ngi
--ngilane
--ngileyo
--ngisa
--ngiswa
--ngozi
--ngqongileyo
--ngu
--nguni
--ngwa
--ngwane
--ni
--nika
--nike
--nina
--nisa
--niseni
--niso
--niswa
--niswe
--nja
--nje
--njwa
--njwe
--nk
--nkani
--nkazana
--nkce
--nkokheli
--nkoliso
--nkundla
--no
--nqa
--nqaku
--nqanaba
--nqwelo
--ns
--nse
--nsi
--nt
--nte
--nti
--ntified
--ntla
--ntlanzi
--nto
--ntombazana
--nts
--ntshwana
--ntsi
--ntsundu
--ntu
--nu
--num
--nwa
--nwe
--nwele
--nxitywa
--ny
--nya
--nyana
--nyani
--nyaniso
--nye
--nyibiliki
--nyo
--nz
--nza
--nze
--nzeka
--nzela
--nzi
--nzisa
--nziswano
--nziwa
--nzo
--o
--oa
--ock
--ofi
--ol
--om
--omo
--on
--ons
--op
--or
--ord
--orm
--ors
--os
--ot
--otho
--oti
--oto
--ough
--ova
--ovich
--p
--papasha
--papashwa
--pasi
--pe
--per
--pha
--phatha
--phathwa
--phefumla
--pheka
--phi
--phiko
--phiwo
--pho
--phu
--phuhla
--phulaphuli
--phuma
--phumo
--phupha
--pitoli
--polisa
--ps
--pu
--qa
--qalwa
--qela
--qhamo
--qhinga
--qingatha
--qo
--qobo
--qonda
--qondo
--qoqosho
--qu
--quka
--quko
--qulelo
--r
--ra
--rali
--rd
--re
--rg
--rha
--rho
--ri
--rika
--ring
--rn
--rnal
--ro
--roma
--room
--rper
--rs
--rt
--rty
--rubin
--ry
--s
--sa
--sahara
--sasaza
--sasazeka
--sdorp
--se
--seko
--sela
--selwa
--sen
--seni
--ses
--setyenziswa
--sh
--sha
--shi
--shini
--shumi
--shushu
--shwa
--shwe
--si
--sion
--sis
--siweyo
--so
--son
--ss
--st
--stan
--ster
--stown
--stry
--su
--sulelwa
--susa
--svaal
--swa
--swana
--swe
--swela
--sweleka
--t
--ta
--tas
--tch
--te
--ted
--tein
--teketiso
--teni
--ter
--tes
--th
--tha
--the
--thetha
--thi
--thile
--thintela
--tho
--thu
--thunywa
--thutha
--thwa
--thwala
--ti
--tie
--tiki
--tiko
--tion
--tishi
--tive
--tje
--tla
--tle
--to
--tofu
--ton
--tor
--tra
--triki
--ts
--tsha
--tshatele
--tshi
--tsho
--tshwa
--tsi
--tswana
--tt
--tulo
--ty
--tya
--tyalo
--tye
--tyebi
--tyelwa
--tyeni
--tyenziswa
--tyiwa
--tywa
--tz
--u
--ual
--ubi
--ue
--uel
--uka
--uke
--ula
--ular
--ule
--uli
--ulo
--ulwa
--um
--uma
--ume
--ur
--us
--ushu
--ute
--v
--va
--val
--ve
--veki
--vela
--venkile
--ver
--vidiyo
--ville
--vo
--vota
--vu
--vutha
--w
--wa
--waka
--wana
--wane
--wano
--we
--wela
--wele
--weyo
--wn
--wo
--wood
--wu
--wula
--wuta
--x
--xa
--xabiso
--xeko
--xhego
--xhenxe
--xhoba
--xhobo
--xoka
--y
--ya
--yaka
--yana
--yathwa
--yazi
--ye
--yelwa
--yenkanga
--yenziselwa
--yenziswa
--yenziswe
--yi
--yika
--yisa
--yiso
--yo
--ywa
--ywe
--z
--za
--zali
--zalwa
--zalwane
--zana
--zandi
--zathu
--ze
--zeka
--zela
--zele
--zelelweyo
--zelo
--zelwa
--zenzo
--zi
--zima
--zingela
--zini
--zinye
--zinyo
--zisa
--zise
--ziva
--ziwa
--ziyo
--zo
--zonwabisa
--zulu
--zwa
--zwe
--zwi
