!
"
#
##0
##1
##10
##11
##12
##13
##14
##15
##16
##17
##18
##19
##2
##20
##21
##22
##23
##24
##25
##26
##27
##28
##29
##3
##30
##31
##32
##33
##34
##35
##36
##37
##38
##39
##4
##40
##41
##42
##43
##44
##45
##46
##47
##48
##49
##5
##50
##51
##52
##53
##54
##55
##56
##57
##58
##59
##6
##60
##61
##62
##63
##64
##65
##66
##67
##68
##69
##7
##70
##71
##72
##73
##74
##75
##76
##77
##78
##79
##8
##80
##81
##82
##83
##84
##85
##86
##87
##88
##89
##9
##90
##91
##92
##93
##94
##95
##96
##97
##98
##99
$
%
&
'
(
)
*
+
,
-
.
/
0
00
000
00721
01
02
03
04
05
06
07
08
09
0971
1
10
100
1000
1002
1007
101
1016
102
103
1038
104
105
106
107
108
1080
1086
109
1093
11
110
111
1111
112
113
114
115
116
117
118
119
12
120
1200
121
122
123
124
125
126
127
128
129
13
130
131
132
133
134
135
136
137
138
139
14
140
141
142
143
144
145
146
147
148
149
15
150
1500
151
152
153
154
155
156
157
158
159
16
160
1600
161
162
163
164
165
166
167
168
169
17
170
1700
171
172
175
176
177
179
18
180
1800
181
182
183
1848
185
1850
1857
1858
1860
1861
1865
1866
1867
1868
1870
1871
1872
1873
1874
1875
1876
1877
1878
1879
1880
1881
1882
1883
1884
1885
1886
1887
1888
1889
1890
1891
1892
1893
1894
1895
1896
1897
1898
1899
19
190
1900
1901
1902
1903
1904
1905
1906
1907
1908
1909
1910
1911
1912
1913
1914
1915
1916
1917
1918
1919
1920
1921
1922
1923
1924
1925
1926
1927
1928
1929
193
1930
1931
1932
1933
1934
1935
1936
1937
1938
1939
1940
1941
1942
1943
1944
1945
1946
1947
1948
1949
1950
1951
1952
1953
1954
1955
1956
1957
1958
1959
1960
1961
1962
1963
1964
1965
1966
1967
1968
1969
1970
1971
1972
1973
1974
1975
1976
1977
1978
1979
1980
1981
1982
1983
1984
1985
1986
1987
1988
1989
1990
1991
1992
1993
1994
1995
1996
1997
1998
1999
2
20
200
2000
2001
2002
2003
2004
2005
2006
2007
2008
2009
201
2010
2011
2012
2013
2014
2015
2016
2017
2018
2019
202
2020
2021
2022
2023
203
205
206
208
21
210
212
22
220
226
23
230
2307
235
238
24
240
25
250
252
255
26
260
27
28
280
29
3
30
300
3000
31
313
32
320
33
330
34
340
35
350
36
360
365
37
370
38
380
39
390
4
40
400
4000
41
415
42
43
44
45
450
46
47
48
489
49
5
50
500
5000
51
52
520
521
53
54
55
550
56
57
58
59
6
60
600
61
611
62
63
64
65
66
67
68
69
7
70
700
71
72
73
74
747
75
750
751
76
77
78
79
8
80
800
81
82
83
84
85
86
87
88
89
9
90
900
91
92
93
94
95
96
97
978
9780241332894
9780978951702
9781409362074
9781743212202
9781785731990
9781787012332
9781787012394
9782816159172
9788131707975
9788170229681
9788170240716
9788170350293
9788179911068
9788179914458
9788187358145
9789380844831
98
99
:
;
<
=
>
?
@
[
\
]
^
_
`
a
aa
ab
abc
abigail
about
abu
ac
academic
academy
access
accessdate
accessed
according
account
acid
across
act
action
actor
actress
ad
adam
adj
administration
advanced
ae
affairs
afghanistan
africa
african
after
again
against
age
agency
agra
agricultural
agriculture
ahead
ahmed
ai
air
aircraft
airport
akademi
al
alan
alaska
album
alcohol
alexander
algorithm
ali
all
allen
allowed
alpha
also
alternatives
am
amar
amazon
america
american
amita
among
an
analysis
ancient
and
andhra
andrew
angeles
animal
animals
anjali
ann
announce
announced
announces
annual
another
anthony
anthropological
anti
any
aol
ap
apa
aph
apple
appleton
application
applications
appointed
approach
april
ar
arab
arabic
architecture
archive
archived
archives
are
area
areas
army
around
art
arthur
article
articles
arts
arunachal
arxiv
as
ashutosh
asia
asian
asp
aspx
assam
assembly
associated
association
astronomical
astronomy
astrophysics
at
atlantic
atlas
attack
au
audio
aug
august
australia
australian
author
authority
authors
available
aviation
award
awards
away
ax
b
ba
back
background
bad
ball
ban
banarsidass
bangladesh
bank
base
based
basic
batting
battle
bay
bbc
bc
bd
be
beat
became
because
become
becomes
been
before
begin
begins
behari
behind
being
ben
benanav
bengal
bengali
berghahn
berlin
berlitz
best
beta
better
between
beyond
bf
bh
bharat
bhaskar
bhatt
big
bigg
bihar
bill
billboard
billion
biography
biology
bird
birds
birth
birthday
bjp
black
blasi
block
blog
blood
bloomberg
blue
bn
board
body
bold
bollywood
bombay
book
books
border
born
boss
boston
bot
both
bowling
box
br
brain
break
breaking
brian
bridge
brief
brill
britain
britannica
british
broadcasting
brown
bruce
building
bulletin
bureau
business
but
by
c
ca
calcutta
california
call
called
cambridge
campaign
can
canada
canadian
cancer
capital
captain
car
carbon
care
career
case
cases
cast
caste
cat
category
cbs
cc
cd
cdot
ce
cell
census
center
central
centre
century
ceo
ceremony
ch
challenge
champions
championship
chandra
change
changes
channel
chapter
char
character
charles
che
chemical
chemistry
chennai
chhattisgarh
chicago
chief
child
children
china
chinese
choice
chopra
chris
christian
christopher
chronicle
church
churches
cia
cinema
circuit
citation
cite
cities
city
civil
claims
class
classical
classification
climate
clinical
close
club
cm
cms
cnn
co
coauthors
code
cohen
collection
college
color
columbia
com
come
commission
commissioner
committee
common
commonwealth
community
company
comparative
complete
completed
complex
comprehensive
computer
concept
conference
confirmed
conflict
congress
conservation
constituencies
constituency
constitution
contemporary
content
control
copy
cornell
coronavirus
corporation
cos
could
council
countries
country
countrystudies
county
course
court
covid
cricbuzz
cricinfo
cricket
cricketarchive
crisis
critical
crore
cross
cs
cultural
culture
cup
current
d
da
daily
dainik
dan
dance
daniel
dark
das
dash
data
database
date
david
davis
dawn
day
daya
days
dc
de
dead
deadline
deal
death
debut
dec
deccan
december
dedicated
deep
defence
define
definition
del
delhi
delta
democracy
democratic
department
der
des
desai
design
detailed
details
dev
developing
development
devi
di
dictionary
did
die
dies
different
digital
direct
director
directorate
directory
discovery
disease
diseases
display
displaystyle
distance
distribution
district
districts
diversity
division
dna
do
documents
does
dog
doi
domestic
don
double
douglas
down
download
dq
dr
drama
dream
drug
du
dube
due
during
dutch
dvd
dx
dynamics
dynasty
e
each
early
earth
east
eastern
economic
economics
economy
ed
edited
edition
editor
editors
eds
edu
education
educational
edward
effect
effects
egypt
eicher
el
elected
election
elections
electric
electronic
elements
elite
elizabeth
emerging
emesco
emirates
empire
empty
en
encyclopaedia
encyclopedia
encyclopædia
end
energy
engine
engineering
england
english
enter
entertainment
entry
environment
environmental
equation
era
eric
error
es
espn
espncricinfo
et
eu
europe
european
even
event
events
ever
every
evidence
evolution
ex
example
exchange
exclusive
executive
experience
explicit
expo
express
eye
f
fa
face
facebook
fact
factbook
facts
fall
family
far
fast
father
fda
fe
feature
features
feb
february
federal
federation
feed
female
feminine
festival
few
field
fifa
fight
figures
file
files
film
films
final
finance
financial
find
fire
first
firstlast
firstpost
five
flag
flight
following
food
football
for
forbes
force
forces
ford
foreign
forest
form
former
fort
forum
found
foundation
four
fourth
fox
fr
frac
france
francis
francisco
frank
free
freedom
french
from
front
full
function
fund
future
g
ga
game
games
gandhi
gas
gazette
gazetteer
gb
gdg
gdp
ge
gender
general
generation
geographic
geography
geological
geometry
george
german
germany
get
gets
girl
give
given
gives
glimpses
global
glossary
go
goa
god
goes
goi
gold
golden
good
goodearth
google
got
gov
governance
government
governor
govt
goyal
grand
great
greatest
greek
green
ground
group
groups
growth
gu
guardian
guide
guides
gujarat
gulf
gunaji
gupta
guru
gyan
h
ha
had
hai
half
hall
hand
handbook
hans
happy
harvard
haryana
has
have
hazare
hd
he
head
health
heart
heat
held
help
henry
her
herald
here
heritage
hero
heroes
hex
hi
high
higher
highest
highway
highways
hill
him
himachal
himalayan
hindi
hindu
hinduism
hindustan
hirway
his
historic
historical
history
hit
hits
hiv
hl
ho
hollywood
home
hong
hospital
host
hot
house
how
however
hrcbmdfw
htm
html
http
https
human
hungama
hunter
hyderabad
i
ian
ibm
ibn
icc
ice
id
idea
identity
if
ign
ii
iii
il
illustrated
image
images
imdb
impact
imperial
important
in
inc
include
including
inde
independence
independent
index
india
indian
indiatimes
indies
indira
indo
indonesia
indus
industrial
industry
info
information
infty
inode
input
inside
insight
institute
institution
int
intelligence
interactive
international
internet
interview
into
introduction
invalid
io
ipa
ipl
iran
ireland
irish
iron
is
isabella
isbn
islam
islamic
island
islands
iso
israel
issue
issues
ist
it
italic
its
itunes
iucn
iv
j
ja
jack
jackson
jagran
jain
james
jammu
jan
january
japan
japanese
java
jawaharlal
jean
jersey
jharkhand
ji
joe
john
johnson
join
joins
jonathan
jones
joseph
journal
journey
jpg
jr
jstor
jul
july
jump
jun
june
just
justice
justin
k
ka
kal
kamal
kapoor
karnataka
kashmir
kashyap
kaul
ke
kerala
kevin
key
khadpekar
khan
ki
killed
kim
king
kingdom
km
know
knowledge
known
ko
kolkata
kong
korea
korean
kripa
krishna
ku
kumar
l
la
laboratory
ladakh
lake
lal
land
language
languages
lanka
large
largest
las
last
lastlast
late
later
latest
launch
launches
law
le
lead
leader
league
learning
least
led
lee
left
legal
legislative
les
let
letters
level
lewis
li
library
life
light
like
lim
limited
lindsay
line
linguistics
link
links
linux
list
literature
little
live
living
llc
ln
local
location
log
lok
london
lonely
long
look
lord
los
lost
louis
love
low
lower
ltd
m
ma
machine
macmillan
made
madhya
magazine
magical
maharashtra
mail
main
major
make
makes
making
malaysia
man
management
manipur
manoj
manual
many
map
maps
mar
march
mark
market
markup
mars
marshall
martin
marvel
mary
masculine
mass
match
matches
mathbf
mathematical
mathematics
mathrm
matt
matthew
max
may
mcgraw
md
me
meaning
means
med
medal
media
medical
medicine
medieval
meet
meghalaya
mehta
member
members
memorial
memory
men
meridian
method
methods
metro
mi
michael
microsoft
mid
middle
mike
milind
military
miller
million
mind
minister
ministry
minutes
mirror
miss
missile
missing
mission
mit
mitra
mittal
mm
mobile
model
modern
modi
module
mohammad
mojo
molecular
money
month
moon
more
morning
most
mother
motilal
motion
mount
mountain
mountains
movable
movement
movie
movies
mp
mr
ms
msn
mtv
mu
much
muhammad
mumbai
municipal
museum
mushtaq
music
muslim
muslims
must
my
mystical
n
na
nadu
name
named
names
namibia
narendra
nasa
nath
nation
national
nations
native
natural
nature
navy
nbc
nd
ndtv
ne
near
need
nehru
nepal
net
netherlands
network
never
new
news
newspaper
newspapers
next
nf
ng
nh
ni
nic
nick
nigeria
night
nl
nm
no
nobel
noble
non
nord
north
northern
not
note
notes
notification
noun
nov
novel
november
now
nr
nu
nuclear
number
numbering
numbers
ny
nz
o
ocean
oclc
oct
october
odi
of
off
office
official
oh
oil
old
olympic
olympics
oman
omega
on
one
online
only
open
opening
operation
operations
or
oracle
order
org
organization
origin
original
origins
orissa
os
other
others
our
out
outlook
output
over
overview
own
oxford
p
pa
pacific
padma
page
pages
pai
pakistan
paper
parallel
paralympic
paris
park
parliament
parliamentary
part
partial
party
passes
past
patel
patients
patrick
patrika
paul
pc
pdf
peace
pearson
penguin
people
peoples
per
performance
period
persian
person
personal
perspective
perspectives
peter
pg
ph
phage
philosophy
photo
photos
php
physical
physics
pi
picture
pictures
pk
place
places
plan
planet
planning
plans
plant
plants
plate
play
played
player
players
plus
pm
pmc
pmid
png
pocket
poet
poetry
point
points
police
policy
political
politics
popular
population
port
portal
positive
post
potti
power
pp
practice
pradesh
prakash
prakashan
prasad
pre
premier
present
president
press
pressure
prevention
price
primary
prime
prince
princeton
principles
print
private
prize
pro
problem
problems
proceedings
process
product
production
profile
program
programme
programming
project
prospect
prospects
protection
province
provisional
psychology
pt
pub
public
publication
publications
published
publisher
publishers
publishing
punjab
pvt
q
qualifier
qualifiers
quality
queen
questions
quot
r
ra
race
radio
rahul
rail
railway
rain
raj
rajasthan
rajendra
rajiv
ram
ramakrishna
range
ranji
rankings
rao
rate
ray
rbs
rd
re
reaction
read
ready
real
record
records
red
reddy
rediff
ref
reference
references
reforms
region
regional
registrar
related
relations
release
released
releases
religion
religious
report
reporter
reports
republic
requires
res
research
resource
resources
result
results
retrieved
retrospect
return
returns
reuters
rev
revealed
revenue
review
reviews
revolution
rfid
rgb
ri
richard
right
rights
rio
rise
risk
river
ro
road
robert
rock
role
roman
romanesque
rough
round
rousseau
routledge
roy
royal
rs
ru
rule
rules
run
runs
rural
russia
russian
rya
ryan
s
sa
sabha
safety
sage
sahitya
said
saint
sam
same
san
sangeeta
sanskrit
santa
sarah
satellite
saudi
say
says
sc
schedule
school
schools
sci
science
sciences
scientific
scotland
scott
screen
script
se
sea
search
season
sec
second
secret
section
security
see
selected
self
sen
sep
september
series
server
service
services
set
sets
seven
several
sex
sexual
shah
shankar
sharma
she
shooting
short
should
show
shows
shri
shyam
si
side
simon
sin
since
singapore
singer
singh
single
sinha
sir
site
sites
six
size
sky
small
smith
snapshot
so
sochi
social
society
software
solar
some
son
song
songs
sons
sony
sound
source
sources
south
southeast
southern
sp
space
spain
spanish
special
species
speech
speed
spider
sport
sports
springer
sqrt
squad
squads
square
sreeramulu
sri
srivastava
st
stadium
staff
stage
standard
standards
stanford
star
stars
start
state
statement
states
station
statistical
statistics
status
stephen
steve
steven
still
stone
stories
story
street
string
struct
structural
structure
students
studies
study
stuff
style
su
sub
success
such
sudha
suicide
sum
summary
summer
sun
sunday
super
support
suresh
survey
swati
sydney
syed
syndrome
system
systematic
systems
t
ta
table
take
takes
talks
tamil
tan
taylor
te
team
teams
tech
technical
technology
telangana
telegraph
television
telugu
temperature
temple
ten
term
terms
test
tests
texas
text
texts
th
thailand
than
that
the
their
them
then
theorem
theory
therapy
there
these
theta
they
things
third
this
thomas
those
thought
three
through
tiger
tim
time
times
timesofindia
title
to
today
together
tom
too
top
toronto
total
totals
tour
tourism
tournament
town
towns
tr
trade
tradition
traditional
trailer
training
trans
transformation
translated
translation
transport
travel
treatment
tree
trial
tribes
tribune
trophy
tropical
true
trust
tu
tv
twenty
twitter
two
type
u
uae
udai
uefa
uk
ukraine
un
und
under
understanding
unesco
union
unit
united
universal
universe
university
unknown
up
upanishads
update
updated
updates
urban
urdu
url
us
usa
use
used
using
uttar
uttarakhand
v
va
valley
value
van
variety
various
varta
ve
vec
verb
verma
version
very
vi
via
victoria
victory
video
videos
vietnam
view
views
vijay
village
villages
violence
virtual
virus
visit
visitors
visual
vivek
voice
void
vol
volume
von
vs
vt
w
wales
wall
want
war
wars
was
washington
watch
water
way
wayback
wcw
we
weather
web
website
week
weekly
welcome
well
were
west
western
what
when
where
which
while
white
who
why
wickets
wife
wiki
wikipedia
wikt
wildlife
wiley
will
william
williams
wilson
win
windows
winners
wins
winter
wise
with
within
without
woman
women
won
word
words
work
working
works
world
worldwide
would
wrestling
write
writer
writing
written
wwe
wwf
www
x
xi
y
ya
yahoo
year
years
yellow
york
you
young
your
youth
youtube
z
zealand
zee
zimbabwe
zone
{
|
}
~
£
¤
¥
§
©
«
­
®
¯
°
±
²
´
µ
·
º
»
½
×
ð
ə
ʰ
ʲ
ʹ
ʻ
ʾ
ʿ
ˈ
ˌ
ː
̀
́
̂
̃
̄
̆
̇
̈
̉
̊
̋
̌
̐
̓
̛
̣
̥
̧
̨
̱
̸
͂
͡
α
β
γ
δ
ε
ζ
η
θ
λ
μ
ν
π
ρ
ς
σ
τ
φ
ψ
ω
ϑ
ϕ
а
в
и
н
о
с
і
ֺ
،
ا
ب
ة
ت
د
ر
س
ع
ل
م
ن
و
ي
َ
ُ
ِ
ّ
ْ
ٓ
ٔ
ٕ
ँ
ं
ः
अ
अक
अकड
अकबर
अकर
अकल
अकस
अख
अखण
अखब
अखर
अग
अगम
अगर
अगल
अगस
अघ
अङ
अच
अचल
अछ
अज
अजनब
अजम
अजय
अट
अटक
अटकल
अटल
अठ
अड
अण
अत
अतएव
अतर
अथ
अथर
अथव
अद
अदर
अध
अधम
अधर
अन
अनग
अनज
अनद
अनध
अनन
अनभ
अनम
अनर
अनल
अनवर
अनस
अप
अपक
अपड
अपन
अपभ
अपम
अपर
अपल
अपव
अपवर
अपश
अपस
अपहरण
अफ
अफग
अफव
अफस
अफसर
अब
अबक
अबतक
अबल
अभ
अभय
अम
अमज
अमन
अमर
अमरक
अमरन
अमल
अय
अयन
अयस
अर
अरक
अरण
अरब
अरम
अरर
अरव
अरस
अल
अलक
अलग
अलब
अलम
अलव
अलवर
अलस
अव
अवक
अवग
अवगत
अवज
अवत
अवतर
अवतरण
अवध
अवन
अवम
अवयव
अवर
अवल
अवलम
अवश
अवस
अवसर
अवह
अश
अशरफ
अष
अस
असत
असद
असन
असफल
असफलत
असभ
असम
असमर
असर
असल
असह
असहमत
असहय
अह
अहम
अहमद
अहमदनगर
अहल
अहस
आ
आइ
आइए
आइज
आइटम
आइड
आइन
आइल
आइस
आइसल
आई
आईएसओ
आईएसब
आईओस
आईज
आईट
आईड
आईन
आईप
आईब
आईस
आउ
आउट
आउटप
आउटल
आउटस
आऊ
आए
आएग
आओ
आक
आकर
आकलन
आकस
आख
आखर
आग
आगम
आगमन
आगर
आघ
आच
आचरण
आज
आजकल
आजम
आट
आठ
आठव
आड
आण
आणव
आत
आद
आदत
आदम
आदर
आध
आन
आनन
आनल
आप
आपक
आपत
आपद
आपन
आपर
आपस
आफ
आफत
आब
आभ
आम
आमत
आमदन
आमन
आय
आयकर
आयत
आयतन
आयन
आयर
आयरन
आयरल
आयश
आर
आरएनए
आरक
आरज
आरट
आरड
आरण
आरत
आरप
आरम
आरस
आल
आलम
आलस
आव
आवज
आवत
आवर
आवरण
आवश
आश
आशय
आष
आस
आसक
आसन
आसप
आसम
आसवन
आह
आहत
इ
इउ
इए
इऑक
इक
इकट
इकब
इकर
इकल
इग
इगर
इच
इज
इजर
इट
इटन
इटर
इटल
इड
इडर
इण
इत
इतन
इतर
इथ
इद
इधर
इन
इनक
इनप
इनफ
इनम
इनर
इनल
इनव
इनस
इप
इपर
इफ
इफल
इब
इबर
इबल
इम
इमन
इमर
इमल
इय
इयर
इर
इरफ
इरव
इरस
इल
इलर
इव
इवर
इश
इष
इस
इसक
इसन
इसपर
इसम
इसर
इसल
इसस
इह
ई
ईअड
ईएफए
ईएसप
ईओ
ईक
ईख
ईग
ईगल
ईच
ईज
ईट
ईड
ईथ
ईथर
ईद
ईन
ईप
ईब
ईम
ईय
ईयर
ईर
ईल
ईव
ईश
ईस
ईसव
उ
उक
उकस
उख
उखड
उग
उगत
उच
उछ
उछल
उज
उजड
उट
उठ
उठकर
उठत
उठन
उड
उडर
उण
उत
उतन
उतर
उतरत
उतरन
उथ
उथल
उद
उदय
उदयन
उदयप
उदर
उदह
उध
उधर
उन
उनक
उनपर
उनम
उनल
उनस
उनह
उप
उपक
उपकरण
उपग
उपच
उपज
उपद
उपन
उपनगर
उपनद
उपप
उपभ
उपम
उपमह
उपय
उपर
उपलक
उपलब
उपव
उपवन
उपश
उपस
उपसर
उपह
उब
उभ
उभर
उभरत
उम
उमड
उमर
उर
उल
उलझ
उलझन
उलट
उव
उष
उस
उसक
उसन
उसपर
उसम
उसस
उह
ऊ
ऊख
ऊतक
ऊद
ऊध
ऊन
ऊपर
ऊर
ऊष
ऋ
ऋग
ऋच
ऋण
ऋत
ऋष
ऋषभ
ऍ
ऍक
ऍन
ऍफ
ऍस
ऎ
ए
एई
एक
एकक
एकज
एकड
एकत
एकद
एकदम
एकब
एकम
एकर
एकल
एकस
एग
एच
एचआईव
एचट
एचड
एचप
एज
एट
एटर
एटल
एड
एडम
एडव
एडवर
एण
एत
एथ
एथल
एन
एनए
एनएन
एनक
एनज
एनट
एनड
एनप
एनब
एनर
एनव
एनस
एप
एफ
एफब
एफस
एब
एबरड
एम
एमआईट
एमए
एमएल
एमएस
एमज
एमट
एमड
एमप
एमब
एमस
एयर
एयरप
एयरबस
एयरल
एयरव
एर
एल
एलज
एलन
एलबम
एलर
एलस
एव
एवम
एवर
एश
एशन
एस
एसई
एसए
एसएम
एसएस
एसट
एसड
एसप
एसब
एसय
एसस
एह
एहस
ऐ
ऐक
ऐड
ऐत
ऐन
ऐप
ऐब
ऐम
ऐय
ऐर
ऐल
ऐश
ऐस
ऑ
ऑक
ऑकल
ऑट
ऑड
ऑन
ऑनर
ऑनल
ऑप
ऑपर
ऑफ
ऑब
ऑयल
ऑर
ऑल
ऑलम
ऑव
ऑस
ओ
ओआइ
ओएस
ओक
ओग
ओज
ओझ
ओट
ओड
ओढ
ओत
ओन
ओप
ओपन
ओफ
ओब
ओम
ओर
ओल
ओलम
ओव
ओवर
ओवल
ओश
ओषध
ओस
ओह
औ
औच
औज
औद
औध
औपच
औपन
और
औरत
औल
औषध
औसत
औसतन
क
कअप
कइ
कइन
कई
कक
ककथ
ककर
कग
कच
कचर
कचहर
कछ
कज
कट
कटक
कटग
कटत
कटतम
कटन
कटर
कटवर
कठ
कठप
कड
कडप
कडवक
कढ
कण
कत
कतम
कतर
कथ
कथन
कद
कदम
कदर
कन
कनक
कप
कपट
कपड
कफ
कफर
कब
कबह
कभ
कम
कमज
कमत
कमन
कमर
कमल
कय
कर
करक
करण
करत
करद
करन
करप
करम
करल
करव
करश
करह
कल
कलक
कलकत
कलकर
कलत
कलन
कलम
कलर
कलव
कलश
कलस
कलह
कव
कवक
कवच
कवय
कवर
कश
कष
कस
कसन
कसभ
कसम
कसर
कसरत
कह
कहकर
कहत
कहन
कहल
ख
खक
खकर
खग
खगड
खच
खज
खट
खटक
खड
खण
खत
खतन
खतर
खतरन
खद
खन
खनन
खप
खपत
खब
खबर
खभ
खम
खय
खर
खरग
खरब
खल
खलन
खव
खस
ग
गई
गउ
गए
गक
गकर
गग
गगन
गङ
गच
गज
गट
गटन
गठ
गठन
गठब
गठर
गड
गडम
गढ
गण
गणक
गणत
गणन
गणपत
गणर
गत
गद
गदर
गध
गन
गप
गपत
गफ
गफल
गब
गभ
गम
गमत
गमन
गमरमर
गय
गर
गरक
गरज
गरण
गरदन
गरप
गरम
गल
गलक
गलत
गलन
गलप
गलपन
गलम
गलव
गव
गवत
गवर
गश
गस
गह
गहन
गहर
घ
घक
घट
घटक
घटत
घटन
घड
घण
घत
घद
घन
घनत
घनश
घबड
घबर
घम
घर
घरव
घल
घव
घस
ङ
च
चक
चकत
चकर
चकव
चख
चग
चच
चट
चटक
चटग
चटन
चटर
चड
चढ
चण
चत
चतम
चतर
चद
चन
चप
चपट
चपर
चपल
चब
चम
चमक
चमकत
चमकद
चमग
चमड
चमत
चय
चयन
चर
चरक
चरख
चरण
चरत
चरन
चरम
चरल
चरव
चल
चलकर
चलच
चलत
चलन
चव
चवर
चश
चस
चह
छ
छक
छट
छठ
छड
छत
छतर
छद
छन
छप
छब
छम
छर
छल
छव
छह
ज
जइ
जक
जकड
जकत
जकमल
जकर
जख
जग
जगज
जगण
जगत
जगद
जगन
जगमग
जगह
जङ
जज
जट
जठर
जड
जण
जत
जतन
जद
जध
जन
जनक
जनगणन
जनज
जनत
जनन
जनपद
जनम
जनमत
जनय
जनर
जनरल
जनल
जनव
जनवर
जनश
जनस
जप
जपत
जपर
जफ
जब
जबक
जबड
जबतक
जबर
जबरदस
जबरन
जबलप
जभ
जभवन
जम
जमन
जमर
जमश
जमहल
जय
जयक
जयत
जयद
जयन
जयनगर
जयप
जयर
जयव
जयश
जयस
जर
जरत
जरन
जरल
जल
जलक
जलत
जलध
जलन
जलप
जलम
जलय
जलव
जलस
जव
जश
जस
जसव
जह
जहर
झ
झक
झकर
झगड
झट
झटक
झड
झत
झन
झम
झर
झरन
झल
झलक
झस
ञ
ञत
ञप
ञवल
ट
टअप
टइ
टक
टकक
टकर
टग
टच
टज
टट
टड
टण
टत
टद
टन
टनर
टप
टपक
टफ
टब
टभ
टम
टय
टर
टरक
टरट
टरन
टरप
टरफ
टरब
टरबर
टरम
टरल
टरव
टरश
टरस
टरसन
टल
टलर
टव
टवर
टस
टसन
टह
टहन
ठ
ठक
ठकर
ठग
ठज
ठण
ठत
ठन
ठप
ठभ
ठम
ठर
ठल
ठव
ठश
ठस
ठहर
ठहरत
ठहरन
ड
डक
डकर
डग
डगलस
डच
डज
डट
डण
डत
डद
डन
डप
डफ
डब
डबर
डबल
डम
डय
डर
डरग
डरट
डरत
डरन
डरल
डरसन
डल
डव
डश
डस
डसन
डह
डहर
ढ
ढक
ढत
ढन
ढल
ण
णइ
णउ
णक
णकट
णग
णच
णचन
णज
णत
णतय
णद
णन
णप
णपत
णम
णय
णर
णव
णवत
णवर
णस
णह
त
तउ
तक
तकथ
तकन
तकर
तकल
तख
तग
तगत
तच
तचर
तज
तट
तटस
तड
तण
तत
तथ
तद
तदन
तध
तन
तनत
तनध
तनप
तनम
तनश
तप
तपन
तपस
तफ
तब
तबद
तबल
तभ
तम
तमन
तमय
तमस
तय
तर
तरक
तरज
तरण
तरत
तरद
तरन
तरप
तरफ
तरब
तरम
तरर
तरल
तरव
तरस
तरह
तल
तलब
तलव
तलहट
तव
तवन
तवर
तश
तशत
तस
तसर
तह
तहख
तहत
तहर
तहस
थ
थक
थकत
थग
थज
थड
थत
थद
थन
थप
थम
थय
थर
थल
थव
थश
थस
थह
द
दई
दक
दकत
दकर
दख
दखल
दग
दच
दज
दड
दण
दत
दद
दध
दन
दनश
दप
दफ
दफन
दब
दभ
दम
दमन
दमनक
दमय
दय
दयत
दयन
दर
दरअसल
दरक
दरग
दरज
दरत
दरब
दरभ
दरम
दरल
दरव
दरस
दल
दलदल
दव
दश
दशक
दशम
दशरथ
दशहर
दस
दसव
दह
दहन
दहव
ध
धक
धकर
धग
धच
धज
धड
धण
धत
धद
धन
धनब
धनर
धनव
धप
धब
धम
धमक
धमन
धय
धर
धरण
धरत
धरन
धरम
धल
धव
धवन
धवर
धवल
धश
धस
न
नई
नए
नक
नकद
नकर
नकल
नख
नग
नगढ
नगण
नगर
नगरप
नच
नज
नजद
नजनक
नजर
नट
नड
नत
नतम
नथ
नद
नदय
नन
नप
नपत
नपर
नफ
नफरत
नब
नबर
नभ
नम
नमक
नमन
नमस
नय
नयन
नर
नरक
नरम
नरल
नरस
नल
नव
नवक
नवग
नवज
नवत
नवन
नवप
नवभ
नवम
नवय
नवर
नवल
नवव
नश
नष
नस
नसन
नसभ
नसर
नह
नहर
नहल
प
पए
पक
पकड
पकत
पकन
पकर
पकल
पकव
पख
पग
पगड
पगढ
पच
पचय
पछ
पछत
पज
पञ
पट
पटक
पटकथ
पटन
पटर
पटल
पठ
पठन
पड
पडत
पढ
पढन
पण
पणन
पत
पतन
पतर
पतल
पथ
पथर
पद
पदक
पदच
पदभ
पदम
पदव
पध
पन
पनड
पप
पब
पम
पय
पर
परक
परख
परगन
परज
परत
परद
परन
परप
परफ
परब
परम
परमह
परल
परव
परवर
परश
परस
परह
पल
पलक
पलट
पलटन
पव
पवन
पवर
पश
पष
पस
पसन
पसम
पह
पहच
पहन
पहनकर
पहनत
पहनन
पहर
पहल
पहलव
फ
फक
फज
फट
फटक
फटन
फड
फण
फत
फन
फफ
फर
फरप
फरम
फरवर
फल
फलक
फलत
फलन
फलस
फव
फस
फसल
फहर
ब
बई
बक
बकत
बकर
बकव
बख
बग
बगद
बगल
बघ
बङ
बच
बचत
बचन
बचपन
बछड
बज
बजट
बजत
बजन
बजर
बट
बटन
बड
बढ
बढत
बत
बतल
बद
बदन
बदम
बदर
बदल
बदलकर
बदलत
बदलन
बध
बन
बनकर
बनत
बनन
बनर
बनव
बप
बपत
बफ
बब
बम
बमब
बय
बर
बरक
बरकर
बरत
बरतन
बरद
बरन
बरब
बरम
बरल
बरव
बरस
बल
बलडन
बलत
बलद
बलप
बलभद
बलर
बलव
बव
बवत
बश
बस
बसत
बसन
बसर
बह
बहक
बहत
बहन
बहर
बहरह
बहल
बहस
भ
भई
भए
भक
भग
भगत
भगव
भगवत
भगवद
भगवन
भज
भजन
भट
भटक
भटन
भड
भण
भत
भद
भन
भप
भम
भय
भयभ
भर
भरकर
भरण
भरत
भरतप
भरन
भरप
भरम
भल
भव
भवत
भवन
भस
म
मइ
मई
मऊ
मक
मकड
मकत
मकथ
मकबर
मकर
मकरण
मकसद
मख
मग
मगढ
मगध
मगर
मगरमच
मगह
मघ
मघन
मङ
मच
मचन
मचर
मछ
मछल
मज
मजद
मजब
मझ
मञ
मट
मटक
मटर
मठ
मड
मढ
मण
मत
मतद
मतभ
मतलब
मतव
मथ
मद
मदद
मददग
मदन
मदनम
मदर
मदरस
मध
मन
मनक
मनगर
मनद
मनन
मनम
मनव
मनस
मनह
मप
मपत
मपर
मफ
मब
मबर
मभ
मम
ममत
मय
मर
मरक
मरज
मरण
मरत
मरद
मरन
मरम
मरस
मल
मलक
मलत
मलब
मलय
मलर
मव
मवर
मश
मशर
मशह
मस
मसन
मसमर
मसल
मसलन
मह
महक
महज
महत
महन
महम
महर
महल
महस
य
यइ
यउ
यक
यकत
यकर
यकरण
यकल
यकव
यग
यगढ
यङ
यच
यज
यजन
यजनक
यञ
यट
यटक
यटन
यटर
यड
यण
यत
यतन
यतम
यतय
यथ
यद
यदर
यध
यन
यनश
यप
यपर
यफल
यब
यभ
यभट
यम
यमक
यमग
यमन
यमय
यमर
यमल
यय
ययन
यर
यरत
यरध
यरम
यरल
यरस
यल
यलट
यलर
यव
यवत
यवन
यवर
यवस
यवह
यश
यशव
यष
यस
यसन
यसभ
यसम
यसर
यह
र
रअल
रआन
रई
रईस
रउ
रक
रकट
रकत
रकम
रकर
रकरण
रकल
रख
रखकर
रखण
रखत
रखन
रखप
रखर
रखरख
रखव
रग
रगट
रगड
रगढ
रगण
रगत
रगर
रघ
रङ
रच
रचन
रचय
रचल
रचलन
रछ
रज
रजक
रजत
रजन
रजनन
रजभ
रजव
रझ
रञ
रट
रठ
रड
रण
रणज
रणत
रणतय
रणध
रणन
रणब
रणय
रणव
रत
रतक
रतन
रतम
रतल
रतव
रतवर
रथ
रथम
रद
रदत
रदय
रदर
रध
रधर
रन
रनगर
रनप
रनर
रनव
रप
रपट
रपत
रपद
रपर
रफ
रफल
रब
रबक
रबन
रबर
रबल
रभ
रम
रमक
रमज
रमण
रमणक
रमत
रमन
रमबद
रमय
रमर
रमरग
रमश
रमस
रय
रयण
रयत
रर
ररक
रल
रलय
रव
रवक
रवचन
रवण
रवत
रवन
रवर
रश
रशस
रष
रस
रसत
रसद
रसन
रसम
रसर
रसव
रह
रहकर
रहण
रहत
रहन
रहम
रहर
रहल
रहव
रहस
ल
लइ
लई
लक
लकड
लकत
लकर
लख
लखण
लखन
लखनऊ
लग
लगत
लगन
लगभग
लगर
लगव
लघ
लघर
लङ
लच
लचस
लज
लझ
लट
लटक
लटकत
लड
लडक
लत
लद
लन
लनश
लप
लपट
लपत
लफ
लब
लबर
लभ
लम
लमण
लमन
लय
लयन
लर
लल
ललक
लव
लवण
लवर
लश
लशन
लस
लसन
लह
लहन
लहर
लहव
लहस
ळ
व
वइ
वक
वकर
वग
वगन
वच
वचन
वज
वजन
वजह
वट
वड
वण
वणक
वत
वतन
वतम
वथ
वद
वदत
वदन
वदर
वध
वधर
वन
वनक
वनड
वनन
वनम
वनव
वनस
वप
वफ
वब
वभ
वम
वमन
वय
वयण
वयन
वयम
वयस
वर
वरक
वरकर
वरण
वरत
वरद
वरन
वरप
वरम
वरल
वरव
वरस
वल
वलन
वलप
वलपम
वलपर
वलम
वलय
वव
ववत
ववर
वश
वशक
वस
वसन
वसम
वह
वहन
श
शक
शकर
शकश
शख
शग
शङ
शच
शज
शटल
शत
शतक
शतर
शद
शन
शनक
शनर
शनल
शनश
शप
शपथ
शफ
शब
शबनम
शभ
शभक
शम
शमन
शमश
शय
शयन
शर
शरण
शरत
शरद
शरम
शल
शलत
शव
शवद
शवर
शश
शस
शह
शहज
शहद
शहर
ष
षक
षकर
षग
षज
षजनक
षट
षड
षण
षत
षद
षध
षधर
षन
षप
षभ
षम
षमत
षय
षयक
षर
षरण
षरत
षव
षवर
षश
षष
षस
स
सइ
सईद
सऊद
सक
सकत
सकन
सकर
सकल
सख
सग
सगढ
सगर
सघ
सघन
सङ
सच
सचम
सज
सजन
सञ
सट
सटन
सठ
सड
सण
सत
सतत
सतन
सतप
सतर
सतह
सथ
सद
सदन
सदर
सदस
सध
सन
सनक
सनम
सनर
सनल
सप
सपन
सपर
सफ
सफर
सफल
सफलत
सब
सबक
सबन
सबब
सबम
सबर
सबल
सबस
सभ
सम
समक
समकक
समग
समझ
समझकर
समझत
समझद
समझन
समत
समतल
समन
समम
समय
समर
समल
समव
समष
समस
सय
सर
सरक
सरग
सरण
सरत
सरद
सरन
सरप
सरय
सरल
सरलत
सरस
सरह
सरहद
सल
सलम
सलर
सव
सवर
सश
सशक
सशस
सस
सह
सहक
सहकर
सहज
सहद
सहन
सहनश
सहप
सहभ
सहमत
सहय
सहर
सहव
सहस
ह
हक
हग
हच
हज
हजरत
हजह
हट
हटकर
हटन
हठ
हड
हण
हत
हतक
हतर
हथ
हद
हन
हनत
हनद
हनन
हनल
हप
हफ
हब
हभ
हम
हमक
हमन
हमम
हमर
हमल
हमस
हय
हर
हरक
हरकत
हरग
हरण
हरत
हरद
हरन
हरब
हरम
हरल
हरस
हल
हलक
हलचल
हलव
हव
हवन
हश
हस
हसन
हह
़
ऽ
ऽप
ा
ि
ी
ु
ू
ृ
ॄ
ॅ
ॆ
े
ै
ॉ
ॊ
ो
ौ
्
ॐ
॑
॒
॓
।
॥
०
००
०००
०१
०२
०३
०४
०५
१
१०
१००
१०००
१०१
१०२
१०३
१०४
१०५
१०६
१०८
११
११०
११२
११४
११५
१२
१२०
१२५
१३
१३०
१४
१४०
१५
१५०
१५८३
१६
१७
१८
१८५७
१९
१९१९
१९२०
१९२१
१९२२
१९२७
१९२९
१९३०
१९३१
१९३५
१९३६
१९३७
१९३८
१९३९
१९४०
१९४२
१९४५
१९४७
१९४८
१९४९
१९५०
१९५२
१९५४
१९५५
१९५६
१९५७
१९५९
१९६०
१९६१
१९६२
१९६३
१९६४
१९६५
१९६६
१९६७
१९६८
१९६९
१९७०
१९७१
१९७२
१९७३
१९७४
१९७५
१९७६
१९७७
१९७८
१९७९
१९८०
१९८१
१९८२
१९८३
१९८४
१९८५
१९८६
१९८७
१९८८
१९८९
१९९०
१९९१
१९९२
१९९३
१९९४
१९९५
१९९६
१९९७
१९९८
१९९९
२
२०
२००
२०००
२००१
२००२
२००३
२००४
२००५
२००६
२००७
२००८
२००९
२०१०
२०११
२०१२
२०१३
२०१४
२०१५
२०१६
२०१७
२०१८
२०१९
२०२०
२०२१
२१
२२
२३
२४
२५
२५०
२६
२७
२८
२९
३
३०
३००
३१
३२
३३
३४
३५
३६
३७
३८
३९
४
४०
४००
४१
४२
४३
४४
४५
४६
४७
४८
४९
५
५०
५००
५१
५२
५३
५४
५५
५६
५७
५८
५९
६
६०
६००
६१
६२
६३
६४
६५
६६
६७
६८
६९
७
७०
७१
७२
७३
७४
७५
७६
७७
७८
७९
८
८०
८००
८१
८२
८३
८४
८५
८६
८७
८८
८९
९
९०
९१
९२
९३
९४
९५
९६
९७
९८
९९
॰
ঁ
ং
আম
ই
ও
ক
খ
গ
ঘ
চ
ছ
জ
ট
ঠ
ড
ণ
ত
থ
দ
ধ
ন
প
ফ
ব
ভ
ম
য
র
ল
শ
ষ
স
হ
়
া
ি
ী
ু
ূ
ৃ
ে
্
ৰ
৷
ਂ
ਕ
ਗ
ਚ
ਜ
ਤ
ਦ
ਨ
ਪ
ਬ
ਮ
ਰ
ਲ
ਵ
ਸ
ਹ
਼
ਾ
ਿ
ੀ
ੁ
ੂ
ੇ
ੈ
ੋ
੍
ੰ
ં
ક
ગ
ચ
જ
ટ
ડ
ત
થ
દ
ન
પ
ફ
બ
ભ
મ
ય
ર
લ
વ
શ
સ
હ
ા
િ
ી
ુ
ૂ
ે
ો
્
ା
ି
େ
୍
இர
க
கள
ங
ச
ஜ
ட
ண
த
ந
ன
ப
ம
ய
ர
ற
ல
ள
ழ
வ
ஷ
ஸ
ஹ
ா
ி
ீ
ு
ூ
ெ
ே
ை
்
ం
క
గ
చ
జ
ట
డ
త
ద
న
ప
బ
మ
య
ర
ల
వ
శ
స
హ
ా
ి
ీ
ు
ూ
ె
ే
ొ
ో
్
ౖ
ಂ
ಒ
ಕ
ಗ
ಚ
ಜ
ಟ
ಡ
ಣ
ತ
ದ
ನ
ಪ
ಫ
ಬ
ಭ
ಮ
ಯ
ರ
ಲ
ಳ
ವ
ಶ
ಷ
ಸ
ಹ
ಾ
ಿ
ು
ೂ
ೆ
್
ೕ
ೖ
ം
ക
ഗ
ച
ജ
ട
ണ
ത
ദ
ന
പ
ബ
മ
യ
ര
റ
ല
ള
വ
ശ
സ
ഹ
ാ
ി
ീ
ു
ൂ
െ
േ
്
ර
්
ා
ි
ั
ิ
ี
ุ
ู
่
้
์
་
།
ང
ར
ལ
ས
ི
ུ
ེ
ོ
င
မ
ာ
ိ
ု
ေ
း
်
ြ
ា
្
​
‌
‍
‎
‏
‑
–
—
―
‖
‘
’
‚
“
”
„
†
‡
•
…
′
″
⁄
⁠
⁡
€
₹
←
↑
→
↔
↷
∂
∇
∑
−
∗
√
∞
∫
≈
≡
≤
≥
⋅
⋮
⋯
③
④
⑦
█
■
●
★
☎
⺀
⺄
⺆
⺈
⺊
⺌
⺕
⺝
⺸
⺼
⿰
⿱
⿲
⿳
⿴
⿵
⿶
⿷
⿸
⿹
⿺
⿻
、
「
」
【
】
〢
あ
い
か
く
し
す
た
て
と
な
に
の
は
り
る
ん
゙
゚
ア
ィ
イ
ウ
エ
オ
カ
キ
ク
ケ
コ
サ
シ
ス
タ
チ
ッ
テ
ト
ナ
ニ
ハ
ヒ
フ
ヘ
ホ
マ
ミ
ム
メ
モ
ャ
ュ
ユ
ラ
リ
ル
レ
ロ
ン
・
ー
㇁
㇂
㇄
㇇
㇈
㇉
㇓
㐁
㐄
㐅
㐌
㐫
㐬
㐭
㐮
㐱
㑒
㒵
㒸
㒼
㓁
㓞
㔾
㕛
㕣
㖾
㘝
㚅
㚇
㚔
㚘
㝉
㝡
㝴
㝵
㞋
㞢
㞷
㠩
㠭
㠯
㡀
㡭
㡿
㢲
㢴
㣇
㣺
㥯
㪅
㫄
㫐
㫒
㫺
㬅
㬎
㬥
㬰
㲋
㳄
㷠
㸒
㸚
㸦
㼌
㼲
㽞
㿟
䀠
䂞
䍃
䏍
䒑
䖍
䖒
䖝
䖵
䙴
䚻
䜌
䝿
䡛
䧹
䪞
一
丁
丂
七
丄
丅
丆
万
丈
三
上
下
丌
不
与
丏
丐
丑
专
且
丕
世
丘
丙
业
东
丞
丢
丣
两
严
並
丨
丩
个
丫
丬
中
丮
丰
丱
串
丵
丶
丷
丸
丹
为
主
丽
丿
乀
乂
乃
久
乆
乇
么
义
之
乌
乍
乎
乏
乐
乑
乔
乖
乗
乘
乙
乚
乛
乜
九
乞
也
习
乡
乳
乾
亀
亅
了
亇
予
争
事
二
亍
于
亏
亐
云
互
亓
五
井
亘
亚
亜
亞
亟
亠
亡
亢
交
亥
亦
产
亨
亩
享
京
亭
亮
亯
亰
亲
亳
亶
亷
人
亻
亼
亾
仁
今
介
仌
从
仐
仑
仒
仓
仕
他
付
仝
代
令
以
任
企
伊
伏
伐
休
会
伯
但
位
何
佘
余
作
佥
使
來
侈
侌
侖
侯
侵
便
保
俞
信
修
倉
倍
候
倠
備
僉
僕
儿
兀
允
兂
元
兄
充
兆
兇
先
光
兊
克
兌
免
兑
兒
兓
兔
党
兜
兟
入
全
兩
兪
八
公
六
兮
兰
共
关
兵
其
具
典
兹
兼
冀
冂
冃
冄
内
冈
冉
冊
冋
册
再
冎
冏
冐
冒
冓
冖
冗
冘
军
农
冝
冡
冥
冫
冬
冷
几
凡
凢
凵
凶
凷
凸
凹
出
函
凾
刀
刁
刂
刃
刄
刅
分
切
刍
刑
刕
刖
列
刘
则
初
別
利
别
到
制
刺
則
削
剌
前
剡
剽
劉
力
功
加
劦
助
劫
劳
劵
勃
勇
勉
勒
動
務
勞
勤
勹
勺
勻
勾
勿
匀
匂
包
匆
匈
匊
匋
匍
匕
化
北
匚
匝
匡
匪
匱
匸
匹
区
医
匽
匿
區
十
卂
千
卄
卅
卆
升
午
卉
半
卌
华
卑
卒
卓
单
卖
南
卜
卝
卞
占
卡
卢
卣
卤
卦
卩
卪
卬
卯
印
危
即
却
卵
卷
卸
卻
厂
厃
厄
历
厈
厉
厌
厓
厘
厚
原
厤
厥
厨
厭
厲
厶
厷
厸
去
厼
厽
叀
参
參
叅
又
叉
及
友
双
反
叐
发
叒
叔
叕
取
受
叚
叜
叟
口
古
句
另
叩
只
召
可
台
叱
史
右
叵
号
司
叹
吂
各
吅
合
吉
吊
吋
同
名
后
吏
向
吕
君
吝
吞
否
含
启
吳
吴
吹
吾
呂
呆
呈
告
员
呙
周
命
咅
和
咎
咠
咢
咨
咸
咼
哀
品
哉
員
哥
哲
唐
商
啇
問
啚
啬
啻
善
喜
喬
單
喿
嗇
噩
嚴
囊
囗
囘
囙
囚
四
回
囟
因
囧
囬
困
囱
囷
固
国
圂
圅
國
圍
圓
土
圡
圣
圥
在
圭
地
圶
圼
坐
坒
坚
坴
垂
垔
垚
埀
埋
埶
執
基
堂
堅
堆
堇
堯
塞
墨
壘
士
壬
壯
声
壳
壴
壹
壺
壽
夂
处
夅
夆
备
夊
夋
夌
复
夏
夒
夕
外
夗
夘
多
夜
夢
大
夨
天
太
夫
夬
夭
央
失
夲
头
夷
夸
夹
夻
夾
奂
奄
奇
奈
奉
奎
奏
奐
契
奓
奔
奚
奞
奠
奢
奥
奭
女
奴
奻
好
如
妄
妙
妟
妥
妻
妾
姑
委
姜
威
娄
婁
婴
嬰
嬴
子
孑
孔
孕
孖
字
存
孚
孛
孝
孟
季
孤
学
孫
孱
學
宀
宁
宂
它
宅
宇
守
安
宋
完
宏
宓
宗
官
定
宛
宜
宝
客
宣
室
宮
宰
害
家
容
宾
宿
寄
寅
密
富
寒
察
寧
審
寫
寬
寮
寸
对
寺
寻
寽
対
寿
封
尃
射
将
將
專
尉
尊
尋
尌
對
小
少
尒
尓
尔
尖
尗
尚
尞
尢
尣
尤
尧
尨
尭
就
尸
尹
尺
尻
尼
尽
尾
尿
局
居
屈
屋
屎
屏
屑
展
屖
屚
属
屠
屡
屬
屮
屯
屰
山
屵
屾
岁
岂
岑
岡
岩
岳
岸
峯
島
崇
崑
崔
崖
崙
崩
嵬
嶲
巂
巛
川
州
巟
巠
巢
巤
工
左
巧
巨
巩
巫
差
己
已
巳
巴
巷
巸
巽
巾
巿
帀
市
布
希
帚
帛
帝
带
師
席
帶
常
干
平
年
幵
并
幷
幸
幺
幻
幼
幽
幾
广
広
庄
床
底
店
庚
府
度
庫
庭
庶
康
庸
廉
廌
廛
廣
廩
廴
延
廷
建
廾
廿
开
弁
弃
弄
弇
弋
式
弓
弔
引
弗
弘
弜
弟
弥
弦
弱
張
強
强
彊
彌
彎
彐
彑
当
彔
录
彖
彗
彡
形
彥
彦
彧
彭
彳
役
彼
往
待
律
徒
得
徙
從
復
微
徵
心
忄
必
忌
忍
志
忝
忠
忩
快
念
忽
忿
思
怠
急
怱
恆
恒
恩
恭
息
悉
患
悤
悲
悶
惠
惡
惢
愁
愈
意
愛
感
慈
慧
慮
憂
憲
應
戀
戈
戉
戊
戋
戌
戍
戎
成
我
戒
戔
或
戚
戠
戢
截
戲
戶
户
戹
戼
戾
房
所
扁
扇
手
扌
才
打
托
执
承
折
拉
拜
拿
掌
推
提
摩
支
攴
攵
收
攸
改
放
政
敄
敏
敕
敖
敗
敝
敞
敢
散
敦
敫
敬
数
敷
數
斂
文
斉
斊
斗
斤
斥
斩
斬
斯
新
方
於
施
斿
旁
旋
族
无
旡
既
旣
日
旦
旧
旨
早
旬
旱
旲
时
旾
昆
昇
昌
昍
明
昏
易
昔
昗
昜
星
春
昬
是
昱
昴
昷
時
晃
晋
晏
普
景
晶
智
暑
暴
曇
曩
曰
曲
曳
更
曷
書
曹
曼
曾
替
最
朁
會
月
有
朋
服
朔
朕
朗
望
朝
木
朩
未
末
本
札
朮
术
朱
朵
朶
朿
杀
杏
杜
束
条
来
東
杲
杳
松
析
林
枚
果
枝
枲
枼
某
柔
查
柬
柰
柴
栗
桀
桑
桼
梁
條
梟
梨
棘
棠
棥
森
楚
業
楽
榮
樂
樊
欠
次
欣
欮
欲
欶
欽
款
歆
歇
歛
止
正
此
步
武
歨
歪
歮
歯
歰
歲
歴
歷
歸
歹
歺
死
殳
段
殷
殸
殹
殺
殻
殿
毋
毌
母
每
毒
比
毕
毚
毛
毳
氏
氐
民
气
氣
水
氵
氶
氷
永
氺
氾
求
汝
汞
江
沃
沓
沙
沝
泉
法
波
泣
泥
泰
洛
洪
活
派
流
浦
浪
浮
海
淡
淮
清
渚
渠
湯
滿
漸
火
灬
灭
灰
灵
灷
炅
炎
炏
炗
炙
炭
為
烈
烏
烝
焉
無
焦
焱
然
煞
熊
熏
燕
營
燮
爪
爫
爭
爯
爰
爱
爲
爵
父
爻
爽
爾
爿
片
牙
牚
牛
牜
牟
牢
牧
牪
牽
犀
犬
犭
犮
狂
狄
狊
独
狺
猋
猒
猪
献
獻
玄
率
玉
王
玟
玨
珎
班
琴
瑟
瑩
瓜
瓦
甘
甚
生
産
用
甫
甬
田
由
甲
申
电
甶
男
甸
甹
画
甾
畀
界
畏
畐
留
畜
畟
畢
畧
畨
番
畫
異
畱
當
畺
畾
疊
疋
疌
疑
疒
疾
癶
癸
癹
登
發
白
百
皀
皃
的
皆
皇
皋
皐
皕
皮
皷
皿
盃
盆
盇
盈
益
盍
盎
监
盒
盖
盛
盡
監
盤
盧
目
直
相
盾
省
眇
眉
看
眔
眞
真
眷
眼
眾
着
睘
睪
睿
瞏
瞢
瞿
矍
矛
矞
矢
矣
知
矦
短
石
破
碎
磊
磨
示
礻
礼
社
祟
票
祭
禀
禁
禸
禹
禺
离
禽
禾
禿
秀
秃
秉
秋
科
秝
秦
移
稟
穀
穌
穴
究
穹
空
穿
突
窄
窒
立
竒
竜
竝
竟
章
童
竹
笑
笠
筆
等
答
箕
算
箴
節
篤
篭
米
粉
粛
粟
粤
粦
粲
糞
糸
糹
系
約
納
素
索
紫
累
細
絜
絫
絲
維
綿
縣
繇
纍
纟
缶
网
罒
罔
罕
罗
罙
罡
罢
罪
署
罷
羅
羊
羌
羍
美
羔
羕
羗
羞
羡
羣
群
義
羲
羸
羽
翁
翏
習
翕
翟
翠
翼
老
耂
考
者
耆
而
耎
耑
耒
耳
耴
耶
耷
聂
聊
聖
聚
聶
聿
肀
肃
肅
肉
肖
肙
肥
肩
肯
育
肴
胃
背
胡
胥
能
脊
脩
膚
臣
臤
臧
自
臬
臭
臯
臱
至
致
臺
臼
臽
臾
臿
舀
舂
舄
與
興
舉
舌
舍
舛
舜
舞
舟
般
艮
良
色
艸
艹
艾
芒
芔
芬
芮
花
芳
芺
芻
苔
苗
苟
若
苦
英
茶
茸
荅
草
荒
荣
荼
莆
莧
莫
莽
菆
菊
菐
華
萬
落
葉
著
葛
董
葵
蒙
蒦
蒼
蓋
蓬
蓺
蔑
蔡
蕉
蕭
薄
薛
薦
薰
藍
藏
藥
蘭
虍
虎
虐
虒
虔
處
虖
虗
虘
虚
虛
虜
虞
虫
虽
蚤
蚩
蜀
蜜
蟲
蠡
血
行
衍
衛
衣
衤
表
衮
衰
袁
袞
褭
褱
襄
襾
西
覀
要
覃
見
規
覓
覧
親
覽
见
角
解
言
訁
訇
計
詹
語
誩
諸
讠
谷
豆
豈
豊
豐
豕
豖
豙
象
豦
豩
豪
豸
貇
貝
貞
貟
負
貢
貧
貪
貫
責
貳
貴
買
費
賁
資
賈
賏
賓
賔
賛
賞
賢
賣
質
賴
贊
贝
贡
责
贯
贲
贵
赖
赞
赤
赦
走
越
足
路
蹇
身
躬
車
軍
軎
軟
輦
车
辛
辜
辟
辥
辰
辱
農
辵
辶
边
达
过
近
连
迷
追
退
送
逆
逐
通
速
造
逢
連
逮
進
遀
遂
過
道
達
遣
適
遷
遺
邊
邑
邕
那
邦
邪
郎
部
郭
都
鄉
酉
酋
配
酓
釆
采
里
重
野
量
金
釒
錢
钅
長
镸
长
門
閃
閉
開
閏
閑
閒
間
閔
閵
閻
闌
门
间
闷
阑
阜
阝
阿
降
陳
隆
隊
隋
隡
隨
隱
隶
隹
隺
隻
隼
隽
难
雀
雁
集
雈
雋
雍
雐
雔
雙
雚
雜
雝
離
難
雨
雩
雪
雲
零
雷
需
霍
霜
霝
霞
霸
靈
靑
青
非
靡
面
靣
革
韋
韦
韭
韯
韱
音
頁
頃
項
須
頗
頡
頻
顛
页
風
风
飛
飞
食
飠
養
饣
首
香
馬
馮
駦
马
骨
高
髟
鬥
鬯
鬲
鬼
魚
魯
鮮
鱼
鲁
鳥
鳳
鸟
鹵
鹿
麃
麗
麥
麦
麻
黃
黄
黍
黎
黑
黒
黨
黹
黽
黾
鼎
鼓
鼠
鼻
齊
齋
齐
齒
齿
龍
龙
龜
龟
龠
龰
龱
龴
龵
龶
龷
龸
龹
者
艹
️
﻿
！
（
）
：
？
￼
�
🎯
𠀁
𠀃
𠀆
𠀉
𠀎
𠀐
𠁁
𠁣
𠂆
𠂇
𠂈
𠂉
𠂊
𠂋
𠂎
𠂒
𠂔
𠂛
𠂡
𠂢
𠂤
𠂬
𠂭
𠂹
𠃊
𠃋
𠃌
𠃍
𠃎
𠃑
𠃓
𠃔
𠃜
𠄌
𠄎
𠄠
𠄢
𠆢
𠆥
𠇍
𠈌
𠌵
𠓜
𠔉
𠔥
𠔼
𠔽
𠔿
𠕀
𠕁
𠕋
𠘧
𠘨
𠙻
𠙼
𠚏
𠚒
𠚤
𠚪
𠣏
𠤎
𠤕
𠥓
𠦄
𠦑
𠦝
𠧒
𠧗
𠧪
𠩺
𠪚
𠫓
𠫔
𠫤
𠬛
𠬝
𠬞
𠬢
𠬤
𠬶
𠮛
𠮦
𠮷
𠯑
𠱠
𠳮
𠷎
𡈼
𡉀
𡉵
𡌥
𡍮
𡏳
𡕒
𡕩
𡕰
𡖅
𡗗
𡗜
𡘆
𡘤
𡧱
𡨄
𡩧
𡬠
𡭽
𡰣
𡰥
𡰪
𡰯
𡰱
𡷈
𡸁
𡿨
𡿩
𡿪
𡿺
𢀖
𢀛
𢀩
𢁙
𢆉
𢆰
𢆶
𢇁
𢇇
𢉖
𢌬
𢌿
𢏚
𢑑
𢑚
𢖻
𢙣
𢛳
𢦏
𢦒
𢧵
𢼄
𢾕
𣁋
𣄼
𣅀
𣅽
𣍘
𣎳
𣎵
𣏋
𣏼
𣗥
𣥂
𣥖
𣦵
𣦼
𣧄
𣪊
𣪠
𣬉
𣳾
𣶒
𤇾
𤊽
𤐫
𤓰
𤔔
𤕨
𤣩
𤰇
𤰔
𤰞
𤴓
𤴔
𤽄
𥁑
𥁕
𥃦
𥃩
𥃭
𥇡
𥑟
𥘅
𥘈
𥝢
𥫗
𥱡
𦈢
𦉪
𦉬
𦉼
𦍌
𦍒
𦎧
𦐇
𦓔
𦔮
𦘒
𦙃
𦚏
𦣝
𦣞
𦣻
𦥑
𦥔
𦥯
𦨉
𦭝
𦰩
𧆞
𧈧
𧘇
𧰨
𧴪
𧴮
𧵩
𧾷
𨸏
𨾴
𩙿
𩠐
𩫏
𩵋
𪉷
𪜀
𪟽
𪠲
𪩲
𫇦
𫔭
𫜸
𫝀
𫠣
𫠩
𫢉
𫥞
𫩏
𫩠
𫪡
𫲽
𫶧
𬀷
𬐘
𬗌
𬙙
𬛸
𬜯
𬟩
𬯁
𬴘
𬺻
𬼉
𬼖
𭀰
𭁈
𭁨
𭅰
𭑈
𭕄
𭗼
𭤨
𭥫
𭻾
𮅕
𮊿
𮍌
𮍏
𮓗
𮥼
𮧮
廾
𰀁
𰀄
𰀈
𰀉
𰀕
𰀠
𰀡
𰀢
𰀪
𰁜
𰃮
𰆊
𰆘
𰋙
𰕎
𰢴
𰧭
𰯲
00--
01--
02--
03--
04--
05--
06--
07--
08--
09--
17--
18--
20--
21--
22--
23--
24--
25--
26--
27--
28--
29--
30--
31--
33--
34--
40--
41--
42--
43--
50--
56--
57--
60--
63--
67--
70--
71--
72--
73--
74--
75--
76--
77--
78--
79--
80--
81--
82--
83--
84--
85--
86--
87--
88--
89--
90--
978--
9788183--
97898--
a--
aa--
ab--
abo--
ac--
acc--
acqui--
ad--
admini--
ado--
ae--
aero--
ag--
agree--
ah--
ai--
air--
ak--
al--
all--
alter--
am--
an--
ang--
ani--
ap--
app--
appe--
ar--
archaeo--
art--
as--
ash--
assess--
astr--
at--
au--
auto--
ave--
az--
b--
ba--
bag--
bal--
bar--
bat--
be--
beha--
bel--
ben--
ber--
bh--
bha--
bhu--
bi--
bin--
bio--
biogra--
bis--
bo--
bon--
br--
brah--
bre--
bro--
bu--
bud--
budd--
buf--
bur--
c--
ca--
cab--
cal--
calcu--
can--
car--
ce--
cele--
cen--
cer--
ch--
chak--
cham--
chi--
cho--
chro--
circ--
citiz--
cl--
cla--
cle--
co--
cog--
col--
com--
commu--
comp--
con--
cond--
conf--
const--
cont--
contr--
contri--
coo--
cor--
corp--
cre--
cri--
cric--
cru--
cu--
cur--
cus--
cy--
cyc--
d--
da--
dar--
daugh--
de--
deg--
den--
dep--
dha--
di--
diag--
diffe--
diplo--
dis--
disc--
dist--
do--
doc--
docu--
dol--
domi--
dr--
dra--
du--
dyna--
e--
ear--
eco--
ed--
el--
ele--
elec--
em--
emer--
emi--
en--
epi--
equ--
es--
et--
eth--
eu--
ex--
exp--
experi--
expl--
f--
fa--
fal--
famo--
fe--
fer--
fi--
fil--
fin--
fis--
fl--
flo--
flor--
fo--
foc--
fol--
for--
fr--
fran--
frequ--
fri--
fu--
g--
ga--
gal--
gar--
gau--
ge--
gene--
geo--
gi--
gil--
go--
gra--
gre--
gro--
gu--
h--
ha--
har--
haw--
he--
her--
hi--
high--
ho--
hol--
home--
hu--
hund--
hus--
hy--
hydro--
i--
id--
ie--
if--
ig--
il--
imm--
imp--
in--
indi--
indian--
inf--
influ--
initi--
inst--
int--
inte--
inter--
inve--
is--
it--
j--
ja--
je--
jen--
jes--
ji--
jo--
jor--
jos--
ju--
k--
ka--
kan--
kar--
ke--
ken--
kha--
ki--
kil--
ko--
ku--
ky--
l--
la--
lab--
lam--
lan--
lat--
lau--
le--
lea--
li--
lo--
lu--
luc--
ly--
m--
ma--
mac--
mad--
mag--
maha--
mal--
man--
mar--
marri--
mate--
mau--
mc--
mcc--
me--
mech--
mer--
mes--
mi--
mic--
micro--
mig--
mil--
minne--
mo--
moh--
mon--
mor--
mos--
mu--
mul--
mult--
mur--
my--
n--
na--
nar--
nav--
ne--
nel--
neu--
neuro--
new--
ni--
nir--
no--
nomi--
nor--
nt--
nu--
ny--
o--
ob--
obj--
obser--
on--
one--
opi--
opp--
opti--
or--
orb--
ori--
os--
ot--
out--
over--
p--
pa--
pac--
pal--
pan--
par--
para--
pas--
pat--
pe--
pen--
per--
pet--
ph--
phil--
phili--
phy--
pi--
pla--
plat--
po--
pos--
pra--
pre--
pri--
princ--
pro--
prog--
psychi--
psycho--
pu--
q--
qu--
r--
ra--
radi--
rah--
ran--
rat--
rationa--
re--
rece--
recog--
reg--
regu--
remo--
requi--
res--
ri--
ro--
rob--
rol--
rot--
rou--
ru--
rus--
s--
sa--
sac--
sal--
sam--
san--
sar--
sat--
sc--
sch--
scho--
scient--
se--
sen--
sequ--
ser--
sh--
sha--
shi--
sho--
si--
sid--
sie--
sig--
sik--
sil--
simu--
sla--
so--
sol--
solut--
sp--
spea--
spec--
spi--
st--
ste--
sto--
stre--
stu--
su--
sub--
sul--
sur--
sw--
swe--
sy--
sym--
symp--
syn--
t--
ta--
tal--
tar--
tax--
te--
teac--
teh--
temp--
ter--
terri--
th--
the--
tho--
ti--
time--
tit--
to--
tr--
trans--
tre--
tri--
tru--
tu--
tur--
tw--
u--
uga--
uk--
ul--
un--
unive--
up--
us--
v--
va--
var--
vari--
ve--
ver--
vi--
vic--
vid--
vil--
vin--
virg--
vo--
w--
wa--
wal--
war--
wat--
we--
web--
wed--
whe--
wi--
wiki--
wil--
wis--
wo--
wor--
wro--
x--
xi--
y--
ya--
ye--
yo--
yu--
z--
ze--
н--
ا--
ال--
ب--
ع--
م--
अ--
अग--
अच--
अज--
अन--
अप--
अर--
आ--
आइ--
आई--
आर--
इ--
ई--
उ--
उद--
उप--
उब--
उभ--
ऊ--
ऋ--
ऍ--
ए--
एक--
एच--
एड--
एन--
एफ--
एम--
एल--
एस--
ऐ--
ऑ--
ओ--
औ--
क--
कट--
कन--
कम--
कर--
कल--
ख--
खट--
खर--
ग--
गज--
गर--
गल--
घ--
ङ--
च--
छ--
ज--
जग--
जन--
जम--
जय--
जल--
झ--
ञ--
ट--
टन--
टह--
ठ--
ड--
डर--
ढ--
ण--
त--
तट--
तल--
थ--
थल--
द--
दब--
दम--
दल--
ध--
धन--
न--
नट--
नर--
प--
पन--
पर--
फ--
फर--
ब--
बट--
बद--
बन--
बर--
बल--
भ--
भर--
भल--
म--
मन--
मर--
मल--
मस--
य--
यम--
यर--
र--
रज--
रण--
रम--
रव--
रह--
ल--
लग--
ळ--
व--
वन--
श--
शत--
ष--
षय--
स--
सन--
सम--
सर--
सह--
ह--
हथ--
हन--
हम--
हर--
हल--
ऽ--
ॠ--
०--
११--
१२--
१३--
१४--
१५--
१६--
१७--
१८--
१९--
२०--
२५--
আ--
এ--
ক--
ব--
ম--
র--
அ--
இ--
எ--
க--
ட--
த--
ப--
ம--
வ--
ಇ--
ಗ--
ನ--
ಬ--
ಮ--
ರ--
--0
--00
--1
--2
--3
--4
--5
--6
--7
--8
--9
--a
--abad
--able
--ad
--af
--ah
--ai
--aj
--ak
--al
--ald
--als
--am
--an
--ana
--ance
--ang
--ani
--anic
--ans
--ant
--ants
--ar
--ard
--ary
--as
--at
--ate
--ated
--ates
--athi
--ating
--ation
--ations
--ative
--ay
--b
--ba
--be
--berg
--bi
--bir
--bit
--ble
--bo
--bs
--by
--c
--ca
--cal
--ce
--ced
--cent
--ces
--ch
--chi
--ci
--ck
--cks
--co
--cription
--cs
--ct
--cted
--ction
--ctions
--cts
--cy
--d
--da
--de
--ded
--dhu
--di
--do
--dor
--ds
--dy
--e
--ea
--ects
--ed
--ef
--ein
--ek
--el
--em
--emic
--en
--ence
--ens
--ent
--ep
--eps
--er
--ers
--erson
--ert
--ery
--es
--ese
--esh
--ess
--est
--et
--ey
--ez
--f
--fer
--ff
--fi
--ft
--ful
--fy
--g
--ga
--galore
--ge
--ger
--ges
--gesh
--gh
--gi
--gic
--ging
--gle
--gn
--gned
--go
--gs
--gy
--h
--ha
--ham
--han
--he
--hes
--hi
--hip
--hood
--ht
--i
--ia
--ial
--ian
--ic
--ica
--ical
--ick
--ics
--id
--ie
--ied
--ier
--ies
--ig
--ight
--ik
--il
--im
--in
--ina
--india
--ine
--ines
--ing
--ings
--ins
--io
--ion
--ional
--ions
--ior
--ip
--ipur
--ique
--ir
--ire
--is
--isation
--ise
--ised
--ish
--ision
--ism
--ist
--ists
--it
--ita
--ite
--ities
--ity
--ium
--ive
--ivity
--ix
--iya
--ization
--ized
--j
--ja
--ji
--k
--ka
--kar
--ke
--ker
--kh
--ki
--ks
--l
--la
--lar
--ld
--le
--ler
--ley
--lf
--li
--lia
--lie
--lin
--line
--ling
--lk
--ll
--lla
--lle
--llo
--lls
--lly
--lm
--lo
--ls
--lt
--lton
--ly
--m
--ma
--man
--me
--ment
--mic
--mo
--ms
--my
--n
--na
--nal
--nce
--ncy
--nd
--nda
--nder
--nds
--ne
--ned
--ner
--ners
--nes
--ness
--ney
--ng
--ngs
--ni
--ning
--nk
--nn
--no
--nous
--ns
--nse
--nt
--nts
--ny
--o
--ock
--od
--ok
--ol
--om
--ome
--omy
--on
--ons
--op
--or
--orm
--ors
--os
--ot
--ots
--ough
--ous
--ow
--p
--pa
--pe
--phy
--ps
--pur
--q
--que
--r
--ra
--ral
--ran
--rary
--ration
--rd
--re
--rer
--rg
--ri
--ria
--ric
--ries
--ring
--rity
--rk
--rn
--rnal
--rns
--ro
--ron
--rp
--rry
--rs
--rt
--ru
--ry
--s
--sa
--sation
--se
--sed
--ses
--sh
--sha
--ship
--si
--sia
--sion
--sis
--sk
--sm
--son
--ss
--st
--ster
--sts
--sy
--t
--ta
--tal
--tar
--tary
--tation
--te
--ted
--ter
--tes
--th
--thing
--ti
--tial
--tic
--tics
--ties
--times
--ting
--tion
--tions
--tive
--to
--ton
--tor
--tory
--tra
--ts
--tt
--tty
--ty
--tz
--u
--ual
--ud
--ue
--uel
--ul
--ula
--ular
--ult
--um
--une
--up
--ur
--ure
--us
--ut
--v
--va
--ve
--ved
--ves
--vi
--w
--wa
--wn
--wood
--ws
--x
--y
--ya
--yer
--ys
--z
--za
--ze
--и
--د
--आई
--आर
--इ
--ई
--उ
--ए
--एस
--ओ
--क
--कर
--ख
--ग
--गढ
--घ
--ङ
--च
--छ
--ज
--झ
--ञ
--ट
--ठ
--ड
--ढ
--ण
--त
--थ
--द
--ध
--न
--प
--फ
--ब
--बद
--भ
--म
--य
--र
--ल
--लव
--व
--श
--ष
--स
--सई
--ह
--०
--०६
--०७
--१
--२
--३
--४
--५
--६
--७
--८
--९
