!
"
#
##0
##1
##10
##11
##12
##13
##14
##15
##16
##17
##18
##19
##2
##20
##21
##22
##23
##24
##25
##26
##27
##28
##29
##3
##30
##31
##32
##33
##34
##35
##36
##37
##38
##39
##4
##40
##41
##42
##43
##44
##45
##46
##47
##48
##49
##5
##50
##51
##52
##53
##54
##55
##56
##57
##58
##59
##6
##60
##61
##62
##63
##64
##65
##66
##67
##68
##69
##7
##70
##71
##72
##73
##74
##75
##76
##77
##78
##79
##8
##80
##81
##82
##83
##84
##85
##86
##87
##88
##89
##9
##90
##91
##92
##93
##94
##95
##96
##97
##98
##99
$
%
&
'
(
)
*
+
,
-
.
/
0
00
000
01
02
020
03
04
05
06
064
07
08
09
1
10
100
1000
1001
1002
1003
1004
1005
1006
1007
1008
1009
101
1010
1011
1012
1013
1014
1015
1016
1017
1018
1019
102
1020
1021
1022
1023
1024
1025
1026
1027
1028
1029
103
1030
1031
1032
1033
1034
1035
1036
1037
1038
1039
104
1040
1041
1042
1043
1044
1045
1046
1047
1048
1049
105
1050
1051
1052
1053
1054
1055
1056
1057
1058
1059
106
1060
1061
1062
1063
1064
1065
1066
1067
1068
1069
107
1070
1071
1072
1073
1074
1075
1076
1077
1078
1079
108
1080
1081
1082
1083
1084
1085
1086
1087
1088
1089
109
1090
1091
1092
1093
1094
1095
1096
1097
1098
1099
11
110
1100
1101
1102
1103
1104
1105
1106
1107
1108
1109
111
1110
1111
1112
1113
1114
1115
1116
1117
1118
1119
112
1120
1121
1122
1123
1124
1125
1126
1127
1128
1129
113
1130
1131
1132
1133
1134
1135
1136
1137
1138
1139
114
1140
1141
1142
1143
1144
1145
1146
1147
1148
1149
115
1150
1151
1152
1153
1154
1155
1156
1157
1158
1159
116
1160
1161
1162
1163
1164
1165
1166
1167
1168
1169
117
1170
1171
1172
1173
1174
1175
1176
1177
1178
1179
118
1180
1181
1182
1183
1184
1185
1186
1187
1188
1189
119
1190
1191
1192
1193
1194
1195
1196
1197
1198
1199
12
120
1200
1201
1202
1203
1204
1205
1206
1207
1208
1209
121
1210
1211
1212
1213
1214
1215
1216
1217
1218
1219
122
1220
1221
1222
1223
1224
1225
1226
1227
1228
1229
123
1230
1231
1232
1233
1234
1235
1236
1237
1238
1239
124
1240
1241
1242
1243
1244
1245
1246
1247
1248
1249
125
1250
1251
1252
1253
1254
1255
1256
1257
1258
1259
126
1260
1261
1262
1263
1264
1265
1266
1267
1268
1269
127
1270
1271
1272
1273
1274
1275
1276
1277
1278
1279
128
1280
1281
1282
1283
1284
1285
1286
1287
1288
1289
129
1290
1291
1292
1293
1294
1295
1296
1297
1298
1299
13
130
1300
1301
1302
1303
1304
1305
1306
1307
1308
1309
131
1310
1311
1312
1313
1314
1315
1316
1317
1318
1319
132
1320
1321
1322
1323
1324
1325
1326
1327
1328
1329
133
1330
1331
1332
1333
1334
1335
1336
1337
1338
1339
134
1340
1341
1342
1343
1344
1345
1346
1347
1348
1349
135
1350
1351
1352
1353
1354
1355
1356
1357
1358
1359
136
1360
1361
1362
1363
1364
1365
1366
1367
1368
1369
137
1370
1371
1372
1373
1374
1375
1376
1377
1378
1379
138
1380
1381
1382
1383
1384
1385
1386
1387
1388
1389
139
1390
1391
1392
1393
1394
1395
1396
1397
1398
1399
14
140
1400
1401
1402
1403
1404
1405
1406
1407
1408
1409
141
1410
1411
1412
1413
1414
1415
1416
1417
1418
1419
142
1420
1421
1422
1423
1424
1425
1426
1427
1428
1429
143
1430
1431
1432
1433
1434
1435
1436
1437
1438
1439
144
1440
1441
1442
1443
1444
1445
1446
1447
1448
1449
145
1450
1451
1452
1453
1454
1455
1456
1457
1458
1459
146
1460
1461
1462
1463
1464
1465
1466
1467
1468
1469
147
1470
1471
1472
1473
1474
1475
1476
1477
1478
1479
148
1480
1481
1482
1483
1484
1485
1486
1487
1488
1489
149
1490
1491
1492
1493
1494
1495
1496
1497
1498
1499
15
150
1500
1501
1502
1503
1504
1505
1506
1507
1508
1509
151
1510
1511
1512
1513
1514
1515
1516
1517
1518
1519
152
1520
1521
1522
1523
1524
1525
1526
1527
1528
1529
153
1530
1531
1532
1533
1534
1535
1536
1537
1538
1539
154
1540
1541
1542
1543
1544
1545
1546
1547
1548
1549
155
1550
1551
1552
1553
1554
1555
1556
1557
1558
1559
156
1560
1561
1562
1563
1564
1565
1566
1567
1568
1569
157
1570
1571
1572
1573
1574
1575
1576
1577
1578
1579
158
1580
1581
1582
1583
1584
1585
1586
1587
1588
1589
159
1590
1591
1592
1593
1594
1595
1596
1597
1598
1599
16
160
1600
1601
1602
1603
1604
1605
1606
1607
1608
1609
161
1610
1611
1612
1613
1614
1615
1616
1617
1618
1619
162
1620
1621
1622
1623
1624
1625
1626
1627
1628
1629
163
1630
1631
1632
1633
1634
1635
1636
1637
1638
1639
164
1640
1641
1642
1643
1644
1645
1646
1647
1648
1649
165
1650
1651
1652
1653
1654
1655
1656
1657
1658
1659
166
1660
1661
1662
1663
1664
1665
1666
1667
1668
1669
167
1670
1671
1672
1673
1674
1675
1676
1677
1678
1679
168
1680
1681
1682
1683
1684
1685
1686
1687
1688
1689
169
1690
1691
1692
1693
1694
1695
1696
1697
1698
1699
17
170
1700
1701
1702
1703
1704
1705
1706
1707
1708
1709
171
1710
1711
1712
1713
1714
1715
1716
1717
1718
1719
172
1720
1721
1722
1723
1724
1725
1726
1727
1728
1729
173
1730
1731
1732
1733
1734
1735
1736
1737
1738
1739
174
1740
1741
1742
1743
1744
1745
1746
1747
1748
1749
175
1750
1751
1752
1753
1754
1755
1756
1757
1758
1759
176
1760
1761
1762
1763
1764
1765
1766
1767
1768
1769
177
1770
1771
1772
1773
1774
1775
1776
1777
1778
1779
178
1780
1781
1782
1783
1784
1785
1786
1787
1788
1789
179
1790
1791
1792
1793
1794
1795
1796
1797
1798
1799
18
180
1800
1801
1802
1803
1804
1805
1806
1807
1808
1809
181
1810
1811
1812
1813
1814
1815
1816
1817
1818
1819
182
1820
1821
1822
1823
1824
1825
1826
1827
1828
1829
183
1830
1831
1832
1833
1834
1835
1836
1837
1838
1839
184
1840
1841
1842
1843
1844
1845
1846
1847
1848
1849
185
1850
1851
1852
1853
1854
1855
1856
1857
1858
1859
186
1860
1861
1862
1863
1864
1865
1866
1867
1868
1869
187
1870
1871
1872
1873
1874
1875
1876
1877
1878
1879
188
1880
1881
1882
1883
1884
1885
1886
1887
1888
1889
189
1890
1891
1892
1893
1894
1895
1896
1897
1898
1899
19
190
1900
1901
1902
1903
1904
1905
1906
1907
1908
1909
191
1910
1911
1912
1913
1914
1915
1916
1917
1918
1919
192
1920
1921
1922
1923
1924
1925
1926
1927
1928
1929
193
1930
1931
1932
1933
1934
1935
1936
1937
1938
1939
194
1940
1941
1942
1943
1944
1945
1946
1947
1948
1949
195
1950
1951
1952
1953
1954
1955
1956
1957
1958
1959
196
1960
1961
1962
1963
1964
1965
1966
1967
1968
1969
197
1970
1971
1972
1973
1974
1975
1976
1977
1978
1979
198
1980
1981
1982
1983
1984
1985
1986
1987
1988
1989
199
1990
1991
1992
1993
1994
1995
1996
1997
1998
1999
2
20
200
2000
2001
2002
2003
2004
2005
2006
2007
2008
2009
201
2010
2011
2012
2013
2014
2015
2016
2017
2018
2019
202
2020
2021
2022
2023
2024
203
204
205
206
207
208
209
21
210
211
212
213
214
215
216
217
218
219
22
220
221
222
223
224
225
226
227
228
229
23
230
231
232
233
234
235
236
237
238
239
24
240
241
242
243
244
245
246
247
248
249
25
250
2500
251
252
253
254
255
256
257
258
259
26
260
261
262
263
264
265
266
267
268
269
27
270
271
272
273
274
275
276
277
278
279
28
280
281
282
283
284
285
286
287
288
289
29
290
291
292
293
294
295
296
297
298
299
3
30
300
3000
301
302
303
304
305
306
307
308
309
31
310
311
312
313
314
315
316
317
318
319
32
320
321
322
323
324
325
326
327
328
329
33
330
331
332
333
334
335
336
337
338
339
34
340
3405
341
342
343
344
345
346
347
3478
348
349
35
350
351
352
353
354
355
356
357
358
359
36
360
361
362
363
364
365
366
367
368
369
37
370
371
372
373
374
375
376
377
3776
378
379
38
380
381
382
383
384
385
386
387
388
389
39
390
391
392
393
394
395
396
397
398
399
4
40
400
401
402
403
404
405
406
407
408
409
41
410
411
412
413
414
415
416
417
418
419
42
420
421
422
423
424
425
426
427
428
429
43
430
431
432
433
434
435
436
437
438
439
44
440
441
442
443
444
445
446
447
448
449
45
450
451
452
453
454
455
456
457
458
459
46
460
461
462
463
464
465
466
467
468
469
47
470
471
472
473
474
475
476
477
478
479
48
480
481
482
483
484
485
486
487
488
489
49
490
491
492
493
494
495
496
497
498
499
5
50
500
5000
501
502
503
504
505
506
507
508
509
51
510
511
512
513
514
515
516
517
518
519
52
520
521
522
523
524
525
526
527
528
529
53
530
531
532
533
534
535
536
537
538
539
54
540
541
542
543
544
545
546
547
548
549
55
550
551
552
553
554
555
556
557
558
559
56
560
561
562
563
564
565
566
567
568
569
57
570
571
572
573
574
575
576
577
578
579
58
580
581
582
583
584
585
586
587
588
589
59
590
591
592
593
594
595
596
597
598
599
6
60
600
601
602
603
604
605
606
607
608
609
61
610
611
612
613
614
615
616
617
618
619
62
620
621
622
623
624
625
626
627
628
629
63
630
631
632
633
634
635
636
637
638
639
64
640
641
642
643
644
645
646
647
648
649
65
650
651
652
653
654
655
656
657
658
659
66
660
661
662
663
664
665
666
667
668
669
67
670
671
672
673
674
675
676
677
6770
678
679
68
680
6800
681
682
683
684
685
6850
686
6864
687
688
6882
689
69
690
691
692
693
694
695
696
6960
697
698
699
7
70
700
701
702
703
704
705
706
707
708
709
71
710
711
712
713
714
715
716
717
718
719
72
720
721
722
723
724
725
726
727
728
729
73
730
731
732
733
734
735
736
737
738
739
74
740
741
742
743
744
745
746
747
748
749
75
750
751
752
753
754
755
756
757
758
759
76
760
761
762
763
764
765
766
767
768
769
77
770
771
772
773
774
775
776
777
778
779
78
780
781
7818
782
783
784
785
786
787
788
789
79
790
791
792
793
794
795
796
797
798
799
8
80
800
801
802
803
804
805
806
807
808
809
81
810
811
812
813
814
815
816
817
818
819
82
820
821
822
823
824
825
826
827
828
829
83
830
831
832
833
834
835
836
837
838
839
84
840
841
842
843
844
845
846
847
848
849
85
850
851
852
853
854
855
856
857
858
859
86
860
861
862
863
864
865
866
867
868
869
87
870
871
872
873
874
875
876
877
878
879
88
880
881
882
883
884
885
886
887
888
889
89
890
891
892
893
894
895
896
897
898
899
9
90
900
9000
901
902
903
904
905
906
907
908
909
91
910
911
912
913
914
915
916
917
918
919
92
920
921
922
923
924
925
926
927
928
929
93
930
931
932
933
934
935
936
937
938
939
94
940
941
942
943
944
945
946
947
948
949
95
950
951
952
953
954
955
956
957
958
959
96
960
961
962
963
964
965
966
967
968
969
97
970
971
972
973
974
975
976
977
978
979
98
980
981
982
983
984
985
986
987
988
989
99
990
991
992
993
994
995
996
997
998
999
:
;
<
=
>
?
@
[
\
]
^
_
`
a
aa
aacatl
aactiuh
aahaltia
aahuatla
aahuatlan
aahuiltia
aaltia
aamaxehui
aan
aaquia
aatemi
aatlihua
aauatlan
aauilpan
aauitzocalaqui
aayolistli
abarco
abba
abbey
abeja
about
abraham
abril
absolution
ac
aca
acacampaxoa
acacampaxoani
acachto
acah
acahualla
acahuatl
acahya
acaixoa
acaixua
acalaqui
acalaquia
acalco
acalcuachpancuahuitl
acalcuachpanitl
acalcuachpantli
acaleh
acalhuaccaquixti
acalhuelteca
acalhueltecac
acalhueltecani
acalimachoni
acallalhuaccaquixti
acallaluaccaquixtia
acallapanaliztli
acallaxtlahuilli
acallaxtlahuiloni
acallaxtlauilli
acallaxtlauiloni
acalli
acalmocuitlahuiani
acalmocuitlahuiqui
acalmocuitlaui
acalnemachili
acalnemachiliani
acalotli
acalpainaliztli
acalpamitl
acalpatlani
acalquachpanitl
acalquixoayan
acalquixohuahyan
acalquixohuayan
acalquixtia
acaltecoyan
acalteichtecamictini
acaltica
acaltzomitl
acamapichtli
acamapilli
acamaya
acamayatl
acan
acanoyehui
acantachini
acapatli
acapitzactla
acapolco
acapolnetlan
acapulco
acatcane
acatepontli
acatetepontli
acatl
acatlan
acattopa
acatzanatl
acatzinco
acaxcahua
acaxitl
acaxotl
acaxotlan
acayac
acayetl
acayoa
acayocan
acayyechichina
acazacatl
acazacatla
acazacayotl
acazomo
accessdate
accio
accord
ace
acecec
acececpan
acecentli
acecexocotl
aceceyoa
aceh
acelana
acelin
acello
aceloni
acemelli
acetl
achacalin
achakatl
achalchihuitl
achalchiuitl
achcauh
achcauhtica
achcauhtlahtolli
achcauhtli
achcauhtoca
achcauhza
achchi
achi
achichiltik
achitlacuamachilli
achitzin
achiyok
achka
achkaitl
achkautli
achtlan
achtli
achto
achtocaxtiltoc
achtontli
achtopa
achtopan
achtotipan
achtotlacatl
aci
acicoh
acintli
acme
aco
aconcagua
acopa
acoquitzaliztli
acoustic
acoustics
acta
activo
actually
acualli
acxoyatl
ad
ada
adam
adj
adolf
adolfo
adv
advance
adverbios
advertencia
ae
aerome
aeropuerto
afganistan
afi
africa
afrikatlajtoli
after
afuera
ag
again
agave
age
agente
agosto
agua
aguacate
aguas
aguascalientes
agusti
agustin
ah
aha
ahachica
ahahuilli
ahaztli
ahca
ahcauhtlahto
ahcemeleh
ahcemelleh
ahci
ahcic
ahcico
ahcicoh
ahciqui
ahcito
ahco
ahcocui
ahcolli
ahcomanaliztli
ahcopa
ahcualli
ahhuia
ahhuiaya
ahhuic
ahhuih
ahhuiya
ahi
ahiuhca
ahkolman
ahmela
ahmo
ahmoneuhqui
ahmono
ahmozoc
ahneneuhqui
ahnno
ahno
ahnozo
aho
ahohuih
ahora
ahpa
ahqui
ahte
ahtlacayotl
ahtlamatiliztli
ahtlapa
ahtle
ahuacacuahuitl
ahuacamolli
ahuacatl
ahuacatli
ahuacuahuitl
ahuateno
ahuatenoh
ahuatl
ahuatomatl
ahuehuetl
ahuiani
ahuicyaniliztli
ahuilizapan
ahuitzotl
ahumada
ahxi
ahzo
ai
aiaac
aic
aijtik
ailhuicatl
aimaratlahtolli
air
aires
aitualli
ajakajika
ajauiltia
aji
ajki
ajkopa
ajkopak
ajmo
ajolmilij
ajolote
ajpa
ajuiyak
ak
aka
akahya
akaitetl
akaixoa
akajya
akalakia
akalanelotl
akalapanalistli
akalapanani
akalapani
akali
akalkixoayan
akalko
akalkuachpankuauitl
akalkuachpantli
akalli
akalnemachiliani
akalokuauitl
akalotl
akalpantli
akalpatlani
akalpatlanitontli
akalpatlatini
akalteichtekamiktini
akaltepiton
akaltetlalinkatekoni
akaltikanemini
akaltikaneminilistli
akaltikapanoni
akaltontli
akaluakakixtini
akaluelteka
akalueltekani
akalyakatl
akamapichtli
akamaya
akamayatl
akan
akanoyeui
akantachini
akantetlaneui
akapitsaktli
akapolkatl
akapolko
akapolnetlan
akasakatl
akasakatla
akasakayotl
akatepontli
akatkani
akatl
akatlan
akatonali
akatsakuistli
akatsauitli
akatsinko
akattopa
akaualan
akauatl
akauayotontli
akaxakauitstli
akaxochitlan
akaxotlan
akayak
akayoa
akayokan
aketspali
akia
akikin
akixtili
al
ala
alabama
alan
alarco
alas
alaska
alaua
alaxox
alba
albania
albert
alberto
albin
album
albums
albuquerque
alcala
alcalde
alcaldeyotl
alce
alces
aldama
alebrijes
alejandro
alema
alemania
alemaniatla
alemante
alemantecah
alemantlahtolcopa
alemantlahtolli
alex
alexander
alexandria
alexis
alfa
alfaro
alfonso
alfredo
algo
alguien
algunos
alianza
alize
all
alla
allen
allende
allosaurus
alma
almagro
alnus
alonso
alotl
alpaca
alpes
alpichia
alpine
alquimia
als
alta
altamira
altamirano
altemaitl
altepecalpolli
altepecuauhtlah
altepehuahqueh
altepemaitl
altepemeh
altepemej
altepenanyotl
altepepan
altepet
altepeticpac
altepetikpak
altepetiliztli
altepetinih
altepetl
altepetlacameh
altepetlacatl
altepetlacayotl
altepetlahtocan
altepetlahtohcan
altepetlali
altepetlalimej
altepetlalli
altepetlianca
altepetzin
altepetzintiliztli
altia
altitud
alto
alva
alvarado
always
am
ama
amadeus
amaitl
amamachioni
amamachiotlacuiloltzaqua
amanalli
amanamacoyan
amapatoltiliztli
amaranth
amarillo
amaru
amatajkuilol
amatenanco
amatl
amatlahcuilolli
amauta
amaxtli
amazon
amazona
amazonas
ame
amech
amehhua
america
american
americana
americanus
amerika
amerikah
ameyalatl
ameyalco
ameyalli
amg
amigo
amigos
amihqueh
amiliztli
amini
aminih
amiztli
amo
amochitl
amolli
amor
amores
amox
amoxatli
amoxchihualiztli
amoxchihualoyan
amoxchiuhtli
amoxcuilolizotl
amoxcuiloliztli
amoxtlahcuiloh
amoxtlajtoalpeualistli
amoxtlapeualistli
amoxtlatolpehualiztli
amoxtli
amoxtlikoyan
amsterdam
amuleto
an
ana
anahuac
anahuactlalli
analco
anales
analko
analytical
anas
anawak
anaya
anca
ancayotl
and
andalie
andaluci
andalus
anderson
andes
andino
andorra
andre
andres
andrew
aneiro
angel
angeles
angelina
angelomeh
angels
angliatl
anglicano
anglorum
anglos
angola
ani
animal
anime
anna
annals
annona
ano
anoso
another
anozo
anqui
anta
antartida
ante
antequera
anterior
antes
anthony
anthropology
antigua
antioquia
antonio
antropologi
anula
anuschka
any
aocmo
apachtli
apan
apantlalli
apantli
apastli
apaztli
ape
apfel
apiloli
apilolli
apipiyalotl
apismiki
apistli
apizmiqui
apizotl
apiztli
apo
apoctli
apodaca
apojtli
apoktli
apple
april
aqui
aquia
aquihqueh
aquin
aquizaliztli
ar
ara
arabia
arabiatlahto
arabiato
arabisch
arabische
arago
arantlahtolli
araucaria
arbol
archaeopteryx
archive
archived
archosaur
archosauriform
arco
arctic
ardilla
are
arena
arg
argel
argelia
argemone
argentina
argentintecatl
arguedas
arhentina
arizona
arkansas
armenia
arnulfo
arosa
arouet
around
arreola
arriba
arroz
art
arte
arteaga
artes
arthur
arti
article
artico
arts
arzobispo
as
asaka
asco
asej
aselin
aselo
asemeli
asentli
asesek
asesekpan
asesexokotl
asetl
asi
asia
asiah
asno
asociacio
aspx
assisi
asta
astli
astra
astrologi
asturia
asturias
asuncio
at
ate
atecaxmatemaloyan
atekia
atekochtli
atemaxac
atemaxak
atemoctli
atenco
atentli
atepantli
atepipitztli
atequia
atetepitztli
atetl
atezcatl
atilia
atitlan
atl
atla
atlacah
atlacatl
atlacomolli
atlahtolli
atlakomoli
atlamantli
atlamatilistli
atlanta
atlantic
atlantico
atlapechco
atlapechko
atlapexco
atlaquemitl
atlatl
atle
atletismo
atli
atlic
atliua
atocpan
atoctli
atoktli
atole
atoli
atolli
atotonilco
atotonilli
atoya
atoyac
atoyatl
attack
atzan
atzintli
au
auakamoli
auakatl
auakatli
auakuauitl
auatl
auch
audi
auditorio
auf
auge
augenbraue
august
augustus
auh
auia
auiakatl
auiltia
auitzocalaqui
aulacorhynchus
aulex
aurantiaca
aus
ausrufewort
austin
australia
austria
auto
automo
automobile
autumnalis
av
avanthooft
ave
avenida
awakatl
awards
awatl
away
awilisapan
ax
axan
axca
axcan
axcayotl
axis
axitia
axkan
axkanah
axkanaj
axkantika
axkayotl
axno
axnoh
axochiapan
axolotl
axtoui
ay
aya
ayac
ayahuitl
ayamictla
ayamictlampa
ayamictlan
ayamo
ayauhcalcan
ayecohtli
ayixpololoni
ayohcanah
ayohtli
ayojtli
ayokkanah
ayolcatl
ayollohco
ayotatlan
ayotl
ayotochtli
ayoyotik
ayuntamiento
az
azaca
azcacoyotl
azcameh
azcapotzalco
azcapotzalli
azcatl
azerbaiyan
azo
azozan
aztatl
aztec
azteca
aztecah
aztecas
aztli
azul
azula
b
ba
baby
bach
bachillerato
back
backe
bactrocera
bad
baez
bahamas
bahrein
baja
baji
bajo
bal
balada
balam
baleares
ball
ballad
baloncesto
balsas
ban
band
banda
bandera
bangladesh
bano
barajas
barbados
barbuda
barcelona
barco
barranquilla
barrientos
barrio
bartolome
basadre
basilio
basquetbol
bassariscus
baudot
bautista
bayern
baz
bbc
be
bean
beat
beatles
beautiful
becas
becquer
beda
bedroom
bedshaped
bee
beeckerco
been
beethoven
beetle
behind
beine
belanova
belen
belgica
belgique
belice
believe
bell
bellamy
bellas
belle
bellotas
bells
ben
bend
benedicto
benedictus
beneme
benin
benito
benz
berg
berheblichkeit
berlin
bermudas
bernal
bernardino
best
bethleem
better
bezzi
bgcolor
biblia
biblioteca
bien
biene
big
bilbao
bill
bin
bindewort
binomio
bio
biobi
biografi
biolib
bird
birds
birria
bis
bisiestos
bison
bissau
bito
bitter
black
blanca
blanco
bleu
blica
blood
blue
blume
blut
bmw
bo
boahco
bob
boca
boden
bogota
bol
boli
bolivia
bones
bonet
bonete
bonfil
book
boot
boots
bootsmast
bora
born
borneo
bosna
bosnia
boss
bota
boudet
boulevard
box
boxster
boy
bra
brand
brandon
brasil
braue
bravo
break
bretan
breve
brico
brightside
britania
britanite
british
britpop
broken
broselianda
brothers
bru
brunei
bruxelles
bu
budahcayotl
buen
buenavista
buenos
bugatti
bulgaria
bun
burgos
bury
busca
bush
but
butan
buteo
by
c
ca
caballero
caballo
caban
cabeza
cable
cabo
cabrera
cac
caca
cacactli
cacahuaca
cacahuacuahuitl
cacahuatetl
cacahuatl
cacalo
cacampaxoa
cacan
cacatza
cacatzac
cacatzactli
cacatzatlacatl
cacchi
cace
cachi
caci
cacnamacoyan
cacomixtle
cacomiztli
cactli
cactus
cada
cadereyta
caesar
cafarnaum
cafe
cafecacahuatl
cafecalli
cah
caha
cahnapa
cahqui
cahua
cahualotilo
cahuayo
cahuayoh
cahuayohpixcayotl
cahuipan
cahuitl
cai
caimito
caja
cak
cal
cala
calabria
calacohuahyan
calacqui
calaqui
calaquia
calaquih
calaquihqueh
calaquiliztli
calaquitla
calaquiya
calavera
calchi
calco
calcua
calcuaitl
calden
caldero
caledoniensis
calendar
calendario
calendars
calhua
calhuelteca
calhueltecac
calhueltecani
calhuia
cali
calidad
caliente
calientes
california
caliztli
call
callah
callaneloh
callao
callapa
callaxtla
calli
calling
calmanaliztli
calmanani
calmanayo
calmanayotl
calmecac
calmimilolli
calmocuitlahuia
calmocuitlahuih
calmocuitlahuihqui
calnali
calnechicoltlamachtiltequitl
calnemachilia
calohtli
calpan
calpo
calpoli
calpolli
calpollotl
calpoltin
calpuli
calpulli
calqueh
calqui
calte
caltetlahtlaniliztli
caltica
caltin
caltlamachtilnechicoltequitl
caltlamachtiloyan
caltlamactiloyan
caltzomitl
caltzontli
calzada
cama
camachalli
camactli
camada
camalacotl
camanalli
camaro
camatl
camboya
came
cameh
camilectic
camiltic
camino
camo
camohpa
camohpaltic
camohtli
campa
campaxoa
campbell
campeche
campo
campora
camptosaurus
campus
can
cana
canada
canah
canahpa
canahuac
canahya
canal
canapa
canarias
canauhtli
cancer
canciones
cancu
candelaria
canechico
caneneuhca
cani
canica
canin
canis
canitl
canoa
canon
canta
cantabria
cantabrico
cantares
cantina
cantinflas
cantli
caolo
caololo
capa
capan
capatlahquetl
capaz
capi
capitzactli
capixqui
capo
capolcuahuitl
capolin
capotztic
capreolus
capricorn
capsicum
caqueh
caquizcopi
caquizcopinaloni
car
cara
carazo
cardinale
carga
cargraphics
caribe
carl
carlo
carlos
carmen
carnaval
carochi
carolina
carpenters
carr
carranza
carrera
carrillo
carrizal
carrizo
cartagena
cartago
cartier
carvajal
casa
casas
cascabel
caso
castellana
castellano
castellanos
castile
castilla
castillo
castro
cat
catala
catalana
catalantlahto
catalantlahtolli
catalina
catalun
catalunya
catamarca
catarina
catca
catcah
cate
catechcopa
catedral
category
cateh
catepe
cathartidae
cati
catia
catiani
catiliztli
catiya
catiyah
catl
catla
catlahto
catlahtoca
catlahtohca
catlano
catleh
cato
catolicismo
catolico
catqui
catya
catyan
catzin
catzinco
catzomitl
cauhtic
cauhtzin
causa
cave
caxcameh
caxitl
caxo
caxoxouhca
caxtil
caxtilah
caxtilahtlahtolcopa
caxtilahtlahtolli
caxtilahtocayotl
caxtilantlahtolcopa
caxtilantlahtolcuepa
caxtilcameh
caxtilcihuatl
caxtilla
caxtillah
caxtillahto
caxtillahtolcopa
caxtillahtolli
caxtillahtoltica
caxtillan
caxtillancihuatl
caxtillantlahtohqueh
caxtillantlahtolcopa
caxtillantlahtolli
caxtillantlahtolmachiyotl
caxtillantlahtoltica
caxtillantocaitl
caxtilte
caxtiltecah
caxtiltecatl
caxtiltecatlahtolli
caxtiltlahtolli
caxtitlantlahtoah
caxto
caxtolcauhpol
caxtolli
caxtollioncenxiquipilli
cayo
cayoh
cayohca
cayotl
caz
cazacatl
cazaquistan
caſtellana
caſtilla
cc
cca
ccaxtilte
cce
ccopa
cd
cdi
ce
cealiztli
cece
cecec
cececatl
cececpan
cecen
cecni
cecniqui
cecniquizqui
cectli
ceh
cehcanoc
cehuetzilizpan
cel
celebration
celica
celtah
celtic
cem
cema
cemana
cemanahuac
cemanahuatl
cemani
cemanqui
cemantihuitztli
cemantoc
ceme
cemeh
cemicac
cemicacayoliztli
cemihcac
cemilhuicayo
cemilhuito
cemilhuitonalli
cemitqui
cemmantihuitz
cemmantiuitz
cemonoca
cempo
cempoalton
cempohualli
cempohualmahtlactli
cempohualxiquipilli
cempohualxochitl
cemtla
cen
cenca
cencah
cencalli
cenmantihuitz
cenqui
cenquizca
censo
census
centamachi
cente
centetl
centettihuitz
centettiuitz
centiliztli
centla
centlaixtli
centlalticpac
centlamantli
centlamatilizamoxpan
centlamatilizamoxtli
centlapal
centli
cento
central
centro
centroame
centzon
centzontlahtoleh
centzontli
centzonxiquipilli
centzun
cenyeliztli
cepan
cepanca
cepayahuitl
cepayauhtic
ceppa
cequi
cequih
cequime
cequin
cequinoc
cequintin
ceres
cerro
cervantes
cervus
cetiliztli
cetiya
cetl
cetlan
ceuta
ch
cha
chacalin
chacha
chachapali
chad
chagas
chajchokotl
chajma
chaktemal
chalchihuitl
chalchiuhcuecan
chalchiwehkan
chalco
chalte
champoto
chan
chane
chaneh
chanehkeh
chanehmatiliztli
chanehqueh
chanejkej
chanejmej
chanequeh
change
changing
chanti
chantia
chantiah
chantiaya
chantih
chantij
chantiko
chantiloc
chantli
chaplin
chapo
chapoli
chapolin
chapoltin
chapopohtli
chapuli
charles
chart
chayohtli
chca
chcacone
chcauh
chchica
chco
che
check
checklist
chedraui
chef
chenehqueh
chequia
cher
chetumal
chevrolet
chi
chia
chiahuitl
chiancali
chiankali
chiapas
chiauicayotl
chiauikayotl
chiauitl
chiauitli
chic
chica
chicago
chicahuac
chicha
chichi
chichicatl
chichihualatl
chichihualayotl
chichihualli
chichihualtzapotl
chichika
chichikatl
chichiltic
chichiltik
chichime
chichimecah
chichimekatl
chichimichin
chichini
chichinimeh
chichiualayotl
chichiuali
chichiwali
chicnahui
chico
chicomatl
chicome
chicomexochitl
chicomilhuitl
chicontepec
chictlapa
chicuace
chicual
chicue
chicuei
chicuepo
chicueyi
chicui
chieftains
chihchi
chihchiltic
chihcual
chihcualli
chihpa
chihua
chihuahua
chihuahuac
chihualcalli
chihualo
chiichi
chikaua
chikauak
chikitl
chikiuitl
chiknawi
chikome
chikontepek
chikuase
chikueyi
chikwase
chikweyi
chilapan
chilcoztic
child
chile
chilena
chili
chilkostik
chilli
chilmilij
chilpancingo
chilpantsinko
chilpantzinco
chilquilitl
chimalayotl
chimalli
chimalpahin
chimalpain
chimaltenanco
chimalxochitl
chimeh
chimiztli
chin
china
chinandega
chinanko
chinatlahto
chinkuu
chipa
chipahuac
chipauak
chipawak
chiquetzal
chiquihuitl
chiquiuhpatoliztli
chiquiuhtapayolhuiliztli
chitepe
chitl
chiua
chiucna
chiucnahui
chiucnauhtetl
chiya
chiyahuitl
chiyapah
chiyapan
chiyayotl
chiyo
chmachtia
chmeh
chnohpalli
cho
chocani
chocolate
choka
chokani
chokoxtik
chollahto
chollahtolcopa
chololah
cholollan
chontal
choquiliztli
choso
chpa
chpancuahuitl
chpanitl
chpantli
chris
christian
christiana
christmas
christopher
chte
chtia
chtin
chtitla
chtitlan
chtla
chtli
chto
chtzin
chyo
ci
cia
ciclismo
cicuacemeh
cidics
cielo
cien
ciencia
ciencias
cienti
ciervo
cihtli
cihua
cihuaconetl
cihuah
cihuameh
cihuapilli
cihuapilmeh
cihuapiltin
cihuaquemitl
cihuateopixqueh
cihuatic
cihuatl
cihuatlacatzin
cihuatlahtoani
cihuatlampa
cihuatocaitl
cilin
cilli
cinco
cincoatl
cine
cintli
cipactli
cirilo
ciruelacuahuitl
cita
cite
citla
citlalin
citlalli
citlaltepec
citlaltla
citli
citroe
citrus
city
ciudad
ciudades
ciutat
civic
ciyo
ck
cke
cken
cla
classique
clave
clavijero
clemente
clements
cli
climas
clio
clipperton
closer
club
cm
cni
cnica
cnico
co
coahuila
coahuillan
coameh
coapahtli
coapatli
coatepec
coatl
coca
cochi
cochih
cochihuayan
cochotl
cococ
cocoliztli
coconeh
cocos
cocoxqui
codex
cohen
cohte
cohtin
cohtli
coj
col
cola
coldplay
colegio
colhuacan
colhuahcan
colibri
colima
coliman
collection
colli
colo
colombia
colombo
colonia
color
colorado
colotl
columbia
com
coma
comalito
comalli
come
coming
comisio
comite
comitl
comixin
commapilhuia
commons
como
comolli
comoras
company
compendio
completas
completes
compostela
computer
comu
comunidad
con
cona
conabio
conaculta
conan
concepcio
concept
concepto
concert
concolor
conde
cone
coneh
conemeh
conepatus
conetl
conetzintli
confident
congo
congreso
conj
conjunto
conneticut
conocido
conquest
conquista
constantinopla
constitucio
consultada
consultado
contenido
contenidos
continental
contra
contreras
cooper
copa
copal
copalcuahuitl
copalli
copilco
copilli
copina
coppel
copy
cora
corazo
cordillera
corea
coreatlahto
cornell
corolla
corona
coronado
coronavirus
correspondecia
correspondencia
corsa
corte
cortes
cortines
corzo
corzuela
cosas
costa
coto
cotomitl
coton
cotoncayotl
could
country
coupe
covid
cox
coxolihtin
coxolihtli
coxqui
coyahuac
coyametl
coyo
coyoaca
coyochichi
coyohuahcan
coyolli
coyomeh
coyonimatiliztli
coyotl
cozamalotl
cozamatl
cozcacuauhtli
cozcatl
cozcatlan
coztic
cozumel
cpa
cpac
cpan
cpilli
cpilo
cpo
crazy
crear
create
cree
cretaceous
cri
cristal
cristiania
cristianismo
cristiano
cristianomeh
cristianoyo
cristianoyotl
cristina
cristo
cristobal
cristotocalizotl
cro
croacia
croaciatlahto
crocodilian
crotalus
crucecita
cruz
crystal
cs
cte
ctepoztli
ctetl
cti
ctic
ctica
ctico
ctlahto
ctli
cto
ctor
ctu
ctzapotl
cu
cua
cuaca
cuachtli
cuacua
cuacuahueh
cuacuahuehpixcayo
cuacuahuehpixcayotl
cuacuahuitl
cuacualtzin
cuacuauhxolotl
cuahueh
cuahuehqueh
cuahuilah
cuahuillan
cuahuitequi
cuahuitl
cuaitl
cualcan
cualli
cualnezcaltepec
cualo
cualoni
cualtzin
cuammiztli
cuanacacozcacuauhtli
cuanacatl
cuanacaxochitl
cuando
cuapantocaitl
cuatextli
cuatochtli
cuauh
cuauhchochopitli
cuauhcopa
cuauhcuetzpalin
cuauhmalacatl
cuauhmeh
cuauhnahuac
cuauhpachtli
cuauhte
cuauhtemalah
cuauhtemallan
cuauhtemoc
cuauhtic
cuauhtitlan
cuauhtla
cuauhtlah
cuauhtlahtli
cuauhtlehuanintzin
cuauhtlehuanitzin
cuauhtli
cuauhto
cuauhtolco
cuauhtontli
cuauhxilotl
cuauhximalpan
cuautontli
cuaxochtia
cuba
cucurbita
cue
cueitl
cuemitl
cuenca
cuenta
cuentos
cuepa
cuepo
cueponi
cuernavaca
cuerpo
cuetla
cuetlachtlacamayeh
cuetlachtli
cuetlaxcoapan
cuetlaxochitl
cuetlaxtli
cuetzcomatl
cuetzpalin
cueva
cuexa
cuexte
cuextecah
cuextecapan
cuextecatlahtolli
cueyatl
cuezolli
cuhuait
cui
cuica
cuicani
cuicanimeh
cuicatl
cuicayotl
cuicuitzcatl
cuihcui
cuilli
cuilo
cuiloa
cuilpo
cuitla
cuitlacalli
cuitlacochin
cuitlahuia
cuitlapan
cuitlapilli
cuitlatl
cuitlaxayacatl
cuitlaxcolli
cuix
cuixin
cula
culas
culebra
culiaca
culo
cultura
cultural
cumbia
cumiaitlahtolli
cundinamarca
cuniculus
cure
curie
cusco
cxihuitl
cydonia
cyndi
cyoh
d
da
dakota
dali
dallas
dama
dan
daniel
dans
dante
danubio
danza
dark
darmstadt
darts
das
dastin
dasypus
date
dave
david
day
dc
dchen
de
dead
dean
death
december
decir
decreto
decumana
dedo
default
definido
del
delaware
delhi
dell
della
delorean
dem
democra
den
denisse
densidad
deo
deodorant
departamento
depeche
deportiva
deppei
der
derecho
des
desarrollo
descartes
desde
deseo
desierto
despue
destino
detalle
deutsch
deutschland
development
di
dia
diablo
dialecto
diario
diazi
diccionario
diccnahist
dice
dichosos
diciembre
dico
dicraeosaurus
dictionaries
dictionary
dictionnaire
didelphis
die
diego
diener
diez
diferentes
digital
dih
dinamarca
dinasti
dinosaur
dinosaurian
dinosauromorph
dios
diploid
diptera
dipterorum
director
disco
discos
disease
disney
distrito
diz
dj
dmc
do
doctor
dodge
does
doi
dolar
dolores
domingo
dominguez
dominic
dominica
dominicotlahtohcayotl
don
donde
done
donetsk
door
dora
doranko
doris
dormir
dos
douglas
down
downloadable
downs
downstzin
doyle
dr
dream
dreams
drei
dreier
drew
driftwood
dromo
dschungel
du
duarte
dublin
dubliners
dudas
dulce
dunlop
duran
durango
durazno
durchbohren
dvd
dying
e
earliest
early
earth
east
easy
eat
ebenaceae
eca
ecatepec
ecatl
echkapan
eclesia
eclipse
econo
ectic
ecuador
ed
edad
edgar
edge
edicio
ediciones
edicions
edinburgh
edition
editores
editorial
eds
edu
eduardo
educacio
edward
egipto
eh
ehcahuaznenqui
ehcatepec
ehcatl
ehe
ehecacehuazcuitlapilli
ehecatl
ehecatotolin
ehekatepek
ehekatl
ehhua
ehua
ehuanih
ehuatl
eiche
eicheln
eichenholz
eiffel
eigenname
ein
eine
einen
einfu
eingang
einkauf
einstein
eintritt
eje
ejecutivo
ejekatlanonotski
ejido
ek
ekatelefoni
ekatl
ektik
ekwador
el
ela
eleanor
electropop
elefante
elektra
elemental
elena
elepantli
elfenbeinku
eli
elias
eliyaya
elizabeth
elkeh
elki
ellenbogen
ellos
elotl
elotlamanaliztli
eltok
elvira
em
emiliano
emilij
emilio
emina
emmanuel
emperador
emperadoryo
empire
en
enciclope
enciclopedia
encontrar
encyclopedia
end
enero
england
english
enlaces
enrique
ensayos
ensenada
ente
entre
enya
enzo
enzyklopa
eoropah
eotyrannus
ep
epatl
epazo
episode
epoalnan
eps
equipo
equus
er
era
erasure
erde
erecta
erectus
eritrea
ernesto
error
erza
es
esa
escamilla
escape
escarabajo
escobedo
escocia
escote
escotla
escribir
escrito
escritura
escudo
escuela
eslovaquia
eslovaquiatlahto
eslovenia
espace
espan
espectadores
espejo
espinoza
espiral
est
esta
estacio
estadi
estadio
estado
estados
estadosonidos
este
estelada
esteli
estonia
estrada
estrella
estudio
estudios
estvideo
et
etc
etetl
etic
etimologi
etiopia
etiqueta
etl
etzapotl
eua
euanij
eugenia
euro
europa
europacopa
europan
europanco
europane
europanecah
europe
europea
eva
evange
evenhuis
everybody
evic
evo
evolution
evolutionary
ew
exhale
exkan
exkrement
exo
expedicio
extremadura
eyed
eyes
eyi
ez
eztli
ezxococuahuitl
ezxocotl
f
fa
face
factbook
facto
fair
fairlady
faith
fallen
falling
familia
familiaris
farldow
faso
fe
fears
feat
febrero
february
federal
federico
feel
feeling
felipe
felis
fer
ferdinand
fermi
ferna
fernando
ferrari
festival
ffffe
fi
fica
fico
ficos
ficus
fierohtik
fiesta
fifa
filipinas
film
final
financiero
find
finger
fingernagel
finlandia
fintla
fintlahto
fire
fischer
fitz
five
fix
flag
flandes
fliegen
flor
flora
flores
florida
flowers
flu
flugzeug
fluss
fo
focus
folk
fondo
for
ford
forma
formula
found
four
fox
fr
fragen
franc
france
frances
francesco
franceses
francestlahtolcopa
francestlahtolli
francia
franciatlahto
franciatlahtolli
francis
francisco
francite
franco
frank
frankfurt
franz
frau
fray
fre
freibeuter
french
fretz
fri
frida
frisch
frog
from
frontera
fru
fruta
fu
fue
fuentes
fueron
fundacio
fundoshi
fuss
futbol
futbolista
futurama
future
g
ga
gabon
gabriel
gafotas
gala
gales
galicia
galiciatlahtolli
galilea
gallia
gallopavo
gambia
gamo
gane
ganz
garci
garibay
garza
gato
ge
gebieter
gedichte
gees
gel
gena
genannt
genas
general
genero
geno
geo
geogra
geografi
geologi
george
georges
georgia
gerardo
germa
germania
geronimo
gestru
ghana
gibraltar
gica
gico
gicos
gina
ginas
giovanni
gir
giraffatitan
girls
giuseppe
gl
gli
globo
glu
go
gob
gobernador
gobierno
gobiernoh
god
goes
gold
golden
goldman
golf
golfo
gomera
gone
gonza
gonzalo
good
google
gorda
gortari
gosseliniana
gov
grama
gran
granada
granadacuahuitl
granadaxocotl
granadinas
grand
grande
grandes
great
grecia
greciamachiyo
greciatlahto
greciatlahtolli
greciayotl
greco
green
greenwich
gregoriano
gregorio
grijalva
gris
groenlandia
group
großzu
gru
grupo
gt
gu
guadalajara
guadalupe
guanajuato
guatemala
guayaquil
guerra
guerrero
guez
guila
guillermo
guine
guinea
gustavo
gutie
guyana
guzma
h
ha
hab
habe
haben
hacia
hadas
hahuia
hai
haiti
hall
halloween
hals
hampshire
han
hancock
hand
hannoki
happy
hard
hardy
harp
harrison
harry
harum
has
hasta
hat
hatchback
haus
have
hawaii
hay
hca
hch
hdr
he
head
healy
heart
hearts
heavy
hebreotlahto
hebreotlahtolli
hehuatl
heijnen
helena
help
hen
henares
henry
her
here
hering
hermosillo
herna
hernan
hernando
herodes
heroica
herr
herrera
hertzegovina
herzegovina
hhue
hi
hicox
hicoxcuahuitl
hidalgo
hidalguense
hierba
hierusalem
high
higo
higuera
hija
hijos
hill
himalaya
himmel
hina
hippocamelus
hiragana
hiroshima
his
hispania
hispaniae
hispantlahtolli
histo
historia
history
hitler
hitovi
hits
hle
hlung
hlungen
hn
ho
hoch
hockey
hole
holes
holmes
hombre
hombres
home
homenaje
homme
homo
honda
honduras
honolulu
honshu
hooft
hopes
hora
horacio
horn
hot
house
houston
howard
hoy
hp
hpixcayo
hrer
hrs
hstu
htlacxihuitl
htli
htm
html
hto
http
https
hu
hua
huac
huaca
huacatl
huacaxmeh
huaccaixtlahuatl
huacqui
huacuahuitl
huah
huahca
huahcapayotl
huahqueh
huahtlahto
hual
huala
hualauh
hualcaxto
hualchicuace
hualehua
hualhuaztiliztli
hualhuaztli
hualiz
hualizteo
hualiztli
hualla
huallah
huallahto
huallauh
hualli
huallo
hualma
hualmahtla
hualmatiliztli
hualo
hualomo
hualonce
hualonna
hualti
hualtin
hualtla
hualxihuitl
hualxiquipilli
hualxiuhpan
hualxo
huamachiyo
huan
huanaco
huani
huapango
huasteca
huati
huatia
huatiliztli
huatl
huatla
huatlahto
huato
huatomatl
huauhtli
huaxin
huaxyacac
huaya
huayin
huaz
huaznenqui
huaztli
hue
huecauh
huecauhtica
hueh
huehca
huehcahuitiani
huehcai
huehcapa
huehcapan
huehcapatlahtoliztli
huehcauh
huehcauhtica
huehhuetiliztli
huehtlahto
huehue
huehuecauh
huehuecauhtica
huehueh
huehuehcauh
huehuehcauhtica
huehuehmexicayotl
huehuehocelotl
huehuehtequiyotl
huehuehyotl
huehuetini
huehuetl
huehuetqueh
huehueyac
huehueyi
huehxo
huehxolomeh
huehxolotl
hueinan
hueitata
huejutla
huel
hueli
huelic
huelihqui
hueliti
huelitia
huelitic
huelitih
huelitiliztli
huelitini
hueliz
hueltah
huelva
huemul
huerta
huetla
huetz
huetzi
huetziliztli
huevo
huexolotl
huexotl
huexotlah
huexyacac
huey
hueyac
hueyaithualli
hueyaltepetl
hueyatenco
hueyatentli
hueyatl
hueyi
hueyic
hueyicauh
hueyicocoliztli
hueyimichin
hueyiohtli
hueyiteocalco
hueyiteocalli
hueyitlahtoani
hueyitlahtocayotl
hueyitlahtohcayotl
hueyitlahtolamoxtli
hueyitlamachtilcalli
hueymichin
hueytlahtoani
huezacotl
hueznenqui
hughes
hugo
hui
huia
huica
huiccopa
huicpa
huih
huihpochcho
huihpochin
huihpochtin
huihuiyac
huili
huilia
huiliz
huiliztli
huiloco
huilotl
huiltia
huiltiliztli
huino
huipil
huipilli
huiquimedia
huiquipedia
huiquitlahto
huitl
huitz
huitzilin
huitzilopochtli
huitzitzilin
huitzlantlapcopa
huitzocalaqui
huitzotl
huitztla
huitztlampa
huitztlampan
huitztlan
huitztli
huixachin
huiya
huizo
huiztla
huiztlampa
huizzo
human
humano
hunahpu
hund
hunger
hungern
hungersnot
hungria
hungrig
hunter
huo
hurricane
hus
hysteria
i
ia
iachcauhtoca
ialtepecalpolhuan
ialtepenanyo
ialtepetikpak
ialtepetlahtohcahuan
ialtepeuh
iamox
iamoxchihualiz
iamoxchihualoyan
iatenkopa
iaxca
iberia
iberiate
iberoamericana
ibiza
ic
ica
icalaquian
icalaquitlampa
icalaquiyampa
icali
icalmanaliz
icalpol
icampa
ican
icaxtillantlahtol
icecniquizaliz
icel
icelti
icencal
icenyeliz
icenyiliz
ich
ichan
ichanehhuan
ichcapixcayotl
ichcatl
ichichi
ichimal
ichin
ichkatl
ichpo
ichpocatl
ichpochtli
ichpokamej
ichtaca
ichtacayotl
ichtli
ici
icihua
icihuahuan
icihuauh
iciuhcac
icni
icniuhcayotl
icniuhtia
icniuhtli
icno
icnopilti
icnotl
iconeuh
iconeuhtzin
icopa
icpac
icpalli
icpitl
icua
icuac
icuayollo
icuicahuan
icuitlapil
icxihuehhue
icxitl
id
idaho
idiez
idioma
idiomas
iehoan
iehuayo
if
iga
iglesia
iglesias
ignacio
ignored
iguana
iguanodon
ihcali
ihciuhca
ihcoac
ihcon
ihcopa
ihcua
ihcuac
ihcuilo
ihcuiloa
ihcuilotic
ihquino
ihquinoh
ihtacatl
ihtec
ihtetl
ihtic
ihtlacahui
ihtlacahuiliztli
ihtlacahuiztli
ihto
ihtoa
ihtoca
ihtoloni
ihtonki
ihua
ihuan
ihuani
ihuehuehocelohuan
ihueliyo
ihueyauh
ihui
ihuic
ihuicpa
ihuicpan
ihuih
ihuihuicayotl
ii
iicniuh
iii
iikxi
iitech
iixneciliz
iixneska
iixpan
iixten
iixteyol
ijkino
ijkinoj
ijkuak
ijkuiloa
ijtik
ik
ika
ikajtlakuatosej
ikampa
ikane
ikino
ikniutia
iksitok
ikua
ikuyak
ikwa
il
ilamatl
ilhuica
ilhuicaa
ilhuicaatl
ilhuicac
ilhuicamatiliztli
ilhuicamatini
ilhuicateo
ilhuicatl
ilhuicatlaihualli
ilhuitl
ilitl
illinois
ilona
iluikatl
iluitl
ilustrado
ilv
ilwitl
im
imach
imachiyo
imagen
imah
imahcehualtiliz
imdb
imecayo
imetsnakayo
imetzhuan
imiquiliz
imixpan
imiyaca
imiyaquiliz
imma
imman
immanuel
immanyotl
imotlacua
imperio
impossible
in
ina
inaca
inacayo
inafed
inahuac
inahuatlahtol
inaka
inakayo
inamic
inantzin
inauatlahtol
inauatlajtol
inc
inca
incatlacameh
inclan
includes
independencia
index
indi
india
indian
indiana
indias
indica
indio
indios
inditlahto
indonesia
industria
ine
inegi
inelhuayo
inemachtiliz
inemiliz
inenohmahyolitiliz
inepa
inepan
inepaniuhca
ineska
inetitlaniz
inezca
inferior
influenza
informacio
infraorden
ingenieri
ingenioso
inglate
inglatecatl
inglaterra
inglatla
inglatlahto
inglatlahtolcopa
inglatlahtolli
ingle
ingles
ingleses
inglestlahtolcopa
inglestlahtolli
inglestlahtoltica
inhuan
inhuic
ini
inic
inicial
inihqueh
inin
ininchan
ininqueh
inintlanempan
inintocah
inintokah
inintokaj
inintsalan
iniuhquin
inka
inmaco
ino
inoc
inohmah
inompa
inompan
inon
inonkej
inonque
inonqueh
inpan
insecta
institucional
institute
instituto
instrumento
insurgentes
inte
intech
intechpa
inter
interior
interjektion
internacional
international
internet
intin
intla
intlah
intlaj
intloc
into
intoca
intsalan
intzalan
investigacio
investigaciones
invincible
invisible
ioannes
iohtocaliz
iontetoca
iowa
ipa
ipal
ipamapa
ipampa
ipampahuic
ipan
ipani
ipanocayoh
ipanpetlayo
ipapa
ipehualiz
ipehuaya
ipeuhca
ipilhuan
ipiltian
ipiltzin
ipochcayaotl
iprage
iquac
iqui
iquin
iquiyauhtlal
iquizatlampa
iquizayampa
iquizayan
iquiziyampa
ir
ira
irac
iran
irapuato
irish
irlanda
iron
irtla
is
isaac
isabel
isbn
isbol
isenyelis
isidro
isiukayo
isla
islam
island
islandia
islas
iso
israel
israella
ist
istachtli
istak
istatl
istetl
istico
istmo
istokej
it
ita
itacatl
itahtzin
italia
italiano
italiatla
italiatlahto
italiatlahtolli
itallahto
itech
itechcopa
itechpa
itechpahuic
itechpahuicpa
itecuacan
iteiccauh
itemachtiliz
itemaquixtiliz
itencopa
itenematilizcuicahuan
itentli
iteo
iteocaltzin
iteopan
iteopanhuan
iteotlahcuilol
iteotlahtol
itepacholiz
itepan
itepanhuan
itepeuh
itepolnacayo
itequiliz
itequipanoliz
itequitiliz
itequiuh
itequiyo
iter
itetl
itetlacencuiliz
itetlazohtlacahuan
iteucyo
iteyacanaliz
iteyolmahxiltiliz
iti
itia
itic
itih
ititl
itl
itla
itlacahuan
itlacahuiliztli
itlacauiliztli
itlacehcentlaliliz
itlacehcentlaliliztli
itlachihualiz
itlachiuh
itlacopinaliz
itlacua
itlacual
itlacualiz
itlah
itlahcuilol
itlahtocayo
itlahtohcauh
itlahtol
itlahtolhuan
itlahtolmachio
itlahtolpoaliz
itlahtoltecpantiliz
itlahtotiyan
itlaixpayo
itlakauistli
itlakaxoxowkayo
itlakwalis
itlal
itlallamikilis
itlalmachiyo
itlalpixcayo
itlaltoca
itlalwi
itlaman
itlamaniliz
itlan
itlanauatilis
itlanauatilistli
itlanequiliztzin
itlapajli
itlapal
itlapixcayo
itlaquen
itlatollo
itlatoltzin
itlatqui
itlatzohtzonaliz
itlayekanalis
itlazoh
itlazohhuan
itlazoixiptlatzin
itloc
itoca
itocah
itocahuan
itocatzin
itocayocan
itoka
itokah
itokaj
itomin
itonal
itsatlan
itsintli
itskwinkoyotl
itskwintli
itsmilkilpan
itsontli
itstok
itstokeh
itstokej
itstosej
itta
ittalo
ittitiloni
itunes
iturbide
itza
itzalan
itzatlan
itzco
itzcuauhtli
itzcuincoyotl
itzcuintli
itzin
itzintiliz
itzintlan
itzmiquilitl
itzonquizaliz
itzotl
itztic
itztli
itztoqueh
itztoyan
itɬ
iuan
iuanistli
iuaya
iuetiska
iuh
iuhca
iuhcayotl
iuhqui
iuhquimma
iuhquin
iuhquiyo
iv
iwan
ix
ixachi
ixachitecah
ixachitla
ixachitlan
ixba
ixcahuilli
ixcuaitl
ixcuamolli
ixeliuhca
ixeliuhcayo
ixexeliuh
ixihmachoni
ixihuiyo
iximacho
ixiptla
ixiptli
ixizhuatl
ixkuamoli
ixmaniliztli
ixmati
ixneci
ixneciliztli
ixneska
ixochicual
ixochihcual
ixolal
ixpan
ixpantlalli
ixpantzinco
ixquich
ixquichca
ixquichtin
ixtehuilotl
ixtelolohtli
ixtelolotl
ixtenco
ixteocalco
ixtetl
ixtezcatl
ixtla
ixtlahuac
ixtlahuacan
ixtlahuahcan
ixtlahuatl
ixtlapachijtok
ixtlapachitok
ixtli
ixtlilxo
iyac
iyaohuan
iyaoyo
iyatl
iyejle
iyetlalchi
iyeyan
iyoh
iyoliliz
iyoliz
iyollo
iyolo
iyolxic
iyuhqui
iyuhquin
iz
izcalli
izcaltiliztli
izcayaliztli
izhua
izhuatl
izqui
izquierdo
izta
iztac
iztacalco
iztaccihuatl
iztactepoztli
iztahuia
iztapalapan
iztapan
iztatl
iztetl
iztitl
iztla
iztlacatiliztli
iztlactli
iztoque
iztoqueh
j
ja
jack
jacks
jackson
jacques
jaguar
jalisco
jamaica
james
jan
japan
japo
japon
japone
jardi
jared
jarocho
javier
jazz
je
jean
jehova
jeronimo
jersey
jerusalem
jerusalen
jesu
jesucristo
jesus
jesutzin
jetta
ji
jico
jime
jimmy
jma
jn
jo
joan
joaqui
joe
johann
john
johnny
jonas
jordania
jorf
jorge
jose
josefa
joseph
josetzin
jour
journal
joyful
jpa
jpg
jr
ju
jua
juan
juana
judai
judas
judea
judeatlacah
judeayotl
judiocayotl
juegan
jueves
julia
julio
junio
junior
just
justo
jw
k
ka
kaan
kabul
kabushiki
kachi
kacke
kah
kajel
kakan
kakatsak
kakatsatlakatl
kakauatl
kakawatl
kakomistli
kakomixtli
kalahki
kalayotl
kali
kalifornia
kalingrado
kalkuaitl
kalli
kalmanayotl
kalnali
kalpoli
kaltlamachtiloyan
kaltsomitl
kaltson
kamachali
kamatl
kamauak
kameyotl
kamilektik
kamojtli
kampa
kampaxoa
kampech
kan
kana
kanahya
kanaj
kanajya
kanata
kanautia
kanji
kankun
kansas
kant
kantucky
kapital
kapostik
kapranos
kardia
karl
karttunen
kastiah
kastiahtlahtolli
kat
katakana
katalanisch
katka
katkaj
katli
katliueli
katze
katɬ
kauayo
kauf
kaufen
kauitl
kautik
kawa
kawayoh
kaxtilantlajtol
kaxtilantlajtoli
kaxtilantlajtolkuepa
kaxtilantlajtoltika
kaxtiltekahmeh
kaxtiltekatl
kaxtiyatlajtoli
kaxtolli
kaxtolpoali
kayuko
ke
keane
keaneshaped
kechtli
keep
keha
kej
keja
kellog
kema
kemaj
keman
kemej
kemman
ken
kena
kenami
kenaya
kenime
kenke
kense
kentsin
kenwak
kepak
keretaro
kette
keuning
kevin
kg
ki
kiauitl
kic
kichijchiua
kichiua
kichiuaj
kichiwah
kiefer
kiihtoa
kiijto
kiijtouaj
kiixpolos
kijij
kijtosneki
kikua
kikuaj
kikuitiah
kilia
kilitl
kiliwa
kill
killers
kilo
kimelaua
kimichin
kimichtlapeuali
kin
kinamakah
kineki
kineltokah
kineltokaj
kinepa
king
kingdom
kings
kinin
kinks
kinkuitiah
kintekiuisej
kintokayotiaj
kipia
kipiaj
kipixka
kipixtok
kipiya
kipiyah
kisa
kisas
kiseliaj
kisenkaua
kisenkauaj
kitas
kitekiuiaj
kitekiuiya
kitekiwiah
kitokah
kitokaxtiah
kitokayotiah
kitokayotiaj
kitosneki
kiuika
kixtia
kixtianotlajtoli
klappbrustschildkro
klb
klein
km
knights
know
known
ko
koajtitlantlapiyalmej
koajtlaj
koaokuilko
koapatli
koatl
koatochij
koauitl
koba
kochi
kochiuayan
kokolis
kokolli
kokoxki
koloa
kolombia
kolwahkan
komali
komalli
konemej
kong
konjunktion
korea
korsar
kosamalotl
koskatlan
kostarrika
kostik
kostli
kotomitl
koua
koyochichi
koyotl
krieg
kro
krug
ku
kua
kuachtli
kuaitl
kuajkualoli
kuajli
kuak
kuakua
kuakuaue
kuakuauitl
kuali
kualli
kuatlajketl
kuatlajtli
kuatochi
kuatochijmej
kuauitl
kuaukuetspalin
kuausayoli
kuautik
kuauuiteki
kuaxilotl
kucing
kuemitl
kuepa
kuesoli
kuetlachtli
kuetlaxochitl
kuetlaxtli
kuextekapan
kueyatl
kuh
kui
kuika
kuikani
kuikatl
kuikuiliani
kuikuitskatl
kuiloa
kuitlakali
kwa
kwahtemallan
kwaitl
kwakwaweh
kwalli
kwanahwato
kwatlakketl
kwauhtli
kwawillan
kwawitl
kwawnawak
kwawtlah
kwetlaxkowapan
kwi
kwɑ
kyiv
kɑlpo
kɑni
l
la
lab
labrador
lac
lado
lady
laelia
lago
laguna
lagunas
lal
lalax
lalaxcuahuitl
lalaxtli
lama
lambeosaurus
lamborghini
lamo
lan
lanca
lancer
land
lange
language
languages
langue
lani
lanque
lantli
larga
las
last
lati
latin
latina
latinmachiyo
latino
latintlahto
latintlahtolcopa
latintlahtolli
latintlahtoltica
latintlajtoli
latintlajtoltika
latrans
lauper
laura
lbumes
lc
lca
lcacahuatl
lcachi
lcah
lcahua
lcameh
lcamohtli
lcaquiztli
lcatl
lcaxitl
lcenyeliztli
lchi
lchica
lchihuitl
lci
lco
lcopa
lcuepa
lcuepaliztli
lcueptli
lcui
lder
le
lee
leer
left
legumbre
leguminosas
leh
leiden
leipzig
leiter
lengua
lenguas
lennon
leo
leon
leona
leonardo
leonor
leopardo
leopardus
lepus
lerdo
les
lesoto
let
letl
leto
letonia
letra
ley
lez
lhua
lhuactli
li
lia
liah
liani
libano
liberia
libertad
libia
libre
libro
libros
lic
lica
liceo
licht
lico
licoqui
licos
lida
lie
liechtenstein
lied
lieder
liegen
life
liga
light
lih
lihqueh
like
lila
liliana
liliztli
lima
limacuahuitl
limaxocotl
limo
limoj
limon
limonxocotl
lin
linda
lindo
lingu
lingua
link
links
lino
lis
lisboa
list
literatura
little
live
liverpool
lix
liya
liz
lizmatiliztli
lizta
liztli
lizyaca
ll
lla
llah
llahcayo
llahqueh
llahtohca
llamadas
llanos
llave
lli
llo
lloh
llohca
llohco
llorona
llotl
lm
lmatiliztli
lmeh
lmelauhcan
lmo
lmoteca
lna
lnepantlah
lo
loa
loc
localidad
locci
loce
lockhart
loco
logo
logos
loh
loli
lolli
lome
lomo
lonce
londin
londres
lone
lonely
long
lonna
lope
lord
lorena
lorenzo
loreto
los
losing
lost
lotl
lotor
lotus
louis
love
lovers
lp
lpa
lpachihuiliztli
lpan
lpane
lpantlahto
lpehua
lpi
lpo
lpolo
lpoloh
lpopocac
lqui
lte
ltecpantiliz
ltecpantiliztli
lteo
ltepe
ltepoztli
ltetl
lti
ltia
ltic
ltica
lticpac
lticpactli
lticpama
ltiliztli
ltima
ltimo
ltin
lto
ltomatl
ltzacua
ltzapotl
ltzin
ltzintli
ltzontzin
lu
lucas
luchterhand
luci
lucia
ludwig
lugar
lui
luis
luisiana
luja
lumie
luna
lunes
lupus
lust
lutero
luxemburgo
luz
lvarez
lvaro
lxeliuhca
lxo
lxocotl
lyacatl
lynx
lyo
m
ma
maaya
mac
maca
macamo
macedonia
macehualcalpolli
macehualiztli
macehuallahtolcopa
macehuallahtoliztli
macehuallahtolli
macehuallahtolloliztli
macehualli
macehualmeh
macehualmihtotiztli
macehualteizcaltiliztli
macehualtin
macehualtlacah
macehualtlacameh
macehualtlacatl
macehualtlahtolli
macehualtzintin
macehuameh
mach
macheh
machilia
machiliztli
machiotl
machiyo
machiyotl
machiztli
macho
machti
machtia
machtiliztli
machtli
macihui
macoc
macuilcempoalpa
macuilli
macuilpohualxihuitl
macuilpohualxiquipilli
macuiltetl
macuilxiquipilli
madagascar
made
madera
madero
madre
madrid
madriz
magazine
magdalena
magic
magical
magno
magnoliofitas
maguey
mah
mahcehualtic
mahcihui
mahcuilpohualxihuitl
mahma
mahoma
mahomatla
mahomayotl
mahpilli
mahtla
mahtlac
mahtlacpohualli
mahtlactetl
mahtlactli
mahtlacxiquipilli
mahtlaktli
mahtli
mahuiltiah
mahuiltiliztli
mai
main
maine
maint
mais
maitl
maj
major
majtlaktli
make
making
makuili
makwilli
mal
mala
malacameh
malacatl
malakatl
malasia
malezas
mali
malinal
malinalco
malinalli
malintzin
malla
mallacatl
malli
mallorca
malpahin
malpaso
malpopo
malta
malte
maltia
malvinas
malxo
mam
mama
mamachiyo
mamali
mamalli
mamazacoah
mambo
mami
mamifero
man
mana
manahuac
mancha
mandi
manel
manera
manga
mani
manila
maniliztli
manilla
mann
mano
manoeuvres
manolito
manos
mante
mantoc
manual
manuel
manuscrito
manzana
map
mapache
mapachi
mapachihtli
mapachtin
mapachtli
mapatoltiliztli
mapichtli
mapili
mapilli
mapo
mapuchetlahtolli
mar
marc
march
marco
marcos
mari
maria
mariachi
mariae
mariano
mariatzin
marie
marimba
marina
marino
mario
mark
marruecos
mars
marshall
marta
marti
martin
marx
mary
maryland
marzo
mas
masa
masatl
maseuali
maseualmeh
maseualmej
masewalli
masewalmeh
masewaltlahtolli
masewaltlakameh
maske
maski
massachusetts
massospondylus
mastretta
mat
matamoros
matar
matel
mateo
mateos
mati
matiliztli
matine
matl
matlactetl
matlahcuilo
matlalcalpan
matlalcueyeh
matlaltic
matlaltik
matlapantli
matlatl
matlatzalan
matlatzinco
matratze
matsajtli
matthew
matzahtlah
matzahtli
mauiltiaj
mauritania
max
maxima
maxtla
maxtlatl
maxtli
maxton
maxtontli
may
maya
mayaaltepetl
mayab
mayah
mayana
mayanalistli
mayantli
mayapan
mayatl
mayatla
mayatlacah
mayatlacameh
mayatlahto
mayatlahtolcopa
mayatlahtolli
mayatli
mayaui
maye
mayej
mayo
mayor
mayotte
maz
maza
mazacoatl
mazahuahtlahtolli
mazahuatlahtolli
mazama
mazatl
mazatlan
mazaxocotl
mazda
mazqui
mc
mccarthy
mccartney
me
mean
meaning
meanings
means
mec
mecahue
mecahuehuetl
mecameh
mecano
mecatl
mecayapan
mecayotl
mecitli
medalla
media
medicarum
medina
medio
mediterra
mediterraneo
meer
meetstitlan
meetstli
meh
mejor
mekatl
mekaueuetl
mekayapan
mela
melahua
melahuac
melahualiztli
melanoplus
melawa
meleagris
melilla
mello
membrillo
membrillocuahuitl
memorial
memories
men
mendieta
mendoza
meneses
menos
mephitidae
mercedario
mercedes
mero
mes
mesa
mesoamerica
mesoamerican
mesoamerika
mesoamerikah
mestli
metal
meteo
metl
metlapilli
metlatl
metli
metro
metropolitana
metros
metstli
metz
metztitlan
metztli
meuhcatzan
mewkatsan
mexcalli
mexica
mexicah
mexicali
mexican
mexicana
mexicano
mexicanos
mexicanus
mexicatl
mexicayotl
mexico
mexihcah
mexihcatecpillahtolli
mexihcatl
mexihco
mexihcopa
mexihko
mexihtli
mexika
mexikali
mexikameh
mexikanische
mexikanoh
mexikatlajtoli
mexiko
mexixquilitl
mexkali
mexkatl
mexko
mexkoaltepetl
mexkotlali
mextin
meya
mez
mezcal
meztli
meſmo
mfy
mi
miac
miacca
miacci
miacquin
miactin
miahtia
miak
miake
miakin
miaktin
miami
miaqui
miaquin
miaquintin
mic
mica
micca
miccailhuitl
miccalli
miccatlatatactli
michael
michel
michhuacan
michhuahca
michhuahcan
michhuahcatlahto
michhuahcatlahtolli
michhuahqueh
michigan
michin
michoaca
michtin
michuakan
michwahka
michwahkan
mico
micqueh
micqui
microbandas
mictampa
micti
mictia
mictih
mictilo
mictla
mictlampa
mictlampan
mictlan
mictlantlapcopa
mictli
mie
miec
miecpa
miecquintin
miectin
miekayotl
miequin
miequintin
might
miguel
migueltzin
mihcuiloa
mihtiliztli
mihto
mihtoa
mihtoaya
mihtotia
mihtotiztli
mihtotli
miiyotzin
miki
mikik
mikilistli
mikistli
miktlampa
miktlanpa
mil
milagros
mili
milic
millah
millares
miller
millo
millones
milpa
miltepeuajkan
miltin
miltomatl
mimiauakaxitl
mimichtin
mimiztin
min
mina
minas
mind
mineral
minesota
minutos
miqui
miquih
miquiliztli
miquiz
miquizilhuitl
miquiztin
miquiztli
mir
mis
misiones
miskiihtik
mismo
mission
misspelling
misteriosa
mistery
mistli
miston
mistontli
misuri
mit
mitl
mitoa
mitohtiztli
mitohtli
mitschajkos
mitsubishi
mitz
mixi
mixte
mixteca
mixtecah
mixtecatlahtolli
mixtli
miyac
miyak
miyaquiliztlahtolehqueh
miyaquin
miyec
miyek
miyones
mizquitic
mizquitl
miztli
mizto
mizton
miſmo
mm
mn
mo
moa
moaltia
moc
moca
mocahuah
mocallotia
moch
mochi
mochihua
mochihuaya
mochihuaz
mochin
mochintin
mochipa
mochitl
mochiua
mochiuh
mochiuhqui
mochiwki
mochololih
moctezuma
mocua
mocue
mocuep
mocuepa
mocuepaz
mode
modern
moderno
mofeta
mohcuiloa
mohualcuep
mohuehcauh
moi
moihcuiloa
moihkwiloa
moihtoa
moijtoa
moises
moixmati
moixpantiaj
moixpoloseh
mokaua
mokauas
mokui
molanco
molanko
mole
molehuiya
molictli
moliktli
molina
moll
molli
molo
molotl
moma
momachtia
momachtih
momanepanoh
momati
momatqui
momattok
momento
momoloca
momomalacapi
momomalacapo
momomalacatl
momomalacato
momotlacayotl
momotlaiztli
momotlalca
momotlalcayotl
momotlalcopa
momotlaliztli
momoxtli
mompracem
mon
mona
monahua
monamacac
monamacape
monarqui
monasterio
monde
mondeo
mondrago
mone
monec
moneki
monelhuatia
monemajkiya
monemi
monequi
monequini
monextia
mongol
mongolia
mongollahto
monkeys
monografi
monster
montana
monte
montejo
montemorelos
monterrey
montsoreau
moon
mopahtiah
mopanoltisej
mopantia
mopatla
mopatlatiuh
mopatlaz
mope
mopechtecac
mopiya
mopiyah
mopo
mopohua
moquetzaz
morales
more
morelia
morelos
morena
moreno
mortales
mosaniloa
mosca
moscohuia
mosetilihtokeh
mote
moteca
motech
motecpichoani
motekiuia
motekiwia
motenehua
motequitiltia
motequitiltililia
moteuczoma
motla
motlachihua
motlacuililiztli
motlahto
motlahtoa
motlahtohca
motlakouiteuaj
motlalia
motlamati
motlamia
motlamih
motlatoltzin
motlaza
moto
motoca
motocayotia
motociclismo
motohtli
motoka
motokaxtia
motokayotia
motor
motors
motta
mou
mount
mountains
mouskouri
movimiento
mox
moxelhuia
moxelohtok
moxtlahcuilo
moxtli
moya
moyo
moyocoyani
moyolicatzin
moyollo
moyotl
moz
mozambique
mozart
mozcaltia
moztla
mpa
mpan
mpatla
mpe
mpm
mpo
mpoh
mpv
mr
msnm
mt
mto
mtv
mu
much
muerte
muertos
mujer
mujeres
mulo
multilingu
mund
mundial
mundo
municipal
municipality
municipio
municipios
munti
muntiacus
murcia
mus
muscle
muse
museo
museum
musewiki
musiał
music
musica
musical
must
mustang
mut
mw
mx
mxt
my
myrtaceae
myspace
mœnia
mɑ
n
na
naca
nacanamacoyan
nacatamalli
nacatl
nacayo
nacayotl
nacaztli
nach
nacht
nacio
nacional
naciones
nada
nagel
nah
nahua
nahualli
nahuallotl
nahuameh
nahuas
nahuati
nahuatillaliliztli
nahuatilli
nahuatl
nahuatla
nahuatlacah
nahuatlacai
nahuatlacam
nahuatlacatl
nahuatlace
nahuatlahahuitz
nahuatlahax
nahuatlahhue
nahuatlahno
nahuatlahtoanih
nahuatlahtocopa
nahuatlahtohqueh
nahuatlahtolcopa
nahuatlahtolcuepa
nahuatlahtolli
nahuatlahtoltica
nahuatlahtolxitlauhquetl
nahuatlahuacu
nahuatlahuilt
nahuatlal
nahuatlapi
nahuatlaq
nahuatlatc
nahuatlatex
nahuatlato
nahuatlca
nahuatlcalpix
nahuatlcami
nahuatlce
nahuatlcel
nahuatlcep
nahuatlchichic
nahuatlchichih
nahuatlchict
nahuatlchiy
nahuatlcua
nahuatlcuaco
nahuatlcuahuim
nahuatlcuati
nahuatlcuey
nahuatlcui
nahuatlcuihua
nahuatlhue
nahuatlhuehuel
nahuatlhuex
nahuatli
nahuatlihtl
nahuatlixcop
nahuatlixtlap
nahuatlmay
nahuatlmin
nahuatln
nahuatlnahual
nahuatlnahualt
nahuatlnecue
nahuatloch
nahuatlomm
nahuatlpam
nahuatlpohui
nahuatlpon
nahuatltecpi
nahuatltemim
nahuatltentzo
nahuatltepoz
nahuatltequim
nahuatltetex
nahuatlti
nahuatltiy
nahuatltlacatecco
nahuatltlaco
nahuatltlacoi
nahuatltlah
nahuatltlahcol
nahuatltlahtli
nahuatltlahtol
nahuatltlahuani
nahuatltlane
nahuatltlaxil
nahuatltlay
nahuatltlo
nahuatlto
nahuatlxochice
nahuatlxochin
nahui
naja
nakastsatsatl
nakatamali
nakatl
nakayotl
nal
nalco
naliztli
nalli
nalo
nalpan
nalpo
nalquizani
nama
namaca
namacape
namala
naman
name
nameyocaquizcopi
namibia
namih
namoya
nan
nana
nanacatl
nantepetlah
nantlahtolli
nantlahtoltin
nantli
nantzin
nantzintetl
nanyo
nanyotl
napiyaliztli
napoli
nara
naranja
naranjacuahuitl
naranjaxocotl
naranjo
nariz
nase
national
natiuh
native
naturales
nature
naua
nauali
naualia
naualistli
naualotl
nauatia
nauatili
nauatl
nauatlahtoanij
nauatlajtokopa
nauatlajtol
nauatlajtoli
nauatlakatl
nauatle
nauhcalpan
nauhpohualxiquipilli
nauhtetl
naui
naupoali
naupoalomatlaktli
naupoalonkaxtoli
navajo
navarra
navidad
nawa
nawatl
nawatlahtoanih
nawatlahtolli
nawi
naya
nayarit
nazaret
nazareth
nazi
nca
ncatl
ncayo
nch
nchen
nchez
nci
ncia
ncihua
ncj
ncl
nco
ncuahqui
ncuauhyo
nde
nder
ndez
ndice
ndico
ndisch
ne
nea
neahuiltiliztli
neahuiltiloni
nebraska
nec
necacapa
necah
necaliliztli
nechi
nechicoliztli
nechikolistli
nechka
nechual
neci
neco
necuhzayolli
need
negra
negro
negual
neh
nehcaliliztli
nehhua
nehhuatl
nehnemi
nehnemiliztli
nehnenca
nehpalli
nehqueh
nehua
nehual
nehuala
nehuan
nehuatl
nehwɑ
nei
neicxitapayolhuiliztli
neihcaliliztli
neil
nein
neixcahuiliztli
neixcuitilli
neixquetzaloyan
nej
nejin
nejnemi
nejpali
nejuatl
nekalilistli
neki
nekusayoli
nel
nelhuatl
nelhuayo
nelhuayotl
nelia
nelihuehcapanca
nelli
nelly
nelmatiliztli
nelmiak
neloa
neltiliztli
neltococa
neltococayo
neltococayotl
neltoquiztia
neluayotl
nemachiyo
nemachtilcalli
nemachtiliztli
nemachtilli
nemactia
nemanamictiliztli
nemanepanoliztli
nematiliztli
nemi
nemih
nemij
nemilis
nemiliz
nemilizihtlacahuiliztli
nemiliztli
nemini
nemiquiznahuatiliztli
nemontemi
nen
nena
nenayo
nenayotl
neneloaliztli
nenemi
nenemitiliztli
nenepili
nenepilli
neneuhca
neneuhcayotl
neneuhqui
neneukayotl
nenonotzalli
neo
nepa
nepal
nepantlah
nepapan
nepiquiliztli
nequatlapacholoni
nequi
nequiztic
nero
nes
nesi
neski
net
nete
netech
netecpa
netecpicholiztli
neteotiliztli
netlacentequililiztli
netlajtolmachitilistli
netlaquamilo
neto
netzotzonaliztli
neuatl
neuausgabe
neuctli
neucza
neue
neuque
neuwied
nevada
nevado
never
nevis
new
news
nexcoyotl
nextia
nextic
nextli
neyaochihualiztli
neyehyecoliztli
neyo
nez
neza
nezahualco
nezahualcoyotl
nezahualpilli
nezcayotl
ng
ngel
ngeles
ngu
ngua
nhe
nhg
nhm
nhn
nhv
nhw
nhx
nhy
ni
nia
nic
nica
nicaltlaquetzah
nican
nicanahuac
nicanahuacah
nicaragua
nicas
nichanti
nicht
nick
nicneltoca
nico
nicola
nicolas
nicpampa
nie
niger
nigeria
night
nih
nihon
nika
nikan
nikanawak
niliztli
nilli
niltse
niltze
nima
niman
nimeh
nimo
nin
ninotla
nippon
nirvana
nissan
nite
nitl
nitla
nitlatquihuah
niztica
niztli
nki
nl
nln
nlv
nna
no
noce
noceh
noch
noche
nocheztli
nochi
nochimeh
nochimej
nochin
nochintin
nochipa
nochpochtzine
nochtin
nochtli
noe
noh
nohkiya
nohpalli
nohquiah
nohuan
nohuian
nohuiya
noihqui
noihuan
noijki
noiuhqui
noja
nojkia
nojkiya
nojpali
nojua
nokia
nokka
noma
nombre
nombres
nomen
non
noncuahquizqui
noneki
nonotza
nopa
nopal
nopali
nopan
noponah
noqui
noquia
nord
noreste
normal
norte
north
northern
noruega
noruegia
nos
noso
nosotros
not
nota
notecuiyoe
nothing
nothomb
noticia
notlalouaj
notlanequiliz
notoca
notoka
notsa
nouhkiya
nouhqui
nouhquiya
noun
novae
novela
novelas
november
novemcinctus
noviembre
noviempreh
novo
now
nowkiya
noxelojtok
noxocoyouh
noyuhqui
noyuhquin
noz
nozo
nqueh
nqui
nquimilli
nquiztli
nsula
nte
ntechpa
ntepe
ntesis
ntetl
nti
ntic
ntico
ntih
ntiliz
ntiliztli
ntin
ntla
ntlahcuilo
ntlahto
ntlahtolcopa
ntlahtolli
ntlamatiliza
ntli
nto
ntoltocopa
ntzi
ntzicha
ntzin
ntzontli
nu
nudum
nuestra
nueva
nuevo
num
number
numbers
nun
nur
nylon
nyo
nyoh
nzo
nøtterøy
nɑ
o
oacico
oacicoh
oahci
oahcicoh
oaxaca
oaxaka
oaxaquen
ob
obispo
objeto
obra
obrador
obras
obrego
obres
obsidiana
oc
ocachi
ocampo
ocatca
ocatcah
occe
occepa
occeppa
occequi
occequin
occequintin
occidental
occidentalis
occidente
occitantlahto
occitantlahtolli
occupation
oce
oceania
oceano
ocelomeh
ocelomichin
ocelotl
oceloyotl
och
ochachi
ochanti
ochantih
ochihualoc
ocho
ochonetli
ochonijtli
ocnamacoyan
oco
ococolizcuiqueh
ocomiztli
ocompatlac
ocotl
ocoto
ocotochtli
ocoyacac
octacatia
octacayo
octli
octubre
ocu
ocuep
ocueponi
ocuilin
ode
oder
odocoileus
of
off
offender
official
oficial
oficio
ofrenda
og
oh
ohcalli
ohce
ohcequin
ohcequintin
ohio
ohtlatocaliztli
ohtli
ohtoca
ohtocaliztli
ohtoquiliztli
ohualeuh
ohuallah
ohui
ohuitepetitlan
oi
ois
ojo
ojos
ojtli
ok
okachi
oklahoma
okotl
okotochtli
okse
okseki
oksekimej
oksekin
oktli
ol
ola
olaf
old
oles
oli
olid
olimpicayoh
olin
olinala
olivia
olli
ollin
olmecah
olmekah
olmos
olo
olvidados
olymicayoh
om
oma
omaceuh
omalacapainaliztli
oman
omar
ome
omej
omemalacatl
omemalacaztli
omemalakatl
ometeotl
omextin
omic
omicqueh
omictiloh
omitl
omixochitl
omma
omo
omochiuh
omocuep
omocuepa
omome
omomiyaquilih
omontetl
omopeuh
omoteneuh
ompa
ompah
ompaj
ompehua
ompoali
ompoalnan
ompohualli
ompohui
ompouali
ompoui
on
onca
oncah
oncan
oncatca
oncatcah
oncateh
once
onda
ondoras
one
oneltoqui
onemi
onenemi
onenqueh
onilli
onka
onkah
onkaj
onkak
only
onna
onnahui
onoc
onohualco
onohuaya
onohuayan
onpohui
onpoui
onquimilli
ontetl
ontetocaitl
ontetokaitl
onto
ontzontli
onu
onyehuati
opan
opcional
opel
open
opera
operacio
opeuh
opochmayecampa
opochmayecan
opochtli
oppa
opuntia
oquic
oquichcuacuahueh
oquichiuh
oquichiuhqueh
oquichpilmeh
oquichtic
oquichtin
oquichtlaquemitl
oquichtli
oquihcuilo
oquihcuiloh
oquipeuh
oquipia
oquipiaya
oquipiya
oquipololo
oquitlachiuh
oquittac
oquiz
or
ora
oral
orbis
orchestral
ordaz
orden
ordenamiento
orego
oregon
org
organizacio
oriental
orientales
origen
origin
original
orilla
orizaba
orizatlan
ornatus
ornithology
oro
orozco
orti
ortodoxa
ortodoxo
oryctolagus
oryza
os
oscar
oscuro
oselotl
oso
osorio
ote
otemo
otepoztlahcuiloc
other
otictemoh
otla
otlacat
otlacati
otlachihualo
otlachihualoc
otlachiuh
otlahtohcayotelchiuh
otlan
otlaquenti
otomi
otomih
otomitl
otomitlacameh
otommanguetlahto
otonlalaxtli
otontlahto
otontlahtolcopa
otontlahtolli
otra
otros
ou
ouamilaj
our
out
over
oviedo
oxford
oxley
oxxo
oyehuati
oyeuati
oyeya
oyeyah
ozomahtli
oztoatl
oztomeh
oztotl
oztoyotl
p
pa
pablo
pacalli
pach
pacheco
pacho
pachoa
pachoh
pacholiztli
pachontik
pachopi
pachtitlan
pachtli
pachuca
pachyocan
pachyohcan
pachyohkan
paci
pacyotl
padel
padre
page
pahatl
pahcalli
pahpatlani
pahtli
pahuatl
pai
pajtli
pakali
pakilistli
pakyotl
pal
palabra
palabras
palach
palachmej
palacio
palats
pale
palehuia
palenque
palermo
palestina
paleuia
palli
palma
palo
paloma
palometa
palomita
palos
paltic
pamitl
pampa
pampas
pan
panama
panhuahuetl
pani
panic
panitl
panixeliuhca
pano
panoc
panoco
panok
panoliztli
panoni
panquiza
pantalo
panther
panthera
pantin
pantlah
pantli
pantzin
paola
papa
papalotl
papantlah
pape
papel
paquiliztli
paquimeh
paquini
paquistan
para
parachutes
paraguay
parai
parameter
pardalis
paredes
parfu
pari
paris
parque
parral
part
parte
parti
partially
particulie
partido
pas
pasa
pasar
pascua
pascual
paseo
pasifiko
paso
passat
past
pastoria
patagonia
pathways
patines
patiotl
patiyo
patla
patlani
patlanitepozcalli
patlanizolxittotomoctli
patlauak
pato
patolli
patox
patricio
patrol
paul
paulus
pavo
paxcua
paxtitlan
payi
payne
payotl
paz
pconst
pcopa
pcopatlahtohca
pdf
pe
pear
pec
pecados
pecari
pecha
pedago
pedro
pehpechtia
pehua
pehualiztli
pehualli
pelayo
peli
pellicer
pelo
pelon
pelota
pemex
pen
pene
peni
pensilvania
pentecostales
pentecoste
people
pepechtia
pepechtli
pepexocatihuitz
pepexocatiuitz
pepexokatiuitstli
pepper
peprilus
pequen
pequin
per
pera
perexil
perfect
perkins
perla
pero
perro
perros
persia
personas
peru
peruichcatl
perutla
peso
pesoh
pete
peter
petl
petlacalli
petlakali
petlatl
petlayotl
peuaj
peuali
peualistli
peugeot
peuh
peuhqui
pewki
pez
pezohtli
pfe
pfel
philip
philippines
phoenix
php
physalis
phytosaur
pi
pia
piano
pianotini
pianotli
pias
pib
pic
picasso
pichtli
picicihapan
piciyetl
pico
pie
piedra
piel
pierre
pies
pil
pilaltepetsi
pilar
pilato
pilipinas
pilkentsi
pillahto
pille
pilli
pilo
pilti
piltic
piltin
piltontli
pin
pinacatl
pink
pino
pinus
pio
piomeh
pipillahto
pipillahtolli
pipiltin
pipilton
pipintik
pipixqueh
pipiyo
pipiyolcalli
pipiyoli
pipiyolin
pipiyolli
pipiyolpixcayo
pipiyolpixcayotl
pirat
pirineo
pisco
pisiyetl
pitic
pitik
pitza
pitzahuac
pitzcoto
pitzonacatl
pitzopixcayo
pitzopixcayotl
pitzotl
pixca
pixcayo
pixcayotl
pixies
pixqueh
pixqui
piya
pizarro
pl
pla
place
plains
plan
planck
planeta
planta
plata
plateosaurus
platino
platinum
platyrhynchos
playa
playas
plaza
please
pleasure
plug
plural
plus
pmid
po
poaliztli
poblacio
pobres
poca
pochotl
pochtecatl
pochtecayotl
poco
poctli
pode
poder
poe
poemas
pohtlah
pohua
pohualxiuhpan
pohualxiuhtiliztli
pohui
pohuiah
pohuini
pojtli
poktli
pol
poli
polihuic
polis
polite
poliuhqueh
poliuhqui
polo
poloa
polohtinemi
poloko
polonia
poloniatla
polyacantha
ponah
pontevedra
pontificia
pop
popo
popoca
popocani
popocatepetl
popojkayotl
popoka
popokani
popoloca
popoloka
popololiztli
popular
population
por
porfirio
porque
porru
porsche
port
portal
portale
portilla
porto
portugal
portugalla
portugallahto
pos
posesivo
possible
possibly
post
postcla
potosi
potter
pouteria
power
poyec
poyouaj
poza
pozolli
pp
ppa
ppe
ppi
ppl
pra
prasinus
pre
prebiterianos
precla
predeterminada
preguntas
premi
premio
premios
preoccupied
preposiciones
presidenteh
press
pri
prickly
primaria
primavera
primer
primrose
prince
principales
prionailurus
pro
probable
probably
problema
problematique
procol
procyon
prodigy
programa
progreso
pron
pronomen
pronoun
proper
prosa
protestantismo
provincia
psalmodia
psidium
psoe
pt
ptlayo
pu
pua
publicacio
publique
pudu
puebla
pueblo
pueblos
puede
puedes
puente
puerta
puerto
pulque
puma
punk
punta
pure
put
putin
q
quatre
quauitl
que
quebec
quechhuatlahto
quecholtotol
quechquemitl
quechtli
quechua
quechuatlahtolli
queen
queens
queh
quemah
queman
quemantzin
quemeh
quemmach
quemman
quen
quena
quenami
quenin
quentzin
quere
queretaro
questions
quetzal
quetzalco
quetzalcoatl
quetzalli
quetzaltenanco
quetzaltototl
quez
qui
quia
quiahuitl
quicahuaz
quicauh
quicempanahuia
quicencahua
quicentlalih
quiche
quichi
quichihua
quichihuah
quichihuayah
quichihuaz
quichiuh
quichiuhqueh
quicua
quicui
quie
quiere
quihcuilo
quihcuiloa
quihcuiloah
quihcuiloh
quihcuilohqueh
quihcuiloz
quihqueh
quihtlanilih
quihto
quihtoa
quihtoah
quihtoh
quihtoznequi
quihua
quihualquixtih
quihuelquetz
quihui
quihuica
quihuicac
quihuicaya
quihuicaz
quil
quilia
quilihuatlahtolli
quilitl
quiliztli
quilmach
quiltiliztli
quimacac
quimachtia
quimah
quimati
quimi
quimichin
quimichtlapehualli
quimichtlapeualli
quimicti
quimocuilia
quimocuiliaya
quimocuilih
quimolhuili
quimomachtih
quimpe
quimpix
quimpiya
quimpiyah
quin
quina
quinahuatia
quinahuatih
quinceliah
quinchi
quine
quineltocan
quinequi
quinextia
quinezcayotia
quinhua
quinihcuac
quintana
quinte
quintepan
quinti
quintin
quintla
quintlaliah
quintlamacah
quintlatlalochtia
quinto
quinyaochihua
quio
quipahtilih
quipanahuia
quipanotlac
quipatla
quipatlah
quipe
quipi
quipia
quipiah
quipiaya
quipiayah
quipiqui
quipitzah
quipix
quipixtoc
quipiya
quipiyah
quipiyaya
quipo
quipohua
quiquiuhpatoltiliztli
quite
quitechihualtiani
quitenehua
quiteneuh
quitequihuiah
quitilti
quitiltilia
quitla
quitlahto
quitlahtoa
quitlahtoah
quitlaliz
quitlamih
quito
quitoca
quitocah
quitocayotiah
quitoznehqui
quitoznequi
quitqui
quitta
quittac
quittaz
quittepanitan
quitzacutihuitz
quitzacutiuitz
quitzintia
quixmati
quixote
quixotomecayotia
quixtia
quixtianayo
quixtiani
quiya
quiyahualoa
quiyahuitl
quiyauhcuauhtlahtli
quiyauhcuauhtlatli
quiyehyecoa
quiyehyecoh
quiyo
quiyocoya
quiyotl
quiz
quiza
quizaliztli
quizaya
quizqueh
quizqui
quz
r
ra
radio
rafael
rain
rally
rami
ramo
ramon
rancho
rangifer
rara
rassi
rat
rata
rato
ratzinger
ray
raymond
rbol
rboles
rcito
rdoba
re
rea
reach
read
real
realidad
reas
reasons
reassembling
records
recuadro
recuperado
red
redondo
ref
referencias
reforma
regenwald
regio
region
regional
reino
reise
relaciones
religio
religion
remedios
remi
remix
ren
renault
rene
replacement
report
reptile
repu
republic
republica
republika
rerum
res
resorte
resultados
retrieved
revelations
review
revista
revival
revolucio
revolucionario
revolver
rex
rey
reyes
reynosa
rez
rhode
ri
rica
ricardo
ricas
rice
rich
richard
rico
rida
rika
rin
ring
ringo
rio
rioja
rita
rito
rivas
rivera
rmula
rnchen
rner
ro
road
robert
rock
rocky
rodolfo
rodri
rodrigo
roja
rojas
rojo
roll
roma
roman
romana
romance
romano
romatlahto
romatlahtolli
romayotl
romeo
romero
ronnie
roo
rosa
rosales
rosario
rosarito
rosas
roseta
rosia
rosita
ross
roundstone
rowling
roy
rpa
rquez
rraga
rrez
rs
rter
rtico
rts
ru
rubra
rucervus
ruder
ruiz
rulfo
rumania
rumaniatlahto
running
rusa
rush
rusia
rusiatlahto
rutaceae
rwort
s
sa
saavedra
sabor
sacra
sacramento
sahagu
saint
sajones
sakapowaxtlan
sakatekapan
sakatl
sakatlan
salado
salamanca
salem
sales
salgado
salgari
salina
salinas
salle
saloon
saltillo
salto
salud
salvador
salz
salzburg
salzig
sam
samurai
san
sanctorum
sandokan
sandoval
sandunga
sangre
sankemman
sanmohtoa
sanpampa
sanscritotlahto
sanse
sansejko
sant
santa
santiago
santo
santos
sar
satepan
sayoli
sayolin
scheiße
schiff
schiffe
schiffsruder
schild
schildkro
schilf
schilfrohr
scho
school
schreiber
schultern
scientist
sciurus
scott
se
sea
search
seat
seattle
sebastian
seconds
secretari
secrets
secuencia
secundaria
seda
sede
see
seera
segovia
segu
segunda
segundo
sei
sein
sej
seki
sekij
sekin
sekinok
sekitok
seleccio
selena
semana
semanaj
semanauak
semanauatl
semanawak
semantiuitstli
semaxkayotl
semi
semilla
semiluitekitl
sempouali
sen
senegal
senka
senkah
sentik
sentikmasewalmeh
sentli
sentsontli
sentzontli
sentzun
sep
sepa
sepan
sepayauitl
septiembre
ser
serbia
serbiatlahto
sergio
series
serpiente
serv
servicio
ses
sesek
seseya
set
setilistli
seua
seven
several
sevilla
sexto
seyok
sfera
sgt
shadowplay
shake
shakespeare
shakira
shannon
she
sherlock
shoot
shore
show
showbiz
shroeder
si
sica
sicas
sich
sicilia
sico
side
sido
sidra
sie
siempre
sierra
siete
siglo
sign
signo
sijtli
sil
silencio
silla
silva
sima
sime
simeon
simo
simon
simple
simpson
simpsons
sims
sin
sinaloa
sind
sing
singapur
single
sings
singuilucan
singular
sinkoatl
sinonimos
sintli
sir
siria
sistema
sistemas
sisters
site
sites
sitio
sitlali
siuamej
siuanauali
siwameh
siwatl
siwatlanpa
sklave
sky
skyline
sled
slim
small
smile
smith
smo
sneki
snow
snowed
so
soberano
sobre
social
socialista
sociedad
socorro
software
sokitl
sol
solanum
solar
soledad
soleil
soles
solin
solo
solola
sombrero
some
somebody
something
sometimes
somewhere
somos
son
song
songs
sonora
soriana
sosoltik
soto
soul
soumaya
south
spa
space
spanisch
species
speed
spelling
spilogale
spiralling
spirit
split
sport
spp
sprache
sprachen
sri
sse
ssen
st
sta
stanford
star
starlight
starr
state
states
static
ste
stechmu
steidl
stein
sternschnuppe
sterreich
steve
sti
stica
sticas
stico
stin
stirn
stockente
stoermer
stolz
stone
story
strains
strangers
street
struthiosaurus
stuttgart
su
sua
suahilitlahto
subfamilia
subge
sudan
suecia
suen
suf
suhrkamp
suiza
sullivan
sun
sunburn
super
superficie
superior
superiores
supermassive
sur
sureste
surinam
sus
susan
susana
sustantivo
svk
sweet
swz
sydney
symmetry
syn
synonym
systema
søren
t
ta
tabasco
table
taboada
tachcauh
tacubaya
taekwondo
tag
tagetes
tah
tahtli
tahyotl
taihuan
tailandia
tajkuilol
tajtoua
takat
take
talbot
talento
talk
talli
tam
tamachi
tamaj
tamal
tamali
tamalli
tamaolipan
tamasolin
tamaulipas
tamazolin
tamazolli
tamazunchale
tambie
tampico
tampiko
tan
tanga
tango
tano
tantoyuca
tanzania
tapar
tapir
tar
taro
tata
tatahuicapan
taube
taurus
tay
tayiquistan
tbol
tca
te
teachcauh
teatro
tec
teca
tecactli
tecah
tecamac
tecate
tecciztli
tecentlaliliztli
tech
techalo
techalomeh
techalotl
techcopa
techiuhcayotl
techpa
techpocamej
tecnolo
teco
tecochtli
tecolli
tecolo
tecolotl
tecomate
tecomatl
teconalli
tecpan
tecpatl
tecpilli
tecpilnahuatlahtolli
tectli
tecuacan
tecuani
tecuanimeh
tecuantepec
tecuexanoani
tecuhtli
tecuhyotl
tecui
teetlalkwihkwilistli
tegui
teh
tehhua
tehtlahtol
tehua
tehuaca
tehuampoh
tehui
tehuilia
tehuilotl
teichtacamicti
teicniuh
teicniuhtia
teide
teikniu
tein
teipa
teipan
teixehuani
teixiptlatiliztli
tekax
teki
tekipanoa
tekiti
tekitih
tekitinih
tekitl
tekiuajyotl
tekoko
tekolotl
tekomatl
tekonali
tekpili
tekpilotl
tekuajketl
tekuaketl
tekuani
tekwani
tekwanimeh
tel
telchpocah
telebachillerato
telefunka
telesecundaria
televisio
telolohtlah
telpocameh
telpochtli
telpokamej
tema
temaca
temachtia
temachtiah
temachtiani
temachtianimeh
temachtiliztli
temachtilli
temachtiloyan
temamatlatl
temamauhtini
temapachic
temas
temascaltepec
temaxac
temazatl
temazcalapan
temazcalli
temazcaltepe
temazcaltepec
temazoaya
teme
temetztli
temi
temiki
temikilistli
temiktli
temixko
temo
temoa
temocaquiltia
temocpan
temolin
temperatura
ten
tena
tenacatl
tenamiki
tenamiqui
tenamitl
tenco
tenechicolli
tenehualo
tener
tenerife
tenextli
tenis
tenkixtia
tennessee
teno
tenochtitlan
tenquixtia
tentli
tentsonchilkostik
tentsonistatik
tentsontli
tentsontliltik
tentsonxokotl
tentsonyo
tenya
tenyo
tenyoh
tenyohtica
teo
teoamoxtli
teocalco
teocalli
teocotl
teocuahuitl
teocuicatl
teocuitlatl
teoh
teohuah
teomatiliztli
teoneltococayotl
teonochtli
teopan
teopantli
teopixcacan
teopixcatlatoani
teopixqueh
teopixqui
teopohua
teotihuahcan
teotiwakan
teotl
teotlacatl
teotlahcuilolli
teotlahtolli
teotlalli
teotsapotlan
teotzin
teoyoh
teoyoliatl
teoyotica
teoyotl
tepa
tepacho
tepachoa
tepachoani
tepacholiztli
tepahtiloyan
tepalehuiliztli
tepaleuilistli
tepan
tepane
tepanecah
tepanecatl
tepanekapan
tepantli
tepapaquiltiliztli
tepe
tepec
tepehuahcan
tepehualiztli
tepehuanimeh
tepeliztli
tepemeh
tepemej
tepenahuac
tepeoztoyotl
tepeticpac
tepetl
tepetlah
tepetlampa
tepetlan
tepetlatl
tepetzintli
tepeuajkan
tepeuhtihuitz
tepeuhtiuitz
tepeyacac
tepeyoh
tepeyohtic
tepeyolkej
tepeyolotl
tepi
tepic
tepik
tepito
tepiton
tepitzin
tepo
tepochcalli
tepochcaltlamachtiloyan
tepocolcoatl
tepoli
tepolli
tepoltzontli
teponaztli
teposakamitl
teposapastli
teposapiluamina
teposkali
teposkalmimiloli
teposmalakakaltetl
teposmekatl
teposmoyotl
tepostekko
tepostototl
teposyolotl
tepoxteco
tepozapaztli
tepozcalli
tepozcaxitl
tepozcoaohtli
tepozcoatl
tepozcuaitl
tepozmalacatl
tepozmalacatzin
tepozmecatl
tepozmo
tepozmoyotl
tepozocuilin
tepozpatlanqui
tepozteco
tepoztequitiyotl
tepoztlamantli
tepoztli
tepozto
tepoztotoquixohuayan
tepoztototl
tepoztototlatiloyan
tepozyo
tepuzmoyotl
tequi
tequia
tequichihualiztli
tequihuah
tequihuahmeh
tequiliztli
tequilla
tequipano
tequipanoa
tequipanoliz
tequipanolli
tequitih
tequitiliz
tequitiliztli
tequitiltiloni
tequitini
tequitl
tequitlatoliztli
tequiuh
tequixquiac
tequiyo
tequiyotl
teresa
terminacio
terminal
terra
terranova
territorio
teskatl
tesokitl
tesoquitli
testigos
tetech
tetehuitl
tetelli
teteltzinco
teteo
teteoh
tetitlaniliztli
tetitlaniztli
tetl
tetlacahualtilli
tetlacaquiltiliztli
tetlamachilli
tetlamantli
tetlanahuatiani
tetlanehui
tetlaneltoquitiani
tetlaneui
tetlanohnochililiztli
tetoquilih
tetrao
tetzacutica
tetzauhquimichin
tetzcoco
tetzcohco
tetzontli
tetzontzapotl
teuctli
teucyotl
teuilotl
teutonte
teutontecatl
teutontekatl
teutontla
teutontlahto
teutontlahtolli
teutontlajtoli
teutontlakatl
teutontlalpan
texas
texcalli
texcoco
texcohco
texihuitl
texococuahuitl
texocotl
texohpa
texohtic
texohtli
texotik
textli
texto
teyaca
teyacanaliztli
teyacanqui
teyacatih
teyaochihuani
teyaochiuani
teyaochiuhcayotl
teyoh
teyolahcocui
tezcatl
tezcatlipoca
tezohzomoc
tezontzapotl
tezoquitl
tezozo
tezozomoc
th
than
that
the
their
then
theropod
thesaurus
these
things
this
thomas
thompson
thomson
through
ti
tia
tiacauh
tiachcauh
tiachcauhtli
tiachkautli
tiamicalli
tiamikali
tianguis
tiani
tiankistli
tianquistli
tianquiztli
tiburo
tic
tica
ticas
ticchihuaz
ticcualtiliz
ticmatoca
ticnequi
tico
ticpac
ticpiya
tictemoz
tictemoznequi
tictlaxtlahua
tictocayotia
tiempo
tiene
tier
tierra
tigre
tigris
tih
tihualah
tihueli
tijuana
tik
tikmati
tikmatis
tikneki
til
tili
tilia
tiliztli
tilmahtli
tiltik
tim
time
times
timitztlatlauhtiliah
timor
tin
tinahuatlahcuiloa
tine
tini
tip
tipo
tiquihcuiloz
tiquihcuiloznequi
tiquin
tiquittaznequi
tisatl
titechpalehuia
titlahcuilozqueh
titlahtoa
titlan
title
tiweli
tixtlah
tiya
tiyanquiztenco
tiyanquiztiloyan
tiyanquiztli
tiz
tizatl
tizatla
tizayohcan
tizoc
tl
tla
tlaa
tlaachcauhtilli
tlaahhuiyaliztli
tlac
tlaca
tlacah
tlacalhuaztli
tlacaliztli
tlacamayeh
tlacamecayotl
tlacameh
tlacametl
tlacamichin
tlacamilqueh
tlacat
tlacatecolotl
tlacatepacholiztli
tlacateuccan
tlacateuh
tlacati
tlacatian
tlacatilizilhuitl
tlacatiliztli
tlacatiya
tlacatiyan
tlacatiyanco
tlacatiyancuicatl
tlacatiz
tlacatl
tlacatlahtocayotl
tlacatlahtohcayotl
tlacatlalticpactli
tlacatocaitl
tlacatototl
tlacatqui
tlacatzin
tlacatzintli
tlacaxolotl
tlacaxoxouhcayotl
tlacayomeh
tlacayotl
tlace
tlaceceya
tlacempanahuia
tlacempanahuiani
tlacempoaliztli
tlacempohualiztli
tlacentlamianiliztli
tlacetili
tlacetilia
tlacetilillahtohcayotecatl
tlacetililli
tlachco
tlachi
tlachicna
tlachico
tlachicuazti
tlachicue
tlachihua
tlachihuah
tlachihualcalli
tlachihualiztli
tlachihualli
tlachihualo
tlachihualotiliztli
tlachihualtlacayotl
tlachihuani
tlachihuatlacayatl
tlachihuatlacayotl
tlachijchikej
tlachiuali
tlachiualistli
tlachiualok
tlachiucna
tlachiuh
tlachiuhcayotl
tlachiuhqui
tlachiuhtli
tlachiya
tlachko
tlacilacalli
tlaco
tlacohtli
tlacomo
tlacopan
tlacotl
tlacotli
tlacoyotl
tlacua
tlacuache
tlacuachin
tlacuah
tlacualcayotl
tlacualchihualoyan
tlacualiztli
tlacualli
tlacuepqui
tlacui
tlacuicaliztli
tlacuicuiliztli
tlacuilo
tlacuiloa
tlacuilolli
tlacuitlapanca
tlaelpantlan
tlah
tlahcicaittaliztli
tlahcicamatiliztli
tlahco
tlahcoixachitla
tlahcomiztli
tlahcopampa
tlahcopan
tlahcuilo
tlahcuiloa
tlahcuiloani
tlahcuiloh
tlahcuilohqueh
tlahcuilolamatl
tlahcuiloliztli
tlahcuilolli
tlahko
tlahkwilolamatinih
tlahkwilolamatl
tlahmachtli
tlahne
tlahtic
tlahtlahto
tlahtlahtolcopa
tlahtlaniliztli
tlahto
tlahtoa
tlahtoah
tlahtoani
tlahtoanih
tlahtoca
tlahtocac
tlahtocateixiptla
tlahtocatlahtoani
tlahtocayotl
tlahtohca
tlahtohcapilli
tlahtohcate
tlahtohcatlahtoani
tlahtohcauh
tlahtohcayotl
tlahtohkayotl
tlahtohqueh
tlahtohquih
tlahtolamoxtli
tlahtolcaquiztli
tlahtolcencahualli
tlahtolcopa
tlahtolcuepa
tlahtolcueptli
tlahtolihcuiloliztli
tlahtoliztli
tlahtollaliani
tlahtolli
tlahtoloyan
tlahtolpoaliztli
tlahtoltecpanaliztli
tlahtoltin
tlahtolxitlauhcayotl
tlahuac
tlahuactli
tlahuana
tlahuanqui
tlahuantli
tlahuatzalli
tlahuel
tlahuelmaya
tlahuelmayan
tlahui
tlahuicapan
tlahuilli
tlahuitolli
tlahxillacalli
tlahzo
tlai
tlaihiyohuatilocqueh
tlaihtic
tlaixconaliztli
tlaixcopinaliztli
tlaixihmachtli
tlaixmatiliztli
tlaixpayotl
tlaixpololiztli
tlaj
tlajko
tlajtoa
tlajtoani
tlajtojli
tlajtokayomej
tlajtokayotl
tlajtolamoxtli
tlajtoli
tlajtolkuepa
tlajtolkuepalistli
tlajtolli
tlajtolmachiotl
tlajtolmatilistli
tlajtouali
tlakameh
tlakamej
tlakanechikoli
tlakati
tlakatian
tlakatilia
tlakatilistli
tlakatki
tlakatl
tlakilyotl
tlakitkali
tlakojketl
tlakomoli
tlakotl
tlakotli
tlakoualistli
tlakuali
tlakualistli
tlakuiloa
tlakuiloli
tlakwalistli
tlakwapilli
tlal
tlalcacahuatl
tlalcamohtli
tlalcoyotl
tlalhuac
tlalhuactli
tlali
tlalia
tlalilanketl
tlalin
tlalli
tlalmeh
tlalmej
tlalmi
tlalnantli
tlalnepantlah
tlalnetoqui
tlalocelotl
tlalocpan
tlalolin
tlaloxtli
tlalpan
tlalpilli
tlalpitzotl
tlalpixcayo
tlalpixcayotl
tlalpo
tlalpoloani
tlalpololiztli
tlalquipac
tlalquixtiani
tlalquixtianimeh
tlaltepaktli
tlalticpac
tlalticpactli
tlaltikpak
tlaltikpaktli
tlaltin
tlaltipac
tlaltocaitl
tlaltocayotl
tlaltojkayotl
tlalxeliuhcayotl
tlalxelolli
tlalxiukauali
tlalxotla
tlalxotlaliztli
tlalyacatl
tlalyo
tlama
tlamacazqueh
tlamacazqui
tlamachiyo
tlamachiyotiliztli
tlamachtianih
tlamachtianij
tlamachtiliyan
tlamachtiliztli
tlamachtiloyan
tlamachtiltequitl
tlamachtiltlayacanquetl
tlamachtiyanih
tlamahmaquiliztli
tlamahtla
tlamahuichihuani
tlamahuichihuanih
tlamahuizo
tlamahuizolli
tlamahuizoltequitini
tlamanalhuiani
tlamaneloa
tlamaneloliztli
tlamaniliztli
tlamanitiliztli
tlamaniztli
tlamanti
tlamantic
tlamantin
tlamantli
tlamatiliz
tlamatilizneneuhcayotl
tlamatiliztli
tlamatini
tlamatinimeh
tlamatizquiazqueh
tlamatocac
tlamentli
tlami
tlamiliz
tlamiliztli
tlan
tlana
tlanahuahquez
tlanamaca
tlanamacatiliztli
tlanamacoyan
tlanamoyani
tlanamoyanimeh
tlanawatihkayotl
tlancuaitl
tlane
tlanechicoliztli
tlanehnewillotl
tlanehui
tlanehuia
tlanelhuatl
tlanelhuatlamantli
tlanelhuayo
tlanelhuayotl
tlanelihtoani
tlaneloa
tlaneltocani
tlaneltoquiliztli
tlanemani
tlanemi
tlaneui
tlaneuia
tlani
tlanitla
tlanitlalpan
tlano
tlanonotzaliztli
tlantli
tlanxinol
tlao
tlaoli
tlaolli
tlaolo
tlaololo
tlaoncayotia
tlapa
tlapachiuhca
tlapachko
tlapale
tlapalehuia
tlapalehuiliztli
tlapaleuiliztli
tlapali
tlapalilok
tlapalli
tlapalnamacoyan
tlapaloctli
tlapaltecacayahtli
tlapaltic
tlapanahuia
tlapanahuiah
tlapantlazalli
tlapcopa
tlape
tlapechtli
tlapehualtiloni
tlapitzalli
tlapixcayotl
tlapixkalistli
tlapiyali
tlapiyalli
tlapiyalmeh
tlapiyalmej
tlapo
tlapoali
tlapoalli
tlapohua
tlapohualiztli
tlapohualli
tlapotonilli
tlapotoniltic
tlaque
tlaquemitl
tlaquentia
tlaquentiah
tlaquentli
tlaquetzaliztli
tlaquetzalli
tlaquitcayotl
tlaquixtilli
tlaseseya
tlastaloltik
tlatamachi
tlatamachihualoni
tlatamachioualoni
tlate
tlatectli
tlatekini
tlatelo
tlatelolco
tlatelolli
tlatemoliztli
tlatenehualiztli
tlatenehualli
tlatenitoani
tlateo
tlatequipanoliztli
tlatequitiliztli
tlatequitiltili
tlatetzauhtli
tlatia
tlatilanani
tlatilanketl
tlatilantli
tlatilantoc
tlatilantok
tlatkitl
tlatl
tlatla
tlatlaliliztli
tlatlamantic
tlato
tlatoa
tlatoani
tlatocateixiptla
tlatocayotilli
tlatocayotl
tlatokajyotl
tlatolli
tlatololli
tlatolpehualiztli
tlatolpeualiztli
tlatoquilih
tlatoquiliztli
tlatotonia
tlatquicayotl
tlatquihuah
tlatquitl
tlatsintla
tlatsintlaj
tlatsintlan
tlatta
tlatza
tlatzacuia
tlatzcantli
tlatzi
tlatzinquixtilizotl
tlatzintlah
tlatzintlan
tlatzohtzonalcalpolli
tlatzohtzonaliztli
tlatzotzonaliz
tlatzotzonaliztli
tlatzotzonalli
tlatzotzonanih
tlatzotzontli
tlatzqui
tlauana
tlauanki
tlauanqui
tlauel
tlauhtli
tlauili
tlauitoli
tlavanqui
tlawel
tlawilantilistli
tlawilli
tlaxcala
tlaxcalah
tlaxcalchilatl
tlaxcalla
tlaxcallan
tlaxcalli
tlaxcalnamacoyan
tlaxcalpacholli
tlaxcaltecah
tlaxeliuhcayotl
tlaxilacalli
tlaxillacalli
tlaxkala
tlaxkali
tlaxkallan
tlaxkaltekahmeh
tlaxolonkatl
tlaxotlahuiqui
tlaxotlali
tlaxotlalli
tlaxotlauiki
tlayaca
tlayacanaliztli
tlayacatia
tlayacatih
tlaye
tlayecoliztli
tlayectililiztli
tlayehco
tlayehyeco
tlayehyecoliztli
tlayekolistli
tlayo
tlayoli
tlazo
tlazohmatiliztla
tlazohmatini
tlazohtlaliztli
tlazohtlamatiliztli
tle
tlecua
tlecuahuitl
tlecuahutli
tlecuauhtli
tlecui
tleh
tlehco
tlein
tleinzazo
tlekuautli
tlemolli
tlen
tlenmach
tlenon
tletepe
tletepetl
tletl
tli
tlihua
tlilcoatl
tliltepoztli
tliltetl
tliltic
tliltik
tlilxochitl
tlitepetl
tln
tlo
tloc
tlok
tnica
to
tobago
toca
tocaitl
tocatl
tocayotia
tocayotl
tochin
tochinanko
tochpan
tochtin
tochtlah
tochtlan
tochtli
toco
toctli
toctzintli
todas
today
todo
todos
togo
tohtli
toichte
toj
toka
tokaitl
tokajyotl
tokatl
tokatlatemolistli
toktli
tolan
tolantzinco
told
toledo
tolin
tollan
tollantzinco
tollohcan
tollohkan
tolohcan
toltecah
toltecayotl
toltekah
toltetl
toluca
toluka
tom
toma
tomahuac
tomando
tomaseual
tomaseualpoyouaj
tomate
tomatl
tome
tomi
tomin
tomincayo
tominkoh
tomitl
tomo
ton
tona
tonacayo
tonal
tonalamatl
tonalcalaquiyampa
tonali
tonalilhuitl
tonalli
tonalme
tonalpohualli
tonalquiyahuitl
tonalquizayampa
tonaltlauili
tonaltsin
tonantzin
tonati
tonatih
tonatij
tonatiuh
tonatiuhpan
tonatiw
tonayoh
tonei
toneixcuitil
tonemilis
tontli
top
topf
topili
topo
toquiliztli
toros
torquemada
torre
torreo
torres
tosa
tosan
toscano
total
totally
tote
toteko
toteucyo
totiotzin
totlahtol
toto
totochtin
totoli
totolin
totolli
totolpixcayotl
totoltetl
totoltin
totomeh
totomej
totomichin
totonacatlahtolli
totoncayotl
totonitetl
totonqui
totopochtli
tototepek
tototl
touch
toueyi
tour
tovar
town
toyota
tozan
tozquinehnehuiliztli
tozquitl
toztli
tpc
tr
tra
trabajar
traducirlo
tranquilize
translate
transversal
tratado
travis
trazos
tre
tree
tres
trial
triatlo
triceratops
trigo
trinidad
triquitlahto
tronador
tropical
tropico
trq
true
try
ts
tsakuali
tsapotl
tsekauastli
tsinakantli
tsontli
tsopelik
tsopeltik
tsopilotl
tter
tti
ttingen
tu
tucson
tula
tule
tulo
tuna
tunez
tupungato
turbo
turmenistan
turn
turquia
turtle
tuxtla
tv
tvr
twingo
two
tyne
tyrannosaurus
tz
tza
tzacca
tzacualco
tzacualli
tzahtzi
tzalan
tzalco
tzaliztli
tzalli
tzanatl
tzapalolli
tzapono
tzaponochtli
tzapopan
tzapote
tzapotecatlahtolli
tzapotecatlahtoltica
tzapotl
tzapotlan
tzaucxo
tzcatl
tzcuaro
tzecahuaztli
tzeh
tzeltallahto
tzeltallahtolli
tzh
tzi
tzili
tzilihhuitl
tzilo
tzin
tzina
tzinacantli
tzinco
tzintetl
tzintiliztli
tzintli
tzintzon
tzintzontzan
tziquitzi
tzitzimici
tzo
tzompanco
tzontecomatl
tzontli
tzonyo
tzonyoh
tzope
tzopelacatl
tzopelic
tzopelli
tzopilo
tzopilocuauhtli
tzopilotl
tzopitl
tzotzillahto
tzotzocatl
tzqui
tztli
tɬ
tɬa
tɬi
tɬɑ
tʃitɬ
tʃkɑ
tʃtɬi
u
ua
uajka
uajkapa
uakapatl
uaki
uala
ualeua
ualeyaj
uan
uanl
uanya
uaxtekapaj
ub
uber
ucci
ucrania
ucraniatlahto
uctli
ucyo
uczo
ud
uejka
uejkaua
uekautika
uel
ueli
uelik
uetsi
ueue
ueuetini
ueueyak
uexolotl
uexotl
uexotlaj
uey
ueyak
ueyatl
ueyaxili
ueyi
ueyichinanko
ueyitlali
ueyitok
ueyixolal
ufe
uh
uhca
uhmecatini
uhmecatl
uhpo
uhque
uhqueh
uhqui
uhte
uhtemeh
uhtetl
uhti
uhtia
uhtica
uhticah
uhtin
uhtl
uhtla
uhtlahto
uhtlahtoa
uhtlehuanintzin
uhtlehuanitzin
uhtli
uhto
uhtzin
uhza
uikpa
uiteki
uj
uk
ul
um
uma
umarkaj
ume
umi
un
una
unam
und
under
undp
une
unesco
unidad
unidas
unido
unidos
unintended
unio
unitec
united
universal
universidad
universitaria
universitario
universitarios
university
universo
unknown
unkraut
unneeded
uno
unrecognized
untitled
uoregon
up
upon
urdutlahto
urogallus
ursus
uruguay
urwald
us
usa
uschen
use
used
user
uslein
utah
utc
uu
uzbequistan
v
va
valde
vale
valencia
valenti
valeriano
valign
valladolid
vallarta
valle
vallejo
valles
valsequillo
values
van
vancouver
vanguard
vannucci
var
vargas
variant
varsovia
vas
vasco
vasconcelos
vascotlahto
vascotlahtolli
vaticano
vaxcate
ve
vega
veintiuno
vel
vela
velazquez
venado
veneswela
venezia
venezuela
venta
venus
venustiano
vepric
vera
veracruz
veracruzana
verano
verb
verbo
verde
verdes
vermont
verse
versio
version
very
vez
vi
viaje
vicente
victor
victoria
vida
vidas
video
vie
vieja
viejo
viele
viena
viento
viernes
vietnam
vii
viii
vil
vila
villa
village
villahermosa
villanueva
villegas
vinci
vines
vino
violin
virginia
virginianus
virreinato
virreiyotl
virreyotl
visita
visual
vitaminas
viva
vivir
vivo
vizcaya
vmpa
vn
vo
vocablos
vocabulario
vocal
voce
vol
volkswagen
voltaire
volumen
von
vor
vos
vostede
vous
voz
vulgaris
w
wa
wahkapatl
wahkapayotl
wakaxmeh
wales
walk
walker
walking
wallaw
walters
wan
want
wanya
war
wars
was
waschba
washington
wasmuth
wasser
wat
water
watson
waxtekapan
waxtlan
waxyakak
way
we
web
website
weg
weide
weit
weli
well
wells
welt
wenig
wenn
were
west
wexotlah
wexteyowalko
wexteyowalli
weyak
weyatl
weyi
weyiapan
weyiatl
weyiaxoxowilli
weyitlahtohkayotl
weyixiwikawitl
weykali
what
when
where
which
white
who
whp
why
wi
wichmann
width
wien
wikayotl
wiki
wikipedia
wikipediah
wikipixketl
wiktionary
wild
wilhelm
will
william
williams
wimmer
wind
window
windsurf
wisconsin
with
wits
witstlanpa
witɬ
wo
wolf
wolfgang
wolgemuth
wolstenholme
woman
wonder
woodard
wordreference
world
wort
wortart
wright
writing
wu
www
wyoming
wɑ
wɑlli
x
xa
xacaloa
xacaloax
xalapa
xalapan
xalchocotl
xali
xalixco
xalixko
xalli
xaloh
xaloj
xaltosan
xaltozan
xalxococuahuitl
xalxocotl
xamitl
xantolo
xantoloh
xantolon
xapo
xapon
xaponte
xapontlahto
xavier
xayacatl
xayakatl
xca
xcalo
xco
xcone
xcua
xcui
xe
xeliuhca
xeliuhcayotl
xexeloj
xi
xic
xicalli
xiccui
xicmatoca
xico
xicohtli
xictli
xihca
xihcah
xihcatl
xihcatlahto
xihcatlahtohca
xihco
xihcometro
xihcometrob
xihuimeh
xihuitl
xihxihuitl
xii
xiii
xikipili
xikixpowa
xikohtepek
xikojtli
xikotototl
xikpowa
xiktlalli
xikwawak
xilitlan
xiliztli
xillantli
xilotl
xin
xina
xinachtli
xincoyotl
xini
xiotencac
xipcaxitl
xiptla
xiptlah
xiptlahtini
xiptlayo
xiptli
xiquihcuilo
xiquilcahua
xiquipano
xiquipilli
xiquitta
xiquixpohua
xiti
xitlachiya
xitlahcuilo
xitomatl
xiuhcahuitl
xiuhmeh
xiuhmolpilli
xiuhpalhuehxolotl
xiuhpan
xiuhpo
xiuhpohualli
xiuhte
xiuhtic
xiuhtin
xiuhtlacualli
xiuhto
xiuhtototl
xiuimej
xiuit
xiuitl
xiutik
xiv
xiwimeh
xiwitl
xix
xiyauh
xkalo
xna
xo
xoalapan
xoan
xochiatipan
xochicoatlan
xochicozcatl
xochicualli
xochihcualli
xochikoskatl
xochimeh
xochimej
xochimilco
xochinamacoyan
xochipaltic
xochipalxocotl
xochitl
xochitlah
xococ
xococuahuitl
xocohuetzi
xocola
xocolatl
xocomecaayotl
xocomecatl
xocono
xoconochtli
xocoqui
xocotl
xocoztli
xoctli
xokok
xokolatl
xokomekatl
xokonochtli
xokotetl
xokotl
xoktli
xolal
xolalpan
xolalpancopa
xolo
xoloitzcuintli
xolotl
xomili
xomilin
xomilli
xomo
xomolli
xomotl
xonacatl
xonakatl
xopaltic
xopantlah
xopantlan
xopatiliztli
xopatoltiliztli
xopilli
xotl
xotla
xoxoctic
xoxoctli
xoxohuic
xoxoktik
xoxouhqui
xoxouik
xpan
xpayo
xqui
xquich
xquichca
xte
xti
xtia
xtiana
xtianayo
xtih
xtilia
xtiliztli
xtla
xtlacchichi
xtlahpach
xtlapach
xtli
xv
xvi
xvii
xviii
xx
xxi
xxx
xyacac
y
ya
yac
yaca
yacac
yacate
yacaticac
yacatih
yacatl
yacatlahcuilolli
yacaxotl
yah
yahqueh
yahualtiliztli
yahualto
yahualtzintli
yahuantin
yahui
yahuitl
yalli
yamaha
yampa
yampatsa
yan
yancui
yancuic
yancuican
yancuictlahtolli
yancuictletepeyollotl
yani
yankuik
yankwik
yaomamaltzintetl
yaomeh
yaoquizqueh
yaoquizqui
yaotecayotl
yaotl
yaoyotl
yaq
yaqueh
yaquitlahtolli
yauh
yauhtic
yaui
yaya
yayauik
yayawik
yaz
yc
ycaquizcopi
ycui
ye
years
yece
yeceh
yecmamaltzintetl
yecnemiliceh
yectel
yectli
yeh
yehhua
yehhuan
yehhuantin
yehhuatl
yehhuatli
yehhuatlin
yehhuatzin
yehica
yehua
yehuan
yehuantin
yehuatl
yehuatli
yehyeco
yehyectzin
yei
yejuin
yeka
yeliz
yeliztli
yellow
yelohua
yelohuaz
yeltic
yemen
yepamej
yepatl
yepohualxiquipilli
yeppa
yeppan
yequeneh
yesneluatl
yesterday
yetiuh
yetl
yeuatl
yeya
yeyah
yeyantli
yeyanyotl
yeyi
yez
yezqueh
yezquia
yi
yicocoliztli
yidishtlahtolli
yin
yiteo
yitla
yitlahto
yitlahtoa
yitlahtohca
yitzitzimici
yiya
yn
yo
yobai
yoh
yohuac
yohualli
yohualocelotl
yohuatzinco
yohuih
yokatan
yolcah
yolcameh
yolcatl
yolcatzin
yolcatzintzin
yoli
yoliztli
yolkamej
yolkatl
yollamantli
yolli
yollotl
yolloxoxouhqui
yolotl
yoloxocotl
yoloxoxouhqui
yolqueh
yolqui
yoltextli
yolxictli
yomohtlancuauhtiliztli
yon
york
yotia
yotl
you
young
your
youtube
yowih
yoyomitl
yteo
ytla
yu
yua
yuca
yucata
yucatan
yucate
yucatecatlahtolcopa
yucatecatlahtolli
yuh
yuhqui
yuhquin
yuhquizani
yukon
yutana
yutu
z
za
zac
zaca
zacacintli
zacamiztli
zacate
zacatecah
zacatecapan
zacatecas
zacatl
zacatlan
zacatochin
zacatochtli
zacualli
zahl
zahlwort
zahuahua
zahuatzontecomatl
zai
zaliz
zaliztli
zama
zambia
zamora
zan
zanilli
zanno
zantepan
zanyeno
zanyeyo
zapalotl
zapata
zapatero
zapote
zapotes
zaragoza
zate
zatepan
zatl
zatlatzonco
zaya
zayohqui
zayolin
zayolli
zazaltitlan
zazanilli
zazotlein
zca
zcacua
zcapo
zcatl
zcatla
ze
zedillo
zehennagel
zema
zi
zimbahue
zisterne
zmictia
zmiqui
znehqui
znequi
zo
zoe
zolin
zompist
zona
zopilote
zoquitl
zorro
zotolin
zoyacapolin
zoyatl
zqueh
zquez
zqui
zte
ztic
ztla
ztli
zu
zucker
zum
zuma
zun
zunge
zwei
{
|
}
~
¡
ª
«
°
²
³
´
·
º
»
¿
×
ß
æ
ɐ
ɑ
ə
ən
ɡl
ɬ
ʀən
ʃ
ʃo
ʃtiɑ
ʰ
ʲ
ʷ
ʻ
ʼ
ˀ
ˈ
ˌ
ː
ːˈ
ˑ
̀
́
̂
̃
̄
̆
̇
̈
̉
̊
̌
̓
̔
̛
̣
̥
̧
̨
̩
̪
̭
̯
̱
̷
͂
͡
α
β
ε
η
θ
ι
λ
ν
ο
π
ς
τ
υ
χ
ψ
ω
в
вы
г
е
и
л
н
на
о
с
у
ю
я
языке
ְ
ִ
ֵ
ַ
ָ
ּ
ׁ
א
י
ל
ם
מ
ע
ש
ا
الجمهوري
الس
العربي
ة
د
ر
م
وري
ُ
ّ
ٔ
ٕ
ی
ހ
ރ
އ
ޖ
ާ
ި
ު
ެ
ް
ं
क
ग
त
द
न
य
र
ल
स
ा
ि
ी
्
ং
ত
ব
য
র
ল
়
া
ি
্
ਂ
ਦ
ਲ
ਿ
ੀ
ੱ
க
ா
ி
ு
்
ు
ක
ත
ර
්
ා
ී
་
ག
ཡ
ལ
ུ
ྲ
​
‍
‎
–
—
―
‘
’
“
”
†
•
…
′
″
⁠
₂
€
⅓
→
↔
↷
∈
③
④
⑦
►
◄
☉
☽
☾
♀
♁
♂
⯓
⺀
⺄
⺆
⺈
⺊
⺌
⺕
⺝
⺸
⺼
⿰
⿱
⿲
⿳
⿴
⿵
⿶
⿷
⿸
⿹
⿺
⿻
〢
あ
い
う
え
か
き
く
こ
さ
し
そ
た
つ
て
と
な
に
の
は
ひ
ま
み
む
よ
ら
り
を
ん
゙
゚
ア
ィ
イ
ウ
エ
オ
カ
キ
ク
ケ
コ
シ
ス
タ
ツ
テ
ト
ナ
ニ
ヌ
ハ
フ
ヘ
ホ
マ
ム
メ
モ
ヤ
ユ
ヨ
ラ
リ
ル
ワ
ン
ー
㇁
㇂
㇄
㇇
㇈
㇉
㇓
㐁
㐄
㐅
㐌
㐫
㐬
㐭
㐮
㐱
㑒
㒵
㒸
㒼
㓁
㓞
㔾
㕛
㕣
㖾
㘝
㚅
㚇
㚔
㚘
㝉
㝡
㝴
㝵
㞋
㞢
㞷
㠩
㠭
㠯
㡀
㡭
㡿
㢲
㢴
㣇
㣺
㥯
㪅
㫄
㫐
㫒
㫺
㬅
㬎
㬥
㬰
㲋
㳄
㷠
㸒
㸚
㸦
㼌
㼲
㽞
㿟
䀠
䂞
䍃
䏍
䒑
䖍
䖒
䖝
䖵
䙴
䚻
䜌
䝿
䡛
䧹
䪞
一
丁
丂
七
丄
丅
丆
万
丈
三
上
下
丌
不
与
丏
丐
丑
专
且
丕
世
丘
丙
业
东
丞
丢
丣
两
严
並
丨
丩
个
丫
丬
中
丮
丰
丱
串
丵
丶
丷
丸
丹
为
主
丽
丿
乀
乂
乃
久
乆
乇
么
义
之
乌
乍
乎
乏
乐
乑
乔
乖
乗
乘
乙
乚
乛
乜
九
乞
也
习
乡
乳
乾
亀
亅
了
亇
予
争
事
二
亍
于
亏
亐
云
互
亓
五
井
亘
亚
亜
亞
亟
亠
亡
亢
交
亥
亦
产
亨
亩
享
京
亭
亮
亯
亰
亲
亳
亶
亷
人
亻
亼
亾
仁
今
介
仌
从
仐
仑
仒
仓
仕
他
付
仝
代
令
以
仮
任
企
伊
伏
伐
休
会
伯
但
位
何
佘
余
作
佥
使
來
侈
侌
侖
侯
侵
便
保
俞
信
修
倉
倍
候
倠
備
僉
僕
儿
兀
允
兂
元
兄
充
兆
兇
先
光
兊
克
兌
免
兑
兒
兓
兔
党
兜
兟
入
全
兩
兪
八
公
六
兮
兰
共
关
兵
其
具
典
兹
兼
冀
冂
冃
冄
内
冈
冉
冊
冋
册
再
冎
冏
冐
冒
冓
冖
冗
冘
军
农
冝
冡
冥
冫
冬
冷
几
凡
凢
凵
凶
凷
凸
凹
出
函
凾
刀
刁
刂
刃
刄
刅
分
切
刍
刑
刕
刖
列
刘
则
初
別
利
别
到
制
刺
則
削
剌
前
剡
剽
劉
力
功
加
劦
助
劫
劳
劵
勃
勇
勉
勒
動
務
勞
勤
勹
勺
勻
勾
勿
匀
匂
包
匆
匈
匊
匋
匍
匕
化
北
匚
匝
匡
匪
匱
匸
匹
区
医
匽
匿
區
十
卂
千
卄
卅
卆
升
午
卉
半
卌
华
卑
卒
卓
单
卖
南
卜
卝
卞
占
卡
卢
卣
卤
卦
卩
卪
卬
卯
印
危
即
却
卵
卷
卸
卻
厂
厃
厄
历
厈
厉
厌
厓
厘
厚
原
厤
厥
厨
厭
厲
厶
厷
厸
去
厼
厽
叀
参
參
叅
又
叉
及
友
双
反
叐
发
叒
叔
叕
取
受
叚
叜
叟
口
古
句
另
叩
只
召
可
台
叱
史
右
叵
号
司
叹
吂
各
吅
合
吉
吊
吋
同
名
后
吏
向
吕
君
吝
吞
否
含
启
吳
吴
吹
吾
呂
呆
呈
告
员
呙
周
命
咅
和
咎
咠
咢
咨
咸
咼
哀
品
哉
員
哥
哲
唐
商
啇
問
啚
啬
啻
善
喜
喬
單
喿
嗇
噩
嚴
囊
囗
囘
囙
囚
四
回
囟
因
囧
囬
困
囱
囷
固
国
圂
圅
國
圍
圓
土
圡
圣
圥
在
圭
地
圶
圼
坐
坒
坚
坴
垂
垔
垚
埀
埋
埶
執
基
堂
堅
堆
堇
堯
報
塞
墨
壘
士
壬
壯
声
壳
壴
壹
壺
壽
夂
处
夅
夆
备
夊
夋
夌
复
夏
夒
夕
外
夗
夘
多
夜
夢
大
夨
天
太
夫
夬
夭
央
失
夲
头
夷
夸
夹
夻
夾
奂
奄
奇
奈
奉
奎
奏
奐
契
奓
奔
奚
奞
奠
奢
奥
奭
女
奴
奻
好
如
妄
妙
妟
妥
妻
妾
姑
委
姜
威
娄
娜
婁
婴
嬰
嬴
子
孑
孔
孕
孖
字
存
孚
孛
孝
孟
季
孤
学
孫
孱
學
宀
宁
宂
它
宅
宇
守
安
宋
完
宏
宓
宗
官
定
宛
宜
宝
客
宣
室
宮
宰
害
家
容
宾
宿
寄
寅
密
富
寒
察
寧
審
寫
寬
寮
寸
对
寺
寻
寽
対
寿
封
尃
射
将
將
專
尉
尊
尋
尌
對
小
少
尒
尓
尔
尖
尗
尚
尞
尢
尣
尤
尧
尨
尭
就
尸
尹
尺
尻
尼
尽
尾
尿
局
居
屈
屋
屎
屏
屑
展
屖
屚
属
屠
屡
屬
屮
屯
屰
山
屵
屾
岁
岂
岑
岡
岩
岳
岸
峯
島
崇
崑
崔
崖
崙
崩
嵬
嶲
巂
巛
川
州
巟
巠
巢
巤
工
左
巧
巨
巩
巫
差
己
已
巳
巴
巷
巸
巽
巾
巿
帀
市
布
希
帚
帛
帝
带
師
席
帶
常
干
平
年
幵
并
幷
幸
幺
幻
幼
幽
幾
广
庁
広
庄
床
底
店
庚
府
度
庫
庭
庶
康
庸
廉
廌
廛
廣
廩
廴
延
廷
建
廾
廿
开
弁
弃
弄
弇
弋
式
弓
弔
引
弗
弘
弜
弟
弥
弦
弱
張
強
强
彊
彌
彎
彐
彑
当
彔
录
彖
彗
彡
形
彥
彦
彧
彭
彳
役
彼
往
待
律
徒
得
徙
從
復
微
徵
心
忄
必
忌
忍
志
忝
忠
忩
快
念
忽
忿
思
怠
急
怱
恆
恒
恩
恭
息
悉
患
悤
悲
悶
惠
惡
惢
愁
愈
意
愛
感
慈
慧
慮
憂
憲
應
戀
戈
戉
戊
戋
戌
戍
戎
成
我
戒
戔
或
戚
戠
戢
截
戲
戶
户
戹
戼
戾
房
所
扁
扇
手
扌
才
打
托
执
承
折
拉
拜
拿
掌
推
提
摩
支
攴
攵
收
攸
改
放
政
敄
敏
敕
敖
敗
敝
敞
敢
散
敦
敫
敬
数
敷
數
斂
文
斉
斊
斗
斤
斥
斩
斬
斯
新
方
於
施
斿
旁
旋
族
无
旡
既
旣
日
旦
旧
旨
早
旬
旱
旲
时
旾
昆
昇
昌
昍
明
昏
易
昔
昗
昜
星
春
昬
是
昱
昴
昷
時
晃
晋
晏
普
景
晶
智
暑
暴
曇
曩
曰
曲
曳
更
曷
書
曹
曼
曾
替
最
朁
會
月
有
朋
服
朔
朕
朗
望
朝
木
朩
未
末
本
札
朮
术
朱
朵
朶
朿
杀
杏
杜
束
条
来
東
杲
杳
松
析
林
枚
果
枝
枲
枼
某
柔
查
柬
柰
柴
栗
株
桀
桑
桼
梁
條
梟
梨
棘
棠
棥
森
楚
業
楽
榮
樂
樊
欠
次
欣
欮
欲
欶
欽
款
歆
歇
歛
止
正
此
步
武
歨
歪
歮
歯
歰
歲
歴
歷
歸
歹
歺
死
殳
段
殷
殸
殹
殺
殻
殿
毋
毌
母
每
毒
比
毕
毚
毛
毳
氏
氐
民
气
気
氣
水
氵
氶
氷
永
氺
氾
求
汝
汞
江
沃
沓
沖
沙
沝
泉
法
波
泣
泥
泰
洛
洪
活
派
流
浦
浪
浮
淡
淮
清
渚
渠
湯
滿
漫
漸
火
灬
灭
灰
灵
灷
炅
炎
炏
炗
炙
炭
為
烈
烏
烝
焉
無
焦
焱
然
煞
熊
熏
燕
營
燮
爪
爫
爭
爯
爰
爱
爲
爵
父
爻
爽
爾
爿
片
牙
牚
牛
牜
牟
牢
牧
牪
牽
犀
犬
犭
犮
狂
狄
狊
独
狺
猋
猒
猪
献
獻
玄
率
玉
王
玟
玨
现
珎
班
琴
瑟
瑩
璠
瓜
瓦
甘
甚
生
産
用
甫
甬
田
由
甲
申
电
甶
男
甸
甹
画
甾
畀
界
畏
畐
留
畜
畟
畢
畧
畨
番
畫
異
畱
當
畺
畾
疊
疋
疌
疑
疒
疾
癶
癸
癹
登
發
白
百
皀
皃
的
皆
皇
皋
皐
皕
皮
皷
皿
盃
盆
盇
盈
益
盍
盎
监
盒
盖
盛
盡
監
盤
盧
目
直
相
盾
省
眇
眉
看
眔
眞
真
眷
眼
眾
着
睘
睪
睿
瞏
瞢
瞿
矍
矛
矞
矢
矣
知
矦
短
石
破
碎
磊
磨
示
礻
礼
社
神
祟
票
祭
禀
禁
禸
禹
禺
离
禽
禾
禿
秀
秃
秉
秋
科
秝
秦
移
稟
穀
穌
穴
究
穹
空
穿
突
窄
窒
立
竒
竜
竝
竟
章
童
竹
笑
笠
筆
等
答
箕
算
箴
節
篤
篭
米
粉
粛
粟
粤
粦
粲
糞
糸
糹
系
約
納
素
索
紫
累
細
絜
絫
絲
維
綿
縣
繇
纍
纟
缶
网
罒
罔
罕
罗
罙
罡
罢
罪
署
罷
羅
羊
羌
羍
美
羔
羕
羗
羞
羡
羣
群
義
羲
羸
羽
翁
翏
習
翕
翟
翠
翼
老
耂
考
者
耆
而
耎
耑
耒
耳
耴
耶
耷
聂
聊
聖
聚
聶
聿
肀
肃
肅
肉
肖
肙
肥
肩
肯
育
肴
胃
背
胡
胥
能
脊
脩
膚
臣
臤
臧
自
臬
臭
臯
臱
至
致
臺
臼
臽
臾
臿
舀
舂
舄
與
興
舉
舌
舍
舛
舜
舞
舟
般
艮
良
色
艸
艹
艾
芒
芔
芬
芮
花
芳
芺
芻
苔
苗
苟
若
苦
英
茶
茸
荅
草
荒
荣
荼
莆
莧
莫
莽
菆
菊
菐
華
萬
落
葉
著
葛
董
葵
蒙
蒦
蒼
蓋
蓬
蓺
蔑
蔡
蕉
蕭
薄
薛
薦
薰
藍
藏
藥
蘭
虍
虎
虐
虒
虔
處
虖
虗
虘
虚
虛
虜
虞
虫
虽
蚤
蚩
蜀
蜜
蟲
蠡
血
行
衍
衛
衣
衤
表
衮
衰
袁
袞
褭
褱
襄
襾
西
覀
要
覃
見
規
覓
覧
親
覽
见
角
解
言
訁
訇
計
詹
語
誩
諸
讠
谷
豆
豈
豊
豐
豕
豖
豙
象
豦
豩
豪
豸
貇
貝
貞
貟
負
貢
貧
貪
貫
責
貳
貴
買
費
賁
資
賈
賏
賓
賔
賛
賞
賢
賣
質
賴
贊
贝
贡
责
贯
贲
贵
赖
赞
赤
赦
走
越
足
路
蹇
身
躬
車
軍
軎
軟
輦
车
辛
辜
辟
辥
辰
辱
農
辵
辶
边
达
过
近
连
迷
追
退
送
逆
逐
通
速
造
逢
連
逮
進
遀
遂
過
道
達
遣
適
遷
遺
邊
邑
邕
那
邦
邪
郎
部
郭
都
鄉
酉
酋
配
酓
釆
采
里
重
野
量
金
釒
錢
钅
長
镸
长
門
閃
閉
開
閏
閑
閒
間
閔
閵
閻
闌
门
间
闷
阑
阜
阝
阿
降
院
陳
隆
隊
隋
隡
隨
隱
隶
隹
隺
隻
隼
隽
难
雀
雁
集
雈
雋
雍
雐
雔
雙
雚
雜
雝
離
難
雨
雩
雪
雲
零
雷
需
震
霍
霜
霝
霞
霸
靈
靑
青
非
靡
面
靣
革
韋
韦
韭
韯
韱
音
頁
頃
項
須
頗
頡
頻
顛
页
風
风
飛
飞
食
飠
養
饣
首
香
馬
馮
駦
马
骨
高
髟
鬥
鬯
鬲
鬼
魚
魯
鮮
鱼
鲁
鳥
鳳
鸟
鹵
鹿
麃
麗
麥
麦
麻
黃
黄
黍
黎
黑
黒
黨
黹
黽
黾
鼎
鼓
鼠
鼻
齊
齋
齐
齒
齿
龍
龙
龜
龟
龠
龰
龱
龴
龵
龶
龷
龸
龹
꞉
ꞌ
ꮎ
ꮝ
者
艹
）
２
：
？
🜨
𠀁
𠀃
𠀆
𠀉
𠀎
𠀐
𠁁
𠁣
𠂆
𠂇
𠂈
𠂉
𠂊
𠂋
𠂎
𠂒
𠂔
𠂛
𠂡
𠂢
𠂤
𠂬
𠂭
𠂹
𠃊
𠃋
𠃌
𠃍
𠃎
𠃑
𠃓
𠃔
𠃜
𠄌
𠄎
𠄠
𠄢
𠆢
𠆥
𠇍
𠈌
𠌵
𠓜
𠔉
𠔥
𠔼
𠔽
𠔿
𠕀
𠕁
𠕋
𠘧
𠘨
𠙻
𠙼
𠚏
𠚒
𠚤
𠚪
𠣏
𠤎
𠤕
𠥓
𠦄
𠦑
𠦝
𠧒
𠧗
𠧪
𠩺
𠪚
𠫓
𠫔
𠫤
𠬛
𠬝
𠬞
𠬢
𠬤
𠬶
𠮛
𠮦
𠮷
𠯑
𠱠
𠳮
𠷎
𡈼
𡉀
𡉵
𡌥
𡍮
𡏳
𡕒
𡕩
𡕰
𡖅
𡗗
𡗜
𡘆
𡘤
𡧱
𡨄
𡩧
𡬠
𡭽
𡰣
𡰥
𡰪
𡰯
𡰱
𡷈
𡸁
𡿨
𡿩
𡿪
𡿺
𢀖
𢀛
𢀩
𢁙
𢆉
𢆰
𢆶
𢇁
𢇇
𢉖
𢌬
𢌿
𢏚
𢑑
𢑚
𢖻
𢙣
𢛳
𢦏
𢦒
𢧵
𢼄
𢾕
𣁋
𣄼
𣅀
𣅽
𣍘
𣎳
𣎵
𣏋
𣏼
𣗥
𣥂
𣥖
𣦵
𣦼
𣧄
𣪊
𣪠
𣬉
𣳾
𣶒
𤇾
𤊽
𤐫
𤓰
𤔔
𤕨
𤣩
𤰇
𤰔
𤰞
𤴓
𤴔
𤽄
𥁑
𥁕
𥃦
𥃩
𥃭
𥇡
𥑟
𥘅
𥘈
𥝢
𥫗
𥱡
𦈢
𦉪
𦉬
𦉼
𦍌
𦍒
𦎧
𦐇
𦓔
𦔮
𦘒
𦙃
𦚏
𦣝
𦣞
𦣻
𦥑
𦥔
𦥯
𦨉
𦭝
𦰩
𧆞
𧈧
𧘇
𧰨
𧴪
𧴮
𧵩
𧾷
𨸏
𨾴
𩙿
𩠐
𩫏
𩵋
𪉷
𪜀
𪟽
𪠲
𪩲
𫇦
𫔭
𫜸
𫝀
𫠣
𫠩
𫢉
𫥞
𫩏
𫩠
𫪡
𫲽
𫶧
𬀷
𬐘
𬗌
𬙙
𬛸
𬜯
𬟩
𬯁
𬴘
𬺻
𬼉
𬼖
𭀰
𭁈
𭁨
𭅰
𭑈
𭕄
𭗼
𭤨
𭥫
𭻾
𮅕
𮊿
𮍌
𮍏
𮓗
𮥼
𮧮
廾
𰀁
𰀄
𰀈
𰀉
𰀕
𰀠
𰀡
𰀢
𰀪
𰁜
𰃮
𰆊
𰆘
𰋙
𰕎
𰢴
𰧭
𰯲
a--
aa--
aah--
ab--
aba--
abdo--
aber--
ac--
aca--
acalla--
acalte--
acaluel--
acatza--
ace--
ach--
acha--
achcauh--
achi--
achto--
aci--
aco--
acu--
ad--
afga--
ag--
agu--
ah--
aha--
ahci--
ahco--
ahu--
ahua--
ahzo--
ai--
aj--
ak--
aka--
al--
ala--
alb--
altepe--
altip--
am--
ama--
amante--
amatlah--
amatlapal--
ame--
amo--
amox--
an--
ana--
and--
anech--
angli--
angu--
ani--
ano--
anth--
aos--
api--
apo--
apre--
aquetz--
ar--
ara--
arab--
archi--
are--
arg--
ari--
arido--
arque--
as--
at--
ate--
ateco--
atla--
atri--
atza--
au--
aus--
auto--
av--
ax--
ay--
ayau--
ayo--
ayoh--
ayoj--
az--
azu--
b--
ba--
bal--
ban--
bar--
bat--
bata--
be--
beis--
bel--
ben--
ber--
bet--
bigut--
bil--
bir--
bo--
bor--
br--
bra--
brad--
bre--
brevi--
bro--
brun--
bu--
bur--
c--
ca--
cab--
cac--
cah--
cal--
cali--
cam--
cama--
came--
can--
cana--
canauh--
car--
cas--
cat--
cate--
catla--
caxi--
caxtil--
ce--
cece--
cecec--
cel--
cem--
cempo--
cempohual--
cen--
cente--
cepa--
cer--
ch--
cha--
chalchi--
chapi--
chapic--
che--
chi--
chic--
chico--
chihua--
chij--
cho--
chontal--
chu--
ci--
cihua--
cipa--
cir--
cla--
cli--
co--
cock--
coco--
cocox--
coh--
col--
com--
con--
conson--
copa--
copal--
cor--
coyo--
cri--
cru--
cu--
cua--
cuauh--
cuauhtzapo--
cuaxo--
cue--
cuetz--
cui--
cuitla--
cumiai--
curvi--
d--
da--
dan--
de--
deci--
del--
deo--
des--
di--
dia--
diap--
dici--
dig--
dis--
do--
dor--
dr--
du--
dupl--
e--
ed--
edmon--
edu--
ehe--
ein--
eir--
el--
ele--
electr--
elfen--
em--
en--
ep--
epohua--
er--
erd--
es--
et--
eve--
ew--
ex--
exhu--
f--
fa--
fan--
fe--
feigen--
feu--
fi--
fir--
fla--
fle--
fo--
fon--
fr--
frag--
fried--
fu--
fuß--
g--
ga--
gal--
gar--
ge--
gei--
ges--
gi--
gia--
giga--
gl--
go--
gor--
gra--
gro--
groß--
gu--
guara--
h--
ha--
hab--
hals--
ham--
haup--
haus--
he--
heb--
hen--
her--
heuschre--
hi--
hil--
his--
ho--
hos--
hp--
hru--
hrva--
hu--
hua--
huac--
hual--
huapal--
huau--
hue--
huehue--
huehueh--
huel--
huey--
hueyi--
hui--
i--
ia--
ialtepe--
ic--
ica--
icala--
icen--
ich--
ichpo--
ici--
icni--
icno--
icu--
igu--
ih--
iha--
ihi--
ii--
iix--
ij--
ik--
ika--
iku--
il--
ilu--
im--
in--
inc--
inca--
ine--
infa--
ini--
inih--
inin--
inte--
inter--
intro--
inve--
ipe--
iqui--
ir--
is--
it--
ita--
ite--
iteic--
itek--
iteo--
itla--
itlah--
itlato--
itskui--
itz--
itzcui--
itzo--
iu--
ix--
ixquih--
iz--
iztac--
j--
ja--
jahr--
je--
ji--
jo--
jor--
ju--
judea--
judi--
k--
ka--
kafe--
kak--
kaka--
kal--
kalm--
kalpol--
kamak--
kat--
kaulqua--
kaxti--
ke--
kej--
ken--
ki--
kichi--
kiihkwi--
kij--
kin--
kla--
kletterpf--
ko--
koaj--
koh--
koyo--
kre--
ku--
kua--
kuau--
kuetsko--
kui--
kwa--
kwe--
kɑ--
kɑlɑ--
l--
la--
lac--
lam--
lc--
lca--
lcua--
le--
lege--
leu--
li--
liliz--
lin--
liz--
ll--
lla--
lle--
lm--
lo--
loh--
lpi--
lpo--
lte--
lti--
lu--
lxo--
m--
ma--
mac--
maca--
macehua--
machio--
macro--
macuil--
mag--
magni--
mah--
mahuiz--
maj--
mal--
mala--
mam--
mama--
man--
manda--
map--
mar--
marga--
mas--
masewal--
mat--
mau--
maya--
mayo--
maza--
me--
mec--
medi--
mega--
mehr--
mep--
mer--
mes--
mexca--
mexika--
mez--
mi--
micca--
mich--
mih--
mijka--
mik--
mikka--
mil--
mir--
misi--
mit--
mito--
mix--
mixe--
miz--
mm--
mo--
moc--
mocen--
mochan--
moi--
molik--
moma--
momotla--
mon--
mona--
mond--
mone--
monte--
moque--
mor--
morp--
mos--
mote--
motla--
mou--
mox--
moxexe--
mu--
mur--
muri--
musul--
my--
n--
na--
naca--
nahua--
nal--
nan--
nar--
nata--
nca--
ndu--
ne--
nea--
necen--
nechi--
neh--
nek--
nel--
nen--
nena--
nenepil--
neo--
net--
new--
nex--
nez--
neza--
ng--
ni--
nic--
nie--
nimitz--
niz--
no--
noh--
nohpal--
non--
nor--
ntla--
nu--
o--
oasi--
ob--
oc--
oce--
ocelo--
oco--
ocuil--
of--
oh--
ohui--
oj--
ok--
okich--
oku--
ol--
olim--
olo--
om--
oma--
ome--
omo--
on--
onama--
oni--
oqui--
oquin--
or--
org--
ori--
os--
oso--
ote--
otla--
otlah--
ou--
oxitton--
oz--
oze--
p--
pa--
pach--
pah--
paipai--
pan--
papago--
par--
para--
patr--
pe--
peli--
pelon--
per--
pereg--
pes--
peua--
pi--
pic--
pig--
pil--
pilti--
pin--
pis--
pitzo--
pix--
pl--
pla--
plu--
po--
poal--
pol--
polo--
pon--
pre--
pri--
pro--
produ--
pru--
pt--
pu--
q--
qua--
que--
quetzal--
qui--
quia--
quiah--
quil--
quim--
quima--
quimaca--
quimi--
quimo--
quimona--
quin--
quipan--
quite--
quiya--
quiz--
r--
ra--
rag--
re--
reg--
repre--
respo--
rga--
ri--
rieh--
ro--
rtel--
ru--
s--
sa--
sal--
sam--
san--
sau--
sauro--
sch--
schab--
schme--
schnec--
sco--
se--
sea--
sec--
ser--
sha--
shi--
si--
sil--
sit--
sitlal--
siua--
skor--
so--
sol--
som--
son--
sonnen--
sop--
sp--
spa--
spu--
st--
sta--
stego--
su--
sub--
substa--
sy--
t--
ta--
tam--
tar--
tarahuma--
tas--
taxo--
te--
tec--
tech--
tecpan--
teh--
tehuel--
teix--
teixna--
teko--
tel--
telpo--
tem--
tema--
temi--
ten--
tena--
tene--
teno--
tentzon--
teo--
teocal--
tepa--
tepah--
tepe--
tepi--
tepo--
tepoz--
tepoztla--
tepoztlah--
tepu--
tequi--
ter--
tes--
tetl--
tetlaixpan--
tetlazoh--
tetza--
tetzo--
teu--
teuc--
teuton--
th--
ti--
tia--
tic--
tig--
tiger--
tih--
tik--
til--
tiya--
tla--
tlac--
tlaca--
tlacehcentla--
tlach--
tlaco--
tlah--
tlahco--
tlahkwi--
tlahto--
tlahtol--
tlai--
tlaix--
tlaj--
tlajto--
tlajtol--
tlaka--
tlal--
tlalna--
tlama--
tlamachtil--
tlan--
tlana--
tlane--
tlanelti--
tlanohno--
tlapa--
tlape--
tlaqui--
tlat--
tlate--
tlatla--
tlato--
tlatzo--
tlatzotzo--
tlaxca--
tlaxka--
tlaza--
tlazoh--
tle--
tli--
to--
toca--
toch--
toj--
tok--
toko--
tolca--
tolte--
ton--
tonal--
tor--
totah--
toto--
tr--
tra--
trans--
tre--
tri--
tro--
tropae--
tru--
truj--
ts--
tson--
tu--
tur--
turi--
ty--
tz--
tza--
tzacua--
tzapo--
tzau--
tzi--
tzin--
tzo--
tzonte--
u--
ua--
uey--
ueyial--
uh--
uits--
ul--
um--
un--
univ--
up--
ur--
urun--
v--
va--
ve--
ver--
verda--
vers--
vi--
vir--
virg--
visi--
vo--
vol--
vor--
vul--
w--
wa--
we--
weh--
weihnachts--
weyi--
wi--
wo--
wol--
wɑ--
x--
xa--
xe--
xel--
xi--
xih--
xihui--
xik--
xili--
ximopano--
xin--
xiuh--
xiuj--
xo--
xochi--
xocoyo--
xoko--
xolo--
xoxo--
xtla--
xu--
y--
ya--
yaca--
yahua--
yauh--
yaya--
ye--
yez--
yi--
yn--
yo--
yoh--
yohua--
yol--
yoli--
yoliz--
yu--
z--
za--
zaca--
zan--
zayo--
ze--
zi--
zo--
ɡ--
ɾ--
ʀ--
ʃ--
--0
--1
--2
--3
--4
--5
--6
--7
--8
--a
--ab
--ac
--acah
--acameh
--ach
--acio
--actli
--acuiloh
--ada
--ado
--ador
--ados
--ae
--ah
--ahto
--ahtol
--ahtolli
--ais
--aj
--ajtoli
--akamej
--al
--alco
--alis
--aliz
--alpan
--am
--amantli
--ameh
--an
--ana
--anco
--ani
--ania
--ano
--anum
--ar
--aris
--as
--aster
--at
--ata
--atin
--ation
--atl
--atum
--au
--aurus
--aux
--ay
--aya
--ayo
--ayotl
--aza
--b
--ba
--bar
--be
--ber
--ble
--bo
--bri
--by
--c
--ca
--cah
--cal
--calli
--camac
--can
--cani
--caqui
--cas
--catl
--cauh
--cayo
--cayotl
--ccio
--ce
--cea
--ceae
--cer
--ces
--ch
--cha
--chi
--chin
--cho
--choloni
--cht
--chti
--chtilli
--ci
--cia
--cio
--ck
--co
--coch
--coh
--col
--con
--coneuh
--copa
--coyan
--cpa
--cque
--cta
--cti
--ctin
--ctli
--cua
--cui
--cura
--cy
--d
--da
--dad
--dado
--dae
--de
--di
--dian
--dido
--do
--dor
--dores
--dra
--ds
--dt
--du
--duccio
--ducido
--dus
--e
--ea
--eau
--eb
--ed
--eh
--ehua
--ej
--el
--ela
--elo
--en
--ena
--ense
--ensis
--eo
--er
--eri
--ern
--ero
--ers
--ert
--es
--ese
--est
--et
--ey
--ez
--f
--fas
--ff
--fo
--ft
--g
--ga
--gal
--ge
--gen
--ger
--gh
--ght
--gi
--go
--gos
--gotherium
--gram
--gu
--gua
--gue
--gus
--gy
--h
--ha
--hca
--hcan
--hce
--hci
--hco
--hcuilo
--he
--hen
--hip
--hki
--hma
--hmeh
--ho
--hpilli
--hqui
--hr
--hrt
--ht
--htin
--htla
--htli
--hto
--htoa
--htolli
--hua
--huac
--huan
--hue
--hui
--huia
--huic
--huilli
--huiloni
--i
--ia
--ial
--ian
--iana
--ianum
--ic
--ica
--idae
--ie
--ies
--ih
--ii
--ik
--il
--ili
--ilistli
--iliz
--illa
--illi
--illo
--imej
--in
--ing
--ini
--io
--ion
--iotique
--ious
--ire
--is
--ismo
--ista
--itl
--iuaj
--iuh
--iwah
--iyo
--iz
--iztli
--j
--ja
--je
--jke
--jki
--jo
--jtiketl
--jtol
--jtoli
--k
--ka
--kaj
--kak
--kat
--kayo
--ke
--keh
--ketl
--ki
--kitl
--ko
--ks
--kua
--kɑ
--l
--la
--lacatl
--lagus
--lahto
--lan
--lar
--lcalco
--lco
--lcopa
--lcuepa
--ld
--lda
--le
--leh
--lem
--len
--lf
--lhua
--li
--lia
--liah
--lica
--lih
--lilizotl
--lilli
--lis
--listli
--liz
--lizotl
--liztica
--liztli
--ll
--lla
--llan
--lle
--lli
--llo
--llotl
--lma
--lman
--lmeh
--lmej
--ln
--lo
--loa
--loc
--logi
--lon
--loni
--lote
--lotl
--loyan
--lpan
--ls
--lt
--lta
--lti
--ltia
--ltiaj
--ltic
--ltica
--ltih
--ltik
--ltiliz
--ltilli
--ltin
--lto
--lus
--ly
--m
--ma
--maca
--mah
--mameh
--man
--me
--mea
--meh
--mej
--mera
--mes
--mi
--mic
--milli
--mitl
--mo
--molistli
--mp
--mpa
--mps
--ms
--n
--na
--nas
--ncaca
--nd
--nda
--ne
--ner
--nes
--ney
--ng
--ngen
--ngo
--ni
--nia
--nih
--niliz
--nimeh
--nis
--nny
--no
--nor
--npa
--nqui
--nquilia
--ns
--nsa
--nsis
--nt
--nta
--nte
--nti
--ntin
--ntla
--ntli
--nto
--nus
--ny
--nyo
--nza
--o
--oa
--oc
--ocimiento
--ocotl
--oh
--ok
--ol
--on
--ona
--ones
--oni
--ons
--oo
--opa
--opus
--or
--os
--osa
--osaurus
--ot
--ota
--otho
--otl
--out
--oya
--oyo
--p
--pa
--pac
--pah
--pan
--patl
--pe
--pec
--pet
--pi
--pil
--pilli
--pito
--pkopa
--po
--poloh
--ps
--q
--que
--queh
--quetl
--qui
--quiz
--quiztli
--r
--ra
--racio
--rad
--ran
--ras
--rca
--rcio
--rd
--rda
--re
--res
--rg
--rgo
--ri
--ria
--rio
--ris
--rium
--rk
--rn
--rne
--rno
--ro
--roa
--ros
--rre
--rrow
--rry
--rs
--rt
--rte
--rto
--rty
--rum
--rus
--ry
--s
--sa
--saurus
--sc
--sch
--sco
--se
--sej
--sel
--sh
--si
--sia
--sio
--sis
--sko
--so
--ss
--st
--sta
--stli
--sum
--sus
--t
--ta
--tal
--tar
--tary
--tas
--te
--tecah
--tecatl
--teo
--ter
--tes
--tetl
--th
--tha
--ti
--tia
--tiah
--tiaj
--tic
--tica
--tih
--tij
--tik
--tili
--tilli
--tin
--tini
--tion
--tiotl
--tis
--tiuh
--tka
--tl
--tla
--tlacah
--tlahto
--tlahtoqueh
--tlampa
--tlan
--tle
--tli
--to
--toa
--toc
--tocauh
--toh
--tok
--tol
--toli
--tomeh
--ton
--tos
--totl
--tqui
--tro
--ts
--tsi
--tsin
--tsoma
--tt
--ttac
--tte
--tu
--tum
--tura
--ture
--tus
--ty
--tz
--tza
--tzi
--tzin
--u
--ua
--uaj
--uali
--ualistli
--ualli
--uan
--uaya
--ube
--uco
--ud
--ude
--ue
--uh
--uhco
--uhmeh
--ui
--uia
--uiani
--uic
--uili
--uiliz
--uitl
--uiya
--uizo
--ul
--um
--uro
--urus
--us
--ut
--v
--va
--ve
--ves
--vi
--via
--vo
--w
--wa
--walistli
--watlahtolli
--wi
--wia
--wkeh
--wn
--x
--xco
--xitl
--xo
--xoa
--xtia
--xtli
--y
--ya
--yah
--yaj
--yan
--yatl
--yaya
--ye
--yeh
--yi
--yo
--yoh
--yoj
--yok
--yol
--yotl
--ys
--z
--za
--zar
--zco
--ze
--zen
--zma
--zo
--zoa
--zpan
--zt
--zte
--ztli
--ße
--ɑ
--ɪ
--ɬ
--ɬi
--ɾ
--ʃ
--ʊ
--и
--те
