!
"
#
##0
##1
##10
##11
##12
##13
##14
##15
##16
##17
##18
##19
##2
##20
##21
##22
##23
##24
##25
##26
##27
##28
##29
##3
##30
##31
##32
##33
##34
##35
##36
##37
##38
##39
##4
##40
##41
##42
##43
##44
##45
##46
##47
##48
##49
##5
##50
##51
##52
##53
##54
##55
##56
##57
##58
##59
##6
##60
##61
##62
##63
##64
##65
##66
##67
##68
##69
##7
##70
##71
##72
##73
##74
##75
##76
##77
##78
##79
##8
##80
##81
##82
##83
##84
##85
##86
##87
##88
##89
##9
##90
##91
##92
##93
##94
##95
##96
##97
##98
##99
$
%
&
'
(
)
*
+
,
-
.
/
0
00
000
01
02
03
04
05
06
07
08
09
1
10
100
1000
1002
1007
101
1016
102
103
1038
105
106
11
110
111
1126
115
116
12
1200
125
13
130
134
135
138
139
14
148
15
150
16
17
18
19
1925
1933
1939
1945
1948
1960
1962
1964
1967
1968
1969
197
1970
1971
1972
1974
1975
1976
1978
1979
1980
1981
1982
1983
1984
1985
1986
1987
1988
1989
1990
1991
1992
1993
1994
1995
1996
1997
1998
1999
2
20
200
2000
2001
2002
2003
2004
2005
2006
2007
2008
2009
2010
2011
2012
2013
2014
2015
2016
2017
2018
2019
2020
2021
2022
21
22
226
23
2307
24
25
26
27
271
279
28
29
3
30
300
31
32
33
34
35
36
37
38
39
4
40
41
415
42
43
44
45
46
47
48
49
5
50
500
51
52
521
53
54
55
56
57
58
59
6
60
600
61
62
63
64
65
66
67
68
69
7
70
71
72
73
74
75
76
77
78
79
8
80
81
82
83
84
85
86
87
88
89
9
90
91
92
93
94
95
96
97
978
98
99
:
;
<
=
>
?
@
[
\
]
^
_
`
a
aa
ab
abc
able
about
above
abraham
abstinence
abuse
ac
academic
academy
accent
access
according
account
accusative
acid
across
act
action
active
activities
activity
acts
actual
acute
ad
add
added
administration
adopted
adults
af
affairs
africa
african
after
again
against
age
agency
ages
ago
agreement
agriculture
ah
aha
ai
aile
air
ais
aj
ajanta
ak
aka
al
ala
alexander
ali
alif
all
alla
alliance
allow
allowfullscreen
almost
along
alpha
alphabet
already
also
alternative
although
always
am
ama
ame
america
american
americans
ami
among
amorphophallus
amu
an
ana
anal
analysis
ancient
and
andre
andrew
ang
animal
ann
anna
announced
annual
another
anti
antibodies
anus
anxiety
any
ao
ap
apa
application
applied
approach
approves
apre
april
ar
ara
arabic
aran
arbor
archaeological
archaeology
archaic
architecture
archive
archived
archives
are
area
areas
argentina
argument
armed
army
around
art
arthur
article
articles
artists
arts
as
asa
asia
asian
asiatic
asked
assembly
associated
association
asta
astrazeneca
astronomy
asura
at
atamadaka
atlantic
atmosphere
atmospheric
attention
atthi
au
august
aula
aung
australia
australian
austroasiatic
authority
av
available
ave
average
aw
award
away
ayt
ayya
aɪ
b
ba
bac
back
background
bad
baha
bala
ban
bangkok
bangladesh
bank
baptist
bar
barber
base
based
basic
basis
bat
battle
bb
bbc
bc
bce
be
became
because
become
bee
been
beer
before
began
beginning
behavior
behind
bei
being
bell
below
bengali
best
better
between
beyond
bgn
bha
bhu
bi
bia
bibcode
bible
bie
big
bill
billion
biography
biology
bird
birds
birth
black
blev
block
blog
blogspot
blood
blue
bo
boa
board
bodies
body
bol
bole
bombay
bombo
bond
book
books
border
bore
born
boston
both
bowl
box
bra
brahmi
brandreth
brazil
break
breast
breve
brief
brill
britain
britannica
british
brown
bu
bud
buddha
buddhas
buddhism
buddhist
bui
building
built
bul
bulletin
bun
bureau
burma
burmese
business
but
by
bɑ
bɔ
bə
bɛ
bɯ
c
ca
cafe
calendar
california
call
called
calls
cambodian
cambridge
came
camera
campaign
can
canada
canadian
cancer
cannot
cantonese
cap
capital
caps
carbon
care
caribbean
carved
case
cases
cat
category
catholic
cause
caused
cave
caves
cc
cdm
ce
cedilla
cell
cells
cengage
census
center
centers
central
centre
centuries
century
ceremony
certain
ch
cha
chamber
chan
change
changes
changsha
chapter
character
characters
charles
charter
che
chemical
chemistry
chengdu
chi
chiang
chicago
chief
child
children
china
chinese
cho
christian
christianity
christmas
chronicle
chronology
chu
church
ci
cia
cin
circumflex
cite
city
civil
claimed
class
classical
climate
clinical
close
cm
cnn
co
coconut
code
codes
coffee
cohen
cold
collection
collective
college
colonial
colour
columbia
com
combinations
come
comma
commission
committee
common
commonly
commonwealth
community
companion
company
comparative
comparison
complete
complex
composition
comprehensive
con
concentration
conditions
condoms
conference
confirmed
conflict
consent
conservation
considered
consonant
constitution
construction
containing
contains
contemporary
content
context
continent
continued
contraception
contraceptive
control
convention
coronavirus
cotton
could
council
countries
country
coup
court
cov
cover
covid
crater
create
created
creating
creation
crime
crimes
criminal
crisis
cristian
criteria
critical
cross
cs
ct
cu
cultural
culture
cultures
current
currently
cut
cyrillic
d
da
daibuun
daijirin
daily
dali
dam
damage
dan
dance
dangerous
daniel
danish
danmark
dansk
dari
dark
das
data
database
date
dated
dates
dato
daughter
david
day
days
dd
de
dead
death
december
decipherment
decision
declaration
declared
declension
deep
defense
defined
definite
definition
degree
del
deletion
delhi
democracy
democratic
den
denmark
department
depth
der
derived
des
described
despite
destruction
det
details
determination
devanagari
developed
development
dha
di
dia
dictionary
did
die
died
different
directly
disambiguation
discovered
discovery
disease
diseases
disobedience
displaystyle
distance
distribution
district
diversity
division
dk
dna
do
does
dog
doi
domain
domestic
don
dong
dot
double
down
dr
drive
drug
drugs
dry
dta
du
due
dungan
durian
during
dust
dz
dzdzdz
də
dɛ
e
each
earlier
earliest
early
earth
earthquake
earthquakes
east
eastern
economic
economy
ed
edit
edition
editor
eds
edu
education
edward
ee
effect
effective
effects
efficacy
egg
ego
egyptian
ei
eight
eighth
einstein
either
ek
el
elative
elected
election
elections
electrode
elements
elephant
eleven
elizabeth
eller
em
emerge
emergency
empire
en
encyclopedia
end
energy
eng
engineering
england
english
enpr
entries
entry
environment
environmental
eoe
equal
equivalent
er
era
error
es
especially
esse
established
estimated
et
ethnic
etymology
eu
eumhun
europe
european
eve
even
event
every
everyone
evidence
evolution
example
excel
executive
exhibition
exist
expected
experience
explain
export
express
f
fa
face
facebook
fact
factbook
factors
facts
failure
faith
fall
family
far
fast
father
fault
fe
fear
features
feb
february
federal
federation
female
feminine
festival
few
ff
fi
field
fifth
figure
figures
file
film
final
financial
find
fire
first
fish
five
flower
flowers
floyd
fo
focus
followed
following
follows
font
food
football
for
force
forces
foreign
forest
form
formal
formation
formed
former
forms
forty
fossil
fossils
found
foundation
four
fourth
fr
fra
frac
fraktur
franc
france
fre
free
freedom
french
frequently
freud
friday
from
front
fruit
fruits
ft
fu
full
fullwidth
fund
further
future
fwww
g
ga
gala
gallery
gallus
gambia
gan
gandhi
gang
gas
gave
gb
ge
general
generally
genesis
genocide
geographic
geography
geological
geometry
georg
george
german
germany
get
getsitelink
gg
gh
gha
gi
gia
giant
gibson
gig
ginger
give
given
global
go
god
going
goju
gold
golden
good
google
goon
gordon
got
gov
government
grade
grave
great
greater
greek
green
greta
ground
group
groups
growth
gu
guangdong
guangzhou
guardian
guide
guinea
gupte
guru
gwoyeu
gyo
h
ha
had
hakka
half
hall
halloween
hallows
halo
han
hand
handbook
hang
hangul
hans
happy
har
harvey
has
hassan
have
having
he
head
headword
health
healthy
heart
hebrew
heiban
height
held
hell
help
hemisphere
henry
her
here
heritage
hh
hi
high
higher
hill
him
hindi
hindu
hinduism
hiragana
his
historical
history
hiv
hla
hler
hluttaw
ho
hokkien
hol
hole
holes
holocaust
holy
home
hook
horn
horse
hospital
house
how
however
hra
hta
htaw
html
http
https
hu
hua
human
hunter
hydrogen
hɔ
i
ia
ian
ibis
ice
icj
id
idea
ideas
identification
identity
if
iframe
iguana
ii
iii
ijij
ik
ikke
iku
il
ila
im
image
images
immunogenicity
impact
imperative
impf
important
in
inan
inc
include
included
includes
including
incorporates
increase
independence
independent
index
india
indian
indians
indicative
individual
individuals
indo
indonesia
indonesian
indus
infection
infections
infinitive
inflection
influence
influenced
info
informal
information
ing
inscription
inscriptions
inside
instead
institute
institution
institutions
intangible
intelligence
intercourse
interest
interior
internal
international
internet
interview
into
intobesa
introduction
invalid
invasion
inverted
ipa
iran
iranian
ireland
irish
is
isbn
isha
islam
islamic
island
islands
ism
iso
israel
issn
issue
issues
it
italic
italy
iti
its
itself
iu
iucn
iv
iı
j
ja
jade
james
jan
january
japan
japanese
jataka
jawwa
je
jean
jersey
jesus
jewish
jews
ji
jin
jitai
jiten
jj
jo
job
john
johnson
join
jones
joseph
journal
jpg
ju
judaism
july
jumu
june
juni
jussive
just
justice
jyutping
jɑ
k
ka
kam
kan
kanji
kannada
kaohsiung
karen
kat
katakana
kaw
ke
kei
kennedy
kepler
key
kh
kha
khmer
kho
ki
kilo
king
kingdom
kis
kk
kl
kla
km
know
knowledge
known
ko
kokugo
kon
korea
korean
kra
kratom
krishna
ks
ku
kun
kur
kus
kwa
kya
kyi
kyo
kyu
kɐ
kɑ
kɔ
kɔɔ
kə
kɛ
kɯ
l
la
lab
laboratory
lacey
lack
lai
lake
land
lang
language
languages
lanka
large
larger
largest
larva
larve
last
late
later
latin
law
laws
lc
le
leader
leaders
leading
league
learning
least
leaves
lecture
led
lee
left
legal
legislation
leiden
length
leonardo
les
less
leste
let
letter
letters
level
li
library
lie
life
light
like
likely
lim
limited
lin
line
linguistic
linguistics
link
links
liquid
lis
list
literature
little
live
lives
living
ljljlj
ll
lo
local
located
loi
lon
london
long
longer
lord
los
loss
lost
lov
love
lover
low
lower
lowercase
ltd
lu
lua
lunar
lus
lutjanus
lɑ
lɔ
lɔŋ
lə
lɛ
m
ma
mac
machine
macmillan
macron
made
magazine
magnitude
maha
mahajan
mai
main
major
majority
make
makes
making
male
mam
man
management
mandarin
mang
manus
many
map
mara
marathi
march
mark
marriage
mars
martian
martin
mary
masculine
mass
masturbation
mat
material
matha
mathematics
matra
mau
maung
may
mc
me
mean
meaning
means
measure
measured
measures
med
media
medical
medicinal
medicine
medieval
meet
meeting
meikai
member
members
membership
memorial
memory
men
mental
merger
met
method
methods
mexico
mi
michael
michelangelo
michigan
mid
middle
might
military
milk
million
min
mina
mind
mine
minh
minister
ministry
minn
minnesota
mino
minor
mission
mlcts
mm
mnw
mo
mod
mode
model
modern
module
molecular
mon
mona
monarch
monastery
monday
money
monk
monks
monmanuscript
mons
mont
month
months
monzel
moon
mor
more
morgen
morning
mos
most
mot
mother
motion
mountain
mountains
movement
mr
mra
ms
mu
much
muj
multi
multilingual
multiple
muo
mup
mus
museum
music
muslim
must
mw
my
myanmar
myittha
mɐ
mɑ
mɔ
mə
mɛ
n
na
nac
nag
naga
nago
nai
nak
nakadaka
nam
name
named
names
nan
nas
nasa
nat
nation
national
nations
native
nato
natural
nature
naw
nca
ncov
nd
ne
near
nearly
need
needed
negative
neglect
nen
neo
nest
net
netherlands
network
neuter
never
new
newberry
news
next
ng
nga
nger
ngs
ngu
nh
nhi
nhk
nho
ni
night
nil
ninth
nis
njnjnj
nl
nld
nn
no
nobel
noel
nominative
non
none
normal
north
northern
nos
not
note
notes
notice
noun
nov
novel
november
now
nr
ns
nt
nu
nuclear
number
numbers
numerals
nus
ny
nya
nyi
nɑ
nɔ
nə
nɛ
nɡ
nɪ
o
oa
object
observed
obsolete
occur
ocean
oclc
october
odaka
oed
of
off
office
officer
official
often
og
oh
oi
oil
ok
okapi
okell
ola
old
older
oldest
om
oman
on
once
one
oni
online
only
oo
ope
open
opera
operation
opposition
or
oral
orange
orbit
orbiter
order
org
organ
organization
oriental
origin
original
originally
origins
os
other
others
our
out
output
outside
over
own
oxford
oxfordshire
oxygen
p
pa
pacific
pagan
page
pages
pagoda
paha
painted
painting
paintings
pakistan
pal
palace
pali
pallava
palm
pan
pandemic
paper
papers
paris
park
parliament
parser
part
participle
particular
partners
parts
party
pas
pasa
pass
passe
passive
past
pasta
paste
pat
paul
paulo
pcgn
pcodes
pdf
pe
peace
peacekeeping
pegu
penal
peng
penis
pennsylvania
penny
people
peoples
per
pera
perf
perfect
period
permanent
persian
person
personal
perspective
pes
peter
pfizer
ph
pha
phase
philadelphia
philippines
philosophy
pho
phofsit
phoneme
phonemic
phonetic
photo
php
physical
physics
pi
picture
pig
pik
pillars
pimlott
pinyin
pique
pl
place
places
plan
planet
planetary
planets
planning
plant
plants
please
plu
plural
plus
pmid
po
point
poj
polar
police
policy
political
politics
politiken
popular
population
portal
portugal
portuguese
position
positive
possessive
possible
post
pot
potential
power
pp
pra
practice
practices
pre
preceded
pregnancy
presence
present
preserved
president
presidential
press
pressure
prevent
prevention
previous
previously
primary
prime
prince
princeton
private
prize
probably
problem
problems
proceedings
process
produced
production
products
profile
program
programme
project
pronounced
pronunciation
proposed
protection
protein
protest
protests
proto
provide
provided
province
ps
psychology
pt
pu
public
publications
published
publisher
publishers
publishing
put
pyu
pɑ
pɔ
pə
pɛ
q
qa
qi
qq
qu
quail
quality
quanzhou
quarter
queen
questions
quo
quote
r
ra
rabia
race
radio
rajat
rak
ram
ran
rana
rang
range
rangoon
rao
rape
rare
ras
rat
rate
rather
rd
re
read
reading
real
reason
received
recent
record
records
red
ref
reference
references
reform
refs
refugees
region
regional
regions
related
relations
relationship
relatively
release
religion
religions
religious
remains
remove
ren
renaissance
report
reported
reports
represents
republic
required
res
research
resolution
resources
respiratory
response
result
resulting
results
retrieved
rett
return
returned
reuters
review
reviews
revolution
rfa
rh
rhymes
ri
rice
rich
richard
right
rights
ring
rio
ris
rise
risk
rit
ritus
river
riz
ro
road
robert
roberts
rock
rocks
rohingya
role
romaji
roman
romanization
romatzyh
ron
ros
routledge
rover
row
royal
rr
rs
ru
rule
rum
run
rus
russia
russian
rɔ
rɛ
s
sa
sab
sabt
safety
saffron
sai
said
saint
saints
salomon
salt
salvador
sam
sama
same
sametinget
sametingets
samisk
san
sang
sanseido
sanskrit
sarah
saraswati
sars
sat
sata
satan
satana
saw
say
says
scale
scholars
school
schools
sci
science
sciences
scientific
scientists
scotland
scott
scottish
script
scripts
sculpture
se
sea
search
seat
second
secret
secretary
section
security
see
seen
seismic
selected
self
semantic
semi
semitic
sen
send
sending
senior
sense
sent
september
series
service
services
set
seven
several
severe
sex
sexual
sexuality
sexually
shall
shan
share
sharing
shawcross
she
shi
shin
sho
shoemaker
short
should
show
shown
shows
shrine
si
sia
side
sides
sigmund
sign
significant
signs
similar
simple
sin
since
sine
sing
singapore
singh
single
singula
singular
sino
sinological
sir
sit
site
sites
situation
six
sixian
sixth
size
sk
skal
skin
skyknowledge
sla
slip
small
smith
sn
snake
snakes
snow
snp
so
social
society
soda
soft
soil
solar
solution
som
some
someone
something
sometimes
son
song
sons
soon
sot
sound
source
sources
south
southeast
southern
soviet
spa
space
spain
spanish
speakers
special
species
specific
specify
speech
speedy
spelling
spink
spread
spring
springer
square
sri
ss
sse
st
sta
stab
staff
stage
standard
star
started
state
stated
statement
states
statistics
statue
status
statute
statutes
statutory
stephen
sti
still
sto
stone
stop
store
story
street
strength
stress
strike
string
stro
stroke
strong
structure
students
studies
study
stupa
style
styles
su
subject
subjunctive
such
suggests
sum
summary
summer
sun
sunday
super
supine
support
supported
supposed
surface
surrealist
survey
sus
suu
swan
swedish
syllable
symbol
system
systematic
systems
sz
søt
sſs
sɐ
sɑ
sɔ
sə
sɛ
sɛn
sɨ
t
ta
table
tag
tai
taipei
tajik
taka
take
taken
takes
taking
tamil
tan
tar
tatmadaw
taylor
te
teachers
team
technology
telugu
template
temple
ten
tense
teochew
ter
term
terminalia
terms
territory
tes
test
testament
text
texts
th
tha
thai
thailand
than
that
the
their
them
themselves
then
theory
there
these
they
thi
third
thirty
this
tho
thomas
those
though
thought
thousands
three
through
throughout
thu
thumb
thunberg
thursday
thus
ti
tibetan
til
tilde
time
times
timor
timorese
tin
tis
title
tmam
to
today
together
toilet
tokyo
told
ton
tongyong
too
took
top
tor
tos
total
toward
towards
town
tr
tra
trade
tradition
traditional
traditions
translated
translation
transmitted
travel
treatment
treaty
tree
trial
tropical
tru
true
ts
tsa
tsi
tsu
tt
tu
tum
tun
tur
turkey
tus
tv
twenty
two
ty
type
types
tɔ
tə
tɛ
u
udviklingspsykologi
uec
uganda
uk
ukraine
ukrainian
um
un
uncommon
unconscious
uncreated
under
underline
understanding
unesco
unicode
union
unit
united
unity
universal
universities
university
until
up
upon
upper
uppercase
ur
urban
url
us
usa
usage
usbu
use
used
uses
using
usually
ut
uu
uwsa
v
va
vaccine
vaccines
vagina
vaginal
valentine
value
values
van
var
variations
various
vasudev
ve
ved
venom
verb
version
versions
very
ves
veto
vi
via
video
vienna
vietnam
view
village
vinci
violatti
violence
virus
visit
vo
voice
vol
volodymyr
volume
von
vos
vote
voting
vowel
vulture
vv
w
wa
wales
wall
walls
walter
wan
war
was
washington
watch
water
waves
way
wayback
we
web
website
webster
wednesday
week
well
went
were
west
western
wet
what
when
where
whether
which
while
white
who
whole
whose
why
wi
width
wife
wiki
wikimedia
wikipedia
wiktionary
wild
wiley
will
william
williams
win
wind
window
winter
with
within
without
wo
woman
women
wood
word
words
work
worked
workers
working
works
world
worldwide
worship
would
write
writing
written
wrote
wu
ww
www
wɔ
x
xa
xi
xiamen
xx
y
ya
yahya
yale
yama
yangon
yazawin
ye
year
years
yellow
yet
yi
yo
yomi
york
you
young
younger
your
youth
youtube
yu
yue
yy
z
za
zac
ze
zealand
zelensky
zelenskyy
zh
zhangzhou
zhuyin
zi
zid
zo
zoom
zu
zz
{
|
}
~
£
§
«
°
²
²²
²¹
²⁴
³
³³
³⁵
´
·
¹
¹³
¹¹
º
»
×
ß
ßß
æ
ææ
ð
ði
÷
ø
øø
þ
đ
đa
đđ
ħ
ħa
ħħ
ı
ĳĳ
ĸ
ŀŀ
ł
łł
ŋ
ŋa
ŋŋ
œ
œœ
ŧŧ
ſ
ƀƀ
ƃƃ
ƈƈ
ƌƌ
ƒ
ƒƒ
ƕ
ƙƙ
ƚƚ
ƞƞ
ƥƥ
ƫ
ƭƭ
ƴƴ
ƶƶ
ƺ
ƽ
ƿ
ǆ
ǆǆǆ
ǉ
ǉǉǉ
ǌ
ǌǌǌ
ǝ
ǥǥ
ǳ
ǳǳǳ
ȝ
ȡ
ȣȣ
ȣȣᴕ
ȥȥ
ȴ
ȵ
ȶ
ȷ
ȸ
ȹ
ȼȼ
ȿ
ɀ
ɇɇ
ɉɉ
ɍɍ
ɏ
ɏɏ
ɐ
ɐɐ
ɑ
ɑɑ
ɒ
ɓ
ɓɓ
ɔ
ɕ
ɕa
ɕi
ɕit
ɕɨ
ɖ
ɖɖ
ɗ
ɗɗ
ə
ən
əs
ɚ
ɛ
ɛn
ɜ
ɟ
ɠɠ
ɡ
ɡa
ɡe
ɡi
ɡo
ɡu
ɡɐ
ɡɑ
ɢ
ɣ
ɣa
ɤ
ɦ
ɨ
ɨɨ
ɨɨɨ
ɪ
ɪŋ
ɫ
ɫɫ
ɬ
ɭ
ɯ
ɰ
ɱɱ
ɲ
ɲa
ɲɲ
ɳ
ɴ
ɵ
ɵɵ
ɶ
ɸ
ɸɯ
ɹ
ɹi
ɹɪ
ɼ
ɽ
ɽɽ
ɾ
ɾa
ɾe
ɾi
ɾo
ɾɐ
ɾə
ɾɛ
ʀ
ʀʀ
ʁ
ʂ
ʃ
ʃa
ʃe
ʃi
ʃə
ʄ
ʈ
ʈʈ
ʉ
ʉʉ
ʊ
ʊs
ʊɴ
ʋ
ʋʋ
ʌ
ʏ
ʐ
ʑ
ʑi
ʒ
ʒa
ʒe
ʒi
ʒu
ʒə
ʔ
ʔa
ʔak
ʔas
ʔu
ʕ
ʕa
ʙ
ʜ
ʝ
ʟ
ʠ
ʰ
ʱ
ʲ
ʷ
ʹ
ʺ
ʻ
ʼ
ʾ
ʿ
ˀ
ˇ
ˈ
ˊ
ˋ
ˌ
ː
ːˈ
ːᴬ
ˑ
˙
ˠ
ˢ
ˤ
˥
˦
˧
˨
˩
̀
́
̂
̃
̄
̆
̇
̈
̉
̊
̋
̌
̍
̏
̑
̒
̓
̔
̙
̚
̛
̜
̝
̞
̟
̠
̣
̤
̥
̦
̧
̨
̩
̪
̬
̭
̮
̯
̰
̱
̵
̹
̺
̻
̿
͂
ͅ
͈
͘
͜
͝
͞
͡
ͱ
ͳ
ͷ
΄
α
β
γ
δ
ε
ζ
η
θ
ι
κ
λ
μ
ν
νος
ξ
ο
π
ρ
ς
σ
τ
υ
φ
χ
ψ
ω
ϒ
ϙ
ϛ
ϝ
ϟ
ϡ
ϳ
ϸ
ϻ
а
б
в
г
гъ
д
дж
дз
е
ж
з
и
к
къ
л
м
н
о
п
пъ
р
с
т
тш
тъ
у
ф
х
хъ
ц
цъ
ч
чъ
ш
щ
ъ
ы
ь
э
ю
я
є
і
ґ
ү
ӕ
ә
ө
ՙ
՚
՛
՜
՝
՞
՟
ՠ
ա
աա
բ
բՙ
բբ
գ
գՙ
գգ
դ
դՙ
դդ
ե
եե
զ
զզ
է
էէ
ը
ըը
թ
թթ
ժ
ժժ
ի
իի
լ
լլ
խ
խխ
ծ
ծծ
կ
կկ
հ
հհ
ձ
ձՙ
ձձ
ղ
ղղ
ճ
ճճ
մ
մմ
յ
յյ
ն
նն
շ
շշ
ո
ոո
ու
չ
չչ
պ
պպ
ջ
ջՙ
ջջ
ռ
ռռ
ս
սս
վ
վվ
տ
տտ
ր
րր
ց
ցց
ւ
ււ
փ
փփ
ք
քք
օ
օօ
ֆ
ֆֆ
և
ֈ
։
֊
֍
֎
֏
ְ
ֲ
ִ
ֵ
ֶ
ַ
ָ
ֹ
ּ
־
ֿ
ׁ
ׂ
א
ב
ג
ד
ה
ו
ז
ט
י
כ
ל
ם
מ
ן
נ
ס
ע
פ
ק
ר
ש
ת
ء
ا
اء
اب
ابر
ات
اث
اد
ار
اسم
اع
ال
الس
ام
ان
ب
بار
بول
ة
ت
ث
ثا
ثار
ثر
ج
ح
خ
د
ذ
ر
ز
س
ش
ص
ض
ط
ظ
ع
غ
ـ
ف
ق
ك
ل
م
ن
ه
ها
و
ور
وع
ول
ون
ى
ي
يس
ين
ً
ٌ
ٍ
َ
ُ
ِ
ّ
ْ
ٓ
ٔ
ٕ
٢
ٰ
ٹ
پ
چ
ژ
ک
گ
ی
ے
ە
۰
۱
۲
۳
۴
۵
۶
۷
۸
۹
ܐ
ܛ
ܝ
ܢ
ܣ
ܬ
ܲ
ܵ
ܹ
ܼ
݂
ހ
ނ
ރ
ބ
އ
ވ
ދ
ސ
ަ
ާ
ި
ީ
ު
ެ
ް
ँ
ं
ः
अ
अग
अस
आ
आल
इ
ई
उ
ऊ
ऋ
ऌ
ए
ऐ
ओ
औ
क
कर
करत
करन
ख
ग
गल
घ
ङ
च
चल
छ
ज
जल
झ
ञ
ट
ठ
ड
ढ
ण
त
थ
द
ध
न
प
पत
फ
ब
भ
म
य
र
ल
ळ
व
वर
श
ष
स
ह
़
ा
ि
ी
ु
ू
ृ
े
ै
ॉ
ो
ौ
्
०
१
२
३
४
५
६
७
८
९
ঁ
ং
ঃ
অ
আ
ই
ঈ
উ
ঊ
ঋ
এ
ঐ
ও
ঔ
ক
খ
গ
ঘ
ঙ
চ
ছ
জ
ঝ
ঞ
ট
ঠ
ড
ঢ
ণ
ত
থ
দ
ধ
ন
প
ফ
ব
ভ
ম
য
র
ল
শ
ষ
স
হ
়
া
ি
ী
ু
ূ
ৃ
ে
ৈ
্
ৎ
ৗ
ৰ
ৱ
ਂ
ਃ
ਅ
ਆ
ਇ
ਈ
ਉ
ਊ
ਏ
ਐ
ਓ
ਔ
ਕ
ਖ
ਗ
ਘ
ਙ
ਚ
ਛ
ਜ
ਝ
ਞ
ਟ
ਠ
ਡ
ਢ
ਣ
ਤ
ਥ
ਦ
ਧ
ਨ
ਪ
ਫ
ਬ
ਭ
ਮ
ਯ
ਰ
ਲ
ਵ
ਸ
ਹ
਼
ਾ
ਿ
ੀ
ੁ
ੂ
ੇ
ੈ
ੋ
ੌ
੍
ੜ
੦
੧
੨
੩
੪
੫
੬
੭
੮
੯
ੰ
ੱ
ੲ
ੳ
ક
ગ
જ
ત
દ
ધ
ન
પ
બ
મ
ય
ર
લ
શ
સ
ા
િ
ી
ુ
ૃ
ો
ૌ
્
କ
ଖ
ଗ
ଜ
ଢ
ତ
ଦ
ଧ
ନ
ପ
ବ
ମ
ଯ
ର
ଲ
ଶ
ସ
଼
ା
ି
ୀ
ୁ
ୂ
ୃ
େ
୍
ୖ
ୗ
க
ங
ச
ட
ண
த
ந
ன
ப
ம
ய
ர
ற
ல
ள
ழ
வ
ா
ி
ீ
ு
ூ
ெ
ே
ை
்
ௗ
௦
௧
௨
௩
௪
௫
௬
௭
௮
௯
௰
௱
௲
ం
అ
క
ఖ
గ
ట
త
ద
ధ
న
ప
బ
మ
య
ర
ల
వ
శ
ా
ి
ీ
ు
ూ
ృ
ె
ే
ో
ౌ
్
ౖ
౦
౧
౨
౩
౪
౫
౬
౭
౮
౯
ಕ
ಗ
ತ
ದ
ಧ
ನ
ಪ
ಬ
ಮ
ಯ
ರ
ಲ
ಾ
ಿ
ು
ೆ
್
ೕ
ാ
ി
െ
്
ං
ක
ග
ච
ඨ
ත
ථ
ද
ධ
න
බ
භ
ම
ය
ර
ල
ස
්
ා
ි
ී
ු
ෙ
ก
กร
ข
ค
คร
ฅ
ฆ
ง
งม
จ
ฉ
ช
ซ
ฌ
ญ
ฎ
ฏ
ฐ
ฑ
ฒ
ณ
ด
ต
ถ
ท
ธ
น
นต
นธ
บ
ป
ผ
ฝ
พ
ฟ
ภ
ม
มม
ย
ยว
ร
ฤ
ล
ว
วย
ศ
ษ
ส
ห
หน
หม
ฬ
อ
อง
อน
อย
ฮ
ั
า
าง
าน
าว
ำ
ำม
ิ
ี
ึ
ื
ุ
ู
ฺ
เก
เช
เน
เป
เม
เร
เล
เส
เหม
แต
ได
ไทย
ไม
ๆ
็
่
้
๊
๋
์
ํ
ກ
ຂ
ຄ
ງ
ຈ
ຉ
ຊ
ຍ
ຐ
ດ
ຕ
ຖ
ທ
ຘ
ນ
ບ
ປ
ຜ
ພ
ຟ
ມ
ຢ
ຣ
ລ
ລາວ
ວ
ສ
ຫ
ອ
ຮ
ັ
າ
ຳ
ິ
ີ
ື
ຸ
ູ
຺
ົ
ຼ
່
້
ໍ
ໜ
ໝ
་
༠
༡
༢
༣
༤
༥
༦
༧
༨
༩
ཀ
ག
ཏ
ད
ན
པ
བ
མ
ཛ
ར
ལ
ས
ཨ
ཱ
ི
ུ
ོ
ྀ
ྟ
ྡ
ྱ
ྲ
ླ
ྷ
က
ကက
ကကမ
ကခ
ကဂ
ကဂမ
ကင
ကစ
ကဆ
ကဇ
ကဉ
ကည
ကညင
ကညၚ
ကဋ
ကဌ
ကဌဇ
ကဍ
ကဍတ
ကဏ
ကတ
ကတည
ကတလ
ကတအ
ကတၚ
ကထ
ကထဝ
ကဒ
ကဓ
ကဓမ
ကဓဝ
ကန
ကပ
ကပရ
ကဖ
ကဗ
ကဗလ
ကဘ
ကမ
ကမတ
ကယ
ကရ
ကရက
ကရင
ကရဏ
ကရတ
ကရပ
ကလ
ကလက
ကလင
ကလန
ကလအ
ကလၚ
ကဝ
ကဝက
ကဝတ
ကဝဝ
ကသ
ကသပ
ကသဝ
ကသအ
ကဟ
ကဠ
ကဠင
ကအ
ကဿပ
ကဿပဂ
ကၚ
ကၜ
ခ
ခက
ခဂ
ခင
ခစ
ခစက
ခစသ
ခဇ
ခည
ခဍ
ခဍက
ခဍန
ခဍမ
ခဏ
ခဏက
ခဏဂ
ခဏဃ
ခဏဍ
ခဏရ
ခတ
ခတခဏ
ခတဝ
ခဒ
ခဒမ
ခန
ခပ
ခပတ
ခဗ
ခမ
ခမဂ
ခယ
ခရ
ခရက
ခရမ
ခရဝ
ခလ
ခဝ
ခသ
ခသစ
ခအ
ခၚ
ခၜ
ဂ
ဂက
ဂကန
ဂဂ
ဂဂမ
ဂင
ဂစ
ဂစက
ဂဇ
ဂဇအ
ဂည
ဂဍ
ဂဏ
ဂဏဘ
ဂတ
ဂတက
ဂတဂ
ဂတဏ
ဂတဏအ
ဂတတ
ဂတန
ဂတပ
ဂတမ
ဂတမတ
ဂတရ
ဂတဝ
ဂတအ
ဂဒ
ဂဒအ
ဂန
ဂပ
ဂပန
ဂပဝ
ဂဗ
ဂဗက
ဂဗဆ
ဂဗဒ
ဂမ
ဂမဟ
ဂယ
ဂရ
ဂရင
ဂရၚ
ဂလ
ဂလက
ဂဝ
ဂဝမ
ဂသ
ဂသစ
ဂဟ
ဂအ
ဂဥ
ဂၚ
ဃ
ဃန
ဃရ
ဃရတ
ဃသ
ဃသန
င
ငန
ငယ
စ
စက
စကတ
စကပဏ
စကမ
စကလ
စခ
စခန
စဂ
စဂမ
စင
စစ
စဆ
စဇ
စဉ
စည
စဍ
စဏ
စဏအ
စတ
စတင
စတမ
စထ
စဒ
စဒက
စန
စနစ
စပ
စပဌမၛ
စပန
စပရ
စဖ
စဗ
စဘ
စမ
စမဂ
စမတ
စမထ
စယ
စရ
စရင
စရပ
စရၚ
စလ
စလန
စလဝ
စဝ
စဝဝ
စသ
စသည
စသတ
စသမ
စဟ
စအ
စအဟ
စၚ
စၜ
ဆ
ဆက
ဆဂ
ဆင
ဆစ
ဆဆ
ဆည
ဆဋ
ဆဍ
ဆတ
ဆဒ
ဆန
ဆပ
ဆဗ
ဆမ
ဆယ
ဆရ
ဆလ
ဆလအ
ဆဝ
ဆသ
ဆဟ
ဆအ
ဆအယ
ဆၚ
ဆၜ
ဇ
ဇက
ဇခ
ဇဂ
ဇဂက
ဇင
ဇစ
ဇဇ
ဇဋ
ဇဍ
ဇတ
ဇတဝ
ဇဒ
ဇန
ဇနက
ဇနပ
ဇပ
ဇဗ
ဇဗက
ဇဗဝ
ဇဗအ
ဇမ
ဇမန
ဇမသဂက
ဇယ
ဇရ
ဇရပ
ဇရရ
ဇလ
ဇဝ
ဇဝင
ဇဝန
ဇဝၚ
ဇသ
ဇဟ
ဇအ
ဇအအ
ဇၚ
ဇၜ
ဈ
ဉ
ဉတ
ည
ညက
ညဂ
ညင
ညစ
ညတ
ညတသမ
ညဓဝ
ညန
ညပ
ညရ
ညလ
ညဝ
ညသ
ညဟ
ညအ
ညၚ
ဋ
ဋက
ဋကတ
ဋလ
ဌ
ဌက
ဌကထ
ဌဂ
ဌဇ
ဌတ
ဌန
ဌပ
ဌဗ
ဌမ
ဌမတ
ဌသ
ဍ
ဍက
ဍကသ
ဍဂ
ဍင
ဍည
ဍတ
ဍန
ဍပ
ဍမ
ဍယ
ဍရ
ဍလ
ဍဝ
ဍသ
ဍဟ
ဍအ
ဍၚ
ဎ
ဎက
ဏ
ဏက
ဏဂ
ဏင
ဏဇ
ဏထ
ဏဘ
ဏမ
ဏရ
ဏလ
ဏဝ
ဏဝတ
ဏသ
ဏအ
ဏၚ
တ
တက
တကဂမ
တကတ
တကအ
တခ
တဂ
တဂမ
တင
တစ
တစန
တဆ
တဇ
တဇဇမ
တဉ
တည
တဍ
တဏ
တတ
တထ
တဒ
တဓမ
တဓရ
တန
တနင
တနန
တနၚ
တပ
တပည
တပဏ
တဖ
တဗ
တဗဝ
တဗၚ
တဘ
တမ
တမက
တမဂ
တမတ
တမန
တမရ
တမဝ
တယ
တရ
တရင
တရထ
တရန
တရသဝဂ
တရအဓ
တရၚ
တလ
တလက
တလဂ
တလည
တလတ
တလန
တလနန
တလပည
တလသ
တဝ
တဝန
တသ
တသတ
တသမ
တသဝ
တဟ
တဟဂမ
တဟင
တဟၚ
တအ
တအဂ
တဣန
တဥတ
တဿ
တဿပ
တၚ
ထ
ထက
ထကမ
ထဂ
ထင
ထဇ
ထည
ထဍ
ထဏ
ထတ
ထဒ
ထန
ထပ
ထပက
ထဗ
ထမ
ထမင
ထရ
ထလ
ထဝ
ထသ
ထအ
ထၚ
ထၛ
ထၜ
ဒ
ဒက
ဒကတ
ဒကဝ
ဒဂ
ဒဂမ
ဒင
ဒစ
ဒဇ
ဒဇက
ဒဇန
ဒဇပ
ဒဉ
ဒည
ဒဏ
ဒတ
ဒတန
ဒတအ
ဒဒ
ဒဒက
ဒဒန
ဒန
ဒနက
ဒနပ
ဒပ
ဒဗ
ဒမ
ဒမပ
ဒမၚ
ဒယ
ဒယသစ
ဒရ
ဒရယ
ဒလ
ဒလန
ဒလဝ
ဒဝ
ဒဝစ
ဒသ
ဒသန
ဒသမ
ဒသမတ
ဒဟ
ဒအ
ဒဿန
ဒဿနမ
ဒၚ
ဓ
ဓက
ဓကတ
ဓကဝ
ဓဂ
ဓဃ
ဓစ
ဓစက
ဓဇ
ဓဇက
ဓဇဓမ
ဓဇန
ဓည
ဓတ
ဓတက
ဓတရ
ဓန
ဓနက
ဓပ
ဓဗ
ဓဘ
ဓမ
ဓမက
ဓမၚ
ဓယ
ဓရ
ဓရတ
ဓလ
ဓဝ
ဓဝင
ဓဝၚ
ဓသ
ဓဿ
န
နက
နကမ
နကလ
နခ
နဂ
နဂရ
နဂလ
နင
နစ
နဆ
နဇ
နဇက
နဉတ
နည
နဍ
နတ
နတသ
နထ
နဒ
နဒဒ
နဓ
နဓရ
နဓဝ
နန
နနယ
နပ
နပည
နပဒတ
နပရ
နဖ
နဗ
နဗဗ
နဘ
နမ
နမက
နမဂ
နမစ
နမည
နမတ
နမဒ
နမပ
နမမ
နမသ
နမဟ
နယ
နယရ
နရ
နရက
နရတ
နရသ
နလ
နဝ
နဝတ
နဝန
နဝမတ
နသ
နသဘ
နသမ
နဟ
နအ
နအက
နအန
နအပ
နအယ
နအရ
နအလ
နၚ
ပ
ပက
ပကင
ပကတ
ပကတတ
ပကမ
ပကလ
ပကဝ
ပကသ
ပကၚ
ပခ
ပခမ
ပဂ
ပဂစ
ပဂဗ
ပဂမ
ပဂရ
ပင
ပစ
ပဆ
ပဇ
ပဇက
ပဉ
ပည
ပညပ
ပဋ
ပဌ
ပဌမ
ပဌမတ
ပဌမၛ
ပဍ
ပဏ
ပတ
ပတဇ
ပတန
ပတမ
ပတဝ
ပတဿပ
ပထ
ပထပ
ပထမ
ပထမက
ပထမဂ
ပထမတ
ပထဝ
ပဒ
ပဒက
ပဒတ
ပဒတန
ပဓ
ပန
ပနက
ပနရ
ပပ
ပပစ
ပပည
ပပဋ
ပပတ
ပပဓ
ပပဗ
ပပယ
ပပရ
ပပဝ
ပဖ
ပဗ
ပဗက
ပဘ
ပမ
ပမတ
ပမန
ပမဝ
ပယ
ပယတ
ပရ
ပရင
ပရန
ပရဘ
ပရမ
ပရမတ
ပရလ
ပရဝ
ပရဟ
ပရအ
ပရၚ
ပလ
ပလက
ပလန
ပလဝ
ပလအ
ပလၚ
ပဝ
ပဝတ
ပသ
ပသက
ပသခ
ပသတ
ပသပ
ပသမ
ပဟ
ပဠ
ပဠက
ပအ
ပအခ
ပအစ
ပအတ
ပအဓ
ပအန
ပအပ
ပအမ
ပဥ
ပဥက
ပဥပ
ပဥပဇ
ပဿ
ပဿန
ပၚ
ဖ
ဖက
ဖဆပလ
ဖဍ
ဖတ
ဖန
ဖမ
ဖယ
ဖရ
ဖရင
ဖရမ
ဖရၜင
ဖလ
ဖလဝ
ဖဝ
ဖအ
ဗ
ဗက
ဗကန
ဗကပ
ဗဂ
ဗဂပ
ဗင
ဗစ
ဗစက
ဗစပ
ဗဇ
ဗည
ဗတ
ဗတမ
ဗတၚ
ဗဒ
ဗဒက
ဗဒင
ဗဒန
ဗဒဗဒ
ဗဒဝ
ဗန
ဗပ
ဗဗ
ဗမ
ဗယ
ဗရ
ဗရၚ
ဗလ
ဗဝ
ဗဝဝ
ဗသ
ဗဟ
ဗအ
ဗၚ
ဗၜ
ဘ
ဘက
ဘဂ
ဘဂဝ
ဘဂဝတ
ဘင
ဘဇ
ဘဏ
ဘတ
ဘဒ
ဘဒန
ဘန
ဘပဠ
ဘမ
ဘယ
ဘရ
ဘရဏဒ
ဘရဝ
ဘလ
ဘဝ
ဘဝက
ဘဝခမ
ဘဝခရ
ဘဝဂ
ဘဝဂက
ဘဝဂတတ
ဘဝဂမ
ဘဝဇ
ဘဝဇက
ဘဝည
ဘဝဍ
ဘဝဏ
ဘဝတ
ဘဝထပ
ဘဝဒ
ဘဝန
ဘဝပ
ဘဝပရလ
ဘဝဗ
ဘဝမ
ဘဝရ
ဘဝလ
ဘဝသ
ဘဝဟ
ဘဝအ
ဘဝအတ
ဘသ
ဘဥ
ဘၚ
မ
မက
မကက
မကတ
မကထ
မကမ
မကယ
မကရ
မကလ
မကဝ
မခ
မခတ
မခမ
မခရ
မဂ
မဂစ
မဂဇအ
မဂတ
မဂဒ
မဂဓရ
မဂပ
မဂမ
မဂယ
မဂရၚ
မဂလ
မဃရက
မင
မစ
မစက
မစဂ
မစစ
မစတ
မစပ
မစမ
မစရ
မစဝ
မစသ
မဆ
မဆက
မဇ
မဇက
မဇကဂမ
မဇန
မဇအ
မည
မညဂ
မညတ
မညဒ
မညဓမ
မညန
မညရဋ
မဋ
မဌ
မဍ
မဏ
မဏဂမ
မတ
မတက
မတတ
မတန
မတပ
မတမ
မတရ
မတဝ
မတအ
မထ
မထတ
မထပ
မထပက
မဒ
မဒက
မဒဂ
မဒစ
မဒတ
မဒယ
မဓ
မဓဇ
မဓဇက
မဓရ
မဓလ
မဓဝ
မန
မပ
မပက
မပကင
မပကၚ
မပစ
မပတ
မပတန
မပတမ
မပထစ
မပဒ
မပဒတ
မပန
မပပ
မပပယ
မပရ
မပလ
မပလဝ
မပဝ
မပသ
မပၚ
မဖ
မဖန
မဖအ
မဗ
မဗက
မဗဂ
မဗတ
မဗဒ
မဗဗ
မဗမ
မဗလ
မဘ
မဘပဠ
မမ
မမင
မမန
မမၚ
မယ
မရ
မရက
မရတ
မရန
မရပ
မရဘစ
မရၚ
မလ
မလက
မလဂ
မလဇ
မလမ
မလလ
မလလမ
မလအ
မဝ
မဝတ
မဝန
မသ
မသက
မသဂ
မသဂက
မသဂမ
မသတ
မသဒ
မသပ
မသမ
မသရ
မသဝ
မသအ
မဟ
မဟဂ
မဟဂပ
မဟမ
မအ
မအက
မအရ
မၚ
မၜ
မၜတ
ယ
ယက
ယကမ
ယခ
ယဂ
ယဂမ
ယင
ယစ
ယဇ
ယဇက
ယဉ
ယတ
ယတန
ယတအ
ယထ
ယဒ
ယန
ယပ
ယပရ
ယဗ
ယဗန
ယဘ
ယမ
ယရ
ယလ
ယဝ
ယသ
ယသမ
ယသၚ
ယဟ
ယအ
ယဿ
ယဿကမ
ယဿပတ
ယၚ
ယၛ
ရ
ရက
ရကမ
ရကလ
ရကလမ
ရကဝ
ရခ
ရခမ
ရဂ
ရဂမ
ရင
ရစ
ရဆ
ရဇ
ရဇက
ရဉ
ရည
ရဋ
ရဍ
ရဏ
ရဏသ
ရတ
ရတန
ရထ
ရထတ
ရထမ
ရထရ
ရဒ
ရဒတ
ရဓ
ရန
ရပ
ရပရ
ရဖ
ရဗ
ရဘ
ရမ
ရမဆ
ရမည
ရမဏ
ရမတ
ရမန
ရမရ
ရယ
ရရ
ရလ
ရဝ
ရဝက
ရဝတ
ရသ
ရသည
ရဟ
ရအ
ရအရ
ရၚ
ရၜ
လ
လက
လကလ
လကဿပရ
လခ
လဂ
လဂမ
လဂဝ
လင
လစ
လစဂ
လစမ
လစဝ
လဆ
လဇ
လဇက
လည
လဋ
လဍ
လတ
လတက
လထ
လဒ
လဒက
လဒပ
လဓ
လန
လနက
လနန
လပ
လပစ
လပအ
လဖ
လဗ
လဗင
လဗပ
လဗဗ
လဗၚ
လဘ
လမ
လမက
လမကလ
လမဂ
လမစ
လမတ
လမဒ
လမန
လမပ
လမလ
လမဟ
လယ
လယတ
လရ
လလ
လလဆ
လလမ
လလအ
လဝ
လဝဂ
လဝတ
လဝန
လသ
လသမဂ
လဟ
လအ
လအက
လအတ
လအဓ
လအပ
လၚ
လၜ
လၜက
ဝ
ဝက
ဝကဂ
ဝကဂမ
ဝဂ
ဝင
ဝစ
ဝစန
ဝဇ
ဝဋ
ဝဍ
ဝဏ
ဝတ
ဝတအ
ဝဒ
ဝဒတ
ဝန
ဝပ
ဝဗ
ဝမ
ဝမဂ
ဝမန
ဝယ
ဝရ
ဝရဏ
ဝလ
ဝဝ
ဝဝရ
ဝဝဝ
ဝဝဝဝ
ဝသ
ဝဟ
ဝဿ
ဝၚ
သ
သက
သကဂမ
သကတ
သကထ
သကဒ
သကမ
သကရ
သကဝ
သကအ
သခ
သဂ
သဂမ
သင
သစ
သဆ
သဇ
သဇက
သဉ
သည
သဍ
သဏ
သတ
သတင
သတန
သတပ
သတအ
သတၚ
သထ
သဒ
သဓ
သဓက
သဓဂ
သဓတ
သဓမ
သဓရ
သဓဝ
သန
သနတ
သနန
သနဝၚ
သပ
သပဝ
သဖ
သဗ
သဘ
သဘင
သဘၚ
သမ
သမဂ
သမဏဗ
သမတ
သမန
သမယ
သမလ
သယ
သယက
သရ
သရက
သရဏ
သရဏဂ
သရပ
သလ
သလကမ
သလဒ
သလမ
သလရ
သလဝ
သဝ
သဝဂ
သဝဏ
သသ
သဟ
သဠ
သအ
သအဝ
သဥ
သၚ
သၜ
ဟ
ဟက
ဟဂ
ဟဂပ
ဟင
ဟစ
ဟဇ
ဟတ
ဟဒ
ဟန
ဟပ
ဟဗ
ဟမ
ဟရ
ဟလ
ဟဝ
ဟသ
ဟဟ
ဟအ
ဟၚ
ဠ
ဠက
ဠဏ
ဠတ
ဠဝ
အ
အက
အကပ
အကမ
အခ
အခက
အခန
အခဝ
အဂ
အဃ
အင
အစ
အစည
အစပ
အဆ
အဆက
အဆင
အဆတ
အဇ
အဇန
အဇပ
အည
အဋ
အဏ
အတ
အထ
အထက
အဒ
အဓ
အဓမ
အန
အနက
အနဂ
အနန
အနဝ
အပ
အပင
အပၚ
အဖ
အဖရ
အဖဝ
အဗ
အဗင
အဗၚ
အဘ
အဘယ
အမ
အမည
အမတ
အမရ
အယ
အရ
အရက
အရင
အရည
အရထ
အရပ
အရဟ
အရဟတ
အရၚ
အလ
အလက
အလင
အလဇ
အလန
အလမ
အလယ
အလၚ
အဝ
အဝဏ
အဝတ
အဝန
အဝယ
အသ
အသက
အသင
အသစ
အသည
အသမ
အသဝ
အသၚ
အဟ
အအ
အဿ
အဿဇ
အဿမ
အၚ
အၚပ
အၜဝ
ဢ
ဣ
ဣဂ
ဣစ
ဣဏ
ဣဏင
ဣဏအ
ဣတ
ဣဒ
ဣဒမ
ဣဓ
ဣန
ဣဗ
ဣမ
ဣရ
ဣလ
ဣဝ
ဣသ
ဣၚ
ဤ
ဥ
ဥက
ဥစ
ဥဇ
ဥဌ
ဥတ
ဥဒ
ဥဒက
ဥပ
ဥပက
ဥပစ
ဥပဇ
ဥပတ
ဥပဒ
ဥပဓ
ဥပနန
ဥပမ
ဥပရ
ဥပသ
ဥဗ
ဥဘတ
ဥမ
ဥမင
ဥမတ
ဥမၚ
ဥယ
ဥရ
ဥရဝ
ဥလ
ဥဿ
ဧ
ဨ
ဨက
ဨကဂ
ဨကန
ဨကမ
ဨကရ
ဨကဝ
ဨဂ
ဨတ
ဨပ
ဨယ
ဨရ
ဨလ
ဨဝ
ဨသ
ဨဟ
ဩ
ဩက
ဩဇ
ဩန
ဩဝ
ဩၚ
ါ
ာ
ိ
ီ
ု
ူ
ေ
ဲ
ဳ
ဴ
ဵ
ံ
့
း
္
်
ျ
ြ
ွ
ှ
ဿ
ဿက
ဿဂ
ဿဋ
ဿတ
ဿန
ဿဘ
ဿယ
ဿယရ
ဿရ
ဿလ
ဿဟ
၀
၀၀
၀၀၀
၀၁
၀၃
၀၄
၀၇
၁
၁၀
၁၀၀
၁၀၀၀
၁၀၃
၁၀၆
၁၀၈
၁၁
၁၁၀
၁၁၁၉
၁၂
၁၂၀
၁၂၈၁
၁၂၈၆
၁၃
၁၃၀၉
၁၃၁၀
၁၃၂၀
၁၃၄၈
၁၃၆၁
၁၃၆၃
၁၃၆၅
၁၃၆၆
၁၃၆၇
၁၃၆၈
၁၃၆၉
၁၃၇၀
၁၃၇၃
၁၃၇၄
၁၃၇၅
၁၃၇၆
၁၃၇၇
၁၃၇၉
၁၃၈၀
၁၃၈၁
၁၃၈၂
၁၃၈၃
၁၃၈၄
၁၄
၁၄၄
၁၅
၁၅၀
၁၅၀၀
၁၆
၁၇
၁၈
၁၉
၁၉၂၀
၁၉၃၉
၁၉၄၀
၁၉၄၁
၁၉၄၂
၁၉၄၅
၁၉၄၆
၁၉၄၇
၁၉၄၈
၁၉၄၉
၁၉၅၀
၁၉၅၂
၁၉၅၅
၁၉၅၆
၁၉၅၈
၁၉၆၀
၁၉၆၂
၁၉၆၃
၁၉၆၅
၁၉၆၆
၁၉၆၈
၁၉၆၉
၁၉၇၀
၁၉၇၁
၁၉၇၂
၁၉၇၃
၁၉၇၄
၁၉၇၅
၁၉၈၀
၁၉၈၅
၁၉၈၇
၁၉၈၈
၁၉၈၉
၁၉၉၀
၁၉၉၁
၁၉၉၂
၁၉၉၃
၁၉၉၄
၁၉၉၅
၁၉၉၆
၁၉၉၇
၁၉၉၈
၁၉၉၉
၂
၂၀
၂၀၀
၂၀၀၀
၂၀၀၁
၂၀၀၂
၂၀၀၃
၂၀၀၄
၂၀၀၅
၂၀၀၆
၂၀၀၇
၂၀၀၈
၂၀၀၉
၂၀၁၀
၂၀၁၁
၂၀၁၂
၂၀၁၃
၂၀၁၄
၂၀၁၅
၂၀၁၆
၂၀၁၇
၂၀၁၈
၂၀၁၉
၂၀၂၀
၂၀၂၁
၂၀၂၂
၂၀၂၂၁
၂၁
၂၂
၂၃
၂၄
၂၅
၂၅၀
၂၅၀၀
၂၆
၂၇
၂၈
၂၉
၃
၃၀
၃၀၀
၃၀၀၀
၃၁
၃၂
၃၃
၃၄
၃၅
၃၅၀
၃၆
၃၆၇၄
၃၇
၃၈
၃၉
၄
၄၀
၄၀၀
၄၁
၄၂
၄၃
၄၄
၄၅
၄၅၀
၄၆
၄၇
၄၈
၄၉
၅
၅၀
၅၀၀
၅၀၀၀
၅၁
၅၂
၅၃
၅၄
၅၅
၅၅၀
၅၆
၅၇
၅၈
၅၉
၆
၆၀
၆၀၀
၆၁
၆၂
၆၃
၆၄
၆၅
၆၆
၆၇
၆၈
၆၉
၇
၇၀
၇၀၀
၇၁
၇၂
၇၃
၇၄
၇၅
၇၆
၇၇
၇၈
၇၉
၈
၈၀
၈၀၀
၈၁
၈၂
၈၃
၈၄
၈၅
၈၆
၈၇
၈၈
၈၉
၉
၉၀
၉၀၀
၉၁
၉၂
၉၃
၉၄
၉၅
၉၆
၉၇
၉၈
၉၉
၊
။
၌
၍
၎
၏
ၐ
ၑ
ၚ
ၚက
ၚဂ
ၚဇ
ၚတ
ၚတအ
ၚန
ၚပ
ၚမ
ၚရ
ၚဝ
ၚသ
ၚဟ
ၚအ
ၛ
ၛက
ၜ
ၜက
ၜင
ၜတ
ၜန
ၜလဘ
ၜဝ
ၜၚ
ၝ
ၝကတ
ၝတ
ၞ
ၟ
ၠ
ၢ
ၣ
ၤ
ၥ
ၧ
ၩ
ၪ
ၫ
ၬ
ၭ
ၮ
ၲ
ၵ
ၶ
ၷ
ၸ
ၺ
ၻ
ၼ
ၽ
ၾ
ၿ
ႁ
ႂ
ႃ
ႄ
ႅ
ႆ
ႇ
ႈ
ႉ
ႊ
ႋ
ႏ
ႝ
ვ
ჹ
ჽ
ჾ
ჿ
가
한국어
ក
ខ
គ
ឃ
ង
ច
ឆ
ជ
ឈ
ញ
ដ
ឋ
ឌ
ណ
ត
ថ
ទ
ធ
ន
ប
ផ
ព
ភ
ម
យ
រ
ល
វ
ឝ
ឞ
ស
ហ
អ
ា
ិ
ី
ឹ
ឺ
ុ
ូ
ួ
ើ
ឿ
ៀ
េ
ែ
ៃ
ោ
ៅ
ំ
ះ
៉
៊
់
៍
័
្
។
᠀
᠋
ᠡ
ᨔ
ᨕ
ᨗ
ᨘ
ᨙ
ᨚ
ᨛ
ᨠ
ᨡ
ᨣ
ᨤ
ᨦ
ᨧ
ᨩ
ᨪ
ᨬ
ᨮ
ᨯ
ᨲ
ᨳ
ᨴ
ᨵ
ᨶ
ᨷ
ᨸ
ᨻ
ᨽ
ᨾ
ᨿ
ᩁ
ᩃ
ᩅ
ᩈ
ᩉ
ᩕ
ᩖ
ᩘ
ᩛ
᩠
ᩢ
ᩣ
ᩤ
ᩥ
ᩦ
ᩨ
ᩩ
ᩪ
ᩫ
ᩬ
ᩮ
ᩯ
ᩰ
ᩱ
ᩲ
ᩴ
᩵
᩶
᩺
ᬃ
ᬓ
ᬕ
ᬢ
ᬤ
ᬥ
ᬦ
ᬧ
ᬩ
ᬫ
ᬬ
ᬭ
ᬮ
ᬲ
ᬵ
ᬶ
ᬷ
ᬸ
ᬺ
ᬾ
ᬿ
᭄
ᴀ
ᴁ
ᴂ
ᴄ
ᴅ
ᴇ
ᴊ
ᴋ
ᴍ
ᴏ
ᴔ
ᴘ
ᴛ
ᴜ
ᴠ
ᴡ
ᴢ
ᴬ
ᴭ
ᴮ
ᴰ
ᴸ
ᵆ
ᵊ
ᵝ
ᵝː
ᵫ
ᵬ
ᵭ
ᵮ
ᵯ
ᵰ
ᵱ
ᵲ
ᵳ
ᵴ
ᵵ
ᵶ
ᵻ
ᵽᵽ
ᵾ
ᶀ
ᶁ
ᶂ
ᶃ
ᶅ
ᶆ
ᶇ
ᶈ
ᶉ
ᶊ
ᶍ
ᶎ
ᶏ
ᶑ
ᶒ
ᶖ
ᶙ
ᶚ
ᶜ
ỻỻ
​
‌
‍
‎
‏
–
—
―
‘
’
“
”
†
•
․
…
‧
′
″
‿
⁄
⁏
⁠
⁡
⁴
⁴¹
⁴⁴
⁵
⁵³
⁵¹
⁵⁵
⁻
⁽
⁾
ⁿ
₁
₂
₃
₄
€
₴
℔
№
ⅎ
ⅰ
ⅱ
ⅲ
ⅳ
ⅴ
ⅵ
ⅶ
ⅷ
ⅸ
ⅹ
ⅺ
ⅻ
ⅼ
ⅽ
ⅾ
ⅿ
ↄ
←
→
↔
↶
↷
∆
−
≈
⎈
③
④
⑦
▂
▉
►
◌
◼
☀
☉
☎
☑
♥
✍
✤
✮
✵
❀
❃
❤
❧
➲
ⰲ
ⰽ
ⰾ
ⱀ
ⱁ
ⱃ
ⱄ
ⱅ
ⱊ
ⱏ
ⱐ
ⱑ
ⱡ
ⱥ
ⱦ
ⱨ
ⱪ
ⱬ
ⱱ
ⱳ
ⱴ
ⱸ
ⱺ
ⲁ
ⲥ
ⴁ
ⴂ
ⴈ
ⴉ
ⴊ
ⴋ
ⴌ
ⴍ
ⴎ
ⴏ
ⴐ
ⴑ
ⴒ
ⴓ
ⴔ
ⴕ
ⴖ
ⴗ
ⴘ
ⴙ
ⴚ
ⴛ
ⴜ
ⴝ
ⴞ
ⴟ
ⴠ
ⴡ
ⴢ
ⴣ
ⴤ
ⴥ
ⴧ
ⴭ
⺀
⺄
⺆
⺈
⺊
⺌
⺕
⺝
⺸
⺼
⿰
⿱
⿲
⿳
⿴
⿵
⿶
⿷
⿸
⿹
⿺
⿻
、
。
々
「
」
〢
〮
ぁ
あ
ぃ
い
ぅ
う
ぇ
え
ぉ
お
か
き
く
け
こ
さ
し
す
せ
そ
た
ち
っ
つ
て
と
な
に
ぬ
ね
の
は
ひ
ふ
へ
ほ
ま
み
む
め
も
ゃ
や
ゅ
ゆ
ょ
よ
ら
り
る
れ
ろ
ゎ
わ
ゐ
ゑ
を
ん
ゕ
ゖ
゙
゚
゛
゜
ゝ
ゟ
ァ
ア
ィ
イ
ゥ
ウ
ェ
エ
ォ
オ
カ
キ
ク
ケ
コ
サ
シ
ス
セ
ソ
タ
チ
ッ
ツ
テ
ト
ナ
ニ
ヌ
ネ
ノ
ハ
ヒ
フ
ヘ
ホ
マ
ミ
ム
メ
モ
ャ
ヤ
ュ
ユ
ョ
ヨ
ラ
リ
ル
レ
ロ
ヮ
ワ
ヰ
ヱ
ヲ
ン
ヵ
ヶ
ー
ヽ
ヿ
ㄅ
ㄆ
ㄇ
ㄈ
ㄉ
ㄊ
ㄋ
ㄌ
ㄍ
ㄎ
ㄏ
ㄐ
ㄑ
ㄒ
ㄓ
ㄔ
ㄕ
ㄖ
ㄗ
ㄘ
ㄙ
ㄚ
ㄛ
ㄜ
ㄝ
ㄞ
ㄟ
ㄠ
ㄡ
ㄢ
ㄣ
ㄤ
ㄥ
ㄦ
ㄧ
ㄨ
ㄩ
ㅈ
ㅊ
ㅏ
㇁
㇂
㇄
㇇
㇈
㇉
㇓
㋀
㐁
㐄
㐅
㐌
㐫
㐬
㐭
㐮
㐱
㑒
㒵
㒸
㒼
㓁
㓞
㔾
㕛
㕣
㖾
㘝
㚅
㚇
㚔
㚘
㝉
㝡
㝴
㝵
㞋
㞢
㞷
㠩
㠭
㠯
㡀
㡭
㡿
㢲
㢴
㣇
㣺
㥯
㪅
㫄
㫐
㫒
㫺
㬅
㬎
㬥
㬰
㲋
㳄
㷠
㸒
㸚
㸦
㼌
㼲
㽞
㿟
䀠
䂞
䍃
䏍
䒑
䖍
䖒
䖝
䖵
䙴
䚻
䜌
䝿
䡛
䧹
䪞
一
丁
丂
七
丄
丅
丆
万
丈
三
上
下
丌
不
与
丏
丐
丑
专
且
丕
世
丘
丙
业
东
丞
丢
丣
两
严
並
丨
丩
个
丫
丬
中
丮
丰
丱
串
丵
丶
丷
丸
丹
为
主
丽
丿
乀
乂
乃
久
乆
乇
么
义
之
乌
乍
乎
乏
乐
乑
乔
乖
乗
乘
乙
乚
乛
乜
九
乞
也
习
乡
乱
乳
乾
亀
亂
亅
了
亇
予
争
事
二
亍
于
亏
亐
云
互
亓
五
井
亘
亚
亜
亞
亟
亠
亡
亢
交
亥
亦
产
亨
亩
享
京
亭
亮
亯
亰
亲
亳
亶
亷
人
亻
亼
亾
仁
仇
今
介
仌
从
仏
仐
仑
仒
仓
仔
仕
他
付
仝
代
令
以
仮
任
企
伊
伏
伐
休
会
伯
伽
但
位
体
何
佘
余
佛
作
你
佥
使
來
侈
侌
侖
侯
侵
便
俗
保
俞
信
修
倉
倍
候
倠
假
備
僉
僕
僧
儿
兀
允
兂
元
兄
充
兆
兇
先
光
兊
克
兌
免
兎
兑
兒
兓
兔
党
兜
兟
入
全
兩
兪
八
公
六
兮
兰
共
关
兵
其
具
典
兹
兼
冀
冂
冃
冄
内
冈
冉
冊
冋
册
再
冎
冏
冐
冒
冓
冖
冗
冘
军
农
冝
冡
冥
冫
冬
冷
几
凡
凢
凵
凶
凷
凸
凹
出
函
凾
刀
刁
刂
刃
刄
刅
分
切
刍
刑
刕
刖
列
刘
则
初
別
利
别
到
制
刺
則
削
剌
前
剡
創
剽
劉
力
功
加
劦
助
劫
劳
劵
勃
勇
勉
勒
動
務
勞
勤
勹
勺
勻
勾
勿
匀
匂
包
匆
匈
匊
匋
匍
匕
化
北
匚
匝
匡
匪
匱
匸
匹
区
医
匽
匿
區
十
卂
千
卄
卅
卆
升
午
卉
半
卌
华
卑
卒
卓
单
卖
南
卜
卝
卞
占
卡
卢
卣
卤
卦
卩
卪
卬
卯
印
危
即
却
卵
卷
卸
卻
厂
厃
厄
历
厈
厉
厌
厓
厘
厚
原
厤
厥
厨
厭
厲
厶
厷
厸
去
厼
厽
叀
参
參
叅
又
叉
及
友
双
反
叐
发
叒
叔
叕
取
受
变
叚
叛
叜
叟
口
古
句
另
叩
只
召
可
台
叱
史
右
叵
号
司
叹
吂
各
吅
合
吉
吊
吋
同
名
后
吏
向
吕
君
吝
吞
否
含
启
吳
吴
吹
吾
呂
呆
呈
告
员
呙
周
命
咅
和
咎
咖
咠
咢
咨
咸
咼
哀
品
哉
員
哥
哲
唐
商
啇
問
啚
啡
啬
啻
喂
善
喜
喬
單
喿
嗇
噩
嚴
囊
囗
囘
囙
囚
四
回
囟
因
団
囧
囬
困
囱
囷
固
国
圂
圅
國
圍
園
圓
團
土
圡
圣
圥
在
圭
地
圶
场
圼
坐
坒
坚
坴
垂
型
垔
垚
垫
埀
埋
域
埶
執
基
堂
堅
堆
堇
堯
報
場
塔
塞
墊
墨
壘
士
壬
壯
声
壳
壴
壹
壺
壽
夂
处
夅
夆
备
夊
夋
夌
复
夏
夒
夕
外
夗
夘
多
夜
夢
大
夨
天
太
夫
夬
夭
央
失
夲
头
夷
夸
夹
夻
夾
奂
奄
奇
奈
奉
奎
奏
奐
契
奓
奔
套
奚
奞
奠
奢
奥
奭
女
奴
奻
好
如
妄
妖
妙
妟
妥
妻
妾
始
姑
委
姜
威
娄
婁
婚
婴
嬰
嬴
子
孑
孔
孕
孖
字
存
孚
孛
孝
孟
季
孤
学
孩
孫
孱
學
宀
宁
宂
它
宅
宇
守
安
宋
完
宏
宓
宗
官
定
宛
宜
宝
客
宣
室
宮
宰
害
家
容
宾
宿
寄
寅
密
富
寒
寝
察
寧
審
寫
寬
寮
寸
对
寺
寻
寽
対
寿
封
尃
射
将
將
專
尉
尊
尋
尌
對
小
少
尒
尓
尔
尖
尗
尚
尞
尢
尣
尤
尧
尨
尭
就
尸
尹
尺
尻
尼
尽
尾
尿
局
居
屈
屋
屎
屏
屑
展
屖
屚
属
屠
屡
屬
屮
屯
屰
山
屵
屾
岁
岂
岑
岡
岩
岳
岸
峯
島
崇
崑
崔
崖
崙
崩
嵬
嶲
巂
巛
川
州
巟
巠
巢
巤
工
左
巧
巨
巩
巫
差
己
已
巳
巴
巷
巸
巽
巾
巿
帀
市
布
师
希
帚
帛
帝
带
師
席
帰
帶
常
干
平
年
幵
并
幷
幸
幺
幻
幼
幽
幾
广
広
庄
床
底
店
庚
府
度
座
庫
庭
庶
康
庸
廉
廌
廛
廣
廩
廴
延
廷
建
廾
廿
开
弁
弃
弄
弇
弋
式
弓
弔
引
弗
弘
弜
弟
弥
弦
弱
張
強
强
彊
彌
彎
彐
彑
当
彔
录
彖
彗
彡
形
彥
彦
彧
彭
彳
役
彼
往
待
律
後
徒
得
徙
從
復
微
徵
心
忄
必
忌
忍
志
応
忝
忠
忩
快
念
忽
忿
态
思
怠
急
性
怱
恆
恒
恩
恭
息
悉
患
悤
悪
悲
悶
情
惑
惠
惡
惢
愁
愈
意
愛
感
慈
態
慣
慧
慮
憂
憲
應
戀
戈
戉
戊
戋
戌
戍
戎
成
我
戒
戔
或
戚
戠
戢
截
戰
戲
戶
户
戹
戼
戾
房
所
扁
扇
手
扌
才
打
托
执
承
技
投
折
报
拉
拜
拼
拿
持
掌
推
提
援
摩
擬
支
攴
攵
收
攸
改
放
政
敄
敏
敕
敖
敗
敝
敞
敢
散
敦
敫
敬
数
敷
數
斂
文
斉
斊
斗
斤
斥
斩
斬
斯
新
方
於
施
斿
旁
旋
族
无
旡
既
旣
日
旦
旧
旨
早
旬
旱
旲
时
旾
昆
昇
昌
昍
明
昏
易
昔
昗
昜
星
春
昬
是
昱
昴
昷
時
晃
晋
晏
普
景
晶
智
暑
暴
曇
曩
曰
曲
曳
更
曷
書
曹
曼
曾
替
最
朁
會
月
有
朋
服
朔
朕
朗
望
朝
木
朩
未
末
本
札
朮
术
朱
朵
朶
朿
杀
杏
材
杜
束
条
来
東
杲
杳
松
析
枕
林
枚
果
枝
枲
枼
某
柔
查
柬
柰
柴
柿
栗
校
格
桀
桑
桼
梁
梅
條
梟
梨
棘
棠
棥
森
椰
楚
業
楽
榎
榮
榴
槍
樂
樊
模
権
權
欠
次
欣
欮
欲
欶
欽
款
歆
歇
歌
歛
止
正
此
步
武
歨
歪
歮
歯
歰
歲
歴
歷
歸
歹
歺
死
殳
段
殷
殸
殹
殺
殻
殿
毋
毌
母
每
毒
比
毕
毚
毛
毳
氏
氐
民
气
気
氣
水
氵
氶
氷
永
氺
氾
求
汝
汞
江
沃
沓
沙
沝
油
治
泉
法
泡
波
泣
泥
泰
洛
洪
活
派
流
浦
浪
浮
海
液
淡
淮
清
渚
渠
湯
滿
漸
濁
濃
瀆
火
灬
灭
灰
灵
灷
災
炅
炎
炏
炗
炙
炭
炮
点
為
烈
烏
烝
焉
無
焦
焱
然
焼
煞
熊
熏
熱
燕
燗
營
燮
爪
爫
爭
爯
爰
爱
爲
爵
父
爻
爽
爾
爿
片
版
牙
牚
牛
牜
牟
牢
牧
物
牪
牽
犀
犬
犭
犮
狂
狄
狊
狗
独
狮
狺
狼
猋
猒
猪
献
猿
獅
獨
獻
玄
率
玉
王
玟
玨
珈
珎
班
琴
瑟
瑩
瓜
瓦
甘
甚
生
産
用
甫
甬
田
由
甲
申
电
甶
男
甸
甹
画
甾
畀
界
畏
畐
留
畜
畟
畢
畧
畨
番
畫
異
畱
當
畺
畾
疊
疋
疌
疑
疒
疾
癌
癶
癸
癹
発
登
發
白
百
皀
皃
的
皆
皇
皋
皐
皕
皮
皷
皿
盃
盆
盇
盈
益
盍
盎
监
盒
盖
盗
盛
盜
盞
盡
監
盤
盧
目
盲
直
相
盾
省
眇
眉
看
眔
眞
真
眷
眼
眾
着
睘
睪
睿
瞏
瞢
瞿
矍
矛
矞
矢
矣
知
矦
短
石
砂
砲
破
碎
磁
磊
磨
示
礻
礼
神
祟
票
祭
禀
禁
禸
禹
禺
离
禽
禾
禿
秀
私
秃
秉
秋
科
秝
秦
移
程
稟
穀
穌
穴
究
穹
空
穿
突
窄
窒
窘
立
竒
竜
竝
竟
章
童
竹
笑
笛
笠
筆
等
答
箔
箕
算
箱
箴
節
篤
篭
籐
米
粉
粛
粟
粤
粦
粲
糞
糸
糹
系
約
紅
納
紙
素
索
紫
累
細
結
絜
絫
絲
続
維
綿
緊
縣
繇
續
纍
纖
纟
缶
网
罒
罔
罕
罗
罙
罡
罢
罪
署
罷
羅
羊
羌
羍
美
羔
羕
羗
羞
羡
羣
群
義
羲
羸
羽
翁
翏
習
翕
翟
翠
翼
老
耂
考
者
耆
而
耎
耑
耒
耕
耳
耴
耶
耷
聂
聊
聖
聚
聲
聶
聿
肀
肃
肅
肉
肖
肙
肥
肩
肯
育
肴
胃
背
胡
胥
能
脊
脩
腰
腿
膚
膝
臣
臤
臧
自
臬
臭
臯
臱
至
致
臺
臼
臽
臾
臿
舀
舂
舄
與
興
舉
舌
舍
舛
舜
舞
舟
般
船
艮
良
色
艶
艷
艸
艹
艾
芒
芔
芬
芮
花
芳
芺
芻
苔
苗
苟
若
苦
英
茶
茸
荅
草
荒
荘
荣
荷
荼
莆
莊
莧
莫
莽
菆
菊
菐
菜
華
萬
落
葉
著
葛
董
葵
蒙
蒦
蒲
蒼
蓋
蓬
蓺
蔑
蔡
蕉
蕭
薄
薛
薦
薰
藍
藏
藤
藥
蘭
虍
虎
虐
虒
虔
處
虖
虗
虘
虚
虛
虜
虞
虫
虽
蚤
蚩
蛇
蛋
蜀
蜜
蜥
蜴
蝎
蝸
融
螢
蟲
蟹
蠍
蠡
血
行
衍
衛
衣
衤
表
衮
衰
袁
袞
装
褭
褱
襄
襾
西
覀
要
覃
見
規
覓
覧
親
覽
见
角
解
言
訁
訇
計
訓
許
詞
話
詹
誕
語
誩
読
諸
識
譜
變
讠
识
诞
语
谷
豆
豈
豊
豐
豕
豖
豙
象
豦
豩
豪
豸
豹
貇
貝
貞
貟
負
財
貢
貧
貨
貪
貫
責
貳
貴
買
費
賁
資
賈
賏
賓
賔
賛
賞
賢
賣
質
賴
贊
贝
贡
责
贯
贲
贵
资
赖
赞
赤
赦
走
起
越
足
路
蹇
身
躬
車
軍
軎
軟
輦
车
辛
辜
辞
辟
辣
辥
辰
辱
農
辵
辶
边
达
过
近
连
迫
迷
追
退
送
逆
逐
通
速
造
逢
連
逮
進
遀
遂
過
道
達
遙
遠
遣
遥
適
遷
遺
邁
邊
邑
邕
那
邦
邪
郎
部
郭
都
鄉
酉
酋
配
酒
酓
酬
釆
采
釋
里
重
野
量
金
釒
銃
銜
鋸
錢
錦
鎧
钅
長
镸
长
門
閃
閉
開
閏
閑
閒
間
閔
閩
閵
閻
闌
门
间
闷
阑
阜
阝
阿
陀
降
陣
陳
陽
隆
隊
隋
隡
隨
隱
隶
隹
隺
隻
隼
隽
难
雀
雁
集
雈
雋
雍
雐
雔
雙
雚
雜
雝
雞
離
難
雨
雩
雪
雲
零
雷
需
霍
霜
霝
霞
霸
靈
靑
青
非
靡
面
靣
革
韋
韦
韭
韯
韱
音
頁
頃
項
須
頗
頡
頭
頻
題
顛
類
页
風
风
飛
飞
食
飠
養
饣
首
香
馬
馮
駒
駝
駦
駱
驢
马
骨
體
高
髟
鬥
鬯
鬲
鬼
魚
魯
鮮
鰐
鱷
鱼
鲁
鳄
鳥
鳩
鳳
鴿
鶏
鷄
鸟
鸡
鹵
鹿
麃
麗
麥
麦
麻
黃
黄
黍
黎
黑
黒
點
黨
黹
黽
黾
鼎
鼓
鼠
鼬
鼻
齊
齋
齐
齒
齿
龍
龙
龜
龟
龠
龰
龱
龴
龵
龶
龷
龸
龹
ꜜ
ꜣ
ꜥ
ꜰ
ꜱ
ꜳ
ꜵ
ꜷ
ꜹ
ꜻ
ꜽ
ꝁ
ꝍ
ꝏ
ꝡ
ꝥ
ꝯ
꞉
ꞗ
ꞯ
ꞷ
ꟲ
ꠀ
ꠁ
ꠉ
ꠋ
ꠑ
ꠘ
ꠞ
ꠣ
ꠥ
ꠦ
ꢂ
ꢒ
ꢔ
ꢙ
ꢡ
ꢣ
ꢤ
ꢥ
ꢦ
ꢨ
ꢩ
ꢪ
ꢫ
ꢬ
ꢭ
ꢮ
ꢯ
ꢱ
ꢵ
ꢶ
ꢷ
ꢸ
ꢺ
ꣂ
ꣃ
꣄
ꤊ
ꤋ
ꤌ
ꤏ
ꤐ
ꤑ
ꤒ
ꤓ
ꤔ
ꤕ
ꤖ
ꤗ
ꤘ
ꤙ
ꤚ
ꤛ
ꤜ
ꤝ
ꤞ
ꤟ
ꤠ
ꤡ
ꤢ
ꤣ
ꤤ
ꤥ
ꤦ
ꤧ
ꤨ
ꤩ
ꤪ
꤬
꤭
꤯
ꥆ
ꥇ
ꦂ
ꦄ
ꦏ
ꦒ
ꦕ
ꦗ
ꦠ
ꦢ
ꦣ
ꦤ
ꦥ
ꦧ
ꦨ
ꦩ
ꦪ
ꦫ
ꦭ
ꦮ
ꦯ
ꦱ
ꦲ
ꦴ
ꦶ
ꦷ
ꦸ
ꦺ
ꦻ
ꦽ
ꦾ
ꦿ
꧀
ꧡ
ꧤ
ꩦ
ꩧ
ꩪ
ꩫ
ꩻ
ꪀ
ꪄ
ꪉ
ꪖ
ꪙ
ꪚ
ꪢ
ꪣ
ꪫ
ꪮ
ꪰ
ꪱ
ꪲ
ꪴ
ꪶ
ꪹ
ꪾ
꪿
꫁
ꭹ
ꮝ
ꮣ
ꮧ
ꯀ
ꯁ
ꯂ
ꯃ
ꯅ
ꯇ
ꯊ
ꯌ
ꯎ
ꯔ
ꯕ
ꯛ
ꯝ
ꯟ
ꯡ
ꯣ
ꯤ
ꯥ
ꯦ
ꯧ
ꯨ
ꯩ


者
艹
ﬀ
ﬁ
ﬂ
ﬃ
ﬄ
ﬅ
ﬆ
ﬓ
ﬔ
ﬕ
ﬖ
ﬗ
︎
️
﹪
﻿
＂
（
）
，
／
１
？
ａ
ｂ
ｃ
ｄ
ｅ
ｆ
ｇ
ｈ
ｉ
ｊ
ｋ
ｌ
ｍ
ｎ
ｏ
ｐ
ｑ
ｒ
ｓ
ｔ
ｕ
ｖ
ｗ
ｘ
ｙ
ｚ
￼
𐊀
𐊁
𐊆
𐊕
𐊗
𐌀
𐌂
𐌄
𐌅
𐌆
𐌉
𐌋
𐌌
𐌍
𐌏
𐌐
𐌑
𐌓
𐌔
𐌕
𐌖
𐌗
𐌰
𐌱
𐌲
𐌳
𐌴
𐌵
𐌶
𐌷
𐌸
𐌹
𐌺
𐌻
𐌼
𐌽
𐌾
𐌿
𐍀
𐍁
𐍂
𐍃
𐍄
𐍅
𐍆
𐍇
𐍈
𐍉
𐍊
𐎠
𐎢
𐎫
𐎭
𐎹
𐎼
𐎿
𐏁
𐓘
𐓟
𐓻
𐤠
𐤡
𐤤
𐤥
𐤦
𐤨
𐤩
𐤬
𐤭
𐤮
𐤯
𐤰
𐤳
𐦠
𐦡
𐦢
𐦣
𐦧
𐦨
𐦩
𐦫
𐦬
𐦯
𐦲
𐦵
𐦶
𐦷
𐨀
𐨁
𐨂
𐨡
𐨣
𐩢
𐩣
𐩦
𐩧
𐩨
𐩩
𐩪
𐩬
𐩮
𐩰
𐩱
𐩲
𐩳
𐭠
𐭢
𐭣
𐭤
𐭥
𐭧
𐭩
𐭪
𐭫
𐭬
𐭭
𐭮
𐭱
𐭲
𐰀
𐰃
𐰆
𐰇
𐰈
𐰉
𐰋
𐰌
𐰍
𐰏
𐰑
𐰕
𐰖
𐰘
𐰚
𐰛
𐰞
𐰠
𐰣
𐰤
𐰲
𐰴
𐰺
𐰼
𐰽
𐱁
𐱃
𐴝
𐴥
𑀁
𑀅
𑀆
𑀓
𑀔
𑀕
𑀖
𑀗
𑀘
𑀙
𑀚
𑀝
𑀞
𑀡
𑀢
𑀣
𑀤
𑀥
𑀦
𑀧
𑀩
𑀪
𑀫
𑀬
𑀭
𑀮
𑀯
𑀰
𑀲
𑀳
𑀶
𑀷
𑀸
𑀺
𑀻
𑀼
𑀽
𑀾
𑁂
𑁃
𑁄
𑁅
𑁆
𑄇
𑄉
𑄌
𑄖
𑄢
𑄧
𑄨
𑄴
𑆑
𑆓
𑆘
𑆠
𑆢
𑆣
𑆤
𑆥
𑆧
𑆨
𑆩
𑆪
𑆫
𑆬
𑆮
𑆯
𑆱
𑆳
𑆴
𑆵
𑆶
𑇀
𑌕
𑌗
𑌜
𑌤
𑌦
𑌧
𑌨
𑌪
𑌬
𑌭
𑌮
𑌯
𑌰
𑌲
𑌵
𑌶
𑌸
𑌾
𑌿
𑍀
𑍁
𑍇
𑍍
𑍗
𑐎
𑐐
𑐖
𑐟
𑐡
𑐢
𑐣
𑐥
𑐧
𑐨
𑐩
𑐫
𑐬
𑐮
𑐰
𑐱
𑐳
𑐵
𑐶
𑐷
𑐸
𑑂
𑒏
𑒑
𑒖
𑒞
𑒠
𑒡
𑒢
𑒣
𑒥
𑒦
𑒧
𑒨
𑒩
𑒪
𑒫
𑒬
𑒮
𑒰
𑒱
𑒲
𑒳
𑒹
𑒽
𑓂
𑖎
𑖐
𑖕
𑖝
𑖟
𑖠
𑖡
𑖢
𑖤
𑖥
𑖦
𑖧
𑖨
𑖩
𑖪
𑖫
𑖭
𑖯
𑖰
𑖱
𑖲
𑖸
𑖹
𑖿
𑘎
𑘏
𑘐
𑘕
𑘝
𑘟
𑘠
𑘡
𑘢
𑘤
𑘥
𑘦
𑘧
𑘨
𑘩
𑘪
𑘫
𑘭
𑘰
𑘱
𑘲
𑘳
𑘵
𑘻
𑘼
𑘿
𑜀
𑜁
𑜃
𑜄
𑜆
𑜉
𑜢
𑜤
𑜧
𑜨
𑜫
𑣁
𑣂
𑣃
𑣄
𑣈
𑣉
𑣋
𑣌
𑣎
𑣓
𑣔
𑣕
𑣖
𑣗
𑣛
𑣜
𑣝
𑣞
𑰎
𑰐
𑰕
𑰝
𑰟
𑰡
𑰢
𑰤
𑰥
𑰦
𑰧
𑰨
𑰩
𑰪
𑰫
𑰭
𑰯
𑰰
𑰱
𑰲
𑰿
𒀀
𒀭
𒁀
𒂊
𒂵
𒄑
𒄠
𒄷
𒄿
𒅆
𒈬
𒈾
𒉌
𒉡
𒋧
𒌍
𒌨
𒍣
𝅘
𝅥
👉
🔸
😭
🜨
🟪
𠀁
𠀃
𠀆
𠀉
𠀎
𠀐
𠁁
𠁣
𠂆
𠂇
𠂈
𠂉
𠂊
𠂋
𠂎
𠂒
𠂔
𠂛
𠂡
𠂢
𠂤
𠂬
𠂭
𠂹
𠃊
𠃋
𠃌
𠃍
𠃎
𠃑
𠃓
𠃔
𠃜
𠄌
𠄎
𠄠
𠄢
𠆢
𠆥
𠇍
𠈌
𠌵
𠓜
𠔉
𠔥
𠔼
𠔽
𠔿
𠕀
𠕁
𠕋
𠘧
𠘨
𠙻
𠙼
𠚏
𠚒
𠚤
𠚪
𠣏
𠤎
𠤕
𠥓
𠦄
𠦑
𠦝
𠧒
𠧗
𠧪
𠩺
𠪚
𠫓
𠫔
𠫤
𠬛
𠬝
𠬞
𠬢
𠬤
𠬶
𠮛
𠮦
𠮷
𠯑
𠱠
𠳮
𠷎
𡈼
𡉀
𡉵
𡌥
𡍮
𡏳
𡕒
𡕩
𡕰
𡖅
𡗗
𡗜
𡘆
𡘤
𡧱
𡨄
𡩧
𡬠
𡭽
𡰣
𡰥
𡰪
𡰯
𡰱
𡷈
𡸁
𡿨
𡿩
𡿪
𡿺
𢀖
𢀛
𢀩
𢁙
𢆉
𢆰
𢆶
𢇁
𢇇
𢉖
𢌬
𢌿
𢏚
𢑑
𢑚
𢖻
𢙣
𢛳
𢦏
𢦒
𢧵
𢼄
𢾕
𣁋
𣄼
𣅀
𣅽
𣍘
𣎳
𣎵
𣏋
𣏼
𣗥
𣥂
𣥖
𣦵
𣦼
𣧄
𣪊
𣪠
𣬉
𣳾
𣶒
𤇾
𤊽
𤐫
𤓰
𤔔
𤕨
𤣩
𤰇
𤰔
𤰞
𤴓
𤴔
𤽄
𥁑
𥁕
𥃦
𥃩
𥃭
𥇡
𥑟
𥘅
𥘈
𥝢
𥫗
𥱡
𦈢
𦉪
𦉬
𦉼
𦍌
𦍒
𦎧
𦐇
𦓔
𦔮
𦘒
𦙃
𦚏
𦣝
𦣞
𦣻
𦥑
𦥔
𦥯
𦨉
𦭝
𦰩
𧆞
𧈧
𧘇
𧰨
𧴪
𧴮
𧵩
𧾷
𨸏
𨾴
𩙿
𩠐
𩫏
𩵋
𪉷
𪜀
𪟽
𪠲
𪩲
𫇦
𫔭
𫜸
𫝀
𫠣
𫠩
𫢉
𫥞
𫩏
𫩠
𫪡
𫲽
𫶧
𬀷
𬐘
𬗌
𬙙
𬛸
𬜯
𬟩
𬯁
𬴘
𬺻
𬼀
𬼉
𬼖
𭀰
𭁈
𭁨
𭅰
𭑈
𭕄
𭗼
𭤨
𭥫
𭻾
𮅕
𮊿
𮍌
𮍏
𮓗
𮥼
𮧮
廾
𰀁
𰀄
𰀈
𰀉
𰀕
𰀠
𰀡
𰀢
𰀪
𰁜
𰃮
𰆊
𰆘
𰋙
𰕎
𰢴
𰧭
𰯲
00--
01--
10--
11--
12--
13--
14--
15--
16--
17--
18--
19--
20--
25--
40--
80--
81--
a--
ab--
abso--
abst--
abstra--
ac--
ad--
add--
adminis--
ado--
af--
ag--
ah--
ai--
ak--
al--
alka--
am--
amo--
an--
ance--
ander--
ans--
anti--
ap--
app--
appa--
appe--
approxi--
ar--
ara--
ari--
aris--
arri--
as--
astr--
at--
au--
autho--
av--
aw--
b--
ba--
bac--
bar--
be--
belie--
bene--
ber--
bi--
bio--
blo--
blu--
bo--
bom--
bon--
bre--
bri--
bro--
bru--
bu--
bur--
but--
by--
bø--
c--
ca--
calcu--
can--
cap--
car--
caro--
cat--
cau--
ce--
ceil--
cele--
ch--
cha--
chall--
cho--
chris--
ci--
cita--
citi--
cle--
clo--
co--
cogni--
coll--
collo--
com--
commu--
communi--
con--
cong--
contri--
cor--
corpo--
corr--
coun--
cre--
cro--
cu--
culti--
cyc--
d--
da--
de--
dec--
deco--
defe--
defi--
den--
depi--
depo--
des--
deter--
di--
dia--
diag--
die--
diff--
dig--
dire--
dis--
discu--
diso--
disti--
do--
docu--
dr--
draw--
dre--
dri--
du--
dy--
e--
eat--
eco--
ed--
eff--
ei--
ek--
el--
ele--
elect--
elli--
else--
em--
en--
end--
eng--
epi--
equ--
er--
es--
esti--
et--
etymo--
eu--
evi--
ex--
exa--
excava--
exce--
explor--
extr--
f--
fa--
fami--
fe--
fer--
fi--
fla--
flo--
flu--
fo--
foot--
for--
fr--
frame--
fri--
fu--
fæ--
g--
ga--
gar--
ge--
gene--
geni--
geo--
gi--
gla--
glu--
go--
gra--
grand--
gu--
h--
ha--
hac--
har--
he--
her--
hi--
him--
his--
ho--
hol--
homo--
hu--
hund--
hy--
i--
ia--
id--
iden--
idi--
il--
illus--
im--
in--
inc--
increas--
indi--
infe--
inst--
inte--
inter--
intro--
invol--
is--
iso--
it--
iu--
j--
ja--
jac--
je--
ji--
jo--
ju--
jud--
k--
ka--
kar--
kash--
ke--
kh--
ki--
king--
kl--
ko--
ku--
l--
la--
le--
lexi--
li--
lo--
lou--
lu--
ly--
m--
ma--
mag--
mal--
man--
mar--
mat--
mc--
me--
mer--
mi--
mic--
micro--
mig--
mix--
mo--
mobi--
mon--
monog--
mor--
mu--
mur--
my--
mø--
n--
na--
naj--
narr--
nd--
ne--
nece--
news--
ng--
ngs--
ni--
no--
nor--
ns--
nu--
nume--
nɡ--
o--
oa--
ob--
obser--
observa--
occ--
off--
og--
om--
on--
opi--
opp--
or--
os--
out--
over--
p--
pa--
pales--
para--
pass--
pat--
pe--
peli--
penet--
per--
ph--
phar--
phil--
pi--
pl--
pla--
po--
por--
pot--
pra--
pre--
prepa--
pri--
princi--
pro--
proce--
profe--
prog--
propor--
prose--
provi--
ps--
psy--
psycho--
pu--
pur--
py--
qa--
qu--
r--
ra--
ran--
rat--
re--
rece--
recog--
recom--
refer--
reg--
rela--
reli--
ren--
res--
resis--
reve--
rho--
ri--
ro--
roo--
rou--
ru--
s--
sa--
sal--
satur--
sce--
sch--
se--
sea--
sen--
sepa--
sequ--
ser--
set--
sh--
sha--
si--
sk--
sla--
sn--
so--
sol--
spe--
spi--
spo--
ss--
st--
sta--
ste--
stra--
stu--
su--
sub--
succ--
sun--
sur--
sus--
swe--
sy--
sæ--
t--
ta--
tai--
tal--
te--
teac--
tech--
tele--
tem--
ter--
th--
thi--
thre--
ti--
to--
tr--
trans--
tre--
tri--
tu--
ty--
u--
um--
un--
up--
ur--
us--
ut--
v--
va--
var--
ve--
vene--
ver--
vi--
vir--
vo--
vol--
væ--
w--
wa--
wal--
war--
water--
we--
wel--
wi--
wiki--
wil--
wis--
wo--
wu--
x--
xi--
y--
ya--
ye--
yi--
yo--
yu--
z--
ze--
zi--
zo--
³--
æ--
ð--
þ--
ħ--
ł--
ŋ--
ɐ--
ɑ--
ɒ--
ɔ--
ɕ--
ɕi--
ə--
ɛ--
ɡ--
ɣ--
ɦ--
ɪ--
ɲ--
ɹ--
ɽ--
ɾ--
ʁ--
ʂ--
ʃ--
ʈ--
ʊ--
ʋ--
ʌ--
ʑ--
ʑi--
ʒ--
ʔ--
ʔa--
ʔɓ--
ʕ--
ʝ--
ː--
α--
γ--
δ--
λ--
μ--
ν--
ο--
π--
ρ--
σ--
τ--
зелен--
м--
п--
т--
у--
ا--
اس--
ب--
ت--
ج--
ح--
خ--
د--
ر--
س--
ش--
شیط--
ع--
عر--
غ--
غر--
ك--
ل--
م--
ن--
و--
ي--
پ--
چ--
ک--
کش--
گ--
ی--
अ--
आ--
क--
त--
प--
ब--
म--
र--
ल--
व--
स--
ह--
অ--
ల--
ก--
กา--
ค--
ง--
จ--
ช--
ด--
ต--
ท--
น--
บ--
ป--
ปล--
พ--
ม--
มะน--
ย--
ร--
ล--
ว--
ส--
ห--
อ--
า--
ำ--
เ--
แ--
โ--
ใ--
ใน--
ไ--
ອ--
ເ--
ໝາ--
က--
ခ--
ခဏ--
ဂ--
ဂဗ--
ဂဟ--
ဃ--
င--
စ--
စပ--
ဆ--
ဇ--
ည--
ဋ--
ဌ--
ဍ--
ဎ--
ဏ--
တ--
တရ--
တလ--
ထ--
ဒ--
ဒက--
ဓ--
ဓန--
န--
နမ--
နယ--
ပ--
ပပ--
ပရ--
ပသ--
ပအ--
ဖ--
ဗ--
ဘ--
မ--
မခ--
မစ--
မည--
မပ--
ယ--
ယက--
ယမ--
ရ--
ရအ--
လ--
လစ--
လဇ--
လပ--
လမ--
ဝ--
သ--
သန--
သမ--
သရ--
သဟ--
ဟ--
ဠ--
အ--
ဢ--
ဣ--
ဤ--
ဥ--
ဧ--
ဨ--
ဨတ--
ဩ--
ဿ--
၀--
၁၀--
၁၁--
၁၂--
၁၃--
၁၄--
၁၅--
၁၆--
၁၇--
၁၈--
၁၉--
၂၀--
၂၁--
၂၂--
၂၃--
၂၄--
၂၅--
၂၆--
၂၈--
၃၁--
၃၅--
၃၆--
၈၆--
ၚ--
ၛ--
ၜ--
ၝ--
ၵ--
ၶ--
ក--
រ--
ស--
អ--
--0
--1
--2
--3
--4
--5
--6
--7
--8
--9
--a
--abad
--ad
--age
--ah
--ai
--ak
--al
--ald
--als
--am
--an
--ant
--ar
--ard
--ary
--as
--at
--ate
--ated
--ates
--ation
--ations
--ative
--au
--ay
--b
--ba
--be
--ber
--berg
--ble
--bs
--by
--c
--ca
--cal
--ce
--ced
--cent
--ces
--ch
--cise
--ck
--cle
--co
--craft
--cs
--ct
--cted
--ction
--ctions
--ctive
--cts
--cy
--d
--da
--dal
--dar
--day
--de
--ded
--ding
--do
--dom
--dra
--ds
--dy
--e
--ea
--ean
--ed
--eenth
--el
--ely
--en
--ence
--ences
--ened
--ens
--ent
--ents
--eo
--ep
--er
--ere
--ered
--ers
--es
--esa
--ese
--ess
--est
--et
--ets
--ey
--f
--fs
--ful
--g
--ga
--ge
--gen
--ger
--gical
--gins
--gn
--go
--gs
--gue
--gy
--h
--ha
--ham
--he
--hed
--hes
--hi
--hing
--hip
--hood
--i
--ia
--ial
--ian
--ible
--ic
--ica
--ical
--ick
--icle
--ics
--id
--iday
--ie
--ied
--ient
--ients
--ier
--ies
--ight
--ign
--ik
--il
--ile
--ility
--ill
--im
--in
--ine
--ing
--io
--ion
--ional
--ions
--ious
--ip
--ir
--ire
--is
--isation
--ise
--ised
--ish
--ism
--isms
--ist
--istic
--ists
--it
--ite
--ities
--ity
--ium
--ive
--ives
--ization
--ized
--j
--k
--ka
--ke
--ki
--ku
--l
--la
--lar
--ld
--le
--lect
--ler
--lf
--li
--ling
--lity
--lk
--ll
--lla
--lm
--lo
--logical
--logy
--ls
--lt
--lty
--lu
--ly
--m
--ma
--man
--me
--ment
--ments
--mic
--mit
--mp
--ms
--n
--na
--nal
--nce
--nces
--nd
--nder
--nds
--ne
--ned
--nel
--ner
--nes
--ness
--ney
--ng
--ni
--ning
--nk
--no
--ns
--nt
--nts
--ny
--o
--od
--oid
--ol
--ology
--ome
--on
--onal
--ong
--ons
--or
--ories
--ors
--ory
--os
--ot
--ous
--ov
--ow
--p
--pa
--pe
--pect
--ping
--ple
--ps
--py
--q
--que
--r
--ra
--ral
--raphy
--rd
--re
--ret
--rg
--ri
--ria
--ric
--ries
--rily
--rk
--rl
--rm
--rn
--ro
--rs
--rse
--rt
--ry
--s
--sa
--se
--sed
--ses
--sh
--si
--sion
--sions
--sis
--sive
--sm
--sor
--ss
--st
--ster
--t
--ta
--tal
--tation
--te
--ted
--teenth
--tely
--th
--ti
--tic
--ties
--tion
--tions
--tive
--tle
--to
--tor
--ts
--tt
--ture
--ty
--u
--ua
--ual
--ue
--uh
--ui
--uin
--uk
--ul
--ula
--ult
--um
--un
--ung
--up
--ur
--ure
--ures
--us
--ut
--ux
--v
--va
--val
--ve
--vy
--w
--wa
--wk
--wm
--x
--y
--ya
--yan
--ye
--yer
--yn
--ys
--yya
--z
--ze
--zi
--zo
--æ
--ŋ
--ɑ
--ɔ
--ə
--ɛ
--ɡ
--ɪ
--ɹ
--ɾ
--ʁ
--ʃ
--ʊ
--ʔ
--ʕ
--α
--αι
--ι
--ν
--ο
--ος
--ς
--а
--е
--и
--н
--ا
--ب
--ة
--ت
--د
--ر
--ز
--س
--ش
--ع
--ف
--ل
--م
--ن
--ه
--و
--ى
--ي
--ية
--ہ
--ی
--त
--न
--म
--र
--ก
--ค
--ญ
--ด
--ต
--ท
--น
--บ
--ป
--พ
--ม
--ย
--ร
--ล
--ว
--ส
--อ
--ะ
--า
--ະ
--က
--ခ
--ဂ
--င
--စ
--ဆ
--ဇ
--ဉ
--ည
--ဋ
--ဍ
--ဏ
--တ
--ထ
--ဒ
--ဓ
--န
--ပ
--ဖ
--ဗ
--ဘ
--မ
--ယ
--ရ
--လ
--ဝ
--သ
--ဟ
--ဠ
--အ
--ဥ
--ဿ
--ဿပ
--၀
--၀၀
--၀၅
--၀၈
--၀၉
--၁
--၂
--၃
--၄
--၅
--၆
--၇
--၈
--၉
--ၚ
--ၜ
--⁴
