!
"
#
##0
##1
##10
##11
##12
##13
##14
##15
##16
##17
##18
##19
##2
##20
##21
##22
##23
##24
##25
##26
##27
##28
##29
##3
##30
##31
##32
##33
##34
##35
##36
##37
##38
##39
##4
##40
##41
##42
##43
##44
##45
##46
##47
##48
##49
##5
##50
##51
##52
##53
##54
##55
##56
##57
##58
##59
##6
##60
##61
##62
##63
##64
##65
##66
##67
##68
##69
##7
##70
##71
##72
##73
##74
##75
##76
##77
##78
##79
##8
##80
##81
##82
##83
##84
##85
##86
##87
##88
##89
##9
##90
##91
##92
##93
##94
##95
##96
##97
##98
##99
$
%
&
'
(
)
*
+
,
-
.
/
0
00
000
002
01
02
020
021
023
03
030
031
035
038
04
040
046
05
051
052
054
059
06
07
08
080
09
090
098
1
10
100
1000
1001
100591
101
102
103
104
105
106
107
108
109
11
110
1100
111
112
113
1139
114
115
116
117
118
119
12
120
1200
121
122
123
124
125
126
127
128
1280
129
1290
13
130
1300
132
1320
13216
133
13303
134
135
136
137
138
139
1392
1397
13992
14
140
1400
141
14118
142
143
144
145
1450
146
1463
1466
1469
147
1472
148
1483
1487
1488
1491
1492
1493
1494
1498
15
150
1500
1502
1503
1506
1508
1509
151
1515
1517
1519
152
1520
1521
1522
1523
1524
1526
1528
153
1537
1538
1539
154
155
1550
1553
1556
156
1565
157
1571
1573
158
1580
159
1590
1594
16
160
1600
1603
1605
1606
1608
161
1613
1618
162
1623
163
1634
164
1648
165
1655
1657
1658
166
1667
167
1670
1672
168
1681
1683
169
1697
17
170
1700
172
173
174
1745
175
1758
176
177
178
1783
179
1790
18
180
1800
1801
1805
1809
181
1810
1811
1814
1815
1816
1819
1821
1822
1823
1824
183
1830
1831
1834
1835
1837
1838
1840
1845
1849
185
1850
1851
1856
1859
1861
1862
1863
1864
1865
1866
1867
187
1870
1871
1874
1875
1877
1878
188
1880
1884
1885
1886
1888
1889
189
1890
1892
1893
1894
1895
1896
1897
1898
1899
19
190
1900
1901
1902
1903
1904
1905
1906
1907
1908
1909
191
1910
1911
1912
1913
1914
1915
1916
1917
1918
1919
192
1920
1921
1922
1923
1924
1925
1926
1927
1928
1929
193
1930
1931
1932
1933
1934
1935
1936
1937
1938
1939
194
1940
1941
1942
1943
1944
1945
1946
1947
1948
1949
195
1950
1951
1952
1953
1954
1955
1956
1957
1958
1959
196
1960
1961
1962
1963
1964
1965
1966
1967
1968
1969
197
1970
1971
1972
1973
1974
1975
1976
1977
1978
1979
198
1980
1981
1982
1983
1984
1985
1986
1987
1988
1989
199
1990
1991
1992
1993
1994
1995
1996
1997
1998
1999
2
20
200
2000
2001
2002
2003
2004
2005
2006
2007
2008
2009
201
2010
2011
2012
2013
2014
2015
2016
2017
20170923
20170924
2018
20180630
2019
202
2020
2021
2022
203
204
205
206
207
207715
208
209
209203
21
210
211
212
213
2130
214
215
216
217
219
22
220
221
222
223
224
225
226
227
228
229
23
230
2300
232
233
234
235
236
237
238
239
24
240
241
242
243
244
245
246
247
248
249
25
250
2500
251
252
254
255
256
257
258
259
26
260
261
262
263
264
265
266
267
268
27
270
271
272
273
274
275
2758
276
277
278
279
28
280
2800
281
282
283
284
285
286
287
29
290
291
292
293
294
295
296
297
298
299
3
30
300
3000
301
302
303
304
305
308
309
31
314
31446
316
317
318
319
32
320
321
322
323
326
327
328
329
33
330
331
332
333
334
335
336
338
339
34
340
341
342
343
344
345
346
347
348
349
35
350
351
352
354
355
358
359
36
360
3600
364
367
368
37
370
373
375
376
377
378
379
38
380
381
384
385
387
389
39
390
391
392
394
395
397
398
399
4
40
400
4000
401
402
403
404
405
406
407
408
41
410
4109
414
415
417
42
420
421
425
427
43
430
433
434
44
440
442
443
445
446
45
450
457
459
4599
46
460
462
463
465
466
467
468
47
470
471
472
474
477
478
48
480
481
482
484
487
49
490
495
498
5
50
500
5000
501
506
507
508
509
51
510
515
5181
52
520
521
524
526
527
53
530
5354
537
538
539
54
540
541
542
543
55
550
552
556
557355
56
560
560820
561
562
564
565
566
569
57
570
575
578
58
581
585
586
587
589
59
590
591
5914
592
594
595
597
599
6
60
600
6000
601
603
606
607
61
610
611
612
615
618
62
620
622
624
625
626
6261
629
63
630
631
632
635
637
639
64
644
648
649
65
650
653
655
657
658
659
66
660
6601
662
6635
664
667
668
67
670
676
68
680
689
69
690
7
70
700
7000
702
709
71
710
711
716
719
72
720
725
728
7290
73
74
741
742
748
75
750
751
752
757
758
759
76
768
77
771
775
78
780
784
785
787
788
79
790
791
792
796
799
8
80
800
8000
801
802
803
81
812
816
817
82
820
823
826
83
830
838
84
841
85
850
851
852
858
859
86
860
861
864
868
87
872
874
88
884
89
894
896
89958
9
90
900
9000
91
910
914
915
916
917
918
92
921
924
929
93
930
94
940
944
947
95
950
952
957
958
96
961
965
966
968
97
970
975
978
98
980
984
985
986
99
992
994
995
9975
998
:
;
<
=
>
?
@
[
]
^
_
`
a
aa
aadidi
aadihan
aadingan
aadupan
aadupanan
aadupanay
aadupen
aaidangan
aalaan
aalan
aam
aamisan
aapuyu
aasipan
aayad
aayaw
aazihan
aazihen
ab
ababalaki
abala
abali
abataan
abay
abbottii
abdalla
abdel
abdelaziz
abdelmadjid
abdul
abdullah
abela
abesa
abesaay
abibien
abibiyan
abih
abinacadan
abinung
able
about
abu
abuabuan
abuabuwan
abuan
abuh
abulad
abuyu
ac
aca
acaay
acacay
acak
acaken
acanthaceae
acasa
acawa
acawaan
acawaay
acawana
acawaw
acay
achi
aci
acice
acid
acima
acin
across
actor
actress
acute
ad
ada
adada
adadaan
adadaay
adadan
adam
adama
adams
adasay
adawan
adawas
adeci
ademiad
adengis
adiadi
adidem
adidi
adidiay
adidien
adidihenay
adiding
adidingay
adietu
adih
adihan
adihay
adihen
ading
adingu
adipangpang
adipapang
adipawnay
adipin
adiping
adiri
adiwawa
adu
adup
adupan
adupen
adventures
ae
ael
aenegan
aenengan
aepah
aesu
af
afghanistan
afilika
africa
african
after
agal
age
agostinho
agrabah
agreement
ah
ahacica
ahbal
ahbalay
ahe
ahebal
ahebalan
ahebalay
ahebed
ahecid
aheciday
ahemaw
ahemaway
ahemi
ahi
ahica
ahicaan
ahicaen
ahican
ahicanaca
ahitay
ahizan
ahmadzai
ahmed
ahuhan
ahulic
ai
aida
aidaan
aidang
aidangan
aidaw
air
ais
aisian
aizaw
ak
aka
akak
akamu
akamy
akan
akanatal
akapah
akate
akawaw
akaway
akawayan
akawy
akay
akeakenekan
akebia
aken
akenek
akenekay
akenis
akihito
akkadian
aku
akudi
akulit
akuti
akutiay
akuwan
al
ala
alaan
alaaw
alababay
alabi
aladdin
alaen
alahica
alahicaan
alahicaen
alahican
alain
alala
alalangawan
alamangan
alan
alang
alangah
alapo
alapu
alapuo
alaska
alassane
alasubu
alatu
alaw
alawan
alawaw
alawen
alawhan
alawhani
alba
albania
albert
alberto
alealedahan
aledah
aledahay
alejandro
alekec
aleksandar
alem
ales
alesan
alesen
alex
alexander
alford
algeria
algiers
ali
alibungbung
alice
alikakay
alilolo
alin
alipawnay
alisalap
alisan
alishan
aliwsen
aliyaliyac
aliyev
aljungic
all
allen
almazbek
along
alpha
alps
alsalap
also
alston
alua
alubu
aluday
aluma
alumanay
alungdas
alupal
alupalan
alvi
alya
am
ama
amaan
amaazih
amahetik
amahica
amahida
amahini
amahiza
amakatukuh
amala
amalacawa
amalaheci
amalatabakiay
amalawpes
amalebut
amalepacaw
amalika
amalingatu
aman
amana
amanan
amang
amangaleb
amangelu
amapatay
amatineng
amaudip
amausep
amay
amaydih
amazon
amed
ameenah
amelik
america
american
ami
amiadih
amiadup
amiadupay
amiala
amiales
amiasip
amiazih
amibetik
amica
amicumud
amidang
amidateng
amidebung
amidiput
amihca
amihcaan
amihcan
amiheca
amihecaan
amikawaw
amikilim
amikuwan
amiladay
amilika
amilikaan
amilikaay
amilikan
amiliyas
amilunguc
amim
amin
aminanam
amipatay
amipelu
amis
amisa
amisakakawaw
amisakapah
amisalunguc
amisan
amisanga
amisay
amisbalat
amisiteked
amislic
amisuayaw
amisulit
amitaneng
amiteka
amitena
among
amu
amuhuan
amuhuwan
amuhuwanay
amukan
amulangaw
amusakamu
amutu
an
ana
ananum
anay
anca
ancaay
ancay
and
andersen
anderson
andorra
andrej
andrew
andrzej
ang
angang
anganga
angangan
anganganan
angangangan
angangngan
angcoh
angeles
angic
angil
angiosperms
angola
angtul
angtulay
ani
anicudadan
anidatengan
anifong
anika
anikalepacaw
anikalepacawan
anikasi
anikaudip
anikaudipan
anikulitan
anikuwanan
animal
animalia
animals
anini
anipa
anipahabayan
anipalumaan
anipatidengan
anipi
anisangaan
anisulitan
aniwan
aniwyiw
aniyadu
anna
annual
antal
anteng
antetokounmpo
anthony
antigua
antise
anto
antonio
anu
anuayaw
anucaay
anucila
anusa
anyadu
ao
aow
aoziguo
apa
apaca
apacici
apahabay
apakatengil
apala
apalu
apaluma
apasubana
apatideng
apaw
apc
api
apu
apudule
apuhau
apuyu
apuyuay
arab
arabia
arabian
arabic
archange
archive
ardea
ardern
are
area
arenga
argentina
arif
armen
armenia
armstrong
arnousn
around
art
arthur
article
arturs
aru
aryan
as
asa
asaan
asaca
asay
ash
ashraf
asi
asia
asian
asibalu
asidibu
asik
asikawaw
asilamit
asilangaw
asing
asip
asipapah
asipen
asiroay
asiya
askar
asp
aspx
assad
association
asteraceae
asterales
asu
asuay
at
atademaw
atahekal
ataluma
atambayev
ataneng
atapa
atay
atayal
atayda
atayni
atayza
ateka
atekak
atekakay
ateng
athens
atikak
atilad
atimsi
atipal
atipelec
atlanta
atlantic
atmosphere
attraction
atu
atudi
atuud
au
auckland
augustine
auk
aureliu
auskan
austin
australia
australis
austria
aut
autumn
aux
aves
avus
aw
awaay
award
awards
awas
awaw
awawa
awawan
awawen
awcima
awda
awi
awk
awmay
awtili
awu
awza
ay
aya
ayaan
ayadah
ayam
ayaman
ayamay
ayaw
ayawan
ayaway
ayawen
ayawtu
ayay
ayce
ayda
aydaay
aydahan
aydahantu
aydasa
ayday
aydecia
aymi
aysipadise
ayti
aytu
ayza
ayzaay
ayzasa
ayzasatu
az
azerbaijan
azi
aziazihan
azih
azihan
azihen
aziz
b
ba
baad
baaday
baat
baatay
baba
babahiyan
babakahan
babala
babalak
babalakasen
babalaki
babalakiay
babalakiyay
babalangad
babaledaw
babaluan
babatuan
babayu
babayuh
babayuhan
babeku
babelbel
babenis
babenisan
babo
babutingan
babuy
bacaywan
bacon
bacu
badaan
badahung
badakuwan
badakuwang
badi
badic
badisusu
badukukan
baduwac
baebaetuan
baeket
baeketay
baetu
baetung
bahal
bahamas
bahbah
bahbahan
bahbahen
bahel
bahrain
bahun
bai
baian
bailey
bainimarama
bakah
bakahen
bakan
baker
baket
baketay
baki
bakibaki
bakici
bakir
bako
bakudang
bakudangen
bakung
bala
balad
balah
balakas
balaki
balakiay
balakitu
balakiyay
balalangad
balangbang
balangbangan
balat
balaten
balattu
balaud
balaut
balaw
balay
balaysan
baldwin
balec
balesitan
bali
balian
baliay
balidas
baliyalaw
baliyus
balkans
balobalo
balticyu
baltimore
balu
baluan
baluay
balubaluan
balucu
balucuan
balucuay
balud
baluden
baluhan
baluhang
baluhay
baluhaya
baluhayay
baluinana
balulu
balung
balunga
balungaan
balungaay
balungan
baluwan
baluwang
baluwangay
bambi
bamboo
ban
bana
banacadan
banaw
banawan
banawen
bancal
bancalay
band
bang
bangacal
bangah
bangas
bangbangcal
bangcal
bangcalay
banges
bangesis
banggu
bangkok
bangku
bangladesh
bangsi
bangsis
bangsisay
banic
banihiw
banks
bantu
banu
banuaz
banuh
banuhan
banuhay
banul
banun
bao
barbados
barbuda
barker
barkley
barnes
barnett
barnhill
barr
barrett
barrow
barry
basal
basaw
basbas
bashar
basis
basketball
basu
bataan
bataanay
batac
batacan
batad
bataday
batan
batikal
bato
battle
batu
batuan
bau
bauan
baw
bawahan
bawbi
bawu
baxter
bay
bayabay
baybay
bayduk
bayhunpi
bayi
bayu
bayuan
bayuay
bayubayuan
bayubayuwan
bayuway
bb
bbc
bc
bd
be
beach
bean
beard
beasley
beck
been
before
bei
beinan
being
belac
belarus
belaw
belaway
belbel
belek
belekan
beleng
belgium
belguim
belih
belihen
belin
belinen
beliw
belize
bell
belle
bellen
belus
belut
ben
bender
benel
benin
benis
benjamin
bennett
benson
berber
berdimuhamedow
bergen
bernard
berry
besi
best
besu
besuc
bettel
bey
bf
bhandari
bhutan
bi
bian
bibby
bicin
bidadiki
bidakelung
biden
bidhya
bihekac
bihid
bihit
bihkac
bihun
bila
bilal
bilanga
bilbil
bili
biliay
bilil
bill
bin
binacada
binacadaan
binacadan
binacadanay
binacanan
binaduan
binawlan
binawlanay
bing
bird
birds
bisher
bishop
bissau
bituka
bitunay
biw
biy
biya
biyalaw
biyang
biyaw
biyaway
biyu
biyuan
black
blackwell
blaise
blazers
bletilla
blhuy
blica
block
blog
blood
blount
blue
bo
bob
body
bolivia
bolsonaro
bon
bondage
bongo
boo
book
booker
books
boone
booth
boozer
boraginaceae
bordered
borealis
born
bos
bosch
bosnia
boston
both
botswana
boubacar
bounnhang
bouteflika
bow
bowman
box
boyd
bradley
brahim
branaw
brandon
brasil
brazil
brennan
brewer
bridge
britain
british
broad
brooklyn
brooks
brunei
bsuling
bu
bucici
bucks
bucud
bucul
bucyacaw
budawa
budawan
budawang
budu
buhan
buhang
buhangan
buhat
buhaten
buhung
buhungan
bujar
bukal
bukebukelalan
bukelal
bukeluh
bukes
buklavu
buksi
bukubu
bukul
bulad
buladan
bulah
bulat
bulatan
bulaw
bulawan
bulgaria
buling
buliyas
bullets
bulls
bulu
buluku
bun
bunabunakan
bunac
bunak
bunan
bunaw
bunawan
bunday
bung
bunga
bungluh
bunguh
bunka
buntay
bunuk
bunun
bununay
bunung
burkina
burma
burundi
busugi
busuk
but
buta
butch
butimu
buting
butingan
butingay
butu
butuc
butud
butul
butung
butungan
buwa
buwah
buy
buyu
buyuan
buyuay
buyubuyu
buyubuyuan
bwarung
by
c
ca
caah
caang
caay
caaya
caayay
caayen
caayhen
caayhenay
caayka
caaykalecad
caaykatineng
caaykaw
caaysa
caaytu
cabal
cabay
cabaya
cabayan
cabayay
cabeng
cabengay
cabi
caca
cacaay
cacacacay
cacakayan
cacaliwayan
cacan
cacanan
cacandayan
cacay
cacaya
cacayan
cacayay
cacayen
cacayya
cacebalan
cacekawan
cacekulan
cacelakan
cacudadan
cacudadanay
cacudatan
cacuhcuhan
caculculan
caculculen
caculilan
cacumudan
cadillac
cahu
cai
cairo
caiw
caka
cakat
cakaw
cakay
cakayan
cakeb
caket
cal
calahcah
calakakaan
calap
calaped
calasiv
calaw
calay
calayzazan
caldes
caldesay
caledes
caledesay
calekah
calekaka
calekakaan
calenged
calenget
calengetay
california
caliway
caliwayan
calkakaan
called
caluway
cambodia
cameron
cameroon
can
cana
canaca
canacana
canacanan
canacananan
canada
canan
canancanan
cancan
cancanan
cang
canis
cao
capi
capiay
capital
capiwac
captain
career
caribbean
carl
carlos
carnivora
carolina
cascas
cascasan
catalonia
catu
cavak
caw
cawi
cay
caya
cayay
caycaay
cayhen
cayhenay
cayka
caykalecad
caykasa
caykatalaw
caykataneng
caykatenes
caykatineng
caykatuud
caykaw
caykayadah
caypasumad
caypiwac
caytu
cc
cd
ce
cea
cean
ceaw
ceay
cebal
cebalan
cebang
cebecebedan
cebecebetan
cebisan
cebu
cecay
cece
ceci
cedang
ceiba
ceka
cekes
celacan
celah
celahcan
celak
celakan
celas
celem
celinga
celip
celit
celitan
celtics
celuh
cemad
cemed
cen
cenbu
cence
cenceay
cencun
ceng
cengce
cengyi
cenhu
cenhuay
ceni
cening
cenpaw
centan
centipede
central
cepi
cepo
cesya
cey
cha
chad
chan
chang
changbin
changpin
chao
charles
charlie
chat
chaw
che
chen
cheng
chengce
chenggong
chengzhi
chi
chiayi
chicago
chief
chifa
chile
chin
china
chinense
chinese
chiroptera
chishang
choa
chordata
chou
chris
christian
christiane
chu
chuan
chun
chung
chyy
ci
cia
ciama
cian
ciang
ciaw
ciay
ciba
cibaki
cibalbalan
cibarbaran
cibayi
cibibi
cibutung
cica
cicekaay
cicya
cida
cidakay
cidatayay
cideaky
cideaya
cidek
cidekan
cidekay
cidenay
cie
cieng
ciey
cigarette
cihabayan
cihak
cihek
cii
ciid
ciina
ciit
ciitan
cika
cikah
cikasa
cikasuan
cikasuwan
cikatenes
cikciken
cikdekay
cikep
ciku
cila
cilafinan
cilakay
cilakayan
cilal
cilala
cilalan
cilamitay
cilangasan
cilekay
cilekaya
cilekayan
cilemin
cileminay
cili
cilicilisan
cilily
cilis
cilkay
cilu
ciluciluk
cilucilukan
cima
cimacima
cin
cina
cinaiya
cincen
cinceta
cincinnati
cinciu
cing
cingaluan
cini
cinida
cinidaan
cinita
ciniza
cinizaan
cinsan
ciocoi
cipangopaludina
cipawkan
cirarokohay
cis
cisiwsiwan
citudungay
city
ciu
ciupus
ciw
ciwciw
ciwidian
ciwidiyan
ciwkangan
ciwlu
ciwluay
ciwng
ciy
ciya
ciyak
ciyakang
ciyama
ciyamayse
ciyan
ciyanen
ciyang
ciyaw
ciye
ciyen
ciyu
ciyuci
clayton
cleveland
cliff
closely
club
cm
co
coco
cocos
coffee
college
colombia
columbia
columbus
com
common
commonly
company
compositae
comuli
conde
conditions
cong
congchyy
congfen
conghuaminko
conghwaminku
congjin
congli
congnanmeico
congo
congsin
congtung
content
cooking
corey
corn
corvus
costa
cote
cotton
cou
country
county
cov
covid
cow
cp
croatia
crossing
cruella
cruz
cu
cuan
cuay
cuba
cucu
cucuan
cucuk
cuda
cudad
cudadan
cudaday
cudet
cudetay
cuduh
cue
cuecuedan
cueded
cuededay
cuedet
cuedetay
cui
cukana
cukaymasen
cuked
cuku
cul
culahakay
culal
culay
culculen
culen
culil
culilan
culilay
culilen
culiye
cultivated
culture
culu
culuk
cumelak
cumelakay
cumi
cumin
cumud
cumudan
cun
cuncu
cung
cungku
cungli
cungtun
cungtung
cunida
cunli
cuntu
cuntun
cunus
cunusan
cunusen
cuo
cuoay
cuokuo
cuotun
cupelak
cupu
current
cus
cusay
cuun
cuung
cuw
cuwa
cuwaay
cuwacuwa
cuwacuwaay
cuwacuway
cuwan
cuwang
cuwcuw
cuwen
cuwi
cuy
cuyacuy
cuyuh
cwan
cweng
cya
cyalan
cyama
cyan
cyang
cyaw
cyayi
cye
cyen
cyprus
cyu
cyun
czechia
czechoslovakia
d
da
dabek
dac
dada
dadac
dadadadanan
dadadanan
dadadiwan
dadan
dadanan
dadatengan
dadawa
dadaya
dadayday
dadayumen
dademaw
dademec
dademecan
dadingu
dadinguay
dadipana
dadipasan
dadipasanay
dadiputan
dadiputen
dadisapan
dadiu
dadiw
dadiway
daduducan
daduy
daecusay
daedac
daesu
dahomey
dais
dakep
dakepen
dalah
dallas
dalu
damay
damek
damsay
damsaya
damsayay
damud
dan
dang
dangah
dangkay
dankace
danmark
dansu
dao
dap
dapdap
daren
darrell
data
datay
datemaw
dateng
datengan
datengen
dating
datipasan
datong
datuk
datukan
daung
dave
david
davugele
daw
dawa
dawmi
dawmiay
dawu
dawya
day
daya
dayas
daydam
dayday
dayhan
dayhiw
dayhuw
dayum
dbeibeh
dc
de
debah
debu
debung
debungan
debungay
december
dedemiad
defects
deguo
deku
del
delta
dem
demaad
demaid
demec
demecen
demiad
demiadan
demiaday
demiamiad
demian
demiat
demidad
demidemiad
demidemiadan
democratic
den
deng
dengtal
denmark
dennis
depah
der
des
desay
detail
details
detay
detroit
devi
dhabi
di
diameter
diao
dibu
dibuan
dicem
diceman
dichondra
dick
dictionary
dida
didi
didiay
diego
dietu
different
dihan
diheb
diheku
dihekuay
dihen
dihep
dihepay
dihing
dihku
dihkuay
dika
dikec
dikuc
dikudan
dikudanay
dikuday
dil
dimiad
dimuten
din
dina
ding
dingki
dingkiay
dingu
dinki
dinum
diospyros
dipah
dipas
dipu
dipun
dipunan
dipunay
diput
diputen
dis
disdisen
disease
disney
ditek
ditu
diya
diyung
djerad
do
doci
dog
domingo
dominica
dominican
don
donald
dong
donghe
dorcus
dos
douard
douglas
dowmung
down
dr
draft
dramas
dream
du
duan
duba
dubayy
duda
duduc
duducen
duhepic
duhepicay
duhpicay
duka
dukay
duku
dulitan
dull
duma
dumaan
dumaay
dumasa
dumasatu
dumay
dun
duna
dung
dungdung
dungec
dungi
dungus
dungy
duo
dus
duse
duterte
dutucdutuc
duu
duud
duudtay
duut
duutay
duyu
dvd
e
eagle
ear
earl
earth
east
eastern
ec
ecowas
ecuador
ed
edad
edapen
eddie
edek
edgar
edi
edible
edil
edip
edirne
edit
edmund
edu
eduard
eduay
eesti
ef
egypt
ekim
ekimay
ekun
el
elac
elaw
eli
elielip
elizabeth
ellan
elmer
elun
elva
emang
emirates
emmerson
emomali
emperor
en
enal
enalan
enalay
ended
enem
enemay
enen
eneng
enengan
enengay
enenmay
england
english
enuc
ep
epah
epuc
equatorial
er
era
erdene
erdog
eric
eriocheir
eritrea
erna
ernie
ers
ese
essebsi
estonia
eswatini
etad
etal
ethiopia
etip
etipan
etipay
ettoday
etul
eu
eukaryota
eupatorium
euphorbia
euphorbiaceae
europe
european
excubitor
ey
f
fa
facebook
fafokod
fafukod
fai
fakong
fakung
fakuo
fallopia
falls
family
fan
fanaw
fang
faq
faso
fata
faure
faustin
fawa
fay
fb
fe
fea
feat
federal
federer
fei
feico
feicuiguo
felipe
fen
feng
fengbin
fenglin
fengpin
ferna
fey
fhm
fi
fiji
file
filipe
film
finland
fire
first
fiti
five
fixed
flag
florida
flower
flowering
flowers
fo
folalacay
following
fong
food
for
forcipule
forest
form
formosa
formosan
formosana
formosanum
forward
found
fragaria
franc
france
franceay
francesco
francisco
frank
fred
from
front
fruit
ft
fu
fuli
fun
fung
fuolaywise
furcula
fuw
fuwan
fuxing
fuy
fven
fʁɑ
g
ga
gabinete
gabon
gaga
gagikian
galasu
gambia
game
gan
gang
gankiw
garden
gardens
gary
gases
gaston
gasu
gate
gdp
ge
gen
gene
generally
genie
genus
george
georgia
georgr
german
germany
ghali
ghana
ghani
gi
giammattei
gicu
giing
giki
gikian
gilan
ging
ginger
gingku
ginkgo
giovanni
girls
glass
global
gnassingbe
go
god
golden
gong
gongxidaye
gov
government
grandmother
grass
gray
great
greater
greece
green
greenland
greg
group
grow
grown
grows
gu
guan
guanajuato
guang
guangfu
guanshan
guanxi
guatemala
guide
guiena
guillaume
guillermo
guine
guinea
gunbe
guo
gurbanguly
gurib
guyana
gwo
h
ha
habay
habayan
habelut
habutud
haca
hacacay
hacecacecay
hacica
hacining
hacul
haculan
hacuning
hademhem
hae
haemay
hahanhanan
hai
haiduan
haiti
haitutuan
haji
haka
hakalay
hakay
hakhak
hakiya
haku
hakya
hal
hala
halemhem
haley
half
halhal
halhalen
hali
halimutat
halley
halu
hamad
hamaw
hamawsa
hamdok
hami
hamid
hamin
haminen
hamuleyte
han
hana
hanaku
hanan
hananay
hanany
hanay
hanca
hang
hangay
hangisaw
hanhan
hanhanan
hani
hanida
hanika
hanita
hank
hanku
hannanay
hannida
hanoi
hans
hansa
hansaw
hansi
hante
hantu
hanu
haomi
hapay
hapinang
harald
harbour
harry
has
hasa
hashim
hasina
hassan
hata
hatanengen
hatida
hatidaay
hatidaaytu
hatidatu
hatini
hatiniay
hatiniyay
hatiza
hatizaay
hatu
hatusa
hau
hausa
have
haw
hawks
hawmi
hawng
hawsa
hay
hayata
hayayda
haycan
haykay
haykikac
haymaw
haymawhan
hayni
haynisadikud
haysin
hayu
hbo
hbun
he
head
heads
heart
hebal
hecek
heci
hecian
hedek
heger
hei
hekal
hekalan
hekalay
helan
helun
helung
hemay
hemhem
hen
hena
henaca
henay
henchun
heng
henhe
heni
henian
heniay
heniyan
henli
henry
hepin
hepipi
her
herb
herbaceous
herzegovina
hese
hetay
hetik
hey
hi
hibiscus
hica
hicaan
hicaen
hicahica
hicahicaan
hicahicaay
hicahican
hican
hicanaca
hicanan
hicasa
hida
hidaen
hidahan
hidahida
hidan
hidasa
hidasatu
hiday
high
hikin
hikuki
hikukiay
hikuy
hina
hinaadih
hini
hinien
hinin
hinisa
hinisatu
hinuki
hiong
his
hispaniola
history
hitay
hitayan
hitayay
hitu
hiya
hiyan
hiza
hizaen
hizasa
hk
hla
ho
holness
homeyaya
honduras
hong
hongkong
hongtei
hongye
host
hotel
hou
house
how
hsiao
hsien
hsinchu
hsuan
htm
html
http
https
hu
hua
hualien
huan
huang
huay
hubaw
huciyen
hucu
hucunu
huey
hui
huiam
huing
huisin
hukang
hul
hulak
hulalm
hulam
hulaman
hulamay
hulan
hulansi
hulic
hulicay
human
hun
hunan
hung
hungarian
hungary
hungdulasi
hungti
hungtian
hungtiay
hungty
hungtyay
hunti
huntu
huo
hupu
hussein
husu
huting
huw
huwa
huwan
huway
huy
huyahuy
huyan
huyini
hwa
hwalyen
hwan
hwang
i
iayaw
iayaway
ibalucu
ibrahim
ibuh
ibukelalay
ibuyuay
ic
icapi
ice
icel
iceland
icelang
icelangan
icelangay
icep
ici
iciba
icibaay
icibang
icuwa
icuwacuwa
icuwacuwaay
id
ida
idaay
idadan
idai
idaidaw
idang
idangan
idau
idaw
idawaca
idaway
idawku
idawtu
idawya
idih
iduc
iduma
idwa
ienal
iga
igaan
igaay
igu
ihekal
ihekalay
ihua
ihun
ii
iii
iing
ika
ikang
ikit
ikul
ikyu
il
ila
ilabu
ilabuay
ilabuhan
ilabuway
ilaed
ilala
ilalabu
ilham
ililis
ilir
ilisin
illinois
iluc
iluciluc
iluiluc
iluma
imahida
imahini
imahiza
imataay
imdb
imelang
imelangan
imelangay
imf
imi
imian
imin
imonyte
important
imran
in
ina
inaayaw
inai
inaiay
inaka
inakaay
inakawaw
inay
inaya
inayay
inayi
inayiay
inayinayi
inaynay
inaynayi
include
including
incubator
incumin
index
india
indian
indiana
indians
indica
indonesia
indu
info
ing
ingay
ingcumin
inggu
ingkuo
ingrida
ingtu
ingu
ini
inika
inikudan
inipi
iniw
iniwtu
iniyadu
iniyan
iniyay
iniyu
insac
instagram
international
intini
into
intu
inu
inuayaw
inuayawan
inudikudan
inutebanan
inutipan
inyadu
iohannis
ipa
ipabaw
ipabaway
ira
iran
iranmeylek
iraq
iratay
ireland
irland
irv
is
isa
isaias
isasa
isasaay
isaw
isbn
ise
iselan
isi
ising
isingan
islam
islamic
islamkiw
island
islands
ismud
iso
israel
isu
it
ita
itakuwan
itali
italian
italy
itamiyan
itaneng
itapiingan
itawan
itawya
itawyaay
itaywanay
itda
itdai
iteban
itebanay
itepal
itepalay
iti
itida
itidaay
itidai
itidasa
itidatida
itila
itimulay
itini
itiniay
itinitu
itiniyay
itisuwan
ititaan
itiya
itiza
itizaay
itni
its
itunduh
iucn
iv
ivoirie
iy
iya
iyadah
iyadahay
iyn
iyu
iyubin
iyubung
iyung
iyute
iyw
iza
izang
izau
izaw
izaway
izawtu
izay
izetbegovic
izikuz
iziw
j
ja
jacinda
jackfruit
jacob
jafar
jair
jamaica
james
jammeh
jane
janez
jans
january
japan
japanese
japonica
japonicum
jasmine
jay
jazz
je
jean
jeff
jerome
jerry
jersey
jesse
jesus
jheronimus
ji
jia
jian
jiang
jianshi
jiao
jigme
jim
jimmy
jin
jinfeng
jing
jiniya
jinshan
jiu
jo
joan
joe
joel
john
johnny
johnson
jon
jonathan
jong
jordan
jorge
jose
joseph
josh
jpg
jr
ju
juan
jugnauth
july
k
ka
kaadada
kaadih
kaadihan
kaahebal
kaahebalan
kaala
kaalaan
kaamisan
kaamisanay
kaan
kaangican
kaasu
kaayawan
kaazih
kaba
kabaad
kabaat
kabalaki
kabalakian
kabalan
kabalelradhane
kabalian
kabaliyusan
kabalucu
kabaluhayan
kabana
kabanaan
kabang
kabangcal
kabatad
kabelecan
kabi
kabid
kabidangan
kabilil
kabing
kabit
kabiyalaw
kabiyalawan
kabore
kabulawan
kabus
kaca
kacaay
kacacayat
kacakat
kacakatan
kacaledes
kacaledesan
kacalilaw
kacaliwayan
kacaw
kacay
kacebalan
kacekukan
kacinlawan
kacudu
kacumelakan
kacumuli
kadabu
kadadawa
kadademecan
kadamat
kadayum
kadebitay
kademan
kademec
kademecan
kadengan
kadideng
kadihian
kadihiyan
kadihiyi
kadihkuwan
kadimel
kadipunan
kaduba
kaduh
kaduka
kaduut
kaduwangay
kaedem
kaedeman
kael
kaen
kafa
kagak
kagame
kahacica
kahaehaeoan
kahamin
kahaminan
kahapinang
kahatini
kahemekan
kahenawlan
kahenulan
kahenulanay
kahetik
kahetikan
kahica
kahicaan
kahida
kahidaan
kahini
kahinian
kahiu
kahiw
kahiza
kahtikan
kahulaman
kai
kaicelang
kaidaw
kaidawan
kaidi
kaidihan
kailabu
kainai
kainaian
kainayian
kaisa
kaitizaan
kaiyan
kaizaw
kaka
kakaan
kakaay
kakabi
kakabian
kakabitan
kakacawan
kakadabuwan
kakadihan
kakaen
kakaenan
kakaenen
kakalamkam
kakalaw
kakalayan
kakalimaan
kakalukan
kakama
kakana
kakanamuhan
kakanan
kakanen
kakapah
kakapahan
kakapahay
kakaph
kakasan
kakaselal
kakasenengan
kakasic
kakatalawan
kakatayzaan
kakatinengan
kakatu
kakatuud
kakatuuday
kakaudipan
kakausan
kakaw
kakawasan
kakawaw
kakawawan
kakawawen
kakawsa
kakawsan
kakawsanay
kakawusan
kakayda
kakaydaan
kakaydihan
kakayzaan
kakedalan
kakelahan
kakelic
kakelidan
kakeliday
kakelul
kakenis
kakenisan
kaketi
kaki
kakibetul
kakicuh
kakicuhan
kakididaan
kakilian
kakiliman
kakilukilul
kakilul
kakilulan
kakinging
kakining
kakitaan
kakitidaan
kakitidaanay
kakitidan
kakitil
kakititaan
kakitizaan
kaku
kakulian
kakulitan
kakuliyan
kakulut
kakunas
kakunasulitan
kakungkuan
kakuniza
kakunizaan
kakunkuan
kakuti
kakutkutan
kakuwanan
kal
kala
kalaacakan
kalaamisan
kalabadesan
kalabangbangan
kalabaw
kalabian
kalabiyan
kalacaledesan
kalacapian
kalacawaan
kaladamsayan
kaladebitay
kaladi
kalaepa
kalah
kalaheci
kalahecian
kalahida
kalahukan
kalaidaw
kalakalakan
kalakuwitan
kalala
kalalacal
kalalacalan
kalalais
kalalaisan
kalalayan
kalalecad
kalalekalan
kalalid
kalalidan
kalalikeluhan
kalalikidan
kalalitemuhan
kalalitin
kalalitinan
kalalitinay
kalaliwasak
kalaliwasakan
kalaliyas
kalalucek
kalaludan
kalaluk
kalalum
kalaluman
kalaluran
kalam
kalamkam
kalamkamay
kalamkamen
kalamkan
kalang
kalankan
kalanutipan
kalapa
kalapangkiwan
kalas
kalasibekan
kalasumasumanahan
kalatan
kalatebanan
kalaten
kalatimulan
kalatubangan
kalaw
kalawkaw
kalawlaw
kalawlawan
kalawlaway
kalawpes
kalawpesan
kalcabayan
kaleca
kalecabay
kalecabayan
kalecad
kalecadan
kalecaday
kalecadlecad
kalecapuan
kalecat
kalecuhan
kalekuan
kalemed
kalemetan
kalepacaw
kalepacawan
kalesakan
kaletepan
kalevuan
kalibuan
kalibutan
kalibuwa
kalifangar
kalihalay
kalihanawan
kalikatan
kalikeluhan
kalikidan
kalikiday
kaliku
kalilid
kalilidan
kalimad
kalimadan
kalimucu
kalimucuan
kalimulak
kalimulakan
kalingatu
kalingatuan
kalingatuwan
kalingesan
kalingku
kalingkuay
kalinku
kalipahak
kalipahakan
kalipunan
kalisiu
kalisiw
kalisiwan
kalisiway
kalitang
kalitemuhan
kaliwan
kaliwasak
kaliwasakan
kaliwhan
kaliwmahan
kaliyawan
kaliyuhan
kaliyuhanay
kalpacaw
kalpacawan
kalu
kaluacawaan
kalucek
kaludi
kaluk
kalukan
kalukawaw
kaluluan
kaluluwan
kalumanay
kalumyitiay
kalunasulitan
kalung
kalungangan
kam
kama
kamacal
kamaenepay
kamakamaan
kamaya
kami
kamihcaan
kamisa
kamisama
kampuyaku
kamu
kamuan
kamuay
kamulaw
kamulmul
kamun
kamusa
kamuwan
kan
kanaayan
kanaha
kanahatu
kanakana
kanakanabu
kanakanavu
kanamuh
kanamuhan
kanan
kananaman
kananelan
kanas
kanasaw
kanata
kanatal
kanatala
kanatalan
kanatalay
kanatl
kanatla
kanca
kanen
kaneng
kang
kangaay
kangaayan
kangadahan
kangalayan
kangangayawan
kangbuli
kangelu
kangeluan
kanihalan
kanpi
kanpuyaku
kansas
kansicu
kantal
kantan
kanus
kaohsiung
kapa
kapah
kapaha
kapahay
kapahayay
kapahen
kapahkapah
kapahtu
kapapina
kapatay
kapatayan
kapawan
kapawanan
kapi
kapulung
kapulunga
kapulungan
kapulunganay
kapulungay
kapulus
kapulusay
kaput
kaputan
kaputun
karamemedesane
karin
karu
kasa
kasaamisan
kasabelih
kasabinacadan
kasabinawlan
kasabuyu
kasacacay
kasademiad
kasadep
kasadit
kasaditan
kasaduma
kasadumaan
kasaetiman
kasahecian
kasahenulan
kasahida
kasahini
kasaicelang
kasaidaw
kasaliyutan
kasalumaluma
kasalungan
kasametek
kasaniyadu
kasaniyazu
kasaselal
kasasengian
kasasibutan
kasasiduma
kasasilacul
kasasiluma
kasasingangan
kasasiniyazu
kasasitungus
kasasizuma
kasasu
kasasuazih
kasasubana
kasasukapah
kasasula
kasasulul
kasasumad
kasasumadan
kasasumamadan
kasatedep
kasatedepan
kasatezep
kasatiman
kasatimulan
kasaupu
kasaupuan
kasaupuay
kasaupuwan
kasausi
kasazuma
kasazumaan
kasazumaay
kasedan
kaselep
kaselepan
kasenengan
kasenu
kasenun
kasenunsa
kasenusa
kasi
kasiacawa
kasibalu
kasibaluan
kasibalucu
kasibanuh
kasibekan
kasica
kasidamekan
kasidikuc
kasienaw
kasienawan
kasiheci
kasihecian
kasikadan
kasikawaw
kasikawawan
kasikaz
kasikazen
kasilacul
kasilaculan
kasiliwan
kasinawan
kasingalih
kasingalihan
kasingangan
kasinganganan
kasini
kasiniyazu
kasitungus
kasiwantan
kasiwawaan
kasiwsiwan
kasu
kasuga
kasulin
kasumad
kasumadan
kasumamada
kasumamadan
kasumamadanay
kasumamaday
kasumaman
kasumanah
kasumanahan
kasumanamanahan
kasuy
kata
katabaki
katabakian
katabakiay
katadadan
katadadanay
katahekal
katahekalan
katahkal
katahkalan
katalakaw
katalakawan
katalakaway
katalalan
katalan
katalanan
katalaw
katalawan
kataluma
katalumaan
katanaya
katanayu
katanektek
kataneng
katang
katangka
katanka
katatelek
katatelekan
katatengilan
katatudung
katatungus
katawaan
katawidan
katayda
kataydaan
katayni
kataynian
katayniyan
katayza
katayzaan
katekes
katelin
katenes
katenesan
katengilan
katepa
katepaan
kathmandu
kati
katimulan
katineng
katinenga
katinengan
katinengay
katinengen
katinengi
katini
katizaan
katu
katukah
katuku
katukuh
katukuhan
katuud
katuuday
katuudkatuud
katuudtu
katuut
kau
kaudad
kaudadan
kaudip
kaudipan
kaus
kauzip
kauzipan
kavalugan
kavulugan
kaw
kawa
kawaan
kawaitay
kawali
kawalian
kawalianay
kawanan
kawas
kawaw
kawawa
kawawan
kawaway
kaway
kawcung
kawil
kawili
kawilian
kawiza
kawkawsan
kawlah
kawna
kawni
kawpil
kay
kaya
kayabes
kayadah
kayadahan
kayadahay
kayakay
kayakayan
kayda
kaydaan
kaydaay
kaydih
kaydihan
kaydung
kayi
kaying
kaykayda
kayku
kaynah
kayni
kaypulel
kaysin
kaysing
kaysiya
kayta
kayu
kazakhstan
kazali
kazizeng
ke
kean
keay
kebalan
keci
kedal
kedese
kee
kei
keith
kek
kela
kelah
kelakela
kelan
kelas
kelekela
keli
kelid
keliden
kelit
keliw
keliway
kelun
kemalan
ken
kenaw
keng
keni
kenikenisan
kenis
kenisan
kenisay
kenny
kent
kente
kentucky
kenuy
kenya
kepayni
kerchak
kesem
kesey
kesiyciya
ket
ketay
ketun
ketunen
kevelan
key
keyzay
kg
khadga
khalifa
khan
khasawneh
khu
ki
kia
kiayawan
kibetul
kibetulay
kida
kidawawa
kidemu
kids
kidu
kievan
kihemid
kiir
kika
kikang
kikapahan
kikay
kikayay
kiku
kikul
kila
kilac
kilacan
kilakilang
kilakilanga
kilakilangan
kilakilangay
kilaluhu
kilan
kilang
kilanga
kilangan
kilangay
kilangkilang
kilangkilangan
kilay
kilaykin
kilayking
kilim
kilimen
kilisetu
kilmi
kilukan
kilul
kilulay
kilulen
kilulu
kim
kiman
kimay
kimkiman
kimli
kimukimulu
kimulmul
kimulmulay
kimulu
kin
kina
kinabakah
kinacacay
kinacacayay
kinakawaw
kinanoka
kinapatay
kinapina
kinapinaan
kinapinaay
kinatulu
kinatusa
kinayiman
kincal
kines
king
kingdalruwane
kingdom
kingkiw
kingli
kings
kini
kining
kiniyan
kinkiwan
kinli
kinmung
kinshasa
kinulane
kinyawpan
kisu
kisut
kita
kitaan
kitabakian
kitaki
kitakiay
kitakid
kitakiday
kitakit
kitakitan
kitakitay
kitasa
kitatu
kitidaan
kitidaanay
kitidan
kitizaan
kiu
kiw
kiwit
kiwkay
kiwkayay
kiwma
kiwmah
kiy
kiya
kiyadahan
kiyadahay
kiyaku
kiyakuan
kiyami
kiyandi
kiykay
kiyu
kiyuay
kiyukiyuan
kiyukiyuwan
kiyuma
kiza
kizemu
kknews
klaus
klesan
km
kngungu
knicks
knotweed
known
ko
kocoum
kokhir
koku
kolado
kong
konrote
korea
korean
kosovo
kou
kouay
kow
kowang
kris
krivokapic
ktukuh
ktv
ku
kua
kuan
kuang
kuangfu
kuay
kuba
kubabalaki
kubalucu
kubili
kubkub
kubu
kubung
kucaay
kucacay
kucapungane
kuciwsinsis
kucu
kuculil
kucung
kucungay
kudemiad
kudih
kudkudan
kudrengere
kuduma
kuhak
kuhan
kuheci
kuheni
kuhenisa
kuhi
kuhini
kuhitay
kuhkuh
kuhkuhay
kuhni
kui
kuizaway
kuk
kuka
kukamu
kukan
kukatuuday
kukawaw
kukay
kuki
kuku
kukuan
kukulit
kukun
kukung
kul
kulaheci
kulang
kulangaw
kulas
kulayu
kuli
kuliay
kulid
kulikulitan
kulit
kulitan
kulitay
kuliwan
kuljaljau
kulu
kulul
kululay
kuluma
kulus
kuma
kumaen
kumahiniay
kumay
kumceday
kumi
kumihcan
kumikuwanay
kumu
kumud
kumuh
kumulis
kumuo
kun
kuna
kunah
kunce
kuncendan
kunfun
kung
kungangan
kungce
kungcin
kunghe
kungku
kungkuan
kungkuay
kungli
kungtun
kunhe
kunhekuo
kuni
kunian
kunida
kunidaay
kunidateng
kunika
kunikahida
kunikan
kunikasa
kunikasi
kunikaudip
kunikauzip
kunipa
kunipi
kunipisanga
kunisulitan
kuniyan
kunizateng
kunku
kunkuan
kunli
kuntaw
kuntun
kunu
kunuheni
kunyadu
kunyun
kuo
kuohua
kuomin
kuowan
kupa
kupkup
kupu
kurgyzstan
kus
kusa
kusaan
kusapi
kusausi
kuse
kuselal
kusi
kusiy
kusuni
kutademaw
kutangah
kutaw
kuti
kutiay
kutji
kutkut
kutkutan
kutuki
kutumuk
kutusi
kutusisa
kuugongelwa
kuw
kuwa
kuwait
kuwaku
kuwalu
kuwan
kuwanan
kuwanay
kuwang
kuwawa
kuwawi
kuwn
kuy
kuya
kuyadahay
kuyda
kuydaan
kuyna
kuyni
kuynian
kuyniyan
kuyu
kuyuheni
kuyumi
kuyza
kwa
kwang
kwo
kwoay
kya
kyahaw
kyai
kyalu
kyam
kyami
kyamihaw
kyo
kyu
kyukay
kyum
kyuni
kyusa
kıbrıs
l
la
laad
laaluwa
laan
laang
lab
labades
labang
labi
labiay
labii
labiiay
labiyi
labu
labuan
labuay
labunu
labunuluma
labuwan
labuway
lacacay
lacalle
lacik
lacu
lacul
laculaculan
laculan
lacus
lacusay
ladaway
laday
ladayan
ladayen
ladem
lae
laecus
laecusay
laed
laet
laetus
laetusay
lah
lahad
lahaday
lahaw
laheci
lahu
lahud
lai
laic
lain
lais
lait
laiw
laiyi
lakalak
lakat
lake
lakedaw
lakers
laklak
lakon
laku
lakulakuan
lakulakuwan
lakuwyt
lala
lalaan
lalaay
lalabaen
lalabinan
lalabu
lalabuay
lalacan
lalaculan
lalad
lalais
lalaisan
lalaliwan
lalami
lalan
lalangaw
lalangawan
lalangawanay
lalangawen
lalangwan
lalapa
lalauya
lalay
lalayan
lalayanay
lalebu
lalecuhan
lalekalan
lalekuan
lalengac
lalengawan
lali
lalicay
lalid
lalidec
lalielan
lalikid
lalilucan
lalima
lalimaay
lalimekan
lalimenah
lalimuwang
lalipayan
lalit
lalitilitin
lalitin
laliu
laliw
laliwan
laliwasak
laliyas
lalubangan
lalud
laludan
laluday
laluk
lalum
laluma
lalumaan
lalumaay
lalusa
lalusidan
lalut
laluudan
lama
lamal
lamalay
lamangan
lamata
lameneng
lami
lamian
lamid
lamit
lamitan
lamu
lan
lanay
lance
lanciw
land
landaw
landaway
lang
langa
langad
langan
langat
langaw
langawan
langaway
langbul
langdaw
langdawan
langdaway
langdawsa
langlangdawan
language
languages
langw
langwan
lanhe
lanhekuo
laniste
lanius
lanka
lanman
lanmun
lanpan
lantana
lanu
lanulanuan
lanyu
lao
laos
lapai
lapu
lapuolai
large
largest
larry
las
last
lasubu
lasubuan
lasubuay
lasubut
lasutan
late
latem
latin
latlat
latvia
laundry
law
lawa
lawad
lawal
lawat
laway
lawilaw
lawlaw
lawlawan
lawlawpes
lawp
lawpes
lawpesen
lawsi
lay
laya
layak
layakay
layapen
layic
layin
laying
laylay
laylayan
laylayay
layung
le
leaf
leaves
lebanon
lebawa
lebawaw
lebung
lecad
lecu
lecuh
lecuhan
lecuhen
ledek
ledekan
ledekay
ledung
lee
lei
lekad
lekakawa
lekakawaw
lekal
lekec
lel
lemed
len
leng
lengac
lengus
leo
leon
leone
lesa
lesing
lesotho
leste
let
letak
letek
leucaena
leucocephala
ley
leyoxen
li
lia
lian
liana
liaw
liay
liberia
libung
libya
lice
licing
licon
lidateng
lidaw
lidunglidungan
lie
liechtenstein
liel
lien
liewan
liey
life
lih
lihalaw
lihalay
lihalaya
lihalayay
lihanaw
lihat
lihum
lihun
lika
likat
like
likec
likecu
likecuay
liked
likelikenan
likeluh
likelunay
liken
likenlikenan
likes
likid
likisi
likisian
likisiay
likit
liklik
likucu
likut
likutay
lilac
lilal
lili
liliden
lilies
lilin
liling
lilis
lilisan
lilisay
lily
lim
lima
limaan
limaay
limad
limaden
limaki
liman
limay
limecedam
limecedan
limi
limucedan
limulak
limulakay
lin
linahem
linbu
line
lineng
ling
linga
lingad
lingatu
linges
lingiha
linpan
linpanti
lionel
lip
lipahak
lipahakay
lipay
lipayan
lipida
lipun
lipunan
lipunay
lisan
lisav
lise
lisepun
lisin
lisinan
list
lists
lit
lita
lite
lithuania
litinan
little
litu
liu
liutehua
liw
liwaliwan
liwan
liwanen
liwasak
liwiy
liwli
liwliw
liwliwan
liwliway
liwliwen
liwmahan
lix
liy
liya
liyad
liyal
liyang
liyas
liyaw
liye
liyen
liyung
liyungay
liyut
lkan
lo
local
loma
london
long
lonsdale
loong
los
lou
louis
louise
lour
love
low
lowan
lripay
ltn
lu
luan
luanda
luay
luba
lubang
lubas
lucek
luci
lucik
lude
luis
luise
lukashenko
lukay
lukedaw
lukis
lukiyaw
lukyaw
lul
lulang
lulu
luma
lumaan
lumaay
lumaluma
lumalumaan
lumelumenian
lumeni
lumenian
lumeniay
luminiay
lumuluma
lumuwataw
lun
lunem
lung
lungs
lungu
luni
luo
luode
luoke
luoma
luomio
lupakatj
lupas
lupay
lupesoliai
lupo
lusa
lusid
lutimay
lutu
lutuk
lutukan
lutukay
lutuklutukan
lutulutukan
lutulutukay
lutungay
luvsannamsrain
luw
luxembourg
luy
luyaluy
luye
lwan
lyaw
lye
lyen
m
ma
maa
maabibi
maacak
maacakay
maadada
maadih
maadihay
maaedap
maahemaw
maala
maalaay
maalatu
maalaw
maales
maanub
maapa
maapaay
maawas
maazih
maazihay
mabaad
mabaat
mabaatay
mababenis
mababiyaw
mabadi
mabaha
mabahal
mabahbah
mabahel
mabahelay
mabakah
mabalad
mabalakas
mabalaki
mabalat
mabalatay
mabali
mabalic
mabalucu
mabalud
mabaluduh
mabana
mabanaw
mabangbang
mabanic
mabanicay
mabasaway
mabatad
mabataday
mabawbaw
mabayu
mabecul
mabelec
mabelecay
mabelihay
mabelin
mabeluh
mabesu
mabesucay
mabi
mabidang
mabilil
mabitelak
mabiyalaw
mabuhang
mabuhat
mabukahay
mabulad
mabulah
mabulaw
mabulaway
mabulilah
mabuliyas
mabusuk
mabusukay
mabutelak
mabuwah
mabuwahay
mabuwak
mabuwakay
maca
macabi
macacabi
macacamul
macacapi
macacebis
macacelcel
macacelcelay
macacidek
macacuis
macacukah
macaculi
macakad
macakat
macakatay
macakay
macalap
macalilaw
macaliw
macaliway
macalud
macamel
macamul
macapi
macapiay
macarthur
macau
macebal
macebalay
macebed
macebeday
macebet
macebis
macedonia
macedonian
maceku
macekuk
macelahay
macelem
macelemay
maci
macimacian
macitun
macu
macucuk
macunus
madadecdec
madademec
madademecay
madagascar
madakep
madakepay
madapanay
madapesud
madateng
madatengay
madawdaw
madayum
madayumay
made
madebay
madebung
madecdecay
madem
mademec
mademecay
madicem
madicemay
madih
madihi
madimel
madimelay
madiput
madiputay
maduba
maduhem
maduhemay
maduhen
maduka
madukaay
mae
maedap
maedem
maedeng
maedes
maedesay
maekek
maelac
maeluc
maemin
maenapay
maenep
maetel
magazine
magnoliophyta
magnoliopsida
magyar
mah
mahaen
mahamadou
mahamaw
mahamin
mahaminay
mahamintu
mahapinang
mahapinangay
mahapingan
mahatatusa
mahaymaw
mahaymaway
mahcaan
mahcacay
maheda
mahedaw
mahedaway
mahedek
mahelek
mahemek
mahemin
mahetek
mahetik
mahetikay
mahezek
mahi
mahica
mahicaay
mahicahica
mahicahicaay
mahicatu
mahicay
mahida
mahidaay
mahidahen
mahidasa
mahidatu
mahinaay
mahinda
mahini
mahinian
mahiniay
mahinisa
mahiniyay
mahiya
mahiza
mahizaay
mahizahiza
mahizasa
mahizatu
mahka
mahmin
mahmintu
mahmuwac
mahtatusa
mahtatusaay
mahtik
mahtusaay
mahula
mahulak
mahuyahuy
mai
maia
maibuk
maibukay
maibul
maibulay
maidih
maikes
maikesay
mainal
maintan
maizang
majia
majoro
maka
makaadih
makaadihay
makaala
makaalatu
makaamis
makaamisay
makaawas
makaazih
makaazihay
makabalunga
makacuwacuwaay
makadateng
makademec
makademecay
makadih
makadungdung
makadungdungay
makaen
makai
makakadum
makakenis
makaketun
makakilim
makakilul
makakitin
makakutay
makala
makalad
makalah
makalala
makalat
makalatay
makalikeluh
makalitemuh
makamelaw
makan
makanay
makapah
makapahay
makasanek
makasasa
makasasaay
makasic
makasicay
makasimsim
makatalay
makataw
makatengil
makatepa
makatimul
makatimulay
makatineng
makatuduh
makatukuh
makaway
makay
makayda
makaydaay
makayi
makayni
makayniay
makayniyay
makayza
makayzaay
makazateng
makazayazaya
makazih
make
makedal
makedalay
makelah
makelal
makelap
makelec
makepay
makesem
maketun
makimulmul
makimulmulay
makotaay
maku
makuay
makudus
makudusay
makulahay
makulebut
makumud
makutaay
makutkut
makuwan
mal
mala
malaacawa
malaacawaay
malaalaw
malabades
malabadesay
malabali
malabas
malabelaw
malabi
malabut
malacabay
malacabayay
malacacay
malacacayay
malacad
malacawa
malacing
malaciwciw
malacung
maladay
malagiki
malahad
malahat
malahatay
malahci
malaheci
malaheciay
malahitay
malahitayay
malahuk
malahulay
malakakitaan
malakal
malakalak
malakanatal
malakapah
malakapahay
malakui
malakuit
malakuli
malakuud
malakuwid
malakuwit
malalaba
malalabalaba
malalacal
malalacay
malalais
malalamel
malalamlam
malalaw
malalebu
malalemed
malalemeday
malalid
malaliday
malalikeluh
malalikid
malalikit
malalit
malalitemuh
malalitin
malalitinay
malaliting
malaliw
malaliwaliwah
malaliwasak
malaliya
malaliyas
malaliyun
malaluk
malalukay
malalum
malalumay
malalutin
malamel
malamelay
malan
malanam
malanu
malapabuy
malapulungan
malasacabayay
malasakakaay
malasakubaday
malasapaiyu
malasatalakaway
malasawad
malasayaway
malasepat
malatabakiay
malatademaw
malatapang
malataw
malatay
malatu
malatulu
malatuna
malatusa
malau
malaw
malawa
malawacu
malawi
malawilaw
malawit
malawlaay
malawlaw
malawpes
malawpesay
malay
malaysia
malaysiya
malbawa
malbiyaw
malbud
malcabay
malcabayay
malcad
malcaday
malcadcad
malcapu
maldives
maleacawa
maleacawaay
malebat
malebawa
malebawaay
malebawaw
malebekay
malebtu
malebu
malebud
malebut
malebutay
maleca
malecabay
malecad
malecaday
malecalecad
malecat
malecay
malekaka
malekakaay
malekep
maleku
malemed
malemeday
malengatay
malepacaw
malepi
malepun
malesusu
mali
malian
malibung
malibut
malielegaoi
malikaku
malikat
malikatay
malikeluh
malikid
malikit
malikuda
malilid
malilinay
malilit
malimad
malimaday
malimat
malimatay
malimula
malimulak
malineng
malinga
malingad
malingaday
malingatu
malingatuay
malinges
malingtu
malipahak
malitemuh
malitemuhay
malitin
maliwaliwah
maliwan
maliwang
maliwasak
maliwliw
maliya
maliyas
maliyuh
maliyuhay
maliyut
malkakaay
malkaputay
malpacaw
malpacaway
malpadang
malta
maltiik
malu
maluay
maluayaw
malubic
malubicay
malubu
malubuay
malucek
malucekay
maluk
malukakanan
malukay
malulangat
malulud
malumaluy
malumanay
malungayangay
malupisak
malusulit
maluyaluy
maluyuh
maluyuhay
malyasia
mam
mama
mamaala
mamadan
mamalawpes
mamalian
mamelawan
mamelmel
mamenu
mamenuay
mami
mamiading
mamidang
mamidayli
mamiedap
mamiedapay
mamikeliday
mamikelitay
mamikingkiway
mamikuwan
mamikuwanay
mamilmil
mamim
mamin
maminay
mamingayaw
maminnay
mamintu
mamipadang
mamisimaw
mamisiwbayay
mamitukuday
mammalia
mamucuy
mamucuya
mamuemu
mamukeliday
mamulmul
mamulmulay
mamuni
man
mana
manah
manahung
manamec
manamecay
manamu
manamuh
manamuhay
manana
mananam
mananamay
mananel
manay
manayat
manengil
mang
manga
mangaay
mangaayay
mangacun
mangadis
mangadu
mangaduay
mangaduway
mangalay
mangaleb
mangalep
mangan
mangangayaw
mangasiw
mangay
mangayaw
mangduay
mangeli
mangelu
mangga
manggaay
manglay
manila
maninel
maniyul
manma
mantaay
manuel
manunengay
many
maolin
mapa
mapaadih
mapaales
mapaaw
mapabali
mapabaliw
mapabaluhay
mapabeli
mapacakay
mapacekil
mapacici
mapacilal
mapacilalay
mapacilu
mapacuk
mapadaki
mapadang
mapaedil
mapahezek
mapakutay
mapalalid
mapalalit
mapalatit
mapalaw
mapalaway
mapalekal
mapalid
mapangangan
mapanganganay
mapanukas
mapapaliw
mapasilac
mapasumad
mapatay
mapataya
mapatayay
mapatideng
mapatizeng
mapatudu
mapauzip
mapawacay
mapawan
mapawpaw
mapazeng
mapeci
mapela
mapelad
mapelpel
mapelu
mapenec
mapikihay
mapili
mapilpil
mapipiay
mapiyas
mapudac
mapulang
mapulin
mapulu
mapulul
mapululay
mapulun
mapulung
mapulungay
mapulungnay
maputun
mapuut
mapuwah
marape
mararo
marc
marcelo
march
marcus
margrethe
marie
marin
marino
mario
mark
martin
maryland
masa
masaadidi
masaadidiay
masaadidingay
masaadipingay
masaapilisay
masaatiladay
masabaluhay
masabaluhayay
masabana
masabelengay
masabucuyay
masabuyu
masabuyuay
masacabayay
masacacay
masacacayay
masacilisay
masadak
masadep
masadicem
masadicemay
masadicenmay
masadid
masadit
masaditay
masaduma
masadumaay
masaenal
masaenalay
masaheci
masaheciay
masahelungay
masahicaay
masahungtiay
masakakuay
masakamu
masakanatal
masakapah
masakapahay
masakaput
masakaputay
masakayakay
masakiketay
masakimay
masakimulmul
masakimulu
masakimuluay
masakinmay
masakunida
masalamitay
masalaway
masalebungay
masaliyutay
masamaliay
masamata
masametek
masamucuy
masamulmul
masamulmulay
masanek
masanga
masangaay
masaniyadu
masanu
masapucu
masapulungay
masasa
masasakamu
masasalama
masasengi
masasengiay
masasetset
masasiduma
masasidumaay
masasiket
masasizuma
masasizumaay
masasu
masasuada
masasuadih
masasuala
masasuayaw
masasuazih
masasubelih
masasukamu
masasukapah
masasukaynah
masasukazih
masasula
masasulit
masasulul
masasumidang
masasumidangay
masasunamuh
masasungaay
masasungayaw
masasuwal
masatademaw
masatademaway
masatalakaway
masatanayaay
masatanayu
masatangah
masatangahay
masatedep
masatekeday
masatezep
masati
masatukusay
masatulu
masatuluay
masatusaay
masaupu
masaupuay
masaupuway
masausi
masausiay
masawacu
masawantan
masay
masazuma
masazumaay
mase
masebek
maselen
maselep
masemel
masemetay
masenat
maseneng
masengetay
masetul
masibek
masikad
masikasik
masikeda
masikul
masilac
masilsil
masilud
masilut
masimaw
masimaway
masinang
masinanut
masinawal
masinga
masisi
masitudung
masitungus
mass
massachusetts
masubeliday
masukut
masulit
masulitay
masulul
masumad
masumaday
masumat
masungaay
masuni
masupeday
masupet
masuwab
mat
mata
mataan
mataay
matabal
matabalay
matabesiw
matabu
matabuay
matahpu
matalaw
matalaway
matalul
matalulay
matan
mataneng
matang
matapal
matastas
matatawa
matatelek
matatengil
matatiik
matatudung
matatudungay
matatules
matatungduh
matatungduhay
matatungus
matatungusay
matawa
matawid
matekes
matekesay
matena
matenes
matenesay
matenesmatenes
matengil
matepa
material
matesekay
mati
matima
matin
matinen
matineneg
matineng
matinengay
matinengtu
matiti
matiya
matiyung
matt
matu
matucek
matuduh
matuduhay
matulin
matuling
matumes
matumesay
matungusay
mau
maudad
maudaday
maudip
maudipay
maui
mauli
mauning
mauningay
maupu
mauri
maurice
mauritania
mauritius
mauritus
mausaw
mautang
mauzip
mauzipay
mavericks
maw
mawada
mawawada
mawli
mawluy
may
maya
mayardit
mayasvi
mayaw
maycaliway
maycelun
maycuduh
maycumud
mayda
maydi
maydih
maydihay
mayhuman
mayke
maylabu
maylabuay
maylabuway
maylay
maylayap
maylayay
maylunguc
maynah
maypulu
maysakamu
maysausi
maysuayaw
maysumad
mayza
mazakep
mazateng
mazatengay
mazeket
mazih
mazu
mazuhemay
me
medical
medicine
mediterranean
meduk
mei
meiguo
melaw
melitmelit
mem
member
men
menah
menay
meng
menmen
meta
metalaw
metapay
mexico
mey
mi
mia
miaamay
miabibi
miacak
miacingay
miadih
miadihay
miading
miadingay
miadup
miadupay
miala
mialaay
mialatu
mialaw
mialaway
miales
mialesay
mian
miaoli
miasik
miasip
miasipay
miatang
miaw
miawas
miawaw
miawda
miawli
miawza
miay
miazih
miazihay
miba
mibabelih
mibaca
mibadisusu
mibahbah
mibahel
mibakah
mibalakas
mibalakasay
mibalat
mibalatay
mibalic
mibanaw
mibangbang
mibasaw
mibatad
mibaung
mibelaw
mibelih
mibelihay
mibelin
mibenis
mibesul
mibetik
mibetikay
mibihekac
mibuhat
mibulesak
mibulibul
mibulibulay
mibuting
mibutingay
mibuwah
micabi
micakat
micakay
micakayay
micalap
micaliw
micaliway
micaliwayay
micapi
micapiay
micapitu
micapiya
micapiyay
micebis
micebisay
micekaw
micekiw
micekiway
micekul
micelem
micepcep
michael
michea
michel
michigan
micidakay
micidek
micidekay
micikcik
micili
micitekay
microchiroptera
micronesia
micu
micuay
micucu
micucuay
micucuk
micuda
micudad
micudadan
micudaday
micuduh
micukaymas
micukelay
miculcul
miculil
miculimek
miculu
miculuay
micumu
micumud
micumuday
micumut
micumutay
micunus
micunutay
micuzuh
micuzuhay
mida
midademec
midakep
midama
midang
midangan
midangay
midanguy
midapu
midateng
midayhiw
midayliay
midebun
midebung
midebungay
midemec
midepit
mididaw
midiku
midimut
midiput
midiputay
miduduc
miduducay
midungdung
midungus
miecaw
miedap
miedapay
mienip
migani
migankiway
migiki
migikiway
migingkiw
migingkiway
miguel
mihacaan
mihaka
mihalhal
mihalhalay
mihang
mihanhan
mihantay
mihantaya
mihantayay
mihapu
mihaymaw
mihca
mihcaan
mihcaanay
mihcan
miheca
mihecaan
mihecahecaan
mihecan
mihepec
mihibang
mihica
mihicahica
mihida
mihinang
mihmihcaan
mihmihcan
mihulak
mihulakay
miida
miidang
miidangay
miigiay
miikec
miilisin
miinuli
mika
mikabitay
mikacaw
mikacaway
mikadabu
mikalang
mikalat
mikalatay
mikalic
mikapah
mikapet
mikaput
mikawaw
mikawaway
mikayakay
mikaygi
mikaykung
mikaylangcilu
mike
mikelap
mikelec
mikelid
mikelida
mikeliday
mikelih
mikelit
mikelitay
mikelul
mikemkem
miketun
mikhail
miki
mikiayaw
mikikaka
mikikapah
mikikun
mikikung
mikikungay
mikilac
mikilam
mikilangay
mikilihida
mikilim
mikilimay
mikilin
mikiling
mikilu
mikilul
mikilulay
mikinaul
mikinaulay
mikingkiw
mikingkiway
mikingsa
mikining
mikinkiw
mikinkiway
mikinsa
mikisa
mikisasa
mikitinay
mikiwakiw
mikiyadah
mikiyaku
mikoku
mikuanay
mikucungay
mikukay
mikuli
mikuliay
mikulid
mikuliniw
mikulit
mikulitan
mikulitay
mikutay
mikutayay
mikutkut
mikuwan
mikuwanan
mikuwanay
mila
milabin
milabu
milacul
miladay
miladlad
milaedis
milais
milakalak
milakalakay
milakec
milakui
milakuit
milakuitay
milakuud
milakuuyd
milakuwit
milalaba
milalad
milaladay
milalebu
milaliday
milalitin
milaliw
milaliway
milami
milan
milangec
milasul
milatlat
milatuh
milaup
milawa
milawlaw
milawpes
milayap
milecad
milecaday
milepacaw
miletek
milhida
mili
miliclic
miliclicay
milihida
milihidaay
milihiza
milihizaay
milikeluh
mililid
mililiday
mililis
mililisay
mililit
mililitay
mililuc
milimad
milimek
milimekay
milingatu
milisapen
milisimet
milisimetay
milisin
militangah
militemuh
militin
militing
miliwan
miliwku
miliwkuay
miliwliw
miliyas
miliyasay
miliyaw
miliyun
miliyung
millet
million
milos
milpacaw
milu
milubang
milunguc
milusimet
milwaukee
mim
mimali
mimaliay
mimelaw
mimelaway
mimosa
min
minalu
minaluan
minanam
minanamay
minanum
minatu
mincu
minengneng
ming
mingaay
mingaduy
mingayaw
mingayaway
minister
minkiw
minkoku
minpaw
minsiong
minukay
mipacici
mipacuk
mipaculi
mipadaesu
mipadan
mipadang
mipadangay
mipahabay
mipaiyu
mipalaw
mipalaway
mipalita
mipaluma
mipana
mipangangan
mipasubana
mipatadas
mipatay
mipataya
mipatayay
mipatizeng
mipaypayay
mipazen
mipazeng
mipeci
mipela
mipelu
mipenec
mipes
mipili
mipudac
mipuhpuh
mipulu
mipulung
mipupu
mipuput
mipuputay
miputun
mirziyoyev
mis
misa
misaahebal
misaayaw
misabalucu
misabaluhay
misabana
misabilil
misaculiculil
misadabek
misadakadakay
misadawmi
misademiaday
misadibu
misadimel
misadipit
misaelaw
misagiki
misagikiay
misaheci
misahemay
misahicahica
misaicelang
misaigiay
misakabi
misakakawaw
misakakawaway
misakakaway
misakaku
misakakuay
misakaliyuh
misakamu
misakamuay
misakapah
misakapahay
misakaput
misakaputay
misakawaw
misakawaway
misaketun
misakinih
misakunga
misalama
misalamaay
misalami
misalihalay
misalisin
misalisinay
misaliyut
misaluimeng
misalukiyaw
misalukiyaway
misaluma
misalunguc
misamamaw
misamawmaw
misametek
misamsam
misanai
misanek
misang
misanga
misangaan
misangaay
misangan
misangasip
misangatu
misangay
misanu
misapatas
misapinang
misapud
misasa
misaselic
misasengi
misasengiay
misasetulay
misasing
misasingay
misatabaki
misatadasay
misatalay
misatapang
misateked
misatekeday
misateket
misaudad
misaulic
misaungay
misaupah
misaupu
misausi
misawacu
misawacuay
misawanengay
misawantan
misayadah
misaydan
misaydang
misayuancumincuay
misebeng
misebengay
miseking
miselep
miselip
misengel
misengi
misengiay
misetset
mishustin
misi
misikul
misilsil
misilud
misimaw
misimaway
misimsim
misinanud
misinanut
misinga
misingkiw
misingkiway
misinkiw
misinsi
misiteked
misitekeday
misiwbay
misiwbaya
misiwbayay
misiwkay
mistesekay
misu
misuayaw
misuayaway
misudikud
misulac
misuli
misulid
misulimet
misulit
misulita
misulitan
misulitay
misulul
misulup
misulut
misumad
misumat
misungaay
misuninipay
misuped
misupeday
misupet
mita
mitabaku
mitabu
mitadas
mitadem
mitaduay
mitahaw
mitahaway
mitakus
mitaliyuk
mitanam
mitaneng
mitanengay
mitapal
mitapalay
mitatengil
mitaung
mitebing
miteka
mitekel
mitelacay
mitelungay
mitena
mitengil
mitengilay
mitenun
mitenunay
mitepal
mitepalay
mitesakay
mitesek
mitesekay
mitima
mitiyung
mitizibangay
mitudawa
mitudu
mituduh
mitudung
mitudungay
mituk
mituktuk
mituktukay
mitukuday
mitules
mitulin
mitulun
mitupin
miubi
miubiay
miucul
miulicay
miundu
miunduay
miuyamali
miuyuy
miwada
miwananay
miwatawat
miwawies
miy
miyadih
miyala
miyazih
miyukiw
miyung
mizakep
mizateng
mizatengay
mizawis
mizizaw
mizuhu
mm
mnangagwa
mo
moana
moby
model
moeketsi
moh
mohamed
mohammed
mola
moldova
mon
monaco
mong
mongolia
montenegro
moon
morales
more
mornos
morocco
morus
moscow
moshoeshoe
most
mountain
movement
mozambique
mpu
mswati
mu
muala
muan
muangic
muasip
muawaw
mubahel
mubahelay
mubelih
mubelihay
mubelin
mucebal
mucebalay
mucebang
mucelak
mucelakay
mucelem
much
mucuduh
muculal
muculalay
muculi
muculil
muculilay
muculu
mucuy
mudadiw
mudadiway
mudakep
mudan
mudateng
mudebu
mudebung
mudeku
mudikec
mudiput
mududuc
muenen
muenenay
mueneng
muenenga
muenengan
muenengay
muenengtu
muengen
muengeneng
mugabe
mugi
muhalhal
muhalhalay
muhammad
muhan
muhanhan
muhanmude
muhmuh
muhyiddin
muka
mukacaw
mukaen
mukan
mukanay
mukasi
mukasiay
mukawaw
mukayakay
mukelid
mukeliday
mukelit
mukilim
mukilul
mukin
mukinay
muking
mukingay
mukingnay
mukumaw
mukunuy
mul
mula
mulaay
muladay
mulakalakay
mulakuwit
mulalaba
mulalad
mulaladay
mulalaw
mulaliu
mulaliw
mulaliway
mulangaw
mulangaway
mulatlat
mulebutay
mulecu
mulecuh
mulecuhay
mulekal
mulenu
muli
mulikat
mulimuut
muliwliw
muliya
muliyas
muliyaw
muliyut
mulmul
mulmulan
mulu
mulutuc
mulutucay
mum
mumtefaeteluo
mumul
mumunt
mun
munabaw
munabaway
munday
muneng
munengay
mung
mungangaw
mungangaway
muni
munten
muo
mupalaw
mupatay
mupupu
murraya
musa
musabili
musabiliay
musahemay
musakakawaw
musakakawaway
musakamu
musakamuay
musakamuway
musakawaw
musakawaway
musalami
musaliyut
musaluimeng
musalukiyaw
musalukyaw
musapayu
musasakamuan
musaungay
musaungayay
musausi
muscat
muse
muselin
musepi
museveni
music
musikul
musikulay
musilac
musilsil
musiluyay
musinga
musiwsiw
muslim
musuayaw
musumad
muta
mutahkal
mutakus
mutan
mutengteng
mutesek
mutesekay
mutharika
mutideng
mutiku
mutizeng
mutudu
mutung
muungal
muwala
muwangic
muwangicay
muwawa
my
myanmar
mye
n
na
naadidi
naamahiza
naan
naay
naayaw
naayawan
naayaway
naba
nababalaki
nababalakian
nabakuan
nabakuwan
nabalucu
nabalucuan
nabelihan
nabi
naca
nacaay
nacacay
nacila
nacilaay
nacudadan
naculilan
nacun
nadatengan
nadatungan
nademiadan
nadikudan
nadim
nadipa
nadipaan
naenengan
naftali
nahyan
nai
naiay
naidaw
naiku
naiti
naitini
naitu
naizaw
naka
nakaay
nakamu
nakamuan
nakamuwan
nakawawan
naku
nakulitan
nakungkuan
nalaculan
nalalacan
nalalacanan
nalecuh
nalecuhan
nalemangaw
nalimaan
nalimaanay
naliman
nalinabuan
nalinabuwan
naliwanan
nalu
nalumaan
nalunasulitan
naluto
naluwan
nam
nama
namaala
namabulaw
namadademec
namahica
namahicaay
namahida
namahini
namahiza
namaka
namakabayu
namakadih
namakai
namakay
namakayda
namakaydaay
namakayni
namakayniay
namakayniyay
namakayza
namakayzaay
namala
namalahuk
namalalais
namamin
namangangayaw
namapatay
namapili
namasia
namauzip
namay
name
named
namekan
names
nami
namiacawa
namibia
namibutingay
namicuda
namicudad
namidebung
namihcaan
namikelih
namilawat
namim
namimali
namin
naming
namisanga
namisulit
namu
namudadiw
namueneng
namuh
namuhan
namukan
namulecuh
namusakamu
nan
nana
nanam
nanaman
nananaman
nananuman
nananumen
nanaum
nanay
nang
nangan
nangiha
nangipenan
nangla
nani
nanmei
nanse
nanto
nantou
nanu
nanuadidi
nanuayaw
nanum
nanuman
nanumay
nanumen
nanutawya
nanya
nanzhuang
napahezek
napaluma
napangangan
napatideng
napatizeng
napialai
napuli
napulun
nasa
nasakamuan
nasanga
nasasingan
nasawni
nasi
nasipakay
nasulitan
natahkal
natalzan
natangahan
natawlan
natayda
natayni
natayza
nate
natimulan
natinengan
national
nationals
native
natu
natural
naturalized
nau
naudipan
naumahan
nauru
nauyaan
nauyzaan
nauyzaanay
naw
nawan
nawnu
nay
nayaan
nayay
naybalucu
nayi
nayiay
nayinayi
naynayi
naytida
nazatengan
nazikuzan
nazipa
nazipaan
nba
nchez
ndez
ne
nebneban
nederland
neiya
nemnem
nen
neng
nengil
nengneng
nepal
net
netherlands
new
news
ney
ng
nga
ngaay
ngabul
ngaduy
ngala
ngalay
ngaleb
ngalngal
ngalngalan
ngaluh
ngan
nganga
ngangaan
ngangan
nganganan
nganganay
ngangasawan
ngangaw
ngangay
ngangayaw
ngangayawan
ngangihaw
ngani
ngasaw
ngatu
ngaw
ngawa
ngawaan
ngay
ngayangay
ngayaw
ngayawan
ngayngay
ngazuy
ngel
ngelu
ngiha
ngipen
ngipenan
ngirente
ngisngis
ngngan
ngo
nguema
ni
niacakan
niadupan
nialaan
niamey
nian
niao
niay
nibahelan
nibakahan
nibaki
nibutingan
nibutung
nicaliwayan
nicaragua
nicelak
nicence
nicudadan
niculilan
nicunusan
nida
nidaan
nidang
nidasa
nidateng
nidatengan
nidebungan
nidikec
nidimutan
nieneng
niger
nigeria
night
niheni
nika
nikaadih
nikaadihan
nikaahebal
nikaahebalan
nikaala
nikaalaan
nikabalaki
nikabi
nikacaay
nikacakat
nikacakatan
nikacaledes
nikacamulan
nikacelakan
nikacunus
nikadademec
nikademec
nikademecan
nikadihan
nikadukaan
nikaenan
nikahetik
nikahetikan
nikahida
nikahidaan
nikahini
nikahinian
nikaidaw
nikaidawan
nikakapah
nikakitidaan
nikakutay
nikakutaykutay
nikala
nikalaan
nikalabi
nikalaheci
nikalahecian
nikalakalak
nikalalacal
nikalalacalan
nikalalais
nikalalaisan
nikalalekal
nikalalekalan
nikalalikeluhan
nikalalitinan
nikalaliwasak
nikalalubangan
nikalatan
nikalawilawan
nikalawpes
nikalawpesan
nikalcabay
nikalcabayan
nikalecadan
nikalekalan
nikalekuan
nikalepacawan
nikalilid
nikalingat
nikalingatu
nikalingatuan
nikaliwmahan
nikalpacaw
nikalpacawan
nikaluk
nikalukan
nikan
nikanan
nikangangayaw
nikangayawan
nikangelu
nikaniyul
nikapacaw
nikapatay
nikapatayan
nikapatelac
nikapulung
nikapulungan
nikasa
nikasaan
nikasadit
nikasaditan
nikasasiduma
nikasasulitan
nikasasumad
nikasaupu
nikasaupuan
nikaseneng
nikasi
nikasibalu
nikasidikuc
nikasiheci
nikasilac
nikasilacul
nikasilaculan
nikasilsilan
nikasingangan
nikasumad
nikasumadan
nikatabaki
nikatabakian
nikatahkal
nikatahkalan
nikatalakaw
nikatalakawan
nikataluma
nikatanaya
nikatanayu
nikatatungduhay
nikataydaan
nikatayni
nikatenesan
nikatineng
nikatinengan
nikatuudan
nikaudad
nikaudadan
nikaudip
nikaudipan
nikauzip
nikauzipan
nikauzup
nikawawan
nikayadah
nikayadahan
nikaydaan
nikaydih
nikaydihan
nikaykian
nikaymaw
nikayzuan
niki
nikilukan
nikingkiwan
nikinkiwan
nikitidaan
nikol
niku
nikuda
nikudan
nikudanay
nikulitan
nikulitanay
nikulitay
nikuwan
nikuwanan
nilacul
nilaculan
niladayan
nilalamelan
nilangaw
nilangawan
nilangecan
nile
nilecu
nilecuh
nilecuhan
nima
nimuyaw
nin
nina
ninanaman
ninaniyadu
ninel
ning
ninja
ninticu
nio
nipa
nipaadih
nipaayaw
nipabalucu
nipabalucuan
nipabaluhay
nipabeli
nipabelian
nipabinawlan
nipacakay
nipacakayan
nipacikahan
nipacudad
nipaculi
nipacumud
nipadadan
nipadeng
nipahabay
nipahabayan
nipahulic
nipaini
nipakalisiw
nipakalisiwan
nipalahadan
nipalamal
nipalekal
nipalekalan
nipaluma
nipalumaan
nipaluman
nipanganga
nipangangan
nipanganganan
nipangiha
nipanutekan
nipasepi
nipasilac
nipasilsil
nipasilsilan
nipasubana
nipasulit
nipatadas
nipatahekal
nipatahekalan
nipatahka
nipatahkaan
nipatahkal
nipatahkalan
nipatata
nipatayan
nipatayni
nipatideng
nipatidengan
nipatiyam
nipatizeng
nipatizengan
nipatudu
nipatuduan
nipawacayan
nipawali
nipi
nipiadih
nipiadup
nipiazih
nipibetik
nipicakay
nipicebis
nipicudad
nipicumud
nipicunus
nipidademec
nipidateng
nipidatengan
nipidebung
nipidiput
nipiedap
nipikingkiwan
nipikuwan
nipikuwanan
nipiladlad
nipilatlat
nipili
nipilian
nipiliwan
nipilunguc
nipimali
nipinanam
nipinanum
nipingayaw
nipingayawan
nipipadang
nipisanga
nipisangaan
nipisausi
nipisingkiwan
nipisiwbay
nipisiwbayan
nipisulit
nipisulitan
nipitaneng
nipitapal
nipite
nipitima
nipizateng
nippon
nipun
nis
nisa
nisabalucu
nisabaluhay
nisaicelangan
nisakaku
nisakapahan
nisakapu
nisakaput
nisakaputan
nisaketunan
nisalami
nisang
nisanga
nisangaan
nisangan
nisapalan
nisaungay
nisaungayan
nisausi
nisausian
nisepi
nisepian
nishani
nisimsim
nisingkiwan
nisu
nisubelidan
nisubelitan
nisulit
nisulitan
nisululan
nisumadan
nisupedan
nita
nitabuan
nitadasan
nitenunan
nitu
nituktukan
nitulakan
niu
niw
niwlang
niwsilan
niy
niya
niyacu
niyadu
niyaduan
niyaduay
niyam
niyan
niyaniyadu
niyaw
niyazu
niyazuay
niyzau
niza
nizaan
nizakepan
nizateng
nizatengan
nizaw
no
nobita
nocturnality
node
north
northern
norway
not
nova
november
now
ns
ntsay
nu
nuamisan
nuayaw
nuayawan
nuayaway
nuayzaay
nubabalaki
nubayu
nubinawlan
nubu
nuda
nudikuda
nudikudan
nudipun
nuduma
nudumaan
nudumaay
nueneng
nuenengay
nuetipan
nuhekal
nuhekalan
nuhen
nuheni
nuhenian
nuhini
nuhitay
nuhni
nuhulam
nui
nuitidaay
nuka
nukanatal
nukay
nulabi
nulangaw
null
nulpin
nuluma
numa
numaka
numaku
numanti
number
numi
numisu
numita
nun
nuna
nunanum
nung
nuni
nunika
nunipi
nuniyam
nuniyazu
nunuheni
nunum
nunyadu
nuo
nusakidaya
nusi
nutademaw
nutaw
nutawan
nutaway
nuteban
nutenes
nutimulan
nutineng
nutinengay
nutipan
nutipanay
nutumulan
nuudip
nuwa
nuwalian
nuwalianay
nuwaliay
nuwaliyan
nuwama
nuwamisan
nuwamisanay
nuwatan
nuwawa
nuwina
nuya
nuyaan
nuyaanay
nuyazu
nuyda
nuydaan
nuyni
nuza
nuzikuzan
nuzuma
nuzumaan
nuzumaay
nya
nyadu
nyanyadu
nyusi
o
obama
object
ocean
oceania
oco
ocoay
ocuo
of
office
officinale
often
ogu
ohio
ok
okinawa
oklahoma
old
oli
oman
omar
omicron
on
ondimba
one
ong
only
oponoho
or
order
org
oriental
orlando
orleans
os
other
othmani
ottoman
ou
ouattara
oubangui
ouhoumoudou
ould
oumeng
out
ouzhou
over
ow
own
oxford
oyun
p
pa
paaca
paacawa
paadih
paading
paakuti
paalesen
paanin
paaninen
paanip
paayaw
paayaway
paazih
paazihay
pabalic
pabaliu
pabaliw
pabaliway
pabalucu
pabaluhay
pabalunga
pabalungaay
pabaw
pabawan
pabaway
pabawhan
pabeli
pabelian
pabeliay
pabelien
pabelin
pabesuc
pabesut
pabi
pabinawlan
pabulingan
pabuy
pabuyan
paca
pacabay
pacabayay
pacait
pacaiten
pacakat
pacakay
pacakaya
pacakayan
pacakayay
pacakayen
pacalaan
pacaliw
pacamul
paceba
pacebaan
pacebaay
pacebasa
pacebu
pacekcek
pacekil
pacena
paci
pacici
pacicien
pacicisa
paciciyan
pacidal
pacific
pacikahen
pacilal
pacilu
pacisetan
pacuay
pacubelis
pacucu
pacudacudadan
pacudad
pacudadan
pacuked
paculcul
paculi
paculian
paculiay
paculil
paculilay
pacumud
pacumuden
pacumut
pacuna
pacunaay
pacunus
pacupiyaway
pacuyaku
pada
padadan
padadanay
padadiw
padaduki
padaesu
padahaw
padaicaw
padakaw
padamek
padang
padangen
padansu
padek
padekuan
padekuay
padekuwan
pademiad
padeng
padengen
padihing
padik
paduh
padungus
padutus
paeneng
paengaw
paenu
page
pages
pah
pahabay
pahabaya
pahabayan
pahabayay
pahahan
pahalhal
pahanhan
pahanhanan
pahay
pahcekan
pahceken
pahecek
pahecekan
paheci
pahedek
pahelak
pahetikan
pahezek
pahezekan
pahezekay
pahikukian
pahpah
pahudingay
pahulic
pahulican
pahulicay
pahusu
pahutin
pahutinan
pahutingan
pahutingay
pai
paicelang
paiga
paina
paini
painiay
paio
paisingan
paiwan
paiyu
pak
paka
pakaadih
pakaala
pakaales
pakaawas
pakaazih
pakabalunga
pakabana
pakacacay
pakacaw
pakacuduay
pakadateng
pakademec
pakadih
pakaduba
pakadungdung
pakaen
pakahalhal
pakahemhem
pakaicelang
pakakapah
pakakilul
pakal
pakala
pakalaheci
pakalal
pakalaliw
pakalatu
pakalihalay
pakalisiw
pakalisiway
pakaluwluway
pakan
pakanan
pakanay
pakapulu
pakara
pakasakamu
pakaseneng
pakasiwawa
pakatawa
pakatena
pakatengil
pakatepa
pakatineng
pakatinengay
pakatukuh
pakatulu
pakatusa
pakay
pakayadah
pakayda
pakayni
pakayniay
pakaynien
pakaynin
pakayza
pakayzaan
pakayzaen
pakazih
pakelakela
pakelang
pakelid
paketun
pakilangan
pakilul
pakincalan
pakistan
pakuhica
pakulitan
pakumud
pakungku
pakunida
pakuniza
pakutay
pakuyuc
pakuyucay
pala
palaacawa
palabang
palabangay
palacacay
palacacayen
palada
palahad
palaheci
palalecad
palalid
palalitin
palaliw
palaludan
palamal
palamalan
palamel
palamelen
palamitan
palamlam
palang
palangan
palangaw
palasawad
palasicen
palasit
palasubu
palasul
palatateng
palatatenga
palatubangen
palatuh
palatuluen
palatusa
palatusaen
palau
palaw
palawacu
palaway
palawpes
palaylay
palcabayay
palecad
palecaden
palekal
palekalan
palekalay
paleman
palemang
pali
palida
palidaw
palikat
palikeluh
palikutay
palilid
palima
palimad
palimulak
palisin
palita
palitaan
palitemuh
paliw
paliwalay
paliwan
paliwanan
paliyun
paliyung
palm
palongacay
palu
palucek
palud
palula
paluma
palumaan
palumaay
palumaen
palumata
palutatenga
palutatengaan
palutatengan
pamacoy
pan
pana
panama
panan
pananukas
pananum
panay
pancah
pancahay
pang
panga
panganga
pangangaan
pangangaen
pangangan
panganganan
panganganay
panganganen
pangca
pangcah
pangcahay
pangcha
pangciw
pangiha
pangihaan
pangihaay
pangingih
pangkiw
pangkiwan
pangkiway
pangpangcahan
paniculata
paniyul
panke
pankiw
panpancahan
pantaw
pantu
panu
panukas
panukasen
panutek
panutekan
panutekay
papa
papacakayan
papadengan
papah
papahabayan
papahan
papahanhanan
papahutinan
papaluma
papalumaan
papangaan
papasubanaan
papaw
papayzaan
papazaan
papazengan
papelu
papeluay
papi
papiadih
papidang
papiedap
papiidangay
papikan
papikuwan
papilian
papiliyas
papina
papinaay
papinanam
papipadang
papituay
papua
papulu
papululan
papulung
papuya
paraguay
paran
parayapay
paridrayan
paris
park
part
parts
pas
pasa
pasaamis
pasabaan
pasaduma
pasaheci
pasaicelang
pasaida
pasakamu
pasakamuen
pasakapah
pasakapahen
pasaluimeng
pasanga
pasangaan
pasapayu
pasasa
pasasuala
pasatezep
pasatimul
pasaupu
pasawali
pasay
pasayda
pasaydaay
pasaydaen
pasaydan
pasayni
pasayza
pasayzaan
pasazuma
pascal
pase
paseneng
paseng
pasentu
pasepi
pasepian
pashinyan
pasibana
pasikau
pasilsil
pasiluc
pasilut
pasimal
pasimalan
pasimel
pasing
pasintu
pasiwali
paso
pasongan
pasu
pasubana
pasubanaay
pasukas
pasulitan
pasumad
pasumadan
pasumaden
pasumana
pasumat
pasuni
pasusun
pasuya
pata
patababaw
patada
patadas
patademaway
patadikud
patadu
patahekal
patahekalan
patahekalay
patahekalen
patahka
patahkaan
patahkal
patahkalay
patahkalen
patahtah
patakis
patakit
patakus
patalahekal
patalakaw
patalaw
patalawan
patalaway
pataluma
patalumaen
patan
patang
patapabaw
patapuc
patasasa
patata
patatenga
patatiku
patatules
patatungus
patawsi
patay
patayda
pataydaen
pataydan
patayen
patayni
pataynin
patayza
patayzaan
patayzaen
patelac
patelacay
patelatela
patelay
patelayan
patelek
patelekay
patelungan
patenak
pateng
patengan
patiden
patideng
patidenga
patidengan
patidengay
patiku
patikuen
patinaku
patinakuay
patineng
patinengen
patiyak
patiyam
patiyamay
patizang
patizen
patizeng
patizengan
patizengay
patizengen
patrice
patrick
patubeli
patubilisa
patucek
patudu
patuduan
patuduay
patudud
patukil
patukuh
patungus
patusukan
patutud
patuzu
patyamay
paudadan
paudip
paudipay
paui
paul
paulicay
pauliday
pauzip
pauzipay
pauzipen
paw
pawacay
pawada
pawali
pawalien
pawalil
pawalinen
pawan
pawapen
pawasa
pawcia
pawciya
pawhua
pawliwti
pawmu
pawsa
pawti
pay
paya
payapay
payas
payawan
paybalucu
paybinacadan
paybulad
paycacay
paycacayay
payci
paycucuan
paycucuay
paydang
paydangan
paydemiad
paydemiadan
payhun
payhunpi
paykanatal
paykanatalay
paylabu
paylang
paylima
paylipay
payljus
payluma
paylumaluma
paymihcaan
paymihecaan
paymihmihcaan
payni
paynien
payniyadu
payniyazu
paynyanyadu
paypay
paysin
paysu
payteban
paytebanay
paytem
payu
payuan
paywan
paza
pazateng
pazazan
pazen
pazeng
pazengen
pazik
pazizaw
pb
pdf
pe
pecian
pedaduki
pedro
pei
peifu
pela
pelaan
pelaen
pelu
pen
penen
peng
peninsula
pennsylvania
people
per
perennial
persimmon
peru
peter
petun
pey
phankham
philadelphia
philippines
pho
phoenix
phosphate
php
pi
piadih
piadihan
piadihi
piadupan
piala
pialaan
piales
pian
piano
piasip
piazih
piazihan
pibahel
pibuting
pibutingan
picakay
picakayan
picalap
picalapan
picaliwayan
picapi
picapian
picedekan
picekulan
picidek
picidekan
picudad
picudadan
picudatan
picumud
picumudan
pida
pidangan
pidateng
pidebung
pidiput
pidiputan
piedap
pieneng
pienengan
pierre
pihaceng
pihacengan
pihacengay
pihalhal
pihalhalan
pihay
pihaymaw
pihaymawi
pihibang
pihibangan
pihpih
piida
piidang
piidangan
pikacawan
pikalat
pikan
pikanan
pikawaw
pikawawan
pikelec
piketun
pikikungan
pikilim
pikilul
pikingkiwan
pikiningan
pikinsa
pikulian
pikulit
pikulitan
pikuwan
pikuwanan
pikuwanay
pikuwang
pila
pilabinan
pilaedisan
pilakalak
pilalaba
pilaliw
pilangawan
pilangecan
pilapila
pilas
pilatlatan
pilawpes
pildac
pilecuhan
pili
piliclic
pilihida
pilihiza
pilipayan
pilisin
pilisinan
piliyas
piliyasan
piliyasi
pilunguc
pimalian
pin
pina
pinaay
pinaaytu
pinacadan
pinaluma
pinanam
pinanaman
pinangan
pinanum
pinapina
pinapinaay
pinara
pinaski
pinatu
pinay
pinfan
pinfun
ping
pingangayaw
pingayaw
pingtung
pininangan
pinpucu
pintaw
pintung
pinyin
pipacu
pipadang
pipahabanan
pipahabayan
pipahanhanan
pipalumaan
pipangangan
pipatahkal
pipatay
pipazeng
pipazengan
pipi
pipili
pipulu
pisa
pisaicelang
pisakakawaw
pisakakawawan
pisakaku
pisakamu
pisakapah
pisalisin
pisalisinan
pisaluma
pisalunguc
pisanga
pisangaan
pisatezep
pisaungay
pisausi
pisawacu
pisayadah
pisengal
pisengian
pisikul
pisilsil
pisilsilan
pisinanut
pising
pisinga
pisingkiw
pisingkiwan
pisirian
pisitekedan
pisiwbay
pisiwbayan
pistons
pisu
pisuayaw
pisulit
pisulitan
pisulul
pisuped
pisupedan
pisupet
pitanam
pitaneng
pitapal
pitapalan
pitay
pite
pitebing
pitekaan
pitel
pitengil
pitu
pituay
pituway
piuwac
piw
piwma
pixnet
piy
piya
piyan
piyang
piyuma
pizateng
pizawis
plan
plant
plantae
plantain
plants
played
player
players
po
pocahontas
podgorica
poland
polinisiya
polynesia
pong
pongodan
population
port
porter
portland
portugal
posko
posong
post
potici
potter
pou
pow
power
powhatan
ppm
prasad
pravind
president
presidential
press
prickly
prime
prince
princess
principe
product
professional
professor
pu
puah
publique
pubu
puces
pucu
pucud
pucunug
pudac
pudacen
pudah
puduh
puduk
pueneng
puenengan
puerto
puertu
pukan
puki
pukpuk
pukuh
pul
pulake
pulan
pulanten
pule
pulecuhan
puler
puli
pulin
pulre
pulu
pululen
pulun
pulung
pulungamin
pulungan
pulungay
pulungen
pulunghan
puluung
pun
puna
pung
pungkang
pungpungkangan
punhu
punkang
punu
punung
puo
puose
puse
puseku
pusku
pusong
pusun
pusung
pusungay
pusungku
putah
putahay
putal
putaw
putawya
putin
putiput
putun
putut
puu
puw
puyu
puyuma
pwakih
pyasan
pycnonotus
pye
q
qalang
qaljecim
qatar
qi
qoyaw
qu
quadrata
quri
qus
r
ra
radev
rafael
rahaw
rahmon
rai
rajapaksa
raka
ralph
rama
ran
ranchanruy
randy
rangay
range
raponda
rapunzel
raranges
rareme
rasulzoda
ray
raymond
re
rebelo
recep
record
red
referred
reflex
regions
related
released
ren
repu
republic
republika
respiratory
retired
rhine
rhodesia
ri
richard
rico
riga
rinahem
rio
river
rl
ro
robert
roble
roc
roch
rock
rockets
roger
roles
roma
roman
romania
ron
rong
roosevelt
rosa
rose
rougui
rouhani
roxb
royals
rr
ru
rubiaceae
ruisui
rukai
rukay
ruke
rul
rumen
rus
russia
rutaceae
rutte
ruy
rwanda
s
sa
saaca
saacawaan
saadeddine
saadidi
saadidiay
saadidingay
saading
saahebal
saahebalay
saahemawen
saakuti
saamis
saamisa
saamisan
saamisanay
saamisay
saan
saansa
saara
saasik
saasu
saayaw
saayaway
saba
sabaatay
sababalakiay
sabaeketay
sabah
sabahel
sabak
sabal
sabalat
sabalucu
sabaluhay
sabama
sabana
sabang
sabangcal
sabangcalay
sabataday
sabatu
sabaw
sabaway
sabawcacay
sabeleng
sabetil
sabun
sabuud
sabw
saca
sacaay
sacabayan
sacacacay
sacacay
sacacayay
sacacaycacay
sacacayen
sacakat
sacakatay
sacaledesay
saci
sacucuk
sacukcuk
saculil
saculilan
saculu
sacumud
sacumudan
sacumut
sacunus
sadadiw
sadadiwan
sadaduy
sadak
sadakadakay
sademiad
sademidemiad
sadep
sadicem
sadicemsa
sadikec
sadikud
sadikudan
sadikuday
sadimata
sadingsing
sadingsingan
sadinsin
sadipa
sadipaan
sadipasan
sadipongan
sadiput
saedap
saedapay
saepi
saetim
saetip
saetipan
saetipyu
sagaran
sahara
sahenay
sahetu
sai
saicelang
saicelangay
saicelangen
said
saigian
saiku
saing
saisasaay
saisiyat
saiten
sak
saka
sakaamisan
sakabi
sakabilil
sakacaay
sakacacay
sakacacayay
sakacakat
sakacaluway
sakacaw
sakacay
sakacumelak
sakadahi
sakadihian
sakaenem
sakaenemay
sakaetiman
sakahemekan
sakahenulan
sakahenulanay
sakahida
sakahini
sakaicelang
sakaidaw
sakaihekal
sakainayi
sakaini
sakaizaay
sakaizaway
sakakaay
sakakapah
sakakawaw
sakakawawan
sakakawawen
sakakay
sakaku
sakakuay
sakakumced
sakala
sakalabi
sakalah
sakalahitay
sakalaluman
sakalamkam
sakalaniyazu
sakalat
sakalawpes
sakalecad
sakalepacaw
sakalihalay
sakalihalayan
sakalikat
sakalima
sakalingatu
sakalisiwan
sakaliwmah
sakalu
sakaluk
sakalukan
sakalus
sakamu
sakamuan
sakamuen
sakamuhan
sakamun
sakamusa
sakamusatu
sakamuwan
sakan
sakanamuhan
sakanamuhay
sakanawlan
sakangaay
sakangaayay
sakangay
sakapah
sakapahan
sakapahay
sakapahen
sakapatay
sakapet
sakapitu
sakapu
sakaput
sakaputan
sakaputay
sakasa
sakasaan
sakasabaw
sakasamata
sakasan
sakasenengan
sakasepat
sakasepatay
sakasi
sakasiduma
sakasikadan
sakasikalisiw
sakasilacul
sakasilaculan
sakasingangan
sakasitangah
sakasitungus
sakasiwa
sakasiwantan
sakatabuyu
sakatahekal
sakatahkal
sakatalawan
sakatalawanay
sakataluma
sakatanektek
sakatatungus
sakatatusa
sakatayda
sakatayni
sakatayza
sakatimulan
sakatineng
sakatinengan
sakatukuh
sakatulu
sakatuluay
sakatusa
sakatusaay
sakatuud
sakatuuday
sakaudip
sakaudipan
sakauip
sakauzip
sakawalu
sakawaw
sakawawan
sakay
sakayadah
sakayadahay
sakayakay
sakaydih
sakaydihan
sakayhekal
sakaytini
sakelec
saketun
saki
sakidaya
sakikalisiw
sakikalisiwan
sakikawaw
sakilima
sakilisin
sakilul
sakina
sakinacacay
sakinatusa
sakipangipangi
sakipuces
sakipudas
sakita
sakizaya
sakizayaan
sakizayaay
saku
sakuayaw
sakubad
sakubal
sakubat
sakuizaway
sakukamu
sakul
sakula
sakulay
sakunida
sakusaan
sakuwan
sakyai
sakyami
sal
sala
salabi
salacul
salaculan
salaecusay
salaedan
salais
salama
salami
salamian
salang
salangatan
salangawan
salangec
salar
salasalaw
salaw
salaylay
salenga
salengac
salengacay
salengcay
sali
salih
salihalay
salikaka
salil
salingatu
salining
salinliw
salipahak
salisin
salisinan
salisinay
saliyut
salman
salngacay
salu
salubaw
saluimeng
salukiyaw
salul
saluma
salumaan
salunga
salungan
salunganay
salungayan
salungayay
salupiku
salusalus
salusalusan
saluyalu
saluyaluy
salva
salvador
sam
sama
samata
samataan
samengmeng
sametek
sami
samihmihcan
samin
samoa
sampi
samuhmuh
samulmul
san
sana
sanad
sanai
sanamin
sananal
sananay
sanay
sanbansya
sandeb
sandimen
sanek
sanekan
saneken
saneng
sanenk
sang
sanga
sangaan
sangaay
sangaen
sangalacay
sangaleb
sangaleben
sangalep
sangalepan
sangalepen
sangan
sangasiben
sangasipen
sangaw
sangayaw
sangelacay
sangelu
sangkaku
sanglac
sanglacay
sanglan
sangucud
sangulan
sangutuc
sani
sanisani
sanna
sanpaw
sanpi
sansa
sansandeb
santa
santi
santimen
santo
santokhi
santos
sanu
sanuglan
sanyadu
sao
sapa
sapaaca
sapaadih
sapaading
sapaazih
sapabangsi
sapabangsis
sapabeli
sapacakay
sapacamul
sapacelian
sapacelilan
sapacucu
sapacukat
sapaculi
sapaculil
sapad
sapadadan
sapadaesu
sapadamek
sapadamsu
sapadan
sapadateng
sapaday
sapahabay
sapahanhan
sapahecek
sapaini
sapaiu
sapaiyu
sapaiyuan
sapaka
sapakaen
sapakalisiw
sapakan
sapakapah
sapakatineng
sapakatukuh
sapakawlah
sapakay
sapakengay
sapakilul
sapakungku
sapakuyucay
sapal
sapalahad
sapalahat
sapalamel
sapalangaw
sapalawpes
sapalekal
sapalekalaw
sapaluma
sapalumaan
sapamat
sapamata
sapamataan
sapamelaw
sapananum
sapancahay
sapangangan
sapangcahay
sapapili
sapapising
sapasubana
sapat
sapatahekal
sapatahkal
sapatalaw
sapatata
sapatay
sapatayda
sapatideng
sapatinaku
sapatizen
sapatudu
sapatudud
sapatungus
sapatusa
sapawsa
sapayu
sapayuan
sapi
sapiadih
sapiading
sapiadup
sapiala
sapiatep
sapiazih
sapibalakas
sapibanaw
sapibetik
sapibuting
sapibuwah
sapicakay
sapicudad
sapicudadan
sapiculu
sapicunus
sapidemec
sapidiput
sapidiputaw
sapiedap
sapihacengay
sapihanhan
sapihica
sapihicahica
sapihpih
sapihulak
sapiidang
sapikawaw
sapiketun
sapikining
sapikpik
sapikuwan
sapilacul
sapilasawad
sapilaylay
sapilisin
sapinanam
sapingaay
sapingay
sapingayaw
sapipadang
sapipatay
sapisalisin
sapisaluma
sapisang
sapisanga
sapisiwbay
sapisuayaw
sapisulit
sapitabu
sapitanged
sapitena
sapitulik
sapitulun
sapucu
sapuelac
sapul
sapulju
sapuyu
sari
sarksyan
sars
sasa
sasaan
sasaay
sasabaay
sasadakayan
sasaetim
sasahicaan
sasahican
sasakamu
sasakamuan
sasakamuen
sasakamun
sasakamuwan
sasakawawan
sasakawawen
sasalaan
sasalamaan
sasalami
sasalamitan
sasalisinan
sasalumaan
sasanga
sasangaan
sasangan
sasapaiyuan
sasapaiyuen
sasapaiyuwan
sasapalan
sasapayuan
sasapayuen
sasapayuwan
sasasedsed
sasasuayawan
sasausian
sasawacan
sasayaway
sasaydan
sasaydang
sasekel
saselal
sasemaan
sasepat
sasepatay
sasepiya
sasi
sasikawaw
sasimalan
sasin
sasing
sasingaan
sasingalan
sasinganganay
sasitudung
sasitungus
sasitungusan
sasitungusay
sasiwbayan
sasuayawan
sasubana
sasubin
sasukamu
sasukapahay
sasuke
sasula
sasulidan
sasulitan
sasulul
sasumidang
sasungaay
sasuwal
sat
sata
satabaki
satabakiay
satabakiaya
satabakiya
satabakiyay
satabalay
satabu
satakus
satalakaw
satalakaway
satanaya
satanayaay
satanayu
satanayusa
satanengay
satanengen
satangahan
satapes
satatungusan
satebuc
satebul
satedep
sateked
satekesay
satelec
satenesay
satezep
satiban
satiidan
satimul
satimulan
satimulanay
satimulay
satinengay
satip
satipan
satipanay
satu
satukaku
satukal
satukami
satuktuk
satuku
satusa
satuuday
satuway
sau
saudi
saungay
saungayay
saupu
saupuan
saupuen
sausi
sausian
sausien
sausihan
sautangay
sauwac
sauwacan
sauwacay
savarin
saw
sawac
sawacan
sawacu
sawacuan
sawada
sawali
sawalian
sawalianay
sawaliay
sawaliyan
sawaliyna
sawi
sawni
sawsawni
say
sayadah
sayadahay
sayan
sayawa
sayaway
saycan
saydan
saydang
sayhan
sayiun
saysia
saysiat
saysit
saysiyat
sayuen
sayun
sayunan
saza
sazakaya
sazikec
sazikuz
sazikuzan
sazikuzay
sazipa
sazuma
sazumaay
school
science
scotland
scott
se
sea
sean
search
season
seattle
seay
sebat
sebengay
sebu
seci
secian
second
seday
sedeng
see
seed
seediq
seeds
sefu
sehu
sejek
seka
sekae
sekuo
sela
selal
selangawan
selected
selep
sema
semi
semilaway
sen
sena
senegal
senegel
seng
sengan
sengedsengedan
sengelen
senna
sense
sepa
sepad
sepaday
sepat
sepatay
sepet
sepi
serbia
serbian
serendipity
serra
setan
setaria
sete
setset
seuy
seven
seveng
several
severe
sewa
sey
sha
shan
shang
shark
sharma
shavkat
she
sheikh
shen
sheng
shi
shitan
shou
shoufeng
show
shrub
shu
shuh
si
sia
siacaay
siacawa
siacawaw
siadidi
siakay
sialubuay
sian
siang
siangg
siaw
siay
sibakah
sibali
sibaliay
sibalu
sibaluay
sibalucu
sibalucuan
sibanuh
sibanuhay
sibek
siberia
sibili
sibiliay
sibiyaw
sibu
sibutulay
sicabay
sicamul
sicecedaman
sicedam
sicedamay
siceka
sicekaay
sicesicedaman
sici
sicica
sicilalay
sicilekay
sickle
sicunus
sida
sidamek
sidamekay
sidamo
sidayit
sidi
sidiay
sidibu
sidikuc
sidukuay
siduma
sie
siekuan
sienaw
sienaway
sierra
siey
sifu
siging
sign
signs
siheci
siheciay
sihedek
sihu
sii
siicelang
siidaay
siidang
siiluc
siimelang
siimelangay
siizangay
sika
sikaadih
sikaala
sikacaay
sikad
sikadih
sikahini
sikahtik
sikaicelang
sikaidaw
sikainayi
sikala
sikalaheci
sikalalacal
sikalawpes
sikalcad
sikalecad
sikalecaday
sikalisiw
sikalisiway
sikalitemuh
sikaliyuhan
sikamu
sikanamuhan
sikangaay
sikapahay
sikapatay
sikapawan
sikapulung
sikasaan
sikasenengan
sikatalawan
sikataluma
sikatenes
sikatepa
sikatineng
sikatinengan
sikatukuh
sikaudip
sikaudipan
sikawasay
sikawaw
sikawaway
sikay
sikayda
sikaydih
sikaydihan
sikaz
siket
siketen
siki
sikikalisiw
sikining
siku
sikul
sikulen
sikulitay
sikusia
sikuwang
sila
silaad
silac
silacul
silaculan
silaculay
siladay
silaed
silaheci
silal
silala
silamalay
silangaw
silawad
silaya
silecaday
siledek
siledekay
silet
silidungay
silingaan
silingan
silisin
siliwan
siljevavav
silsil
silsilan
silsilen
siluma
silumaay
silumeniay
silusa
silusi
silut
sim
sima
simal
simalay
siminciw
simon
simpi
simsim
simsiman
sin
sina
sinaama
sinan
sinanum
sinanumay
sinayasay
sinbun
sinbung
since
sincen
sinci
sinciw
sinciya
sincu
sinensis
sinevaudjan
sinfa
sing
singaen
singalih
singanga
singangan
singanganay
singapore
singawa
singbun
singbung
singer
singgu
singing
singipenay
singkiw
singkiwan
singko
singku
sini
siniala
sinikaala
sinilacul
sinina
sining
sinkam
sinmung
sinotaia
sinpa
sinpi
sinpiay
sinsin
sinubu
sinza
sinzia
sinziya
sipa
sipaadih
sipaales
sipabeli
sipabelien
sipacakay
sipacamul
sipahanhan
sipakay
sipakayda
sipakaydaen
sipakayni
sipakutay
sipala
sipalecad
sipaliyun
sipaluma
sipan
sipanganga
sipangangan
sipanya
sipapah
sipasubana
sipasumad
sipasumaden
sipatahkal
sipatayda
sipataydaen
sipatideng
sipaw
sipi
sipibakah
sipil
sipildac
sipisanga
sipunu
sipunuay
sirakesay
sisa
sisapikpikay
sise
sisepat
sisi
sisimal
sisimalay
sisimpi
sisu
sisulit
sisuni
sitabakiay
sitaneng
sitangahay
sitatudungay
sitatungus
sitatungusay
siteked
siti
sitiekuk
sitinengay
sitinpahku
situdung
situdungay
situlu
situngus
situngusa
situngusay
situpelay
situsa
siu
siukakiay
siung
siuy
siw
siwa
siwaay
siwantan
siwaw
siwawa
siwawatu
siwbay
siwkay
siwkulan
siwng
siwsiwan
siwsiwwan
siy
siya
siyakay
siyakayay
siyan
siyang
siyankelila
siyaw
siye
siyen
siyeng
siykay
siyun
siyung
sizi
sizikuc
sizuma
sizumaay
skerrit
slamaw
slavic
slovakia
slovenia
slovenija
small
smangus
smith
sno
snow
snu
snuwing
so
socen
solanum
solberg
solomon
somalia
somaliland
some
sometimes
song
sorghum
soufeng
sousa
south
southeast
southern
soviet
sow
space
spain
spanish
species
sphecodina
spurs
sq
sri
st
stak
star
stark
stars
state
states
stefan
steve
storm
story
study
su
suan
suay
suayaw
suba
subal
subalan
subalay
subana
subankaw
subasubalan
subayu
subject
such
sudadatan
sudan
suday
sudu
sue
suemetay
suey
suga
suhu
sui
suilt
suisezi
suiy
sukiti
suku
sukudad
sukun
sukuy
sul
sulda
sulecad
suleda
sulesuledaan
suli
sulian
sulid
sulit
sulitan
suliten
sulu
suluhu
sulul
sululen
sumad
sumadan
sumaden
sumama
sumamad
sumamadan
sumamaday
sumanah
sumanahay
sumasumanahan
sumilaw
sumilaway
summer
sun
suna
sunflower
sung
sungaay
suni
sunian
suns
sunuk
suo
suodu
supa
suped
supedan
supeden
supersonics
surface
suriname
suruw
suspension
suta
suw
suwan
suy
suyi
swaziland
sweden
sweet
switzerland
sya
syabutay
syahuy
syakay
syang
sye
syehuy
syen
syifu
syracuse
syria
system
syubay
t
ta
taal
taamis
taan
taayaw
tababaw
tabaki
tabakiay
tabakiaya
tabakiayay
tabakitabaki
tabakitu
tabakiya
tabakiyay
tabaku
tabal
taban
tabang
tabayal
tabayu
tabesiw
tabu
tabuen
tabuk
tabukan
tabukud
tabuyu
taca
tacucuan
tacuwa
tacuwacuwa
tada
tadah
tadakamu
tadamaan
tadamaw
tadangangan
tadaw
tadayadah
tadebaw
tadem
tadema
tademaw
tademawan
tademaway
tademw
tadenga
tadengaay
tadetademaw
tadikud
tadisawak
tadiwaa
tadu
taduk
tah
tahaceba
tahadauc
tahak
tahakay
tahan
tahdauc
tahek
tahekal
tahekalan
tahekalay
tahkal
tahkalay
tahmahini
tai
taichung
taimali
taing
taipei
taitung
taiwan
taiwanese
taiwu
tajikistan
takal
takalaw
takalaway
takamimura
takan
takanua
takas
takaw
takaway
takec
takelal
takelalay
takelian
takelulu
taki
takidis
takili
takiludun
takini
takinilan
takkei
taku
takubu
takubuan
takubuwa
takubuwan
takuku
takulaw
takuliaway
takuliway
takuliyaway
takulyaway
takun
takupuwan
takus
takutakuan
takuwa
takuwan
takuwanan
tal
tala
talaayaw
talabayu
talabu
talabuyu
talacuwacuwa
talahaday
talakaw
talakawan
talakaway
talalusa
talamakau
talampo
talastas
talaw
talawadaw
taleacawaan
taleacawan
tali
taliban
taling
tall
talon
talu
taluay
taludu
taluku
talul
talulung
taluma
talumaan
talumaay
tam
tama
tamaan
tamaay
tamalakaw
tamali
tamasaydan
tamdaw
tamedaw
tamelac
tamelacay
tamiyan
tamiyanan
tamulak
tamusi
tamuwan
tamuwanan
tan
tana
tanan
tanang
tanaya
tanayaay
tanayu
tanayuan
tanayuay
tanayuhan
tandaw
tanektek
tanektekay
tanen
taneng
tanengay
tanengtu
tanestes
tang
tanga
tangabulan
tangabulanay
tangah
tangahay
tangan
tanganyika
tangasa
tangasatu
tangbulanay
tangen
tangil
tangila
tangisngisay
tangku
tangsa
tangsul
tani
taniay
taniktik
taniya
tanpayce
tansul
tansuy
tantin
tantuwa
tanu
tanunamuh
tanutuwa
tanzania
tao
taoyuan
taoyuen
tapa
tapabaw
tapabawsa
tapal
tapalan
tapalen
tapalong
tapalung
tapan
tapang
tapangan
tapangay
tapelik
tapiingan
tapiingay
tapila
tapo
tapowaray
tapu
tapuku
tapukuan
tapukuay
tapukuwan
tapukuwanay
tapukuway
taputah
tariri
taroko
taruku
tarzan
tasa
tasasa
tasasikis
tase
tasepian
tasi
tasutasunan
tata
tatabaki
tatacuwa
tatademaw
tatak
tatala
tatama
tatamaan
tatamaay
tatami
tatana
tatanay
tatanga
tatangahan
tatapangan
tatay
tatayda
tataydaan
tatayna
tataynaan
tataynaay
tataynan
tataytay
tataytayay
tatebanan
tatekuh
tatelecan
tatelungan
tatemaw
tateng
tatenga
tatengaay
tatengan
tatengay
tatengilan
tatidengan
tatiku
tatimul
tatimulan
tatimulen
tatipeluk
tatizengan
tatoba
tatu
tatucekan
tatudung
tatudungan
tatudungay
tatukian
tatukiyan
tatuktukan
tatukus
tatukusan
tatulu
tatuluay
tatung
tatungduh
tatungus
tatungusan
tatungusay
tatuni
tatusa
tatusaay
tau
tauay
taumah
taurus
tausa
tavila
taw
tawa
tawan
taway
tawiw
tawki
tawu
tawya
tawyaay
tay
tayal
tayalu
tayan
tayayu
taybak
tayciw
tayda
taydaan
taydaay
taydaen
taydan
tayhy
tayi
taylin
tayling
tayliwku
tayliyuk
taymali
taymen
taymu
tayna
taynaan
taynan
tayni
taynian
tayniay
taynien
taynin
taynitu
tayniyan
tayniyay
taypak
taypakay
taypan
taypi
taypin
taypingyang
taypinsan
taypinyang
taypinyung
taypuolayta
taytayna
taytu
taytung
tayu
taywan
taywanay
taywannay
tayyip
tayza
tayzaay
tayzatu
tayzin
taza
tazikuz
tdemaw
te
team
tean
tebal
teban
tebanan
tebanay
tebang
tebatebanan
tebboune
tebu
tebun
tebus
tedemaw
tedep
tedus
teka
teked
teki
tekiteki
tektek
tekuo
tel
tela
telay
teldreka
telek
teleklal
television
telilic
telis
telo
telu
teluc
teluhu
telung
telungay
ten
teneng
tenes
tenesay
teng
tengaan
tengil
tengilan
tengilen
tengteng
tepa
tepad
tepaday
tepadtepadan
tepal
tepalay
tepan
tepanay
tepi
term
terms
terng
terra
tesek
tesri
texas
tez
tgleq
th
tha
thac
thailand
than
thao
that
thau
the
their
them
these
they
things
this
thomas
though
three
through
throughout
thunb
thunder
ti
tian
tiay
tibeni
ticung
ticunghay
tida
tidaan
tidaay
tideng
tiding
tie
tiekuk
tien
tieng
tigami
tihbalu
tika
tiku
tikuk
tikulac
tikulacan
tikuo
tilibi
tilibiay
tim
tima
timan
time
timor
timu
timul
timulan
timulay
timulbayu
timur
timyo
tin
tina
tinacay
tinakawawan
tinaku
tineng
tinengan
ting
tingalaw
tingalaway
tinghuy
tingnaw
tingsikiw
tingsukiw
tingting
tini
tiniay
tiniyay
tins
tinsikiw
tinsu
tinsukiw
tinulu
tinusa
tip
tipala
tipan
tipanay
tipay
tipid
tipp
tipus
tiseni
tisuwan
tisuwanan
titaan
titanan
titi
titian
titic
titv
tiway
tiya
tiyan
tiyen
tiyeng
tiyin
tiyn
tiyntiyn
tiyung
tiza
tizaay
tizeng
tjailjaking
tjalja
tjana
tjavatjavang
tjavualji
tjuaqau
tjuavanaq
tjukuvulj
tjusepayuan
tjuvecekadan
tjuwaqau
tmunan
tno
to
togo
toko
tokoy
tolan
tom
tome
tong
tongan
tony
top
toronto
tou
touade
tour
tow
town
township
tra
traditional
trail
trapping
travel
tree
trees
tri
tribe
trichodesma
tricyrtis
tropical
truku
trump
tsai
tsau
tshisekedi
tsou
tu
tua
tuamin
tuan
tuas
tuay
tuba
tubah
tubang
tubtub
tubul
tubulan
tucek
tuci
tucila
tucu
tuda
tudawa
tudedemiad
tudi
tudu
tuduh
tuduhan
tuduhen
tuduma
tudung
tudungay
tuen
tuhenian
tuheniyan
tuhniyan
tui
tukaku
tukal
tukamu
tukawaw
tukay
tukayan
tukayay
tuki
tukiay
tuktuk
tuktukan
tuku
tukud
tukuh
tukun
tukus
tukusan
tukusay
tukutukusan
tukya
tul
tula
tulaku
tulakuk
tulakukay
tulangku
tulcek
tule
tulin
tulis
tulisen
tulu
tuluay
tuluku
tuluma
tulumi
tulun
tuluway
tumahiniay
tumay
tumayay
tumesay
tumian
tumu
tumuk
tumunaw
tun
tuna
tunbasan
tunduh
tung
tungan
tungangan
tungaw
tungawan
tungawen
tungay
tungduh
tungus
tungusa
tungusay
tuni
tunian
tunida
tunika
tunipi
tunisia
tuniyan
tunu
tunuhenian
tunutaw
tunuz
tunyadu
tuo
tupel
turkey
turkmenistan
tus
tusa
tusaan
tusaay
tusabataan
tusay
tuse
tuseay
tusi
tusu
tut
tutang
tutu
tutuud
tutuy
tuu
tuud
tuudan
tuuday
tuudip
tuudtuud
tuutuud
tuvalu
tuw
tuwa
tuwaca
tuwamin
tuwan
tuwapun
tuwawa
tuway
tuy
tuya
tuyda
tuyni
tuynian
tuyniyan
tuyu
tuyza
tuyzaan
tuzu
tuzuma
tw
twaca
twamin
two
twtrees
tya
tyaw
tyen
type
types
typically
tzyy
u
ua
uan
uang
uay
ucacanan
ucanan
ucayay
ucepei
uci
ucia
uciha
uciya
ucya
ud
udad
udadan
udang
udangan
udaudadan
udip
udipan
udipay
udiptu
udipudipan
udiudipan
udu
uduma
uganda
uh
uhan
uhekal
uheni
uhu
uk
ukak
ukakay
ukamu
ukapahay
uke
ukraine
uku
ul
ula
ulabu
ulad
ulaljuc
ulang
ulangan
ulangdaay
ulasaka
ulat
ulaulangan
ulay
ules
uli
ulic
ulican
ulicay
uling
ulu
uma
umah
umahan
umahay
umahiniay
umahiniyay
umahumahan
umaumahan
umbelliferae
umima
un
una
under
undu
undukay
ung
ungay
ungcung
ungsi
ungsin
ungsing
uni
unian
unika
uning
unini
union
united
university
uniyan
unsing
untu
unu
unuc
unuheni
uo
up
upah
upalaway
upapah
upel
upiz
upu
uruguay
usa
usakasa
usal
use
used
uses
usi
usually
ut
utademaw
utang
utiih
utu
utubay
utux
uul
uw
uwac
uwak
uwawa
uway
uwi
uwy
uy
uya
uyaan
uyaanay
uyan
uycanan
uyda
uydaan
uye
uyi
uyiniyan
uyna
uyni
uynian
uyniay
uynihan
uyniyaca
uyniyan
uysin
uyuni
uyza
uyzaamin
uyzaan
uyzaanay
uyzasa
uyzasatu
uzama
uzamaay
uzang
uzasa
uzbekistan
uzip
uzipan
uzipay
uzipuzipan
uzuma
uzumaay
v
va
valjulu
van
vanuatu
var
variety
various
vatan
vavulengan
vcd
ve
vella
venezuela
venice
verbenaceae
vi
vic
victor
vietnam
view
vikings
vin
vinai
vine
viphavanh
virginia
viti
vivian
vladimir
von
vorachith
vudai
vungalid
vungavung
w
wa
wac
waca
wacah
wacu
wacuan
wada
wadaen
wade
wadiwawa
wadu
waha
waku
wal
walak
walay
wali
walian
walianay
waliay
walibayu
walitimulan
waliyan
waliyu
wally
walter
walu
waluay
waluway
walwalan
walwalen
wama
wamin
wamisan
wan
wanay
wancaw
waneng
wang
wanglu
wangyu
waniken
wankuo
wanna
wanrong
wanse
wantan
warriors
was
wasao
washington
watan
watch
water
waterloo
waw
wawa
wawaan
wawaay
wawama
wawana
wawaw
waway
wawelwel
way
wayway
waywayan
we
web
webplantdetail
wei
weight
weiyuanhuy
well
wen
wenihusin
west
westelo
western
wey
weykipayke
weystelo
weyuanhuy
when
where
which
while
white
who
wi
wia
wida
widasa
wide
widely
widi
wiki
wikimedia
wikipayke
wikipedia
wikipitiya
wild
will
william
willie
willow
win
wina
winaan
winai
wind
wini
winian
winis
winisa
winiyanay
winter
wipsay
with
without
wiy
wiyen
wiyena
wiza
wizaan
wo
wolf
won
wonderland
word
world
wu
wuen
wufeng
wugong
wulai
wulun
wun
wuncun
wuo
wutai
wutay
wuya
www
wyca
wyli
wyni
wyniyan
wyza
x
xavier
xbb
xi
xian
xiao
xin
xing
xue
y
ya
yaan
yaanay
yaay
yaca
yaco
yacoay
yada
yadah
yadahan
yadahay
yadahen
yadahtu
yadahyadah
yadatu
yah
yahoo
yahya
yai
yakuba
yalalimenah
yalisanta
yama
yamalyilu
yamapalaway
yami
yamin
yamso
yan
yancumin
yang
yangci
yani
yanping
yao
yasi
yassin
yaw
yay
yayo
ye
year
yehan
yellow
yemen
yen
yey
yi
yia
yiay
yicumin
yicumincu
yien
yik
yilan
yin
yincumicu
yincumim
yincumin
yincuminay
yincumincu
yindu
ying
yingcumin
yingguo
yingu
yintu
yirgacheffe
yise
yiseng
yit
yitali
yiyang
yiyu
yo
york
yoshihide
you
your
youtube
yoweri
yu
yuadidi
yuan
yuancumin
yuancuminay
yuancumincu
yuangcumin
yuanminhuy
yubayub
yubin
yuciya
yue
yugoslavia
yuh
yuing
yuli
yumahida
yun
yuncumin
yung
yungcumin
yuni
yunminhuy
yusinu
yutak
yutiancaw
yutiyncaw
yuwantan
yuwatan
z
za
zahan
zahkez
zai
zais
zakep
zakes
zama
zambia
zan
zang
zanthoxylum
zateng
zaw
zay
zayed
zayhan
zayliw
zayliyaw
zaysa
zaysan
zaysang
zazan
zazanan
zazanay
zdravko
ze
zealand
zekuzan
zen
zeng
zenmin
zeu
zew
zh
zheng
zhi
zhin
zho
zhongguo
zhou
zhu
zhuoxi
zi
ziday
zidayan
zihing
zikuc
zikuz
zikuza
zikuzan
zikuzanay
zikuzay
zimbabwa
zinum
zinzya
zipun
zitay
zitayan
ziyazu
zo
zong
zoo
zou
zu
zuela
zul
zuma
zumaan
zumaay
zumasa
zumasatu
zumay
zumazuma
zun
zung
zuo
zuw
zuy
|
~


«
°
±
²
´
·
»
½
×
ħ
ɕ
ɡ
ɣ
ɬ
ʃ
ʑ
ʒ
ʕ
ʲ
ʷ
ʻ
ʼ
ʾ
ˇ
ˈ
ˊ
ˋ
ː
˙
̀
́
̂
̃
̄
̆
̇
̈
̊
̌
̍
̔
̣
̤
̦
̧
̯
͡
α
δημοκρατι
ε
κυπριακη
μ
ν
ρ
ֶ
ּ
נ
ا
ب
بن
ة
د
ر
ع
عبد
ق
ل
ي
َ
ُ
ِ
ّ
ْ
ٓ
ٔ
ٕ
क
ज
द
फ
ब
भ
य
र
ल
व
श
ा
ि
ी
े
ो
्
দ
ম
ল
হ
া
ি
ী
ু
ে
্
દ
િ
ી
્
க
ட
ர
ா
ே
்
ೆ
ග
ඨ
න
ර
ෂ
්
ා
ෙ
ດ
ວ
ັ
ິ
ົ
་
ོ
ចក
ជ
ណ
ព
រ
ា
ុ
ះ
្
‎
–
—
―
‘
’
“
”
„
•
…
‧
‬
‭
′
※
℃
⅓
⅔
ⅲ
→
↔
↷
−
∘
⋯
③
④
⑦
─
■
●
⺀
⺄
⺆
⺈
⺊
⺌
⺕
⺝
⺸
⺼
⿰
⿱
⿲
⿳
⿴
⿵
⿶
⿷
⿸
⿹
⿺
⿻
、
。
〈
〉
《
》
「
」
『
』
【
】
〜
〝
〞
〢
あ
い
う
え
お
か
き
く
け
こ
さ
し
す
せ
そ
た
ち
っ
つ
て
と
な
に
の
は
ひ
ふ
へ
ほ
ま
み
め
も
ゃ
や
ゅ
ょ
よ
ら
り
る
れ
ろ
わ
を
ん
゙
゚
ァ
ア
ィ
イ
ゥ
ウ
ェ
エ
ォ
オ
カ
キ
ク
ケ
コ
サ
シ
ス
セ
ソ
タ
チ
ッ
ツ
テ
ト
ナ
ニ
ヌ
ネ
ノ
ハ
ヒ
フ
ヘ
ホ
マ
ミ
ム
メ
モ
ャ
ヤ
ュ
ユ
ョ
ヨ
ラ
リ
ル
レ
ロ
ワ
ン
・
ー
ㄧ
㇁
㇂
㇄
㇇
㇈
㇉
㇓
㐁
㐄
㐅
㐌
㐫
㐬
㐭
㐮
㐱
㑒
㒵
㒸
㒼
㓁
㓞
㔾
㕛
㕣
㖾
㘝
㚅
㚇
㚔
㚘
㝉
㝡
㝴
㝵
㞋
㞢
㞷
㠩
㠭
㠯
㡀
㡭
㡿
㢲
㢴
㣇
㣺
㥯
㪅
㫄
㫐
㫒
㫺
㬅
㬎
㬥
㬰
㲋
㳄
㷠
㸒
㸚
㸦
㼌
㼲
㽞
㿟
䀠
䂞
䍃
䏍
䒑
䖍
䖒
䖝
䖵
䘃
䙴
䚻
䜌
䝿
䡛
䧹
䪞
一
丁
丂
七
丄
丅
丆
万
丈
三
上
下
丌
不
与
丏
丐
丑
专
且
丕
世
丘
丙
业
东
丞
丟
両
丢
丣
两
严
並
丨
丩
个
丫
丬
中
丮
丰
丱
串
丵
丶
丷
丸
丹
为
主
丽
丿
乀
乂
乃
久
乆
乇
么
义
之
乌
乍
乎
乏
乐
乑
乔
乖
乗
乘
乙
乚
乛
乜
九
乞
也
习
乡
书
乳
乾
亀
亂
亅
了
亇
予
争
事
二
亍
于
亏
亐
云
互
亓
五
井
亘
亙
亚
些
亜
亞
亟
亠
亡
亢
交
亥
亦
产
亨
亩
享
京
亭
亮
亯
亰
亲
亳
亶
亷
人
亻
亼
亾
什
仁
仇
今
介
仌
仍
从
仐
仑
仒
仓
仔
仕
他
仗
付
仙
仝
代
令
以
们
仰
仲
件
任
仼
份
仿
企
伊
伍
伏
伐
休
众
伙
会
伝
伟
伦
伯
估
伴
伶
伸
伺
似
伽
但
佇
佈
位
低
住
佐
佑
体
佔
何
佗
佘
余
佛
作
你
佥
佩
佬
佰
佳
併
佼
使
來
侈
例
侌
侍
侖
供
依
侯
侵
侶
便
係
促
俄
俊
俐
俗
俘
保
俞
俠
信
修
俯
俱
俳
俾
倆
倉
個
倍
們
倒
倖
倘
候
倚
借
倠
倡
倦
倫
倭
值
假
偉
偏
偕
做
停
健
側
偵
偶
偷
偽
傀
傅
傍
傑
傘
備
傢
催
傭
傲
傳
債
傷
傻
傾
僅
僉
像
僑
僕
僚
僥
僧
僱
僵
價
僻
儀
儂
億
儉
儒
儘
償
儡
優
儲
儷
儼
儿
兀
允
兂
元
兄
充
兆
兇
先
光
兊
克
兌
免
兑
兒
兓
兔
党
兜
兟
入
內
全
兩
兪
八
公
六
兮
兰
共
关
兴
兵
其
具
典
兹
兼
冀
冂
冃
冄
内
冇
冈
冉
冊
冋
册
再
冎
冏
冐
冒
冓
冕
冖
冗
冘
写
军
农
冝
冠
冡
冤
冥
冫
冬
冰
冶
冷
冽
准
凈
凋
凌
凍
凜
凝
几
凡
凢
凰
凱
凵
凶
凷
凸
凹
出
函
凾
刀
刁
刂
刃
刄
刅
分
切
刊
刍
刑
划
刕
刖
列
刘
则
创
初
判
別
刨
利
刪
别
刮
到
制
刷
券
刺
刻
剃
則
削
剌
前
剖
剛
剝
剡
剧
剩
剪
剮
副
割
創
剽
剿
劃
劇
劉
劍
劑
力
办
功
加
劣
劦
动
助
努
劫
劳
劵
勁
勃
勇
勉
勒
動
勘
務
勝
勞
募
勢
勤
勳
勵
勸
勹
勺
勻
勾
勿
匀
匂
包
匆
匈
匊
匋
匍
匏
匐
匕
化
北
匙
匚
匝
匠
匡
匪
匯
匱
匸
匹
区
医
匽
匿
區
十
卂
千
卄
卅
卆
升
午
卉
半
卌
华
卑
卒
卓
協
单
卖
南
単
博
卜
卝
卞
占
卡
卢
卣
卤
卦
卩
卪
卬
卯
印
危
即
却
卵
卷
卸
卻
卽
卿
厂
厃
厄
历
厈
厉
厌
厓
厘
厚
厝
原
厤
厥
厨
厭
厲
厶
厷
厸
去
厼
厽
叀
参
參
叅
又
叉
及
友
双
反
叐
发
叒
叔
叕
取
受
变
叚
叛
叜
叟
叢
口
古
句
另
叨
叩
只
叫
召
叭
叮
可
台
叱
史
右
叵
号
司
叹
叻
吂
吃
各
吅
合
吉
吊
吋
同
名
后
吏
吐
向
吕
君
吝
吞
吟
吠
否
吧
含
启
吳
吴
吵
吸
吹
吻
吼
吾
呀
呂
呆
呈
告
呎
员
呙
呢
周
呱
味
呵
呼
命
咀
咄
咅
咆
和
咎
咒
咕
咖
咠
咢
咨
咪
咫
咬
咯
咳
咸
咼
咽
哀
品
哆
哇
哈
哉
員
哥
哦
哨
哩
哪
哭
哮
哲
哺
唆
唇
唉
唐
唧
售
唯
唱
唷
唸
唾
啄
商
啇
啊
問
啚
啜
啞
啟
啡
啤
啥
啦
啬
啻
啾
喀
善
喆
喇
喉
喊
喋
喔
喘
喙
喚
喜
喝
喧
喨
喪
喫
喬
單
喳
喻
喿
嗅
嗇
嗎
嗓
嗖
嗚
嗜
嗝
嗡
嗣
嗹
嗽
嘀
嘆
嘉
嘎
嘔
嘗
嘛
嘟
嘮
嘯
嘲
嘴
嘶
嘹
嘻
噁
噝
噢
器
噩
噪
噬
噯
噴
噶
噸
噹
嚇
嚎
嚏
嚐
嚕
嚙
嚥
嚨
嚮
嚴
嚼
囂
囉
囊
囑
囓
囗
囘
囙
囚
四
回
囟
因
团
団
囧
囬
困
囱
囷
固
国
圂
圃
圅
圈
國
圍
圏
園
圓
圖
團
土
圡
圣
圥
在
圭
圮
地
圳
圶
场
圼
圾
址
坂
均
坊
坌
坍
坎
坐
坑
坒
坚
坡
坤
坦
坨
坪
坴
坵
垂
垃
型
垔
垚
埀
埂
埃
埋
城
埔
域
埠
埡
埤
埶
執
培
基
堂
堅
堆
堇
堊
堡
堤
堪
堯
報
場
堵
堺
塊
塌
塑
塔
塗
塘
塚
塞
塢
塩
填
塱
塵
塹
境
墅
墊
墓
墜
增
墨
墩
墬
墮
墳
墾
壁
壇
壑
壓
壘
壞
壟
壠
壢
壤
壩
士
壬
壯
声
壳
壴
壹
壺
壽
夂
处
夅
夆
备
夊
夋
夌
复
夏
夒
夕
外
夗
夘
多
夜
够
夠
夢
夥
大
夨
天
太
夫
夬
夭
央
失
夲
头
夷
夸
夹
夻
夾
奂
奄
奇
奈
奉
奎
奏
奐
契
奓
奔
奕
套
奚
奞
奠
奢
奥
奧
奪
奬
奭
奮
女
奴
奶
奸
她
奻
好
如
妃
妄
妊
妍
妒
妓
妖
妙
妝
妞
妟
妥
妨
妮
妳
妹
妻
妾
姆
姊
始
姐
姑
姓
委
姚
姜
姦
姨
姬
姻
姿
威
娃
娄
娑
娓
娘
娛
娜
娟
娠
娩
娶
娼
婁
婆
婉
婕
婚
婦
婪
婭
婴
婷
婻
婿
媒
媚
媧
媲
媳
媼
媽
嫁
嫂
嫉
嫌
嫘
嫩
嫰
嫻
嬉
嬌
嬰
嬴
嬸
孀
孃
子
孑
孔
孕
孖
字
存
孚
孛
孝
孟
孢
季
孤
学
孩
孫
孰
孱
孳
孵
學
宀
宁
宂
它
宅
宇
守
安
宋
完
宏
宓
宕
宗
官
宙
定
宛
宜
宝
实
実
客
宣
室
宮
宰
害
宴
家
容
宾
宿
寂
寄
寅
密
寇
富
寐
寒
寓
寞
察
寡
寢
實
寧
寨
審
寫
寬
寮
寰
寵
寶
寸
对
寺
寻
寽
対
寿
封
尃
射
将
將
專
尉
尊
尋
尌
對
導
小
少
尒
尓
尔
尖
尗
尚
尞
尢
尣
尤
尧
尨
尭
就
尸
尹
尺
尻
尼
尽
尾
尿
局
屁
居
屆
屈
屋
屍
屎
屏
屑
展
屖
屚
属
屠
屡
屢
層
履
屬
屮
屯
屰
山
屵
屹
屾
岁
岂
岐
岑
岔
岡
岩
岬
岱
岳
岸
峙
峨
峭
峯
峰
峴
島
峻
峽
崁
崇
崎
崐
崑
崔
崖
崗
崙
崛
崩
崮
崽
嵌
嵙
嵬
嶄
嶇
嶲
嶺
嶼
嶽
巂
巍
巒
巔
巖
巛
川
州
巟
巠
巡
巢
巤
工
左
巧
巨
巩
巫
差
己
已
巳
巴
巷
巸
巻
巽
巾
巿
帀
市
布
帆
希
帕
帖
帚
帛
帝
帥
带
師
席
帳
帶
常
帽
幅
幕
幗
幟
幢
幣
幫
干
平
年
幵
并
幷
幸
幹
幺
幻
幼
幽
幾
广
広
庄
庇
床
序
应
底
店
庚
府
度
座
庫
庭
庶
康
庸
廁
廂
廈
廉
廊
廌
廓
廖
廚
廛
廟
廠
廢
廣
廩
廬
廳
廴
延
廷
建
廾
廿
开
弁
弃
弄
弇
弊
弋
式
弓
弔
引
弗
弘
弜
弟
弥
弦
弧
弱
張
強
强
彈
彊
彌
彎
彐
彑
当
彔
录
彖
彗
彙
彡
形
彤
彥
彦
彧
彩
彭
彰
影
彳
彷
役
彼
彿
往
征
待
很
徊
律
後
徏
徐
徑
徒
得
徘
徙
從
御
復
循
微
徵
德
徹
徽
心
忄
必
忆
忌
忍
忒
志
忘
忙
忝
忠
忩
快
念
忽
忿
怎
怒
怕
怖
思
怠
怡
急
性
怨
怪
怯
怱
恆
恍
恐
恒
恕
恢
恣
恥
恨
恩
恭
息
恰
恿
悄
悅
悉
悍
悔
悟
悠
患
悤
您
悲
悶
情
惑
惕
惜
惟
惠
惡
惢
惰
惱
想
惹
惺
愁
愈
愉
意
愚
愛
感
愧
慈
態
慌
慎
慕
慘
慢
慣
慧
慨
慫
慮
慰
慵
慶
慷
慾
憂
憎
憐
憑
憤
憨
憩
憫
憲
憶
憾
懂
懇
懈
應
懦
懲
懶
懷
懸
懼
懿
戀
戈
戉
戊
戋
戌
戍
戎
戏
成
我
戒
戔
或
戚
戟
戠
戢
截
戮
戰
戲
戳
戴
戶
户
戹
戼
戾
房
所
扁
扇
手
扌
才
扎
打
扔
托
扛
扞
扣
扦
执
扭
扮
扯
扶
批
扼
找
承
技
抄
把
抑
抓
投
抖
抗
折
抛
报
披
抬
抱
抵
抹
押
抽
拂
拆
拇
拉
拋
拌
拍
拏
拐
拒
拓
拔
拖
拘
拚
招
拜
括
拭
拯
拱
拳
拴
拼
拾
拿
持
指
按
挑
挖
挨
挪
挫
振
挺
挽
挾
捆
捉
捍
捐
捕
捧
捨
捲
捷
掀
掃
掇
授
掉
掌
排
掘
掙
掛
掠
採
探
接
控
推
掩
措
揉
描
提
插
揚
換
握
揪
揭
揮
援
揹
損
搏
搓
搖
搗
搜
搞
搬
搭
搶
摔
摘
摧
摩
摯
摸
摻
撈
撐
撒
撓
撕
撞
撣
撤
撥
撫
播
撮
撰
撲
撼
撿
擁
擄
擅
擇
擊
擋
操
擎
擔
據
擠
擦
擬
擱
擲
擴
擺
擾
攀
攔
攜
攝
攣
攤
攪
攫
攬
支
攴
攵
收
攸
改
攻
放
政
敄
故
效
敌
敏
救
敕
敖
敗
敘
教
敝
敞
敢
散
敦
敫
敬
数
敲
整
敵
敷
數
斂
斃
文
斉
斊
斌
斐
斑
斗
料
斜
斟
斡
斤
斥
斧
斩
斬
斯
新
斷
方
於
施
斿
旁
旃
旅
旋
族
旗
无
旡
既
旣
日
旦
旧
旨
早
旬
旭
旮
旱
旲
旳
时
旺
旾
昂
昆
昇
昌
昍
明
昏
易
昔
昗
昜
星
映
春
昧
昨
昬
昭
是
昱
昴
昶
昷
時
晃
晉
晋
晏
晒
晚
晝
晤
晦
晨
普
景
晰
晴
晶
智
晾
暄
暈
暑
暖
暗
暢
暨
暫
暮
暱
暴
暹
曆
曇
曉
曙
曝
曠
曩
曬
曰
曲
曳
更
曷
書
曹
曼
曾
替
最
朁
會
月
有
朋
服
朔
朕
朗
望
朝
期
朦
朧
木
朩
未
末
本
札
朮
术
朱
朴
朵
朶
朽
朿
杀
杆
杇
杈
杉
李
杏
材
村
杖
杜
杞
束
条
来
杭
杯
杰
東
杲
杳
杵
杷
松
板
枇
枋
析
枕
林
枚
果
枝
枯
枲
架
枸
枼
柃
柄
柏
某
柑
染
柔
柚
柢
查
柩
柬
柯
柰
柱
柳
柴
柵
柿
栓
栗
校
栢
株
核
根
格
栽
桀
桂
桃
桅
框
案
桌
桐
桑
桔
桕
桶
桼
桿
梁
梅
梆
梓
梗
條
梟
梢
梧
梨
梭
梯
械
梳
梵
棄
棉
棋
棍
棒
棕
棘
棚
棟
棠
棥
棧
森
棱
棲
棵
棺
椅
植
椎
椒
椪
椰
椹
椿
楊
楓
楔
楚
楝
楠
楤
楨
楬
業
楯
極
楸
楽
概
榔
榕
榜
榨
榮
榴
構
槌
槍
槐
槓
槳
槽
槿
樁
樂
樊
樑
樓
標
樞
樟
模
樣
樨
樸
樹
樺
橄
橇
橈
橋
橘
橙
機
橡
橢
橫
檀
檄
檐
檔
檗
檜
檢
檬
檯
檳
檸
櫃
櫓
櫚
櫟
櫥
櫻
欄
權
欖
欠
次
欢
欣
欧
欮
欲
欶
欺
欽
款
歆
歇
歉
歌
歎
歐
歛
歡
止
正
此
步
武
歧
歨
歪
歮
歯
歰
歲
歳
歴
歷
歸
歹
歺
死
殆
殉
殊
殖
殘
殲
殳
段
殷
殸
殹
殺
殻
殼
殿
毀
毅
毋
毌
母
每
毐
毒
比
毕
毗
毚
毛
毫
毯
毳
氈
氏
氐
民
氓
气
気
氛
氣
氧
氨
氫
氮
氰
水
氵
氶
氷
永
氹
氺
氾
汀
汁
求
汎
汐
汕
汗
汙
汝
汞
江
池
污
汨
汩
汪
汰
汲
汶
決
汽
沁
沃
沈
沉
沐
沒
沓
沖
沙
沛
沝
没
沫
沮
河
沸
油
治
沼
沾
沿
況
泄
泉
泊
泌
法
泛
泡
波
泣
泥
注
泰
泳
洄
洋
洗
洛
洞
津
洩
洪
洲
洶
活
洼
洽
派
流
浙
浦
浩
浪
浮
浴
海
浸
涂
涅
消
涉
涎
涕
涯
液
涵
涸
涼
淆
淇
淋
淑
淒
淖
淘
淚
淡
淤
淨
淪
淫
淮
深
淳
淵
混
淹
淺
添
清
渚
減
渝
渠
渡
渣
渤
渥
渦
温
測
港
渴
游
渾
湄
湊
湖
湘
湛
湧
湮
湯
湳
湾
溉
源
準
溜
溝
溢
溪
溫
溯
溶
溺
溼
滂
滄
滅
滇
滋
滑
滕
滯
滲
滴
滷
滾
滿
漁
漂
漆
漏
演
漠
漢
漣
漫
漬
漲
漳
漸
漿
潑
潔
潘
潛
潟
潤
潦
潭
潮
潰
潺
澀
澄
澆
澇
澈
澎
澡
澤
澱
澳
澹
激
濁
濂
濃
濕
濘
濟
濤
濫
濱
瀉
瀑
瀕
瀚
瀛
瀝
瀟
瀧
瀰
瀾
灌
灑
灘
灣
火
灬
灭
灰
灵
灷
灼
災
炅
炊
炎
炏
炒
炗
炙
炫
炭
炮
炳
炸
点
為
烈
烏
烘
烝
烤
烯
烷
烹
烽
焉
焙
焚
無
焦
焰
焱
然
煉
煌
煎
煙
煜
煞
煤
煥
照
煩
煮
煲
熄
熊
熏
熒
熔
熙
熟
熬
熱
熾
燃
燈
燉
燒
燕
燙
營
燥
燦
燭
燮
燼
爆
爍
爐
爛
爪
爫
爬
爭
爯
爰
爱
爲
爵
父
爸
爺
爻
爽
爾
爿
牆
片
版
牌
牙
牚
牛
牜
牟
牠
牡
牢
牧
物
牪
牯
牲
特
牻
牽
犀
犁
犛
犢
犧
犬
犭
犮
犯
状
狀
狂
狄
狊
狍
狐
狒
狗
狠
狡
狩
独
狸
狹
狺
狼
猋
猒
猖
猛
猜
猝
猩
猪
献
猴
猶
猷
猾
猿
獄
獅
獎
獐
獗
獠
獨
獲
獵
獸
獺
獻
獼
玄
率
玉
王
玎
玟
玨
玩
玫
现
玲
玻
珀
珊
珍
珎
珠
班
珮
現
球
琅
理
琉
琢
琥
琦
琪
琳
琴
瑄
瑋
瑕
瑙
瑚
瑜
瑞
瑟
瑣
瑤
瑩
瑪
瑯
瑰
璃
璉
璜
璞
璟
璦
璧
璫
環
瓊
瓏
瓜
瓢
瓣
瓦
瓶
瓷
甕
甘
甚
甜
生
產
産
甥
甦
用
甩
甫
甬
田
由
甲
申
电
甶
男
甸
甹
町
画
甾
畀
界
畏
畐
畔
留
畜
畝
畟
畢
略
畦
畧
畨
番
畫
畬
異
畱
當
畸
畺
畾
疆
疇
疊
疋
疌
疏
疑
疒
疔
疙
疚
疝
疣
疤
疥
疫
疬
疲
疳
疵
疸
疹
疼
疽
疾
病
症
痊
痍
痔
痕
痛
痞
痢
痣
痰
痴
痹
痺
瘀
瘋
瘍
瘓
瘙
瘟
瘠
瘡
瘤
瘦
瘧
瘰
瘴
癀
療
癌
癒
癜
癢
癤
癧
癩
癬
癮
癰
癱
癶
癸
癹
登
發
白
百
皀
皂
皃
的
皆
皇
皈
皋
皐
皕
皚
皮
皰
皷
皺
皿
盃
盆
盇
盈
益
盍
盎
监
盒
盔
盖
盛
盜
盞
盟
盡
監
盤
盧
盪
目
盯
盲
直
相
盹
盼
盾
省
眇
眉
看
県
眔
眞
真
眠
眨
眩
眶
眷
眺
眼
眾
着
睏
睘
睛
睜
睞
睡
督
睦
睪
睹
睿
瞎
瞏
瞢
瞥
瞪
瞬
瞭
瞰
瞳
瞼
瞿
矍
矗
矚
矛
矞
矢
矣
知
矦
矩
短
矮
矯
石
砂
砌
砍
研
砰
砲
破
砷
硝
硫
硬
碉
碌
碎
碑
碗
碟
碧
碩
碰
碳
確
碼
碾
磁
磅
磊
磚
磨
磯
磷
磺
礁
礎
礑
礙
礦
礫
礬
示
礻
礼
社
祀
祂
祆
祇
祈
祉
祐
祕
祖
祗
祛
祝
神
祟
祠
祢
祥
票
祭
祿
禀
禁
禍
福
禦
禧
禪
禮
禱
禸
禹
禺
离
禽
禾
禿
秀
私
秃
秉
秋
科
秒
秘
秝
租
秦
秧
秩
称
移
稀
稅
程
稍
稔
稚
稜
稟
稠
種
稱
稻
稽
稿
穀
穆
穌
積
穎
穗
穢
穩
穫
穴
究
穷
穹
空
穿
突
窄
窒
窖
窗
窟
窩
窪
窮
窺
竄
竊
立
竒
站
竜
竝
竟
章
童
竭
端
競
竹
竿
笆
笈
笑
笛
笠
符
笨
第
筆
等
筋
筍
筏
筐
筒
答
策
箕
算
管
箭
箱
箴
節
範
篇
築
篡
篤
篦
篩
篭
篷
簇
簍
簑
簡
簧
簷
簽
簾
簿
籃
籌
籍
籐
籠
籤
籬
籲
米
籽
粉
粒
粗
粘
粛
粟
粤
粥
粦
粱
粲
粵
粹
粼
粽
精
粿
糊
糕
糖
糙
糞
糟
糠
糧
糬
糯
糰
糸
糹
系
糾
紀
約
紅
紋
納
紐
純
紗
紙
級
紛
素
紡
索
紫
紮
累
細
紳
紵
紹
終
組
絆
結
絕
絜
絞
絡
給
絨
絫
絮
統
絲
綁
經
綜
綠
綢
綫
維
綱
網
綴
綸
綺
綻
綽
綾
綿
緊
緋
総
緑
緒
線
緝
緞
締
緣
編
緩
緬
緯
緱
練
緻
縄
縛
縣
縫
縮
縱
總
績
繁
繆
繇
織
繖
繞
繡
繩
繪
繫
繭
繳
繹
繼
繽
纂
續
纍
纏
纓
纖
纟
约
纳
经
结
给
继
续
维
缶
缸
缺
罐
网
罒
罔
罕
罗
罙
罠
罡
罢
罨
罩
罪
置
罰
署
罵
罷
罹
羅
羈
羊
羌
羍
美
羔
羕
羗
羚
羞
羡
羣
群
羨
義
羲
羶
羸
羹
羽
羿
翁
翅
翌
翎
翏
習
翔
翕
翟
翠
翡
翩
翰
翹
翻
翼
耀
老
耂
考
者
耆
而
耍
耎
耐
耑
耒
耕
耗
耘
耙
耳
耴
耶
耷
聂
聆
聊
职
聖
聘
聚
聞
聯
聰
聲
聳
聶
職
聽
聾
聿
肀
肃
肅
肆
肉
肋
肌
肖
肘
肙
肚
肛
肝
股
肢
肥
肩
肪
肯
育
肴
肺
胃
背
胎
胖
胚
胞
胡
胥
胱
胳
胸
胺
能
脂
脅
脆
脈
脊
脖
脛
脣
脩
脫
脱
脷
脹
脾
腋
腎
腐
腑
腓
腔
腕
腥
腦
腫
腮
腰
腱
腳
腸
腹
腺
腿
膀
膊
膏
膚
膛
膜
膝
膠
膨
膩
膳
膽
膾
膿
臀
臂
臉
臍
臘
臟
臣
臤
臥
臧
臨
自
臬
臭
臯
臱
至
致
臺
臼
臽
臾
臿
舀
舂
舄
舅
與
興
舉
舊
舌
舍
舐
舒
舔
舖
舛
舜
舞
舟
舢
舨
航
般
舰
舶
船
艇
艘
艙
艦
艮
良
艱
色
艷
艸
艹
艺
艾
芋
芎
芒
芔
芙
芝
芥
芫
芬
芭
芮
花
芳
芸
芹
芺
芻
芽
苓
苔
苗
苛
苞
苟
苡
苣
若
苦
苧
苯
英
苳
苴
苷
苺
茂
范
茄
茅
茉
茎
茜
茨
茫
茱
茲
茴
茵
茶
茸
茼
荀
荅
草
荊
荒
荔
荖
荣
荳
荷
荻
荼
荽
莆
莉
莊
莎
莓
莖
莘
莛
莠
莢
莧
莫
获
莽
莿
菀
菁
菅
菆
菇
菊
菌
菐
菖
菜
菝
菠
菩
華
菱
菲
菸
菹
萁
萃
萄
萊
萌
萍
萎
萧
萬
萱
萵
萸
萼
落
葆
葇
葉
葖
著
葚
葛
葡
董
葦
葫
葬
葯
葵
葶
蒂
蒐
蒙
蒜
蒞
蒦
蒲
蒴
蒸
蒺
蒼
蒿
蓁
蓄
蓆
蓇
蓉
蓋
蓑
蓖
蓬
蓮
蓺
蓼
蔑
蔓
蔔
蔗
蔘
蔚
蔡
蔣
蔥
蔬
蔭
蔯
蔻
蔽
蕁
蕃
蕉
蕊
蕗
蕘
蕙
蕨
蕩
蕪
蕭
蕺
蕾
薄
薇
薈
薊
薏
薑
薔
薛
薦
薩
薪
薯
薰
薺
薾
藉
藍
藏
藕
藜
藝
藤
藥
藪
藷
藻
藿
蘄
蘆
蘇
蘊
蘋
蘚
蘭
蘹
蘿
虍
虎
虐
虒
虔
處
虖
虗
虘
虚
虛
虜
虞
號
虧
虫
虹
虽
蚊
蚌
蚓
蚜
蚣
蚤
蚩
蚯
蚱
蚶
蚺
蛀
蛇
蛋
蛐
蛔
蛙
蛛
蛞
蛤
蛭
蛹
蛻
蛾
蜀
蜂
蜇
蜈
蜍
蜒
蜘
蜙
蜚
蜜
蜢
蜥
蜴
蜿
蝓
蝕
蝗
蝙
蝠
蝦
蝨
蝮
蝴
蝶
蝸
螂
螃
螄
融
螞
螢
螫
螯
螳
螺
螽
蟀
蟄
蟆
蟋
蟑
蟒
蟙
蟬
蟯
蟲
蟳
蟹
蟻
蟾
蠅
蠊
蠓
蠕
蠟
蠡
蠢
蠶
蠹
蠻
血
行
衍
術
街
衛
衝
衞
衡
衣
衤
表
衫
衮
衰
衷
衹
袁
袋
袍
袒
袖
袞
袪
被
袱
裁
裂
裏
裔
裕
裘
裙
補
裝
裡
裨
裳
裴
裸
裹
製
複
褐
褒
褪
褭
褱
褲
褶
襄
襖
襟
襯
襲
襾
西
覀
要
覃
覆
見
規
覓
視
覧
親
観
覺
覽
觀
见
角
解
觸
言
訁
訂
訇
計
訊
訌
討
訓
託
記
訛
訝
訟
訣
訥
訪
設
許
訴
診
註
詐
評
詛
詞
詠
詢
試
詩
詭
詮
話
該
詳
詹
詼
誇
誌
認
誓
誕
誘
語
誠
誡
誤
誦
誩
說
説
誰
課
誼
調
談
請
諒
論
諛
諜
諧
諮
諱
諷
諸
諺
諾
謀
謂
謊
謙
講
謝
謠
謬
謹
證
譏
識
譚
譜
警
譯
議
譴
護
譽
讀
變
讓
讚
讠
认
让
记
讲
许
词
诗
语
说
谟
谣
谦
谷
豁
豆
豈
豉
豊
豌
豎
豐
豔
豕
豖
豙
豚
象
豢
豦
豩
豪
豫
豬
豸
豹
貇
貌
貍
貓
貝
貞
貟
負
財
貢
貧
貨
販
貪
貫
責
貯
貳
貴
貶
買
貸
費
貼
貿
賀
賁
資
賈
賊
賏
賓
賔
賛
賜
賞
賡
賢
賣
賤
賦
質
賭
賴
賺
購
賽
贅
贈
贊
贏
贓
贖
贛
贝
贡
责
质
贯
贲
贵
费
赖
赞
赤
赦
赫
走
赴
起
趁
超
越
趕
趙
趟
趣
趨
足
趴
趾
跋
跌
跑
跖
跗
距
跟
跡
跨
跪
路
跳
跺
踏
踐
踞
踢
踩
蹄
蹇
蹈
蹟
蹤
蹲
蹶
蹺
躁
躋
躍
身
躬
躲
躺
軀
車
軋
軌
軍
軎
軒
軛
軟
転
軸
軼
軾
較
載
輔
輕
輛
輝
輦
輩
輪
輯
輸
輻
輾
輿
轄
轆
轉
轟
轤
车
辛
辜
辟
辣
辥
辦
辨
辭
辯
辰
辱
農
辵
辶
边
达
迄
迅
过
迎
近
返
这
进
连
迦
迪
迫
迭
述
迴
迷
迺
追
退
送
逃
逅
逆
逍
透
逐
途
逕
逗
這
通
逛
逝
逞
速
造
逢
連
逮
週
進
逸
逼
逾
遀
遂
遇
遊
運
遍
過
遐
道
達
違
遙
遛
遜
遞
遠
遣
適
遭
遮
遲
遴
遵
遶
遷
選
遺
遼
避
邀
邁
邂
邃
還
邇
邊
邏
邑
邕
那
邦
邨
邪
邱
邵
邸
郁
郊
郎
郡
郤
部
郭
郵
郷
都
鄂
鄉
鄒
鄧
鄭
鄰
酆
酉
酋
配
酒
酓
酗
酚
酢
酣
酥
酪
酬
酵
酶
酷
酸
醃
醇
醉
醋
醒
醛
醜
醣
醫
醬
釀
釆
采
釋
里
重
野
量
釐
金
釒
釘
針
釣
鈉
鈍
鈔
鈣
鈴
鈷
鈾
鉀
鉄
鉅
鉛
鉤
銀
銃
銅
銓
銘
銜
銳
銷
銹
銻
鋁
鋅
鋏
鋒
鋤
鋪
鋸
鋼
錀
錄
錐
錕
錘
錠
錢
錦
錩
錫
錮
錯
錳
錶
鍊
鍋
鍛
鍥
鍬
鍵
鍾
鎂
鎊
鎖
鎗
鎢
鎬
鎮
鏈
鏟
鏡
鏢
鏽
鐘
鐮
鐵
鐸
鐺
鑄
鑑
鑒
鑛
鑰
鑲
鑼
鑽
鑾
鑿
钅
针
長
镸
长
門
閃
閉
開
閏
閑
閒
間
閔
閘
閣
閩
閱
閵
閻
闆
闊
闌
闖
關
闢
门
间
闷
闻
阑
阜
阝
队
阡
阪
阮
阱
防
阻
阿
陀
陂
附
陋
陌
降
限
陛
陝
陡
院
陣
除
陪
陰
陳
陵
陶
陷
陸
陽
隅
隆
隊
隋
階
隔
隘
隙
際
障
隠
隡
隧
隨
險
隱
隶
隸
隹
隺
隻
隼
隽
难
雀
雁
雄
雅
集
雇
雈
雉
雋
雌
雍
雐
雔
雕
雖
雙
雚
雛
雜
雝
雞
離
難
雨
雩
雪
雯
雲
零
雷
電
需
霆
震
霍
霖
霜
霝
霞
霧
露
霸
霹
靂
靈
靑
青
靖
静
靚
靛
靜
非
靠
靡
面
靣
靨
革
靴
靶
靼
鞋
鞍
鞏
鞘
鞠
鞦
鞭
韃
韆
韋
韌
韓
韦
韭
韯
韱
音
韵
韶
韻
響
頁
頂
頃
項
順
須
頌
預
頑
頒
頓
頗
領
頜
頡
頤
頦
頭
頰
頷
頸
頹
頻
顆
題
額
顎
顏
顔
願
顛
類
顧
顫
顯
顱
顳
页
風
颱
颶
飄
飆
风
飛
飞
食
飠
飢
飪
飯
飲
飼
飽
飾
餅
養
餌
餐
餒
餓
餘
餚
餞
餡
館
餵
饅
饑
饒
饗
饣
首
馗
馘
香
馨
馬
馮
馱
馳
馴
駁
駐
駕
駛
駝
駦
駱
駿
騎
騙
騫
騮
騰
騷
騾
驅
驕
驗
驚
驟
驢
马
骨
骷
骸
骼
髏
髒
髓
體
高
髟
髦
髮
髻
鬆
鬍
鬚
鬣
鬥
鬧
鬮
鬯
鬱
鬲
鬼
魁
魂
魄
魅
魈
魏
魔
魚
魟
魨
魯
魴
鮑
鮪
鮭
鮮
鯉
鯊
鯨
鯪
鯰
鰍
鰓
鰗
鰡
鰭
鰻
鱈
鱉
鱗
鱧
鱷
鱼
鲁
鲜
鳥
鳩
鳯
鳳
鳴
鳶
鳽
鴉
鴛
鴞
鴣
鴦
鴨
鴰
鴻
鴿
鵑
鵜
鵝
鵟
鵡
鵪
鵬
鵰
鵲
鶉
鶴
鶺
鷓
鷗
鷚
鷥
鷲
鷴
鷹
鷺
鸓
鸚
鸛
鸞
鸟
鹵
鹹
鹼
鹽
鹿
麂
麃
麒
麓
麗
麝
麟
麥
麦
麴
麵
麻
麼
麽
黃
黄
黇
黍
黎
黏
黑
黒
默
黛
黜
黝
點
黨
黴
黹
黽
黾
鼎
鼓
鼠
鼬
鼯
鼴
鼷
鼻
鼾
齊
齋
齐
齒
齡
齦
齧
齶
齿
龍
龐
龙
龜
龟
龠
龰
龱
龴
龵
龶
龷
龸
龹
者
艹
︰
︱
﹐
﹗
﹙
﹚
﹝
﹞
﹪
！
＂
％
＇
（
）
＋
，
－
．
／
０
４
６
：
；
？
［
］
＿
ｍ
～
｣
𒀝
𒅗
🆗
𠀁
𠀃
𠀆
𠀉
𠀎
𠀐
𠁁
𠁣
𠂆
𠂇
𠂈
𠂉
𠂊
𠂋
𠂎
𠂒
𠂔
𠂛
𠂡
𠂢
𠂤
𠂬
𠂭
𠂹
𠃊
𠃋
𠃌
𠃍
𠃎
𠃑
𠃓
𠃔
𠃜
𠄌
𠄎
𠄠
𠄢
𠆢
𠆥
𠇍
𠈌
𠌵
𠓜
𠔉
𠔥
𠔼
𠔽
𠔿
𠕀
𠕁
𠕋
𠘧
𠘨
𠙻
𠙼
𠚏
𠚒
𠚤
𠚪
𠣏
𠤎
𠤕
𠥓
𠦄
𠦑
𠦝
𠧒
𠧗
𠧪
𠩺
𠪚
𠫓
𠫔
𠫤
𠬛
𠬝
𠬞
𠬢
𠬤
𠬶
𠮛
𠮦
𠮷
𠯑
𠱠
𠳮
𠷎
𡈼
𡉀
𡉵
𡌥
𡍮
𡏳
𡕒
𡕩
𡕰
𡖅
𡗗
𡗜
𡘆
𡘤
𡧱
𡨄
𡩧
𡬠
𡭽
𡰣
𡰥
𡰪
𡰯
𡰱
𡷈
𡸁
𡿨
𡿩
𡿪
𡿺
𢀖
𢀛
𢀩
𢁙
𢆉
𢆰
𢆶
𢇁
𢇇
𢉖
𢌬
𢌿
𢏚
𢑑
𢑚
𢖻
𢙣
𢛳
𢦏
𢦒
𢧵
𢼄
𢾕
𣁋
𣄼
𣅀
𣅽
𣍘
𣎳
𣎵
𣏋
𣏼
𣗥
𣥂
𣥖
𣦵
𣦼
𣧄
𣪊
𣪠
𣬉
𣳾
𣶒
𤇾
𤊽
𤐫
𤓰
𤔔
𤕨
𤣩
𤰇
𤰔
𤰞
𤴓
𤴔
𤽄
𥁑
𥁕
𥃦
𥃩
𥃭
𥇡
𥑟
𥘅
𥘈
𥝢
𥫗
𥱡
𦈢
𦉪
𦉬
𦉼
𦍌
𦍒
𦎧
𦐇
𦓔
𦔮
𦘒
𦙃
𦚏
𦣝
𦣞
𦣻
𦥑
𦥔
𦥯
𦨉
𦭝
𦰩
𧆞
𧈧
𧘇
𧰨
𧴪
𧴮
𧵩
𧾷
𨸏
𨾴
𩙿
𩠐
𩫏
𩵋
𪉷
𪜀
𪟽
𪠲
𪩲
𫇦
𫔭
𫜸
𫝀
𫠣
𫠩
𫢉
𫥞
𫩏
𫩠
𫪡
𫲽
𫶧
𬀷
𬐘
𬗌
𬙙
𬛸
𬜯
𬟩
𬯁
𬴘
𬺻
𬼉
𬼖
𭀰
𭁈
𭁨
𭅰
𭑈
𭕄
𭗼
𭤨
𭥫
𭻾
𮅕
𮊿
𮍌
𮍏
𮓗
𮥼
𮧮
廾
𰀁
𰀄
𰀈
𰀉
𰀕
𰀠
𰀡
𰀢
𰀪
𰁜
𰃮
𰆊
𰆘
𰋙
𰕎
𰢴
𰧭
𰯲
09--
13--
14--
17--
18--
76--
81--
87--
a--
aa--
ab--
abi--
abina--
abu--
ac--
aca--
ad--
ada--
ae--
af--
afg--
ah--
ahi--
ai--
aike--
ailu--
air--
ak--
aka--
akak--
aki--
al--
ala--
ale--
alek--
ali--
am--
ama--
ami--
amisa--
amu--
an--
ana--
ang--
ani--
anika--
anipa--
anipi--
anu--
ao--
apa--
apu--
ar--
ari--
artio--
as--
asa--
asi--
ast--
astrono--
at--
atatu--
ati--
ato--
au--
aw--
ay--
az--
b--
ba--
baba--
back--
bada--
bal--
bala--
bali--
balu--
ban--
bang--
bar--
bara--
bat--
bau--
baw--
bay--
bayu--
be--
bei--
ben--
ber--
bi--
bih--
bin--
binaw--
bir--
biya--
blech--
bo--
bol--
bom--
bor--
bot--
boud--
boy--
bra--
bram--
bre--
bri--
brit--
bro--
bru--
bu--
buk--
by--
c--
ca--
caay--
cal--
can--
cang--
car--
cater--
cau--
cay--
cayka--
ce--
cel--
cen--
cer--
ch--
cha--
ci--
cia--
cika--
ciluk--
cin--
ciu--
ciw--
cla--
co--
col--
com--
con--
cor--
crosso--
cryst--
cu--
cul--
cun--
cy--
d--
da--
dada--
dadi--
dan--
daw--
de--
den--
di--
dio--
dis--
divi--
do--
dome--
dr--
dra--
dre--
du--
duma--
e--
ec--
ed--
ef--
el--
en--
ep--
er--
es--
eu--
ex--
ey--
eyeb--
f--
fa--
fe--
fi--
flo--
fo--
fu--
fur--
g--
ga--
gar--
ge--
gi--
go--
gra--
gu--
gua--
gui--
h--
ha--
hai--
hali--
han--
har--
hara--
hay--
hayni--
he--
hei--
hel--
hi--
hina--
hk--
ho--
hor--
hu--
hua--
hun--
huy--
i--
id--
ida--
ika--
ila--
im--
in--
ina--
indepen--
indi--
ing--
ini--
inu--
is--
isa--
isu--
it--
ita--
itay--
ite--
iti--
iv--
j--
ja--
je--
jo--
ju--
k--
ka--
kaba--
kaca--
kad--
kah--
kai--
kaime--
kaka--
kake--
kaki--
kaku--
kal--
kala--
kale--
kali--
kalimu--
kalu--
kam--
kamu--
kan--
kanaw--
kang--
kapa--
kapi--
kasa--
kasasu--
kasi--
kasu--
kata--
kati--
kau--
kaw--
kay--
ke--
kele--
keleke--
ken--
ki--
kida--
kin--
kina--
king--
kna--
ko--
ku--
kube--
kuka--
kul--
kuma--
kumi--
kuna--
kuni--
kunipa--
kuo--
l--
la--
labu--
lala--
lale--
lali--
lan--
law--
le--
li--
libun--
lih--
like--
lima--
lin--
ling--
lip--
lis--
liu--
liw--
lo--
lu--
lul--
lun--
lutuk--
m--
ma--
maa--
maba--
mabu--
mabule--
mac--
maca--
mada--
madi--
mah--
mahka--
mahu--
mai--
maime--
maka--
makay--
make--
maki--
mal--
mala--
male--
mali--
malu--
mam--
mama--
mami--
man--
mana--
mapa--
mape--
mapu--
mar--
masa--
masang--
masase--
masasu--
masu--
mat--
mata--
mati--
matu--
mau--
maw--
may--
me--
mel--
mer--
mi--
mia--
miba--
mibaku--
mica--
mical--
mice--
micu--
mida--
midi--
midu--
mie--
miha--
mihe--
mihu--
mika--
miki--
mila--
mile--
mili--
mim--
min--
mipa--
mis--
misa--
misay--
mise--
misiw--
mita--
miy--
mk--
mo--
mol--
mon--
mora--
morr--
mu--
mue--
mul--
mula--
muli--
mum--
mun--
mupaw--
musa--
muta--
my--
myr--
n--
na--
naba--
nai--
naka--
nama--
namaka--
nami--
namu--
nan--
nani--
nanu--
nas--
nasa--
nasi--
nau--
naw--
nay--
ne--
ng--
nga--
ngan--
nge--
ngi--
ni--
nika--
nikale--
nikasa--
nikasi--
niki--
niku--
nina--
ning--
nipa--
nipi--
nis--
nisa--
nisi--
nita--
nite--
nitu--
no--
nor--
nu--
nuka--
numa--
numi--
o--
ob--
occurr--
ok--
olym--
on--
or--
org--
p--
pa--
pacu--
pada--
pah--
pahi--
pahud--
pai--
pak--
paka--
pal--
pala--
pale--
pali--
palu--
pan--
papa--
papi--
pas--
pasa--
pasi--
pasu--
pata--
pate--
pati--
pau--
paw--
pay--
pe--
pei--
per--
pi--
pida--
pili--
pin--
pina--
ping--
pisa--
pitu--
piw--
piy--
pla--
ple--
po--
pra--
pre--
pri--
pro--
protec--
pteri--
pu--
puhpu--
pul--
pulat--
puo--
pur--
py--
q--
qi--
qu--
que--
r--
ra--
rap--
ray--
re--
ree--
respub--
ri--
ro--
ru--
s--
sa--
saan--
saba--
sabe--
saca--
saci--
sadi--
sai--
saka--
sakaliy--
sakay--
saki--
saku--
sala--
sali--
sam--
san--
sana--
sang--
sapa--
sapi--
sapu--
sar--
sas--
sasa--
sasi--
sasu--
sasung--
sat--
sata--
sate--
sati--
satu--
sau--
saw--
sawan--
say--
se--
sen--
seq--
ser--
sey--
shi--
si--
sia--
sibu--
sida--
sie--
sii--
sika--
sikal--
sila--
silang--
sim--
sima--
sin--
sina--
sing--
sini--
sipa--
sipi--
sisa--
siti--
siu--
siw--
siwa--
sna--
so--
sour--
sp--
spe--
spi--
sq--
st--
star--
su--
sul--
sung--
suo--
swal--
t--
ta--
tada--
tade--
tadi--
tah--
tai--
taki--
tala--
tali--
tam--
tan--
tane--
tanu--
tapi--
tara--
tas--
tast--
tata--
tatu--
tau--
taw--
tawa--
tay--
te--
teba--
terr--
tes--
th--
thum--
ti--
tida--
tin--
tina--
tja--
tju--
to--
tom--
tour--
tra--
tu--
tua--
tui--
tula--
tuni--
tunu--
tw--
u--
ua--
uc--
ud--
uh--
uk--
uli--
un--
ung--
uni--
up--
ur--
usa--
usi--
ut--
uw--
uy--
v--
va--
ve--
ves--
vi--
vil--
vo--
vul--
w--
wa--
wale--
war--
we--
wei--
wi--
wil--
wu--
wy--
x--
xay--
xi--
xin--
ya--
yama--
yaw--
yay--
ye--
yi--
yin--
yo--
yu--
yue--
yun--
z--
za--
zay--
ze--
zen--
zh--
zi--
zu--
--0
--1
--2
--3
--30
--4
--5
--6
--7
--70
--8
--9
--a
--aan
--aay
--ab
--abang
--abibi
--ac
--aca
--acawa
--acay
--ad
--ada
--adah
--adavane
--aen
--afa
--ago
--ah
--ahan
--ahay
--ai
--ak
--aku
--al
--ala
--alen
--alian
--aliw
--am
--amin
--amuh
--an
--anay
--ang
--angan
--ans
--anum
--ao
--ap
--ar
--ars
--ary
--as
--asa
--asak
--asan
--asu
--at
--ation
--au
--aw
--awan
--away
--ax
--ay
--ayaw
--aylu
--az
--b
--ba
--bad
--bades
--bal
--bek
--belec
--beli
--belid
--bes
--bet
--bi
--biay
--bit
--ble
--bo
--bu
--buay
--bud
--buh
--c
--ca
--cabaay
--cabay
--cacay
--cad
--cal
--camul
--can
--capaay
--capuan
--caw
--cawaan
--cay
--ce
--cedaman
--cek
--cel
--cen
--cepcep
--cer
--ch
--ci
--cio
--ciw
--ck
--cky
--co
--craft
--cs
--ct
--ction
--cu
--cubelis
--cus
--cuyan
--cy
--d
--da
--daan
--dabuan
--dadum
--dae
--dah
--dahay
--dak
--dama
--dan
--das
--daw
--day
--de
--dek
--dem
--dep
--di
--dih
--dipaan
--dis
--diw
--diwan
--do
--dom
--dra
--ds
--du
--dud
--duh
--duhan
--duhay
--dum
--duy
--dy
--e
--ea
--eae
--ec
--ecad
--ecd
--eci
--ecuh
--ecus
--ed
--edap
--edeb
--edem
--eg
--egay
--eh
--ei
--ek
--eka
--ekec
--eku
--el
--ela
--elak
--elal
--elan
--elay
--ell
--elo
--elu
--em
--emu
--emuh
--emut
--en
--ena
--enahan
--enes
--eng
--engan
--engaw
--engil
--ensis
--ent
--ep
--er
--es
--ess
--est
--et
--etek
--etep
--ev
--ey
--ez
--f
--fa
--fu
--g
--ga
--gaay
--gal
--gan
--gay
--gayaw
--ge
--ged
--gel
--ght
--gi
--gna
--gnan
--go
--gs
--gu
--gul
--h
--ha
--hab
--hac
--had
--hal
--ham
--han
--haw
--hay
--hcaan
--he
--hem
--hen
--hi
--hica
--hida
--hini
--hiu
--hiw
--hkal
--hor
--hpuh
--htuh
--hu
--hua
--hud
--huy
--i
--ia
--ian
--iay
--ic
--ica
--icay
--ich
--id
--ida
--ie
--iel
--iga
--igo
--ih
--ik
--il
--ilaw
--ilid
--ima
--in
--ina
--ine
--ineng
--ing
--ingan
--ini
--ino
--ion
--ip
--ir
--is
--isay
--it
--itan
--itay
--iten
--ito
--iu
--ium
--iw
--iwngiw
--iy
--iyan
--iyazu
--j
--k
--ka
--kaay
--kac
--kad
--kah
--kak
--kaku
--kal
--kami
--kan
--kanay
--kapet
--kapu
--kapud
--kas
--kat
--kau
--kaw
--kay
--kayni
--kcik
--ke
--kec
--kecan
--ked
--kel
--kelec
--ken
--kes
--ket
--ki
--kid
--kilu
--kit
--kiw
--kiwan
--klak
--ko
--kpek
--ksak
--ktuk
--ku
--kud
--kudan
--kut
--kutay
--kuwit
--kuyt
--l
--la
--laay
--lac
--lacal
--lacan
--lacay
--lad
--ladlad
--lah
--lak
--laki
--lal
--lamel
--lan
--lar
--lasul
--lat
--latay
--lau
--law
--lay
--ld
--le
--lebu
--lec
--leca
--lecad
--leh
--lek
--lem
--len
--les
--lesi
--lhil
--li
--lia
--lic
--lid
--lidan
--lihud
--lil
--lima
--lin
--lina
--ling
--lis
--lit
--litin
--liw
--liwhan
--liyas
--liyud
--lk
--ll
--lla
--lls
--lly
--lm
--lo
--lon
--lor
--ls
--lsil
--lu
--lubu
--luc
--lucan
--lud
--luk
--lukan
--lul
--luma
--lun
--lup
--lus
--lut
--lutan
--luung
--ly
--m
--ma
--maan
--maay
--man
--mas
--may
--me
--mec
--med
--mel
--meni
--met
--mi
--min
--mlam
--msam
--mu
--mud
--muh
--mul
--muwan
--n
--na
--nac
--nam
--nan
--nas
--naw
--nay
--nca
--nd
--nda
--ndo
--ne
--nel
--nem
--nen
--ner
--nes
--ng
--nga
--ngaay
--ngad
--ngaliw
--ngan
--ngay
--ngen
--nggu
--ngi
--ngku
--ngu
--ni
--nida
--nie
--nng
--nny
--no
--ns
--nt
--ntu
--nu
--nuh
--num
--nus
--nut
--nutek
--nuy
--ny
--o
--od
--ods
--oh
--ol
--om
--ombo
--on
--ond
--ongay
--or
--os
--ot
--our
--ous
--ow
--p
--pa
--paay
--pah
--pal
--pan
--paq
--pauwang
--pay
--pe
--peci
--ped
--pen
--penec
--pes
--petan
--ph
--pi
--piay
--pin
--pina
--pis
--pit
--po
--pps
--pu
--puc
--pudan
--puk
--put
--pya
--q
--que
--r
--ra
--ras
--rd
--re
--rel
--rgh
--ri
--ridae
--rie
--ring
--rk
--rm
--rn
--ro
--rok
--rs
--rt
--rth
--ru
--ry
--s
--sa
--san
--satu
--saw
--say
--sbas
--sca
--se
--sedsed
--sek
--seneng
--setul
--sh
--shvili
--si
--sia
--simed
--simet
--singan
--sip
--sis
--siw
--sk
--sky
--sn
--so
--son
--ss
--st
--sta
--sto
--ston
--su
--sul
--sulit
--supet
--sur
--suy
--t
--ta
--tahab
--tahaw
--tal
--tan
--tawidan
--tawit
--tay
--te
--ted
--tek
--temec
--ter
--tes
--th
--thus
--ti
--tic
--tid
--tiden
--tik
--tin
--tinman
--tion
--tlat
--tlatan
--tlut
--to
--ton
--ts
--tt
--tta
--tu
--tuay
--tuk
--tukan
--tulu
--tung
--tusa
--ty
--u
--uan
--ucu
--ud
--uda
--udan
--uday
--udip
--ue
--ug
--uh
--ui
--uk
--uka
--ul
--uli
--um
--ums
--umu
--un
--uneng
--ung
--ungan
--up
--upu
--upuan
--ur
--us
--usay
--ut
--utan
--uu
--uy
--uz
--v
--va
--ve
--ver
--vi
--via
--vu
--w
--wa
--waay
--wad
--wan
--waw
--way
--wduk
--wen
--wi
--wid
--wilaw
--wit
--wlah
--wlaw
--wlawan
--wliw
--wn
--ws
--wsiw
--wu
--wyu
--x
--y
--ya
--yan
--yas
--yaw
--yaway
--yay
--yazu
--yd
--yda
--ydih
--ye
--yen
--yi
--yki
--ylay
--yli
--yu
--yud
--yun
--yza
--yzaan
--z
--za
--zi
--zih
--zip
--zo
--zu
--zuan
--zya
--ʉ
--د
--ن
