!
"
#
##0
##1
##10
##11
##12
##13
##14
##15
##16
##17
##18
##19
##2
##20
##21
##22
##23
##24
##25
##26
##27
##28
##29
##3
##30
##31
##32
##33
##34
##35
##36
##37
##38
##39
##4
##40
##41
##42
##43
##44
##45
##46
##47
##48
##49
##5
##50
##51
##52
##53
##54
##55
##56
##57
##58
##59
##6
##60
##61
##62
##63
##64
##65
##66
##67
##68
##69
##7
##70
##71
##72
##73
##74
##75
##76
##77
##78
##79
##8
##80
##81
##82
##83
##84
##85
##86
##87
##88
##89
##9
##90
##91
##92
##93
##94
##95
##96
##97
##98
##99
%
&
'
(
)
*
+
,
-
.
/
0
00
000
001
005
007
01
010
015
01753
02
020
021
03
033
036
04
05
06
07
071
08
088
09
1
10
100
1000
10000
1001
1008
101
1010
1011
1012
1014
1016
102
1020
103
1030
1037
1038
104
1040
1048
105
1050
106
1060
1061
1068
107
1070
108
1080
1086
1089
109
1090
11
110
1100
1101
111
1110
1111
1117
1118
1119
112
1120
1121
1124
1125
1126
113
1130
1134
1135
114
1140
1141
1147
115
1150
1156
1158
116
1160
1165
117
1170
1179
118
1180
1181
1184
119
1190
1191
12
120
1200
1201
1204
121
1210
1213
122
1220
123
1230
1231
1234
1235
1237
124
1240
1241
1242
1243
125
1250
1253
1254
126
1260
1261
127
1270
1275
1279
128
1280
1282
129
1290
1292
1294
13
130
1300
1303
1307
131
1310
1312
1313
1316
132
1320
133
1330
1331
1333
1339
134
1340
1345
1346
1347
1348
1349
135
1350
1352
1357
136
1360
1369
137
1370
1371
1373
1375
1378
138
1380
1381
1389
139
1390
1391
1397
1398
1399
14
140
1400
1403
1405
1406
1407
1409
141
1410
1414
142
1420
1421
1424
143
1430
1432
1437
1438
144
1440
1441
1442
1446
1447
1448
1449
145
1450
1451
1452
1453
1454
1455
1456
1457
1458
146
1460
1461
1462
1463
1465
1467
1469
147
1470
1471
1472
1473
1474
1475
1477
1478
1479
148
1480
1481
1483
1484
1487
1488
149
1490
1491
1492
1494
1495
1496
1497
1498
1499
15
150
1500
1501
1503
1504
1505
1506
1507
1509
151
1510
1511
1514
1517
1518
1519
152
1520
1521
1522
1523
1524
1525
1526
1527
1528
1529
153
1530
1531
1532
1533
1534
1535
1536
1537
1538
154
1540
1541
1542
1544
1545
1547
1548
1549
155
1550
1551
1552
1554
1556
1557
1558
1559
156
1560
1561
1564
1565
1567
1568
157
1570
1571
1573
1574
1575
1576
1577
1578
1579
158
1580
1581
1582
1583
1584
1585
1586
1587
159
1590
1591
1592
1595
1596
1597
1598
1599
16
160
1600
1601
1602
1603
1605
1607
1608
161
1610
1611
1612
1613
1614
1615
1616
1617
162
1620
1622
1624
1625
1626
1627
1628
1629
163
1630
1631
1632
1633
1634
1635
1636
1637
1638
1639
164
1640
1641
1642
1643
1644
1645
1646
1647
1648
1649
165
1650
1651
1652
1653
1654
1656
1659
166
1660
1661
1664
1667
1668
167
1670
1671
1672
1673
1675
1676
1677
1678
168
1680
1682
1684
1685
1686
1687
1688
169
1690
1692
1693
1694
1695
1696
1697
1699
17
170
1700
1701
1703
1704
1705
1707
171
1710
1711
1715
1716
1717
1718
1719
172
1720
1721
1723
1724
1725
1726
1727
1728
1729
173
1730
1731
1732
1733
1734
1735
1736
1737
1739
174
1740
1741
1743
1744
1745
1746
1747
1748
1749
175
1750
1751
1752
1753
1754
1755
1756
1757
1758
1759
176
1760
1761
1762
1763
1764
1765
1766
1767
1769
177
1770
1771
1772
1773
1774
1775
1776
1777
1778
1779
178
1780
1781
1782
1784
1785
1786
1787
1788
1789
179
1790
1791
1792
1793
1794
1795
1796
1797
1798
1799
18
180
1800
1801
1802
1803
1804
1805
1806
1807
1808
1809
181
1810
1811
1812
1813
1814
1815
1816
1817
1818
1819
182
1820
1821
182151
1822
1823
1824
1825
1826
1827
1828
1829
183
1830
1831
1832
1833
1834
1835
1836
1837
1838
1839
184
1840
1841
1842
1843
1844
1845
1846
1847
1848
1849
185
1850
1851
1852
1853
1854
1855
1856
1857
1858
1859
186
1860
1861
1862
1863
1864
1865
1866
1867
1868
1869
187
1870
1871
1872
1873
1874
1875
1876
1877
1878
1879
188
1880
1881
1882
1883
1884
1885
1886
1887
1888
1889
189
1890
1891
1892
1893
1894
1895
1896
1897
1898
1899
19
190
1900
1901
1902
1903
1904
1905
1906
1907
1908
1909
191
1910
1911
1912
1913
1914
1915
1916
1917
1918
1919
192
1920
1921
1922
1923
1924
1925
1926
1927
1928
1929
193
1930
1931
1932
1933
1934
1935
1936
1937
1938
1939
194
1940
1941
1942
1943
1944
1945
1946
1947
1948
1949
195
1950
1951
1952
1953
1954
1955
1956
1957
1958
1959
196
1960
1961
1962
1963
1964
1965
1966
1967
1968
1969
197
1970
1971
1972
1973
1974
1975
1976
1977
1978
1979
198
1980
1981
1982
1983
1984
1985
1986
1987
1988
1989
199
1990
1991
1992
1993
1994
1995
1996
1997
1998
1999
2
20
200
2000
2001
2002
2003
2004
2005
2006
2007
2008
2009
201
2010
2011
2012
2013
2014
2015
2016
2017
2018
2019
202
2020
2021
2022
2023
2024
2025
203
204
205
206
207
208
209
2097
21
210
211
212
213
214
215
216
217
218
219
22
220
221
222
223
224
225
226
227
228
229
23
230
231
232
233
234
235
236
237
238
239
24
240
241
242
243
244
245
246
247
248
249
25
250
251
252
253
254
255
256
257
258
259
26
260
261
262
263
264
265
266
267
268
269
27
270
271
272
273
274
275
276
277
278
279
28
280
281
282
283
284
285
286
287
288
289
29
290
291
2910
292
293
294
295
296
297
298
299
3
30
300
301
302
303
304
305
306
307
308
309
31
310
311
312
313
314
315
316
317
318
319
32
320
321
322
323
324
325
326
327
328
329
33
330
331
332
333
334
335
336
337
338
339
34
340
341
342
343
344
345
346
347
348
349
35
350
351
352
353
354
355
356
357
358
359
36
360
361
362
363
364
365
366
367
368
369
37
370
372
373
374
376
378
379
38
380
381
383
384
385
386
388
389
39
390
391
392
393
394
395
396
398
4
40
400
401
402
403
404
405
407
409
41
410
411
412
413
415
416
417
419
42
420
421
422
423
425
426
428
429
43
430
432
433
434
435
436
437
438
439
44
440
441
442
443
444
446
447
448
45
450
452
453
454
456
457
458
459
46
460
461
462
464
465
466
468
469
47
470
471
472
473
474
475
476
477
478
48
480
481
482
483
484
485
487
49
490
492
493
494
495
499
5
50
500
501
503
504
505
506
507
508
509
51
512
515
5150
516
517
518
519
52
520
521
522
523
524
526
528
529
53
530
531
532
535
536
538
539
54
540
541
544
545
546
548
55
550
552
559
56
560
561
563
564
565
566
5667
567
568
57
571
572
573
574
575
576
578
58
580
581
585
586
587
588
59
590
591
592
595
597
598
599
6
60
600
604
605
606
607
608
61
610
615
616
62
620
621
622
623
625
626
628
629
63
630
631
634
636
637
638
64
640
642
643
644
646
647
648
649
65
650
651
654
655
656
658
659
66
660
661
662
664
666
667
67
673
674
67439
675
676
677
68
680
681
684
685
686
687
688
689
69
690
692
695
697
698
699
7
70
700
701
707
708
71
710
711
713
715
716
717
718
719
72
720
722
723
724
725
726
727
73
730
731
732
733
734
735
736
737
738
74
740
742
743
745
746
747
749
75
750
751
752
753
754
755
756
757
758
759
76
760
761
762
763
764
765
766
767
768
769
77
770
771
772
773
774
775
776
777
778
78
780
781
783
784
785
786
787
788
789
79
790
791
792
793
794
795
796
797
8
80
800
801
802
803
804
805
806
807
808
809
81
810
811
812
813
814
815
816
817
818
819
82
820
821
822
823
824
825
826
827
828
829
83
830
831
832
833
834
835
836
837
838
839
84
840
841
842
843
844
845
846
847
848
849
85
850
851
852
853
854
855
856
857
858
859
86
860
861
862
863
864
865
866
867
868
869
87
870
871
872
873
874
875
876
876766
877
878
879
88
880
881
882
883
884
885
886
887
888
889
89
890
891
892
893
894
895
896
897
898
899
9
90
900
901
902
903
904
905
906
907
908
909
91
910
911
912
913
914
915
917
918
92
920
921
922
923
924
925
926
927
928
93
930
931
932
933
934
935
936
939
94
940
941
942
943
944
945
946
947
948
949
95
950
951
952
953
954
955
956
957
958
959
96
960
961
962
963
965
966
967
968
969
97
970
971
973
974
975
976
977
978
979
98
980
981
984
985
986
988
989
99
990
991
992
993
995
996
997
999
:
;
<
=
>
?
[
\
]
^
_
`
a
aaba
aadolf
aage
aageent
aaiba
aaigij
aaina
aaita
aaitij
aala
aaleeb
aalga
aalgij
aali
aalij
aalmug
aalmuga
aalmugeh
aalmugij
aalmugijkoska
aalmugjeessa
aalmugjiena
aalmugla
aalmuglii
aalmugmuusik
aalmugovda
aalmugpeivi
aalmugrekinistem
aalmugs
aalmugta
aalmugtiettuu
aalpa
aalpah
aalto
aaltonen
aamna
aamulehti
aanaar
aanaarja
aanaarjuuva
aanaarla
aanaarsa
aanoost
aapo
aaps
aarne
aarno
aaro
aaron
aas
aasa
aaseest
aasia
aasian
aasiast
aasij
aasijn
aassa
aassum
aatella
aatoom
aatoommassa
aatoomvyeimila
aavis
ab
abbondio
abc
abd
abdel
abdullah
abdulrazak
abdus
abe
abigail
abivua
abiy
about
abraham
abramov
abreu
abriola
abruzzo
abruzzost
absoluutla
abu
ac
acade
academia
academie
academy
accomplishments
acerenza
acero
aces
acqua
acqualagna
acquasanta
acquaviva
act
action
actress
ad
ada
adai
adam
adami
adams
adda
addaas
addams
addee
addeh
addel
addo
addoid
addoin
addonoomah
adela
adele
adeleh
adelem
adelij
adeliđ
adelum
adelung
adepero
adja
adjacenti
adler
admin
ado
adoh
adoi
adoiguin
adola
adolf
adolfo
adolph
adrian
advance
advanced
adventure
adventures
adverbialeh
af
affair
affinis
afi
africa
african
afrik
afrika
afrikan
afrikist
afrikla
after
ag
again
agatha
age
aged
agejeva
agency
agent
aggressiivla
agne
agreement
agri
agricola
agromyza
agromyzidae
agronom
agugliano
ah
ahasa
ahasiih
ahde
ahera
ahlstedt
ahmad
ahmed
ahnt
aho
ahola
ahti
ahtiala
ahtisaari
ahvenanmaan
ai
aicca
aiccum
aids
aijui
aika
aikakone
aikio
aila
aili
ailonieida
ailu
ain
aina
aini
aino
air
aira
airisto
aise
aita
aitta
aittui
ajostaipale
ak
akaa
akasaki
akatemia
akatemian
akatemikka
akershus
akira
aksel
aktiivla
aktivist
aku
al
ala
alabama
alabamast
alaha
alaja
alakyla
alan
aland
alapa
alaska
alaskast
alavieska
alavus
alba
albanese
albania
albano
albany
albert
alberto
album
albuma
albumeh
albumi
albumijn
albumist
alces
alda
aldasa
aldasijn
aldavuođa
alde
aldemus
alder
aldous
aldrin
ale
aleksander
aleksandra
aleksis
alemus
alemuu
alessandri
alessandria
aletta
alexander
alexandra
alexandre
alf
alfons
alfre
alfred
alfve
alga
alge
algeh
alger
algeria
algeriast
algii
alguu
alhoniemi
ali
alice
alien
aliens
alison
alive
alkaa
alkaalla
alkaalmetalleh
all
alla
allan
allee
allende
alley
alliance
allii
allotrooppisa
allston
allui
allum
alluu
alluuh
alma
almaa
almaah
almaas
almai
almaid
almajid
almajin
almanacco
alme
almeestoonnum
almeh
almena
almettemeh
almola
almolii
almolijd
almolijn
almolumos
almoon
almoot
almos
almosc
almostit
almostitij
almostitmeh
almostitta
almostittem
almostittii
almostittum
almostui
almostum
almostuva
almostuvvii
almosvalasta
almotta
almottij
almottiđ
almugijkoska
alne
alnees
aloda
aloduv
aloduva
aloduvva
alone
alosa
alpha
alpina
alta
altar
alter
alticola
altidona
altman
alto
alueittain
alvar
alyson
am
ama
amada
amadeus
amado
amanda
amandola
amano
amas
amazon
ambient
ame
amedeo
america
american
americana
amerik
amerika
amerikist
amerikla
amiga
ammad
ammannati
amministrative
ammoniak
amna
amnesty
amoc
amok
among
amor
amsterdam
amstrad
amy
an
ana
anadze
analyse
analyys
anara
anarist
anc
anchise
ancient
ancona
and
anders
andersen
anderson
andersson
andorra
andorrast
andre
andrea
andreas
andrew
andy
ane
aneh
anfisa
angel
angela
angeles
angelesa
angelesist
angeli
angelina
angell
angelo
angelou
angels
angola
aniarapriset
animaatiora
animaattor
animal
animals
animations
anja
anjala
ankiela
anla
ann
anna
annales
annals
anne
anneeđ
anni
annihilation
annika
anniversary
annou
annukka
anola
anon
another
ans
antbo
ante
antes
anthem
anthems
anthology
anthony
anti
antigua
antoine
antola
antologia
anton
antonio
antti
anttila
anttola
antwerp
antwerpen
anu
anyi
anza
anzi
ao
aotsuka
ap
apartheid
apecchio
apiro
apis
apisc
apismeera
apisra
apisrus
apisvia
apisvielga
apocalypse
apollo
appa
appennino
appignano
apple
appleton
apr
april
aps
apulia
apuliast
apus
aqui
aquila
aquitaine
ar
ara
arabeh
arabia
arabiakiela
arabian
arabij
araja
arap
aras
arcade
arcangelo
arcevia
archibald
architect
archive
archives
arctan
arctic
arcuata
are
area
areal
areena
arena
aretino
arevalo
arezzo
arga
argentiina
argentiinala
argentina
ariosto
arise
ariwara
arizona
arizonast
arja
arjel
arkanoid
arkansas
arkea
arkeolog
arkham
arkka
arkkiteht
arkkitehtuur
arkkitehtuurmuseo
arkta
arlima
armand
armas
armenia
armeniala
armeniast
armento
arms
armstrong
army
aropaltio
arp
arppe
arquata
arrhenius
arribalzaga
arrondissementa
art
arthur
artikka
artikla
artist
artisteh
arto
arts
artturi
arva
arveta
arvid
as
asa
asahi
asan
ascoli
ase
aseksuaalvuota
asema
ashes
ashikaga
ashkin
asia
asiatic
asikkala
asila
asiointi
aska
askainen
askaisii
askemc
askola
aslak
aso
assassin
assault
asseest
assii
assijn
association
astenosfa
asteroid
asteroidijd
asteroids
astrid
astro
astronaut
astronauteh
asukasluku
asukkaat
asutusalueva
at
atalanta
atari
ate
ateena
atella
athletics
ati
atlant
atlanta
atlantis
atomeh
atomic
atomijn
atomist
atp
atra
attack
atua
atwood
au
auditore
audrey
august
augusta
augusto
augustoni
aukusti
aulikki
aulis
aune
aura
aurora
aus
austen
austin
australia
australiala
australian
australiast
author
authors
auto
autonomisa
autumn
auvainen
av
ava
avante
avaskari
ave
avelist
avellino
avigliano
avni
avogadro
avram
avveel
avveeljuuha
avveeljuuva
avz
award
awarded
awards
away
awo
ax
axel
ayiti
azerbaidz
azerbaijan
azul
ađa
ađai
aŋŋel
aŋŋelist
b
ba
baaleet
baareencmeera
bab
babel
baby
bachelor
bachli
back
backa
backyard
bad
bader
baeyer
bafta
baggbo
bahama
bahng
baikalja
baily
baja
bajo
bakteereh
bakteriolog
baku
bal
balaton
balch
balhae
ball
baltia
baltimore
balto
balvano
balzac
band
bandai
bandera
bandicoot
bang
banjul
bank
bankhead
banks
banner
banzi
baptistpappa
bar
barack
baragiano
baranello
barbados
barbara
barberi
barbuda
bard
bari
barile
barne
baron
barruk
barry
bart
bartaite
bartens
bartolome
bartolomeo
base
baseball
basel
basilicata
basilicatast
basist
basketball
baskikiela
bass
bassey
basshunter
basso
bassokiitaar
basterds
basto
bat
batman
battista
battle
battlefield
battles
battlezone
bautista
bava
bay
bba
bbc
bbi
bbin
bbjemprojektta
bda
be
beach
beaivi
beaivva
beaska
beast
beat
beatles
beaty
beau
beautiful
beauty
beauvoir
beck
becker
beckett
bee
before
beginning
beh
beholder
beinasco
belew
belforte
belgia
belgiala
belgiast
belize
bell
bella
belle
belli
bellincioni
bellodagat
belmonte
beln
belo
belvedere
belyanina
ben
benedetto
benedict
benhama
benin
beninist
benjamin
bennington
berberkiela
bereiner
berg
bergen
berghamn
bergo
bergsland
bergson
berit
berkeley
berlin
berlinist
bermuda
bernard
bernardino
bernardo
bernhard
berowelf
bertel
bertha
berthier
bertil
berzelius
bessel
best
bethe
betschwanden
bette
better
betty
betula
between
beulah
beverly
beviacqua
beyond
bhutan
bi
biase
biathlon
bibliothek
bicolor
bidawid
biden
biferno
biffi
big
bih
bij
biladi
biles
bill
billie
billiongraves
billy
bilobata
bilten
binnig
biofysikka
biografia
biografiasampo
biografico
biografisk
biographical
biographie
biography
bioguide
biokemist
biolog
bird
birdlife
birds
biret
birger
birgitta
birra
birth
bis
bisaccia
biskopso
bissau
bisselliella
bit
bja
bjo
bjorlo
bl
bla
black
blackpink
blackstar
blade
blair
blanchard
blanchett
ble
bless
blessed
blessing
blica
blind
blitz
bloemfontein
blomstedt
blong
blood
bloomington
blovokiella
blows
blu
blue
blues
bly
bmagovat
bo
bob
bobble
boccaccio
bocer
bock
boda
bodom
body
bohart
bohr
boine
boinein
bojano
bolivia
bollstad
bologna
bolognola
bomb
bomber
bomberman
bond
bondi
bonefro
bonham
bonheur
bonnier
bonse
bonuspitta
book
books
bookshelf
boom
bordeaux
boreaallii
borealis
borg
borgby
borgo
boris
born
bosco
boseman
boston
botswana
botswanast
boucher
bowie
bowien
box
boxing
boy
boyer
bra
brad
bradley
brain
branting
branwell
brasil
brasilia
brasiliala
brasiliast
braunwald
brave
bravo
brazilian
break
breakout
breath
brecciaroli
bredvik
breed
bremen
brenda
brentano
brescia
brethes
brevicornis
briain
brian
bridge
bridges
bridget
brief
brienza
brill
brindisi
brinkley
brit
britain
britannia
britanniast
britannica
british
britney
britt
brittila
broadway
broken
brokopondo
bromarv
bronte
brooks
bros
brothers
brown
bruford
brunetti
brunila
bryan
bryggman
bryssel
bu
bubble
buck
bucks
budapest
budapestist
buddhala
budjet
budokai
buffy
bug
bugguide
buh
bui
build
buildings
bukowski
bulfinch
bulgaria
buljo
bull
bulletin
bundesamt
bunny
burdz
bureau
buren
burkina
burla
burma
burner
burning
burton
burundi
burundist
bush
business
busso
buster
but
butenandt
butler
butters
buzz
bw
by
byrne
bysant
bysantla
byzantine
c
ca
cada
caesar
cagli
cagliari
cagnola
caiano
calabria
calabriast
calcarius
calcio
caldarola
calidris
california
calitri
call
calling
calvello
calvera
cambridge
camerano
camerata
camerino
cameron
camillo
camilo
campania
campaniast
campi
campo
campobasso
campochiaro
campodipietra
campofilone
campolieto
campomaggiore
campomarino
camporotondo
camus
can
canada
canal
canaria
canarias
cancellara
cannes
cannon
cantagallo
canterbury
canth
canto
canyon
cao
caomha
cape
capital
capitani
capo
capra
captain
captive
car
carassai
caravelli
carbone
career
carey
caribbean
carl
carlemany
carlo
carlos
carlsen
carmignano
carnot
carol
carolina
carolinast
caroline
carolus
carovigno
carpegna
carpenter
cars
carter
cartoceto
cartoon
cartridge
casa
casacalenda
casalciprano
casale
casalini
casanova
case
casette
cash
casino
casle
castagna
castalda
castel
castelbellino
castelbottaccio
castelfidardo
castelgrande
castellana
castellano
castelleone
castelli
castellino
castello
castelluccio
castelmauro
castelmezzano
castelnuovo
castelplanio
castelraimondo
castelsantangelo
castelsaraceno
casti
castignano
castillo
castle
castles
castorano
castre
castronuovo
castropignano
cat
catalog
catalogue
catalogueoflife
catania
catanzaro
catch
cate
cathal
catherine
catholic
caulfield
cause
cavallo
cavendish
cc
cca
cceelodde
cceemuora
cceevuovdijn
cceevyevdistiela
cciđ
ccuh
cd
cdot
ce
cech
cecil
ceehi
ceelha
ceglie
ceinnselaig
cekkid
cela
celenza
celianet
celkkust
celkkuu
cellach
cellaigh
cellino
census
cent
center
central
centre
centrum
century
ceratophaga
ceratopogonidae
cercemaggiore
cercepiccola
ceremony
cerignone
cerodontha
cerqueto
cerreto
cersosimo
cesano
cesare
cese
cesena
cessapalombo
cfti
ch
cha
chadwick
chain
chalfie
challenge
chamberlain
champagne
champion
champions
championship
chandler
chandrasekhara
chanel
change
channel
chao
chaos
chaplin
chapter
charisma
charlemagne
charles
charlie
charlotte
charpentier
chase
chassagnard
chaudhuri
chauvin
che
chemist
chemistry
chen
cheng
chenvergleich
cherenkov
cherubini
chess
chester
chiaki
chiaravalle
chiarenti
chiaromonte
chicago
chienti
chiesanuova
child
children
chile
chilela
china
chirico
chironomidae
chironomus
chisu
chiwetel
choice
chons
chris
christian
christie
christmas
christoph
christopher
chronicle
chronicles
chronology
chu
chuck
ci
cia
ciel
cielo
cieux
cifre
cih
cikua
cimarosa
cina
cinerea
cingoli
cinque
cipa
cira
circ
cis
cisa
cissa
cisternino
cities
citta
city
citypopulation
civil
civilization
civitacampomarano
civitanova
civyeimila
ck
ckby
cladochaeta
claes
clara
clash
classic
claude
claudia
clav
cle
clemens
cleveland
climber
clinton
clock
close
cloud
club
cm
co
coast
coco
code
codename
coffee
cohen
coher
cokka
col
cold
coleman
colle
collecroce
collection
college
collegest
colli
collina
collins
colmurano
colonna
color
colorado
colossus
columbia
columbus
com
combat
combatte
come
comes
coming
command
commander
commewijne
committee
commodore
commons
commonsist
como
company
compendiose
complete
composer
computer
comunanza
comuni
comunidad
con
conca
concert
conchobar
concinna
conference
conflict
confusa
congress
connacht
connie
connor
conquer
conquest
conspiracy
constant
constantine
constitution
construction
conte
contents
conti
contra
contrada
contre
control
cook
cool
cooper
coppola
coquillett
corazo
cordell
core
coregonus
cori
corinaldo
coriolis
corleto
cornuta
cornwall
coronie
corpus
corrado
correia
corridonia
cortex
cos
cosenza
cosh
cosimo
cosmic
cossali
cossignano
costa
costantino
costanzo
coste
cot
cottone
council
countdown
counter
country
countryla
county
courage
court
courts
cranston
crash
crazy
creed
cremer
cremonese
cresson
cricket
crime
crimson
crisis
cristina
cristo
croce
cross
crown
crusade
crusader
cruz
cry
crystal
cs
csb
csc
cseremisz
cua
cui
cultural
culture
cumplir
cuobbuid
cuobbuuh
cuoco
cuoŋŋuu
cup
cupa
cupra
cupramontana
curie
curran
currie
curse
curtis
cut
cyber
cyrus
cz
czech
czerny
cœur
d
da
dae
dag
daga
dahlin
dahooni
dai
dairoku
dakar
dakota
dal
dale
dali
dalkarby
dallas
damna
dan
dana
dance
dangerous
daniel
dans
daphne
dark
darkness
darude
daryl
das
dash
dat
data
database
date
dati
dau
daughter
daughters
dave
david
davis
davout
davvi
dawes
dawn
day
days
dd
dda
ddejui
ddejuvvojii
ddi
ddila
ddin
ddja
ddu
dduluokkaast
dduluptiimist
dduvyeimi
de
dead
deadline
deadly
dean
dear
death
debenedetti
debout
debra
debrecen
december
deep
deer
defender
degerby
degli
deh
dei
deijee
del
delbru
delgado
delia
dell
della
dellala
delle
delmer
delta
deluxe
dem
demiseksuaalvuota
demja
demkua
demo
demografia
demokraatla
demokratia
demon
demoscope
demtiettuu
demulmeh
den
dendrocopos
denis
densetsu
dentata
departament
departamentos
departementa
departementeh
der
derblom
derby
derek
dern
des
descent
desert
desmond
destiny
desvoidy
det
detailed
dets
deus
deutsche
deux
developers
devil
dexter
deyu
dhe
di
diamond
diana
diane
diarmait
diarmata
diary
dich
dickinson
dictionary
did
die
diego
diels
dies
diesbach
dietrich
dieu
diftoŋeh
dig
digitaalla
digital
digitale
dignite
dii
dij
dijn
dijnis
dilophus
din
dinger
dio
dioksid
diop
dios
diplom
diplomaat
diploom
dipper
diptera
director
dis
discogs
discoveries
discworld
disgaea
diskografia
disney
displaystyle
dist
district
districten
disvuođa
disvuođah
diversity
dix
dizionario
dizzy
diđ
dj
dja
django
djibouti
dm
dma
dmist
dmitry
dna
dnipro
dnipropetrovsk
do
dogs
dohkka
doi
dokumentelleekovestivrejeijee
dolla
dollar
dollarid
domarby
domenico
domhnall
dominica
domna
domnaill
domnall
domov
don
donaci
donald
donato
donizetti
donn
donna
donnchad
doom
dooseent
doria
doris
dorothy
dorsalis
dory
dos
dou
double
doudna
douglas
down
downes
downie
dr
dra
dracula
dragon
dragons
dragsfja
drama
dramatic
dream
dreams
drew
dreyfus
drive
driver
drivin
droit
dronnet
drop
drosophilidae
ds
du
dua
dub
dublin
dublinist
duboh
duck
duckhouse
ducommun
duda
duel
dug
dui
duke
dukes
dum
dumas
dumos
dumoseh
duncan
dune
dungeon
dungeons
dunham
duo
duottar
durazzo
duret
duronia
dus
dusa
dusah
dusla
dust
dustin
dutch
duty
duv
duva
duvah
duvva
duzee
dvia
dvuota
dvuođa
dvuođah
dx
dyar
dynastia
dynasties
dynasty
dziedzicki
dziko
e
ea
each
eagle
eallin
eanan
earl
earliest
early
earth
east
eastern
easy
eaton
eaŋgalsgielas
eckero
ecko
eclipse
eclipses
eco
ed
eda
eddie
edeh
edeijee
edeijen
edelfelt
eden
edgar
edge
edij
edison
edition
editors
edizioni
ediđ
edo
eds
edu
eduard
educacio
education
edvard
edward
edwards
edwardsi
edwin
ee
eec
eeci
eed
eedeenna
eeh
eehid
eeji
eejis
eeki
eekikiela
eekist
eelih
eelij
eellim
eellima
eellimahe
eellimkerdi
eellimpiira
eellimpira
eellimpirra
eellimvua
eelliđ
eemiir
eemil
een
eena
eeni
eenih
eenikiela
eenikiella
eenis
eenna
eerda
eereeb
eerik
eero
eesti
eestieenna
eestiena
eestikiela
eestila
eeva
eevnijd
eevris
eeđa
effect
efter
eger
egidio
egri
egypt
egyptist
egyptla
eh
ehdokkaat
ehidist
ei
eidu
eidusa
eija
eijee
eila
eilish
ein
einar
einari
einer
eino
einstein
einsteina
einwohnerzahlen
eira
ejiofor
ekanga
ekelund
ekki
ekkila
ekkoslovakia
ekna
ekonoma
ekonomia
ekow
el
ela
elc
elder
ele
electro
electronic
elefantta
elegans
elektron
elektronisa
elektronkoora
elena
elenco
elephant
elgon
eli
elia
elias
eliel
elima
elimis
elimist
elin
elina
elinkeino
elinkeinon
elinor
eliot
elisabet
elisabeth
elite
elizabeth
eljas
ella
elle
ellee
elleeh
elleekooveest
elleekova
elleekove
elleekovefestivaal
elleekovefestivaalist
elleekoveh
elleekovejuuhlijn
elleekovekieta
elleekovepalha
elleekovepyevtitteijee
elleekovera
elleekoveroola
elleekovestivrejeijee
elleekovveed
elleekuuvij
elleekuuvijd
elleekuuvijn
elleesiilba
elleesilba
ellei
elleid
ellein
ellen
elli
ellii
ellis
ellos
elm
elna
elof
elorinne
elpidio
elsa
else
elsi
elvallenato
elvira
elvis
em
emanuel
emanuele
emil
emilia
emilio
emily
emkua
emma
emmanuelle
emmy
empereurs
emperor
empire
en
ena
enciclopedia
encounter
encyclopedia
encyclopædia
end
endangered
enderlein
enemy
energia
engi
engine
engineer
england
english
englund
enijnis
enke
enkyla
ennakkotiedot
ennals
ennen
ennenda
enni
ennikiella
ennuv
ennuvgin
eno
enoin
enonkoski
enpa
ensen
ensimma
entertainment
entre
enwald
ep
epic
epidemia
epimetalleh
epis
episcopia
epita
epivirga
epper
er
era
erchie
erda
erecta
eren
erenkov
eres
ereskiela
eresla
ereslasseen
eresna
eric
erich
ericsson
erik
erika
eritrea
erkasy
erkki
erlanger
erlingsson
ernest
ernihiv
ernivtsi
ernst
eroma
errih
ertpeleh
ertra
eruuđa
ervi
erwin
es
esa
esanatoglia
esc
escaldes
escape
esi
eska
esken
eskin
esko
eskola
espan
espanja
espanjakiela
espanjala
espanjan
espanjast
espanjataavda
espanjatavda
esperantokiela
espinosa
espoo
espoost
espronceda
esquivel
essays
esseec
esseid
essex
est
esta
estadi
estadistica
ester
esto
estonia
estonian
estudios
eswatini
et
ete
eteh
etela
etern
eterno
ethnologue
etima
etiopia
etnisa
etpeln
etpia
etta
etter
etymologia
eu
eucken
eugene
eura
euraasiast
eurajoki
euro
eurod
euroop
euroopa
euroopan
euroopist
euroopla
europa
europaea
europaeus
europe
european
euroviisuh
eurovision
eux
eva
evakkon
evans
evardnadze
eve
evelyn
even
evening
event
ever
everest
evert
every
everybody
everything
evetja
evija
evil
evo
evolution
evz
evđikaardijn
evđimuoca
ex
exechia
exile
exodus
expo
express
expression
exupe
eye
eyes
eyre
eyvind
ez
eŋga
eŋland
eŋlanda
eŋlandist
eŋlandla
eŋlandlii
f
fa
faalla
faarpa
fabio
fabri
fabriano
fabricius
fabrik
fabrizio
facebook
fact
factbook
facts
fagerholm
fagerholmille
fair
faith
fakten
falco
falcon
falconara
falerone
fall
falle
fallen
fallie
fallout
falls
fame
famen
family
famous
fan
fang
fanning
fanny
fano
fantastic
fantasy
far
fardella
fargga
farm
farsikiela
fartyal
fasano
fasciata
fashion
faso
fast
fasta
fate
father
fathers
fauna
faŋga
fe
fear
federico
federley
feeilah
feila
fele
felice
felix
feliz
fels
feltria
female
feminist
fenno
fennoskandia
fennoskandiast
feodoroff
ferdinand
fergola
ferm
fermana
fermignano
fermo
fermost
ferna
ferrarast
ferrazzano
ferro
ferry
ferttee
ferttejeh
ferttij
festiva
festivaal
festivaalist
festival
fi
fia
fiastra
fiastrone
fichte
fiction
fidz
field
fields
fifa
fight
fighter
fiijna
fiinaal
fiji
fikk
filantropist
filiano
filinkova
filipe
filippo
film
filma
filmpris
filolog
filosof
filosofia
filottrano
fils
filzbach
fin
final
finala
finalist
finby
fincke
find
fine
fini
finland
finlandia
finlands
finlex
finna
finnby
finnee
finnejeh
finnejii
finnii
finniis
finnij
finnijn
finnim
finnimna
finnish
finniđ
finnmark
finno
finnoda
finnoduv
finnoduva
finska
finstro
fiorentino
fire
firenze
firenzela
firenzest
firm
first
fischer
fish
fisher
fiska
fiskis
fiskisjyelgc
fiskispes
fittkau
fiuminata
five
fjodorovna
fla
flag
flagstaff
flaithbheartaigh
flame
flander
flava
flavia
flies
flight
flodoardus
flood
florence
florida
floyd
fluori
fly
flying
fmg
fo
fodder
fodiens
fofonoff
foggia
foglia
folignano
folk
fonda
fontana
fonte
food
fool
fooneetla
football
for
force
forcella
fore
forenza
forest
forever
forga
forgotten
formons
formula
forssa
fort
fortress
foschini
fossalto
fossato
fossombrone
foster
foundation
founding
four
fox
fr
fra
frac
franc
francavilla
france
frances
francesco
francis
francisco
franciscost
frank
frankenstein
frankivsk
frankkila
frankkilij
franklin
frans
franz
fratte
fre
fred
freddie
frederick
frederik
fredrik
free
freedom
freeman
freiheit
french
frentani
frente
frey
friedrich
friends
fripp
frippa
fritz
friuli
fro
from
fromme
front
frontier
frontino
frontone
frost
frullani
fs
ft
fu
fuerteventura
fujita
fujiwara
fukui
full
fun
fund
funk
funktio
funktioh
funktioi
funktionaalla
furious
fursta
fury
future
futuro
fx
fysikaalla
fysikka
fysiolog
fysiologia
fyysiik
fyysiikpalha
g
ga
gabicce
gaborone
gabriel
gabriela
gadoallin
gaetano
gagliole
gal
galactic
galaga
galaxy
galdo
gale
galilei
galileo
galkina
gallicchio
gamal
gambatesa
gambia
game
games
gamescom
gammelby
gammelga
gamsakhurdia
gao
garci
garden
gardner
garg
gargano
garrett
gary
gas
gate
gates
gauntlet
gaup
gauriloff
gazetteer
gbif
gdc
ge
gear
gears
gees
geh
gellar
gemeinde
gemini
gen
gene
genealogy
general
generalisierte
generation
genesis
genga
geni
genius
genoa
genus
genzano
geodeet
geoffrey
geographic
georg
george
georges
georgia
georgiakiela
georgiala
georgiast
gerald
gerd
german
gerrit
gerroos
gerty
gervasio
gesterby
get
geta
getting
gga
ggbo
ggi
ggin
ggna
ggoid
ghana
ghanala
ghanast
ghost
ghosts
gi
gia
giacomo
giambattista
gianni
gibb
giberto
gibraltar
gide
giella
giellagas
giga
gih
gijd
gilbert
gildone
giles
gillespie
gilvvu
gin
ginesio
ginestra
ginsburg
gioacchino
giordani
giorgi
giorgio
giovanni
girjec
girji
girjja
girl
girls
girolamo
gist
giuliano
giuliari
giuliast
giuseppe
giusto
give
gjellerup
gks
gladiaattorit
glam
glareola
glarnerland
glarus
glarusnord
glasgow
glenn
glo
global
globalis
globe
gloria
glorious
glory
glottolog
go
gobiernodecanarias
goblins
god
goddard
gods
godwin
goeppert
goes
goetghebuer
going
goku
golbma
gold
golden
golf
golmma
gomera
gomerast
gomero
gonagasviessu
gone
gonza
good
goose
gore
gott
gottlieb
gourrier
gov
gra
graafeen
graafiit
grace
gracilis
graciosa
gradara
gradu
grady
grafikka
graham
grahame
gramma
grammar
grammatik
grammatikk
grammy
gran
grand
grande
grant
grany
gravar
gravitaatio
gravity
grazie
great
greatest
greekkig
green
greene
greg
gregoriaanla
gregorio
gren
grenada
grenzen
grier
griffith
griffiths
grimaldi
grimano
grimm
grimshaw
grito
gro
groening
gros
groschke
gross
grottammare
grottazzolina
group
gru
grubbs
grumento
gsfc
gt
gu
gualdo
guan
guard
guardia
guardialfiera
guardian
guardiaregia
guatemala
guayana
gudneba
gudni
guerra
guglielmo
guglionesi
guha
gui
guide
guild
guillaume
guin
guinea
guitar
gukansho
gula
gulbme
guldal
gulo
gummerus
gun
gunnar
gunnarsby
guo
guovdageaidnu
gupta
gurnah
gus
gusenleitner
guskirje
gust
gustaf
gustafsson
gustav
gutsy
guttorm
guy
guyana
guðnado
gyo
gærja
h
ha
haaja
haakon
haalda
haalijd
haamij
haamijd
haamma
haapaja
haapakoski
haapala
haapalahti
haapama
haapaniemi
haapasaari
haapasalo
haapavesi
haapi
haapist
haarla
haaroinen
haavemaasta
haavij
haavisto
hackman
hadde
haga
haijainen
haikola
hail
hailuoto
haines
haiti
haja
hakkarainen
hakola
hakula
halda
haldane
half
halida
haliday
halijda
halijdeh
halijdic
halijdii
halijdij
halikko
halkivaha
hall
halla
halldo
hallett
hallinto
hallitus
halloween
hallvard
halo
halola
halonen
halsua
halvt
hama
hambur
hameenlinna
hamilton
hamina
hammarland
hammarskjo
hammer
hammim
hampshire
hamsun
hamula
han
hand
hanhija
hank
hankala
hankama
hankasalmi
hanko
hanna
hannah
hannele
hannes
hannigan
hannu
hannula
hans
happi
happijn
happy
har
hara
harald
hard
hardy
harhala
harjavalta
harju
harkova
harold
harri
harrier
harris
harrison
harry
harstad
hartikkala
hartman
hartola
harvard
harvey
harvii
has
hasegawa
haskell
haslen
haslumseter
hassan
hasta
hatchett
hate
hattula
hauho
haukivuori
haukka
haunting
hausja
haute
havaiji
havdaja
have
havel
haver
haveri
hawaii
hawk
hawke
hay
hc
hde
hden
he
head
heads
heart
hearts
heat
heaven
heavy
heck
hedy
heeger
heenna
heervah
heeđa
hege
hegel
hehren
hehtaar
heidi
heights
heike
heikel
heikka
heikki
heikkila
heikkinen
heikkola
heina
heini
heinola
heinrich
heisenberg
heivejeh
heiviitta
heiviittuu
helander
helen
helena
helene
heleomyzidae
heli
helium
heliumist
hell
hella
helle
hello
helmet
helmi
help
helsig
helsigist
helsingfors
helsingin
helsinki
hem
hemingway
hemsworth
hena
hendel
henderson
henkilo
henna
henning
henri
henrik
henry
hepburn
hepojoki
her
herbert
here
heretic
heribert
hering
heritage
herman
hermann
hermosa
hero
heroes
herra
herrala
hershko
herttua
herttuala
hertz
herva
hess
hesse
het
heva
hevva
hexen
heydər
heyrovsky
heyse
heđa
hha
hhojeh
hhoo
hi
hia
hideki
hieronymus
hierro
hietaja
hietala
high
highway
hiisi
hiittinen
hiittisii
hijos
hilda
hildur
hilfsdatei
hilgo
hill
hiller
hills
him
himalaja
himanka
himno
hincmar
hintsala
hippoboscidae
hirma
hirvasvuopio
hirvenoja
hirvensalmi
hirvija
hirvijoki
hirvikoski
hirvisaari
hirvonen
his
hispida
historia
historiaa
historian
historical
historja
historjistee
history
hit
hita
hits
hivatal
hiđes
hja
hjalmar
hjua
hka
hke
hkeh
hki
hkisua
hko
hkodde
hkoddeest
hkua
hl
hla
hlberg
hle
hlehorn
hlodda
hlodde
hnjaarga
hnjarga
hnuba
ho
hobbit
hoch
hockey
hogan
hoitta
hold
holland
hollandkiela
hollandla
hollola
hollywood
hollywoodist
holm
holma
holmberg
holmgren
holmoos
holopainen
holy
home
homeland
homer
homme
honduras
hong
hongisto
honkajoki
honkala
honkola
honor
honore
honorius
hood
hooteel
hoovda
hope
hopper
horror
horse
horta
hot
hotel
hotellist
houma
hour
hours
house
houssay
houtskari
hovda
how
howard
howe
hoyle
hoŋkoŋ
hria
hriehti
hs
hskia
ht
hta
hte
htee
hten
hti
htih
htim
htimist
htimta
htiriddo
htirido
htis
htiđ
html
htojeh
htojii
htoo
htta
httnam
htto
http
https
htu
htua
htui
htula
htum
htume
htun
htus
htusa
htusah
htusist
htussa
htuva
htuvvee
hu
hua
huang
hudson
hughes
hugo
huhtaa
huhti
hui
huilo
huittinen
huksejui
huksejum
huksiitta
huksim
huksimmia
huksiđ
hull
hulta
human
humans
hume
humppila
hun
hundred
hungary
hunky
hunt
hunter
huntington
huola
huovinen
hurec
hus
huseh
husist
hust
hutton
huttula
huttunen
huutka
huxley
hva
hvem
hvi
hybrideh
hyelkki
hyenes
hyeni
hymns
hyo
hypotenuusa
hyrkka
hyrkko
hyrko
hyrynsalmi
hyto
hyttila
hyva
hyvinka
hyyryla
hætta
hđula
hđulii
i
ia
ian
iar
iba
ibbeerd
iberdiđ
ibn
iboo
ibrahim
ibuma
ibəy
ic
iccu
ice
ich
ichiro
id
ida
idaho
idda
identiteet
identliih
idis
idiskuin
idja
idstro
idu
idudum
idyt
ie
ieee
ielga
ielgee
ielgejum
ielgi
ielgiitta
ielgimielga
ielgita
iep
iev
ieva
ievra
iez
if
iga
ige
igec
igga
iggy
igi
igih
igiha
igijn
igikooska
igilovo
igimuddo
igin
igipaje
igis
igist
ignacy
igor
igu
iguh
igui
iguin
igus
igusa
igutta
ih
iha
ihalainen
ihamaniemi
ihe
ihec
ihelove
iheluuvij
iheluuvijn
ihepele
ihes
ihetuhha
ihheed
ihi
ihih
ihist
ihistis
ihli
ihlikia
iho
ihui
ii
iida
iii
iija
iilva
iira
iisakki
iisalmi
iitia
iitti
iivga
iivgah
iivij
iivijd
iivijn
iivne
iivnijd
iiđa
iiđeed
iiŋa
ij
ija
ijahis
ijd
ijge
ijih
ijihja
ijihjoorŋa
ijihkeđgi
ijihpoolva
ijihsua
ijja
ijministerio
ijn
ijojii
ijoo
iju
ijuv
ijuvva
ika
ikaalinen
ikiirjijd
ikirja
ikirje
ikirjec
ikka
ikkala
ikki
ikkieenna
ikkikua
ikkilodde
ikkinoomah
ikkisa
ikkisiijđoh
ikkitia
ikkivua
ikola
il
ila
ild
ile
iliih
ilij
ilijn
ilizwe
iljoost
illativ
illinois
illohas
illusions
illustrato
ilmajoki
ilmar
ilmari
ilmarinen
ilmio
ilmmi
ilo
ilola
ilomantsi
ilta
iltalehti
ilu
iluh
ilui
ilum
iluttiđ
im
ima
imabayashi
image
imaginenative
imatra
imc
imdb
imee
imet
imih
imilito
imilittoost
imisa
imma
immeel
immeelpalva
imperial
imperium
impossible
imslp
imu
imuh
imukeerdi
imukeerdist
imukerdi
imukia
imun
imus
imusfysikka
imusist
imust
imuteeda
imuvuoimij
in
ina
inari
inarija
inarilappisches
inarin
inarinsaamen
inarinsaamenkielinen
inc
incana
incredible
index
india
indiala
indian
indiana
indianapolis
indiast
indigenous
individual
indoeurooplij
indonesia
industrial
ine
inen
inferiore
info
informant
information
inga
inger
inglourious
ingv
ini
inij
inio
inis
inistii
iniđ
inkeri
inkila
inkoo
inmortal
innig
innsbruck
ino
inojeh
inojeijee
inoo
inoos
inoue
insanity
insee
inside
insner
inspiraatio
institut
institute
instituto
instituut
int
intelligence
intensiteet
interactive
intermedia
international
internet
into
inu
inuh
inuid
inula
inusist
inust
invaders
invasion
inventions
inventor
io
ioneh
ioni
ios
ipa
ipad
ipe
iphone
ippa
ippolito
ir
ira
irak
iran
iranist
iranla
ire
ireland
iren
irish
irja
irland
irlandist
irlandla
iron
irree
irres
irwin
is
isa
isaac
isak
isamu
isauro
isbn
isca
isen
iset
isfi
ishar
ishida
iskyla
islam
islamic
islamla
island
islandist
islandkiela
islandla
islands
islas
isle
iso
isoja
isojoki
isokyla
isokyro
isola
isole
isotoop
isotoopeh
israel
israelist
israella
iss
issa
issn
ist
ista
istac
istanbulist
istat
isten
isyys
it
ita
italia
italiakiela
italiala
italian
italiana
italiani
italiast
iti
itis
itkonen
its
itta
ittee
itteemuin
itteemus
itteemuuh
itteht
itti
ittis
ittiđ
ittu
ittus
ittuseh
itu
itula
ituliih
itus
iua
iucn
iucnredlist
iv
iva
ivan
ivano
ive
ivea
iveaigijd
ivema
ivga
ivi
ivic
ivihua
ivij
ivikaavpug
ivikaavpugeh
ivikaavpugist
ivikaavpugkua
ivild
ivildum
ivilist
iviminister
iviministerin
ivipersovn
ivira
ivirava
iviroola
ivist
ivitoima
ivna
ivne
ivneh
ivnera
ivu
ivui
ivula
ivum
ivuma
ivummooduul
ivuđ
ivva
ivveest
ivyeijee
ivyeijen
ix
iz
izzo
iđ
iđedist
iđi
iđu
iđuh
iđui
iđuid
iđuin
iđukovesa
iđula
iđun
iđust
iđđa
iŋga
iŋŋa
j
ja
jaakko
jaakkola
jaama
jaamij
jaamijn
jaan
jaapaan
jaapaankiela
jaapaanla
jaatila
jaavrij
jaavrijn
jabir
jack
jackie
jackson
jacob
jacobi
jacobsen
jacques
jaga
jagi
jah
jakkula
jalasja
jalkala
jalvi
jamaica
jamaikala
james
jammii
jan
janakkala
janas
jane
janne
jannok
jansson
january
japan
japanese
japanist
japon
jari
jaroslav
jarviwiki
jatkaa
javelin
javier
jaws
jayavarman
jazyk
jazz
jazzmusikka
jdbo
je
jea
jean
jeannie
jeegih
jeegij
jeegijn
jeesio
jeessa
jeesus
jeff
jefferson
jeggijuuŋa
jeggilua
jeggis
jeh
jeijee
jeijei
jelsi
jemen
jennifer
jens
jensen
jeppis
jero
jersey
jerusalem
jesa
jesi
jesist
jesse
jet
jezek
jeđe
ji
jia
jiec
jiega
jieija
jiejah
jiella
jiem
jiena
jienah
jienat
jienna
jienniis
jies
jieta
jieŋa
jii
jim
jimmy
jin
jinno
jis
jist
jj
jna
jo
joan
joatka
joavku
joba
jobs
jobson
joddbo
jodi
jodie
joe
joenpera
joensuu
johan
johann
johanna
johannes
johannsen
johansen
johansson
johka
john
johnny
johnskareng
johnson
johtti
joid
join
joka
jokela
joki
jokikyla
jokin
jokioinen
jokist
jolie
joliot
jomala
jomo
jon
jonas
jonassen
jones
jong
joni
jonsahpeivi
jooska
joođeet
joođhij
joođoost
jora
jordan
jordania
joreh
joreha
jorga
jorgaluvvo
jorge
jorma
joroinen
jorree
jose
josef
joseph
josh
joshkar
joska
jota
joteh
jotela
jotelis
jotelubbooht
jotka
jotkui
jotkum
jotoenergia
jotola
joton
jotta
jottee
jotteeđ
joule
joulu
jouni
journal
journalists
journey
jouste
joutsa
joutseno
jovnna
joy
joyce
joyeux
jođa
jođes
jođetta
jođetteijee
jođetteijeevuota
jođetteijen
jođettem
jođettij
jp
jr
js
ju
jua
juan
juauto
juc
juda
juh
juha
juhani
juhle
juho
jui
juin
jukka
jukola
julga
julia
juliaanla
julie
juliet
julius
julkaisuarkisto
julum
july
jum
jumhu
jun
juna
jung
jungen
jungle
junna
junnin
juo
juohhui
juohhum
juoiga
juolgij
juolgijn
juova
juovij
juovla
juovlah
jupiter
jurassic
jurba
jurda
jurduu
jurg
jurga
jurmo
jursseeh
jurssei
jursseid
jurva
jurvala
jus
jussi
just
justice
justin
jutila
juuha
juuka
juulevsa
juupajoki
juurda
juuriist
juurra
juuso
juuva
juuvah
juuvda
juuđij
juuŋa
juva
juvduujuuva
juvela
juvelius
juvola
juŋŋa
jyehi
jyehila
jyehim
jyehiđ
jyeigee
jyelgi
jyelgia
jyelgih
jyelgipa
jyelgisuorma
jyelgivieva
jyemeha
jylha
jyva
k
ka
kaajaan
kaalekiela
kaama
kaanda
kaanij
kaaraat
kaardijn
kaarela
kaari
kaarina
kaarle
kaarlela
kaarlo
kaarret
kaarta
kaartinen
kaasu
kaasuh
kaasun
kaateet
kaava
kaavi
kaavna
kaavpa
kaavpug
kaavpuga
kaavpugeh
kaavpughovda
kaavpugijn
kaavpugist
kaavpugkirjera
kaavpugkua
kaavpugpirra
kaavpugta
kaavpugua
kaavpugvuoiga
kabusa
kac
kafka
kah
kahl
kai
kaija
kaikkien
kainu
kainuu
kaipiala
kairamo
kairinen
kairo
kaisa
kaisu
kaitainen
kaivola
kaja
kajala
kajsa
kal
kala
kalajoki
kale
kaledonia
kalela
kalender
kalenderist
kaleva
kalevala
kalevi
kalga
kalgeh
kalibusiswe
kalifornia
kalifornian
kaliforniast
kalium
kallas
kalle
kallela
kalliala
kallio
kalmar
kalsium
kaltenbach
kaltila
kalvola
kamaskiela
kambodz
kamerlingh
kampanja
kan
kanada
kanadala
kanadast
kanala
kanariasuolluid
kanariasuolluin
kanata
kanava
kanavilla
kanda
kandidaatin
kang
kangas
kangasala
kangaskyla
kangasniemi
kani
kankaanpa
kankainen
kankare
kannat
kannonkoski
kannus
kansa
kansainva
kansallisbiografia
kansalliskirjaston
kansallispa
kansas
kansja
kansler
kanssa
kanta
kantala
kantola
kantonist
kap
kapell
kapkaavpug
kaplinski
kappeer
kappel
kapteenstaata
kapybara
kar
karasjok
karate
karby
karel
karen
karhi
karhula
kari
karibiameera
karibiast
karijoki
karin
karis
karisto
karjaa
karjaan
karjala
karjalainen
karjalohja
karkkila
karl
karlfeldt
karman
karo
karrieer
karrieeris
karrieerist
karstula
kart
kartta
karttapaikka
karttii
karttula
karuna
karunki
karvala
karvia
karvila
kas
kaskinen
kaskisto
kaskoo
kaspiameera
kasseet
katalaankiela
kataloniala
katalyytin
katariina
katarina
kate
kategoriast
katharine
kathleen
kati
katja
katolila
katolilii
katri
kattelus
kauhajoki
kauhava
kaukola
kaul
kauniainen
kauniaisii
kaunis
kaunissaari
kaunokirjallisuuden
kauppila
kaupungeista
kaupunki
kaustinen
kaustisii
kautokeino
kavna
kavnui
kavnum
kavnuu
kavpa
kavra
kawai
kaye
kazakstan
kazan
kde
ke
kea
kec
keec
keeja
keejih
keejij
keejist
keep
keerdi
keesi
keesist
keessiv
keeva
keevtij
keez
keeđgij
keeđhi
keeđhih
keeđhist
kehitys
keiha
keina
keitele
keith
keja
kejeijee
kejij
kekkonen
keksi
keksim
kela
keljo
kelly
keluja
kemia
kemialla
kemiapalha
kemiast
kemijoki
kemio
kemist
kempele
kemppila
kenia
keniala
keniast
kenichi
keniga
kennedy
kenny
kenraal
kent
kentucky
kenya
kenyatta
kepileh
keppisub
ker
kera
kerava
kerdi
kerdid
kerima
keriniemi
kerkkola
kernell
kerris
kerry
kersilo
kertesz
kerttu
kes
kesa
kesi
kesima
kesiolympiala
kesiolympialijn
kesipa
keski
keskikyla
keskitalo
ketki
ketkid
ketola
kettu
kettula
kettunen
keuruu
keva
kevtis
kevttee
kevtteeh
kevttih
kevttii
kevttim
kevttima
kevttimist
kevttimohta
kevttiđ
kevttui
kevttum
keyl
keyritty
keys
kezis
keđgi
keđgia
keđgira
kg
khalid
khmerij
khomjuk
ki
kia
kibaki
kick
kid
kida
kidda
kiddejum
kiddiiva
kiddoduv
kidman
kids
kiedist
kieffer
kieima
kiel
kiela
kielah
kielda
kieldah
kieldimverba
kieldum
kielen
kieli
kielioppi
kiella
kielten
kiema
kiera
kierga
kierinki
kieta
kieva
kievhis
kievra
kieđa
kieŋa
kieŋŋa
kihheen
kihnio
kii
kiiala
kiiha
kiikala
kiikoinen
kiila
kiilu
kiina
kiinakiela
kiinala
kiinast
kiinii
kiinni
kiirdij
kiirja
kiirjij
kiirjijd
kiirjijn
kiis
kiiskila
kiitaar
kiivsa
kiiđa
kiknadze
kikuchi
kikujukiela
kila
kiljander
kill
killa
killer
killing
kilomeetter
kilomeetterid
kilometres
kilpi
kilpia
kiluku
kilusa
kiluvun
kim
kin
kina
kincaid
kind
king
kingdom
kingdoms
kings
kinney
kinnula
kinnunen
kinshasa
kintaus
kiova
kipa
kipling
kiprianoff
kirby
kirda
kirdee
kirdeh
kirdeleh
kirdem
kirdemeh
kirdemjiena
kirdemkieddi
kirdemma
kirdemmooduul
kirden
kirdes
kirdeđ
kirgisia
kirgisiala
kirho
kirhoost
kiri
kiribati
kirja
kirjailija
kirjala
kirjallisuuden
kirjallisuuspalkinnon
kirjallisuuspalkinto
kirjasampo
kirjasto
kirjastot
kirjayhtyma
kirje
kirjec
kirjed
kirjeest
kirjeh
kirjekiela
kirjera
kirjestis
kirjeta
kirke
kirkka
kirkko
kirkkonummi
kirkonkyla
kirovohrad
kirsi
kirste
kirsti
kirstila
kis
kisa
kiskirja
kisko
kisra
kiss
kissa
kist
kisto
kit
kita
kitarist
kitee
kiteest
kitta
kitti
kittila
kitts
kitula
kiuru
kiurula
kiuruvesi
kivi
kivija
kiviniemi
kivisto
kiđa
kiđđa
kiđđuv
kj
kja
kjell
kjellberg
kka
kki
kkila
kkim
kkimist
kkipa
kkipaaihijn
kkojeh
kkoo
kku
kkyla
kla
klamydia
klassikko
klassikla
klassisa
klaus
klemet
klemetsby
kloori
klug
km
kna
knaapila
knab
knight
knights
kning
know
knoxville
knut
ko
koarrdo
kobayashi
kobdeeb
kobdoda
kobe
koc
kocca
kodda
kodde
koddeest
koddetiettee
koddeđ
kode
koija
koikkala
koirama
koivisto
koivistost
koivuja
koivula
koivulahti
koivuma
koivuniemi
koivusaari
kojola
kokema
kokkila
kokkola
kokkolain
kokkolan
kokkolast
kokoomus
kolari
kolba
kole
kolga
kolgos
koljola
kolkko
kolle
kollehovi
kollekiela
kollemiitaal
kollemitalid
kolliista
kolma
kolme
koltan
koltta
kolumbia
kolumbiala
kom
kombat
komedia
komendeijee
komi
komikiela
komikka
komipermjakkiela
komissio
komitea
kommunism
kommunvis
komovuota
komovuođa
komyo
kon
kondom
kone
konferens
konferensist
kong
konginkangas
kongo
kongres
konnevesi
konrad
konsert
konserteh
konsertist
konsol
konsoleh
konsonant
konsonanteh
konsonantid
konsonantij
konstantin
konstantinopol
konstantinos
kontiolahti
kooc
kooda
koolba
koolga
koolma
koora
kooska
kooskah
koovla
koozah
kopsala
kora
korea
koreala
koreograf
korhola
korhonen
korneliussen
koronapandemia
koronaviruspandemia
korpela
korpi
korpija
korpikyla
korpilahti
korppoo
korpus
korra
korsna
kortesja
kortta
korvenkyla
kos
kosini
koska
koskela
koskenkyla
koskenpa
koski
koskimies
koskinen
koskoho
koskokko
kosmonaut
kosola
kosovo
kossa
kost
kosterlitz
kostylev
kote
kotila
kotka
kotobank
koulu
koumm
kouvola
kovala
kovalentla
kove
koveh
kovero
kovetaaida
koveverree
kovla
kovliitta
kovlim
kovoseh
kovvee
kovvejeh
kovvejeijee
kovvejum
kozza
kozzsa
kođa
kođo
koŋruens
koŋruist
koŋruistiđ
kra
kreatiivla
kreikakiela
kreikka
kreikkala
kreiva
krek
kristalra
kristian
kristiinankaupunki
kristin
kristina
kristine
kritikka
kroatia
kroatiala
kroto
kruunupyy
ks
ksa
ksh
ksja
ksma
kstro
kte
ku
kua
kubda
kubduuh
kubduv
kuddum
kuggbo
kuha
kuhebeh
kuheh
kuhemus
kuhes
kuhesa
kuheskirkko
kuhha
kuhheeb
kuhlefelt
kuhmalahti
kuhmo
kuhmoinen
kuhmoisii
kuhmunen
kuin
kuipers
kuitta
kuivalahti
kuivanen
kuivaniemi
kuka
kukin
kukka
kukke
kukkee
kukko
kukkoda
kukkoduva
kukkoduvah
kukkola
kukkosa
kukkosiih
kukola
kula
kulda
kuleh
kulen
kulga
kulij
kulju
kulla
kullee
kullii
kulloo
kullui
kulma
kulme
kulmii
kulo
kulostui
kultaranta
kultturist
kulttuur
kulttuura
kulttuurijn
kulttuurist
kulttuurkua
kulttuurla
kulttuurpalha
kulttuurrutta
kuma
kume
kumlinge
kumppi
kun
kuna
kunna
kunnas
kunneepalha
kunneetua
kunnen
kunnija
kunnittain
kuoba
kuobba
kuobz
kuoca
kuohtii
kuohtuid
kuohtuuh
kuoimijn
kuokkala
kuolba
kuolga
kuolij
kuolijd
kuollut
kuona
kuopio
kuopion
kuoppala
kuorevesi
kuorga
kuorgah
kuorsa
kuortane
kuos
kuosa
kuoska
kuottii
kuova
kuovda
kuovga
kuovgis
kuovgisra
kuovgisrus
kuovska
kuovđa
kuođij
kurala
kurhila
kurikka
kurina
kurittula
kuriyama
kurkela
kurki
kurri
kurt
kuru
kuruc
kurzenko
kus
kustaa
kustannus
kustavi
kutta
kuttila
kuttoor
kuuba
kuudij
kuula
kuulas
kuulla
kuulma
kuuloold
kuumpih
kuursa
kuus
kuusa
kuusi
kuusja
kuusjoki
kuuslahti
kuuva
kuuvijd
kuuvl
kuuvse
kuuđa
kuuđđa
kuva
kuverno
kuvvij
kuvvim
kuvviđ
kuwait
kuz
kuđa
kvarnbo
kvarnby
kveenikiela
kvinnor
kwa
kya
kyehti
kyehtlov
kyele
kyeleh
kyeli
kyelic
kyelija
kyelis
kyelisieidi
kyeskee
kyeteh
kyetih
kyevti
kyevtikiela
kyevtiloho
kyevtilovo
kyevtis
kyevtkia
kyevtkiela
kyeđđiđ
kyla
kyle
kylien
kylma
kymileevi
kyo
kypros
kyrkoby
kyro
kyto
kytta
kyyja
kyyna
l
la
laaha
laahkon
laahul
laaija
laaja
laajah
laajis
laakkola
laakso
laaksonen
laapi
laapist
laas
laasa
laasola
laava
laavla
labba
labbna
labour
laby
lackschewitz
lady
laffoon
lagerlo
lagga
lago
lagonegro
lagopus
lah
laha
lahdenkyla
lahdenpera
lahkin
lahko
lahkon
lahnaja
lahta
lahtem
lahtemist
lahti
lahtojeijee
lahtojii
lahttosearvvit
laigosa
laihia
laila
laino
lair
laiti
laitiala
laitila
laitinen
laja
laji
lajitietokeskus
lake
laki
lakkala
lam
lama
lamarr
lamas
lamb
lammi
lamminkyla
land
landau
lander
landist
landrock
lands
landsgemeinde
landskommun
lane
lang
language
languages
lanie
lankila
lanne
lanttispeela
lanttispella
lanzarote
laos
lapedona
lapin
lapinja
lapinkyla
lapinlahti
lapland
lappa
lappaja
lappalaisten
lappbo
lappee
lappeenranta
lappetela
lappfors
lappi
lappisk
lappo
lappui
lappum
lapua
lapva
lara
largest
larino
larks
larry
lars
larsen
larsson
las
lasa
lasana
lasanem
lasanema
lasanii
lasaniđ
lase
lasetteh
lasettiđ
lasettui
laskenta
laskija
laskuaan
lassaan
lasse
lasseen
lassila
last
lasten
lastovka
lati
latiano
latium
latiumist
latronico
latvia
latviakiela
latviast
laukaa
laukka
laukkala
laukola
laula
laulujen
laura
laurence
laurent
laurenzana
lauri
lauria
laurikkala
lavda
lavello
lavlui
lavluid
lavluin
lavlust
lavluu
lavluuh
lavola
law
lawrence
lax
laxness
lazio
lbi
lby
lc
ld
lda
ldee
ldeeh
ldeh
ldein
lderlin
ldi
ldidii
ldidij
ldidiđ
ldikoda
ldikodde
ldikode
ldikomettem
ldim
ldimamna
ldimeera
ldin
ldipaje
ldis
ldist
lditij
lditta
ldiđ
ldman
ldo
ldojii
ldoo
ldu
ldua
lduartikka
ldui
lduin
ldukirjera
ldukonttur
ldumaađij
ldusa
ldust
ldustiivra
ldustiivrah
lduv
lduva
lduvah
lduvva
le
lea
leading
league
lean
leat
leavgabeaivvit
leavgga
lecce
lecco
lee
leeibi
leena
leesmi
leevi
leevist
leevva
leeđga
left
legacy
legal
legend
legends
legion
legnano
lego
leh
leha
lehma
lehmann
lehnwo
lehti
lehtima
lehtinen
lehtola
lehtolainen
lehtorin
lehtovaara
lei
leia
leibi
leif
leigh
leijee
leijeeh
leijei
leijen
leinia
leinster
leisure
leivonma
lekka
lekkui
leksikon
leloir
lem
lemi
lemin
lemkua
lemlahti
lemland
lemlitto
lemmee
lemmeejuuva
lemmettyla
lemming
lemmings
lempa
lempia
lempoinen
lemu
lena
lene
leningrad
lenita
lennon
leo
leon
leonard
leonardo
leone
leopold
leppa
leptochilus
lepus
les
leskela
lesotho
leste
lester
lestija
let
lethal
letters
leucophenga
leuggelbach
leva
levantarabia
level
levene
levi
levin
lewis
lexica
lexikon
leymah
lez
lezimbabwe
leđe
leđga
lfəz
lga
lgih
lgim
lgiroola
lgis
lgislia
lgispeln
lgiđ
lgu
lgus
lha
lhis
lhismeera
lhuh
lhus
li
lia
libby
libe
liberal
liberia
liberiala
liberiast
liberta
libertad
liberte
liberty
library
libre
libya
lic
lid
lido
lie
liechtenstein
liechtensteinist
liega
liegga
lieggee
lieksa
lieksast
lies
liesja
lieto
liettua
liettuakiela
liettuala
lievla
lieđđee
life
lig
light
liguriast
lih
liha
lii
liiga
liigata
liih
liiha
liijka
liikola
liina
liipu
liipust
liisa
liist
liiston
liitto
liivikiela
lij
lijd
lijjii
lijjim
lijkkoo
lijkkui
lijkkum
lijn
like
likyla
lil
liljeqvist
lill
lille
lilley
lillian
lima
limba
lime
liminka
limist
limited
limits
limosano
lin
lincoln
linda
lindberg
linde
lindelo
lindgren
lindner
lindqvist
lindstro
line
linguistic
linguistics
lingvist
linja
linkola
linna
linnaeus
linnea
linnut
linthal
lintuatlas
lintujen
lintuopas
liolgos
lion
liperi
lipia
lippu
lippukode
lippus
liputtempeeivih
liputtempeivi
liputtempeivid
liriomyza
lis
lisa
lisagay
lisbeth
list
lista
listed
listee
listeh
listei
listem
listii
listij
listijn
listiđ
listo
listoin
listokia
listoost
literature
lito
litte
litteraturpris
little
litto
littota
liu
liv
live
liverpool
lives
livgejeijee
livgim
livgimist
living
livingstone
livkka
livorno
livvtij
livvtijn
livđe
liđ
lja
ljee
ljejii
ljejui
ljejum
ljejuvvojeh
ljis
lka
lkas
lkia
lkila
lkka
lkkas
lkkee
lkkeht
lkku
ll
lla
llby
lle
lled
llee
lleeh
llei
lleid
llein
llen
ller
llest
lli
llii
llim
lliv
lliđ
llningen
llo
llojeh
llojii
lloo
lloyd
llu
llud
llui
llum
llun
lluspellee
llv
llvik
lm
lma
lmc
lmeh
lmejeijee
lmi
lmijd
lmijn
lmin
lmiseeksist
lmiseksi
lmist
lmos
lmumos
ln
lo
lodda
lodde
loddeest
loddes
lode
lodeh
loew
log
loh
loha
lohheeh
lohilahti
lohja
lohjast
loho
lohosa
lohrmann
lohta
lohtaja
lohtui
lohtum
loimaa
loimaast
lojes
loka
lokativ
lokka
lombardiast
lomby
london
long
lonlas
lonotteijen
lontoo
lontoon
lontoost
loopa
loopah
loosta
loostah
loovda
lopa
loppa
loppi
lord
lordi
lords
lore
lorenz
lorenza
lorenzo
lorenzoni
loreto
loro
lortzing
los
lost
losta
lota
lothar
lotta
lotus
lou
louis
louisiana
louisianast
lounge
lov
lova
love
loviha
loviisa
lovisa
lovna
lovnim
lovo
lovoin
lovva
lovvoost
low
loxia
lp
lpa
lppa
ls
lsa
lsbo
lsiih
lskua
lta
lto
ltoidee
ltooima
ltta
lttinalliisvuota
lttisyeini
lu
lua
lub
luboh
luc
luca
lucania
lucano
lucas
lucchese
luchsingen
lucia
lucien
lucito
lucky
lucy
ludovico
ludvig
ludwig
lue
luettelo
lugano
luh
luhanka
luhostui
luhostum
luhostuva
luhottesvuođa
luhtees
lui
luic
luigi
luikua
luin
luis
luistaata
lukaasuh
luke
lukkari
lukua
lula
lule
lulesamisk
lum
lumiaro
lumijoki
lumikivi
lumos
lumoseh
lumosijn
lumparland
lun
lunano
lunar
lund
lundstrom
lundui
lunkielda
luo
luoda
luodda
luohta
luoka
luokatta
luokitta
luoma
luonnonsuojeluliitto
luonnosta
luonto
luontoportti
luoppa
luos
luosa
luosah
luoto
luova
luovta
luovva
luođa
lupara
lupita
lus
lusa
lusah
lusis
luskulij
lussa
lust
lusteh
luther
luudij
luudijd
luudijn
luuha
luuja
luukas
luuma
luuva
luv
luva
luvah
luvaton
luveh
luvia
luxemburg
luz
lv
lva
lvi
lvia
lviolympialijn
lvipeeivijorga
lvisua
lviv
lvui
lvuota
lvuođa
ly
lydia
lyeddejeijee
lyeme
lyes
lyevdi
lyeve
lynch
lynx
lyseo
lyseost
lyytika
lyytikka
lyytinen
lz
m
ma
maa
maaca
maada
maailm
maailma
maailman
maailmist
maailmsua
maailmuba
maailmvijđosa
maaina
maajeeb
maajeeld
maalahti
maanmittauslaitos
maanpa
maaret
maaria
maarianhamina
maarit
maas
maasa
maassa
maatij
maađhijd
maađij
maaŋga
maaŋgah
mac
maca
macbook
macbride
macca
macchia
macdiarmid
macerata
machiavelli
machine
machines
macintosh
mackay
mackerras
mackinnon
macquart
mad
madagaskar
madame
madduuh
made
madisen
madison
madness
madonna
maestre
mafalda
magareh
magarijd
magazine
magdalena
magga
maggaar
maggie
maggiore
magic
magical
magliano
magna
magneetla
magnus
magyar
mahan
mahlu
maht
mai
maid
maiden
maidnii
maigh
maija
maijanen
maiju
maikkala
mail
main
maina
maine
mainste
maiolati
mais
maisterin
majander
majebaarga
majebarga
majemui
majemus
majemuu
majemuuh
majemuz
major
makarchenko
make
makedonia
maker
makes
making
makkola
makoto
maksamaa
malala
malawi
male
malesia
mali
malli
mallin
malloch
malm
malmo
malta
maltakiela
maltignano
malvaldi
man
mana
manager
manchester
mandela
mane
maneh
manemus
mania
mannee
manneed
mannekiin
mannerheim
mannila
manninen
mannu
mano
manor
mans
mansell
mansfield
manual
manuel
manzanera
map
mar
maratea
marble
marc
marcello
march
marche
marchese
marchest
marchons
marco
marconi
marcy
mare
mareca
maren
maresca
margareeta
margaret
margareta
marge
margot
mari
maria
mariah
mariam
marianne
maric
marie
marielle
marija
marikiela
marilyn
marin
marina
marino
marinost
mario
marion
marisha
marit
marita
marittima
marja
marjatta
marjo
marjoniemi
marjorie
mark
markin
markka
markku
marko
markus
marlene
marokko
marokkost
marowijne
marry
mars
marshall
marsico
marsicovetere
marti
martin
martina
martinez
martini
martinkyla
martino
martinus
martta
martti
marttila
marvel
mary
maryam
maryland
marzotto
mas
masa
masaba
maschito
maschwitz
mase
mask
maskawa
masku
maskulainen
mason
mass
massa
massaast
massachusetts
massachusettsist
massana
masseria
massignano
massimo
mast
mastelotto
master
masters
matate
match
matelica
matematiik
matematikka
matenano
materiaal
matese
mathbf
maths
matikkala
matile
matrice
matrix
matsa
matsumura
matt
mattbo
matti
mattila
mattis
mattus
maud
maudist
mauno
maunula
mauri
maurice
maurier
mauritania
mauritaniast
mauritius
max
maxis
may
maya
mayer
maze
mazzoleni
mađha
maŋa
maŋaluva
maŋela
maŋga
maŋgii
maŋŋeed
mc
mcalpine
mcatee
mccafferty
mccarthy
mcdonald
mcevey
mcintosh
mcmillan
mcnab
mcqueen
me
mea
mecci
meccihalda
meccika
meccikaavra
meccikavra
meccikua
meccitua
med
medal
medda
medeiros
media
medici
medicine
medieval
meeci
meecijn
meecist
meekaanla
meen
meendu
meenkoski
meenkyla
meenkyro
meenlinna
meera
meerha
meerhah
meeri
meerrid
meet
meetaal
meetaalla
meetter
meetterid
mega
megami
megielat
megillii
meh
meid
meiddei
meidgin
meier
meigen
meijere
meiji
meillon
meinikkala
mekaniik
meksiko
meksikola
meksikost
mel
melander
melanie
melfi
melga
mellila
mellin
mellotron
melocchi
meltola
melvin
member
memoirs
memphis
men
mena
mendelejev
mendelssohn
menesja
menis
mera
mercalli
mercatello
mercatino
mercedes
mercia
mercury
mere
mereh
mergo
merha
meri
merida
meridii
meridij
meridiđ
meridui
meridum
merija
merikarvia
merimasku
meriwiki
merja
merkka
merkkejeh
merkkejum
merkkiđ
merkurius
mervi
mesagne
meskala
mesosfa
messapica
messina
messinast
mesta
met
metacritic
metal
metalleh
metauro
mether
metres
metro
metropolkua
metsa
metso
metsola
metta
mette
mettum
meunier
mexicano
mexico
mg
mgin
mi
mia
miarkka
micah
michael
michailova
michel
michele
michelle
michigan
micissa
mick
mickey
microsoft
middle
mideijee
midnight
mie
miehikka
miela
mield
mieldi
mielga
mielhi
mielkki
miemola
mieskee
miesta
miestui
mieta
mietipia
mietta
miettila
mieđa
mieđeet
mieđetta
mieđettij
mieđettui
mieđettuvvoo
mig
might
mighty
miguel
mih
mihe
mihheen
mii
miia
miid
miika
miin
miina
miinii
miinuut
miitaal
miiŋki
miiŋkijd
mij
mija
mijd
mijn
mijnejeijeekia
mika
mikael
mike
mikey
mikheil
mikiel
mikiela
mikielah
mikirjera
mikka
mikkel
mikkeli
mikkelin
mikkelsen
mikko
mikkola
mikua
mikulttuur
mil
mila
milano
mile
miljard
miljovn
mille
millennium
miller
millions
milne
milton
mima
mimis
mimuseo
mimuusik
min
mina
minamoto
mind
mine
miner
minister
ministerin
ministerio
minna
minne
minnesota
minor
minuorah
minuorra
minutissimus
minuttid
minutus
mioppuu
mir
mira
mirabello
miracles
miranda
mirha
mirkka
mirror
mirzakhani
mis
miservi
misk
miskolc
misoster
miss
missanello
missile
mission
mississippi
missouri
mist
mit
mita
mitalid
mitalijd
miten
mitige
mitigge
mitiggeaaira
mitiggeaira
mitiggeest
mitiggepresident
mitlo
mitta
mittedum
mitto
mive
mixed
miŋkki
mja
mjiena
mjo
mjua
mjuuva
mk
mkirje
mkis
mkodde
mkoddeest
mkoddekua
mkode
mkodeh
mkomissio
mkooda
mkoora
mkua
mkuddijd
mkuudijn
ml
mla
mlb
mliha
mlii
mliih
mlopa
mlungu
mm
mma
mmaterial
mmejeh
mmejum
mmer
mmid
mmil
mmila
mmileh
mmilii
mmiliih
mmilij
mmilijd
mmilijn
mmim
mmimalmotta
mmittedemla
mmkar
mmol
mmum
mmuđ
mna
mnja
mo
modena
modern
mods
mogliano
moh
mohamud
moi
moid
moiguin
moin
moires
moisio
mojgorod
mol
mola
moldova
mole
molekyylbiolog
molina
molino
molise
moliterno
mollis
molsoi
molsođ
mombaroccio
mommola
mon
mona
monacilioni
monaco
monarkia
mondavio
mondiet
mondolfo
money
mongolia
monika
monkey
monnii
monnim
monnja
monod
monogatari
monola
monopis
monopoly
monroe
monsampietro
monsampolo
monsano
monster
monsters
mont
montagano
montagna
montagnier
montale
montalto
montana
montanast
montappone
monte
montecalvo
montecarotto
montecassiano
montecilfone
montecopiolo
montecosaro
montedinove
montefalcone
montefano
montefelcino
montefiore
montefortino
montegallo
montegiardino
montegiorgio
montegranaro
montelabbate
monteleone
montelongo
montelparo
montelupone
montemarciano
montemilone
montemonaco
montemurlo
montemurro
montenegro
montenero
monteprandone
monterubbiano
montgomery
montola
montorio
montottone
montre
monty
monza
mooduul
moon
moona
moonijd
moonna
moore
moos
moottorkia
more
morelli
moresco
morey
morfologisii
morgan
morhe
morhedui
moria
morico
morir
moritz
morning
morottaja
morrison
morro
morrone
morrovalle
morse
mort
mortal
morte
mortensson
mosambik
moscow
moshnikoff
moskova
moskovast
mosquitoes
moss
most
motacilla
mother
motion
motoma
motomeh
motomij
motomijd
motomijn
motomin
motoyoshi
mottoom
mottoomla
mottoomverd
moturoa
moubayed
mouhija
mount
mountain
mountains
mountbatten
mourir
mouse
movement
moves
movie
movies
mozart
mpa
mpajanem
mpeeivi
mpeivi
mpeivin
mpia
mr
mra
mrađemooduul
mrs
ms
msa
msaje
msajeh
msoojijn
mspella
msx
mtiettui
mtieđa
mtooima
mtua
mtv
mtvuutiset
mu
mua
muc
muccia
muddoost
muddusja
mudoi
muh
muhammad
muhos
mui
muid
muikku
muin
muir
muiredach
muita
mukaan
mukirho
mukirhoost
mukirkko
muldesa
mulholland
mulkoila
mulsa
multia
mumensta
mumenva
mun
munch
mundo
mungu
munnje
munster
muolda
muonio
muora
muorah
muorjij
muorjijd
muorjijn
muosah
muota
muottust
muottuu
muratov
murchad
murchada
murder
murmansk
muro
murray
murto
mus
musah
museo
museoh
museoin
museokoorta
museokortta
museokortti
museost
museot
museum
music
musihkain
musiikkipalkinto
musikka
musikkpris
muslimla
must
musta
mustasaari
mustasaarin
mustela
mustila
mustola
mustovli
mustovlijd
mustovlijn
mut
muta
mutant
mutta
mutteđ
muttoo
muttui
muttum
muttuusta
muu
muuh
muuiku
muulsa
muum
muumi
muumih
muumilaakso
muumileehi
muumileevi
muumista
muumita
muurame
muurla
muusik
muusika
muusikfestivaal
muusikist
muusikjua
muusikko
muusikla
muusikpalha
muusikpalva
muusiks
muvra
muz
muđusiih
muŋkki
mvia
mvijđoda
mvilja
mvua
mw
mwai
my
mycetophila
mycetophilidae
mycodrosophila
mycomya
myenster
myerji
myerjih
myevvireh
mylla
myllykyla
myna
myo
myrskyla
mystery
myth
n
na
naabureh
naaburkielda
naaburkieldah
naaija
naaja
naalijn
naanoodmist
naantali
naantalin
nach
nacional
nad
nagy
naharij
nahits
naipaul
nairobi
nak
nakamura
nakkila
nalliisvuota
nambu
namco
name
namibia
namibie
nan
nana
nanama
nancy
nango
nannaam
nansen
naomi
napoleon
napoli
napolist
nara
narcce
nas
nasa
nascar
nasser
nast
nastola
natale
natalie
nathan
nation
national
nations
native
nato
natrium
natural
nature
nauru
nauvo
navajo
navajokiela
navarra
navda
navra
naw
nba
ncipe
nd
nda
nde
ndez
ndi
ndic
ndist
ndo
ndor
nds
ndu
ndula
ndun
ndust
ndustaađa
ndusuoja
nduva
ne
neahttadigisa
nebularia
nec
need
neelji
neeljic
neeneeckiela
neeta
neeti
neetist
negatiivla
neh
nei
neil
nekoski
nekoskin
nel
nelji
neljiha
neljii
neljijn
nell
nella
nelson
nem
nemapogon
nemlia
nemoli
nen
neo
neoempheria
neptunus
nera
nerkoo
neropatin
nest
net
netflix
netflixist
netstal
nettisaje
nettisiijđoh
nettisijđoh
nettiversio
neurotiettee
neutron
neuvoston
nevada
never
neverwinter
nevis
new
newman
news
newton
next
nez
ng
nga
ngelma
ngo
ngu
nguvu
nguyen
ngvik
ngwenyama
nha
nhl
ni
nia
nicaragua
niccolo
nicholas
nick
nickerie
nico
nicola
nicolas
nicole
nicolle
nid
nidfurn
niederurnen
niegadit
nieida
nieidah
niels
nielsen
niemela
niemenkyla
niemi
nieminen
niemisja
niera
nierah
nigel
niger
nigeria
nigeriala
night
nightmare
nights
nightwish
nigripes
nigriventris
nih
niha
nihattula
nihis
nihiselleekove
nihisfiilma
nihisfilma
nihon
nihub
nihubbooht
nii
niijtoin
niillas
niilo
niin
niina
niinima
niinisto
niitsuma
nij
nijd
nijn
nijttomarikiela
nikirje
nikkel
nikkila
niko
nikolaas
nikolai
nikula
nilodde
nils
nilsen
nilsia
nimo
nin
nina
nine
nineteen
ning
ninja
nino
nintendo
nipso
nira
nirihha
nirppi
nis
nisa
niskala
niskanen
niske
niskirja
nisona
nisoneh
nisonid
nisonieida
nisonij
nisra
nisrus
nissoon
nissoonc
nissoonua
nist
nistmist
nisvuonja
nit
nitia
nitro
nituodda
nivala
nivalis
niviaq
nivuođa
niđ
niŋa
nja
njaala
njaalga
njameh
njarga
nje
njellim
njellimist
njia
njobz
njolla
njoma
njua
njuhc
njune
njunja
njunos
njuola
njuolga
njuolgist
njurga
njurgum
njus
njuurga
njuuvc
njyebz
nk
nka
nkiela
nko
nkoski
nkyla
nla
nlahti
nlainge
nma
nmaa
nmaanoost
nmid
nmij
nmijn
nmist
nmuutokset
nn
nna
nnai
nnam
nne
nni
nniemi
nnila
nnja
nno
nnud
no
noastra
nobel
nobelin
nobelprize
nobility
noble
nobunaga
noepoli
noha
noir
noja
nokia
nokkala
nolla
noma
nombre
nominees
nomineh
nominerade
nomma
non
nooma
noomah
noomin
noona
nooveel
nooveelc
nopola
nora
nord
norden
nordic
nordisk
nordiska
norma
normaalihe
norman
normanni
norra
norrby
norsk
norske
north
northern
northumbria
norton
norway
norwegian
norðurlandara
nos
nossa
not
notata
notes
nothing
notizie
notre
nou
nous
nousiainen
nouvelle
nova
novara
novelleh
novellijd
novels
novgorod
novo
now
nowakowski
npa
npera
npua
npuovtij
nr
nranta
nrk
nro
ns
nsa
nsaari
nsi
nsman
nsmana
nspella
nsr
nssa
nsust
nsw
nta
ntaka
nte
nthal
ntiheyden
ntila
nto
ntsa
ntta
ntte
ntus
ntyharju
nu
nua
nuba
nubbe
nubben
nube
nubebeln
nubena
nubij
nubijdis
nubijkulij
nubijnis
nuda
nuduv
nue
nuhhii
nuhta
nuit
nujuuva
nukem
numana
number
numbers
nummeer
nummenkyla
nummenpa
nummi
nun
nuo
nuora
nuorah
nuorat
nuorgam
nuorra
nuorta
nuortta
nuorttii
nuorttiibeln
nuota
nuotta
nuottij
nuottim
nuova
nuove
nuovo
nuppaajeest
nuppaijeed
nuppaje
nura
nurmes
nurmi
nurmija
nurmo
nus
nussbaum
nust
nutimja
nuuba
nuubijd
nuuha
nuurra
nuutila
nuuva
nuuvt
nuuvtko
nuuvtkoc
nuuvtpa
nva
nvaara
nvalo
ny
nya
nyby
nyere
nyeti
nyetti
nyevt
nyi
nyika
nyka
nylander
nyong
nyro
nystad
nystro
nyt
nzi
o
oa
oac
oahpa
oainna
oak
oanehac
oarjel
oaz
obama
oberurnen
obituary
objekt
obscuripennis
obstalden
oca
ocean
oceh
och
oda
odd
odda
oddbjørg
oddii
oddworld
odeh
odessa
odiđ
odum
oduvvojeh
oduvvoo
oduye
odyssey
of
off
offagna
official
offida
og
oggi
ogre
oh
oha
ohc
ohe
ohhoost
ohio
ohjelm
ohjelma
ohjelmist
ohjelmistee
ohjelmistemkiela
ohm
oho
ohta
ohtii
ohtnuba
ohtsa
ohtsis
ohtuu
ohtuunis
oi
oija
oikeudet
oikeus
oil
oinui
ois
oise
oittila
oiva
oja
ojainen
ojakyla
ojala
okada
okapi
okka
okke
okkod
oklahoma
oklahomast
okr
oksanen
oksid
ol
ola
olav
olavi
old
ole
olen
olga
olgoeenna
olgoelektron
olgoha
olgolumos
olgominister
olgon
olgos
oli
oliver
olla
olli
ollikkala
ollila
olluv
olma
olmoos
olmoz
olof
olsen
olssis
olthuis
olympialaisissa
olympialiih
olympialijd
olympic
olympics
om
oma
on
ona
once
one
online
only
onna
onne
onnes
onni
onnii
onnum
ono
ons
onze
oo
oobijn
oobijnis
ooda
oohc
oohta
ooinij
oola
oolmij
ooma
oona
oonij
oonna
oonnum
oopa
ooppera
oopperala
ooraans
oornigist
oornigloho
oosij
oosijd
oosijn
oostij
oovc
oovca
oovce
oovda
oovdeb
oovded
oovdedma
oovdedmist
oovdis
oovsijd
oovsijn
oovta
oovtkia
oođa
ooŋa
opa
opas
open
opera
operation
operatorname
oppa
oppeet
oppido
oppus
oppuu
oppuuluudij
ops
or
ora
oraja
oratino
orava
oravala
orbitaal
orchestra
orda
ordbok
order
oregon
ores
orespua
org
orgaanla
organisaatio
organisation
oria
oriental
orientales
orientalis
original
orikiela
orimattila
oripa
orivesi
orivesin
orja
orlandi
orlando
orleans
orniista
ornij
ornijdume
ornim
orniđ
oro
oroh
oroi
orozco
orra
ortezzano
ortodoksila
orwell
os
osa
osagela
osamu
osara
osasto
oscar
oseaniast
osheroff
osimo
oskal
osko
oskoh
oskola
oskolda
oskolduv
oskolduvla
oslo
oslost
oss
osta
ostra
ostrense
ostrom
ostroverkhova
ostuni
otava
oterma
other
otto
ou
ouagadougou
oue
oulainen
oulu
oulun
oulust
our
ours
out
outi
outila
outokumpu
outreach
ov
ova
ovc
ovda
ovdeba
ovdebeh
ovdebij
ovdeda
ovdedem
ovdediđ
ovdela
ovdemus
ovdii
ovdil
ovdilgo
over
overwatch
ovlla
ovta
ovtta
own
oxford
oxfordist
oy
oyewo
oz
ozerov
ođ
ođa
ođđ
ođđa
oŋŋa
p
pa
paacca
paadar
paajaabeln
paajala
paajeest
paajii
paakkola
paakkunala
paalanen
paalda
paara
paargon
paarra
paasa
paasij
paasikivi
paasilinna
paasniemi
paatelainen
paavi
paavin
paavo
paavola
paavva
paaŋki
pac
paccii
pace
pacheco
pacific
pack
padasjoki
padova
page
pai
paijaan
paijeel
paijeentoolla
paimio
painter
pair
pajan
pajana
pajanem
pajanii
pajanij
pajaniđ
pajas
pajaskulij
pajass
paje
pajekiela
pajela
pajemus
pajeolmoos
pajepotta
pajetua
pajeua
pajuja
pajula
pajulahti
pajuma
pajusalu
pakalniskis
pakistan
pakistanla
pakka
pakkala
paksuniemi
pala
palace
palata
palazzo
palda
palermo
palga
palha
palhas
palkinnon
palkinto
palma
palmer
palmiano
palo
paloinen
paloja
paltamo
paltto
palva
pam
pamacca
pan
panama
pancrazio
pandemia
panic
panini
panther
paolo
papa
paperboy
papi
papp
pappa
pappila
pappinen
paprika
par
para
paradise
parainen
paraisii
paramaribo
parancistrocerus
parents
parga
pargee
pargeevia
pargeipia
pargo
pargoh
pargojua
pargon
pargoost
pargostis
pariisi
pariisist
parikka
parikkala
paris
parish
park
parkano
parker
parkist
parlament
parma
parny
parola
part
partala
partio
partiolaiset
partout
partti
party
parviainen
pasa
pasanen
pase
pasepeeivi
pasepeivi
pasifist
pasila
pasquale
passato
passer
passo
past
pasta
paste
pastelis
pat
pata
patala
paterno
path
patria
patricia
patrick
patrie
patrizio
patrol
pattijoki
paul
paulette
pauliina
pauline
paulson
pave
pavel
payne
pays
paz
paŋkki
paŋkkihovda
pc
pdf
pe
pea
peace
peaks
pearl
pearson
peary
pectinata
pedar
pedersen
pederso
pedretti
pedro
peeci
peegga
peeivi
peeivic
peeivih
peeivij
peeivijn
peeivisia
peeivist
peeivita
peele
peeleest
peeli
peeljih
peeljij
peenuv
peera
peerustha
peesa
peesi
peesih
peesist
peessa
pega
peglio
pegomya
pehr
peht
pehti
pehula
pei
peic
peik
peivi
peivid
peivij
peivijd
peivikia
peivikirje
peivimeeri
peiviv
peiviva
peking
pekka
pel
pele
peleista
pelgi
pelifinaleh
pelikyeimi
peliluma
pelimuddoost
pelimudo
peljira
pelkola
pelkosnjaarga
pelkosnjarga
pelletier
pellico
pellila
pellionella
pello
peln
pelni
pelnub
peltoinen
peltola
pen
pendo
penn
penna
pennanen
pennetta
pennsylvania
pennsylvaniast
pennuu
pennuuh
pensar
pensilis
pentti
penttila
people
per
pera
percy
perfect
performance
pergola
perho
peri
pericle
pericoma
permiliih
permilij
pernio
pero
perrui
perruinis
perrust
perruu
perruuh
perruus
pers
persen
persia
persiala
persialuohta
person
persona
persovn
persovnist
persovnla
persovnlii
perticara
pertteli
pertti
pertunmaa
peru
peruanos
perugia
perula
perutz
pes
pesa
pesaro
pescara
pesco
pescopagano
pesipa
pesonen
pessee
pessejeh
pessejeijee
pessii
pessija
pessim
pessima
pessimkua
pessimna
pessiđ
peta
petacciato
peter
peterson
petolahti
petra
petrelius
petrella
petri
petriano
petriolo
petritoli
petroskoi
petrus
petta
petter
pettersson
pettila
peuple
pez
ph
phantasie
phantom
phil
philadelphia
philip
philippi
phillips
philosopher
philosophy
phobos
phoenix
phonetic
phonology
php
physics
physiology
pi
pia
piacenza
piagge
pian
piana
piandimeleto
piane
pianello
pianisi
pianist
piano
pianoc
piazza
pic
picena
piceno
picerno
pie
piega
piegah
piegga
pieijui
pieijum
pieja
pieksa
pielavesi
pielisja
piemma
piemontest
pieni
piera
pierga
pierre
pierva
pietarsaari
pietila
pietra
pietracatella
pietracupa
pietragalla
pietrangeli
pietrapertosa
pietrarubbia
pietro
pieux
pieve
pieđga
pigga
pignola
pih
pihkanen
pihlajaniemi
pihlajavesi
pihleja
pihta
pihtipudas
pii
piic
piikkio
piima
piirainen
piis
piivnoh
pikia
pikka
pikku
piktij
pikua
pila
pilot
pinball
ping
pink
pinochet
pinta
piobbico
pioraco
pipin
pira
pirates
pire
pirgit
pirila
pirita
pirkanmaa
pirkkala
pirra
pirttija
pirttikyla
pirttima
pis
pisa
piso
pisoh
pisoi
pisova
pispala
pispe
pispekodde
pissoin
pissoođ
pistocchi
pistoiese
pita
pitka
pitt
pitta
pivda
pivdeh
pivdem
pivdeđ
pivnohis
pivnohist
pivnohumos
pivta
pjotr
plaaneet
place
plains
plan
planck
planet
planete
planeteh
planetij
planetijn
planken
planningofficesuriname
plassmann
plaumanni
play
playground
plays
playstation
please
pledge
plenty
plig
pligeh
pligij
pligijd
pligist
pligna
pligoppuu
plummer
plus
pm
pma
pmelac
pmelas
pmi
png
po
poblacio
poccui
poccuid
poccuu
poccuuh
poder
podopagouros
poe
poems
poet
poetry
poggio
pohja
pohjakyla
pohjankyla
pohjanmaa
pohjanmaast
pohjois
pohjoismaiden
pohjoisosa
pohjola
pohjolan
poikko
point
poirot
poke
poker
polanyi
pole
police
political
politics
politiik
politiikist
politikka
pollenza
pollino
polo
polttija
polva
polverigi
polvija
polypedilum
pomarkku
pond
ponne
ponneest
pont
pontano
ponte
pontoppidan
ponzano
pooh
poojij
pool
poola
pooliitla
poolis
poolitla
poolva
poona
poora
poorga
poota
poođa
poođij
pop
pope
popla
popolazione
populaarmuusik
populaatioh
population
populous
por
pora
poreh
porga
porge
porgema
pori
porin
pornainen
porsanger
port
portable
porter
portland
porto
portocannone
portrait
portta
portugal
portugalist
portugalkiela
portugalla
portuguesa
porvoo
porzio
positiivla
position
poso
posoh
post
posta
pota
potentiaalenergia
potenza
potholes
potocki
potta
potter
pottii
pou
pour
povo
powell
power
powers
pozzo
pp
ppa
ppee
ppeeh
ppei
ppeid
ppein
ppelo
ppen
ppi
ppih
ppil
ppila
ppin
ppojeh
ppoo
ppu
ppukia
ppus
pra
praha
prahast
praise
pratchett
prato
pre
preesens
prelog
premier
pres
present
presente
presidency
president
presidentia
presidentin
presidentit
presidentti
presidentvaalja
presidentvaaljah
presley
press
presso
pressure
pretoria
preux
prey
pri
pride
priinsa
prime
prince
princess
principe
prinses
prinssa
prinze
pris
prix
prize
pro
proceedings
professor
professorin
profile
programme
progressiivla
project
projekct
promised
pronomin
pronssimiitaal
proojeekt
proosac
prooseent
proosees
prootoon
prooviins
prophecy
prosenttid
prosimulium
prosody
protect
proteiineh
protonij
proud
providence
province
provvidenti
ps
psa
psp
psv
psychoda
psychodidae
psykedeelisa
pt
ptu
ptychopteridae
pu
pua
publications
publique
publishing
pudas
pudasja
pudda
pudding
pue
pueblo
puerto
puglia
puh
puhdistus
puheenjohtajat
puhelin
pui
puid
puidis
puig
puiga
puin
pukara
pukinma
pukkila
pulk
pulkkila
pulp
pultava
punk
punkaharju
punkalaidun
puntala
puntsi
puoh
puoha
puohah
puohc
puohla
puohporree
puohtii
puoida
puola
puolala
puolanka
puolast
puolij
puolimatka
puolueet
puolva
puorijd
puosa
puovta
puovtij
pupillkassa
puppa
pura
purcell
puri
purmo
purra
purrii
pursuit
pus
pusa
pusilla
pustava
pustaveh
pustavid
pustavijguin
pusula
putes
putin
putta
puu
puuda
puumala
puura
puurra
puustav
puustavoornig
puustavoornigist
puuza
puuzah
puzza
pxweb
pyecceitips
pyecceivia
pyehtih
pyeidicissa
pyelimist
pyellim
pyera
pyere
pyerebeht
pyerediđ
pyereeb
pyereed
pyereest
pyereh
pyeremuin
pyeremus
pyeremusa
pyeremusta
pyeremuu
pyeremuuh
pyeri
pyerrin
pyevti
pyevtitmist
pyevtitta
pyevtitteh
pyevtitteijee
pyevtitteijen
pyevtittem
pyevtittemfinnoda
pyevtittij
pyevtittiđ
pyha
pyhta
pyla
pylko
pyo
pyrenij
q
qhisphiyataw
qi
qian
qld
qualley
quand
quantity
quate
quatre
que
quechua
queen
quentin
quest
qui
quijote
quinta
quirico
quvenzhane
quynh
r
ra
raahe
raahtij
raajij
raanskan
raasepori
raava
raavva
raađha
rabbit
rabe
race
racer
races
racing
raddala
radde
raddeest
radio
radioaktiivla
radiopersovn
raevaara
rafael
rage
rahi
rahikkala
rahkola
rahtii
rahtijn
rahtui
rahtum
raider
raiders
raidisto
raija
raijiitta
raijiđ
raili
rain
rainbow
rainwater
raippaluoto
raippaluotost
raisio
rajala
rajalahti
raka
rakel
rakenne
rakenteen
rakkaus
rakkeet
rally
ralph
raman
rami
ramos
rampage
ramsay
ran
rance
randal
randolph
ranger
rannankyla
ranska
ranskaast
ranskakiela
ranskala
ranskan
ranta
rantakyla
rantala
rantasalmi
ranttila
ranua
rapagnano
raparo
rapolla
rapone
rasdal
rasi
rasmus
rasta
ratcliffe
ration
rauma
rauna
rauni
rautalampi
rautavaara
rautio
rautja
rauvola
rava
raveala
ravga
ravna
ray
raya
raymond
rba
rbacka
rbeln
rbi
rbis
rbivua
rbivyevi
rbu
rby
rc
rd
rda
rdem
rdemkua
rden
rdin
rdist
rdo
rdoo
rdu
rdumcia
rdura
re
reach
reagan
reagist
reaktio
reaktiost
real
reality
realm
realms
rebecca
rebel
rec
recanati
recorded
records
recordsa
red
redemption
ree
reed
reeiva
reenna
reeviir
reformpia
reggenti
reggenzadellarepubblica
reggiana
reggina
registeristum
reh
rehtor
rehtorin
reid
reijo
reima
reims
reindriftsamers
reinhard
reinikkala
reino
reisja
reiss
rekinisteh
rekinistiđ
rekistero
relander
ren
renaissance
renberg
rene
renegade
renko
reno
repetir
repola
report
repu
repubblica
republic
republika
requiem
res
rescue
research
reservoir
resident
residente
resistance
resolution
ressa
results
ret
retoromaankiela
rets
return
returns
reva
revelations
revenge
review
revitalisaatio
revolution
revonlahti
rez
rga
rgga
rgis
rgistij
rgoo
rgu
rgum
rgus
rgutta
rha
rhein
rhis
rho
rhode
rhu
rhust
ri
ria
ribeiro
ric
rica
riccia
rich
richard
richards
richardson
richist
richter
rick
riddo
riddoin
riddokua
riddoost
riddu
ride
rider
rido
ridoi
ridoin
rie
rieban
riedern
rieflin
rieggee
riegisla
riegistum
rieha
riehti
riehtiaktivist
riehtijotteem
riehtiministerio
riehtita
riemnjis
ries
riess
rieva
rievdeeliega
rievti
rievtis
rievvim
riga
riges
right
rights
riginaldi
rih
rii
riidon
riihima
riijka
riika
riikola
riistakeskus
riitta
riittio
rij
rijd
rijeessa
rijja
rijn
rijtta
rikolii
rikosjua
rikoskirjec
riku
rila
rimarikiela
rin
rinaldo
ring
ringo
rings
rinne
rinta
rio
rione
rionero
ripabottoni
ripacandida
ripalimosani
ripatransone
ripe
ripresident
ris
risaava
rise
risin
rising
rist
rista
risten
ristiina
ristija
ristima
risto
rita
ritma
ritva
riuttala
riuttanen
rivello
river
rivers
rivne
riđu
riđđu
rja
rjestyksessa
rji
rjil
rjilkiela
rjilodde
rjin
rjivuota
rjj
rjolga
rju
rjuh
rjui
rjuid
rjutta
rk
rka
rkiela
rkija
rkila
rkilahti
rkis
rkisalo
rkka
rkku
rkna
rko
rkodde
rkode
rkua
rla
rma
rmitta
rmuttemes
rna
rnee
rnejui
rnejum
rnejuvvojeh
rnejuvvojii
rnejuvvoo
rni
rnid
rnih
rnin
rnist
rnistis
rnivuođa
rnod
rnoi
rnoid
rnoin
rnoo
rnooh
rnu
rnuh
rnui
rnum
rnumist
rnus
rnusist
rnuđ
ro
road
robbie
robda
robert
roberto
roberts
robin
robineau
robinson
robocop
robot
rocca
roccafluvione
roccanova
roccavivara
rocchetta
rochester
rock
rocket
rockist
rockjua
rockmuusik
rockstar
roderick
rodgers
rodio
roger
rogers
rogue
rohdendorf
roid
rola
rolex
rolf
roll
rollercoaster
rolling
rom
roma
romagna
romagnast
roman
romania
romaniast
romanien
romanij
romanijd
romanijn
romanikiela
romanist
romano
rome
ronald
ronan
rondani
ronja
roobda
roobdah
roola
roolah
rooli
roolijn
room
rooma
roomaan
roomaanla
roomala
roomast
roonnig
roope
roosevelt
roosijn
roovva
roppa
rosa
rosario
rose
rosora
rossi
rosso
rotella
rotello
roto
rotonda
rotten
rottentomatoes
rotterdamist
rotto
round
rova
rovaniemi
roveresche
rowling
roxy
roy
royal
royale
rpa
rpeln
rpio
rpoolva
rppa
rquez
rr
rra
rree
rreeh
rrejeh
rrejeijee
rrejii
rriddoost
rrido
rriehti
rroonnig
rru
rruleggisteijee
rrum
rrun
rruspellee
rs
rsa
rsby
rshavn
rsm
rso
rsua
rt
rta
rtel
rter
rterbuch
rtist
rtnx
rto
rtom
rtsila
rtta
rtti
rttih
rttihist
rttsa
ru
rua
ruanda
rubtsov
rubus
ruda
rudolf
ruduv
ruduva
rudyard
ruh
ruha
rui
ruid
ruin
rukiela
rukukkoda
ruma
rumbal
rumbu
rumma
run
rune
runeberg
runner
runoja
ruoidah
ruokoja
ruokolahti
ruokoniemi
ruolahti
ruona
ruopsa
ruopsis
ruopsisjyelgc
ruopsismeera
ruopsisrus
ruopsisryeivil
ruos
ruossa
ruosta
ruota
ruoti
ruotsala
ruotsalainen
ruotsin
ruotsula
ruotta
ruovesi
rus
rusa
rusakko
ruseh
rush
rusii
rusiih
ruska
rusko
russia
rust
rusvuođa
rut
rutalahti
ruth
rutherford
rutta
ruttij
ruttiđ
ruttui
ruukki
ruuma
ruumbuh
ruumbuid
ruusuruota
ruuvna
ruuđa
ruvaikutta
ruvna
ruvo
rv
rva
rvall
rvaltningsdomstol
rvela
rven
rvenkyla
rvenpa
rvenpera
rvensivu
rvi
rvih
rviht
rvijoki
rvikyla
rvin
rvina
rvis
rvist
rvu
rvuda
rvuh
rvui
rvuid
rvus
rvust
rvusta
ry
ryes
ryevdi
ryevdin
ryevdirađesajatta
ryevdist
ryha
ryhma
ryma
ryo
ryser
ryti
rz
s
sa
saa
saaha
saajeest
saakas
saaksan
saala
saalla
saamelainen
saamelaiska
saamelaisten
saami
saamicouncil
saamma
saanijd
saanijn
saara
saarela
saarenkyla
saarenpa
saari
saarija
saarinen
saarivaara
saatij
saava
saba
sabremos
sacred
sadi
saemien
saether
saga
sagrado
sah
saha
sahalahden
sahara
sahhiitta
sai
saijaasvuota
saijaavuota
saijaavuođa
saijets
saijonmaa
saimaa
saimaanua
saimaast
saint
saiva
sajada
sajan
sajanma
sajasa
sajatta
sajattuv
sajattuva
saje
sajeh
sajeha
sajestis
sajos
sajosist
sakai
sakari
saksa
saksaast
saksajuudala
saksakiela
saksala
saksaliih
saksofon
sala
salam
salamanna
salavainen
salcito
salem
salentino
salernitana
saliens
salla
salli
sallinen
sally
salmela
salmenkyla
salmi
salmo
salo
saloin
saloinen
saloisii
salome
salomone
salon
salonkyla
salt
saltvik
salut
salvador
salve
sam
samantha
sambenedettese
sambia
same
samer
sameradion
sami
samia
samimuseum
samisk
samiske
sammallahti
sammatti
sammeli
sammi
samoa
samojedikiela
samojedikielah
sampdoria
sample
samuel
samurai
san
sanabria
sanakirja
sanc
sando
sandra
sanger
sangre
sanila
sanmarinola
sanna
sannainen
sanniitta
sannim
sannio
sannita
sannitico
sanoma
sanomat
sans
sant
santa
santala
santo
santos
saoirse
sappee
sar
sara
sarabande
sarabhai
sarah
saramacca
sarastus
saratov
sarconi
sardiniast
sare
sareh
sari
sarivaara
sarja
sarkaniemi
sarkkila
sarnano
sarnum
sarnuu
sarre
sas
sasa
sasakawa
sasso
sassocorvaro
sassoferrato
sastamala
satakunta
satchell
satni
satriano
sattanen
satu
saturn
saturnus
saudi
sauer
sauli
saussure
sauvala
sauvo
sava
savage
save
saverio
saviniemi
savitaipale
savo
savoia
savon
savonia
savonlinna
savonranta
savosuona
say
says
sby
sc
scalo
scandal
scandinavian
scaptomyza
scarlett
scatopsidae
schaan
schacht
schiavoni
schiner
schlegel
scholar
school
schoolist
schro
schrock
schulthess
schuster
schwa
schwanden
sciamma
science
sciences
scifi
sciomyzidae
scotland
scott
scouter
scrabble
screen
scriptstyle
scrolls
se
sea
seaborg
sean
search
searvi
searvvi
seas
season
seasons
sebastian
sec
second
secondo
secret
secretary
secrets
see
seed
seeibi
seekunt
seela
seeland
seelanda
seelandist
seelandla
seele
seelgi
seelgist
seenaat
seenti
seerva
seervi
seervist
sefro
sega
seguy
seh
sehe
sehgal
seibi
seili
seina
seipa
seipiharju
seitsema
seka
seksitaavda
seksitaavdah
seksitavda
seksuaalla
seksuaallii
seksuaalvuođa
seksualvuota
sela
selected
selgi
selgipeeli
selka
sella
selma
selman
selva
selznick
sem
semifiinaal
semifinalist
sen
senatist
senegal
senigallia
senior
senise
sense
sensible
senta
senttid
senttimeetter
senttimeetterid
senttisa
senyhdistys
seo
sepa
sepino
seppa
seppo
sepsidae
september
sera
seratti
sergio
sergius
serie
series
serra
serrapetrona
serravalle
serva
serve
servi
service
servigliano
servii
ses
sessiomusikka
sessions
sestini
sestino
set
seule
seura
seuran
seuruja
sevcik
seven
severino
severo
sevveekia
sevŋa
sevŋis
sexo
seychelleh
seydoux
seymour
sgp
sha
shadow
shadows
shahadi
shakespeare
shalda
shall
shanghai
shannon
shar
sharon
sharp
sharpless
shaw
she
sheet
shelley
shi
shilova
shimomura
shin
shining
shirley
sho
shobanov
shoot
short
shovda
show
shu
si
sia
siam
sibelius
siberiast
sic
sicard
sid
side
sideijee
sidney
sidorenko
siegbahn
sieiva
siema
siemin
siera
sierah
sierra
sierriđ
sievi
sigbjørn
sih
sii
siida
siih
siijda
siijdah
siijđo
siijđoin
siijđost
siikainen
siikajoki
siikalatva
siilba
siilinja
siipyy
siiri
siirin
siisa
siist
siivonen
sij
sijd
sijda
sijguin
sijja
sijn
sijđo
sijđod
sijđojua
sijđojuuvah
sijđostuvva
sikila
sikua
silba
silbo
sild
silence
silent
siliega
silla
sillankorva
sillanpa
sillantaka
siltala
silva
silver
silvio
silvola
simcity
similis
simo
simola
simon
simonby
simone
simonkyla
simplex
simpson
simpsoneh
simpsonij
simpsons
sims
simulator
simuliidae
sin
sinatra
sinclair
sinfield
sing
singapore
singer
singh
single
singleh
singlen
singlest
sings
sinh
sini
sinikka
sinisalo
sinni
sipaliwini
sipila
sipinen
sipoo
sir
siracusa
sirda
sirdeđ
sirdoeenna
sirdui
siren
siri
sirkka
sirolo
sis
sisas
sisc
siseenna
sisilia
sisiliast
siska
siskeeld
siskeldeh
siskeldeijee
siskiibeln
sispella
sist
sistaata
siste
sistees
sister
sisulu
sitruunpes
siuntio
siva
six
siđ
sja
sjo
sk
ska
skal
skamma
skandinavia
skandinaviast
skartveit
skavank
skbo
skby
sket
ski
skia
skidmarks
skiela
skierri
skiijpa
skim
skin
skipa
skippa
skittee
skittem
sko
skodde
skoddeest
skoddevaalja
skoddevaaljah
skode
skogbo
skogens
skoglund
skooda
skoski
skotland
skotlandla
skou
skođa
skra
sku
skua
skulij
skull
skun
skuse
skuvla
skweeks
sky
skyelfi
skyla
skyrim
sla
slahti
slam
slave
slayer
slii
sliih
slijd
slincraze
slovakia
slovenia
sloveniast
slovensko
sm
sma
smakka
smalley
smash
smavva
smedsby
smeeri
smerillo
smieta
smij
smile
smit
smith
smitij
smitmist
smittem
smittems
smittiđ
smittum
smolsom
smooduul
smui
smuđ
smyerji
sna
snaarta
snappertuna
sni
snih
snii
snin
snitiettee
snitiettui
snitieđa
snjaarga
snooker
snow
so
sobre
soccer
societatis
society
soda
sodankyla
soddy
sofi
sofia
soft
software
soika
soil
soini
soiniemi
soinila
sojeh
sojuz
soksa
sol
solar
soldier
solju
solla
solmu
solo
soloja
solomon
solttila
som
somalia
somby
some
somero
something
sommaro
sompio
son
song
songs
sonic
sonjosua
sonkaja
sonoro
sons
soojij
soojijd
soojijn
sool
soola
sooppa
sooppum
soorva
soorvah
soova
sopa
sophie
sopra
sopron
sorcerer
sorex
sorjola
sorme
sorola
sortavala
sorva
sorvali
sosiaalla
sosialdemokraatla
sosiolog
sotilas
sotkamo
sotto
sottunga
sou
soul
souls
sound
soundscapes
soundtrack
south
sova
sovereigns
sovjetlito
sovjetlitto
sovjetlittola
sovjetlittoost
sp
spa
spabba
space
spal
spalha
spanish
spargo
spears
special
specialist
species
speech
speed
speedball
speela
speelah
speiser
speja
spella
spellee
spelleeh
spellei
spencer
spesiaalis
spider
spiders
spieka
spielberg
spike
spin
spinazzola
spinete
spinetoli
spinoso
spirit
splendour
spoken
spontini
sport
sports
spra
sprache
sprengtporten
spring
springfield
springs
spua
spy
spyro
sqrt
squad
square
squire
sr
ss
ssa
sse
ssed
ssee
sseeh
sseeloho
sseelovo
sseelovoin
sseervi
sseesaaha
ssei
ssein
ssi
ssid
ssin
ssn
ssoo
sst
ssua
st
sta
staalu
staata
staatah
staatta
staavda
staavva
staađa
stae
staeger
staffan
staffolo
stage
stamperia
stan
stand
standard
stanfja
stanford
stanley
stannius
star
stardust
starflight
starglider
stars
stat
state
states
station
statistica
statistici
statistics
statistiikkua
statistik
statisztikai
stazione
ste
steel
stefano
stefanus
stegana
steh
steijee
steijeeh
steijei
steijeid
steijein
steijen
steinbeck
stella
stellar
stem
stema
stemvuoiga
stenberg
stephen
stephenson
ster
sterbotten
sterby
sterhankmo
sterkulla
sterling
stermark
sterna
sternberg
steve
steven
stewart
stga
sti
stica
sticas
stick
stid
stida
stideijee
stidij
stieđa
stii
stiijla
stiivra
stij
stijla
stila
stis
stit
stiteh
stittee
stittem
stittum
stivra
stivree
stivrejeh
stivrejeijee
stivrejeijen
stivrij
stivrim
stivriđ
stiđ
stjottee
stmist
sto
stoat
stockholm
stokkespa
stone
stones
stoorma
stop
stor
stora
storby
storelv
storia
storico
stories
storing
storm
story
stpargo
strandby
strange
strategy
stream
street
streets
strengell
strength
strenzke
strike
strikes
strindberg
strip
strixino
stro
strobl
stromae
strong
structuur
stta
sttemijd
stu
stua
stuart
stud
studies
studio
studioalbum
studios
studiost
study
stui
stum
stume
stumstaata
stumvuota
stumvuođa
stuntman
stuora
stuorra
stuppeeivi
stuppeivi
stus
stusa
stusah
stutmist
stuv
stuva
stuvah
stuveh
stuvva
stuvvii
stuđ
styeres
su
sua
suasa
sub
subbon
subbooht
subjekt
sublette
suboh
substantiv
sud
sudan
sudanist
sudda
sudes
sue
suelo
suez
sugawara
suha
suhonen
sui
suicide
suija
suikkila
suin
suinula
suiolmoos
suisa
suisse
suit
suitua
suja
sukka
sukupuolen
sul
sula
sulkava
sulla
suluhu
sulva
sumiainen
sumiaisii
summa
summer
sumos
sumosa
sumoseh
sumosijn
sumy
sun
sund
sunda
sundal
sunde
sundeest
sundesson
sundom
sunila
sunjin
sunna
sunnanvik
sunnui
sunnust
sunnuu
suo
suoga
suoha
suoi
suoijiimettumes
suoivust
suoja
suojoki
suoksa
suolahti
suollud
suollui
suolluin
suollust
suolluu
suolluuh
suom
suoma
suomalainen
suomalais
suomalaisen
suomen
suomenkyla
suomenmaa
suomessa
suomi
suomusja
suomussalmi
suonenjoki
suoniemi
suonja
suontaka
suorgiittum
suorma
suota
suova
suovsa
suovsah
super
superfici
superiore
superman
supersella
superstar
sur
surf
suriname
surma
surrealistla
sus
susan
susanna
susanne
sussex
sust
sutela
sutherland
suu
suuha
suuja
suula
suulla
suuna
suunda
suur
suuri
suurniemi
suuruusja
suutarla
suuva
suuvra
suva
suvi
suvra
suvroduv
suvrom
suzuki
sv
sva
svante
svartba
sveeici
sveeicist
sveicci
sveiccila
sven
svensk
svenska
svenskby
sverige
sveriges
svinhufvud
svino
svirta
svizzera
svonni
svt
svuoimij
svuota
svuovdijn
svuođa
swahili
swahilin
swan
swat
swedish
sweeney
sweet
swiss
switch
sword
syda
sydney
syeini
syeinima
syejeest
syeji
syejia
syeliga
syemmila
syemmilii
syemmiliih
syemmilij
syergi
syergist
syfilis
sylvia
symbol
syndicate
syndrome
synge
syntetisaattor
syrja
sysma
system
systems
systrar
syva
syvertsen
syyria
sze
szeged
szo
sø
t
ta
taah
taaida
taaiđa
taajama
taajamat
taam
taampa
taan
taarba
taas
taasnij
taat
taavaabeln
taavaapeln
taavaapia
taavda
taavgijn
taaz
table
tadahira
tadeusz
tagareh
tagarijd
tagarijn
taggaar
taha
taheh
tahhee
tahheeh
tahheevuoiga
tahvanainen
tai
taid
taida
tail
tain
taipale
taipalsaari
tais
taivalkoski
taivassalo
taiwan
taiđa
taiđuu
takada
take
takka
tale
tales
talha
talk
talking
tallaa
tallchief
talle
tallinn
tallinna
tallulah
talola
tamara
tammela
tammi
tammisaari
tammisaarin
tammisto
tampa
tampere
tamperen
tamperest
tamppa
tan
tang
tanh
tanila
tank
tansania
tansaniala
tanska
tanskaast
tanskakiela
tanskala
tanskila
taoiseach
tapanahony
tapani
tapio
tapir
tapireh
tapirij
tapirs
tapirus
tar
tara
tarantino
taranto
tarba
tarina
tarinoita
tarja
tarjesa
taro
tarttila
tartto
tartu
tarvasjoki
tarvola
tas
tasavallan
tassaas
tassaaz
tassi
tasso
tassulan
tast
tastko
tastmaŋa
tastoo
tate
tatrou
taube
taucher
tauno
tautou
tavas
tavda
tave
tavec
tavegermaanla
taveirlandla
tavela
tavemeera
tavemus
tavemuu
tavena
tavenna
tavenuortta
tavenuorttii
taveoosij
taveoosijn
tavesa
taveua
taveviesta
tavlustuvva
tavola
tavoleto
tavullia
tavveen
tawakkul
taxonomy
taylor
taz
tađe
tbilisi
te
tea
team
teana
tears
teatter
teatterist
teatterstivrejeijee
teborg
teddih
teddilum
teddiđ
teddust
tedduu
tee
teeda
teeiva
teeja
teema
teemaid
teemu
teenage
teevsta
tego
tegu
teh
teha
teide
teijee
teika
teikka
teiva
teja
tekken
tekniik
teknisa
teknologia
teksta
tekstiiltaaida
telegraph
televisio
television
televisiora
televisiost
telford
telluur
tem
temo
temple
ten
tenerife
tenhola
tenhunen
tenna
tennessee
tennis
tennisspellee
tennisturnam
tensei
tent
teolog
teoreetla
teoria
teos
ter
tera
teras
terga
terje
terme
terminator
termoli
terms
termwiki
ternana
ternopil
tero
terra
terranova
terre
terror
terry
terttu
tervo
tervola
tes
test
testa
testament
tet
tetris
teu
teulie
teuva
tevaniemi
tevkis
tevkisra
tevkisrus
tevkka
texas
texasist
text
texts
teđ
th
tha
thaieenna
than
that
the
theatre
thee
theft
their
them
theme
then
theodor
theodore
there
theta
thexder
they
thgen
thibaut
thief
thieves
things
thiong
third
this
thomas
thompson
thouless
three
throne
through
throw
thunder
thurman
thy
ti
tia
tialmai
tian
tiber
tiden
tidende
tie
tieck
tiekko
tien
tienuuvt
tieppi
tierra
tierva
tiet
tieta
tieto
tietoa
tietoja
tietokannat
tiettee
tiettiđ
tiettui
tiettum
tiettumkua
tiettuu
tieva
tieđa
tieđettemc
tieđij
tifernina
tige
tiger
tigge
tih
tihia
tihta
tii
tiijme
tiijpa
tiila
tiileest
tiimaant
tiina
tiips
tiirola
tiitia
tiivga
tiivreh
tiivrijd
tiivta
tiivtah
tiiŋga
tiiŋgah
tij
tijda
tijme
tijmed
tijmeest
tijoux
tijpa
tikanoja
tikka
tikkala
tikkekia
til
tila
tilasto
tilastoa
tilastokeskuksen
tilastokeskus
tilastollinen
tile
till
tim
tima
time
timeline
times
timma
timo
timor
timothy
tin
tina
tinbergen
tinea
tineidae
tineola
tio
tips
tirkkonen
tirlihha
tis
tito
titolo
titsingh
tiukka
tivga
tivieha
tivieva
tivra
tivreh
tivta
tivvoomohjelm
tiđ
tiŋga
tja
tjihkkom
tjo
tka
tki
tkimahan
tkiđ
tkoo
tku
tl
tla
tlii
tma
tmist
to
tobago
tobbeen
tobda
tobddi
tobdeh
tobdomeerhah
tobdomerkka
tobdos
tobdosin
tobdosumos
tobdosumoseh
toda
today
todd
together
togo
togola
toh
toha
tohmaja
toho
toholampi
tohon
toi
toid
toijala
toijola
toikkala
toim
toima
toimisto
toimituksia
toin
toivakka
toiviainen
toivo
toivola
toivonen
tokio
tokunaga
tokyo
toleba
tolentino
tolkien
tollet
tollui
tolve
tom
tomasbo
tomatoes
tomatoesist
tomb
tome
tommaso
tommit
tomonaga
tomorrow
ton
tondiet
tongjian
tongues
toni
tonight
tonnoir
tonnoiri
tony
tooha
tooima
toola
tooleeb
toolla
toonse
toorja
toos
toost
toova
toovla
toovva
tooŋa
top
topeivi
topsenjunc
tor
torchiarolo
torella
torhola
tori
torikka
torina
torinese
torino
torinost
torjuu
torna
tornado
tornadoh
tornadoi
tornadoin
toro
toronto
torontost
torp
torquato
torre
torsbo
torttila
torvola
tos
toscana
toscanast
toshihide
tostain
tot
total
totka
totkee
totkeeh
totkei
totken
totkos
totta
tottija
touch
toujours
tour
tournament
tous
tout
tova
tove
tovla
tovle
tovnbeln
tower
town
townes
toy
toyday
toŋa
toŋŋa
tra
tracey
trail
trailer
train
tramutola
tran
translation
trap
tre
treasure
trecastelli
treccani
trecchina
tree
treia
trek
tres
treviso
trevor
tria
trials
tricarico
triesenberg
trigno
trigonometrisa
trilogy
trimble
tringa
trinidad
trio
triple
trivento
trivial
trivigno
trivinho
trolls
trombi
trombih
tromsa
tromssaast
trond
trono
tronto
trontost
trooppisa
trophy
troposfa
trosterud
true
trump
truth
ts
tsa
tsacas
tsalo
tscheremissischen
tschiel
tsi
tt
tta
ttee
tteevuođa
tteh
tteijee
tteijeeh
tteijeejua
tteijees
tteijei
tteijeid
tteijen
ttellee
ttem
ttemes
ttemla
ttes
tti
ttih
ttii
ttij
ttijd
ttila
ttim
ttinkiela
ttinla
ttir
ttist
ttiđ
tto
ttojeh
ttojeijee
ttoo
ttu
ttui
ttum
ttur
ttus
ttuv
ttuva
ttuvah
ttuvva
ttuvvojeh
ttuvvojii
ttuvvoo
ttyla
tu
tua
tubda
tubdum
tudoma
tuellee
tuha
tuhha
tuhhiitta
tuhhiittij
tuhhiittiđ
tuhhiittui
tuhhit
tuhkala
tuhtuu
tui
tuija
tuisku
tuiskula
tujula
tukholma
tukholmast
tukiala
tukirja
tukirje
tula
tulindberg
tulkka
tulla
tulva
tulve
tum
tumba
tun
tundra
tunis
tunisia
tunnettu
tuntematon
tuoda
tuodda
tuojijd
tuojijn
tuolba
tuoldimc
tuoma
tuomarla
tuomas
tuora
tuorila
tuosta
tuota
tuođa
turbo
turdus
turi
turisteh
turkka
turkki
turkkikiela
turkkila
turku
turnam
turnamra
turnee
turneest
turrican
turtianniemi
turtles
turun
turunen
turunmaa
turviđ
tus
tusa
tust
tutka
tutu
tuu
tuubda
tuula
tuulikki
tuulos
tuuni
tuupa
tuurha
tuurkist
tuurku
tuurkust
tuus
tuusniemi
tuusula
tuuđha
tuvalu
tuve
tuvua
tuvvoo
tv
tva
tw
twikatane
twin
two
tycoon
tyehin
tyeje
tyejeest
tyejeh
tyeji
tyo
type
typhoon
typpi
typpisuuvra
tyriseva
tyrna
tyrone
tyrva
tyypi
tyypist
tzingen
u
ua
uakiela
uari
ub
uba
uca
ucca
ucce
ucceeb
ucceeblovokiela
uccen
uccpa
uccum
ucebeh
uceh
ucemus
ucemusta
uces
ucesla
ucjuuha
ucjuuva
ucjuv
ucjuvnja
ud
uda
udda
udeh
udinese
udmurtkiela
ufo
uganda
ugra
ugricae
ugrila
ugrilainen
ugrilaisen
uh
uha
uhc
uhke
uhketa
uhkevua
uhredum
uhren
uhuru
ui
uiga
uimaniemi
uin
uit
ujotta
ujotteh
ujottum
uk
ukkonen
ukraina
ukrainakiela
ukrainast
ukraine
ukrcensus
ul
ula
ulf
ulga
ulguubeln
ulla
ullava
ullstro
ulman
ulme
ulmen
ulmui
ulmuid
ulmuin
ulmust
ulmuu
ulmuuh
ultima
ultimate
ultra
ulvila
ulysses
um
uma
umberto
umbria
umbriast
umbrosa
ume
umeh
umesa
umi
umodzi
umolijd
un
una
unchained
uncharted
und
under
underbara
underground
underso
undulata
une
unesco
ungdomslitteraturpris
ungern
unio
union
uniona
unis
unit
unita
unite
united
unity
universal
universe
universite
universitet
university
unkari
unknown
unna
uno
unoi
unoiena
unreal
unser
untamala
uoga
uoiga
uoja
uolda
uolma
uolmah
uopa
uoppa
uos
uosa
uotila
uova
uovja
uovjis
uovjisjerja
uovva
uovviitta
uođij
uođijd
uođijn
uoŋa
up
upjohn
upmi
upon
uppsala
uppslagsverket
ur
ura
uralic
urano
uranus
urban
urbania
urbano
urbino
urbisaglia
ureh
urey
urho
urjala
urma
urruu
ursula
uruguay
ururi
us
usa
usijd
uskela
uskuu
ussita
ust
ustev
ustevvuota
ut
utaja
utelias
uthaug
utkee
utsi
uttem
uttiđ
uu
uucca
uuda
uuden
uudenmaan
uuh
uujoot
uula
uumeest
uumijd
uunjaarga
uura
uuraalla
uurainen
uurbijd
uusa
uusi
uusiautti
uusikaarlepyy
uusikartano
uusikaupunki
uusikyla
uusimaa
uutiset
uutta
uuvtij
uv
uva
uveh
uvla
uvvee
uvvii
uvvoo
uđ
uđa
uđemaina
uđđa
uŋgar
uŋgarist
uŋgarkiela
uŋgarla
v
va
vaaha
vaaigut
vaaikut
vaaja
vaakun
vaakunin
vaala
vaalaja
vaaldij
vaalja
vaaljah
vaalma
vaanhimeh
vaara
vaarijn
vaasa
vaasan
vaatta
vaazij
vaađa
vaccaro
vaccinium
vaclav
vadda
vado
vaglio
vaha
vahto
vai
vaiano
vaiga
vaigutta
vaigutteh
vaigutteijee
vaiguttij
vaikutta
vaikutteijee
vaillant
vain
vainikkala
vainionpera
vaisanen
vaja
vaje
vakkala
vakkuri
val
vala
valasta
valdagno
valdii
valdui
valdum
valentine
valentino
valeriano
valfornace
valfortore
valittu
valja
valjaas
valjeeht
valjeest
valjij
valjim
valjiđ
valkama
valkeakoski
valkeama
valkeapa
valkja
valle
vallefoglia
valleys
vallgrund
vallonia
valma
valo
valoaalto
valor
valpperi
valter
valtimo
valtola
vammala
vampire
van
vanaja
vanda
vanha
vanhakyla
vanhasalo
vanhimeh
vant
vantaa
vanuatu
vara
varbusa
varbusii
varbusiih
varbuslodde
varbusluudij
varda
vardal
vare
varese
variaatio
variety
variste
varkaus
varley
varpanen
varrii
varriista
varrij
varrijn
varrim
varriđ
vars
varsinais
varten
vartsala
vasari
vastila
vaterland
vatikaanriijka
vatjan
vatten
vađukka
vca
vci
vciua
vda
vdi
vdija
vdoo
vdu
vduh
vdun
vdus
ve
vectrex
vedenpa
veepsis
veerba
veerbah
veerdi
vegas
vehkalahti
vehmaa
vehmaskyla
vei
veigilodde
veigin
veik
veikka
veikko
veikkola
vejeh
vejii
vejolas
vektor
vektorij
vektorstua
vela
veli
velkua
vella
veltiha
veltman
velvet
ven
vena
venarotta
venetost
venetsiast
venezia
venezuela
vengeance
venosa
ventura
venus
vepsa
ver
verba
verbal
verby
verd
verde
verdi
verdid
verdiddijn
vermark
vernik
vernio
vernotico
vero
verona
veronica
versio
versioh
version
versoh
versoid
versus
vert
very
ves
vesa
vesala
vesanto
vesi
vesilahti
vesist
vespula
vest
vesterby
vesterheim
vestmari
veszpre
veteli
vetere
vettee
vetteđ
vety
vetyst
vez
vgi
vha
vhoid
vhoin
vhu
vhuaktivist
vhuh
vhui
vhuid
vhuidittum
vhuin
vhupalha
vhust
vi
via
vic
vicente
vicenza
vicino
victor
victoria
victory
vid
vida
video
videopeleista
videopelivuosi
videospeela
videospeelah
videospella
vidon
vie
vieha
vielga
vielgis
vielgiskirja
viera
vierema
vieres
vieress
vieresvua
viesta
vietij
vietnam
vietri
viettij
vieva
vigga
viggeh
viggianello
viggiano
vihanti
vihija
vihka
vihti
vihtia
vii
viiala
viibur
viiga
viihka
viii
viijma
viijđedma
viikila
viilja
viiljah
viini
viipurin
viisiir
viitasaari
viitasaarist
viiđa
vija
vijdoda
vijđa
vijđes
vijđoda
vijđodah
vijđoduv
vijđoduva
vijđoduvva
vik
viking
vikings
viktor
vil
vila
vild
vilda
vilddas
vilela
vilhelm
vili
vilja
viljainen
viljakkala
vilkkila
villa
villanova
ville
villikkala
villila
vilppula
vilu
vimpeli
vincent
vincenzo
vinchiaturo
vingt
vinjaarga
vinjarga
vinkkila
vinnytsja
viper
virallinen
virde
virded
virdeh
virdepes
virga
virge
virgeest
virgeoma
virgetahhee
virginia
virokiela
virolahti
virolainen
virolog
virrat
virta
virtanen
virtual
virus
viruseh
vis
visa
visconti
vises
visin
vision
visolmoos
visolmoz
vissa
visso
vist
viste
vistekia
visteliega
vistig
visulmuid
vita
vitamiin
vitamin
vitikkala
vito
vitsia
vitta
vittii
vittoria
vittorio
viuhkola
viva
vivica
vivien
vivlu
viđa
vja
vji
vjia
vjipeeli
vjis
vjuda
vkka
vkki
vkku
vkkud
vkkun
vkun
vla
vladimir
vli
vlla
vloid
vloin
vlon
vloo
vlu
vlud
vluh
vluhalda
vlui
vluid
vluin
vlukiela
vlula
vluluodda
vlum
vlumjua
vlumkis
vlumoosij
vlumua
vlun
vlunoasi
vlus
vlust
vluđ
vna
vnojeh
vnoo
vo
vogel
vogue
voi
voices
voitti
vokaleh
vokalid
vokalij
vol
volla
volume
vom
von
voodoo
vookaal
voor
voora
vora
vorra
voyage
voz
vpa
vpi
vpist
vppi
vppija
vppikielda
vra
vre
vri
vrid
vrih
vrikua
vriluosa
vrist
vru
vs
vsa
vsk
vska
vsui
vsuid
vsuilodde
vt
vta
vti
vtih
vtist
vtittemes
vtittes
vtta
vttoin
vttojeh
vttojii
vttoo
vttu
vtu
vtui
vtuic
vtukka
vtula
vtun
vtust
vtutta
vtuttij
vu
vua
vuh
vuid
vulgaris
vulpes
vulture
vumus
vuo
vuobdij
vuobdum
vuod
vuoden
vuogga
vuoha
vuoi
vuoiga
vuoija
vuoimijd
vuoita
vuoitij
vuoittii
vuoittijn
vuoiva
vuoiŋa
vuoja
vuokala
vuokko
vuoksi
vuola
vuolab
vuolga
vuolgij
vuolgijn
vuoli
vuolijoki
vuolle
vuoltee
vuoluubeln
vuona
vuonna
vuopta
vuoptah
vuora
vuorenmaa
vuorentaka
vuos
vuosa
vuosikirja
vuosina
vuoskoski
vuosmuin
vuosmus
vuosmuu
vuosmuuh
vuosmuz
vuossa
vuossaarga
vuossarga
vuosttas
vuota
vuotta
vuovda
vuovdij
vuovdijn
vuovijd
vuovvijn
vuođa
vuođaba
vuođah
vurda
vurduv
vus
vutta
vuttiđ
vuttum
vuva
vva
vvceeʒʒaz
vvil
vvileh
vvir
vvoo
vvu
vvuđ
vyehi
vyeijee
vyeimi
vyeimih
vyeimila
vyeittee
vyeittei
vyeittein
vyeittiđ
vyel
vyelemus
vyelemuu
vyelgih
vyelgiđ
vyeliga
vyeligis
vyeligisteeda
vyeligub
vyelihia
vyelijua
vyelipeeli
vyelipirra
vyelis
vyelitua
vyeliua
vyelni
vyerkkejum
vyesi
vyesima
vyevdih
vyevdilodda
vyevdira
vyevdist
vyevih
vyyskunnat
vz
vđa
vŋa
w
wa
wacky
wagner
wahlgren
wake
wakeman
waksman
walcott
wald
walensee
wales
walesla
walk
walker
wall
wallace
wallenius
wallis
walt
waltari
walter
waltl
wang
wanica
want
wanted
war
warfare
warren
warrior
warriors
wars
was
washington
washingtonist
watch
waters
watt
watts
way
wayne
we
web
website
wedding
week
wei
weightlifting
weissenbach
wells
wenche
were
werner
wessex
wesslin
west
westermarck
wetton
weyenbergh
whale
whaley
wham
what
wheel
wheeler
when
where
which
whistle
white
who
whole
why
wicked
wide
wiedemann
wien
wii
wiiu
wiki
wikidata
wikidot
wikimedia
wikipedia
wikisource
wild
wilhelm
will
willard
willem
william
williams
williston
willy
wilson
win
winchester
wind
windaus
window
windows
windsor
winehouse
wineland
wing
winger
wings
winnertz
winnie
wins
winston
winter
wirthi
wisconsin
witch
witcher
with
withers
within
without
wizard
wo
wolf
wolfenstein
wolfgang
wollmann
wollstonecraft
wolofkiela
woman
women
won
wonder
wonderful
wonderswan
wood
woodard
woods
woody
word
words
wordsworth
work
working
works
world
worldatlas
worldometer
worlds
wrath
wright
writer
wsoy
wu
wulker
wulp
wuthering
www
wyoming
władysław
x
xbox
xenon
xi
xia
xiii
ximenes
xl
xn
xu
y
ya
yabo
yan
yang
yda
ye
year
years
yeigee
yellow
yes
yet
yeti
yetu
yezimbabwe
yeđe
yeđeh
yha
yho
yi
yin
ykka
yla
yle
yleiskatsaus
yleiskuvaus
ylen
ylenjoki
yli
yliha
ylija
ylijoki
ylikoski
ylikyla
ylimarkku
ylio
yliopisto
ylioppilasmatrikkeli
ylipa
yliskyla
ylistaro
ylivieska
ylla
ylo
ympa
ymparisto
yna
yo
yoichiro
yoko
yonath
york
yorka
yorkist
yorkshire
yoshino
yoshkar
you
young
your
yousafzai
youtube
ypa
yra
yri
yrila
yrja
yrjo
yry
yryla
ys
ysa
ysta
yta
yto
ytteita
yttelija
yttila
ytya
yu
yuan
yugo
yukawa
yule
yumi
yves
z
za
zahlen
zaitzev
zakharova
zambia
zanobi
zanse
zavattari
ze
zealand
zelda
zeme
zero
zetterstedt
zewail
zh
zhang
zhao
zheng
zhou
zhu
zi
ziggy
zimbabwe
zimbabwela
zimmer
zinkernagel
zizhi
zlobin
zola
zone
zong
zool
zork
zourabichvili
zponti
zquez
zu
zuckerberg
zur
zurabis
zviad
zza
zzim
zziđ
{
|
}
~
¡
§
«
­
¯
°
±
²
³
´
·
»
¿
×
ß
æ
ø
øystein
øyvind
đ
đa
đga
đha
đhi
đhih
đhist
đhus
đi
đigil
đigilist
đih
đis
đist
đoid
đu
đuda
đudeijee
đudeijeejeessa
đudeijein
đudem
đudempeivi
đudii
đudij
đudui
đudum
đuduva
đuduveh
đuduvvii
đuh
đui
đuid
đuin
đukirje
đula
đulaaha
đulaava
đuld
đumuora
đun
đus
đusin
đust
đuvuoiga
đđa
đđi
đđoi
đđoid
đđoin
đđoo
đđooh
đđost
đđun
đŋa
łi
ŋ
ŋga
ŋui
ŋuima
œ
ǥǥ
ɐ
ɔ
ə
əbu
əliyev
ɛ
ɡ
ʃ
ʊ
ʒ
ʲ
ʹ
ʻ
ʼ
ʿ
ˇ
ˈ
ˊ
ˋ
ː
˙
̀
́
̂
̃
̄
̆
̇
̈
̊
̋
̌
̑
̔
̛
̠
̣
̦
̧
̨
̬
̭
̮
̯
̱
̲
̸
͂
͕
͡
α
β
γ
δ
ε
θ
ι
κ
λ
ν
π
ρ
υ
φ
ω
а
браття
в
г
город
д
е
ж
з
и
к
коведяева
л
литературного
м
марии
ми
мира
мои
на
наречия
народная
не
ни
ні
о
область
он
п
пе
р
раи
россии
русскии
с
са
саамско
скии
ского
словарь
т
у
украі
уральские
х
ч
ще
ы
э
энциклопедия
ю
я
язык
языка
языки
є
і
ѵ
ү
ә
ө
ԑ
נ
צ
ר
ת
،
؟
ا
استان
الا
ب
بلادي
ة
ت
ح
ر
س
ش
ض
ع
ف
ك
ل
م
ن
و
ي
ٌ
ٍ
َ
ُ
ِ
ّ
ْ
ٓ
ٔ
ٕ
ि
ર
ા
ુ
્
་
།
ག
ང
ཆ
ད
ན
པ
མ
ར
ལ
ས
ི
ུ
ེ
ོ
ྐ
ྒ
ྟ
ྱ
ྲ
ኤርትራ
፡
።
፣
ᴘ
​
‌
‎
‐
–
—
‘
’
“
”
„
†
•
…
′
⁡
€
→
↔
↷
∈
∑
−
∘
∞
∫
≤
≥
⋅
⋯
③
④
⑦
│
ⵉ
ⵍ
ⵜ
⺀
⺄
⺆
⺈
⺊
⺌
⺕
⺝
⺸
⺼
⿰
⿱
⿲
⿳
⿴
⿵
⿶
⿷
⿸
⿹
⿺
⿻
。
〢
゙
゚
イ
ク
コ
ッ
ト
ハ
マ
ミ
ユ
ル
ン
ー
ㄅ
ㄆ
ㄇ
ㄉ
ㄌ
ㄏ
ㄐ
ㄑ
ㄒ
ㄓ
ㄔ
ㄕ
ㄖ
ㄗ
ㄚ
ㄛ
ㄜ
ㄞ
ㄟ
ㄠ
ㄡ
ㄢ
ㄣ
ㄥ
ㄧ
ㄨ
ㄩ
㇁
㇂
㇄
㇇
㇈
㇉
㇓
㐁
㐄
㐅
㐌
㐫
㐬
㐭
㐮
㐱
㑒
㒵
㒸
㒼
㓁
㓞
㔾
㕛
㕣
㖾
㘝
㚅
㚇
㚔
㚘
㝉
㝡
㝴
㝵
㞋
㞢
㞷
㠩
㠭
㠯
㡀
㡭
㡿
㢲
㢴
㣇
㣺
㥯
㪅
㫄
㫐
㫒
㫺
㬅
㬎
㬥
㬰
㲋
㳄
㷠
㸒
㸚
㸦
㼌
㼲
㽞
㿟
䀠
䂞
䍃
䏍
䒑
䖍
䖒
䖝
䖵
䙴
䚻
䜌
䝿
䡛
䧹
䪞
一
丁
丂
七
丄
丅
丆
万
丈
三
上
下
丌
不
与
丏
丐
丑
专
且
丕
世
丘
丙
业
东
丞
丢
丣
两
严
並
丨
丩
个
丫
丬
中
丮
丰
丱
串
丵
丶
丷
丸
丹
为
主
丽
丿
乀
乂
乃
久
乆
乇
么
义
之
乌
乍
乎
乏
乐
乑
乔
乖
乗
乘
乙
乚
乛
乜
九
乞
也
习
乡
乳
乾
亀
亅
了
亇
予
争
事
二
亍
于
亏
亐
云
互
亓
五
井
亘
亚
亜
亞
亟
亠
亡
亢
交
亥
亦
产
亨
亩
享
京
亭
亮
亯
亰
亲
亳
亶
亷
人
亻
亼
亾
仁
今
介
仌
从
仐
仑
仒
仓
仕
他
付
仝
代
令
以
们
任
企
伊
伏
伐
休
会
伯
但
位
何
佘
余
作
佥
使
來
侈
侌
侖
侯
侵
便
保
俞
信
修
倉
倍
們
候
倠
做
備
僉
僕
儿
兀
允
兂
元
兄
充
兆
兇
先
光
兊
克
兌
免
兑
兒
兓
兔
党
兜
兟
入
全
兩
兪
八
公
六
兮
兰
共
关
兵
其
具
典
兹
兼
冀
冂
冃
冄
内
冈
冉
冊
冋
册
再
冎
冏
冐
冒
冓
冖
冗
冘
军
农
冝
冡
冥
冫
冬
冷
几
凡
凢
凵
凶
凷
凸
凹
出
函
凾
刀
刁
刂
刃
刄
刅
分
切
刍
刑
刕
刖
列
刘
则
初
別
利
别
到
制
刺
則
削
剌
前
剡
剽
劉
力
功
加
劦
助
劫
劳
劵
勃
勇
勉
勒
動
務
勞
勤
勹
勺
勻
勾
勿
匀
匂
包
匆
匈
匊
匋
匍
匕
化
北
匚
匝
匡
匪
匱
匸
匹
区
医
匽
匿
區
十
卂
千
卄
卅
卆
升
午
卉
半
卌
华
卑
卒
卓
单
卖
南
卜
卝
卞
占
卡
卢
卣
卤
卦
卩
卪
卬
卯
印
危
即
却
卵
卷
卸
卻
厂
厃
厄
历
厈
厉
厌
厓
厘
厚
原
厤
厥
厨
厭
厲
厶
厷
厸
去
厼
厽
叀
参
參
叅
又
叉
及
友
双
反
叐
发
叒
叔
叕
取
受
叚
叜
叟
口
古
句
另
叩
只
召
可
台
叱
史
右
叵
号
司
叹
吂
各
吅
合
吉
吊
吋
同
名
后
吏
向
吕
君
吝
吞
否
含
启
吳
吴
吹
吼
吾
呂
呆
呈
告
员
呙
周
命
咅
和
咎
咠
咢
咨
咸
咼
哀
品
哉
員
哥
哲
唐
商
啇
問
啚
啬
啻
善
喜
喬
單
喿
嗇
噩
嚴
囊
囗
囘
囙
囚
四
回
囟
因
囧
囬
困
囱
囷
固
国
圂
圅
國
圍
圓
土
圡
圣
圥
在
圭
地
圶
圼
坐
坒
坚
坴
垂
垔
垚
埀
埋
城
埶
執
基
堂
堅
堆
堇
堯
塞
墨
壘
士
壬
壯
声
壳
壴
壹
壺
壽
夂
处
夅
夆
备
夊
夋
夌
复
夏
夒
夕
外
夗
夘
多
夜
夢
大
夨
天
太
夫
夬
夭
央
失
夲
头
夷
夸
夹
夻
夾
奂
奄
奇
奈
奉
奎
奏
奐
契
奓
奔
奚
奞
奠
奢
奥
奭
女
奴
奻
好
如
妄
妙
妟
妥
妻
妾
姑
委
姜
威
娄
婁
婴
嬰
嬴
子
孑
孔
孕
孖
字
存
孚
孛
孝
孟
季
孤
学
孫
孱
學
宀
宁
宂
它
宅
宇
守
安
宋
完
宏
宓
宗
官
定
宛
宜
宝
客
宣
室
宮
宰
害
家
容
宾
宿
寄
寅
密
富
寒
察
寧
審
寫
寬
寮
寸
对
寺
寻
寽
対
寿
封
尃
射
将
將
專
尉
尊
尋
尌
對
小
少
尒
尓
尔
尖
尗
尚
尞
尢
尣
尤
尧
尨
尭
就
尸
尹
尺
尻
尼
尽
尾
尿
局
居
屈
屋
屎
屏
屑
展
屖
屚
属
屠
屡
屬
屮
屯
屰
山
屵
屾
岁
岂
岑
岡
岩
岳
岸
峯
島
崇
崑
崔
崖
崙
崩
嵬
嶲
巂
巛
川
州
巟
巠
巢
巤
工
左
巧
巨
巩
巫
差
己
已
巳
巴
巷
巸
巽
巾
巿
帀
市
布
希
帚
帛
帝
带
師
席
帶
常
干
平
年
幵
并
幷
幸
幺
幻
幼
幽
幾
广
広
庄
床
底
店
庚
府
度
庫
庭
庶
康
庸
廉
廌
廛
廣
廩
廴
延
廷
建
廾
廿
开
弁
弃
弄
弇
弋
式
弓
弔
引
弗
弘
弜
弟
弥
弦
弱
張
強
强
彊
彌
彎
彐
彑
当
彔
录
彖
彗
彡
形
彥
彦
彧
彭
彳
役
彼
往
待
律
徒
得
徙
從
復
微
徵
心
忄
必
忌
忍
志
忝
忠
忩
快
念
忽
忿
思
怠
急
怱
恆
恒
恩
恭
息
悉
患
悤
悲
悶
惠
惡
惢
愁
愈
意
愛
感
慈
慧
慮
憂
憲
應
戀
戈
戉
戊
戋
戌
戍
戎
成
我
戒
戔
或
戚
戠
戢
截
戲
戶
户
戹
戼
戾
房
所
扁
扇
手
扌
才
打
托
执
承
把
折
拉
拜
拿
掌
推
提
摩
支
攴
攵
收
攸
改
放
政
敄
敌
敏
敕
敖
敗
敝
敞
敢
散
敦
敫
敬
数
敵
敷
數
斂
文
斉
斊
斗
斤
斥
斩
斬
斯
新
方
於
施
斿
旁
旋
族
无
旡
既
旣
日
旦
旧
旨
早
旬
旱
旲
时
旾
昆
昇
昌
昍
明
昏
易
昔
昗
昜
星
春
昬
是
昱
昴
昷
時
晃
晋
晏
普
景
晶
智
暑
暴
曇
曩
曰
曲
曳
更
曷
書
曹
曼
曾
替
最
朁
會
月
有
朋
服
朔
朕
朗
望
朝
木
朩
未
末
本
札
朮
术
朱
朵
朶
朿
杀
杏
杜
束
条
来
東
杲
杳
松
析
林
枚
果
枝
枲
枼
某
柔
查
柬
柰
柴
栗
桀
桑
桼
梁
條
梟
梨
棘
棠
棥
森
楚
業
楽
榮
樂
樊
欠
次
欣
欮
欲
欶
欽
款
歆
歇
歛
止
正
此
步
武
歨
歪
歮
歯
歰
歲
歴
歷
歸
歹
歺
死
殳
段
殷
殸
殹
殺
殻
殿
毋
毌
母
每
毒
比
毕
毚
毛
毳
氏
氐
民
气
氣
水
氵
氶
氷
永
氺
氾
求
汝
汞
江
沃
沓
沙
沝
泉
法
波
泣
泥
泰
洛
洪
活
派
流
浦
浪
浮
淡
淮
清
渚
渠
湯
滿
漸
火
灬
灭
灰
灵
灷
炅
炎
炏
炗
炙
炭
炮
為
烈
烏
烝
焉
無
焦
焱
然
煞
熊
熏
燕
營
燮
爪
爫
爭
爯
爰
爱
爲
爵
父
爻
爽
爾
爿
片
牙
牚
牛
牜
牟
牢
牧
牪
牽
犀
犬
犭
犮
狂
狄
狊
独
狺
猋
猒
猪
献
獻
玄
率
玉
王
玟
玨
珎
班
琴
瑟
瑩
瓜
瓦
甘
甚
生
産
用
甫
甬
田
由
甲
申
电
甶
男
甸
甹
画
甾
畀
界
畏
畐
留
畜
畟
畢
畧
畨
番
畫
異
畱
當
畺
畾
疊
疋
疌
疑
疒
疾
癶
癸
癹
登
發
白
百
皀
皃
的
皆
皇
皋
皐
皕
皮
皷
皿
盃
盆
盇
盈
益
盍
盎
监
盒
盖
盛
盡
監
盤
盧
目
直
相
盾
省
眇
眉
看
眔
眞
真
眷
眼
眾
着
睘
睪
睿
瞏
瞢
瞿
矍
矛
矞
矢
矣
知
矦
短
石
破
碎
磊
磨
示
礻
礼
祟
票
祭
禀
禁
禸
禹
禺
离
禽
禾
禿
秀
秃
秉
秋
科
秝
秦
移
稟
穀
穌
穴
究
穹
空
穿
突
窄
窒
立
竒
竜
竝
竟
章
童
竹
笑
笠
筆
等
答
箕
算
箴
節
篤
篭
米
粉
粛
粟
粤
粦
粲
糞
糸
糹
系
約
納
素
索
紫
累
細
絜
絫
絲
維
綿
縣
繇
纍
纟
缶
网
罒
罔
罕
罗
罙
罡
罢
罪
署
罷
羅
羊
羌
羍
美
羔
羕
羗
羞
羡
羣
群
義
羲
羸
羽
翁
翏
習
翕
翟
翠
翼
老
耂
考
者
耆
而
耎
耑
耒
耳
耴
耶
耷
聂
聊
聖
聚
聶
聿
肀
肃
肅
肉
肖
肙
肥
肩
肯
育
肴
胃
背
胡
胥
能
脊
脩
膚
臣
臤
臧
自
臬
臭
臯
臱
至
致
臺
臼
臽
臾
臿
舀
舂
舄
與
興
舉
舌
舍
舛
舜
舞
舟
般
艮
良
色
艸
艹
艾
芒
芔
芬
芮
花
芳
芺
芻
苔
苗
苟
若
苦
英
茶
茸
荅
草
荒
荣
荼
莆
莧
莫
莽
菆
菊
菐
華
萬
落
葉
著
葛
董
葵
蒙
蒦
蒼
蓋
蓬
蓺
蔑
蔡
蕉
蕭
薄
薛
薦
薰
藍
藏
藥
蘭
虍
虎
虐
虒
虔
處
虖
虗
虘
虚
虛
虜
虞
虫
虽
蚤
蚩
蜀
蜜
蟲
蠡
血
行
衍
衛
衣
衤
表
衮
衰
袁
袞
被
褭
褱
襄
襾
西
覀
要
覃
見
規
覓
覧
親
覽
见
角
解
言
訁
訇
計
詹
誩
諸
讠
谷
豆
豈
豊
豐
豕
豖
豙
象
豦
豩
豪
豸
貇
貝
貞
貟
負
貢
貧
貪
貫
責
貳
貴
買
費
賁
資
賈
賏
賓
賔
賛
賞
賢
賣
質
賴
贊
贝
贡
责
贯
贲
贵
赖
赞
赤
赦
走
起
越
足
路
蹇
身
躬
車
軍
軎
軟
輦
车
辛
辜
辟
辥
辰
辱
農
辵
辶
边
达
过
近
进
连
迫
迷
追
退
送
逆
逐
通
速
造
逢
連
逮
進
遀
遂
過
道
達
遣
適
遷
遺
邊
邑
邕
那
邦
邪
郎
部
郭
都
鄉
酉
酋
配
酓
釆
采
里
重
野
量
金
釒
錢
钅
長
镸
长
門
閃
閉
開
閏
閑
閒
間
閔
閵
閻
闌
门
间
闷
阑
阜
阝
阿
降
陳
隆
隊
隋
際
隡
隨
隱
隶
隹
隺
隻
隼
隽
难
雀
雁
集
雈
雋
雍
雐
雔
雙
雚
雜
雝
離
難
雨
雩
雪
雲
零
雷
需
霍
霜
霝
霞
霸
靈
靑
青
非
靡
面
靣
革
韋
韦
韭
韯
韱
音
頁
頃
項
須
頗
頡
頻
顛
页
風
风
飛
飞
食
飠
養
饣
首
香
馬
馮
駦
马
骨
高
髟
鬥
鬯
鬲
鬼
魚
魯
鮮
鱼
鲁
鳥
鳳
鸟
鹵
鹿
麃
麗
麥
麦
麻
黃
黄
黍
黎
黑
黒
黨
黹
黽
黾
鼎
鼓
鼠
鼻
齊
齋
齐
齒
齿
龍
龙
龜
龟
龠
龰
龱
龴
龵
龶
龷
龸
龹
者
艹
！
（
）
，
？
～
𝄆
𝄇
𞤢
𞤣
𞤭
𞤲
𞥄
𠀁
𠀃
𠀆
𠀉
𠀎
𠀐
𠁁
𠁣
𠂆
𠂇
𠂈
𠂉
𠂊
𠂋
𠂎
𠂒
𠂔
𠂛
𠂡
𠂢
𠂤
𠂬
𠂭
𠂹
𠃊
𠃋
𠃌
𠃍
𠃎
𠃑
𠃓
𠃔
𠃜
𠄌
𠄎
𠄠
𠄢
𠆢
𠆥
𠇍
𠈌
𠌵
𠓜
𠔉
𠔥
𠔼
𠔽
𠔿
𠕀
𠕁
𠕋
𠘧
𠘨
𠙻
𠙼
𠚏
𠚒
𠚤
𠚪
𠣏
𠤎
𠤕
𠥓
𠦄
𠦑
𠦝
𠧒
𠧗
𠧪
𠩺
𠪚
𠫓
𠫔
𠫤
𠬛
𠬝
𠬞
𠬢
𠬤
𠬶
𠮛
𠮦
𠮷
𠯑
𠱠
𠳮
𠷎
𡈼
𡉀
𡉵
𡌥
𡍮
𡏳
𡕒
𡕩
𡕰
𡖅
𡗗
𡗜
𡘆
𡘤
𡧱
𡨄
𡩧
𡬠
𡭽
𡰣
𡰥
𡰪
𡰯
𡰱
𡷈
𡸁
𡿨
𡿩
𡿪
𡿺
𢀖
𢀛
𢀩
𢁙
𢆉
𢆰
𢆶
𢇁
𢇇
𢉖
𢌬
𢌿
𢏚
𢑑
𢑚
𢖻
𢙣
𢛳
𢦏
𢦒
𢧵
𢼄
𢾕
𣁋
𣄼
𣅀
𣅽
𣍘
𣎳
𣎵
𣏋
𣏼
𣗥
𣥂
𣥖
𣦵
𣦼
𣧄
𣪊
𣪠
𣬉
𣳾
𣶒
𤇾
𤊽
𤐫
𤓰
𤔔
𤕨
𤣩
𤰇
𤰔
𤰞
𤴓
𤴔
𤽄
𥁑
𥁕
𥃦
𥃩
𥃭
𥇡
𥑟
𥘅
𥘈
𥝢
𥫗
𥱡
𦈢
𦉪
𦉬
𦉼
𦍌
𦍒
𦎧
𦐇
𦓔
𦔮
𦘒
𦙃
𦚏
𦣝
𦣞
𦣻
𦥑
𦥔
𦥯
𦨉
𦭝
𦰩
𧆞
𧈧
𧘇
𧰨
𧴪
𧴮
𧵩
𧾷
𨸏
𨾴
𩙿
𩠐
𩫏
𩵋
𪉷
𪜀
𪟽
𪠲
𪩲
𫇦
𫔭
𫜸
𫝀
𫠣
𫠩
𫢉
𫥞
𫩏
𫩠
𫪡
𫲽
𫶧
𬀷
𬐘
𬗌
𬙙
𬛸
𬜯
𬟩
𬯁
𬴘
𬺻
𬼉
𬼖
𭀰
𭁈
𭁨
𭅰
𭑈
𭕄
𭗼
𭤨
𭥫
𭻾
𮅕
𮊿
𮍌
𮍏
𮓗
𮥼
𮧮
廾
𰀁
𰀄
𰀈
𰀉
𰀕
𰀠
𰀡
𰀢
𰀪
𰁜
𰃮
𰆊
𰆘
𰋙
𰕎
𰢴
𰧭
𰯲
a--
aak--
aalmug--
aar--
ab--
ac--
acc--
ad--
af--
ag--
age--
ah--
aho--
ahven--
ai--
air--
ak--
aktii--
al--
ala--
alb--
albi--
alda--
ale--
ali--
all--
alme--
almm--
almo--
am--
ama--
amino--
an--
ana--
and--
ang--
anima--
ann--
anno--
antark--
ao--
ap--
apis--
ar--
ara--
are--
arp--
arve--
as--
aseksua--
at--
au--
aus--
av--
ava--
ave--
b--
ba--
bag--
bagg--
bah--
bak--
bakte--
bakteer--
bal--
bam--
bar--
be--
bel--
ben--
bert--
bi--
biblio--
bifu--
bir--
bis--
biseksua--
bl--
bla--
blo--
bo--
boni--
borg--
boul--
bra--
bre--
brevi--
bro--
bru--
brug--
brun--
bu--
buf--
bur--
but--
by--
c--
ca--
can--
car--
cat--
cc--
ccee--
ce--
ch--
cha--
cho--
ci--
cinc--
ck--
cla--
cle--
co--
col--
com--
con--
cong--
cor--
cot--
cre--
cuov--
cur--
d--
da--
dag--
dai--
dal--
dans--
dar--
dde--
de--
del--
dela--
dem--
den--
der--
des--
dessa--
dest--
di--
dig--
dik--
dis--
discip--
dm--
do--
dome--
dr--
dra--
du--
duo--
duvvo--
e--
ea--
ead--
ed--
ee--
eev--
eh--
ei--
eig--
eks--
el--
eli--
ellee--
elleekove--
em--
emer--
en--
end--
eno--
ep--
er--
es--
et--
eu--
eura--
eva--
evaku--
evang--
evi--
evđi--
ex--
exp--
f--
fa--
fage--
fair--
fan--
far--
fe--
feb--
felic--
ferru--
fi--
fie--
figu--
filippi--
film--
fin--
fla--
flavi--
flo--
fo--
folk--
for--
formo--
fow--
fr--
fra--
fu--
fun--
fusc--
fuusio--
g--
ga--
gado--
gal--
gammel--
gar--
ge--
gen--
germa--
gi--
gia--
glas--
glo--
go--
god--
gold--
gona--
gra--
gran--
gre--
green--
gri--
gro--
gru--
gt--
gu--
gui--
gum--
gun--
guov--
gy--
h--
ha--
haap--
haku--
hal--
ham--
han--
hand--
hanhi--
har--
has--
hauh--
hauk--
he--
heim--
hein--
hel--
hels--
hen--
her--
hevo--
hevon--
hi--
hiet--
hiir--
him--
hink--
hinner--
hir--
hira--
hirvi--
his--
hit--
hjo--
hki--
hl--
ho--
home--
honka--
honkila--
hotak--
hovdi--
hre--
ht--
htee--
hti--
htu--
hu--
hui--
hukse--
hul--
hum--
huma--
hunga--
hus--
hy--
hydr--
hye--
hyy--
hđu--
i--
ibe--
ic--
id--
idea--
idu--
ie--
ig--
igi--
ih--
iha--
ii--
ij--
ije--
ijih--
ika--
ikki--
il--
ilo--
im--
imu--
in--
indepen--
indi--
ing--
int--
inter--
io--
ir--
is--
iso--
ist--
it--
iv--
ivi--
iđu--
j--
ja--
jag--
jam--
jauh--
je--
jeggi--
ji--
jie--
jo--
joe--
joi--
joki--
jon--
jor--
joro--
jote--
jouh--
jout--
jođet--
ju--
jul--
jum--
jun--
juo--
jurs--
jus--
juur--
juut--
jy--
k--
ka--
kaas--
kaf--
kah--
kai--
kaja--
kal--
kala--
kam--
kan--
kap--
kar--
karva--
kas--
kastel--
kata--
kauk--
kaur--
kauva--
kav--
ke--
kee--
keeđ--
kei--
kek--
kepi--
kepis--
ker--
kes--
kha--
ki--
kie--
kih--
kii--
kil--
kilpa--
kin--
kinna--
kird--
kirk--
kirkko--
kis--
kit--
kivi--
kla--
kle--
ko--
kob--
koivu--
kol--
kolle--
kom--
kompleks--
kon--
koo--
kopp--
koppa--
kor--
korkea--
koro--
korpi--
kort--
kos--
koti--
kour--
kre--
kritis--
kro--
kry--
ks--
ku--
kuh--
kuiva--
kukon--
kul--
kulo--
kulttuur--
kum--
kun--
kuoh--
kuola--
kuole--
kuor--
kuov--
kuuk--
kuul--
kuur--
kuus--
kuusa--
kuva--
kvi--
ky--
kye--
kyeli--
kyevt--
kyrk--
l--
la--
laak--
lab--
labora--
lah--
lahden--
laigo--
lam--
lan--
lapp--
lase--
lauk--
laur--
laut--
lavi--
ld--
ldi--
ldim--
ldu--
le--
lea--
leh--
lei--
lem--
len--
let--
lgi--
lgu--
li--
lie--
lii--
lij--
lin--
lind--
lippu--
liputtem--
lis--
lisen--
litto--
liu--
livis--
lje--
lju--
lk--
ll--
lla--
llu--
lm--
lmi--
lo--
lodde--
long--
loo--
ls--
lu--
luc--
luh--
lum--
lun--
lund--
luo--
lus--
luuk--
lv--
lvi--
ly--
m--
ma--
maa--
maailm--
mac--
macul--
mad--
mag--
magne--
mah--
mai--
maj--
maks--
mal--
mala--
man--
manne--
mar--
marg--
mas--
math--
mc--
me--
mecci--
med--
megi--
mel--
men--
mere--
meri--
met--
mi--
mic--
micro--
mid--
mie--
mieđet--
mii--
mik--
mikro--
mil--
min--
mis--
mit--
mitte--
mk--
ml--
mm--
mmoo--
mo--
moi--
mol--
mon--
monte--
moo--
morfolog--
mosku--
ms--
mu--
mui--
mul--
multi--
mun--
muo--
mur--
mus--
mut--
muta--
muu--
muumi--
muura--
muusik--
my--
mylly--
n--
na--
naar--
naara--
nan--
nc--
nd--
ndi--
ndu--
ne--
nebra--
nebu--
nem--
net--
netie--
nevala--
new--
ng--
ni--
niem--
nig--
nigri--
nii--
nikka--
nis--
nit--
nja--
nje--
njuo--
nk--
nn--
nni--
no--
non--
nor--
norr--
nove--
npye--
ns--
nsi--
nu--
nuo--
nur--
ny--
o--
oa--
ob--
obsc--
occ--
off--
og--
oh--
ohce--
oho--
ohta--
ohtuu--
oi--
oja--
ok--
ol--
ole--
olgo--
oli--
oly--
om--
on--
onki--
oo--
or--
ora--
orava--
organiz--
ornati--
oro--
os--
ou--
oula--
out--
ov--
ovde--
ox--
p--
pa--
paa--
paar--
paat--
pai--
paje--
pal--
palkin--
palli--
palo--
pam--
pan--
par--
para--
pargo--
park--
pase--
pat--
pav--
pe--
pee--
pei--
peivi--
pel--
peli--
pen--
per--
peru--
pes--
pet--
petro--
ph--
pi--
pie--
pih--
pihlaja--
pii--
piis--
pir--
pirtti--
pis--
piv--
pla--
po--
pog--
poh--
pohja--
poly--
pop--
por--
pou--
pow--
poz--
pp--
pre--
prefek--
pri--
pride--
pro--
produc--
profe--
projek--
provi--
pu--
puh--
pulk--
puo--
puoi--
puu--
puzz--
py--
pye--
pyy--
q--
qua--
quan--
r--
ra--
radio--
rah--
rai--
rake--
ran--
rang--
rauk--
raut--
ravi--
rbi--
rd--
rds--
re--
rea--
rec--
redus--
ree--
reh--
rein--
rekin--
rep--
res--
resur--
rgu--
ri--
rid--
riddo--
rie--
rii--
riihi--
rik--
rikos--
riks--
rje--
rji--
rju--
rk--
rkko--
rn--
rnoo--
ro--
rob--
rois--
rom--
roo--
rr--
rre--
rs--
rsuol--
rt--
ru--
rufi--
rug--
ruh--
run--
ruo--
rus--
rut--
ruuh--
ruuk--
rv--
rvu--
ry--
s--
sa--
saa--
saari--
sab--
sac--
sai--
saja--
salu--
sam--
sand--
sang--
sar--
sas--
sata--
sate--
sax--
sc--
sch--
sche--
schi--
scor--
se--
see--
sei--
sek--
seks--
seksuaal--
sel--
sem--
sen--
ser--
servi--
set--
seyche--
sha--
she--
shi--
si--
sibe--
sie--
sig--
sii--
siika--
sil--
sim--
simu--
sin--
sir--
sis--
siske--
sist--
sivakka--
sk--
ska--
skeŋ--
ski--
sko--
sku--
sky--
sm--
smu--
so--
sobe--
sol--
somme--
soolo--
sor--
sosia--
sosialdem--
sou--
sov--
sp--
spa--
spekt--
sper--
spo--
ss--
st--
sta--
stackel--
star--
ste--
stem--
ster--
sti--
stra--
stu--
stucken--
su--
sub--
sui--
suks--
sun--
suo--
suoi--
sus--
suu--
sv--
sva--
swe--
sy--
sye--
sys--
t--
ta--
taav--
tac--
taga--
tai--
taka--
talo--
talvia--
tam--
tan--
tar--
tave--
tcha--
te--
techno--
tee--
tek--
tem--
ten--
teo--
ter--
tes--
teu--
th--
thor--
thun--
ti--
tie--
tii--
tiili--
tikka--
tim--
tki--
to--
toi--
tollii--
tom--
ton--
tor--
tot--
tra--
tre--
tri--
tries--
tro--
tru--
ts--
tt--
tu--
tuhhi--
tul--
tum--
tun--
tuoh--
tus--
tutki--
tuu--
tw--
ty--
tye--
u--
ub--
uce--
ug--
uh--
ui--
ujo--
uk--
ul--
ulgu--
um--
un--
up--
ur--
us--
ut--
uu--
v--
va--
vaali--
vai--
vaigu--
vaiku--
val--
van--
var--
varij--
varpa--
vdi--
ve--
veh--
vel--
ven--
venet--
ver--
vesi--
vety--
vi--
vie--
vig--
vih--
vii--
vijdo--
vijđ--
vil--
villa--
vis--
vlu--
vo--
voi--
vol--
vollii--
vppi--
vri--
vs--
vu--
vuo--
vuob--
vuos--
vye--
vyeb--
vyeij--
vyesti--
vyevdi--
w--
wa--
war--
we--
wen--
wil--
wimble--
wis--
wiz--
wo--
woz--
wri--
wro--
wu--
x--
xi--
y--
ya--
yan--
yegi--
yes--
yh--
yi--
yli--
yo--
ys--
ytt--
yu--
z--
za--
zh--
zi--
zom--
æ--
æthel--
ð--
þ--
đ--
đu--
đus--
đđu--
ŋ--
в--
д--
изуче--
ист--
к--
ма--
о--
ро--
с--
ск--
ـ--
ل--
--0
--1
--2
--25
--3
--4
--5
--6
--7
--8
--9
--a
--aa
--aal
--aallovoh
--aan
--aari
--aat
--abacka
--ac
--ade
--ae
--ah
--ainen
--aipale
--ais
--aja
--ak
--akiela
--akko
--al
--ala
--alis
--almi
--alo
--am
--amo
--an
--ana
--ani
--ano
--ant
--apiir
--ar
--ara
--arby
--ard
--ari
--aria
--arrow
--ary
--as
--ast
--at
--ata
--avda
--avij
--aw
--ax
--b
--ba
--be
--bel
--ber
--bia
--bilis
--bo
--board
--bon
--bund
--burg
--by
--c
--ca
--cal
--ce
--ch
--chi
--ci
--cia
--cio
--ck
--cka
--co
--cordia
--craft
--cs
--ct
--cted
--culata
--cus
--cy
--d
--da
--day
--dby
--de
--ded
--deh
--di
--dia
--dium
--dla
--do
--ds
--dt
--duu
--duv
--dy
--e
--ea
--eaddji
--eb
--ec
--ed
--ee
--eec
--een
--eh
--ei
--eijen
--ek
--eka
--el
--ela
--eld
--ell
--ella
--em
--ema
--eman
--emi
--en
--ena
--ence
--eni
--enna
--ens
--ensis
--ent
--eo
--er
--era
--eri
--ern
--ers
--es
--ese
--est
--et
--eta
--ett
--eus
--ey
--ez
--f
--fa
--ff
--finnhova
--fo
--fors
--g
--ga
--gat
--gby
--ge
--ged
--ger
--gers
--ges
--gg
--gham
--gi
--gijn
--gin
--gis
--go
--gon
--gs
--gton
--gu
--gua
--h
--ha
--he
--hee
--hen
--her
--hew
--hi
--hii
--hio
--hip
--ho
--hola
--hop
--ht
--hti
--hu
--i
--ia
--ial
--iala
--ian
--ias
--iast
--ic
--ica
--ical
--id
--ide
--ie
--iella
--iemi
--ier
--ies
--ife
--ig
--igh
--ight
--ign
--ih
--ii
--iih
--iik
--iist
--ij
--ija
--ijd
--ijee
--ijn
--ik
--ike
--il
--ila
--illa
--ille
--illo
--im
--ima
--in
--ina
--ind
--inen
--ing
--ins
--io
--ion
--ior
--ip
--ipale
--ipennis
--is
--ische
--ish
--isi
--isii
--isk
--ist
--istla
--isto
--isuja
--it
--ita
--ito
--ity
--ium
--ius
--ive
--ix
--iđ
--j
--ja
--jala
--jat
--jd
--je
--jeed
--jeen
--jen
--jesa
--jest
--ji
--jijd
--jn
--jo
--joki
--jola
--ju
--jua
--jula
--june
--juuha
--k
--ka
--kainen
--kama
--ke
--ken
--ki
--kia
--kiela
--kih
--kio
--kka
--kkala
--kko
--kkola
--ko
--kode
--kola
--kove
--ks
--ksela
--ksi
--ksia
--kt
--ku
--kua
--ky
--kyla
--l
--la
--laan
--lag
--lainen
--lala
--lampi
--lan
--land
--laus
--lax
--lbum
--ld
--le
--leh
--ler
--ley
--lf
--li
--lii
--liih
--lij
--lijn
--lin
--lio
--lis
--ll
--lla
--lle
--llinen
--llio
--lm
--lmi
--lo
--lohhoon
--lola
--lon
--lovoh
--lovvoid
--lpis
--ls
--lt
--lu
--ly
--m
--ma
--maa
--maja
--mala
--man
--mann
--mat
--mba
--mber
--me
--mer
--mes
--mi
--mia
--mic
--mio
--mme
--mna
--mo
--mon
--mp
--mpi
--ms
--mu
--my
--n
--na
--nah
--nal
--nala
--nberg
--nce
--nd
--ndo
--ne
--nea
--nee
--nen
--ner
--nes
--ness
--ng
--nger
--ni
--nia
--nica
--niemi
--nila
--nio
--nja
--nk
--nka
--nki
--nkyla
--nma
--nmo
--nn
--nne
--nnis
--no
--npa
--ns
--nsalo
--nsis
--nska
--nt
--nta
--nte
--nto
--nts
--nuba
--nuel
--ny
--nzo
--o
--od
--ody
--og
--oh
--oi
--oja
--ok
--oki
--ola
--olm
--olo
--olog
--om
--ome
--on
--ong
--oni
--ons
--oo
--oon
--op
--or
--ori
--ors
--ort
--ory
--os
--osa
--ost
--ot
--ota
--oto
--ou
--ov
--ova
--ovsk
--ow
--ows
--ox
--p
--pa
--paje
--pas
--pe
--pele
--pi
--pia
--pin
--pl
--po
--pola
--pp
--ppa
--ps
--pu
--pua
--puu
--pyo
--q
--r
--ra
--rainen
--rala
--ras
--rata
--rađe
--rbo
--rce
--rchy
--rd
--rdij
--rds
--re
--reh
--ret
--rey
--rf
--rg
--ri
--ria
--rik
--ris
--rit
--rk
--rki
--rla
--rm
--rmi
--rn
--rna
--rne
--rned
--ro
--ron
--rre
--rs
--rt
--rth
--ru
--rua
--rud
--ruopsa
--ry
--s
--sa
--saame
--sali
--salo
--sbo
--sby
--sc
--scens
--sche
--schen
--se
--sela
--sell
--sen
--sfa
--sga
--sh
--si
--sia
--sii
--sila
--sion
--sis
--sja
--sk
--ska
--ski
--skog
--smo
--sna
--so
--son
--soovsa
--sopa
--sor
--ss
--sson
--st
--sta
--stad
--ste
--stis
--sto
--stra
--su
--sua
--suu
--t
--ta
--taa
--taapiir
--taja
--taka
--tala
--tama
--tar
--tby
--te
--tech
--ted
--tee
--tel
--tem
--ten
--ter
--terio
--tes
--th
--thal
--ti
--tia
--tic
--tiivla
--tion
--tiv
--tiđ
--to
--toima
--tola
--ton
--too
--tor
--tris
--tro
--ts
--tsk
--tsu
--tt
--tta
--tte
--tty
--tu
--tua
--tum
--tupe
--ture
--tus
--tuđ
--ty
--tz
--u
--ua
--ual
--uata
--ub
--uca
--ud
--udo
--ue
--ugh
--ugu
--uh
--ui
--uke
--ul
--ula
--uli
--um
--uma
--umos
--un
--une
--uo
--ur
--ure
--uri
--us
--uss
--ut
--uta
--ute
--uti
--uto
--utta
--uu
--uus
--uut
--uva
--ux
--v
--va
--ve
--veh
--vi
--vij
--vijd
--vijn
--vik
--vin
--vio
--vo
--voo
--vua
--vy
--vyevi
--w
--wa
--we
--wn
--x
--y
--ya
--ye
--yer
--yma
--yn
--yo
--ys
--z
--za
--ze
--zer
--zhi
--zi
--zo
--zz
--đ
--đe
--đi
--ŋa
--ŋka
--а
--ант
--ва
--го
--е
--и
--к
--о
--ова
--ська
--ь
--я
--і
