!
"
##0
##1
##10
##11
##12
##13
##14
##15
##16
##17
##18
##19
##2
##20
##21
##22
##23
##24
##25
##26
##27
##28
##29
##3
##30
##31
##32
##33
##34
##35
##36
##37
##38
##39
##4
##40
##41
##42
##43
##44
##45
##46
##47
##48
##49
##5
##50
##51
##52
##53
##54
##55
##56
##57
##58
##59
##6
##60
##61
##62
##63
##64
##65
##66
##67
##68
##69
##7
##70
##71
##72
##73
##74
##75
##76
##77
##78
##79
##8
##80
##81
##82
##83
##84
##85
##86
##87
##88
##89
##9
##90
##91
##92
##93
##94
##95
##96
##97
##98
##99
$
%
&
'
(
)
+
,
-
.
/
0
000
01
02
060
090
1
10
100
1000
101
102
104
105
106
107
108
109
11
110
111
112
114
1147
116
117
118
1193
12
120
1200
121
127
129
13
1300
132
134
14
1483
149
1491
1492
15
150
1500
1509
1520
1534
154
1556
1580
1596
16
160
1609
1610
1626
1642
1643
1644
1650
1654
1666
1682
1694
17
1707
1715
1716
1749
1757
1766
1769
1770
1772
1773
1774
1775
1778
1779
1782
1783
1787
1788
1789
1790
1791
1792
1795
1797
1799
18
180
1800
1801
1802
1803
1804
1805
1806
1807
1808
1809
1810
1812
1813
1814
1815
1816
1817
1818
1819
1820
1821
1822
1823
1824
1825
1826
1827
1828
1830
1831
1832
1833
1834
1835
1836
1837
1838
1839
1840
1841
1842
1843
1844
1845
1846
1847
1848
1849
1850
1851
1853
1854
1855
1856
1858
1859
1860
1861
1862
1863
1864
1865
1866
1867
1868
1869
1870
1871
1872
1873
1874
1875
1876
1877
1878
1879
1880
1881
1882
1883
1885
1886
1887
1888
1889
1890
1891
1892
1893
1894
1895
1896
1897
1898
1899
19
1900
1901
1902
1903
1904
1905
1906
1907
1908
1909
1910
1911
1912
1913
1914
1915
1916
1917
1918
1919
1920
1921
1922
1923
1924
1925
1926
1927
1928
1929
1930
1931
1932
1933
1934
1935
1936
1937
1938
1939
1940
1941
1942
1943
1944
1945
1946
1947
1948
1949
1950
1951
1952
1953
1954
1955
1956
1957
1958
1959
196
1960
1961
1962
1963
1964
1965
1966
1967
1968
1969
1970
1971
1972
1973
1974
1975
1976
1977
1978
1979
1980
1981
1982
1983
1984
1985
1986
1987
1988
1989
199
1990
1991
1992
1993
1994
1995
1996
1997
1998
1999
2
20
200
2000
2001
2002
2003
2004
2005
2006
2007
2008
2009
201
2010
2011
2012
2013
2014
2015
2016
2017
2018
2019
2020
2021
206
207
208
209
21
210
212
22
220
221
23
238
24
241
243
244
249
25
250
2500
255
26
269
27
28
280
288
289
29
295
3
30
300
3000
30000
31
32
320
33
330
34
35
350
36
365
366
37
371
377
378
38
381
39
399
4
40
400
4000
41
415
42
420
43
44
45
450
46
47
48
49
5
50
500
5000
51
52
527
53
54
55
550
56
57
58
580
59
590
6
60
600
6000
61
62
625
63
64
65
66
67
68
686
69
7
70
700
71
72
73
74
742
75
750
76
77
78
79
8
80
800
8000
809
810
82
83
84
840
843
849
85
853
86
87
870
88
89
9
90
900
91
92
93
94
945
95
950
96
960
962
978
98
99
:
;
<
=
>
?
[
]
_
`
a
aa
aakɛ
aakɛna
aasii
aatee
aawɛ
aazii
abala
abalaa
abalaajo
abalɩ
abalɩmasɩ
abalɩmayaɣ
abalɩn
abalɩpɩɣa
abalɩtʊ
abalɩtʋ
abalʊ
abalʋ
abat
abbaye
abd
abdel
abdelmalek
abdou
abeba
abeti
abiijaŋ
abila
abiɖe
abraham
abrɩham
abu
abuuja
abɩ
abɩɩjaŋ
aca
acana
acaɣ
achebe
achille
acɔ
acɔŋna
ad
ada
adam
adisi
adolf
adolph
adolphe
adɔtɔ
afa
afanaa
afelaa
afema
afganistani
afo
africa
african
afrika
afrɩka
afɛyɩ
afɛyɩna
afɩganɩstaanɩ
afʊwanɩ
agandɛ
agatha
agbaba
agbama
agbeela
agbela
agbele
agbelenaa
agbeɣla
ageeta
ageetaa
agoza
agɔlɔma
agɔlɩma
agɔma
aha
ahaɣ
ahela
ahmed
ahɔya
ahɛkʊ
ahʊna
ai
aire
ais
ajama
ajana
ajɔɔ
ajɔɔla
ajɛya
ajɛyaa
ajɛyɛ
ajɛyɛɛ
ajɛɛ
aka
akademii
akaŋgaa
akbar
akele
akira
akon
akpadɩyaa
akpagba
akpalasʊʊ
akpaɣ
akpema
akpendu
akpenu
akpɛnda
akpɛndɩ
aku
akɔma
akɔnta
akɛ
akɛna
akɩ
akɩla
akɩlɩ
akɩlɩna
akɩlɩɣ
akɩtɩnɩdɩ
akɩtɩnɩyɔm
al
ala
alaa
alaafɩya
alaba
alabama
alabamaa
alabʊ
alafɩya
alakɩ
alakɩna
alamɩyɛ
alan
alaskaa
alba
albert
albrecht
aleewaa
aleeya
alexander
alexandre
alexandrie
alexis
aleɣya
alfred
ali
alighieri
alimiiniyɔɔm
aliwaatʊ
alizee
alizeerii
alizerii
alla
allah
allen
alliance
aloma
alpha
alphonse
alsace
alto
alɛ
alɛkɩsandrii
alɩ
alɩfa
alɩkɔɔlɩ
alɩmɩyɛ
alɩna
alɩwaatʊ
alɩwaatʋ
alɩwaayʊʊ
alɩwatʊ
alɩzɩ
alɩɣ
alɩɣna
alɩɩ
alɩʊ
alʊ
alʊwaatʊ
alʊʊ
am
ama
amala
amazon
amazonii
amaɣna
ambroise
ame
amerika
ameriki
ametisiti
ammad
amn
ampiiri
ampiri
amsa
amstɛrɩdam
amsɩ
amsʊ
amsʊʊ
amtʊ
amtʊʊ
amtʋ
amɛrɩsɩyɔm
amɛɛ
amɩyɛ
amʊ
amʊza
amʊzɛ
amʊʊza
amʊʊzɛ
amʋʋza
an
ana
anaa
anaalɛ
anasaayɩ
anasaayɩnaa
anasayɩ
anasayɩnaa
anaɣ
anaɣam
anaɣm
and
anders
andre
andrew
android
andy
andɛɛzɩ
ange
angela
angeles
angilisi
angleterre
angletɛrɩ
anglo
anjaʊ
anjaʋ
anjaʋnaa
anna
annan
anne
ano
ansaayɩnaa
antarɩtiki
antoine
anton
antoni
antonio
antɩmʊwanɩ
anu
anzelɛsɩ
anzɩ
anɛ
anɛyɔ
anɩ
anɩhɔ
anɩza
anɩɣ
ape
apollo
apostolo
apple
apre
apɩsɩ
apɩzɩ
apɩzɩɣ
apɩzʊ
ar
araabii
araabɩ
araabʊ
arabi
arabii
arabɩ
arabɩɩ
arafat
aragon
arc
archime
ari
ariizonaa
aristote
arizona
arkanzaa
armstrong
arrhenius
art
arthur
arzantiini
arɩkɔŋ
arɩsɛnɩkɩ
arɩzaɣ
as
asa
aseeɖe
aseɣla
aseɣɖe
asia
asiyee
assemble
assise
asuluma
aswany
asɛyʊ
asɛyʊʊ
asɩ
asɩba
asɩbɩna
asɩna
asɩɣ
asʊʊ
asʋ
at
ata
ataa
atalɩ
atalɩɣ
atalʊ
athe
atilantiki
atlantiki
atlantique
atoom
atuu
atɔkɩ
atɛ
atɛnɩ
atɛya
atɩlantiki
atɩlɛtɩsɩm
atɩma
atɩŋ
atɩŋa
atʊ
au
audrey
auer
augusta
auguste
augustin
aung
austen
autriche
auvergne
avema
avila
awalɩ
awayii
awayɩ
awiihɛɛ
awiya
awiyaa
awuusa
awɛ
awɛna
awɛɛ
awɛɛna
awɛʊ
awɩlɩɣ
axe
axel
ayaa
ayaba
ayaɣ
ayilandi
ayɔɔdɩɣ
ayɔɔdʊʊ
ayɩnstayɩnɩyɔm
azii
azuluma
azuuma
azɔɔtɩ
azɛyʊ
azɛyʋʋ
azɩ
azɩn
azɩna
azɩyaa
azɩyʊ
azɩŋ
azɩɣ
azʊʊ
azʊʊma
azʋʋ
aŋ
aŋganda
aŋgba
aŋgbaa
aŋgilisi
aŋgilitɛɛrɩ
aŋgletɛɛrɩ
aŋglɩkan
aŋglɩtɛɛrɩ
aŋgolaa
aŋgɩlɩtɛɛrɩ
aŋjaʊ
aŋjaʊnaa
aŋkor
aŋwanaa
aŋŋwanaa
aɖakasɩ
aɖakaɣ
aɖaɖa
aɖaɣ
aɖɔ
aɖɔnɖɔlɛɛ
aɖɔɔ
aɖɩŋ
aɖʊ
aɖʋ
aɣ
aɣna
aɣʊ
aɣʋ
b
ba
baalɛɛnɩ
babylone
bach
bacon
bad
bagdad
baha
balard
balla
ban
bang
bank
baptiste
bara
barack
barto
basho
basile
bavie
be
beatles
bec
beethoven
bella
bellow
ben
benjamin
benoi
berkeley
berlin
bernard
bernhard
bernhardt
bernheim
bertrand
berze
berzelius
besanc
bet
bi
big
biko
bill
bing
bismarck
bismark
biye
bizet
bk
black
blaise
ble
blue
bluzɩ
bo
bob
bohr
boisbaudran
bolivar
bonaparte
borges
bourbon
bourgogne
brahms
branwell
bretagne
brevet
brian
bridge
bronte
brown
bu
bundibugyo
burj
buudiyism
bɔrɩ
bɛrɩlɩyɔm
bʋ
c
ca
caa
caacibeɣa
caadɩ
caafela
caajaasɩ
caama
caanaa
caanaʊ
caanaʋ
caaɣ
caaʊ
cabɩ
caca
caen
cakɩ
cakɩna
calɩ
calɩm
calɩna
camara
cambridge
camus
camɖɩyɛ
camɩyɛ
canaan
canatʊ
canaɣ
canaʊ
canique
cannes
cantor
canɖaŋ
canɖaʊ
canɩɩ
cap
capet
carl
carme
cartier
castille
cathe
catherine
catholika
cazʊ
cazʊʊ
caŋ
caŋga
caŋgayɩ
caɣ
caɣa
caɣna
caɣya
caɣyaa
caɣyɛ
caɣyʊ
caɣyʋ
caɣʊ
caɣʊʊ
caɣʋ
caɣʋʋ
caʊʊ
ce
cedeao
cedh
cee
cejewa
cejewaa
cejewiye
center
centrale
cervantes
ceu
ceviye
cf
ch
cha
cham
chaplin
charcot
charlemagne
charles
charlie
charlotte
chaucer
chicago
chine
chopin
chris
christian
christoph
christophe
chrɩstʊ
church
churchill
cibuuti
ciidiɣ
ciiduu
ciini
cikpelaɣ
cikpelu
cikpeluu
cikpem
cikpema
cikpena
cikpesi
cikpetu
cikpetʊ
cikpeŋ
cikpeɖe
cisse
citrus
city
civilisation
ciyam
ciŋgaayi
ciŋgili
ciŋgilinaa
ciŋili
ciɣduu
claire
clarissa
claude
cle
clermont
cleve
co
code
coka
college
colomb
colombe
com
commonwealth
compaore
comte
confucius
connecticut
constantin
constantinople
cook
copernic
corte
cosi
cosuu
critique
croix
crosby
cukaŋ
cukudu
cunaami
curie
cɔ
cɔjɔ
cɔjɔnaa
cɔjɔtʊ
cɔka
cɔkɔyɛ
cɔlɔ
cɔlɩ
cɔlɩyaa
cɔlɩyɛ
cɔlɩɩ
cɔlʊʊ
cɔlʋʋ
cɔm
cɔna
cɔnaa
cɔnayʊ
cɔnaʊ
cɔnaʋ
cɔnɩna
cɔnɩyaa
cɔnɩyʊ
cɔnɩyʋ
cɔtʊʊ
cɔzɔ
cɔzɔnaa
cɔŋaɣna
cɔŋna
cɔŋnana
cɔɔ
cɔɔcɩ
cɔɔcɩnaa
cɔɔʊ
cɔʊ
cɔʊʊ
cɔʋ
cɛ
cɛba
cɛbɩyaɣ
cɛcɛsɩ
cɛcɛyaɣ
cɛja
cɛjɛ
cɛjɛsɩ
cɛkasɩ
cɛkaɣ
cɛkɩ
cɛlɩɣ
cɛlʊʊ
cɛlʋʋ
cɛnzɩ
cɛtɩm
cɛyɩ
cɛyɩtʊ
cɛyʊ
cɛyʊʊ
cɛzɩ
cɛzʊʊ
cɛŋga
cɛŋgbɛ
cɛɛcɛ
cɛɛcɛnaa
cɛɛkɩ
cɩcɩka
cɩkaɣ
cɩkpaŋ
cɩkpema
cɩkpena
cɩkpesɩ
cɩkpeŋ
cɩkpɛndɩɣ
cɩkpɛndʊ
cɩkpɛndʊʊ
cɩla
cɩmɩŋ
cɩmʊ
cɩmʊʊ
cɩmʋʋ
cɩna
cɩnɛ
cɩyɩm
cɩŋ
cɩŋcɩŋ
cɩŋga
cɩɖɩ
cɩɖɩcɩɖɩ
cɩɩɩ
cʊcʊɖɛ
cʊlʊ
cʊndʊlʊm
cʊŋ
cʊʊ
cʋlʋ
cʋʋ
d
da
daa
dalai
dali
dame
dan
daniel
dans
dante
darmstadt
darwin
das
david
davy
dc
de
debussy
del
demokrasii
denis
der
des
descartes
desmond
di
diabate
dickens
didier
die
diego
dieu
dijon
din
diouf
disney
dith
dj
dje
dmitri
do
dollars
dominique
don
donald
doo
dooo
dostoi
douard
doubna
dour
drake
drogba
droit
droits
droukdel
du
duc
durante
dzi
dɩ
dʋ
e
edimbourg
edison
edo
edouard
eduye
edward
edwin
eeboolaa
eelɛkɩtroniiki
eeroo
eerɔpɩ
eerɔpʊ
eerɔpʋ
eerɔɔpʊ
eeɖou
efebiya
efebu
efeletu
efemiye
egbele
egbelenaa
egbena
egeetiye
egetiye
egipiti
egwu
egypti
eheyi
ehiu
ehiɣ
ehuu
ehuuzi
eiffel
einstein
ejaɖɛ
eka
ekeberg
ekiza
ekizi
ekosi
ekpe
ekpele
ekpena
ekuli
ekuwatɛrɩ
ekɔsɩ
ekɔɔsɩ
el
elebu
eleeu
elesi
elias
eliot
elisabeth
elizabeth
ellen
elu
eluba
eluki
elvis
eme
emeroodi
emile
emily
emiraatɩ
emma
emmanuel
empire
empiri
en
eneɣa
englisɩɩ
englɩsɩɩ
episikopu
episikɔpʊ
epistemolozii
er
ere
eriitree
eris
ernest
ernesto
ernst
eroo
erɔpɩ
erɔpɩyɔm
erɔpʊ
es
ese
essozimna
est
esusi
esuu
esɩperantɔ
et
etaazuni
etaazunii
etaazuuni
etaazuunii
etanɔɔlɩ
etazuni
etazunii
etazuunii
ete
etee
eteu
eteɣu
etienne
etii
etiiki
etiki
etisaa
etisi
etiyina
etiyoopii
etiyopii
etukina
etɛŋ
euclide
euge
euler
euro
europe
ev
evebiya
evebiyaa
evebu
evebupɩɣa
evemiye
everest
evitch
evski
ewoba
ewoki
ewokina
ewolo
ewona
existence
eyaa
eyade
eyeba
eyebina
eyeke
eyeki
eyekina
eyele
eyoli
eŋgilisi
eɖeke
eɖiyaɣ
eɖiyi
eɖiyiɣ
f
fa
faaa
facebook
fada
fakoly
falaŋga
farsoovii
faso
fasoo
fatiikaŋ
faure
fayɩɩ
fayɩɩɩ
fe
fefekiŋ
fefeku
felendu
fema
fenasi
fenasɩ
fenaɣ
fenezuyeelaa
fer
ferdinand
fernand
ferre
fetenum
feveku
feziŋ
fezu
fezuu
fezɩŋ
feŋ
fibonacci
fichier
fiii
fikitoriya
filim
filipini
filozofii
filozɔfʊ
filozɔɔfʋ
fiodor
firziinii
fitamini
fitenum
fiyoolɔnsɛɛlɩ
fiyoolɔɔ
fiyoolɔɣ
fl
flandɩ
flaubert
florence
floriidii
folk
for
ford
fotonaa
fr
franc
france
francfort
francis
francisco
frank
fransɩ
fransɩɩ
franz
fre
fred
freud
friedrich
frost
fu
fusi
fuwa
fɔlɩka
fɔsɩfɔrɩ
fɔɔfɔɔ
fɔɔfɔɔnaa
fɔɔrɛɛ
fɛbɩtʊ
fɛlɛ
fɛtɩɣ
fɛyɛ
fɛyɩ
fɛyɩna
fɛyʋʋ
fɛɖaa
fɛɖʊ
fɛɛlandɩ
fɛɛrɩ
fɛɛŋ
fɛɛʊ
fɛɛʋ
fɛʊʊ
fɩtɩyɩm
fɩyɛtɩnaam
fɩyɛtɩnamɩyɛ
fɩyɛɛnɩ
fɩŋ
fɩɣa
fʊlʊyɔrɩ
g
ga
gabriel
gabriɛlɩ
gadolin
galile
galles
gama
gandhi
garci
gard
gate
gaulle
gauss
gbe
gbimm
ge
gene
gengis
geoffrey
georg
george
georges
germain
gesellschaft
ghiorso
gi
giovanni
girard
glenn
gnassingbe
go
gobi
goethe
gogh
goire
golden
goobi
google
gordon
gottfried
goya
graham
grand
grande
granth
gre
gregory
gsi
gu
guido
guillaume
guru
gustaf
gustav
gustave
gʋ
h
ha
haba
habsbourg
habɛ
habɛɛ
habɩyɛ
hada
hadɛ
hadɛkiŋ
haendel
hafez
hafɩnɩyɔm
hahn
hai
hakuu
hala
halaa
hall
halɩ
halɩmasɩ
halɩmayaɣ
halɩn
halɩpiyaa
halɩpɩɣa
halɩtʊ
halɩtʋ
halʊ
halʊʊ
halʋ
hama
han
hana
handala
hans
hanzin
haram
harvard
hassan
hasɩ
hasɩyaɖɛ
hasɩyɔm
hatʊ
hatʊʊ
hatʋ
hawayi
hawking
haye
hayi
hayu
hayuu
hayɩ
hayɩm
hayɩsʊ
hayɩsʊʊ
hayʊ
hayʊʊ
hayʋ
hayʋʋ
haŋ
haɖa
haɖaa
haɖaʊ
haɖaʋ
haɖɛ
haɖʊ
haɣ
haɣna
haʊ
haʊʊ
haʋ
he
hebra
heelim
heidegger
heidelberg
heinrich
helim
helu
hendrix
hendu
henri
henriette
henry
hepburn
herbert
hermann
herna
heu
heyi
heyu
heyuu
heŋ
heɣlim
heɣlimaɣ
heɣye
hilbert
hilimiye
hiluu
himalaya
hindi
hitler
hiu
hiuwaa
hiŋ
hiɖɛ
hiɣ
hiʊ
ho
hodo
hoka
hokasi
hokusai
hola
holaa
hollande
hollywood
home
homme
hongrie
honolulu
honore
hoohoo
hooo
hoover
hosaɣ
hosi
houon
house
hoye
hoɖe
http
hu
huang
hubei
huffam
hugo
hugues
hukuu
hulaɣ
huluu
humphry
hussein
huu
huuu
huuye
huuzi
huwa
huyiŋ
huyuu
huyuŋ
huzuu
huŋ
huɖe
huɖuu
hydraulique
hz
hɔ
hɔkʊʊ
hɔlɩmɩyɔm
hɔlɩŋ
hɔlʊ
hɔlʊʊ
hɔlʋʋ
hɔm
hɔmtʊ
hɔsɩ
hɔyɛ
hɔzɩŋ
hɔzʊʊ
hɔzʋʋ
hɔŋ
hɔŋgirii
hɔŋirii
hɔŋkɔŋ
hɔɔ
hɔɔlasɩ
hɔɔlaɣ
hɔɔlɩŋ
hɔɔlɩɣ
hɔɔlɩɣʊ
hɔɔlʊ
hɔɔlʊʊ
hɔɔlʋʋ
hɔɔyɛ
hɔʊ
hɔʋ
hɔʋʋ
hɛbra
hɛkɩŋ
hɛkʊ
hɛkʊʊ
hɛkʋ
hɛkʋdaa
hɛkʋʋ
hɛlɩyɔm
hɛn
hɛtʊ
hɛtʋ
hɛyɛ
hɛyɩ
hɛyʊ
hɛzɩɣ
hɛzʊʊ
hɛŋa
hɛŋga
hɛɖʊʊ
hɛɛ
hɛɛɛ
hɩdrɔzɛnɩ
hɩla
hɩlaa
hɩlaɣ
hɩlɩm
hɩlɩmaɣ
hɩlɩmɩyɛ
hɩm
hɩnɛ
hɩsɩ
hɩŋ
hɩɖɛ
hɩʊ
hʊlʊ
hʊlʊmɩŋ
hʊlʊʊ
hʊndʊ
hʊndʊʊ
hʊnʊm
hʊtʊ
hʊwa
hʊya
hʊyaa
hʊyʊ
hʊyʊʊ
hʊzɩŋ
hʊzʊŋ
hʊzʊʊ
hʊʊ
hʋlʋyʋ
hʋlʋʋ
hʋndʋ
hʋyʋʋ
hʋzɩŋ
hʋzʋŋ
hʋʋ
i
ibn
ibrahim
iche
idahoo
ie
iem
ier
igbo
ignace
igor
ihe
ii
iii
iiranisi
iizilaam
iizilam
il
ilemiye
ilia
illinois
ilnuwaa
im
imam
in
inc
indɩ
institute
international
ir
irak
irakɩ
iran
iranɩ
iraŋ
irilandɩ
irlande
irɩlandɩ
is
isaac
isabelle
isbn
isilandɩ
isitambuli
isitanbuli
ismae
itaali
itaalii
italii
itie
iupac
iv
ivan
ivʋwarɩ
iyowa
izirɛɛlɩ
izrɛɛlɩ
iŋglɩsɩ
j
ja
jaapɔɔnɩ
jackson
jacob
jacques
jakarita
jamayiki
james
jan
jane
japɔŋ
jas
jazz
jaɖɛ
je
jean
jeanne
jenny
jerusalem
jeruzalɛm
ji
jiang
jimmy
jinr
jo
joa
joe
johan
johann
johannes
john
johnny
johnson
jones
jong
jorge
jose
joseph
joyce
jpg
jr
ju
juan
jules
julie
julius
jung
justinien
k
ka
kaa
kaaba
kaabɔŋ
kaabɔɔ
kaabʊ
kaabʊnaa
kaacaɣ
kaakpɛnda
kaakɛ
kaakɛna
kaakɛŋna
kaakɩla
kaakɩlɩ
kaakɩlɩna
kaalaba
kaalakɩsii
kaalɛna
kaalɛyɩtʊ
kaalɛɣna
kaalɩna
kaama
kaan
kaapɩ
kaasɔɔla
kaasɩma
kaatɛma
kaatɩlɩtʊ
kaatɩna
kaawɛ
kaawɛna
kaawɛɛ
kaaya
kaayɔɔda
kaaŋ
kaaɖɔ
kaaɖɔɔtɩ
kaaʊ
kaaʋ
kabasɩ
kabaɣ
kabɩyɛ
kacalaɣ
kacalɣ
kacaɣ
kadadayaɣ
kadasɩ
kadaɣ
kadhafi
kadɩmɩyɔm
kagbaanzɩ
kagbanzɩ
kahaɣ
kahʊyaɣ
kajalaɣ
kajʊka
kaka
kakaa
kakasɩɩ
kakaɣ
kakpaanzɩ
kakpacayaɣna
kakpaɣ
kakɩla
kakɩlɩ
kakɩlɩna
kala
kalaaʊ
kalakaɣ
kalakɩ
kaliforni
kalifɔrnii
kalikuta
kalɩ
kalɩfɔrnii
kalɩfɔrnɩyɔm
kalɩhʊndʊ
kalɩkɔdaɣ
kalɩkɛɛɖɩ
kalɩna
kalɩsɩyɔm
kalɩtʊ
kalɩyasɩ
kalɩyaɣ
kalɩyɔm
kalɩzasɩ
kalɩzaɣ
kalɩɣ
kalɩʊ
kalʊ
kalʊʊ
kalʋ
kalʋʋ
kam
kama
kamasɩ
kamau
kamaŋaɣ
kamaŋgaɣ
kamaɣ
kamaɣfɛyɩ
kambarage
kambii
kambɔjɩ
kameruni
kampala
kamɩyɛ
kamɩŋ
kamʊ
kamʊʊ
kamʋna
kamʋʋ
kan
kana
kanaa
kanaada
kanada
kanadaa
kanahaŋ
kanahaʊ
kanaɣ
kandayʋʋ
kandɩyaa
kandɩyʊ
kandɩyʊʊ
kandɩyʋ
kandɩyʋʋ
kandʊ
kandʊʊ
kano
kant
kante
kantɔnɛɛ
kantɔŋ
kantɔɔ
kanzasii
kanɖʋ
kanɖʋnaa
kanɛ
kanɛyɔ
kapitaalism
kapɩsɩ
kapɩzɩɣ
kapɩzʊ
kapʊvɛɛrɩ
karasii
karasɩm
karayibi
karayiibi
karayiibɩ
karazɩm
kari
karl
karmɛlɩ
karolina
karɔtɩ
karɩbɔnɩ
karɩbɔɔnɩ
kas
kasandʊ
kasandʋ
kasɩma
kasʊʊ
kata
katalɩ
kataŋga
katolika
katoliki
katsushika
katɔlɩnɩtɩ
katɔlɩnɩyɔm
katɛma
katɩlɩ
katɩŋna
katɩɣ
katʊ
katʊʊ
kawɩlaɣ
kawɩlɩɣ
kayaɣ
kazablanka
kazandʊ
kazandʋ
kazʊwa
kaŋ
kaŋgalafu
kaŋgalafunaa
kaŋgbɩsɩ
kaŋkaŋ
kaŋwa
kaɖa
kaɖalakɩŋ
kaɖasɩm
kaɖazɩm
kaɖaɖa
kaɖaɣ
kaɖɛ
kaɖɩbɔnɩ
kaɖɩnaʊ
kaɖɩsɩ
kaɖʊ
kaɖʋ
kaɣ
kaɣlaa
kaɣna
kaɣyʋ
kaʊ
kaʊʊ
kaʋ
ke
kedeŋa
kedeŋga
kediizaɣ
kedizasi
kedizasɩ
kedizaɣ
keebɛkɩ
keeke
keekee
keele
keelee
keem
keesi
keeɣa
keeɣsi
kei
kejeɣa
kekelikelasi
kekpeŋ
kela
kelaa
kele
kelekele
kelimiye
keliŋ
kem
keniya
kent
keteŋa
keteŋga
ketiizaɣ
ketizaɣ
ketu
keveŋaɣ
keveŋga
kewiisi
kewiitu
kewitu
kewiya
kewiyaɣ
kewiyisi
kewiyitu
keynes
keŋ
keŋkeŋ
keɖe
keɖewa
keɖeya
keɖeyaɣ
keɖeɣa
keɣa
keɣlee
keɣsi
keɣsɩ
keɣye
kg
khalifa
khan
khmer
khwarizmi
ki
kideŋ
kidiiliŋ
kidjo
kigiluu
kiinee
kileɖi
kilimuu
kiliuzonuu
kilomɛta
kilomɛtanaa
kilomɛtɛnaa
kilonaa
kim
kin
kinaŋ
kinee
king
kini
kinsasa
kiposina
kitaari
kitibuu
kitiiliŋ
kitiyinasi
kitiyinaɣ
kiwi
kiwolo
kiyeba
kiyeke
kizi
kizina
kiŋ
kiɖe
kiɖedeu
kiɖeɖem
kiɖeɖema
kiɖeɖena
kiɖeɖesi
kiɖeɖetu
kiɖeɖeu
kiɖeɖeye
kiɖeɖeɣ
kiɖeɖeɣa
kiɖeɖeʊ
kiɖi
kiɖikiɖi
klaproth
klaus
klejojos
klokɛnspili
klɔrɩ
km
ko
kobalti
kobo
koboyaɣ
koch
kodiye
koffi
kofi
kolaa
kolaɣ
kolokaɣ
kolokolo
kolombi
kolombii
kolonzi
koloradoo
koloŋa
koloŋga
komiinizim
komina
kominanaa
kominform
komɔŋwɛltɩ
kon
konakrii
konare
konate
kondoloko
kondolokona
kondolokonaa
kone
kong
koobiɖe
koobu
kooka
koorayi
kooraɣ
kooree
kootidiivʊwarɩ
koou
koowa
koozasɩ
koozaɣ
kora
koree
koronaalɩ
koti
kotidivuwarɩ
kotokoli
kotonu
kotonzi
kou
kouyate
kowei
kowolo
kowɛtɩ
koyindinaa
koyindu
koyondina
kozonzi
kozoŋa
koŋ
koŋgo
koŋgoo
koŋo
kpa
kpaagba
kpaagbaa
kpaakpa
kpaakpaa
kpaakpɛyɛ
kpaala
kpaamɩŋ
kpaaŋ
kpabɩtʋ
kpacayaɣ
kpacayaɣna
kpacayʊ
kpada
kpagba
kpagbasɩ
kpakpasɩ
kpakpayaɣ
kpakɩɣ
kpakʊ
kpakʊʊ
kpalahusi
kpam
kpamla
kpamɩŋ
kpana
kpandɩ
kpanjaɣ
kpanɛ
kpasɩ
kpata
kpataa
kpataayala
kpawa
kpayaa
kpayaɣ
kpayi
kpayɩ
kpazʊʊ
kpaŋ
kpaŋgbamɩŋ
kpaŋgbamʊʊ
kpaŋnaŋ
kpaŋnɔ
kpaŋnʊ
kpaɖaŋ
kpaɖɩŋ
kpaɖʊ
kpaɖʊʊ
kpaɖʋ
kpaɖʋʋ
kpaɣ
kpaɣa
kpaɣdʊ
kpaɣla
kpaɣna
kpaɣnɛ
kpaɣnɩ
kpaɣɖɩŋ
kpaɣɖʊ
kpaɣʊ
kpaɣʊʊ
kpaɣʋ
kpaɩ
kpaʊ
kpaʊʊ
kpaʋ
kpede
kpeekp
kpeekpe
kpeekpee
kpegbeka
kpekpe
kpekpeka
kpelasi
kpelasɩ
kpelaɣ
kpelesi
kpeluu
kpem
kpema
kpentɔɔyasɩ
kpeziwɩlaɣ
kpezuu
kpeŋ
kpeŋgbena
kpeŋgbene
kpeŋna
kpeɖe
kpeɖem
kpeɣli
kpeɣluu
kpeɣʊʊ
kpim
kpiɖi
kpokpo
kpokponaa
kpolo
kpooluu
kpootu
kpotoku
kpou
kpoyi
kpoŋ
kpoŋgbolo
kpoŋgbolonaa
kpoŋkpolo
kpɔnɔ
kpɛdɛ
kpɛdɛɛ
kpɛdɩŋ
kpɛlɛka
kpɛlɛkɩ
kpɛlɛkɩtʊ
kpɛlɛkɩya
kpɛlɛkɩyaa
kpɛlɛkɩyʊ
kpɛlɛkɩyʋ
kpɛlɛkɩɣ
kpɛlɛkʊ
kpɛlɛkʊʊ
kpɛlɛkʋʋ
kpɛlɩ
kpɛlɩkpɛlɛkʋʋ
kpɛlɩkpɛlɩ
kpɛlɩkɩtʋ
kpɛm
kpɛnda
kpɛndɛ
kpɛndɩ
kpɛndɩna
kpɛndɩtʊ
kpɛndɩɣ
kpɛndʊ
kpɛndʊʊ
kpɛndʋ
kpɛndʋʋ
kpɛnzʊʊ
kpɛyaɣ
kpɛyɛ
kpɛyɛɛ
kpɛzɩyɛ
kpɛŋgbɛzɛmɩtʊ
kpɛɖɛ
kpɛɛ
kpɛɛnzʊʊ
kpɛɛɛ
kpɛɣɛ
kpɩna
kpɩnaa
kpɩnandʋ
kpɩnɛ
kpɩtaŋ
kpɩtaʊ
kpɩtaʋ
kpɩtɩna
kpɩyɩŋ
kpɩyʊ
kpɩyʊʊ
kpɩzɩŋ
kpʊzɩyɛɛ
krandɩ
krishna
kristu
krowasii
krowelandɩ
krɛkɩ
krɛsɩ
krɛɛkɩ
krɛɛsɩ
krɩstiyaniizism
krɩstʊ
krɩstʋ
ks
ku
kubuka
kudiyiŋ
kudokiŋ
kudoku
kuduyiŋ
kuduyu
kuduyuu
kuduyuŋ
kujomiŋ
kujomuu
kujuka
kuliye
kulu
kulubi
kulubu
kulubutu
kulukulu
kuluu
kuluŋgulu
kumoɖe
kurde
kurom
kurosawa
kususutu
kutokiŋ
kutokoli
kutoku
kuubaa
kuubo
kuviri
kuwarɩtɩsɩ
kuwarɩtɩsɩzɩ
kuwatemala
kuwiviri
kuwiviɖi
kuwivri
kuzusutu
kuŋgulum
kuɖum
kwame
kwivri
kyi
kɔ
kɔcɔlɔ
kɔcɔŋna
kɔfɩ
kɔkɔɖɛ
kɔlaɣ
kɔlɔmɩŋ
kɔlɛzɩ
kɔlɛɛzɩ
kɔm
kɔma
kɔn
kɔna
kɔnaʊ
kɔndɔ
kɔndɔlɩkʋ
kɔndɔtʊ
kɔntrɩbasɩ
kɔnɛtɩkuti
kɔpɛrɩnɩsɩyɔm
kɔtɩɩ
kɔtɩɩɩ
kɔyɔ
kɔyɔɔ
kɔyɔɔdʊʊ
kɔyɛ
kɔzɔ
kɔzɔɖɔnaa
kɔzɩ
kɔŋ
kɔŋgo
kɔŋgoo
kɔŋkɔmbrɩ
kɔŋna
kɔɔ
kɔɔka
kɔɔnaa
kɔɔnaɣ
kɔɔnɔɔ
kɔɔrɩ
kɔɖɩɩɩ
kɛ
kɛdaɣ
kɛdɛŋga
kɛdɛɖaɣ
kɛdɛɛka
kɛdɩna
kɛdɩtʊ
kɛdɩyaa
kɛdɩyʊ
kɛdɩɣ
kɛdʊʊ
kɛfɛyɩ
kɛfɛyɩna
kɛgbɛdɛsaɣ
kɛgbɛyaɣ
kɛkpɛdasɩ
kɛkpɛdɛsaɣ
kɛkpɛdɩsɩ
kɛkpɛlɛkɩɣ
kɛkpɛndɩ
kɛkpɛndʊʊ
kɛkpɛtɛsaɣ
kɛkpɛyaɣ
kɛkpɛyɩsɩ
kɛkɛ
kɛkɛna
kɛkɛŋna
kɛlɛ
kɛlɛm
kɛlɛmnaa
kɛlɛmɩŋ
kɛlɛʊ
kɛlɛʋ
kɛna
kɛnɛ
kɛteŋa
kɛtɛ
kɛtɛma
kɛtɛzɩɣ
kɛtɛzʊʊ
kɛtɛɖaɣ
kɛtɛɛka
kɛwa
kɛwɛ
kɛwɛna
kɛwɛɛ
kɛwɛɛna
kɛzaɣ
kɛŋgɛ
kɛŋna
kɛɛkɛ
kɛɛkɛɛ
kɛɛmasɩ
kɛɛrɩ
kɛɣ
kɛʊ
kɛʋ
kɩ
kɩbam
kɩbama
kɩbana
kɩbandʊ
kɩbandʋ
kɩbanzɩ
kɩbanɖɛ
kɩbaŋga
kɩbaŋʊ
kɩbɩm
kɩbɩma
kɩbɩna
kɩbɩndʊ
kɩbɩnjaazɩ
kɩbɩnzɩ
kɩbɩnɖɛ
kɩbɩnɩɣ
kɩbɩnʊ
kɩbɩnʊʊ
kɩbɩnʋ
kɩbɩnʋʋ
kɩbɩŋ
kɩcaɣ
kɩcɛbɛyʊ
kɩcɛyʊ
kɩcɛyʊʊ
kɩcɩkpɩŋ
kɩdɛkɛdasɩ
kɩdɛkɛdɩm
kɩfalaɣ
kɩfalʊ
kɩfalʊʊ
kɩfalʋ
kɩfalʋʋ
kɩfam
kɩfama
kɩfana
kɩfasɩ
kɩfatʊ
kɩfatʋ
kɩfaŋ
kɩfaɖɛ
kɩfɛyɩ
kɩfɛyɩna
kɩgalʊ
kɩgalʊʊ
kɩgaʊ
kɩgbaanzɩ
kɩgbalaŋ
kɩgbanzɩ
kɩgbɛndʊʊ
kɩgbɩtɩnaʋ
kɩha
kɩhaɣ
kɩhɛyʊʊ
kɩhʊhʊtʊ
kɩhʋlʋʋ
kɩjɛbɛyʊ
kɩjɛkʋ
kɩjɛkʋjɛbʋ
kɩjɛyɩɣ
kɩjɛyʊ
kɩjɛyʊʊ
kɩjɛyʋʋ
kɩkalasɩ
kɩkalaɣ
kɩkalɩsɩ
kɩkalʊʊ
kɩkalʋʋ
kɩkam
kɩkpa
kɩkpalaŋ
kɩkpaɖɩŋ
kɩkpaɖʊ
kɩkpaɖʊʊ
kɩkpaɖʋ
kɩkpaɣ
kɩkpaɣna
kɩkpaɣtʊ
kɩkpɛda
kɩkpɛdaa
kɩkpɛdasɩ
kɩkpɛdaɣ
kɩkpɛdɩm
kɩkpɛdɩɣ
kɩkpɛdʊ
kɩkpɛdʊʊ
kɩkpɛdʋ
kɩkpɛdʋʋ
kɩkpɛlɛkɩɣ
kɩkpɛndasɩ
kɩkpɛndaɣ
kɩkpɛndɩ
kɩkpɛndɩyɛ
kɩkpɛndɩɣ
kɩkpɛndʊ
kɩkpɛndʊɣ
kɩkpɛndʊʊ
kɩkpɛndʋʋ
kɩkpɛɛda
kɩkpɛɛdaa
kɩkɛ
kɩkɛna
kɩkɩla
kɩkɩlɩ
kɩkɩlɩna
kɩkɩlɩɣ
kɩla
kɩlaa
kɩlaba
kɩlabɩm
kɩlabʊ
kɩlakɩ
kɩlana
kɩlaŋ
kɩlaʊ
kɩlaʋ
kɩlomɛtanaa
kɩlɔrɩ
kɩlɛlʋʋ
kɩlɛmɩŋ
kɩlɛzʊʊ
kɩlɩ
kɩlɩm
kɩlɩna
kɩlɩnɛ
kɩlɩyaa
kɩlɩzɩ
kɩlɩzɩm
kɩlɩzɩtʊ
kɩlɩzɩɣ
kɩlɩzʋʋ
kɩlɩɣ
kɩlɩɣna
kɩlɩɩ
kɩlɩʊ
kɩlɩʋ
kɩlʊʊ
kɩma
kɩmabʋ
kɩmabʋʋ
kɩmamanaʋ
kɩmamasɩ
kɩmamatʊ
kɩmamatʋ
kɩmamaɣ
kɩmaŋ
kɩmaɣmaɣ
kɩmaɣna
kɩmaɣnatʊ
kɩmaɣzɩnaʊ
kɩmaɣzʊʊ
kɩmɩyɛ
kɩmʊ
kɩn
kɩna
kɩnamɩyɛ
kɩnatɩnaa
kɩnatʊ
kɩnatʋ
kɩnaɣ
kɩnaʊ
kɩnaʋ
kɩnɛ
kɩnɩyaa
kɩpam
kɩpama
kɩpanzɩ
kɩpanɖɛ
kɩpaŋgʊ
kɩpaɣlɩ
kɩpaɣlʊ
kɩpaɣlʋ
kɩpaɣza
kɩpaɣzɩ
kɩpaɣzɩɣ
kɩpɩma
kɩpɩndʊ
kɩpɩnzɩ
kɩpɩnɖɛ
kɩpɩnʊ
kɩpɩnʊʊ
kɩpɩsa
kɩpɩsɩ
kɩpɩsɩɣ
kɩpɩzɩ
kɩpɩzɩɣ
kɩpɩzʊ
kɩsɛma
kɩsɛmɩŋ
kɩsɛmʊʊ
kɩsɛsɛna
kɩsɛsɛyɛ
kɩsɛɛmaɣ
kɩsɛɛmɩm
kɩsɛɛmʊ
kɩsɩbʋʋ
kɩsɩna
kɩsɩŋna
kɩta
kɩtaa
kɩtalɩ
kɩtɛ
kɩtɛkɛ
kɩtɛzɩ
kɩtɛzɩŋ
kɩtɛzɩɣ
kɩtɛzʊ
kɩtɛzʊʊ
kɩtɛzʋʋ
kɩtɩlɩ
kɩtɩlɩŋ
kɩtɩŋna
kɩwa
kɩwalɩ
kɩwazaɣ
kɩwɛ
kɩwɛna
kɩwɛɛ
kɩwɛɛkɩm
kɩwɛɛna
kɩwɛʊ
kɩwɩlɩ
kɩwɩlɩɣ
kɩya
kɩyaakɩŋ
kɩyaakʊ
kɩyakɩŋ
kɩyakʊ
kɩyakʋ
kɩyaɖɛ
kɩyɔ
kɩyɔɔ
kɩyɔɔdʊʊ
kɩyɛna
kɩyɛɛna
kɩŋ
kɩɖam
kɩɖazɩ
kɩɖaŋ
kɩɖaɣla
kɩɖaʊ
kɩɖaʋ
kɩɖe
kɩɖeɖeu
kɩɖɛ
kɩɖɛzaɣ
kɩɖɛzʊʊ
kɩɖɛɖɛʊ
kɩɖɛɛ
kɩɖɛɛna
kɩɖɛʊ
kɩɩkɛ
kɩɩkɩla
kɩɩlakɩ
kɩɩn
kɩɩnɩnaʊ
kɩɩtalʊʊ
kɩɩwɛ
kɩɩwɛɛkʊʊ
kʊ
kʊdɔmɩŋ
kʊdɔndɩnaa
kʊdɔŋ
kʊdʊyʊ
kʊhʊlʊmaa
kʊhʊlʊmɩŋ
kʊhʊlʊmʊ
kʊhʊlʊmʊʊ
kʊjɔmɩŋ
kʊjɔŋ
kʊjɔʊ
kʊkʊ
kʊkʊyɩmɩŋ
kʊkʊyʊmɩŋ
kʊkʊʊ
kʊlʊlʊ
kʊlʊlʊʊ
kʊlʊm
kʊlʊmaa
kʊlʊmʊ
kʊlʊmʊm
kʊlʊmʊʊ
kʊm
kʊmʊʊ
kʊn
kʊna
kʊnɛ
kʊnʊmɩŋ
kʊnʊŋ
kʊrɩyɔm
kʊsʊʊ
kʊtɔmɩŋ
kʊtɔɔtʊ
kʊtɔɔʊ
kʊtʊ
kʊwɛ
kʊwɛkɩm
kʊya
kʊyaa
kʊyɔ
kʊyɔɔ
kʊyɩ
kʊyɩmɩŋ
kʊyɩnaʊ
kʊyʊ
kʊyʊm
kʊyʊma
kʊyʊmaɣ
kʊyʊmtʊ
kʊyʊmɖɩyɛ
kʊyʊmʊ
kʊyʊmʊm
kʊyʊmʊʊ
kʊyʊʊ
kʊzɔɔtʊ
kʊzʊʊ
kʊɖɔmɩŋ
kʊɖɔŋ
kʊɖʊ
kʊɖʊm
kʊɖʊma
kʊɖʊmaɣ
kʊɖʊmbʊ
kʊɖʊmtʊ
kʊɖʊmɖɩyɛ
kʊɖʊmʊ
kʊɖʊmʊm
kʊɖʊmʊʊ
kʊʊ
kʋ
kʋdɔmɩŋ
kʋdɔŋ
kʋhʋlʋm
kʋhʋʋ
kʋjɔŋ
kʋkʋ
kʋkʋyɩmɩŋ
kʋlɔmɩŋ
kʋn
kʋnɛ
kʋnɛyɔ
kʋnʋmɩŋ
kʋnʋŋ
kʋsʋʋ
kʋwɛ
kʋyɩ
kʋyʋʋ
kʋŋgʋ
kʋɖʋm
kʋɖʋma
kʋɖʋmaɣ
kʋɖʋmtʋ
kʋɖʋmɖɩyɛ
kʋɖʋmʋ
kʋɖʋmʋʋ
kʋʋ
l
la
laadriki
laatriki
laatɛɛ
laba
laboratory
labɩ
labɩna
labɩnaʊ
labɩnaʋ
labɩtʊ
labʊ
labʊʊ
labʋ
labʋʋ
ladibe
ladibiye
ladiɖiki
ladɩyɛ
laika
lakasɩ
lakayaɣ
lakaɣ
lakaɣna
lakɩ
lakɩna
lakɩŋ
lakʊ
lakʊʊ
lakʋ
lala
lalaa
lama
lambu
lambuu
lancen
landammm
lang
langa
lanhɛzɩyɛ
lantanɩ
lantanɩdɩ
lao
laplace
larry
las
latin
latini
latriki
latɛnɩ
latɛŋ
laurent
lauva
lauvas
lauvu
lavoisier
lawrence
lawɔsɩ
layaa
layɩ
layʊ
layʋ
laŋ
laŋga
laŋgbɛzɩyɛ
laŋgɩyɛ
laŋhɛzɩyɛ
laŋɩyɛ
laɖa
laɖaa
laɖɩyɛ
laɖʊ
laɖʋ
laɣsɩ
laʊ
laʋ
le
leba
lecoq
lee
leeleŋ
leemu
leemuu
leemɩŋ
legɔsɩ
leibniz
leipzig
leleŋ
leo
leonhard
leopold
les
lesi
lesuu
ley
leyɔɔnɩ
leɖuu
leɣa
li
liberiya
libreeviili
lida
lidau
lidaʊ
lidaʋ
lie
liibaŋ
liiberiya
liibii
liidiya
liidiye
likaŋ
likiyuu
lila
lilaa
lim
lincoln
lingua
linne
lique
lisbooni
lisitɛnsɩtayɩnɩ
liszt
lita
litanaa
litoozo
litozo
lituyanii
liu
livingstone
lix
liŋ
liŋgala
liŋguu
liɖe
lloyd
lo
loluu
loma
lona
lonaa
londre
londres
lone
loniye
looɖo
lord
los
lotu
louis
lovitch
lowell
loyaɣ
loyisi
loyola
loyuu
loɖo
lu
luambo
luba
lubina
lubitsch
lubu
lubutu
lubɛ
lucien
lucio
ludwig
lugizamburi
luis
lumie
lumumba
luther
lutozo
luutozo
luwandaa
luŋuu
luɖaa
luɖu
lyon
lɔ
lɔbɔɔ
lɔnda
lɔndaa
lɔndrɩ
lɔnsɩnɖɛ
lɔnsɩɖɛ
lɔnzɩnɖɛ
lɔsɩ
lɔŋ
lɔŋsɩnɖɛ
lɔɔ
lɔɔyaɣ
lɔɔŋ
lɔɔɔ
lɔɔɖa
lɔɔɖaa
lɔɔɖɩyɛ
lɔɔʊ
lɔʊ
lɔʋ
lɛ
lɛfɩɩɩ
lɛkʋ
lɛlaa
lɛlaɣ
lɛlɛ
lɛlɛɛ
lɛlʊ
lɛlʋ
lɛsɩ
lɛtonii
lɛzɩtʊ
lɛzʊʊ
lɛŋ
lɛɛba
lɛɛbʊ
lɛɛbʋ
lɛɛka
lɛɛkʊ
lɛɛkʋ
lɛɛla
lɛɛlɛ
lɛɛlɛyɔ
lɛɛlɛɛ
lɛɛlɛɛyɔ
lɛɛlʊ
lɛɛna
lɛɛsɩ
lɛɛtɔɔ
lɛɛtʊ
lɛɛtʋ
lɛɛzɩ
lɛɛzɩtʊ
lɛɛzɩyaa
lɛɛzɩyʊ
lɛɛzɩɣ
lɛɛzʊ
lɛɛzʊʊ
lɛɛŋ
lɛɛɖɛ
lɛɣ
lɛɣna
lɛɣtʊ
lɛɣtʋ
lɛɣza
lɛɣzɩ
lɛɣzɩna
lɛɣzɩtʊ
lɛɣzɩtʋ
lɛɣzɩɣ
lɛɣzʊʊ
lɛɣzʋʋ
lɩ
lɩkpaɣzasɩ
lɩm
lɩmaaza
lɩmaza
lɩmazɩyɛ
lɩmaɣza
lɩmaɣzɛ
lɩmaɣzɩyɛ
lɩmfala
lɩmfalɩyɛ
lɩmɩyɛ
lɩna
lɩnaa
lɩnɛ
lɩnɩ
lɩtɩyɔm
lɩwa
lɩza
lɩzaa
lɩzana
lɩzɩ
lɩzɩna
lɩzɩtʊ
lɩzɩtʋ
lɩzɩya
lɩzɩyaa
lɩzɩyʊ
lɩzɩyʋ
lɩzɩɣ
lɩzɩɣna
lɩzɩʊ
lɩzʊ
lɩzʊʊ
lɩzʋʋ
lɩŋamʊʊ
lɩŋamʋʋ
lɩŋgamɩŋ
lɩŋgamʊʊ
lɩŋgamʋʋ
lɩŋŋŋ
lɩɣ
lɩɣna
lɩɣʊ
lɩɩ
lɩɩna
lɩɩɩ
lɩʊ
lɩʊna
lɩʋ
lʊba
lʊbɛ
lʊbɩyɛ
lʊbʊ
lʊkɩ
lʊkɩna
lʊlɩna
lʊlʊ
lʊlʊʊ
lʊtɛsɩyɔm
lʊya
lʊyʊ
lʊŋgɩyɛ
lʊʊ
lʊʊʊ
lʋba
lʋbɛ
lʋbɩna
lʋbɩyɛ
lʋbʋ
lʋkɩ
lʋlʋʋ
lʋŋʋyɛ
lʋɖɛ
lʋɖʋ
lʋʋ
m
ma
maa
maacɔ
maadiriidi
maalii
maalika
maaliki
maarɔkɩ
maarɩsɩ
maatɛŋ
maaɖɩ
maba
mabɩtʊ
mabʊ
mabʋ
machel
macron
maganɛzɩ
magne
magnus
mahal
mahomet
mai
maka
makɩ
makɩna
makɩɣna
mala
malawii
malii
malika
malthus
malɩfa
malɩfana
malɩfanaa
malɩtɩ
malɩŋ
malʊ
malʊʊ
mamaɣ
man
mana
mandarɛɛ
mandchou
mandela
mani
manu
manuel
manɩɩ
mao
maputo
marc
marcel
marco
mare
margaret
marguerite
mari
maria
marie
marignac
mark
marley
marmontel
marshall
martin
marx
mary
marɔkɩ
masikini
masjid
masɩ
masɩma
mathe
matisse
matʊ
matʋ
maurice
mawa
max
may
maya
mayaa
mayaɣ
maynard
mayʊ
mayʋ
mazaɣ
mazul
mazɩtʊ
mazɩtʋ
mazʊʊ
maŋgʊ
maŋgʊʊ
maɖa
maɖaa
maɖʊ
maɖʋ
maɣ
maɣmaɣ
maɣna
maɣza
maɣzɩ
maɣzɩm
maɣzɩtʊ
maɣzɩtʋ
maɣzɩyɛ
maɣzɩɣ
maɣzʊ
maɣzʊʊ
maɣzʋʋ
maʊ
maʊʊ
maʋ
mba
mbaa
mbilim
mbu
mbɩ
mbɩyɔ
mbʊ
mbʊlɛ
mbʊyɔ
mbʊʊ
mbʋ
mbʋyɔ
mbʋʋ
me
medi
mediteraanee
mediteranee
mediteraniya
meditɛɛranee
meetalɩ
melon
mendelei
ment
menɖeke
mer
merkel
merton
mesmer
mesopotami
metafiiziki
metalɩ
mg
mi
michael
michel
mickey
miguel
miiliiyɔɔ
miiliyaarɩ
miiliyarɩ
miiliyɔɔ
miiliyɔɔwaa
miiziki
mikayɛlɩ
mikhai
mile
miliiyɔɔ
miliyaɖi
miliyɔnaa
miliyɔɔ
miliyɔɔna
miliyɔɔnaa
miliyɔɔwaa
miller
miloyɔɔnaa
mimar
mine
minesootaa
mini
minisi
minziiki
minziki
misisipii
misuurii
mizigaanii
miziiki
mizoguchi
miŋ
mo
mode
moghol
mohamed
moise
molie
mon
monet
mongol
mont
monɖozaa
moon
mooti
mootinaa
mootɛɛɖɩ
moozambiki
moritaanii
morris
mory
mosander
moscou
mostafa
mouammar
mount
moussa
moyen
mozambiki
mozart
moze
moŋgoli
moŋgolii
moŋgooli
mpilim
mu
muh
mukuuliŋ
mulum
mumbayɩ
musica
mussolini
muzulee
mɔlɩbɩdɛnɩ
mɔlɩdaavii
mɔsɩkʊʊ
mɔsɩkʋʋ
mɔɔ
mɔɔyɛ
mɔɔŋ
mɔɔʊ
mɔʊ
mɔʋ
mɛ
mɛfɛyɩ
mɛkɩsiiki
mɛkɩsiki
mɛlɛ
mɛlɛna
mɛlɛnaa
mɛndɛlɛvɩyɔm
mɛrɩkɩrɩ
mɛta
mɛtana
mɛtanaa
mɛtɛ
mɛtɛnaa
mɛtɛwaa
mɛwɛ
mɛɛrkiiri
mɛɛsaɣ
mɩ
mɩla
mɩlɩ
mɩlɩm
mɩlʊ
mɩndʊ
mɩndʋ
mɩnjɩ
mɩnzɛma
mɩnɩŋ
mɩnɩʊ
mɩnɩʋ
mɩnʊʊ
mɩnʋʋ
mɩsɩ
mɩsɩkʊm
mɩsɩkʋm
mɩtaɖɛ
mɩza
mɩzasɩ
mɩzaɣ
mɩzɩ
mɩzɩɣ
mɩzʋʋ
mɩŋ
mɩŋŋ
mʊ
mʊlʊm
mʊna
mʊnaʊ
mʊndʊsʊʊ
mʊntʊsɩŋ
mʊntʊsʊʊ
mʊsɩ
mʊtʊ
mʊwanɩ
mʊya
mʊyaa
mʊyʊ
mʊzʊŋ
mʊzʊʊ
mʊɖɛ
mʊʊ
mʊʊna
mʋ
mʋlʋm
mʋndʋsʋʋ
mʋntʋsʋʋ
mʋsɩ
mʋtʋ
mʋzʋŋ
mʋʋ
n
na
naa
naadozo
naajeeriya
naalɛ
naalɩm
naananza
naanaza
naanza
naanʊwa
naataŋgbala
naatozo
naayɛ
naayɩ
naaza
naaʊ
nabayɛ
nabayɩ
nabudozo
nabutozo
nabɛyɛ
nabɛyɩ
nabɩyɛ
nabɩyʋ
nabʊlɛ
nabʊtozo
nabʊyʊ
nabʊyʊʊ
nabʋlɛ
nabʋyʋ
najib
nakayɛ
nakayɩ
nakpaɖaɣ
nakɛyɛ
nakɛyɩ
nakɩyɛ
nakɩyɩ
nakʊ
nakʊyʊ
nakʊyʊʊ
nakʋ
nakʋyʋ
namibi
namibii
namɩŋ
nana
nanaaza
nanak
nancy
nandaka
nandasɩ
nandʊ
nandʊʊ
nandʋ
nanza
napole
naputozo
napʊlɛ
nari
nasa
nasɩdozo
nasɩlɛ
nasɩyɛ
nasɩyʊ
national
nationale
nations
natozo
natutozo
natʊ
natʊlɛ
natʊyʊ
natʊyʊʊ
natʋlɛ
natʋyʋ
navarre
nawa
nayaa
nayɛ
nayɩ
nayʊ
naza
nazarɛɛtɩ
nazɩyaa
nazɩyʊ
nazɩyʋ
naŋ
naŋgbanzɩ
naŋgbaŋa
naŋgbaŋgaɣ
naŋgbaŋgʊʊ
naŋgbaŋzɩ
naŋgbaŋʊʊ
naɖiyɛ
naɖɩ
naɖɩyɛ
naɣ
naʊ
naʋ
nd
ndaatʊ
ndeko
ndi
ndoma
ndu
ndɔnjɔlɩyɛ
ndɔnjɔɔlɩyɛ
ndɛ
ndɩ
ndɩndɩ
ndʊ
ndʊʊ
ndʋ
ndʋʋ
ne
nee
neetrɔɔ
neeyerɩlandɛ
nehru
nelson
nepaalɩ
nergie
nes
nesi
nesɩ
netrɔɔ
neu
nevadaa
new
newton
neze
neŋ
ng
nga
ngʊ
ni
nice
nicolas
niels
nigsberg
niidozo
niikaɣ
niili
niitozo
niiye
niizɛɛrɩ
nikaɣ
nikolai
nils
nilson
nima
nimasi
nimasɩ
nimaɣ
nimiye
nimviɖe
nine
nisi
niu
niwu
niye
niyuu
nizɛɛrɩ
njamena
nke
nkiri
nkʊ
no
nobel
noe
notre
noŋgoloŋga
ns
nsɩ
ntalɩ
ntɔnjɔɔlɩyɛ
ntɩ
ntʊ
nu
nucle
nuclear
num
nuremberg
nursie
nuvɛlɩ
nuwa
nwere
nyerere
nzi
nzɩ
nzɩɩ
nzʊlɩmɩyɛ
nzʊlʊma
nzʊlʊmɩyɛ
nzʋlʋmɩyɛ
nɔ
nɔmɔŋ
nɔmɔʊ
nɔndɔʋ
nɔnɔ
nɔnɔsɩ
nɔnɔɔ
nɔsɩ
nɔyʊ
nɔɔ
nɔɔnɔɔ
nɔɔrɩvɛɛzɩ
nɔɔsɩ
nɔɔtaa
nɔɔyɔɔ
nɔɔyʊ
nɔɔyʋ
nɔɣ
nɔʊ
nɖeke
nɖi
nɖuu
nɖɛ
nɖɛɛ
nɖɩ
nɖɩɩ
nɖʊ
nɛ
nɛmɛ
nɛpayaɣ
nɛptiini
nɛptʊnɩyɔm
nɛyɔ
nɛyɔdɩmɩ
nɛyɔɔ
nɛŋgbɛŋga
nɛɛlɛ
nɩ
nɩgbaŋgʊʊ
nɩkaɣ
nɩkɛlɩ
nɩmaŋ
nɩmaʋ
nɩmɩyɛ
nɩna
nɩnaʊ
nɩnaʋ
nɩnza
nɩnɩwa
nɩwaŋ
nɩyɔbɩyɔm
nɩyɛ
nɩŋgbanzɩ
nɩŋgbaŋaɣ
nɩŋgbaŋgʊʊ
nɩŋgbaŋʊʊ
nɩɣ
nɩɣlɩm
nɩɣtʊ
nɩɣʊ
nɩɩ
nɩɩlɛ
nɩɩnaza
nɩɩnɩwa
nɩɩnʊwa
nɩɩnʋwa
nɩɩyɛ
nɩʊ
nɩʋ
nʊ
nʊm
nʊmaʊ
nʊmɔŋ
nʊmɔʊ
nʊŋ
nʊʊ
nʋmaŋ
nʋmaʋ
nʋmɔŋ
nʋmɔʋ
nʋmʋʋ
o
obama
ocde
octave
of
oh
ohio
ohiyo
oif
ois
oise
ole
olga
olien
olimpiiki
olithique
olivi
olivier
olofʊ
olympio
oms
on
one
onu
onye
oobuwaa
opatre
ope
opep
opera
opold
or
org
orient
oriyaŋ
os
oscar
oseyaanii
oseyanii
ositiraalii
ositraali
ositraalii
ositralii
otan
otirisi
otru
otto
otu
ou
oulianov
oumar
oxford
p
pa
paa
paaanɩ
paacaɣ
paacɔŋna
paakala
paakalɩ
paakpaɣ
paakpɛnda
paakɛ
paakɩlɩ
paalaba
paalakɩ
paale
paalɛɣ
paalɩ
paalɩzɩ
paama
paamakɩ
paan
paana
paanaɣ
paanɛ
paanɩ
paapɩzɩ
paapɩzɩɣ
paapɩɩla
paarii
paasiliki
paasɛɛ
paasɩ
paasɩma
paasɩŋ
paatasɩɣ
paatisiɣ
paatɔ
paatɔkɩ
paatɛma
paawɛ
paawɛna
paawɛɛ
paaya
paayaɣ
paaza
paazɩ
paazʊ
paazʊʊ
paaɖʊ
paaɖʊʊ
paba
pabaɣ
pablo
paca
pacakɩ
pacala
pacalɩ
pacaŋ
pacaɣ
pacaɣzɩ
pada
pagba
pagbaɣ
paha
pahayɩ
pahayɩɣ
pahayʊ
pahayʊʊ
pahaɣ
pahʊʊ
pahʋlʋʋ
pajaɣ
paka
pakala
pakalaa
pakali
pakalɩ
pakalɩɣ
pakalɩʊ
pakalʊ
pakalʊʊ
pakandɩ
pakandʊʊ
pakatɩ
pakaŋ
pakaɖɩ
pakaɖɩna
pakaɣ
pakisitaanɩ
pakpa
pakpakaɣ
pakpakɩɣ
pakpakʊ
pakpakʊʊ
pakpakʋ
pakpazɩ
pakpazʊʊ
pakpaɣ
pakpaɣa
pakpaɣna
pakɩla
pakɩlaɣ
pakɩlɩ
pakɩlɩna
pakɩlɩɣ
pakɩlɩɣna
pakɩlɩʊ
pakɩlʊ
pakɩlʊʊ
pakʊ
pakʊma
pakʊna
pakʊyɩ
pakʋ
pakʋma
pakʋyʋʋ
pakʋʋ
pala
palaba
palabɩ
palabɩna
paladɩyɔm
palaka
palakanaɣ
palakaɣ
palakaɣna
palakɩ
palakɩna
palakɩnɛ
palakʋʋ
palaɣ
pale
palɛstɩnɩa
palɩ
palɩka
palɩna
palɩza
palɩzaa
palɩzɩ
palɩzɩna
palɩzɩɣ
palɩzʊ
palɩzʊʊ
palɩɣ
palɩɣna
palɩɩ
palʊ
palʊbɩna
palʊkɩ
palʊkɩna
palʊla
palʊlɩ
palʊlʊ
palʊlʊʊ
palʊʊ
palʋ
palʋba
palʋbɩna
palʋkɩ
palʋla
palʋlɩ
palʋlʋ
palʋlʋʋ
pam
pama
pamaa
pamaaza
pamaazɩ
pamakoo
pamakɩ
pamakɩna
pamana
pamawaɣ
pamaza
pamazɩ
pamazɩna
pamazɩɣ
pamaɣ
pamaɣmaɣ
pamaɣna
pamaɣza
pamaɣzɩ
pamaɣzɩna
pamaɣzɩɣ
pamaʊ
pamaʋ
pamba
pamɩzɩ
pamʊ
pamʋ
pamʋʋ
pan
pana
panaa
panaalɛ
panama
panana
panaza
panaŋgʊ
panaɣ
pantalaŋ
panthera
panzuli
panɛ
panɩ
panɩna
panɩnɩ
panɩɣ
panɩɣna
panɩɩ
panɩɩna
panɩʊ
papa
papaaza
papaazɩ
papaazɩɣ
papama
papamɩ
papasɩ
papaza
papazɩ
papazɩna
papazɩɣ
papaŋ
papaɣ
papaɣza
papaɣzɩ
papaɣzʊ
papɩsa
papɩsɩ
papɩsɩna
papɩsɩɣ
papɩza
papɩzaa
papɩzaɣ
papɩzɩ
papɩzɩɣ
papɩzɩʋ
papɩzʊ
papɩzʊʊ
papɩzʋʋ
papɩɩ
par
paraamiini
paraguwee
parii
paris
park
part
partenɔ
parti
parɩyɔm
pas
pasa
pasaa
pasakɩ
pasaɣ
pasaɣna
pascal
pasifiki
pasteur
pasɩ
pasɩba
pasɩbɩna
pasɩm
pasɩma
pasɩmna
pasɩmɩ
pasɩna
pasɩtɔr
pasɩtɛkɩ
pasɩwaɣ
pasɩŋ
pasɩŋna
pasɩɣ
pasɩɩ
pasɩʊ
pasʊzɩ
pasʊʊ
pasʊʊna
pasʋʋ
pat
pata
pataa
pataka
patakaa
patakpaɣ
patakɩ
patala
patalɩ
patalɩɣ
patalɩʊ
patalʊ
patama
patamsɩ
patamsɩna
patana
patanada
patapɩzɩ
patasa
patasaɣ
patasɩ
patasɩɣ
patatalɩ
patatɩlɩ
patatɩɩ
patazɩ
pataŋ
pataɣ
patrice
patrick
patɩ
patɩla
patɩlɩ
patɩlɩɣ
patɩna
patɩzɩ
patɩzɩɣ
patɩzʊʊ
patɩŋ
patɩŋa
patɩŋga
patɩŋna
patɩŋɛ
patɩŋɩɣ
patɩŋɩɣna
patʊ
patʊla
patʊlɩ
patʊɣʊ
patʊʊ
patʋ
patʋlɩ
paul
paula
pawa
pawaba
pawalɩ
pawayɩ
pawazɩ
pawazɩɣ
pawɩlaɣ
pawɩlɩ
pawɩlɩɣ
pawɩlʊ
pawɩlʊʊ
paya
payaa
payaanaa
payakaɣ
payakɩ
payana
payawaɣ
payaɣ
payaɣa
payaɣna
payaɣʊ
payaɣʋ
payaʊ
payaʋ
payi
payɛ
payɩ
payʊ
paza
pazaa
pazɩ
pazɩma
pazɩna
pazɩtʊ
pazɩtʋ
pazɩyɛ
pazɩyʋ
pazɩɣ
pazʊʊ
pazʋʋ
paŋ
paŋgiizi
paŋgɩladɛɛsɩ
paɖa
paɖanɩ
paɖanɩɣ
paɖaŋ
paɖaɣna
paɖaɣnɩ
paɖɩna
paɖɩzɩ
paɖɩzɩɣ
paɖɩɣ
paɖɩɩna
paɖʊ
paɖʊna
paɖʊwaɣ
paɖʊyɩ
paɖʊzɩ
paɖʊʊ
paɖʋ
paɖʋʋ
paɣ
paɣla
paɣlaka
paɣlɩ
paɣlɩka
paɣlʊ
paɣlʊʊ
paɣlʋʋ
paɣtʊ
paɣtʋ
paɣza
paɣzɩ
paɣzɩna
paɣzɩtʊ
paɣzɩɣ
paɣzɩɣna
paɣzʊ
paɣzʊʊ
paɣzʊʊna
paʋ
pb
pe
pechblende
pee
peekɛɛ
peenɛɛ
peetiraa
peeye
peeyibaa
peeɖe
peeɖiɣa
peeɖɛ
peheyi
pehikiɣ
pehili
pehilina
pehiu
pehiɣ
pekizi
pekizina
pekpeɣ
pekpeɣla
pekpeɣli
pelu
penim
penɛɛ
pepima
pepimi
pepiŋ
per
persan
perse
peruu
pese
peseɣ
pesida
pesidi
pesidina
pesidiɣ
pesidu
pete
petee
peter
peteu
peteɣ
peteɣu
petii
petiki
petisaa
petisi
petiyina
petra
petro
pewiliɣ
peyeba
peyebi
peyebina
peyebinam
peyeki
peyele
peyiba
peyibaa
peɖe
peɖeke
peɣɖe
ph
phe
philip
philippe
philosophie
physique
pi
piaf
picasso
pie
pierre
pietro
piilidiŋ
pikolo
pikpeŋ
pila
pilee
pileɖi
pilim
pilinzi
piliŋ
piliŋa
piliŋga
pinaɣ
pindimm
pinyin
pinzɩ
piotr
pirazaaviili
piresiili
pirezili
pirimaanɩ
piritaaniki
piritaniiki
piritaniki
pise
piste
piteleɖi
pitihiɣ
pitii
pitiki
piwolo
piya
piyaa
piyaanoo
piyano
piyaɣ
piye
piyeba
piyebina
piyee
piyeki
piyekina
piyele
piyisi
piyuu
piŋ
piɖe
piɖeke
piɣa
planck
plane
planɛɛtɩ
plateaux
platon
platɩnɩ
pline
plʊtɔnɩyɔm
plʊtɔɔ
po
pocosuu
pogotaa
pohuyi
pohuyuu
poincare
pokuli
pokuu
polinda
polindaa
politiiki
politiki
politique
polivi
polivii
poliŋ
polo
polon
polonɛɛ
polu
poluba
polubi
polubina
polubu
poluki
polukina
polɔn
polɔɔn
polɩŋ
pombo
pondone
poolo
pop
poquelin
poru
posina
posinau
posinaʊ
postal
posusa
posusi
posusuu
posuu
poudre
poutine
powoba
powokaɣna
powoki
powokina
powolo
powona
poyo
poyowaɣ
poɖuu
pp
praagɩ
pradesh
prasɛyɔdɩmɩ
pre
presley
pretaan
pretooriyaa
prince
pritaniki
prix
prokofiev
protestant
protɔɔ
protɛsɩtaŋ
proust
prukisɛɛlɩ
prusse
prɔnzɩ
ptole
pu
publique
puccini
puda
pudapɛsɩtɩ
puhuu
puligari
purcell
purkina
purom
purundi
putooye
putukina
putuula
putuuɖe
puu
puwaroo
puwayɩ
puwiye
puwolo
puyenezɛrɩ
pwaavrɔɔ
pythagore
pɔ
pɔbɔla
pɔcɔ
pɔcɔlɔ
pɔcɔlɩ
pɔcɔlʋʋ
pɔcɔna
pɔcɔnaa
pɔcɔtʊʊna
pɔcɔŋna
pɔcɔɔ
pɔcɔʊ
pɔcɩwaanaa
pɔhɔ
pɔhɔkɩ
pɔhɔŋ
pɔhɔɔ
pɔkɔma
pɔkɔna
pɔkɔŋ
pɔkɔŋna
pɔkɔɔ
pɔlɔ
pɔlɔndɔɔɔ
pɔlɔnɩyɔm
pɔlɔɔn
pɔlɩɩɩ
pɔm
pɔmna
pɔn
pɔnɔɔ
pɔritigaalɩ
pɔrtɩɩgɛ
pɔrɩtigaalɩ
pɔrɩtigalɩ
pɔrɩtiigaalɩ
pɔrɩtɩgɛɛ
pɔrɩtɩkɛ
pɔsɔ
pɔsɔkɩ
pɔsɔza
pɔsɔzɩ
pɔsɔzʊʊ
pɔsɔɔla
pɔsɔɔlaa
pɔsɔɔlɩ
pɔsɔʊ
pɔsɩ
pɔtasɩyɔm
pɔtɔ
pɔtɔkaɣ
pɔtɔkjɩ
pɔtɔkɩ
pɔtɔma
pɔtɔsɔɔlɩ
pɔtɔyɩtɩ
pɔtɔŋ
pɔtɔŋʊʊ
pɔtɔɔ
pɔtɔɔna
pɔtɔʊ
pɔtɔʋ
pɔtʊ
pɔyɔka
pɔyɔkɩ
pɔyɔkʊʊ
pɔyɔɔ
pɔyɔɔda
pɔyɔɔdaɣ
pɔyɔɔdɩ
pɔyɔɔdɩɣ
pɔyɔɔdʊ
pɔyɔɔdʊʊ
pɔyɔɔdʋʋ
pɔyɩŋ
pɔza
pɔzɩ
pɔzɩtʊ
pɔzɩɣ
pɔzʊʊ
pɔzʋʋ
pɔŋ
pɔɔ
pɔɔlɩ
pɔɔrɩ
pɔɔya
pɔɔyasɩ
pɔɔyaɣ
pɔɔyɩŋ
pɔɔɖɛ
pɔɖɔ
pɔɖɔkɩ
pɔɖɔkʊʊ
pɔɖɔna
pɔɖɔŋ
pɔɖɔɔ
pɔɖɔɔnɩ
pɔɖɔʊ
pɔɖɔʋ
pɔʊ
pɔʋ
pɛ
pɛcɛla
pɛcɛlɛ
pɛcɛlɩ
pɛcɛlɩɣ
pɛcɛyɩ
pɛdɩyaa
pɛdɩyʊ
pɛdɩɣ
pɛdʊʊ
pɛfɛyɩ
pɛfɛyɩna
pɛhɛ
pɛhɛdɩɣ
pɛhɛkʊ
pɛhɛyɩ
pɛhɛzɩ
pɛhɛɛ
pɛhɛɣ
pɛkpɛlɛkɩ
pɛkpɛlɛkʊ
pɛkpɛlɛkʊʊ
pɛkpɛnda
pɛkpɛndaa
pɛkpɛndaɣ
pɛkpɛndɩ
pɛkpɛndɩna
pɛkpɛndɩɣ
pɛkpɛndʊʊ
pɛkɛ
pɛkɛdɩ
pɛkɛdɩna
pɛkɛdɩɣ
pɛkɛna
pɛkɛtɩɣ
pɛlaa
pɛlaɣ
pɛliziki
pɛlɔ
pɛlɛ
pɛlɛtʊ
pɛlɛza
pɛlɛzɩ
pɛlɛzɩɣ
pɛlɛɛzɩ
pɛlɛɣ
pɛlɛɣzɩ
pɛlɩjɩ
pɛlɩziiki
pɛlɩziki
pɛlɩzɩkɩ
pɛn
pɛnsilvaanii
pɛnɛ
pɛpɛdɩ
pɛpɛdɩɣ
pɛrɩlɛɛ
pɛrɩsanɩ
pɛrɩsɩ
pɛsidi
pɛsɛtɩ
pɛsɛɛ
pɛteravi
pɛtɛ
pɛtɛkpɛndɩna
pɛtɛkɛ
pɛtɛm
pɛtɛma
pɛtɛyɩ
pɛtɛyɩɣ
pɛtɛzɩ
pɛtɛŋ
pɛwɛ
pɛwɛna
pɛwɛtʊ
pɛwɛɛ
pɛwɛɛna
pɛwɛʊ
pɛɖɛ
pɛɖɛna
pɛɖɛyɩ
pɛɖɛyɩɣ
pɛɖɛzɩ
pɛɖɛɛ
pɛɖɛʊ
pɛɛ
pɛɛrɩlɛɛ
pɛɛrɩsɩ
pɛɛyɛɛ
pɩ
pɩcakpalɩmɩyɛ
pɩcakɩ
pɩcalɩmɩyɛ
pɩcalʊ
pɩcatʊ
pɩcatʋ
pɩcaŋ
pɩcaɣ
pɩcɔ
pɩcɔlɔ
pɩcɔɔ
pɩcɛlɩna
pɩcɛzɩ
pɩcɛɖɛ
pɩcɛɣɖɛ
pɩcɩsɩ
pɩdaa
pɩdɛ
pɩdɩɩfɛyɩ
pɩdʊʊ
pɩfɛyɩ
pɩha
pɩhaɣ
pɩhɛɛ
pɩjatʊ
pɩjatʋ
pɩjɛɖɛ
pɩkaza
pɩkazaa
pɩkazɩ
pɩkazʊ
pɩkaɣ
pɩkpa
pɩkpaɣ
pɩkpaɣna
pɩkpaɣʊ
pɩkpaɣʋ
pɩkpaɣʋna
pɩkpɛnda
pɩkpɛndaa
pɩkpɛndɩ
pɩkpɛndɩna
pɩkpɛndɩnɛ
pɩkpɩnda
pɩkɔ
pɩkɔma
pɩkɔna
pɩkɔzɩna
pɩkɔŋna
pɩkɔɔ
pɩkɛ
pɩkɛdɩna
pɩkɛna
pɩkɛʊ
pɩkɩla
pɩkɩlɩ
pɩkɩlɩna
pɩkɩlɩɣ
pɩla
pɩlaba
pɩlabɩ
pɩlakaɣ
pɩlakɩ
pɩlaŋ
pɩlaʋ
pɩlɔmbɩ
pɩlɛɣzɩ
pɩlɩ
pɩlɩna
pɩlɩnɛ
pɩlɩtʊ
pɩlɩwa
pɩlɩyɛ
pɩlɩzɩ
pɩlɩŋ
pɩlɩŋga
pɩlɩɣ
pɩlɩɣna
pɩlɩɩ
pɩlɩɩna
pɩlɩʊ
pɩlɩʋ
pɩlʊ
pɩlʊʊ
pɩlʋʋ
pɩma
pɩmakɩ
pɩmakɩɣna
pɩmaɣ
pɩmaɣna
pɩn
pɩna
pɩnaɣ
pɩndʊ
pɩnsɩ
pɩnzɩ
pɩnzɩɣ
pɩnɑɣ
pɩnɛ
pɩnʊʊ
pɩpazɩ
pɩpaɣzɩ
pɩpaɣzɩna
pɩpɔza
pɩpɔzɩɣ
pɩpɔzʊ
pɩpɔzʊʊ
pɩpɩsɩ
pɩpɩsɩɣ
pɩpɩzɩ
pɩpɩzɩɣ
pɩpɩzʊ
pɩpɩzʊʊ
pɩpɩɩ
pɩrazaviili
pɩsa
pɩsatʋ
pɩsaŋ
pɩsaɣ
pɩsaʊ
pɩsaʋ
pɩsɔzɩ
pɩsɩ
pɩsɩna
pɩsɩŋna
pɩsɩɣ
pɩsɩɣna
pɩsɩɩna
pɩsɩɩnɩ
pɩsɩʊ
pɩsɩʋ
pɩsʊ
pɩsʊʊ
pɩsʋʋ
pɩta
pɩtaa
pɩtaakɛ
pɩtaha
pɩtakazɩ
pɩtakɩlɩ
pɩtala
pɩtalaɣ
pɩtalɩ
pɩtalɩna
pɩtalɩɣ
pɩtalʊ
pɩtalʊʊ
pɩtamna
pɩtamʊna
pɩtasɩ
pɩtasɩna
pɩtasɩɩna
pɩtatalɩ
pɩtatasɩ
pɩtatɩɩ
pɩtɔʊ
pɩtɛ
pɩtɛkɛ
pɩtɛma
pɩtɛmna
pɩtɛŋ
pɩtɛɛ
pɩtɩna
pɩtɩnɩ
pɩtɩŋ
pɩtɩŋa
pɩtɩŋga
pɩtɩŋgɩna
pɩtɩŋna
pɩtɩŋnaa
pɩtɩŋnɛ
pɩtɩŋɛ
pɩtɩŋɩɣna
pɩtɩɩfɛyɩ
pɩvɛyɩ
pɩwalɩ
pɩwayɩ
pɩwazɩ
pɩwazɩɣ
pɩwɛ
pɩwɛna
pɩwɛɛ
pɩwɛʊ
pɩwɩlɩ
pɩwɩlɩɣ
pɩwɩlʊ
pɩwɩɣ
pɩya
pɩyaa
pɩyalʊ
pɩyalʋ
pɩyaɣ
pɩyaʊ
pɩyele
pɩyɔɔ
pɩyɛ
pɩyʊ
pɩyʊʊ
pɩyʋ
pɩza
pɩzaa
pɩzatʊ
pɩzatʋ
pɩzɩ
pɩzɩna
pɩzɩtʊ
pɩzɩɣ
pɩzɩɣna
pɩzɩʊ
pɩzʊ
pɩzʊʊ
pɩzʋʋ
pɩŋ
pɩŋŋ
pɩŋŋŋ
pɩɖalɩ
pɩɖaŋ
pɩɖɔɔ
pɩɖɛ
pɩɖɛɛ
pɩɖɛɛna
pɩɖɛʊ
pɩɣa
pɩɣyɩyaa
pɩɣʊ
pɩɩhaɣ
pɩɩkɛ
pɩɩkɛna
pɩɩla
pɩɩlaba
pɩɩlakɩ
pɩɩsaŋ
pɩɩtalɩɣ
pɩɩwɛ
pɩɩwɛɛ
pʊ
pʊbʊ
pʊcɔ
pʊcɔʊ
pʊdʊ
pʊdʊnaa
pʊkɔma
pʊkɔna
pʊkɔŋna
pʊkɔɔ
pʊkʊʊ
pʊlɔŋ
pʊmʊna
pʊmʊʊ
pʊn
pʊnɛ
pʊpɔzʊʊ
pʊpʊ
pʊrɔnzɩ
pʊsʊʊ
pʊtɔbʊ
pʊtɔbʊʊ
pʊtɔdɩyɛ
pʊtɔma
pʊtɔpɔzɩ
pʊtɔɔbʊʊ
pʊtʊ
pʊtʊna
pʊtʊnaa
pʊwa
pʊwayi
pʊwayɩ
pʊwɛ
pʊwɛna
pʊwɛɛ
pʊyɔ
pʊyɔɔ
pʊyʊ
pʊyʊʊ
pʊŋ
pʊɖɔ
pʊɖɔŋ
pʊɖɔɔ
pʊɖʊ
pʊɣa
pʊʊ
pʊʊŋ
pʋ
pʋbʋ
pʋcɔ
pʋdʋ
pʋdʋnaa
pʋkɔɔ
pʋmbʋ
pʋmʋna
pʋn
pʋnɛ
pʋpɔzʋʋ
pʋpʋ
pʋtɔbʋ
pʋtɔbʋʋ
pʋwayɩ
pʋwɛ
pʋwɛna
pʋwɛɛ
pʋyɔ
pʋyɔɔ
pʋyʋ
pʋŋ
pʋɖɔɔ
pʋʋ
q
qatar
qin
que
r
ra
rachmaninov
radɔŋ
radɩyɔm
rafayeli
raffaello
raison
ral
rameau
ramsay
ramse
rap
rard
ras
rateur
ration
ravel
ray
re
regee
reich
rembrandt
rene
renoir
rer
res
rhe
ri
ric
richard
rine
rio
rita
rite
ro
roald
robert
robin
rochereau
rock
rodin
roger
roi
roll
roma
romanɩ
romanɩɩ
rome
ron
ronald
rood
room
rooma
rose
ross
rouen
rousseau
royal
royaume
rpt
rquez
ru
rubens
rubii
rugibi
rumaanii
rupert
rushmore
rusi
rusii
ruusi
ruusii
ruwandaa
rɔdɩyɔm
rɔkɩ
rɔɔm
rɛnɩyɔm
rɛɛ
rɛɛsɩtɔɔnɩ
rɩkɛɛ
rɩkɛɛnaa
rʊpɩdɩyɔm
rʊtɛnɩyɔm
s
sa
saamɩla
saamɩɖɛ
saavedra
safiiri
sahara
sahib
sahʊditi
saint
sainte
sakɩyɛ
saladin
salaka
salala
salam
salaŋ
salif
salomon
salpe
salvador
sam
sama
samarɩyɔm
samaɣ
sambii
sambɛzɩ
sambɛɛzɩ
samora
samory
sampan
samtʊ
samtʋ
samuel
samɣ
samɩla
samɩɖɛ
san
sanfransiskoo
sankara
sanou
sanskrit
sansɩkrɩtɩ
santaɖaʊ
santi
santimɛtanaa
santimɛtɛnaa
santrafriki
sanzɩ
sao
sapɔŋ
sar
sara
sarah
sarakawaɣ
sartre
satirini
savanes
saxe
saxon
saya
sayaa
sayʊ
sayʋ
saŋ
saŋayɩŋ
saŋgayɩŋ
saɣ
saɣʋ
saɣʋʋ
saʊ
saʊʊ
saʋ
scheele
scho
schubert
schumann
schwerionenforschung
sciences
scott
scriabine
sculpture
sdn
se
seaborg
sebastian
seelandɩ
seine
seneegaalɩ
senegaalɩ
senegali
senegalɩ
senghor
serge
serguei
seu
sewuli
seya
seydou
seɣ
seɣa
seɣtuu
shakespeare
shinto
si
siberii
sida
sidaa
sidinee
siduu
sie
sigmund
siimii
siini
siipitɛɛrɩ
siiri
siirii
siitruwii
siiŋ
sika
sikaagoo
siki
sikiri
sikiɖi
sikolozii
silicium
silii
silimaɣ
siloovaakii
siloveni
sima
simbaabuwee
simon
sinai
sinensis
sinii
sinimaɣ
sirleaf
siuu
siyeeraa
size
sizika
siziŋ
siŋ
siŋŋ
siŋŋŋ
siɣ
siɣlɛŋgbɛm
siɣsiɣ
siɣu
siɣye
ska
smith
sn
so
socie
socrate
solo
somtu
sona
sonaa
sonzo
soo
sooci
soojaa
soomaali
soowa
sophie
sophocle
sorbonne
sotu
sotubɔɔ
souabe
soul
soviyetiki
soyinka
soŋaɣ
soŋga
soŋgaɣ
spielberg
spɔɖɛ
sriilanka
st
staline
stanley
stephen
steti
steve
stockholm
stonehenge
strasbourg
stravinsky
stridon
strɔntɩyɔm
su
sudaanɩ
sukili
sukilinaa
sukuli
sukulinaa
sukulɩ
suluku
suluu
sumaka
sumasi
sumasɩ
sumaɣ
sur
susi
susiyaa
susuu
suu
suudanɩ
suudaŋ
suuna
suuye
suwahilii
suwiisi
suwisi
suye
suzuu
suŋ
sylla
sylvanus
syracuse
sɔ
sɔdɩyɔm
sɔdɩŋ
sɔdʊ
sɔdʊʊ
sɔgɔɖɛyɩ
sɔlɩm
sɔndʊ
sɔndʊʊ
sɔnzɩ
sɔnɔ
sɔnɔdaa
sɔsa
sɔsaa
sɔsaɣ
sɔsɔ
sɔsɔa
sɔsɔm
sɔsɔna
sɔsɔnaa
sɔsɔsɩ
sɔsɔtʊ
sɔsɔtʋ
sɔsɔwa
sɔsɔyɛ
sɔsɔŋ
sɔsɔɔ
sɔsɔɖɛ
sɔsɔɣa
sɔsɔʊ
sɔsɔʋ
sɔtʊ
sɔzɩ
sɔzɩŋ
sɔzʊʊ
sɔŋ
sɔŋaɣ
sɔŋgaɣ
sɔɔja
sɔɔjana
sɔɔjanaa
sɔɔjatʊ
sɔɔjatʋ
sɔɔjɔnaa
sɔɔjɛtʊ
sɔɔjɛɛtʊ
sɔɔla
sɔɔlaa
sɔɔlɩ
sɔɔlɩm
sɔɔlʊ
sɔɔlʊʊ
sɔɔlʋʋ
sɔɔndʊ
sɔɔndʋ
sɔʊ
sɔʊʊ
sɔʋ
sɛ
sɛlɩnɩyɔm
sɛmɩŋ
sɛmʊʊ
sɛnɔɔ
sɛrɩyɔm
sɛtʊ
sɛtʋ
sɛwa
sɛyaa
sɛyɩ
sɛzɩyɔm
sɛzʊʊ
sɛŋgapuuri
sɛŋgɛlɩtʊ
sɛŋkɩ
sɛɛ
sɛʊ
sɛʋ
sɩ
sɩba
sɩbʊ
sɩcaɣ
sɩfɛyɩ
sɩkandɩnavɩ
sɩkandɩyɔm
sɩkpɛnda
sɩkpɛndɩ
sɩkɛ
sɩkɩ
sɩkɩla
sɩlaba
sɩlavɩ
sɩlɩna
sɩlɩsɩyɔm
sɩlɩɣ
sɩm
sɩma
sɩmna
sɩmnaʊ
sɩmtʋ
sɩn
sɩna
sɩnaʊ
sɩnda
sɩnuwa
sɩnɖaa
sɩnɛ
sɩnɩma
sɩpaanaa
sɩpɔɔrɩ
sɩrkɔnɩyɔm
sɩrɩkɔnɩyɔm
sɩsɩ
sɩtakɩlɩ
sɩtalɩ
sɩwaa
sɩwɛ
sɩwɛna
sɩwɛɛ
sɩyansɩ
sɩyansɩwaa
sɩyɩnaa
sɩze
sɩzɩ
sɩŋ
sɩŋgʊ
sɩŋna
sɩŋnana
sɩŋŋ
sɩŋŋŋ
sɩɖaa
sɩɖɔɔ
sɩɖɛ
sɩɖʋ
sɩɣ
sɩɣa
sɩɣgbelasɩ
sɩɣlɩyaa
sɩɣlɩyʊ
sɩɣna
sɩɩna
sɩɩnaa
sɩʊ
sɩʊkpelaɣ
sɩʋ
sʊ
sʊfɩrɩ
sʊfʊrɩ
sʊlʊm
sʊmasɩ
sʊnaʊ
sʊndʊ
sʊsa
sʊsaa
sʊsɔ
sʊsɔna
sʊsɔtʊ
sʊsɔʊ
sʊtʊ
sʊtʊyʊ
sʊyɛdɩ
sʊzɔtʊ
sʊzʊʊ
sʊŋga
sʊʊ
sʊʊtʊ
sʋ
sʋlʋm
sʋsaa
sʋsaɣ
sʋsɔ
sʋsɔtʋ
sʋsɔyɛ
sʋsɔʋ
sʋtʋ
sʋyɛdɩ
sʋzʋʋ
sʋʋ
sʋʋtʋ
t
ta
taa
taabalaa
taabalɩyɛ
taabalʊ
taabalʋ
taabɩlɩ
taafɛyɩ
taakarɩ
taakɛ
taalɩyɔm
taaniibi
taasɔɔlɩ
taataa
taataanaa
taawɛ
taawɛna
taawɛɛ
taayii
taba
tabalaa
tabalɩyɛ
tabu
tada
tadɩyɛ
tagore
tain
taka
takarɩ
takayaasɩ
takayasɩ
takayaɣ
takayaɣsɩ
takayɛsɩ
takayɩ
takayɩsɩ
takota
takpaɣ
takɩlɩ
takɩyʊ
takɩŋ
takɩɣ
takʊʊ
tala
talaa
talɩ
talɩna
talɩɣ
talɩʊ
talʊ
talʊʊ
tam
tamasɩ
tamaɣ
tambaɖɛ
tambaɣ
tamna
tamsɩna
tamsʊʊ
tana
tanandɛɛ
tanaŋ
tanaʊ
tanaʋ
tandaʋ
tandʊʊ
tantalɩ
tantamtʊ
tanzaani
tanzani
tanzanii
tanɩm
tanɩɩ
tao
taoi
tapaŋgʊ
tapɩzɩ
tara
tarɛsalam
tas
tasɩ
tasɩya
tasɩyaa
tasɩyʊ
tasɩɣ
tasʊ
tasʊʊ
tata
tataa
tatalɩ
tatasɩ
tataɣ
tatɩɩ
tayi
tayilandi
tayilandɩ
tayiwanɩ
tayɩ
tayɩwanɩ
tayʊ
tayʋ
tazʊʊ
tazʋʋ
taŋ
taŋga
taŋgalam
taɖɩyɛ
taɣ
taɣna
taɣtʊ
taɣʋʋ
taʊ
taʋ
te
teeli
teeraŋ
teevenim
tel
televiziyɔɔ
tem
temokraasii
temokrasii
tenesii
teresa
terrab
tersbourg
tes
tesorusi
tetʊ
teu
teuu
tewu
teya
teyaa
teyu
teŋgu
teŋgunaa
teŋguu
teŋgʊ
teŋgʊʊ
teŋu
teŋʊ
the
theresa
thiam
thomas
ti
tiba
tibe
tibu
tibɛtii
tidjane
tie
tiek
tienne
tigiɖe
tii
tiibaa
tiiye
tiiyoo
tiiyu
tikaɣ
tiki
tikiɖe
tiku
tilima
tilimiye
tilitu
tiliuu
tiluu
timbaalɩ
timour
tindima
tindimiye
tinozɔɔrɩnaa
tiposina
tique
tiques
tisa
tisaa
tisi
tisim
tisiɣ
tisme
tisuu
tiyamaɣ
tiyeba
tiyebina
tiyina
tiyiyaa
tiyiyu
tiɖeke
tiɣye
to
tobi
toboyuu
todoma
togo
tokaɣ
tokiyo
toko
tokonaa
tokyo
tolui
tom
toma
tomiye
tomna
tomnasi
tomnasɩ
tomnaɣ
toovenim
toovenum
toovonum
topaazɩ
toure
tovonum
tower
toyi
tozo
tra
trade
traore
tre
triipoolii
triple
troit
trump
ts
tseu
ttingen
tu
tuda
tuli
tuluu
tuniizii
tunisi
turiki
turikii
turing
turki
turkii
tutsiwaa
tutu
tuu
tuuji
tuurkii
tuuɖe
tuwala
tuzuu
tuŋ
twitter
tɔ
tɔbɩŋ
tɔbʊ
tɔbʊʊ
tɔbʋʋ
tɔcɔɔ
tɔkɩ
tɔlaa
tɔlɩ
tɔlɩm
tɔlʊʊ
tɔlʋʋ
tɔm
tɔma
tɔmbe
tɔmbiye
tɔmhʋyʋ
tɔmloyaɣ
tɔmn
tɔmnaɣ
tɔmpe
tɔmpee
tɔmpiye
tɔmɩyɛ
tɔmɩŋ
tɔmʊʊ
tɔna
tɔnasɩ
tɔnaɣ
tɔndʊ
tɔnɛ
tɔnɩ
tɔnɩŋ
tɔnʊʊ
tɔnʋʋ
tɔrɩyɔm
tɔsɔɔlɩ
tɔsɩŋ
tɔsʊʊ
tɔsʋʋ
tɔtʋ
tɔya
tɔyɩ
tɔyʊ
tɔyʊʊ
tɔyʋʋ
tɔzʊʊ
tɔzʋʋ
tɔŋ
tɔɔ
tɔɔla
tɔɔlaarɩ
tɔɔlʋʋ
tɔɔnasɩ
tɔɔnaɣ
tɔɔnɩ
tɔɔnɩnaa
tɔɔyaa
tɔɔyɩŋ
tɔɔyʊʊ
tɔɔyʋ
tɔɔyʋʋ
tɔɔʊ
tɔɔʋ
tɔɖɔɔ
tɔʊ
tɔʊʊ
tɔʋ
tɔʋʋ
tɛ
tɛbɩyɛ
tɛkɛ
tɛkɛna
tɛkɩzasɩ
tɛlawɛɛrɩ
tɛlɛm
tɛlɛnzɩ
tɛm
tɛma
tɛmna
tɛmtʊ
tɛsoŋgiye
tɛtɛ
tɛtɛkpɩna
tɛtɛɛ
tɛtɛɛmɩŋ
tɛtʊ
tɛtʋ
tɛtʋbiya
tɛtʋbɩɣa
tɛyɛ
tɛyɩ
tɛyɩna
tɛyɩtʊ
tɛyɩtʋ
tɛyɩŋ
tɛyʊ
tɛyʊʊ
tɛyʋʋ
tɛzɩ
tɛzɩna
tɛzɩyʊ
tɛzɩyʋ
tɛzɩɣ
tɛzʊʊ
tɛŋ
tɛɛ
tɛʈʊ
tɛʊ
tɛʋ
tɩ
tɩcaɣ
tɩcɔ
tɩfɛyɩ
tɩfɛyɩna
tɩgbayɩŋ
tɩgbayʊ
tɩhɔŋ
tɩkpa
tɩkpayɩŋ
tɩkpɛnda
tɩkɔna
tɩkɛ
tɩkɛna
tɩkɩla
tɩkɩlɩ
tɩkɩlɩna
tɩla
tɩlaba
tɩlakɩ
tɩlasɩ
tɩlɩ
tɩlɩna
tɩlɩtʊ
tɩlɩtʋ
tɩlɩwa
tɩlɩyaa
tɩlɩyɛ
tɩlɩyʊ
tɩlɩɣ
tɩlɩʋ
tɩlʊʊ
tɩlʋʋ
tɩm
tɩmaatɩ
tɩmʊ
tɩmʊʊ
tɩn
tɩna
tɩnaa
tɩnaɣ
tɩnzɩ
tɩnɛ
tɩnɩʊ
tɩnʊʊ
tɩpɩsɩ
tɩpɩzɩɣ
tɩsɩ
tɩsɩprɔsɩyɔm
tɩta
tɩtaa
tɩtala
tɩtalɩ
tɩtanɩyɔm
tɩtɛ
tɩtɩŋa
tɩtɩŋga
tɩwalanzɩ
tɩwɛ
tɩwɛna
tɩwɛɛ
tɩwɛʊ
tɩwɩlɩɣ
tɩwɩlʊ
tɩyɔɔ
tɩyɛ
tɩyɩnzɩ
tɩyɩŋga
tɩzʊʊ
tɩŋ
tɩŋa
tɩŋga
tɩŋgaɣyʋ
tɩŋgɛ
tɩŋgɩna
tɩŋgɩɣ
tɩŋgɩɣna
tɩŋgʊ
tɩŋgʊna
tɩŋgʊʊna
tɩŋna
tɩŋɛ
tɩŋɩ
tɩŋɩna
tɩŋɩyaa
tɩŋɩɣna
tɩŋʊʊ
tɩɖɔɔ
tɩɖɛwa
tɩɩkɛ
tɩɩlaba
tɩɩnzɩ
tɩɩwɛ
tɩɩwɛɛ
tɩɩŋa
tɩʊ
tɩʋ
tʊ
tʊkaɣ
tʊlɩ
tʊlɩna
tʊlʊʊ
tʊm
tʊma
tʊmaa
tʊmlaɖaa
tʊmlaɖʊ
tʊmɩyɛ
tʊnɛ
tʊtʊ
tʊzɩtʊ
tʊzʊʊ
tʊŋ
tʊʊ
tʊʊzʊʊ
tʋ
tʋkaɣ
tʋlɩ
tʋm
tʋma
tʋmlaɖaa
tʋmɩyɛ
tʋndʋ
tʋnɛ
tʋtʋ
tʋʋ
tʋʋzʋnaʋ
tʋʋzʋʋ
u
ua
ue
uganda
ugandaa
uicpa
ukurɛnɩ
un
una
und
unesco
uni
unii
union
university
uppsala
urbain
urbino
urduu
urss
uruguwe
us
usayn
utaa
uzibekistanɩ
v
va
vai
vaira
van
var
vasco
ve
vela
venezuela
venise
vernon
ves
vi
victor
victoria
vienne
viens
vih
vii
viii
vila
ville
vin
vincent
virgile
virginie
visbiez
vishnu
vitis
vivaldi
vladimir
vladimirovitch
volution
von
voodu
voyager
vre
w
wa
waa
waaa
waagasɩ
waasɩ
waaɣ
wabɩna
wabɩtʊ
wade
wadɩ
wadɩɣ
wadʊ
wagaadugu
wagner
wakɩ
wala
walaa
walanzɩ
walter
walɩ
walɩɣ
walʊ
walʊʊ
walʋ
walʋʋ
wandamm
warhol
washington
wasɩŋtɔŋ
wasɩɣ
watt
wayi
wayɩ
waza
wazasɩ
wazaɣ
wazɩ
wazɩɣ
wazʋʋ
waɖɛ
waɖʊ
waɣ
waɣsɩ
we
web
weber
weewe
weewee
welesuu
welsbach
weluu
wemba
wembu
wena
wenaa
wendu
wenɖi
werrason
wesley
westminster
weyi
weyɩ
weziŋ
wezu
wezuu
weŋga
weŋgalaɣ
weŋgu
whatsapp
white
wikipediyaa
wilaʋ
wilhelm
wili
wilitu
wiliu
william
wiluu
windɔkɩ
winkler
wisconsin
wisikii
wiskɔnsɛɛ
wisɩ
witu
wiyao
wiyau
wiyaʊ
wiyaʋ
wiye
wiɖi
wiɖii
wiɖiyi
woba
wobina
wobu
wobʊ
wokaɣ
woki
wokina
wole
wolfgang
wollaston
wolo
wona
wondu
wondunaa
wonduu
wondʊ
wonu
wonuu
world
woŋga
woɖa
woɖaa
woɖe
woɖu
wright
wuɖuwuɖu
www
wɛ
wɛna
wɛnaʊ
wɛnaʋ
wɛnɩ
wɛtʊ
wɛtʋ
wɛŋna
wɛɖɔyɛ
wɛɖɩɣ
wɛɖʊ
wɛɖʊʊ
wɛɖʋ
wɛɛ
wɛɛna
wɛɣ
wɛɣna
wɛʊ
wɛʊna
wɛʊʊ
wɛʋ
wɩla
wɩlaɣ
wɩlɩ
wɩlɩna
wɩlɩtʊ
wɩlɩtʋ
wɩlɩya
wɩlɩyaa
wɩlɩyʊ
wɩlɩyʋ
wɩlɩŋ
wɩlɩɣ
wɩlɩɣna
wɩlɩʊ
wɩlʊ
wɩlʊʊ
wɩlʋʋ
wɩsɩ
wɩyaʊ
wɩzasɩ
wɩɣ
x
xe
xii
xiv
xix
xv
xvi
xvii
xviii
xx
xxi
y
ya
yaa
yabɩtʊ
yabʋ
yahoo
yakɩ
yala
yalaa
yale
yam
yamusokro
yana
yangzi
yasʊʊ
yatʊ
yatʋ
yawaɣ
yawunde
yaɖɛ
yaɣ
yaʊ
yaʋ
yaʋʋ
ye
yeba
yebina
yebu
yee
yeesu
yeesuu
yeke
yeki
yekina
yele
yeli
yem
yerusalɛm
yes
yesu
yesuu
yo
yoga
yogaa
yohanɛɛsɩ
yolim
yolum
yoluu
yom
yoma
yomaa
yomiye
yomtu
york
yotu
you
youssou
youtube
yowanɛsɩbuuri
yoyaa
yoyu
yoŋ
yoŋkaʋkaɣʋ
ytterby
yttria
yuda
yudaa
yulee
yuuda
yuudayism
yuulee
yuuɖa
yuuɖaa
yuŋ
yves
yɔ
yɔbɩ
yɔkɩ
yɔkʊʊ
yɔlʊʊ
yɔrdaŋ
yɔrkɩ
yɔrɩkɩ
yɔsɔ
yɔɔ
yɔɔda
yɔɔdaa
yɔɔdasɩ
yɔɔdasɩɩ
yɔɔdaɣ
yɔɔdɔɣ
yɔɔdɩ
yɔɔdɩna
yɔɔdɩnaʊ
yɔɔdɩnaʋ
yɔɔdɩtʊ
yɔɔdɩɣ
yɔɔdʊ
yɔɔdʊʊ
yɔɔdʋʋ
yɛ
yɛkɛlɩnayʊ
yɛlɩɣ
yɛlʊʊ
yɛɖɛ
yɩ
yʊ
yʊlʊm
yʊlʊmaa
yʊlʊnzɩ
yʊrʊba
yʊsaɣ
yʊsʊʊ
yʊŋ
yʊʊ
yʊʊʊ
yʋsaɣ
yʋsʋyaa
yʋsʋyʋ
z
zai
ze
zeenɛɛvɩ
zi
ziido
zn
zoroastre
zquez
zurich
zɔɔrdaanii
zɔɔrzii
zɔɔrziyaa
zɛŋkɩ
zɩ
zɩŋkɩ
|
«
°
²
³
µ
»
×
ŋ
ŋcɔna
ŋdʊ
ŋga
ŋgaa
ŋgandɩyɛ
ŋgba
ŋgbam
ŋgbaɣ
ŋgbaʊ
ŋgbɛ
ŋgbɛyɛ
ŋgbɛɛ
ŋgbɛɣɛ
ŋgilisi
ŋgʊ
ŋgʊʊ
ŋgʋ
ŋgʋʋ
ŋkpaɣ
ŋkɔɔ
ŋkɛ
ŋn
ŋna
ŋnaɣ
ŋsɩɩna
ŋtalɩ
ŋvɛɛ
ŋwolo
ŋɖɛɛ
ŋɖɩ
ŋɛ
ƞ
ƞgbɛyɛ
ɔ
ɔkɩsɩdɩ
ɔkɩsɩzɛnɩ
ɔlɩ
ɔm
ɔmɩŋ
ɔn
ɔna
ɔndɩnaa
ɔndʊtʊ
ɔrgɩ
ɔrɩgɩ
ɔsɩ
ɔsɩloo
ɔsɩtiki
ɔtɔŋ
ɔtɩ
ɔtɩna
ɔtɩnaʊ
ɔwa
ɔyɔɔdʊʊ
ɔza
ɔzɩ
ɔzɩna
ɔzʋʋ
ɔŋ
ɔɔ
ɔɔlɩ
ɔɔrɩdɩnatɛɛrɩ
ɔɔsɩ
ɔɔza
ɔɔzɩ
ɔɔzɩna
ɔɔzʊ
ɔɔzʊʊ
ɔɔzʋʋ
ɔɔzʋʋyɔɔkpaʋnɛtibu
ɔʊ
ɔʊʊ
ɔʋ
ɖ
ɖa
ɖaalakɩŋ
ɖaalʊ
ɖaalʊʊ
ɖahʊma
ɖahʋma
ɖajaa
ɖajaanaa
ɖajanaa
ɖakʊta
ɖakʊtanaa
ɖala
ɖalaa
ɖalakɩŋ
ɖalʊ
ɖalʊʊ
ɖalʋ
ɖama
ɖamaa
ɖamanɩnaʋ
ɖamɩŋ
ɖanaɣ
ɖanɩɣ
ɖanʊʊ
ɖasɩ
ɖatʊ
ɖaŋ
ɖaɣ
ɖaɣla
ɖaɣlaa
ɖaɣlakɩŋ
ɖaɣlʊʊ
ɖaɣnɩ
ɖaɣnɩɣ
ɖaʊ
ɖaʋ
ɖe
ɖeeɖe
ɖeke
ɖekɛ
ɖenɖe
ɖeu
ɖeyi
ɖeyiɖeyi
ɖeɖe
ɖeɣa
ɖeʊ
ɖi
ɖihuyiye
ɖilɩyɛ
ɖinɛ
ɖiu
ɖiya
ɖiyaɣ
ɖiyele
ɖiyiyu
ɖiyiɣna
ɖiyuu
ɖiziyaa
ɖiɣ
ɖiɣɖiɣ
ɖiɣɖiɣcaɣʋ
ɖo
ɖoho
ɖoli
ɖom
ɖoma
ɖomaa
ɖomaɣ
ɖomba
ɖombiye
ɖompe
ɖoo
ɖooo
ɖooye
ɖoye
ɖoyo
ɖozi
ɖoziye
ɖozɩ
ɖoŋ
ɖoŋaɣ
ɖoŋgiye
ɖoŋiye
ɖoŋɖoŋ
ɖoɖoo
ɖuu
ɖɔ
ɖɔdɔ
ɖɔfɩɩ
ɖɔkɔtɔ
ɖɔkɔtɔnaa
ɖɔkɩ
ɖɔkɩna
ɖɔkʊ
ɖɔkʊʊ
ɖɔkʋʋ
ɖɔm
ɖɔmbɛ
ɖɔmbɩyɛ
ɖɔmpe
ɖɔmpɛɛ
ɖɔna
ɖɔnɛ
ɖɔnʊ
ɖɔwa
ɖɔŋ
ɖɔŋna
ɖɔɔ
ɖɔɖɔ
ɖɔɖɛ
ɖɔʊ
ɖɔʊʊ
ɖɔʋ
ɖɛ
ɖɛfɛɛ
ɖɛfɛɛɛ
ɖɛna
ɖɛnaʊ
ɖɛnaʋ
ɖɛsɩ
ɖɛtʊ
ɖɛwa
ɖɛya
ɖɛyaa
ɖɛyʊ
ɖɛyʋ
ɖɛzɩtʊ
ɖɛzɩɣ
ɖɛzʊʊ
ɖɛɛ
ɖɛɛna
ɖɛɣ
ɖɛɣna
ɖɛʊ
ɖɛʋ
ɖɩ
ɖɩcaɣ
ɖɩcaɣyɛ
ɖɩcɔna
ɖɩcɔŋna
ɖɩfɛyɩ
ɖɩfɛyɩna
ɖɩhaɣ
ɖɩhʊyɛ
ɖɩjaɣyɛ
ɖɩkaɣ
ɖɩkpa
ɖɩkpaɣ
ɖɩkpɛndɩyɛ
ɖɩkɔna
ɖɩkɛ
ɖɩkɛna
ɖɩkɛŋna
ɖɩkɩla
ɖɩkɩlɩ
ɖɩkɩlɩɣ
ɖɩla
ɖɩlakɩ
ɖɩlaɖɛ
ɖɩlɩ
ɖɩlɩna
ɖɩlɩwa
ɖɩlɩyɛ
ɖɩlɩzɩ
ɖɩlɩɩ
ɖɩlʊkɩ
ɖɩlʋkɩ
ɖɩm
ɖɩma
ɖɩmayɛ
ɖɩmaɣ
ɖɩmʊ
ɖɩn
ɖɩna
ɖɩnaɣ
ɖɩnɛ
ɖɩnɛyɔ
ɖɩnɩɣ
ɖɩnɩɩ
ɖɩpaɣlɩ
ɖɩpaɣzɩ
ɖɩpaɣzɩyɛ
ɖɩpɛdɩyɛ
ɖɩpɩsɩ
ɖɩpɩzɩ
ɖɩpɩzɩɣ
ɖɩpɩzʋʋ
ɖɩsɔɔlɩ
ɖɩsɩ
ɖɩsɩma
ɖɩsʊ
ɖɩsʊyɛ
ɖɩsʊʊ
ɖɩtaa
ɖɩtaasɔ
ɖɩtaasɔɔ
ɖɩtalɩ
ɖɩtasɩ
ɖɩtɔ
ɖɩtɔkɩ
ɖɩtɔzɩ
ɖɩtɔŋ
ɖɩtɔɔ
ɖɩtɛ
ɖɩtɛma
ɖɩtɛnɖɛ
ɖɩtɩlɩ
ɖɩtɩzɩyɛ
ɖɩwalanzɩ
ɖɩwɛ
ɖɩwɛna
ɖɩwɛyɛ
ɖɩwɛɛ
ɖɩwɛɛna
ɖɩwɛʊ
ɖɩwɩlɩyɛ
ɖɩwɩlɩɣ
ɖɩya
ɖɩyaa
ɖɩyaɣ
ɖɩyɔɔ
ɖɩyɔɔdʊʊ
ɖɩyɔɔdʋʋ
ɖɩzɩtʊ
ɖɩzɩɣ
ɖɩzʊʊ
ɖɩɖɔ
ɖɩɖɔkɩ
ɖɩɖɔŋ
ɖɩɖɩ
ɖɩɖʊ
ɖɩɖʊyɛ
ɖɩɖʋyɛ
ɖɩɣa
ɖɩɩkɛ
ɖɩɩna
ɖɩɩsɩŋ
ɖɩɩwɛ
ɖʊ
ɖʊmaa
ɖʊna
ɖʊwa
ɖʊyaa
ɖʊyɛ
ɖʊyʊ
ɖʊzʊʊ
ɖʊɖʊyɛ
ɖʊʊ
ɖʊʊyʊ
ɖʋ
ɖʋna
ɖʋzʋʋ
ɖʋɖʋyɛ
ɖʋʋ
ɛ
ɛbɛ
ɛca
ɛcaa
ɛcakɩ
ɛcala
ɛcalɩ
ɛcalɩna
ɛcam
ɛcaŋ
ɛcaɣ
ɛcaɣa
ɛcɔ
ɛcɔlɔ
ɛcɔna
ɛcɔnaa
ɛcɔŋna
ɛcɔɔ
ɛcɔʊ
ɛcɛla
ɛcɛlɛ
ɛcɛyɩ
ɛfɛyɩ
ɛfɛyɩna
ɛgandɩyɛ
ɛgbam
ɛgbamɩyɛ
ɛgbaŋ
ɛgbaɣdɩyɛ
ɛgbaɣtɩnaa
ɛgbaɣtʊ
ɛgbɔŋ
ɛgbɛyɛ
ɛgɔlɔmɩyɛ
ɛgɔlɩmɩyɛ
ɛgɔm
ɛha
ɛhayɩ
ɛhaɣ
ɛhɔkɩ
ɛhɔzɩ
ɛhɔŋ
ɛhɛyɩ
ɛhɛzɩ
ɛhʊʊ
ɛjadɛ
ɛjandʊ
ɛjandʊʊ
ɛjaɖ
ɛjaɖe
ɛjaɖɛ
ɛjaɖɛtʋ
ɛjaɖɩ
ɛjɛya
ɛjɛɖɛ
ɛjɛɛ
ɛka
ɛkalɩ
ɛkandɩ
ɛkata
ɛkatɩ
ɛkatɩna
ɛkawɛna
ɛkaɖɩ
ɛkaɣ
ɛkpa
ɛkpaɣ
ɛkpaɣna
ɛkpɔŋ
ɛkpɛlɛka
ɛkpɛlɛkɩ
ɛkpɛlɛkʊʊ
ɛkpɛnda
ɛkpɛndɩ
ɛkɔm
ɛkɔma
ɛkɔna
ɛkɔɔ
ɛkɛ
ɛkɛdɩ
ɛkɛkɛ
ɛkɛna
ɛkɛŋna
ɛkɛʊ
ɛkɩla
ɛkɩlɩ
ɛkɩlɩɣ
ɛkɩlʊ
ɛkɩtaarɩnaa
ɛkʊ
ɛkʊyɩ
ɛkʊyʊ
ɛkʋ
ɛla
ɛlaba
ɛlabɩ
ɛlabɩna
ɛlakasɩ
ɛlakaɣ
ɛlakɩ
ɛlakɩna
ɛlɔ
ɛlɛ
ɛlɛzɩ
ɛlɛɛ
ɛlɛɛzɩ
ɛlɛɣza
ɛlɛɣzɩ
ɛlɩ
ɛlɩna
ɛlɩnaa
ɛlɩnɛ
ɛlɩza
ɛlɩzɩ
ɛlɩzɩɣ
ɛlɩzʊ
ɛlɩɣ
ɛlɩɩ
ɛlʊba
ɛlʊbɩna
ɛlʊkɩna
ɛlʊlɩ
ɛlʊlʊʊ
ɛlʋ
ɛlʋba
ɛlʋbɩna
ɛlʋkaɣ
ɛlʋkɩ
ɛma
ɛmaa
ɛmaba
ɛmakɩ
ɛmana
ɛmaɣ
ɛmaɣmaɣ
ɛmaɣna
ɛmaɣzɩ
ɛmaɣzɩɣ
ɛmʊ
ɛmʊna
ɛmʊʊ
ɛmʋ
ɛn
ɛna
ɛnaa
ɛnaɣ
ɛndonezi
ɛndonezii
ɛndusɩ
ɛndɩ
ɛndɩyɔm
ɛnglɩsɩ
ɛntɛrnɛtɩ
ɛntɛrɩnɛtɩ
ɛnɛ
ɛnɛyɔ
ɛnɩ
ɛnɩɣ
ɛnɩɩ
ɛnɩʊ
ɛnʊ
ɛnʊyɔ
ɛnʊʊ
ɛnʋ
ɛnʋʋ
ɛpaazɩ
ɛpazɩ
ɛpazɩɣ
ɛpaɣ
ɛpaɣlɩ
ɛpaɣza
ɛpaɣzɩ
ɛpaɣzɩna
ɛpɔzɩ
ɛpɛdɩ
ɛpɛlɩɣ
ɛpɩsa
ɛpɩsɩ
ɛpɩsɩna
ɛpɩsɩɣ
ɛpɩza
ɛpɩzɩ
ɛpɩzɩɣ
ɛpɩzʊ
ɛrbɩyɔm
ɛsa
ɛsakuliye
ɛsaɣ
ɛsipaan
ɛspaan
ɛspan
ɛstetiki
ɛsɔ
ɛsɔdaa
ɛsɔdaalɔɔɖɩyɛ
ɛsɔkaɣ
ɛsɔmɩnʋʋ
ɛsɔnaa
ɛsɔsɛtʊ
ɛsɔtaa
ɛsɔtɔm
ɛsɔɔla
ɛsɔɔlaa
ɛsɔɔlɩ
ɛsɔɔlʊʊ
ɛsɔɔlʋʋ
ɛsɛ
ɛsɛkuliye
ɛsɛɛ
ɛsɩ
ɛsɩba
ɛsɩbɩna
ɛsɩkaɣ
ɛsɩkɩ
ɛsɩm
ɛsɩma
ɛsɩmtaa
ɛsɩna
ɛsɩnda
ɛsɩndaa
ɛsɩntaa
ɛsɩpaan
ɛsɩpan
ɛsɩtɛɣlɩm
ɛsɩyɛ
ɛsɩŋ
ɛsɩŋna
ɛsɩɣ
ɛsɩɣna
ɛsɩɩ
ɛsʊ
ɛsʊʊ
ɛsʋ
ɛsʋʋ
ɛta
ɛtaa
ɛtaala
ɛtaasɔɔlɩ
ɛtaatasɩ
ɛtaatɩlɩ
ɛtaawɛɛ
ɛtala
ɛtalɩ
ɛtalɩɣ
ɛtama
ɛtana
ɛtapɩzɩ
ɛtapɩzɩɣ
ɛtasa
ɛtasɩ
ɛtasɩɣ
ɛtatasɩ
ɛtatɩlɩ
ɛtɔ
ɛtɔkɩ
ɛtɔlɩ
ɛtɔma
ɛtɔsɔɔlɩ
ɛtɔtɔyɩ
ɛtɔŋ
ɛtɔɔ
ɛtɔʊ
ɛtɔʊʊ
ɛtɛ
ɛtɛkɛ
ɛtɛlɛm
ɛtɛlɛmwaa
ɛtɛm
ɛtɛma
ɛtɛyɩ
ɛtɛzɩ
ɛtɛŋ
ɛtɩ
ɛtɩlɩ
ɛtɩna
ɛtɩyɛ
ɛtɩŋ
ɛtɩŋa
ɛtɩŋga
ɛtɩŋna
ɛtʊ
ɛtʊla
ɛtʊlɩ
ɛtʊmɩyɛ
ɛtʋlɩ
ɛvalaa
ɛvalʋ
ɛwa
ɛwaba
ɛwadɩyɛ
ɛwalɩ
ɛwayɩ
ɛwaɣ
ɛwɛ
ɛwɛna
ɛwɛnɩ
ɛwɛtʊ
ɛwɛɛ
ɛwɛɛkɩ
ɛwɛɛna
ɛwɛɣ
ɛwɛʊ
ɛwɛʋ
ɛwɩlaɣ
ɛwɩlɩ
ɛwɩlɩɣ
ɛya
ɛyaa
ɛyabɩyɛ
ɛyaɣ
ɛyɔ
ɛyɔɔ
ɛyɔɔda
ɛyɔɔdaa
ɛyɔɔdɩ
ɛyɔɔdɩna
ɛyɔɔdɩɣ
ɛyɔɔdʊʊ
ɛyɩ
ɛyɩtʊ
ɛyɩyʊ
ɛyɩɣ
ɛyʊ
ɛyʊtʊ
ɛyʊyɩ
ɛyʊʊ
ɛyʋ
ɛyʋtʋ
ɛyʋʋ
ɛza
ɛzakuliye
ɛzaɣtʊ
ɛzaɣtʋ
ɛzɔkpaa
ɛzɩ
ɛzɩma
ɛzɩmaa
ɛzɩmta
ɛzɩmtaa
ɛzɩɩ
ɛŋglɩsɩ
ɛɖanɩ
ɛɖanɩɣ
ɛɖaŋ
ɛɖaɣna
ɛɖaɣnɩ
ɛɖɔ
ɛɖɔka
ɛɖɔkɩ
ɛɖɔŋ
ɛɖɔɔ
ɛɖɛ
ɛɖɛna
ɛɖɛzɩ
ɛɖɛɛ
ɛɖɛɛna
ɛɖɛʊ
ɛɖɩɣna
ɛɖʊ
ɛɖʊwa
ɛɖʊzɩ
ɛɖʊʊ
ɛɖʋ
ɛɖʋʋ
ɛɛcaɣ
ɛɛkaɣ
ɛɛkpaɣ
ɛɛkɛ
ɛɛkɛna
ɛɛkɩlɩɣ
ɛɛlaba
ɛɛlakɩ
ɛɛlɩza
ɛɛma
ɛɛn
ɛɛnaɣ
ɛɛndɩ
ɛɛnɩɣ
ɛɛpɩzɩɣ
ɛɛpɩzʊ
ɛɛpʊkɩ
ɛɛsɔɔla
ɛɛsɔʊ
ɛɛsɩŋ
ɛɛtasɩɣ
ɛɛtɔkɩ
ɛɛtɛma
ɛɛtɛŋ
ɛɛwɛ
ɛɛwɛna
ɛɛwɛɛ
ɛɛwɛʊ
ɛɛɛ
ɟ
ɣ
ɩ
ɩkɩɣ
ɩlɩ
ɩlɩm
ɩlɩsɩɣ
ɩm
ɩma
ɩmba
ɩmbʊ
ɩmbʊsaɣ
ɩmbʋ
ɩmpusuu
ɩmɩyɛ
ɩmɩŋ
ɩn
ɩna
ɩnaa
ɩnaɣ
ɩnbʊsaɣ
ɩndɛ
ɩndʊ
ɩndʋ
ɩnzɩ
ɩnɖɛ
ɩnɖɩ
ɩnɛ
ɩnɩ
ɩnɩna
ɩnɩtʊ
ɩnɩya
ɩnɩyaa
ɩnɩyɛ
ɩnɩyʊ
ɩnɩyʋ
ɩnɩŋ
ɩnɩɣ
ɩnɩɣna
ɩnɩʊ
ɩnɩʋ
ɩnʊ
ɩnʊʊ
ɩnʋ
ɩnʋʋ
ɩrɩdɩyɔm
ɩrɩtɩyɔm
ɩsraɛlɩ
ɩtrɩyɔm
ɩtɛrbɩyɔm
ɩtɩɩɩ
ɩtʊ
ɩtʊʊ
ɩtʋ
ɩwɛ
ɩwɛna
ɩwɛɛ
ɩyɔdɩ
ɩyʊ
ɩyʊʊ
ɩzɩyɔm
ɩŋ
ɩŋa
ɩŋga
ɩŋgʊ
ɩŋgʋ
ɩŋɖɛ
ɩŋʊ
ɩŋʋ
ɩɣ
ɩɣla
ɩɣlɩm
ɩɣlɩsɩɣ
ɩɣlɩŋ
ɩɣtʊ
ɩɣtʋ
ɩɣyɩŋ
ɩɣyʊ
ɩɣyʊʊ
ɩɣyʋʋ
ɩɣɖɛ
ɩɣʊ
ɩɣʊʊ
ɩɣʋ
ɩɩ
ɩɩtʊ
ɩɩyʊ
ɩɩyʊʊ
ɩɩɩ
ɩʊ
ɲ
ʊ
ʊndinaa
ʊndɩna
ʊndɩnaa
ʊntɩnaa
ʊnʊ
ʊranɩyɔm
ʊtʊ
ʊŋ
ʊʊ
ʊʊda
ʊʊdʊ
ʊʊtaa
ʊʊtʊ
ʊʊŋ
ʋ
ʋndɩnaa
ʋŋ
ʋʋ
ʋʋdʋ
ʋʋyabʋ
ʲ
ʼ
ʾ
ʿ
ˈ
ː
̀
́
̂
̃
̄
̆
̇
̈
̉
̊
̌
̓
̔
̣
̥
̧
̨
͂
͡
ͻ
α
ε
ι
μ
ν
ο
ς
υ
ω
ϑ
ָ
ֹ
א
ש
ا
ر
ن
َ
ُ
ِ
ْ
ٓ
ٔ
क
ग
ण
द
य
व
श
ष
ा
ि
ी
ु
्
ா
்
ങ
‎
–
—
‘
’
“
”
†
•
…
⁴
→
↔
↷
−
③
④
⑦
⺀
⺄
⺆
⺈
⺊
⺌
⺕
⺝
⺸
⺼
⿰
⿱
⿲
⿳
⿴
⿵
⿶
⿷
⿸
⿹
⿺
⿻
〢
コ
ユ
㇁
㇂
㇄
㇇
㇈
㇉
㇓
㐁
㐄
㐅
㐌
㐫
㐬
㐭
㐮
㐱
㑒
㒵
㒸
㒼
㓁
㓞
㔾
㕛
㕣
㖾
㘝
㚅
㚇
㚔
㚘
㝉
㝡
㝴
㝵
㞋
㞢
㞷
㠩
㠭
㠯
㡀
㡭
㡿
㢲
㢴
㣇
㣺
㥯
㪅
㫄
㫐
㫒
㫺
㬅
㬎
㬥
㬰
㲋
㳄
㷠
㸒
㸚
㸦
㼌
㼲
㽞
㿟
䀠
䂞
䍃
䏍
䒑
䖍
䖒
䖝
䖵
䙴
䚻
䜌
䝿
䡛
䧹
䪞
一
丁
丂
七
丄
丅
丆
万
丈
三
上
下
丌
不
与
丏
丐
丑
专
且
丕
世
丘
丙
业
东
丞
丢
丣
两
严
並
丨
丩
个
丫
丬
中
丮
丰
丱
串
丵
丶
丷
丸
丹
为
主
丽
丿
乀
乂
乃
久
乆
乇
么
义
之
乌
乍
乎
乏
乐
乑
乔
乖
乗
乘
乙
乚
乛
乜
九
乞
也
习
乡
乳
乾
亀
亅
了
亇
予
争
事
二
亍
于
亏
亐
云
互
亓
五
井
亘
亚
亜
亞
亟
亠
亡
亢
交
亥
亦
产
亨
亩
享
京
亭
亮
亯
亰
亲
亳
亶
亷
人
亻
亼
亾
仁
今
介
仌
从
仐
仑
仒
仓
仕
他
付
仝
代
令
以
任
企
伊
伏
伐
休
会
伯
但
位
何
佘
余
作
佥
使
來
侈
侌
侖
侯
侵
便
保
俞
信
修
倉
倍
候
倠
備
僉
僕
儒
儿
兀
允
兂
元
兄
充
兆
兇
先
光
兊
克
兌
免
兑
兒
兓
兔
党
兜
兟
入
全
兩
兪
八
公
六
兮
兰
共
关
兵
其
具
典
兹
兼
冀
冂
冃
冄
内
冈
冉
冊
冋
册
再
冎
冏
冐
冒
冓
冖
冗
冘
军
农
冝
冡
冥
冫
冬
冷
几
凡
凢
凵
凶
凷
凸
凹
出
函
凾
刀
刁
刂
刃
刄
刅
分
切
刍
刑
刕
刖
列
刘
则
初
別
利
别
到
制
刺
則
削
剌
前
剡
剽
劉
力
功
加
劦
助
劫
劳
劵
勃
勇
勉
勒
動
務
勞
勤
勹
勺
勻
勾
勿
匀
匂
包
匆
匈
匊
匋
匍
匕
化
北
匚
匝
匡
匪
匱
匸
匹
区
医
匽
匿
區
十
卂
千
卄
卅
卆
升
午
卉
半
卌
华
卑
卒
卓
单
卖
南
卜
卝
卞
占
卡
卢
卣
卤
卦
卩
卪
卬
卯
印
危
即
却
卵
卷
卸
卻
厂
厃
厄
历
厈
厉
厌
厓
厘
厚
原
厤
厥
厨
厭
厲
厶
厷
厸
去
厼
厽
叀
参
參
叅
又
叉
及
友
双
反
叐
发
叒
叔
叕
取
受
叚
叜
叟
口
古
句
另
叩
只
召
可
台
叱
史
右
叵
号
司
叹
吂
各
吅
合
吉
吊
吋
同
名
后
吏
向
吕
君
吝
吞
否
含
启
吳
吴
吹
吾
呂
呆
呈
告
员
呙
周
命
咅
和
咎
咠
咢
咨
咸
咼
哀
品
哉
員
哥
哲
唐
商
啇
問
啚
啬
啻
善
喜
喬
單
喿
嗇
噩
嚴
囊
囗
囘
囙
囚
四
回
囟
因
囧
囬
困
囱
囷
固
国
圂
圅
國
圍
圓
土
圡
圣
圥
在
圭
地
圶
圼
坐
坒
坚
坴
垂
垔
垚
埀
埋
埶
執
基
堂
堅
堆
堇
堯
塞
墨
壘
士
壬
壯
声
壳
壴
壹
壺
壽
夂
处
夅
夆
备
夊
夋
夌
复
夏
夒
夕
外
夗
夘
多
夜
夢
大
夨
天
太
夫
夬
夭
央
失
夲
头
夷
夸
夹
夻
夾
奂
奄
奇
奈
奉
奎
奏
奐
契
奓
奔
奚
奞
奠
奢
奥
奭
女
奴
奻
好
如
妄
妙
妟
妥
妻
妾
姑
委
姜
威
娄
婁
婴
嬰
嬴
子
孑
孔
孕
孖
字
存
孚
孛
孝
孟
季
孤
学
孫
孱
學
宀
宁
宂
它
宅
宇
守
安
宋
完
宏
宓
宗
官
定
宛
宜
宝
客
宣
室
宮
宰
害
家
容
宾
宿
寄
寅
密
富
寒
察
寧
審
寫
寬
寮
寸
对
寺
寻
寽
対
寿
封
尃
射
将
將
專
尉
尊
尋
尌
對
小
少
尒
尓
尔
尖
尗
尚
尞
尢
尣
尤
尧
尨
尭
就
尸
尹
尺
尻
尼
尽
尾
尿
局
居
屈
屋
屎
屏
屑
展
屖
屚
属
屠
屡
屬
屮
屯
屰
山
屵
屾
岁
岂
岑
岡
岩
岳
岸
峯
島
崇
崑
崔
崖
崙
崩
嵬
嶲
巂
巛
川
州
巟
巠
巢
巤
工
左
巧
巨
巩
巫
差
己
已
巳
巴
巷
巸
巽
巾
巿
帀
市
布
希
帚
帛
帝
带
師
席
帶
常
干
平
年
幵
并
幷
幸
幺
幻
幼
幽
幾
广
広
庄
床
底
店
庚
府
度
庫
庭
庶
康
庸
廉
廌
廛
廣
廩
廴
延
廷
建
廾
廿
开
弁
弃
弄
弇
弋
式
弓
弔
引
弗
弘
弜
弟
弥
弦
弱
張
強
强
彊
彌
彎
彐
彑
当
彔
录
彖
彗
彡
形
彥
彦
彧
彭
彳
役
彼
往
待
律
徒
得
徙
從
復
微
徵
德
心
忄
必
忌
忍
志
忝
忠
忩
快
念
忽
忿
思
怠
急
怱
恆
恒
恩
恭
息
悉
患
悤
悲
悶
惠
惡
惢
愁
愈
意
愛
感
慈
慧
慮
憂
憲
應
戀
戈
戉
戊
戋
戌
戍
戎
成
我
戒
戔
或
戚
戠
戢
截
戲
戶
户
戹
戼
戾
房
所
扁
扇
手
扌
才
打
托
执
承
折
拉
拜
拿
掌
推
提
摩
支
攴
攵
收
攸
改
放
政
敄
敏
敕
敖
敗
敝
敞
敢
散
敦
敫
敬
数
敷
數
斂
文
斉
斊
斗
斤
斥
斩
斬
斯
新
方
於
施
斿
旁
旋
族
无
旡
既
旣
日
旦
旧
旨
早
旬
旱
旲
时
旾
昆
昇
昌
昍
明
昏
易
昔
昗
昜
星
春
昬
昭
是
昱
昴
昷
時
晃
晋
晏
普
景
晶
智
暑
暴
曇
曩
曰
曲
曳
更
曷
書
曹
曼
曾
替
最
朁
會
月
有
朋
服
朔
朕
朗
望
朝
木
朩
未
末
本
札
朮
术
朱
朵
朶
朿
杀
杏
杜
束
条
来
東
杲
杳
松
析
林
枚
果
枝
枲
枼
某
柔
查
柬
柰
柴
栗
桀
桑
桼
梁
條
梟
梨
棘
棠
棥
森
楚
業
楽
榮
樂
樊
欠
次
欣
欮
欲
欶
欽
款
歆
歇
歛
止
正
此
步
武
歨
歪
歮
歯
歰
歲
歴
歷
歸
歹
歺
死
殳
段
殷
殸
殹
殺
殻
殿
毋
毌
母
每
毒
比
毕
毚
毛
毳
氏
氐
民
气
氣
水
氵
氶
氷
永
氺
氾
求
汝
汞
江
沃
沓
沙
沝
泉
法
波
泣
泥
泰
洛
洪
活
派
流
浦
浪
浮
淡
淮
清
渚
渠
湯
滿
漸
火
灬
灭
灰
灵
灷
炅
炎
炏
炗
炙
炭
為
烈
烏
烝
焉
無
焦
焱
然
煞
熊
熏
燕
營
燮
爪
爫
爭
爯
爰
爱
爲
爵
父
爻
爽
爾
爿
片
牙
牚
牛
牜
牟
牢
牧
牪
牽
犀
犬
犭
犮
狂
狄
狊
独
狺
猋
猒
猪
献
獻
玄
率
玉
王
玟
玨
珎
班
琴
瑟
瑩
瓜
瓦
甘
甚
生
産
用
甫
甬
田
由
甲
申
电
甶
男
甸
甹
画
甾
畀
界
畏
畐
留
畜
畟
畢
畧
畨
番
畫
異
畱
當
畺
畾
疊
疋
疌
疑
疒
疾
癶
癸
癹
登
發
白
百
皀
皃
的
皆
皇
皋
皐
皕
皮
皷
皿
盃
盆
盇
盈
益
盍
盎
监
盒
盖
盛
盡
監
盤
盧
目
直
相
盾
省
眇
眉
看
眔
眞
真
眷
眼
眾
着
睘
睪
睿
瞏
瞢
瞿
矍
矛
矞
矢
矣
知
矦
短
石
破
碎
磊
磨
示
礻
礼
祟
票
祭
禀
禁
禸
禹
禺
离
禽
禾
禿
秀
秃
秉
秋
科
秝
秦
移
稟
穀
穌
穴
究
穹
空
穿
突
窄
窒
立
竒
竜
竝
竟
章
童
竹
笑
笠
筆
等
答
箕
算
箴
節
篤
篭
米
粉
粛
粟
粤
粦
粲
糞
糸
糹
系
約
納
素
索
紫
累
細
絜
絫
絲
維
綿
縣
繇
纍
纟
缶
网
罒
罔
罕
罗
罙
罡
罢
罪
署
罷
羅
羊
羌
羍
美
羔
羕
羗
羞
羡
羣
群
義
羲
羸
羽
翁
翏
習
翕
翟
翠
翼
老
耂
考
者
耆
而
耎
耑
耒
耳
耴
耶
耷
聂
聊
聖
聚
聶
聿
肀
肃
肅
肉
肖
肙
肥
肩
肯
育
肴
胃
背
胡
胥
能
脊
脩
膚
臣
臤
臧
自
臬
臭
臯
臱
至
致
臺
臼
臽
臾
臿
舀
舂
舄
與
興
舉
舌
舍
舛
舜
舞
舟
般
艮
良
色
艸
艹
艾
芒
芔
芬
芮
花
芳
芺
芻
苔
苗
苟
若
苦
英
茶
茸
荅
草
荒
荣
荼
莆
莧
莫
莽
菆
菊
菐
華
萬
落
葉
著
葛
董
葵
蒙
蒦
蒼
蓋
蓬
蓺
蔑
蔡
蕉
蕭
薄
薛
薦
薰
藍
藏
藥
蘭
虍
虎
虐
虒
虔
處
虖
虗
虘
虚
虛
虜
虞
虫
虽
蚤
蚩
蜀
蜜
蟲
蠡
血
行
衍
衛
衣
衤
表
衮
衰
袁
袞
褭
褱
襄
襾
西
覀
要
覃
見
規
覓
覧
親
覽
见
角
解
言
訁
訇
計
詹
誩
諸
讠
谷
豆
豈
豊
豐
豕
豖
豙
象
豦
豩
豪
豸
貇
貝
貞
貟
負
貢
貧
貪
貫
責
貳
貴
買
費
賁
資
賈
賏
賓
賔
賛
賞
賢
賣
質
賴
贊
贝
贡
责
贯
贲
贵
赖
赞
赤
赦
走
越
足
路
蹇
身
躬
車
軍
軎
軟
輦
车
辛
辜
辟
辥
辰
辱
農
辵
辶
边
达
过
近
连
迷
追
退
送
逆
逐
通
速
造
逢
連
逮
進
遀
遂
過
道
達
遣
適
遷
遺
邊
邑
邕
那
邦
邪
郎
部
郭
都
鄉
酉
酋
配
酓
釆
采
里
重
野
量
金
釒
錢
钅
長
镸
长
門
閃
閉
開
閏
閑
閒
間
閔
閵
閻
闌
门
间
闷
阑
阜
阝
阿
降
陳
隆
隊
隋
隡
隨
隱
隶
隹
隺
隻
隼
隽
难
雀
雁
集
雈
雋
雍
雐
雔
雙
雚
雜
雝
離
難
雨
雩
雪
雲
零
雷
需
霍
霜
霝
霞
霸
靈
靑
青
非
靡
面
靣
革
韋
韦
韭
韯
韱
音
頁
頃
項
須
頗
頡
頻
顛
页
風
风
飛
飞
食
飠
養
饣
首
香
馬
馮
駦
马
骨
高
髟
鬥
鬯
鬲
鬼
魚
魯
鮮
鱼
鲁
鳥
鳳
鸟
鹵
鹿
麃
麗
麥
麦
麻
黃
黄
黍
黎
黑
黒
黨
黹
黽
黾
鼎
鼓
鼠
鼻
齊
齋
齐
齒
齿
龍
龙
龜
龟
龠
龰
龱
龴
龵
龶
龷
龸
龹
者
艹
？
𠀁
𠀃
𠀆
𠀉
𠀎
𠀐
𠁁
𠁣
𠂆
𠂇
𠂈
𠂉
𠂊
𠂋
𠂎
𠂒
𠂔
𠂛
𠂡
𠂢
𠂤
𠂬
𠂭
𠂹
𠃊
𠃋
𠃌
𠃍
𠃎
𠃑
𠃓
𠃔
𠃜
𠄌
𠄎
𠄠
𠄢
𠆢
𠆥
𠇍
𠈌
𠌵
𠓜
𠔉
𠔥
𠔼
𠔽
𠔿
𠕀
𠕁
𠕋
𠘧
𠘨
𠙻
𠙼
𠚏
𠚒
𠚤
𠚪
𠣏
𠤎
𠤕
𠥓
𠦄
𠦑
𠦝
𠧒
𠧗
𠧪
𠩺
𠪚
𠫓
𠫔
𠫤
𠬛
𠬝
𠬞
𠬢
𠬤
𠬶
𠮛
𠮦
𠮷
𠯑
𠱠
𠳮
𠷎
𡈼
𡉀
𡉵
𡌥
𡍮
𡏳
𡕒
𡕩
𡕰
𡖅
𡗗
𡗜
𡘆
𡘤
𡧱
𡨄
𡩧
𡬠
𡭽
𡰣
𡰥
𡰪
𡰯
𡰱
𡷈
𡸁
𡿨
𡿩
𡿪
𡿺
𢀖
𢀛
𢀩
𢁙
𢆉
𢆰
𢆶
𢇁
𢇇
𢉖
𢌬
𢌿
𢏚
𢑑
𢑚
𢖻
𢙣
𢛳
𢦏
𢦒
𢧵
𢼄
𢾕
𣁋
𣄼
𣅀
𣅽
𣍘
𣎳
𣎵
𣏋
𣏼
𣗥
𣥂
𣥖
𣦵
𣦼
𣧄
𣪊
𣪠
𣬉
𣳾
𣶒
𤇾
𤊽
𤐫
𤓰
𤔔
𤕨
𤣩
𤰇
𤰔
𤰞
𤴓
𤴔
𤽄
𥁑
𥁕
𥃦
𥃩
𥃭
𥇡
𥑟
𥘅
𥘈
𥝢
𥫗
𥱡
𦈢
𦉪
𦉬
𦉼
𦍌
𦍒
𦎧
𦐇
𦓔
𦔮
𦘒
𦙃
𦚏
𦣝
𦣞
𦣻
𦥑
𦥔
𦥯
𦨉
𦭝
𦰩
𧆞
𧈧
𧘇
𧰨
𧴪
𧴮
𧵩
𧾷
𨸏
𨾴
𩙿
𩠐
𩫏
𩵋
𪉷
𪜀
𪟽
𪠲
𪩲
𫇦
𫔭
𫜸
𫝀
𫠣
𫠩
𫢉
𫥞
𫩏
𫩠
𫪡
𫲽
𫶧
𬀷
𬐘
𬗌
𬙙
𬛸
𬜯
𬟩
𬯁
𬴘
𬺻
𬼉
𬼖
𭀰
𭁈
𭁨
𭅰
𭑈
𭕄
𭗼
𭤨
𭥫
𭻾
𮅕
𮊿
𮍌
𮍏
𮓗
𮥼
𮧮
廾
𰀁
𰀄
𰀈
𰀉
𰀕
𰀠
𰀡
𰀢
𰀪
𰁜
𰃮
𰆊
𰆘
𰋙
𰕎
𰢴
𰧭
𰯲
0--
11--
12--
13--
14--
15--
16--
17--
18--
20--
40--
8--
9--
a--
aa--
ab--
ac--
afri--
aga--
agba--
ahe--
ai--
ak--
al--
ale--
alex--
ali--
alɩ--
alʋ--
am--
ama--
amoni--
an--
ang--
antana--
api--
ar--
ara--
arɩzan--
as--
ase--
at--
ata--
au--
ave--
avi--
az--
aŋ--
b--
ba--
bal--
bar--
bas--
be--
ber--
bey--
bi--
bo--
bou--
bra--
bro--
bru--
bu--
byzan--
c--
ca--
caa--
can--
ce--
cen--
ch--
ci--
cie--
cla--
clo--
co--
com--
cons--
cor--
cou--
cɔ--
cɔɔ--
cɛ--
cɩ--
cɩkpe--
d--
da--
de--
den--
di--
dic--
didy--
do--
du--
dɩ--
e--
eb--
el--
en--
es--
esi--
et--
ete--
eti--
ev--
eve--
ewe--
f--
fa--
fana--
fe--
feen--
fem--
fenaɣ--
fete--
fi--
fil--
filo--
fl--
fo--
fou--
fr--
fu--
fɛ--
fɩ--
g--
ga--
gal--
gau--
ge--
ger--
gi--
gil--
go--
gott--
gu--
h--
ha--
halɩ--
ham--
har--
he--
hi--
hil--
hitch--
ho--
hu--
hy--
hɔ--
hɛ--
hɩ--
hʊ--
hʋ--
i--
igu--
ii--
in--
irla--
is--
isla--
ita--
izi--
j--
ja--
jac--
je--
ji--
jo--
ju--
k--
ka--
kaa--
kacʊ--
kaf--
kaja--
kal--
kan--
karɩ--
kata--
kazaki--
ke--
kede--
ken--
kete--
ki--
kide--
kiga--
kisi--
ko--
kolo--
kon--
koo--
kpa--
kpala--
kpe--
kpee--
kpeɣ--
kpi--
kpɛ--
kpɛz--
kpɛɣ--
kpɩ--
kri--
ku--
kutu--
kɔ--
kɔd--
kɛ--
kɛd--
kɛlɛm--
kɛn--
kɛz--
kɛɛ--
kɩ--
kɩb--
kɩlɛ--
kɩsɛɛ--
kɩta--
kɩtam--
kɩɩ--
kʊ--
kʊd--
kʊdɔn--
kʊlʊ--
kʊɖu--
kʋ--
l--
la--
lai--
las--
le--
lec--
lect--
lee--
li--
lo--
lu--
luz--
lɔ--
lɔn--
lɔŋ--
lɛ--
lɩ--
lɩŋ--
lʊ--
lʊb--
m--
ma--
maa--
mab--
mada--
mah--
mal--
mamac--
man--
mar--
math--
may--
maz--
me--
mezopo--
mi--
mil--
mo--
mu--
mɛ--
mɛki--
mɛkɩ--
mɩ--
mʊ--
n--
na--
naa--
nab--
naŋgba--
nd--
ndaa--
ne--
ngo--
ni--
nii--
nim--
nkru--
no--
nor--
nɔ--
nɛ--
nɛp--
nɩ--
nʋ--
o--
oli--
olo--
on--
or--
ort--
orɩ--
osi--
p--
pa--
paa--
pahʊ--
paki--
pal--
palɛ--
palɩ--
pan--
pante--
papu--
pasi--
pata--
pataa--
pe--
pee--
peh--
pek--
pete--
ph--
pi--
pii--
pire--
piree--
piy--
pla--
po--
poli--
pom--
pon--
potu--
pr--
pra--
pro--
pu--
pɔ--
pɔrɩ--
pɔɔ--
pɛ--
pɛk--
pɩ--
pɩc--
pɩg--
pɩk--
pɩma--
pɩɩ--
pʊ--
pʊdɔ--
pʊʊ--
pʋ--
q--
quar--
r--
ra--
re--
rea--
ri--
rii--
ro--
rou--
ru--
rus--
s--
sa--
saa--
sac--
sal--
say--
sch--
se--
seɣti--
sho--
si--
sii--
sim--
so--
som--
sou--
st--
ste--
su--
sy--
sɔ--
sɔɔ--
sɛ--
sɩ--
sɩb--
sɩn--
sɩɣ--
sʊ--
t--
ta--
taa--
tai--
tane--
tar--
te--
ten--
ter--
teri--
tho--
thu--
ti--
tii--
to--
too--
tou--
tri--
ts--
tu--
tɔ--
tɔɔ--
tɛ--
tɩ--
tɩɩ--
tʊ--
tʋ--
tʋm--
u--
ura--
v--
va--
ve--
ver--
vi--
w--
wa--
wal--
we--
wi--
wil--
wo--
wɛ--
wɛɛ--
wɩlʋʋ--
wɩsɩ--
x--
y--
ya--
ye--
yi--
yo--
ytter--
yu--
yɔ--
yɔɔ--
yɛ--
z--
ze--
zer--
zi--
ŋ--
ŋn--
ɔ--
ɔn--
ɖa--
ɖama--
ɖaɣ--
ɖe--
ɖi--
ɖo--
ɖɔ--
ɖɛ--
ɖɩ--
ɖʋ--
ɛ--
ɛcɛ--
ɛg--
ɛgbad--
ɛhʊ--
ɛj--
ɛka--
ɛkpɛ--
ɛlʊ--
ɛma--
ɛn--
ɛrɔ--
ɛsɔ--
ɛsɩ--
ɛta--
ɛtaa--
ɛtɔ--
ɛzʋ--
ɛɛ--
ɛɛta--
ɣ--
ɩ--
ɩmbu--
ɩn--
ɩŋg--
ɩɣ--
ɩɩ--
ʋʋ--
ν--
--0
--00
--05
--1
--2
--3
--4
--5
--6
--7
--8
--9
--a
--aa
--ah
--al
--ala
--am
--an
--ana
--ar
--ara
--as
--asɩ
--au
--ayɩ
--az
--aŋ
--aɣ
--b
--ba
--balʊ
--basɩ
--be
--bi
--biya
--bo
--bu
--buuri
--bɩ
--bɩna
--bɩnaʋ
--bʊ
--bʊʊ
--bʋ
--c
--caɣ
--ce
--ch
--ci
--ck
--cɩ
--d
--da
--daa
--daɣ
--de
--di
--dia
--do
--ds
--duu
--dy
--dɛ
--dɩ
--dɩyɛ
--dɩɣ
--dʊ
--dʊʊ
--dʋ
--dʋʋ
--e
--el
--eli
--en
--er
--es
--et
--ev
--ez
--eɣa
--f
--ff
--fiya
--g
--ga
--galɩ
--gaɣ
--ge
--gie
--gili
--gne
--go
--gs
--gɩ
--gɩna
--gʊ
--gʊna
--gʊʊ
--h
--he
--i
--ie
--ien
--ii
--iki
--ili
--im
--in
--ine
--io
--ion
--ir
--ire
--is
--ise
--ism
--ite
--ito
--iya
--iye
--iyi
--iyo
--izi
--iŋ
--iɣ
--k
--ka
--kaa
--kaɣ
--ke
--kh
--ki
--kii
--ko
--ku
--kɔkɩ
--kɛ
--kɩ
--kɩŋ
--kɩɣ
--kʊ
--kʊʊ
--kʋ
--l
--la
--laa
--landɩ
--laɣ
--le
--li
--lia
--lin
--ll
--lle
--lly
--llywood
--lo
--lt
--lu
--luu
--lɔ
--lɛ
--lɩ
--lɩyɛ
--lɩŋ
--lʊ
--lʊm
--lʊʊ
--lʋ
--lʋʋ
--m
--ma
--mar
--maɣ
--mda
--me
--mens
--mm
--mna
--msɩ
--my
--mɩ
--mɩm
--mʊ
--n
--na
--naa
--nau
--naʊ
--nce
--nd
--ndo
--ndʊ
--ne
--ng
--nge
--ni
--nii
--niiki
--nim
--nk
--nne
--ns
--nt
--nte
--nza
--nzɩ
--nɛ
--nɩ
--nɩyɔm
--o
--ol
--on
--onaa
--ons
--oo
--os
--ot
--ota
--ov
--ovitch
--p
--pe
--pi
--port
--pɩ
--pʊ
--pʋ
--r
--ra
--rd
--re
--ree
--ri
--ria
--rii
--rk
--rn
--rne
--rry
--rs
--rt
--rte
--rto
--ry
--rɩ
--s
--sa
--sasa
--se
--si
--sia
--sidi
--sii
--sme
--so
--son
--ss
--su
--sɔ
--sɔɔ
--sɩ
--sʊ
--sʊʊ
--sʋʋ
--t
--ta
--taa
--tanɩ
--tasɩ
--te
--ter
--th
--ti
--tion
--to
--tte
--tu
--tz
--tɔ
--tɛnɩ
--tɩ
--tɩɣ
--tɩɩ
--tʊ
--tʋ
--u
--ua
--ud
--ui
--ul
--um
--up
--ur
--ure
--urg
--urt
--us
--uth
--uu
--ux
--v
--va
--ve
--vi
--vitch
--vo
--w
--wa
--waa
--waɣ
--we
--wn
--wɛ
--wɩ
--x
--xe
--y
--ya
--yaa
--yasi
--yaɣ
--ye
--yi
--yiɣ
--yu
--yuu
--yɔ
--yɔm
--yɛ
--yɩ
--yɩtʊ
--yʊ
--yʊʊ
--yʋ
--yʋʋ
--z
--za
--zaa
--zaɣ
--zi
--zii
--zo
--zu
--zuu
--zɩ
--zɩna
--zɩyɛ
--zɩŋ
--zɩɣ
--zʊ
--zʊʊ
--zʋʋ
--ŋ
--ŋa
--ŋga
--ŋna
--ŋŋŋ
--ŋʊʊ
--ɔ
--ɔŋ
--ɔɔ
--ɖa
--ɖaa
--ɖe
--ɖi
--ɖu
--ɖɛ
--ɖɩ
--ɖɩyɛ
--ɖɩɣ
--ɖʊ
--ɖʋ
--ɛ
--ɛrɩ
--ɛɛ
--ɛɛrɩ
--ɣ
--ɣa
--ɣna
--ɣti
--ɣu
--ɣza
--ɣzɩ
--ɣʊ
--ɩ
--ɩna
--ɩyɛ
--ɩŋ
--ɩɣ
--ɩɩ
--ɩʊ
--ʊ
--ʊna
--ʊzɩ
--ʊʊ
--ʋ
--ʋna
--ʋʋ
--ς
