!
"
#
##0
##1
##10
##11
##12
##13
##14
##15
##16
##17
##18
##19
##2
##20
##21
##22
##23
##24
##25
##26
##27
##28
##29
##3
##30
##31
##32
##33
##34
##35
##36
##37
##38
##39
##4
##40
##41
##42
##43
##44
##45
##46
##47
##48
##49
##5
##50
##51
##52
##53
##54
##55
##56
##57
##58
##59
##6
##60
##61
##62
##63
##64
##65
##66
##67
##68
##69
##7
##70
##71
##72
##73
##74
##75
##76
##77
##78
##79
##8
##80
##81
##82
##83
##84
##85
##86
##87
##88
##89
##9
##90
##91
##92
##93
##94
##95
##96
##97
##98
##99
$
%
&
'
(
)
*
+
,
-
.
/
0
00
000
01
014
02
03
04
05
050
06
07
08
080
083
09
1
10
100
1000
101
1016
102
1020
103
1030
1035
104
1040
105
1057
106
1060
1066
107
108
1080
1087
109
1094
1097
1098
11
110
1100
1107
111
112
113
114
115
1154
116
117
118
1189
1199
12
120
121
124
125
126
127
1272
128
129
13
130
131
1327
133
1340
135
137
1377
138
1387
14
140
1400
142
1422
1437
144
145
146
1460
147
1470
1471
148
1481
1483
1485
1488
149
1492
15
150
1509
151
1513
1517
152
1520
1521
1530
1533
1536
1537
1539
1547
155
1553
1554
1558
1564
1568
157
1572
158
1587
1596
16
160
1600
1603
1606
1607
161
1611
1619
1620
1622
1623
1625
1632
1634
1642
1648
1649
165
1651
1653
1658
1659
166
1660
1685
1688
1690
17
170
1703
1707
1714
172
1721
1725
1727
173
1740
1746
175
1753
1754
1755
1758
1759
176
1762
1763
1764
1766
1768
1769
1771
1773
1774
1775
1776
1777
1778
1779
178
1780
1781
1782
1783
1785
1787
1788
1789
1790
1791
1792
1793
1794
1795
1796
1797
1798
1799
18
180
1800
1801
1803
1804
1805
1806
1807
1808
1809
181
1810
1811
1812
1813
1814
1815
1817
1818
1819
182
1820
1821
1822
1824
1825
1826
1827
1828
1829
183
1830
1831
1832
1833
1834
1835
1836
1837
1838
1839
184
1840
1841
1842
1843
1844
1845
1846
1847
1848
1849
185
1850
1851
1852
1853
1854
1855
1856
1857
1858
1859
1860
1861
1862
1863
1864
1865
1866
1867
1868
1869
1870
1871
1872
1873
1874
1875
1876
1877
1878
1879
1880
1881
1882
1883
1884
1885
1886
1887
1888
1889
1890
1891
1892
1893
1894
1895
1896
1897
1898
1899
19
190
1900
1901
1902
1903
1904
1905
1906
1907
1908
1909
1910
1911
1912
1913
1914
1915
1916
1917
1918
1919
1920
1921
1922
1923
1924
1925
1926
1927
1928
1929
193
1930
1931
1932
1933
1934
1935
1936
1937
1938
1939
1940
1941
1942
1943
1944
1945
1946
1947
1948
1949
195
1950
1951
1952
1953
1954
1955
1956
1957
1958
1959
196
1960
1961
1962
1963
1964
1965
1966
1967
1968
1969
197
1970
1971
1972
1973
1974
1975
1976
1977
1978
1979
198
1980
1981
1982
1983
1984
1985
1986
1987
1988
1989
199
1990
1991
1992
1993
1994
1995
1996
1997
1998
1999
2
20
200
2000
2001
2002
2003
2004
2005
2006
2007
2008
2009
201
2010
2011
2012
2013
2014
2015
2016
2017
2018
2019
2020
2021
2022
203
208
21
216
217
218
22
220
225
226
229
23
231
232
233
234
238
239
24
240
247
25
250
26
260
268
27
270
275
276
28
283
284
287
288
29
290
298
299
3
30
300
31
310
313
316
317
319
32
322
324
328
33
330
333
334
339
34
340
344
347
348
35
350
351
355
356
357
358
36
360
361
364
365
366
367
37
370
38
380
39
392
394
395
397
4
40
400
401
403
408
41
410
413
415
417
418
419
42
421
427
428
43
430
433
434
435
44
447
448
45
450
451
453
454
455
457
46
461
465
466
469
47
471
474
475
476
477
48
480
484
486
49
5
50
500
507
51
510
511
512
514
52
522
523
524
526
53
530
532
534
539
54
540
541
546
549
55
550
552
554
56
560
563
565
567
568
57
570
578
58
580
589
59
590
591
6
60
600
604
61
616
617
618
62
63
631
633
64
640
641
65
650
66
667
67
670
68
683
69
7
70
700
71
717
72
724
73
74
75
750
76
768
77
78
787
79
8
80
800
81
82
820
83
839
84
840
85
850
855
86
866
87
871
875
879
88
887
89
890
899
9
90
900
91
915
92
924
925
93
936
94
943
946
95
953
954
955
959
96
97
975
978
98
980
99
:
;
<
=
>
?
@
[
\
]
^
_
`
a
aa
aaron
aba
abad
abanned
abannede
abannedon
abbey
abbot
abc
abd
abdullah
abe
abel
abi
abitt
able
aboard
about
above
abra
abraham
abrahame
absence
abstract
abu
ac
aca
academic
academy
acan
acas
acc
accentum
access
accessed
accident
according
account
accounts
accusative
accused
ace
acen
acenned
aces
acisc
acisce
acna
acnaþ
acnienne
acnod
acnung
acnunge
acorus
across
acsƿa
act
acting
action
actium
active
activist
activity
acton
actor
actress
actual
actually
acum
ad
ada
adam
adams
adan
add
added
adding
addition
address
ade
aden
adenne
adgar
adgares
adig
adiglod
adihtan
adj
adjective
adjectives
administration
administrator
admiral
admitted
admund
adne
adolf
adra
adraf
adredon
adrifen
adrifon
adult
adum
advanced
advantage
adversum
advice
adweard
adweardes
adƿeard
adƿeardes
ae
aetius
af
afa
afan
afand
afde
afdes
afe
afen
afene
affair
affairs
affrica
affrican
affricanisc
affrice
afghanistan
afle
afo
afod
afodburg
afodburh
afodcirican
afodcirice
afodg
afodgeri
afodgeƿrit
afodgeƿrits
afodli
afodlican
afodman
afodmann
afodri
afodsi
afodstede
afodsto
afodweard
afodƿi
afodƿo
afon
afraid
africa
african
afrikaans
after
afternoon
afterwards
afu
afum
afunden
ag
aga
again
against
agan
aganspræ
agas
age
ageaf
aged
agen
agena
agency
agent
ages
agmodesham
agnum
agon
agosto
agree
agreement
agua
agum
agustus
agylda
ah
ahd
ahhæleþ
ahhƿæðere
ahleornungstede
ahli
ahmed
ahsode
ahsodon
ahte
ahwearf
ahþe
ahþu
ai
aid
air
aircraft
aires
airlines
airport
airs
airship
aix
aj
al
ala
alabama
alan
alandum
alas
alaska
albania
albanian
albanie
albanisc
albany
albert
alberta
alberto
album
aldor
ale
aled
alex
alexander
alexandra
alexandres
alexandria
alfonso
alfred
algebra
algeria
ali
alice
alike
alistair
alive
all
allado
allen
alliance
allied
allium
allow
allowed
allows
almaza
almost
alone
along
alpha
alphabet
alpis
already
also
altai
although
alum
always
alæ
am
ama
amadeus
amal
amani
amas
amazon
ambeht
ambiht
ambihte
ambihtli
ambihtlic
ambihtlica
ambihtlice
ambihtlicu
ame
amearcod
amen
amere
america
american
americanisc
americanisca
americaniscan
americanisce
americaniscum
americans
americansc
americaware
americisc
americiscan
ames
amhe
amhord
amhorda
amiga
amigaos
amo
among
amongst
amount
amsterdam
amtre
amum
amy
amƿri
amƿægnas
an
ana
analysis
anbhttp
ancient
and
andefen
anderson
andersson
andes
andettere
andfenge
andgiet
andgiete
andlang
andorra
andre
andreas
andreev
andrew
androcles
android
andromeda
andstandan
andsware
andswariende
andswarode
andswarude
andtimber
andtimbrum
andweard
andwlita
andwlitan
andƿeorc
andƿi
andƿlitan
ane
anes
anfeald
ang
angann
angel
angelcirican
angelcirice
angeles
angelþe
angeowe
angeoƿ
anger
anginn
angle
anglican
anglo
angola
anhaga
animal
animals
animated
anime
anisc
anla
anlaf
anlice
ann
anna
annan
annapolis
anne
annenkovi
annie
anniversary
announced
announces
annual
another
anphos
anre
ansi
anstandan
answer
ansyne
antarctic
antarctica
antarctican
antarctice
antarctisca
antarctiscan
antarctiscum
antecedent
anthony
anti
antigua
antiquity
anto
antoine
anton
anum
anunga
anwalde
anweald
any
anyone
anything
ap
apa
apan
apas
apaxco
ape
apes
apinsunge
apis
apmanna
apod
apollo
apostolas
appeal
appear
appearance
appeared
appears
apple
applega
applied
appointed
april
apsto
apulder
apum
apung
apunge
aqualung
ar
ara
arab
araba
arabas
arabea
arabean
arabic
arabisc
arabiscan
arabisce
arabum
arafat
aras
arc
arcebiscop
architect
architecture
archive
archives
ard
ardagum
are
area
areas
arena
ares
argentatus
argenti
argentina
argentinan
argentine
argentinisc
arhunde
arhundred
arhundrede
arhundredes
arhundredum
aris
arisan
arise
arist
arizona
arkansas
arli
arlic
arm
armed
armenia
armenisc
armo
arms
army
arn
arnold
around
art
arthur
arti
article
articles
artist
artists
arts
arum
arvensis
aræ
arærde
aræred
arþur
as
asce
ascunge
ase
asegan
asend
asende
asett
asetted
asettede
asf
ashcroft
asher
ashikaga
asia
asian
aside
asie
ask
asked
asking
asp
aspx
assamese
assembly
associate
associated
association
asspell
ast
asta
astan
astdæ
astdæl
astdæle
aste
asteald
asten
astengla
aster
astermo
astermonaþ
astern
asternan
asterne
asternes
asternre
asternum
astes
astgotena
asthealfe
astri
astronaut
astronomer
astseaxe
astum
astƿeard
asu
asum
at
ata
atan
atari
atas
ate
ates
atest
athens
athlans
athlete
atlanta
atlantic
atlantisc
atlantisca
atlantiscan
atlas
atmosphere
atne
atomic
atost
atra
atre
atricilla
atru
attack
attacks
attempt
atu
atum
au
aucland
auclande
audience
audio
august
augusta
augustine
augustines
augusto
augustus
aum
aurelius
aurora
austin
australia
australian
australie
australisc
australisca
australiscan
austria
austrian
authentic
author
authority
authorized
auto
autobota
autobotansi
automobile
autonomous
available
average
aviator
aw
award
awarded
awards
away
awe
awere
awestre
awriten
awritene
ay
aymara
az
azerbaijan
að
aða
aðas
aðe
aðes
aðfeld
aþ
aþe
aþes
aþsti
aƿ
aƿa
aƿe
aƿearp
aƿended
aƿendung
aƿere
aƿestre
aƿli
aƿreðiendum
aƿum
b
ba
babilo
baby
bacan
bach
back
bad
bagemihl
bahamas
bahia
bahrain
bailey
baius
baker
balance
balc
bale
ball
baltimore
ban
bancorena
band
banffsci
bang
bangladesc
bangor
bani
bank
baptiste
bar
barbados
barbara
barbarian
barbuda
barcelona
barn
baron
bars
base
baseball
based
basic
basis
basketball
basque
bass
bassist
bastard
bath
batianbyrg
batman
battle
battles
bay
bbc
bc
bce
be
beach
beadanfordsci
beadu
beadwe
beadƿe
beald
beall
bear
beard
bearm
bearn
bearna
bearnum
bearrucsci
bearrucscire
beast
beat
beatles
beautiful
beauty
bebe
bebeodend
bebodu
bec
became
because
become
becomes
becoming
becumende
becymþ
bed
beda
bedd
bedri
bedæ
bedæled
bedælede
bedælunge
bee
beeastan
been
beethoven
befangen
befe
befo
beforan
before
bega
began
begann
begeat
begen
begeondan
begi
begieten
begin
beginneþ
beginning
begins
begunnon
behaviour
behe
behealdenda
behind
behindan
behy
behæ
being
beinnan
beinnaþ
beinnende
beinniaþ
bela
belamp
belarus
bele
belfast
belga
belgan
belgican
belgice
belgium
beli
believe
believed
belifon
belimpas
belimpaþ
belimpede
belimpeð
belimpeþ
belimpum
belimpþ
belisarius
bell
bellan
bellinghausen
bellingshausen
belo
belocuriha
below
bemetendli
ben
benaman
bend
bendas
beneath
benedict
bengal
bengale
bengali
bengalisc
benin
benito
benjamin
benning
benorðan
benorðen
benorþan
benorþen
benugan
beo
beon
beorcan
beorg
beorga
beorgan
beorgas
beorge
beorgena
beorgenne
beorges
beorgfæst
beorgum
beorht
beormingaha
beorn
beowulf
beoð
beoƿulf
ber
bera
beran
beraþ
bere
berende
berenne
bereƿicscir
bereƿicscire
berlin
bermuda
bernadotte
bernard
bernardo
berstan
bese
best
bestandan
besu
besuðan
besuðen
bet
beta
betera
betere
betst
betsta
better
betux
betwe
between
betweoh
betweonan
betweonum
betweox
betwuh
betwux
betwynan
betæ
betƿe
betƿeoh
betƿeonan
betƿeonum
betƿeox
betƿuh
betƿux
betƿuxnettes
betƿuxþe
beweddod
beweddode
bewestan
bewesten
beyond
beæ
beƿeddod
beƿestan
beƿesten
beƿla
beƿre
beȝen
bha
bhutan
bi
bible
biblioþe
bid
biddan
biddað
bidde
big
bigspel
bigspell
bigstandan
biliðum
biliþ
bill
billboard
billion
billy
bin
binama
binaman
bindan
binnan
binne
biobi
biography
biologist
biology
birch
bird
birds
birth
birþ
bisceopri
biscop
biscopri
biscopsto
bisen
bisena
bisene
bisenunga
bises
bisexual
bishop
bismarck
bisne
bist
bistritz
bit
bitt
bið
biþ
bla
black
blackpink
blackwell
ble
blecinga
bleoh
bleohcra
blessing
bletsode
bli
blica
blind
bliss
blisse
blizzard
blo
blocks
blog
blood
bloom
bloomery
bloomsday
blotmonað
blotmonðes
blow
blue
blues
blæ
blæc
bna
bo
board
boat
bob
bobby
boc
boceras
bod
boda
bodan
bodian
bodig
bodige
bodiges
body
bogan
bogas
boise
bold
boldas
boldgetæl
bolifia
bomb
bonaparte
bond
bone
bono
book
books
bord
borde
bordes
bored
borg
boris
born
borneo
borough
bosnia
bosnian
bosnie
bosporos
boston
bot
both
bots
botwulfstu
bowl
bowser
box
boxer
boxing
boy
boyne
boys
br
bra
brad
braddock
braid
brain
bram
brand
brandenburg
brandenbyrig
brasil
brasile
brasiles
brasilianisc
brazil
bre
breac
bread
break
breakfast
breaking
breaks
breath
breathing
brecan
bred
bref
bregas
bregdan
breges
brego
bregori
bremen
brendan
breslu
breten
bretene
bretta
brettas
brettum
bretƿare
bretƿarum
breþer
bri
brian
briddas
bridge
bridges
brief
briggs
bright
brim
brime
brimes
bring
bringan
bringenne
bringing
bringþ
bristol
britain
britannia
britannica
britisc
british
brittisc
bro
broadcast
broadcasting
brocen
brodor
brohte
brohtede
brohton
broken
brooke
brooklyn
bros
brother
brothers
brown
browser
broðor
broþor
bru
brucan
bruce
brucon
brunei
brunswic
bry
bryce
brycg
brycga
brycge
brycgsto
brycum
brycþ
bryd
bryda
brysel
bryten
brytene
bryttene
bryttisc
bryttisca
bryttiscan
bryttisce
bryttiscu
bryttiscum
bræ
bræc
brædu
brægen
bu
buccingaha
buchseite
budapest
buend
buenos
bufan
buffalo
building
buildings
built
bukovina
bulgarian
bundeskanzler
bureau
burg
burga
burge
burgealdor
burgenda
burgfolc
burgle
burgmenn
burgmiddel
burgscipe
burgscipes
burgum
burgwara
burgƿara
burgƿare
burh
burhtu
burial
burials
buried
burkina
burma
burman
burn
burning
burnon
burns
burton
burundi
burȝ
bus
bush
bushes
business
businessman
but
butan
buton
by
bye
byht
byhte
byrdling
byrdness
byrdnesse
byrg
byrgen
byrgene
byrig
byrige
byrne
byrnende
bysen
bysene
bysne
byst
bytta
byzantium
byð
bæ
bæc
bæcbord
bæcþ
bæd
bædon
bægƿara
bældæg
bæme
bæmisc
bængladesc
bær
bæron
bæþ
bɑ
c
ca
cabinet
caesar
cafansci
caicos
calamus
calan
caleche
calendar
california
californian
californie
caligardamana
call
called
calling
calpis
camb
cambodia
cambodie
cambridge
came
cameron
cameroon
camp
campbell
can
canada
canadan
canades
canadian
canadiens
canadisc
canadiscan
canal
canberra
canberran
canceler
cancelere
cancer
candelmæssani
cann
cannae
cannon
cannot
canst
cantawarabyrig
canterbury
cantwarabyrig
canus
capable
cape
capi
capital
capitals
capitol
captain
capture
captured
car
carcerne
card
cardiff
cardinal
care
caribbean
caribisca
caribiscan
carl
carle
carles
carlo
carlos
carnarfonsci
carolina
caroline
carpathians
carpenter
carriage
carried
carries
carry
carrying
cart
cartaina
cartaine
cartan
carte
carter
cartoonist
cas
casahstan
cascmir
case
casere
casereri
casererice
caseres
cases
caspia
cast
castel
castile
castle
castro
cat
catalan
catalanisc
categories
cathedral
catherine
catholic
catholicism
catt
catta
catte
cattle
caucasus
cause
caused
causes
causing
cave
caþ
caþanæ
caþerine
caþum
cbs
cburg
cbyrig
ccræft
ccræfte
ccynn
cd
cdæ
ce
cead
ceald
ceampscipe
ceann
ceapmann
ceapmanna
ceapunge
ceas
ceased
ceaster
ceasterniscan
ceasterniscum
ceastersci
ceasterscipe
ceastra
ceastre
ceastrum
ceaƿlin
cecland
ceclande
ceclandes
cecoslofacia
ced
cedo
ceha
celebrated
cell
cempa
cempan
cen
cena
cend
cenda
cendas
cende
cendum
cenia
cenne
cenned
cenneþ
cenred
census
cent
center
central
centre
centuries
century
ceorfan
ceosung
ceras
cerdic
cere
ceremonial
ceremony
certain
ces
ceshe
cesto
cetaceans
ceþ
cg
ch
cha
chair
chairman
cham
chamber
chames
champion
championship
chan
chance
chancellor
chancellors
chancery
change
changed
changes
changing
channel
chapman
chapter
character
characteristics
characters
charge
chariot
charles
charleston
charlie
charlotte
charter
charts
chaucer
chemical
chemist
chemistry
chesapeake
chess
chi
chicago
chicken
chief
child
children
chile
china
chinese
choice
chopin
chris
christ
christian
christie
christmas
christopher
christophes
chrome
chronicle
church
churches
ci
cia
cian
ciaþ
cicen
cilan
cild
cilde
cildes
cildha
cildra
cildru
cildrum
cile
cimban
cina
cinan
cing
cinga
cingas
cinge
cining
cinnan
cipros
circle
circolwyrde
circus
cirican
cirice
ciricehu
ciricum
cirm
cisc
ciscan
cisce
ciscra
ciscum
citation
cite
cities
city
ciu
civil
civilization
cl
cla
clad
claim
claims
clande
clandes
clara
clark
clarke
clarkson
class
classes
classic
classical
claude
claudius
clauses
clay
clayton
cle
clear
clearly
cleave
cleopatra
clerke
cleveland
cli
clic
clicks
clif
cliff
clinton
clive
clock
close
closed
clothes
cloud
clouds
clu
club
clusters
clypode
clæ
clæfere
cm
cn
cna
cnapa
cnapan
cnaþ
cne
cneordlæ
cneorysse
cnes
cnessa
cnesse
cnet
cneþ
cni
cnian
cniende
cnienne
cniht
cnihta
cnihtas
cnihtes
cnihtha
cnihtum
cnn
cno
cnod
cnode
cnu
cnum
cnung
cnunga
cnunge
cnut
cnyttede
cnæ
cnæppas
co
coach
coast
cock
cod
codd
code
codex
coextensive
cofa
cofan
cofentreo
cognate
cold
collection
college
collins
colo
colombia
colombie
colonial
colony
color
colorado
columba
columbia
columbian
columbus
com
combat
combined
come
comedian
comedy
comes
comfort
comic
comics
coming
command
commander
commentator
commercial
commission
committee
common
commonly
commons
commonwealth
communication
communications
communism
communist
community
comon
companion
companions
company
complete
completed
completely
complex
composer
compound
computer
comun
con
concepcio
concepcion
concert
conditions
conductor
confederate
conference
confirmed
confusion
congo
congoland
congress
conjugation
connecticut
conquest
conrad
consent
conservation
considered
consists
consonant
consonants
consort
constant
constanti
constantinopolis
constitution
constontinus
consul
consulabe
contact
contain
contains
content
contest
continent
continental
continued
control
conversation
cook
cool
cooper
cooperi
coordinates
coper
cor
coral
core
corn
cornelius
cornell
corona
corporation
corps
corsica
corsican
corvidae
cosmonaut
cost
coste
costnunge
cotton
could
council
count
counties
countries
country
county
courage
course
court
cousteau
cover
covered
covering
cra
cracow
cradle
crafing
crafinge
crashes
craters
crc
cre
created
creation
creature
creatures
creca
crecaland
crecisc
creep
creto
cri
cricket
cricketer
crime
crimes
crist
criste
cristen
cristendo
cristes
criteria
critic
croatia
croatian
croatisc
cromƿell
cronin
cross
crosses
crossing
crowd
crown
cru
crust
cry
cræft
cræfta
cræftas
cræfte
cræftes
cræftig
cræftlice
cræftum
cs
csaþ
csci
cscielfan
cscielfe
csiendlicu
csode
cst
cstafa
cstafas
cstafum
cstæf
cto
cu
cuba
cuban
culfran
cultural
culture
cum
cuman
cumað
cumaþ
cumbraland
cume
cumenne
cung
cunge
cunha
cunnan
cunne
cunnon
cunnung
cup
cuppan
cuppe
cura
curdisc
curitiba
current
currently
custom
cut
cuþ
cwe
cwen
cwene
cweðan
cweðað
cweðaþ
cwida
cwidas
cwide
cwidum
cwincan
cwo
cwom
cwyð
cwæ
cwædon
cwæl
cwæð
cwæþ
cy
cycle
cyme
cymst
cymð
cymþ
cyn
cynd
cynde
cynecynn
cynecynnes
cynedo
cynedom
cynedome
cynehelm
cyneli
cynelic
cynelica
cynelican
cynelice
cynelicu
cynelicum
cynemund
cyneri
cynerice
cynerices
cynesang
cynesto
cynewi
cynewisan
cynewise
cyneƿi
cyneƿise
cyng
cynge
cynges
cyning
cyninga
cyningas
cyningdo
cyninge
cyninges
cyningesbeorg
cyningestu
cyningsboc
cyningum
cynn
cynna
cynne
cynnes
cynnum
cyprus
cyre
cyres
cyrnel
cyrnele
cyst
cyste
cystel
cystele
cystum
czech
cæ
cægman
cælic
cþ
cƿe
cƿellenne
cƿidas
cƿide
cƿo
cƿom
cƿuebec
cƿæl
cƿæþ
d
da
daga
dagas
dagum
daily
daisy
dakota
dallas
dame
dan
danais
dance
dancer
dane
danger
daniel
danish
danne
danny
dantsic
dark
darkness
das
dass
dat
data
database
date
dated
dates
dating
daughter
dauid
dauides
dauiding
dave
david
davis
day
days
dað
daþ
dc
dcle
dclottspe
dcu
dd
dde
ddon
de
deacon
dead
dean
dear
death
deað
deaðe
deaþ
deaþe
deaþgeƿrit
debuts
decatur
december
decepticona
decepticonansi
declares
declension
declensions
decli
decline
declined
decoration
ded
dede
deep
defeat
defeated
defeats
defena
defenasci
defense
defined
definite
definition
degrees
del
delaware
dele
delfan
delhi
dels
delta
deman
democratic
demography
den
dena
denan
dend
dende
dendum
dene
denemearc
denemearce
denemearces
denes
denisc
deniscan
denisce
denmark
denne
dennis
densmore
denu
denum
denver
deofol
deofolseocnessa
deor
deorc
deorcan
deorfan
department
depending
deputy
der
dera
deras
dere
derived
dern
des
desc
describe
described
design
designer
desire
desmann
destroyed
destroying
detailed
details
determine
determined
developed
development
devices
devil
dewey
deð
deþ
dg
dgewrit
dhu
di
dia
diablo
diamond
dian
dic
diciembre
dick
dictionary
did
didn
die
died
diego
diemans
dies
diet
difelin
difeline
difference
different
differs
difficult
dig
digital
digraphs
diht
dihtan
dihtere
dinfæstunge
dinner
diophantus
diplomat
diplomatic
direct
directed
director
disability
disappeared
disaster
disco
discovered
discovery
discussion
disease
disney
displaystyle
distance
distinct
distinction
distinguished
district
disyllables
divided
division
dl
dle
dli
dlic
dlice
dlma
dma
dmann
dmenn
dmicel
dmo
dmæ
dne
dnes
dnesdæg
dnesdæge
dnesse
dnum
do
dobbyn
doctor
dod
does
doesn
dog
dogs
dohtor
doi
doing
dolphins
dom
domain
dome
don
donald
done
donne
donua
doom
door
doors
dor
dore
dornsæ
dorothy
dorpat
dorsæ
dos
dost
doth
double
doubt
douglas
dover
down
downtown
doð
dr
dra
draca
dracan
dracu
dracula
dragan
dragon
drama
dramatist
dran
draw
dre
dream
dress
drew
dri
drifon
drihten
drihtne
drihtnes
drincan
drincenne
drink
drive
driver
drop
drove
dru
drum
drummer
druncen
drunk
drunken
dry
dryhte
dryhten
dryhtne
dryhtnes
dræ
ds
dsi
dte
du
dual
dudes
due
duero
duet
dufenal
dufenales
dugan
duguð
duke
dum
dumb
dun
duncan
dunecan
dung
dunga
dunge
dungfy
dunghe
dura
dure
during
durran
duru
dust
dutch
duty
dvd
dwelling
dweorhplane
dwi
dwight
dwo
dy
dydd
dyde
dydon
dylan
dynasty
dyre
dyrne
dz
dztwo
dæ
dæd
dædbote
dæg
dæge
dæges
dægmæ
dæl
dælas
dæle
dæles
dælum
dæȝ
dæȝe
dæȝes
dɔn
də
e
ea
eac
each
eacswa
eadig
eadige
eadmund
eadred
eadweard
eadweardes
eadƿeard
eadƿine
eaga
eagan
eage
eagle
eahta
eahtate
eahtati
eahtoða
eal
eala
eald
ealda
ealdan
ealdcre
ealde
ealdes
ealdfrencisc
ealdfæder
ealdhe
ealdmo
ealdnoren
ealdor
ealdordo
ealdorlic
ealdorlicum
ealdorman
ealdormann
ealdormenn
ealdorscipe
ealdra
ealdras
ealdre
ealdrum
ealdsecgan
ealdti
ealdu
ealdum
ealdƿi
ealh
eall
ealla
ealle
ealles
eallic
eallne
eallra
eallre
eallrihte
eallswa
eallsƿa
eallum
ealne
ealra
ealre
ealswa
eam
eampscipe
ear
eard
eardaþ
earde
eardfæst
eardfæstan
eardiaþ
earfoþ
earl
earlier
early
earm
earme
earn
earnode
earon
ears
eart
earth
earthquake
earthrise
ease
easier
easily
east
eastan
eastdæle
easten
easter
eastermonað
eastermonðes
eastern
easterne
easternum
eastgota
eastrice
eastromanisc
easy
eat
eaxe
ebichu
eboren
ebre
ec
ecan
ece
ecendlic
ecendlice
ecg
ecgbriht
ecge
ecgum
eclipse
economic
economist
ecoren
ecorenscipe
ecuador
ecunge
ecþ
ed
eda
edda
eddie
ede
eden
edgar
edge
edgeræ
edinburg
edinburgh
edinbyrig
edisc
edit
edition
editor
edmund
edni
eds
edu
educac
education
educational
edward
edƿard
efaþ
efdest
efdon
efemerides
efen
efenlæ
efenne
efenniht
efenƿeorþfindunga
efenƿeorþlæ
effect
efne
efnungræ
eft
efter
eftso
efþ
eg
ega
ege
egena
egflocc
egg
eghe
egiscan
egland
eglanda
eglande
eglandes
eglandum
egra
egum
egypt
eha
ehst
ehsta
ehstan
ehste
eht
ehþ
ehþe
ehþu
eiffel
eight
ein
eisenhower
either
ek
el
ela
elban
ele
elected
election
electric
electrical
electronic
elelendiscum
element
elene
eles
elias
elisabeþ
elisabeþe
elizabeth
elizabeþ
ella
ellaspontus
ellen
elles
elleswi
ellesƿi
elmer
elne
elpendas
elpendba
elpendi
elsass
else
elton
elþe
em
emaþ
embe
eme
emede
emil
emily
emma
emmanuel
emmen
emo
emperor
emperors
empire
employee
employees
empress
emæ
en
ena
encyclopedia
encyclopædia
end
enda
endas
endaþ
ende
endebyrdnes
endebyrdness
endebyrdnessa
endebyrdnesse
endebyrdnessum
ended
endede
endemesta
endemestan
endemeste
endhu
ending
endings
endleofen
endleofon
endlice
endmesta
endmestan
endmeste
endode
ends
endum
endunga
endunge
ene
enemy
energy
enes
eng
engaged
enge
engel
engelsk
engine
engineer
engineering
engines
engla
englaland
englalande
englalandes
england
englari
englas
engle
englisc
englisca
engliscan
englisce
englisces
engliscra
engliscre
engliscu
engliscum
english
englum
enjoy
enne
enoch
enough
enter
enters
entertainer
entertainment
entire
entrepreneur
entry
enum
environment
enȝlisce
eo
eode
eodon
eoferƿicsci
eoferƿicscire
eoforwi
eoforƿi
eoforƿic
eoh
eolh
eom
eorl
eorla
eorlas
eorldo
eorle
eorles
eorlum
eormanri
eormengyld
eormengyldes
eormenȝyld
eorðan
eorðe
eorþan
eorþbeofung
eorþe
eotolƿara
eotolƿare
eotolƿarum
eow
eower
eowre
eowrum
eoƿland
epende
epge
episode
epȝe
equivalent
er
era
eran
ercebiscop
ercebiscopes
erde
erdon
ere
ered
eri
eric
erie
eriht
ernest
es
esde
ese
esed
esetednesse
eseþ
esode
especially
esperantisc
esperanto
essayist
essential
est
esta
established
establishment
estado
este
estimates
estland
estlandes
estmere
estonia
estum
eswutelunge
et
etan
etaþ
etc
ete
eten
etenne
eteþ
ethnologue
ett
etymology
etymonline
eugene
eurasia
europa
europan
europe
european
europeans
europisc
europisca
europiscan
europisce
europisces
europiscre
europiscum
eurovision
euxines
euxinus
even
evening
events
eventually
ever
every
everything
evidently
evil
evolution
ewealdas
ewen
ewi
ewþ
ex
exact
exactly
example
examples
except
exchange
executed
executive
exercise
exeunt
exit
expected
explain
explained
explanation
explodes
exploration
explorer
explosion
express
extended
external
extreme
extremely
eye
eyes
ez
eþ
eþel
eþeling
eƿed
eƿen
eƿenes
eƿþ
f
fa
fabian
face
fact
factbook
facto
facts
fadung
fadunga
fadunge
fail
faint
fair
fairies
fairy
faisal
faith
fall
fallen
falling
falls
falster
fame
famer
families
family
famine
famous
fan
fana
fanan
fand
fandode
fandunge
fang
fange
fangen
fanne
fantasy
far
fara
faran
faraþ
fare
farenne
farewell
farisei
faroese
faroisc
faroisce
faru
faruc
farung
fashion
faso
faster
fate
father
faticanburg
fatu
faþ
fc
fcle
fcynn
fde
fdi
fdige
fe
feaht
feahte
feahtede
feahton
feall
feallan
fealle
feallende
fear
feast
feature
featured
features
feax
february
fed
federal
federation
feel
feeling
feet
fel
fela
feld
felda
felde
feldor
fell
felt
female
feminine
fen
fenbergan
fende
fendra
fenesƿelan
feng
fenn
fenne
feoh
feoht
feohtan
feohtaþ
feohte
feohtenne
feohwendunge
feohƿendunge
feoll
feor
feorme
feorr
feorran
feorransi
feorrsi
feorrum
feower
feowertig
feoƿer
feoƿerscyte
ferde
ferdinand
ferdon
ferdun
fere
fermanagh
fermat
fernando
fersc
ferðe
fes
festival
fet
fever
few
feðera
feðerbra
fi
ficgi
ficgiege
fiction
fidel
field
fields
fielþ
fierce
fierd
fierde
fietnam
fietname
fif
fifa
fifta
fifte
fiftiene
fiftig
fight
fighter
fighting
figure
figures
file
files
filip
film
filmen
filmenna
final
finally
financial
find
findan
findenne
findeþ
findi
findings
finds
fine
finger
fingers
finland
finna
finnas
finnisc
finnish
finnland
finnlande
finnlandes
finnum
fint
fire
firefox
fires
first
fisc
fisca
fiscas
fisces
fiscoþ
fiscum
fish
five
fix
fiðerle
fk
fla
fladimir
flag
flakes
flame
flames
fland
flanda
flare
flash
flat
fle
fleming
flemisc
flett
fli
flic
flican
flice
flicum
fliemede
fliemedon
flight
flo
flocc
floccas
flocce
flocces
floccum
floor
florida
floridan
flourish
flow
flowers
flugon
fly
flyhthæfen
flying
flæ
fmann
fne
fnes
fo
fod
fode
folc
folca
folcas
folccu
folce
folces
folcg
folcgemo
folcla
folcland
folcli
folclic
folclican
folclice
folclicre
folclicu
folclicum
folcri
folcriht
folcræ
folcum
foldan
folgað
folgaþ
folgendan
folgendas
folgendum
folk
follow
followed
following
follows
fon
food
foot
football
for
foran
forbes
force
forces
ford
fordas
forde
fordes
fore
forece
foregenga
foregengan
foregesettendas
foreign
foremæl
foremæle
forenaman
forese
foresittend
foresittende
foresittendes
foresittendha
forespil
forest
forestandan
forestapol
foresægdnes
forever
foreƿeard
forgeaf
forgef
forgifendlic
forgifnesse
forhi
forle
forlet
forleton
forloren
forlæ
forlæt
forlæten
form
forma
formally
forman
formation
forme
formed
former
formerly
formest
formeste
forms
forne
fornean
forscra
forscrah
forstandan
fort
forth
fortinbras
fortæld
forum
forward
forwearð
forð
forðam
forðan
forðferde
forðunge
forðy
forðæm
forþ
forþam
forþberenne
forþbirþ
forþboren
forþbæ
forþfe
forþferde
forþferede
forþga
forþgewiten
forþgewitenre
forþgewitenu
forþon
forþy
forþæ
forþæm
foster
fotum
foul
found
foundation
founded
founder
four
fourth
fowler
fox
foxe
fr
fra
fram
framscipe
franc
franca
francan
francas
france
francena
francis
francisc
francisco
francland
franclande
franclandes
francna
franco
francum
frank
frankfurt
franklin
frans
franz
fre
frea
frederick
free
freedom
freiberufler
frema
fremede
fremman
fremmede
fremmenne
frenc
french
frencisc
frenciscan
frencisce
frenciscu
frenciscum
freolsung
freond
frequency
frequently
fresisc
fresland
fri
fricgan
friday
friedrich
friend
friendly
friends
frigedæg
frignan
frignunge
friðuric
friþ
fro
froggamenn
from
front
fru
fruit
fruits
frum
fruma
fruman
frume
frumli
frumlicum
frumtæl
frumum
frymðe
frymþu
frynd
fræ
fscipe
fscipes
fspell
ft
fta
ftan
fte
fti
ftig
fu
fuel
fuglas
fugol
fugola
fugolas
fugolcynn
fugoli
fuhton
ful
fulfremedre
full
fullan
fulle
fuller
fulli
fulluht
fullum
fultum
fultume
fum
functions
fund
funde
funden
fundon
funeral
fung
funge
further
furðum
future
fuþarc
fviia
fxa
fy
fylces
fylfo
fynd
fyr
fyrbeorg
fyrd
fyrde
fyre
fyrmest
fyrmesta
fyrmestan
fyrmeste
fyrmestscealc
fyrst
fyrstan
fyrste
fæ
fæc
fæce
fæder
fædera
fæderas
fæderes
fæderum
fædres
fæger
fægre
fæmnan
fæmne
fær
færeld
færelde
færeldes
færþ
fæst
fæste
fæsten
fæstnesse
fæstno
fæstnung
fæt
fþ
g
ga
gabriel
gaderung
gaderunge
gafol
gain
gaius
galatasaray
galaxy
galician
galilea
galileam
galileo
gallery
gallia
gallie
galwæg
game
gamel
gamen
gamena
gamene
gamenes
gamenum
games
gamle
gamol
gan
gandis
gandra
ganga
gangan
gangende
gangendlic
garden
garsecg
garsecge
garsecges
gary
gas
gases
gast
gaste
gastes
gate
gates
gathering
gaudi
gave
gay
gað
gaðes
gaþ
gbord
gc
gcu
gdan
ge
gea
geaf
geafon
geald
geandan
geaned
geanedra
geanlæhtan
gear
geara
gearas
geard
geardagum
gearde
geardes
geardum
geare
geares
gearhund
gearhunde
gearhundes
gearhundred
gearhundrede
gearhundum
gearu
gearum
geat
geba
gebacen
gebann
gebe
gebed
gebeon
gebi
gebiddende
gebletsod
gebo
gebold
geboldas
geboldes
geboren
gebre
gebro
gebrocen
gebroðru
gebru
gebry
gebræ
gebu
gebunden
geby
gebyrde
gebyrdsta
gebyrede
gebyrged
gebæ
gebæd
gece
gecenned
geceorren
geci
gecna
gecnytted
gecnyttede
gecoren
gecu
gecumen
gecuron
gecuþ
gecweden
gecy
gecynd
gecynde
gecyndeli
gecyndelic
ged
gede
gedelf
gedo
gedon
gedre
gedruncen
gedyde
gedæ
gedæg
gedæge
gedæled
gee
geeacnod
geeten
gefangen
gefaren
gefe
gefeahten
gefean
gefengon
geferan
gefo
geforðod
gefre
gefremed
gefrorenum
gefræ
gefunden
gefylled
gefyllede
gegenpoint
gegiefen
gegifen
gegilda
gegyld
gegylda
gegyldan
gegyldena
geha
gehalgod
gehaten
gehe
geheald
gehealden
gehi
gehiersumode
gehiersumoden
gehogodan
gehu
gehwurfon
gehy
gehyrað
gehyrde
gehyrdon
gehæfd
gehælde
gehælede
gei
gela
gelamp
gele
geleafa
geleafan
geli
gelic
gelice
gelicnes
gelicum
gelimer
gelimp
gelimpan
gelimpaþ
gelimpeþ
gelimpþ
gelo
gelosen
gelufod
gelæ
gema
gemacod
gemagen
gemang
geme
gemearc
gemearcod
gemen
gemet
gemete
gemetton
gemetu
gemo
gemot
gemote
gemun
gemynd
gemynddagas
gemæ
gemæne
gemænre
gemæro
gen
gena
genamod
gend
gende
gender
genders
gendlic
gene
geneahhe
genealæcð
genealæhte
genemned
genemnod
genera
general
generally
generation
genetic
genf
genne
geno
genocide
genotod
genseric
gentlemen
genugan
genumen
geo
geocon
geoffrey
geographic
geographical
geola
geolan
geolu
geolure
geoluseax
geond
geondri
geong
geonga
geongan
geonge
geongum
geopenod
georg
george
georges
georgia
georgian
georgie
georging
georgisc
georgiscan
georgius
georne
geornlice
gepleged
ger
gera
gerais
gerald
gere
gerec
gereca
gerecan
gerecþegnung
gerefa
gereord
gereordas
gereorde
gereordes
gereordum
geri
gerimbec
gerinnunge
gerinnungendebyrdnesse
german
germanas
germania
germanic
germanie
germanisc
germanisca
germaniscan
germanisce
germaniscra
germaniscum
germany
gertrude
geru
geræ
ges
gesa
gesamnung
gesamnunge
gesamnungum
gesawe
gesawon
gesawun
gescapen
gesce
gesceaft
gesceaftcræft
gesceape
gescy
gese
geseah
geseald
gesealde
gesegen
geseon
geseoð
geseoþ
geset
geseted
gesetednessa
gesetednesse
gesetnes
gesetnessa
gesetnesse
gesett
gesette
gesetted
gesewen
geseƿen
gesi
gesibb
geslean
gesme
geso
gesprecen
gespro
gesprocen
gespræ
gestandan
gestaðelod
gestaðoled
gestaðolede
gestaðolod
gestaðolode
gestaþoled
gestolen
gestorfen
gestre
gesundrod
gesæ
gesægd
get
geta
getala
getale
getalu
getalum
gete
geteald
getel
getimbrod
getimbrode
getimbrodon
getre
getrywe
getæ
getæl
getæle
getælgeat
geugoslafie
gewa
gewat
gewe
geweald
gewealdes
gewende
gewendon
geweorc
gewi
gewinn
gewinne
gewit
gewonne
geworden
gewordene
geworht
gewrit
gewrita
gewrite
gewriten
gewritu
gewritum
gewro
gewunan
gewuneli
gewunelice
gewunnen
geypped
geæ
geþa
geþancas
geþe
geþeaht
geþing
geþinge
geþingedo
geþo
geþoftscipe
geþoftscipes
geþungen
geƿe
geƿeald
geƿealden
geƿealdes
geƿeorc
geƿeorce
geƿi
geƿinn
geƿinnas
geƿinne
geƿonn
geƿonne
geƿorden
geƿorht
geƿrit
geƿritbend
geƿriten
geƿritu
geƿritum
geƿro
geƿuneli
geƿunelic
geƿunelice
geƿunod
ghana
ghent
ghost
ghƿæt
ghƿæðer
gi
gibbon
giefa
giefan
giefaþ
giefe
giefenne
giefu
giefð
giefþ
gield
gieldan
giellan
gielpan
gierran
giet
gif
gife
gifen
gifica
gifts
gifðas
gilbert
gild
gildan
giles
gilmræ
giovanni
girl
girls
git
give
given
gives
giving
gl
glance
gland
glass
gle
glenn
gli
glide
glo
global
globe
glory
glossary
glow
glæd
glæs
gm
gn
gnaw
gni
gniendlic
gnu
gnum
go
gob
god
goda
goddess
gode
godes
godrum
gods
godspell
godu
godum
goes
goethe
goia
going
gold
golde
golden
golfer
gon
gone
good
google
gordon
gosfreið
got
gotha
gotisc
gotisce
gotland
gov
governing
government
governor
gr
gra
grace
graham
grahamland
gram
grama
grammar
grammars
grammaticcræft
grammaticcræfte
grammatisc
grand
grande
grant
grantabrycge
grantabrycgsci
grantanbrycg
grantanbrycge
granted
grass
grave
gray
gre
great
greater
greece
greek
green
greenwich
gregoriscan
gregorius
gregory
grendel
grew
grey
gri
grim
grimman
grindan
gro
ground
group
groups
grove
grow
growing
grund
grunde
grundgesetnes
grundgesetnesse
grytviken
grytvikne
græ
græf
græs
gu
guadalcanal
guarani
guard
guardian
guatemala
gud
guernsey
guiana
guide
guides
guilty
guinea
guitar
guitarist
gujarati
gujaratisc
gulf
gull
gum
guma
gun
gung
gunga
gunge
gus
gustaf
gustav
guyana
gword
gy
gyanendra
gyden
gydenne
gyf
gyld
gylden
gyldfo
gyldne
gypte
gyt
gyta
gytaras
gæ
gæd
gæderung
gæderunge
gædes
gædre
gænt
gænte
gærs
gærsbe
gæð
gæþ
gðe
gþ
gþe
gɔn
h
ha
habban
habbað
habbaþ
had
haefþ
hafaþ
hail
hair
haiti
hal
hale
half
halga
halgan
halig
halige
haligmo
haligmonað
haligmonðes
haligum
hall
hallo
halne
hals
ham
hamilton
hamlet
hamletes
hammond
hamor
hamore
hampshire
hamtunsci
han
hana
hand
handa
hande
handlan
handlaþ
hands
handum
hannes
hannibal
hans
happen
happened
happy
har
harbor
hard
hardy
harold
haroldes
harris
harrison
harry
hart
harvey
has
hast
haste
hat
hataþ
hate
hath
hatian
hatte
hatton
have
having
hawaii
hawaiian
hayes
haƿaii
he
head
headland
headquarters
heads
heafde
heafod
heafodburg
heafodburh
heafodgewrit
heafodlic
heafodsto
heafodstol
heafodstolas
heah
heald
healdan
healdaþ
healde
healden
healdende
healdenne
healdon
healf
healfdene
healfe
healfi
healftrendel
healftrendele
heall
healla
healle
heallum
healp
health
heanric
heanrices
heanrig
heanriges
heantun
heap
heapes
hear
heard
hearde
heart
heartily
hearts
heasta
heat
heath
heaven
heavens
heavy
hebban
hebre
hebrew
hefig
hefige
hefignesse
hefigum
heinrich
held
hele
helen
helena
helicopter
hell
helle
hello
helm
help
helpan
helpaþ
helpe
helpenne
hen
hengest
henri
henric
henrices
henry
heo
heofenum
heofon
heofone
heofones
heofonum
heold
heoldaþ
heoldon
heom
heonan
heonon
heora
heord
heorotas
heorote
heort
heortan
heorte
heortfordsci
heortum
her
herald
heras
herbert
here
hereberht
herelof
herenuman
heres
hereto
heretoga
heretogan
hereðaland
hereƿic
heritage
hermann
hero
herodes
herodotus
heroes
herr
herself
hertogenbosch
herzegofina
herzegovina
hester
het
heterosexual
hey
hi
hidalgo
hider
hie
hielt
hiera
hieran
hierde
hiere
hierum
hierusalem
hig
high
higher
highest
hild
hill
hills
him
himself
hindisc
hindu
hine
hira
hire
hired
hiredes
his
hispalis
hispaniam
historia
historian
historical
histories
history
hit
hitler
hiw
hjaltland
hjaltlande
hla
hladan
hlaf
hlaford
hlafordes
hle
hlenc
hli
hlimman
hlo
hloðeringa
hloðwig
hloðƿig
hloþƿig
hlu
hly
hlæ
hlæfdige
hms
hni
ho
hockey
hof
hogde
hogode
hol
hold
holds
hole
holen
holharan
holiday
holland
hollywood
holm
holsta
holt
holte
holy
home
homosexual
honduras
honey
hong
honolulu
honor
honour
hope
hopkins
horatio
hord
horizonte
horn
horotiga
horrible
hors
horsa
horse
horses
hospital
host
hot
hotel
hour
house
houses
how
howard
however
howling
hra
hraðe
hre
hreðmonað
hreðmonðes
hri
hrindan
hring
hringa
hro
hroðberht
hru
hrycg
hrycgba
hrycgde
hryre
hræ
hræfn
ht
hta
htan
hte
hted
htede
htedon
hten
htes
htm
html
hton
htor
htra
htræ
http
https
htum
htunge
htƿealdes
hu
hudson
hudsones
huge
hugh
hugo
hull
human
humanity
humbran
humpback
hund
hunda
hundas
hundeahtatig
hundge
hundnigontig
hundred
hundredge
hundredum
hundte
hung
hungarian
hunger
hunt
huntandu
huntaþ
hunter
huntoðe
huntoþ
huntoþe
huru
hus
huse
hussein
husvik
hw
hwa
hwam
hwanon
hwar
hwe
hwearf
hwega
hweorfan
hwi
hwilc
hwilca
hwilce
hwilcum
hwile
hwilum
hwo
hwone
hwonne
hwy
hwylc
hwylce
hwæ
hwænne
hwær
hwærin
hwærof
hwæs
hwæt
hwæthwega
hwæðer
hwæðere
hwæþer
hwæþere
hy
hycgaþ
hycgð
hycgþ
hydrogen
hyll
hyne
hyngran
hyperion
hypnosis
hyra
hyrdas
hyre
hys
hyt
hyð
hæ
hæbbe
hæbben
hæbbende
hæbbenne
hædde
hæfde
hæfdon
hæfen
hæfn
hæfne
hæfst
hæft
hæfð
hæfþ
hæle
hælend
hælende
hælendes
hælo
hærfest
hærfestes
hærfestmo
hæstingas
hæt
hþ
hƿa
hƿalas
hƿanon
hƿe
hƿega
hƿelc
hƿi
hƿile
hƿonne
hƿæ
hƿæl
hƿælhuntan
hƿælhuntena
hƿælhuntoþ
hƿælhuntoþƿic
hƿærin
hƿærof
hƿæron
hƿærto
hƿæs
hƿæsingatu
hƿæt
hƿæðer
i
ia
iacobe
iacobes
iacobing
iacobum
iacobus
iacobusi
iamaica
ian
iane
iapan
iapane
iapanes
iapanisc
iapaniscan
iapanisce
iberia
iberie
ibn
ic
ice
iceland
ich
ichiro
id
idaho
idea
ideal
identity
ides
ie
iefa
ieg
iega
iege
iegland
iegum
ield
ielda
ielde
ieldest
ieldesta
ieldeste
ieldra
ieldran
ieldre
ieldrum
ieldsta
ieldste
ieldu
ieldum
iengra
ieoþwel
ierfa
ierfan
ierfe
iernan
iernaþ
iernð
iernþ
ierome
ierusalem
iesus
if
ign
igoþa
ih
ihr
ii
iii
ik
il
ilc
ilcan
ilce
ilcum
ild
ildru
ilfingburg
illinois
illustrated
illustrator
im
image
images
imaginova
imdb
imf
immediately
immense
impact
imperative
important
impossible
impromptu
in
inbu
inc
incer
incident
include
included
includes
including
income
incorporated
increase
increased
indea
indealand
indealande
indealandes
indean
indeed
independence
indeum
index
india
indian
indiana
indianapolis
indie
indies
indisc
indisca
indiscan
indisce
indiscum
individual
indo
indonesia
indonesian
indonesie
indonesisc
infare
infaru
infernal
infinitive
influence
info
information
ing
ingað
ingefeoht
ingefeohte
ingewinn
ingeƿinn
ingryð
injuries
injury
inla
inlendisc
inlæ
inn
innan
inne
innoðe
innung
innunge
inside
instance
instandan
instant
instead
institute
institution
insurance
insƿe
int
intellectual
intelligence
interest
interlingua
internal
international
internet
interpretation
interrogative
interview
interviews
intinga
intingan
intingum
into
introduced
introduction
inuktitut
invalid
invasion
inventor
inægli
io
iohanne
iohannem
iohannes
iordan
iordanes
ios
iosep
iowa
ipa
ipad
iphone
iprage
ir
ira
irac
irace
iran
iranian
iraq
ire
ireland
iric
irish
irland
irlande
irlandes
irn
iron
irregular
is
isaac
isabella
isbn
isc
iscan
isce
iscum
island
islands
isle
iso
ispanie
israel
israeli
israhe
israhel
issue
issues
it
ita
italia
italiam
italian
italianisc
italie
italisc
italisca
italiscan
italisce
italy
item
its
itself
itt
iu
iucn
iude
iudea
iudeas
iulianiscan
iulius
iusccenco
iustinianus
iv
ivan
ivanov
ix
j
ja
jack
jackson
jacksonville
jacob
jacques
jae
jag
jaguar
jakob
james
jan
jane
janeiro
january
japan
japanese
jason
javascript
jazz
je
jean
jefferson
jenny
jerry
jersey
jesus
jet
jewish
ji
jim
jimmy
jo
joan
job
jobs
joe
johan
johann
john
johnny
johnson
join
joint
jonathan
jones
jordan
jose
joseon
joseph
journal
journalist
journey
joy
joyce
jpg
jr
jsp
ju
juan
judge
judicial
judith
julian
julie
julius
july
jump
june
jung
junior
just
justice
juŋg
jɛ
k
ka
kamen
kanata
kannada
kansas
karim
karl
kashino
kashmiri
kate
katharine
katherine
katowice
kawashima
kay
ke
keaggye
keen
keep
keith
kennedy
kent
kentucky
kept
kerala
kerry
kevin
key
khan
ki
kid
kids
kiel
kill
killed
killer
killing
kilometers
kim
kimi
kind
king
kingdom
kings
kiribas
kiss
km
knees
knew
know
knowledge
known
knows
ko
kon
kong
konrad
korea
korean
kosovo
krieger
ku
kun
kuro
kurt
kylie
kyo
kyu
kɔn
l
la
labor
laboratory
labour
labrador
lack
lady
laertes
laf
laga
lage
lagu
lagum
lake
lalang
lamb
lamp
lamps
lan
lana
lancaster
land
landa
landbu
landbunes
lande
landes
landfolc
landfolces
landfæst
landgemære
landgemæro
landhi
landri
landrica
landrice
lands
landscape
landscipa
landscipas
landscipe
landscipes
landscipum
landse
landskap
landum
landƿare
lane
lang
langa
langan
langbearda
langbeardas
lange
langne
langre
langu
language
languages
langum
lanka
lao
laoland
laos
lare
lareow
large
larger
largest
laridae
larry
larsen
larus
larynx
las
last
late
later
latin
latitude
lator
latter
latum
latvia
launch
launched
laura
laureate
laurent
laurentes
laurenties
law
lawrence
laws
lawyer
lay
lazarus
laþ
lc
lce
lces
lcre
lcum
lde
le
lea
lead
leader
leading
leads
leaf
league
leap
learn
learning
least
leave
leaves
leaving
lech
led
lee
lefenax
left
legde
legend
lembeorg
lemprice
len
lena
lencten
lenctene
lenctenes
lend
lende
lendede
lendisc
leng
lengest
lengra
lengran
lengsta
length
lengu
lengðe
lengþe
lengþu
lenin
lenne
leo
leoda
leodweard
leodwearde
leodweardes
leodƿeard
leoht
leohte
leohtenstan
leohtes
leohtfæt
leon
leonardo
leone
leopard
leopold
leorneras
leornere
leornian
leornienne
leorningcniht
leorningcnihtas
leorningcnihtum
leorninghu
leornode
leornung
leornungcnihtas
leornunge
leornunghu
leornungmanna
leornunȝmanna
leras
lere
les
leslie
less
lest
let
letter
letters
lettland
level
lever
lewis
lex
lexington
leð
leþ
lga
lgan
lge
lgena
lhe
li
liable
libanus
libban
libbende
liberation
liberty
library
lic
licaþ
liccidfeld
lice
licgað
licgaþ
lichama
lichaman
lick
licð
licþ
lie
liechtenstein
lies
lif
lifde
lifdon
life
lifes
lifiaþ
lifode
lig
ligan
ligdæg
lige
ligeþ
light
lighter
lighthouse
ligmo
lignesse
ligore
ligum
ligð
ligþ
like
lim
lima
limm
limpan
limuc
lincoln
line
linear
link
linking
links
linux
lion
lipnitskaya
lips
lisa
lisc
list
listed
listen
literally
literary
literature
lithuanian
litle
little
live
lived
lives
living
liza
lið
liðan
liþ
liþuania
liþuanie
liȝmo
liȝþ
lja
lk
ll
ller
llic
lloyd
lmann
lmo
lnimend
lo
loaf
loan
lobengula
loc
local
located
loch
lock
lof
logo
loidis
lon
lonceastersci
london
lonely
long
longer
longing
look
looked
looking
looks
lord
lordi
lords
los
loss
lost
lot
lots
louis
louise
louisiana
louisville
love
loved
lover
loves
loving
low
lower
lox
loðene
lre
lti
lu
lublin
lucas
luces
lucilla
ludnos
ludwig
lufaþ
lufe
lufian
lufiað
lufie
lufode
lufu
luh
luigi
lum
luna
lundava
lunden
lundenceaster
lundenceastre
lundene
lundenes
lundne
lung
lunga
lunge
lust
luther
ly
lyft
lyfta
lyftcræft
lyftcræftas
lyfte
lyfthelm
lyfthelmes
lyfthæfen
lyftscipu
lyndon
lynx
lyre
lyricist
lytel
lytele
lytla
lytlan
lytle
lytlu
lytlum
læ
læd
lædan
lædde
læddon
lædede
læden
lædene
læg
læland
læppa
læppan
lærde
læs
læssa
læssan
læsse
læst
læstan
læste
læstede
læstum
læt
lðe
lþ
lþe
m
ma
mac
macaþ
macedonia
macedonian
machine
macian
maciaþ
macienne
macintosh
macod
macode
macodon
macuilmiquiztli
macunge
madagascar
made
madison
madrid
magan
magas
magazine
magazines
magen
magic
magical
magiefung
magiefunge
magnus
magon
mahomet
maiden
mail
main
maine
maintain
major
majority
make
makes
making
malay
malayalam
maldifi
male
males
malta
maltan
mameceaster
man
manager
manatus
manchester
mandarin
mandela
manega
manegum
mang
manga
mangere
manhattan
manig
maniga
manige
manigfeald
manigfealda
manigfealde
manigfealdli
manigfealdlic
manigfealdlicu
manigfealdum
manigra
manigri
manigum
manila
manisc
manitoba
maniȝ
mann
manna
manne
manner
mannes
mannum
manoth
mans
mantle
manuel
many
manzarek
map
maps
mar
mara
maran
marathi
marcellus
march
marcus
mare
margaret
mari
maria
marian
marianburg
marie
marieta
marine
marinus
mario
marius
marjorie
mark
marked
market
marking
maroare
marquis
marriage
married
mars
marshal
marshall
martin
martyr
marx
mary
maryland
marþa
mas
masculine
mass
massachusetts
massacre
master
matabelaland
matabele
match
material
materials
mathematician
mathematics
matrix
matt
matter
maurice
max
maximus
may
maybe
mayen
mayor
mazinger
mazowiecki
mazurca
mazurcan
maðante
maþ
małopolskie
mb
mbe
mblo
mbo
mbyrig
mcræft
mcræfte
mcræftes
me
meaht
meahte
meahton
mealc
mean
meaning
means
meant
mearc
mearca
mearcas
mearcaþ
mearce
mearcienne
mearcod
mearcode
mearcum
mearcung
mearcunga
mearh
meat
mec
meccan
med
medal
mede
meder
media
medical
medici
medicine
medieval
medume
medumƿeder
meet
meeting
mehmed
mel
melbourne
melcolm
melcolmes
melita
meltunge
member
members
memorial
memory
men
mend
menda
mende
mendlic
menegeo
menego
menegu
menegum
menn
menne
mennisc
mennisca
menniscan
mennisce
mennisces
menniscum
mennscipe
mentha
menþ
meolc
meolce
meore
meras
merchant
mercurius
mercury
mercy
mere
meregrot
meremægden
meremægdnu
merum
mes
mese
message
mestre
met
meta
metal
mete
metera
meters
metod
metro
metropolis
metropolitan
mette
meuse
mexican
mexicanisc
mexico
mexicoburg
mg
mi
mia
miami
mic
micel
micela
micelan
micele
micelne
micelnes
micelness
micelnesse
micelre
micelu
micelum
michael
michelle
michigan
mickey
micla
miclan
micle
miclu
miclum
microsoft
microsofte
microsoftes
mid
middan
middangeard
middangearde
middangeardes
midde
middel
middelamerican
middelasie
middele
middelenglisc
middelenglisce
middelre
middelseaxe
middelseaxum
middelyldum
middlan
middle
middlum
middæle
midlandum
midnight
midwist
midƿeorcere
midƿist
mie
mierce
miercna
miercum
mig
might
miht
mihta
mihte
mihtig
mihtli
mihton
mike
mikhail
mil
mila
mildheortnesse
mile
miles
military
milk
mill
millennium
miller
million
millionena
min
mina
minas
mind
minds
mine
mines
minh
minister
minne
minnesota
minogue
mintan
minum
minus
minute
minutes
mir
misako
misc
miscan
misce
miscum
mislicum
miss
missenli
missenlic
missenlica
missenlice
missenlicra
missenlicu
missenlicum
mission
missionary
mississippi
missouri
mixed
mizoram
mizuki
mli
mlic
mlican
mls
mm
mmæccan
mnf
mo
mobile
mode
model
modern
modor
mois
mol
moment
mon
mona
monaco
monandæg
monarchs
monarchy
monat
monaþ
monetary
mongolas
mongolland
monica
monmu
monna
monroe
monsters
montagui
monte
month
months
montreal
monþas
moon
moore
morales
more
moretoin
morgan
morgen
morning
morocco
morris
morrison
mortal
moscow
most
moste
mostena
mot
mote
mother
motige
motion
moto
motor
motum
mount
mountain
mountains
mounted
mourn
mouth
move
movement
movie
moving
moyse
moyses
mozart
mp
mr
ms
msci
msnbc
msta
mti
mtimber
mtimbre
mtimbres
mtu
mu
much
muhammad
multi
multiple
mum
munan
mundle
mung
munge
munich
municipalities
municipality
munt
munte
muntgumnisci
muntland
munuc
munucha
murder
murnan
murray
mus
muse
museum
music
musician
mussolini
must
muð
muþan
mware
mx
my
mycel
mycele
mycelne
mycelre
mycelum
mynster
mynstre
mynstres
myrgingum
myrra
myself
mystery
myth
mythology
mzilikazi
mæ
mæccan
mæcedonia
mædmo
mædmonðes
mæg
mægden
mæge
mægen
mægð
mægþ
mægþa
mægþe
mægþu
mægþum
mælcolm
mænig
mænige
mænigra
mænigum
mæniȝ
mæniȝra
mæniȝum
mænþ
mære
mæringa
mærn
mæsse
mæssedæg
mæst
mæsta
mæstan
mæste
mæstum
mæþhild
mæȝ
mƿara
mƿare
mƿarum
n
na
nabbað
nabbaþ
nagaland
nagasu
naht
nahuatl
nam
nama
naman
namcu
name
named
namede
namely
namena
names
namibia
namon
namum
namur
nan
nandæg
nandæge
nanne
nanum
napier
napoleon
napoleones
narrator
nas
nasa
nashville
nat
natalia
nation
national
nationale
nationalism
nations
native
natural
naturalist
nature
naval
navigation
navy
nay
nazareþ
nazi
nazis
nað
naðe
naðes
naþ
naþbo
naþe
naþes
nbc
nchez
nd
ndan
nde
ndebele
nden
ndena
ndhladanung
ndu
ndum
ndæ
ne
neah
nealles
nean
near
nearly
nearu
nearuness
nearunesse
nearƿe
nebb
nebraska
necessary
necessity
neck
ned
neda
nedan
nede
nedo
nedra
nedri
nedu
nedum
need
needed
needs
nefa
nefan
nefis
nefnhlytta
neland
nelande
nelandes
neli
nelic
nelle
nelson
nem
nemde
nemnaþ
nemned
nemnede
nemnedon
nemneð
nemneþ
nemniendlic
nemniendlica
nemnode
nen
nende
nene
nenne
neo
neode
neom
neoðan
nepal
nepale
neptune
neri
nerian
neriend
nes
nesci
nese
ness
nessa
nesse
nessum
nest
net
netherlands
netscape
nett
nettƿeorc
network
neuter
nevada
never
new
newcastle
news
newspaper
newspapers
next
neþ
nf
nfaldan
nfeald
nfealde
nfealdli
nfealdlic
nfealdlicu
nfealdum
ng
ngon
nh
nha
nhl
nholm
nholmsci
ni
nia
niagara
nicaragua
nicarao
nicholas
nicolas
nie
niede
niehst
niehsta
niehstan
nig
nige
nigeria
nigerie
night
nights
nigon
nigone
nigonte
nigonti
nigontig
nigoða
nigre
nigum
niht
nihta
nihte
nika
nile
nim
niman
nimaþ
nime
nimende
nimenne
nimð
nimþ
nimþe
nine
ninja
nintendo
ninth
nis
nisc
niscan
nisce
nisces
niscum
nishiwaki
niw
niwan
niwe
niwenglisc
niwenglisce
niwsæland
niwsælande
niwsælandes
niwu
niwum
nixon
niðer
niðerland
niðerlanda
niðerlande
niðerlandes
niðerlandisc
niðerlandum
niðerlendisc
niðerlendisca
niðerlendiscan
niðerlendisce
niðerlendiscum
niðerseaxisce
niƿan
niƿum
niȝ
nl
nland
nlande
nlandes
nle
nlendisc
nlendisca
nlendisce
nli
nlic
nlice
nlicum
nloca
nlæ
nmo
nne
nnes
nnesse
no
nobel
noble
nocturne
nocturnes
node
noise
noises
nolde
nom
nomadic
nomination
nominative
non
nonaginta
none
nor
noren
norene
norenum
normally
norman
normandig
normandige
normandiges
normannum
norodom
norrena
norse
north
northern
norton
norway
norwegian
norðamerica
norðamerican
norðan
norðdæ
norðdæl
norðdæle
norðe
norðen
norðern
norðerna
norðernan
norðerne
norðernes
norðernre
norðernum
norðisc
norðiscan
norðisce
norðmanna
norðum
norðƿeard
norþ
norþaffrice
norþamerica
norþamerican
norþan
norþanhymbra
norþcore
norþdæ
norþdæl
norþdæle
norþe
norþen
norþende
norþern
norþerna
norþernan
norþerne
norþernum
norþfolc
norþfolce
norþha
norþhealfe
norþhymbra
norþhymbralande
norþi
norþmandiscan
norþmanna
norþmannisc
norþmannum
norþmenn
norþmeore
norþmæcedonia
norþri
norþsæ
norþweg
norþwege
norþweges
norþwegisc
norþƿeard
norþƿeg
norþƿege
norþƿeges
norþƿest
norþƿestan
norþƿesternum
nos
noste
not
notaþ
note
notes
nothing
noticed
noun
nouns
nova
novelist
novels
november
now
nowy
noððe
noþy
noþylæs
noþþe
nra
nre
nsci
nscipe
nscipes
nsi
nsæ
ntig
ntigoða
ntre
nu
nuclear
nuestro
nuevo
num
number
numbers
numerals
nunavut
nung
nunga
nunge
nus
nw
nwealda
ny
nytt
nytte
nz
næ
næbbe
næfde
næfdon
næfre
næfð
næfþ
næs
næss
næsse
nðe
nðes
nþ
nþas
nþe
nþes
nƿeald
nƿealda
nɑ
nɔn
o
oakland
obj
object
objective
objects
observatory
observe
observed
oc
ocan
occitan
occupied
occur
occurred
ocean
oceans
ocinaƿa
oclc
october
od
oda
odacyneƿi
odan
odas
odd
odde
ode
oded
oden
odendlic
odenne
odes
odin
odisc
odisca
odiscan
odisce
odiscland
odisclande
odisclandes
odiscum
odli
odlic
odlica
odlican
odlice
odmo
odnes
odnesse
odo
odode
odon
odri
odric
odræ
odsc
odscan
odsce
odscipe
odscland
odsclande
odtele
odtelle
odum
odweard
odwearde
odweardes
odwitha
odƿeard
odƿearde
odƿeardes
oe
oeno
of
ofa
ofan
ofcymþ
ofen
ofer
ofercli
oferdra
ofere
oferfaran
oferga
ofergestandan
oferiordan
ofermo
oferse
oferstandan
ofersæ
oferþra
oferƿann
ofet
off
offa
offan
offensive
office
officer
official
officially
officials
ofgangen
ofles
ofodburg
ofol
ofre
ofs
ofscoten
ofslagen
ofslean
ofslo
ofslog
ofstandan
ofsto
oft
often
oftor
oftost
og
ogan
ogaþ
oge
ogeball
ogoðe
ogoþdre
oh
ohba
ohio
oht
ohte
ohtensta
ohtge
oil
ois
oklahoma
oktober
ol
ola
olagascipe
olan
oland
olande
olandes
olas
old
older
oldest
oldon
ole
oles
olisipo
oliver
oll
olmo
olmonaþ
ols
olsod
olsti
olterran
olympic
olympisc
olympiscum
om
oman
on
ona
onan
onas
once
oncna
ond
onde
ondli
ondræ
ondum
one
oneardaþ
oneardendas
oneardiaþ
ones
oneself
onfe
onfehð
onfeng
onfo
onfoð
ong
ongan
ongann
onge
ongean
ongemang
ongen
ongeton
onginn
onginnan
onginnaþ
onginne
onginnende
onginnenne
onginnunge
onginnþ
onginþ
ongle
ongunnen
ongunnon
onisc
onisca
oniscan
onisce
oniscum
onland
onlande
onlandes
onli
online
only
onmang
onmiddan
onne
onræ
onsteald
onstealde
onstealdon
onsting
onswog
onswogen
onsƿo
onsƿog
ontarian
ontario
ontig
ontigoðena
onto
onum
onweg
onwendung
onwendunge
onwunendas
onƿeald
onƿendung
onƿundendas
onƿunendas
onȝe
op
opan
ope
open
opened
opening
opens
opera
operating
operation
operations
ophelia
opinion
opum
or
ora
oraby
orabysci
oram
oran
orange
orbit
orcanege
orcanegena
orchestra
ord
orda
order
orders
ordinary
ore
oregon
orendli
ores
org
organization
orgermanisce
ori
orig
origin
original
originally
origins
oris
orisce
orise
orisse
oriya
orlando
orleans
ormæ
orosies
orosius
orscipe
orthodox
orum
orða
orðan
orðe
orþa
os
osan
osanne
oscar
oslo
ost
oste
ostre
ostsæ
osunga
osunge
osƿald
ot
otan
ote
otend
otendas
otende
otenne
otes
other
others
oti
otto
ottoman
ought
our
ourselves
out
outer
outlook
outside
over
ow
owan
owdo
owe
owen
ower
owerti
owertig
owha
owic
own
owon
owulf
owum
owþ
ox
oxford
oxnaford
oxnaforda
oxnaforde
oxnafordsci
oð
oða
oðan
oðe
oðer
oðerne
oðerum
oðlic
oðra
oðre
oðru
oðrum
oððe
oððæt
oðþe
oðþæt
oþ
oþa
oþer
oþgaderung
oþomaniscan
oþomanisce
oþra
oþre
oþru
oþrum
oþstandan
oþðe
oþðæt
oþþe
oþþæt
oþƿyrhta
oƿ
oƿa
oƿan
oƿas
oƿaþ
oƿe
oƿer
oƿera
oƿersce
oƿeþ
oƿon
oƿulf
oƿum
oƿunge
oƿþ
p
pa
pace
pacific
pacistan
pacistane
paganos
page
pages
paid
painter
pakistan
palace
pale
palestine
palestinian
palmer
palmerland
pan
panama
panaman
panðer
panðeras
paper
papua
paradox
paraguay
paris
parise
parises
parish
park
parliament
parse
part
participle
particular
particularly
parts
party
pass
passage
passed
passenger
passengers
passes
passing
passion
past
pat
path
pathways
patrick
patron
pattern
paul
paules
pauli
paulo
paulus
pay
payne
pays
paz
pazyryk
paþ
pdf
pe
peace
pearl
pedro
pel
pen
penda
pende
penguin
penis
pennsylvania
peohta
peohtum
people
peoples
pepper
per
percy
perfect
performance
performed
performer
perfume
perhaps
period
perse
persealand
persealande
persealandes
persian
persisc
persisce
person
personal
personnel
persons
persum
pertinax
peru
perþ
perþsci
pes
pest
pet
pete
peter
petersburg
petres
petresburg
petrus
pez
ph
phil
philadelphia
phile
philip
philippe
philippes
philippines
philippus
phillip
philologist
philosopher
philosophy
phone
phonic
photographer
photographs
photosphere
php
phrase
physical
physician
physicist
physics
pi
pianist
picture
pictures
picturesque
pie
piedmont
pierre
pig
pilatus
pilot
pine
pink
pinochet
pintel
pintele
pinteles
pinung
pioneer
pippen
pireni
pisin
pitcearn
pitcearni
pitcher
pittsburgh
pity
pius
pl
place
placed
places
plain
plan
plane
planet
planets
plans
plant
plantan
plante
plantena
plants
plas
plate
plates
play
played
player
playing
playstation
playwright
ple
please
pleg
plega
plegan
plegaþ
plegede
plegena
plegend
plegenda
plegendas
plegende
plegenne
plegere
plegestre
plegeþ
plegscipa
plegþing
pleȝaþ
pleȝestran
pleȝeþ
pleȝode
pleȝodon
plur
plural
plurals
plus
pluto
plymouth
pm
pnu
pnum
po
poems
poet
point
pointed
pointing
points
pola
polaland
polalande
polalandes
poland
pole
polena
police
policy
polisc
poliscan
polish
political
politician
politics
pollution
polo
polonius
polsc
polum
pon
pontcysyllte
poor
pop
pope
popular
population
por
port
portal
portas
portesmu
portions
portugal
portugale
portugales
portugalisc
portuglisc
portuglisce
portuguese
position
poss
possession
possessive
possible
possibly
post
posth
potato
powell
power
powerful
powers
pp
pr
prabanan
prabane
practice
pradesh
pray
prayer
pre
predator
preferred
premier
premieres
preossland
present
presented
presenter
presently
president
presidential
presidents
press
pressure
pretty
previous
pri
price
pride
prime
prince
princess
princeton
principal
prior
prison
prisoner
prix
prize
pro
probably
problem
process
proclaims
produce
produced
producer
produces
production
profentse
professional
professor
profile
program
progressive
project
projects
promise
pronoun
pronouns
proper
property
proponditis
prospects
protection
proto
provence
providence
province
przekroju
psychologist
pt
pu
public
published
publisher
publishes
publishing
puerto
pulgara
pulgaraland
pulgare
pulgarisc
pulgarum
pund
punda
punjabi
purple
purpose
purposes
pushed
put
puyi
puławy
px
pæðes
pæþ
pƿe
pɔn
q
qaem
qu
quae
quality
quarrel
quartet
que
quebec
quechua
queen
querer
quest
question
questions
qui
quiet
quite
r
ra
rabbit
race
rachael
racing
racu
radiation
radical
radio
rage
railway
rain
raised
raleigh
ran
range
rank
rankine
rapid
rapids
rapper
ras
rat
ratas
rather
ray
raymond
rays
rað
raþ
rbe
rbeorg
rburg
rd
rde
rdon
rdæge
re
reach
reached
reaches
read
readan
reading
reaf
reafe
reagan
real
reality
really
reason
rebellion
receive
received
receives
recent
recently
recipient
recognized
recognizes
reconstruction
record
recorded
recording
records
rector
red
reddit
rede
redes
reed
reeve
reeves
ref
refer
reference
referred
referring
regent
regio
region
regional
regions
regol
regollice
regollicum
regular
regularly
related
relations
relative
release
released
releases
religion
religious
remain
remains
remember
remiscan
remo
removed
ren
rena
renaissance
renamed
rend
rende
rene
reord
report
reports
representatives
repu
republic
republika
request
requests
rere
res
rescue
research
researchers
resident
resistance
resittend
resittende
resittendes
resolution
resources
respect
responsible
rest
resta
restan
reste
restedæge
restored
result
retrieved
return
revenge
review
revolt
revolution
revolutionary
rex
rez
rfor
rg
rgen
rgeþinge
rhaeto
rhode
rhu
ri
rian
ric
rica
rican
ricard
rice
ricend
rices
rich
richard
richmond
rico
ricsode
ricsoden
ricsodon
ricu
ricum
ride
rider
ridibundus
riding
ridon
riffeng
right
rights
riht
rihta
rihtan
rihte
rihtendgesamnung
rihtian
rihtli
rihtwebbsi
rihtwi
rihtwri
rihtƿebbsi
rim
riman
rime
rimum
rin
rind
ring
rings
rinnan
rinne
rio
risc
riscan
risce
rise
rises
rising
risk
rison
riuciu
river
rland
rlande
rlandes
rle
rli
rlic
rlica
rlican
rlice
rlicu
rlicum
rmann
rmid
rn
rne
rnesse
ro
road
roanoke
roar
robert
robin
robinson
robocon
robot
rock
rockefeller
rocket
rocks
rod
rodan
rodbeart
rodbert
rodberting
rode
rodor
rof
roger
rogers
role
roll
rolling
roman
romanian
romanisc
romaniscan
romans
romansh
rome
romiscan
romsdæl
romulus
ron
ronald
rondo
room
roosevelt
root
ror
rosa
rose
ross
rost
roste
rouge
roughly
round
route
routledge
roy
royal
roðem
rr
rra
rramm
rramma
rrammas
rrammba
rrammri
rran
rre
rresta
rrestan
rreste
rrsta
rrste
rrum
rræ
rscipe
rse
rsecg
rsecge
rsecges
rsetl
rsod
rsode
rst
rstenfeldbruck
rsto
rto
ru
rudolf
rudolph
rugby
rule
ruled
ruler
rulers
rules
rum
rumæ
run
runder
runes
rung
runge
rungmeaht
rungtramet
runner
running
rush
russe
russell
russena
russia
russian
russisc
russiscan
russisce
russiscum
russland
russlande
russlandes
russlendisc
russum
rwri
ry
ryan
rymbe
ryne
rynþ
ræ
ræd
rædƿaldes
ræfter
ræste
ræt
rþ
rƿri
rƿritere
rƿæ
s
sa
sacerda
sacred
sacrifice
sacrifices
sacu
safari
safety
saga
sagar
sage
said
sail
saint
saints
salem
salomon
salt
salvador
sam
sambie
same
samnung
samoa
samoan
samod
samodswe
sampa
samsung
samuel
samurai
san
sanah
sanct
sancta
sancte
sanctes
sanctus
sand
sanda
sande
sandƿi
sang
sanga
sangas
sangere
sanges
sangestre
sanggaderung
sanghord
sangwri
sangƿri
sanskrit
sanskritisc
santa
santiago
sarah
sarawak
sardinia
sardinian
sardinie
sare
sas
sascatcewan
sat
satan
saturnus
saudisc
savang
save
savoy
saw
sawle
saxon
saxons
say
saying
says
sc
sca
scale
scandal
scandinavian
sce
sceadu
sceal
sceall
sceancan
sceap
scearp
sceatt
sceaðan
scedelande
scene
sceolde
sceorfan
sceorpan
sceort
sceorte
sch
schmidt
scholar
scholars
school
sci
science
sciences
scientific
scientist
scientists
scieppan
scieppenne
scild
scip
scipa
scipe
scipes
sciphere
scipheres
scipheretoga
sciphla
scipio
scipryne
scipu
scipum
scir
scira
scire
scirgeþinge
scirum
sciþþie
scmete
sco
scode
scolde
scoldon
scole
scop
scopcræfte
scort
scorte
scortum
scotland
scotlande
scotlandes
scots
scott
scotta
scottas
scottisc
scottish
scottum
scra
scri
scrincan
scrobbesbyrigsci
scræf
scrælinga
scrælingas
scrælingum
sct
scte
scu
scuba
sculan
sculon
sculptor
scyld
scyle
scythian
scythians
scyttisc
scyttiscan
scyttisce
scyttiscum
sd
sde
sdo
se
sea
seah
sealde
sealdon
sealt
sealterisc
search
searmonðes
searoburg
searu
searucræft
searusprecend
searusprecenda
searƿa
searƿe
season
seat
seattle
seax
seaxa
seaxe
seaxisc
seaxiscan
seaxna
seaxum
secende
secg
secgan
secgað
secgaþ
secge
secgende
secgenne
secgle
secgð
secgþ
second
secret
secretary
section
secure
security
secð
sed
see
seeing
seem
seemed
seems
seen
sefan
segde
sege
segeþ
seglede
seglian
seglode
segst
segð
segþ
seldan
selden
sele
seleciricesci
selected
selena
selene
self
selfa
selfan
selfdo
selfe
selffe
selfne
selfri
selfswe
selfum
selfƿealdend
sellan
sellenne
sem
sen
sena
senate
senator
senatus
sencte
sencton
send
senda
sendan
sende
sendede
sendmetera
sends
sendu
sendum
sene
senior
sensation
sense
senshi
sent
sentai
sentence
sentenced
sentences
seo
seofan
seofen
seofon
seofonte
seofonti
seofoða
seoh
seolfor
seolfre
seoul
separate
separated
september
ser
sera
seras
serba
serbia
serbian
serbie
serbisc
serchuk
sere
seremo
seres
sergei
sericus
series
seringa
seringas
seringisc
seringum
serum
served
service
services
serving
ses
set
seteþ
setl
setlan
setle
setledon
sett
settan
sette
settede
settenne
setting
settled
setton
settung
seven
several
severe
sex
sexual
seþ
sf
sflo
sg
sh
shackleton
shadow
shadows
shah
shahr
shak
shake
shakespeare
shall
shape
sharp
shaw
she
shepherd
sherman
ship
sho
shocigte
shook
short
shot
should
shoulder
shounen
shout
show
showed
shown
shows
shrink
shut
shuttle
si
sibb
sibbe
sic
sicilia
sicilie
sidan
side
sie
siebenbu
siehþ
sierra
siex
siexe
siexta
siexte
siextig
sig
siga
sige
sigebe
sigefull
sigele
sigeleas
sigene
sigh
sight
sign
significant
signs
sigum
sihamoni
sihanouk
silence
silent
silesisc
silla
sillende
silly
silva
silver
simeon
similar
simon
simone
simple
simply
sin
sincan
since
sind
sindhi
sindon
sing
singan
singapore
singer
singere
singestre
singing
single
singular
singþ
sink
sint
sinȝestre
sir
sister
sisters
sit
site
sits
sitt
sittan
sittaþ
sittende
sitteþ
situation
six
sixta
sixtan
sixth
sixti
sixtig
size
siððan
siþðan
siþþan
sk
ska
ski
skie
skier
skin
sky
sl
sla
sland
slande
slandes
slave
sle
sleep
sleeping
slendisc
slendisce
sles
sli
slightly
slo
slofacia
slofacie
slofacisc
slofena
slofenia
slofenisc
slog
sloh
slovak
slow
slowly
slæ
sm
small
smaller
smallest
smallville
smash
sme
smi
smile
smith
smo
smoke
smæ
smæl
sn
sna
snacan
sne
sni
snooker
snorri
snow
so
soap
soccer
social
society
sod
sode
sofia
sofiet
sofietan
sofiete
soft
software
sohtede
sohton
sol
solar
soldier
soldiers
solidarity
solmo
solmonaþ
solmonþes
solomon
some
someone
something
sometimes
son
sona
song
songhord
songs
songwriter
songƿri
sons
sony
soon
sophia
soprano
soria
sort
sotho
soul
sound
sounds
source
sources
south
southern
sovereignty
soviet
soðlice
soþlice
sp
spa
space
spain
spanish
spared
spe
speak
speaker
speaking
spearcatella
spearccræftige
special
species
specific
speech
speed
speliend
spelienda
speliendena
spelig
spell
spella
spellas
spelles
spellum
spena
spenser
speonlande
spezia
spi
spidermonkey
spielvan
spirit
spirits
spite
splendid
spo
spoke
spoken
spoon
sport
sports
spra
spre
spread
sprecan
sprecað
sprecaþ
sprecend
sprecenda
sprecenne
sprecera
sprecere
sprecunge
spricaþ
spriceþ
spricð
spricþ
spring
springan
springfield
springs
spræ
spræc
spræca
spræce
spræcon
spræcum
spurn
spurnan
spæc
spærcletelle
spærcletelles
square
squirrelfish
sr
sre
sri
ss
ssa
ssan
sse
ssum
st
sta
stadium
stadt
stafas
staff
stafford
stafum
stage
stalin
stan
stanbul
stand
standan
standard
standað
standaþ
standende
standendum
standenne
standeþ
standing
stands
stane
stanford
stanley
star
starcraft
stars
start
started
starting
stas
state
states
statesman
station
statistical
statistics
stay
staðelunge
staðol
staðolde
staðole
staðoled
staðolede
staðolere
staðolod
staðolode
staþol
staþolde
staþoled
staþolede
staþoledon
ste
steal
steald
stealde
steall
stealle
steallri
steam
stearc
stearf
steda
stedas
stede
stedum
steel
steep
stefan
stefn
stefne
stelan
stem
stemmed
sten
stena
stenan
stenc
stend
stendeþ
stendo
stent
stenum
steorfan
steorra
steorracræft
step
stephen
stes
stesmæssan
stesmæsse
steve
steven
steward
stewards
steþ
stfa
sti
stick
still
stille
stincan
sting
stingan
stingum
stm
stmas
stmum
stnas
stne
stnum
sto
stock
stockholm
stod
stodon
stol
stone
stones
stood
stop
stories
storm
story
stow
stowe
stowlicum
stra
straight
strand
strande
strandum
strang
strange
stranger
stre
stream
street
stregdan
strength
stri
strike
striuelin
striuelinsci
strive
stroke
stromnæs
stromnæss
strong
stronger
stru
struck
structure
stry
stræ
stræte
stsæ
stu
student
studio
studios
study
stum
stund
stunde
stundum
stunge
sty
stycce
style
styriende
styrunge
stæ
stæf
stæfcræft
stæfford
stæffordsci
stæfro
stæfræ
stær
su
sub
subject
subjects
succession
such
sudan
sudane
sudden
suddenly
sugar
suggested
suicide
suit
sullivan
sultan
sum
suma
sume
sumere
sumes
summer
sumne
sumor
sumora
sumorsæ
sumra
sumre
sumu
sumum
sun
suna
sunan
sund
sunday
sundor
sundorli
sundorri
sundorrice
sung
sunnan
sunnandæg
sunnandæge
sunne
sunnlican
sunnlice
sunnlicu
sunnstede
sunset
sunspots
sunu
super
supernatural
supper
support
suppose
supposed
supreme
sure
surface
surrender
survive
sus
sussex
suðamerican
suðan
suðen
suðernum
suðwesternum
suþ
suþen
suþernum
sv
sw
swa
swamm
swazi
swe
swear
sweden
swedes
swedish
sweep
sweet
swelc
swelce
swelgan
swell
swellan
sweltan
sweonisc
sweorcan
sweord
sweorfan
sweoster
sweostor
swept
swi
swican
swicdom
swicdome
swift
swiftnesse
swilce
swimman
swincan
swindan
swingan
swiss
swissland
swiðe
swo
sword
swylc
swylca
swylce
swylcum
swæ
sy
sybbe
sycede
sydney
syla
syle
sylf
sylfe
sylfne
sylfum
syllables
syllan
syllað
sylle
sylvestris
sylð
symbel
symbeldæg
symbelhu
symbol
symle
syn
synd
synderli
synderlican
synderlice
syndrig
syndrige
syndrigli
syndrigra
syndrigu
syndrigum
synfulle
synfullum
synna
synnum
synt
syria
syrie
system
systems
sysylaland
syððan
sæ
sæcc
sæcce
sæd
sæde
sædon
sæferne
sægde
sægdon
sægþ
særim
særiman
særime
sæs
sæt
sætern
sæternesdæg
sæternesdæge
sæton
sƿa
sƿamm
sƿe
sƿeart
sƿearta
sƿelc
sƿelce
sƿeord
sƿeostor
sƿi
sƿicdo
sƿift
sƿifte
sƿilce
sƿissland
sƿiðe
sƿo
sƿylc
sƿylce
sƿylcum
sƿæ
t
ta
table
tables
tacen
tacitus
tacn
taekwondo
tag
tahiti
tai
taiwan
taiƿan
take
taken
takes
taking
talbot
tale
tales
talk
tall
tallahassee
talu
talum
tamil
tamilas
tampa
tan
tang
tansania
tansanie
tanzania
taprabanan
taprabane
tas
tasmania
tasmansæ
taste
taurican
tax
taxable
taxes
taylor
taþ
tball
tballe
tballes
tballte
tberstendas
te
teacher
team
tech
technologie
technology
technopop
ted
tede
tel
telephone
television
teleþ
tell
tellað
telling
tels
teltimberægli
telugu
temes
tempel
temple
temples
ten
tena
tend
tende
tenercebrai
tenne
tennessee
tennis
ter
tera
teras
tere
teresa
term
terra
territories
territory
terrorist
terry
terytorialnym
tes
test
testre
tests
texas
text
textbooks
texts
teð
teþ
th
thai
thailand
thailande
than
thanks
that
the
thee
their
them
theme
themselves
then
theodore
theologian
theory
there
therefore
these
they
thick
thila
thilan
thin
thine
thing
things
think
thinking
third
thirty
this
thomas
thor
those
thou
though
thought
thoughts
thousand
thousands
threatened
three
throne
through
throughout
throw
thu
thumb
thunder
thursday
thus
thy
thyself
ti
tiberius
ticge
tictator
tictatorscipe
tid
tide
tien
tiene
tig
tiger
tigris
til
till
tima
timan
timber
timbre
timbrian
timbrode
timbroden
timbrum
timbrung
time
times
timor
tin
tinan
tinge
tiroƿen
tis
titanic
title
titul
tiwesdæg
tland
tlaxcala
tle
tlic
tlum
tmo
tmonaþ
tn
to
toba
tobacco
tobysene
tocyme
today
todæg
todæges
toforan
together
togo
toil
tok
tokyo
tol
told
tolkien
toll
tom
tombs
tome
tommy
ton
tone
tongue
tonight
tony
too
took
toothed
top
topics
topp
torngemo
toronto
torpedo
torr
tostig
total
touch
touched
tour
tourism
toward
towards
tower
town
towns
toþegnung
tr
tra
tracia
tracie
track
trade
tradition
traditional
trafalgar
traffic
trahtas
trahtbe
trahtbo
trahtum
train
training
tramet
trametas
tramete
trametes
transcription
transformers
transit
translated
travel
traveller
travelling
traversayi
tre
treasure
treasury
treatment
treaty
tree
trees
trek
treow
tres
trial
trials
tribes
trichechus
tried
tringan
triplet
tristan
tro
trois
tromsi
troops
troy
tru
true
truman
trump
truso
trussisc
trust
truth
try
trying
ts
tsar
tsend
tsipras
tsman
tsonga
tst
tsƿana
tt
ttan
tte
tton
tu
tude
tudor
tufalu
tuidi
tul
tum
tumbestre
tun
tunecan
tung
tunga
tungan
tunge
tunglas
tungol
tungolcræft
tungolspræ
tungum
tunisia
turcas
turce
turcena
turcisc
turciscan
turcland
turclande
turkey
turkish
turn
turned
turning
tv
twa
twe
twegen
twegra
twelf
twelve
twentig
twenty
tweontig
tweora
twi
twice
twifeald
twig
twilight
twin
twinn
twist
twitter
two
twæ
twæm
ty
tyn
type
types
typical
typically
tæ
tæfingstoc
tægl
tægle
tæl
tælmearc
tþ
tþo
tƿa
tƿe
tƿeard
tƿegen
tƿegra
tƿelf
tƿelfta
tƿentig
tƿeontig
tƿeorp
tƿeȝen
tƿintorras
tƿæ
tƿæm
tɔn
u
ubuntu
ucrægna
ucrægnan
ufan
uferran
ufor
uganda
ugandan
uictoria
uictoriamere
uictorie
uigenna
uigennan
uikipædie
uk
ukraine
ukrainian
uladstir
uladstires
ulysses
um
umberto
un
una
unable
unberende
unc
uncer
uncle
uncu
und
unde
under
undercynn
underdæ
underfo
undergann
undergestandan
underginnunga
underri
underrice
underricu
underset
underspræ
understand
understandan
understanden
understanding
undersæ
underþe
undrc
une
unesco
unfriþ
ung
ungeendiendlic
ungeli
ungera
ungerland
ungerlande
ungerlandes
unicode
union
unit
united
units
universal
universe
universidad
universidade
universita
universities
university
unix
unknown
unless
unnan
uno
unri
unriht
unræ
unræd
until
unto
up
upon
upp
uppan
upstigei
ur
uranus
urban
urdu
ure
urum
us
usa
usage
usbecistan
use
used
useful
user
uses
using
uss
ussr
usually
ut
uta
utah
utc
uton
uwen
v
va
vain
valiant
valley
valparaiso
van
vancouver
var
variations
variety
various
vary
vast
vatthana
ve
vehicle
veins
venda
ver
verb
verbs
vermont
veronica
version
very
veterans
vi
via
vice
victor
victoria
victory
video
vienna
vietnam
vietnamese
view
vii
viii
village
villain
vincent
violence
virgin
virginia
virginian
virginie
visit
visitor
visokoi
vista
vl
vladimir
vo
vocalist
voice
voivodscip
voivodscipe
vol
volcano
voltimand
volume
volunteer
von
vos
vote
votes
vowel
vowels
voyage
vɔn
w
wa
wage
waiting
wake
waldend
wales
walesa
walk
wall
wallace
walt
walter
wan
wang
want
wanted
war
wara
warcraft
warner
warniað
warning
warrior
wars
warsaw
was
wascisc
washington
wat
watch
watching
water
watergate
waters
watson
waves
way
wayne
ways
wałe
wdu
we
weak
weala
wealcere
weald
wealde
wealdend
wealdenne
wealdes
wealdse
wealdsecend
wealdum
weard
weardhla
wearp
wearð
wearþ
weather
weax
weaxan
weaxen
web
webb
webbnamena
webbse
webbsi
webbstede
website
webster
weder
wednesdæg
week
weeks
weg
wegas
wege
weight
wek
wel
welcome
welig
well
wellesley
wells
welsh
wen
wend
wende
wendelsæ
wendon
wendunga
wene
wenglisc
wenglisce
wenne
went
wentworth
weodmonðes
weoforwi
weoforwicburg
weold
weorc
weorce
weorces
weorcrene
weorcsearu
weorcum
weorpan
weorðan
weorðaþ
weorþ
weorþan
weorþaþ
weorþe
wer
wera
weras
were
werli
werlic
werlice
werlicum
werod
werum
wes
wesan
wesdæg
wesdæge
wesenne
west
westan
westdæl
westdæle
weste
westen
westene
western
westernan
westerne
westernum
westgotena
westhealf
westindi
westmynster
westseaxna
westseaxum
westsæ
wet
wf
whale
whales
whaling
what
whatever
whatsoever
wheat
when
where
wherein
whether
which
whichever
whichsoever
while
whilst
white
whittow
who
whoever
whole
whom
whose
whosoever
why
wi
wian
wic
wicibe
wicigeonga
wicingas
wicipæ
wicked
wide
wie
wielisc
wielkopolski
wierþ
wif
wife
wig
wigan
wige
wiht
wihta
wihte
wii
wiki
wikibooks
wikimedia
wikipedia
wikipæ
wikis
wikizine
wiktionary
wilcume
wild
wilhelm
will
willa
willan
wille
willelm
willelmes
willem
william
williams
willis
wilson
wilt
wiltu
win
wind
windan
windows
wine
wing
wings
winnan
winner
winter
winterfylleð
winterfylleðes
winterfylleþ
winterfylleþes
wintra
wintre
wintrum
wisconsin
wisdom
wiste
wiston
wit
witan
witch
witega
witegan
witegum
witenagemo
witenagemot
witenagemota
witenagemotes
with
within
without
witodli
witodlice
witon
witwicky
wizard
wið
wiðerstandan
wiþ
wiþce
wiþinnan
wiþsacen
wiþstandan
wiþu
wli
wlic
wlitig
wm
wn
wo
woden
wojewo
wolde
woldon
wolf
wolfgang
wolves
woman
women
womensprosoccer
won
wonder
wonderful
wood
woodard
woods
word
worda
wordbo
worde
worden
wordes
wordhord
words
wordum
worhte
work
workers
working
works
world
worldwide
worn
worship
worth
woruld
worulddæ
worulde
woruldes
woruldgu
woruldwi
wotan
would
wound
wounded
wounds
wps
wr
wra
wrat
wrath
wre
wri
wright
writ
write
writen
writer
writere
writing
writon
written
wrixlfo
wro
wrong
wrote
wræ
wræcce
wsæ
wtc
wu
wuce
wuda
wudewe
wuldor
wulf
wum
wunaþ
wundredon
wundrodon
wung
wunge
wungplega
wungplegto
wuniaþ
wunnon
wunode
wunude
wurdon
wusa
www
wyle
wylle
wyrcaþ
wyrce
wyrceþ
wyrcþ
wyrd
wyrt
wyrte
wyrtgemang
wyrðe
wæ
wægn
wæl
wælfelde
wære
wæron
wæs
wæstm
wæstmas
wæter
wætere
wæteres
wæterweg
wþ
wþm
x
xbox
xhosa
xi
xii
xiii
xiv
xp
xv
xvi
xx
y
ya
yacht
yahoo
yale
yasser
yawn
ye
year
years
yellow
yellowknife
yes
yet
yfel
yfele
yg
yield
yld
ylde
yldum
ymb
ymbe
ymbga
ymbstandan
ymele
yn
ynca
yncas
ynce
yo
york
you
young
youngest
your
yours
yourself
yourselves
youth
youtube
yr
yrre
ys
yu
yulia
yves
z
zachariam
zacharias
zagreb
zanzibar
zavodovski
zdro
zealand
zelda
zeppelin
zero
zi
zijn
zog
zone
zulu
{
|
}
~
£
©
«
®
¯
°
²
·
½
¿
×
ß
æ
æcer
æcere
æcrum
æcsa
æd
æf
æfer
æfre
æfter
æfteran
æfterdæ
æfterge
æftergenga
æftergengan
æfterra
æfterran
æfterrum
æfterweard
æfterþæ
æfterƿeard
æfæstnesse
ægli
ægru
ægypt
ægypte
æht
æhte
ælc
ælce
ælcum
ælf
ælfbeorht
ælfre
ælfred
ælfredes
ælfric
ælfƿine
ælfƿines
ælmæ
ælmæst
ælric
æltæ
æneid
ænglisc
ænglisce
ænig
ænli
æppel
ær
ærest
æriþrea
ærreste
ærror
ærrsta
æryst
æs
æsc
æst
æt
æte
ætfo
ætforan
ætgædere
ætgædre
æthƿeorfan
æti
ætiecunge
ætla
ætlan
æton
ætsomne
ætstandan
ætywde
æx
æðelbryht
æðele
æðelgy
æðeling
æðelræd
æðelsta
æðelwulf
æðelþryþ
æðelƿulf
æðmhe
æþelha
æþeling
æþelingas
æþelinge
æþelinges
æþelred
æþelstan
æþran
ð
ða
ðaffrica
ðaffrican
ðam
ðamerica
ðamerican
ðan
ðane
ðara
ðas
ðaþ
ðde
ðdon
ðdæ
ðe
ðed
ðegnede
ðel
ðen
ðend
ðenscipe
ðenscipes
ðeos
ðer
ðera
ðere
ðeres
ðerhe
ðern
ðernan
ðerne
ðernre
ðernum
ðerra
ðerre
ðerum
ðes
ðexan
ðga
ðhlo
ðin
ðine
ðing
ðinn
ðis
ðisse
ðisses
ðle
ðmo
ðna
ðne
ðnesse
ðon
ðone
ðonne
ðor
ðost
ðr
ðra
ðran
ðre
ðres
ðri
ðrim
ðru
ðrum
ðu
ðum
ðung
ðunge
ðurh
ðy
ðæ
ðæm
ðær
ðærbe
ðære
ðærin
ðærof
ðæs
ðæt
ðƿeard
ø
þ
þa
þafrican
þam
þamerican
þan
þanc
þancas
þanne
þanon
þar
þara
þas
þat
þcore
þde
þdæ
þdæl
þdæle
þe
þeah
þearf
þec
þegn
þegnas
þegnaþ
þegndo
þegne
þegned
þegnede
þegneþ
þegnode
þegnung
þegnunga
þegnunge
þegnungsci
þel
þen
þencan
þence
þenceþ
þende
þenden
þeod
þeoda
þeode
þeoden
þeodisc
þeodisce
þeodisclandes
þeodosia
þeodric
þeodscland
þeos
þeow
þeowa
þeowas
þer
þern
þernan
þerne
þernum
þerscan
þes
þet
þfolc
þgeorgia
þgeorgie
þi
þicce
þiccum
þider
þin
þine
þines
þing
þinga
þingan
þinge
þinges
þingum
þinne
þinra
þinre
þinum
þis
þisne
þisra
þisre
þissa
þisse
þisses
þissum
þisum
þlande
þli
þmeore
þmo
þne
þnesse
þo
þoftscipe
þoftscipes
þon
þone
þonne
þor
þorfte
þorn
þorp
þorpe
þorpƿare
þra
þran
þre
þreat
þreo
þreora
þresc
þri
þridda
þriddan
þridde
þriddum
þriding
þrie
þrige
þrim
þrimilce
þrimilcemo
þrimilcemonað
þrimilcemonðes
þrimilces
þrines
þritig
þritigoða
þru
þrum
þry
þrym
þræ
þsandƿic
þseaxe
þseaxna
þseaxum
þsudan
þsæ
þtu
þtun
þu
þuhte
þum
þung
þunor
þunres
þunresdæg
þunresdæge
þurfan
þurfed
þurh
þurhstandan
þurhu
þus
þusend
þusenda
þwi
þy
þyncaþ
þynceþ
þyncþ
þysum
þæ
þæm
þæn
þæne
þænne
þær
þæra
þærbe
þære
þæreft
þærfor
þærin
þærmid
þærof
þæron
þæræfter
þæs
þæt
þætte
þþ
þþe
þþu
þƿealas
þƿeard
þƿestan
þƿi
þƿita
łobez
ŋ
œ
ƿ
ƿa
ƿacca
ƿan
ƿann
ƿas
ƿashington
ƿaþ
ƿdre
ƿe
ƿealcdre
ƿeald
ƿealdan
ƿealde
ƿealdend
ƿealdende
ƿealdli
ƿealdse
ƿealdum
ƿeallum
ƿealum
ƿeard
ƿeardon
ƿearmum
ƿearp
ƿearð
ƿearþ
ƿeax
ƿeaxaþ
ƿeaxenne
ƿebbsi
ƿebbstede
ƿeder
ƿeg
ƿege
ƿel
ƿelig
ƿen
ƿena
ƿend
ƿendan
ƿende
ƿendelhere
ƿendelsæ
ƿendend
ƿendlas
ƿenglisc
ƿengliscan
ƿenglisce
ƿenne
ƿeoforƿi
ƿeorc
ƿeorca
ƿeorce
ƿeorcendebyrdness
ƿeorcendebyrdnessa
ƿeorcendebyrdnesse
ƿeorces
ƿeorcum
ƿeorcƿrithyrste
ƿeorpan
ƿeorðan
ƿeorðaþ
ƿeorðe
ƿeorþan
ƿeorþlic
ƿer
ƿera
ƿeras
ƿere
ƿerlic
ƿerod
ƿes
ƿesan
ƿesend
ƿesenne
ƿest
ƿestan
ƿestdæ
ƿestdæle
ƿesten
ƿestern
ƿesternan
ƿesterne
ƿesternum
ƿestgermanisc
ƿesthealfe
ƿestindi
ƿestmynster
ƿestri
ƿestseaxe
ƿestseaxena
ƿestseaxna
ƿestseaxum
ƿestsu
ƿestsæ
ƿestum
ƿestƿeard
ƿgefundenland
ƿi
ƿic
ƿice
ƿicipæ
ƿicu
ƿielisc
ƿierþ
ƿierþþ
ƿig
ƿigan
ƿiht
ƿihta
ƿihte
ƿikipæ
ƿilde
ƿildum
ƿile
ƿilhelm
ƿille
ƿillelm
ƿillelme
ƿillelmes
ƿilliam
ƿillisi
ƿiltu
ƿiltunsci
ƿindleso
ƿinlas
ƿinter
ƿintere
ƿinterfylleð
ƿinterfylleðe
ƿinterfylleðes
ƿinterfylleþ
ƿintra
ƿintre
ƿintrum
ƿisc
ƿita
ƿitan
ƿitenagemo
ƿið
ƿiþ
ƿiþinnan
ƿli
ƿlic
ƿlican
ƿlicu
ƿlicum
ƿo
ƿoden
ƿolcnu
ƿolde
ƿoldon
ƿong
ƿongum
ƿord
ƿorda
ƿordbo
ƿordcƿide
ƿorde
ƿordes
ƿordli
ƿordum
ƿorhte
ƿorhton
ƿoruld
ƿoruldceampscipe
ƿorulddæ
ƿorulde
ƿoruldes
ƿoruldgu
ƿoruldri
ƿoruldƿi
ƿra
ƿre
ƿregendlic
ƿrenoc
ƿri
ƿriten
ƿritere
ƿro
ƿræcce
ƿsæ
ƿu
ƿuce
ƿucu
ƿuda
ƿudu
ƿulfsta
ƿum
ƿunaþ
ƿunede
ƿunendas
ƿung
ƿunge
ƿungplegan
ƿuniað
ƿuniaþ
ƿunienne
ƿunode
ƿunodon
ƿurdon
ƿynn
ƿynstran
ƿyrcan
ƿyrcaþ
ƿyrcende
ƿyrcenne
ƿyrceþ
ƿyrcþ
ƿyrhta
ƿyrmas
ƿyrt
ƿyrta
ƿyrte
ƿæ
ƿægn
ƿægnas
ƿæl
ƿælfelde
ƿæmpi
ƿæringsci
ƿæron
ƿæs
ƿæstm
ƿæter
ƿætere
ƿæteres
ƿætertyge
ƿætre
ƿætres
ƿætrum
ƿæð
ƿæȝn
ƿþ
ȝ
ȝe
ȝea
ȝeaf
ȝeboren
ȝebrocen
ȝecu
ȝed
ȝefe
ȝefeoht
ȝeha
ȝehealden
ȝehæ
ȝele
ȝeli
ȝelic
ȝemæ
ȝeri
ȝetalu
ȝetæl
ȝeþe
ȝeƿrit
ȝeƿuneli
ȝi
ȝiet
ȝif
ȝre
ɑ
ɔ
ɔn
ə
ən
ɛ
ɛn
ɡ
ɣ
ɪ
ɫ
ʀ
ʊn
ʰ
ʲ
ʷ
ʻ
ʿ
ˀ
ˈ
ˌ
ː
ːˈ
̀
́
̂
̃
̄
̆
̇
̈
̉
̊
̌
̓
̔
̛
̞
̣
̥
̦
̧
̨
̩
̮
̯
͂
͡
α
β
γ
δ
ε
η
θ
ι
κ
κα
λ
μ
ν
ο
π
ρ
ς
τ
ω
ϝ
в
д
и
н
на
с
у
я
і
ְ
ִ
ֵ
ַ
ָ
ֹ
ּ
ׁ
א
ב
ד
ה
ח
י
ל
מ
ן
נ
ר
ש
ת
ا
ت
ج
د
ذ
ر
ع
ل
م
ن
ه
و
ي
َ
ُ
ِ
ّ
ْ
ٓ
ٔ
ٕ
ی
ं
क
द
न
भ
ल
स
ह
ा
ि
ी
्
ং
ব
ল
া
ি
্
ં
ડ
દ
વ
સ
ા
ી
ો
્
ල
ා
ි
་
ᚠ
ᚢ
ᚣ
ᚦ
ᚦᚢ
ᚦᚪ
ᚦᚫᚱᛖ
ᚦᚫᛋ
ᚦᚫᛏ
ᚦᚫᛗ
ᚨ
ᚩ
ᚪ
ᚪᚾᛞ
ᚫ
ᚬ
ᚱ
ᚲ
ᚳ
ᚴ
ᚷ
ᚸᚩᛞᛖ
ᚹ
ᚹᚫᛋ
ᚹᛠᚱᚦ
ᚻ
ᚼ
ᚾ
ᚾᚪᛗᚪ
ᚾᚪᛗᚪᚾ
ᛁ
ᛁᚾ
ᛄ
ᛄᛖᚠᚣᛚᛚᛖᛞ
ᛄᛖᚹᚩᚱᛞᛖᚾ
ᛅ
ᛇ
ᛈ
ᛉ
ᛋ
ᛋᚩᚦᛚᛁᛤᛖ
ᛏ
ᛏᚩ
ᛒ
ᛖ
ᛗ
ᛗᛁᛚᛞᚻᛇᚱᛏᚾᛖᛋ
ᛘ
ᛚ
ᛚᚫᛋᛏ
ᛝ
ᛞ
ᛞᚪᚸᚢᛗ
ᛞᚱᚣᚻᛏᚾᛖ
ᛞᚱᚣᚻᛏᛖᚾ
ᛟ
ᛠ
ᛡ
ᛢᚫᚦ
ᛦ
᛬
ត
្
ᵹ
​
‌
‎
‏
–
—
‘
’
‚
“
”
„
†
•
…
′
″
⁊
₂
€
™
ⅱ
↑
→
↔
↷
−
≡
⋯
③
④
⑦
●
☆
⯓
⺀
⺄
⺆
⺈
⺊
⺌
⺕
⺝
⺸
⺼
⿰
⿱
⿲
⿳
⿴
⿵
⿶
⿷
⿸
⿹
⿺
⿻
、
【
】
〢
あ
い
う
え
か
き
け
こ
さ
し
す
た
ち
っ
つ
て
と
な
に
の
は
ほ
ま
み
む
も
や
ゅ
ょ
よ
ら
り
る
れ
わ
ん
゙
゚
ア
ィ
イ
カ
キ
ク
コ
シ
ス
ソ
タ
チ
テ
ト
ナ
ニ
ノ
ハ
ヒ
フ
ヘ
ミ
ュ
ユ
ラ
リ
ル
レ
ン
・
ー
㇁
㇂
㇄
㇇
㇈
㇉
㇓
㐁
㐄
㐅
㐌
㐫
㐬
㐭
㐮
㐱
㑒
㒵
㒸
㒼
㓁
㓞
㔾
㕛
㕣
㖾
㘝
㚅
㚇
㚔
㚘
㝉
㝡
㝴
㝵
㞋
㞢
㞷
㠩
㠭
㠯
㡀
㡭
㡿
㢲
㢴
㣇
㣺
㥯
㪅
㫄
㫐
㫒
㫺
㬅
㬎
㬥
㬰
㲋
㳄
㷠
㸒
㸚
㸦
㼌
㼲
㽞
㿟
䀠
䂞
䍃
䏍
䒑
䖍
䖒
䖝
䖵
䙴
䚻
䜌
䝿
䡛
䧹
䪞
一
丁
丂
七
丄
丅
丆
万
丈
三
上
下
丌
不
与
丏
丐
丑
专
且
丕
世
丘
丙
业
东
丞
丢
丣
两
严
並
丨
丩
个
丫
丬
中
丮
丰
丱
串
丵
丶
丷
丸
丹
为
主
丽
丿
乀
乂
乃
久
乆
乇
么
义
之
乌
乍
乎
乏
乐
乑
乔
乖
乗
乘
乙
乚
乛
乜
九
乞
也
习
乡
乳
乾
亀
亅
了
亇
予
争
事
二
亍
于
亏
亐
云
互
亓
五
井
亘
亚
亜
亞
亟
亠
亡
亢
交
亥
亦
产
亨
亩
享
京
亭
亮
亯
亰
亲
亳
亶
亷
人
亻
亼
亾
仁
今
介
仌
从
仐
仑
仒
仓
仕
他
付
仝
代
令
以
任
企
伊
伏
伐
休
会
伯
但
位
何
佘
余
作
佥
使
來
侈
侌
侖
侯
侵
便
保
俞
信
修
倉
倍
候
倠
備
僉
僕
儀
優
儿
兀
允
兂
元
兄
充
兆
兇
先
光
兊
克
兌
免
兑
兒
兓
兔
党
兜
兟
入
全
兩
兪
八
公
六
兮
兰
共
关
兵
其
具
典
兹
兼
冀
冂
冃
冄
内
冈
冉
冊
冋
册
再
冎
冏
冐
冒
冓
冖
冗
冘
军
农
冝
冡
冥
冫
冬
冷
几
凡
凢
凵
凶
凷
凸
凹
出
函
凾
刀
刁
刂
刃
刄
刅
分
切
刍
刑
刕
刖
列
刘
则
初
別
利
别
到
制
刺
則
削
剌
前
剡
剽
劉
力
功
加
劦
助
劫
劳
劵
勃
勇
勉
勒
動
務
勞
勤
勹
勺
勻
勾
勿
匀
匂
包
匆
匈
匊
匋
匍
匕
化
北
匚
匝
匡
匪
匱
匸
匹
区
医
匽
匿
區
十
卂
千
卄
卅
卆
升
午
卉
半
卌
华
卑
卒
卓
单
卖
南
卜
卝
卞
占
卡
卢
卣
卤
卦
卩
卪
卬
卯
印
危
即
却
卵
卷
卸
卻
厂
厃
厄
历
厈
厉
厌
厓
厘
厚
原
厤
厥
厨
厭
厲
厶
厷
厸
去
厼
厽
叀
参
參
叄
叅
又
叉
及
友
双
反
叐
发
叒
叔
叕
取
受
叚
叜
叟
口
古
句
另
叩
只
召
可
台
叱
史
右
叵
号
司
叹
吂
各
吅
合
吉
吊
吋
同
名
后
吏
向
吕
君
吝
吞
否
含
启
吳
吴
吹
吾
呂
呆
呈
告
员
呙
周
命
咅
和
咎
咠
咢
咨
咸
咼
哀
品
哉
員
哥
哲
唐
商
啇
問
啚
啬
啻
善
喜
喬
單
喿
嗇
噩
嚴
囊
囗
囘
囙
囚
四
回
囟
因
囧
囬
困
囱
囷
固
国
圂
圅
圆
國
圍
圓
土
圡
圣
圥
在
圭
地
圶
圼
坐
坒
坚
坴
垂
垔
垚
埀
埋
埶
執
基
堂
堅
堆
堇
堯
塞
墨
壘
士
壬
壯
声
壳
壴
壹
壺
壽
夂
处
夅
夆
备
夊
夋
夌
复
夏
夒
夕
外
夗
夘
多
夜
夢
大
夨
天
太
夫
夬
夭
央
失
夲
头
夷
夸
夹
夻
夾
奂
奄
奇
奈
奉
奎
奏
奐
契
奓
奔
奚
奞
奠
奢
奥
奭
女
奴
奻
好
如
妄
妙
妟
妥
妻
妾
姑
委
姜
威
娄
婁
婦
婴
嬰
嬴
子
孑
孔
孕
孖
字
存
孚
孛
孝
孟
季
孤
学
孫
孱
學
宀
宁
宂
它
宅
宇
守
安
宋
完
宏
宓
宗
官
定
宛
宜
宝
実
客
宣
室
宮
宰
害
家
容
宾
宿
寄
寅
密
富
寒
察
寧
審
寫
寬
寮
寸
对
寺
寻
寽
対
寿
封
尃
射
将
將
專
尉
尊
尋
尌
對
小
少
尒
尓
尔
尖
尗
尚
尞
尢
尣
尤
尧
尨
尭
就
尸
尹
尺
尻
尼
尽
尾
尿
局
居
屈
屋
屎
屏
屑
展
屖
屚
属
屠
屡
屬
屮
屯
屰
山
屵
屾
岁
岂
岑
岡
岩
岳
岸
峯
島
崇
崑
崔
崖
崙
崩
嵬
嶲
巂
巛
川
州
巟
巠
巢
巤
工
左
巧
巨
巩
巫
差
己
已
巳
巴
巷
巸
巽
巾
巿
帀
市
布
希
帚
帛
帝
带
師
席
帶
常
干
平
年
幵
并
幷
幸
幺
幻
幼
幽
幾
广
広
庄
床
底
店
庚
府
度
庫
庭
庶
康
庸
廉
廌
廛
廣
廩
廴
延
廷
建
廾
廿
开
弁
弃
弄
弇
弋
式
弓
弔
引
弗
弘
弜
弟
弥
弦
弱
張
強
强
彊
彌
彎
彐
彑
当
彔
录
彖
彗
彡
形
彥
彦
彧
彩
彭
彳
役
彼
往
待
律
徒
得
徙
從
復
微
徵
心
忄
必
忌
忍
志
忝
忠
忩
快
念
忽
忿
思
怠
急
怱
恆
恒
恩
恭
息
悉
患
悤
悲
悶
惠
惡
惢
愁
愈
意
愛
感
慈
慧
慮
憂
憲
應
戀
戈
戉
戊
戋
戌
戍
戎
成
我
戒
戔
或
戚
戠
戢
截
戲
戶
户
戹
戼
戾
房
所
扁
扇
手
扌
才
打
払
托
执
承
折
拉
拜
拿
掌
推
提
摩
支
攴
攵
收
攸
改
放
政
敄
敏
敕
敖
敗
敝
敞
敢
散
敦
敫
敬
数
敷
數
斂
文
斉
斊
斗
斤
斥
斩
斬
斯
新
方
於
施
斿
旁
旋
族
无
旡
既
旣
日
旦
旧
旨
早
旬
旱
旲
时
旾
昆
昇
昌
昍
明
昏
易
昔
昗
昜
星
春
昬
是
昱
昴
昷
時
晃
晋
晏
普
景
晶
智
暑
暴
曇
曩
曰
曲
曳
更
曷
書
曹
曼
曾
替
最
朁
會
月
有
朋
服
朔
朕
朗
望
朝
木
朩
未
末
本
札
朮
术
朱
朵
朶
朿
杀
杏
村
杜
束
条
来
東
杲
杳
松
析
林
枚
果
枝
枲
枼
某
柔
查
柬
柰
柴
栗
株
桀
桑
桼
梁
條
梟
梨
棘
棠
棥
森
楚
楠
業
楽
榮
樂
樊
欠
次
欣
欮
欲
欶
欽
款
歆
歇
歛
止
正
此
步
武
歨
歪
歮
歯
歰
歲
歴
歷
歸
歹
歺
死
殳
段
殷
殸
殹
殺
殻
殿
毋
毌
母
每
毒
比
毕
毚
毛
毳
氏
氐
民
气
氣
水
氵
氶
氷
永
氺
氾
求
汝
汞
江
沃
沓
沙
沝
泉
法
波
泣
泥
泰
洛
津
洪
活
派
流
浦
浪
浮
淡
淮
清
渚
渠
港
湯
溥
滿
漸
火
灬
灭
灰
灵
灷
炅
炎
炏
炗
炙
炭
為
烈
烏
烝
焉
無
焦
焱
然
煞
熊
熏
燃
燕
營
燮
爪
爫
爭
爯
爰
爱
爲
爵
父
爻
爽
爾
爿
片
牙
牚
牛
牜
牟
牢
牧
牪
特
牽
犀
犬
犭
犮
狂
狄
狊
独
狺
猋
猒
猪
献
獻
玄
率
玉
王
玟
玨
珎
班
現
琴
瑟
瑩
璠
瓜
瓦
甘
甚
生
産
用
甫
甬
田
由
甲
申
电
甶
男
甸
甹
画
甾
畀
界
畏
畐
留
畜
畟
畢
畧
畨
番
畫
異
畱
當
畺
畾
疊
疋
疌
疑
疒
疾
癶
癸
癹
発
登
發
白
百
皀
皃
的
皆
皇
皋
皐
皕
皮
皷
皿
盃
盆
盇
盈
益
盍
盎
监
盒
盖
盛
盡
監
盤
盧
目
直
相
盾
省
眇
眉
看
眔
眞
真
眷
眼
眾
着
睘
睪
睿
瞏
瞢
瞿
矍
矛
矞
矢
矣
知
矦
短
石
破
碎
磊
磨
示
礻
礼
社
祟
票
祭
禀
禁
禸
禹
禺
离
禽
禾
禿
秀
秃
秉
秋
科
秝
秦
移
稟
穀
穌
穴
究
穹
空
穿
突
窄
窒
立
竒
竜
竝
竟
章
童
竹
笑
笠
筆
等
答
箕
算
箴
節
篤
篭
米
粉
粛
粟
粤
粦
粲
糞
糸
糹
系
約
納
素
索
紫
累
細
絜
絫
絲
維
綿
緒
縣
繇
纍
纟
缶
网
罒
罔
罕
罗
罙
罡
罢
罪
署
罷
羅
羊
羌
羍
美
羔
羕
羗
羞
羡
羣
群
義
羲
羸
羽
翁
翏
習
翕
翟
翠
翼
老
耂
考
者
耆
而
耎
耑
耒
耳
耴
耶
耷
聂
聊
聖
聚
聞
聶
聿
肀
肃
肅
肉
肖
肙
肥
肩
肯
育
肴
胃
背
胡
胥
能
脊
脩
膚
臣
臤
臧
自
臬
臭
臯
臱
至
致
臺
臼
臽
臾
臿
舀
舂
舄
與
興
舉
舌
舍
舛
舜
舞
舟
般
艮
良
色
艸
艹
艾
芒
芔
芬
芮
花
芳
芺
芻
苔
苗
苟
若
苦
英
茶
茸
荅
草
荒
荣
荼
莆
莧
莫
莽
菆
菊
菐
華
萬
落
葉
著
葛
董
葵
蒙
蒦
蒼
蓋
蓬
蓺
蔑
蔡
蕉
蕭
薄
薛
薦
薰
藍
藏
藥
蘭
虍
虎
虐
虒
虔
處
虖
虗
虘
虚
虛
虜
虞
虫
虽
蚤
蚩
蜀
蜜
蟲
蠡
血
行
衍
衛
衣
衤
表
衮
衰
袁
袞
褭
褱
襄
襾
西
覀
要
覃
見
規
覓
覧
親
覽
见
角
解
言
訁
訇
計
詹
認
誩
読
誰
諸
讠
谷
豆
豈
豊
豐
豕
豖
豙
象
豦
豩
豪
豸
貇
貝
貞
貟
負
貢
貧
貪
貫
責
貳
貴
買
費
賁
資
賈
賏
賓
賔
賛
賞
賢
賣
質
賴
贊
贝
贡
责
贯
贲
贵
赖
赞
赤
赦
走
越
足
路
蹇
身
躬
車
軍
軎
軟
輦
车
辛
辜
辟
辥
辰
辱
農
辵
辶
边
达
过
近
连
迷
追
退
送
逆
逐
通
速
造
逢
連
逮
進
遀
遂
過
道
達
遣
適
遷
選
遺
邊
邑
邕
那
邦
邪
郎
部
郭
都
鄉
酉
酋
配
酓
酔
釆
采
里
重
野
量
金
釒
錢
钅
長
镸
长
門
閃
閉
開
閏
閑
閒
間
閔
閵
閻
闌
门
间
闷
阑
阜
阝
阿
降
陳
隆
隊
隋
隡
隨
隱
隶
隹
隺
隻
隼
隽
难
雀
雁
集
雈
雋
雍
雐
雔
雙
雚
雜
雝
離
難
雨
雩
雪
雲
零
雷
需
霍
霜
霝
霞
霸
靈
靑
青
非
靡
面
靣
革
韋
韦
韭
韯
韱
音
頁
頃
項
須
頗
頡
頻
顛
页
風
风
飛
飞
食
飠
飲
養
饣
首
香
馬
馮
駦
马
骨
高
髟
鬥
鬯
鬲
鬼
魚
魯
鮮
鱼
鲁
鳥
鳳
鸟
鹵
鹿
麃
麗
麥
麦
麻
黃
黄
黍
黎
黑
黒
黨
黹
黽
黾
鼎
鼓
鼠
鼻
齊
齋
齐
齒
齿
龍
龙
龜
龟
龠
龰
龱
龴
龵
龶
龷
龸
龹
者
艹
﻿
！
（
）
１
？
𐌂
𐌅
𐌉
𐌰
𐌲
𐌷
𐌹
𐌺
𐌻
𐌽
𐌿
𐍃
𐍄
𐍆
𐍉
𠀁
𠀃
𠀆
𠀉
𠀎
𠀐
𠁁
𠁣
𠂆
𠂇
𠂈
𠂉
𠂊
𠂋
𠂎
𠂒
𠂔
𠂛
𠂡
𠂢
𠂤
𠂬
𠂭
𠂹
𠃊
𠃋
𠃌
𠃍
𠃎
𠃑
𠃓
𠃔
𠃜
𠄌
𠄎
𠄠
𠄢
𠆢
𠆥
𠇍
𠈌
𠌵
𠓜
𠔉
𠔥
𠔼
𠔽
𠔿
𠕀
𠕁
𠕋
𠘧
𠘨
𠙻
𠙼
𠚏
𠚒
𠚤
𠚪
𠣏
𠤎
𠤕
𠥓
𠦄
𠦑
𠦝
𠧒
𠧗
𠧪
𠩺
𠪚
𠫓
𠫔
𠫤
𠬛
𠬝
𠬞
𠬢
𠬤
𠬶
𠮛
𠮦
𠮷
𠯑
𠱠
𠳮
𠷎
𡈼
𡉀
𡉵
𡌥
𡍮
𡏳
𡕒
𡕩
𡕰
𡖅
𡗗
𡗜
𡘆
𡘤
𡧱
𡨄
𡩧
𡬠
𡭽
𡰣
𡰥
𡰪
𡰯
𡰱
𡷈
𡸁
𡿨
𡿩
𡿪
𡿺
𢀖
𢀛
𢀩
𢁙
𢆉
𢆰
𢆶
𢇁
𢇇
𢉖
𢌬
𢌿
𢏚
𢑑
𢑚
𢖻
𢙣
𢛳
𢦏
𢦒
𢧵
𢼄
𢾕
𣁋
𣄼
𣅀
𣅽
𣍘
𣎳
𣎵
𣏋
𣏼
𣗥
𣥂
𣥖
𣦵
𣦼
𣧄
𣪊
𣪠
𣬉
𣳾
𣶒
𤇾
𤊽
𤐫
𤓰
𤔔
𤕨
𤣩
𤰇
𤰔
𤰞
𤴓
𤴔
𤽄
𥁑
𥁕
𥃦
𥃩
𥃭
𥇡
𥑟
𥘅
𥘈
𥝢
𥫗
𥱡
𦈢
𦉪
𦉬
𦉼
𦍌
𦍒
𦎧
𦐇
𦓔
𦔮
𦘒
𦙃
𦚏
𦣝
𦣞
𦣻
𦥑
𦥔
𦥯
𦨉
𦭝
𦰩
𧆞
𧈧
𧘇
𧰨
𧴪
𧴮
𧵩
𧾷
𨸏
𨾴
𩙿
𩠐
𩫏
𩵋
𪉷
𪜀
𪟽
𪠲
𪩲
𫇦
𫔭
𫜸
𫝀
𫠣
𫠩
𫢉
𫥞
𫩏
𫩠
𫪡
𫲽
𫶧
𬀷
𬐘
𬗌
𬙙
𬛸
𬜯
𬟩
𬯁
𬴘
𬺻
𬼉
𬼖
𭀰
𭁈
𭁨
𭅰
𭑈
𭕄
𭗼
𭤨
𭥫
𭻾
𮅕
𮊿
𮍌
𮍏
𮓗
𮥼
𮧮
廾
𰀁
𰀄
𰀈
𰀉
𰀕
𰀠
𰀡
𰀢
𰀪
𰁜
𰃮
𰆊
𰆘
𰋙
𰕎
𰢴
𰧭
𰯲
12--
13--
14--
15--
16--
17--
73--
74--
86--
a--
ab--
abe--
abi--
aboli--
abu--
ac--
acc--
ad--
adven--
ae--
af--
affec--
aflie--
afod--
aford--
ag--
ah--
ai--
ak--
aki--
al--
ali--
all--
altag--
am--
ame--
an--
ana--
and--
ang--
anno--
anȝe--
ap--
appa--
ar--
ara--
arc--
arch--
as--
ase--
assas--
assi--
ast--
at--
athel--
attri--
au--
ava--
aw--
awe--
ax--
ay--
az--
að--
aƿ--
aƿe--
aƿreð--
b--
ba--
bal--
ban--
bar--
bass--
be--
bead--
beadu--
beau--
bebo--
beinn--
bel--
ben--
benor--
ber--
bet--
beþ--
beȝinne--
bi--
big--
bin--
ble--
blo--
bo--
boc--
bol--
bot--
bou--
brad--
bre--
bredspearc--
bri--
bricg--
bro--
bru--
bry--
bu--
buc--
bun--
bur--
burg--
burh--
but--
by--
byr--
byrd--
byt--
bæ--
bæc--
c--
ca--
cala--
calcu--
camp--
can--
cana--
cantƿara--
cap--
car--
cartai--
cat--
cburh--
ce--
ceamp--
cel--
cele--
celti--
cemp--
cen--
ceor--
certifi--
ces--
ch--
cha--
chall--
cho--
ci--
cin--
cir--
cla--
cle--
cli--
clos--
cly--
cne--
cny--
co--
col--
coll--
com--
communi--
compo--
con--
connec--
consi--
contri--
cor--
core--
corn--
cost--
cra--
crain--
cre--
cri--
cro--
crom--
cru--
cræ--
cs--
cu--
cul--
cum--
cun--
cur--
cwe--
cy--
cyn--
cyri--
cæ--
cænu--
cƿell--
d--
da--
dal--
dan--
dar--
de--
deci--
delic--
demo--
demon--
den--
des--
desc--
deut--
dhi--
di--
dia--
die--
dig--
disp--
dispo--
do--
dor--
doz--
dr--
dren--
dri--
drin--
dru--
ds--
du--
dur--
dy--
dz--
dæg--
e--
ea--
ead--
eaht--
eal--
eald--
east--
ec--
ecg--
ed--
edu--
ef--
efen--
eft--
eg--
ein--
ejacu--
el--
ele--
eli--
em--
emis--
en--
end--
ene--
eo--
eofer--
eoferwic--
eor--
eorð--
eorþ--
eorþbig--
eotol--
epi--
equ--
er--
ere--
erec--
erik--
es--
est--
et--
ete--
eu--
eur--
evi--
ex--
exan--
exhi--
exis--
expec--
expl--
eþ--
f--
fa--
fan--
fare--
fe--
feal--
fenes--
feoh--
feor--
fer--
fi--
fil--
fle--
fli--
flo--
fly--
fo--
fol--
folc--
folge--
folgi--
for--
fore--
forð--
forþ--
foun--
fra--
fre--
frem--
fremm--
fri--
fro--
frum--
ft--
fu--
ful--
full--
fur--
fy--
fylig--
fyr--
fæ--
fæst--
fʊ--
g--
ga--
gall--
gam--
gan--
gar--
garmitt--
ge--
gea--
gean--
gear--
ged--
gedri--
gee--
gefe--
gefo--
gefy--
gein--
gelum--
gen--
geny--
geo--
georn--
ger--
gere--
ges--
get--
gewe--
geþa--
geƿu--
gi--
gier--
ging--
gl--
gli--
glo--
gn--
go--
god--
gold--
gor--
gr--
gra--
gre--
grego--
gu--
guer--
gy--
gyl--
h--
ha--
hab--
hal--
ham--
han--
hand--
har--
hasce--
he--
head--
healf--
heb--
hel--
heo--
her--
here--
heri--
hi--
hie--
his--
histo--
hit--
hlieh--
hlo--
hloð--
ho--
hol--
hon--
hors--
hose--
hre--
hri--
hrol--
hræ--
ht--
hu--
hul--
hun--
hund--
hurric--
hwe--
hweor--
hwi--
hwier--
hy--
hyng--
hæ--
hæb--
hƿeor--
hƿæ--
i--
ia--
ic--
id--
ideo--
ie--
ieg--
ier--
if--
ign--
il--
illy--
im--
imag--
imple--
in--
inc--
indic--
ing--
inju--
inn--
int--
io--
ir--
irac--
is--
it--
iu--
iuli--
j--
ja--
jag--
je--
jen--
ji--
jo--
ju--
k--
ka--
ke--
ki--
kin--
ko--
ku--
l--
la--
land--
laner--
lang--
lau--
laug--
le--
legi--
leo--
let--
letse--
ley--
leð--
li--
lib--
lic--
lie--
lifi--
lifie--
lig--
lim--
lin--
liþþu--
ll--
lo--
lon--
long--
los--
lu--
luxem--
ly--
lyd--
lyft--
læ--
lægre--
m--
ma--
mac--
mal--
mamm--
man--
mann--
manu--
mar--
mc--
me--
mec--
med--
medum--
mel--
mer--
mere--
met--
mexi--
mi--
mid--
middel--
mil--
min--
mir--
mitt--
mo--
mon--
monoc--
mont--
mor--
mu--
mus--
my--
myn--
myr--
mæ--
mæc--
mæcedo--
n--
na--
nam--
nas--
nat--
naþ--
nch--
nd--
ne--
near--
nem--
nett--
new--
news--
nf--
ng--
nh--
ni--
nico--
niw--
niðer--
no--
nor--
norð--
norþ--
not--
nou--
nu--
nur--
nw--
ny--
næ--
næb--
næss--
o--
ob--
oc--
octau--
od--
of--
ofer--
off--
ofs--
og--
oge--
oh--
oht--
ol--
olden--
om--
on--
oncwe--
oncƿe--
ond--
one--
oneard--
onheb--
ontyn--
onwu--
onƿri--
onƿu--
op--
open--
oppo--
or--
ore--
os--
ost--
ot--
out--
over--
ow--
ox--
oxan--
oþ--
oƿ--
p--
pa--
pain--
palesti--
pan--
para--
pat--
pay--
pe--
pen--
pente--
per--
pest--
pet--
ph--
pi--
picker--
pie--
pl--
plat--
pleg--
pleȝe--
plæ--
po--
poc--
pop--
port--
pr--
pre--
preos--
pri--
princi--
pro--
propo--
provi--
provin--
pu--
pun--
q--
qu--
quin--
r--
ra--
ras--
re--
rec--
red--
ref--
regard--
ren--
repe--
res--
resem--
retro--
reve--
reyk--
ri--
rib--
ric--
riht--
ro--
rob--
roch--
rodor--
roð--
rr--
ru--
rþ--
s--
sa--
sab--
san--
sau--
sc--
sca--
sce--
sch--
sci--
scip--
scir--
screen--
scrobbes--
scul--
scy--
se--
sear--
seax--
seiz--
sel--
self--
sell--
ser--
set--
sh--
she--
shel--
si--
sidaþ--
sie--
sier--
sige--
simbab--
simp--
sin--
sli--
slin--
slo--
slove--
sm--
sme--
smo--
sn--
sne--
so--
soci--
sol--
somala--
some--
sp--
spa--
spari--
spe--
spearc--
spearctell--
spi--
spin--
ss--
st--
sta--
ste--
steor--
sto--
streng--
stræt--
stu--
sty--
stæ--
su--
sub--
suc--
suf--
sug--
sum--
sun--
sundor--
sur--
sus--
suðe--
suþ--
sw--
swe--
sweotol--
swi--
sy--
syn--
syð--
sæ--
sƿe--
t--
ta--
talc--
tan--
tas--
te--
tel--
temp--
ter--
test--
th--
the--
there--
ti--
tic--
tig--
til--
timb--
timbor--
tn--
to--
tor--
tr--
tra--
tran--
tre--
tri--
tro--
truss--
ts--
tt--
tu--
tuc--
tur--
turcmenis--
tusca--
twe--
ty--
tybin--
tæ--
tƿe--
tƿin--
tƿiȝe--
tʃ--
u--
ucræ--
ue--
uf--
uirgi--
ul--
um--
un--
under--
ung--
unge--
ungecna--
unsuc--
up--
upheb--
ut--
v--
va--
vall--
ve--
vegeta--
ver--
vi--
vic--
vir--
vo--
vre--
vu--
w--
wa--
wal--
wan--
war--
was--
we--
weal--
weax--
web--
wel--
weor--
weorc--
wer--
wes--
west--
whis--
wi--
wic--
wiki--
win--
wing--
wintan--
wit--
wiðer--
wiþ--
wo--
won--
wor--
wri--
wro--
wu--
wul--
wulf--
wundri--
wur--
wy--
wyr--
wæ--
wæp--
x--
y--
ya--
ymb--
ymbe--
yn--
yo--
yu--
z--
zac--
æ--
æf--
æl--
æppel--
ær--
æs--
æsc--
æt--
æðel--
æðm--
æþel--
ð--
ðe--
ðæ--
þ--
þa--
þaf--
þe--
þel--
þen--
þic--
þo--
þrond--
þur--
þurh--
þy--
þyr--
þyrss--
þƿi--
ƿ--
ƿa--
ƿe--
ƿeb--
ƿeor--
ƿer--
ƿest--
ƿi--
ƿic--
ƿil--
ƿinne--
ƿiþ--
ƿo--
ƿu--
ƿul--
ƿung--
ƿy--
ƿyr--
ƿæ--
ƿæl--
ƿæp--
ƿæter--
ȝ--
ȝe--
ȝeondȝe--
ɑ--
ɡ--
ʃ--
α--
θ--
ρ--
φ--
н--
א--
ا--
ᚦ--
ᛠᛚ--
--0
--1
--2
--3
--4
--5
--6
--7
--8
--9
--a
--ac
--ach
--ad
--ag
--ah
--ai
--ak
--aki
--al
--ald
--all
--ally
--alm
--als
--alt
--am
--an
--ance
--ans
--ant
--ar
--ard
--ari
--aries
--arius
--ars
--ary
--as
--asant
--at
--ate
--ated
--ation
--ations
--ative
--au
--ax
--ay
--az
--að
--aþ
--b
--ba
--ball
--bb
--be
--bend
--beorg
--berg
--bi
--blishing
--bo
--bora
--bow
--bs
--bum
--burg
--burga
--by
--byrig
--bæ
--c
--ca
--cal
--can
--cc
--ce
--cen
--cg
--cge
--ch
--che
--cher
--cho
--cht
--ci
--cig
--cise
--ck
--cked
--cks
--co
--craft
--cs
--ct
--ction
--ctive
--ctor
--cu
--cy
--cynn
--cð
--cþ
--d
--da
--dagas
--dale
--day
--dd
--dde
--de
--ded
--den
--der
--dge
--di
--dia
--die
--dition
--dium
--dly
--do
--dom
--don
--dri
--ds
--du
--duct
--dy
--dæ
--dæg
--dæl
--e
--ed
--ede
--edon
--ef
--ege
--ei
--el
--eld
--ell
--ement
--en
--ena
--end
--enda
--ende
--ene
--enne
--ent
--ents
--er
--era
--eras
--ere
--erfþ
--ern
--ers
--ert
--ery
--es
--ess
--esse
--est
--estre
--et
--eti
--ett
--etæl
--eus
--ey
--eð
--eþ
--f
--fa
--fan
--fað
--fd
--fe
--feald
--ff
--fia
--fle
--fn
--fo
--ford
--foða
--foðe
--ft
--ful
--fy
--g
--ga
--gamen
--gan
--gation
--gde
--ge
--ged
--gen
--gh
--ght
--glum
--gn
--gnes
--go
--gre
--grota
--gs
--gy
--h
--ha
--ham
--he
--hel
--here
--hi
--hip
--hl
--hm
--hn
--ho
--hors
--hst
--ht
--hte
--hten
--hu
--hus
--hy
--hymbrum
--hæ
--i
--ia
--ial
--iam
--ian
--iation
--iaþ
--ic
--ica
--ical
--id
--idae
--ie
--ied
--iend
--iende
--ienne
--ier
--ies
--ified
--ig
--ige
--igh
--ight
--ik
--il
--ile
--ill
--in
--ina
--ination
--ine
--ing
--inga
--ingatu
--inge
--ington
--ino
--inus
--io
--ion
--ions
--ious
--ip
--ir
--is
--isc
--iscan
--isce
--ish
--ished
--ism
--ist
--ists
--it
--ite
--ities
--itor
--ity
--ius
--ive
--iver
--ives
--ize
--ized
--j
--k
--ka
--kar
--ke
--ken
--ker
--kes
--ko
--ks
--l
--la
--land
--lc
--ld
--le
--led
--ler
--les
--ley
--lf
--lh
--li
--lia
--lic
--lican
--licum
--ling
--lis
--ll
--lla
--llan
--llaþ
--lle
--lli
--lly
--lm
--lo
--ls
--lt
--lu
--lum
--lus
--ly
--læ
--m
--ma
--man
--mann
--mate
--maþ
--me
--med
--men
--menn
--ment
--mer
--mest
--mesta
--mestan
--meste
--meþ
--mi
--ming
--mit
--mman
--mmaþ
--mmed
--mo
--morðor
--mp
--ms
--mu
--my
--mæ
--mær
--n
--na
--nah
--nað
--naþ
--nc
--nca
--nce
--ncy
--nd
--nda
--ndas
--nde
--nded
--ndo
--ndod
--ndon
--ndum
--ne
--ned
--nel
--ner
--nes
--ness
--nesse
--ney
--ng
--nga
--ngan
--nge
--ngþe
--ni
--nic
--nical
--nie
--ning
--nk
--nn
--nna
--nne
--no
--ns
--nt
--nte
--nts
--nu
--num
--nun
--nx
--ny
--nze
--nðe
--o
--od
--ode
--of
--off
--ogy
--ol
--old
--ological
--om
--on
--one
--ons
--ont
--oon
--op
--or
--orl
--oros
--os
--ost
--oste
--ot
--ou
--ous
--ow
--ows
--oða
--oþ
--p
--pa
--pas
--pe
--ped
--pen
--pes
--ph
--phy
--ping
--po
--pode
--ppe
--precend
--pt
--pton
--pæþ
--q
--r
--ra
--ral
--ram
--ran
--raph
--rc
--rd
--rde
--re
--red
--rell
--rft
--rht
--ri
--ria
--ric
--rice
--rie
--rier
--ries
--rity
--rk
--rm
--rmo
--rn
--ro
--ron
--rs
--rsi
--rt
--ru
--rum
--ry
--ræ
--rð
--rðe
--s
--sa
--san
--sc
--scan
--sce
--sci
--se
--sen
--sful
--sfully
--sh
--shire
--si
--sia
--sian
--sion
--sions
--sis
--so
--son
--sor
--ss
--sse
--st
--sta
--sti
--sto
--ston
--stre
--su
--sum
--sville
--sæ
--t
--ta
--tala
--tan
--tation
--tch
--te
--ted
--ten
--tes
--teus
--th
--tha
--ti
--tia
--tic
--tiene
--ties
--tig
--tion
--tions
--tius
--tive
--to
--ton
--tor
--town
--tre
--ts
--tsa
--tsu
--tt
--tta
--tu
--tum
--tun
--ture
--tus
--tution
--ty
--tz
--tæ
--u
--ua
--uc
--ud
--ude
--ue
--uel
--ugh
--ul
--ula
--ulf
--ult
--um
--ume
--un
--ung
--unga
--unge
--ungum
--uous
--ur
--ure
--urg
--us
--ut
--uve
--v
--va
--val
--vate
--ve
--ved
--ver
--ves
--ville
--ving
--visc
--vus
--vy
--w
--wa
--ward
--ware
--wave
--way
--we
--weall
--wi
--wise
--wl
--wri
--ws
--x
--xe
--xt
--y
--yer
--ylde
--z
--za
--ze
--zen
--zing
--zy
--æ
--ð
--ða
--ðe
--ðel
--þ
--þa
--þan
--þe
--þen
--þo
--þum
--ƿ
--ƿa
--ƿara
--ƿare
--ƿarum
--ƿe
--ƿeall
--ƿeg
--ƿen
--ƿi
--ƿic
--ȝ
--ȝa
--ȝe
--ȝþ
--ʃ
--ʊm
--α
--ς
--а
--ᚢᛗ
--ᛋ
--ᛖ
