!
"
#
##0
##1
##10
##11
##12
##13
##14
##15
##16
##17
##18
##19
##2
##20
##21
##22
##23
##24
##25
##26
##27
##28
##29
##3
##30
##31
##32
##33
##34
##35
##36
##37
##38
##39
##4
##40
##41
##42
##43
##44
##45
##46
##47
##48
##49
##5
##50
##51
##52
##53
##54
##55
##56
##57
##58
##59
##6
##60
##61
##62
##63
##64
##65
##66
##67
##68
##69
##7
##70
##71
##72
##73
##74
##75
##76
##77
##78
##79
##8
##80
##81
##82
##83
##84
##85
##86
##87
##88
##89
##9
##90
##91
##92
##93
##94
##95
##96
##97
##98
##99
$
%
&
'
(
)
*
+
,
-
.
/
0
00
000
01
02
03
04
05
06
07
08
09
1
10
100
1000
1002
1007
101
1016
102
103
1038
104
105
106
107
108
1080
109
11
110
111
1111
112
113
114
115
116
117
118
119
12
120
1200
121
122
123
124
125
126
127
128
129
13
130
131
132
133
134
135
136
137
138
139
14
140
141
142
143
144
145
146
147
148
149
15
150
1500
151
152
153
154
155
156
157
158
159
16
160
1600
161
162
163
164
165
166
167
168
169
17
170
1700
171
172
173
174
175
176
177
178
179
18
180
1800
181
1815
1818
182
183
184
1840
1848
185
1850
186
1860
1861
1862
1864
1865
1867
187
1870
1871
1873
1876
1879
188
1880
1882
1883
1884
1885
1886
1887
1888
1889
189
1890
1891
1892
1894
1895
1896
1897
1898
1899
19
190
1900
1901
1902
1903
1904
1905
1906
1907
1908
1909
191
1910
1911
1912
1913
1914
1915
1916
1917
1918
1919
192
1920
1921
1922
1923
1924
1925
1926
1927
1928
1929
193
1930
1931
1932
1933
1934
1935
1936
1937
1938
1939
194
1940
1941
1942
1943
1944
1945
1946
1947
1948
1949
195
1950
1951
1952
1953
1954
1955
1956
1957
1958
1959
196
1960
1961
1962
1963
1964
1965
1966
1967
1968
1969
197
1970
1971
1972
1973
1974
1975
1976
1977
1978
1979
198
1980
1981
1982
1983
1984
1985
1986
1987
1988
1989
199
1990
1991
1992
1993
1994
1995
1996
1997
1998
1999
2
20
200
2000
2001
2002
2003
2004
2005
2006
2007
2008
2009
201
2010
2011
2012
2013
2014
2015
2016
2017
2018
2019
202
2020
2021
2022
203
204
205
206
207
208
209
21
210
211
212
213
214
215
216
217
218
219
22
220
221
222
223
224
225
226
227
228
229
23
230
231
232
233
234
235
236
237
238
239
24
240
241
242
243
244
245
246
247
248
249
25
250
2500
251
252
253
254
255
256
257
258
259
26
260
261
262
263
264
265
266
267
268
269
27
270
271
272
273
274
275
276
277
278
279
28
280
281
282
283
284
285
286
287
288
289
29
290
291
292
293
294
295
296
297
298
299
3
30
300
3000
301
302
303
304
305
306
307
308
309
31
310
311
312
313
314
315
316
317
318
319
32
320
321
322
323
324
325
326
327
328
329
33
330
331
332
333
334
335
336
337
338
339
34
340
341
342
343
344
345
346
347
348
349
35
350
351
352
353
354
355
356
357
358
359
36
360
361
362
363
364
365
366
367
369
37
370
371
372
373
374
375
376
377
378
379
38
380
381
382
383
384
385
386
387
388
389
39
390
391
392
393
394
395
396
397
398
399
4
40
400
4000
401
402
403
404
405
408
41
410
411
412
413
414
415
416
417
418
419
42
420
422
423
424
425
427
429
43
430
431
432
433
435
437
438
439
44
440
441
442
443
445
446
447
448
449
45
450
451
454
455
456
457
459
46
460
464
465
47
470
471
472
475
476
477
48
480
481
482
483
486
49
490
493
495
497
499
5
50
500
5000
505
51
52
520
521
522
523
525
527
528
529
53
531
535
537
538
54
540
541
543
545
55
550
56
560
57
570
573
58
580
59
6
60
600
6000
61
614
618
62
623
625
63
631
632
64
640
644
65
650
651
652
66
67
670
674
679
68
69
691
7
70
700
71
72
73
74
75
750
76
77
78
79
8
80
800
81
82
83
84
85
86
87
88
89
9
90
900
91
92
93
94
95
955
96
97
978
98
99
:
;
<
=
>
?
@
[
\
]
^
_
`
a
ab
abc
about
above
ac
academic
academy
access
accessdate
accessed
according
account
acid
across
act
action
actor
actors
actress
ad
added
addition
additional
administration
advanced
ae
af
affairs
afghanistan
africa
african
after
again
against
age
agency
agriculture
air
al
alan
alexander
alfred
ali
aligned
all
allowed
along
alpha
alphabet
alpinia
also
although
always
am
america
american
among
an
analysis
anatomy
ancient
and
andrew
angeles
angola
animal
animals
animation
anne
anno
announced
annual
another
anthony
anti
any
apple
applications
applied
approach
april
ar
arab
arabic
arachchi
archaeological
archaeology
architecture
archive
archived
archives
are
area
areas
army
around
art
arthur
article
articles
arts
as
ashes
asia
asian
asp
associated
association
at
attack
au
audio
august
australia
australian
author
authority
authors
available
average
award
awarded
awards
away
b
ba
baahubali
bachelor
back
bad
bajirao
ball
banarsidass
bangladesh
bank
base
based
basic
bat
batting
battle
bauhinia
bb
bbc
bc
bce
bd
be
bear
beast
beat
beauty
became
because
become
becomes
been
before
began
begin
beginning
behavior
behind
being
below
berlin
best
better
between
beyond
bibcode
big
bill
biography
biology
birth
birthday
bit
black
blog
blogspot
blood
blue
bo
board
body
bold
bollywood
book
books
born
both
box
boys
br
brill
britain
britannica
british
brown
buddha
buddhism
buddhist
building
bureau
business
but
butterflies
butterfly
by
c
ca
calcutta
calendar
california
called
cambridge
came
can
canada
canadian
cancer
capital
captain
card
care
case
cases
cast
cat
category
catholic
cause
caves
cc
cd
ce
cell
census
center
central
centre
centuries
century
certain
ceylon
cf
ch
chamara
champions
championship
change
changes
channel
chapter
character
characters
charles
check
chemical
chemistry
chicago
chief
child
children
china
chinese
chris
christian
christmas
christopher
chronicle
church
cia
cid
cinema
citation
citations
cite
cities
city
civil
civilization
class
classic
classical
classification
climate
clinical
close
club
cm
cnn
co
coach
coauthors
code
codes
collection
college
colombo
columbia
com
come
comes
commentary
commercial
commission
committee
common
commons
communication
community
company
complete
complex
computer
conference
confirmed
conflict
congress
conservation
considered
constitution
contemporary
content
continued
control
copy
copyright
coronavirus
corporation
cos
could
council
countries
country
course
court
covid
cpu
created
creative
cricinfo
cricket
cricketarchive
cricketers
critical
cross
cs
cultural
culture
cup
current
d
da
dahamsithum
daily
dailynews
dance
daniel
das
data
database
date
david
day
days
dc
de
dead
deadurl
death
debut
dec
deccan
december
defined
definition
degree
degrees
delhi
delta
department
der
des
described
description
desert
design
designations
despite
details
developed
development
devi
di
dictionary
did
die
difference
different
digital
diode
diodes
direct
director
directory
discovery
disease
diseases
displaystyle
district
divaina
division
divisional
dna
do
doctor
does
dog
doi
domain
domini
don
donald
done
double
down
dr
drama
dream
du
due
during
dutch
dvd
dynasty
e
each
early
earth
east
eastern
economic
economics
economy
ed
edited
edition
editor
eds
edu
education
educational
edward
effect
effects
egypt
egyptian
eight
either
el
elected
election
elections
electric
electronic
elements
elizabeth
emperor
empire
empty
en
encyclopedia
encyclopædia
end
energy
engine
engineering
england
english
entertainment
entry
environment
environmental
episode
era
error
es
especially
espn
espncricinfo
established
et
etc
eu
europe
european
even
event
ever
every
evidence
evolution
example
examples
experience
express
external
extra
eye
f
face
facebook
fact
factbook
facts
fair
fall
false
family
far
father
fe
feature
features
february
federal
federation
feed
female
fernando
festival
few
field
fields
fifa
fifth
file
files
film
filmfare
films
final
financial
find
fire
first
five
fj
flag
flight
fn
following
food
for
forbes
force
foreign
form
format
former
forms
found
foundation
four
fourth
fr
frac
france
francis
frank
free
freedom
french
friends
from
front
fruit
ft
fu
full
function
fund
further
future
g
gallery
game
games
ge
gender
general
generally
generic
genetic
george
german
germany
get
gets
girl
girls
give
given
gives
global
gnome
go
god
goddess
gods
gold
golden
good
google
gov
government
grammar
grand
great
greater
greek
green
ground
group
groups
growth
guardian
guide
h
ha
had
hai
half
hall
hamilton
han
hand
handbook
happy
harv
harvard
has
have
having
hd
he
head
health
heart
held
help
henry
her
herald
here
heritage
hi
high
higher
highest
hill
him
hindi
hindu
hinduism
hindustan
his
historic
historical
history
hit
hitler
hiv
ho
hollywood
home
hong
hope
host
hot
house
how
however
hpv
htm
html
http
https
human
hungama
huntington
hyacinth
i
ian
ibm
icc
icon
id
identity
iec
if
ignored
ii
iii
il
illustrated
image
images
imdb
impact
imperial
important
in
inc
include
included
includes
including
independence
independent
index
india
indiaglitz
indian
indiatimes
indies
indo
indonesia
industry
influence
info
information
innings
inscription
institute
int
intelligence
international
internet
interview
into
introduction
invalid
ip
iphone
ireland
is
isbn
islam
islamic
island
islands
iso
israel
issn
issue
issues
it
italic
its
itself
iucn
iv
ix
j
jackson
james
jan
january
japan
japanese
jataka
java
jean
ji
john
johnson
jones
joseph
journal
journey
jpg
jr
jstor
julian
july
june
just
justice
k
ka
kbs
kelum
key
kg
khan
ki
killed
kim
king
kingdom
kings
km
know
knowledge
known
ko
kong
korea
korean
kumar
kv
l
la
land
lang
language
languages
lanka
lankan
large
largest
last
lata
late
later
latest
latin
law
laws
le
lead
leader
leading
league
learning
least
leaves
led
lee
left
legal
length
les
less
leste
letter
letters
level
lewis
li
library
license
life
light
like
likely
limited
line
link
links
linux
list
literary
literature
little
live
living
lk
local
location
london
long
look
lord
los
lost
lotus
love
low
lower
ltd
ltte
lua
m
ma
mac
machine
macmillan
made
magazine
maha
mail
main
maint
major
make
makes
making
malaysia
male
man
management
manamendra
manual
many
map
maps
march
mark
market
markup
marriage
marshall
martin
mary
mass
mastani
master
match
matches
material
mathbf
mathematics
mathrm
matrices
matrix
matter
matthew
max
may
mbc
mbox
me
meaning
means
meat
media
medical
medicine
medieval
member
members
memory
men
method
metropolitan
mg
mh
mi
mia
michael
microsoft
mid
middle
military
million
mind
minister
ministry
mirror
miss
missing
mit
mm
mn
mobile
model
models
modern
module
monastery
monetary
month
months
monuments
moon
more
morning
most
mother
motilal
motion
movement
movie
movies
mr
mrow
ms
mu
much
multiple
mumbai
museum
music
musical
must
my
n
na
name
named
names
namibia
nasa
nation
national
nations
natural
nature
nd
ndtv
ne
near
need
needed
negative
net
netherlands
network
never
new
news
next
ng
night
nine
no
nobel
nominations
non
north
northern
not
note
notes
novel
november
now
nuclear
number
numbers
ny
nz
o
observer
oclc
october
odi
odis
of
off
office
official
often
oh
old
olympic
on
once
one
online
only
open
opening
operation
or
order
org
organization
oriental
origin
original
origins
os
other
others
ottoman
our
out
over
overs
overview
own
oxford
p
pa
pacific
page
pages
pakistan
palace
pali
paper
parameter
paris
park
parliament
part
particular
partner
parts
party
past
paul
pc
pdf
peace
penguin
people
per
perera
performance
period
person
personal
perspective
peter
pg
ph
philosophy
photos
php
physical
physics
picture
pl
place
places
plan
plane
planet
plant
plants
plasma
play
played
player
players
playing
plus
pmc
pmid
png
poem
poet
point
points
policy
political
politics
popular
population
portal
position
positive
possible
post
power
pp
practice
pradesh
pre
present
president
press
prime
prince
princess
princeton
principles
private
prize
problem
problems
proceedings
process
produced
product
production
professional
profile
program
programme
programming
programs
project
properties
provided
psychology
public
publication
publications
published
publisher
publishers
publishing
pubmed
punctuation
put
px
q
quality
queen
quickstats
quot
r
ra
radio
rain
ram
range
rate
rather
ray
rd
re
read
reading
real
received
recent
record
records
red
rediff
ref
reference
references
region
regional
reign
related
relations
relationship
release
released
religion
religious
replaced
report
reports
republic
required
requires
research
resource
resources
result
results
retrieved
return
reuters
rev
review
reviews
revised
revolution
richard
right
rights
ring
rise
risk
river
rna
road
robert
rock
role
roman
rose
round
routledge
roy
royal
rs
rule
ruled
rules
run
runs
russia
russian
s
sa
sacred
said
saint
salt
same
san
sanchi
sanne
sanskrit
sarasaviya
say
says
sbs
sc
scale
school
schools
science
sciences
scientific
score
scored
scotland
scott
screen
script
se
sea
search
season
second
secret
secretariats
section
security
see
seen
self
semi
september
series
server
service
services
set
sets
seven
several
sex
sexual
sexuality
she
shell
short
should
show
shows
si
side
sify
sign
silva
similar
simon
simple
sin
since
singer
singh
single
sinhala
sinhalese
sir
siriwardene
site
sites
six
size
sk
sky
sl
small
smith
so
social
society
software
solar
some
sometimes
son
song
songs
sons
sony
source
sources
south
southern
space
spanish
special
species
specific
specified
spencer
sport
sports
springer
sq
squad
sri
ss
st
stadium
staff
stage
standard
standards
stanford
star
stars
start
starting
state
statement
states
statistical
statistics
status
stephen
still
stone
stop
stories
story
street
strong
structure
student
students
studies
study
style
su
subject
success
such
suggested
suicide
sultan
sum
summary
summer
sun
sunday
sundaytimes
super
support
surface
survey
sydney
symbols
system
systems
t
ta
table
tag
take
taken
takes
tamil
taylor
te
tea
team
teams
technical
technology
telegraph
television
telugu
temple
temples
ten
term
terms
test
tests
text
texts
th
than
that
the
their
them
then
theory
there
therefore
these
they
things
third
this
thomas
those
though
thought
three
through
thumb
thus
time
times
timesofindia
timor
title
to
today
together
tokyo
too
took
top
toss
total
tour
tourism
tournament
towards
tr
trade
tradition
traditional
trans
translated
translation
travel
treatment
tree
tribune
trophy
true
tu
turkey
turkish
tv
twenty
twitter
two
type
types
u
uae
ubuntu
uk
ukraine
un
und
under
unesco
unicode
union
unit
united
units
universal
universe
universities
university
unknown
unrecognized
until
up
update
upon
upper
urban
url
us
usa
use
used
user
uses
using
usually
v
va
value
values
van
vancouver
variety
various
vcite
verse
version
very
vi
via
victory
video
vidya
view
vii
viii
violence
voice
vol
volume
von
vowel
vs
w
war
was
washington
watch
water
way
wayback
we
weather
web
website
week
well
went
were
west
western
what
when
where
whether
which
while
white
who
whole
whose
why
wicket
wickets
wide
wife
wiki
wikipedia
wikisource
wiley
will
william
williams
win
windows
winners
winning
wins
wisden
with
within
without
woman
women
won
word
wordpress
words
work
working
works
world
worldwide
would
writer
writing
written
wwe
www
x
xi
xii
y
yahoo
year
years
yet
york
you
young
your
youtube
z
zealand
zee
zimbabwe
{
|
}
~
£
§
¨
«
¬
­
®
¯
°
±
²
³
´
µ
·
º
»
¼
½
¾
×
ø
ƒ
ə
ʰ
ʲ
ʻ
ˈ
ˌ
ː
˜
˝
̀
́
̂
̃
̄
̆
̇
̈
̉
̊
̌
̏
̓
̔
̛
̣
̧
̨
̪
̱
̸
͂
α
β
γ
δ
ε
η
θ
λ
μ
ν
ο
π
ρ
ς
σ
φ
ω
в
и
ְ
ִ
ָ
ּ
ا
ل
َ
ُ
ِ
ْ
ٔ
ٕ
ं
ः
क
ग
च
ज
ट
ड
ण
त
थ
द
ध
न
प
ब
भ
म
य
र
ल
व
श
ष
स
ह
ा
ि
ी
ु
ू
ृ
े
ै
ो
्
।
॥
ক
ত
দ
ব
ম
র
়
া
ি
ী
ু
ে
্
க
ங
ச
ஜ
ட
ண
த
ந
ன
ப
ம
ய
ர
ற
ல
ள
ழ
வ
ஸ
ா
ி
ீ
ு
ூ
ெ
ே
ை
்
ా
ి
్
್
ാ
ി
്
ං
ඃ
අ
අක
අකන
අකම
අකර
අකල
අඛ
අඛණ
අග
අගට
අගත
අගන
අගනගරය
අගබ
අගභ
අගම
අගය
අගයක
අගයට
අගයන
අගයයන
අගර
අගල
අගස
අගසව
අඞ
අඟ
අඟන
අඟනක
අඟනන
අඟල
අඟවන
අඟහර
අච
අචල
අජ
අජන
අඤ
අඥ
අට
අටක
අටත
අටද
අටප
අටල
අටව
අටවන
අටස
අටළ
අඩ
අඩක
අඩයට
අඩව
අණ
අණද
අණසක
අඬ
අඬන
අත
අතක
අතග
අතට
අතත
අතන
අතපත
අතපය
අතර
අතරට
අතරත
අතරද
අතරම
අතරමග
අතරය
අතල
අතව
අතහ
අථ
අද
අදක
අදට
අදටත
අදත
අදන
අදම
අදර
අදහ
අදහන
අදහස
අදහසක
අදහසට
අදහසය
අධ
අධම
අධමය
අධර
අන
අනග
අනඞ
අනඟ
අනත
අනන
අනඳ
අනඳය
අනප
අනභ
අනම
අනර
අනල
අනවරතය
අනවශ
අඳ
අඳන
අප
අපක
අපග
අපච
අපට
අපටත
අපත
අපද
අපනයන
අපනයනය
අපම
අපමණ
අපය
අපර
අපරද
අපව
අපවත
අපස
අපහ
අපහස
අබ
අබය
අබයරත
අබරණ
අභ
අභය
අභයග
අම
අමත
අමතක
අමතර
අමතරව
අමන
අමර
අමරණ
අමරස
අඹ
අඹර
අය
අයක
අයග
අයට
අයත
අයද
අයන
අයබද
අයම
අයය
අයර
අයව
අයවල
අයස
අයහපත
අර
අරක
අරග
අරගල
අරගලය
අරගලයක
අරට
අරණ
අරන
අරබය
අරභය
අරම
අරඹ
අරඹන
අරය
අරව
අරහ
අරහත
අල
අලක
අලග
අලගක
අලඞ
අලඞක
අලල
අලව
අලවන
අලස
අව
අවක
අවකල
අවට
අවත
අවද
අවධ
අවන
අවනත
අවප
අවබ
අවම
අවමන
අවයව
අවයවය
අවයවයන
අවර
අවල
අවලක
අවව
අවශ
අවස
අවසන
අවසර
අවසරය
අවසරයක
අවහ
අශ
අෂ
අස
අසක
අසඞ
අසත
අසද
අසන
අසප
අසබඩ
අසම
අසමත
අසමර
අසය
අසර
අසරණ
අසල
අසලට
අසව
අසවල
අසහ
අසළ
අහ
අහක
අහකට
අහන
අහම
අහමඩ
අහඹ
අහර
අහල
අහස
අහසට
අළ
ආ
ආක
ආකර
ආකරය
ආකල
ආඛ
ආග
ආගත
ආගන
ආගම
ආගමක
ආගමට
ආගමනය
ආගමය
ආඝ
ආච
ආචරණය
ආජ
ආඥ
ආට
ආටන
ආඩම
ආඪ
ආණ
ආත
ආතත
ආතර
ආද
ආදර
ආදරණ
ආදරය
ආධ
ආන
ආනත
ආනන
ආනය
ආනයන
ආනයනය
ආප
ආපද
ආපස
ආබ
ආභ
ආභරණ
ආභරණය
ආභස
ආම
ආමන
ආය
ආයත
ආයතන
ආයතනය
ආයතනයක
ආයතනයට
ආයතනයන
ආයතනවල
ආර
ආරක
ආරච
ආරණ
ආරම
ආරව
ආල
ආලය
ආලවකය
ආව
ආවක
ආවත
ආවර
ආවරණ
ආවරණය
ආවරණයක
ආවස
ආශ
ආස
ආසන
ආසනය
ආසනයක
ආසවනය
ආහ
ආහර
ආළ
ආෆ
ඇ
ඇක
ඇකඩම
ඇග
ඇගය
ඇඟ
ඇඟට
ඇඟව
ඇට
ඇටය
ඇඩ
ඇඩම
ඇණ
ඇඬ
ඇත
ඇතක
ඇතත
ඇතම
ඇද
ඇදග
ඇදගන
ඇදහ
ඇන
ඇඳ
ඇඳග
ඇප
ඇපල
ඇබ
ඇම
ඇමත
ඇමද
ඇමය
ඇමර
ඇඹ
ඇඹර
ඇය
ඇයග
ඇයට
ඇයව
ඇර
ඇරග
ඇරඹ
ඇරල
ඇල
ඇලන
ඇලව
ඇව
ඇස
ඇසක
ඇසට
ඇසළ
ඇහ
ඇළ
ඇෆ
ඈ
ඈට
ඈත
ඈතට
ඈන
ඈඳ
ඈප
ඈය
ඈස
ඉ
ඉක
ඉග
ඉඟ
ඉච
ඉට
ඉඩ
ඉඩක
ඉඩකඩ
ඉඩද
ඉඩම
ඉඩමක
ඉණ
ඉත
ඉද
ඉධ
ඉන
ඉඳ
ඉඳග
ඉඳන
ඉඳල
ඉප
ඉපද
ඉපදව
ඉපය
ඉබ
ඉම
ඉමස
ඉමහත
ඉඹ
ඉය
ඉයන
ඉයර
ඉර
ඉරට
ඉරණම
ඉල
ඉලක
ඉලන
ඉව
ඉවත
ඉවතට
ඉවර
ඉවස
ඉවසන
ඉවහල
ඉෂ
ඉස
ඉසක
ඉසබ
ඉසව
ඉහ
ඉහත
ඉහල
ඉහලට
ඉහලම
ඉහළ
ඉහළට
ඉහළම
ඉහළය
ඊ
ඊඑස
ඊග
ඊජ
ඊට
ඊටත
ඊඩ
ඊතල
ඊන
ඊම
ඊය
ඊයම
ඊර
ඊල
ඊලඟ
ඊව
ඊශ
ඊෂ
ඊස
ඊළ
ඊළඟ
උ
උක
උකටල
උකහ
උග
උගත
උගන
උච
උජ
උට
උඩ
උඩඟ
උඩට
උඩරට
උණ
උත
උද
උදක
උදන
උදම
උදය
උදයග
උදර
උදරය
උදව
උදහස
උන
උනත
උනන
උඳ
උප
උපක
උපකරණ
උපකරණය
උපකරණයක
උපකල
උපග
උපච
උපත
උපද
උපදන
උපදව
උපදවන
උපදවය
උපධ
උපන
උපප
උපපත
උපබ
උපභ
උපම
උපය
උපයන
උපර
උපලක
උපව
උපස
උපසපන
උපසම
උපසර
උපහ
උබ
උභ
උභත
උභය
උම
උමඟ
උමත
උඹ
උඹට
උඹල
උය
උයන
උයනට
උර
උරග
උරණ
උරස
උරහ
උල
උව
උවත
උවද
උවන
උවම
උවමන
උෂ
උස
උසක
උසට
උසම
උසස
උහ
උළ
ඌ
ඌට
ඌන
ඌනත
ඌනය
ඌර
ඌරන
ඌව
ඍ
ඍජ
ඍණ
ඍත
ඍද
ඍෂ
එ
එක
එකක
එකකට
එකග
එකඟ
එකඟත
එකඟව
එකච
එකට
එකත
එකද
එකන
එකප
එකම
එකය
එකල
එකව
එකවචන
එකවර
එකස
එකහ
එකළ
එග
එච
එජ
එජන
එට
එඩ
එත
එතක
එතන
එතනට
එතර
එතරම
එද
එදවස
එන
එනත
එනම
එනව
එප
එපමණ
එපමණක
එපර
එපවත
එබ
එබද
එබඳ
එබස
එබසට
එම
එමග
එමඟ
එමන
එමල
එමව
එය
එයට
එයද
එයම
එයය
එර
එරජ
එරට
එරන
එල
එලඹ
එලව
එලවන
එව
එවක
එවකට
එවන
එවම
එවර
එස
එසඳ
එසමය
එසව
එහ
එළ
එළඹ
එළව
එළවන
එළවළ
එෆ
ඒ
ඒක
ඒකක
ඒකකය
ඒකකයක
ඒකට
ඒකත
ඒකද
ඒකන
ඒකර
ඒකල
ඒජ
ඒජන
ඒඩ
ඒත
ඒන
ඒබ
ඒම
ඒමට
ඒය
ඒර
ඒව
ඒෂ
ඒස
ඒහ
ඓ
ඓක
ඓත
ඓශ
ඔ
ඔක
ඔගස
ඔට
ඔඩ
ඔත
ඔතප
ඔද
ඔන
ඔප
ඔබ
ඔබග
ඔබට
ඔබත
ඔබල
ඔබවහන
ඔම
ඔය
ඔර
ඔරල
ඔල
ඔව
ඔස
ඔසර
ඔසව
ඔසවන
ඔහ
ඔළ
ඔෆ
ඕ
ඕක
ඕඩ
ඕත
ඕතඩ
ඕන
ඕපන
ඕම
ඕර
ඕල
ඕලන
ඕව
ඕවර
ඕවල
ඕස
ඕහට
ඖ
ඖද
ඖෂධ
ඖෂධය
ඖෂධයක
ක
කක
කකට
කකර
කඛ
කග
කගත
කගන
කඞ
කච
කජ
කඤ
කට
කටක
කටට
කටත
කටද
කටම
කටය
කටහඬ
කඨ
කඩ
කඩක
කඩගල
කඩත
කඩද
කඩන
කඩම
කඩය
කඩව
කඩවත
කඩවල
කණ
කණග
කඬ
කත
කතක
කතන
කතම
කතර
කතරගම
කථ
කථන
කථනය
කද
කදම
කදල
කදව
කධ
කන
කනක
කනග
කනට
කනය
කනව
කඳ
කඳක
කඳට
කඳන
කඳව
කප
කපක
කපට
කපත
කපන
කපර
කබ
කබල
කභ
කම
කමක
කමට
කමටහන
කමත
කමන
කමය
කමල
කඹ
කය
කයක
කයට
කයත
කයද
කයන
කයම
කයය
කර
කරක
කරග
කරගත
කරගන
කරට
කරඩ
කරණ
කරණක
කරණය
කරණයක
කරණයට
කරණයන
කරණයය
කරණලද
කරණව
කරණස
කරඬ
කරත
කරතත
කරද
කරදර
කරන
කරනය
කරනලද
කරනව
කරනස
කරප
කරපන
කරම
කරය
කරල
කරව
කරවත
කරවන
කරවනලද
කරවම
කරවය
කරස
කල
කලක
කලකට
කලට
කලණ
කලත
කලද
කලන
කලනය
කලප
කලබ
කලබල
කලම
කලඹ
කලය
කලර
කලල
කලව
කලස
කලහ
කව
කවක
කවට
කවත
කවද
කවන
කවම
කවය
කවර
කවරක
කවරණය
කවරහ
කවල
කශ
කෂ
කස
කසන
කසල
කසළ
කහ
කහක
කහවණ
කළ
කළක
කළත
කළද
කළම
කළමණ
කළමන
කළඹ
කළය
කළයක
කළව
කළස
කළහ
කෆ
ඛ
ඛක
ඛකය
ඛකයන
ඛජ
ඛණ
ඛත
ඛතම
ඛද
ඛන
ඛනගත
ඛනය
ඛනයක
ඛනවල
ඛප
ඛම
ඛය
ඛයක
ඛයට
ඛයන
ඛර
ඛරය
ඛල
ඛව
ඛවලඳ
ඛවලඳව
ඛස
ග
ගක
ගග
ගගත
ගගන
ගඞ
ගඞග
ගඟ
ගඟක
ගඟට
ගච
ගජ
ගජන
ගජබ
ගට
ගටම
ගඩ
ගණ
ගණක
ගණකය
ගණකයක
ගණද
ගණන
ගණනක
ගණනකට
ගණනට
ගණනය
ගණය
ගණයක
ගණයට
ගත
ගතක
ගතකළ
ගතත
ගතය
ගතයක
ගතයට
ගතයන
ගතව
ගතවන
ගතහ
ගද
ගධ
ගන
ගනක
ගනන
ගනනක
ගනඳ
ගනය
ගනයක
ගනයට
ගඳ
ගඳක
ගප
ගඵල
ගබ
ගබඩ
ගභ
ගම
ගමක
ගමකට
ගමග
ගමට
ගමද
ගමන
ගමනක
ගමනට
ගමනය
ගමනයට
ගමය
ගමයක
ගමයට
ගය
ගයක
ගයකට
ගයට
ගයත
ගයද
ගයන
ගයම
ගයය
ගර
ගරට
ගරය
ගරයට
ගල
ගලක
ගලග
ගලට
ගලත
ගලන
ගලප
ගලම
ගලය
ගලයක
ගලයන
ගලව
ගව
ගවත
ගවන
ගවය
ගවයන
ගවර
ගවල
ගවලට
ගවස
ගශ
ගස
ගසක
ගසට
ගසත
ගසන
ගසම
ගසය
ගහ
ගහක
ගහට
ගහණ
ගහන
ගහනය
ගහපත
ගහව
ගළ
ඝ
ඝක
ඝට
ඝටක
ඝණ
ඝත
ඝන
ඝනකම
ඝනත
ඝනය
ඝම
ඝය
ඝයක
ඝර
ඝරත
ඝල
ඝව
ඝස
ඞ
ඞක
ඞග
ඞගන
ඟ
ඟක
ඟණ
ඟන
ඟය
ඟව
ච
චක
චකය
චකයන
චජ
චඤ
චඩ
චණ
චත
චතම
චද
චන
චනම
චනය
චනයක
චනයට
චප
චම
චමත
චය
චයක
චයන
චර
චරණ
චරණය
චරන
චල
චලත
චලන
චලනය
චලනයන
චලව
චව
චශ
චස
ඡ
ඡට
ඡත
ඡද
ඡන
ඡනය
ඡය
ඡර
ඡව
ජ
ජක
ජකය
ජකයන
ජකර
ජකවර
ජග
ජගත
ජඞ
ජජ
ජට
ජඩ
ජත
ජද
ජධ
ජන
ජනක
ජනගහණය
ජනගහන
ජනගහනය
ජනගහනයක
ජනත
ජනන
ජනනය
ජනප
ජනපත
ජනපද
ජනපදය
ජනපදයක
ජනපදයට
ජනම
ජනමත
ජනය
ජනයක
ජනයට
ජනයන
ජනර
ජනරජ
ජනරජය
ජනරජයක
ජනව
ජනවත
ජනවර
ජනශ
ජනස
ජනසම
ජප
ජපක
ජපන
ජබ
ජභ
ජම
ජමය
ජඹ
ජය
ජයක
ජයග
ජයගත
ජයට
ජයත
ජයද
ජයන
ජයප
ජයබ
ජයම
ජයමහ
ජයරත
ජයව
ජයවර
ජයස
ජර
ජරත
ජල
ජලජ
ජලධ
ජලය
ජලයට
ජලස
ජව
ජවන
ජවය
ජවර
ජවල
ජශ
ජස
ජසභ
ජහ
ඣ
ඣඞ
ඣත
ඤ
ඤඤ
ඤණ
ඤත
ඤය
ඤව
ඤස
ඥ
ඥත
ඥන
ඥනය
ඥය
ඥයක
ඥයන
ඥව
ඦ
ට
ටක
ටකත
ටකය
ටකර
ටග
ටගත
ටගන
ටගම
ටජ
ටට
ටඨ
ටඩ
ටත
ටතට
ටතම
ටද
ටදහසක
ටධර
ටන
ටනය
ටප
ටපත
ටපතක
ටපද
ටපදය
ටපන
ටබ
ටම
ටමක
ටමකට
ටමට
ටය
ටයක
ටයට
ටයන
ටයම
ටයය
ටර
ටරය
ටරයක
ටරල
ටල
ටලය
ටලයක
ටලයට
ටව
ටවත
ටවන
ටවර
ටවල
ටස
ටසක
ටසකට
ටසට
ටහ
ටළ
ඨ
ඨක
ඨකථ
ඨකය
ඨත
ඨතම
ඨන
ඨප
ඨම
ඨය
ඨයක
ඨයට
ඨයන
ඨව
ඨශ
ඨස
ඩ
ඩක
ඩකය
ඩකයන
ඩකර
ඩකරන
ඩග
ඩගම
ඩගස
ඩඤ
ඩට
ඩඩ
ඩත
ඩද
ඩන
ඩනග
ඩනගන
ඩනය
ඩනයක
ඩනයට
ඩප
ඩපත
ඩපය
ඩපයක
ඩපල
ඩබ
ඩම
ඩමව
ඩය
ඩයක
ඩයට
ඩයන
ඩයස
ඩර
ඩරල
ඩල
ඩලය
ඩලයක
ඩලයට
ඩව
ඩවල
ඩවසන
ඩවසම
ඩස
ඩසටහන
ඩසටහනක
ඩසටහනට
ඩහ
ඪ
ඪව
ණ
ණක
ණකට
ණකය
ණකර
ණකරණය
ණග
ණඝ
ණජ
ණඤ
ණට
ණඩ
ණණ
ණත
ණද
ණධ
ණධර
ණන
ණනන
ණනය
ණප
ණභ
ණම
ණමක
ණමය
ණය
ණයක
ණයකට
ණයට
ණයත
ණයද
ණයන
ණයය
ණර
ණරත
ණල
ණව
ණවත
ණවන
ණවය
ණවර
ණවල
ණශ
ණස
ණසම
ණහ
ඬ
ඬක
ඬග
ඬය
ඬර
ඬල
ඬව
ඬස
ත
තක
තකට
තකත
තකද
තකප
තකම
තකය
තකයක
තකයට
තකයන
තකර
තකරණය
තකස
තග
තඞ
තච
තජ
තඤ
තඥ
තඥය
තඥයන
තට
තටම
තඩ
තණ
තණක
තත
තථ
තද
තදන
තදබල
තධ
තන
තනගල
තනට
තනත
තනන
තනම
තනය
තනයක
තනයට
තනයන
තනව
තප
තපත
තපර
තපස
තපසට
තබ
තබන
තබම
තබය
තබව
තභ
තම
තමක
තමත
තමතමන
තමන
තමනට
තමනය
තමය
තමයන
තමල
තමව
තමස
තමහ
තමහට
තඹ
තඹර
තය
තයක
තයකට
තයට
තයත
තයද
තයන
තයම
තයය
තයහ
තර
තරක
තරකර
තරග
තරගක
තරගකර
තරගම
තරගය
තරගයක
තරගයට
තරඟ
තරඟක
තරඟකර
තරඟය
තරඟයක
තරඟයට
තරට
තරණ
තරණය
තරත
තරද
තරන
තරම
තරමක
තරමට
තරය
තරයක
තරයට
තරයන
තරල
තරලය
තරව
තරවල
තරස
තරහ
තල
තලක
තලත
තලම
තලය
තලයක
තලයට
තව
තවත
තවද
තවන
තවනය
තවම
තවමත
තවය
තවර
තවල
තවලට
තවස
තශ
තස
තසත
තසන
තසම
තහ
තහඩ
තහනම
තහව
තළ
ථ
ථක
ථකත
ථකථනය
ථකය
ථකව
ථග
ථත
ථද
ථන
ථනය
ථප
ථම
ථමය
ථය
ථයක
ථයට
ථයන
ථයය
ථර
ථරය
ථල
ථලය
ථව
ථවත
ථවය
ථවල
ථස
ථහ
ද
දක
දකට
දකම
දකය
දකයක
දකයන
දකර
දකල
දග
දගත
දගම
දඟ
දජ
දට
දඩ
දඩයක
දඩයම
දණ
දඬ
දත
දතය
දද
දධ
දන
දනක
දනට
දනන
දනම
දනය
දනයක
දනයට
දනයන
දනලද
දනව
දනවන
දප
දබ
දබර
දභ
දම
දමක
දමට
දමත
දමන
දමනය
දමම
දමය
දමයන
දමල
දඹ
දඹද
දය
දයක
දයකට
දයට
දයත
දයද
දයන
දයය
දර
දරක
දරට
දරණ
දරත
දරද
දරන
දරම
දරය
දරයක
දරයට
දරයන
දරව
දරස
දල
දලක
දලට
දලන
දලය
දව
දවත
දවන
දවම
දවය
දවර
දවල
දවලට
දවස
දවසක
දවසකට
දවසට
දශ
දශක
දශකය
දශද
දශරථ
දශව
දෂ
දස
දසක
දසත
දසද
දසදහසක
දසන
දසප
දසම
දසය
දසයක
දසර
දසව
දසවන
දසස
දහ
දහත
දහන
දහනය
දහම
දහමක
දහමට
දහය
දහයක
දහර
දහවල
දහස
දහසක
දහසකට
දහසට
දහසය
දළ
දළද
දළඳ
ධ
ධක
ධකම
ධකය
ධකයක
ධකයන
ධකර
ධග
ධජ
ධජය
ධත
ධද
ධන
ධනප
ධනපත
ධනය
ධනයක
ධනයට
ධනයත
ධනයන
ධනව
ධනවත
ධප
ධබ
ධභ
ධම
ධමන
ධමනය
ධමය
ධය
ධයක
ධයකට
ධයට
ධයත
ධයන
ධයය
ධර
ධරක
ධරණ
ධරත
ධරන
ධරය
ධරයන
ධව
ධවන
ධවල
ධශ
ධස
න
නක
නකට
නකත
නකද
නකම
නකය
නකර
නකල
නඛ
නඛය
නඛයන
නග
නගණ
නගත
නගන
නගම
නගර
නගරය
නගරයක
නගරයට
නගරයය
නගරවල
නඟ
නඟන
නඟම
නච
නජ
නඤ
නට
නටත
නටද
නටන
නටබ
නටම
නටමත
නටඹ
නටය
නඩ
නඩත
නණ
නත
නතක
නතන
නතම
නතය
නතර
නද
නදන
නදස
නධ
නන
නනය
නඳ
නඳන
නප
නපත
නබ
නභ
නම
නමක
නමකට
නමග
නමට
නමත
නමද
නමන
නමම
නමය
නමස
නඹ
නය
නයක
නයකට
නයට
නයත
නයද
නයන
නයම
නයය
නයහ
නර
නරක
නරකය
නරත
නරන
නරපත
නරඹ
නරඹන
නරය
නරල
නරව
නරවර
නරස
නල
නලද
නලය
නලල
නලව
නව
නවක
නවකත
නවකථ
නවකය
නවග
නවට
නවත
නවතම
නවද
නවන
නවම
නවය
නවයක
නවයන
නවර
නවරත
නවල
නවලට
නවව
නවවන
නවස
නශ
නෂ
නස
නසක
නසකට
නසට
නසත
නසන
නසම
නසය
නහ
නහන
නහම
නහර
නහව
නහළ
නළ
නළඟන
නළල
ඳ
ඳක
ඳග
ඳගත
ඳගන
ඳට
ඳටම
ඳත
ඳන
ඳප
ඳම
ඳය
ඳල
ඳව
ඳවන
ඳස
ඳහ
ප
පක
පකත
පකය
පකර
පකරණ
පකරණය
පග
පගත
පඞ
පච
පජ
පඤ
පඤච
පට
පටක
පටන
පටබ
පටය
පටල
පටලය
පටලයක
පටව
පටහ
පඨ
පඨම
පඨව
පඩ
පණ
පණත
පණය
පණයක
පණයට
පණයන
පණව
පණවත
පණවන
පණස
පඬ
පත
පතක
පතට
පතත
පතන
පතනය
පතනයක
පතම
පතය
පතර
පතල
පතළ
පථ
පථය
පථයක
පද
පදක
පදගත
පදන
පදනම
පදනමක
පදම
පදය
පදයක
පදයට
පදයන
පදර
පදව
පදවන
පදවය
පදස
පධ
පන
පනත
පනන
පනය
පනයක
පනයට
පනව
පනවන
පනස
පඳ
පප
පබ
පබඳ
පබල
පබවත
පබළ
පභ
පම
පමණ
පමණක
පමණට
පමණය
පමණව
පමන
පමනක
පමය
පය
පයක
පයකට
පයකම
පයට
පයත
පයද
පයන
පයය
පර
පරක
පරණ
පරණව
පරත
පරතරය
පරද
පරදව
පරන
පරප
පරම
පරය
පරයට
පරර
පරල
පරව
පරස
පරසත
පරහ
පල
පලක
පලග
පලඟ
පලට
පලත
පලද
පලන
පලඳ
පලඳන
පලම
පලය
පලයක
පලයන
පලව
පලවල
පලස
පලහ
පව
පවක
පවට
පවත
පවන
පවර
පවරන
පවල
පවස
පවසත
පවසන
පවසම
පවසය
පශ
පස
පසක
පසඟ
පසට
පසත
පසන
පසම
පසය
පසයන
පසල
පසස
පසළ
පහ
පහක
පහකට
පහකළ
පහට
පහණ
පහත
පහතට
පහතරට
පහද
පහදව
පහන
පහනක
පහය
පහර
පහරක
පහරද
පහරන
පහල
පහලට
පහලව
පහව
පහස
පහළ
පහළට
පහළව
පළ
පළක
පළඟ
පළට
පළත
පළද
පළන
පළඳ
පළඳන
පළප
පළම
පළල
පළව
පළවන
ඵ
ඵක
ඵට
ඵම
ඵය
ඵර
ඵල
ඵලක
ඵලකය
ඵලද
ඵලය
ඵලයක
ඵලයට
ඵලයන
ඵව
ඵස
ඵහ
බ
බක
බකම
බකර
බග
බච
බජ
බට
බටර
බටහ
බඩ
බඩග
බඩව
බණ
බණක
බණන
බණව
බඬ
බත
බතක
බද
බදන
බදව
බධ
බන
බඳ
බඳන
බඳව
බඳවද
බඳවය
බප
බබ
බබල
බබලන
බබළ
බබළන
බබළය
බභ
බම
බමන
බමය
බමර
බඹ
බඹදත
බඹර
බඹල
බඹසර
බඹහ
බය
බයක
බයන
බර
බරක
බරණ
බරන
බරපතල
බරය
බරල
බරව
බල
බලඇණ
බලක
බලග
බලගත
බලත
බලතල
බලද
බලධ
බලන
බලනව
බලප
බලපත
බලබල
බලම
බලය
බලයක
බලයට
බලයන
බලව
බලවත
බලශක
බලස
බලසම
බලහත
බව
බවක
බවට
බවටත
බවටද
බවත
බවද
බවන
බවම
බවය
බස
බසක
බසට
බහ
බහන
බළ
බළක
බළන
බළල
භ
භක
භකය
භග
භගව
භගවත
භජනය
භට
භටය
භටයන
භණ
භත
භද
භන
භම
භය
භයක
භයට
භයත
භයන
භයව
භර
භරණ
භරණය
භරත
භල
භව
භවක
භවත
භවද
භවන
භවනය
භවනයට
භවභ
භවය
භවයක
භවයට
භෂ
භස
ම
මක
මකට
මකද
මකභ
මකම
මකය
මකර
මකරණය
මකරන
මකල
මකව
මඛ
මග
මගක
මගට
මගත
මගද
මගධ
මගප
මගහ
මඞ
මඟ
මඟක
මඟට
මච
මචක
මචන
මචය
මචර
මඡ
මජ
මඤ
මට
මටත
මටද
මටම
මටය
මඩ
මඩකලප
මඩන
මඩම
මඩල
මණ
මණය
මණයන
මඬ
මඬල
මඬලක
මත
මතක
මතකය
මතට
මතද
මතධ
මතභ
මතය
මතයක
මතයට
මතයන
මතයය
මතව
මථ
මද
මදක
මදත
මදන
මදය
මදස
මධ
මන
මනක
මනකල
මනට
මනත
මනද
මනන
මනනඳ
මනම
මනය
මනර
මනරම
මනස
මනසට
මනහ
මනහර
මඳ
මඳක
මප
මපද
මබ
මභ
මම
මමත
මමද
මමය
මය
මයක
මයකට
මයට
මයත
මයද
මයන
මයම
මයය
මයව
මර
මරක
මරණ
මරණය
මරණයට
මරත
මරතන
මරද
මරන
මරම
මරය
මරයක
මරයට
මරව
මරස
මරහ
මරහට
මල
මලක
මලණ
මලත
මලධර
මලන
මලය
මලයවත
මලල
මලව
මලස
මව
මවක
මවග
මවට
මවත
මවන
මවනලද
මවම
මවය
මවර
මවල
මශ
මෂ
මස
මසක
මසකට
මසත
මසද
මසන
මසම
මසය
මහ
මහක
මහග
මහඟ
මහජන
මහජනත
මහජනය
මහට
මහණ
මහණකම
මහණත
මහණබම
මහණව
මහණහ
මහත
මහද
මහදන
මහන
මහප
මහබ
මහබඹ
මහම
මහය
මහර
මහරගම
මහරජ
මහරජත
මහරජහ
මහරහතන
මහල
මහව
මහවත
මහවස
මහස
මහසත
මහළ
මළ
මළල
මළව
ඹ
ඹක
ඹග
ඹට
ඹන
ඹය
ඹර
ඹල
ඹව
ඹවහන
ඹස
ඹහ
ය
යඅ
යක
යකග
යකට
යකඩ
යකත
යකද
යකන
යකඳ
යකම
යකය
යකයක
යකයන
යකර
යකරණය
යකල
යකව
යකවන
යග
යගණන
යගත
යගම
යගය
යගල
යඞ
යඟ
යච
යජ
යඤ
යට
යටක
යටග
යටට
යටත
යටතට
යටද
යටපත
යටම
යටය
යටව
යටහත
යඩ
යණ
යණය
යත
යතක
යතත
යතන
යතනය
යතම
යතය
යතයක
යතව
යථ
යද
යදම
යදමක
යදය
යදර
යදස
යදහස
යධ
යධරණ
යන
යනක
යනග
යනට
යනත
යනන
යනප
යනම
යනය
යනයක
යනයට
යනයන
යනලද
යනව
යනස
යප
යපත
යපන
යපය
යබ
යබස
යභ
යම
යමක
යමකට
යමට
යමත
යමන
යමනක
යමය
යමයක
යමයට
යමයන
යමව
යමහල
යඹ
යඹල
යය
යයක
යයකට
යයට
යයත
යයද
යයන
යයනය
යයනයක
යයනයට
යයනයන
යයම
යයය
යයයන
යර
යරක
යරජ
යරජහ
යරට
යරණ
යරත
යරය
යරයන
යල
යලක
යලඟ
යලය
යව
යවක
යවඩන
යවත
යවන
යවම
යවය
යවයන
යවර
යවරක
යවරය
යවරයක
යවල
යවලට
යවශ
යවස
යවසට
යවහ
යශ
යශස
යෂ
යස
යසක
යසත
යසන
යසම
යසය
යසස
යහ
යහන
යහප
යහපත
යහපතක
යහය
යහල
යහළ
යළ
ර
රක
රකක
රකට
රකඩ
රකත
රකතන
රකථ
රකථන
රකථනය
රකද
රකන
රකම
රකය
රකයක
රකයන
රකර
රකරණය
රකල
රකව
රකවල
රකස
රකහ
රග
රගත
රගතව
රගන
රගප
රගම
රගය
රගල
රගස
රඝ
රඞ
රඟ
රඟද
රඟන
රඟනන
රඟප
රඟහල
රච
රචක
රචකය
රචකයක
රචකයන
රචණ
රචන
රචනය
රචල
රජ
රජක
රජකම
රජකමට
රජග
රජගහ
රජගහන
රජත
රජද
රජදර
රජන
රජනන
රජනනය
රජප
රජම
රජමහ
රජය
රජයක
රජයට
රජයන
රජරට
රජව
රජවර
රජස
රජහ
රජහට
රඤ
රඥ
රඥප
රට
රටක
රටකට
රටට
රටත
රටද
රටම
රටය
රටව
රටවල
රටවලට
රඩ
රණ
රණක
රණත
රණම
රණය
රණයක
රණයකට
රණයට
රණයන
රණලද
රණව
රණශ
රණස
රඬ
රත
රතක
රතත
රතද
රතන
රතම
රතය
රතර
රතල
රතව
රතස
රතහ
රථ
රථම
රථමක
රථමය
රථය
රථයක
රථයට
රථව
රද
රදක
රදග
රදත
රදද
රදන
රදම
රදය
රදර
රදල
රදව
රදස
රදහ
රදළ
රධ
රධර
රන
රනක
රනට
රනත
රනද
රනධ
රනන
රනභ
රනම
රනමය
රනය
රනයක
රනයන
රනව
රනස
රනහ
රඳ
රඳන
රඳව
රඳවන
රප
රපක
රපට
රපටය
රපටයක
රපටයට
රපටයය
රපටවල
රපත
රපද
රපන
රපම
රපය
රපර
රපව
රපස
රබ
රබත
රබන
රබය
රබර
රබල
රබලත
රභ
රභල
රභව
රභවය
රභවයක
රම
රමක
රමග
රමට
රමණ
රමණය
රමණයක
රමණයට
රමණයන
රමත
රමද
රමන
රමබ
රමභ
රමම
රමය
රමයක
රමයට
රමයන
රමයය
රමල
රමව
රමවත
රමවල
රමස
රමහ
රඹ
රය
රයක
රයකට
රයට
රයටම
රයත
රයද
රයන
රයම
රයය
රයව
රයස
රයහ
රර
රරක
රරත
රරද
රරන
රරභ
රරම
රරය
රරව
රරස
රරහ
රල
රලක
රලත
රලන
රලම
රලය
රලව
රව
රවක
රවට
රවණ
රවණත
රවණය
රවත
රවද
රවධ
රවන
රවම
රවය
රවයක
රවයට
රවයන
රවර
රවරය
රවල
රවලට
රවව
රවශ
රවස
රවහ
රශ
රශස
රෂ
රස
රසක
රසත
රසද
රසධ
රසන
රසඳ
රසභ
රසම
රසය
රසයක
රසයට
රසයන
රසර
රසල
රසව
රසවත
රසස
රසහ
රහ
රහක
රහණ
රහණය
රහණයක
රහණයට
රහත
රහතන
රහද
රහන
රහනය
රහම
රහය
රහයක
රහයන
රහර
රහල
රහව
රහස
රහසක
රහසන
රහහ
රළ
රළට
රළත
රළබඩ
රළය
රෆ
ල
ලක
ලකට
ලකණ
ලකන
ලකය
ලකයක
ලකයන
ලකර
ලකරත
ලකල
ලකළ
ලග
ලගන
ලගම
ලඝ
ලඞ
ලඞක
ලඟ
ලඟට
ලච
ලජ
ලට
ලටම
ලඩ
ලණ
ලඬ
ලත
ලතම
ලද
ලදක
ලදද
ලදර
ලදහ
ලධ
ලධර
ලන
ලනඥය
ලනමය
ලනය
ලනයක
ලනයට
ලඳ
ලප
ලපට
ලපත
ලපන
ලපර
ලබ
ලබත
ලබන
ලබම
ලබය
ලබව
ලභ
ලභය
ලභව
ලම
ලමක
ලමන
ලමය
ලඹ
ලය
ලයක
ලයකට
ලයකද
ලයට
ලයත
ලයද
ලයන
ලයනල
ලයම
ලයය
ලර
ලල
ලව
ලවක
ලවණ
ලවත
ලවන
ලවම
ලවය
ලවයක
ලවර
ලවල
ලවලට
ලවලද
ලවව
ලවස
ලශ
ලස
ලසට
ලසන
ලසම
ලහ
ලහල
ලළ
ව
වක
වකග
වකට
වකත
වකද
වකම
වකය
වකයක
වකයන
වකර
වකව
වග
වගඋත
වගක
වගට
වගත
වගන
වගය
වඞ
වඟ
වඟන
වඟනක
වඟනන
වච
වචන
වචනය
වචනයක
වචනයට
වචනයන
වචනවල
වචර
වජ
වජන
වජය
වඤ
වඥ
වඥත
වඥයන
වට
වටක
වටකර
වටත
වටද
වටන
වටප
වටම
වටය
වටයට
වටල
වටව
වටහ
වඩ
වඩන
වඩනට
වඩම
වඩය
වඩව
වඩවන
වණ
වණක
වණට
වණත
වණන
වණය
වත
වතක
වතට
වතත
වතද
වතන
වතය
වතයක
වතයට
වතයන
වතර
වතළ
වද
වදත
වදන
වදනක
වදය
වදහළ
වධ
වධර
වන
වනක
වනග
වනගත
වනජ
වනට
වනත
වනද
වනන
වනප
වනම
වනය
වනයක
වනයට
වනයන
වනල
වනලද
වනව
වනස
වනසන
වඳ
වඳන
වඳව
වප
වපත
වපසර
වබ
වභ
වම
වමක
වමට
වමත
වමන
වමය
වය
වයක
වයකට
වයට
වයත
වයද
වයන
වයනට
වයම
වයඹ
වයය
වයර
වයල
වයලට
වයව
වයස
වයසට
වර
වරඑළ
වරක
වරකට
වරඟන
වරජ
වරට
වරටත
වරණ
වරණය
වරණයක
වරණයට
වරත
වරද
වරදක
වරදකර
වරදට
වරදව
වරන
වරනය
වරඳ
වරප
වරම
වරය
වරයක
වරයට
වරයන
වරල
වරලස
වරව
වරස
වල
වලක
වලග
වලට
වලටත
වලටද
වලත
වලද
වලන
වලඳ
වලප
වලම
වලමක
වලය
වලල
වලව
වලස
වව
වවත
වවන
වවය
වවර
වශ
වශය
වෂ
වස
වසක
වසඟ
වසඤ
වසට
වසත
වසන
වසනය
වසභ
වසම
වසය
වසර
වසරක
වසරකට
වසරකම
වසව
වසවත
වහ
වහත
වහන
වහනය
වහනස
වහය
වහර
වහල
වහලක
වහස
වහසල
වළ
වළක
වළකන
වළගම
වළට
වළද
වළඳ
වළඳන
වළඳව
වළල
වළහ
ශ
ශක
ශකත
ශකය
ශකයක
ශකයන
ශකර
ශග
ශඞ
ශණ
ශණය
ශත
ශතක
ශතකය
ශතය
ශතයක
ශතවර
ශද
ශධ
ශන
ශනය
ශනයක
ශනයට
ශනයන
ශනව
ශප
ශබ
ශබදය
ශම
ශය
ශයක
ශයකට
ශයට
ශයත
ශයද
ශයන
ශයය
ශර
ශරණ
ශරත
ශල
ශලකර
ශලධර
ශලය
ශව
ශවත
ශවන
ශවය
ශවයක
ශවයන
ශවල
ශවලට
ශශ
ශෂ
ශස
ෂ
ෂක
ෂකය
ෂකයක
ෂකයන
ෂකවර
ෂකවරය
ෂග
ෂගත
ෂඥ
ෂඥය
ෂට
ෂඩ
ෂණ
ෂණය
ෂණයක
ෂණයකට
ෂණයට
ෂණයන
ෂණයය
ෂණව
ෂණවල
ෂත
ෂතය
ෂද
ෂධ
ෂන
ෂනය
ෂනර
ෂනල
ෂප
ෂබ
ෂභ
ෂම
ෂමණ
ෂමත
ෂමන
ෂමය
ෂමව
ෂය
ෂයක
ෂයකට
ෂයට
ෂයත
ෂයන
ෂයම
ෂයය
ෂයයන
ෂයර
ෂර
ෂරත
ෂරය
ෂරයක
ෂල
ෂලත
ෂව
ෂවය
ෂවර
ෂවරය
ෂවල
ෂෂ
ෂස
ෂහ
ස
සක
සකක
සකග
සකට
සකත
සකම
සකය
සකයන
සකර
සකල
සකවර
සකස
සකසන
සඛ
සග
සගත
සගන
සගම
සගය
සගර
සඞ
සඞඛ
සඞග
සඞඝ
සඞඝය
සඟ
සඟන
සඟනට
සඟබ
සඟර
සඟල
සඟව
සඟළ
සච
සජ
සඤ
සඥ
සඥය
සඥයන
සට
සටන
සටනක
සටනට
සටය
සටහන
සටහනක
සඩ
සණ
සඬ
සඬර
සත
සතක
සතට
සතත
සතන
සතප
සතර
සතරක
සතරද
සතරව
සතරවන
සතල
සතහට
සතළ
සථ
සථව
සද
සදත
සදන
සදම
සදය
සදර
සදහ
සදහන
සදහම
සධ
සන
සනක
සනට
සනත
සනන
සනම
සනය
සනයක
සනයට
සනස
සනහ
සඳ
සඳක
සඳට
සඳන
සඳර
සඳල
සඳස
සඳහ
සඳහන
සඳහනක
සප
සපත
සපද
සපන
සපය
සපයන
සපයය
සපර
සපරගම
සඵල
සබ
සබදත
සබන
සබඳ
සබඳත
සබය
සබරගම
සභ
සම
සමක
සමග
සමගත
සමගම
සමගය
සමඟ
සමඟම
සමඟය
සමච
සමජ
සමට
සමණ
සමත
සමතල
සමථ
සමද
සමන
සමනය
සමනල
සමප
සමබ
සමම
සමය
සමයක
සමයට
සමයය
සමර
සමරන
සමරව
සමරස
සමල
සමව
සමවත
සමස
සමහ
සමහර
සමහරක
සමහරව
සඹ
සය
සයක
සයකට
සයට
සයත
සයන
සයනය
සයය
සර
සරක
සරච
සරජ
සරණ
සරණක
සරණප
සරණය
සරත
සරද
සරදම
සරන
සරම
සරය
සරයක
සරයට
සරල
සරලව
සරව
සරස
සරසන
සරසව
සරහ
සරහන
සරළ
සල
සලක
සලකත
සලකන
සලකම
සලකය
සලට
සලත
සලන
සලම
සලඹ
සලය
සලස
සලසන
සලසය
සව
සවක
සවග
සවට
සවණ
සවණක
සවත
සවදත
සවන
සවනක
සවනත
සවප
සවය
සවයක
සවයට
සවර
සවල
සවස
සශ
සස
සසද
සසඳ
සසඳන
සසම
සසර
සසල
සහ
සහක
සහකර
සහගත
සහගතව
සහජ
සහත
සහන
සහනය
සහභ
සහම
සහය
සහයක
සහර
සහල
සහව
සහශ
සහස
සළ
සළක
සළකන
සෆ
හ
හක
හකට
හකය
හකයන
හකර
හග
හඞ
හඟ
හඟව
හඟවන
හජ
හට
හටග
හටගත
හටගන
හටත
හටද
හටන
හඩ
හණ
හණය
හඬ
හඬක
හඬත
හඬන
හඬම
හඬව
හත
හතක
හතම
හතර
හතරක
හතරකට
හතරව
හතරවන
හතල
හතළ
හද
හදන
හදය
හදවත
හන
හනය
හනයක
හනයට
හඳ
හඳන
හප
හපත
හපන
හබ
හම
හමන
හමය
හඹ
හය
හයක
හයකට
හයට
හයද
හයන
හයය
හයව
හයවන
හර
හරක
හරණ
හරණය
හරණයක
හරත
හරන
හරප
හරය
හරයක
හරව
හරවන
හරස
හරහ
හල
හලක
හලට
හලද
හලය
හලයට
හලයන
හව
හවත
හවර
හවල
හවස
හස
හසන
හසර
හසළ
හහ
හළ
ළ
ළක
ළකල
ළග
ළඟ
ළඟට
ළට
ළණ
ළත
ළද
ළදප
ළදර
ළධ
ළන
ළඳ
ළඳග
ළඳප
ළඳපල
ළඳස
ළප
ළපට
ළපත
ළම
ළමය
ළඹ
ළඹට
ළඹව
ළය
ළයක
ළයට
ළයන
ළල
ළලක
ළව
ළවට
ළවර
ළවරක
ළවරට
ළවල
ළස
ළසක
ළහ
ළහක
ළහර
ෆ
ෆන
ෆය
ෆයර
ෆර
ෆල
ෆව
ෆස
්
ා
ැ
ෑ
ි
ී
ු
ූ
ෘ
ෙ
ෛ
ෟ
ෲ
ෳ
෴
ั
ิ
ี
་
်
​
‌
‍
‎
–
—
‘
’
‚
‛
“
”
†
‡
•
…
′
″
›
⁄
⁡
⁣
€
←
↑
→
↔
↷
∂
∆
∑
−
√
∞
∩
∫
≤
⋅
⋯
③
④
⑦
│
║
●
♔
✓
⟨
⟩
⦁
⺀
⺄
⺆
⺈
⺊
⺌
⺕
⺝
⺸
⺼
⿰
⿱
⿲
⿳
⿴
⿵
⿶
⿷
⿸
⿹
⿺
⿻
、
。
《
》
「
」
【
】
〢
あ
い
う
お
か
き
く
け
こ
さ
し
す
た
っ
つ
て
と
な
に
の
は
ひ
へ
ま
み
め
も
や
よ
ら
り
る
れ
を
゙
゚
ア
イ
カ
ク
コ
サ
シ
ス
タ
ッ
テ
ト
ニ
ハ
ヒ
フ
マ
メ
ュ
ユ
ラ
リ
ル
レ
ロ
ン
・
ー
㇁
㇂
㇄
㇇
㇈
㇉
㇓
㐁
㐄
㐅
㐌
㐫
㐬
㐭
㐮
㐱
㑒
㒵
㒸
㒼
㓁
㓞
㔾
㕛
㕣
㖾
㘝
㚅
㚇
㚔
㚘
㝉
㝡
㝴
㝵
㞋
㞢
㞷
㠩
㠭
㠯
㡀
㡭
㡿
㢲
㢴
㣇
㣺
㥯
㪅
㫄
㫐
㫒
㫺
㬅
㬎
㬥
㬰
㲋
㳄
㷠
㸒
㸚
㸦
㼌
㼲
㽞
㿟
䀠
䂞
䍃
䏍
䒑
䖍
䖒
䖝
䖵
䙴
䚻
䜌
䝿
䡛
䧹
䪞
一
丁
丂
七
丄
丅
丆
万
丈
三
上
下
丌
不
与
丏
丐
丑
专
且
丕
世
丘
丙
业
东
丞
丢
丣
两
严
並
丨
丩
个
丫
丬
中
丮
丰
丱
串
丵
丶
丷
丸
丹
为
主
丽
丿
乀
乂
乃
久
乆
乇
么
义
之
乌
乍
乎
乏
乐
乑
乔
乖
乗
乘
乙
乚
乛
乜
九
乞
也
习
乡
乳
乾
亀
亅
了
亇
予
争
事
二
亍
于
亏
亐
云
互
亓
五
井
亘
亚
亜
亞
亟
亠
亡
亢
交
亥
亦
产
亨
亩
享
京
亭
亮
亯
亰
亲
亳
亶
亷
人
亻
亼
亾
仁
今
介
仌
从
仐
仑
仒
仓
仕
他
付
仝
代
令
以
件
任
企
伊
伏
伐
休
会
传
伯
但
位
住
何
佘
余
作
佥
使
來
侈
侌
侖
侯
侵
便
保
俞
信
修
倉
倍
候
倠
備
僉
僕
儿
兀
允
兂
元
兄
充
兆
兇
先
光
兊
克
兌
免
兑
兒
兓
兔
党
兜
兟
入
全
兩
兪
八
公
六
兮
兰
共
关
兵
其
具
典
兹
兼
冀
冂
冃
冄
内
冈
冉
冊
冋
册
再
冎
冏
冐
冒
冓
冖
冗
冘
军
农
冝
冡
冥
冫
冬
冷
几
凡
凢
凵
凶
凷
凸
凹
出
函
凾
刀
刁
刂
刃
刄
刅
分
切
刍
刑
刕
刖
列
刘
则
初
別
利
别
到
制
刺
則
削
剌
前
剡
剽
劉
力
功
加
劦
助
劫
劳
劵
勃
勇
勉
勒
動
務
勞
勤
勹
勺
勻
勾
勿
匀
匂
包
匆
匈
匊
匋
匍
匕
化
北
匚
匝
匡
匪
匱
匸
匹
区
医
匽
匿
區
十
卂
千
卄
卅
卆
升
午
卉
半
卌
华
卑
卒
卓
单
卖
南
卜
卝
卞
占
卡
卢
卣
卤
卦
卩
卪
卬
卯
印
危
即
却
卵
卷
卸
卻
厂
厃
厄
历
厈
厉
厌
厓
厘
厚
原
厤
厥
厨
厭
厲
厶
厷
厸
去
厼
厽
叀
参
參
叅
又
叉
及
友
双
反
叐
发
叒
叔
叕
取
受
叚
叜
叟
口
古
句
另
叩
只
召
可
台
叱
史
右
叵
号
司
叹
吂
各
吅
合
吉
吊
吋
同
名
后
吏
向
吕
君
吝
吞
否
含
启
吳
吴
吹
吾
呂
呆
呈
告
员
呙
周
命
咅
和
咎
咠
咢
咨
咸
咼
哀
品
哉
員
哥
哲
唐
商
啇
問
啚
啬
啻
善
喜
喬
單
喿
嗇
噩
嚴
囊
囗
囘
囙
囚
四
回
囟
因
囧
囬
困
囱
囷
固
国
圂
圅
國
圍
圓
土
圡
圣
圥
在
圭
地
圶
圼
坐
坒
坚
坴
垂
垔
垚
埀
埋
城
埶
執
基
堂
堅
堆
堇
堯
報
場
塞
墨
壘
士
壬
壯
声
壳
壴
壹
壺
壽
夂
处
夅
夆
备
夊
夋
夌
复
夏
夒
夕
外
夗
夘
多
夜
夢
大
夨
天
太
夫
夬
夭
央
失
夲
头
夷
夸
夹
夻
夾
奂
奄
奇
奈
奉
奎
奏
奐
契
奓
奔
奚
奞
奠
奢
奥
奭
女
奴
奻
好
如
妄
妙
妟
妥
妻
妾
姑
委
姜
威
娄
婁
婴
嬰
嬴
子
孑
孔
孕
孖
字
存
孚
孛
孝
孟
季
孤
学
孫
孱
學
宀
宁
宂
它
宅
宇
守
安
宋
完
宏
宓
宗
官
定
宛
宜
宝
客
宣
室
宮
宰
害
家
容
宾
宿
寄
寅
密
富
寒
察
寧
審
寫
寬
寮
寸
对
寺
寻
寽
対
寿
封
尃
射
将
將
專
尉
尊
尋
尌
對
小
少
尒
尓
尔
尖
尗
尙
尚
尞
尢
尣
尤
尧
尨
尭
就
尸
尹
尺
尻
尼
尽
尾
尿
局
居
屈
屋
屎
屏
屑
展
屖
屚
属
屠
屡
屬
屮
屯
屰
山
屵
屾
岁
岂
岑
岡
岩
岳
岸
峯
島
崇
崑
崔
崖
崙
崩
嵬
嶲
巂
巛
川
州
巟
巠
巢
巤
工
左
巧
巨
巩
巫
差
己
已
巳
巴
巷
巸
巽
巾
巿
帀
市
布
希
帚
帛
帝
带
師
席
帯
帶
常
干
平
年
幵
并
幷
幸
幺
幻
幼
幽
幾
广
広
庄
床
底
店
庚
府
度
庫
庭
庶
康
庸
廉
廌
廛
廣
廩
廴
延
廷
建
廾
廿
开
弁
弃
弄
弇
弋
式
弓
弔
引
弗
弘
弜
弟
弥
弦
弱
張
強
强
彊
彌
彎
彐
彑
当
彔
录
彖
彗
彡
形
彥
彦
彧
彭
彳
役
彼
往
待
律
後
徒
得
徙
從
復
微
徵
德
心
忄
必
忌
忍
志
忝
忠
忩
快
念
忽
忿
思
怠
急
怱
恆
恒
恩
恭
息
悉
患
悤
悲
悶
情
惠
惡
惢
愁
愈
意
愛
感
慈
慧
慮
憂
憲
應
戀
戈
戉
戊
戋
戌
戍
戎
成
我
戒
戔
或
戚
戠
戢
截
戲
戶
户
戹
戼
戾
房
所
扁
扇
手
扌
才
打
托
执
承
折
拉
拜
拿
掌
推
提
援
摩
支
攴
攵
收
攸
改
放
政
敄
敏
救
敕
敖
敗
敝
敞
敢
散
敦
敫
敬
数
敷
數
斂
文
斉
斊
斗
斤
斥
斩
斬
斯
新
方
於
施
斿
旁
旋
族
无
旡
既
旣
日
旦
旧
旨
早
旬
旱
旲
时
旾
昆
昇
昌
昍
明
昏
易
昔
昗
昜
星
春
昬
是
昱
昴
昷
時
晃
晋
晏
普
景
晶
智
暑
暴
曇
曩
曰
曲
曳
更
曷
書
曹
曼
曾
替
最
朁
會
月
有
朋
服
朔
朕
朗
望
朝
木
朩
未
末
本
札
朮
术
朱
朵
朶
朿
杀
李
杏
杜
束
条
来
東
杲
杳
松
析
林
枚
果
枝
枲
枼
某
柔
查
柬
柰
柴
査
栗
桀
桑
桼
梁
條
梟
梨
棘
棠
棥
森
楚
業
楽
榮
樂
樊
機
欠
次
欣
欮
欲
欶
欽
款
歆
歇
歛
止
正
此
步
武
歨
歪
歮
歯
歰
歲
歴
歷
歸
歹
歺
死
殳
段
殷
殸
殹
殺
殻
殿
毋
毌
母
毎
每
毒
比
毕
毚
毛
毳
氏
氐
民
气
氣
水
氵
氶
氷
永
氺
氾
求
汝
汞
江
沃
沓
沖
沙
沝
泉
法
波
泣
泥
泰
洋
洛
津
洪
活
派
流
浦
浪
浮
海
淡
淮
清
渚
渠
湯
滿
漢
漸
火
灬
灭
灰
灵
灷
災
炅
炎
炏
炗
炙
炭
為
烈
烏
烝
焉
無
焦
焱
然
煞
熊
熏
燕
營
燮
爪
爫
爭
爯
爰
爱
爲
爵
父
爻
爽
爾
爿
片
牙
牚
牛
牜
牟
牢
牧
物
牪
牽
犀
犬
犭
犮
狂
狄
狊
独
狺
猋
猒
猪
献
獻
玄
率
玉
王
玟
玨
珎
班
琴
瑟
瑩
瓜
瓦
甘
甚
生
産
用
甫
甬
田
由
甲
申
电
甶
男
甸
甹
画
甾
畀
界
畏
畐
留
畜
畟
畢
畧
畨
番
畫
異
畱
當
畺
畾
疊
疋
疌
疑
疒
疾
癶
癸
癹
発
登
發
白
百
皀
皃
的
皆
皇
皋
皐
皕
皮
皷
皿
盃
盆
盇
盈
益
盍
盎
监
盒
盖
盛
盡
監
盤
盧
目
直
相
盾
省
眇
眉
看
県
眔
眞
真
眷
眼
眾
着
睘
睪
睿
瞏
瞢
瞿
矍
矛
矞
矢
矣
知
矦
短
石
破
碎
磊
磨
示
礻
礼
社
神
祟
票
祭
禀
禁
福
禸
禹
禺
离
禽
禾
禿
秀
秃
秉
秋
科
秝
秦
移
稟
穀
穌
穴
究
穹
空
穿
突
窄
窒
立
竒
竜
竝
竟
章
童
竹
笑
笠
第
筆
等
答
箕
算
箴
節
篤
篭
米
粉
粛
粟
粤
粦
粲
糞
糸
糹
系
紀
約
納
素
索
紫
累
細
経
絜
絫
統
絲
維
綿
縣
繇
纍
纟
缶
网
罒
罔
罕
罗
罙
罡
罢
罪
署
罷
羅
羊
羌
羍
美
羔
羕
羗
羞
羡
羣
群
義
羲
羸
羽
翁
翏
習
翕
翟
翠
翼
老
耂
考
者
耆
而
耎
耑
耒
耳
耴
耶
耷
聂
聊
聖
聚
聞
聶
聿
肀
肃
肅
肉
肖
肙
肥
肩
肯
育
肴
胃
背
胡
胥
能
脊
脩
膚
臣
臤
臧
自
臬
臭
臯
臱
至
致
臺
臼
臽
臾
臿
舀
舂
舄
與
興
舉
舌
舍
舛
舜
舞
舟
般
艮
良
色
艸
艹
艾
芒
芔
芬
芮
花
芳
芺
芻
苔
苗
苟
若
苦
英
茶
茸
荅
草
荒
荣
荼
莆
莧
莫
莽
菆
菊
菐
華
萬
落
葉
著
葛
董
葵
蒙
蒦
蒼
蓋
蓬
蓺
蔑
蔡
蕉
蕭
薄
薛
薦
薰
藍
藏
藥
蘭
虍
虎
虐
虒
虔
處
虖
虗
虘
虚
虛
虜
虞
虫
虽
蚤
蚩
蜀
蜜
蟲
蠡
血
行
衍
衛
衣
衤
表
衮
衰
袁
袞
被
褭
褱
襄
襾
西
覀
要
覃
見
規
覓
覧
親
覽
见
角
解
言
訁
訇
計
記
設
詹
語
誩
調
諸
讠
谷
豆
豈
豊
豐
豕
豖
豙
象
豦
豩
豪
豸
貇
貝
貞
貟
負
貢
貧
貪
貫
責
貳
貴
買
費
賁
資
賈
賏
賓
賔
賛
賞
賢
賣
質
賴
贊
贝
贡
责
贯
贲
贵
赖
赞
赤
赦
走
越
足
路
蹇
身
躬
車
軍
軎
軟
輦
车
辛
辜
辟
辥
辰
辱
農
辵
辶
边
达
过
近
连
迷
追
退
送
逆
逐
通
速
造
逢
連
逮
進
遀
遂
運
過
道
達
遣
適
遷
遺
邊
邑
邕
那
邦
邪
郎
部
郭
都
鄉
酉
酋
配
酓
釆
采
里
重
野
量
金
釒
錢
钅
長
镸
长
門
閃
閉
開
閏
閑
閒
間
閔
関
閣
閵
閻
闌
门
间
闷
阑
阜
阝
阿
降
陳
陵
隆
隊
隋
隡
隨
隱
隶
隹
隺
隻
隼
隽
难
雀
雁
集
雈
雋
雍
雐
雔
雙
雚
雜
雝
離
難
雨
雩
雪
雲
零
雷
電
需
震
霍
霜
霝
霞
霸
靈
靑
青
非
靡
面
靣
革
韋
韓
韦
韭
韯
韱
音
頁
頃
項
須
頗
頡
頻
顛
页
風
风
飛
飞
食
飠
養
館
饣
首
香
馬
馮
駦
马
骨
高
髟
鬥
鬯
鬲
鬼
魚
魯
鮮
鱼
鲁
鳥
鳳
鸟
鹵
鹿
麃
麗
麥
麦
麻
黃
黄
黍
黎
黑
黒
黨
黹
黽
黾
鼎
鼓
鼠
鼻
齊
齋
齐
齒
齿
龍
龙
龜
龟
龠
龰
龱
龴
龵
龶
龷
龸
龹





者
艹
️
﻿
（
）
，
：
；
？
￼
🌎
🔺
𠀁
𠀃
𠀆
𠀉
𠀎
𠀐
𠁁
𠁣
𠂆
𠂇
𠂈
𠂉
𠂊
𠂋
𠂎
𠂒
𠂔
𠂛
𠂡
𠂢
𠂤
𠂬
𠂭
𠂹
𠃊
𠃋
𠃌
𠃍
𠃎
𠃑
𠃓
𠃔
𠃜
𠄌
𠄎
𠄠
𠄢
𠆢
𠆥
𠇍
𠈌
𠌵
𠓜
𠔉
𠔥
𠔼
𠔽
𠔿
𠕀
𠕁
𠕋
𠘧
𠘨
𠙻
𠙼
𠚏
𠚒
𠚤
𠚪
𠣏
𠤎
𠤕
𠥓
𠦄
𠦑
𠦝
𠧒
𠧗
𠧪
𠩺
𠪚
𠫓
𠫔
𠫤
𠬛
𠬝
𠬞
𠬢
𠬤
𠬶
𠮛
𠮦
𠮷
𠯑
𠱠
𠳮
𠷎
𡈼
𡉀
𡉵
𡌥
𡍮
𡏳
𡕒
𡕩
𡕰
𡖅
𡗗
𡗜
𡘆
𡘤
𡧱
𡨄
𡩧
𡬠
𡭽
𡰣
𡰥
𡰪
𡰯
𡰱
𡷈
𡸁
𡿨
𡿩
𡿪
𡿺
𢀖
𢀛
𢀩
𢁙
𢆉
𢆰
𢆶
𢇁
𢇇
𢉖
𢌬
𢌿
𢏚
𢑑
𢑚
𢖻
𢙣
𢛳
𢦏
𢦒
𢧵
𢼄
𢾕
𣁋
𣄼
𣅀
𣅽
𣍘
𣎳
𣎵
𣏋
𣏼
𣗥
𣥂
𣥖
𣦵
𣦼
𣧄
𣪊
𣪠
𣬉
𣳾
𣶒
𤇾
𤊽
𤐫
𤓰
𤔔
𤕨
𤣩
𤰇
𤰔
𤰞
𤴓
𤴔
𤽄
𥁑
𥁕
𥃦
𥃩
𥃭
𥇡
𥑟
𥘅
𥘈
𥝢
𥫗
𥱡
𦈢
𦉪
𦉬
𦉼
𦍌
𦍒
𦎧
𦐇
𦓔
𦔮
𦘒
𦙃
𦚏
𦣝
𦣞
𦣻
𦥑
𦥔
𦥯
𦨉
𦭝
𦰩
𧆞
𧈧
𧘇
𧰨
𧴪
𧴮
𧵩
𧾷
𨸏
𨾴
𩙿
𩠐
𩫏
𩵋
𪉷
𪜀
𪟽
𪠲
𪩲
𫇦
𫔭
𫜸
𫝀
𫠣
𫠩
𫢉
𫥞
𫩏
𫩠
𫪡
𫲽
𫶧
𬀷
𬐘
𬗌
𬙙
𬛸
𬜯
𬟩
𬯁
𬴘
𬺻
𬼉
𬼖
𭀰
𭁈
𭁨
𭅰
𭑈
𭕄
𭗼
𭤨
𭥫
𭻾
𮅕
𮊿
𮍌
𮍏
𮓗
𮥼
𮧮
廾
𰀁
𰀄
𰀈
𰀉
𰀕
𰀠
𰀡
𰀢
𰀪
𰁜
𰃮
𰆊
𰆘
𰋙
𰕎
𰢴
𰧭
𰯲
00--
01--
02--
03--
04--
05--
71--
72--
74--
80--
81--
82--
84--
85--
86--
978--
a--
ab--
ac--
ad--
ado--
af--
ag--
agree--
air--
aj--
ak--
al--
all--
alte--
am--
an--
ans--
app--
appe--
appli--
appo--
ar--
arj--
as--
asso--
astr--
at--
au--
auto--
b--
ba--
bar--
bats--
be--
ben--
ber--
bi--
bio--
bl--
bo--
bom--
bow--
br--
bra--
brah--
bre--
broad--
brow--
bu--
bur--
c--
ca--
cab--
cal--
calcu--
cam--
camp--
can--
cap--
car--
ce--
cele--
ch--
cha--
che--
cho--
chr--
circu--
cl--
clai--
cle--
cli--
co--
col--
colu--
com--
comp--
compo--
con--
cond--
const--
cont--
contr--
contri--
conv--
cor--
corp--
cove--
cr--
cre--
cri--
cris--
cru--
cu--
d--
da--
daily--
dar--
daugh--
de--
decla--
dee--
def--
defe--
democ--
den--
dep--
dev--
di--
diag--
dis--
disc--
dist--
distri--
do--
docu--
dr--
dra--
du--
dyna--
e--
ear--
ed--
el--
ele--
elec--
em--
emer--
emi--
en--
enti--
ep--
equ--
er--
ero--
es--
esti--
et--
eu--
ex--
exi--
exp--
experi--
expl--
expla--
f--
fa--
fam--
famo--
fas--
fe--
fi--
figu--
fin--
fis--
fix--
fl--
flor--
fo--
foc--
fol--
foot--
for--
fr--
frequ--
fri--
fu--
g--
ga--
gam--
gar--
gau--
gazet--
ge--
gen--
gene--
geog--
go--
gr--
gra--
gre--
gu--
h--
ha--
har--
hd--
he--
hi--
ho--
hol--
hu--
hy--
i--
ide--
il--
im--
imm--
in--
indi--
indu--
inf--
initi--
inst--
instru--
int--
inter--
inv--
ir--
is--
it--
j--
ja--
jay--
je--
jes--
ji--
jo--
ju--
k--
ka--
kal--
kan--
kapo--
ke--
ken--
ki--
ko--
ku--
l--
la--
lan--
lau--
laun--
le--
li--
lin--
lo--
lou--
lu--
lun--
ly--
m--
ma--
mac--
mag--
mal--
man--
mar--
me--
mech--
meh--
mel--
mem--
mer--
mess--
mi--
mil--
min--
minu--
mo--
moh--
molecu--
mon--
mor--
mos--
moun--
mov--
mu--
mul--
mur--
my--
n--
na--
nat--
ne--
news--
ni--
no--
nomi--
nor--
nu--
ny--
o--
obj--
obser--
oce--
on--
one--
opp--
opti--
or--
os--
out--
p--
pa--
pac--
pal--
pan--
par--
para--
pat--
pe--
pen--
per--
ph--
phil--
pho--
photog--
phy--
pi--
pil--
pl--
ple--
plu--
po--
por--
pos--
pr--
pra--
pre--
pri--
pro--
produ--
prof--
progre--
promi--
provi--
provin--
psychi--
pu--
q--
qu--
questi--
r--
ra--
raa--
rail--
raj--
ran--
rat--
re--
rec--
refer--
reg--
regu--
repr--
resi--
resp--
respect--
ri--
ro--
roh--
ros--
ru--
rus--
s--
sa--
sal--
sam--
san--
sc--
sch--
sche--
scho--
sci--
sculp--
se--
sen--
sepa--
sequ--
ser--
sh--
sha--
shar--
shi--
sho--
si--
sim--
situ--
sk--
sl--
so--
sol--
sp--
spa--
spe--
squ--
sri--
st--
ste--
stu--
su--
sub--
subst--
sur--
sw--
swe--
sy--
t--
ta--
tar--
tax--
te--
tele--
tem--
terr--
tex--
th--
the--
tho--
thr--
thre--
ti--
time--
tit--
to--
tor--
tr--
tra--
trans--
tre--
tri--
tropi--
tru--
tu--
tur--
u--
un--
up--
v--
va--
val--
vari--
vati--
ve--
ven--
ver--
ves--
vi--
vic--
vil--
vin--
vir--
virg--
vo--
vol--
w--
wa--
wal--
wat--
we--
wel--
wi--
wiki--
wil--
wis--
wo--
wr--
x--
xx--
y--
ya--
z--
ze--
र--
க--
த--
අ--
අග--
අඞ--
අඟ--
අට--
අඩ--
අණ--
අඬ--
අත--
අද--
අන--
අබ--
අඹ--
අර--
අල--
අහ--
ආ--
ආච--
ආල--
ආශ--
ඇ--
ඇට--
ඈ--
ඉ--
ඊ--
උ--
උග--
උඩ--
උණ--
උර--
උව--
ඌ--
ඍ--
ඎ--
එ--
එක--
එත--
එන--
එල--
ඒ--
ඒක--
ඓ--
ඔ--
ඔප--
ඕ--
ක--
කට--
කඩ--
කම--
කර--
කව--
කස--
කහ--
කළ--
ඛ--
ඛණ--
ග--
ගජ--
ගණ--
ගත--
ගන--
ගර--
ගව--
ගහ--
ගළ--
ඝ--
ඝට--
ඝන--
ඞ--
ඟ--
ච--
ඡ--
ජ--
ජන--
ජය--
ජල--
ඣ--
ඤ--
ඥ--
ඥව--
ට--
ටක--
ඨ--
ඩ--
ඩක--
ඩප--
ඪ--
ණ--
ණව--
ඬ--
ත--
තක--
තණ--
තත--
තද--
තන--
තඹ--
තර--
තල--
තව--
ථ--
ථක--
ද--
දක--
දඟ--
දන--
දම--
දව--
දශ--
දස--
දහ--
දළ--
ධ--
ධක--
ධන--
ධව--
න--
නට--
නප--
නය--
නර--
නව--
නළ--
ඳ--
ප--
පණ--
පද--
පන--
පර--
පස--
ඵ--
ඵල--
බ--
බට--
බන--
බර--
බල--
බව--
භ--
භය--
ම--
මග--
මඞ--
මට--
මඩ--
මණ--
මත--
මද--
මඳ--
මය--
මර--
මල--
මස--
මහ--
මළ--
ඹ--
ය--
යක--
යජ--
යත--
යද--
යන--
යප--
යබ--
යම--
යය--
යර--
යල--
යව--
යස--
යහ--
ර--
රක--
රග--
රඟ--
රජ--
රට--
රණ--
රත--
රථ--
රද--
රන--
රප--
රබ--
රම--
රය--
රර--
රල--
රව--
රශ--
රස--
රළ--
ල--
ලක--
ලද--
ලව--
ව--
වග--
වජ--
වණ--
වත--
වද--
වධ--
වන--
වඳ--
වප--
වබ--
වර--
වව--
වශ--
වස--
වහ--
වළ--
ශ--
ශක--
ශත--
ශල--
ෂ--
ෂට--
ෂය--
ෂර--
ෂස--
ස--
සඟ--
සජ--
සඬ--
සත--
සන--
සඳ--
සය--
සල--
සව--
සස--
සහ--
හ--
ළ--
ෆ--
--0
--00
--1
--2
--3
--4
--5
--6
--7
--8
--9
--a
--able
--ad
--ah
--ai
--ak
--aka
--al
--ally
--am
--an
--ana
--ance
--ani
--anic
--ant
--ants
--ap
--ar
--ara
--ard
--ary
--as
--at
--ate
--ated
--ates
--atic
--ating
--ation
--ations
--ative
--ave
--ay
--b
--berg
--ble
--bs
--c
--ca
--cal
--ce
--ced
--cent
--ces
--ch
--ci
--ck
--cker
--co
--cs
--ct
--cted
--ction
--ctions
--ctive
--cts
--cy
--d
--da
--de
--ded
--ds
--dy
--e
--ea
--eak
--ean
--east
--ed
--ef
--ein
--el
--ell
--ely
--em
--en
--ened
--ent
--ep
--er
--ers
--es
--ess
--est
--et
--eve
--ey
--ez
--f
--ful
--g
--ga
--ge
--ged
--ger
--ges
--ght
--gic
--ging
--go
--gs
--h
--ha
--ham
--hed
--hi
--hop
--ht
--hu
--i
--ia
--ial
--ian
--ic
--ical
--ick
--ics
--id
--ie
--ied
--ier
--ies
--ig
--ight
--il
--im
--in
--ine
--ing
--ings
--ins
--io
--ion
--ions
--ip
--ir
--is
--ision
--ism
--ist
--istic
--ists
--it
--ite
--ities
--ity
--ium
--ive
--ivity
--iya
--ization
--ized
--j
--ja
--jay
--k
--ka
--kar
--ke
--ker
--ks
--ku
--l
--la
--lar
--ld
--le
--ler
--ley
--li
--ll
--lls
--lly
--lm
--lo
--logy
--ls
--lt
--lver
--ly
--m
--ma
--man
--mb
--me
--ment
--mo
--mp
--ms
--my
--n
--na
--nce
--ncy
--nd
--nda
--nds
--ne
--ned
--ner
--ness
--net
--ng
--ni
--ning
--nn
--ns
--nt
--nts
--ny
--o
--ock
--od
--ol
--ological
--ology
--om
--omy
--on
--ond
--ons
--op
--or
--ors
--ory
--os
--ot
--ots
--ous
--ow
--ows
--p
--pe
--phic
--phy
--port
--ps
--pt
--q
--r
--ra
--ral
--rc
--rd
--re
--res
--rg
--ri
--ria
--rial
--ric
--rie
--ries
--rk
--rn
--rns
--ro
--row
--rry
--rs
--rt
--rty
--ru
--ruction
--rve
--ry
--s
--sa
--se
--ses
--sh
--ship
--sion
--sis
--sm
--son
--sor
--ss
--st
--ster
--stic
--sts
--t
--ta
--tal
--tary
--tation
--te
--ted
--ter
--tes
--th
--tha
--thing
--ti
--tial
--tic
--tics
--ties
--ting
--tion
--tions
--tive
--tly
--to
--ton
--tor
--tory
--ts
--tt
--tus
--ty
--tz
--u
--ub
--ud
--ue
--ug
--ul
--ult
--um
--un
--up
--ur
--ura
--ure
--ures
--urs
--us
--ution
--v
--va
--ve
--ver
--vo
--w
--wn
--ws
--x
--y
--ya
--yer
--ys
--z
--za
--ze
--ක
--කට
--කථ
--කම
--කර
--කල
--ඛ
--ග
--ගත
--ගන
--ගම
--ගර
--ඝ
--ඞ
--ඟ
--ච
--ජ
--ඤ
--ඥ
--ට
--ටත
--ටම
--ඨ
--ඩ
--ණ
--ණය
--ඬ
--ත
--තම
--ථ
--ද
--ධ
--න
--නට
--නය
--ඳ
--ප
--පර
--බ
--භ
--ම
--මය
--ඹ
--ය
--යක
--යට
--යන
--ර
--රට
--රණ
--රත
--රන
--රම
--රය
--රව
--ල
--ලට
--ලද
--ව
--වත
--වන
--වර
--වල
--ශ
--ෂ
--ස
--සක
--සම
--හ
--හන
--හස
--ළ
