!
"
#
##0
##1
##10
##11
##12
##13
##14
##15
##16
##17
##18
##19
##2
##20
##21
##22
##23
##24
##25
##26
##27
##28
##29
##3
##30
##31
##32
##33
##34
##35
##36
##37
##38
##39
##4
##40
##41
##42
##43
##44
##45
##46
##47
##48
##49
##5
##50
##51
##52
##53
##54
##55
##56
##57
##58
##59
##6
##60
##61
##62
##63
##64
##65
##66
##67
##68
##69
##7
##70
##71
##72
##73
##74
##75
##76
##77
##78
##79
##8
##80
##81
##82
##83
##84
##85
##86
##87
##88
##89
##9
##90
##91
##92
##93
##94
##95
##96
##97
##98
##99
$
%
&
'
(
)
*
+
,
-
.
/
0
00
000
01
02
03
04
05
06
07
08
09
1
10
100
1000
1001
1009
101
102
1025
103
104
105
106
107
108
109
11
110
1100
111
112
113
114
115
116
117
118
119
12
120
1200
121
1219
122
123
1236
124
125
1251
1253
1254
126
1260
1261
1263
127
128
129
13
130
1300
131
1316
132
1320
133
1337
134
135
136
137
138
1382
1384
1385
1386
1387
139
1392
1395
1397
1398
14
140
1400
141
1410
1413
1417
142
1422
143
1430
1434
144
145
1452
1457
146
147
148
149
1492
1493
15
150
1500
1503
1506
151
1511
1512
1514
152
1520
1525
1529
153
1536
154
1548
155
1554
1555
156
1561
1562
1566
1569
157
1572
158
1582
159
1595
1596
16
160
1600
161
1612
162
1620
1624
163
1636
164
1642
1644
165
1658
166
167
168
169
1695
17
170
1700
1701
1703
171
1710
1711
172
1721
173
1738
174
1740
1742
1744
1749
175
1750
1752
176
1763
1769
177
1770
1775
1778
178
1780
1783
179
1791
1792
1793
1794
1795
1796
1797
1799
18
180
1800
1801
1802
1803
1804
1806
1807
1809
181
1811
1812
1813
1814
1815
1816
1817
1818
182
1821
1822
1823
1824
1825
1826
1827
1828
183
1830
1831
1832
1833
1834
1835
1837
1838
1839
184
1840
1841
1842
1843
1844
1845
1846
1847
1848
1849
185
1850
1851
1852
1853
1854
1855
1856
1857
1858
1859
186
1860
1861
1862
1863
1864
1865
1866
1867
1868
1869
187
1870
1871
1872
1873
1874
1875
1876
1877
1878
1879
188
1880
1881
1882
1883
1884
1885
1886
1887
1888
1889
189
1890
1891
1892
1893
1894
1895
1896
1897
1898
1899
19
190
1900
1901
1902
1903
1904
1905
1906
1907
1908
1909
191
1910
1911
1912
1913
1914
1915
1916
1917
1918
1919
192
1920
1921
1922
1923
1924
1925
1926
1927
1928
1929
193
1930
1931
1932
1933
1934
1935
1936
1937
1938
1939
194
1940
1941
1942
1943
1944
1945
1946
1947
1948
1949
195
1950
1951
1952
1953
1954
1955
1956
1957
1958
1959
196
1960
1961
1962
1963
1964
1965
1966
1967
1968
1969
197
1970
1971
1972
1973
1974
1975
1976
1977
1978
1979
198
1980
1981
1982
1983
1984
1985
1986
1987
1988
1989
199
1990
1991
1992
1993
1994
1995
1996
1997
1998
1999
2
20
200
2000
2001
2002
2003
2004
2005
2006
2007
2008
2009
201
2010
2011
2012
2013
2014
2015
2016
2017
2018
2019
202
2020
2021
2022
2023
203
204
205
206
207
208
209
21
210
211
212
213
214
215
216
217
218
219
22
220
221
222
223
224
225
226
227
228
229
23
230
231
232
233
234
235
236
237
238
239
24
240
241
242
243
244
245
247
248
25
250
251
252
253
254
255
256
257
258
259
26
260
261
262
263
264
265
266
267
268
269
27
270
271
272
273
274
275
276
278
279
28
280
282
283
284
285
286
287
288
29
291
292
293
294
295
296
297
298
299
3
30
300
3000
301
302
303
304
305
307
309
31
311
312
314
315
316
318
319
32
320
321
322
323
324
325
326
327
328
329
33
330
331
333
334
335
337
34
340
341
342
343
344
345
346
347
348
35
350
351
352
353
354
355
356
357
359
36
360
361
362
363
364
365
366
367
368
369
37
370
373
376
38
380
382
383
384
385
386
388
39
390
392
395
396
397
4
40
400
4000
401
41
410
412
413
415
42
4217
422
429
43
430
44
440
444
45
450
451
452
457
459
46
460
462
465
47
473
475
48
481
482
485
486
49
495
496
5
50
500
5000
505
508
51
52
521
524
529
53
535
538
54
544
547
548
55
550
552
553
56
560
569
57
58
581
59
6
60
600
6000
601
602
609
61
617
62
625
63
631
639
64
65
650
659
66
67
676
68
680
69
7
70
700
7000
701
71
72
727
73
737
74
742
747
75
750
7500
757
76
767
77
770
777
78
780
79
8
80
800
8000
81
82
83
84
85
850
86
87
88
89
9
90
900
9000
901
91
92
93
94
945
95
956
96
964
97
978
98
99
9955
998
9986
:
;
<
=
>
?
@
[
\
]
^
_
`
a
ab
aba
abalgas
abc
abe
abecele
abeciele
abel
abi
abies
abiju
abkaze
abluons
abn
abo
abodo
about
abravanel
abre
abrotanum
abru
abruozdiele
abruozdielis
abruozdieliu
abtu
abu
abuore
ac
acb
ace
acta
acteku
action
ad
ada
adam
adamkos
adams
adangs
adapt
ade
adeang
adele
adeta
adetas
adi
adieje
adis
adme
admine
ado
adolfas
adomaitis
adre
adresos
aduolfos
aduoma
aduoms
adva
adve
adventures
advuokats
adz
ae
aek
afgane
afganu
afre
africa
afrikas
afrikos
after
ag
aganbegyan
agare
agares
agata
agatas
age
agentu
aglouna
agne
agnes
agounas
agre
agrese
aha
ai
aiba
aibe
aibs
aic
aid
aida
aidai
aidama
aidas
aide
aidi
aidiej
aidieja
aidieje
aidiejo
aidieju
aidies
aids
aidyniu
aiks
aine
air
airbus
aire
aires
airiu
airlines
airways
ais
aise
aistas
aiste
aistis
aite
aitis
aitra
aitrale
aiure
aiz
aizkraukle
aja
aje
ak
aka
akademe
akademija
akalas
akale
akaliu
akanuome
akas
akasvayu
akce
ake
aki
akiai
akies
akimis
akis
akita
akiu
aklis
akme
akmena
akmene
akmenes
akmeni
akmenies
akmenis
akmens
akmenu
akmenuos
akmou
akne
akni
aknis
aknu
akonuome
akoste
aks
akste
akta
aktaru
akte
akti
akts
aktu
aktuore
aktuorios
aku
akuoje
akuom
akuonome
akuonuome
akuos
akuoti
akuots
akuste
akvatuore
akve
al
ala
alan
alasa
alasos
alaus
alave
alba
albane
albanu
albe
alberta
alberto
alberts
alboma
alboms
albomus
albs
album
alc
aldi
ale
aleksander
aleksandra
aleksandras
aleksandrava
aleksandravic
aleksandravs
aleksandre
aleksandris
aleksandros
aleksandrs
alekse
aleksejos
alektra
alektras
alektre
alektruomagnete
alektruona
alektruone
alep
ales
alex
alexander
alfa
alfredas
alfredo
alfreds
alga
alge
algebre
algimantas
algirdas
algiris
algis
alguns
ali
aliavu
alibaba
alie
alieje
alies
alints
alio
alioji
aliome
alioun
alip
alis
alita
aliu
aliuoje
aliuone
aliuos
alius
alize
alka
alkaguole
alkas
alke
alkeme
alkopis
alks
alksna
alksne
alksni
alksniena
alksnis
alku
alkuoguole
all
alla
alma
almene
almis
alna
alne
alnu
alnus
alonta
alos
alou
alpe
alpiu
als
alsa
alsave
alse
alsiede
alsiediu
alsva
alt
alta
alte
altene
alteniu
alternati
alti
altiniai
altinis
altiniu
altis
alto
altopis
alts
altuore
altuorios
altuoriu
alu
aluove
alus
alvare
alve
alves
alvi
alvydas
alyga
alz
am
ama
amane
amans
amas
amata
amazuone
ambasaduorios
ambient
ambulatuore
ame
amen
amere
america
american
amerika
amerikas
amerikietiu
amerikuo
ammad
amor
amro
ams
amu
amz
an
ana
anai
anal
anale
anam
aname
anarke
anas
anatuole
anatuome
anc
anchajos
and
andre
andrea
andreaea
andres
andriejos
andrios
andriu
andrius
andrzej
andu
andy
andz
ane
ang
ange
angel
angela
angeles
angels
angl
angle
anglu
angola
anguola
ani
anibare
anie
aniem
anime
anims
aniuola
aniuols
ankara
anks
anksti
anna
ano
anodo
anodom
anom
anon
anos
anou
anoudo
anoz
anra
anros
ans
ansamblis
ant
antanas
antanava
antanavs
antane
antanis
antarkte
antazave
antazaves
ante
anthony
antibiote
antice
antkalne
antkolne
anto
anton
antone
antonio
antra
antropoluoge
antros
ants
antuofagasta
antuone
antuonuovs
anu
anuo
anuom
anuos
anuots
anus
anwil
ao
aomoris
apala
apale
aparata
apas
apate
apatiuo
apauge
apaugis
apaugosiu
apavs
apde
apdolke
apdove
apduove
apduovenuoje
ape
apeigas
apeigu
apem
apent
apgi
api
apiaceae
apibriez
apibu
apie
apieravuoje
apimte
apje
apjem
apkalte
aple
apli
aplinke
aplinki
aplinkou
aplinkuos
aplonka
aplonke
aplonki
apmi
apnagiu
apnasre
apogee
apokre
apos
apoule
apple
aprais
apras
apre
apreis
apresentador
aprieda
aprieds
apriedu
apriedus
apru
aps
apsaki
apsaugos
apsauguos
apsauguote
apse
apsigi
apsireis
apsiz
apskards
apskre
apskritis
apsopta
apsopts
aptarnaute
aptieka
aptiekas
apu
apus
apvaise
apvale
apvalnos
apvalos
apvars
apveizieje
apz
ar
ara
arab
arabe
arabu
aras
aravu
arba
arbe
arc
arche
archidium
archive
arctium
ardas
arde
ardi
ards
are
arena
arenasos
arenuo
ares
argente
argentina
argentinas
argentino
argentinuo
arienu
arina
aris
aristavas
ariuogala
arka
arkangela
arkangels
arke
arkeuoluoge
arki
arkiai
arkis
arkitekta
arkitekts
arkitektu
arkivi
arklaru
arkle
arkli
arkliam
arklio
arkliou
arkliu
arklius
arkte
arle
arlis
arlotes
arlzos
armani
arme
armiene
armienu
armind
armstrong
armstrongos
arne
arniele
ars
arsenal
art
arte
artele
artemisia
arthur
artiau
article
artiste
artists
artu
aru
arvensis
arvi
arvydas
arz
as
asa
ascona
ase
asi
asis
asiste
asiu
ask
asla
asmene
asmeni
asmens
asmenu
asmenvarde
asmou
asont
asonte
asonti
asontis
asontiu
ass
association
aste
asteraceae
asti
astis
astiu
astronuome
astruonuome
astruonuoms
astu
asuoce
at
ata
atakas
atakoujonte
atalyja
atbu
ate
atee
ateike
ateikiu
ateite
ateje
atgaive
atgal
atge
atgimimo
atharvave
atidari
atienu
atiu
atk
atke
atkeliava
atkiloma
atkorta
atku
atla
atlaida
atlaidu
atlaidus
atlanta
atlantas
atle
atletas
atlete
atlets
atlke
atlonta
atmaina
atme
atminte
atmuospe
atnauje
atnaujinta
atnes
atpe
atr
atrada
atrade
atrasta
atraste
atrasts
atre
atronkuos
atruoda
atruode
ats
atsaki
atsakings
atsarge
atse
atsikiele
atsirada
atsisake
atsisaki
atsistati
atskaitle
atske
atskrend
atstati
atstoma
atstovaun
atstovava
atstuova
atstuovava
atstuovs
atstuovu
attack
atuola
atuoma
atuome
atuoms
atvaz
atve
atvede
atveju
atvez
atvi
atz
au
aude
audi
audra
audrius
audruos
aug
auga
augala
augalams
augale
augalioks
augalos
augals
augalu
augalus
auge
auginte
augoma
augoms
augons
augonte
augontiu
augosta
augoste
augs
augte
august
augusts
auk
auka
aukas
auke
aukiama
aukiamas
aukiami
aukiams
aukiena
aukienu
aukle
auks
auksa
aukse
aukso
auksos
auksu
auktas
aukte
aukts
auku
aukuos
aule
auli
aulius
aure
aureus
aus
ause
ausis
auskas
auste
austieje
australe
austre
austria
austru
autanuome
aute
autente
automobe
automuobe
autonuome
autorios
autuobusos
autuomobe
autuomuobe
autuonuome
autuore
autuorios
ava
avare
avas
ave
avi
aviace
aviakatastruopa
aviete
avis
aviu
aviv
aviva
aviz
awards
axa
az
azam
aze
azerbaidz
azerbaijan
azuova
b
ba
babe
babes
babienu
babkas
babre
babronga
babrongs
babrungs
babta
babtu
baby
bac
bad
bada
badaluonas
bado
bads
bagdonis
bagduone
bage
bagi
baguota
baguote
baguotiausiu
baguots
bai
baic
baig
baige
baiges
baime
baise
baisiause
baje
bajorai
bajoris
bajuora
bajuore
bajuoru
bakalaura
bake
baker
baks
baktere
baku
bakuote
bala
balade
balandis
balandz
balbe
balc
balda
baldu
bale
baleta
bali
baliai
balieniele
balkanu
balks
ball
balne
balonde
balondi
balondis
bals
balsa
balsas
balsave
balse
balsis
balsius
balso
balsos
balsu
balta
baltakis
baltalksnis
baltarose
baltarosiu
baltas
balte
balti
baltic
baltica
baltijos
baltika
baltiu
baltme
baltos
baltre
baltrus
balts
baltu
baltuoje
baltuos
baltuose
baltus
balu
balz
bana
banca
banco
band
banda
bande
bang
banga
bangas
banglades
banglodes
bangu
banguolauz
banguos
bank
banka
bankas
banke
banking
banknuota
banks
banku
banque
bans
bantam
bara
baraka
baranauska
baranauskas
barauka
baravi
barbele
barcelona
barclays
barde
bare
bargavuone
bargnani
bariu
barke
barku
baron
barons
barope
barroso
bars
barselonas
barseluona
barseluonas
barsta
barsti
barta
bartas
barte
bartku
bartninka
bartninku
barton
bartova
bartovas
bartu
bartulis
baru
baruoka
baruons
barva
barvas
barvu
barzda
barzde
barzdz
bas
basanave
basanavic
base
baseina
baseine
baseins
basket
basli
bat
bata
batake
batakiu
bate
batke
batu
batus
batve
bauble
baudz
baum
baus
bauske
bausme
bauz
bavare
bave
bayern
baz
baze
bazile
bazilika
bbc
bbl
bbva
bc
be
beatles
beauties
beautiful
bebe
bebova
bebre
bee
bei
bele
belge
belgrad
belgrada
bemaz
ben
bende
bendra
bendraautoris
bendradarbiave
bendraute
bendre
bendros
bendroumene
bendrs
bendru
bendruoje
bendruose
bendruove
benede
benedicta
benedikts
benetton
bengale
bengalu
benge
benios
bens
bent
benz
bepadari
beralu
berberu
bere
berenis
berge
bergens
berli
berlin
bernard
bernarde
bernardinai
bernardo
bernards
bernatuone
bernuota
bers
berz
bes
bese
best
bet
beta
betarint
bete
betuone
bez
bezdiuone
bezduonis
bezduoniu
bi
bible
bibliuoteka
bic
bie
bieda
biedas
biedu
bieduos
bieg
biega
biege
biegiu
biegont
biegte
biem
bier
bies
biesa
biesos
bieta
big
bikuoke
bikuoki
bikuoks
bilbao
biliu
billy
bin
bine
binu
bio
biodz
biografi
biografinis
biologe
bioluoge
biora
birz
bis
bistre
bite
biu
biuobiuo
biuogrape
biuoluoge
biuomekane
bizante
bjaure
bk
bl
black
blas
blazers
ble
bli
blica
blinde
bliu
bliuote
bliuoteka
bliuzo
blood
bloz
blu
blue
blues
bluoga
bluoge
bluogi
bluogs
bluso
bmw
bnp
bo
bob
bobcats
bobe
bobiu
boc
boca
boccoli
bode
bodi
bodinks
bodni
bodre
boeing
boise
boite
boivi
bokasnape
boke
bokontie
boks
bolbe
bolbiu
bole
bolgare
bolgaru
boli
boliu
bolive
bolone
boluone
bomba
bombole
bonga
bongas
bonge
bongs
book
books
borba
borbe
bore
borisevic
borke
borks
borna
borne
borneo
bornuo
bornuos
boruoka
bos
bosne
boston
botauts
bote
boti
botiu
botka
botke
botkele
botku
botre
botsvana
bounce
bouse
bouz
bov
bova
bovau
bove
boves
bovis
bovo
bovos
bovose
bovosiu
bovuom
boy
boys
boz
br
bra
brachythecium
braga
brahmana
brahmans
braiz
brajla
brando
brandoule
bras
brasil
brasileiro
brassica
brassicaceae
brasta
brauns
braz
brazauskis
braze
brazile
brazilijuo
brazilu
bre
breast
bri
brieve
briez
britane
britannica
britu
bro
broadcasting
brokne
broks
bronde
brondis
bronge
brongos
bronius
bronzas
bros
brother
brothers
brown
broz
bru
bruno
bruole
bruoli
bruolio
bruolis
bruoliu
bruone
bruonzas
bruonze
bruoz
bryum
bs
bu
buadas
buc
bucks
buda
bude
buenas
buenos
build
building
bulgare
bulls
bumblauskas
buo
buoba
buobu
buoc
buojas
buoje
buoks
buole
buolive
buols
buom
buona
buone
buono
buons
buos
buose
buosne
buosos
buotane
buoz
burbis
bureau
burkina
bus
bush
business
butana
bute
buteo
butre
buva
buvo
bvp
by
c
ca
calendars
came
can
canada
canadian
cannes
capital
car
cara
care
carey
cargotram
carl
carlos
carmen
carolina
carols
cars
casa
cashmere
casino
casos
castro
cat
cavaliers
cba
cc
cd
cdc
ce
cekle
cele
celos
celtics
census
cente
centra
central
centras
centre
centro
centros
centrs
ceramica
ceremuone
cerkve
cfl
ch
cha
chabaruovska
chakasu
chamber
chanats
channel
chantu
charles
chart
chase
che
chelsea
cheme
chicago
chicks
chile
chimki
china
chose
chris
christian
christmas
chuans
chuore
ci
cia
ciali
cialos
cibona
cid
ciela
cielam
cielas
cielom
ciels
cieluo
cielus
cite
citibank
city
ciu
ciudad
ciuoce
civile
civilizace
cj
ck
cka
cke
ckis
ckos
cku
cl
clark
clausura
clippers
clodumar
club
cm
cnn
co
code
coelho
collection
colo
columbia
com
come
commander
commerce
commercial
common
como
company
con
conifers
content
contra
copa
coro
corporation
corvinus
could
countries
country
covid
cre
credit
crime
cristina
cross
crvena
cska
cu
cum
cup
curly
curtis
cyprinidae
cz
d
da
dab
daba
dabar
dabarte
dabartinis
dabe
dabra
dabravuole
dabre
dabros
dabuokle
daddy
daga
dage
dai
daikta
daiktu
dail
daile
dailes
daili
dailies
dailininks
daina
dainas
dainava
dainavuos
daine
daines
dainiai
dainininke
daininke
daininks
dainios
dainiou
dainioun
dainioute
dainis
dainiu
dainiuo
dainius
dainos
dainu
daite
daka
daktara
daktare
daktaro
daktars
dala
dalai
dalale
dalaliu
dalas
dale
dales
dalge
dali
dalia
dalie
daliele
dalies
dalininkas
dalinkevic
dalinte
dalis
daliu
dam
dama
dambauka
dambava
dambrava
dame
dami
dams
dan
dana
dance
dances
dane
dangerous
danguje
daniel
dans
danske
danu
danute
dapke
daps
dar
dara
daras
darba
darbams
darbe
darbiena
darbienu
darbo
darbos
darbou
darbouje
darbs
darbu
darbuos
darbus
dare
darga
dargana
darge
dargoz
darguz
dari
dariaus
darios
darius
darjus
dark
darko
daroutuoja
dars
darz
das
data
database
datas
datu
dauba
daubara
daubare
daubariu
daube
daubiena
dauc
daug
dauga
daugavpils
dauge
daugel
daugele
daugeli
daugelie
daugeu
daugeuse
daugi
daugiamete
daugiametis
daugiau
daugiause
daugiausia
daugieda
daugiedu
daugoma
daugoms
daugomuo
daugomuos
daugpe
daugu
daugums
dauji
daujotyte
daujuota
daujuote
daukonta
daukonts
dauks
dauparu
daus
dausas
dausi
daute
dauz
dava
dave
david
davini
davoute
davuojame
davuoje
davuone
davuota
davuotas
davuote
davuots
day
days
daz
de
dead
death
debesas
debese
debesi
debesu
debiotava
decide
decidua
ded
dedams
dedius
dedle
deep
deg
dega
degaitiu
dege
degimai
degli
degote
degotiu
degounis
degsne
degte
deguc
deive
deka
dekanata
dekanate
dekanats
dekas
dekreto
del
delc
dele
delegace
delfi
deli
delis
deliu
della
delna
delta
deltova
deltovuos
deme
demokrate
demuokrate
demuokratu
den
dene
deng
deniu
dennis
denta
dente
dento
dents
denvere
departamenta
departamente
departamento
departaments
depotats
deprese
deputatu
der
dere
deri
deris
deriu
derlanda
derlandu
derle
derliaus
derlingas
derlios
deroburt
deroburts
des
desne
desniu
destination
detekti
detroit
detroita
deutsche
deve
development
devi
devints
dexia
dez
deziras
dge
dgs
di
dia
dialekta
diary
dicranum
dide
didi
didieji
didle
didleu
didysis
didz
die
diede
diego
dieje
diejos
dieka
diel
diele
dieltuo
diemale
dieme
diemese
diemesi
diemiem
diemiete
diena
dienoras
dienos
dies
diesne
dieste
diesti
diete
dieva
dievas
dieve
dievenis
dievi
dievo
dievou
dievs
dievu
dievus
diez
digital
diktatu
dilge
dinamo
dinaste
dinga
dingas
dings
dinta
dinuozaura
dinuozaurs
dinuozauru
dinuozaurus
dio
dione
dios
dipluomate
dirbte
director
direkce
direktuorios
dirige
dirva
dirvas
dirvonai
dis
disertace
disk
displaystyle
district
dit
diu
diukuo
diutuo
dj
dke
dle
dles
dlesne
dlesni
dlesnis
dlesniu
dli
dlia
dliau
dliause
dliausi
dliausia
dliausias
dliausis
dliausiu
dlie
dlieje
dlio
dlios
dliouje
dlis
dliu
dliuoje
dliuojuo
dliuose
dliuoses
dlius
dloma
dloms
dme
dmitre
dna
dnagiu
dnr
do
dobe
dobi
doble
dobora
doce
doets
dog
dogna
dogne
dogno
dognos
doje
doju
doke
dokra
dokte
doktie
dokume
dole
dolke
dolkiu
dolksmos
doma
domble
dome
domingo
doms
don
dona
donald
donatas
donga
dongaus
donge
dongo
dongos
dongou
dongtio
dongu
donis
donori
dont
donte
donti
dontis
dontu
doom
doors
dope
dopis
dor
doramz
dorbe
dorde
dore
dori
dorie
doris
dorius
doromz
dorope
dorpi
doru
dorz
dos
dose
dosetas
dosetu
dote
dou
doubale
doube
doubie
double
doud
doudama
doudams
doug
douk
doumene
doumeni
doumenis
doumenu
douna
dounas
doune
dous
dout
doute
douts
dove
dovi
dovijogs
dowiyogo
down
dr
dra
draboz
drabuz
dram
drama
dramas
dramatorgs
dramble
dras
draude
drauga
drauge
draugo
draugom
draugs
draugu
draugum
drausta
drauste
drausts
draz
dre
dream
dreams
drebieje
dri
driegnas
drigne
dro
drogba
droska
droskas
droske
droskininku
drouse
dru
druobe
druobole
druobu
ds
du
duarte
dubi
dublin
dumbla
dumblduors
dumble
dundu
duo
duobe
duoka
duokome
duoks
duoktre
duole
duoleris
duoleriu
duoma
duome
duoms
duona
duonela
duonghuojaus
duoni
duonori
duora
duore
duori
duoriu
duoru
duoruove
duos
duotace
duotnova
duotnovas
duotnoviele
duotnovuos
duots
duove
duovi
duovu
durie
dus
duva
dvara
dvarale
dvarc
dvare
dvari
dvaris
dvaro
dvarou
dvars
dvarte
dvarve
dvarviec
dvase
dvasingoma
dvasingoms
dvd
dve
dveje
dveju
dvi
dviec
dvieju
dvietis
dviju
dwight
dz
dzenbude
dzu
e
eagle
early
earth
east
ebe
ebooks
ebsw
ec
economic
ed
ede
edgars
edition
edoards
edova
edu
eduikyte
edvarda
edvardas
edvards
edward
ee
efekti
efes
ege
egidijus
egieje
egle
egli
egliu
eglote
egypt
egzame
egze
ehime
eide
eike
eikiai
eikiu
eikius
eile
eilie
eilieras
eilies
eiliouta
eiliu
eima
eimas
eimi
eimsos
eimuo
eimuos
ein
eina
eine
einikis
eins
eiste
eive
eiviu
ej
ejau
eje
ek
eka
eke
ekonome
ekonomika
ekonuome
ekranas
eks
ekspanse
ekspere
ekspuorta
eksuons
eksuoplaneta
eku
ekuoluoge
ekuonome
ekuonuome
ekvaduors
el
ela
ele
electric
elekse
elektre
elektrienu
elektruone
eleme
elementa
elements
elementu
elgar
elgese
eli
eliai
eliana
elis
eliu
ellie
elne
elniu
els
elva
elve
elz
em
ema
emaic
emaitaitis
emaite
emaitele
emaitijos
emaitijuo
emaitis
emaitiu
emaitius
emaitke
emaitkiemis
emale
emanuelis
emc
emde
eme
emelie
emere
emes
emesne
emgale
emi
emiau
emiause
emie
emielape
emielapis
emies
emis
emiu
emma
emoma
emope
emopi
emopie
emote
emouge
empe
empijonat
empijuona
empijuonat
empijuonata
empijuonate
empijuonats
empijuone
empijuono
empijuons
empijuonu
empionat
empionata
empire
empiuons
ems
emuoce
en
enciklopedija
enciklopediju
enciklopedijuo
encikluopede
encu
encyclopaedia
endre
ene
energe
energete
energy
eng
england
english
eni
enigma
enka
enko
enkuoe
ens
entertainment
entre
ep
epa
epe
epilobium
episo
episod
epos
eps
equilibrio
equilibrium
er
era
eras
erba
erbata
erbeta
erdve
ere
erele
erge
eri
eriai
ericaceae
erie
eriele
erielis
eries
erik
eris
eritre
eriu
erke
erks
erle
erls
ermoks
erna
ernas
erne
ernis
ernuobi
ero
ers
erse
erte
eru
eruote
erve
erys
erz
es
ese
esi
eska
eslovas
esluovs
esmies
esnaga
esne
esni
esnis
eso
esons
esont
esonte
esonti
esontis
esontiu
esperanto
est
esta
este
estete
esti
estradas
estu
et
eta
etai
etapa
etaps
ete
ethnologue
etiope
etne
etnoluoge
etnuogrape
ets
eu
eugene
eugenijus
eukle
euliu
eura
eurasian
euraze
eure
eurele
eurelijus
euris
euro
euroleague
euroli
eurolygas
europa
europas
europe
european
europuo
eurove
eurovision
eurs
euruoli
euruopa
euruopas
euruope
euruopuo
euruove
eus
eva
evange
evangele
evangeliku
evas
eve
evic
evita
executive
expo
express
eyes
ez
f
fa
fabaceae
face
facebook
facto
fairstein
fakolteta
fakoltete
fakoltets
fakoltetu
fakta
fakte
fakulteta
fakultete
fakultets
fall
fame
fami
family
fantaste
fantastinis
fanu
far
fare
farere
farmace
fas
faso
fbk
fc
fe
feat
federace
federale
fele
femme
fenerbachce
ferma
fermas
ferreira
feste
festival
fi
fiba
file
film
filma
filme
films
filmu
filoluoge
filosuope
fils
fina
final
finala
finale
finance
financial
finansu
fire
first
fivb
five
fize
fk
fla
flandre
florence
flu
fluore
fluorescente
fm
fo
folkluora
fon
fonkce
food
for
forbes
force
ford
forest
forma
formale
formato
formava
forum
fotbuola
fotbuole
four
fox
fr
fra
frac
franc
france
francis
francisco
franco
francos
frank
franka
franku
franz
frederiks
fredis
freeciv
fri
friedrich
from
fs
fu
fukuda
fukujos
fukuoka
fukus
full
funkce
fuolkluora
fuolkluore
fuolkluors
fuonda
fuonds
fuone
fuorma
fuormale
fuormas
fuormava
fuormole
fuormu
fuorne
fuoroms
futbol
futbola
futbole
futbolininks
futbolo
futbuola
futbuole
future
g
ga
gabala
gabe
gaben
gabre
gabriel
gabrielios
gace
gadi
gadu
gagau
gai
gaide
gaidele
gaidi
gaiks
gaila
gaile
gailevic
gailis
gailius
gaisra
gaisre
gaisros
gaistra
gaistre
gaiz
gajos
gal
gala
galakte
galam
galas
galat
galaxy
gale
galem
galere
gali
galiaus
galiause
galic
galieje
galieto
galietom
galil
galimi
galio
galis
galiu
galne
galo
galote
gals
galu
galva
galve
galvi
galvote
galvuo
galvuos
gama
game
games
gami
gaminant
gamta
gamte
gamtuo
gamtuos
gan
gana
ganda
gane
gang
gani
ganiete
gara
garbe
garbies
garda
gardama
gardams
gardas
garde
garden
gardu
gare
gargz
garis
garlevuos
garliava
garni
gars
garsa
garse
garsi
garsiause
garsiausis
garsiausiu
garsie
garsieje
garsiu
garsos
garsti
garsu
garu
gary
gas
gasol
gaspade
gaspaduore
gaspaduorios
gataute
gatautiu
gatve
gatvie
gatviu
gauc
gaud
gauda
gaude
gaudi
gaun
gaunama
gaunams
gaunas
gaure
gaus
gause
gausi
gausiause
gauso
gausoms
gausu
gaute
gautom
gauts
gava
gave
gaviene
gavieniu
gazeta
gazieta
gazietas
gazietu
ge
gebieje
gec
gede
gedeme
gediminas
gedme
gedre
gedve
gegoz
geguz
geidz
gel
gelbe
gelbieje
gelbiete
gele
gelez
gelme
gelne
gelsva
gelsve
geltuona
geltuonas
geltuone
geltuoni
geltuons
gelz
gemals
gembu
genc
gene
general
generale
generuola
generuols
genete
geniai
genis
geniu
genre
gente
genti
gentis
gentiu
geoluoge
george
georgia
gera
gerald
geras
gerbieju
gerbs
gere
geresne
geri
geriau
geriause
geriausi
geriausia
geriausias
geriausio
geriausis
geriausiu
geriausius
gerkle
gerklie
germanu
germany
gerole
geroms
geronks
gers
gerte
geru
geruoje
geruoka
geruove
gerve
gervouge
gese
getaute
geuogrape
geuograps
geuometre
geuorgs
gi
gia
gianluca
giannakis
giaus
gie
giedraitis
giedrius
giegote
gieju
gierala
gierals
giere
gieri
gieris
gies
giesme
gifu
gime
gimimas
gimna
gimnaze
gimnazija
gimnos
ginc
gindams
ginevic
ginobili
gintara
gintaras
gintars
ginte
gintra
gio
girdz
gire
girgz
giriai
giriena
girininkai
girl
girls
gis
gitara
giu
gius
giv
give
given
giventuoju
givenve
giz
gizas
glabna
glabnas
glabne
glabniause
glabniausis
glabniausiu
glabnos
glabns
glabnu
glabnuoje
glabnuose
glaude
glavniause
glavnu
glavnuoje
glazga
gle
glele
gliese
glioutiu
glis
global
globo
globuos
gloria
glousne
glu
gluobale
gluobuos
gmbh
gna
gnale
gnatars
gnos
gnu
go
goba
gobe
goberne
god
goda
godake
godave
gode
godele
godeliu
godu
goduone
gojus
gol
gola
golante
golbe
golde
golden
goldi
goldman
gole
golf
golnoma
golons
golonte
golste
goma
gomas
gomba
gombe
gome
gomta
gomte
gomtuo
gomtuos
gomu
gonde
gondra
gondros
gone
gonte
good
google
gordon
gore
gorgz
goriuons
gos
gosta
gote
gou
goute
gov
govas
goz
goze
gr
gra
graba
grabe
grace
grafe
grafi
graika
graike
graiku
graje
gramate
grammy
gran
grand
grande
grane
grant
grantu
grape
gras
graudu
grauz
grave
graz
gre
great
green
greiz
grendave
grenlande
grenlandu
greta
grey
gri
griauz
grieku
griekus
griez
griks
grinda
grindis
grint
gripa
gripo
grips
gris
griu
griuove
griuoviu
grizzlies
gro
gromble
grope
gropes
gropie
gropiu
groude
group
groupon
grouz
grozde
groze
gru
gruobe
gruobi
gruoz
grupe
grupes
gruzovi
gs
gst
gta
gte
gtis
gu
guarani
guardian
gudaic
gudavic
gude
gudeliai
gudis
gudz
guerra
guide
gun
gunma
guo
guobs
guoda
guodele
guoje
guojos
guom
guoms
guona
guone
guonu
guora
guore
guos
guota
guote
guotu
guoz
gus
gustas
gutenberg
guy
guyo
gvaraniu
gvatemala
gvazde
gve
gviana
gvine
gyv
gyvai
gyven
gyvenimas
gyvenimo
gyventoju
gz
h
ha
habe
hae
haifas
hale
hallelujah
hameris
hammer
hamurabe
hans
hansaworld
hansen
hanuojaus
hapoel
happy
hard
hare
haris
harisos
harris
harry
harvarda
havaju
hawking
hawks
he
health
heart
heat
heaven
heavy
hebe
hebraju
hebre
hegelmann
heiban
heinrich
helen
helena
hell
helse
hemsedal
hemsedale
henri
henris
henry
herba
herbs
herceguove
hercuogove
hermiuona
herna
hero
heruojus
hetitu
hi
higgins
high
hillary
himna
hindi
hiogo
hip
hiros
histo
history
hit
hits
ho
hokaids
hole
holmes
homane
home
homo
hon
hons
hornets
hos
hot
hotel
house
housing
howard
hsbc
htm
html
http
https
hu
huans
hugo
human
humane
humuore
huole
huondu
huopa
i
ia
iadalu
iadeini
iadieni
iai
iais
iakompe
iam
iama
iame
iams
ian
iana
iane
ias
iata
iate
iau
iauda
iaude
iaudine
iaudova
iaudu
iauge
iaule
iauliai
iauliu
iaulius
iaur
iaure
iaures
iauri
iaurie
iauries
iaurinie
iauris
iaus
iause
iausia
iausias
iausis
iausiu
iava
iavas
iave
iavuos
iaza
iba
ibalu
ibarakis
ibe
ibn
ibs
ic
icao
ice
ich
ichiro
ichirou
icon
id
ida
idams
ide
ided
ideoluoge
ideuoluoge
idi
idieje
idieju
idis
idiu
ido
idoka
idra
idre
ids
idu
idus
idzuoka
ie
iegle
ieglis
iej
ieje
ieji
iejos
iejose
ieju
iele
ieli
ielis
ieliu
iem
ieme
iena
iene
ienu
iera
ierala
ieralou
ierals
iere
ies
iesa
iese
iesi
iesis
ieso
iesos
iesou
iesu
ieta
ietas
iete
ietuos
ieva
iez
if
ig
iga
igas
igava
ige
igi
igiena
igis
igle
ignale
ignis
igo
igou
igs
igt
igu
iguoje
iguone
iguoris
ii
iii
ije
iju
ik
ika
ikagas
ikai
ikama
ikanas
ikas
ikava
ikavuos
ike
iki
ikias
ikiele
ikies
ikike
ikiu
ikla
ikne
iko
ikont
ikonte
ikore
ikorta
ikorts
ikos
ikose
iks
ikt
ikta
iktas
ikte
ikts
iku
ikus
ikve
il
ila
ilaic
ilale
ilazare
ilbaravi
ildi
ile
ilgis
ili
iliai
ilie
iline
ilis
iliu
iliustr
ilja
ilonka
ilonkas
ilope
ilte
ilu
ilute
ilve
im
ima
imane
imas
imbare
imdb
ime
imele
imena
imene
imgale
imi
imigrace
imis
imiu
imkaic
imkaus
imone
imos
imou
imperatourios
imperatuore
imperatuorios
impere
imprenta
ims
imt
imta
imte
imti
imtis
imtmete
imtmetie
imtmetis
imts
imu
imuo
imuone
imuoniu
imuos
in
ina
inabuoks
inam
inas
inaskaita
inc
inde
indeksos
index
india
indian
indianas
indiena
indienu
indijanas
indoe
indoeurope
indonesia
indoneze
indostre
indra
inds
indu
induoneze
industrial
ine
ineta
ineto
inets
inetu
infekce
infliace
influenza
info
informace
information
infrarauduone
infuormace
infuormate
ing
inga
ingas
inge
ingen
ingre
ingrid
ingsnis
ingtona
ingtuona
ini
iniai
inice
inie
inierios
iniete
ininka
ininkai
ininko
ininks
ininku
inintele
inintelis
inio
inios
inioule
inis
iniu
iniuoli
ink
inkaras
inke
inku
inmete
inmetis
ino
inonte
inou
inouli
inovace
inpju
inras
ins
insiede
insiedis
inskas
inske
inskilte
inskis
instagram
inste
instituce
instituta
institutas
institute
instrome
int
inta
intaka
intaks
inte
integrace
intel
inter
interactive
interesa
interesos
interesu
international
internationale
interne
internet
interneta
internete
interneto
into
ints
inu
inuo
inuoda
inuoli
inuom
inuoms
inuos
inus
investe
investment
inz
io
ioga
ioge
iogs
iojas
ioji
ioka
iokc
ioke
iokora
ioks
iole
iolis
iom
iomp
ioniai
ioniu
ionys
iope
iopis
iopuoida
iorke
iorks
iorve
ios
iose
iosios
iou
ioujas
ioun
iounas
ious
iout
ioute
ioutiu
ioutuoje
iovas
ip
ipa
ipaluots
ipas
ipate
ipe
ipi
ipte
iptes
ipuoje
ir
iraka
irake
irako
iraks
irana
irane
irano
irans
iras
irava
iravs
ire
ireland
irena
irenge
irengta
irengts
irge
irgi
irinki
irish
iros
irs
iruode
irvinta
irvintas
irvintu
is
isa
isas
isbn
ische
ise
isesne
isi
isierios
isiku
isinta
isis
isiu
isiuog
isiuoge
isiuos
iskaitont
islama
islame
islams
island
islande
islands
islandu
islas
isme
ismetiu
ismie
iso
isos
ispane
ispanu
ist
ista
istaiga
istas
istate
istati
iste
isteigta
isto
istore
istorija
istorijos
istre
ists
istu
istuire
istuoje
istuore
isuos
it
ita
itaka
itakas
itake
itale
italia
italijuo
italu
itams
itas
itava
itave
itavs
ite
iteise
itek
itelna
item
ites
iti
itie
ities
itine
itinge
itis
itiu
itius
ito
itos
itou
itous
itraukts
itre
itri
its
itu
ituo
ituom
ituos
ituove
itus
itvakare
itvakarios
itvakariu
itvakarius
itve
iu
iukai
iukaite
iukis
iuks
iule
iuliai
iulis
iuo
iuoga
iuoge
iuoj
iuoje
iuokle
iuoks
iuol
iuole
iuom
iuon
iuona
iuone
iuoni
iuoniu
iuos
iuote
iuoti
iuotiu
iuova
iuove
ius
iv
iva
ivaire
ivairiu
ivairiuos
ivairius
ivanauskaite
ivarde
ivas
ivate
ivazu
ive
ivede
ivein
iverte
ivesta
ivi
ivie
ivios
ivis
iviu
ivonis
ivu
ix
iz
iza
izaz
ize
iziet
izieta
izna
izrae
izrael
izraele
izraelie
izraelis
j
ja
jace
jackson
jacques
jadvi
jadz
jae
jagme
jaguar
jahres
jai
jaka
jake
jakienu
jakote
jaks
jala
jals
jalu
jam
jama
jamagata
jamaguc
jamanas
james
jampuole
jampuoles
jampuolie
jampuolis
jams
jan
jana
janapuole
janauka
janava
jane
jangdze
janina
janis
janka
jankauskas
jankauskis
janku
janos
jans
jante
jants
janus
jap
japa
japan
japuone
japuonu
jarens
jarmale
jas
jasaitis
jasikevic
jasiu
jason
jau
jauge
jauje
jauna
jaunas
jaune
jauni
jauniu
jauns
jaunu
jaus
jauska
jausma
jausmos
jausmu
jaut
jautake
jautas
jaute
jautis
jautiu
jautius
jautmalke
jav
java
javam
jave
javs
javtokas
javu
javus
jay
jazeera
jazz
je
jean
jeans
jediuota
jeff
jelcins
jelgava
jem
jerozale
jerry
jeruzales
jes
jezusmare
ji
jie
jied
jiedama
jiedamas
jiedame
jiedami
jiedams
jiedamu
jiede
jiedi
jiedio
jiediou
jiedis
jiediu
jiedius
jiedo
jiedros
jieds
jiega
jiegas
jiegu
jieguos
jiem
jieme
jiemies
jiemos
jies
jieste
jiezaus
jiezo
jiezos
jima
jimas
jims
jimte
jis
jk
jo
joa
jobe
jobs
joca
joce
jod
jodae
jode
jodese
jodieje
jodiete
jodre
jodriena
jodrienu
joe
jog
joguoslave
john
johnson
jokna
jokne
jokneve
joks
joku
jole
jom
jonaic
jonas
jone
jones
jong
jonga
jongas
jonge
jongias
jongte
jonguo
jonguos
jonis
jonke
jonku
jono
jont
jope
jorbarka
jorbarks
jorbarku
jordan
jore
jorga
jorge
jorgele
jorgeliou
jorgielis
jorgis
jorjuona
jork
jorka
jorke
jorks
jos
jose
joseph
josi
josiu
joste
josvaine
josvainiu
jote
jou
jouda
joudalksni
joudaoude
joudas
joude
joudi
joudkalne
joudkronte
joudope
joudopis
jouds
jouduoje
jouduos
jouduose
joudz
jouka
jouke
journal
journey
jous
jousta
joustas
jouste
joustu
joustuo
joute
jouzos
jovais
joventut
jpg
jr
js
jt
jto
ju
juan
judae
judieje
jugoslave
jule
julio
julius
june
jung
jungos
juniors
juo
juoda
juode
juodeikiai
juodkalne
juodz
juoga
juogaila
juogailas
juohans
juoke
juokiu
juokle
juoko
juoks
juoku
juole
juolete
juom
juomonta
juoms
juon
juona
juonata
juonate
juonats
juonava
juonavuos
juone
juonis
juono
juonos
juonou
juons
juonu
juordane
juos
juose
juosvainiu
juota
juote
juotu
juotvinge
juotvingiu
juova
juovi
juozapava
juozas
juozos
juras
juratu
jurbarka
jurga
jurgis
jus
jusiu
just
jutas
juventus
k
ka
kabale
kabe
kabele
kabinte
kabote
kabu
kac
kace
kad
kada
kadage
kadagi
kadangi
kadare
kadas
kadastras
kadence
kadonge
kadongi
kadu
kadz
kaga
kagas
kagava
kagos
kaguo
kai
kaic
kaile
kaim
kaima
kaimale
kaimalie
kaimalis
kaimas
kaime
kaimelis
kaimi
kaimo
kaims
kaimu
kaina
kainas
kainu
kaip
kair
kaire
kairi
kairiam
kairie
kairiu
kairiuoje
kais
kaite
kaitis
kaj
kakla
kaklo
kaklos
kakluori
kakta
kala
kalabre
kalaukis
kalave
kalba
kalbas
kalbe
kalbieje
kalbo
kalbos
kalbu
kalbuo
kalbuom
kalbuoms
kalbuos
kalce
kale
kalenduore
kalenduorios
kalenduoriu
kalesninka
kalesninku
kalhuors
kali
kalieda
kaliedas
kaliedu
kalieje
kaliforne
kalinga
kalings
kaliningrada
kalints
kaliu
kalke
kalna
kalnaberz
kalnale
kalnalis
kalnaliu
kalnas
kalne
kalnele
kalni
kalniai
kalniena
kalnienu
kalnio
kalnis
kalno
kalnoute
kalns
kalnu
kalnuote
kalnus
kalos
kals
kalte
kalties
kaltinienu
kalts
kalu
kaluos
kalus
kalva
kalvare
kalve
kalvele
kalveliai
kalveliu
kalviai
kalvis
kalviu
kalvuos
kam
kama
kamanu
kamare
kamaris
kamase
kambare
kambuodz
kamc
kame
kameru
kamonta
kampane
kampe
kampu
kams
kamu
kana
kanada
kanadas
kanaduo
kanagava
kanala
kanals
kanalu
kanape
kanapis
kanapiu
kanaru
kanc
kande
kandidato
kandidatu
kane
kaniavas
kaniu
kankuoriez
kanta
kante
kants
kanu
kap
kapa
kapale
kape
kapele
kaple
kaps
kapu
kapuone
kar
kara
karac
karaimu
karaktuore
karale
karali
karaliauc
karaliaus
karaliaute
karaliene
karalio
karaliom
karalios
karaliu
karc
karda
karde
kards
kare
kareive
karele
karelu
kari
kariauna
kariaunas
kariava
kariave
karioumene
kariu
kariuomene
karje
karjera
karjers
karjier
karjiera
karjieras
karkla
karkle
karkli
karkliena
karklu
karl
karls
karmielava
karmielavuos
karne
karnis
karo
karos
karou
karoz
karpe
karpienu
kars
kart
karta
kartas
karte
kartena
kartenas
kartiu
karto
kartos
kartu
kartuo
kartuos
kartuote
kartus
karu
karuole
karve
karvedi
karvele
karvelis
karviu
kas
kasa
kasama
kasde
kase
kasi
kasis
kaspe
kaste
kasts
kata
katale
kataluone
kataluonu
katars
katas
kate
katedra
katedras
kateguore
kati
katie
katka
katpiede
katra
katram
katrame
katras
katre
katrie
katro
katron
katros
katrou
katrs
katru
katruo
katruom
katruos
katruose
katrus
kau
kauka
kaukaza
kaukaze
kaukazos
kauke
kaula
kaule
kaulu
kaun
kauna
kaunas
kaune
kauno
kauns
kaup
kaupe
kaupte
kaus
kauska
kauskaite
kauskas
kava
kave
kavis
kavs
kavuojas
kavuoje
kavuole
kavuos
kaz
kazakstana
kazane
kazanes
kaze
kazi
kazime
kazimiera
kazimierou
kazimiers
kazla
kazlauskas
kazlauskis
kazle
kazlu
kazuoka
kazys
kde
kdi
kduomuoje
ke
keen
keimari
keista
keit
keitas
keite
keke
kekies
kel
kela
kelama
kelamase
kelame
kele
keleive
keleiviu
keles
keleta
kelets
keli
keliamases
kelias
keliaun
keliautuos
keliava
kelie
kelio
kelis
keliu
keliuo
keliuone
keliuoniu
kelius
kelly
kelma
kelme
kelmes
kelmi
kelms
kelne
kelps
kelpta
kelpts
kels
kelta
kelte
kelts
keltu
kelve
keme
kempe
kems
ken
kena
kenans
kene
kennan
kennedy
kenshin
kents
kenya
kep
kepala
kepaliu
kepams
kepe
kepenu
kepler
kepore
kepta
keptas
kepte
kerame
keravuo
keravuoje
keravuote
kerbede
kere
kermos
kerpe
kers
kert
kes
kete
ketorake
ketore
ketoriu
ketoriuole
ketorvalakiu
ketu
keturiu
ketve
ketverga
ketverta
ketvirtfinalie
keus
keve
kevic
kevin
kg
khmeru
ki
kia
kiai
kiaulake
kiaule
kiauliems
kiauliu
kiaulpe
kiaune
kiaunuoriu
kiaura
kiaus
kiause
kiausis
kiausiu
kick
kid
kie
kiedaine
kiedainiu
kieje
kieke
kieks
kiele
kieli
kielis
kieliu
kiena
kiene
kienu
kieravuoj
kieravuojams
kies
kieta
kiete
kiez
kijeva
kijuots
kilmies
kim
kimb
kims
kin
kina
kinder
kindz
kine
king
kinga
kings
kiniai
kinis
kiniu
kinke
kinki
kins
kinta
kinte
kints
kintu
kinu
kinza
kio
kioka
kiom
kionke
kios
kiou
kirkize
kirks
kirs
kis
kisa
kistana
kitaro
kiu
kius
kk
kl
kla
klaba
klaipe
klaipeda
klaipedas
klaipieda
klaipiedas
klaipieduo
klaipieduos
klais
klas
klase
klasei
klases
klasie
klasiu
klaus
klausa
klause
klausi
klausomi
klausonte
klausote
klausotiu
klausuoma
klausuomi
klausuos
klave
kle
klebuona
klebuons
kleckus
kleiza
kleme
kles
klestieje
kleva
kleve
kli
kliere
kliete
klimata
klimats
klios
klipa
klis
kliu
klius
klo
kloba
klobe
klobs
klompe
klos
klu
kluba
klubai
klubas
klubs
klubu
kluo
kluods
kluoj
kluoje
kluom
kluone
kluos
km
kminga
knas
kne
kni
knicks
kninga
kningas
kningi
kningu
kninguo
knyga
ko
kobe
koc
koda
kode
kodirkas
koite
koji
koke
koketiu
kokle
kokole
kokoru
koks
kol
kola
kole
kolegija
kolekti
koles
kolks
kolkuoza
kolne
kolnis
kols
kolte
koltu
kolumbe
koma
komand
komanda
komandas
komandu
komanduo
kombari
kome
komede
komerce
komet
komete
komise
komiteta
kompa
kompakte
kompane
kompe
kompis
kompiuteriu
kompoze
kompozituorios
komps
kompu
kompuoze
koms
komune
kon
koncentrace
kond
konde
kondis
kondoule
kondouli
kone
konega
konfederace
konference
konfle
koniai
konke
konkle
konkurse
konsekrouts
konsepsjuons
konstante
konste
konstituce
konta
konte
konti
kontis
kontre
kontri
kontruole
konts
kontu
konys
koorde
kopc
kope
kopli
kopre
kor
kora
korac
korama
korame
koras
kore
korekas
kori
korieje
koriu
koriuo
koriuos
korius
korme
koront
kors
korsos
korta
korte
kortovienu
korts
koruorts
kos
kose
koses
kosi
kosio
kosiu
kost
kosta
kostieje
kota
kote
kou
koude
kouks
koun
koune
kouse
kouta
koute
kove
kovuo
kovuoje
kovuos
koz
kr
kra
krake
krakies
krakiu
krame
krante
kraps
krarajuons
kras
krasis
krati
krauja
krauje
krauji
kraujo
kraukle
kraun
kraus
krauste
krausti
kraute
krautove
krautoviu
kraz
kre
kregz
kreidas
kreive
krekenava
krent
kreps
kres
kresnas
kresnuom
krete
kretinga
kretingale
kretingas
kretinguo
kretinguos
krez
kri
kriauc
kriause
kriautove
kriete
kriks
krint
krioku
kris
kristaus
kristina
kristos
krite
krize
kro
kroate
kroatu
kroll
krone
kronke
kronta
kronte
kronto
kronts
krontu
krontus
krope
kros
kroupa
kroupas
kroupe
kroupiu
kroupu
krousta
krovaini
krove
krs
kru
kruo
kruoate
kruobangas
kruoje
kruokova
kruom
kruone
kruos
kruove
krus
kryz
ks
ksa
ksla
kslas
ksle
kslo
kslos
kslu
ksma
ksmaz
ksmos
ksmu
ksne
kst
ksta
kste
kstont
kstonte
kstontis
kstontiu
kstontius
kstontmete
kstontmetie
kstontmetis
ksts
kt
kta
ktam
ktatu
kte
kti
ktiu
kto
ktom
ktos
kts
ktu
ktuore
ktus
ktz
ku
kuba
kubas
kube
kubuo
kuc
kuinas
kuldi
kule
kuliu
kultu
kumamots
kumet
kun
kunigis
kuns
kuo
kuoc
kuoda
kuods
kuojas
kuoje
kuojha
kuoju
kuojuom
kuojuoms
kuoke
kuoki
kuokio
kuokis
kuokiu
kuokiuos
kuokius
kuoks
kuola
kuolada
kuole
kuoledz
kuolege
kuolekti
kuolektiounoutuos
kuolombe
kuolone
kuols
kuolu
kuoluoge
kuoluone
kuom
kuomanda
kuomandas
kuomandu
kuomanduo
kuombe
kuome
kuomede
kuomerce
kuomise
kuomiu
kuomone
kuompane
kuompiotere
kuompioteriu
kuompleksos
kuompoze
kuompuota
kuompuotus
kuompuoze
kuoms
kuomu
kuonde
kuone
kuonference
kuonfle
kuonga
kuongresa
kuoni
kuonis
kuoniu
kuonko
kuonkorsa
kuonkorse
kuonkorsos
kuons
kuonservatuore
kuonservatuoriu
kuonstante
kuonste
kuonstrokce
kuontakta
kuontruole
kuonu
kuopas
kuope
kuopenhaga
kuopli
kuopu
kuora
kuorale
kuore
kuorieje
kuoriejuo
kuoriu
kuoropce
kuorpuorace
kuorse
kuos
kuose
kuoses
kuosine
kuosme
kuosmosa
kuosmuosa
kuosuova
kuot
kuota
kuote
kuotre
kuotri
kuots
kuotu
kuouorde
kuov
kuova
kuovas
kuove
kuovs
kuovu
kuovuo
kuovuoje
kuovuos
kuovuote
kuovuotuos
kuoz
kupc
kupis
kur
kure
kuri
kuriant
kurini
kurs
kurtinaitis
kurz
kus
kustieje
kute
kv
kvadrate
kvadratiniu
kvale
kvante
kvapa
kvatre
kve
kvepa
kvi
kviedarna
kviedarnas
kviepave
kvietka
kvietkas
kvietkos
kvietku
kw
kys
kz
l
la
laba
labarde
labdara
labiau
labiause
labu
lado
lady
lagumot
lagumuots
lai
laic
laid
laida
laidams
laidas
laidu
laiduo
laiduoje
laiduos
laik
laika
laikas
laike
laiki
laiko
laikoms
laikou
laikras
laiks
laiku
laikuoma
laikuomas
laikuome
laikuomi
laikuoms
laikuos
laikuotarpe
laikuotarpis
laikus
laima
laime
laimiej
laimieje
laimies
laimiete
laimietuoja
laimietuoje
laimietuoju
laimietuos
laiminga
laimings
laine
lainiu
laipsne
laipsni
laipsnis
laipsniu
lais
laisva
laisve
laita
laite
laiva
laivi
laivo
laivos
laivs
laivu
laiz
laje
laka
lake
lakers
lakiu
laks
laku
lale
lales
lama
lamiaceae
lams
lanc
land
lande
landz
lane
language
lanka
lanke
lankele
lanki
lankos
lapa
lapale
lapdraba
lapdre
lape
lapele
lapi
lapielaiz
lapis
lapiu
lapiuos
lapkase
lapkre
lapkriste
lapkristi
lapoutis
lapoutiu
lapouts
laps
lapu
lapus
laris
larix
larry
las
lase
last
late
latgale
latgaliu
latin
latuos
latve
latvele
latvian
latvija
latvijas
latviu
lauc
laugale
lauk
lauka
laukai
laukas
lauke
laukesa
lauki
laukininkai
laukis
laukova
laukovas
laukovuo
laukovuos
lauks
lauksargiu
lauku
laukuona
laukus
laumale
laume
laumiena
laumiu
laums
laura
laure
laureats
lauri
lauz
lava
lave
lavrinovic
lavuore
lavuota
laz
lazane
lazda
lazde
lazdi
lbe
lddp
lde
ldemuokratu
ldi
ldk
ldont
lduoma
le
league
lebede
leciały
leda
lede
ledi
ledo
leds
ledu
ledz
lee
lege
legenda
legendas
legende
lei
leid
leida
leidas
leide
leidi
leidies
leidimas
leidybos
leidykla
leika
leipas
leista
leiste
leists
lek
leka
lekalnis
lekolne
lekolnis
lekse
lekts
lele
lelis
lend
lene
lengva
lengvuoje
lenke
lenkija
lenkte
lenkti
lenku
lentale
lente
lentine
leonas
leps
lervas
les
lesc
lesne
let
letovs
leuonards
leuone
levs
lez
lezu
lff
lga
lgale
lgas
lge
lgede
lgesne
lgi
lgiau
lgiause
lgio
lgis
lgo
lgoma
lgoms
lgos
lgrinda
lgs
lgu
lguoje
lguos
lgus
lhelma
li
lia
liai
liakalne
liakalnis
liau
liaude
liaudes
liaudies
liaus
liause
liausis
liauz
libana
libans
liberalu
libertad
libres
lic
lica
lichtens
liciejos
lie
lieje
liekalne
liekalnis
liekarsta
liekarstos
lieke
lieks
liekte
liektova
liektove
liektovs
liektovu
liekvarsta
liekvarstos
liekvarsts
liekvarstus
liela
liele
lieli
liena
lienu
lies
liet
lieta
liete
lietouvuo
lietov
lietova
lietovas
lietove
lietovems
lietovis
lietoviu
lietovius
lietovos
lietovuo
lietovuos
lietuva
lietuve
lietuvis
lietuviu
lietuvoje
lietuvos
lietuvosfutbolas
lietuvuo
lietuvuos
life
lig
lige
light
ligu
like
lima
lina
linas
line
linge
link
linke
linkes
linkies
linkiu
linksma
linksmi
lins
linux
lio
liob
liobava
liobavs
liobe
lioble
lioce
liodve
lioka
lioksemborgs
liom
lion
lios
lioteruonu
lioub
liouna
liousa
liousas
liouse
liousi
liouso
liousoma
liousoms
liousos
liousu
liousuoje
liousuos
lioute
lioz
lis
lisa
list
lita
literatu
lithuania
lithuanian
lito
little
liturge
liu
liublijanas
liudve
liuob
liuobo
liuoje
liuole
liuoliu
liuone
liuoni
liuoniu
liuos
liuosa
liuose
liuosoma
liuosope
liuosuope
lius
liuteruona
liuteruonu
live
livuone
liz
ljams
ljd
lje
lka
lkal
lkape
lkas
lkave
lke
lkf
lki
lkiens
lkl
lkp
lks
lku
lkuoks
ll
llc
ller
lma
lme
lmies
lms
lmu
ln
lna
lne
lniaus
lnio
lnios
lniou
lnious
lniu
lniuo
lnk
lnou
lns
lo
lobu
loga
loge
logos
lois
loisos
lokne
lokomotiv
loks
loma
lome
loms
lomuos
london
londona
londons
long
longa
lonka
lonkas
lonke
lonki
lonko
lonku
lont
lonte
lopez
lopienu
lord
loreta
los
lose
lost
lot
lote
loti
louba
loubas
louis
louke
louste
louta
loute
lova
love
lovuos
lpe
lpta
lpte
lpts
lr
lrt
lrytas
ls
lsdp
lse
lsiete
lsu
lt
lta
ltas
ltd
lte
ltele
lti
ltis
ltiu
lts
ltsr
ltu
ltuo
ltus
ltv
lu
luce
luciani
ludwig
lui
luis
lukas
luks
luo
luobe
luobis
luodze
luoge
luoke
luoki
luombarde
luombardu
luometru
luona
luonduona
luonduone
luonduons
luone
luopaitiu
luope
luops
luoreta
luos
luosuope
luosuops
luot
luote
luoti
luova
luovas
luove
luovuo
lus
lust
luxembourg
lv
lva
lvarta
lve
lvi
lvis
lvs
lyga
lygas
lygos
lyguo
lyrika
lz
m
ma
mac
maccabi
mace
machine
macijauskas
maciu
madagaskars
made
madrid
madrida
maduona
mafe
magazine
magdeborga
mage
magi
magic
magnete
magte
magti
mahals
maikla
maiklos
maikls
mailios
main
maina
maine
maini
mairuone
mairuonis
mais
maista
maite
majame
maje
major
makaruoni
makaruonu
makaule
make
makedone
makeduone
makeduonu
makers
making
maks
makse
mal
malagas
malaize
malaju
malcolm
malda
malde
maldeikiene
maldeikis
maldu
malduos
male
malgu
malhac
malio
malis
malkas
malone
malos
malta
malu
maluone
maluonoma
malve
mam
mama
mamas
mams
man
mana
manc
mandela
mandz
mane
manga
mani
mania
manke
manku
mano
mansiu
manta
mantas
mante
mants
mantve
mantvi
manu
manuel
manuoma
mao
map
maps
mar
mara
maraje
marc
marce
marcele
marcelios
marcelo
march
marcinkevic
marco
marcus
mare
marele
marga
margai
marge
margi
margininkai
mari
maria
mariah
marie
marija
marijampole
marije
marijos
marina
marino
mario
marios
maris
mariu
marius
mark
marka
marke
marko
marks
markse
marku
markus
mars
marsa
marte
marti
martin
martins
maru
maruoka
mary
mas
mase
masi
masis
masiulis
maskuole
maskva
maskvuo
maskvuos
mass
masta
maste
master
mastis
masto
mat
mata
mate
matemate
matere
mathbb
mati
maties
matoizas
matoizu
matole
matos
mats
matuoma
matuoms
matuoru
matuos
maudi
maun
maure
maus
mave
mavericks
max
maxima
may
maz
mazgos
mazu
mazuove
mbabve
mbare
mbe
mbrada
mbuole
mbuolio
mbuolis
mc
me
mec
mecenats
medal
medale
medali
medaliu
medalius
medaus
mede
medece
medega
medegas
medegu
medelis
medi
media
medie
medies
medingiena
medingienu
medininkai
medio
medis
mediu
medius
medo
medos
medse
medsiede
medu
medve
medviedeva
medviedevs
medviegale
medviegalis
medviez
medvilne
medz
mehoz
meidz
meile
meistros
meiz
mekane
meke
mekse
melage
melaneze
meldas
melde
mele
meliuorace
melne
melni
meluode
memfe
memphis
men
mena
menas
mendes
mene
menie
menka
menkas
menks
meno
menos
mens
mente
menu
mer
mera
mercantil
mere
merga
mergaite
merge
mergele
mergeles
merke
merkele
merki
merkine
mero
mers
mes
mesopotame
meste
met
meta
metais
metal
metala
metale
metalorge
metals
metam
metams
metas
mete
meteuore
meti
metis
meto
metos
metra
metre
metro
metros
metru
metruopuole
metu
metuoda
metuode
metuodos
metus
meu
mexicano
mezge
mfa
mfk
mg
mhz
mi
mia
miami
miause
miausis
miausiu
michael
michai
michel
mickevic
microsoft
middle
mie
miege
miegiama
miegst
mieje
mieji
miekla
miele
mieli
mien
miena
miene
mienese
mienesi
mienesie
mienesiu
mienesius
mienole
mienoli
mienolis
mienou
miera
mierave
mieros
miers
mies
miesiedis
miest
miesta
miestale
miestali
miestalie
miestalio
miestalis
miestaliu
miestas
mieste
miestele
miestelie
miestelio
miestielis
miestis
miesto
miestos
miestou
miests
miestu
miestus
miete
miets
miez
miguel
mijadzakis
mijagis
mije
mikails
mikalis
mike
mikelandz
miki
mikroneze
milan
milana
milda
mile
milijuona
millennium
miller
milos
milta
milte
miltu
miltus
milz
mims
min
mina
mindauga
mindaugas
mindaugs
mine
minesotas
minge
minha
minija
ministere
ministerija
ministra
ministre
ministro
ministros
ministrou
ministru
minki
minks
minneapolis
mins
minsk
minska
minte
minti
mintis
mintiu
minus
mio
mirbeau
mirs
mirta
mis
misr
miss
mit
mitoluoge
mitsubishi
mituoluoge
miu
miunchena
mizerna
mizernas
mizerne
mizerni
mizernu
mizuki
mk
mka
mku
mln
mlrd
mm
mnaze
mo
mobile
moc
mode
moderne
mogaus
moila
moke
moki
mokslas
moksle
mokslo
mokykla
moldave
mole
momis
moms
mon
mona
mondroms
mone
money
monguole
monguolu
moni
monika
monis
moniu
monografija
mons
mont
monta
monte
montepaschi
monthly
montiene
montreal
monts
moon
more
morgan
morku
mos
moscow
mose
mosi
mosieta
mosinta
mosis
moskola
moskolu
mosme
mosolmuona
mosolmuonu
mote
moteru
motiejus
moto
motor
mou
mousiede
mouts
movie
moz
mozambe
moze
mozieje
moziejos
mozieju
mozu
mp
mpa
mpe
mpeles
mpere
mpresiuone
mps
mr
ms
mt
mta
mte
mtmete
mtmetie
mts
mtu
mtuoje
mtv
mu
muh
mukiene
mumis
mums
mundo
muo
muobe
muocka
muode
muodele
muodelis
muoderne
muogaus
muoge
muogo
muogom
muogos
muogou
muogu
muogus
muogz
muoje
muok
muoka
muoke
muoki
muokieje
muokies
muoks
muoksla
muoksle
muokslos
muokslou
muokslu
muokslus
muokykla
muola
muole
muoli
muolietu
muolis
muoliu
muome
muona
muonarke
muone
muones
muonetas
muoni
muoniem
muonim
muonims
muonis
muoniu
muonou
muons
muonts
muonu
muonuogrape
muonuos
muorale
muorave
muore
muorka
muorke
muorku
muos
muose
muosiede
muosiedie
muosiedis
muosta
muoste
muota
muote
muotere
muoters
muoteru
muoti
muotie
muotiejos
muotina
muotinas
muoto
muotre
muots
muotu
muotuore
muoz
muozu
murder
mus
music
musical
musinta
musulmuonu
muze
muziejos
mvp
mw
my
myspace
mystery
mz
n
na
nab
nabas
nabe
nabgi
nabova
nabu
nace
nacional
nacionale
naciu
naciuonale
nade
nae
nafta
naga
nagal
naganas
nagasakis
nagi
nagre
nai
naike
naite
najwaz
nakala
nakalame
nake
nakelame
naks
nakte
nakti
naktis
nakve
nala
nale
nali
nalie
nals
nam
nama
namas
namaz
name
nami
namibe
namo
nams
namu
namus
nane
nanse
nansu
naone
naoz
nape
napre
napri
naprigolnoma
naps
napta
naptas
naptuos
nara
naras
narbote
nare
nari
narie
nario
nariu
narkuote
narote
nars
narte
naru
nas
nasa
nase
naskigxo
nasose
nat
natale
nate
national
nationale
nations
natiuonale
nato
nator
natora
natorieje
natu
natuole
nau
nauda
naude
naudingiausis
nauduo
nauduojama
nauduojame
nauduojami
nauduojams
nauduoje
nauduojont
nauduon
nauduonama
nauduonamas
nauduoname
nauduonams
nauduot
nauduota
nauduotas
nauduote
nauduots
naudvaris
naugarda
nauja
naujadvaris
naujake
naujakiemis
naujalaukis
naujas
naujase
naujasiede
naujasis
naujasodis
naujasodz
naujasuode
naujasuodis
naujasuodne
naujause
nauje
nauji
naujieji
naujiena
naujienos
naujininkai
naujoji
nauju
naujuoj
naujuoje
naujuoji
naujuojuo
naujuoka
naujuoku
naujuos
naujuose
naujuoses
naujuove
nauka
naukaime
naukaimis
nauks
naumieste
naumiestis
nauru
naus
nausieda
nausuodne
nava
navas
nave
navikai
navs
navu
navuo
navuojama
navuojamas
navuojame
navuojami
navuojams
navuoje
navuonama
navuonams
navuot
navuota
navuote
navuots
naz
naze
nba
nbdl
nborgs
nc
nca
ncaa
nce
ncentava
ncia
ncos
nd
nda
ndaeuruope
ndams
ndante
nde
ndiena
ndine
ndiniu
ndo
ndole
ndor
ndra
ndrave
ndre
ndri
ndriu
ndros
ndruove
ndruoviu
nds
ndu
nduorio
nduorios
ndve
ne
neapuole
neatse
neaug
neauks
nebe
nebgalieje
nebgi
nebier
nebl
neble
nebova
nebove
nebu
nec
nedali
nedaug
nede
nediele
nedielie
nedieliu
nedouk
nee
negal
negali
negalieje
negalio
nege
negera
negi
nego
negra
nei
neigama
neis
nejied
neka
nekap
neke
nektara
nelaime
nele
neleid
neli
neliu
neliuob
nelly
nelson
nem
nemaz
neme
nemenc
nemiez
nemona
nemons
nems
nemunas
nemuokama
nencu
nendre
nenuor
neoguote
neoz
nepaisont
nepal
nepala
nepale
nepase
nepate
nepateka
nepavi
nepre
nepriete
nepriklausomi
neptu
nerale
nere
nereikieje
neri
neringa
neringas
ners
nerve
nervs
nervu
nes
nese
nesene
nesi
nesonke
nesopronto
nesose
net
nete
neteka
netge
netor
netorieje
nets
netuol
netuole
network
networks
neva
nevadas
nevarienu
neve
never
nevi
neviez
nevuote
new
news
nez
nfuormace
ng
nga
ngale
ngales
ngas
ngaudu
nge
ngele
ngi
ngiause
ngiausis
ngiausiu
ngiena
ngla
ngls
ngo
ngoma
ngoms
ngos
ngre
ngs
ngta
ngte
ngts
ngu
nguo
nguoje
nguos
ngus
ngva
ngve
ngviau
ngvos
ngvuoje
nhl
ni
nia
niai
niajam
niajame
niam
niame
niams
niasklaidas
niau
niaus
niause
nica
nick
nicolas
nie
nieje
niejsze
nieka
niekam
niekor
nieks
niekus
niele
nielis
nieliu
niem
niems
niena
niene
nienu
nier
nierios
nies
niesparne
niete
niets
nietuos
nigere
nigerio
night
nija
nijigata
nijole
nika
nike
nikita
nikomet
nikos
niks
niksa
nikuoke
nikuokiu
nikuokiuos
nilsen
nima
nimaz
nims
nina
ninc
nine
ninga
nings
ningu
ningus
ninka
ninkai
ninke
ninkele
ninki
ninko
ninkou
ninks
ninku
ninkus
nio
niojuorka
niojuorke
nioks
nios
niotuons
niou
nippon
nis
niu
niujuorke
niuo
niuobe
niuojas
niuoje
niuos
niuote
nius
nive
niyaz
nk
nka
nkama
nkams
nkas
nkave
nke
nki
nkiause
nkieje
nkies
nkis
nkiu
nkl
nkla
nklapis
nkle
nklo
nklope
nklopie
nklopis
nklos
nkloute
nkls
nklu
nko
nkonte
nkos
nkou
nks
nksmakolnis
nkt
nkta
nktadieni
nkte
nkti
nktine
nkts
nku
nkuo
nkuoniu
nkuos
nkus
nkvd
nm
nmete
no
noble
nociu
noe
nogara
nogaras
nogare
nogaruo
nogaruos
nok
noka
noke
nokre
nokri
nole
noma
nome
nomerio
nomos
noms
nomu
nomus
noni
nont
nonte
nontis
nontiu
nope
nopis
nord
nordea
nore
norge
noriu
norku
nors
norvege
norway
norwegian
nos
nose
noskre
nosos
nospre
nostate
nostati
not
notanga
notare
note
noti
notiu
nou
nouge
noute
nova
novaz
nove
november
novo
now
noz
np
nr
nrk
ns
nse
nska
nske
nskis
nskos
nso
nste
nstrace
nstromenta
nt
nta
ntaka
ntaks
ntale
ntam
ntama
ntara
ntars
ntas
ntave
nte
ntele
ntelis
ntes
nti
ntie
ntinta
ntints
ntis
ntiu
nto
ntope
ntopis
ntos
ntou
ntr
ntra
ntragiu
ntras
ntre
ntro
ntros
ntrs
ntru
nts
ntspe
ntu
ntuo
ntuoje
ntuoju
ntuoriaus
ntuoriou
ntuos
ntuose
ntus
ntvare
ntvaris
ntve
nu
nug
nugalieje
nugalietuoja
nugalietuoje
nugalietuos
nuggets
nukri
numa
numare
numerio
numu
numus
nuo
nuobele
nuog
nuogne
nuogniause
nuoje
nuojuom
nuoke
nuokst
nuolate
nuom
nuoma
nuomas
nuome
nuomi
nuomiause
nuomiausiu
nuoms
nuomu
nuor
nuora
nuore
nuori
nuorieje
nuorint
nuorinta
nuorka
nuormu
nuoront
nuors
nuoru
nuorva
nuorve
nuorvega
nuorvege
nuorvegu
nuorvi
nuos
nuose
nuota
nuote
nuoti
nuotienu
nuotrele
nuotri
nuots
nuougru
nuova
nuove
nuovele
nuovs
nuruodi
nus
nuse
nuspre
nusprende
nustati
nutare
nute
nutrauke
nutuole
nuverte
nuz
nvale
nventuoriou
nyc
nz
o
oara
obale
obele
obelis
objekta
objekts
objektu
octave
oddział
ode
odi
odynas
odz
oez
of
ofe
office
official
officinalis
ofice
oficiale
oficiali
oficialos
og
ogalvis
oge
ogne
ogni
ognis
oh
oi
oita
oje
oji
oka
okajama
okay
oke
okeane
okinava
okinavas
okiu
oklahoma
okmergie
okmergies
okrae
okraina
okrainas
okraine
okrainuo
okre
okupace
ola
olande
olandu
olava
old
ole
olho
oli
olimpe
olimpia
olimpiadas
olimpija
olimpijaduo
olimpinies
olimpinis
olimpiniu
olis
oliver
olivera
olne
oltraviuolete
olympiacos
om
oma
ome
omera
oms
omu
omuo
omz
on
ona
onale
onc
onda
onde
ondene
ondeni
ondenie
ondenio
ondeniou
ondens
ondenski
ondenu
ondou
ondre
one
onele
onga
onge
ongl
ongla
ongle
onglu
ongore
oni
onis
onks
onkste
onkstesne
onksti
onkstiau
online
onros
onru
ons
onsa
onsktiau
onsons
ont
onta
ontale
ontana
ontans
ontare
onte
ontez
ontkalne
ontr
ontra
ontradeini
ontram
ontras
ontrasis
ontre
ontro
ontros
ontrs
ontruo
ontruoje
ontruoji
ontruos
ontruose
onts
ontsparne
ontuone
ontuons
onu
onuo
onuos
onys
opale
opalis
opaliu
ope
opec
opel
opele
open
opera
operace
operas
opes
opi
opie
opieks
opies
opiesmos
opis
opiu
ops
opte
or
ora
orbane
ordans
orde
order
ordo
ordz
ore
org
organe
organizace
organization
ori
oriental
original
orlanda
orlando
orlean
ornala
ornale
ornals
ornalu
oro
oroma
oroms
orthotrichum
orvu
os
osaka
oscar
ose
osete
osiena
osienu
oskara
oslo
osmanu
osne
osoby
oste
ot
ota
ote
otena
otenas
otenuos
other
otis
otu
ou
oudega
oudegas
oudra
oudras
ouga
ougas
ouge
ougi
ougu
ouks
oula
oule
ouli
ouls
oulu
ous
ouse
ousi
ousis
ousta
oustamiestis
ouste
ousts
oustu
out
oute
ouz
ova
ovas
ove
ovele
over
ovi
ovio
ovis
oviu
ovu
ovuo
ovuos
owlanglu
oz
ozbe
ozbeke
p
pa
paais
paauga
paaugle
paauks
pab
pabaiga
pabaiguo
pabaiguos
pabale
pabaliai
pabares
pabe
pabenguo
paberz
pabiega
pabiegte
pablo
pabonguo
pabonguos
pabre
pabriez
pabu
pabudavuota
pac
paca
pacers
padabne
padale
padalinta
padara
padare
padari
padauge
padave
pade
paded
padieje
padiete
padieti
padobi
padomble
padove
padre
padu
paduviete
padvare
padvariai
padvarninka
padvarninkai
pae
paez
paga
pagada
pagal
pagame
pagaminte
pagarba
pagards
pagardu
pagarsieje
page
pagelba
pagelbas
pagelbe
pagelbie
pagelbieje
pagere
pagerve
pagi
pagie
pagiege
pagiegiu
pagiriai
pagnani
pagodinho
pagramonte
pagrauz
pagre
pagri
pagrinda
pagrinde
pagrindine
pagrindinis
pagru
paguone
paguoni
paguoniu
pai
pais
paisa
pajamas
pajamu
paje
pajevuone
pajiegas
pajieme
pajimte
pajonge
pajoste
pajoudope
paju
pakaite
pakale
pakalis
pakalne
pakalniai
pakalnis
pakape
pakaus
pake
pakeista
pakeit
pakeite
pakelies
pakeliu
pakelte
pakene
paki
pakiele
pakliova
pakliu
pakolne
pakoune
pakounis
pakras
pakraz
pakre
pakri
pakronte
pakrontie
pakronties
pakrouje
pakroz
pakruoje
paks
paksos
paku
pakuol
pakve
pala
palaida
palaiduots
palaika
palaike
palaiki
palaima
palangos
palau
palauke
pale
palemuona
palente
paleste
pali
palis
palm
palma
palme
palmone
palokne
palokni
palonga
palonge
palonguo
palonguos
pals
palte
palu
paluoce
paluociu
paluoki
pamac
pamaldas
pamare
pamata
pamate
pamati
pamats
pamaz
pame
pamede
pamedies
pamediu
pamesa
pami
pamiekle
paminkla
paminklos
paminklu
pamis
pamos
pamu
pan
pana
panaike
panama
panas
panathinaikos
panauduoje
pandeme
pane
panele
panemone
paneve
paneviez
pantee
panuos
paolsi
paope
paopi
paopiu
papa
paparte
papartis
pape
papile
papis
papjuovus
paple
paplu
papluoks
papos
papous
papras
paprasta
paprastas
paprasti
paprastiause
paprastiausis
paprastos
paprasts
paprastu
paprastuoje
paprate
papru
papruote
papruoti
papruotius
papua
papus
par
para
paragvajaus
paragvaje
paragvajos
parakve
paramuos
paranas
parape
paras
paraz
paraze
pardave
parde
pardoud
pardoudama
pare
pareigas
pareigi
pareigu
pareiguoje
pareis
pareje
paremta
parenge
pargi
pargolde
pargoldi
pargri
pari
paribas
parieme
paris
park
parka
parke
parkelta
parkelte
parkelts
parker
parks
parku
parlame
parlamenta
parlamente
parlaments
parnes
parobez
parous
pars
parse
parstuoje
part
parte
partek
participac
partija
partizan
partizans
partnere
partoprenanto
paru
paruoda
paruode
paruodi
paruos
parvade
parvaz
parve
parversma
parvez
parz
pas
pasa
pasak
pasaka
pasake
pasaki
pasaku
pasakuo
pasakuojama
pasakuoje
pasaul
pasaule
pasauli
pasaulie
pasaulio
pasaulis
pasaulyje
pase
paserbe
pasibe
pasidale
paside
pasile
pasime
pasiotose
pasipri
pasiras
pasire
pasirink
pasiruod
pasiruode
pasiruodi
pasitrauke
pasiu
pasiz
paskate
paske
paskelb
paskelbe
paskelbta
paskelbte
paskelbts
paskerdu
paski
paskiau
paskiause
paskle
paskom
paskote
paskou
paskum
paskuolas
paslapte
paslaugas
paslaugu
pasle
pasme
pasmerke
pasninka
pasninks
pasok
paspru
pasrouje
passat
past
pastaba
pastata
pastate
pastati
pastats
pastatu
pastebieje
pastuove
pasvale
pasvali
pasve
pat
pataisi
patale
patamp
patapa
patas
pate
pateike
patek
pateka
patekte
patele
patem
patenk
pates
pathways
pati
patiam
patinga
patink
patio
patis
patiu
patiuo
patiuos
patius
patre
pats
patsa
patuoriu
patve
patvirtins
patvirtints
pau
pauge
pauks
paul
paula
paulauskos
paule
pauliaus
paulikas
paulios
paulius
paulo
paulos
pauls
pava
pavade
pavadi
pavadinta
pavadints
pavadoutuos
pavaduotuos
pavandene
pavarde
pavardie
pavardies
pavarge
pavasare
pavasari
pavasarie
pavasaris
pave
paveikslos
paveiziete
pavelda
pavelde
pavels
paverte
pavi
pavidaujys
pavirs
pavondene
pavuoje
pavuojings
pavuoju
payne
paz
paze
pc
pdf
pe
pec
pedaguoge
pedaguogs
pedra
pedro
peilis
peke
pekins
pekla
pela
pele
peleka
pelena
pelene
pelenu
peletru
peliednagiu
pelieve
pelke
pelki
pelkiai
pelkies
pelkis
pelkiu
pelne
pempe
penke
penkts
pense
penutiu
people
per
perdave
pere
perenie
perfect
perfume
pergale
pergaliu
periuode
periuods
perke
perku
perle
perluoje
permadeini
permadieni
perme
permes
perna
pernarava
pernaravas
pernaravuos
perni
pernu
pero
peron
perona
pers
perse
persikiel
persikiele
personaz
perspekti
persu
persuonaz
peru
pes
pesime
pesos
pestio
pete
petele
peter
peterborga
peterborge
peterborgs
peterburga
petiole
petiu
petku
petra
petraic
petrape
petras
petrauskas
petre
petrikas
petro
petros
petrovic
philip
php
pi
piane
picea
pieda
piedas
pierre
pies
pietre
pietri
pietu
pigu
pikc
piktz
pil
pile
pili
piliakalnis
pilka
pilke
pilks
pilkuos
pilsen
pilte
piltis
pimp
piningu
piningus
pink
pinte
pinus
pinyin
piriej
pirieje
pirks
pirma
pirmos
pirs
pis
pistons
pjaun
pjaus
pjaute
pjautova
pju
pl
plai
plana
planave
plane
planeta
planetas
planetu
planetuo
plans
plantago
plas
plastmase
plata
platas
plate
platele
plateliu
platesne
plati
platiau
platiause
platoma
platoms
platomu
platos
platu
platuons
plauk
plauka
plaukale
plauke
plaukele
plaukouti
plaukte
plauku
plaukus
plaus
plauske
plaute
plautiu
play
plazmas
ple
plec
plenta
plents
ples
pli
pliaz
plies
pliete
plietra
plietruos
plieve
pliks
plinks
plint
plintu
pliste
ploks
plonge
plongie
plonksnas
plonksne
plonksnu
plonksnuom
plotas
plote
plous
plu
plunge
pluoks
pluomats
pluona
pluone
pluons
pluota
pluote
pluoti
pluotis
pluotkele
pluotmie
pluots
pluotu
pluotus
plytine
po
poaceae
poardoud
poble
poc
pociu
pocius
poema
poets
poeze
poezija
poike
poiki
poikiause
poikos
pol
pole
poli
police
polineze
polis
polite
politeiste
politekne
polka
polks
polonija
polsce
polska
polte
polygonaceae
pomorskie
pompora
pondiele
ponkts
ponska
ponta
pop
popa
popale
popas
pope
poplais
popolere
popu
population
popule
populiariausiu
popz
por
pore
pornos
porple
port
portals
porte
portlend
porto
portugale
porva
porve
pos
pose
posfe
posiasale
posiasali
posiasalie
posiasalis
posiau
posiauje
posie
posiu
poslape
poslapis
poslapiu
posri
posrotolie
post
pote
potpalake
potra
potter
poude
poudi
pouds
pouka
pouke
poul
poule
pous
povilas
power
powerpc
poz
poze
pozice
pozicijuo
pp
pr
pra
prade
praded
pradedont
pradie
pradiej
pradieja
pradieje
pradiejos
pradies
pradieta
pradietas
pradiete
pradiets
pradiou
pradiu
pradiuo
pradiuos
pradz
prae
praeiti
praeities
praeje
prage
pragi
prahas
prait
praka
prakaita
prakte
pralaimiej
pralaimieje
prale
praleid
praleida
praluos
prame
pramuoge
pramuone
pramuones
pranas
pranc
prance
prancis
prancoze
prancu
pranes
prans
prarada
prari
pras
prase
praside
prasided
prasidie
prasidieje
prasme
prasmies
prasta
prate
pratek
pratybu
prauda
prausas
pravarde
pravardie
pravaslavu
pravaz
pravda
prave
praz
pre
prefektu
preke
preki
prekiu
preme
premjers
premjiera
premjiers
president
press
presse
preste
prestiz
preze
prezide
prezidento
prezidents
prezydenckim
pri
priartie
priausiu
pride
prided
pridiete
prie
prieje
priekule
pries
priesku
priete
prietele
prieteli
prietelio
prietelios
prietelis
prieteliu
prievartas
priez
prigaute
prige
prigol
prigole
prigolons
prigolonte
prije
prijimta
priklaus
priklausa
priklause
prime
prince
pripaz
pris
prise
prisidieje
priske
pristati
pritaiki
prive
privilege
prix
priz
pro
proc
prodi
prodiusere
productions
profese
profesuorios
profile
programa
programave
project
prokom
proporce
pros
prove
province
provincia
provincije
pru
prunus
pruo
pruoc
pruoce
pruocesa
pruocese
pruocesos
pruodioseris
pruodokta
pruodokts
pruodoktu
pruofe
pruofese
pruofesuorios
pruofilis
pruoge
pruogimnaze
pruogomu
pruograma
pruogramas
pruogramave
pruograme
pruogramu
pruoje
pruojekta
pruojekte
pruojekts
pruojektu
pruope
pruopers
pruopese
pruota
pruote
pruotesta
pruotestantu
pruotiu
pruots
pruove
pruovince
pruoza
pruoze
ps
pse
psl
pta
ptas
pte
pts
pu
public
publicistiko
publique
published
publishing
puc
pueblo
puerta
puerto
punjab
puo
puobu
puocios
puode
puodz
puoe
puoema
puoemas
puoete
puoets
puoetu
puoeze
puoge
puogi
puogropiou
puogrupis
puoki
puokininc
puola
puole
puoliejaus
puolieje
puolite
puoluocka
puona
puonda
puone
puons
puonu
puop
puope
puopi
puopierios
puopiez
puopole
puopolere
puopoliare
puora
puoras
puore
puorna
puornuogrape
puort
puortals
puorte
puortegrape
puortogale
puortogalu
puoru
puos
puose
puosta
puote
puotence
puotere
puoteris
puove
puovi
puoz
puoze
puozice
pus
pusfinalie
pusie
puslapis
pussy
putina
putinou
putins
puz
pvz
q
que
queen
quest
r
ra
rac
race
rada
radas
radcliffe
rade
radies
radijas
radio
radis
rados
radose
radve
radvilis
radz
rafael
raga
ragana
raganas
raganu
ragava
rage
ragova
ragove
rags
ragu
ragus
rai
raida
raide
raidie
raidiem
raidiu
raiduos
raiffeisen
railis
raimundas
rain
raine
rainiu
rais
raite
raiti
raj
rajona
rajonas
rajuon
rajuona
rajuone
rajuoni
rajuono
rajuons
rajuonu
rajuonus
raketu
rakonda
rakondams
rakondos
rakonds
rakondu
rakondus
raks
rakta
rale
ralis
raliu
ram
rama
ramas
rame
rameje
rami
ramiajam
raminta
ramioje
ramiuoje
rammstein
ramo
ramoje
ramole
ramone
ramoniele
ramos
ramosis
ramote
rams
ramu
ramuc
ramuona
ramuone
ramuos
rand
randams
randas
rankagva
ranunculaceae
raps
raptors
ras
rasa
rasala
rasas
rase
raseine
raseiniu
rasiet
rasieta
rasinta
rasiu
raske
rasta
raste
rasts
rasu
rata
rate
ratio
ratiu
rats
ratu
ratus
rau
raude
raudiena
raudienu
raudone
raudonuoje
rauduona
rauduonas
rauduondvare
rauduondvaris
rauduone
rauduones
rauduoni
rauduons
rauduonu
rauduonuoje
rauduonuos
rauge
rauks
raun
raus
rausva
rausvi
raute
rava
rave
ravs
ray
raz
razauskis
razma
razoltatos
rb
rba
rbaidz
rbala
rbale
rbalis
rbama
rbamas
rbame
rbami
rbams
rbe
rbi
rble
rbont
rbonte
rbontios
rbs
rbt
rbta
rbtas
rbte
rbtom
rbts
rc
rche
rd
rda
rde
rdi
rdie
rdis
rdiu
rds
re
reakce
real
reale
reali
rec
recordings
records
red
redagava
redaktuore
redaktuorios
rede
redz
reedition
refuorma
refuormace
refuormas
refuormatu
rega
rege
regi
regijuona
regijuone
regijuonos
regijuons
regijuonu
regijuonus
regina
regio
regiona
regiuons
regole
regolere
regoliariajame
regular
reikalu
reikieje
reikiete
reikint
reikloms
reiks
reina
reis
reivi
reje
rekete
rektuorio
rektuorios
rekuorde
rele
relige
relikve
rem
remas
reme
remigijus
remix
remixes
renava
rene
renesansa
renesansos
renge
renk
renkame
renkams
renkas
rentgena
repa
replicas
report
represe
reps
repu
republic
republika
res
resorsu
respoble
respublika
respublikas
respublikos
reta
rete
retiau
retiause
retrieved
rets
retsi
review
revoliuce
revuolioce
rez
reze
rezoltata
rezoltats
rezoltatu
rezultati
rezultats
rga
rgaila
rge
rgte
rgu
rgz
ri
ria
riai
riams
rias
riaus
riausi
riausis
riausiu
riausni
ribeiro
ric
rica
ricardo
richard
richards
rico
ride
rie
rieda
riede
riedi
rieje
rieju
rieki
riele
rieli
rieme
riena
ries
rieva
riez
rigve
rika
rikoito
riks
rima
rimantas
rimas
rimini
rims
rimta
rimu
rine
ringe
rini
rinietuos
rinis
riniu
rinius
rinka
rinkas
rinke
rinki
rinkini
rinkte
rinktine
rinktinie
rinkts
rinte
rio
riom
rios
riou
riquelme
ris
rita
ritchie
rite
riteriai
ritu
riu
riuo
riuogsa
rius
river
rk
rka
rkals
rke
rki
rkle
rks
rkte
rla
rle
rm
rma
rmade
rmam
rmas
rmasa
rmase
rmasis
rme
rmgrauz
rmi
rmiause
rmininka
rmininks
rmo
rmoujo
rms
rmu
rmuo
rmuoje
rmuoji
rmuojo
rmuos
rmuose
rmuoses
rmus
rna
rnaja
rne
rnele
rni
rnis
rniu
rnius
ro
road
robe
robert
robertas
roberto
roberts
robez
robin
roble
robotics
rock
rockets
roda
rodake
rodame
rodas
rode
rodene
rodeni
rodi
rodne
rodou
rods
roduom
roduos
roge
rogiu
rogius
rogpju
rogsieje
roka
rokava
rokave
rokis
rokoujamas
rokoujas
rokoujonte
rokoun
rokounama
rokounamas
rokounas
rokouns
rokoute
roks
rokuonas
role
rolis
rom
roma
roman
romano
romante
romanu
romas
rome
romone
romowe
roms
romune
romuo
romuva
ron
ronaldinho
ronaldo
rond
rondas
ronga
rongti
ronka
ronkas
ronke
ronkena
ronkras
ronku
ronkuom
ront
ronte
ronti
rontis
roop
rope
ropis
ropkalve
rops
ros
rosa
rosaceae
rose
rosi
rosienu
rosiu
rosne
roso
rosos
rosu
rota
rote
rotke
rotole
rou
rous
rouz
rowling
royal
roz
rp
rpe
rple
rpst
rpte
rr
rs
rse
rske
rsnemone
rsnemones
rsssf
rst
rsta
rstas
rste
rsti
rstuoma
rstuomas
rstuoms
rt
rta
rtadeini
rtas
rte
rtfe
rti
rtinga
rtingu
rtints
rtis
rtoma
rtove
rtovie
rts
rtu
rtuos
rtuove
rtus
ru
ruanda
rube
ruben
rubez
rudnia
rudolf
rudz
rugpju
rugse
ruku
rums
rumune
rungti
rungtyniu
ruo
ruoberts
ruobuota
ruobuote
ruobuotu
ruod
ruoda
ruodas
ruode
ruodi
ruodoms
ruodu
ruoduo
ruoduoma
ruoduos
ruoka
ruokave
ruoke
ruokenruola
ruokoun
ruokounas
ruoks
ruoku
ruolonds
ruom
ruoma
ruomana
ruomane
ruomans
ruomante
ruomanu
ruomas
ruomiena
ruomienu
ruoms
ruomuo
ruonas
ruone
ruonis
ruonu
ruope
ruople
ruos
ruota
ruotole
ruotos
ruots
ruoz
rupert
rurouni
rus
rusa
ruse
russia
russian
rusu
ruz
rva
rvas
rve
rvi
rvis
rvu
rvuo
rvuona
rvuone
rvuonu
ryguos
rys
rytas
ryte
ryts
rz
rze
s
sa
sabale
sabonis
sabuonis
sadu
saga
sage
sai
saint
saitama
saka
sakala
sakalai
sakale
sakas
sakau
sake
saki
sakme
sakont
sakrame
saksuone
saku
sakuoma
sala
salaka
salamanka
salaru
salas
salde
saldos
sale
sali
saliamuona
salix
salome
saloniku
salonta
salontu
salu
saluo
saluone
saluoniku
saluos
saluose
saluotas
saluote
salvador
sam
samanas
samane
samanu
samauka
samave
sambrieks
same
sami
samiu
samogitia
samuel
samuoa
samuodu
san
sanah
sande
sandra
sandrauga
saned
sangru
sangue
sankce
sankt
sanskre
sanskrita
sanskrito
santa
santaka
santakas
santander
santandera
santara
santarve
sante
santi
santiago
santjags
santo
santos
santrompa
sap
sape
sapiens
saportas
sarah
sarake
sarape
sardine
sare
sarge
sarkozy
sarmata
sarmatas
sarmate
sarte
sartu
sas
sata
satas
satchmo
sati
sativa
satku
sau
sauda
saudo
saug
sauga
saugas
sauge
saugielauke
saugoma
saugomu
saugs
saugu
sauguoje
sauguote
saule
saules
saulie
sauliegri
sauliegro
saulietas
saulieteke
saulietu
saulios
saulius
saus
sausa
sausainius
sause
sausi
sausie
sausis
sauslauke
sauslaukis
sausomuos
sausos
sausu
sausuos
sausve
sav
sava
savaime
savaite
savaitras
savaivaldi
savanu
savaranke
savaronke
save
savei
savi
savis
savivaldi
savivaldybe
savo
savuoka
savuokas
savuote
sbt
sc
scanwind
sce
scenare
scenas
school
sciences
scotiabank
scotland
scotty
sdes
se
sean
search
season
seb
secret
seda
seduos
seibutis
seima
seime
seims
seinu
sek
seke
sekies
sekmade
sekmadeini
sekonde
sekonte
sekretuore
sekretuorios
seksa
seksoale
seksos
sektuorios
sekunde
selekce
self
selva
sem
seme
semenis
seminare
sen
sena
senadvaris
senamieste
senamiestis
senas
senase
senasis
senata
senaz
sendvare
sene
senegalo
senegals
seni
seniau
seniause
seniausis
seniausiu
senieji
senione
seniu
seniune
seniunijuo
senka
senkape
senobe
senoji
senoma
sens
sensational
sent
sente
senu
senuobe
senuobie
senuoje
senuos
senuose
senuove
senuoves
senuovie
separate
septe
septi
septints
sera
serbe
serbu
sere
serebro
seredios
seredious
sereduo
serena
serg
serge
sergei
sergiejos
seriale
serials
series
sers
sese
sesele
seven
sex
sezuon
sezuona
sezuone
sezuonou
sezuons
sga
sge
shadowplay
sherlock
sho
short
show
si
siam
sias
siaura
siaure
siauresne
siauri
siauris
sibe
sicile
side
sidharta
sidieste
sidniejaus
sie
sied
siede
siedieje
siediete
siej
siejams
sieje
siek
siekla
sieklas
sieklu
siekme
siekminga
siela
siele
siemens
siena
siene
sieras
sierc
sierios
sies
siete
sije
siku
sileze
silk
silke
silva
silvio
simas
simbolis
simonas
simone
simpate
simpson
simpuone
sin
singa
singapu
singi
sinta
sintete
sinteze
sio
sios
siove
sir
sire
sireika
sis
siste
sistema
sistemas
sistemuo
sisters
site
situace
siu
sius
siuvinis
siz
size
sk
ska
skaic
skaistge
skaita
skaitas
skaite
skaiti
skaitle
skaitliaus
skaitliave
skaitlio
skaitlios
skaitliu
skaitont
skaituoma
skaituoms
skaituos
skalaun
skalaute
skalbe
skale
skalse
skalve
skande
skane
skarde
skas
skate
skateba
skaud
skaude
skaudieje
skaudve
skausma
skausmos
ske
skelb
skerde
skerdios
skersa
skersabale
skersmene
skersmens
skersmou
ski
skie
skiete
skietius
skirpstos
skirtinga
skiu
skle
skli
skliauste
skliaustu
skoja
skoje
skolptu
skolptuorios
skomb
skon
skonde
skonto
skopa
skope
skopi
skopo
skops
skopu
skos
skotis
skou
skouda
skoude
skouds
skrabe
skraid
skraidi
skraidiuo
skre
skrend
skri
skribo
skronde
skrondis
sks
sku
skuo
skuoda
skuola
skuole
skuone
skuoni
skupe
skvarma
skvarmas
skvarmava
skvarmave
skvarmu
skynimai
sla
slabada
slabne
slama
slanda
slande
slanina
slapi
slapta
slas
slava
slave
slavs
slavu
sle
sleep
sli
slie
sliege
sliene
slieni
slienie
slienis
slieniu
slis
sliu
slouksne
slouksnis
slovake
slove
sloviene
slu
sluone
sluova
sluovake
sluoviene
sluovienu
sluovs
sma
smage
smagenu
smaile
smailos
smale
smalka
smarke
smarkiause
sme
smerte
smerti
smerties
smetana
smetuona
smetuonas
smetuono
smie
smiele
smilgiai
smilti
smith
smolke
smolki
smolkiu
smolkius
smolkos
smolku
smu
smuoka
smuolenska
sna
snapa
snaps
snc
sne
sniu
snow
so
soauge
soaugosiu
sobac
sobate
sobe
sobjekta
sobre
sobronde
sobu
soc
soccerway
soce
social
sociale
society
sodale
sodali
sodar
sodara
sodare
sodari
sode
sodege
soderve
sodieje
sodiete
sodieti
sodz
soe
sofe
softdisk
software
sogalvuoje
soge
sogeb
sogebieje
sogol
sogole
sogri
sogriuove
soje
sojied
sojieme
sojieste
sojimts
sojongta
sojongte
soju
sok
sokalta
sokas
soke
sokel
sokelte
sokiele
sokli
sokorta
sokortas
sokorte
sokorts
sokraun
sokraus
sokrauti
sokre
sokrom
sokros
soks
sokte
soku
sola
solanaceae
solauke
sole
soli
solinde
solo
solomon
solp
solpte
solte
soltis
som
soma
somais
somaz
some
somedieje
somet
somi
somos
somuos
sonaike
sondisko
song
songaila
songs
sonke
sonkiu
sonkiuoje
sonko
sonkoma
sonkoms
sonkos
sontakas
sonti
sonuoke
sop
sopapraste
sope
sopi
sopjausti
soples
soprano
soprantams
sopraste
soprata
soprate
sopront
sor
sorada
soras
sorasta
soraste
sore
soregoliouta
sorenge
soriedi
sorve
sos
sose
sosidara
sosided
sosieda
sosirenk
sositare
soskaidi
soske
soski
soskis
sostabdi
soste
sostuoje
sotaisi
sotamp
sotare
sotarte
sotarti
sotartie
sotartis
sote
soteike
soteikta
soteiktas
soteikts
sotek
sotekieje
sotre
sotrompe
sotve
sou
soumane
soume
soumene
soumiu
sound
souorgane
soute
south
sovaide
sovalke
sovalku
sovaz
sove
sovietu
soz
sp
spa
space
spale
spali
spalio
spalva
spalvas
spalve
spalvu
spalvuos
spana
spane
spangoule
spanu
sparebank
sparebanken
sparna
sparniu
sparnu
sparnus
sparte
sparxxx
spauda
spaude
spauduo
spauduos
spausde
spaustove
spe
spece
special
speciali
speigs
spektra
sphagnum
spi
spiere
spieriau
spindole
spirit
split
spor
sport
spre
sprende
spru
spruoge
spu
spuoras
spuorta
spuorte
spuorts
spurs
sqrt
sra
srauje
sre
srevz
sri
sriti
sritis
srouga
srouje
sru
sruove
ss
ssrs
st
sta
stabe
stac
stace
stade
staibe
staibio
staibiu
staiga
staigas
staige
stake
stakle
stala
stale
stalgiena
stalgienu
stalie
stalis
stals
stalte
stam
stambos
stambul
stambula
stamontros
stams
stana
standard
standarte
standarts
stane
staneve
stanka
stanke
stankevic
stanley
stano
stans
stapuons
star
starcraft
stare
stark
startava
stas
stase
stasi
stasiu
stasys
stata
state
states
stati
statiakompe
station
statistics
statmena
statmens
statola
statos
statosa
statosos
statota
statots
statu
statuoma
statuomas
statuoms
statute
statyba
staus
stave
stavebni
stavose
staz
ste
stebieje
steel
steige
steigies
stele
steles
stelie
steliu
stelmoz
stelne
stema
stemas
steme
stemple
stemu
stemuo
stence
stene
stephen
stere
stes
steve
steven
sti
stie
stielis
sties
stine
stipre
stirnas
stis
stiu
sto
stobore
stode
stodenta
stodentu
stolge
stom
stombe
stombra
stombre
stombri
stombris
stombriu
stombu
stone
stones
stonte
stop
stories
story
stos
stota
stote
stotis
stou
stoubre
stoumene
stoute
stovi
stra
strace
stragna
straipsne
straipsni
straipsnios
straipsnis
straipsniu
strale
stratege
strave
strazda
strazde
strazdos
stre
street
stri
stro
stroktu
stros
strs
stru
struktu
sts
stu
stude
studentu
studija
studijava
studijos
stuo
stuobre
stuoga
stuogas
stuoge
stuogo
stuogs
stuoj
stuoje
stuoka
stuokhuolms
stuoma
stuona
stuone
stuora
stuoras
stuore
stuori
stuoroma
stuoroms
stuors
stuos
stuote
stuotes
stuoti
stuotis
stuov
stuove
stuovi
stuovieje
stuoviete
stus
stutis
stwie
su
subsidiary
sud
sudana
sudano
sudans
sudar
sudara
sudare
sudari
sude
sudege
sugri
suke
sukel
suku
sumet
summer
sump
sun
sune
sunke
sunkiuoje
suns
suo
suobova
suoc
suoce
suoda
suodale
suodas
suode
suodi
suodna
suodnas
suodne
suodnos
suodnu
suodnuo
suods
suodu
suoduo
suoduos
suofe
suoke
suoki
suokiausiu
suokiu
suokius
suole
suom
suome
suomene
suopieje
suopole
suoprana
suoprans
suos
suosta
suoste
suostene
suostine
suote
suovieta
suoviete
suovietsks
suovietu
super
supersonics
supertauries
superz
sure
sus
suse
sute
suteikts
suvalke
suviene
suz
sva
svajuoniu
svalbards
svarbe
svarbiause
svarbiausis
svarbiausiu
svarbio
svarbiu
svarbo
svarboma
svarbos
svaze
sve
sveika
sveikata
sveikatas
sveike
sver
svera
svetain
svetaine
svetainie
svetainiu
svete
svetius
svg
svi
sviede
sviere
svieta
sviete
svieti
svietou
sviets
svuore
svuoris
swedbank
swine
sydney
sylvestris
system
systems
t
ta
taba
tabare
table
tablesl
tabuoka
tac
tace
tad
tada
tade
tadeini
tads
tadvare
tadvaris
tadz
tai
taic
taik
taika
taike
taiki
taikuoma
taikuomuose
taikuos
tailands
taip
taisa
taise
taisi
taisont
taisuoma
taisuomi
taisuoms
taite
taitiu
taivana
taka
takas
take
takele
takiu
tako
takolne
taks
taku
takz
tala
talaukis
tale
talente
talina
taline
talka
talks
talpe
talu
tam
tamas
tame
tamos
tamp
tams
tamsta
tamti
tamuos
tane
tanka
tans
tanu
tanzane
tap
tapa
tape
tapi
tapo
tara
taras
tare
tari
tarme
tarmes
tarmie
tarmiu
tarnava
tarni
tarote
tarp
tarpa
tarpe
tarpokare
tarpote
tarps
tarptaute
tarptautene
tarptautinies
tarptautiniese
tarptautinis
tars
tarsi
tarte
tartu
tarva
tarvi
tarybu
tas
tasa
tasis
tat
tata
tate
tatu
tau
tauc
tauka
tauku
taukus
taupa
taupi
taur
taurage
tauragie
tauragies
tauragna
tauragnu
taurake
taure
taurie
tauries
tauriu
taus
tause
tauta
tautas
taute
tautele
tauti
tautos
tautou
tauts
tautu
tautuom
tautuos
tautuosaka
tautuosakas
tava
tave
tavi
tavo
taylor
tbe
te
team
teatra
tebgi
tebie
tebier
tebova
tebska
tebu
technology
tee
teide
teigama
teige
teike
teikont
teina
teins
teipuogi
teise
teises
teisi
teisingoms
teisiu
teisma
teismos
tek
teka
teke
tekieje
tekine
tekle
tekliu
tekne
teknoluoge
teknuologe
teknuoluoge
tekontiu
teks
teksta
tekstas
tekste
tekstos
teksts
tekstu
tekte
tekts
tektu
tel
tele
teleskuopa
televe
televisa
televize
teli
teliai
telio
telis
teliu
telke
telks
telp
tels
tem
tema
temas
temate
teme
temperatu
temuks
ten
tena
tene
tenene
teneni
teneniu
tenis
tenk
tenuors
teofe
teologe
teoluoge
teore
tep
tepte
tepuoge
tepuogi
teratu
terba
tere
teres
teris
teritore
teritoriju
terituore
teriuoje
terme
terp
terpe
terpokare
terpopis
terposave
terposavi
terposavie
terptaute
terptautine
terra
terror
ters
teru
teruora
teruore
tes
tesla
tesne
testame
testaments
teta
tete
teterve
tets
tetu
teuoluoge
teuore
teuorete
teutuonu
tez
th
tha
that
the
theplantlist
there
they
third
this
thomas
three
ti
tiam
tiams
tiau
tiaus
tiause
tiausis
tibeta
tibete
tie
tieje
tieji
tiele
tielie
tiem
tiems
tiena
tienu
tier
ties
tieva
tieve
tievi
tievo
tievou
tievs
tievu
tik
tike
tiki
tikieje
tikra
tikta
tili
tilipuona
tilve
tim
tima
timberwolves
time
times
timis
timu
tina
tinca
tine
tinga
tings
tinis
tiniu
tink
tinkama
tinkla
tinklapis
tinkle
tinklos
tio
tiorku
tios
tiou
tious
tiranuozaurs
tirs
tis
tits
tiu
tiuo
tiuone
tiuoni
tiuonis
tiuoniu
tiuos
tius
tka
tke
tkelis
tkos
tku
tle
tlere
tliause
tme
tmete
tmetie
tmos
tn
tna
to
toace
toc
toce
tof
tojama
tojau
toje
tojo
toju
toka
toke
tokiause
tokiu
toks
tokus
tol
tola
tole
toliu
tolpa
tolpe
tolpis
tolps
tolpu
tols
tom
toma
tomas
tombergas
tome
tommy
toms
tomsa
tomse
tomsu
tomsuos
tomu
tomuo
tomuos
ton
tone
tonke
tonkiau
tonkiause
tonkiu
tonkoms
tonkos
tonku
tonkus
tont
tonta
tonts
tony
top
tope
topie
topis
tor
tora
torbe
tore
torgaus
torgeliu
torgo
tori
toria
torie
toriejau
torieje
tories
toriete
torietom
torio
torke
torkmiene
torku
tormanta
torni
torons
toront
toronta
toronte
torpe
torpi
torta
torte
tortula
tos
tose
tosiu
tota
tote
totoris
tots
tou
toukart
toule
toun
toune
tour
tous
touts
tova
tove
tovi
toviena
tovienu
tovuos
town
tra
trade
tradice
tragede
trail
traka
trakai
trake
trakis
traks
traksiede
traktuorios
traku
trama
tramvajaus
tramvaje
tramvajos
tramvaju
trans
translioujama
transliounams
translioutuos
transporta
transpuorta
transpuorts
tras
trasa
trauk
trauka
trauke
trauklapis
trauks
traukte
traukts
traumas
traumu
tre
trec
tree
trefl
treji
tremte
trene
trener
trenere
trenerio
treneris
treneriu
tres
trete
treti
tretiuoje
tretiuos
trets
treviz
treviza
tri
triaus
triju
triniuots
trinku
trinte
trio
trios
tris
triu
troc
troci
troike
troka
trolleycar
trompa
trompas
trompe
trompiause
trompo
tromps
tronk
tros
tru
true
trumpa
trumpametraz
trumps
truoba
truobas
truobele
truobese
truobesis
truobesiu
truobesius
truobu
truobuo
truobuos
truope
truopne
truopniause
truos
trus
truskavas
trust
trys
ts
tske
tskp
tsr
tsrs
tu
tuc
tuce
tudie
tujau
tumet
tunaitis
tungsten
tuo
tuobole
tuoj
tuoja
tuojava
tuoje
tuoji
tuojo
tuojs
tuoju
tuokas
tuoke
tuoki
tuokio
tuokis
tuokiu
tuokiuo
tuokiuos
tuokius
tuoks
tuoksa
tuola
tuole
tuoli
tuoliau
tuoliause
tuoluoge
tuoluogs
tuom
tuoma
tuomielis
tuoms
tuon
tuona
tuone
tuons
tuonu
tuora
tuoras
tuore
tuorios
tuoriu
tuoru
tuos
tuose
tuotale
tuote
tuoti
tuotuore
tuotuoriu
tuovaizde
turbines
ture
turge
turieje
turke
turni
tus
tuvalu
tuvienu
tv
tvanka
tvankas
tvanke
tvankini
tvarka
tvarke
tvarki
tvarkuos
tvaskote
tve
tvenke
tvera
tveru
tvi
tvuora
two
tyto
u
uab
uangu
uaz
ubagi
ubaliai
ubuntu
uc
udi
uefa
uganda
ugne
ui
uk
ukauskas
ukis
ukmerge
ukraina
ukrainas
ul
uleb
uli
ulis
ulker
ulkus
um
uma
un
una
und
under
une
unesco
unicaja
unicredit
unics
unio
union
united
universal
universe
universiadas
universitet
universiteta
universitetas
universitete
universiteto
universitets
universitetu
university
unix
uns
unt
untruoj
untuons
uo
uobele
uobje
uobjekta
uobjekts
uobjektu
uoble
uode
uodi
uodio
uodiou
uodis
uodiu
uodius
uofe
uoje
uojuo
uok
uoka
uoke
uoki
uokies
uokis
uokiu
uokius
uokopace
uokopava
uoks
uokse
uokte
uola
uolande
uolandu
uole
uoli
uolie
uolies
uolija
uolimpe
uoline
uoliu
uols
uom
uoma
uome
uoms
uona
uone
uoni
uonos
uons
uonu
uoperace
uoperas
uops
uora
uorbe
uorde
uordz
uore
uorgane
uoro
uorou
uors
uoru
uos
uose
uoses
uosete
uoskara
uoskars
uosla
uosle
uosmanu
uosta
uostas
uoste
uosts
uots
uove
uoviu
uoz
up
upe
upiai
upio
upis
upiu
uptime
upys
ural
urala
urdu
url
urugvajos
us
usa
use
user
usis
utc
uva
uvis
uvos
uvuos
uz
v
va
vabala
vabale
vabuole
vabzde
vabzdis
vabzdiu
vabzdius
vada
vadakste
vadave
vade
vadi
vadinte
vadints
vadovaun
vadovava
vadove
vads
vadu
vaduova
vaduovau
vaduovaun
vaduovava
vaduove
vaduovieliu
vaduovo
vaduovs
vaduovu
vaga
vagas
vage
vagnuorios
vagol
vaguo
vaguona
vaguons
vaguos
vai
vaic
vaidas
vaidatoniai
vaide
vaidi
vaidint
vaidinte
vaidme
vaidmenu
vaigz
vaigzdies
vaikai
vaike
vaiki
vaikielis
vaiku
vaina
vainas
vaine
vainu
vainuo
vainuos
vainuota
vainuote
vairaus
vaire
vairiause
vairiausiu
vairios
vairiu
vairiuos
vairius
vairos
vairu
vais
vaise
vaisios
vaisiu
vaisius
vaiska
vaista
vaistaz
vaiste
vaistu
vaite
vaitkaic
vaivade
vaivuora
vaiz
vaizda
vaizdave
vaizde
vaizdie
vaizdiu
vaizdo
vaizdos
vaizdoun
vaizdounams
vaizds
vaje
vaka
vakajama
vakar
vakara
vakare
vakari
vakariene
vakaros
vakarous
vakars
vakaru
vakarus
vakce
vake
vaku
vala
valaka
valaku
valanc
vald
valda
valdas
valde
valdi
valdiosiu
valdiuo
valdiuos
valdont
valds
valduoma
valduoms
valduova
valduovs
valduovu
valdz
vale
valense
valenta
valente
valere
valgi
vali
valia
valiota
valis
valiu
valke
valle
valna
valnoma
valonc
valonda
valparae
valsc
valsi
valste
valsti
valstiaus
valstios
valstiou
valstybe
valtiu
vampire
van
vanaga
vanage
vanags
vandari
vandiuogaluos
vang
vanga
vanuatu
vapsas
var
vara
varda
varde
vardis
vardo
vardova
vardovuos
vards
vardu
vare
varezes
varga
vargs
varguona
varguone
vari
variena
varienas
variu
varkale
varks
varle
varliu
varluoz
varma
varme
varmos
varms
varmus
varna
varnale
varnaliez
varne
varnele
varnis
varniu
varpa
varpale
varpe
varpote
varpu
vars
varta
varte
vartu
vartuojama
vartuoje
varu
varuoma
varz
vas
vasar
vasara
vasaras
vasare
vasaris
vasaruos
vasco
vata
vate
vatikana
vatikans
vatiu
vatos
vats
vaun
vaupesa
vaus
vaute
vava
vave
vavose
vaz
vaza
vc
vdu
ve
vec
ved
veda
vede
vedieje
vedies
vedu
vedve
veicare
veida
veidai
veik
veike
veikieje
veikies
veikla
veikluo
veikluos
veiks
veiksma
veiksmos
veiksmu
veikte
veina
veins
veisle
veita
veiz
veiza
veize
veizieje
veiziek
veiziekat
veizieke
veiziete
veizont
veje
veji
vele
veli
veliene
veliouna
veliounas
velke
veln
velne
velniu
velsa
velse
velsis
velve
vembu
ven
vena
venama
venamas
vename
venams
venamu
venamujo
venc
vende
vene
venece
venera
veneras
venesoela
venesoelas
venesuela
vengre
vengru
vengte
venons
venonte
venontiu
venose
vens
vent
venta
ventas
vente
venti
ventis
ventoju
ventspe
ventspils
ventuoja
ventuoje
ventuojis
ventuojos
ventuoju
ventuos
ventve
venve
venveite
venveiti
venveitis
vera
verbu
verc
verd
vere
verge
vergu
veriu
verna
vers
versale
verse
verseka
versitete
versla
verslauk
versle
verslininks
verslo
versme
versmie
versoj
verste
versus
vert
verte
verti
vertie
verties
verz
ves
veselava
vesele
veselka
vest
vestas
veste
vests
veto
vez
vi
via
viause
viausiu
vicec
vicente
victoria
vida
vidas
video
vids
viduramz
vidurine
vie
viedare
viedri
viedros
viegiele
vieja
vieje
vieju
vieks
viel
viela
viele
vieleva
vielevas
vieli
vieliau
vieme
viena
vienas
viense
vienu
vienuole
viepu
viera
vieralis
vieras
viere
vieri
vieris
vieriu
vieru
vieruo
vies
viesa
viese
viesols
viesos
vieta
vietas
viete
vietnam
vietnama
vietname
vietnams
vietu
viez
vii
viii
vikaro
vikipede
viks
viktorija
viktuore
vila
vile
vilgs
vilhelms
vili
vilija
vilis
vilius
vilkas
vilke
vilkis
villas
vilneus
vilniaus
vilnius
vilpis
vinc
vinca
vincas
vince
vinge
vingiu
vingre
vingri
vinks
vio
viola
violetta
vios
virble
virdz
virginijus
viriausi
virosa
virpese
virs
virtus
virus
virusos
virve
virvi
virz
vis
visumet
visuomene
visuotine
vita
vite
vituore
viu
vius
viva
vivo
vladas
vlade
vladime
vladimirs
vlads
vlend
vloclavek
vns
vo
voce
voda
vogol
vok
voke
voki
vokiete
vol
vole
voli
voliu
volius
volkane
volkswagen
voma
vombuole
vombuoliu
von
vonde
vondeni
vondens
voruta
vos
vostok
vous
voyager
vpu
vs
vt
vu
vulgaris
vuo
vuobele
vuobeli
vuobelies
vuobelis
vuobeliu
vuoini
vuoje
vuok
vuoka
vuokale
vuokals
vuokas
vuoke
vuoki
vuole
vuolgas
vuoli
vuoliam
vuolis
vuoliu
vuolius
vuolonge
vuom
vuondeni
vuone
vuora
vuore
vuortinkle
vuos
vuose
vuotiu
vuovere
vuoz
vus
vyne
vyr
vyriausybe
vys
vytautas
vyz
w
wade
wake
wal
wall
waqa
war
warrior
warriors
warszawa
watch
watson
wav
way
we
weather
web
welcome
west
western
what
wheels
when
white
who
wiadomosci
wiki
wikipedia
wild
wilhelm
will
william
williams
wind
windows
windpower
winners
with
wizards
wo
wojewo
wolf
wom
women
world
worship
wright
wu
www
x
xi
xico
xii
xiii
xiv
xix
xls
xml
xv
xvi
xvii
xviii
xx
xxi
xxii
y
ya
yc
yde
year
years
yksopp
yne
yo
york
you
young
your
youtube
yr
yra
yrs
ys
yte
yu
z
za
zabe
zablate
zabuova
zace
zadar
zagreb
zagreba
zaina
zambe
zana
zanu
zapa
zapava
zapi
zaps
zarasa
zarasu
zare
zars
zas
zate
zava
zave
zazaki
zda
zde
zdi
zdie
zdio
zdiou
zdiu
zdiuo
zdz
ze
zeca
zelande
zerna
zge
zi
zide
ziduorios
zire
zlaste
zlis
zma
zme
zmo
zmos
zmou
zms
zmu
zna
znuoc
znuoka
znuoks
znuoku
zo
zobre
zoike
zona
zope
zos
zou
zoun
zouta
zoute
zouts
zu
zuitu
zuju
zuo
zuona
zuonas
zuonuo
zvezda
{
|
}
~
©
«
­
®
°
²
³
·
º
»
½
×
ørjan
ło
ə
ʰ
ʻ
ʾ
ˈ
ː
̀
́
̂
̃
̄
̅
̆
̇
̈
̊
̋
̌
̓
̔
̣
̦
̧
̨
͂
ͱ
ͳ
ͷ
α
β
γ
δ
ε
ν
ο
π
ς
σ
ϙ
ϛ
ϝ
ϟ
ϡ
ϸ
ϻ
а
в
вои
г
д
е
з
и
к
л
м
н
на
не
о
ович
п
по
раи
россии
с
т
тили
у
х
ч
ш
ъ
ы
э
ю
я
ְ
ִ
ֵ
ֶ
ַ
ָ
ֹ
ּ
ׁ
א
ב
ה
י
ל
ם
ר
ש
ا
بن
محمد
و
ي
َ
ُ
ِ
ّ
ْ
ٓ
ٔ
ی
ं
क
ग
ड
त
द
ध
न
प
ब
भ
म
य
र
ल
व
श
ष
स
ा
ि
ी
ु
ू
े
ो
्
ত
র
া
্
ੀ
་
ོ
ា
្
‎
‑
–
—
―
‘
’
“
”
„
†
•
…
′
″
⁡
€
↔
↷
−
③
④
⑦
♂
⺀
⺄
⺆
⺈
⺊
⺌
⺕
⺝
⺸
⺼
⿰
⿱
⿲
⿳
⿴
⿵
⿶
⿷
⿸
⿹
⿺
⿻
〢
あ
い
う
か
き
く
け
こ
さ
し
た
ち
っ
て
な
に
の
ふ
ま
ら
り
る
ろ
ん
゙
゚
ア
オ
キ
ク
コ
シ
ス
テ
ト
ニ
ハ
ヒ
フ
ヘ
マ
ュ
ユ
ョ
ロ
ン
・
ー
㇁
㇂
㇄
㇇
㇈
㇉
㇓
㐁
㐄
㐅
㐌
㐫
㐬
㐭
㐮
㐱
㑒
㒵
㒸
㒼
㓁
㓞
㔾
㕛
㕣
㖾
㘝
㚅
㚇
㚔
㚘
㝉
㝡
㝴
㝵
㞋
㞢
㞷
㠩
㠭
㠯
㡀
㡭
㡿
㢲
㢴
㣇
㣺
㥯
㪅
㫄
㫐
㫒
㫺
㬅
㬎
㬥
㬰
㲋
㳄
㷠
㸒
㸚
㸦
㼌
㼲
㽞
㿟
䀠
䂞
䍃
䏍
䒑
䖍
䖒
䖝
䖵
䙴
䚻
䜌
䝿
䡛
䧹
䪞
一
丁
丂
七
丄
丅
丆
万
丈
三
上
下
丌
不
与
丏
丐
丑
专
且
丕
世
丘
丙
业
东
丞
丢
丣
两
严
並
丨
丩
个
丫
丬
中
丮
丰
丱
串
丵
丶
丷
丸
丹
为
主
丽
丿
乀
乂
乃
久
乆
乇
么
义
之
乌
乍
乎
乏
乐
乑
乔
乖
乗
乘
乙
乚
乛
乜
九
乞
也
习
乡
乳
乾
亀
亅
了
亇
予
争
事
二
亍
于
亏
亐
云
互
亓
五
井
亘
亚
亜
亞
亟
亠
亡
亢
交
亥
亦
产
亨
亩
享
京
亭
亮
亯
亰
亲
亳
亶
亷
人
亻
亼
亾
仁
今
介
仌
从
仐
仑
仒
仓
仕
他
付
仝
代
令
以
任
企
伊
伏
伐
休
会
伝
伯
但
位
何
佘
余
作
佥
使
來
侈
侌
侖
侯
侵
便
保
俞
信
修
倉
倍
候
倠
備
僉
僕
儒
儿
兀
允
兂
元
兄
充
兆
兇
先
光
兊
克
兌
免
兑
兒
兓
兔
党
兜
兟
入
全
兩
兪
八
公
六
兮
兰
共
关
兵
其
具
典
兹
兼
冀
冂
冃
冄
内
冈
冉
冊
冋
册
再
冎
冏
冐
冒
冓
冖
冗
冘
军
农
冝
冡
冥
冫
冬
冷
几
凡
凢
凵
凶
凷
凸
凹
出
函
凾
刀
刁
刂
刃
刄
刅
分
切
刍
刑
刕
刖
列
刘
则
初
別
利
别
到
制
刺
則
削
剌
前
剡
剣
剽
劉
力
功
加
劦
助
劫
劳
劵
勃
勇
勉
勒
動
務
勞
勤
勹
勺
勻
勾
勿
匀
匂
包
匆
匈
匊
匋
匍
匕
化
北
匚
匝
匡
匪
匱
匸
匹
区
医
匽
匿
區
十
卂
千
卄
卅
卆
升
午
卉
半
卌
华
卑
卒
卓
单
卖
南
卜
卝
卞
占
卡
卢
卣
卤
卦
卩
卪
卬
卯
印
危
即
却
卵
卷
卸
卻
厂
厃
厄
历
厈
厉
厌
厓
厘
厚
原
厤
厥
厨
厭
厲
厶
厷
厸
去
厼
厽
叀
参
參
叅
又
叉
及
友
双
反
叐
发
叒
叔
叕
取
受
叚
叜
叟
口
古
句
另
叩
只
召
可
台
叱
史
右
叵
号
司
叹
吂
各
吅
合
吉
吊
吋
同
名
后
吏
向
吕
君
吝
吞
否
含
启
吳
吴
吹
吾
呂
呆
呈
告
员
呙
周
命
咅
和
咎
咠
咢
咨
咸
咼
哀
品
哉
員
哥
哲
唐
商
啇
問
啚
啬
啻
善
喜
喬
單
喿
嗇
噩
嚴
囊
囗
囘
囙
囚
四
回
囟
因
囧
囬
困
囱
囷
固
国
圂
圅
國
圍
圓
土
圡
圣
圥
在
圭
地
圶
圼
坐
坒
坚
坴
垂
垔
垚
埀
埋
城
埶
執
基
堂
堅
堆
堇
堯
塞
墨
壘
士
壬
壯
声
壳
壴
壹
壺
壽
夂
处
夅
夆
备
夊
夋
夌
复
夏
夒
夕
外
夗
夘
多
夜
夢
大
夨
天
太
夫
夬
夭
央
失
夲
头
夷
夸
夹
夻
夾
奂
奄
奇
奈
奉
奎
奏
奐
契
奓
奔
奚
奞
奠
奢
奥
奭
女
奴
奻
好
如
妄
妙
妟
妥
妻
妾
姑
委
姜
威
娄
婁
婴
嬰
嬴
子
孑
孔
孕
孖
字
存
孚
孛
孝
孟
季
孤
学
孫
孱
學
宀
宁
宂
它
宅
宇
守
安
宋
完
宏
宓
宗
官
定
宛
宜
宝
客
宣
室
宮
宰
害
家
容
宾
宿
寄
寅
密
富
寒
察
寧
審
寫
寬
寮
寸
对
寺
寻
寽
対
寿
封
尃
射
将
將
專
尉
尊
尋
尌
對
小
少
尒
尓
尔
尖
尗
尚
尞
尢
尣
尤
尧
尨
尭
就
尸
尹
尺
尻
尼
尽
尾
尿
局
居
屈
屋
屎
屏
屑
展
屖
屚
属
屠
屡
屬
屮
屯
屰
山
屵
屾
岁
岂
岑
岡
岩
岳
岸
峯
峰
島
崇
崑
崔
崖
崙
崩
嵬
嶲
巂
巛
川
州
巟
巠
巢
巤
工
左
巧
巨
巩
巫
差
己
已
巳
巴
巷
巸
巽
巾
巿
帀
市
布
希
帚
帛
帝
带
師
席
帶
常
干
平
年
幵
并
幷
幸
幺
幻
幼
幽
幾
广
広
庄
床
底
店
庚
府
度
庫
庭
庶
康
庸
廉
廌
廛
廣
廩
廴
延
廷
建
廾
廿
开
弁
弃
弄
弇
弋
式
弓
弔
引
弗
弘
弜
弟
弥
弦
弱
張
強
强
彊
彌
彎
彐
彑
当
彔
录
彖
彗
彡
形
彥
彦
彧
彭
彳
役
彼
往
待
律
徒
得
徙
從
復
微
徵
心
忄
必
忌
忍
志
忝
忠
忩
快
念
忽
忿
思
怠
急
怱
恆
恒
恩
恭
息
悉
患
悤
悲
悶
惠
惡
惢
愁
愈
意
愛
感
慈
慧
慮
憂
憲
應
懐
戀
戈
戉
戊
戋
戌
戍
戎
成
我
戒
戔
或
戚
戠
戢
截
戲
戶
户
戹
戼
戾
房
所
扁
扇
手
扌
才
打
托
执
承
折
拉
拜
拿
掌
推
提
摩
支
攴
攵
收
攸
改
放
政
敄
敏
敕
敖
敗
敝
敞
敢
散
敦
敫
敬
数
敷
數
斂
文
斉
斊
斗
斤
斥
斩
斬
斯
新
方
於
施
斿
旁
旋
族
无
旡
既
旣
日
旦
旧
旨
早
旬
旱
旲
时
旾
昆
昇
昌
昍
明
昏
易
昔
昗
昜
星
春
昬
是
昱
昴
昷
時
晃
晋
晏
普
景
晶
智
暑
暴
曇
曩
曰
曲
曳
更
曷
書
曹
曼
曾
替
最
朁
會
月
有
朋
服
朔
朕
朗
望
朝
木
朩
未
末
本
札
朮
术
朱
朵
朶
朿
杀
李
杏
杜
束
条
来
東
杲
杳
松
析
林
枚
果
枝
枲
枼
某
柔
查
柬
柰
柴
栗
桀
桑
桼
梁
梅
條
梟
梨
棘
棠
棥
森
楚
業
楽
榮
樂
樊
橋
欠
次
欣
欮
欲
欶
欽
款
歆
歇
歛
止
正
此
步
武
歨
歪
歮
歯
歰
歲
歴
歷
歸
歹
歺
死
殳
段
殷
殸
殹
殺
殻
殿
毋
毌
母
每
毒
比
毕
毚
毛
毳
氏
氐
民
气
氣
水
氵
氶
氷
永
氺
氾
求
汝
汞
江
沃
沓
沖
沙
沝
河
治
泉
法
波
泣
泥
泰
洛
洪
活
派
流
浦
浪
浮
海
淡
淮
清
渚
渠
港
湖
湯
滿
漸
火
灬
灭
灰
灵
灷
炅
炎
炏
炗
炙
炭
為
烈
烏
烝
焉
無
焦
焱
然
煞
熊
熏
熱
燕
營
燮
爪
爫
爭
爯
爰
爱
爲
爵
父
爻
爽
爾
爿
片
牙
牚
牛
牜
牟
牢
牧
牪
特
牽
犀
犬
犭
犮
狂
狄
狊
独
狺
猋
猒
猪
献
獻
玄
率
玉
王
玟
玨
珎
班
琴
瑟
瑩
璠
瓜
瓦
甘
甚
生
産
用
甫
甬
田
由
甲
申
电
甶
男
甸
甹
画
甾
畀
界
畏
畐
留
畜
畟
畢
畧
畨
番
畫
異
畱
當
畺
畾
疊
疋
疌
疑
疒
疾
癶
癸
癹
登
發
白
百
皀
皃
的
皆
皇
皋
皐
皕
皮
皷
皿
盃
盆
盇
盈
益
盍
盎
监
盒
盖
盛
盡
監
盤
盧
目
直
相
盾
省
眇
眉
看
県
眔
眞
真
眷
眼
眾
着
睘
睪
睿
瞏
瞢
瞿
矍
矛
矞
矢
矣
知
矦
短
石
破
碎
磊
磨
示
礻
礼
神
祟
票
祭
禀
禁
禅
福
禸
禹
禺
离
禽
禾
禿
秀
秃
秉
秋
科
秝
秦
移
稟
穀
穌
穴
究
穹
空
穿
突
窄
窒
立
竒
竜
竝
竟
章
童
竹
笑
笠
筆
等
答
箕
算
箴
節
篤
篭
米
粉
粛
粟
粤
粦
粲
糞
糸
糹
系
約
紅
納
素
索
紫
累
細
絜
絫
絲
維
綿
縄
縣
繇
纍
纟
缶
网
罒
罔
罕
罗
罙
罡
罢
罪
署
罷
羅
羊
羌
羍
美
羔
羕
羗
羞
羡
羣
群
義
羲
羸
羽
翁
翏
習
翕
翟
翠
翼
老
耂
考
者
耆
而
耎
耑
耒
耳
耴
耶
耷
聂
聊
聖
聚
聶
聿
肀
肃
肅
肉
肖
肙
肥
肩
肯
育
肴
胃
背
胡
胥
能
脊
脩
膚
臣
臤
臧
自
臬
臭
臯
臱
至
致
臺
臼
臽
臾
臿
舀
舂
舄
與
興
舉
舌
舍
舛
舜
舞
舟
般
艮
良
色
艸
艹
艾
芒
芔
芬
芮
花
芳
芺
芻
苔
苗
苟
若
苦
英
茶
茸
荅
草
荒
荣
荼
莆
莧
莫
莽
菆
菊
菐
菜
華
萬
落
葉
著
葛
董
葵
蒙
蒦
蒼
蓋
蓬
蓺
蔑
蔡
蕉
蕭
薄
薛
薦
薰
藍
藏
藤
藥
蘭
虍
虎
虐
虒
虔
處
虖
虗
虘
虚
虛
虜
虞
虫
虽
蚤
蚩
蜀
蜜
蟲
蠡
血
行
衍
衛
衣
衤
表
衮
衰
袁
袞
褭
褱
襄
襾
西
覀
要
覃
見
規
覓
覧
親
覽
见
角
解
言
訁
訇
計
記
詹
語
誩
諸
讠
语
谷
豆
豈
豊
豐
豕
豖
豙
象
豦
豩
豪
豸
貇
貝
貞
貟
負
貢
貧
貪
貫
責
貳
貴
買
費
賁
資
賈
賏
賓
賔
賛
賞
賢
賣
質
賴
贊
贝
贡
责
贯
贲
贵
赖
赞
赤
赦
走
越
足
路
蹇
身
躬
車
軍
軎
軟
輦
车
辛
辜
辟
辥
辰
辱
農
辵
辶
边
达
过
近
连
迷
追
退
送
逆
逐
通
速
造
逢
連
逮
進
遀
遂
過
道
達
遠
遣
適
遷
遺
邊
邑
邕
那
邦
邪
郎
部
郭
都
鄉
酉
酋
配
酓
釆
采
里
重
野
量
金
釒
錢
钅
長
镸
长
門
閃
閉
開
閏
閑
閒
間
閔
閵
閻
闌
门
间
闷
阑
阜
阝
阪
阿
降
陳
隆
隊
隋
隡
隨
隱
隶
隹
隺
隻
隼
隽
难
雀
雁
集
雈
雋
雍
雐
雔
雙
雚
雜
雝
離
難
雨
雩
雪
雲
零
雷
需
霍
霜
霝
霞
霸
靈
靑
青
非
靡
面
靣
革
韋
韦
韭
韯
韱
音
頁
頃
項
須
頗
頡
頻
顔
顛
页
風
风
飛
飞
食
飠
養
饣
首
香
馬
馮
駦
马
骨
高
髟
鬥
鬯
鬲
鬼
魂
魚
魯
鮮
鱼
鲁
鳥
鳳
鸟
鹵
鹿
麃
麗
麥
麦
麻
黃
黄
黍
黎
黑
黒
黨
黹
黽
黾
鼎
鼓
鼠
鼻
齊
齋
齐
齒
齿
龍
龙
龜
龟
龠
龰
龱
龴
龵
龶
龷
龸
龹
者
艹
﻿
％
？
～
𠀁
𠀃
𠀆
𠀉
𠀎
𠀐
𠁁
𠁣
𠂆
𠂇
𠂈
𠂉
𠂊
𠂋
𠂎
𠂒
𠂔
𠂛
𠂡
𠂢
𠂤
𠂬
𠂭
𠂹
𠃊
𠃋
𠃌
𠃍
𠃎
𠃑
𠃓
𠃔
𠃜
𠄌
𠄎
𠄠
𠄢
𠆢
𠆥
𠇍
𠈌
𠌵
𠓜
𠔉
𠔥
𠔼
𠔽
𠔿
𠕀
𠕁
𠕋
𠘧
𠘨
𠙻
𠙼
𠚏
𠚒
𠚤
𠚪
𠣏
𠤎
𠤕
𠥓
𠦄
𠦑
𠦝
𠧒
𠧗
𠧪
𠩺
𠪚
𠫓
𠫔
𠫤
𠬛
𠬝
𠬞
𠬢
𠬤
𠬶
𠮛
𠮦
𠮷
𠯑
𠱠
𠳮
𠷎
𡈼
𡉀
𡉵
𡌥
𡍮
𡏳
𡕒
𡕩
𡕰
𡖅
𡗗
𡗜
𡘆
𡘤
𡧱
𡨄
𡩧
𡬠
𡭽
𡰣
𡰥
𡰪
𡰯
𡰱
𡷈
𡸁
𡿨
𡿩
𡿪
𡿺
𢀖
𢀛
𢀩
𢁙
𢆉
𢆰
𢆶
𢇁
𢇇
𢉖
𢌬
𢌿
𢏚
𢑑
𢑚
𢖻
𢙣
𢛳
𢦏
𢦒
𢧵
𢼄
𢾕
𣁋
𣄼
𣅀
𣅽
𣍘
𣎳
𣎵
𣏋
𣏼
𣗥
𣥂
𣥖
𣦵
𣦼
𣧄
𣪊
𣪠
𣬉
𣳾
𣶒
𤇾
𤊽
𤐫
𤓰
𤔔
𤕨
𤣩
𤰇
𤰔
𤰞
𤴓
𤴔
𤽄
𥁑
𥁕
𥃦
𥃩
𥃭
𥇡
𥑟
𥘅
𥘈
𥝢
𥫗
𥱡
𦈢
𦉪
𦉬
𦉼
𦍌
𦍒
𦎧
𦐇
𦓔
𦔮
𦘒
𦙃
𦚏
𦣝
𦣞
𦣻
𦥑
𦥔
𦥯
𦨉
𦭝
𦰩
𧆞
𧈧
𧘇
𧰨
𧴪
𧴮
𧵩
𧾷
𨸏
𨾴
𩙿
𩠐
𩫏
𩵋
𪉷
𪜀
𪟽
𪠲
𪩲
𫇦
𫔭
𫜸
𫝀
𫠣
𫠩
𫢉
𫥞
𫩏
𫩠
𫪡
𫲽
𫶧
𬀷
𬐘
𬗌
𬙙
𬛸
𬜯
𬟩
𬯁
𬴘
𬺻
𬼉
𬼖
𭀰
𭁈
𭁨
𭅰
𭑈
𭕄
𭗼
𭤨
𭥫
𭻾
𮅕
𮊿
𮍌
𮍏
𮓗
𮥼
𮧮
廾
𰀁
𰀄
𰀈
𰀉
𰀕
𰀠
𰀡
𰀢
𰀪
𰁜
𰃮
𰆊
𰆘
𰋙
𰕎
𰢴
𰧭
𰯲
37--
a--
ab--
abe--
abiec--
abruoz--
absuo--
ac--
ad--
ada--
adam--
ade--
ado--
ag--
agar--
agor--
ai--
aid--
air--
ais--
ak--
aka--
aki--
aks--
aku--
al--
ale--
alekt--
ali--
alio--
alka--
alt--
alta--
altuo--
alu--
aly--
am--
ama--
ameri--
amste--
an--
ana--
and--
ane--
ani--
ano--
ansam--
ant--
antak--
ap--
apau--
apduovan--
ape--
apka--
apl--
aplai--
aple--
aps--
apsaug--
apta--
aptve--
apu--
ar--
ara--
are--
aris--
arkeo--
arki--
art--
aru--
as--
asa--
asam--
aso--
aspe--
astro--
astru--
at--
ata--
ate--
atk--
atkak--
atr--
ats--
au--
audru--
aug--
augzi--
auk--
aus--
auto--
autuo--
ave--
avi--
az--
b--
ba--
babro--
babru--
bag--
baguo--
bai--
bal--
balt--
bam--
bara--
barb--
bart--
barz--
bas--
baspa--
bat--
bau--
baz--
be--
ben--
ber--
berna--
bes--
bez--
bi--
bie--
bied--
bim--
bio--
bis--
bl--
bli--
blo--
bo--
bom--
borb--
bota--
bou--
br--
bra--
bre--
bri--
bro--
bru--
bu--
bull--
bunde--
buo--
but--
butri--
c--
ca--
cal--
call--
car--
cat--
ce--
ch--
cha--
char--
chor--
chu--
chuo--
ci--
cieso--
cl--
clima--
co--
coll--
com--
commu--
con--
cu--
d--
da--
dab--
dai--
daly--
dan--
dap--
dar--
dau--
daug--
dauk--
dauma--
daun--
davuo--
de--
ded--
deg--
dekla--
del--
deli--
demb--
den--
der--
derli--
di--
dia--
die--
dies--
dis--
diu--
divizi--
do--
doba--
dobo--
dom--
domin--
don--
dor--
dos--
dou--
dra--
dre--
dri--
drie--
drieg--
dro--
ds--
du--
duo--
dvar--
dvas--
dy--
dz--
e--
ebe--
ec--
ed--
edu--
efe--
eg--
egz--
eil--
eimi--
ein--
eis--
ek--
ekonom--
eks--
ekva--
el--
ele--
elekt--
eli--
em--
ema--
eme--
emi--
emie--
empi--
en--
endz--
ep--
epe--
er--
ero--
ers--
ert--
es--
ese--
et--
eta--
ete--
etno--
eu--
eve--
ex--
expl--
f--
fa--
fat--
fe--
fene--
ferme--
ferna--
fi--
fila--
filos--
fla--
flo--
flu--
fo--
folkl--
for--
fot--
fr--
fu--
fuolkl--
futbol--
g--
ga--
gabo--
gai--
gal--
gali--
gan--
gang--
garbi--
garla--
gas--
gau--
ge--
ged--
gel--
gerd--
geuo--
gi--
gia--
gie--
gim--
ginei--
gio--
gla--
glav--
gle--
gli--
gliou--
glo--
glou--
glu--
gluo--
go--
god--
gol--
gond--
gra--
gre--
gri--
griau--
griu--
gro--
gru--
grum--
gry--
gu--
gul--
gum--
guo--
gy--
gyven--
h--
ha--
haid--
hambu--
han--
he--
hels--
herc--
hi--
him--
hip--
hius--
ho--
holo--
hu--
huog--
hy--
i--
ia--
iau--
ic--
id--
ida--
ide--
idi--
idu--
ie--
ieg--
iem--
ig--
ik--
iki--
iko--
iku--
il--
ila--
ile--
ili--
im--
ima--
ime--
imi--
imperatuo--
imt--
in--
ina--
indu--
infra--
ing--
ini--
ink--
ins--
insti--
inter--
io--
ior--
iou--
ip--
ir--
is--
isi--
it--
ita--
ite--
ito--
itrau--
iu--
iuo--
iuovi--
iur--
iv--
iva--
ivair--
ive--
ivu--
iz--
iza--
j--
ja--
jablu--
jan--
jana--
jap--
jas--
jau--
jauna--
jaut--
je--
jen--
ji--
jie--
jo--
jom--
jor--
jou--
joud--
jouda--
ju--
juo--
juon--
jur--
k--
ka--
kad--
kai--
kal--
kala--
kale--
kali--
kalti--
kam--
kama--
kand--
kap--
kar--
kare--
kari--
kariau--
karo--
kas--
kat--
kata--
kau--
kaz--
ke--
kel--
ken--
kep--
kerna--
kes--
ketor--
kha--
ki--
kia--
kiaul--
kie--
kiera--
kil--
kin--
kla--
klamp--
kle--
kli--
klo--
ko--
kol--
komp--
komu--
kon--
kond--
konserva--
kor--
kos--
kost--
kou--
kra--
krau--
kre--
krem--
kri--
kriau--
kro--
kru--
ks--
kst--
kt--
kta--
ku--
kubi--
kudi--
kun--
kuo--
kuon--
kuos--
kur--
kv--
kvap--
kvart--
kve--
ky--
l--
la--
lai--
lap--
lapa--
lapy--
lat--
lau--
laz--
ldo--
le--
lei--
leng--
leona--
les--
let--
lga--
lgu--
li--
lia--
libe--
lie--
liepa--
liet--
lin--
lio--
lioksembo--
lip--
litu--
litv--
liu--
lk--
lka--
ln--
lo--
lonks--
los--
lou--
lp--
ls--
lt--
lti--
lu--
luo--
ly--
lyga--
m--
ma--
mac--
mag--
magti--
maha--
mair--
makuo--
mal--
mam--
man--
mar--
mara--
marty--
mas--
masi--
mat--
mate--
materi--
mau--
maz--
mc--
me--
medi--
meir--
mel--
mela--
mele--
mels--
memo--
men--
mer--
meridi--
meta--
metro--
mi--
mid--
mie--
mieruo--
mikro--
mili--
milv--
min--
minavuo--
mit--
mo--
moc--
moky--
mon--
mos--
mou--
moz--
mp--
mpe--
mt--
mu--
muh--
muo--
muolo--
mus--
muzi--
my--
n--
na--
nab--
nai--
nas--
nat--
nau--
naudi--
naujo--
navo--
nc--
nd--
ndo--
ndu--
ne--
neb--
nei--
neka--
nem--
neo--
nes--
net--
neu--
neutru--
neva--
nfra--
ng--
nga--
nge--
ngi--
ngo--
ngs--
ni--
nia--
nie--
nio--
niu--
nka--
nki--
nks--
no--
norma--
nos--
ns--
nst--
nte--
nti--
nto--
ntuo--
nu--
nug--
nuo--
nuor--
nus--
o--
oba--
obe--
og--
oi--
oka--
oko--
okra--
oksfu--
oku--
oli--
olymp--
om--
on--
oni--
ont--
op--
or--
org--
os--
ot--
ote--
ou--
ova--
ovi--
p--
pa--
paant--
pab--
pabez--
pad--
pade--
page--
pagri--
pai--
paka--
pake--
paki--
pako--
pala--
pale--
pali--
palu--
pami--
pamuo--
pan--
pana--
pane--
papi--
par--
para--
pas--
pasie--
pasir--
past--
pastorg--
pat--
patri--
patvi--
pau--
pav--
pava--
pavaiz--
pave--
pavi--
pavuo--
pavuoji--
pay--
paz--
pchen--
pe--
pec--
peda--
pel--
pele--
per--
pers--
pes--
pet--
phi--
pi--
piani--
piet--
pikto--
pil--
pju--
pl--
ple--
pli--
pliet--
plu--
po--
pol--
poli--
pop--
por--
pos--
pou--
poul--
pr--
pra--
pras--
pre--
prem--
pri--
prie--
princ--
pris--
pro--
profe--
proje--
pruo--
ps--
pu--
puo--
pus--
q--
qu--
r--
ra--
rac--
rai--
raj--
rake--
rama--
ramu--
rau--
razbai--
rb--
rba--
rbi--
rbt--
rd--
re--
redak--
refere--
reg--
regi--
rekuo--
rem--
remuo--
res--
rez--
rezo--
rhe--
ri--
ria--
rie--
rk--
rka--
rki--
rma--
rmi--
rmo--
ro--
rod--
ron--
rs--
rst--
rt--
rti--
ru--
rugs--
ruo--
ruod--
rus--
ry--
s--
sa--
sai--
sakm--
sal--
salo--
salva--
sam--
san--
sara--
sas--
sau--
saus--
sav--
savi--
sc--
sce--
scie--
scot--
se--
seb--
sek--
sektuo--
sem--
sen--
sena--
senva--
ser--
serg--
sha--
she--
shi--
shoot--
si--
siau--
sie--
silve--
sim--
sin--
sis--
sk--
ska--
skarba--
skard--
ske--
ski--
skirs--
sko--
skor--
skroz--
sla--
sle--
sli--
slo--
sma--
smaln--
sme--
smi--
smie--
smo--
so--
sob--
sobje--
sok--
sokor--
solti--
som--
some--
sop--
sor--
sore--
sos--
sot--
sou--
sp--
spa--
spe--
spi--
spri--
spu--
sra--
sru--
st--
sta--
stam--
stanis--
star--
ste--
steln--
stepo--
sti--
sto--
stou--
stu--
stuo--
su--
sub--
sud--
sun--
suo--
sus--
sva--
sve--
svi--
t--
ta--
tai--
taik--
tal--
tam--
tara--
tarnau--
tarp--
tart--
tas--
tau--
te--
teb--
tehe--
teigi--
tek--
tel--
tele--
tem--
ten--
teo--
tep--
tes--
th--
theo--
ti--
tik--
tim--
tio--
titu--
tku--
tn--
to--
tol--
tom--
ton--
tor--
tos--
tou--
tra--
trans--
tre--
treni--
tri--
triu--
tro--
trom--
trou--
tru--
truop--
ts--
tu--
tuo--
turie--
tv--
tve--
tvi--
ty--
u--
ug--
uk--
ukal--
ul--
um--
un--
univers--
unt--
uo--
uok--
uol--
uorga--
uos--
up--
urugva--
us--
v--
va--
vab--
vacl--
vado--
vago--
vai--
vaid--
vaido--
vais--
val--
vald--
vale--
valo--
van--
vanag--
var--
vari--
varpi--
vasili--
ve--
ved--
veik--
ven--
ves--
vi--
vice--
vid--
vidi--
vie--
vikto--
vil--
vilka--
vingo--
vio--
virb--
vis--
viu--
vla--
vo--
vok--
volun--
vu--
vuo--
vuolde--
vuolu--
vy--
w--
we--
web--
wiki--
wis--
wo--
x--
y--
ya--
z--
za--
zas--
ze--
zi--
zo--
zu--
zuo--
γ--
а--
ан--
бел--
в--
г--
д--
зим--
и--
к--
л--
м--
н--
о--
т--
э--
--0
--1
--2
--3
--4
--5
--6
--7
--8
--9
--93
--a
--ac
--ace
--ad
--ada
--ae
--af
--agi
--agu
--ai
--aike
--ak
--ake
--al
--ala
--ale
--als
--am
--ama
--ame
--ami
--ams
--amu
--an
--antis
--ap
--ar
--are
--aros
--aru
--ary
--as
--at
--ati
--ation
--ato
--au
--aun
--aune
--aupe
--aus
--ause
--ausio
--auta
--autas
--ava
--ave
--avs
--ay
--az
--b
--ba
--bar
--be
--berg
--bergs
--bi
--bla
--bne
--bo
--bor
--bos
--bra
--bs
--bu
--by
--c
--ca
--cal
--cava
--ce
--ch
--ci
--cio
--ck
--co
--cos
--cs
--cted
--d
--da
--dae
--dams
--dauka
--de
--di
--dis
--dka
--dne
--do
--druo
--ds
--du
--duo
--dy
--dz
--e
--ec
--ed
--ede
--edos
--ej
--eja
--ejau
--eje
--ejos
--eju
--eke
--el
--ele
--em
--ems
--en
--ena
--ene
--ens
--enu
--enze
--er
--ere
--ers
--es
--esio
--est
--et
--eta
--ete
--eti
--etis
--etiu
--eto
--etu
--ey
--ez
--f
--fa
--fale
--fats
--fe
--fer
--fera
--ft
--g
--ga
--gas
--ge
--ger
--gh
--ght
--gi
--giele
--giu
--gle
--gne
--go
--gon
--gs
--gu
--h
--ha
--ham
--he
--hi
--hy
--i
--ia
--iai
--ial
--ian
--iau
--ic
--ica
--ice
--ida
--ide
--ie
--ied
--iede
--iedis
--iediu
--ieja
--ieje
--ies
--ight
--ija
--ik
--ika
--ike
--iki
--ikiai
--ikis
--iks
--il
--ima
--ime
--in
--ina
--ine
--ing
--ini
--iniu
--ino
--io
--ion
--ios
--iou
--ir
--ira
--is
--iste
--isve
--it
--ite
--iu
--ium
--iuos
--ius
--ive
--iz
--iza
--ize
--j
--ja
--jam
--jama
--jame
--jant
--jaus
--je
--ji
--jis
--jo
--jos
--jose
--js
--ju
--juo
--jus
--k
--ka
--kai
--kans
--kas
--kc
--kce
--ke
--ki
--kie
--kis
--kiu
--kla
--kle
--kme
--kna
--ko
--kom
--kos
--ks
--kta
--kte
--ku
--kuo
--kus
--l
--la
--lape
--lar
--las
--lav
--lavs
--lb
--lc
--ld
--lda
--lde
--lds
--ldu
--le
--ler
--les
--lf
--lfa
--lge
--li
--lia
--liai
--liave
--lie
--lijus
--lika
--ling
--lio
--liou
--lis
--liu
--lius
--lk
--lka
--lkas
--lke
--lksne
--ll
--lla
--lle
--lmo
--lne
--lnis
--lo
--lon
--lope
--los
--ls
--lta
--lts
--lu
--luogs
--lus
--lve
--ly
--m
--ma
--mai
--maic
--mas
--mb
--me
--ment
--mi
--mic
--mie
--mis
--miu
--mo
--mora
--mos
--mpe
--ms
--mu
--muo
--n
--na
--nai
--nas
--nc
--nce
--nd
--nda
--nde
--ndi
--nds
--ndu
--ndus
--ne
--nele
--ney
--ng
--nga
--nge
--ngs
--ngu
--nho
--ni
--niai
--nie
--nimu
--nis
--niu
--nk
--nka
--nke
--nks
--nn
--nne
--nny
--no
--nos
--novic
--ns
--nsa
--nse
--nsi
--nt
--nta
--nte
--nti
--ntinas
--ntis
--nts
--ntu
--nu
--nuel
--ny
--nys
--nze
--o
--oba
--obe
--oc
--oce
--od
--oda
--ode
--odne
--ods
--odu
--og
--oga
--ogala
--oj
--oja
--oje
--oji
--ojo
--ok
--oka
--okas
--oke
--oki
--oko
--oks
--oku
--ol
--ole
--oli
--oliu
--ols
--om
--oma
--ome
--omene
--oms
--on
--ona
--one
--oni
--onke
--ons
--ont
--onte
--ontis
--ontiu
--onys
--op
--ope
--ops
--or
--ora
--ore
--orios
--oriu
--orius
--ors
--ort
--orte
--ortu
--os
--osa
--ose
--osiu
--ot
--ota
--ote
--oti
--ots
--ou
--oujo
--oune
--ous
--out
--outa
--outas
--outs
--ova
--ove
--ovka
--ovs
--oz
--oza
--p
--pa
--pce
--pe
--pi
--piai
--piena
--pis
--piu
--pka
--po
--ps
--pte
--ptu
--pu
--puolis
--px
--q
--r
--ra
--ral
--ralu
--ras
--rb
--rbe
--rbu
--rc
--rd
--rda
--rdo
--re
--rez
--rg
--rge
--rgs
--ri
--ria
--rija
--rijuo
--rina
--rio
--ris
--rity
--riu
--rke
--rks
--rm
--rn
--rne
--rno
--rns
--ro
--ros
--rro
--rs
--rt
--rta
--rte
--rts
--ru
--ruta
--rve
--ry
--rz
--s
--sa
--sas
--sco
--se
--ser
--si
--sia
--sis
--siu
--sk
--sne
--sni
--snis
--so
--son
--sos
--ss
--st
--ste
--sts
--su
--t
--ta
--tano
--tas
--te
--ted
--ter
--th
--ti
--tic
--tica
--tie
--tika
--tikos
--ting
--tino
--tion
--tions
--tis
--tiu
--tne
--to
--tom
--tos
--tov
--tovs
--tr
--tre
--ts
--tsa
--tt
--tu
--tum
--tuoje
--tuos
--tus
--ty
--u
--ube
--uc
--uda
--ude
--ug
--uga
--uge
--uja
--ujama
--uje
--uji
--uka
--uke
--uks
--ule
--uli
--um
--ume
--ums
--un
--uni
--unis
--uniu
--uo
--uode
--uodnis
--uoge
--uogi
--uoje
--uojo
--uom
--uome
--uomi
--uoni
--uos
--uota
--uote
--uovs
--upe
--ur
--ura
--ure
--us
--use
--usi
--usio
--usiu
--uska
--uskas
--uske
--uste
--ut
--uta
--ute
--uts
--utu
--uz
--v
--va
--vas
--ve
--vele
--vi
--vic
--view
--viu
--vka
--vo
--vs
--vu
--vuos
--w
--wa
--wi
--ws
--x
--y
--yc
--ydz
--ys
--yz
--z
--za
--ze
--zi
--zie
--zo
--zu
--ław
--ς
--а
--е
--и
--к
--м
--о
--т
--ч
--я
--ر
--ن
