!
"
#
##0
##1
##10
##11
##12
##13
##14
##15
##16
##17
##18
##19
##2
##20
##21
##22
##23
##24
##25
##26
##27
##28
##29
##3
##30
##31
##32
##33
##34
##35
##36
##37
##38
##39
##4
##40
##41
##42
##43
##44
##45
##46
##47
##48
##49
##5
##50
##51
##52
##53
##54
##55
##56
##57
##58
##59
##6
##60
##61
##62
##63
##64
##65
##66
##67
##68
##69
##7
##70
##71
##72
##73
##74
##75
##76
##77
##78
##79
##8
##80
##81
##82
##83
##84
##85
##86
##87
##88
##89
##9
##90
##91
##92
##93
##94
##95
##96
##97
##98
##99
$
%
&
'
(
)
*
+
,
-
.
/
0
00
000
01
016670
0175
02
03
033330
04
05
050000
0525
06
066670
07
08
09
1
10
100
1000
10000
100000
101
102
103
104
105
106
107
108
109
11
110
111
112
113
114
115
116
116670
1167
117
118
119
12
120
121
122
123
124
125
126
127
1275
128
129
13
130
131
132
133
133330
134
135
136
137
138
1389
139
14
140
141
142
143
144
145
146
147
148
149
15
150
1500
15000
151
152
153
154
155
156
157
1575
158
159
16
160
161
1617
162
163
164
165
166
1667
167
1675
168
169
17
170
1700
171
172
173
1736
174
175
176
177
1775
178
1789
179
1794
1797
18
180
1800
1803
1806
1808
1809
181
1810
1813
1814
1815
1817
1818
1819
182
1820
1821
1822
1823
1825
1826
1827
1828
1829
183
1830
1831
1832
1833
183330
1834
1835
1836
1837
1838
1839
184
1840
1841
1842
1843
1844
1845
1846
1847
1848
1849
185
1850
1851
1852
1853
1854
1855
1856
1857
1858
1859
186
1860
1861
1862
1863
1864
1865
1866
1867
1868
1869
187
1870
1871
1872
1873
1874
1875
1876
1877
1878
1879
188
1880
1881
1882
1883
1884
1885
1886
1887
1888
1889
189
1890
1891
1892
1893
1894
1895
1896
1897
1898
1899
19
190
1900
1901
1902
1903
1904
1905
1906
1907
1908
1909
191
1910
1911
1912
1913
1914
1915
1916
1917
1918
1919
192
1920
1921
1922
1923
1924
1925
1926
1927
1928
1929
193
1930
1931
1932
1933
1934
1935
1936
1937
1938
1939
194
1940
1941
1942
1943
1944
1945
1946
1947
1948
1949
195
1950
1951
1952
1953
1954
1955
1956
1957
1958
1959
196
1960
1961
1962
1963
1964
1965
1966
1967
1968
1969
197
1970
1971
1972
1973
1974
1975
1976
1977
1978
1979
198
1980
1981
1982
1983
1984
1985
1986
1987
1988
1989
199
1990
1991
1992
1993
1994
1995
1996
1997
1998
1999
2
20
200
2000
20000
2001
2002
2003
2004
2005
2006
2007
2008
2009
201
2010
2011
2012
2013
2014
2015
2016
2017
2018
2019
202
2020
2021
2022
203
204
205
206
207
2075
208
209
21
210
211
212
213
214
215
216
217
218
219
22
220
221
222
223
224
225
226
227
228
229
23
230
231
232
233
234
235
236
237
238
239
24
240
241
242
243
244
245
246
247
248
249
25
250
251
252
253
254
255
256
257
258
259
26
260
261
262
263
264
265
266
267
268
269
27
270
271
272
273
274
275
276
277
2775
278
279
28
280
281
282
283
284
285
286
287
288
289
29
290
291
292
293
294
295
296
297
298
299
3
30
300
30000
300000
301
302
303
304
305
306
307
308
309
31
310
311
312
313
314
315
316
316670
317
318
319
32
320
321
322
323
324
325
326
327
328
329
33
330
331
332
333
334
335
336
337
338
339
34
340
341
342
343
344
345
346
347
348
349
35
350
35000
351
352
353
354
355
356
357
358
359
36
360
361
362
363
364
365
366
366670
367
368
369
37
370
371
372
373
374
375
376
377
378
379
38
380
381
382
383
384
385
386
387
388
389
39
390
391
392
393
394
395
396
397
398
399
4
40
400
400000
401
402
403
404
405
406
407
408
409
41
410
411
412
413
414
415
416
416670
417
418
419
42
420
421
422
423
424
425
426
427
428
429
43
430
431
432
433
434
435
436
437
438
439
44
440
441
442
443
444
445
446
447
448
449
45
450
451
452
453
454
455
456
457
458
459
46
460
461
462
463
464
465
466
467
469
47
470
471
472
475
476
479
48
480
482
483
483330
485
486
49
490
495
498
5
50
500
5000
500000
501
503
505
507
51
510
515
516
517
519
52
520
521
525
53
533330
535
54
540
545
55
550
553
555
56
560
57
575
58
5825
583330
585
59
595
6
60
600
605
61
615
616670
62
625
63
635
64
645
65
655
66
67
675
68
69
7
70
700
700000
705
71
715
716670
72
73
733330
735
74
75
750000
755
76
766670
77
775
78
783330
79
8
80
800
800000
81
815
816670
82
825
83
833330
835
84
85
850000
86
865
866670
87
88
883330
885
89
9
90
900
900000
9025
91
916670
92
93
94
95
950000
955
96
966670
97
978
98
983330
99
995
:
;
<
=
>
?
@
[
\
]
^
_
`
a
aa
aai
aaron
ab
aba
abacino
abaik
abaldonar
abalieno
aban
abanar
abanderar
abanderizar
abandonar
abanicar
abaratar
abarcar
abarloar
abarquillar
abarrotar
abastar
abastardar
abastecer
abatatar
abbrevio
abdakos
abdasa
abdicar
abdo
abducir
abduco
abdul
abe
abel
abena
aberrar
abesiva
abhorreo
abicio
abidy
abigarrar
abigo
abismar
abiugo
abiungo
abiuro
abjurar
ablandar
ablaqueo
ablativa
abloco
abluir
abnegar
abnego
abo
abocar
abocetar
abocinar
abofar
abofetear
abolefacio
aboleo
abolir
abominar
abonar
abrado
abraham
abrahama
abrahamika
abripio
abscedo
abscido
absolvo
absorbeo
abstergeo
absterreo
abstineo
abstraho
absumo
abu
abuka
abun
ac
acade
academia
academy
acampar
accendo
accenseo
accent
accepto
accessed
accessible
accingo
accio
accipio
accolo
accommodo
accumulo
accuro
accurro
accusito
accuso
acervo
achille
acquiro
acteur
actito
acumino
ad
ada
adaero
adaggero
adala
adalo
adam
adama
adamo
adams
adaoro
adaperio
adapto
adaucto
adaugeo
adbibo
addico
addigito
additions
addo
adduco
ade
adedo
adelungius
adeo
adesco
adesiva
adfundo
adhalo
adhamo
adhibeo
adhibitis
adiady
adiana
adicio
adidy
adigey
adijady
adik
adika
adimizana
adimo
adimpleo
adin
adina
adinspecto
adinvenio
adiny
adiudico
adiugo
adiuto
adiuvo
adizaoza
admaturo
adminiculo
administro
admisceo
admitto
admoneo
admordeo
admutilo
adnecto
adnoto
adnumero
adnuntio
ado
adoleo
adolf
adolphe
adoperio
adopto
adorno
adoro
adrian
adrien
adultero
adumbro
adun
aduna
aduno
aduro
adveho
advelo
adventista
adverbero
adverto
advoco
advolo
advolvo
ady
ae
aedifico
aequidisto
aestimo
aestuo
aevi
af
afa
afaka
afangaro
afar
afara
afaŋ
afeliany
affe
affecto
afficio
affigo
affiguro
affingo
affirmo
afflecto
afflicto
affligo
afflo
affodio
affrico
afganista
afiŋ
afo
afobe
afon
afotroa
afovoan
afovoany
africa
african
afrika
afrikaans
afrikana
afrique
afro
afun
afuna
ag
aga
age
aggenero
agglome
agglomero
agglutino
aggravo
aggrego
agguberno
agir
agito
agne
agnosco
ago
agoan
agon
agostino
agreste
aguardar
ah
aha
ahafahan
ahafahana
ahafantarana
ahaingo
ahalanian
ahana
ahatsiarovana
ahaza
ahazoana
ahiahy
ahitana
ahitn
ahito
ahitra
ahmad
ahmed
aho
ahoana
ahy
ai
aia
aik
aika
aim
aime
ain
aina
ainaɾe
ainga
aingam
ainy
air
airan
aires
ais
aise
aisne
ait
aix
aiza
aizana
aizina
aiŋ
aiŋk
aiɾana
aj
aja
ak
aka
akade
akademia
akademiens
akaikin
akaiky
akan
akana
akanga
akanjo
akat
akaza
ake
akemenida
akian
akik
akin
akio
ako
akoho
akoma
akondro
akony
akora
akoran
akory
aktif
akuana
akunɖ
akut
aky
al
ala
alabama
alagoano
alagoas
alahadin
alahady
alahamady
alahasaty
alahelo
alain
alaina
alaka
alakamisy
alakaosy
alakarabo
alalan
alalana
alam
alan
alana
alanana
alany
alaotra
alaska
alasora
alativa
alatsinainy
albaney
albania
albanian
albedo
albert
alberto
albi
albin
alcover
ale
alefa
alegre
aleha
aleksandra
aleksandria
aleksidze
alema
alemaina
alen
alenc
alessandro
alex
alexander
alexandre
alexei
alexis
alfonso
alfred
alfredo
ali
aliana
alice
alieno
alik
alika
alimentar
alimo
alin
alina
aliorum
alitara
allaboro
allacrimo
allah
allan
allatro
allaudo
allecto
allego
allen
allevio
allevo
allicefacio
allicio
allido
allier
alligo
allino
alloco
alo
aloa
aloalo
aloha
alohan
alohany
alohotsy
aloka
alona
alpes
alphonse
alterno
altero
althaus
alto
alun
alves
alzeria
am
ama
amalona
amam
aman
amana
amand
amando
amany
amar
amaŋ
amban
ambanin
ambanivohitra
ambany
ambara
ambaratonga
ambedo
ambehivavy
ambiko
ambin
ambina
ambo
amboa
amboadia
amboahaolo
ambohidrabiby
ambohidratrimo
ambohimanga
ambolena
ambon
ambonin
ambony
ambositra
ambulo
amburo
amby
ame
amen
amento
america
american
amerika
amerikana
amerikanina
amharika
ami
amiana
amicio
amidy
amiens
amik
amiko
amim
amin
amina
aminao
aminareo
aminy
amitto
amo
amoron
amorontsiraka
amos
amoveo
ampaha
ampahan
ampahany
ampahibemaso
ampan
ampanga
ampanihy
ampela
ampi
ampiana
ampiasain
ampiasaina
ampidirina
ampiharina
ampimbana
ampinga
ampitahaina
ampitso
amplifico
amplio
ampondra
amponga
ampy
amu
amy
an
ana
anabavin
anabavy
anad
anadahy
anaik
anain
anak
anaka
analamanga
anam
anan
anana
ananan
ananana
ananaɾe
anankiray
ananɖ
anao
anaovana
anaram
anaran
anarana
anaranao
anarany
anareo
anat
anatam
anataŋ
anatin
anatiny
anato
anatrehan
anaty
anay
anaŋ
anaɾe
ancien
and
anda
andak
andalan
andalana
andalovan
andalusia
andan
andana
andaniny
andavanandro
andehilahy
andelys
anderson
andevo
andhra
andian
andiany
andilan
andininy
ando
andohalambo
andraikitra
andrana
andrao
andre
andrea
andreas
andrefan
andrefana
andrei
andrew
andriamanitra
andriamanitry
andriamanjaka
andriamasinavalona
andriamby
andriana
andrianamboninolona
andrianampoinimerina
andriandahy
andriandoriamanjaka
andrianjaka
andriantompokoindrindra
andro
androany
andron
androngo
androny
androy
andry
andy
ane
anefa
aneka
anelanelan
anelanelany
angady
angamba
angamenavava
angano
angario
angatra
ange
angeles
angelo
angers
angira
anglais
angletera
anglikana
anglisy
ango
angoly
angon
angona
angovo
angrejhi
angulo
angustio
angusto
anhui
ani
anie
anik
anika
anim
animadverto
animo
anin
anina
aninana
aninaɾe
anio
anisa
anisan
aniser
anit
anivon
aniŋ
anja
anjaika
anjakan
anjara
anjaran
anjelin
anjely
anka
ankabeazan
ankalazaina
ankalazana
ankamaroan
ankamaroany
ankapobeny
ankazoabo
ankehitrin
ankehitrinin
ankehitriny
ankizy
ankoatr
ankoatra
ankoatry
ann
anna
anne
annie
ano
anoano
anoina
anoratana
anosy
ans
ant
antala
antambahoaka
antambo
antananarivo
antandroy
antankarana
antanosy
antarktika
antecapio
antecedo
antedico
antefasy
antefero
antehabeo
antemoro
antenantenany
antenatenany
antenimiera
antenimieram
antesaka
anteverto
anthony
anti
anticipo
antio
antiquities
antiquo
antitra
anto
antoandro
antoine
antoka
antoko
antokom
antokon
anton
antoni
antonio
antonontonony
antonony
antony
antra
antranonkala
antsa
antsan
antsantsa
antsasaky
antsasany
antsifotsy
antsik
antsika
antsipirihany
antsirabe
antsiranana
antso
antsoin
antsoina
antson
antsy
anum
anuna
anuŋ
any
anyan
anɖ
ao
aogositra
aoka
aoly
aon
aorian
aoriana
aorista
aostralia
aostro
aotra
aotrisy
ap
apa
apak
apan
aperio
aperto
apet
apetraka
apin
apo
apoculo
apokrifa
apologo
apostoly
appa
appareo
apparo
appello
appendo
appie
applico
appono
apporto
apprehendo
approbo
appromitto
appugno
apputo
aprily
apto
aquitaine
ar
ara
arabe
arabia
arabic
arabico
arabisches
arabo
arabum
arachide
aragonesa
arahin
arahina
arak
araka
arakaraka
aram
arama
arameana
aran
arana
aratra
arc
arceo
arcesso
archibald
archive
archived
arcuo
arde
ardennaise
ardennaises
ardennes
ardeo
are
arefacio
areti
aretin
aretina
argentan
argonne
arguments
arguo
ariana
ariary
arie
arika
arin
arina
arintany
arira
arivo
arizona
arjentina
arkansas
arkeo
arla
armagnac
armand
arme
armenia
armenian
armeniana
armo
arn
arnaud
arnold
aro
aroa
aromainina
arovana
arras
arrideo
arrigo
arripio
arrogo
arrondissement
art
artakserksesy
arthur
articulo
arto
artois
ary
aryan
as
asa
asabotsy
asaina
asaka
asam
asan
asanao
asany
ascendo
ascio
ascisco
ascribo
aseho
asia
asian
asiana
asidra
asik
asin
asina
asiria
asiriana
asirianina
asistero
asitero
asombola
asorotany
aspecto
aspergo
aspero
aspicio
asporto
asservo
assevero
assicco
assignifico
assigno
assimulo
association
assuo
asterno
astero
astoriana
astrangulo
astringo
astrisma
astro
astruo
asuna
asy
at
ata
atahorana
ataik
atam
atana
atao
ataon
ataony
ataovy
ataŋ
aterineto
ati
atia
atidoha
atin
atlantika
atlantique
atlantiques
ato
atody
atokana
aton
atona
atonton
atosika
atra
atrika
atsika
atsimo
atsimon
atsinanan
atsinanana
atsy
attamino
attempero
attempt
attendo
attento
attenuo
attermino
attero
attexo
attineo
attingo
attitulo
attondeo
attono
attraho
attrecto
attribulo
attribuo
atuana
atuka
atut
aty
au
aube
aubin
aubusson
auch
auctito
aucto
auctorizo
auctoro
aude
auden
audik
audio
aufero
augeo
augmented
auguro
august
auguste
augustin
augusto
augustus
auk
auka
aukaɾe
aum
aun
aurigo
aurillac
ausculto
austin
australia
aut
auto
autode
autohe
autore
autote
autriche
autumo
auvergne
aux
auzana
auŋ
auʔana
av
ava
avaik
avaiŋ
avan
avana
avaratr
avaratra
avaratry
ave
avec
aveho
avela
avello
averto
avesnes
aveyron
aviana
aviavy
avik
avin
avina
avit
aviŋ
avo
avoco
avokoa
avolo
avon
avrily
avuk
avun
avuna
avy
aw
ax
axel
ay
az
aza
azak
azan
azana
azerbaija
azerbaijana
azeri
azia
aziatika
azik
azo
azon
azonao
azony
azuna
azur
azy
aŋ
aɖ
aɪ
aɳan
aɾ
aɾaiŋk
aɾak
aɾan
aɾana
aɾat
aɾe
aɾend
aɾet
aɾia
aɾiana
aɾik
aɾina
aɾuak
aɾuna
aʔam
aʔan
aʔaŋ
aʔiak
aʔit
aʔuan
aʔun
aʔuna
aʔuŋ
b
ba
baba
babilo
babo
bad
bada
badan
badik
badisso
bado
bady
bag
baha
bahary
bahasa
bahay
bahia
bahiny
bahoaka
bahoakan
bahri
bai
baiano
baiboly
baik
baiko
bain
baina
bains
baiulo
baiŋ
bak
baka
bakam
bakan
bakana
baker
bakiteny
bako
baku
bal
bala
balala
balam
balan
balaonina
balear
balearic
balise
ball
balotsy
bam
bambara
bamos
ban
bana
banak
banan
banana
bananaɾe
banane
banaɾe
band
banga
bangladesh
bango
bangoa
banin
banky
banto
bantsik
banɖ
bao
baolina
baovao
baptiste
bar
bara
baraka
bararata
barbara
baro
baroka
baron
barotra
barra
barre
barreiro
barry
barthe
bary
bas
basa
basam
basan
basana
base
baseball
bashkir
basic
basikety
basio
bassin
bastien
basy
bat
bata
batam
batan
batana
batemy
batisa
batisan
batista
bato
battista
battuo
batum
batun
bava
baventy
bavie
bavin
bay
bayonne
bazaha
bazak
bazan
bazana
bazanaɾe
bazaʔan
bazim
baŋ
baɾ
baɾan
baɾana
baɾat
baɾik
baɾin
baʔam
baʔana
baʔem
be
beach
beatifico
beauce
beaumont
beaune
beauvais
bebe
bec
bedana
behivavy
bek
bel
bela
belarosiana
belarosy
bell
belley
belligero
belo
belona
belzika
bem
bemanana
ben
bena
benak
benan
benana
benanaɾe
benaɾe
benedico
benefacio
benenitra
bengal
bengali
beni
benjamin
benjamina
benoi
beo
ber
berg
berger
bergerac
berlin
berminggu
bernard
bernardo
bernay
bernhard
berntsen
beroroha
bert
bertrand
besar
besat
besavily
best
bet
beta
betioky
betro
betsaka
betsileo
betsimisaraka
bevava
bezanozano
beɾenana
beɾin
beɾina
beɾiveɾena
bgn
bi
bia
biak
bian
biana
bianchi
bibikely
bibilava
bible
bibo
biby
bid
bidy
bie
big
bik
bika
bikina
bil
bila
bill
billy
bilodid
bim
bin
bina
binak
binan
binana
binanaɾe
binaɾe
binina
bintsik
bio
biolgara
bipartio
birao
biraom
bis
bisao
bisikileta
bisikilety
bit
bitam
bitika
bitro
bizantina
biŋ
biʔan
biʔana
bla
black
blanc
blanche
ble
blench
blois
bn
bo
boa
boalohany
boan
bob
bobby
bocsa
boda
bodisma
bodo
body
boeny
bohitra
bois
boka
bokim
bokin
bokiny
bokmal
bokotra
boky
bol
bola
bolan
bolana
bolantany
bolena
bolgaria
bolo
bolody
boloky
bom
bombay
bon
bonga
bongo
boninahitra
bonnet
bony
boo
book
books
bor
bordeaux
boribory
boris
borja
borkina
boroka
boromesa
borona
borondy
bory
boston
bot
bota
botry
botsoana
boulogne
bourbon
bourg
bourges
bourgogne
boyer
bozaka
br
bra
bray
brazil
brazila
bre
brepols
bresse
brest
bretagne
breto
brevio
brian
brie
briey
brill
britanika
british
bro
brothers
brown
bru
bruce
bruno
bu
bua
buad
buak
buam
buan
buana
buanaɾe
buand
buat
buaŋ
buc
buchnera
bud
budapest
buenos
buin
buina
buk
buka
bul
bula
bulam
bulan
bulana
bulena
bulenana
bulin
bulina
bullio
bullo
buluana
bulun
bum
bun
buna
bunak
bunan
bunana
bunanaɾe
bunaɾe
bunin
buntsik
bunɖ
bus
but
butan
butana
butler
butum
buŋ
buɐ
buɾam
buɾan
buɾana
buɾit
buɾum
buɾuɾut
buʔak
buʔan
buʔana
buʔanaɾe
buʔit
by
bɐ
bɑ
bɔ
bə
bɛ
c
ca
caballico
cachinno
cacumino
cado
caeco
caelo
cafe
cahors
cal
calais
calceo
calcio
calcitro
calco
calcular
calculo
calefacio
california
caligo
call
calmar
calo
cambrai
cambridge
cameron
camille
camillo
campagne
campbell
campo
campos
campso
can
cancello
candefacio
cane
cange
canne
cantal
cantar
cantito
canton
cap
cape
capesso
capio
captivo
capto
car
carcassonne
cardinal
careo
carl
carlo
carlos
carmino
carolina
caroline
carpenterius
carpo
carrico
casa
casimir
casse
cassepe
castan
castifico
castigar
castigo
castille
castres
castro
catala
catalana
catalans
catalonia
catarina
cate
catherine
catir
caucasian
caucasica
cauterio
caux
caveo
cavo
cd
ce
ceara
cecil
celero
celo
ceno
censeo
center
central
centre
centro
centuplico
century
cerno
cernuo
cero
ces
cesare
cesso
ch
cha
chalo
chalon
champagne
chapelle
chapter
charente
charles
charleville
charlie
charlotte
charlton
chartres
chaumont
che
chen
chennai
cher
chi
chicago
chinon
chir
cho
choisir
chre
chris
christ
christian
christine
christoph
christophe
christopher
chu
church
ci
cia
cibo
cie
cieo
cine
cingo
cio
circino
circulo
circumaedifico
circumago
circumaro
circumaspicio
circumcido
circumcingo
circumcludo
circumcolo
circumdo
circumduco
circumeo
circumfarcio
circumflecto
circumflo
circumfundo
circumicio
circumlego
circumligo
circumlino
circummitto
circummunio
circumplecto
circumplico
circumpono
circumrado
circumretio
circumroto
circumsaepio
circumscribo
circumseco
circumsisto
circumspargo
circumspecto
circumspicio
circumsto
circumstrepo
circumstringo
circumtego
circumvallo
circumvecto
circumvenio
circumvolo
cite
citharizo
cito
citta
city
ck
claire
clamito
clamo
clarendon
clarifico
clark
claro
classical
claude
claudico
cle
clepo
clermont
clinaison
clipeo
co
coacervo
coacto
coaduno
coaedifico
coaequo
coagmento
coagulo
coambulo
coangusto
coarguo
coarto
coaxo
code
coeo
coerceo
cogito
cognomino
cognosco
cogo
cohabito
cohibeo
cohonesto
coinquino
cole
colin
collaboro
collaudo
college
collido
colligo
collino
collins
colliquo
colloco
colloquial
collustro
colo
colorado
coloro
columbia
com
combino
comburo
comedo
comitio
commando
comme
commendo
commeo
commereo
commigro
commingo
comminuo
commisceo
commission
committo
commodo
commolo
commonefacio
commoneo
commonstro
commordeo
commoveo
commulceo
communaute
communes
communio
commurmuro
commuto
como
comores
company
comparative
comparo
compedio
compello
compensar
compenso
comperendino
comperio
competo
compie
compilo
compingo
complano
complanto
compleo
complexo
complico
complodo
comploro
compono
comporto
compostela
comprehendo
comprehensive
comprimo
compter
compungo
computo
comte
con
concedo
concelebro
concelo
concerno
concerpo
concerto
concieo
concilio
concinno
concipio
concise
concito
conclamo
concludo
concoquo
concredo
concremo
concreo
concubeo
conculco
concupisco
concurro
concurso
concutio
conde
condecerno
condemno
condenso
condescendo
condico
condio
condom
condono
condumno
conecto
confe
confectum
confercio
confero
conficio
configo
configuro
confingo
confirmar
confisco
conflicto
confligo
conflo
confodio
conformo
conforto
confoveo
confrico
confringo
confundo
confuto
congemo
congero
conglacio
conglobo
conglorifico
conglutino
congo
congrego
conicio
coniecto
coniugo
coniungo
conlacrimo
connumero
conquiro
conquistar
conrad
conregno
consaluto
consano
consarcino
conscelero
conscendo
conscindo
conscisco
conscribo
conseco
consecro
conseil
consentio
consepelio
consero
conservo
considerar
considero
consido
consigno
consocio
consolar
consolido
consopio
conspergo
conspicio
conspuo
constabilio
constant
constantin
constantinople
consterno
constituo
constringo
construo
constupro
consultar
consummo
consumo
consuo
contabulo
contamino
contego
contemno
contempero
contemporane
contenebro
contero
contexo
contigno
contineo
contingo
continuo
contorqueo
contraho
contravenio
contre
contrecto
contribulo
contristo
contrucido
contrudo
contundo
conturbo
convalo
conveho
convello
convenio
converso
converto
convestio
convinco
convivifico
convoco
convolo
convolvo
convulnero
cooper
cooperio
coopto
coord
coordinates
copulo
coquino
core
cornelis
cornell
corono
corporo
corpus
corre
corresuscito
corripio
corroboro
corrogo
corrugo
corrumpo
corruo
corse
corte
costa
coteaux
couchitique
country
county
court
covid
cowan
cpb
crassifico
cre
cremo
creo
creuse
cribro
crimino
crispo
crivain
croix
crucifigo
crucio
cruento
cruz
cs
ctor
cu
cubito
cudo
culo
culpo
culture
cumulo
cuneo
cupio
curar
curo
curto
curvo
cuspido
cy
cyril
cœur
d
da
dabo
dada
daharampehintany
daharanjarahasin
dahatsoratra
daholo
dahy
daibuun
daijirin
daiŋ
daka
dakota
dala
dalam
dalan
dalana
dalmasianina
dam
damba
dame
damno
dan
dana
danemarka
daniel
daniela
daniely
danin
danisy
danitra
danja
danmarka
danny
dans
danske
dany
dapino
dar
dari
daring
dario
das
dasa
dat
data
database
datam
date
datolya
daty
dava
dave
david
davida
davis
day
daŋ
dcvb
de
dealbo
deambulo
deargento
debello
debilitar
debilito
decanto
decedo
december
decerpo
decerto
decimo
decipio
declamito
declamo
declaro
declino
decoloro
decoquo
decoro
decortico
decurro
decusso
dedecoro
dedico
dedolo
deduco
defatigo
defendo
defenso
defero
deficio
defigo
defingo
definio
deflagro
deflecto
defodio
deformo
defraudo
defrico
defringo
degenero
degre
degusto
dehaurio
dehibe
dehibem
dehonesto
deicio
deiero
deiudico
deiugo
deiungo
deiuvo
del
dela
delecto
delego
delenio
deleo
delhi
delibro
delibuo
delico
deligo
delineo
delingo
dell
della
deludo
dem
demando
demento
demereo
demergo
demeto
demigro
deminuo
demitto
demo
demonia
demonstro
demony
demoveo
demulceo
den
denego
denis
dennis
denomino
denoto
denudo
denuntio
deo
deonero
deotero
depan
departamentan
departemanta
departemantan
departementan
department
depasco
depello
deperdo
depereo
depilo
depingo
depleo
deplico
deploro
depono
depopulo
deporto
depravo
deprehendo
deprimo
depromo
depso
depudico
depugno
deputo
der
dera
derado
derelinquo
derideo
derigo
deripio
derivo
derogo
des
desacro
desambra
descendo
describo
description
deseco
desero
deservio
desidero
designo
desilio
desimaly
desino
desolo
despero
despicio
despolio
despondeo
desponso
desterno
destillo
destino
destituo
destringo
destruo
desudo
desuefacio
det
detero
deterreo
detineo
detondeo
detono
detorqueo
detraho
detrudo
deturbo
deturpo
deux
devasto
deveho
devenio
deverro
devinco
devio
devirgino
devito
devoco
devolo
devolvo
devoly
devoro
di
dia
diaka
diakonoff
diakronis
dialect
dialectes
diamondra
dian
diana
diccionari
diccionario
diciona
dicionario
dicionarios
dick
dico
dictionaries
dictionary
dictionnaire
dictito
dicto
didier
didim
didin
dido
diduco
didy
die
diego
dieppe
dieter
dieu
diffamo
diffindo
diffundo
digero
digitized
digito
dihy
diiudico
dijon
dik
dika
dikan
dikantenin
dikany
diksionera
dilacero
dilanio
dilato
diligo
dim
dimano
dimby
dimico
diminuo
dimitto
dimoveo
dimy
din
dina
dinastia
dingana
dinika
dinosco
dinumero
dio
diocesan
diplo
dir
diribeo
dirigo
dirimo
diripio
dirumpo
diruo
dis
discarrico
discedo
discepto
discerno
discerpo
discingo
discludo
disco
discontinuo
discooperio
discoquo
discordo
discribo
discrimino
discrucio
disculcio
discumbo
discurro
discutio
disgrego
disicio
disiecto
disiungo
diso
dispareo
disparo
dispartio
dispenso
disperdo
dispergo
dispertio
dispicio
displaystyle
displiceo
dispono
disputo
disrumpo
disseco
dissemino
dissentio
dissero
dissimulo
dissipo
dissuo
distendo
distineo
distinguo
distorqueo
distraho
distribuo
distrika
distrikan
distringo
disturbo
dit
dite
ditra
divarico
divay
divello
divendo
diverto
divexo
divido
divino
divisar
divulgo
dizier
djeuharii
djibouti
dmitri
do
dobo
doc
doce
doctoral
doha
doka
doko
dokotera
domain
domenico
domfront
dominar
dominique
domo
don
dona
donald
dong
dongan
donner
dono
dorana
dordogne
doria
dormito
dos
doto
douard
double
douce
douglas
doza
dr
dra
dradama
drafipeo
drafitra
dragona
draha
draharaha
drainy
drakitra
dralambo
dranavalona
drano
dranomasina
dranon
dratsy
dray
drazana
dre
drehetra
dreniny
dreny
dreux
drima
drivotra
dro
droa
dron
dronono
dry
du
dubito
dubois
duc
duco
duden
duke
dulcifico
dum
dumka
dun
dunkerque
duplico
dur
durand
durar
dus
dut
duŋ
dvd
dwibahasa
dy
dz
dzi
dzie
dɐ
dɔ
də
dɛ
e
ean
east
eastern
eaux
eban
ebena
ebibo
ebin
ebo
ebreo
ebuna
ecclesiastical
ed
edana
eddie
edgar
edicio
edissero
edited
edition
editor
editors
edmond
edmund
edo
edu
eduard
eduardo
education
educo
edward
edwards
edwin
efa
efaka
efan
efana
efatra
effemino
effercio
effero
effeto
efficio
efflagito
efflo
effodio
efformo
effoveo
effreno
effringo
effugio
effugo
efi
efitr
efitra
efoka
efraima
egipta
egiptiana
eglizy
ei
eicio
eiero
ein
eis
eiulo
eiuro
eivoka
eja
ejaan
ejipsiana
ejipsianina
ejipta
ek
ekabahasa
eken
ekena
ekin
eko
ekoato
eks
eksklioziva
el
ela
elaboro
elak
elana
elanelana
elanelany
elativa
elatra
elca
ele
electriso
elefanta
elektiro
elektronik
elementary
elevo
elia
elido
eligo
elik
elimo
elingo
elisabeth
elizabeth
ellis
elo
eloco
eluana
elucido
eluo
ely
em
ema
emana
emancipo
emano
emargino
emban
embo
emboka
embon
emendico
emendo
emereo
emergo
emico
emil
emilio
emisceo
emitto
emmanuel
emollio
emoneo
emoveo
emperora
empira
empire
emundo
emungo
en
ena
enak
enao
enareo
enato
enavigo
enay
enaɾe
enciclope
enciclopedia
encyclopedia
end
endak
endolzansy
endri
endribe
endrik
endrika
endriky
endrikyny
endriny
eneco
enervo
engan
english
enik
enina
eno
enodo
enoto
enpr
enrico
ensiklopedis
entana
enti
entim
entimilaza
entin
entina
entr
entre
entsika
enubo
enumero
enuntio
enutrio
environs
eny
enɖ
eo
eokaristia
eoro
eoropa
eoropeana
eoskara
epifania
epistilin
epistily
epo
epuka
er
era
eradico
erado
eran
erana
eric
erich
erigo
erik
erika
erikandro
erin
eripio
eritrea
eritreritra
ernest
ernst
ero
eroa
erodo
erreur
erro
error
erstein
erubesco
eructo
erudio
erumpo
erunco
eruo
erwin
ery
erythre
es
esan
escalfar
escendo
esdrasa
esek
esina
esiva
eskato
eske
eso
esorina
espaina
espan
espanio
espaniola
espe
especificar
esperanto
espi
essonne
est
este
estera
estirar
esto
estoniana
estudis
esurio
et
eta
etak
etaka
etan
etazonia
ethiopie
etik
etin
etina
etio
eto
etona
ets
etsy
ety
etymological
eu
euge
eugen
eugene
eun
eure
europe
eus
euskal
euskaltzaindia
euskaltzaindiaren
ev
eva
evacuo
evado
evagino
evan
evanjelika
evanjelin
evanjely
evans
evaporo
eve
eveho
eveka
evello
everro
everto
evina
evincio
evinco
eviro
evitch
evito
evoco
evolo
evolvo
evomo
evuk
ex
exacuo
exaedifico
exaequo
exaestuo
exagito
exaltar
exalto
examino
exanimo
exaro
exaspero
exauctoro
exaudio
excaeco
excalceo
excavo
excentricite
excerno
excerpo
excipio
excitar
exclamo
excludo
excogito
excolo
excorio
excremo
excrucio
excubo
excudo
exculco
excurro
excuso
excutio
exe
exedo
exeo
exerceo
exercito
exerro
exhalo
exhibeo
exhilaro
exhonoro
exigo
eximo
exinanio
existe
existimo
exiuro
exonero
exopto
exoro
exosso
expando
expavesco
expe
expedio
expeiuro
expello
expendo
expergefacio
expergo
expeto
expilo
expio
explano
expleo
explico
explodo
exploro
expolio
expono
exporrigo
exporto
exprimo
exprobro
expromo
expulso
expungo
expurgo
exquiro
exsaturo
exscindo
exscreo
exscribo
exsculpo
exseco
exsero
exsibilo
exsicco
exsolvo
exsorbeo
exspecto
exspiro
exspolio
exspuo
exstillo
exstinguo
exstirpo
exstruo
exsulo
exsulto
exsupero
exsuscito
extendo
extentero
extenuo
extergeo
extermino
exterreo
extinguo
extorqueo
extrico
extrudo
exubero
exulcero
exulo
exululo
exuro
ez
ezaka
ezana
ezekiela
ezik
ezin
ezina
ezra
eŋ
eɾin
eɾuk
eʔ
eʔan
f
fa
fabrefacio
fabrico
facesso
facio
factito
facto
fadim
fadin
fady
faenero
fafana
faha
fahababoana
fahadimy
fahadisoana
fahafahan
fahafahana
fahafatesan
fahafatesana
fahafatesany
fahafinaretana
fahafito
fahagagana
fahaiza
fahaizana
fahalalahana
fahalalana
fahalehibiazana
fahaleovan
fahamarinan
fahamarinana
fahantrana
faharariana
faharavan
faharetan
faharetana
faharoa
faharoan
fahasahiranana
fahasalamana
fahasamihafan
fahasamihafana
fahasivy
fahasoavana
fahatelo
fahatelon
fahaterahan
fahaterahana
fahatongavan
fahatongavana
fahatsiarovana
fahavalo
fahavaratra
fahaverezana
fahavoazana
fahavokarana
fahazavan
fahazavana
fahazazana
fahazoan
fahazoana
fahefa
fahefan
fahefana
fahefany
fahefatra
fahendrena
fahenina
fahiny
fahirano
fahita
fahitalavitra
fahitana
fahombiazana
fahoriana
fahotana
faika
faingo
faisana
fajiry
faka
fakan
fakana
fako
fal
fala
falim
fallo
falls
falso
faly
fam
famadihana
famaizana
famakafakana
famakiana
faman
famantarana
famarana
famaranana
famaritan
famaritana
famaŋ
fambolena
famelabelarana
famelan
fameno
famenon
famerenana
famet
fametrahana
faminaniana
faminavinana
famindram
famindrana
famoahana
famoasana
famokarana
famonjena
famonoan
famonoana
famorana
famoretana
famoronana
fampahalalana
fampakaram
fampakarana
fampandrosoana
fampi
fampian
fampianaran
fampianarana
fampianarany
fampiasa
fampiasana
fampidirana
fampiharana
fampisehoana
fampitanana
fampivoarana
famut
famuŋ
fan
fana
fanabeazana
fanad
fanadihadiana
fanadinana
fanadinoana
fanadiovana
fanafahana
fanafarana
fanafihana
fanafoanana
fanafody
fanafohezana
fanagasiana
fanahiana
fanahin
fanahy
fanaintainana
fanajana
fanaka
fanakambanana
fanala
fanalana
fanam
fanamafisana
fanamarihana
fanamarinana
fanambadiana
fanambakana
fanambara
fanambarana
fanamboarana
fanamelohana
fanampiana
fanampin
fanampiny
fanan
fananahana
fananan
fananana
fananany
fananarana
fanandevozana
fanandroana
fananganana
fanangonana
fanantenana
fananɖ
fanao
fanaon
fanaovan
fanaovana
fanapahan
fanapahana
fanaperana
fanaraha
fanarahana
fanasam
fanasan
fanasana
fanasitranana
fanasokajiana
fanat
fanatam
fanatanjahan
fanatanterahana
fanataŋ
fanatitra
fanatsarana
fanavahana
fanavakavahana
fanavaozana
fanaviana
fanavotana
fanazavana
fanaŋ
fand
fandaharan
fandaharana
fandalinana
fandaminana
fandaniana
fandavana
fandefasana
fandeferana
fandeha
fandehanana
fandevenana
fandidiana
fandika
fandikan
fandikana
fandinihana
fandoavana
fandoroana
fandosirana
fandrafetana
fandraharahana
fandraisana
fandrao
fandrarana
fandravana
fandresen
fandresena
fandriam
fandriana
fandripahana
fandroahana
fandroana
fandrosoana
fanehoan
fanehoana
fanekem
fanekena
fanem
fanenjehana
fanerena
fanesorana
fanet
fanetrena
faneva
fangalarina
fangatahana
fangitra
fanilo
fanin
fanindroany
faninɖ
faniriana
fanisam
fanisana
fanitarana
fanitsiana
fanitso
fanjaka
fanjakan
fanjakana
fanjakany
fanjanahan
fanjanahantany
fanjava
fanjonoana
fankahalana
fankalazana
fankasitrahana
fano
fanodinana
fanohanana
fanoharana
fanoherana
fanohizana
fanokafana
fanomanana
fanombohan
fanomezam
fanomezan
fanomezana
fanompoam
fanompoan
fanompoana
fanonanana
fanondranana
fanonganam
fanononana
fanononanas
fanontana
fanontaniana
fanoratana
fanorenana
fanosorana
fanoto
fanovana
fanta
fantaka
fantatra
fantatry
fantoka
fantsaka
fantsika
fantsona
fanum
fanunɖ
fanuŋ
fanɖ
faohana
fara
farafangana
farafara
faraingo
faralahy
faramparan
faran
farango
farany
farao
fararano
farcio
fare
fari
faribolana
farihin
farihy
fariseo
faritan
faritana
faritanin
faritany
faritr
faritra
faritry
farittra
fars
fary
fasan
fasana
fascino
fasika
faso
fastidio
fat
fatana
fatiantoka
fatorana
fatra
fatratra
faty
faure
favre
faŋ
faʔaŋ
fe
febricito
febroary
februa
february
federico
fedra
fefy
fehezam
fehezan
fehezankevitra
fehezanteny
fehiben
fehikibo
fehin
fehy
felix
fello
femino
fen
fenisiana
fenitra
feno
feo
feon
feony
fepetra
fer
ferdinand
fermento
ferna
fernand
fernando
fero
feroianina
ferrand
fervefacio
fet
feta
fetin
feto
fetra
fety
fi
fia
fiadana
fiadanana
fiadiana
fiadidiana
fiafaran
fiaina
fiainan
fiainana
fiainany
fiaka
fiakaran
fiakarana
fialam
fialan
fialana
fialofana
fiam
fiampangana
fian
fiana
fianakavia
fianakaviam
fianakaviambe
fianakavian
fianakaviana
fianakaviany
fianarana
fianarantsoa
fiandohan
fiandohana
fiandrasana
fiandrianana
fiangonan
fiangonana
fianianana
fiantombohan
fiantraikany
fiantrana
fiantsoana
fianɖ
fiara
fiaraha
fiarahabana
fiarahamonina
fiarakodia
fiaramanidina
fiarovana
fiasa
fiasana
fiatoana
fiavian
fiaviana
fiaviany
fiaŋ
fid
fide
fideiubeo
fiderana
fidiovana
fidiran
fidirana
fiekem
field
fien
fiendrika
fieritreretana
fifadian
fifam
fifampiraharahana
fifan
fifanaovana
fifanarahana
fifanat
fifand
fifandirana
fifandonana
fifandraisan
fifandraisana
fifandraisany
fifanekena
fifaninanana
fifanɖ
fifaŋ
fifehezana
fifidianana
fifindra
fifohazam
fifohazana
fifth
figo
figuro
fiha
fihaonan
fihaonana
fihavanana
fihaviana
fihetseham
fihetsehana
fihetsika
fihetsiketsehana
fiheverana
fihinana
fihinanana
fihirana
fihisahana
fihodinana
fijaliana
fijanonana
fijery
fik
fikajiana
fikambanam
fikambanan
fikambanana
fikarakarana
fikarohana
fikasana
fikomian
fikomiana
fikorontanana
fikut
fil
fila
filaharana
filalaovana
filamatra
filaminana
filan
filana
filaza
filazam
filazana
filazantsara
filazantsaran
filefitry
filipina
filippo
filistina
filo
filoha
filoham
filohan
filokana
fin
finaritra
finday
fingo
fingotra
finiavana
finio
finiste
finlandy
finoa
finoan
finoana
finoany
fiomanana
fiombonan
fiombonana
fiompiana
fiompy
fiovan
fiovana
fipasohana
fipetrahana
fira
firaisan
firaisana
firaketana
firakotra
firapotsy
firavoravoana
firazanana
firehana
firenen
firenena
firesahana
firmo
fironany
first
firuzabadiique
firy
fisa
fisainana
fisaka
fisakaizana
fisalasalana
fisam
fisaonana
fisaorana
fisarahana
fisat
fisaŋ
fischer
fisehoan
fisehoana
fisialin
fisialy
fisian
fisiana
fisondrotana
fit
fita
fitafiana
fitahiana
fitam
fitambaran
fitambarana
fitana
fitanana
fitandremana
fitantanana
fitantarana
fitaovam
fitaovana
fitaratra
fitarihan
fitaterana
fitaŋ
fitenenana
fitenim
fitenin
fiteny
fitia
fitiavan
fitiavana
fito
fitoana
fitodika
fitoeran
fitoerana
fitokanana
fitomaniana
fitomboan
fitomboana
fitondram
fitondran
fitondrana
fitoriana
fitovian
fitoviana
fitrandrahana
fitsaboana
fitsaharana
fitsanganan
fitsanganana
fitsapan
fitsarana
fitsikerana
fitsingerenana
fitsipi
fitsipika
fitsipiteny
fitsiŋ
fitum
fium
fivahiniana
fivarotana
fivavahan
fivavahana
fivelarana
fiverenan
fivoahan
fivoahana
fivoaran
fivoarana
fivoasana
fivondronan
fivoriana
fivuŋ
fizakan
fizara
fizaran
fizarana
fizarazarana
fizika
fiŋ
fiɖ
fjkm
flagello
flagito
flagro
flammo
flato
fle
flecto
flm
flo
florence
florida
flour
fluctuo
fluito
fmg
fo
foana
foclo
fodico
fodio
foedero
foedo
fofona
fohy
foibe
foiben
foitra
foix
foko
fokon
fokonolona
fola
follico
folo
foly
fomba
fombafomba
fombam
fomban
fon
fonction
fondranana
fonenan
fonenana
fonja
fono
fonohasina
fonosana
fontaine
fony
footballeur
for
fora
fore
forez
form
forme
formido
formo
foro
fort
fortifico
fortuno
fotaka
foto
fotoam
fotoan
fotoana
fotorana
fototeny
fototra
fototry
fotsiana
fotsiny
fotsy
found
foveo
fox
foza
fr
fra
fraenkel
fran
franc
france
francesc
francesco
franche
francis
francisco
franco
frango
frank
franklin
frantsa
frantsay
franz
fraudo
fre
fred
frederick
free
freebase
freelang
french
freno
frequento
fresne
freytag
frico
friedrich
frigo
friola
fritz
frizo
from
fructifico
frustro
frutico
ft
fu
fuco
fugito
fugo
fujian
fulguro
fulmino
fum
fumi
fumigo
fumo
fun
fund
funero
funɖ
fustigo
fut
fy
fɔ
g
ga
gabo
gabriel
gabriela
gad
gada
gadin
gadina
gaeilge
gaelika
gaelita
gaffiot
gaga
gai
gaik
gain
gaina
gaiŋ
gak
gaka
gakukan
gal
gala
galan
galana
galaŋ
galega
galego
galeo
galicia
galik
galilea
galisiana
galit
galiʔan
galiʔana
gam
gambia
gan
gana
ganagana
ganak
ganan
ganana
gananaɾe
ganaɾe
ganina
gantsik
gaon
gara
garci
gard
garonne
garrio
gary
gasaŋ
gaspard
gaston
gasy
gat
gatana
gavana
gaza
gazana
gazety
gazun
gazuna
gazunan
gazunana
gaŋ
gaɖ
gaɾak
gaɾan
gaɾana
gaɾanana
gaɾanaɾe
gaɾina
gaɾun
gaʔan
gaʔana
ge
ged
gedana
gegenwart
gek
gel
gelin
gelina
gelo
gemmo
gemo
gen
gena
genan
genana
genaɾe
gene
general
genero
genesisy
genuŋ
geoffroy
geonames
georg
george
georges
georgia
ger
gerais
gerald
gerhard
germain
german
germino
gero
gers
gesto
get
gevenan
gevenana
gevin
gevina
geɖ
geɾenan
geɾenana
geɾik
geɾin
geɾina
geɾinaɾe
geɾiŋ
geɾun
geɾuna
geɾunan
geɾunana
geɾuŋ
geʔan
geʔana
gh
gi
gia
giacomo
giak
gian
giana
gianaɾe
giaŋ
gid
gidaiŋ
gidiŋ
gidro
gigno
gik
gil
gilan
gilana
gilat
gilaʔilana
gilbert
giliŋ
gilles
gim
gin
gina
ginaiŋ
ginan
ginana
ginaŋ
ginaɾe
ginea
gintsik
gio
gion
giorgio
giovanni
gippert
giranadela
girard
girofle
girolamo
gironde
girons
gis
gisa
git
gita
gitak
gitan
gitana
gitanaɾe
gitara
gitaŋ
giulio
giuseppe
giviŋ
gizin
gizina
gizinan
gizinana
giɖ
giɾaiŋ
giɾan
giɾana
giɾaŋ
giɾik
giɾiŋ
giɾiʔan
giɾiʔana
giɾuŋ
glacio
glise
glo
global
glorificar
glorifico
glossarium
gluttio
gmt
gne
gno
go
goallons
goarani
goavana
god
godoro
goia
goiano
goire
gojaraty
golii
gonza
google
gordon
gottfried
gov
governemanta
governemantan
government
gr
gra
grafia
grafian
graham
grama
grammar
grammatical
grammaticale
grammatikka
gran
grand
grande
grandense
grant
gravo
gray
gre
great
greek
green
grego
gregoriana
gregory
grenoble
gresy
grika
grisia
grisy
grosso
group
grove
grup
grupo
gs
gu
gua
guak
guan
guana
guanaɾe
guangdong
guangxi
guangzhou
guavana
guaŋ
guberno
gudin
gudina
gue
gued
guez
gufuŋ
guide
guido
guillaume
guin
guina
guinovart
guizhou
guk
guka
gulaŋ
guleʔan
guleʔana
gulik
gum
gun
guna
gunak
gunan
gunana
gunanaɾe
gunaɾe
guntsik
gunuŋ
gupaŋ
gustav
gustave
gusto
gut
gutak
gutan
gutana
gutanaɾe
guvaŋ
guvuŋ
guy
guzuŋ
guŋ
guɐ
guɾan
guɾana
guɾaŋ
guɾin
guɾun
guɾuna
guɾunan
guɾunana
gwoyeu
gyo
h
ha
haambo
haavo
haavon
haba
habakabaka
habakoka
habeny
habeo
habetsahana
habibiana
habilito
habito
hachette
hadisoan
hadisoana
hady
haesito
hafa
hafahafa
hafaliana
hafanana
hafatra
hafohezina
hagay
hagfa
haha
hahafahana
hahatonga
hahazo
hahazoana
hahita
hai
hain
haingana
haingo
hainkintana
haino
haintany
haisoratra
haiteny
haizina
haja
hak
haka
hakeliny
hakitroka
hakka
hal
hala
halam
halava
halavam
halavan
halavany
halavirana
hall
halle
halo
ham
hama
hamaizin
hamec
hamilton
hamono
hampifan
han
hana
hanampy
hanana
hanao
hanaovana
hanaraka
handeha
handray
handrina
handron
hangeul
hanina
hanjaka
hanome
hans
hantsana
hany
hao
haofotsy
haombary
haosa
hara
haran
harato
hardev
harefo
harem
haren
harena
haricot
hariva
harold
harona
harper
harrassowitz
harris
harrison
harry
harvey
hary
has
hasin
hasina
hasoany
hassan
hat
hatao
hatoka
hatra
hatramin
hatrany
hatry
hatsiaka
haurio
haut
haute
hautes
hauts
havana
havanana
havany
havesarana
havia
havoana
havre
hawaiianina
hay
hayward
hazandrano
hazavana
hazo
hazon
he
hebeto
hebreo
hebrew
hehy
hei
heights
heilongjiang
heinrich
heinz
helatra
helitra
helmut
helodrano
helodranon
heloka
helotra
helpe
helsinki
hemo
hen
hena
henan
henatra
hendry
heniheny
henjana
heno
henoka
henri
henry
hentitra
heny
herbert
heredito
herim
herin
herinandro
herintaona
herisetra
herman
hermann
hero
herve
hery
hesse
hetra
hetsika
hetsy
hety
heverin
heverina
heveriny
hevi
heviny
hevitr
hevitra
hevitry
hi
hia
hiady
hiaina
hiala
hianao
hianareo
hiberno
hiditra
hidodikodonany
hie
hiemo
hifampian
hifan
hifona
hijery
hilaire
hilaro
hilazana
hiligaynon
hill
hills
hin
hindi
hindo
hindoisma
hindy
hio
hippolyte
hira
hiragana
hiram
hiran
hirana
hirangirana
hiseho
hisian
histoire
historien
history
hisy
hita
hitan
hiteraka
hitondra
hitsara
hiverina
hivoka
hiztegia
hn
ho
hoa
hoala
hoalan
hoavy
hodi
hoditra
hoe
hofenoina
hoho
hok
hokkien
holatra
holy
homalium
home
homme
homophones
honahona
hong
hongaria
hongariana
hono
honore
honorifico
honoro
hopitaly
hora
horace
horintsina
horizonte
horohoron
horonantsary
horst
hosy
hota
hoto
house
hova
howard
hoy
href
hta
html
http
https
hu
hua
hubei
hubert
hue
hugh
hugo
hugues
hui
humilio
humo
hun
hunan
hungarian
hy
hyo
hyphenation
i
ia
iacio
iacto
iahveh
iainana
iam
ian
iana
ianak
ianao
ianareo
iangy
iantsoana
iarahana
iat
iaveh
iavian
iazak
iazana
iaŋ
iaʔan
iaʔana
ib
ibero
ibn
ibuka
ibun
ic
id
ida
idaho
ide
idian
idin
idina
idiny
idiome
ido
idy
ie
ieiuno
iento
ier
if
ifam
ifan
ifanad
ifanam
ifanan
ifananɖ
ifanat
ifanatam
ifanataŋ
ifanaŋ
ifand
ifanum
ifanuŋ
ifanɖ
ifaŋ
ifin
ign
ignace
ignio
ignoro
ignosco
igor
ihany
iharan
iharana
iho
ii
iii
ijanon
ik
ika
ikala
ikin
ikit
iko
iky
il
ila
ilaina
ilak
ilan
ilana
ilany
ilativa
ilay
ilazana
ilg
ilga
ilian
ilina
illaqueo
illicio
illido
illigo
illino
illinois
illudo
illumino
illustre
illustro
ilo
ilon
iluna
ilustrita
im
ima
imak
imamo
imana
imaso
imbibo
imbuo
imerina
immergo
immisceo
immuto
impedio
impello
impendo
imperfekta
imperfektiva
imperito
impermisceo
impertio
impetro
impingo
impinguo
impleo
imploro
impono
importo
imprimo
improbo
impugno
imputo
in
ina
inaedifico
inaequo
inalto
inanio
inao
inarcto
inareo
inaro
inaudio
inauguro
inauro
inay
inc
incanto
incedo
incepto
incerno
incesso
incesto
incido
incinero
incingo
incipio
incito
inclamo
including
incoho
incommodo
incorporar
incorporo
incrasso
inculco
incurro
incursito
incurso
incurvo
incutio
ind
indago
index
india
indian
indiana
indianina
indico
indo
indonesia
indonezia
indonezianina
indormio
indostria
indostrialy
indra
indrafo
indraindray
indran
indray
indre
indrindra
indro
indroa
indry
induco
indulco
ine
inebrio
ineko
inen
ineo
inesiva
infamo
infercio
infero
infesto
inficio
infigo
infimæ
infinitiva
infirmo
inflamar
inflammo
inflecto
infligo
inflo
info
infobox
infodio
information
informatise
informatizado
informo
infreno
infrigido
infringo
infundo
infusco
inge
ingemo
ingenero
ingeniculo
ingero
ingigno
ingravo
ingurgito
inhabito
inhalo
inhibeo
inhonoro
iniana
inicio
inik
inimico
inin
initio
injeniera
inkeroismurteiden
inklioziva
inmitto
innato
innavigo
innecto
innotesco
innovo
innuo
innutrio
ino
inoana
inoculo
inoktitoty
inona
inquieto
inquino
inquiro
inruo
inscribo
insculpo
inseco
insee
insero
inservio
insideo
insignio
insimulo
insinuo
inspecto
inspergo
inspicio
inspiro
instauro
insterno
instigo
instillo
instituo
institut
institute
instituto
instrepo
instringo
instroktiva
instytut
insulo
insulto
insumo
insuo
insusurro
inte
intego
integro
intellego
intendo
intento
intercalo
intercedo
intercido
intercipio
intercludo
intercurro
interdico
interfodio
intericio
interiungo
interlingua
intermisceo
intermitto
intermoveo
international
internet
internosco
intero
interpello
interplico
interpolo
interpono
interrogar
interrumpo
interscindo
interscribo
interseco
intersero
interstinguo
interturbo
intervenio
interverto
intexo
intimo
intinguo
intono
intorqueo
intraho
intro
introduco
introduction
introfero
intromitto
introrumpo
introspicio
intsika
intsony
inty
inuktitut
inundo
inunguo
invado
inveho
invenio
inverto
investigo
investio
invetero
invigilo
inviso
invito
invocar
invoco
involvo
iny
inɖ
io
iombonana
iowa
ip
ipa
ipik
ir
ira
iraika
iraisam
iraisana
iraka
iran
iranian
iraniana
iray
ire
ireny
ireo
irery
ireto
irish
irlanda
irlandey
irretio
irrideo
irrigo
irrito
irrogo
irrumo
is
isa
isaac
isabelle
isaia
isaina
isak
isaka
isaky
isam
isan
isana
isany
isbn
ise
iser
isfahan
isika
isina
isiraely
island
islandey
islands
islandy
isle
iso
israelita
israely
issoire
istilah
istituto
it
ita
italia
italiana
italianina
itana
itanka
itero
ithaca
iti
itiana
itin
ito
its
itsy
ituana
ity
iu
iubilo
iucundo
iugo
iugulo
iuka
ium
iungo
iurgo
iuro
iustifico
iuvan
iuvo
iuʔak
iuʔana
iv
iva
ivan
ivelan
ivelany
ivo
ivoho
ivon
ivy
ix
iz
iza
izahay
izaho
izaia
izaitsizy
izan
izany
izao
izay
izdateljstva
izina
izy
iŋ
iƶoran
iɖ
iɾ
iɾana
iɾik
iɾin
iʔin
j
ja
jabatan
jack
jackson
jacky
jacob
jacqueline
jacques
jadona
jakarta
jako
jakob
jakoba
jam
james
jami
jan
jana
janaka
jane
janeiro
janoary
jaona
japa
japana
japanese
japo
japoney
jarahasiny
jato
jaton
java
javaboahary
javamaniry
javaney
javascript
javatra
jay
jaza
jazyka
je
jean
jeanne
jeho
jehovah
jeneraly
jentilisa
jeo
jer
jeremia
jerena
jereo
jermanika
jero
jerosalema
jerry
jery
jesoa
jesosy
jesus
jeune
jewish
ji
jia
jiafotsy
jian
jiana
jiangsu
jiboty
jika
jilin
jim
jimmy
jin
jiny
jiolahy
jiona
jiosy
jirama
jiro
jisho
jiten
jo
joa
joachim
joan
joany
jobily
joda
jodaisma
jodasy
jodea
jody
joe
johan
johann
johannes
john
johnny
johnson
jolay
jon
jona
jonathan
jones
jono
jonzac
jordan
jordana
jorge
joro
jos
jose
josef
josefa
joseph
journal
jpl
jr
ju
juan
jules
julian
julien
julius
juls
july
junus
jupiter
just
justin
jy
jyutping
jɐ
jɑ
jɔ
jə
jɛ
jʌ
k
ka
kaavompeo
kabakabaka
kabardianina
kabary
kabeso
kabet
kabila
kad
kadoa
kady
kafa
kafan
kafana
kafe
kafin
kafut
kahie
kai
kain
kainkintana
kajimirindra
kajy
kal
kala
kalam
kalandrie
kalbos
kalifa
kalifornia
kalipsin
kalipsy
kalo
kam
kamaitso
kaman
kamasina
kambana
kambo
kamboty
kamerona
kamiao
kamil
kamio
kamo
kamus
kan
kana
kanaana
kanada
kanakana
kanana
kand
kandida
kanefa
kanin
kanina
kanji
kankana
kankanjila
kannara
kano
kansas
kanto
kantoney
kantong
kanɖ
kao
kaodim
kaodin
kaody
kaohsiung
kaokazy
kaominin
kaominina
kaonty
kaornisy
kapa
kapila
kapo
kapoka
kar
kara
karama
karan
karatra
karazam
karazan
karazana
karazany
karbo
karelianina
karemy
karena
kareo
karismatika
karl
karnataka
karo
kary
kas
kase
kashi
kasit
kaspiana
kastila
kat
kata
katalana
katam
katara
kathmandu
kato
katolika
katona
katra
katrobo
katsaka
katso
kau
kavio
kaw
kay
kaza
kazaksta
kazo
kazum
kazun
kaŋ
kaɾ
kaɾat
kaʔat
kbbi
ke
kebudayaan
kecil
keel
keelen
keith
kel
kelikely
kelin
keloka
kely
kem
kementerian
ken
kena
kenatra
kend
kendry
kenenana
kenia
kenin
kenina
kennedy
kenneth
kentucky
kenɖ
kerala
keriny
kery
kesika
ket
ketrina
ketsa
kevi
kevin
kevit
kevitra
kevitry
key
kha
khan
khi
kho
khorasan
khuzestan
ki
kia
kiado
kiady
kian
kianja
kibany
kibay
kibo
kibon
kid
kiev
kifafa
kik
kilalao
kilema
kilo
kilometatra
kilonjy
kim
kimera
kin
kina
kinan
kinana
kinaɾe
kind
king
kinga
kintan
kintana
kinyarwanda
kinɖ
kioba
kiorda
kipra
kira
kiraro
kirgiza
kiro
kis
kisina
kisoa
kit
kita
kitabistan
kitapo
kitay
kitoza
kitra
kitrara
kitro
kitsoa
kla
klaus
klioba
klo
km
knowledge
ko
koa
koan
koba
kodiarana
koditra
kofehy
kojakoja
koji
kokoa
kokugo
kol
kola
kolejy
kolikoly
kolo
kolombia
kolontsaina
kom
komity
kon
kondo
kong
kongo
konsily
kor
kora
korana
korda
korea
koreana
koreanina
koronantsary
korontana
kos
kosa
kosamandala
kota
kotroka
kr
kra
krasia
kratika
kratikan
kre
krifa
kristiana
kristianina
kristianisma
kristy
kro
kroazada
kropfitsch
ks
ksa
kserksesy
ksitana
kto
ku
kua
kud
kuk
kul
kum
kun
kuna
kunan
kunana
kununana
kunɖ
kur
kurt
kus
kut
kuŋ
kuɖ
kwa
ky
kyo
kɐ
kɑ
kɔ
kɔn
kɔŋ
kə
kəɾ
l
la
labefacio
labefacto
labiera
labo
laboro
lacesso
lacrimo
lacuno
ladin
ladobo
laedo
laetifico
laeto
lafatra
lafika
lafin
lafiny
lafo
lafy
lagida
laha
laharam
laharan
laharana
lahateny
lahatra
lahatsoratra
lahiaivo
lahin
lahy
lai
lainga
laisoa
laiŋ
lak
laka
lakan
lakana
lakandrano
lake
lakile
lakolosy
lala
lalam
lalamby
lalan
lalana
lalao
lalina
lam
lama
lamba
lamban
lambert
lambo
lamo
lan
lana
land
lande
landes
landihazo
landy
lane
lang
langon
langres
language
languages
langue
languedoc
lanitra
lanja
lanjan
lanona
lanonana
lanto
lany
lao
laon
laoniny
lapa
lapan
lar
lara
larry
lars
las
lasa
lasan
lasany
lasoa
lat
lataka
lateinischen
latin
latina
latinitatis
latinum
latito
latitude
latro
latsa
latsaka
latsaky
lau
laudo
laurent
lava
lavaka
laval
lavalava
lavar
lavenona
lavitra
lavo
lavorary
lawrence
laxo
lay
laza
lazain
lazaina
lazam
laŋ
lc
le
lea
learners
lectito
lee
lefa
lefitra
lego
lehibe
lehiben
lehilahy
lei
leiden
lela
lelaka
lem
lemaio
lemaka
lembalemba
lemboka
lemboky
lempona
lemy
len
lena
lengua
leningrad
lenio
lenta
leo
leon
leonard
leonardo
leopold
ler
les
lestat
leste
let
leta
leto
lev
level
levigo
levo
levy
lewis
lexicon
ley
lez
lezo
lgarski
lgarskija
lhasa
lhl
li
lia
liana
liaoning
liba
liberia
libero
libia
libo
libris
libro
lie
lien
lietuviu
life
ligne
ligo
ligurio
lik
lika
like
lille
lilley
lim
lima
limborgisy
limito
limo
limoges
limoux
lin
line
lineziana
lingala
lingo
lingu
lingua
linguistics
links
linquo
linux
lio
lioka
liona
lionel
liquefacio
lis
lisa
lisabeth
lisbon
lise
liser
lisio
lisitra
lisitry
lisy
lit
lita
litera
literatiora
lithuanian
litigo
litika
litikan
lito
litoania
litoanianina
litorjika
litte
liu
lix
lkz
ll
lla
lle
llengua
ller
lloyd
lo
loa
loaka
loatra
loba
locito
loco
locupleto
lode
lofo
loga
logas
logo
logos
loha
lohahevitra
lohalika
lohan
lohany
loharano
loharanom
loharanon
lohasaha
lohasahan
lohataona
lohateny
loholona
loi
loir
loire
lojban
loka
lokanga
loko
lokony
loksamborgisy
loksemborga
lolo
lon
london
long
longinquo
longo
lons
lorenz
lorenzo
lorraine
los
lot
lotera
loterana
loto
lou
louis
louise
loup
lova
lovantsofina
love
lovia
loza
loze
ls
lt
lu
lua
lubrico
luc
lucas
lucien
lucrifacio
ludifico
ludo
ludwig
lui
luigi
luis
lum
lumino
luna
lund
lune
luno
lurco
lustro
lutheran
luŋ
lvarez
ly
lympho
lɑ
lɔ
lə
lɛ
m
ma
mabille
mac
maceo
macero
machine
mackenzie
macmillan
macto
maculo
mad
madagascar
madagasikara
madefacio
madeleine
madhya
madinidinika
madinika
madio
madras
madrid
mafana
mafy
magne
magnifico
magnus
magyar
maha
mahafaly
mahafantatra
mahafaoka
mahafaty
mahafinaritra
mahagaga
mahajanga
mahakasika
mahalala
mahalasa
mahaleo
mahantra
maharashtra
mahare
maharitra
mahasoa
mahatonga
mahatratra
mahatsiaro
mahavita
mahay
mahazatra
mahazo
mahe
maherin
mahery
mahia
mahita
mahitsy
mai
maika
mailaka
maim
maimbo
main
maina
maine
maingoka
mainka
maintsy
mainty
maire
mais
maitso
maivana
maizina
majika
mak
maka
makabeo
makedo
mako
makoa
makoan
mal
mala
malagasy
malahelo
malaio
malakia
malala
malalaka
malaoy
malay
malayalam
malaza
maledico
malefacio
malefaka
malemy
maley
malezia
malgache
malia
maligno
malleo
malo
maloto
malta
maltey
maltho
maly
mam
mama
mamadika
mamaha
mamakivaky
mamaky
mamaly
mamantatra
mamarana
mamaritra
mamatotra
mamba
mamela
mamelatra
mamely
mameno
mamerina
mamers
mametaka
mametra
mametraka
mamindra
mamintina
mamirapiratra
mamitaka
mamoaka
mamoha
mamokatra
mamonjy
mamono
mamorona
mamoy
mampianatra
mampiankina
mampiasa
mampiavaka
mampiditra
mampifan
mampifandray
mampinono
mampiseho
mampisy
mampita
mampitohy
mampitranga
mamy
man
mana
manaboka
manadino
manadio
manafay
manafina
manafoana
manahy
manaikitra
manaiky
manaitra
manaja
manakaiky
manakara
manala
manaloka
manam
manamafy
manamarika
manamarina
manambady
manambara
manamboatra
manamorona
manampahaizana
manampatra
manampy
manan
manana
manandratra
manangana
manangona
mananjary
manano
manantena
manantitra
manao
manapaka
manara
manaraka
manarana
manarona
manary
manasa
manasabaka
manasaraka
manasavoana
manase
manat
manatanteraka
manatitra
manatodika
manatrika
manatsoaka
manaty
manau
manavaka
manazava
manche
mancipo
mand
manda
mandady
mandala
mandalo
mandan
mandanja
mandany
mandao
mandar
mandarina
mandavan
mandefa
mandeha
mandevona
mandia
mandidy
mandika
mandimby
mandinika
mando
mandoa
mandoro
mandositra
mandoto
mandra
mandrafitra
mandraka
mandrakariva
mandrakizay
mandrakotra
mandrava
mandray
mandre
mandresy
mandringana
mandripaka
mandritra
mandritry
mandro
mandroaka
mandroba
mandroso
mandry
manduco
manefa
maneho
maneno
maneo
maneran
manerana
manery
maneso
manfred
manga
mangahazo
mangalatra
mangataka
mangatsiaka
mangidy
mangina
mango
mangoro
mangotraka
mania
manico
manidina
manifesto
manify
manimba
manin
manina
manindrona
maninjara
manirery
maniry
manisa
manisy
manitatra
manitra
manitsaka
manitsy
manizasio
manja
manjaka
manjary
mankalaza
mankany
manksa
mano
manoatra
manodidin
manodidina
manodidon
manohana
manohitra
manohy
manokana
manolo
manoloana
manolotra
manomana
manomboka
manome
manompo
manondraka
manondro
manonitra
manonona
manontany
manontolo
manoratra
manorina
manoro
manosika
manosotra
manotra
manova
mans
mansueto
manta
mantes
mantsy
manuel
manumitto
many
manɖ
maori
maorisy
maoritania
mapudungun
mar
mara
maraina
maranha
marani
maranitra
marary
marathi
marc
marcar
marcel
march
marche
marco
marcus
mare
margaret
marguerite
mari
maria
mariano
mariazy
marie
marihina
marika
mariky
marin
marina
marindin
mario
marion
maripana
maritime
maritimes
marito
marius
mark
marka
marko
marne
maro
maromaro
mars
marsa
marseille
marshall
marti
martial
martin
martsa
mary
maryland
mas
masa
masaka
masay
masedo
masikoro
masin
masina
masindahy
maso
masoandro
masoivoho
masoivohon
masomboly
mason
massachusetts
mastico
masundara
mat
mata
matahotra
matanjaka
matavy
matematika
matetika
matevina
mateza
mathieu
matin
matio
mato
matoantenin
matoanteny
matoatoa
matory
matsiatra
matthew
matthias
maty
mau
maurice
mavesatra
mavitrika
mavo
max
maxine
may
maya
mayotte
maza
mazava
maŋ
mba
mbamin
mbia
mbo
mbola
mcgregor
md
me
media
medico
medieval
medii
medio
mediteranea
mediæ
meikai
meinong
meißner
meksika
mello
meloka
memoro
men
mena
menabe
menaka
mende
mendico
mendrika
mengamuskan
menstruo
ment
meo
mer
mereo
mergo
meridio
merina
merito
mero
merso
mes
mesa
mesia
mesnil
meso
met
meta
metaly
metatra
meto
metro
metropolitana
metros
metuo
mety
meurthe
meuse
mexico
mey
meyer
mez
mezo
mg
mi
mia
miadana
miady
miafara
miafina
miai
miaiky
miaina
miainga
miakatra
miala
mialoha
miampita
miampy
mian
mianatra
mianatsimo
miandalana
miandry
mianiana
mianjady
mianjera
miankina
miantoka
miantso
miaoli
miara
miaraka
miaramila
miarina
miaro
miary
miasa
miavaka
michael
michel
michigan
mico
microsoft
mid
midadasika
midera
midi
midika
midina
miditra
mie
miely
miendrika
mieritreritra
miezaka
mifam
mifamoivoho
mifampivoho
mifan
mifana
mifanakaiky
mifanakalon
mifanandrify
mifanao
mifanaraka
mifanat
mifand
mifandraika
mifandratra
mifandray
mifangaro
mifanohitra
mifantoka
mifanɖ
mifarana
mifaŋ
mifehy
mifidy
mifindra
mifototra
migrar
migro
miguel
miha
mihady
mihaino
mihantona
mihaona
mihataka
mihatra
mihazona
mihemotra
mihena
mihetsika
mihevitra
mihinana
mihira
mihitsy
mihoa
mihoatra
mihodikodina
mihodina
miisa
mijanona
mijery
mijoro
mik
mika
mikaela
mikalo
mikambana
mikapoka
mikarakara
mikaroka
mikasika
mikasikan
mike
mikea
mikendry
mikhai
mikisaka
mikoriana
mikro
mila
milahatra
milalao
milamina
milan
milatsaka
milaza
mile
milina
milito
millau
miller
miloko
milton
min
minas
minen
mineraly
minggu
mingguan
mingo
minh
mini
minisitry
ministeran
ministro
ministry
minnesota
mino
minora
minuo
mio
miomana
miombona
miompana
miondrika
miorina
miova
miovaova
miozolmana
miparitaka
mipetraka
mipoaka
mipoitra
miraharaha
miraika
miraikitra
mirakitra
mirana
mirande
miray
mirefy
mirehitra
miresaka
miro
mis
misahana
misaina
misakafo
misakana
misalasala
misaotra
misaraka
misasa
misceo
miseho
misereo
misintona
misio
misiona
misionera
misokatra
misolo
misotro
missing
mission
missionary
mississippi
missouri
misy
mit
mita
mitady
mitaha
mitahiry
mitaky
mitam
mitambatra
mitan
mitana
mitandrina
mitanisa
mitantana
mitantara
mitaona
mitarika
mitazona
mitchell
miteny
miteraka
mitigo
mito
mitodika
mitoetra
mitohy
mitokana
mitomany
mitombo
mitondra
mitoraka
mitory
mitovitovy
mitovy
mitranga
mitsambikina
mitsangana
mitsapa
mitsinjo
mitsipaka
mitsoaka
mitsoka
mitto
mivadika
mivady
mivaky
mivantana
mivarina
mivarotra
mivavaka
mivelatra
mivelona
miverina
mivezivezy
mividy
mivoaka
mivoha
mizaka
mizana
mizara
ml
mlcts
mly
mm
mn
mo
moa
modely
modern
modificar
module
mody
mofo
mohamady
mohamed
mohammad
mohammed
moka
molestar
molesworth
moll
mollio
molo
molotra
momba
momban
mon
monde
moneo
mongoly
monier
monina
monique
monja
monstro
mont
montagne
montana
montbard
montbrison
monte
montpellier
montre
montreuil
monts
monumenta
mony
moore
mora
moramora
morbifico
mordeo
more
moreau
morgan
morlaix
morombe
morona
morondava
morontsiraka
morrissey
mort
mortagne
mortifico
mos
mosary
moselle
mosesy
moskva
mot
mou
mount
moveo
movy
mozambika
mozika
mozilmana
mpahaikintana
mpahaisiansan
mpahampan
mpahary
mpahay
mpaka
mpamaky
mpamari
mpamaritra
mpamboly
mpaminany
mpamoaka
mpamokatra
mpamonjy
mpamono
mpamorona
mpamosavy
mpampan
mpampianatra
mpampiasa
mpampindrana
mpampitohy
mpan
mpanakanto
mpanamarika
mpanamory
mpanampy
mpanandro
mpanao
mpanapaka
mpanara
mpanaraka
mpanatanja
mpandala
mpandika
mpandimby
mpandinika
mpandraharaha
mpandray
mpandrindra
mpanefy
mpanelanelana
mpanentana
mpangalatra
mpanj
mpanjaka
mpanjakan
mpanjakavavy
mpanjono
mpanohana
mpanohitra
mpanompo
mpanoratra
mpanorina
mpanoritra
mpanota
mpc
mpiady
mpiambina
mpianany
mpianatr
mpianatra
mpiandry
mpiantoka
mpiara
mpiaro
mpiasa
mpiasam
mpifampan
mpifampivoho
mpifindra
mpihaza
mpihira
mpikambana
mpikaroka
mpilalao
mpino
mpiompy
mpiray
mpisolo
mpisorona
mpitandrina
mpitantana
mpitari
mpitarika
mpitendry
mpiteny
mpitifitra
mpitondra
mpitsabo
mpitsara
mpitsoa
mpivarotra
mpivavaka
mpnadray
mpomba
mponin
mponina
mponiny
ms
mt
mu
muhammad
mulceo
mulco
muliero
multibahasa
multiplico
mun
mundo
munero
munio
munir
mur
murray
mus
mussito
musso
must
mut
mutilo
muto
muʃ
mw
my
myanmar
mys
mɐ
mɑ
mɔ
mə
mɛ
n
na
nablizo
nad
nadika
nadu
nagari
naha
nahafatesan
nahafatesany
nahafaty
nahandro
naharitra
nahaterahan
nahatonga
nahatratra
nahavita
nahay
nahazo
nahazoan
nahazoany
nahita
nahitana
nahoana
nahomby
nahuatl
naka
nal
nalain
nalaina
nalaza
nalevina
naly
nam
namaly
naman
namana
namany
nambara
nambaran
namboarina
name
namela
namerina
nametraka
namibia
namoaka
namono
namorona
namoronana
nampianatra
nampiasa
nampiasain
nampiasaina
nampidirina
nampiditra
nampifan
nan
nana
nanad
nanafika
nanaiky
nanam
nanamafy
nanamarika
nanambady
nanambara
nanampy
nanan
nanana
nanangana
nananɖ
nanao
nanaovana
nanapa
nanapaka
nanaraka
nanat
nanatam
nanataŋ
nanaŋ
nancy
nand
nanda
nandao
nandefa
nandeha
nandimby
nandositra
nandray
nandresy
nandritra
nandritry
nandroaka
nandroso
naneho
nangala
nangataka
naniraka
nanitatra
nanjaka
nanjakan
nanjary
nankany
nanohana
nanohitra
nanohy
nanombohan
nanomboka
nanome
nanoratana
nanoratra
nanorim
nanorina
nanova
nantes
nantsoina
nanum
nanuŋ
nany
nanɖ
nao
naorin
naorina
napetraka
napole
nareo
narro
nas
nasional
nassau
nat
natam
natao
nataon
nataony
nateraky
national
natiora
nato
natokana
natsangana
nau
naufrago
naukova
nauseo
nausio
navajo
navelan
navigo
navo
navoaka
nay
naŋ
naɾe
naʔam
nb
nchez
ncia
nd
nda
ndez
ndia
ndisio
ndose
ne
nebraska
neco
necto
nederlandy
nefa
neglego
nego
nehemia
neken
nelson
nen
nenibe
nenitoa
nentim
nentin
nentina
nentiny
neny
neo
nepa
nepal
nepaley
nepali
nepaly
nequeo
ner
nera
nerlandey
nero
nes
nescio
net
neufcha
neulateinische
neuville
nevi
new
news
ney
nez
nezia
neziana
ng
nga
ngazidja
ngc
ngel
ngeza
ngo
ngu
ngua
ngulo
nh
nha
nhk
ni
nia
niady
niafara
niaina
niainga
niakatra
niala
niall
niam
nian
niana
nianatra
nianina
niantso
niara
niaraka
niaro
niasa
niavian
niaŋ
nic
nica
nicas
nice
nicholas
nico
nicola
nicolas
nicole
nicos
nicto
nid
nidifico
nidina
niditra
nie
niely
nietzsche
niezaka
nifam
nifampian
nifan
nifanad
nifanam
nifanan
nifananɖ
nifanat
nifanatam
nifanataŋ
nifanaŋ
nifand
nifandimby
nifandray
nifanet
nifanum
nifanuŋ
nifanɖ
nifarana
nifaŋ
nifehy
nifindra
niforona
nify
niger
niharan
nihena
nihevitra
nihoatra
niisa
niitatra
nijanona
nik
nika
nikea
nikeana
nikela
niko
nikolai
nil
nilaza
nilo
nily
nim
nimo
nin
nina
nino
nio
niorim
niorina
niort
niova
nipetraka
nipoiran
nipoitra
nirvi
nis
nisa
nisafidy
nisahana
nisaraka
niseho
niser
nisiam
nisian
nisy
nit
nita
nitady
nitaky
nitana
nitarika
niteny
niteraka
nitido
nitoetra
nitohy
nitombo
nitondra
nitory
nitranga
nitsangana
nivadika
niverina
nivoaka
nivoatra
nizara
nizera
nizeria
nktiva
nl
nn
no
noa
nobel
nobilito
nodikaina
noe
noely
nofo
nofon
noforonin
noforonina
nofy
nogent
nohavaozina
noheverina
noho
nolazaina
nom
nomen
nomena
nomeny
non
nonina
nono
nony
noraisin
norbert
nord
nordeste
norgate
norman
normandie
normatiu
normo
noroeste
norte
north
northern
norvejiana
norveziana
norvezy
nos
noscito
nosco
nosin
nosoratan
nosoratana
nosoratany
nosy
not
notarihin
notes
noto
notovonina
notre
notsidihina
noun
nouvelle
nova
novambra
novangiana
novely
november
novingiana
novo
novonoina
ns
nsily
nstantino
nt
nta
ntaolo
ntinenta
ntsik
ntsika
nu
nud
nudo
numero
nuncupo
nuntio
nut
nutam
nutaŋ
nuto
nutrico
nutrio
ny
nyelv
nyi
nynorsk
nyons
nɑ
nɔ
nɖ
nə
nɛ
nɨ
o
oa
oaka
oatra
obacero
obambulo
obarmo
obdo
obdormio
obduco
obdurefacio
obduro
obeo
oberro
obicio
obiecto
obiurgo
oblatro
oblecto
oblido
obligo
oblimo
oblino
obliquo
obnuntio
oboedio
obrepo
obruo
obsaepio
obscuro
obsecro
obsecundo
obsero
observo
obsideo
obsigno
obsono
obsorbeo
obstetrico
obstringo
obstruo
obtego
obtempe
obtempero
obtendo
obtenebro
obtineo
obtorqueo
obtrecto
obtrudo
obtrunco
obtundo
obturo
obumbro
obverto
obvolvo
occipio
occludo
occo
occubo
occulo
occupo
occurro
oce
oclc
octave
october
odiar
odina
odore
ody
odynas
oeste
of
ofaka
offendo
offero
office
official
officio
offundo
ofisialy
oganda
ogg
oh
ohabolana
oharina
ohatra
ohio
oho
oigoro
ois
oise
oj
ok
oka
okell
oklahoma
oko
okraina
okrainianina
oktobra
ol
ola
olan
olana
old
oleg
olga
olitra
oliveira
oliver
olivier
olo
oloan
olom
olomasin
olombelona
olon
olona
oloron
om
omana
omar
omba
ombalahy
ombiasa
ombilahy
ombivavy
omby
omen
omena
omer
omitto
on
ona
onao
onard
onareo
onay
ondrilahy
ondry
one
onenan
onero
onitra
oniversite
oniversiten
onja
online
onner
ont
ontario
ontsika
onu
ony
opa
operibus
operio
ophile
opold
oppando
oppeto
oppignero
oppleo
oppono
opprimo
opprobro
oppugno
opto
or
ora
oram
oran
orana
orange
orar
ordbog
ordbok
ordino
ordo
ore
oregon
org
oridoa
oriental
original
orinasa
orle
ornamentar
orne
oro
orona
orotariko
orsza
ortodoksa
os
osa
oscar
oseana
oskar
oso
ostendo
ostento
osy
ota
others
otin
otrika
otro
otto
oty
ou
ouest
ova
ovana
oviana
ovico
ovo
ovy
ox
oxford
ozbeka
ozbekista
p
pa
pablo
package
paco
pagar
page
pages
pahaizana
pahalalana
pahalemana
paharazana
pahasalamana
pahefana
pai
paik
paika
pain
paiŋ
pak
paka
pakista
pakistan
pako
pal
palaeographica
palestina
pali
palimpsests
palpo
pam
paman
pamanɖ
pamat
pamaŋ
pamaɾit
pamen
pamend
pamenɖ
pamet
pamiers
pamik
pamin
paminɖ
pamit
pamiŋ
pampianarana
pampiasa
pamulim
pamum
pamun
pamund
pamunɖ
pamut
pamuŋ
pan
pana
panabaŋ
panabeʔam
panabun
panabut
panad
panadaŋ
panadem
panafaiŋ
panafan
panafin
panahy
panain
panaiŋ
panak
panakaiŋk
panakam
panakan
panakat
panakaɾaiŋk
panaket
panakit
panakum
panakut
panakutik
panakuɾin
panakuɾun
panala
panalaŋ
panam
panama
panamaim
panamain
panamait
panaman
panamat
panamaund
panamaŋ
panamun
panamunɖ
panamut
panamuŋ
panan
panana
panand
pananun
pananɖ
panao
panapaiŋ
panapat
panapen
panapet
panapit
panaput
panapuɾit
panasafun
panasakam
panasam
panasat
panasavem
panasaŋ
panasit
panasum
panasunɖ
panasuŋ
panat
panatalan
panatam
panatan
panatand
panataŋ
panatufin
panatun
panatutuŋ
panatuŋ
panavaŋ
panavem
panavit
panazaŋ
panaŋ
panaɾat
panaɾaŋ
panaɾe
panaʔ
pand
pandaiŋ
pandam
pandan
pandat
pandaŋ
pandem
panden
pandet
pandik
pandim
pandit
pandiŋ
pando
pandum
pandut
panduŋ
paned
paneliŋ
panelun
panem
panen
panend
paneniŋ
panenɖ
panet
paneviŋ
paneɾuŋ
pango
panik
panim
panin
panina
panind
paninɖ
panit
paniŋ
panjakana
panjono
pano
panorenana
panuan
panud
panulik
panulut
panum
panun
panund
panunuŋ
panunɖ
panut
panutik
panuvut
panuŋ
panɖ
paolo
paoly
paoma
paompy
paositra
papa
papiamento
paque
par
para
paradisa
paragoay
parai
paraky
parameter
parameters
parana
paranaense
pare
parento
parer
pario
paris
paritany
paritra
park
parker
parlemanta
paro
parti
partio
partitiva
parvipendo
pas
pascal
pascito
pasifika
pasitoa
pasiva
pasivan
paska
pastino
pastora
pat
pata
patana
patate
patefacio
patra
patrice
patrick
patrimonial
patro
patsa
paty
pau
paul
paulista
paulo
pavefacio
pavel
pavimento
pavio
pays
pazan
pazana
paŋ
paɳad
paɳam
paɳan
paɳat
paɳem
paɳet
paɳum
paɳut
paɾan
paɾana
paʔam
paʔan
paʔana
paʔat
paʔaŋ
paʔem
pcgn
pdf
pe
peana
pecco
peck
pectino
pecto
pedagogiceskoi
pedo
pedro
pehin
pehintaniny
pehintany
peiero
peintre
pejy
pekamus
pelajar
pellicio
pello
pem
pembinaan
pen
pena
penan
penana
pendidikan
pendina
pendo
penetrar
penetro
peng
pengembangan
penina
penitr
penitra
pennsylvania
pensito
penso
pentateoka
penteko
pentina
penɖ
peo
peon
people
per
perago
peragro
perambulo
peraro
percalefacio
percelebro
percello
percenseo
perche
percieo
percipio
percolo
percurro
percutio
perdecipio
perdepso
perdomo
perduco
perduro
peredo
pereira
perequito
pererro
perevacuo
perfekta
perfektiva
perfero
perficio
perfodio
perforo
perfrico
perfringo
perfundo
pergo
perhibeo
periheliany
perimo
perkamusan
perla
perle
perlego
perluo
permadefacio
permano
permeo
permitto
permoveo
permulceo
permundo
permuto
pernambucano
pernambuco
pernay
perneco
pernego
perneo
pernocto
pernosco
pernumero
pero
peroro
perpaco
perpendo
perpetro
perpetuo
perpolio
perpoto
perpurgo
perquiro
perrepto
perrogo
perrumpo
persaluto
persana
perscribo
perseco
perseus
persevero
persia
persian
persiana
perso
persolvo
persona
persorbeo
perspicio
perstillo
perstrepo
perstringo
persulto
pertempto
pertendo
pertento
pertergeo
perterreo
pertracto
pertraho
pertranseo
pertundo
perturbo
perungo
perurgeo
peruro
pervado
perveho
perverto
pervestigo
pervideo
pervinco
pervolvo
pervulgo
pesitry
pessimo
pet
peta
peter
petera
petit
peto
petra
petraka
petrarca
pez
pfs
pg
pha
phane
phe
philadelphia
philibert
philip
philipp
philippe
phofsit
phonetic
phrase
pi
pia
piad
piadiana
piainana
piaiŋ
piak
piakand
pialik
piam
pian
piana
pianakaviana
pianarana
pianat
pianaɾe
piand
piangonana
pianɖ
piarahamonina
piaramanidina
piat
piaui
piaviana
piaŋ
pibaik
piband
pibanɖ
pibeʔam
pibit
pibun
picardie
pid
pidaik
pidaŋ
pidiŋ
piduŋ
pie
pielezana
piem
pien
piend
pienɖ
piera
pierre
piet
pieter
pietro
pif
pifam
pifamut
pifan
pifanad
pifanaiŋ
pifanakut
pifanam
pifanan
pifananɖ
pifanaput
pifanasam
pifanasaŋ
pifanat
pifanatam
pifanataŋ
pifanatun
pifanaŋ
pifand
pifandam
pifandat
pifandik
pifandim
pifandit
pifanem
pifanen
pifanenɖ
pifanet
pifanin
pifaninɖ
pifanit
pifaniŋ
pifanum
pifanun
pifanund
pifanunɖ
pifanut
pifanuŋ
pifanɖ
pifat
pifaŋ
pifen
pifenɖ
pifet
pifian
pifiana
pifin
pifinɖ
pifit
pifun
pifuŋ
pigeo
pignero
pigro
piha
pihavanana
pik
pika
pikarda
piken
pikeniŋ
piket
pikeʔaŋ
pikim
pikin
pikit
pila
pilaik
pilam
pilan
pilat
pilazantsara
piled
pilem
pilet
piliŋ
pilo
pilum
pilund
pim
pimun
pimund
pin
pina
pinaik
pinal
pinan
pinaɾe
pingo
pinoan
pinoana
pinso
pinus
pinyim
pinyin
pinɖ
pio
piotr
pipaiŋ
pipam
pipat
pipaʔim
pipem
pipen
pipenim
piper
pipio
pipit
piput
piputik
pique
pirenen
pirenena
pisafun
pisaka
pisakam
pisam
pisan
pisat
pisavem
pisaŋ
pisaɾaŋ
pisaʔana
pisem
piset
piseɖ
pisian
pisilan
pisin
pisit
pisiŋ
pisto
pisuin
pisulan
pisulananɖ
pisum
pisunɖ
pisut
pisuŋ
pit
pita
pitaik
pitain
pitaiŋ
pitakut
pitalan
pitam
pitan
pitanɖ
pitaterana
pitauvam
pitaŋ
pitefin
piten
pitenenana
piteny
pitikin
pitiʔin
pito
pitondrantena
pitsaboana
pitsarana
pittsburgh
pitufin
pitum
pitun
pitunan
pitund
pitunɖ
pitutuŋ
pituŋ
pium
piun
piund
piunɖ
piut
piuŋ
pivaik
pivaiŋ
pivan
pivanɖ
pivat
pivavahana
pivaŋ
pivem
piven
pivenɖ
pivet
pivim
pivit
piviŋ
pivulim
pivun
pivunɖ
pivut
pivuŋ
pizend
pizind
piŋ
piɖ
piɾaiŋ
piɾam
piɾan
piɾana
piɾanan
piɾanana
piɾanɖ
piɾaŋ
piɾem
piɾenɖ
piɾin
piɾina
piɾinɖ
piɾiŋ
piɾuanɖ
piɾum
piɾun
piɾuŋ
piʔaiŋ
piʔalaŋ
piʔam
piʔamiŋ
piʔan
piʔand
piʔanɖ
piʔat
piʔaviŋ
piʔebin
piʔeliŋ
piʔem
piʔen
piʔend
piʔeniŋ
piʔet
piʔeviŋ
piʔin
piʔind
piʔit
piʔiviŋ
piʔiɾiŋ
piʔubaŋ
piʔulan
piʔun
piʔuniŋk
piʔunɖ
piʔut
piʔuvut
piʔuzaŋ
piʔuzuŋ
piʔuɖ
pl
pla
placo
plaine
planeta
plango
plasmo
plateau
platts
plaudo
ple
please
plecto
plena
pleo
ploperfekta
ploralin
ploraly
ploro
plumbo
plumo
plus
po
poana
poe
poeta
point
poitiers
poizina
poj
poko
pokontaniny
pol
pole
poli
polio
polis
polish
polisy
politika
politique
pollingo
polluceo
polluo
polo
poloney
polonia
polskiego
pomme
pompo
pon
pondero
ponenana
ponin
ponina
poniny
pono
pont
pony
poopy
por
porofo
porricio
porrigo
port
porta
portal
portar
porte
portendo
porter
portes
porto
portogey
portugal
portugue
portuguesa
posar
posco
possideo
post
posthabeo
postpono
postulo
potiguar
potiono
poto
potoan
potoana
pour
poz
pp
pr
pra
pracarini
practical
pradesh
praebeo
praecedo
praecerpo
praecido
praecingo
praecino
praecipio
praecipito
praeclamo
praecludo
praecogito
praecuro
praecurro
praedamno
praedetermino
praedico
praedispono
praedo
praeduco
praeeo
praefero
praefestino
praeficio
praefigo
praefinio
praefodio
praegusto
praeicio
praeintelligo
praeiudico
praelego
praeligo
praeludo
praemando
praemitto
praemoneo
praemonstro
praemordeo
praemunio
praenosco
praenuntio
praeopto
praeordino
praeparo
praepondero
praepono
praeripio
praerogo
praerumpo
praescio
praescribo
praesentio
praesento
praesertim
praeservo
praestituo
praesto
praestringo
praestruo
praesumo
praetendo
praetereo
praetermitto
praeterverto
praetervolo
praetexo
praetondeo
praeuro
praeverro
praeverto
praevideo
praiminisitra
pre
prefektioran
preguntar
prehendo
prehenso
premo
preparar
present
presentar
presidente
press
preterita
pretio
preto
pretra
pri
priberam
prince
printed
printy
privas
pro
probo
procedo
procido
proclamo
proclino
proco
procrastino
procreo
procubo
procudo
procumbo
procuro
procurro
prodico
prodigo
prodo
produco
profano
profero
profligo
progressive
proicio
project
prolato
prolecto
prolongo
promereo
promitto
promo
promoneo
promoting
promoveo
promulgo
pronunciation
pronuntio
propagar
propago
propello
propero
propheto
propinquo
propitio
propono
propugno
propulso
propurgo
proripio
prorito
prorumpo
proruo
proscindo
proscribo
proseco
prospecto
prosper
prospero
prospicio
prosterno
prostituo
protego
protelo
protendo
protero
proterreo
protestanta
protraho
protrudo
protubero
proturbo
prout
proveho
provence
provenio
provideo
provoco
provolo
provolvo
provulgo
proximo
prudente
ps
pt
pto
pu
puan
puana
publication
publico
published
publishing
pud
pugno
puk
puka
pullulo
pulso
pulverizo
pum
pun
puna
punan
punana
punaɾe
pune
punem
pungo
punɖ
purgo
purifico
purpuro
put
putin
putina
puto
putre
putrefacio
puy
puŋ
puɾan
puɾana
puʔan
puʔana
pwn
py
pyre
pɐ
pɑ
pɔ
pə
pɛ
pɾo
q
qa
qi
qu
quadruplico
quaerito
quaero
quanzhou
que
quebec
queensland
quentin
queo
qui
quimper
quinquiplico
quoque
r
ra
raban
raby
rache
radama
radico
radio
rado
rafael
rafi
rafitra
rafy
raha
rahalahin
rahalahiny
rahalahy
raharaha
raharaham
rahateo
rahavavin
rahavaviny
rahefa
rahona
rai
raibe
raikitra
rain
rainy
raisina
rajako
rajasthan
rajemisa
rajoelina
rajpal
raki
rakibolan
rakibolana
rakitra
rakotra
ral
ralambo
raliser
ralph
ram
rama
ramakrshna
rambo
rameva
ramminger
ramo
ramos
ran
ranadahy
ranavalona
ranga
rano
ranoka
ranom
ranomandry
ranomasimbe
ranomasin
ranomasina
ranon
ranonorana
rao
raok
raolison
raoul
rapeto
rapio
rapto
rard
rarefacio
rariny
ras
rascar
rat
rata
ration
ratna
ratsiraka
ratsy
rault
rava
ravaka
ravalomanana
ravina
raviny
ravo
ray
raymond
razambe
razamben
razan
razana
razandry
razavi
razoky
rd
rdania
re
rea
reaedifico
real
rebe
reboo
rebullio
rec
recalcitro
recapitulo
recedo
received
recenseo
reche
recido
recipero
recipio
recito
reclamito
reclino
recludo
recognosco
recolloco
recolo
reconcilio
recondo
reconstructed
reconstruction
recoquo
recreo
rectifico
recubo
recurro
recurvo
recuso
recutio
red
redarguo
reddo
rede
redigo
redimo
redintegro
reduco
reexpecto
ref
refello
reference
references
refero
reficio
refiguro
reflagito
reflecto
reflektiva
refo
refocilo
reformido
reformo
refoveo
refreno
refrico
refringo
refuto
refy
rege
regenero
reglutino
rego
regulo
rehefa
rehetra
rei
reicio
reims
reinvito
reis
rekhta
relaxo
rele
relego
religo
relinquo
rem
remano
remar
remby
reme
remeo
remigro
remitto
remoneo
remordeo
remos
removeo
remulceo
remunero
ren
rene
renibe
renifeo
renin
reniny
renirano
reniranon
renivintana
renivohi
renivohiny
renivohitr
renivohitra
renivohitry
renovo
rent
renuntio
renuo
reny
reparo
repe
repedo
repello
repercutio
reperio
repeto
repleo
replico
repo
repoblika
repoblikan
repono
reporto
repraesento
repre
reprehendo
reprimo
reprobo
repromitto
repropitio
republik
repudio
repugno
repurgo
reputo
requiro
rer
rera
reraka
rere
res
resahina
resaka
resaluto
resarcio
rescindo
rescisco
rescribo
research
reseco
resero
reservo
resideo
resigno
resin
resorbeo
respecto
respelling
respergo
respicio
respuo
restauro
restinguo
restringo
resumo
resuscito
resy
ret
retardo
retego
retendo
retexo
rethel
retineo
retorqueo
retracto
retribuo
retrieved
retrocedo
retrudo
retundo
reu
reunio
reveho
revello
revelo
reverbero
reverso
revincio
revised
reviso
revo
revoco
revolvo
rez
reza
rg
rgen
rhin
rho
rhoncho
ri
ria
riaka
rialy
riana
ribeira
ric
ricardo
richard
richmond
rico
rie
rigo
rigord
rigueux
rihana
riikin
rika
rima
rin
rina
rindra
rindrankajy
rindrina
rio
riom
rir
ririnina
ris
riser
risitra
rita
rito
rive
river
rives
rivie
rivo
rivotra
rjia
rjiana
rk
rmo
rn
ro
roa
roan
roanda
roandey
roanne
roapolo
roba
roban
robena
robert
roberto
robigino
robin
robinson
roboro
roche
rochefort
rock
rodar
rodez
rodo
rodri
roger
rogo
rohan
rohona
rohy
roland
rom
roma
romain
romainina
roman
romana
romani
romania
romanizasiona
romanization
romantsa
romatzyh
rome
ron
ronald
rongony
ronne
ronono
roro
ros
rosa
rosario
rose
rosia
rosiana
ross
rosy
rota
roto
rotundo
rouen
roussillon
routledge
roux
rova
roy
royal
rs
rsa
rt
rta
rter
rterbuch
rto
rtogaly
rtogey
ru
rubefacio
ruben
ruc
rudo
rudolf
rumigo
rumpo
ruo
russell
russian
russie
russkij
ruth
rutilo
rvezy
ry
rɔ
rɛ
s
sa
saa
saalmu
saba
sabaka
sabata
sabatra
sabdakosa
saber
sabha
sabo
sabotsy
sacrifico
sacro
sady
saepio
safan
safana
safidy
safo
sagar
sagino
sagitto
saha
sahala
sahan
sahara
sahirana
sahy
sai
saik
saika
saikanosy
sain
saina
saingy
saint
sainte
saintes
saintonge
sait
saitama
saiŋ
sak
saka
sakafo
sakaiza
sakalava
sakam
sakan
sakana
sakany
sakaraha
sakat
sakay
sakaɾe
sakeli
saket
sakin
sakramenta
sakramentan
saku
sal
sala
salam
salama
salamo
salan
salo
salomon
salt
saltar
salto
saluto
salvador
salvar
salvifico
sam
sama
saman
samaria
samaritana
sambatra
sambo
sambon
same
samihafa
samo
samoela
samoina
sampa
sampam
sampan
sampana
sampandraharaha
sampy
samuel
samun
samy
san
sana
sanak
sanakirja
sanan
sanana
sananaɾe
sanaɾe
sancio
sanctifico
sanda
sandoka
sandry
sanga
sangisangy
sangoa
sangy
sano
sanseido
sanskrit
sanskrity
santa
santatra
santiago
santo
santos
sanɖ
sao
saodita
saoka
saoly
saotra
sapet
sar
sara
saram
saran
saranga
sarcio
sarda
sarimihetsika
sarin
saritaka
sarlat
saro
sarona
sarotiny
sarotra
sarpo
sarrio
sarthe
sary
sasa
sasaka
sasany
sasatra
sat
sata
satan
satana
satio
satisfacio
satria
satro
satroka
saturar
saturo
sau
saucio
saun
sava
savaivo
savat
savba
save
saverne
savoie
savony
savorovoro
saxe
sazy
saŋ
saɾ
saɾa
saɾaiŋ
saɾam
saɾan
saɾana
saɾaŋ
saɾin
saʔa
saʔak
saʔam
saʔan
saʔana
saʔanaɾe
saʔat
saʔina
scalpo
scandalizo
scando
scelero
schmidt
schriftsprache
schu
schulze
schwetschke
science
sciences
scindo
scintillo
scio
scopo
scott
scribo
script
scruto
sd
se
sea
sealang
seania
searchable
sebastia
sec
secedo
secerno
seco
second
secundo
sedo
seduco
see
sefa
sefaka
sefer
sefut
segona
segrego
seguir
sehatra
sehatry
seine
seiungo
sek
sekoly
sela
selaka
selat
seleokida
seligo
selin
selina
selun
seluna
sem
semigro
semino
semitika
semos
semoveo
semustulo
sen
sena
senan
senana
senario
senaɾe
sendra
sendrasendra
senegaly
senlis
sentio
senɖ
separar
separo
sepelio
sepono
septambra
september
sequestro
ser
seranam
seranan
seranana
serba
serbia
serfa
serge
sergio
serguei
series
sero
serra
serre
serro
serta
services
servo
ses
sesitany
set
seta
setra
setroka
setry
seura
sevoco
seza
seɾan
seɾana
seʔak
seʔan
seʔana
seʔanaɾe
seʔat
seʔun
sha
shah
shandong
sharon
she
shi
shin
sho
shogakukan
short
shu
si
sia
siak
siaka
sialy
siam
sian
siana
sianaɾe
siansa
siantifika
siat
siaʔan
siaʔana
sibit
sicco
sichuan
sidaama
sidney
sido
sie
siera
sifotra
sifut
sigillo
signo
sihanaka
siita
sik
sika
sikaotisy
siket
sikidy
sikin
sikina
sikit
siksarthi
sil
silamo
silaovaka
silaovena
silavo
silia
silva
sily
sim
sima
siman
simba
simia
simika
simin
simo
simon
simona
simone
simulo
sin
sina
sinai
sinak
sinan
sinana
sinanana
sinay
sinaŋ
sinaɾe
sind
sindmanɖ
sing
singa
singalesa
singh
singiolary
singulto
sinin
siniŋ
sinkronis
sino
sinoa
sinolojika
sinonim
sintagmatis
sinuo
sinɖ
sio
sipra
sira
siran
sire
siria
siriaka
sirilika
sis
sisa
sisilianina
sisin
sisintany
sisiny
sit
site
sitio
sito
sitra
sitraka
sitrana
sitrapon
sitry
situo
siu
sivet
sivilizasio
sivilizasiona
sivily
sivy
sixian
siŋ
siɖ
siɾak
siɾam
siɾan
siɾana
siɾanaɾe
siɾat
siɾut
siʔak
siʔan
siʔana
siʔanaɾe
siʔin
sjo
sjɔ
sk
ska
ski
sko
sla
slava
sli
slo
slovak
slovar
slovni
slovnik
slovnyk
sm
small
smith
sms
sns
so
soa
soahily
soavaly
sobjo
sobjonktiva
social
socie
society
socio
soda
sodina
soeda
soedoa
sofia
sofina
soikkola
soisa
soissons
sokajin
sokajy
sokatra
sokina
sokitra
soko
sol
sola
solido
solitany
sollicito
solo
solombodiakoho
solomona
solon
solontena
solosaina
solvo
somary
sombin
some
somme
somnio
son
songay
sonia
sonita
sono
sons
sony
soperesiva
sophie
sopinina
sopio
soporo
sor
sora
soratana
soratr
soratra
soratry
sorbeo
sorbonne
soria
soridala
soridalany
sorona
sosialista
soso
soson
sosona
sotro
sou
sources
sous
south
sovietika
sp
spa
spain
spanish
spargo
spe
special
specified
specio
specto
sperno
spero
spiro
spisovne
spo
spoken
spolio
spondeo
sponso
springs
spumo
spuo
spurco
sputo
sr
sranan
srilanka
ssim
ssiu
st
sta
stabilio
standar
standard
stanley
state
statistika
ste
stefan
steingass
stephen
stercoro
sternuto
steve
steven
stewart
sti
stico
stillo
stipo
sto
stockholm
stra
strasbourg
strepo
stringo
struo
stu
stuart
student
studies
study
stupefacio
su
sua
suadeo
suak
suan
suana
suanaɾe
subdeficio
subdeligo
subdivido
subduco
subedo
subeo
subicio
subigo
subintellego
subintro
subintroduco
subintroeo
subiugo
subiungo
sublego
sublevo
subligo
sublimo
subluo
submoneo
submurmuro
subnavigo
subnecto
subnervo
subo
suboffendo
subordino
suborno
subrideo
subrigo
subrogo
subsanno
subscribo
subsido
subsigno
substerno
substituo
substruo
subtero
subterseco
subtexo
subtraho
suburo
subveho
subvento
subverso
subverto
succedo
succendo
succenseo
succingo
succlamo
succumbo
sucre
sud
sudo
sudoeste
sue
sufana
sufficio
suffigo
suffio
suffixe
sufflamino
sufflo
suffoco
suffodio
suffrago
suffundo
sufin
sufut
suggero
sugo
sui
suin
suina
suit
suk
suka
sukaɾe
suket
sukut
sul
sulun
sulut
sum
summergo
sumministro
summitto
summoveo
sumo
sun
suna
sunak
sunan
sunana
sunanaɾe
sunaɾe
sund
sunina
sunɖ
suo
suomalais
superabundo
superaddo
superaedifico
superar
supercerto
superduco
supererogo
superexalto
superextendo
superextruo
superfundo
superiacio
superimpendo
superinduco
supernato
superordino
superpono
superscando
superscribo
supersedeo
supersemino
superspero
superstruo
supervaco
supervenio
supit
suplicar
suppedito
suppeto
suppingo
suppleo
supplico
supporto
supprimo
supputo
sur
surde
surripio
surrumpo
surruo
sus
suscipio
suscito
suspendo
suspicio
sustento
sustineo
sut
suvet
suzanne
suŋ
suɐ
suɾan
suɾana
suɾat
suɾik
suɾit
suʔak
suʔan
suʔana
suʔanaɾe
sv
svenska
sy
sylvain
synonymes
syo
sz
sza
sze
szlo
szo
słownik
sɐ
sɑ
sɔ
sə
sɛ
sɨ
t
ta
tabataba
tabefacio
tabifico
tabiha
tabilao
tables
tadio
tady
tafa
tafad
tafahoatra
tafat
tafiditra
tafik
tafika
tafio
tafiotra
tafo
tagalaoga
taha
tahaka
tahaky
taham
tahan
tahirin
tahiry
taho
tahotra
tai
taik
tailandey
tailandy
taim
tain
taina
tainana
taioa
taipei
taiwan
taiwanese
tajik
tajiky
tak
taka
takalo
takano
takelaka
takila
takotra
taksiborosy
tal
talan
talana
talata
tale
talen
talenta
talg
talio
taloha
talohan
tam
tama
tamba
tambajotra
tambin
tambinteny
tamia
tamil
tamily
tamin
tamina
taminy
tampoka
tampon
tampony
tan
tana
tanak
tanakh
tanala
tanam
tanambe
tanan
tanana
tananaɾe
tanany
tanatin
tanaɾe
tandavan
tandrefana
tandrina
tandrok
tandroka
tandroy
tanety
tango
tanibe
taniko
tanim
tanimanga
tanimbary
tanin
tanina
tanindrazana
taniny
tanjaka
tanjon
tanjona
tanora
tanosy
tant
tantara
tantaraina
tantaran
tantely
tanterahina
tanteraka
tantsaha
tanuna
tany
tanzania
tanɖ
tao
taolam
taolan
taolana
taom
taon
taona
taonany
taonarivo
taonjato
taor
taorian
taoriana
taova
tapa
tapaka
tapany
tapitra
tapitrisa
tar
tara
tarana
taranak
taranaka
taranaky
taranany
taranja
taratasy
taratra
tardo
tarehin
tarehy
tariby
tarika
tarn
tas
tasmania
tat
tata
tatara
tatitra
tato
tatsimo
tatsinanana
taty
tau
tava
tavan
tavana
tavaratra
tavela
tavy
taxo
tay
taylor
tazo
taŋ
taɾan
taɾana
taʔan
taʔana
te
teau
teboka
tego
teheran
teisma
tek
teknika
teknolojia
tel
telo
telogo
telugu
tem
temero
tempero
template
tempolin
tempoly
tempto
ten
tena
tenak
tenan
tenana
tenanaɾe
tenany
tenay
tenaɾe
tenda
tendo
tendro
tendrombohitra
tendron
tendrony
tenenin
tenenina
teneo
tenim
tenin
teninao
teniny
tennessee
tenona
tento
tenuo
teny
tenɖ
teo
teochew
teolojia
teotsio
tepa
tepefacio
ter
tera
terak
teraka
teratany
tercera
terebro
tero
terre
terreo
territo
tery
tes
tesouro
testament
testamenta
testanta
testantisma
tetezamita
tetiandro
tetika
tetikasa
teto
tety
texas
texastexas
texo
tezitra
teɾan
teɾana
teɾaʔana
th
tha
that
the
theodor
thesis
thi
thie
thierry
third
this
tho
thomas
thompson
thu
thurston
ti
tia
tiako
tian
tiana
tianjin
tiany
tibeta
tibetan
tica
tico
ticos
tidivoara
tie
tien
tienne
tifen
tik
tika
til
tillon
tillonnais
tim
times
timo
tin
tina
tinaɾe
tineo
tingo
tinnio
tinto
tiorka
tiorkmena
tirar
tiro
tis
tiser
tit
titillo
title
titubo
tiɾan
tiʔun
tn
to
toa
toaka
toamasina
tobim
tobin
toby
tody
toe
toekaren
toekarena
toeram
toeran
toerana
toerany
toetanin
toetany
toetra
toetran
tohatra
tohidrano
tohy
tok
tokan
tokana
tokantrano
toko
tokoa
tokony
toky
tokyo
tola
tolero
toliara
toliary
tollo
tolo
tolorana
tolotra
tom
toma
tombanana
tombo
tombontsoa
tombony
tompo
tompoko
tompomenakely
tompon
ton
tondeo
tondro
tondroina
tone
tonga
tongavan
tongo
tongolo
tongony
tongotra
tongyong
tonizia
tono
tonon
tonona
tononina
tononkalo
tononkira
tonta
tontolo
tontolon
tony
top
topografis
tor
tora
toradroa
torah
toraka
toriteny
torka
torkia
torkmenista
torno
toro
torqueo
torreo
totohondry
totsy
tou
touiller
toul
tour
tournon
tours
toutes
tovana
tovo
tovolahy
tovona
toy
tr
tra
trado
traduco
traho
traicio
tran
tranainy
tranga
trano
tranom
tranomaizina
tranon
tranonkala
tranonkalan
tranquillo
transabeo
transeo
transfero
transfigo
transfiguro
transfodio
transfreto
transigo
translativa
transmeo
transmigro
transmis
transmoveo
transmuto
transnato
transnavigo
transplanto
transpono
transporto
transveho
transverbero
transverto
transvolo
tratra
tratran
tre
treasury
treccani
tremefacio
tremo
trepido
trer
tres
tri
tria
tribulo
trinite
triplico
tripudio
trituro
triumpho
tro
trois
tromba
trondro
tropole
trore
trosa
troyes
tru
trudo
trunco
try
ts
tsa
tsady
tsahona
tsaina
tsakafo
tsakinao
tsalakia
tsambo
tsamiko
tsang
tsangan
tsangana
tsanganan
tsanganana
tsao
tsapa
tsapain
tsara
tsaramaso
tsary
tse
tsehatra
tseka
tsekia
tselatra
tsena
tsi
tsia
tsiahy
tsiansa
tsihy
tsik
tsika
tsikasao
tsikelikely
tsikera
tsikidy
tsilo
tsim
tsimihety
tsimoka
tsin
tsinay
tsindri
tsindrim
tsindry
tsingerina
tsinontsinona
tsiny
tsinɖ
tsipi
tsipika
tsirairay
tsiraka
tsiranana
tsiro
tsitanteraka
tsitoha
tsitrapo
tsiŋ
tso
tsoa
tsoana
tsofina
tsoka
tsora
tsoratra
tsosialy
tsotra
tsy
tsŋ
tt
tta
tu
tua
tuak
tuan
tuana
tuanaɾe
tufina
tuk
tuka
tum
tumefacio
tun
tuna
tunak
tunan
tunana
tunanaɾe
tunaɾe
tundo
tunɖ
tur
turkish
turner
turnhout
turpo
tus
tusan
tusana
tut
tuto
tuŋ
tuɐ
tuʔana
tuʔen
ty
type
tɐ
tɔ
tə
tɛ
tɨ
tɨn
tɾa
u
ua
uak
uaka
uan
uana
uanak
uanana
uanaɾe
uanɖ
uat
uazan
uaɾan
ub
ubak
ubaŋ
ubero
ubuana
ubun
ucebno
ucla
ud
uda
udana
udik
udina
udiŋ
ue
ufana
ufuana
ufuk
ugrilainen
uh
ui
uik
uin
uina
uinana
uinaɾe
uit
uiŋk
uk
uka
ukan
uke
ukiana
ukin
ukrajins
ukuana
ukun
ul
ulaik
ulana
ulik
ulina
ulrich
uluana
ululo
ulut
um
umana
umbro
umecto
umil
umum
umut
un
una
unan
unana
unaɾe
und
undo
une
ungo
uni
uniana
unik
unilate
union
unir
universite
university
untar
unuŋ
unɖ
up
upa
upak
ur
urdu
urgeo
url
uro
us
usa
usan
usana
usar
used
usiana
usin
usina
ustulo
usuana
usucapio
usurpo
ut
uta
utah
utaka
utana
uteʔan
uteʔana
utik
utilities
uttar
utuana
utun
uvuk
uz
uŋ
uɐ
uɖ
uɳana
uɾa
uɾak
uɾam
uɾan
uɾana
uɾat
uɾet
uɾiak
uɾiana
uɾik
uɾin
uɾit
uɾuana
uɾuka
uɾum
uɾun
uɾut
uɾuŋ
uʔak
uʔana
uʔina
uʔit
v
va
vaco
vacuefacio
vadin
vadiny
vado
vady
vago
vaha
vahana
vahiny
vahoaka
vahoakan
vahoakany
vaika
vakia
vakina
vakinankaratra
vakio
vakitrano
vakoka
vaky
val
vala
valahana
valala
valam
valan
vale
valedico
valefacio
valence
valencia
valencian
valenciana
valenciennes
valentin
valesa
valid
valides
valiha
valin
valiny
valle
valley
vallo
valo
valois
value
van
vana
vang
vangiana
vangovango
vanille
vanim
vanimpotoan
vanimpotoana
vanin
vaniny
vanja
vao
vaon
vaovao
vaporo
var
vara
varahina
varanasi
varatra
varavarana
varela
variant
variego
varimbazaha
varo
varotra
vary
vassili
vasto
vat
vata
vatan
vatana
vatika
vato
vatokilonjy
vatolampy
vaton
vatosoa
vaucluse
vava
vavahady
vavaka
vavan
vaventy
vavolombelon
vavolombelona
vavony
vavy
vazaha
vazimba
vaŋ
ve
vecto
vedic
vegeto
vehivavy
veho
vel
vela
velaran
velarana
velarantanin
velarantaniny
velarantany
velay
velo
velona
vem
ven
vena
vende
vendito
vendo
veneno
venisianina
ventilo
ventito
venusto
ver
vera
verb
verbe
verbero
verifico
verin
vero
verro
verso
verto
vervins
very
ves
vesatra
vestigo
vestio
vet
veta
vetaveta
vetero
vetivety
veto
veu
vexo
vezo
vhv
vi
via
vialy
vibro
vic
victimo
victor
victoria
video
vidin
viduo
vidy
vie
vienne
vietika
vietnamiana
vietnamy
viette
vieux
vige
vigoro
vihy
vii
viii
viktor
vila
vilany
vilia
vilifico
village
ville
villeneuve
villers
vin
vina
vinany
vinavina
vincent
vincenzo
vincio
vinco
vindico
vintana
vio
violo
viraty
virginia
virido
virijiny
virjiny
vis
visito
viso
vista
visual
vit
vita
vito
vitry
vitsika
vitsivitsy
vitsy
vitupero
vivifico
vladimir
vo
voa
voaaraky
voafaritra
voafetra
voafidy
voafohy
voaforona
voajanahary
voalahatra
voalavo
voalaza
voalazan
voaloboka
voalohan
voalohany
voambolana
voan
voaniho
voanjo
voankazo
voany
voaresaka
voasaina
voasary
voasokajy
voasoratra
voatavo
voatendry
voatery
voatondraka
voatovana
voay
vocabolario
vocabulary
vocito
vody
vohitra
vohitry
vohon
voka
vokany
vokatr
vokatra
vokatry
vokovoko
vol
vola
volafotsy
volambita
volamena
volana
volapoky
volena
volgata
volo
volomaso
volon
volotsangana
volta
volume
voluto
volvo
voly
von
vondrom
vondron
vondrona
voninahitra
voninkazo
vonjimaika
vonjy
vono
vonto
vony
voro
voromahery
vorona
vorontsiloza
vortaro
vos
vosges
votoatiny
vouziers
voveo
vovo
vovoka
vozona
vre
vres
vreux
vs
vu
vuad
vuam
vuat
vuataŋ
vuaŋ
vulgo
vulnero
vuɐ
vy
vɐ
vɔ
vɛ
w
wa
wales
walker
wallon
walter
walton
wang
warren
washington
water
wav
wayback
wayte
we
web
weber
website
webster
wehr
well
welsh
werner
west
western
white
wi
wielki
wiesbaden
wiki
wikibolana
wikipedia
wilhelm
will
willem
william
williams
willy
wilson
windows
wisconsin
with
wixaleyin
wo
wolf
wolfgang
wolof
wood
words
work
world
wortliste
wright
written
wu
www
x
xa
xavier
xe
xelmi
xi
xia
xiamen
xico
xu
xv
y
ya
yale
yasavanta
ye
yi
yiddish
yo
york
young
youtube
ytta
yu
yucata
yvelines
yves
z
za
zabad
zad
zaduna
zadunan
zadunana
zafad
zafend
zafimaniry
zafisoro
zafund
zafy
zaid
zaik
zaika
zain
zaina
zaiŋ
zak
zaka
zakad
zakan
zakana
zakand
zakaria
zakud
zaliznyak
zam
zambia
zambika
zan
zana
zanadralambo
zanahary
zanak
zanaka
zanakandriana
zanakivavy
zanaky
zanan
zanana
zanany
zanapeo
zanatany
zanatsoratra
zanaɾe
zanaʔan
zand
zandary
zandriny
zantsik
zanuna
zanunan
zanunana
zanɖ
zara
zaraina
zaridaina
zat
zato
zatovo
zau
zava
zavaboary
zavakanto
zavamananaina
zavamaneno
zavamaniry
zavatra
zavona
zaza
zazakely
zazalahy
zazavavy
zaŋ
zaɾad
zaɾan
zaɾana
zaɾiana
zaɾidina
zaɾik
zaɾin
zaʔan
zaʔana
zaʔanaɾe
zaʔand
ze
zebra
zed
zedan
zedana
zefad
zefania
zefid
zek
zelandy
zelo
zem
zen
zena
zenak
zenan
zenana
zenanaɾe
zenaɾe
zend
zenina
zet
zezika
zeŋ
zeɾan
zeɾana
zeʔana
zeʔud
zhangzhou
zhejiang
zhuang
zhuyin
zi
ziak
zian
ziana
zianaɾe
zid
zie
ziers
zifad
zifana
zifind
zik
zilud
zim
zimbaboe
zin
zina
zinaɾe
zind
zinid
zintsik
zinund
zinzilulo
zit
ziva
ziŋ
ziɾana
ziɾik
ziɾiʔana
ziʔend
ziʔid
ziʔind
zlu
zo
zohy
zoina
zokiny
zolo
zom
zoma
zon
zona
zoom
zoro
zotra
zu
zuak
zuan
zuana
zuanaɾe
zud
zuin
zuina
zuk
zukad
zuked
zuled
zulund
zum
zumud
zumund
zun
zuna
zunan
zunana
zunaɾe
zund
zut
zuŋ
zuɐ
zuʔid
zy
zyka
zɐ
zə
{
|
}
~


§
¨
«
­
°
±
²
²²
²³
²¹
²¹¹
²¹⁴
²⁴
³
³²
³³
³⁵
´
¶
·
¹
¹²¹
¹³
¹¹
»
×
æ
ð
ø
đa
đo
ı
ł
ła
ŋ
ŋa
ɐ
ɑ
ɒ
ɓa
ɔ
ɕ
ɕa
ɕi
ɕin
ɕiɪŋ
ɕɐ
ɕɛ
ɖ
ɗa
ɗəwŋ
ɘ
ə
ək
əl
əm
ən
əs
əɾ
ɛ
ɛn
ɜ
ɡ
ɡa
ɡe
ɡi
ɡo
ɡu
ɡɐ
ɡɑ
ɡə
ɣ
ɤ
ɦ
ɦa
ɨ
ɪ
ɪk
ɪl
ɪn
ɪs
ɪt
ɫ
ɭ
ɯ
ɱ
ɲ
ɲa
ɲi
ɲɛ
ɳ
ɴ
ɸ
ɹ
ɻ
ɽ
ɾ
ɾa
ɾam
ɾan
ɾanɖ
ɾat
ɾaŋ
ɾe
ɾi
ɾinɖ
ɾo
ɾu
ɾum
ɾuŋ
ɾuɐ
ɾɐ
ɾɑ
ɾə
ʁ
ʁa
ʁe
ʂ
ʂa
ʂabut
ʂafan
ʂafana
ʂaik
ʂain
ʂaina
ʂait
ʂaiŋ
ʂak
ʂaka
ʂakat
ʂakaɾe
ʂaket
ʂakit
ʂakut
ʂam
ʂan
ʂana
ʂanak
ʂanan
ʂanana
ʂananaɾe
ʂanaɾe
ʂanɖ
ʂapat
ʂapit
ʂasat
ʂasut
ʂat
ʂatsik
ʂavat
ʂaŋ
ʂaɾan
ʂaɾana
ʂaɾanaɾe
ʂaɾe
ʂaʔak
ʂaʔan
ʂaʔana
ʂaʔanaɾe
ʂaʔet
ʂe
ʂebik
ʂek
ʂeka
ʂem
ʂen
ʂena
ʂenaɾe
ʂet
ʂevan
ʂevana
ʂevat
ʂeʔak
ʂeʔan
ʂeʔana
ʂeʔanaɾe
ʂeʔat
ʂi
ʂiak
ʂian
ʂiana
ʂiat
ʂifan
ʂifana
ʂifanan
ʂifanana
ʂik
ʂiket
ʂikin
ʂikit
ʂim
ʂin
ʂina
ʂinaɾe
ʂintsik
ʂipit
ʂisut
ʂit
ʂitsik
ʂiŋ
ʂiʔak
ʂiʔan
ʂiʔana
ʂiʔanaɾe
ʂu
ʂuak
ʂuan
ʂuana
ʂuat
ʂuaɾana
ʂuk
ʂuka
ʂukaɾe
ʂum
ʂun
ʂuna
ʂunan
ʂunana
ʂunaɾe
ʂusina
ʂut
ʂuvut
ʂuvutana
ʂuŋ
ʂuʔak
ʂuʔan
ʂuʔana
ʂuʔanaɾe
ʂŋ
ʂɨ
ʂʐ
ʃ
ʃa
ʃe
ʃi
ʃo
ʃu
ʃɑ
ʃə
ʈ
ʊ
ʋ
ʋa
ʋi
ʋɐ
ʋɑ
ʌ
ʏ
ʐ
ʐa
ʐafit
ʐageɖ
ʐaik
ʐaikit
ʐain
ʐaina
ʐainaɾe
ʐaiŋ
ʐak
ʐaka
ʐakaɾe
ʐam
ʐaman
ʐamana
ʐamat
ʐan
ʐana
ʐanak
ʐanan
ʐanana
ʐananaɾe
ʐananɖ
ʐanaɾe
ʐand
ʐanina
ʐanit
ʐantsik
ʐanuk
ʐanuka
ʐanum
ʐanun
ʐanuna
ʐanunaɾe
ʐanɖ
ʐasenɖ
ʐat
ʐatan
ʐatana
ʐaut
ʐavana
ʐavanɖ
ʐavin
ʐavina
ʐaŋ
ʐaɖ
ʐaɾat
ʐaɾenɖ
ʐaʔa
ʐaʔak
ʐaʔan
ʐaʔana
ʐaʔanaɾe
ʐaʔaɖ
ʐaʔeɖ
ʐaʔinɖ
ʐaʔunɖ
ʐaʔuɖ
ʐe
ʐek
ʐem
ʐen
ʐena
ʐenaɾe
ʐenɖ
ʐet
ʐetaka
ʐetaʔana
ʐeŋ
ʐeɖ
ʐeʔak
ʐeʔan
ʐeʔana
ʐeʔanaɾe
ʐi
ʐia
ʐiak
ʐiaka
ʐiam
ʐian
ʐiana
ʐianan
ʐianana
ʐianaɾe
ʐianɖ
ʐiat
ʐik
ʐikenɖ
ʐim
ʐin
ʐina
ʐinan
ʐinana
ʐinaɾe
ʐinenɖ
ʐintsik
ʐinɖ
ʐipanɖ
ʐit
ʐitan
ʐitana
ʐivat
ʐivenɖ
ʐivut
ʐiŋ
ʐiɖ
ʐiɾenɖ
ʐiʔan
ʐiʔana
ʐo
ʐu
ʐua
ʐuak
ʐuan
ʐuana
ʐuanan
ʐuanana
ʐuanaɾe
ʐuanɖ
ʐuat
ʐufenɖ
ʐufunɖ
ʐugeɖ
ʐugiɖ
ʐuin
ʐuina
ʐuk
ʐuka
ʐukiana
ʐukiɖ
ʐukunɖ
ʐum
ʐumut
ʐun
ʐuna
ʐunan
ʐunana
ʐunaɾe
ʐund
ʐuntsik
ʐunɖ
ʐut
ʐutan
ʐutana
ʐuŋ
ʐuɐ
ʐuɖ
ʐuʔan
ʐuʔana
ʐuʔanɖ
ʐuʔuɖ
ʑ
ʑa
ʑi
ʒ
ʒa
ʒe
ʒi
ʒu
ʒɑ
ʒə
ʔ
ʔa
ʔad
ʔam
ʔamaŋ
ʔamuŋ
ʔan
ʔanad
ʔanam
ʔanan
ʔananɖ
ʔanat
ʔanatam
ʔanataŋ
ʔanaŋ
ʔand
ʔanum
ʔanuŋ
ʔanɖ
ʔat
ʔatam
ʔataŋ
ʔau
ʔaŋ
ʔaʔam
ʔem
ʔenɖ
ʔet
ʔiam
ʔian
ʔiaŋ
ʔid
ʔifam
ʔifanad
ʔifanam
ʔifanan
ʔifananɖ
ʔifanat
ʔifanatam
ʔifanataŋ
ʔifanaŋ
ʔifand
ʔifanet
ʔifanum
ʔifanuŋ
ʔifanɖ
ʔifaŋ
ʔik
ʔinɖ
ʔit
ʔo
ʔud
ʔum
ʔut
ʔutam
ʔutaŋ
ʰ
ʱ
ʲ
ʲʷ
ʷ
ʹ
ʺ
ʻ
ʻʺ
ʼ
ʾ
ʿ
ˀ
ˇ
ˈ
ˊ
ˋ
ˌ
ː
ːˈ
ˑ
˙
ˠ
ˢ
ˤ
˥
˦
˧
˨
˩
̀
́
̂
̃
̄
̆
̇
̈
̉
̊
̋
̌
̍
̏
̑
̓
̔
̚
̛
̝
̞
̟
̠
̣
̤
̥
̦
̧
̨
̩
̪
̬
̯
̰
̱
̹
̺
̻
̽
͂
ͅ
͈
͘
͡
α
απο
ας
β
δ
δα
δι
ε
ζω
η
θ
ι
κ
και
λ
μ
μα
ν
να
νη
νος
νω
ο
ος
ου
π
πα
πε
ρ
ρι
ς
τη
το
του
υ
χ
ω
а
в
д
е
з
и
к
ка
л
м
н
на
нныи
о
р
с
се
словарь
ся
т
те
тесь
ти
ть
у
х
я
язык
ְ
ֱ
ֲ
ִ
ֵ
ֶ
ַ
ָ
ֹ
ּ
־
ֿ
ׁ
ׂ
א
ב
ג
ד
ה
ו
ז
ח
ט
י
ים
ך
כ
ל
ם
מ
ן
נ
ס
ע
ף
פ
צ
ק
ר
ש
ת
ا
ب
ة
ت
ج
ح
خ
د
ذ
ر
رد
ز
س
ش
ص
ط
ع
غ
ف
ق
ك
ل
م
ن
ه
و
ى
ي
ً
َ
ُ
ِ
ّ
ْ
ٓ
ٔ
ٕ
ٰ
ک
کردن
کرنا
ی
ނ
ަ
ި
ު
ް
ँ
ं
ः
अ
अन
आ
इ
ई
उ
ऊ
क
कर
करन
कल
ख
ग
गर
घ
ङ
च
छ
ज
जन
झ
ञ
ट
ठ
ड
ढ
ण
त
तर
थ
द
दक
ध
न
प
पर
फ
ब
भ
म
मन
य
र
रक
रत
ल
ळ
व
वर
श
शब
ष
स
सम
ह
हत
़
ा
ि
ी
ु
ू
ृ
े
ै
ॉ
ो
ौ
्
ঁ
ং
ই
উ
ও
ক
খ
গ
ঘ
ঙ
চ
ছ
জ
ঝ
ঞ
ট
ঠ
ড
ঢ
ণ
ত
থ
দ
ধ
ন
প
ফ
ব
ভ
ম
য
র
ল
শ
ষ
স
হ
়
া
ি
ী
ু
ূ
ৃ
ে
ৈ
্
ৗ
১
ৰ
ৱ
ਕ
ਗ
ਟ
ਡ
ਪ
ਸ
਼
ਾ
ਿ
ੀ
ੁ
ੋ
ੰ
ੱ
ં
ઈ
ક
ખ
ગ
ચ
છ
જ
ટ
ઠ
ડ
ણ
ત
દ
ધ
ન
પ
ફ
બ
ભ
મ
ય
ર
લ
ળ
વ
શ
ષ
સ
હ
ા
િ
ી
ુ
ૂ
ે
ો
્
ବ
ର
ା
ି
ୁ
୍
க
கம
ங
ச
ஜ
ஞ
ட
ண
த
ந
ன
ப
ம
ய
ர
ற
ல
ள
ழ
வ
ஸ
ா
ி
ீ
ு
ூ
ெ
ே
ை
்
ం
అ
ఇ
ఉ
క
ఖ
గ
గమ
చ
ఛ
జ
ఞ
ట
ఠ
డ
ణ
త
తమ
థ
ద
ధ
న
ప
పర
ఫ
బ
భ
మ
య
యమ
ర
రమ
ఱ
ల
ళ
వ
శ
ష
స
హ
ా
ి
ీ
ు
ూ
ృ
ె
ే
ొ
ో
ౌ
్
ౖ
ಂ
ಅ
ಕ
ಗ
ಚ
ಜ
ಟ
ಡ
ಣ
ತ
ದ
ಧ
ನ
ಪ
ಬ
ಭ
ಮ
ಯ
ರ
ಲ
ಳ
ವ
ಶ
ಷ
ಸ
ಹ
ಾ
ಿ
ು
ೂ
ೃ
ೆ
ೌ
್
ೕ
ೖ
ം
ക
ഖ
ഗ
ങ
ച
ജ
ഞ
ട
ണ
ത
ദ
ധ
ന
പ
ബ
ഭ
മ
യ
ര
റ
ല
ള
ഴ
വ
ശ
ഷ
സ
ഹ
ാ
ി
ീ
ു
ൂ
ൃ
െ
േ
ൈ
്
ൽ
ද
න
ර
ල
ව
්
ා
ි
ු
ෙ
ก
ข
ค
ง
จ
ช
ซ
ด
ต
ถ
ท
น
บ
ป
ผ
ฝ
พ
ม
ย
ร
ล
ว
ส
ห
อ
ั
า
ำ
ิ
ี
ึ
ื
ุ
ู
็
่
้
๊
์
ກ
ຂ
ຄ
ງ
ຊ
ຍ
ດ
ຕ
ທ
ນ
ບ
ປ
ຜ
ພ
ມ
ລ
ວ
ສ
ຫ
ອ
ຮ
ັ
າ
ິ
ີ
ື
ຸ
ູ
ົ
່
້
ໍ
་
ཀ
ཁ
ག
ང
ཆ
ཉ
ཏ
ད
ན
པ
ཕ
བ
མ
ཚ
ཞ
འ
ར
ལ
ཤ
ས
ི
ུ
ེ
ོ
ྐ
ྒ
ྕ
ྟ
ྡ
ྤ
ྦ
ྨ
ྩ
ྱ
ྲ
ླ
က
ခ
ဂ
င
စ
ဆ
ဇ
ဉ
ည
ဏ
တ
ထ
ဒ
ဓ
န
ပ
ဖ
ဗ
ဘ
မ
ယ
ရ
လ
ဝ
သ
အ
ါ
ာ
ိ
ီ
ု
ူ
ေ
ဲ
ံ
့
း
္
်
ျ
ြ
ွ
ှ
ᏺ
ᏼ
ក
ខ
គ
ង
ច
ឆ
ជ
ញ
ដ
ណ
ត
ថ
ទ
ធ
ន
ប
ព
ភ
ម
យ
រ
ល
វ
ស
ហ
អ
ា
ិ
ី
ឹ
ុ
ូ
ួ
ើ
ៀ
េ
ែ
ោ
ំ
ះ
៉
់
័
្
᠋
ᬓ
ᬢ
ᬤ
ᬭ
ᬲ
ᬵ
ᬶ
ᬸ
᭄
ᮀ
ᮒ
ᮤ
ᮥ
᮪
ᵊ
ᵐ
ᵑ
​
‌
‍
‎
‑
–
—
‘
’
“
”
†
•
…
‧
‬
‰
′
″
‿
⁴
⁴¹
⁴⁴
⁵
⁵³
⁵¹
⁵⁵
⁵⁵⁴
⁻
⁽
⁾
ⁿ
€
→
↔
↷
−
⋅
③
④
⑦
♦
⺀
⺄
⺆
⺈
⺊
⺌
⺕
⺝
⺸
⺼
⿰
⿱
⿲
⿳
⿴
⿵
⿶
⿷
⿸
⿹
⿺
⿻
々
【
】
〢
あ
い
う
え
お
か
き
く
け
こ
さ
し
す
せ
そ
た
ち
っ
つ
て
と
な
に
ぬ
ね
の
は
ひ
ふ
へ
ほ
ま
み
む
め
も
ゃ
や
ゅ
ゆ
ょ
よ
ら
り
る
れ
ろ
わ
を
ん
゙
゚
ァ
ア
ィ
イ
ウ
ェ
エ
オ
カ
キ
ク
ケ
コ
サ
シ
ス
セ
ソ
タ
チ
ッ
ツ
テ
ト
ナ
ニ
ネ
ノ
ハ
ヒ
フ
ヘ
ホ
マ
ミ
ム
メ
モ
ャ
ヤ
ュ
ユ
ョ
ラ
リ
ル
レ
ロ
ワ
ン
ー
ㄅ
ㄆ
ㄇ
ㄈ
ㄉ
ㄊ
ㄋ
ㄌ
ㄍ
ㄎ
ㄏ
ㄐ
ㄑ
ㄒ
ㄓ
ㄔ
ㄕ
ㄖ
ㄗ
ㄘ
ㄙ
ㄚ
ㄛ
ㄜ
ㄝ
ㄞ
ㄟ
ㄠ
ㄡ
ㄢ
ㄣ
ㄤ
ㄥ
ㄦ
ㄧ
ㄨ
ㄩ
㇁
㇂
㇄
㇇
㇈
㇉
㇓
㐁
㐄
㐅
㐌
㐫
㐬
㐭
㐮
㐱
㑒
㒵
㒸
㒼
㓁
㓞
㔾
㕛
㕣
㖾
㘝
㚅
㚇
㚔
㚘
㝉
㝡
㝴
㝵
㞋
㞢
㞷
㠩
㠭
㠯
㡀
㡭
㡿
㢲
㢴
㣇
㣺
㥯
㪅
㫄
㫐
㫒
㫺
㬅
㬎
㬥
㬰
㲋
㳄
㷠
㸒
㸚
㸦
㼌
㼲
㽞
㿟
䀠
䂞
䍃
䏍
䒑
䖍
䖒
䖝
䖵
䙴
䚻
䜌
䝿
䡛
䧹
䪞
一
丁
丂
七
丄
丅
丆
万
丈
三
上
下
丌
不
与
丏
丐
丑
专
且
丕
世
丘
丙
业
东
丞
丢
丣
两
严
並
丨
丩
个
丫
丬
中
丮
丰
丱
串
丵
丶
丷
丸
丹
为
主
丽
丿
乀
乂
乃
久
乆
乇
么
义
之
乌
乍
乎
乏
乐
乑
乔
乖
乗
乘
乙
乚
乛
乜
九
乞
也
习
乡
乱
乳
乾
亀
亅
了
亇
予
争
事
二
亍
于
亏
亐
云
互
亓
五
井
亘
亚
亜
亞
亟
亠
亡
亢
交
亥
亦
产
亨
亩
享
京
亭
亮
亯
亰
亲
亳
亶
亷
人
亻
亼
亾
仁
今
介
仌
从
仐
仑
仒
仓
仕
他
付
仝
代
令
以
件
任
企
伊
伏
伐
休
会
伝
伯
伸
但
位
住
体
何
佘
余
作
你
佥
使
來
侈
例
侌
侖
依
価
侯
侵
便
保
俞
信
修
倉
倍
倒
候
借
倠
停
備
傲
傷
傾
僉
僕
儀
儿
兀
允
兂
元
兄
充
兆
兇
先
光
兊
克
兌
免
兑
兒
兓
兔
党
兜
兟
入
全
兩
兪
八
公
六
兮
兰
共
关
兵
其
具
典
兹
兼
冀
冂
冃
冄
内
冈
冉
冊
冋
册
再
冎
冏
冐
冒
冓
冖
冗
冘
军
农
冝
冡
冥
冫
冬
冷
几
凡
凢
凵
凶
凷
凸
凹
出
函
凾
刀
刁
刂
刃
刄
刅
分
切
刍
刑
刕
刖
列
刘
则
初
別
利
别
到
制
刺
則
削
剌
前
剡
割
剽
劉
力
功
加
劦
动
助
劫
劳
労
劵
勃
勇
勉
勒
動
務
勝
勞
勢
勤
勹
勺
勻
勾
勿
匀
匂
包
匆
匈
匊
匋
匍
匕
化
北
匚
匝
匡
匪
匱
匸
匹
区
医
匽
匿
區
十
卂
千
卄
卅
卆
升
午
卉
半
卌
华
卑
卒
卓
单
卖
南
博
卜
卝
卞
占
卡
卢
卣
卤
卦
卩
卪
卬
卯
印
危
即
却
卵
卷
卸
卻
厂
厃
厄
历
厈
厉
厌
厓
厘
厚
原
厤
厥
厨
厭
厲
厶
厷
厸
去
厼
厽
县
叀
参
參
叅
又
叉
及
友
双
反
収
叐
发
叒
叔
叕
取
受
叚
叜
叟
口
古
句
另
叩
只
叫
召
可
台
叱
史
右
叵
号
司
叹
吂
各
吅
合
吉
吊
吋
同
名
后
吏
向
吕
君
吝
吞
否
含
启
吳
吴
吸
吹
吾
呂
呆
呈
告
员
呙
周
味
命
咅
和
咎
咠
咢
咨
咸
咼
哀
品
哉
員
哥
哲
唐
商
啇
問
啚
啬
啻
善
喜
喬
單
喿
嗇
器
噩
嚴
囊
囗
囘
囙
囚
四
回
囟
因
囧
囬
困
囱
囷
固
国
圂
圅
國
圍
圓
土
圡
圣
圥
在
圭
地
圶
圼
坂
坐
坒
坚
坴
垂
型
垔
垚
埀
埋
城
埶
執
基
堂
堅
堆
堇
堯
報
場
塞
墨
壊
壘
士
壬
壯
声
売
壳
壴
壹
壺
壽
夂
处
夅
夆
备
変
夊
夋
夌
复
夏
夒
夕
外
夗
夘
多
夜
夢
大
夨
天
太
夫
夬
夭
央
失
夲
头
夷
夸
夹
夻
夾
奂
奄
奇
奈
奉
奎
奏
奐
契
奓
奔
奚
奞
奠
奢
奥
奭
女
奴
奻
好
如
妄
妙
妟
妥
妹
妻
妾
始
姐
姑
委
姜
威
娄
婁
婚
婴
嬰
嬴
子
孑
孔
孕
孖
字
存
孚
孛
孝
孟
季
孤
学
孫
孱
學
宀
宁
宂
它
宅
宇
守
安
宋
完
宏
宓
宗
官
定
宛
宜
宝
実
客
宣
室
宮
宰
害
家
容
宽
宾
宿
寄
寅
密
富
寒
察
寧
審
寫
寬
寮
寸
对
寺
寻
寽
対
寿
封
尃
射
将
將
專
尉
尊
尋
尌
對
小
少
尒
尓
尔
尖
尗
尚
尞
尢
尣
尤
尧
尨
尭
就
尸
尹
尺
尻
尼
尽
尾
尿
局
居
屈
屋
屎
屏
屑
展
屖
屚
属
屠
屡
屬
屮
屯
屰
山
屵
屾
岁
岂
岑
岡
岩
岳
岸
峯
島
崇
崑
崔
崖
崙
崩
嵬
嶲
巂
巛
川
州
巟
巠
巢
巤
工
左
巧
巨
巩
巫
差
己
已
巳
巴
巷
巸
巽
巾
巿
帀
市
布
希
帚
帛
帝
带
師
席
帶
常
幫
干
平
年
幵
并
幷
幸
幺
幻
幼
幽
幾
广
広
庄
床
底
店
庚
府
度
座
庫
庭
庶
康
庸
廉
廌
廛
廣
廩
廴
延
廷
建
廾
廿
开
弁
弃
弄
弇
弋
式
弓
弔
引
弗
弘
弜
弟
弥
弦
弱
張
強
强
彊
彌
彎
彐
彑
当
彔
录
彖
彗
彡
形
彥
彦
彧
彭
影
彳
役
彼
往
待
律
後
徒
得
徙
從
御
復
微
徵
心
忄
必
忌
忍
志
応
忝
忠
忩
快
念
忽
忿
怒
思
怠
急
性
怱
恆
恒
恥
恨
恩
恭
息
悉
患
悤
悪
悲
悶
情
惑
惠
惡
惢
想
愁
愈
意
愛
感
慈
態
慢
慧
慮
憂
憲
應
戀
戈
戉
戊
戋
戌
戍
戎
成
我
戒
戔
或
戚
戠
戢
戦
截
戲
戶
户
戹
戼
戾
房
所
扁
扇
手
扌
才
打
托
执
承
把
投
折
护
抱
拉
拜
拿
持
指
振
捕
授
掌
排
掛
探
接
推
提
揺
摩
撃
操
擦
擺
支
攴
攵
收
攸
改
攻
放
政
敄
故
敏
救
敕
敖
敗
教
敝
敞
敢
散
敦
敫
敬
数
整
敷
數
斂
文
斉
斊
斗
料
斜
斤
斥
斩
斬
断
斯
新
方
於
施
斿
旁
旋
族
无
旡
既
旣
日
旦
旧
旨
早
旬
旱
旲
时
旾
昆
昇
昌
昍
明
昏
易
昔
昗
昜
星
春
昬
是
昱
昴
昷
時
晃
晋
晏
普
景
晶
智
暑
暖
暗
暴
曇
曜
曩
曰
曲
曳
更
曷
書
曹
曼
曾
替
最
朁
會
月
有
朋
服
朔
朕
朗
望
朝
期
木
朩
未
末
本
札
朮
术
朱
朵
朶
机
朿
杀
杏
材
杜
束
条
来
杯
東
杲
杳
松
板
析
林
枚
果
枝
枲
枼
某
柔
查
柬
柰
柴
栄
栗
校
根
格
桀
案
桑
桼
梁
條
梟
梨
棒
棘
棠
棥
森
楚
業
極
楽
榮
構
樂
樊
標
模
橙
機
欠
次
欣
欮
欲
欶
欺
欽
款
歆
歇
歌
歛
止
正
此
步
武
歨
歩
歪
歮
歯
歰
歲
歴
歷
歸
歹
歺
死
残
殳
段
殷
殸
殹
殺
殻
殿
毋
毌
母
每
毒
比
毕
毚
毛
毳
氏
氐
民
气
気
氣
水
氵
氶
氷
永
氺
氾
求
汝
汞
江
決
沃
沓
沙
沝
河
油
治
泉
法
波
泣
泥
注
泰
洗
洛
洪
活
派
流
浦
浪
浮
海
消
液
淡
淮
混
清
渚
減
渠
渡
測
湯
湿
源
準
滅
滑
满
滿
演
漢
漸
激
火
灬
灭
灰
灵
灷
炅
炎
炏
炒
炗
炙
炭
点
為
烈
烏
烝
焉
無
焦
焱
然
煞
照
熊
熏
熟
熱
燕
營
燮
爆
爪
爫
爭
爯
爰
爱
爲
爵
父
爻
爽
爾
爿
片
版
牙
牚
牛
牜
牟
牢
牧
物
牪
特
牽
犀
犬
犭
犮
犯
狂
狄
狊
独
狺
猋
猒
猪
献
獻
玄
率
玉
王
玟
玨
珍
珎
珠
班
現
球
理
琴
瑟
瑩
瓜
瓦
甘
甚
生
産
用
甫
甬
田
由
甲
申
电
甶
男
甸
甹
画
甾
畀
界
畏
畐
留
畜
畟
畢
略
畧
畨
番
畫
異
畱
當
畺
畾
疊
疋
疌
疑
疒
疾
病
痛
癶
癸
癹
発
登
發
白
百
皀
皃
的
皆
皇
皋
皐
皕
皮
皷
皿
盃
盆
盇
盈
益
盍
盎
监
盒
盖
盗
盛
盡
監
盤
盧
目
直
相
盾
省
眇
眉
看
眔
眞
真
眠
眷
眼
眾
着
睘
睪
睿
瞏
瞢
瞿
矍
矛
矞
矢
矣
知
矦
短
石
破
硬
碎
確
磊
磨
示
礻
礼
社
祖
神
祟
票
祭
禀
禁
福
禸
禹
禺
离
禽
禾
禿
秀
秃
秉
秋
科
秘
秝
租
秦
称
移
稟
種
穀
穌
積
穴
究
穹
空
穿
突
窄
窒
立
竒
竜
竝
竟
章
童
端
竹
笑
笠
符
第
筆
等
答
箕
算
管
箱
箴
節
篤
篭
簡
米
粉
粛
粟
粤
粦
粲
精
糖
糞
糸
糹
系
約
納
素
索
紫
累
細
組
経
結
絜
絫
絲
絶
經
続
維
綿
線
練
縣
縮
繁
繇
纍
纟
缶
网
罒
罔
罕
罗
罙
罡
罢
罪
置
署
罷
羅
羊
羌
羍
美
羔
羕
羗
羞
羡
羣
群
義
羲
羸
羽
翁
翏
習
翕
翟
翠
翼
老
耂
考
者
耆
而
耎
耑
耒
耳
耴
耶
耷
聂
聊
聖
聚
聞
聶
職
聿
肀
肃
肅
肉
肖
肙
肥
肩
肯
育
肴
胃
背
胡
胥
能
脊
脩
膚
臣
臤
臧
自
臬
臭
臯
臱
至
致
臺
臼
臽
臾
臿
舀
舂
舄
與
興
舉
舌
舍
舛
舜
舞
舟
般
船
艮
良
色
艸
艹
艾
芒
芔
芬
芮
花
芳
芺
芻
苔
苗
苟
若
苦
英
茶
茸
荅
草
荒
荣
荼
莆
莧
莫
莽
菆
菊
菐
華
萬
落
葉
著
葛
董
葵
蒙
蒦
蒼
蓋
蓬
蓺
蔑
蔡
蕉
蕭
薄
薛
薦
薰
藍
藏
藥
蘭
虍
虎
虐
虒
虔
處
虖
虗
虘
虚
虛
虜
虞
虫
虽
蚤
蚩
蛇
蜀
蜂
蜜
蟲
蠡
血
行
衍
術
衛
衣
衤
表
衮
衰
袁
袞
被
裂
装
褭
褱
襄
襾
西
覀
要
覃
覆
見
規
覓
視
覚
覧
親
観
覽
见
觉
角
解
触
言
訁
訇
計
記
設
詞
試
話
詹
認
語
誤
誩
説
調
談
論
諸
識
議
護
讠
词
语
谷
豆
豈
豊
豐
豕
豖
豙
象
豦
豩
豪
豸
貇
貝
貞
貟
負
貢
貧
貨
貪
貫
責
貳
貴
買
費
賁
資
賈
賏
賓
賔
賛
賞
賢
賣
質
賴
贊
贝
贡
责
贯
贲
贵
赖
赞
赤
赦
走
起
越
足
路
跳
蹇
躍
身
躬
車
軍
軎
軟
転
軽
輝
輦
车
辛
辜
辞
辟
辥
辰
辱
農
辵
辶
边
込
达
过
迎
近
返
连
迷
追
退
送
逃
逆
透
逐
通
速
造
逢
連
逮
進
遀
遂
運
過
道
達
違
遠
遣
適
遷
選
遺
避
還
邊
邑
邕
那
邦
邪
郎
部
郭
都
鄉
酉
酋
配
酒
酓
酷
釆
采
里
重
野
量
金
釒
針
銀
錢
鏡
钅
長
镸
长
門
閃
閉
開
閏
閑
閒
間
閔
関
閵
閻
闌
门
间
闷
阑
阜
阝
阿
降
限
除
陰
陳
隆
隊
隋
障
隠
隡
隨
隱
隶
隹
隺
隻
隼
隽
难
雀
雁
集
雈
雋
雍
雐
雔
雙
雚
雜
雝
離
難
雨
雩
雪
雲
零
雷
電
需
震
霍
霜
霝
霞
露
霸
靈
靑
青
静
非
靡
面
靣
革
韋
韦
韭
韯
韱
音
頁
頂
頃
項
須
頑
頗
領
頡
頭
頻
題
願
顛
類
页
風
风
飛
飞
食
飠
飯
飾
養
饣
首
香
馬
馮
駦
騰
马
骨
體
高
髟
鬥
鬯
鬲
鬼
魔
魚
魯
鮮
鱼
鲁
鳥
鳳
鸟
鹵
鹿
麃
麗
麥
麦
麻
黃
黄
黍
黎
黑
黒
點
黨
黹
黽
黾
鼎
鼓
鼠
鼻
齊
齋
齐
齒
齿
龍
龙
龜
龟
龠
龰
龱
龴
龵
龶
龷
龸
龹
ꜜ
ꦏ
ꦠ
ꦤ
ꦧ
ꦩ
ꦫ
ꦮ
ꦱ
ꦶ
ꦸ
꧀
ꭰ
ꭱ
ꭲ
ꭴ
ꭶ
ꭷ
ꭸ
ꭹ
ꭺ
ꭼ
ꭿ
ꮃ
ꮅ
ꮆ
ꮈ
ꮎ
ꮑ
ꮒ
ꮕ
ꮝ
ꮡ
ꮣ
ꮤ
ꮧ
ꮩ
ꮫ
ꮵ
ꮼ
ꮿ
者
艹
﻿
（
）
？
𐌀
𐌂
𐌄
𐌉
𐌋
𐌍
𐌓
𐌔
𐌖
𐌰
𐌱
𐌲
𐌳
𐌴
𐌷
𐌸
𐌹
𐌺
𐌻
𐌼
𐌽
𐌾
𐌿
𐍂
𐍃
𐍄
𐍅
𐍆
𐍉
𐔰
𐔱
𐔴
𐔼
𐔾
𐕀
𐕄
𐕌
𐕎
𐕒
𐕘
𐕙
𐕚
𐕡
𠀁
𠀃
𠀆
𠀉
𠀎
𠀐
𠁁
𠁣
𠂆
𠂇
𠂈
𠂉
𠂊
𠂋
𠂎
𠂒
𠂔
𠂛
𠂡
𠂢
𠂤
𠂬
𠂭
𠂹
𠃊
𠃋
𠃌
𠃍
𠃎
𠃑
𠃓
𠃔
𠃜
𠄌
𠄎
𠄠
𠄢
𠆢
𠆥
𠇍
𠈌
𠌵
𠓜
𠔉
𠔥
𠔼
𠔽
𠔿
𠕀
𠕁
𠕋
𠘧
𠘨
𠙻
𠙼
𠚏
𠚒
𠚤
𠚪
𠣏
𠤎
𠤕
𠥓
𠦄
𠦑
𠦝
𠧒
𠧗
𠧪
𠩺
𠪚
𠫓
𠫔
𠫤
𠬛
𠬝
𠬞
𠬢
𠬤
𠬶
𠮛
𠮦
𠮷
𠯑
𠱠
𠳮
𠷎
𡈼
𡉀
𡉵
𡌥
𡍮
𡏳
𡕒
𡕩
𡕰
𡖅
𡗗
𡗜
𡘆
𡘤
𡧱
𡨄
𡩧
𡬠
𡭽
𡰣
𡰥
𡰪
𡰯
𡰱
𡷈
𡸁
𡿨
𡿩
𡿪
𡿺
𢀖
𢀛
𢀩
𢁙
𢆉
𢆰
𢆶
𢇁
𢇇
𢉖
𢌬
𢌿
𢏚
𢑑
𢑚
𢖻
𢙣
𢛳
𢦏
𢦒
𢧵
𢼄
𢾕
𣁋
𣄼
𣅀
𣅽
𣍘
𣎳
𣎵
𣏋
𣏼
𣗥
𣥂
𣥖
𣦵
𣦼
𣧄
𣪊
𣪠
𣬉
𣳾
𣶒
𤇾
𤊽
𤐫
𤓰
𤔔
𤕨
𤣩
𤰇
𤰔
𤰞
𤴓
𤴔
𤽄
𥁑
𥁕
𥃦
𥃩
𥃭
𥇡
𥑟
𥘅
𥘈
𥝢
𥫗
𥱡
𦈢
𦉪
𦉬
𦉼
𦍌
𦍒
𦎧
𦐇
𦓔
𦔮
𦘒
𦙃
𦚏
𦣝
𦣞
𦣻
𦥑
𦥔
𦥯
𦨉
𦭝
𦰩
𧆞
𧈧
𧘇
𧰨
𧴪
𧴮
𧵩
𧾷
𨸏
𨾴
𩙿
𩠐
𩫏
𩵋
𪉷
𪜀
𪟽
𪠲
𪩲
𫇦
𫔭
𫜸
𫝀
𫠣
𫠩
𫢉
𫥞
𫩏
𫩠
𫪡
𫲽
𫶧
𬀷
𬐘
𬗌
𬙙
𬛸
𬜯
𬟩
𬯁
𬴘
𬺻
𬼉
𬼖
𭀰
𭁈
𭁨
𭅰
𭑈
𭕄
𭗼
𭤨
𭥫
𭻾
𮅕
𮊿
𮍌
𮍏
𮓗
𮥼
𮧮
廾
𰀁
𰀄
𰀈
𰀉
𰀕
𰀠
𰀡
𰀢
𰀪
𰁜
𰃮
𰆊
𰆘
𰋙
𰕎
𰢴
𰧭
𰯲
00--
000--
01--
02--
03--
04--
05--
06--
07--
08--
09--
120--
140--
220--
233--
250--
283--
316--
333--
383--
433--
450--
45805--
46--
47--
48--
49--
50--
51--
510--
52--
53--
54--
55--
550--
56--
57--
58--
59--
60--
600--
61--
62--
63--
64--
65--
66--
67--
68--
69--
70--
71--
72--
73--
74--
75--
76--
77--
78--
79--
80--
81--
82--
83--
84--
85--
86--
87--
88--
89--
90--
91--
92--
93--
94--
95--
96--
97--
98--
99--
a--
aa--
aan--
aant--
ab--
aba--
aban--
abar--
abara--
abarra--
abe--
abejor--
abemo--
abir--
abis--
abisa--
abits--
abla--
abo--
aboli--
abont--
abora--
abori--
aboro--
abre--
abri--
abu--
ac--
acar--
acc--
acce--
acci--
acco--
accon--
accou--
accu--
accumu--
acha--
achaf--
acomo--
acor--
acri--
acti--
acuchi--
ad--
ada--
ade--
adel--
adha--
adif--
adilo--
adim--
adin--
adiso--
adits--
adiv--
admi--
admini--
ado--
adul--
adven--
ae--
aem--
aetri--
af--
afa--
afahi--
afaho--
afana--
afand--
afandro--
afant--
afe--
afec--
afefi--
afel--
afena--
afendro--
afeno--
afet--
afets--
aff--
affa--
afi--
afia--
afihi--
afin--
afio--
afis--
afita--
afits--
afo--
afofo--
afon--
afori--
ag--
aga--
agar--
agara--
age--
aglu--
ago--
agra--
agrie--
agru--
aguan--
ah--
aha--
ahabe--
aham--
ahampan--
ahampano--
ahampanof--
ahampanom--
ahampanon--
ahampifan--
ahampifanon--
ahand--
ahandro--
ahant--
ahao--
ahe--
ahefi--
ahel--
ahets--
ahev--
ahi--
ahia--
ahib--
ahid--
ahif--
ahifo--
ahim--
ahima--
ahin--
ahip--
ahir--
ahira--
ahisa--
ahit--
ahits--
ahiz--
aho--
ahont--
ai--
aia--
aik--
aim--
ain--
air--
ais--
aisor--
ait--
aj--
aja--
ajir--
ajo--
ajom--
ajon--
ajus--
ak--
aka--
akan--
akara--
akat--
ake--
akehi--
aki--
akib--
akif--
akim--
akiso--
akit--
akiv--
ako--
akoho--
akom--
akora--
akoro--
akoron--
al--
ala--
alam--
alan--
alaro--
albor--
ale--
alen--
ali--
alik--
alin--
allem--
aller--
almac--
alo--
alqui--
alter--
alu--
alum--
am--
ama--
amain--
amalo--
aman--
amango--
amar--
ambala--
ambao--
ambar--
ambas--
ambat--
ambato--
ambe--
ambeo--
amber--
ambi--
ambia--
ambiho--
ambil--
ambio--
ambit--
ambo--
amboa--
ambohi--
ambro--
ame--
amen--
ami--
amin--
amiok--
amo--
amon--
amond--
amone--
among--
amont--
amoro--
amort--
amos--
ampaho--
ampai--
ampal--
ampam--
ampan--
ampanako--
ampanan--
ampanat--
ampando--
ampanoh--
ampanon--
ampar--
ampara--
ampem--
ampen--
ampet--
ampi--
ampifan--
ampifana--
ampifanam--
ampifanan--
ampifanat--
ampifand--
ampifanen--
ampifanga--
ampifango--
ampifanin--
ampifano--
ampind--
ampl--
ampo--
ampombo--
ampon--
ampor--
amu--
an--
ana--
anabo--
anabon--
anad--
anafa--
anago--
anaja--
anak--
anaka--
anako--
anam--
anampo--
anan--
anandr--
anango--
anantsa--
anantso--
anapo--
anara--
anarat--
anasa--
anaso--
anat--
anato--
anatra--
anatri--
anatsik--
anatso--
anavo--
and--
anda--
ande--
andim--
andin--
ando--
andra--
andrai--
andram--
andrama--
andran--
andrano--
andravo--
andre--
andri--
andria--
andriam--
andrin--
andro--
ane--
anend--
anent--
ang--
anga--
angad--
angaho--
angal--
angam--
angan--
angara--
angaro--
angat--
ange--
angi--
angid--
angil--
angit--
ango--
ani--
anik--
anim--
anin--
aniri--
anit--
anivo--
anja--
anje--
anji--
anjo--
anjon--
anka--
ankarat--
anke--
anki--
ankia--
ankin--
anko--
ankoa--
ankoho--
ankom--
ann--
ano--
anoho--
anom--
anombo--
anon--
anond--
anongo--
anono--
anont--
anoto--
ans--
ant--
antano--
antara--
ante--
antefe--
anti--
anto--
antsa--
antsi--
antsin--
antsio--
antsipi--
antsit--
antso--
ao--
aogo--
aoho--
aom--
aombo--
aon--
aondr--
aongo--
aori--
aoro--
ap--
apa--
apara--
apela--
apet--
apits--
apli--
apo--
apori--
apparei--
apprivo--
appro--
ar--
ara--
arak--
aram--
aran--
arao--
arbit--
arc--
are--
arefo--
arehi--
arend--
arent--
argen--
aria--
arian--
arida--
arif--
arim--
arimoa--
arin--
arir--
aris--
arit--
armo--
aro--
aroa--
arom--
aron--
arori--
arreg--
arres--
arrin--
arru--
arsen--
art--
as--
asa--
asafo--
asafon--
asam--
asan--
asavo--
asce--
aset--
aseta--
aseto--
ash--
asik--
asilves--
asim--
asin--
asit--
aso--
asok--
asoka--
asol--
asolo--
asom--
asompi--
ason--
asona--
asor--
asora--
asoro--
asoso--
asotit--
asotri--
aspi--
asse--
assem--
asser--
assi--
asso--
at--
ata--
ataki--
atako--
atam--
atan--
atand--
atang--
atango--
atant--
atao--
ate--
atefi--
atel--
atem--
ater--
ati--
atin--
atis--
ato--
atodin--
atofe--
atom--
aton--
atra--
atre--
atri--
atrin--
atro--
atroa--
atron--
atros--
atsam--
atsat--
atse--
atsen--
atset--
atsi--
atsidra--
atsik--
atsil--
atsim--
atsin--
atsind--
atsing--
atsinka--
atsira--
atsit--
atso--
atta--
atter--
au--
augu--
aun--
aus--
aust--
aut--
auto--
autoaf--
av--
ava--
avan--
avara--
ave--
avend--
avia--
avik--
avio--
avir--
avo--
avon--
aw--
ax--
ay--
az--
aza--
azo--
aɳ--
aɾ--
aɾak--
aɾe--
aɾu--
aʔ--
aʔa--
b--
ba--
baba--
babo--
bac--
bad--
bada--
badi--
bado--
bafo--
bag--
bago--
baha--
bahi--
bai--
baik--
baiko--
bain--
baingo--
bak--
baka--
bako--
bal--
bala--
bam--
ban--
bana--
band--
bangla--
bango--
bao--
baoks--
baori--
bar--
bara--
baro--
bas--
bascu--
basim--
bat--
bata--
bato--
batri--
bau--
baud--
baut--
bava--
baza--
baɳ--
baɾ--
baʔ--
be--
beau--
bec--
beda--
bei--
bek--
beko--
bel--
bela--
bem--
bemio--
ben--
bena--
beo--
ber--
bero--
bes--
bet--
beta--
betsi--
beu--
bevo--
beɳ--
beɾe--
beɾi--
bi--
bia--
bib--
bibi--
bid--
bie--
big--
bik--
bikoa--
bil--
bila--
bim--
bin--
bina--
bio--
biolo--
bir--
biri--
biro--
bis--
bit--
bitab--
bla--
blan--
blo--
blu--
bn--
bo--
boa--
boan--
bob--
bobo--
boda--
bode--
bodo--
boha--
bohi--
boho--
boibo--
boka--
bokis--
boko--
bokon--
bol--
bola--
bolan--
bolo--
bom--
bon--
bono--
boque--
bor--
borah--
bori--
boro--
boroa--
boron--
boros--
bos--
bot--
bota--
botra--
bou--
boui--
boul--
bour--
bous--
bout--
br--
bra--
brad--
brand--
brandil--
bre--
bres--
bri--
bro--
bru--
bu--
bua--
buad--
buaɾavu--
buc--
bud--
buf--
buk--
bul--
bulavu--
bun--
bur--
bus--
but--
buɳ--
buɾa--
buɾe--
buɾi--
buɾu--
buʔ--
by--
c--
ca--
cail--
caillebot--
cal--
calcu--
calum--
cam--
can--
cance--
canon--
cap--
car--
cas--
caser--
caste--
castel--
cau--
ce--
cele--
cens--
cent--
cer--
ces--
ch--
cha--
cham--
chamai--
char--
chas--
che--
chev--
chi--
chismor--
cho--
chor--
chu--
ci--
cir--
circu--
circum--
cis--
ck--
cla--
clau--
claudi--
cle--
cli--
clo--
clu--
co--
coag--
codifi--
cog--
coho--
col--
coll--
colla--
colle--
collec--
collecti--
colli--
colum--
com--
comen--
comer--
compo--
con--
conce--
conci--
confis--
confr--
confu--
conje--
connec--
consi--
contem--
contex--
contextua--
contra--
copu--
cor--
corn--
cos--
cosqui--
cou--
coul--
coup--
cour--
cra--
cre--
cri--
cris--
cro--
cru--
cs--
cu--
cuchi--
cul--
cur--
cy--
d--
da--
dabar--
dabo--
dada--
dafi--
dafin--
dag--
dahi--
dahin--
daib--
daik--
dail--
daka--
dako--
dal--
dala--
dam--
damos--
dan--
dana--
danga--
dango--
dani--
daom--
dar--
daro--
darof--
daroh--
das--
dat--
daup--
dava--
daʔ--
de--
dec--
decap--
decep--
deci--
decu--
dedi--
defla--
defra--
degra--
degu--
dehi--
del--
dela--
delet--
delib--
dem--
demo--
den--
denun--
der--
deron--
des--
desahu--
desaprove--
desarro--
desay--
desci--
descu--
desen--
deser--
desinf--
deslo--
despa--
despar--
despe--
desta--
deste--
det--
detec--
deter--
deuts--
devo--
di--
dia--
dian--
dic--
die--
dif--
difa--
difi--
dig--
dik--
dika--
dilan--
dilar--
dilat--
dim--
dimensionn--
din--
dina--
dinia--
dinir--
dio--
dipoava--
dir--
dis--
disad--
discipl--
discri--
discu--
discul--
disec--
disem--
diser--
disgu--
diso--
dissi--
dit--
diva--
divi--
do--
dobo--
doc--
doha--
doka--
doko--
dom--
dombo--
domin--
don--
dona--
dong--
dor--
dos--
dr--
dra--
draho--
drain--
dram--
drambo--
drand--
drang--
drano--
drant--
drao--
draoa--
dravi--
dre--
dreni--
dri--
dria--
driat--
drid--
drif--
drio--
dro--
droa--
dron--
du--
duc--
dulc--
dum--
dun--
dur--
duʔa--
dy--
dz--
e--
ear--
ebo--
econom--
ed--
edif--
ef--
efa--
efe--
efi--
efoke--
eg--
ehi--
ei--
ein--
eis--
eja--
ejecu--
ejerci--
ek--
eko--
ekoat--
el--
ela--
elane--
ele--
elec--
elek--
elektri--
elo--
elu--
em--
ema--
emanci--
embet--
embo--
embra--
emo--
empa--
empo--
en--
ena--
enar--
enca--
ence--
encla--
enco--
encor--
encre--
end--
endou--
endri--
enfa--
enfat--
enfour--
eng--
engen--
engr--
engra--
enim--
enlai--
eno--
ensil--
entre--
enva--
envi--
eo--
eorope--
epi--
equivo--
er--
era--
erin--
erit--
erits--
ero--
erradi--
es--
esca--
escar--
esco--
escru--
esikes--
eso--
esqui--
est--
estal--
estam--
estre--
estri--
et--
eta--
etan--
etique--
eto--
etra--
etro--
ets--
etsah--
ety--
eu--
ev--
eva--
eve--
evo--
evolu--
ex--
exacer--
exal--
exas--
exca--
exhu--
exi--
exor--
experi--
expi--
expl--
expla--
explo--
expu--
exter--
extir--
extor--
ey--
ez--
eʔ--
f--
fa--
fabr--
fac--
face--
faci--
fadi--
fadim--
fadir--
fafa--
faha--
fahambo--
fahand--
fahang--
fahant--
faharat--
fahasam--
fahaves--
fahavit--
fahe--
fahen--
fahi--
fahia--
fahin--
fahira--
fahitsa--
faho--
fahoa--
faiboh--
faiko--
fain--
fair--
fais--
faits--
faiviv--
faka--
faki--
fako--
fakti--
fal--
fala--
fale--
falif--
fam--
famabo--
famafa--
famaha--
famaho--
famak--
faman--
famango--
famao--
famar--
famat--
famato--
fambo--
fambor--
fame--
famele--
famelo--
famem--
famera--
fames--
famet--
famez--
fami--
famia--
famik--
famila--
famin--
famina--
famingo--
famio--
famirapi--
famisa--
famit--
famita--
famits--
famo--
famoa--
famof--
famoh--
famok--
famol--
famola--
famolim--
famon--
famona--
famont--
famor--
famora--
famore--
famoro--
famos--
famosa--
famote--
famoto--
famotoa--
famotra--
famoze--
fampa--
fampam--
fampaman--
fampamo--
fampamon--
fampan--
fampana--
fampanak--
fampanam--
fampanan--
fampanat--
fampand--
fampando--
fampandro--
fampanga--
fampanin--
fampanir--
fampanit--
fampano--
fampi--
fampiha--
fampihi--
fampiran--
fampitan--
fampito--
fan--
fana--
fanabehambe--
fanabo--
fanabon--
fanabor--
fanaboroa--
fanabot--
fanad--
fanafain--
fanafo--
fanago--
fanagoro--
fanaho--
fanaik--
fanain--
fanaingo--
fanaita--
fanaja--
fanajari--
fanaki--
fanakia--
fanakik--
fanakim--
fanako--
fanakon--
fanakor--
fanakoro--
fanakos--
fanakotri--
fanalin--
fanalo--
fanam--
fanamira--
fanamo--
fanan--
fanantso--
fanapatra--
fanapia--
fanapo--
fanapor--
fanara--
fanararao--
fanarat--
fanari--
fanarir--
fanaro--
fanaron--
fanarote--
fanasa--
fanasal--
fanasao--
fanasavo--
fanasi--
fanasil--
fanasit--
fanaso--
fanasoa--
fanason--
fanasondr--
fanat--
fanatak--
fanatako--
fanatalan--
fanatan--
fanatant--
fanato--
fanatoa--
fanatof--
fanatont--
fanatri--
fanatsat--
fanatsi--
fanatsing--
fanatso--
fanavem--
fanavit--
fanavo--
fanazan--
fand--
fandabo--
fandaf--
fandama--
fandano--
fandaro--
fandas--
fandat--
fandia--
fandim--
fandin--
fandina--
fandio--
fandits--
fando--
fandoa--
fandoka--
fandoko--
fandona--
fandra--
fandrai--
fandram--
fandran--
fandre--
fandref--
fandri--
fandrin--
fandrio--
fandrir--
fandro--
fandroa--
fandrohi--
fandrom--
fandron--
fane--
fanehi--
fanel--
fanelo--
fanem--
fanen--
fanena--
fanend--
fanenin--
faneno--
faner--
fanero--
fanes--
fanet--
fanev--
fanez--
fanfar--
fanga--
fangala--
fangara--
fangaro--
fangaron--
fangat--
fange--
fangena--
fangi--
fangiri--
fangit--
fangitan--
fango--
fangont--
fangora--
fangorin--
fangov--
fani--
fania--
fanib--
faniboa--
faniboh--
fanid--
fanif--
fanifi--
fanifo--
fanihi--
fanikin--
fanil--
fanila--
fanili--
fanim--
fanima--
fanin--
fanipa--
fanipi--
fanir--
fanira--
fanirikir--
faniro--
fanis--
fanisi--
fanit--
fanita--
faniti--
fanito--
fanits--
fanivo--
fanja--
fanjan--
fanje--
fanji--
fanjo--
fanjon--
fanka--
fankam--
fankara--
fankato--
fano--
fanoato--
fanodia--
fanodir--
fanoho--
fanolo--
fanoloa--
fanolot--
fanom--
fanomba--
fanombo--
fanon--
fanond--
fanonda--
fanong--
fanonga--
fanongo--
fanonot--
fanont--
fanonta--
fanoran--
fanorir--
fanoro--
fanose--
fanoso--
fanoto--
fanotra--
fanotro--
fanovo--
fanta--
fanti--
fanto--
fantsi--
fantso--
fao--
faoh--
faok--
faosa--
far--
fara--
faran--
faratsa--
farava--
fare--
fari--
faritso--
faro--
farom--
farorat--
fas--
fasit--
fasti--
fat--
fatia--
fatik--
fatio--
fato--
fatoh--
fatok--
faton--
fator--
fatra--
fatri--
fau--
favo--
faɳ--
faɾa--
faɾi--
faʔ--
faʔa--
faʔam--
fe--
fecu--
fehe--
fehi--
fehin--
felat--
felici--
fem--
fen--
fenda--
fenja--
feno--
fer--
fesan--
feso--
fet--
feta--
fetre--
fetsa--
feza--
ff--
fi--
fia--
fiaho--
fiaik--
fiain--
fialon--
fiam--
fiampo--
fian--
fiana--
fiandr--
fiandra--
fiandraik--
fiango--
fianja--
fianto--
fiantsa--
fiantsin--
fiantso--
fiapana--
fiapo--
fiara--
fiaret--
fiari--
fiatia--
fiato--
fiatoa--
fiatran--
fiavo--
fiavon--
fiba--
fibaha--
fiban--
fibana--
fibara--
fibe--
fibedibe--
fibi--
fibila--
fibina--
fibit--
fibo--
fiboa--
fiboan--
fibob--
fibol--
fibon--
fibor--
fiboroa--
fid--
fidabo--
fidada--
fidan--
fidanad--
fidani--
fidano--
fidar--
fidaro--
fide--
fidi--
fidif--
fidim--
fidin--
fidina--
fido--
fidoa--
fidof--
fidoh--
fidon--
fidona--
fidoro--
fidri--
fie--
fiebo--
fiefa--
fiela--
fiele--
fielo--
fiem--
fien--
fiendr--
fier--
fiero--
fiesine--
fieso--
fiet--
fieta--
fiets--
fiev--
fievan--
fieve--
fievoh--
fiez--
fifa--
fifaha--
fifal--
fifam--
fifampam--
fifampan--
fifampana--
fifampanan--
fifampand--
fifampano--
fifampi--
fifampian--
fifampif--
fifampiha--
fifampihi--
fifampio--
fifampit--
fifampita--
fifampitan--
fifampito--
fifan--
fifat--
fife--
fifefe--
fifen--
fifer--
fifet--
fifeta--
fifi--
fifia--
fifik--
fifin--
fifit--
fifo--
fifofo--
fifon--
fifongo--
fifore--
fiforo--
fifoto--
figa--
figaon--
fige--
figo--
figu--
fiha--
fihand--
fihant--
fiharan--
fiharat--
fihazo--
fihe--
fihen--
fihena--
fiheren--
fihetra--
fihi--
fihia--
fihin--
fihinji--
fihira--
fihiri--
fiho--
fihoa--
fihodi--
fihoho--
fihombo--
fihond--
fihont--
fihorir--
fihoron--
fihota--
fihotro--
fihotsa--
fihovotrovo--
fihozango--
fiita--
fija--
fijaija--
fijako--
fijan--
fijangajan--
fijari--
fije--
fiji--
fijin--
fijo--
fik--
fikai--
fikao--
fikaon--
fikapo--
fikas--
fikat--
fikatra--
fike--
fiket--
fiketo--
fiki--
fikia--
fikik--
fikim--
fikin--
fikir--
fikira--
fikiso--
fikit--
fikita--
fikito--
fiko--
fikoa--
fikode--
fikof--
fikoh--
fikom--
fikona--
fikone--
fikor--
fikora--
fikore--
fikorin--
fikoro--
fikos--
fikota--
fikote--
fikotre--
fikotri--
fil--
fila--
filam--
filan--
filasil--
file--
filela--
filem--
filente--
fileo--
fili--
filia--
filib--
filin--
filio--
filo--
fim--
fima--
fimaona--
fimi--
fimo--
fimonjo--
fin--
finan--
finantsan--
finda--
findra--
finin--
finom--
finon--
finonoa--
fintsa--
fio--
fiof--
fiofoa--
fioh--
fiok--
fioko--
fiol--
fiola--
fiole--
fiolo--
fiolon--
fiom--
fion--
fiondra--
fione--
fiongo--
fiono--
fionona--
fiont--
fior--
fiore--
fiori--
fioro--
fiosa--
fiota--
fiotin--
fiotre--
fiova--
fiovo--
fipa--
fipai--
fipam--
fipaoh--
fipara--
fipas--
fipe--
fipen--
fiper--
fipi--
fipia--
fipit--
fipitso--
fipo--
fipol--
fipon--
fipor--
fiporoa--
fipotsa--
fir--
fira--
firado--
firako--
firambo--
firant--
firavo--
fire--
firebo--
fired--
firef--
firefo--
firehe--
firei--
firem--
firen--
firendr--
fireo--
firera--
fires--
firet--
fireza--
firi--
firia--
firifi--
firin--
firio--
firir--
firitso--
firo--
firoa--
firoan--
firobo--
firoda--
firodo--
firofo--
firom--
firon--
firongo--
firota--
firote--
firotsa--
fisa--
fisafid--
fisafo--
fisahat--
fisako--
fisam--
fisand--
fisang--
fisanga--
fisango--
fisaron--
fisat--
fisavo--
fise--
fisem--
fisen--
fiser--
fises--
fisese--
fiset--
fisi--
fisia--
fisik--
fisil--
fisin--
fisio--
fisis--
fisit--
fisitis--
fiso--
fisoa--
fisol--
fisola--
fisolif--
fisolo--
fisom--
fison--
fisondre--
fisor--
fisoso--
fit--
fita--
fitafo--
fitaiko--
fitain--
fitaingo--
fitaita--
fitaki--
fitako--
fitakon--
fitala--
fitalan--
fitam--
fitan--
fitand--
fitang--
fitanga--
fitango--
fitanta--
fite--
fitefo--
fitehiri--
fitem--
fiten--
fiter--
fitera--
fitet--
fitez--
fitia--
fitib--
fitif--
fitil--
fito--
fitoka--
fitom--
fitong--
fitore--
fitra--
fitrai--
fitre--
fitri--
fitro--
fitroa--
fitron--
fitros--
fitsa--
fitsai--
fitsak--
fitsam--
fitsao--
fitsat--
fitse--
fitsen--
fitset--
fitsi--
fitsia--
fitsik--
fitsika--
fitsikia--
fitsil--
fitsim--
fitsin--
fitsinan--
fitsind--
fitsindran--
fitsing--
fitsio--
fitsipe--
fitsira--
fitsit--
fitso--
fitsoa--
fitson--
fitsontso--
fiva--
fivadi--
fivalo--
fivan--
fivana--
fivandr--
fivaon--
fivar--
fivaro--
fivat--
fivazo--
five--
fivelo--
fivem--
fiven--
fivena--
fivera--
fives--
fivet--
fivezive--
fivi--
fivila--
fivim--
fivin--
fivio--
fivit--
fivo--
fivoa--
fivoe--
fivon--
fivoro--
fivovo--
fivu--
fiza--
fize--
fizi--
fizin--
fizo--
fiɾa--
fiɾe--
fiɾi--
fiɾu--
fiʔ--
fiʔa--
fla--
flac--
fle--
fli--
flo--
flu--
fo--
foana--
fodia--
fodim--
fodis--
fofo--
fofon--
fofor--
foha--
fohe--
foina--
fokar--
foko--
fol--
fola--
folia--
folo--
fom--
fombo--
fompo--
fon--
fondr--
fondra--
fongo--
fonja--
fono--
for--
fora--
fore--
forin--
foro--
fos--
fosar--
foser--
fosit--
fota--
fotafer--
fote--
foteta--
foto--
fotro--
fotsi--
fotsivolo--
fou--
four--
foza--
fozo--
fr--
fra--
frac--
frag--
fre--
frecuen--
fred--
fri--
fro--
frois--
fron--
fru--
frus--
fu--
ful--
fun--
fut--
fuz--
g--
ga--
gad--
gaga--
gai--
gain--
gal--
gala--
gam--
gan--
ganu--
gar--
gara--
garn--
gat--
gaut--
gaɾa--
gaɾaɾi--
gaɾi--
gaɾu--
gaʔ--
ge--
ged--
gedro--
gel--
gen--
gena--
geo--
geof--
ger--
ges--
gesti--
get--
geta--
geʔ--
gh--
gi--
gia--
gian--
gid--
gidi--
gik--
gil--
gilaʔ--
gin--
gio--
girigi--
gis--
gisa--
git--
giɾi--
gla--
glo--
go--
god--
gogo--
goguenard--
gol--
gold--
gon--
gor--
gora--
goram--
gorg--
gott--
gour--
gov--
gr--
gra--
gre--
grif--
gro--
gu--
gua--
guard--
gue--
guer--
guil--
gulua--
gun--
gut--
guviʔu--
guzuʔuz--
guɾa--
guɾe--
guɾu--
gy--
h--
ha--
haba--
habet--
habi--
habia--
habil--
habit--
habo--
haboka--
habon--
habor--
hadar--
hadi--
hadim--
hadin--
hadino--
hadio--
hadit--
hadra--
hafa--
hafain--
hafe--
hafem--
hafen--
hafeno--
hafer--
hafet--
hafi--
hafin--
hafira--
hafit--
hafo--
hafon--
hafotso--
hago--
haha--
haham--
hahampan--
hahampifan--
hahe--
hahi--
hahia--
haho--
hai--
haika--
hain--
haja--
haje--
hajo--
hak--
haka--
haket--
hakit--
hako--
hakoh--
hakor--
hakos--
hal--
hala--
halam--
hale--
halehi--
halem--
halo--
ham--
hama--
hambo--
hame--
hamin--
hamo--
hamoa--
hamoh--
hamon--
hamont--
hamor--
hamora--
hampan--
hampana--
hampanak--
hampanam--
hampanan--
hampanasa--
hampanat--
hampand--
hampando--
hampandra--
hampandro--
hampanif--
hampano--
hampi--
hampifan--
hampit--
han--
hana--
hanam--
hanama--
hanambo--
hanan--
hanand--
hanant--
hanasa--
hanatro--
hand--
handa--
hande--
handi--
hando--
handr--
handra--
handro--
handroa--
hane--
hanen--
hanet--
hanga--
hangi--
hango--
hani--
hania--
hanif--
hanik--
hanim--
hanin--
hanir--
hanja--
hano--
hanoa--
hanof--
hanoh--
hanom--
hanon--
hanor--
hanora--
hanos--
hantsa--
hantso--
hao--
haon--
haond--
haoro--
hapar--
hapo--
hapor--
har--
hara--
harafe--
haran--
hare--
hared--
haref--
hares--
hari--
haria--
harin--
harir--
haro--
haroa--
harom--
haron--
hart--
has--
hasaf--
hasah--
hasaro--
hasavo--
hasi--
hasia--
hasim--
hasit--
haso--
hasoa--
hasom--
hat--
hataf--
hatah--
hatako--
hatan--
hateve--
hatez--
hatif--
hato--
hatof--
hatoh--
hatok--
hatom--
haton--
hatos--
hatri--
hatro--
hatsembo--
hatsi--
hatsik--
hatsika--
hatso--
hava--
havalo--
havan--
havang--
havao--
havar--
havat--
haver--
havi--
havin--
havit--
havo--
havoka--
havon--
haw--
hay--
haza--
hazaka--
hazin--
hazo--
hazon--
he--
hefa--
hefen--
hehi--
hei--
hek--
hel--
helo--
hem--
hen--
hena--
hendr--
hendra--
hento--
heok--
her--
heran--
heret--
heri--
herin--
hero--
heta--
hetri--
hevi--
hevo--
hi--
hia--
hiam--
hian--
hiand--
hiant--
hibo--
hibon--
hibor--
hidi--
hidir--
hido--
hie--
hifa--
hifam--
hifamo--
hifamon--
hifampi--
hifampitan--
hifampito--
hifan--
hifanako--
hifanat--
hifando--
hifandra--
hifanom--
hifanon--
hifo--
higo--
hiha--
hihao--
hihe--
hihi--
hihin--
hiho--
hihoa--
hiko--
hikor--
hil--
hilai--
hilao--
hilo--
hilon--
him--
himbo--
himo--
hin--
hinda--
hinji--
hio--
hipo--
hipote--
hira--
hiri--
hiro--
hisat--
hiso--
histo--
hita--
hitan--
hitik--
hito--
hitre--
hitri--
hitsa--
hitse--
hitsi--
hitsik--
hitsin--
hitso--
hiva--
hivo--
hn--
ho--
hoa--
hobar--
hoda--
hodi--
hoe--
hofa--
hofair--
hofako--
hofal--
hofan--
hofara--
hofat--
hofeta--
hoff--
hofia--
hofin--
hofira--
hofo--
hogo--
hoha--
hohan--
hohat--
hohi--
hoho--
hok--
hoko--
hol--
hola--
holai--
holak--
holam--
holan--
holo--
holoa--
holon--
hom--
homba--
hombo--
hon--
honan--
honat--
hond--
hono--
hont--
hor--
hora--
hori--
horia--
horir--
horo--
horon--
hosa--
hosin--
hoso--
hosp--
hospe--
hota--
hotafa--
hotin--
hoto--
hotra--
hotri--
hotro--
hotsa--
hotse--
hotsi--
hotsin--
hotso--
houe--
hous--
hova--
hovo--
hozat--
hu--
hum--
hun--
hur--
hus--
hy--
i--
ia--
iafon--
iaho--
iaka--
iam--
ian--
iana--
iandra--
iango--
iantso--
iaran--
iare--
iat--
iavon--
iaʔ--
ib--
ibila--
ibo--
ibof--
iboh--
ibont--
ibor--
ibore--
ic--
id--
ida--
ide--
idin--
ido--
ie--
iend--
ier--
if--
ifako--
ifam--
ifamin--
ifamo--
ifamon--
ifampi--
ifampia--
ifampian--
ifampibo--
ifampid--
ifampidona--
ifampie--
ifampif--
ifampiha--
ifampihi--
ifampiho--
ifampik--
ifampiko--
ifampin--
ifampio--
ifampira--
ifampiro--
ifampiron--
ifampisa--
ifampiso--
ifampit--
ifampita--
ifampitan--
ifampito--
ifampiva--
ifampivan--
ifampivo--
ifampivon--
ifan--
ifanabo--
ifanak--
ifanaka--
ifanako--
ifanam--
ifanan--
ifanap--
ifanara--
ifanas--
ifanasa--
ifanat--
ifand--
ifanen--
ifanga--
ifango--
ifanin--
ifanina--
ifano--
ifanoh--
ifanom--
ifanon--
ifat--
ifato--
ifi--
ifin--
ifo--
ifof--
ifoh--
ifon--
ifona--
ifore--
ig--
ign--
igo--
iha--
ihai--
ihala--
iham--
ihan--
ihao--
iharo--
ihe--
ihi--
ihin--
iho--
ihoho--
ija--
iji--
ijo--
ik--
ika--
ikala--
ikit--
iko--
ikofo--
ikotre--
il--
ila--
ilan--
ilao--
ilasi--
ilits--
illu--
ilo--
ilum--
im--
ima--
imbal--
imbo--
imbon--
impe--
imper--
impl--
impla--
imple--
impre--
impri--
impu--
in--
ina--
inc--
incor--
incre--
ind--
indao--
indic--
indus--
ine--
inf--
infe--
infil--
influ--
influen--
ing--
inga--
ingo--
ingre--
inhabil--
injer--
inju--
inmo--
ino--
inqui--
insp--
insta--
inter--
intoxi--
intsia--
inva--
inven--
investi--
invo--
inyec--
io--
iom--
ion--
ionga--
ioren--
ip--
ipa--
ipo--
ir--
ira--
ire--
irika--
iro--
iroa--
irri--
is--
isa--
ise--
islam--
iso--
it--
ita--
iti--
ito--
its--
iu--
iv--
iva--
ivan--
ivo--
ivon--
ix--
iz--
iza--
izan--
iɳ--
iɾ--
iʔ--
iʔa--
j--
ja--
jabon--
jac--
jaiko--
jain--
jala--
jam--
jan--
jana--
jao--
jar--
jaza--
je--
jef--
jen--
jeo--
jer--
jes--
ji--
jia--
jifa--
jin--
jio--
jiri--
jo--
joa--
joala--
joko--
jomo--
jon--
joro--
jos--
jou--
joua--
jouail--
jour--
joux--
ju--
jy--
k--
ka--
kabar--
kabe--
kabi--
kabin--
kabit--
kabo--
kabon--
kad--
kafa--
kafe--
kafi--
kafit--
kafo--
kafon--
kafu--
kago--
kaha--
kahan--
kahat--
kahi--
kaho--
kai--
kain--
kaja--
kajo--
kaka--
kakas--
kaki--
kal--
kala--
kalam--
kalo--
kaluz--
kam--
kamaf--
kamao--
kamo--
kan--
kana--
kand--
kanel--
kango--
kanif--
kanir--
kankafo--
kano--
kantsa--
kantso--
kao--
kaon--
kaont--
kap--
kapa--
kape--
kapi--
kapit--
kapo--
kar--
kara--
karan--
karem--
kari--
karib--
karits--
karo--
kas--
kasah--
kasi--
kasik--
kasim--
kasin--
kasio--
kaso--
kasoa--
kasoh--
kat--
kata--
katave--
kated--
kato--
katra--
katro--
katsa--
katsi--
katso--
katu--
katua--
kau--
kava--
kavia--
kavo--
kavu--
kaza--
kazo--
kazu--
kaɾ--
kaʔ--
kaʔa--
kaʔeɾe--
ke--
kel--
kem--
ken--
kena--
kend--
kepo--
ker--
kero--
ket--
ketra--
kha--
ki--
kia--
kian--
kibi--
kibo--
kid--
kidia--
kido--
kidon--
kifam--
kifat--
kifo--
kiha--
kihe--
kihi--
kiho--
kik--
kiko--
kilai--
kilak--
kilambo--
kilan--
kilao--
kilas--
kilo--
kim--
kimon--
kin--
kina--
kind--
kino--
kio--
kiom--
kion--
kipa--
kipo--
kir--
kira--
kire--
kiri--
kirin--
kirio--
kirir--
kiro--
kis--
kiso--
kisolo--
kit--
kita--
kitib--
kito--
kitoa--
kitok--
kitra--
kitro--
kitsam--
kitsao--
kitso--
kiva--
kivi--
kivo--
kiza--
kizak--
kiɾi--
kiʔ--
kla--
ko--
koa--
koain--
koba--
kobo--
kobon--
kode--
kodia--
kodo--
kodr--
kofa--
kofin--
kofo--
koha--
kohi--
koho--
kohok--
koko--
kol--
kola--
kolo--
kolont--
kom--
koman--
kombo--
kon--
konat--
konon--
kopa--
kopia--
kopo--
kor--
kora--
korata--
korin--
koro--
koroa--
korodo--
korof--
korom--
koron--
koros--
kos--
kosa--
kota--
koto--
kotra--
kotre--
kotri--
kotro--
kotsa--
kotso--
kova--
kovila--
kr--
kra--
kre--
kris--
kro--
ks--
ku--
kud--
kuk--
kul--
kum--
kun--
kur--
kus--
kut--
kuɾa--
kuɾi--
kuɾu--
kuʔ--
kuʔa--
kuʔu--
ky--
l--
la--
lac--
ladir--
lado--
lafa--
lafer--
lafi--
lafit--
lafo--
lagr--
laha--
lahi--
lahin--
laho--
lai--
laiko--
laingo--
lak--
laka--
lako--
lala--
lalan--
lalin--
lalo--
lam--
lama--
lambo--
lamen--
lamo--
lan--
lana--
lance--
lancecail--
land--
lang--
langoro--
lani--
lania--
lanon--
lanos--
lao--
laon--
lape--
lapo--
lar--
laro--
las--
lat--
lato--
laton--
lau--
lava--
lavemen--
lavi--
lavia--
lavo--
laza--
laʔ--
le--
lec--
lefa--
lefer--
lefon--
legal--
lehi--
leho--
lei--
lela--
lem--
lemah--
lemo--
lemok--
len--
lengo--
leno--
leo--
lept--
ler--
les--
let--
leta--
lev--
levo--
lexi--
li--
lia--
liber--
lie--
lilat--
lim--
lin--
lio--
lis--
lit--
lita--
lito--
liv--
ll--
lla--
lle--
lo--
loa--
loba--
lodir--
lofo--
loha--
loho--
loi--
loka--
loko--
lolo--
lom--
lomak--
lomba--
lombo--
lon--
lonah--
long--
los--
lot--
loter--
lou--
lova--
lozo--
lt--
lu--
luc--
lum--
luʔa--
ly--
m--
ma--
mac--
mad--
madir--
mafa--
mafo--
mag--
mah--
maha--
mahe--
mahi--
mahitsi--
maho--
mai--
maim--
main--
mais--
maitso--
mak--
maka--
mako--
mal--
mala--
malga--
malo--
mam--
mama--
mamaton--
mambo--
mamin--
mamo--
mamoa--
mamok--
mamon--
mamongo--
mamor--
mamoto--
mampa--
mampi--
mampia--
man--
mana--
manabo--
manaki--
manako--
manam--
manan--
manapo--
manat--
mand--
manda--
mandri--
mane--
manel--
manen--
manes--
mangi--
mangin--
manif--
manil--
manim--
manin--
manir--
manje--
manjo--
manka--
mano--
mao--
maos--
maota--
mapin--
maqui--
mar--
mara--
mare--
mari--
maro--
mas--
maso--
mason--
masse--
mat--
mati--
mato--
matso--
mau--
mavo--
maz--
maɾu--
maʔa--
mba--
mbo--
mc--
me--
meda--
medi--
meh--
mel--
mem--
memo--
men--
mena--
meo--
mer--
mes--
met--
meta--
meur--
mey--
mez--
mezc--
mi--
mia--
miaho--
miam--
mian--
miandra--
miari--
miavo--
mibe--
mibi--
mibit--
mibo--
mibob--
mibol--
mibon--
mibor--
mibot--
mic--
mid--
midi--
mido--
mie--
mifa--
mifam--
mifampand--
mifampi--
mifan--
mifana--
mife--
mifi--
mifo--
mifon--
miga--
migo--
miha--
mihe--
mihen--
mihi--
mihin--
miho--
mija--
mije--
miji--
mijo--
mik--
mika--
mike--
miko--
mikoh--
mikon--
mikoro--
mikos--
mil--
mila--
mile--
mill--
milo--
milot--
min--
mini--
mio--
mion--
mioro--
mipas--
mipe--
mipi--
mipo--
mipor--
mir--
mira--
miran--
mire--
miren--
miret--
miri--
miro--
mis--
misaf--
misafo--
misar--
miso--
misol--
misom--
mison--
mit--
mita--
mitam--
mitan--
mite--
mito--
mitre--
mitri--
mitro--
mitsat--
mitsi--
mitsika--
mitso--
miva--
mivan--
mivi--
mivo--
mivoa--
mivon--
mizo--
miʔ--
ml--
mm--
mn--
mo--
moa--
mofo--
moha--
moko--
mola--
molo--
mom--
mon--
mondr--
mondra--
mongo--
monjo--
mono--
mont--
mor--
mora--
moron--
mos--
mot--
motah--
motra--
mou--
movi--
mpa--
mpaha--
mpaham--
mpahampa--
mpahampam--
mpam--
mpaman--
mpamo--
mpamoa--
mpamon--
mpamor--
mpampa--
mpampam--
mpampan--
mpampi--
mpampian--
mpan--
mpanabo--
mpanah--
mpanak--
mpanaka--
mpanako--
mpanam--
mpanama--
mpanamo--
mpanan--
mpanand--
mpanapa--
mpanapo--
mpanaro--
mpanas--
mpanasa--
mpanat--
mpanata--
mpanato--
mpanatsat--
mpanda--
mpando--
mpandr--
mpandra--
mpandre--
mpandro--
mpanen--
mpanim--
mpanin--
mpanj--
mpano--
mpanoh--
mpanom--
mpanon--
mpanont--
mpara--
mpator--
mpi--
mpia--
mpiaho--
mpiain--
mpiak--
mpiam--
mpian--
mpiango--
mpiao--
mpiat--
mpibe--
mpibon--
mpibor--
mpid--
mpie--
mpien--
mpiero--
mpif--
mpifam--
mpifampam--
mpifo--
mpigo--
mpiha--
mpihe--
mpihi--
mpihin--
mpiho--
mpija--
mpijan--
mpiji--
mpik--
mpika--
mpiko--
mpikoa--
mpikor--
mpikoro--
mpikos--
mpila--
mpilo--
mpim--
mpin--
mpina--
mpio--
mpiom--
mpion--
mpiond--
mpipa--
mpipo--
mpipor--
mpira--
mpiran--
mpirao--
mpire--
mpired--
mpiren--
mpireo--
mpiret--
mpiri--
mpiria--
mpirin--
mpirio--
mpiro--
mpiroa--
mpiron--
mpisa--
mpisao--
mpisar--
mpise--
mpiser--
mpiso--
mpison--
mpit--
mpita--
mpitan--
mpito--
mpitro--
mpitsi--
mpitsika--
mpitso--
mpiva--
mpivo--
mpivon--
mpo--
mu--
mult--
multip--
multipli--
mun--
mur--
mus--
mut--
mw--
my--
n--
na--
naato--
nabafo--
nabit--
nabo--
nabon--
nabor--
nad--
nadif--
nadim--
nadin--
nael--
naem--
naet--
naets--
nafa--
nafahi--
nafaho--
nafal--
nafan--
nafari--
nafe--
nafen--
nafer--
nafet--
nafi--
nafin--
nafit--
nafitso--
nafo--
nafon--
naga--
nage--
nago--
naha--
naham--
nahampan--
nahampifan--
nahe--
nahi--
nahifo--
naho--
nahoa--
nai--
naikana--
nail--
nais--
naja--
najo--
naka--
nake--
naki--
nakia--
nakik--
nakit--
nako--
nakor--
nakora--
nakos--
nal--
nalaf--
nalat--
nale--
nalev--
nalo--
naloa--
nalof--
naloh--
nalon--
nam--
naman--
name--
namo--
namoa--
namof--
namoh--
namon--
namor--
nampan--
nampana--
nampanam--
nampanan--
nampanat--
nampand--
nampando--
nampandro--
nampano--
nampi--
nampid--
nampifam--
nampifan--
nampit--
nampo--
nan--
nana--
nanako--
nanam--
nanan--
nanat--
nand--
nanda--
nandra--
nandri--
nandro--
nane--
nanem--
nanen--
nanga--
nango--
nania--
nanif--
nanim--
nanin--
nanir--
nanja--
nanjo--
nanka--
nano--
nanoa--
nanof--
nanoh--
nanom--
nanon--
nanor--
nanos--
nantefa--
nantsa--
nantso--
nao--
naom--
naond--
naori--
naoro--
napas--
napat--
napit--
napo--
napor--
nar--
nara--
naran--
narao--
nare--
nared--
naref--
naret--
nari--
naria--
naris--
naro--
naroa--
naros--
nas--
nasaf--
nasah--
nasam--
nasar--
nasavo--
naset--
nasin--
nasit--
naso--
nasok--
nat--
nataf--
natah--
natak--
natako--
natam--
natan--
nate--
natif--
nato--
natra--
natre--
natri--
natsat--
natsi--
natsil--
natsit--
natso--
nau--
nava--
navan--
navar--
nave--
navi--
navio--
navo--
naza--
naʔ--
naʔa--
nd--
nda--
ndref--
ndria--
ne--
neder--
nefa--
nelai--
nen--
nenif--
ner--
nes--
nesor--
net--
neu--
neutral--
new--
ng--
nga--
ngero--
nget--
ngir--
ngita--
ngo--
ngodongo--
ngoro--
ni--
nia--
niam--
nian--
niavo--
nibe--
nibo--
nibon--
nibor--
nic--
nid--
nie--
nifa--
nifam--
nifampi--
nifampia--
nifampid--
nifampif--
nifampiha--
nifampihi--
nifampika--
nifampio--
nifampit--
nifampita--
nifampitan--
nifampito--
nifan--
nifanako--
nifand--
nifanon--
nife--
nifi--
nifo--
nifon--
nifore--
nigo--
niha--
nihai--
niham--
nihan--
nihao--
nihat--
nihe--
nihi--
niho--
nihoa--
nija--
nijo--
nik--
nika--
nikit--
niko--
nil--
nilao--
nilat--
nilo--
nim--
nimo--
nin--
nina--
ninda--
nio--
niok--
nipo--
nipor--
nira--
niri--
niro--
nis--
nisa--
nisom--
nit--
nita--
nitin--
nito--
nitsi--
nitso--
niva--
nivo--
niʔ--
nja--
njo--
nn--
no--
noa--
noda--
nodarof--
nodas--
nodia--
nodim--
nodo--
noe--
nofa--
nofadir--
nofal--
nofan--
nofara--
nofat--
nofehe--
nofer--
nofeta--
nofi--
nofia--
nofin--
nofira--
nofo--
noga--
nogad--
nogo--
noha--
nohan--
nohara--
nohat--
nohi--
noho--
noja--
noka--
nokal--
nokom--
nola--
nolan--
noloa--
nom--
nomaf--
non--
nongo--
nono--
nor--
nora--
noram--
norat--
nori--
noria--
norifat--
noro--
noroa--
nos--
nosaf--
nosin--
not--
notaf--
notafa--
notafi--
notako--
notant--
notina--
noto--
notso--
nou--
nova--
novo--
noza--
ns--
nt--
nu--
nud--
nut--
nuʔ--
nuʔa--
ny--
o--
oa--
ob--
obe--
obje--
obli--
obono--
oc--
occi--
occu--
ocu--
od--
odi--
odo--
odra--
of--
offi--
og--
oh--
oho--
oir--
oit--
oiv--
oj--
ok--
oka--
oko--
oksi--
ol--
ola--
olim--
olo--
olon--
olvi--
om--
omba--
ombi--
ompa--
ompi--
ompin--
on--
ona--
ondr--
ondra--
ondro--
ondu--
one--
ongak--
ongo--
onja--
ono--
onof--
onon--
onor--
ont--
opa--
opo--
opp--
opt--
optim--
or--
ora--
oram--
oran--
ordina--
ore--
org--
ori--
orim--
orit--
orits--
orne--
oro--
os--
osa--
osten--
ota--
otiko--
otre--
otri--
otro--
otsa--
ou--
ouv--
ova--
ovia--
ovit--
ovo--
ozo--
p--
pa--
pacifi--
pah--
paha--
paham--
pahama--
pahan--
pahat--
pahi--
paho--
pai--
pain--
paingo--
pak--
paka--
pakits--
pako--
pal--
palet--
pali--
pam--
pama--
pamala--
paman--
pamar--
pamaɾ--
pame--
pami--
pamia--
pamila--
pamin--
pamo--
pamoa--
pamoh--
pamon--
pamor--
pamu--
pamua--
pamuk--
pamul--
pamut--
pamuz--
pan--
pana--
panabuɾu--
panad--
panafu--
panaga--
panaguɾa--
panaguɾu--
panak--
panakaɾ--
panam--
panama--
panan--
panapaɾi--
panapu--
panasa--
panasal--
panasi--
panasu--
panasul--
panat--
panatak--
panavo--
panaɾi--
panaʔ--
pand--
pandaf--
pandro--
panduz--
pane--
panel--
panen--
panes--
panet--
panev--
paneʔ--
panga--
pani--
pania--
panib--
panif--
panil--
panin--
panipaki--
panir--
panis--
panit--
paniv--
paniɾ--
paniʔ--
panja--
pano--
panom--
panond--
panu--
panua--
panubun--
panud--
panul--
panun--
panus--
panut--
panuvu--
panuz--
panuɾan--
panuɾi--
panuɾu--
panuʔ--
panuʔa--
paoh--
paos--
papa--
pape--
papo--
par--
para--
paria--
pas--
passe--
pat--
pata--
pator--
patsit--
pau--
pay--
paɳ--
paɳabu--
paɳasa--
paɳe--
paɳu--
paɳuɾu--
paɾa--
paɾi--
paʔ--
paʔa--
pe--
pehi--
pelape--
pelat--
pem--
pen--
per--
peregr--
pes--
pet--
peta--
pey--
peʔ--
pha--
phi--
pho--
pi--
pia--
piad--
piaho--
piak--
pialu--
piam--
pian--
piand--
piango--
piat--
piavo--
piavu--
piaɾa--
piaʔ--
piba--
pibaɾ--
pibe--
pibedibe--
pibi--
pibila--
pibo--
pibor--
pibu--
pibud--
pibul--
pibuɾa--
pibuɾe--
pibuɾi--
pibuɾu--
pibuʔ--
pic--
pid--
pidada--
pidan--
pidaɾ--
pide--
pided--
pidina--
pidu--
piduɾu--
pie--
pievan--
pif--
pifan--
pifanak--
pifand--
pifanud--
pifao--
pifaɳ--
pifaɾ--
pife--
pifo--
pifoh--
pifut--
pig--
piga--
pigala--
pigo--
pigu--
piguɾa--
piguɾu--
piha--
pihe--
pihi--
pihin--
piho--
pihoa--
pija--
pijo--
pik--
pika--
pike--
pikia--
piko--
pikoh--
pikom--
pikor--
pila--
pilasil--
pile--
pilela--
pilev--
pili--
pilia--
pilit--
pilo--
pilu--
pim--
pimas--
pin--
pinan--
pince--
pinda--
pino--
pinun--
pio--
pipa--
pipas--
pipaɾa--
pipaɾi--
pipe--
pipi--
pipo--
pipu--
pipuɾi--
pira--
pirai--
piran--
pirango--
pirao--
pire--
piret--
piri--
pirio--
piro--
piroa--
piron--
pis--
pisa--
pisai--
pisak--
pisaku--
pisal--
pisam--
pisar--
pisavu--
pisaɾ--
pisaʔ--
pise--
pises--
pisese--
piseʔa--
pisi--
pisia--
pisil--
piso--
pison--
pisu--
pisuk--
pisul--
pisulif--
pisus--
pisuɾu--
pit--
pita--
pitaki--
pitaku--
pitan--
pite--
pitet--
piteʔ--
pitia--
pito--
pitra--
pitro--
pitsi--
pitsika--
pitso--
pitu--
pitub--
pitul--
pituɾu--
pituʔ--
piu--
piul--
piuz--
piva--
pival--
pivan--
pivaɾu--
pivaʔ--
pive--
pivel--
pives--
pivi--
pivila--
pivin--
pivinda--
pivo--
pivoa--
pivon--
pivu--
pivuvu--
pivuʔ--
piza--
pizi--
pizid--
piɾa--
piɾafe--
piɾe--
piɾi--
piɾu--
piʔ--
piʔa--
piʔau--
piʔaɾu--
piʔe--
piʔiɾ--
piʔiʔ--
piʔu--
piʔud--
piʔuɾi--
piʔuʔ--
pl--
pla--
plan--
play--
ple--
ples--
pne--
po--
poake--
pod--
poe--
poir--
pois--
pol--
polah--
poli--
polo--
poly--
pom--
pon--
pont--
popu--
por--
pos--
potsi--
pou--
poz--
pr--
pra--
prae--
praeter--
pre--
preci--
predes--
preocu--
pri--
princi--
pro--
proc--
profes--
prohi--
prote--
protes--
prze--
przy--
ps--
pt--
pu--
pub--
pud--
pul--
pulimen--
pulu--
pulver--
pun--
pur--
purifi--
put--
puɾi--
puʔafuʔa--
py--
q--
qa--
qi--
qu--
quad--
que--
qui--
quintes--
quintessentia--
r--
ra--
raba--
rabao--
rabo--
rabot--
racon--
radar--
radi--
radis--
rado--
raf--
rafe--
rafi--
rafo--
raha--
raho--
rai--
raido--
railo--
rain--
raket--
raki--
rako--
rakoa--
rakom--
rakoto--
ral--
ram--
rama--
rambo--
ramia--
ramiron--
ramo--
ramond--
ran--
randr--
randra--
ranga--
rango--
raniv--
ranja--
rano--
ranom--
ranto--
rantsa--
rao--
raok--
raon--
raond--
rapla--
raplapla--
rara--
raran--
rarat--
rari--
ras--
rat--
rava--
ravi--
ravin--
ravo--
razo--
rc--
rd--
re--
rea--
reac--
rebar--
rebo--
rec--
recas--
recen--
reclu--
reco--
recol--
recolec--
recom--
reconci--
recou--
recro--
rectifi--
recup--
red--
redac--
redis--
redon--
ref--
reflexi--
refu--
reg--
regis--
reglamen--
rehe--
rehi--
reho--
rei--
reja--
rela--
reli--
rem--
rema--
reme--
remol--
ren--
rencour--
rendr--
renia--
renit--
reniv--
rent--
renun--
reo--
reorg--
repar--
repi--
repla--
repri--
repro--
rer--
rera--
res--
resca--
reser--
resouf--
respec--
resul--
ret--
retar--
retro--
reven--
rever--
reveren--
revi--
revo--
rey--
rez--
reza--
rg--
ri--
ria--
riadr--
riam--
riand--
ric--
rie--
rifat--
rig--
rihi--
rika--
rikor--
rin--
ringo--
rio--
rir--
ris--
ritso--
rivo--
rk--
rn--
ro--
roa--
roan--
rob--
roba--
robo--
robon--
rod--
roda--
rodo--
rofe--
rofo--
rohi--
roho--
rohond--
roib--
roifan--
rokor--
rom--
roma--
rompo--
ron--
ronad--
ronah--
rongo--
rori--
roro--
ros--
rosoa--
rota--
rote--
roto--
rotsa--
rou--
rous--
rovit--
roy--
roz--
rozat--
rs--
rt--
ru--
rug--
rus--
ry--
s--
sa--
saa--
sab--
saba--
sabo--
sac--
sacri--
sacrifi--
sada--
sadia--
saf--
safa--
safe--
safid--
safio--
safit--
safo--
safoto--
safu--
saguer--
saha--
sahe--
sahi--
saho--
sahoa--
sai--
saik--
saika--
sain--
sak--
saka--
sakan--
sako--
sakoa--
sakor--
saku--
sal--
sala--
salia--
salo--
sam--
sama--
sambo--
samo--
sampo--
san--
sana--
sando--
sandr--
sanga--
sango--
santi--
santim--
sao--
saond--
sar--
sara--
sari--
sarib--
sariko--
sarim--
sarin--
saro--
sasa--
saso--
sat--
sata--
satel--
satra--
satro--
sau--
sauve--
sava--
savera--
savi--
savo--
savu--
sazi--
sazo--
saɳ--
saɾ--
saɾa--
saʔ--
sca--
sce--
sch--
sci--
sco--
scu--
se--
sea--
sebis--
sec--
secue--
sefa--
sefu--
seg--
sek--
sekat--
sel--
selec--
sem--
sen--
senda--
sento--
sept--
sepu--
ser--
seras--
serti--
ses--
sese--
set--
seta--
sevosevo--
sevu--
sexuali--
sey--
seʔ--
sh--
sha--
shang--
she--
shi--
shu--
si--
sia--
sian--
siaʔ--
sidik--
sidin--
sie--
sieg--
sif--
sifa--
sifo--
sifor--
sig--
sik--
sike--
sikia--
sil--
silao--
silen--
sim--
sima--
simul--
sin--
sina--
sind--
sino--
sinom--
sio--
sipe--
sipelu--
sipin--
sira--
sis--
sit--
sitim--
siu--
sivi--
sizaɾi--
siɾa--
siɾe--
siɾedaɾe--
siɾi--
siɾiɾi--
sk--
ski--
sko--
sla--
slo--
sm--
so--
soa--
sobila--
sodo--
sofo--
sohat--
sohi--
soir--
soit--
soitra--
soka--
sokat--
soket--
soko--
sol--
sola--
solic--
solif--
solo--
solu--
solubil--
som--
soma--
some--
somin--
somit--
somo--
somon--
somot--
sompi--
sompiran--
son--
sonda--
sondr--
songo--
sor--
sora--
sorib--
sorid--
soro--
soso--
sospe--
sotit--
sotri--
sou--
sovo--
sp--
spa--
spe--
spir--
splen--
spo--
squ--
st--
sta--
ste--
sti--
sto--
struc--
stu--
sty--
su--
sua--
sub--
subas--
suble--
suc--
sud--
suf--
suffu--
sufu--
suje--
suk--
sul--
sum--
sun--
super--
supp--
sur--
sus--
sut--
suva--
suɳ--
suɾi--
suɾu--
suɾufu--
suɾuɾu--
suʔ--
suʔa--
sv--
swa--
swe--
swi--
sy--
syl--
symbio--
sz--
szc--
t--
ta--
tabi--
tabo--
taboa--
tabon--
tabor--
taboro--
tadi--
tadia--
tafa--
tafahi--
tafaho--
tafaon--
tafasi--
tafat--
tafi--
tafinto--
tafit--
tafo--
taho--
tai--
tain--
taingo--
tak--
taka--
takib--
tako--
takof--
takon--
takos--
tal--
talan--
tale--
tam--
tama--
tampe--
tampo--
tan--
tana--
tanda--
tando--
tandra--
tandro--
tane--
tanga--
tangi--
tangiri--
tanin--
tankos--
tanondr--
tanos--
tant--
tao--
taom--
taon--
tapi--
tapo--
tar--
tara--
tari--
tarim--
taro--
tas--
tat--
tata--
tau--
tavo--
tavoa--
tavon--
tazo--
taʔ--
te--
teau--
tefa--
tefit--
tefo--
teh--
tehe--
tek--
tel--
tele--
telo--
tem--
ten--
tena--
tendr--
ter--
tera--
terro--
tes--
tete--
teti--
tetia--
tevat--
tex--
teɾa--
th--
tha--
the--
tho--
thy--
ti--
tia--
tie--
tifa--
tifat--
tifi--
tigr--
tik--
tiko--
til--
tim--
tin--
tina--
tine--
tinom--
tio--
tiok--
tique--
tiria--
tis--
tit--
titil--
tiʔ--
tn--
to--
toa--
toe--
tofe--
tofi--
toha--
tohi--
tohin--
toho--
tok--
tokan--
toko--
tola--
tolo--
tom--
toma--
tombo--
tomo--
tomor--
tompo--
ton--
tone--
tonga--
tongo--
tonon--
top--
tor--
tora--
torin--
toro--
tos--
tosa--
total--
toto--
totok--
totor--
tou--
tous--
tovar--
tovo--
tra--
trahi--
train--
traingo--
trait--
tran--
trano--
trans--
trao--
traoh--
trasno--
tre--
trefo--
trem--
tri--
tria--
trico--
trin--
trio--
tro--
trom--
tron--
trong--
trun--
ts--
tsa--
tsabo--
tsafo--
tsahi--
tsaho--
tsaiko--
tsain--
tsaingo--
tsaka--
tsako--
tsam--
tsant--
tsao--
tsapo--
tsara--
tsare--
tsari--
tsaro--
tsato--
tsatok--
tsatsa--
tse--
tsent--
tsero--
tsetsa--
tsi--
tsia--
tsibo--
tsidi--
tsifa--
tsifana--
tsifo--
tsihi--
tsik--
tsika--
tsiko--
tsikon--
tsikoro--
tsilo--
tsim--
tsin--
tsinat--
tsingo--
tsio--
tsiof--
tsiok--
tsipa--
tsipe--
tsipo--
tsira--
tsiran--
tsirat--
tsire--
tsiri--
tsirin--
tsiva--
tso--
tsoa--
tsobo--
tsofo--
tsoko--
tsom--
tsona--
tsond--
tsonga--
tsongo--
tsont--
tsori--
tsoro--
tt--
tu--
tum--
tun--
tur--
tut--
tuɾa--
tuʔ--
twi--
twitter--
ty--
u--
ua--
ub--
ud--
ue--
ufu--
uh--
ui--
uk--
ul--
ule--
ulela--
um--
un--
una--
und--
une--
uni--
unidimen--
unifi--
uniform--
unisexi--
unisexu--
univer--
univo--
up--
ur--
us--
ut--
uta--
util--
uva--
uz--
uzak--
uzakuz--
uɳ--
uɾa--
uɾe--
uɾi--
uɾu--
uɾuɾu--
uʔ--
uʔa--
v--
va--
vaci--
vadi--
vaga--
vaha--
vahi--
vahin--
vaho--
vaia--
vain--
vaina--
vait--
vaiva--
vaki--
vakit--
val--
vala--
valan--
valo--
van--
vana--
vandr--
vandro--
vang--
vanin--
vanto--
vantsi--
vao--
var--
vara--
varahi--
varia--
varib--
varinga--
vario--
varo--
vas--
vaso--
vat--
vata--
vatic--
vato--
vaton--
vatri--
vava--
vavin--
vaɾi--
ve--
vel--
vela--
velo--
ven--
venezo--
ver--
vera--
vero--
ves--
vet--
vezo--
vi--
via--
vic--
vie--
vig--
vil--
vila--
vill--
ville--
vim--
vin--
vina--
vincu--
vio--
virat--
virg--
viri--
viro--
vis--
visav--
vit--
vizavi--
vo--
voa--
voadi--
voafo--
voaha--
voahan--
voahe--
voahi--
voaho--
voaki--
voako--
voam--
voan--
voaon--
voaor--
voapo--
voara--
voaran--
voari--
voaro--
voaroim--
voaroin--
voasa--
voaso--
voata--
voatam--
voate--
voati--
voato--
voatsa--
voatsi--
voatsin--
voava--
voavo--
vocal--
vodi--
vohavo--
vohi--
voka--
vokis--
vol--
vola--
volo--
von--
vono--
vora--
vore--
vori--
voro--
vorom--
vos--
votoa--
votri--
vovo--
vu--
vua--
vuaf--
vuak--
vuap--
vuas--
vuasa--
vuat--
vuaɾ--
vuaʔ--
vuaʔa--
vul--
vy--
w--
wa--
wal--
war--
wat--
way--
we--
whe--
whi--
wi--
wiki--
wil--
wo--
wu--
wy--
x--
xa--
xe--
xi--
y--
ya--
ye--
yi--
yo--
yu--
z--
za--
zad--
zafin--
zahi--
zair--
zak--
zaka--
zam--
zan--
zana--
zand--
zao--
zara--
zat--
zava--
zavu--
zaza--
zaɾad--
zaɾi--
zaɾu--
zaʔ--
ze--
zed--
zek--
zen--
zet--
zevu--
zeze--
zeʔ--
zi--
zid--
zila--
zim--
zin--
zit--
ziɾi--
ziʔ--
zo--
zoki--
zom--
zon--
zoro--
zu--
zufu--
zuk--
zulu--
zum--
zun--
zunun--
zupe--
zur--
zuɾu--
zuʔ--
zwi--
æ--
ð--
þ--
đ--
ħ--
ı--
ł--
ła--
ŋ--
ɐ--
ɑ--
ɓ--
ɓi--
ɔ--
ɕ--
ɕi--
ɖ--
ɗ--
ɗi--
ɗɨ--
ə--
ɛ--
ɟ--
ɡ--
ɣ--
ɦ--
ɨ--
ɪ--
ɭ--
ɯ--
ɲ--
ɳ--
ɹ--
ɽ--
ɾ--
ɾa--
ɾam--
ɾan--
ɾe--
ɾi--
ɾu--
ʁ--
ʂ--
ʂa--
ʂak--
ʂan--
ʂaɳ--
ʂaʔ--
ʂe--
ʂebe--
ʂeɾe--
ʂeɾu--
ʂeʔ--
ʂi--
ʂu--
ʂun--
ʃ--
ʈ--
ʊ--
ʋ--
ʌ--
ʎ--
ʐ--
ʐa--
ʐafe--
ʐafu--
ʐai--
ʐaik--
ʐaiɾ--
ʐak--
ʐam--
ʐan--
ʐanu--
ʐat--
ʐau--
ʐava--
ʐaviɾa--
ʐaviɾave--
ʐavu--
ʐazuɾa--
ʐaɳ--
ʐaɾa--
ʐaɾi--
ʐaʔ--
ʐe--
ʐebiɾe--
ʐeda--
ʐedaɾe--
ʐefaɾe--
ʐefe--
ʐen--
ʐepiɾe--
ʐesaɾ--
ʐet--
ʐevu--
ʐezat--
ʐezaɾe--
ʐeɾa--
ʐeɾe--
ʐeʔ--
ʐi--
ʐia--
ʐiaɾi--
ʐik--
ʐim--
ʐin--
ʐit--
ʐiuɾiu--
ʐiɾaɾi--
ʐiɾi--
ʐu--
ʐua--
ʐubuɾu--
ʐuda--
ʐudaɾu--
ʐudu--
ʐuk--
ʐut--
ʐutuɾut--
ʐuva--
ʐuɾa--
ʐuɾi--
ʐuɾu--
ʐuʔ--
ʑ--
ʒ--
ʔ--
ʔa--
ʔad--
ʔala--
ʔalu--
ʔam--
ʔan--
ʔanak--
ʔanas--
ʔand--
ʔat--
ʔau--
ʔavu--
ʔaɾa--
ʔaɾe--
ʔaɾi--
ʔaɾu--
ʔaʔ--
ʔaʔa--
ʔe--
ʔel--
ʔi--
ʔia--
ʔib--
ʔid--
ʔie--
ʔif--
ʔifam--
ʔifan--
ʔifanak--
ʔifaɳ--
ʔil--
ʔip--
ʔis--
ʔit--
ʔiu--
ʔiv--
ʔiɾ--
ʔiʔ--
ʔiʔa--
ʔu--
ʔub--
ʔud--
ʔufa--
ʔuk--
ʔuka--
ʔul--
ʔum--
ʔup--
ʔus--
ʔusa--
ʔut--
ʔuz--
ʔuɾi--
ʔuɾu--
ʔuʔ--
ʔuʔa--
ʕ--
ʝ--
ʲ--
ː--
α--
β--
γ--
δ--
ε--
θ--
κ--
κα--
λ--
μ--
ν--
ντ--
π--
ρ--
σ--
σε--
σκ--
τ--
τρ--
τω--
φ--
χ--
ω--
а--
абон--
абор--
абсолю--
автома--
автор--
адво--
ак--
акос--
акреди--
акцен--
амери--
амор--
ана--
б--
ба--
бе--
би--
бо--
бр--
в--
ве--
ви--
во--
гр--
д--
де--
до--
е--
жив--
з--
за--
и--
к--
ко--
кос--
кр--
ку--
л--
м--
ма--
ме--
мо--
н--
о--
п--
па--
пе--
пер--
пла--
по--
пол--
пр--
при--
про--
р--
ра--
рус--
с--
са--
св--
си--
ск--
сл--
со--
ст--
т--
та--
то--
тр--
у--
х--
хо--
ш--
э--
я--
א--
ב--
ה--
ח--
י--
מ--
ס--
ר--
ש--
ا--
اس--
است--
اش--
ال--
ان--
ب--
با--
ت--
تع--
تق--
تو--
ج--
ح--
خ--
د--
دا--
ذ--
ر--
ز--
س--
سا--
ش--
ص--
ط--
ع--
غ--
ف--
ق--
قا--
ك--
ل--
م--
ما--
ن--
نا--
ه--
و--
ي--
ک--
अ--
आ--
इ--
उ--
क--
ख--
ग--
च--
ज--
ट--
त--
द--
ध--
न--
प--
ब--
भ--
म--
य--
र--
ल--
व--
श--
ष--
स--
ह--
অ--
আ--
ই--
উ--
ক--
গ--
চ--
জ--
ত--
দ--
ন--
প--
ব--
ম--
র--
ল--
শ--
স--
அ--
உ--
எ--
க--
ச--
ட--
த--
ப--
ம--
ய--
ர--
வ--
అ--
ఆ--
ఉ--
ఎ--
క--
గ--
చ--
జ--
ట--
డ--
త--
ద--
ధ--
న--
ప--
బ--
మ--
య--
ర--
ల--
వ--
శ--
ష--
స--
హ--
ಕ--
അ--
ക--
പ--
മ--
ര--
വ--
ก--
กา--
น--
ย--
อ--
า--
เ--
ไ--
ເ--
ག--
འ--
က--
သ--
အ--
រ--
--0
--00
--01
--02
--03
--04
--05
--06
--060
--07
--08
--09
--1
--10
--11
--111
--1111
--111111
--12
--13
--14
--15
--16
--17
--18
--19
--2
--20
--21
--22
--222
--2222
--222222
--23
--24
--25
--26
--27
--28
--29
--3
--30
--31
--32
--33
--333
--3333
--333333
--34
--35
--36
--37
--38
--39
--4
--40
--41
--42
--43
--44
--444
--4444
--444444
--45
--46
--47
--48
--49
--5
--50
--51
--52
--53
--54
--55
--555556
--5556
--556
--56
--57
--58
--6
--60
--61
--610
--62
--63
--64
--65
--66
--6666667
--666667
--66667
--6667
--667
--67
--670
--68
--69
--7
--70
--72
--720
--73
--74
--75
--76
--77
--7777778
--777778
--77778
--7778
--778
--78
--780
--8
--80
--81
--830
--84
--85
--86
--87
--88
--8888889
--888889
--88889
--8889
--889
--89
--890
--9
--90
--91
--940
--98
--99
--a
--aa
--aba
--abais
--abana
--abas
--abatabana
--abo
--abobohana
--abohana
--aboka
--abony
--aboroahana
--aboroaka
--abun
--ac
--acio
--ad
--ada
--adahy
--adana
--adi
--adian
--adiany
--adidit
--adim
--adin
--adina
--adit
--ado
--ady
--ae
--af
--afa
--afako
--afan
--afana
--afanao
--afany
--afetana
--afiana
--afik
--afika
--afin
--afina
--afo
--afoana
--afy
--againa
--agana
--ah
--aha
--ahako
--aham
--ahan
--ahana
--ahanao
--ahany
--ahatra
--ahiko
--ahin
--ahina
--ahiny
--aho
--ahy
--ai
--aient
--aik
--aika
--aiko
--aiky
--ailana
--ailanana
--aim
--ain
--aina
--ainana
--ainao
--ainareo
--ainay
--aingo
--aingoka
--aintisana
--ainty
--ainy
--airako
--ais
--ait
--aito
--aitra
--aivana
--aiŋ
--aiɾan
--ak
--aka
--akalozana
--akam
--akan
--akana
--akao
--akarana
--akareo
--akay
--akaɾe
--ake
--aket
--akibohana
--akikiana
--akila
--akim
--akin
--akina
--akit
--akitsohana
--ako
--akoana
--akoba
--akobahana
--akodirana
--akona
--akorintsana
--akosina
--akovana
--akut
--aky
--al
--ala
--alako
--alan
--alao
--alaŋ
--aliser
--alo
--alozana
--aluŋ
--aly
--am
--ama
--amba
--amo
--amora
--amy
--an
--ana
--anak
--anako
--anan
--anana
--anany
--anao
--anareo
--anatana
--anay
--anaɾe
--and
--andina
--andinana
--andra
--ang
--anga
--angan
--angana
--ango
--angy
--ani
--aniako
--anian
--aniana
--aniany
--aniko
--anin
--aniny
--anja
--anjaka
--anjana
--ano
--anona
--ant
--antana
--antany
--antena
--anteraka
--anun
--anunɖ
--any
--anɖ
--ao
--aoka
--aoko
--aom
--aon
--aona
--aony
--aosy
--aovan
--aovana
--aovany
--apa
--apahana
--apaiŋ
--apat
--apen
--apendina
--apihana
--apit
--aput
--apy
--ar
--ara
--arahan
--arahana
--araina
--arako
--aram
--aran
--arana
--arany
--aras
--ard
--are
--areis
--aren
--areo
--ares
--ari
--aria
--ariako
--ariko
--arim
--ario
--aritra
--aro
--aroana
--arobohana
--arohana
--aroka
--aroko
--aron
--aronao
--aronay
--arse
--arsi
--ary
--as
--asa
--asahana
--asako
--asalaka
--asana
--asaŋ
--ase
--asen
--ases
--asiko
--asim
--asina
--asit
--asitrako
--asitrana
--aso
--asoa
--asofina
--asoka
--ason
--asse
--aste
--asteis
--asti
--asum
--asun
--asunɖ
--asuŋ
--at
--atakosina
--atan
--atana
--ataovana
--atavohana
--ate
--atif
--atio
--ation
--ato
--atoa
--atoany
--atotra
--atr
--atra
--atrao
--atro
--atroka
--atry
--atsika
--aty
--au
--aud
--ault
--aund
--aut
--ava
--avaka
--avako
--avam
--avan
--avana
--avany
--avao
--avaŋ
--avem
--avena
--avenana
--avi
--avo
--avoana
--avohana
--avoka
--avona
--avonana
--avy
--ay
--azana
--azy
--aŋ
--aɖ
--aɳa
--aɾ
--aɾan
--aɾat
--aɾaŋ
--aɾe
--aɾin
--aɾit
--aɾut
--aʔ
--aʔak
--aʔan
--aʔana
--aʔanaɾe
--aʔin
--b
--ba
--bach
--badiana
--bahana
--baho
--bais
--bak
--baka
--bako
--bam
--ban
--bana
--banao
--banareo
--banay
--bany
--bao
--bar
--bas
--batra
--batsika
--baviana
--baɾaiŋ
--be
--beda
--bedy
--beko
--bem
--ben
--bena
--benao
--beny
--berenana
--berina
--beriverena
--berivery
--bes
--besarana
--bezo
--bi
--biko
--bim
--bin
--bina
--binao
--binareo
--binay
--bino
--biny
--bio
--blir
--bo
--boa
--boako
--boana
--boarana
--boarin
--boatra
--boazana
--bobohana
--boboka
--boha
--bohan
--bohana
--boho
--bohoana
--bohy
--bok
--boka
--boke
--boko
--bolina
--bolo
--boloana
--boly
--bom
--bon
--bona
--bonaka
--bonana
--bonao
--bonareo
--bonay
--bongana
--bonganana
--boniana
--bonoka
--bony
--boraka
--borana
--boridana
--bororotana
--bosy
--botra
--botsorana
--botsotra
--boy
--bs
--bu
--buer
--bun
--burg
--buɾut
--by
--c
--ca
--car
--care
--cas
--ccare
--ccionar
--ce
--cear
--ceo
--cer
--cere
--ch
--cht
--ci
--cia
--ciar
--cino
--cio
--cipar
--ck
--co
--cor
--cos
--cq
--cs
--ct
--cte
--ctio
--ction
--cto
--cu
--cula
--cus
--cy
--d
--da
--daba
--dad
--dafy
--dahin
--dahy
--daim
--dain
--daina
--dak
--daka
--dako
--dala
--dale
--dalina
--dalo
--dam
--dambo
--dan
--dana
--danao
--danay
--dany
--dao
--daon
--dar
--dare
--dareda
--dava
--davo
--day
--dd
--de
--dear
--defa
--deha
--demben
--den
--dena
--denana
--deo
--der
--dere
--des
--devo
--di
--dia
--diako
--diam
--diana
--dihana
--dik
--dika
--diko
--dim
--din
--dina
--dinana
--dinao
--dinareo
--dinay
--diny
--dio
--dior
--dirako
--diran
--dirana
--dirany
--diry
--disan
--dit
--diva
--do
--doa
--doako
--doan
--doana
--doany
--doha
--dohan
--dohana
--dohany
--doka
--doko
--dola
--dolo
--dom
--don
--dona
--donana
--dony
--dor
--dora
--doro
--dotra
--dou
--dova
--dra
--drahindra
--draka
--drako
--dram
--dramana
--dran
--drana
--dranao
--dranay
--drandra
--drandrana
--drano
--drany
--dratana
--dratra
--dravandra
--dray
--dren
--drena
--dri
--dria
--driaka
--driako
--drian
--driana
--driany
--drify
--drihana
--drik
--drika
--driko
--drim
--drin
--drina
--drinao
--driny
--drio
--dritra
--dritsika
--dro
--droa
--droako
--droan
--droana
--droany
--drohana
--droka
--droko
--droky
--drom
--dron
--dronana
--dronao
--dronay
--drony
--drotra
--droy
--dry
--ds
--dt
--du
--dun
--dy
--e
--ea
--eam
--ean
--eana
--ear
--eari
--eau
--eb
--eba
--ebona
--eby
--ec
--ecer
--ed
--eda
--edan
--eden
--edik
--edra
--edy
--ee
--ef
--efa
--efahana
--efena
--eferana
--efo
--efona
--efy
--eg
--eh
--eha
--ehako
--ehan
--ehana
--ehibe
--ehiko
--ehina
--eho
--ehoana
--ehy
--ei
--eira
--eiro
--eis
--ek
--eka
--eke
--eko
--eky
--el
--ela
--elezan
--elezana
--eli
--elim
--elin
--elina
--eliŋ
--ell
--ella
--elle
--elli
--elo
--eloka
--elun
--ely
--em
--ema
--eman
--emba
--emben
--emin
--emitra
--emo
--emoana
--emona
--emos
--empa
--empo
--empona
--emun
--emy
--en
--ena
--enan
--enana
--enao
--enay
--ence
--end
--enda
--endana
--endra
--endrehana
--ene
--eng
--engy
--eni
--enin
--enitra
--eniŋ
--enjena
--enne
--eno
--enoana
--ens
--ense
--ent
--enta
--ente
--enter
--ento
--eny
--enɖ
--eo
--eon
--eony
--eor
--ep
--er
--era
--erai
--eraient
--erais
--erait
--erako
--eram
--erany
--eras
--ere
--eren
--erez
--eri
--eria
--eriez
--erim
--erions
--ern
--erna
--ero
--erona
--erons
--eront
--erre
--ers
--ert
--ery
--es
--esa
--esak
--esaka
--esco
--ese
--esena
--esi
--esik
--esika
--esin
--esun
--esy
--et
--eta
--ete
--etevana
--eti
--etim
--etoka
--etr
--etra
--etraka
--etrareo
--etriko
--etro
--etroka
--etry
--etsika
--ett
--etta
--ette
--etti
--ety
--eur
--eux
--ev
--evena
--evenan
--evenana
--evik
--evilevena
--evin
--evina
--eviŋ
--evo
--evon
--evy
--ey
--ez
--eza
--ezak
--ezan
--eŋ
--eɖ
--eɾ
--eɾa
--eɾak
--eɾaka
--eɾan
--eɾana
--eɾik
--eɾim
--eɾun
--eʔa
--eʔak
--eʔan
--eʔana
--eʔin
--f
--fa
--fahana
--faho
--faiko
--fain
--faina
--fainy
--fak
--faka
--fako
--faky
--fam
--fan
--fana
--fanay
--fany
--fao
--far
--fasiry
--fat
--fay
--fe
--feld
--fenana
--ff
--fi
--fia
--fiako
--fier
--fik
--fika
--fikao
--fiko
--fim
--fin
--fina
--finao
--finareo
--finay
--findra
--finy
--fio
--fitra
--fo
--foa
--foaka
--foako
--foan
--foana
--foany
--fofoka
--foha
--fohana
--foka
--fokafoka
--fokao
--foko
--foky
--fom
--fon
--fona
--fonao
--fonareo
--fonay
--fony
--forana
--fota
--fotra
--foy
--ft
--fu
--fuan
--fuana
--fuk
--fuka
--fum
--fun
--funa
--fy
--g
--ga
--gadra
--gaho
--gako
--galy
--gam
--gan
--gana
--ganao
--ganareo
--ganay
--ganga
--gangana
--gano
--gany
--gao
--gaoka
--gar
--garana
--gare
--gari
--gariko
--garo
--garoka
--gas
--gatra
--gavan
--gazona
--gazonana
--gaɖ
--ge
--gea
--gedonana
--gehy
--geja
--gen
--gena
--gentsana
--gentsanana
--geo
--ger
--gere
--gerenana
--gerin
--gerina
--ges
--geɖ
--gg
--ggiare
--gh
--gham
--gi
--gia
--gian
--giana
--giany
--gidina
--gie
--gika
--giko
--giloana
--gim
--gin
--gina
--ginao
--ginareo
--ginay
--giny
--gio
--gir
--girana
--gita
--gitra
--gitro
--giɖ
--gl
--gnac
--gne
--gny
--go
--goa
--goako
--goam
--goan
--goana
--goany
--godina
--gohana
--goina
--goka
--gokao
--goko
--gola
--gom
--gon
--gona
--gonako
--gonana
--gonao
--gonay
--gongo
--gongoana
--gony
--gorako
--gorana
--goro
--gorona
--goronana
--gory
--gos
--gotana
--gotra
--gotrao
--gotray
--gotro
--goty
--goy
--grar
--gro
--gs
--gt
--gton
--gu
--gue
--gues
--guɾam
--gy
--h
--ha
--haka
--hako
--halika
--ham
--han
--hana
--hanao
--hanareo
--hanay
--hantsika
--hany
--har
--hard
--haro
--hatro
--hatsika
--he
--hefa
--heko
--helo
--hem
--her
--hera
--herana
--heva
--hi
--hia
--hiako
--hian
--hiana
--hiany
--hibe
--hidy
--hika
--hiko
--hila
--him
--hin
--hina
--hinana
--hinao
--hinareo
--hinay
--hiny
--hir
--hiry
--hitra
--hitrao
--hitro
--hl
--ho
--hoa
--hoana
--hoany
--hofa
--hoka
--hoko
--hom
--hon
--hona
--honako
--honao
--honay
--hony
--hor
--hotra
--hr
--hs
--ht
--hu
--hy
--i
--ia
--iaceo
--iaha
--iak
--iaka
--iakia
--iako
--ial
--iala
--iam
--ian
--iana
--ianana
--ianay
--ianaɾe
--iany
--iar
--iara
--iare
--iary
--ias
--iatsika
--iava
--iavako
--iavan
--iba
--iban
--ibe
--iben
--ibo
--iboana
--ibon
--ic
--ica
--icar
--ice
--ich
--icien
--ick
--icle
--ico
--ics
--id
--ida
--idi
--idia
--idiako
--idik
--idim
--idit
--iditra
--idiŋ
--idra
--idy
--ie
--iel
--ien
--ient
--ier
--ies
--iet
--iez
--if
--ifa
--ifi
--ificar
--ificari
--ifiha
--ifihako
--ifihana
--ifik
--ifika
--ifiko
--ifim
--ifitra
--ifiʔan
--ifiʔana
--ifo
--ifotra
--ifut
--ify
--ig
--iga
--igar
--ige
--igny
--igo
--ih
--iha
--ihako
--iham
--ihan
--ihana
--ihika
--ihiko
--ihina
--iho
--ihy
--ii
--ija
--ik
--ika
--ikan
--ikana
--ikanao
--ikany
--ikao
--ikareo
--ikay
--ike
--ikely
--iken
--ikena
--iki
--ikik
--ikiko
--ikim
--ikin
--ikina
--iko
--ikotra
--iky
--il
--ila
--ilahila
--ilan
--ilana
--ile
--ilia
--ilik
--ilim
--ilin
--ilio
--ill
--illa
--ille
--iller
--illy
--ilo
--iloa
--ilut
--ily
--im
--ima
--imba
--imbo
--imby
--ime
--imer
--imiana
--imin
--imina
--imo
--imular
--imy
--in
--ina
--inak
--inaka
--inako
--inam
--inan
--inana
--inanao
--inanay
--inany
--inao
--inareo
--inay
--inaɾe
--inda
--indana
--ine
--ing
--inga
--ingako
--ingana
--ingany
--ingin
--ingina
--inginy
--ingo
--ingoa
--ingoan
--ingoana
--ingoany
--ingoka
--ingoko
--ingon
--ingona
--ingonao
--ingonay
--ingony
--ingy
--ini
--inim
--injareo
--inkona
--ino
--inoan
--ins
--inta
--intsana
--intsika
--iny
--inɖ
--io
--ioka
--ioke
--ioko
--ioky
--iom
--ion
--iona
--ional
--ionar
--ionner
--ions
--iony
--ior
--iovana
--ip
--ipaka
--ipin
--ipy
--ir
--ira
--irako
--iram
--irana
--iranao
--iranay
--irany
--ire
--iri
--iriako
--irika
--irikiry
--irim
--irin
--irina
--iriry
--iritra
--iro
--iron
--irotana
--iry
--is
--isa
--isako
--ise
--isent
--iser
--ises
--isez
--ish
--isi
--isik
--isim
--isin
--isit
--isitra
--isitry
--isma
--isme
--ismi
--ismo
--iso
--isoana
--isotra
--isse
--ist
--ista
--iste
--isti
--isto
--isy
--it
--ita
--itahana
--itaka
--itan
--itany
--itas
--itay
--ite
--itika
--ito
--itr
--itra
--itrako
--itrao
--itrareo
--itray
--itriko
--itro
--itroka
--itry
--itsa
--itsahako
--itsaka
--itsika
--itsohana
--itsoka
--itsy
--ity
--ium
--iun
--iuna
--ius
--iva
--ivana
--ive
--ivin
--ivit
--ivo
--ivoana
--ivoka
--ivun
--ix
--iz
--iza
--izana
--izar
--izara
--izari
--ize
--izin
--izina
--izo
--izzare
--iŋ
--iŋk
--iɖ
--iɾ
--iɾa
--iɾak
--iɾam
--iɾan
--iɾat
--iʔ
--iʔak
--iʔan
--iʔana
--j
--ja
--jabi
--jahan
--jaika
--jaka
--jamba
--jan
--jana
--janao
--janona
--janonana
--jany
--jao
--jar
--jara
--jareo
--jari
--jary
--je
--jear
--jena
--jenjena
--jenjina
--jera
--jerana
--jevo
--ji
--jia
--jifa
--jijy
--jiko
--jin
--jina
--jinao
--jinay
--jira
--jo
--jofo
--johy
--joko
--jola
--jom
--jon
--jona
--jony
--js
--jurar
--jy
--jŋ
--k
--ka
--kafo
--kafona
--kafonao
--kafy
--kaiko
--kaka
--kako
--kam
--kan
--kana
--kanao
--kanjo
--kany
--kao
--kaona
--kareo
--karina
--kary
--kasina
--kat
--katia
--katro
--katy
--kava
--kay
--kaɾe
--ke
--keko
--kely
--kem
--kema
--ken
--keny
--keo
--ker
--kery
--ket
--ketrahana
--ketraka
--ki
--kia
--kiaka
--kiako
--kiho
--kiko
--kiky
--kila
--kim
--kin
--kina
--kinao
--kinareo
--kinay
--kiny
--kio
--kipa
--kisa
--kit
--kitry
--kitsoka
--kivy
--ko
--koa
--koako
--koam
--koana
--kobona
--kodia
--kofa
--kofo
--kofoka
--koho
--kohofana
--kohoka
--kohon
--koko
--koky
--kom
--kon
--kona
--konako
--konan
--konana
--konany
--konao
--konareo
--konay
--kony
--kopoka
--korintsana
--korisa
--koro
--koroana
--kosin
--kosina
--kositra
--kosy
--kotra
--kotsa
--kotso
--kov
--koy
--ks
--kt
--ku
--kut
--ky
--l
--la
--lac
--lahana
--lahiko
--lahim
--laho
--lahy
--laiko
--laina
--lainy
--lak
--laka
--lako
--lam
--lan
--lana
--lanana
--lanao
--lanareo
--lanay
--lany
--lao
--lapet
--lar
--lare
--las
--latra
--lav
--lava
--lay
--laza
--laʔana
--laʔin
--ld
--lde
--le
--lear
--lehana
--lem
--lemena
--len
--leny
--leo
--ler
--les
--ley
--lf
--lgeo
--li
--lia
--lian
--liany
--lic
--lik
--lika
--liko
--lila
--lim
--lin
--lina
--linana
--linao
--linareo
--linay
--liny
--lio
--lir
--lire
--lis
--liten
--lizar
--lk
--ll
--lla
--llar
--lle
--lles
--lli
--llo
--lly
--lo
--loa
--loana
--loany
--logi
--logia
--logie
--logy
--loha
--lok
--lom
--lon
--lona
--lonao
--lonareo
--lonay
--lony
--lor
--loran
--lorana
--lotra
--loy
--lozana
--lph
--ls
--lt
--lta
--ltar
--lte
--lu
--lun
--lus
--lut
--ly
--lz
--m
--ma
--mak
--mako
--mam
--mamo
--man
--mana
--mani
--mann
--many
--maso
--may
--mb
--mba
--mbaka
--mbako
--mbam
--mban
--mbana
--mbanao
--mbanay
--mbany
--mbato
--mbatra
--mbavy
--mbazaha
--mbe
--mbena
--mbiko
--mbin
--mbina
--mbiny
--mbo
--mboa
--mboan
--mboana
--mboka
--mboko
--mbolo
--mbom
--mbon
--mbona
--mbonao
--mbonay
--mbony
--mbotra
--mby
--me
--mek
--meko
--mem
--men
--mena
--meny
--mi
--miko
--mim
--min
--mina
--minao
--minareo
--minay
--miny
--mir
--mira
--mo
--moa
--moan
--moana
--moany
--moetra
--moina
--moko
--mom
--mon
--mona
--monao
--monay
--mos
--motra
--mp
--mpa
--mpe
--mpiko
--mpin
--mpirana
--mpo
--mpoka
--mps
--mpy
--ms
--mu
--my
--n
--na
--nai
--naika
--naiko
--nain
--naina
--nais
--nak
--naka
--nako
--naky
--nala
--nalana
--nam
--nan
--nana
--nanao
--nanareo
--nanay
--nantsika
--nany
--nao
--nar
--nara
--nard
--nare
--nareo
--nari
--nas
--natsika
--navena
--nay
--naɾe
--nc
--nce
--ncer
--ncy
--nd
--nda
--ndan
--ndana
--nde
--nder
--ndere
--ndi
--ndin
--ndo
--ndona
--ndr
--ndra
--ndraka
--ndrako
--ndram
--ndran
--ndrana
--ndranao
--ndranareo
--ndranay
--ndrany
--ndre
--ndrena
--ndriko
--ndrin
--ndriny
--ndritra
--ndro
--ndroko
--ndrom
--ndron
--ndrona
--ndronao
--ndronareo
--ndronay
--ndrony
--ndry
--ndy
--ne
--nea
--neau
--neko
--nel
--nem
--nen
--nena
--ner
--nes
--ney
--ng
--nga
--ngako
--ngalana
--ngam
--ngan
--ngana
--nganao
--nganay
--ngany
--ngatra
--nge
--nger
--ngerona
--ngika
--ngin
--nginana
--nginy
--ngitra
--ngo
--ngoa
--ngoana
--ngoko
--ngom
--ngon
--ngona
--ngonao
--ngonay
--ngony
--ngorana
--ngotra
--ngy
--ni
--nia
--niako
--nic
--nie
--nifin
--nik
--niko
--nila
--nim
--nin
--nina
--ninao
--ninareo
--ninay
--niny
--nio
--nir
--nire
--nisma
--nitra
--nitsika
--nizar
--nja
--njaka
--njareo
--njely
--njina
--njo
--njoana
--njon
--nk
--nko
--nkosina
--nn
--nna
--nne
--nner
--nnes
--no
--noana
--noka
--noko
--nom
--non
--nona
--nonana
--nonao
--nonareo
--nonay
--nor
--norana
--notana
--noy
--ns
--nsa
--nso
--nt
--nta
--ntako
--ntam
--ntan
--ntana
--ntanao
--ntanay
--ntany
--ntar
--ntara
--ntaran
--ntarana
--nte
--nter
--ntes
--nti
--ntia
--ntika
--ntiko
--ntim
--ntin
--ntina
--ntino
--ntiny
--ntitra
--nto
--ntoana
--ntoko
--ntom
--nton
--ntona
--ntonana
--ntony
--ntsa
--ntsako
--ntsan
--ntsana
--ntsaona
--ntselona
--ntsika
--ntso
--ntsona
--ntsy
--nty
--nu
--nun
--nus
--ny
--nz
--nɖ
--o
--oa
--oafana
--oahako
--oahana
--oak
--oaka
--oako
--oam
--oan
--oana
--oanao
--oanay
--oanjo
--oantoana
--oany
--oara
--oarako
--oarana
--oarany
--oatoavana
--oavana
--oba
--obahana
--obe
--obo
--oboko
--obona
--obonobonana
--oby
--od
--oda
--odana
--odiavana
--odiko
--odiny
--odirana
--odo
--odokana
--ody
--oe
--ofa
--ofako
--ofan
--ofana
--ofany
--ofintofina
--ofo
--ofoana
--ofohana
--ofoka
--ofon
--ofotra
--ofy
--og
--ogo
--ogoana
--oha
--ohafana
--ohako
--oham
--ohan
--ohana
--ohanao
--ohanay
--ohany
--ohin
--ohina
--ohinana
--ohitra
--ohoka
--ohy
--oi
--oiko
--oim
--oin
--oina
--oinana
--oinkoina
--oiny
--oir
--oirana
--ois
--oitra
--oitrareo
--oitro
--oitry
--oivoizana
--oja
--ojo
--ok
--oka
--okafana
--okana
--okanana
--okanao
--okanay
--okany
--okao
--okareo
--okatra
--okay
--oke
--oken
--okia
--okim
--okin
--okitra
--oko
--okoana
--okonana
--oky
--ol
--ola
--olahana
--olaka
--olako
--ole
--oli
--olika
--olim
--olin
--olo
--oloka
--olokoloana
--olorana
--oly
--om
--oma
--omako
--omam
--oman
--omany
--ombana
--ombihana
--ombin
--ombina
--ombo
--omboana
--ombotana
--omby
--ome
--omindana
--ompa
--ompana
--ompirana
--ompiranana
--ompo
--ompy
--omy
--on
--ona
--onahana
--onaka
--onako
--onam
--onan
--onana
--onanao
--onanay
--onantonana
--onany
--onao
--onar
--onay
--onda
--ondako
--ondana
--ondanana
--ondra
--ondraka
--ondrako
--ondrana
--ondranana
--ondranao
--ondranay
--ondrany
--ondrehana
--ondrika
--ondro
--ondroana
--onena
--onera
--onerana
--onga
--ongalihana
--ongana
--ongany
--ongika
--ongo
--ongoa
--ongoan
--ongoana
--ongon
--ongorana
--ongy
--oni
--oniako
--oniana
--oniko
--onim
--onin
--onina
--oniny
--onitsika
--onjana
--onjena
--onjina
--onjonana
--onjy
--onkonana
--onna
--ono
--onoana
--onon
--onona
--ononana
--onotana
--ons
--ont
--onta
--ontana
--ontaniana
--ontany
--ontoana
--ontonana
--ontosana
--ontsako
--ontsana
--ontsonana
--onty
--ony
--op
--opoka
--opy
--or
--ora
--orahana
--orahany
--oraka
--orako
--oran
--orana
--orano
--orany
--oratana
--oreko
--orena
--orenana
--orenao
--ori
--oria
--oriaka
--oriako
--oriana
--orihana
--orika
--oriko
--orim
--orin
--orina
--orinay
--oriny
--orirana
--orisihana
--oritra
--oro
--oroana
--oroany
--orohana
--oroka
--oroko
--orokoroana
--oron
--orony
--orotana
--ory
--os
--osa
--osahana
--osaka
--osana
--osehana
--osena
--osenana
--osi
--osika
--osiko
--osim
--osin
--osina
--osiny
--ositra
--ositro
--ositry
--osohana
--osonana
--osorana
--osy
--ot
--ota
--otahana
--otaka
--otako
--otana
--otanao
--otanay
--otany
--otehana
--oti
--otika
--otiko
--otikotehana
--otina
--otinana
--oto
--otoana
--otoazana
--otorana
--ototra
--otr
--otra
--otrahana
--otraka
--otrao
--otrareo
--otray
--otrehana
--otro
--otry
--otsaka
--otsehana
--oty
--ou
--ough
--ourt
--out
--oux
--ov
--ova
--ovahana
--ovako
--ovam
--ovan
--ovany
--ovitch
--ovo
--ovohana
--ovoka
--owac
--oy
--oza
--ozana
--ozo
--ozonana
--ozy
--p
--pa
--pahan
--pahana
--pak
--paka
--pako
--pan
--pana
--panga
--pangapanga
--pany
--par
--paritaka
--pe
--peo
--perana
--pes
--pesco
--pesona
--peɾana
--phy
--pi
--pia
--piako
--pian
--pianianana
--piany
--pifiako
--pify
--piha
--piko
--pim
--pin
--pina
--pinao
--pinareo
--pinay
--piny
--pira
--pirar
--pirina
--pisahana
--pisako
--pisy
--pit
--pitra
--pitsoka
--plo
--po
--poaka
--podiana
--pody
--poha
--pohafoha
--pohako
--pohan
--pohana
--pohy
--poitra
--pok
--poka
--pokao
--pokay
--poko
--poky
--poly
--pom
--pon
--pona
--ponana
--ponao
--ponareo
--ponay
--pony
--pos
--potina
--potra
--potraka
--potsaka
--potsy
--ppe
--pper
--ps
--pson
--pte
--ptio
--pur
--put
--puɾet
--puɾut
--py
--q
--que
--quer
--r
--ra
--rabahana
--rac
--rad
--rada
--rafana
--rafesana
--rahako
--rahan
--rahana
--rahanao
--rahanay
--rahany
--raho
--rahoana
--rahoany
--rai
--raient
--raika
--raiketana
--raiko
--raim
--rais
--raisan
--raisana
--raisany
--rait
--rak
--raka
--rakana
--rakao
--rakay
--rake
--rako
--raky
--ram
--ramana
--rampa
--ran
--rana
--ranako
--ranam
--ranan
--ranana
--rananao
--rananay
--ranany
--ranao
--ranareo
--ranay
--randrana
--rano
--rantoana
--rantsana
--rantsika
--rany
--rao
--raony
--raotra
--rar
--rara
--raraka
--rarako
--rarana
--rare
--rareo
--rari
--raro
--rary
--ras
--rasana
--ratana
--rato
--ratoana
--ratr
--ratra
--ratrana
--ratrao
--ratrarana
--ratrareo
--ratray
--ratro
--ratry
--ratsa
--ratsika
--ratsiko
--ravy
--ray
--razo
--rc
--rce
--rch
--rcy
--rd
--rda
--rdar
--rde
--rder
--re
--rebehana
--rebonana
--refana
--regar
--reha
--rehako
--rehan
--rehana
--reho
--rehy
--reka
--reko
--rel
--rem
--remotra
--ren
--rena
--renako
--renan
--renana
--renao
--renareo
--renay
--rendrirendrena
--renohana
--reo
--reoka
--reoko
--rer
--res
--resco
--resen
--resena
--retako
--retana
--retina
--retra
--retrao
--reva
--revaka
--rey
--rez
--rf
--rg
--rge
--rger
--ri
--ria
--riako
--riam
--rian
--riana
--riany
--riatra
--rie
--riez
--rifana
--riha
--rihako
--rihan
--rihany
--riho
--rik
--rika
--rikao
--rike
--riko
--riky
--rim
--rin
--rina
--rinana
--rinao
--rinareo
--rinay
--ringa
--ringana
--riny
--rio
--riona
--rions
--rira
--rirana
--riry
--risika
--ritana
--ritra
--ritrao
--rium
--rius
--riva
--rivo
--rix
--rk
--rka
--rm
--rma
--rme
--rn
--rnar
--rne
--ro
--roa
--roaka
--roako
--roam
--roan
--roana
--roanao
--roanay
--roany
--roarana
--roatra
--robahana
--robo
--rofa
--rofoka
--roha
--rohako
--roham
--rohana
--rohanao
--rohanay
--rohina
--roin
--roina
--rok
--roka
--rokao
--rokay
--roke
--roko
--roky
--rom
--romotana
--ron
--rona
--ronaka
--ronako
--ronam
--ronan
--ronana
--ronanao
--ronanay
--ronany
--ronao
--ronareo
--ronay
--rongoana
--ronjina
--rons
--ront
--rontonana
--rony
--ror
--roraka
--rosiko
--rosina
--rosinana
--roso
--rosoan
--rosoana
--rotra
--rotro
--rotsaka
--roy
--rp
--rr
--rra
--rrar
--rre
--rreo
--rro
--rs
--rse
--rsi
--rt
--rte
--rth
--rts
--ru
--rum
--rus
--ry
--rz
--s
--sa
--sabut
--sac
--sadik
--safa
--sahako
--sahana
--sahiko
--saho
--sahoana
--saikona
--saikonana
--sak
--saka
--sakao
--sakareo
--sako
--saky
--sala
--sam
--san
--sana
--sanao
--sanareo
--sanay
--sany
--sar
--sara
--sare
--sas
--satohana
--satra
--satsa
--satsika
--satsoana
--say
--saŋ
--sburg
--sc
--sch
--sco
--scor
--se
--sefahana
--seha
--sehana
--seis
--seko
--sel
--selahana
--selo
--sem
--sen
--sena
--sent
--seny
--ser
--sera
--serana
--ses
--sey
--sez
--sh
--si
--sia
--siahako
--siahana
--siahy
--siako
--siana
--siany
--sida
--siez
--siha
--sihako
--sihan
--sihana
--siho
--sik
--sika
--sikalana
--sikana
--sikanana
--sikanina
--sikaninana
--sikao
--sike
--sikera
--siko
--sikoinkoina
--sikoinkoinana
--siky
--sim
--simo
--sin
--sina
--sinao
--sinareo
--sindroandroana
--singerina
--singoana
--sinjarana
--sinkafona
--sinkafonana
--sinkasina
--sinkasinana
--sinomana
--sintsindrana
--siny
--sio
--siona
--sions
--sipy
--sirako
--siriko
--siro
--siry
--sisy
--sit
--sivo
--siŋ
--sk
--ski
--sky
--sma
--so
--soa
--soahana
--soaka
--soan
--soana
--soany
--sofa
--sofohana
--sofoka
--soha
--sohana
--soina
--sok
--soka
--sokao
--sokay
--soko
--soky
--som
--sompirana
--son
--sona
--sonana
--sonao
--sonareo
--sonay
--sony
--sorana
--sorofohana
--sos
--sotitika
--sotra
--sovaka
--soy
--ss
--ssa
--sse
--ssel
--ssent
--sser
--sses
--ssi
--sso
--sson
--st
--sta
--ste
--stein
--steis
--ster
--sti
--ston
--stre
--su
--sulam
--sulaŋ
--sun
--sville
--sy
--sz
--sŋ
--t
--ta
--taa
--taba
--taha
--tak
--taka
--tako
--takosina
--tam
--tan
--tana
--tanao
--tanareo
--tanay
--tane
--tantsika
--tany
--tao
--taoko
--tar
--tara
--tarako
--taran
--tarany
--tare
--tari
--taro
--tas
--tatra
--tatsika
--tay
--tazana
--taɖ
--te
--tear
--ted
--tefa
--teis
--teko
--telo
--telon
--ten
--tena
--tenao
--teny
--teo
--ter
--terahana
--terana
--tere
--tes
--teur
--teva
--tez
--th
--thy
--ti
--tia
--tic
--tie
--tier
--tik
--tika
--tikina
--tiko
--tim
--tin
--tina
--tinao
--tinareo
--tinay
--tiny
--tio
--tion
--tions
--tior
--tir
--tire
--tis
--tisma
--titra
--tiva
--tle
--to
--toa
--toako
--toam
--toan
--toana
--toanana
--toanao
--toanay
--toany
--tofina
--toha
--tohako
--tohan
--tohana
--toina
--tok
--toka
--tokao
--tokareo
--tokay
--toko
--tom
--ton
--tona
--tonako
--tonana
--tonany
--tonao
--tonareo
--tonay
--tony
--tor
--torana
--tos
--tototo
--totra
--town
--tr
--tra
--trahana
--traika
--traka
--trako
--trao
--traoka
--trareo
--tray
--tre
--trika
--trikao
--triko
--trim
--trin
--trinao
--trinay
--triny
--tro
--troka
--troko
--trona
--trony
--try
--ts
--tsa
--tsafa
--tsahako
--tsaka
--tsakao
--tsakay
--tsako
--tsam
--tsampy
--tsan
--tsana
--tsanako
--tsanana
--tsanao
--tsanay
--tsano
--tsany
--tsasaka
--tse
--tseko
--tselina
--tsen
--tseny
--tsi
--tsiana
--tsihako
--tsihana
--tsik
--tsika
--tsiko
--tsimina
--tsimo
--tsin
--tsina
--tsinao
--tsinareo
--tso
--tsoa
--tsoko
--tsolo
--tsom
--tson
--tsona
--tsonako
--tsonan
--tsonana
--tsonao
--tsonay
--tsony
--tsoroka
--tsorona
--tsy
--tt
--tta
--tte
--tter
--ttere
--tti
--tto
--tu
--tuer
--tum
--tuo
--tus
--ty
--tz
--u
--ua
--uak
--uan
--uana
--uare
--uavan
--ub
--ubibik
--ud
--ude
--udin
--udit
--udo
--ue
--uer
--ues
--uet
--uf
--ufak
--ufan
--ufin
--ufut
--ufuʔan
--ufuʔana
--ug
--ui
--uil
--uin
--uk
--uka
--ukana
--ukik
--ul
--ula
--ulak
--ulan
--ular
--ulat
--ule
--uler
--ulim
--ulin
--ulor
--ult
--ulun
--um
--uman
--umbo
--ume
--umum
--un
--una
--unak
--unan
--unana
--und
--ung
--unina
--unun
--unɖ
--uo
--uor
--up
--ur
--ura
--urar
--ure
--urer
--uresco
--urg
--uri
--urne
--urs
--urt
--ury
--us
--use
--usik
--usit
--usse
--usut
--ut
--ute
--uter
--utin
--utut
--utuŋ
--uv
--uvak
--uvan
--uvana
--uvun
--uvuna
--uvut
--ux
--uy
--uzan
--uze
--uzuŋ
--uŋ
--uɐ
--uɖ
--uɳa
--uɾ
--uɾak
--uɾan
--uɾana
--uɾen
--uɾena
--uɾian
--uɾuan
--uɾum
--uɾut
--uʔ
--uʔa
--uʔan
--uʔin
--uʔun
--v
--va
--vais
--vak
--vaka
--vakao
--vako
--valy
--vam
--van
--vana
--vanao
--vanay
--vany
--vao
--var
--vas
--vasy
--vat
--vatra
--vava
--vavin
--vavy
--vay
--ve
--vem
--ven
--vena
--veo
--vi
--via
--viako
--viam
--vian
--viana
--viany
--vic
--vide
--vie
--vik
--vika
--viko
--vilana
--ville
--vily
--vim
--vin
--vina
--vinana
--vinao
--vinareo
--vinay
--viny
--vir
--vira
--virana
--viravy
--visa
--vit
--vitana
--vitra
--vivo
--viŋ
--vo
--voa
--vohana
--voho
--vois
--voka
--voko
--voky
--vola
--vom
--von
--vona
--vonana
--vonao
--vonareo
--vonay
--vory
--votra
--voy
--vu
--vuan
--vuk
--vuka
--vun
--vuna
--vut
--vy
--w
--wa
--wac
--we
--wer
--win
--wk
--wn
--ws
--wy
--wŋ
--x
--xe
--xer
--xt
--y
--ya
--yama
--yar
--yd
--ye
--yer
--yn
--ys
--z
--za
--zac
--zaha
--zahana
--zak
--zaka
--zako
--zam
--zan
--zana
--zanao
--zany
--zar
--zare
--zari
--zary
--zatra
--zay
--ze
--zer
--zi
--zia
--ziko
--zila
--zim
--zin
--zina
--ziny
--znar
--zo
--zoa
--zoka
--zoko
--zon
--zonana
--zony
--zorana
--zorazo
--zy
--zzare
--zzi
--ð
--ı
--ł
--ła
--ław
--ło
--ły
--ŋ
--œ
--ɐ
--ɑ
--ɔ
--ɔŋ
--ɕ
--ɖ
--ə
--əŋ
--ɛ
--ɡ
--ɦ
--ɨ
--ɪ
--ɪŋ
--ɫ
--ɲ
--ɳ
--ɳa
--ɳak
--ɳan
--ɳana
--ɳin
--ɾ
--ɾa
--ɾaik
--ɾain
--ɾak
--ɾaka
--ɾan
--ɾana
--ɾanaɾe
--ɾat
--ɾaŋ
--ɾaʔan
--ɾaʔana
--ɾe
--ɾen
--ɾet
--ɾian
--ɾik
--ɾim
--ɾin
--ɾina
--ɾit
--ɾiŋ
--ɾo
--ɾuan
--ɾuk
--ɾuka
--ɾun
--ɾuna
--ɾut
--ʁ
--ʃ
--ʊ
--ʌ
--ʔ
--ʔa
--ʔak
--ʔan
--ʔana
--ʔanaɾe
--ʔat
--ʔen
--ʔik
--ʔim
--ʔin
--ʔina
--ʔinaɾe
--ʔit
--ʔun
--α
--ε
--η
--ι
--κο
--ν
--νο
--ο
--ς
--ση
--τα
--υ
--ω
--а
--аи
--ам
--ан
--ба
--в
--ва
--вам
--во
--г
--га
--д
--да
--е
--еи
--ен
--ение
--ер
--ет
--ец
--з
--зирам
--и
--ие
--ии
--ик
--ирам
--ица
--ия
--к
--кии
--ко
--л
--ла
--лен
--ло
--ль
--льныи
--м
--ма
--н
--не
--ние
--нии
--ник
--нт
--ныи
--нь
--о
--ов
--ои
--ок
--он
--ор
--р
--ра
--рам
--с
--ст
--ся
--т
--та
--тво
--тор
--у
--х
--ч
--ы
--ыи
--я
--ה
--ל
--ם
--ן
--ר
--ת
--ا
--اء
--ار
--ان
--ب
--ة
--ت
--تن
--ج
--ح
--د
--دن
--ر
--رة
--ز
--س
--ش
--ض
--ط
--ع
--غ
--ف
--ق
--ك
--ل
--م
--ن
--ه
--و
--ى
--ي
--ية
--ک
--ی
--क
--ण
--त
--न
--म
--र
--ल
--स
--ம
--మ
--ൻ
--ร
