!
"
#
##0
##1
##10
##11
##12
##13
##14
##15
##16
##17
##18
##19
##2
##20
##21
##22
##23
##24
##25
##26
##27
##28
##29
##3
##30
##31
##32
##33
##34
##35
##36
##37
##38
##39
##4
##40
##41
##42
##43
##44
##45
##46
##47
##48
##49
##5
##50
##51
##52
##53
##54
##55
##56
##57
##58
##59
##6
##60
##61
##62
##63
##64
##65
##66
##67
##68
##69
##7
##70
##71
##72
##73
##74
##75
##76
##77
##78
##79
##8
##80
##81
##82
##83
##84
##85
##86
##87
##88
##89
##9
##90
##91
##92
##93
##94
##95
##96
##97
##98
##99
$
%
&
'
(
)
*
+
,
-
.
/
0
00
000
0031
00640
01
02
027177
03
04
05
06
07
08
09
1
10
100
1000
101
102
1020
103
104
105
1050
106
107
1070
108
109
11
110
1100
111
112
113
1130
1139
114
115
1150
116
1160
117
118
1180
119
1190
12
120
1200
121
122
123
124
125
1250
126
1265
127
1275
1278
128
1289
129
1290
13
130
1300
131
132
133
1330
134
1340
135
1350
136
1360
137
1370
138
1380
139
1390
14
140
1400
141
1410
1413
1415
142
1420
143
1430
144
1440
145
1450
146
1460
1468
147
1470
1477
148
1480
1482
149
1490
1492
1495
1497
15
150
1500
151
1510
152
153
154
155
156
1560
157
158
1580
159
16
160
1600
161
162
1620
163
1630
1635
164
1640
165
1650
1651
1654
1655
1656
1657
1658
1659
166
1660
1664
1665
1666
1667
1668
1669
167
1670
1671
1672
1673
1674
1675
1677
1678
1679
168
1680
1681
1682
1683
1685
1686
169
1690
1699
17
170
1700
1704
1708
1709
171
1710
1711
1712
1713
172
1720
1722
1724
1725
1726
1727
173
1730
1731
1736
1737
1739
174
1740
1741
1745
1746
175
1750
1753
1755
1756
1757
1758
1759
176
1760
1761
1762
1763
1764
1765
1766
1767
1768
1769
177
1770
1771
1772
1773
1774
1775
1777
1778
1779
178
1780
1781
1782
1783
1784
1785
1786
1787
1788
1789
179
1790
1791
1792
1793
1794
1795
1796
1797
1798
1799
18
180
1800
1801
1802
1803
1804
1805
1806
1807
1808
1809
181
1810
1811
1812
1813
1814
1815
1816
1817
1818
1819
182
1820
1821
1822
1823
1824
1825
1826
1827
1828
1829
183
1830
1831
1832
1833
1834
1835
1836
1837
1838
1839
184
1840
1841
1842
1843
1844
1845
1846
1847
1848
1849
185
1850
1851
1852
1853
1854
1855
1856
1857
1858
1859
186
1860
1861
1862
1863
1864
1865
1866
1867
1868
1869
187
1870
1871
1872
1873
1874
1875
1876
1877
1878
1879
188
1880
1881
1882
1883
1884
1885
1886
1887
1888
1889
189
1890
1891
1892
1893
1894
1895
1896
1897
1898
1899
19
190
1900
1901
1902
1903
1904
1905
1906
1907
1908
1909
191
1910
1911
1912
1913
1914
1915
1916
1917
1918
1919
192
1920
1921
1922
1923
1924
1925
1926
1927
1928
1929
193
1930
1931
1932
1933
1934
1935
1936
1937
1938
1939
194
1940
1941
1942
1943
1944
1945
1946
1947
1948
1949
195
1950
1951
1952
1953
1954
1955
1956
1957
1958
1959
196
1960
1961
1962
1963
1964
1965
1966
1967
1968
1969
197
1970
1971
1972
1973
1974
1975
1976
1977
1978
1979
198
1980
1981
1982
1983
1984
1985
1986
1987
1988
1989
199
1990
1991
1992
1993
1994
1995
1996
1997
1998
1999
2
20
200
2000
2001
2002
2003
2004
2005
2006
2007
2008
2009
201
2010
2011
2012
2013
2014
2015
2016
2017
2018
2019
20190828194322
202
2020
2021
2022
203
2030
204
205
206
207
208
209
21
210
211
212
213
214
215
216
217
219
22
220
221
222
223
224
225
228
229
23
230
231
232
233
235
236
237
238
239
24
240
241
242
243
244
245
246
248
249
25
250
251
252
253
255
256
258
259
26
260
261
262
263
264
265
266
267
268
269
27
270
271
273
274
275
277
278
279
28
280
281
282
284
285
287
288
289
29
290
293
296
297
298
299
3
30
300
3000
301
302
303
305
306
307
308
309
31
310
311
312
314
315
316
32
320
322
323
325
327
329
33
330
332
333
335
336
337
34
340
341
343
345
346
347
348
349
35
350
351
352
354
355
356
357
359
36
360
361
363
365
366
37
373
374
375
38
380
388
39
4
40
400
4000
41
42
420
421
424
43
430
44
45
450
46
460
47
48
480
49
5
50
500
5000
51
516003
52
53
54
55
56
57
58
59
6
60
600
6000
61
62
63
639
64
65
650
66
67
68
69
7
70
700
7098
71
7114
72
73
74
75
750
76
77
78
79
8
80
800
81
82
83
84
840
85
850
86
860
868
87
88
89
9
90
900
91
92
93
930364
94
940
95
950
96
960
97
978
98
980
99
:
;
<
=
>
?
@
[
\
]
^
_
`
a
aa
aan
aarne
ab
aba
abagants
abague
abaiti
aband
abandne
abandner
abandon
abat
abataedje
abate
abateu
abatou
abatous
abattre
abatwer
abaxhi
abaye
abayeye
abayi
abbe
abce
abe
abeie
abel
aberteke
aberweta
aberweter
abeye
abeyes
abeyiste
abeymint
abi
abime
abimer
abit
abitude
abitudes
abiyi
abiymint
abiymints
able
abloucner
abo
aboere
aboird
abomina
abondroet
abondroets
abord
abou
abouter
abra
abraham
abram
abre
abressi
abri
abrocaedje
abroke
abroker
aburtale
abuvrer
abuvroe
abuvrou
abwe
abwesson
ac
aca
acacia
acade
academeye
acater
acawe
acce
accepta
acceptance
accepte
accepter
accidint
accidints
accint
accints
accion
accions
accord
ace
acer
acertinaedje
acertinance
acertine
acertiner
ach
ache
acheter
acheve
achever
achi
achid
achille
achoura
aci
acide
acinsion
aclairi
aclape
aclaper
acle
acleva
aclevaedje
aclevaedjes
acleve
aclever
acleveu
acleveus
aclot
aclots
acmaxhaedje
acmaxhi
acmoide
aco
acoird
acoirdances
acoirde
acoirder
acoirds
acolaedje
acomo
acontant
aconte
aconter
acoplaedje
acople
acopler
acore
acori
acou
acourtixheure
acover
acoyi
acroere
acrotchi
acse
acsegne
acsegni
acsegnmint
acsidint
acsu
acsure
acteur
acteurs
actif
action
activite
actoresse
actouwalite
actualite
acuzatif
acvierne
acwa
acwati
acwe
acweri
ad
ada
adam
adan
adapte
adawyi
adde
addj
addjecif
addjectif
addjectifs
addjectivire
addjectivrece
addle
ade
adele
adelin
adeuri
adi
adie
adierc
adierceye
adierci
adire
adj
adja
adje
adjermele
adjete
adjeyant
adjeyante
adjeyants
adji
adjinc
adjint
adjints
adjixh
adjnoyi
adjoke
adjoker
adjondrece
adle
admete
administra
administratif
administrative
admira
adn
ado
adolphe
adon
adonpwis
adopte
adora
adore
adou
adrame
adramter
adre
adresse
adrien
adriyin
adroet
adrovaedje
adrovi
adrovire
adu
adulte
adure
aduze
aduzer
adv
adve
advene
adviebe
adviebes
advierbire
adviertance
advierti
adviertixhmint
advina
advine
adviner
advintaedje
advitam
advoca
ae
aedje
aedjes
aessi
aeyir
af
afai
afame
afe
afes
afeye
affaire
affaires
affe
afganistan
afi
afin
afitcha
afitche
afiyaedje
afiyi
afla
aflaxhe
aflaxhi
afrike
afrikin
afrikins
afrique
afront
afronte
afronter
afroyi
afu
afut
afwaire
afwaires
ag
aga
agadir
agaesse
agaesses
again
agaricus
agasse
agate
agayon
agayons
age
agiter
agne
agnea
agneas
agnesse
agni
agnon
agnons
agoliner
agranci
agrandi
agre
agricole
agricou
agritche
agritchi
ah
aha
ahan
ahavter
ahe
ahener
ahessa
ahessant
ahesse
ahesses
ahesseu
ahessi
ahiket
ahivaedje
ahive
ahiver
ahmed
ahote
ahou
ahoute
ahouter
ahouwer
ai
aida
aidance
aidant
aidants
aide
aidi
aigue
aili
ailleurs
aime
aimon
ainme
ainsi
air
airance
airc
airdie
aire
aires
aireur
aireurs
aireye
airs
airtchi
ais
aise
aisse
aistre
ait
aite
aiw
aiwdirotchmint
aiwe
aiwes
aiwi
aiwlinne
aiye
aiyes
ajent
ak
ake
akes
al
ala
alaedje
alain
alam
alambra
alanmi
alans
alant
alaxhe
alba
albert
albin
albom
album
alcide
alcol
alcoran
aldjereye
aldjeryin
ale
alegzandreye
alene
aler
ales
aleu
aleure
aleut
alexandre
alexis
alez
alfabet
alfabetike
alfabets
alfe
alfred
alfrede
algara
ali
alice
alif
alimints
alin
aline
alinne
alint
alintou
all
alla
allant
alle
aller
allez
alli
allium
allons
alm
almagne
almand
almande
almandes
almands
almaxhe
alnute
alo
alofo
aloma
alors
alot
alou
aloude
aloume
aloumer
aloumire
aloumoere
alouwe
alouwer
alowe
aloyaedje
aloyance
aloye
aloyeye
aloyeyes
aloyi
aloyrece
aloz
alphonse
als
alu
aluminiom
alw
alwac
am
ama
amagni
amand
amanda
amande
amandes
amanita
amanite
amateur
amazigh
amazir
amazire
amazirs
ambassade
ambe
ambedeus
amble
ambleve
ambli
ame
amedaedje
amede
ameder
amel
amer
amerike
amerikin
amerikinne
amerikins
amete
ameteuse
ametou
ametous
amezmiz
ami
amia
amidre
amidrer
amigo
amin
aminde
amindji
amine
amis
amisse
amisses
amista
amiste
amitie
amlete
amoenne
amoenner
amoice
amon
amont
amonte
amonter
amonucion
amonucions
amor
amou
amougni
amour
amoureu
amoureus
amoureuse
amours
amoussi
ampo
ampoule
amu
amundsen
amuze
amuzer
amuzmint
amwinri
amz
an
ana
anatole
ance
ancien
anciens
ancyin
ancyinne
ancyinnmint
ancyins
and
andalouzeye
ande
andene
andenne
anderlues
anderluwe
andersen
andi
andje
andjes
andou
andre
andri
andrimont
ane
anea
aneas
anfin
ange
anges
angle
angleur
angoxhe
anhe
ani
anichter
animal
animaux
anime
aniviersaire
anixhile
anke
anle
anloe
anna
anne
annie
annuaire
annvoye
ano
anon
anonc
anonce
anonci
anonime
anonimmint
anouchca
anoyeu
anoyeus
anoyi
ans
anse
anselme
ansene
anses
ansine
ansini
ansreme
ant
antartike
ante
antene
antenes
anthologie
anti
antibiyotike
antibiyotikes
antigone
antikite
antoenne
antoine
antolodjeye
antolodjeyes
antomeye
antonio
antroponimeye
ants
anusse
anuti
anve
anvegn
anvers
anverse
anweye
aou
aousse
ap
apa
apaiser
aparexhaedje
aparexhe
aparexhou
aparey
apareys
aparintaedje
aparinte
aparte
apas
apasser
ape
apetit
api
apic
apice
apici
apinse
aplacaedje
aplacaedjes
aplake
aplaker
aplica
aplike
apliker
aplo
aplou
aploure
apo
apocalipe
apoirte
apoirter
apoisse
apoisses
apoite
apollinaire
aponti
apontyi
aporc
apostrofe
apotica
apougna
apougnaedje
apougne
apougni
appelez
appre
apprendre
aprandjire
apre
aprepeye
aprepiaedje
aprepyi
apresses
aprestaedje
apreste
aprester
apreume
aprind
aprinda
aprindaedje
aprinde
aprindi
aprindisse
aprins
apris
apriyesse
aprovijhi
aprume
apus
apwa
apwe
ar
ara
arabe
arabes
arabeye
araedje
araedji
araegne
araegnes
araegnreye
aragne
aragon
arantoele
arbo
arbre
arbu
arc
arche
architecture
archive
arco
arcq
ard
arde
ardenne
are
aresse
aresta
areste
arester
areu
areyoplane
areyoplanes
areyopo
argane
argani
argayon
argent
ari
arie
arime
arimea
arimeas
arin
arincrin
arindje
arindji
arindjmint
arinna
arinne
arinner
arinnoe
ariva
arivant
arive
ariver
arivi
arivnut
arivre
arivreut
arlochi
armand
arme
armes
armonak
armwereyes
arna
arnaud
arnica
arno
arnold
aro
aroke
aroker
arokes
aronde
arondi
arondixhmint
arondixhmints
arot
aroyaedje
aroyi
arpenteur
arpitan
arre
arrie
arrive
arriver
arrondissement
arse
arsouye
art
artemisia
artere
arthur
article
artike
arts
arvensis
arvey
ary
as
asblawete
asblawi
ascauchi
aschate
aschates
aschou
asco
ascoxheye
ascoxheyes
ascoxhi
ascoye
ascoyi
ascropi
ascropou
ascwati
asfi
asgur
ashi
ashid
ashiou
ashir
ashire
ashonna
ashonnaedje
ashonner
askepeye
askepia
askepiaedje
askepiance
askepieu
askepieus
askepieye
askepyi
asmete
asnoe
aspagne
aspalaedje
aspale
aspaler
aspe
aspedje
aspexhi
aspite
aspiter
aspoya
aspoye
aspoyi
asprouve
asprouver
asprove
ass
assa
assaetchance
assaetche
assaetchi
assazine
asse
assene
assesse
assez
assi
assie
assimble
assimilaedje
assine
assiou
assistance
asso
assoc
associa
association
assonre
assoti
assouwer
assu
assulon
assurance
assure
assurer
asta
astaedje
astale
astaler
astampe
astamper
astantche
astantches
astaurdji
astchait
astcheyance
aste
asteme
asterlodjeye
asteu
asteur
asteure
astint
astire
asto
astoca
astok
astoke
astoker
astos
astot
astou
astrapa
astronomeye
aswadji
at
ata
ataca
atacaedje
atacaedjes
atacant
ataetche
ataetchi
atake
ataker
atakes
ataque
ataquer
atch
atche
atchena
atchete
atcheve
atchte
atchter
atchteu
ate
atelaedje
atele
ateler
atene
ater
atermint
ati
atimprance
atincion
atind
atinde
atindeut
ation
atire
atlantike
atlas
atlasse
ato
atome
atomike
atot
atote
atou
atoume
atourner
atouwaedje
atouwance
atouwe
atouwer
atouweu
atrape
atraper
atribut
atriva
atroclaedje
atrocle
attache
atteindre
atteint
attendre
attribution
atur
atuze
atuzes
atuzle
atuzler
au
aube
aubes
aubry
auby
aucun
audace
audjou
audjourde
auguste
augustin
aujau
auje
auji
aujourd
aunia
aurde
aure
aureu
aureut
aurez
auri
auros
aurot
auroz
aus
ausse
aussi
aut
autant
aute
autes
auteur
auteurs
auto
automne
autos
autou
autre
autrefois
autres
auve
auwe
aux
auye
av
ava
avadji
avais
avait
avala
avale
avaler
avalrece
avan
avanc
avance
avanceye
avanci
avanciveus
avans
avant
avare
avau
avaur
avaxhe
ave
avec
avenir
avespre
avet
aveu
aveule
aveules
aveur
aveuri
aveus
aveut
avez
avi
avie
aviedje
avier
avin
avinde
avins
avint
avinteure
avinteures
avion
avions
avirance
avire
avirer
aviretes
avis
avit
aviyi
aviz
avizance
avize
avizer
avnante
avni
avnou
avnowe
avo
avoca
avocat
avoe
avoenne
avoir
avon
avons
avos
avot
avou
avoye
avoyi
avoyoe
avoz
avri
avril
avru
avu
avuzion
avwe
aw
awaite
awaiti
awans
away
awe
aweure
aweye
aweyes
awi
awion
awiyant
awiyante
awou
awous
awousse
awureus
axh
axhe
axhele
axhiltance
axhla
axhle
ay
aya
ayant
aye
ayeu
ayi
ayir
ayites
ayiti
aymara
ayt
az
aza
azai
aze
azeye
azote
aʀ
b
ba
babetch
babete
bablou
bac
bach
bache
bachi
back
baconfwe
bacq
bactereye
bactereyes
bad
badjawe
badjimont
baf
bafe
bag
bagaedje
bagaedjes
bagn
bagne
bagni
bagnole
bague
baguer
bagues
baguete
baguetes
bah
bahi
bai
baico
baidjot
baie
baijot
baileu
bailleux
bais
baiwir
baiye
bak
bake
baker
bal
bala
balance
balanci
bale
baler
bales
baleu
baligand
balle
balon
balots
balou
baloujhe
baloujhes
balowe
bals
balte
balter
baltike
balzine
balziner
balzins
ban
bana
banbwe
banc
banca
bancs
band
bande
bandit
bandiys
baneu
banire
banke
bankes
banket
banki
banque
bans
banse
banses
bansle
bansli
banstea
baptiste
bar
bara
barabasse
barake
barakes
baraki
baraque
baraques
barbari
barbazon
barbinc
barbo
barbote
barboter
barcelona
bardaf
bardaxhe
bardouxha
bardouxhe
bardouxhi
bare
baret
barets
barometre
baron
barone
barrasser
barry
barti
barvea
bas
bascolete
bascolidi
bascule
base
baskete
bassa
basse
basses
bassi
bassin
bassindje
basta
baste
basteye
basti
bastien
bastimint
bastimints
bastin
bastis
bastixh
bastixha
bastixhaedje
bastogne
baston
bastons
bat
bata
bataedje
batant
bataye
batayes
batch
batchea
batchs
bate
batea
bateas
batelreye
bateme
bates
bateu
bateus
bateuse
bateut
bati
batia
batias
batijhi
batiji
batire
batisse
batli
batou
batous
batowe
batreye
batreyes
batte
battre
batu
bau
baube
bauche
baude
baudelaire
baudet
baudrez
bauduin
bauffe
bauke
baume
bauri
bauthie
bauye
bavard
bavarder
bavire
baw
bawaite
bawe
bawer
bawete
bawyi
baxhaedje
baxhe
baxhete
baxhi
bay
baya
bayaedje
bayamont
baye
bayes
bayi
baza
bazin
baʀ
bd
be
bea
beaco
beas
beate
beau
beaucarne
beaucoup
beaux
beazebe
beazet
bebele
bebert
bec
becker
bede
bedire
bediver
bedje
bedjes
bedot
bedots
bedreye
been
befrwe
begnon
beguene
beguenes
beguia
begyi
bel
belair
belaire
belang
beldje
beldjicisses
beldjike
bele
beles
belfleur
belfontinne
belge
belges
belgica
belgie
belgique
belgium
belgo
belgra
belle
belleflamme
belles
belmint
belotmint
beloyance
belva
ben
bene
beneye
beni
benjamin
benoet
benoi
benoit
bentz
ber
bera
berbere
berberes
berbis
berdela
berdelaedje
berdelaedjes
berdele
berdeler
berdji
berdouxha
berdouye
berdouyes
berger
berikes
berlafe
berlin
berlinne
berlinnes
berlo
berloke
berlondji
berloufer
bernard
bernus
bero
bert
bertrand
berwete
berweter
berwetes
bes
betch
betche
betchete
betchetes
betcheye
betchfessi
betchi
betchou
betchs
betchta
betchter
betchteu
betleyem
beton
betra
beu
beur
beure
beurre
beut
bevou
beye
beyes
beyo
bezaece
beze
bezogne
bho
bi
bia
biarin
bias
bibe
bibioteke
bibioteki
biciclete
bidon
bidons
bie
biedje
biedjreye
bieme
bien
biento
bier
bierdji
biergi
bierleu
bierlo
bierna
biesmint
biess
biesse
biesses
biestreye
biestreyes
bietlete
bietme
bietrand
bietris
big
biga
bihin
bijhe
bijhrece
bik
bike
bikebok
bikets
bildigne
bile
bille
bily
bin
bina
biname
binauje
binawureus
bince
binde
bindes
bine
binete
binne
bins
bio
biokes
bion
bire
bires
biribi
bis
biscu
bise
bisteu
bistocaedje
bistoke
bistoker
bistokes
bit
bite
biter
bits
bitude
bive
bixhe
bixhes
bixhrou
biyaire
biye
biyet
biyets
biyo
biyobibiografike
biyografeye
biyoke
biyokes
biyoki
biyolodjeye
biyolodjike
biyovaryiste
biza
bizaedje
bize
bizer
bizete
bizetes
bja
bjɔ
bjɛ
bla
black
bladje
bladjot
blague
blame
blames
blan
blanc
blanca
blanche
blancs
blanjean
blanke
blankes
blanki
blantche
blaw
blawete
blawte
blawter
ble
blefer
blegne
blegneye
blene
blesse
blesser
blessi
blete
bleti
bleu
bleus
bleuse
bleuwe
bleuwi
bli
blo
bloc
blok
blokea
bloker
bloks
blond
blonde
blou
blouke
blouze
blu
blues
blumint
bly
blø
blɔ
blɛ
bn
bo
bob
bobene
bobone
boca
boccoli
boche
boches
bocre
bocse
bodart
bode
bodene
bodet
bodja
bodjaedje
bodje
bodjes
bodji
bodson
body
boe
boere
boerla
boerlaedje
boerlant
boerle
boerler
boesse
boesses
boet
boevant
boeve
boeveu
boeveut
boevnut
boevou
bohe
boi
boigne
boignes
boird
boirds
boire
boirgnasse
boiron
bois
boitte
bok
boke
boket
bokets
bokion
bokions
boks
bol
bola
bolant
bolante
bole
boledji
boledjreye
boles
bolet
bolete
boletes
bolets
boletus
boleye
boli
boliveye
boloe
bomba
bombe
bombes
bon
bonapa
bond
bondiu
bondjou
bone
boneu
bonheur
boni
bonito
bonjou
bonmartchi
bonn
bonne
bons
bonswer
bonte
bontins
boque
boquet
boquets
bord
bordas
bordjoes
bordon
bore
borer
borgogne
borguignons
borguimwaisse
borin
borinaedje
bork
bos
boschet
boscheter
boskiyon
bosly
bosneye
bosret
boss
bossart
bosse
bossene
bosses
bossou
bossu
bot
bota
botanike
botaye
botayes
botchi
botchreye
bote
boteas
boteie
boter
botes
boteye
botike
botikea
botikes
botiki
botinne
botique
botnire
botnires
boton
botons
botrou
botte
bou
bouboune
boubounes
bouc
bouche
boucher
bouchi
bouchon
bouchons
bouda
boude
boudin
boudje
boudji
bouf
boufiou
bougmesse
bouhe
bouhi
bouillon
bouke
bouket
boul
boula
boulard
boule
bouli
boulome
boulot
boulter
boultreye
boum
bouma
boun
bouname
boune
bounes
bounet
bounete
bouneu
bouneur
bouneurs
bouni
bounmint
bounru
bouque
bouquet
bour
bourder
bourdeu
bourdon
bourdons
boure
bourea
bourgmestre
bourgogne
bourguignon
bouria
bourike
bouriket
bourique
bouroundi
bourse
boursegne
boussart
boussu
bout
bouta
boutaedje
boutaedjes
boutans
boutant
boutche
boutchi
boutchon
boute
bouter
bouteu
bouteus
bouteuse
bouti
boutier
boutique
boutnut
bouton
boutre
bouwe
bouwer
bouxhaedje
bouxhant
bouxhe
bouxhi
bouxhnisse
bouxhon
bouxhons
bouxhonveye
bouye
bouyes
bouyete
bouyon
bouyote
bouyotes
bouyter
bovegne
boverie
bovesse
bovgni
bovis
bovreye
bovrin
bovrins
bovy
boxing
boxus
boy
boye
boyea
boyeas
br
bra
brabanc
brabant
brabants
brackman
bracnaedje
bracni
braezi
braezilyin
braga
bragard
brahy
brai
braibanc
braibant
braijhes
braijhisse
braire
brait
brak
bramin
bramint
brammin
bran
branche
branchu
brani
branmint
brantche
brantches
bras
brassens
brasseur
brassica
bratchi
brave
bravo
brayete
bre
brel
brele
breles
brener
bres
bressaedje
bresse
bressene
bresses
bresseu
bresseye
bressi
bressou
brete
breu
breune
breya
breyant
breyeut
breyi
bri
brialmont
bribe
briber
bribeu
bribeus
bricole
bricoler
bride
brider
briga
brigand
brigitte
brijhe
brijhi
brike
briker
brikes
briket
brimba
brin
brinne
bris
brisher
brisho
britanike
brixhe
bro
brocale
brocales
brode
brogne
brogni
broke
brokes
brokete
bron
brontches
brontchite
bronze
brosse
broste
brostion
brotcha
brotche
brotchet
brotchi
brou
brouhene
brouheur
brouhiner
brouhire
broushe
brouwe
brouwet
brouwire
brouwires
brouxhire
brouxhirmint
brouxhu
brouya
brouyant
brouye
brouyi
brouyon
broxhu
broye
broyi
bru
brudje
brudjlete
bruit
brumioul
brun
brune
bruneau
brunes
bruni
bruno
bruns
brusse
brussele
brusselwe
brut
brute
bruts
brutyi
bruwe
bruxelles
bsllw
bslw
bu
buftek
buho
buk
buke
bukens
buker
bul
bulga
bulletin
bulte
bultin
burau
bure
bureau
buro
buros
burtaegne
burtale
burton
bury
bus
bush
busse
busson
bussons
but
bute
buze
buzea
buzes
buzete
buʀ
bwa
bwagne
bwe
bwejhe
bwejhli
bwesson
bwin
bwo
bwɛ
bwɛʀ
by
byin
byʀ
bø
bœuf
bɔ
bɔt
bɛ
bɛl
bɛt
bɛʀ
bʀa
bʀi
bʀu
bʀy
bʀɔ
bʀɛ
c
ca
caban
cabane
cabare
cabaret
cabas
cabasse
cabasson
cabay
cabe
caberdouxhe
caberdouxhi
cabinet
cabole
cabouxhi
cabouyi
cabu
cabus
cacafougna
cacame
cacaye
cacayes
cache
cachette
cacheu
cachi
caclindje
caclindjes
cada
cadasse
cadau
cadeau
cadet
cadi
cadje
cado
caedje
caegn
caetche
caetches
caf
cafa
cafe
cafeu
cafougni
cafroyi
caftire
cage
cahiers
cahote
cahoute
cahoutes
cai
caime
caire
caisse
caisson
caizer
cal
calande
calcaedje
calcaedjes
calciom
cale
caler
calfeye
calfurti
calife
californeye
caligrafeye
calin
calindri
calinreye
calistinne
calixte
calke
callaert
calme
calmer
calote
calozet
calsteren
cam
cama
camaera
camara
camarade
camberlin
cambresier
cambron
cambuze
came
camera
camille
camion
camionete
camions
camisole
camizole
camoussa
camp
campagne
campagnes
campigne
camps
campus
can
cana
canada
canadas
canal
canape
canareyes
canari
canayes
cancer
cand
cande
candidate
candj
candja
candjaedje
candjant
candje
candji
candjive
candjlete
candjmint
candjmints
candjnut
cando
cane
cani
canicule
canifechtone
canique
canis
canistea
canle
canler
canlete
canon
canons
canote
cant
cantea
canton
cantons
canvolant
cap
capa
capacite
capita
capitaine
capitalisse
capon
capot
capote
capougni
captinne
capuce
capucete
car
carabosse
caraco
caracole
caracoles
caracte
caractere
caracteres
carape
carapmint
carayibes
carbone
carbonike
carcasse
carcul
carculaedje
carcule
carculer
cardina
care
caresse
cargnon
cariole
carioteu
cariyon
carlier
carlo
carmanne
carnaval
carnoy
carolo
carote
caroter
carotes
carougne
carpentier
carpete
carre
cart
carte
cartier
carton
carwaiti
cas
casaque
casba
cascagni
case
casque
casrole
casse
cassene
casser
cassete
cassetes
casta
castafiore
castile
castinne
castinnixheuse
castiyan
castro
cat
cata
catalan
catalogne
catche
catches
catchet
catchete
catchetmint
catchets
catcheye
catchi
cate
catedra
categoreye
categoreyes
cathre
cati
catoize
catoizinme
catolike
catolikes
catou
catourner
catre
catrene
catruceme
catrucime
caurs
cause
causer
causes
cautes
cauve
cavale
cavales
cavaye
cavayi
cave
cavli
cavo
caw
cawe
cawes
cawet
cawete
cawetes
cawi
cawolin
cawou
cawoutchou
cawyi
cayaus
caye
cayet
cayets
cayi
cayin
cayo
cayron
cayute
cazablanca
cazake
cazer
cazi
cbe
cc
cd
cdh
cdja
cdu
cdujhance
cdure
ce
cede
cedile
ceke
cekes
cela
cele
celeri
celes
celle
celles
celtike
celui
celule
celules
cemint
cene
cenes
cens
censes
cent
central
centre
cep
cepe
cer
cercle
cere
ceremoneye
cerexhe
cerfontaine
cerfontinne
cerijhi
certin
cervea
ces
cesse
cesser
cesses
cet
cete
cetmint
cette
ceu
ceur
ceux
ceye
ceza
cf
cfesse
cfeye
ch
cha
chabots
chacheu
chacun
chadwe
chagrin
chai
chaire
chaise
chake
chal
chale
chaleroe
chales
chambre
chame
chamo
chamos
champ
champe
champenois
champignons
champs
chamter
chance
chanche
chandi
change
changer
chanson
chansons
chant
chantal
chante
chanter
chants
chape
chapeau
chapelier
chapelle
chaper
chaque
charge
charleroi
charles
charlier
charly
charogne
chaskonk
chasse
chastelet
chat
chau
chaud
chauffer
chaumont
chausse
chauvaux
chave
che
chedda
chef
chement
chemin
chenne
chent
cher
chercher
cherton
ches
chet
cheu
cheur
cheval
chevri
chez
chi
chie
chien
chife
chifes
chimai
chin
china
chinde
chine
chiner
chinon
chins
chinwe
chinwesse
chipe
chipoter
chir
chirer
chisse
chleu
chne
cho
chocolat
choe
choi
choix
chon
chonance
chone
choneu
chons
chonwe
chose
choses
chou
chouette
choute
chouter
chove
choz
chre
chris
christ
christian
christiane
christine
christophe
chu
churchill
chute
chwa
chwe
chwine
ci
cia
cial
ciale
ciales
cialisse
cias
ciclisse
cidde
cide
cidwel
cie
ciel
cier
cierfouy
ciergnon
ciers
ciete
ciga
cigare
cigarete
cigaretes
cila
cile
cilinde
cima
cimbe
cime
cimint
cimintire
cin
cina
cinde
cindes
cindre
cindri
cine
cinema
ciney
cingue
cingues
cink
cinq
cinquante
cins
cinse
cinses
cinsi
cinslote
cinsresse
cint
cinte
cinteme
cintemes
cintimete
cintimetes
cintinme
cintinne
cintinnes
cintra
cints
cio
cion
ciona
cionalisse
cions
cir
circu
circulaire
cire
cirilike
cirou
ciryin
cis
ciss
cisse
cisses
cist
ciste
cit
citadele
cite
citer
citron
citweyins
civil
civile
civiliza
civils
civique
civire
ciwagne
cixhanmint
cixhant
cize
cizea
cizete
cizetes
ck
cl
cla
clabot
cladjot
cladjots
clair
claire
clairisse
clairmint
clairmont
clairs
clairte
clame
clap
clapant
clapante
clapants
clape
claper
claque
clara
claskin
clasmint
classe
classes
classic
classicmint
classike
classikes
clatche
clatcheu
clatchi
clater
claude
claudine
clavea
clavir
clawe
clawer
clawson
clawsoni
clawti
cle
clematis
cler
cli
clicote
clicotes
client
cligne
clignete
climat
clin
clinci
clinike
clintcha
clintche
clintcheye
clintchi
clipe
clipotia
clipse
clitche
clitchet
clitchete
clitchi
clo
cloe
cloke
clokes
cloki
clon
clorofile
clostridium
clotche
clotches
clotchete
clotchi
clou
clouk
cloutche
cloyaedje
cloye
cloyou
cloyowe
cloyoz
clre
club
clubs
cm
cmande
cmander
cmandeu
cmere
cmeres
cmina
cminc
cmince
cminci
cmincive
cmint
cmon
cmons
cmwa
cni
cnidi
cnoxhance
cnoxhances
cnoxhe
cnoxheu
cnoxheut
cnoxhou
cnoxhous
cnoxhowe
cnoxhowes
cnoxhoz
cnt
co
cob
cobal
cobate
cobe
coca
coccidio
coche
coches
cochon
cocker
cocmwa
coco
cocogne
cocognes
cocote
coda
code
codja
codjowa
codjowaedje
codjowaedjes
codjowant
codjowas
codjowe
codjower
codjownut
codou
codowes
codu
codujhance
codure
coe
coete
coeu
coeur
coeyiste
cofe
cofre
cofrereye
cogne
cogner
cognes
cohagne
cohagni
cohe
coi
coibjhi
coide
coides
coignou
coin
coine
coines
coinrec
coinrece
coinreces
coir
coirba
coirbeye
coirdea
coirna
coirnaye
coirne
coirner
coirneu
coirni
coirnou
coirps
coirs
coirzenoxh
coisse
coisses
coistrece
coistreces
coixhe
coixheure
coixheures
coixhi
cok
cokea
cokeas
coks
col
cola
colas
cole
coleccion
coledja
coledje
coler
colera
colere
colete
coleu
coleur
coleurs
coleye
colibacilo
colido
colignon
colikes
colin
colle
collection
collette
collin
colline
colneye
colneyes
colnijhaedje
colnijhi
coloe
cologne
colombeye
colombin
colon
colone
colones
colonia
colons
colonval
colou
colson
colte
com
coma
comachi
comande
comaxhi
combat
combe
combien
combin
comblin
come
comedeye
comedeyes
comedyins
comene
comenes
comercia
comere
comeres
comiece
comierc
comifa
comike
comina
cominc
comince
cominch
cominchi
cominci
comint
cominta
comis
comissai
comissaire
comission
comissions
comite
comiti
comm
comme
comment
commission
commons
communal
commune
communes
communis
como
comon
compagnie
compe
compete
compinse
comple
complet
complete
complike
complinte
compo
compote
comprind
comprinde
comprindeut
comprindez
comprinds
comprins
compris
compte
compter
comptes
compteu
comte
comuna
comune
comunion
comunisse
comunisses
comuno
con
conc
concert
concerts
concile
concou
concours
conda
condamne
condicion
condicioneu
condicions
condji
condroz
condruze
conduire
cone
confe
conferince
conferinces
confiteure
confonde
confre
conge
congo
congole
congre
conichance
conings
conk
conks
connai
connu
conoxhance
conoxhe
conoxhou
cons
consacre
conse
consecant
consecwince
conseil
consey
conseye
conseyi
conseys
consi
conside
consire
constant
constitucion
constitution
consyi
consyin
consyince
cont
conta
contaedje
contant
conte
contene
content
conter
contes
conteu
conteye
contin
continint
continints
continne
continou
continouwe
continouwer
continowe
contins
contint
continte
continter
contintmint
contnou
contra
contrai
contraire
contrat
contre
contribucions
contro
controle
controler
contrumasse
contwer
conu
conv
conve
convna
convoye
convwe
coo
cool
cools
cop
copale
cope
copene
copere
copes
copete
copeye
copine
copiner
copinreye
copinreyes
copiutre
copiutrece
copiutreces
copixhe
copixhes
cople
coplemint
coplemints
copler
coplet
coplets
copleu
copleus
coppe
coppens
copu
copurade
copuvite
copyi
coq
cor
cora
coradje
coraedje
coraedjeus
coramint
coranmint
corans
corant
corante
corantes
corants
corbion
corbiyon
corde
core
coremans
corespond
corespondant
coreu
coreus
coreut
coreye
cori
coriant
coridjaedje
coridji
corin
corinte
corinthe
corne
coron
corona
corone
corons
corote
corou
coroye
corps
corte
corti
cortis
corvus
corwaitaedje
corwaiteu
corwaiti
corwe
cos
coschire
coschirer
coshet
coshets
cosse
cosseme
cossemer
cossina
cossoune
cossounes
costa
coste
coster
costeure
costeures
costindje
costindjes
costire
costri
costume
cot
cotaeyi
cotape
cotche
cotchessi
cotcorico
cote
cotes
cotjhea
cotli
coton
cotou
cotre
cou
coube
couche
coucher
coucou
coude
cougne
cougnet
cougneye
cougni
cougnou
cougnous
coujhene
coujhna
coujhne
coujhner
coujhni
coujhnire
coula
coule
couler
couleu
coulmele
coulot
coulote
coulotes
coulots
coume
coune
coup
coupa
coupe
couper
couperou
couple
coups
cour
courant
courbe
courbet
courcele
coure
coureu
couri
courir
cournut
courrier
cours
course
court
courtecuisse
courti
courtinnmint
courtois
courts
couru
cous
couscousse
cousin
cousse
cousses
cout
coutchi
coutcouloudjou
coute
coutea
couteas
coutia
couture
couve
couvie
couvrir
couye
couyet
couyi
couyon
couyona
couyoner
cova
covaedje
cove
cover
covid
covie
covieke
coviete
covietes
covint
covisse
covite
covra
covresse
covri
covrou
covtoe
cowe
coxhe
coxhea
coxhes
coxhete
coxhetes
coxhlaedje
coye
coyene
coyes
coyi
coyire
coyon
coz
cpagneye
cpagnons
cque
cra
craeye
craeyes
crahay
crahea
craheas
crake
craker
crakes
crama
crampe
crampes
cran
cranasse
crankyi
crantche
crapa
crape
crapes
crapo
crapule
cras
crasse
crasset
crawate
crawe
crawieus
crawieuse
crawyi
cre
creative
creche
credit
crene
crepe
cresse
cresses
crestea
cresteas
creu
creus
creuser
creux
creva
creve
crever
creveure
crexhaedje
crexhance
crexhant
crexhe
crexhince
crexhinne
crexhiou
crexhnut
crexhou
creya
creyance
creyances
creyant
creyants
creye
creyeut
creyeye
creyou
creyoz
cri
crie
crier
crijhe
crikion
crikions
crime
crin
crinme
crinnwik
cripet
crire
cris
criss
crisse
crisso
cristofe
crit
critike
critiker
critique
crivains
criwe
criya
criyaedje
criyant
criye
criyi
cro
croche
crodjambot
croe
croejha
croejhete
croejhetes
croejhi
croejhla
croejhle
croere
croereut
croes
croet
croeynut
croire
croissance
croix
croke
croker
crole
croles
crombe
crombyi
crompi
crompire
crompires
cron
cronike
cronique
croniviru
cronolodjeye
cronolodjicmint
cronolodjike
cronzoxh
cronzoxhs
cropante
crope
cropecinde
cropecindes
cropete
cropi
croque
crosse
crosses
crostillons
crotche
crotchet
crote
crotes
crou
croufier
croupe
croupet
crouwa
crouweur
crowaceye
crowate
crowates
crowe
croxhe
croxhi
croye
croyon
croyons
cru
crucifyi
crupet
crusta
crustin
crustinne
crustinnes
crustinnisse
crustins
crwa
crwe
cs
csion
cta
ctaeyi
ctape
ctaper
ctbg
ctchessi
cte
cter
cteu
ctoide
cu
cuba
cube
cugnon
cujhaedje
cul
cule
culot
culote
culte
culteure
culteures
cultive
culture
culturel
culturele
cumulet
cundo
cupe
cur
cure
curieu
curieus
curieux
curite
custene
cutsem
cuve
cuze
cuzene
cw
cwa
cwacwa
cwade
cwadran
cwan
cwand
cwane
cwanes
cwanlminme
cwanses
cwantes
cwantite
cwantrinme
cwar
cwarante
cwarantinne
cwareme
cwarmea
cwarne
cwarpece
cwate
cwatre
cwatrinme
cwatrinne
cwatru
cwaye
cwe
cwek
cweki
cweme
cweraedje
cwerant
cwereu
cweri
cwete
cwi
cwin
cwir
cwire
cwirt
cwita
cwite
cwiter
cyi
cœu
cœur
d
da
dabo
dacoird
dadaye
dadite
daditte
daedje
daegn
daegne
daegnrece
daegntoele
daenma
daenwe
dag
daguet
dai
dain
daine
daire
dakar
dal
dalaedje
dale
daler
dalmate
dam
damadje
damadjes
damaedje
damasse
dambly
dame
damer
dames
damjhele
damme
dan
dance
dandjereu
dandji
dandjreu
dandjreus
dangi
danhaive
daniel
danielle
dank
dans
dansant
danse
danser
danses
danseu
danseus
danseuse
dant
danube
dar
dard
dardenne
das
dascotte
dasnoy
dat
data
dataedje
date
dater
dates
dau
daume
davance
davaux
david
day
daye
dayeur
daza
dbout
dbouts
dbro
dcla
dcweli
dd
ddimwin
ddins
ddja
ddjuner
de
dea
debaty
dece
dechamps
decida
decidaedje
decide
decider
decimbe
decin
declara
declercq
decora
decret
dede
dedefe
dedja
dedoyard
dedoyart
defagne
defini
definixha
definixhant
definixhants
defrecheux
degne
degrele
degrelle
dehez
dehin
deie
dejardin
del
delachaux
delaite
delbouille
delire
delle
delporte
deltenre
delvaux
delvigne
demain
demande
demarche
demi
demnate
democraceye
democrate
democratike
demographie
den
dene
denis
denise
dents
denys
depot
depre
depuis
depute
der
derbu
deri
derik
derit
derive
dernie
dernier
dero
derrie
derycke
des
descartes
desmet
desse
desses
dessinaedje
dessinaedjes
dessine
dessiner
dessineu
dessus
destine
destre
det
detail
dethier
dethy
dets
deu
deugt
deujhinme
deur
deure
deures
deurs
deus
deut
deux
deuxie
devant
devenir
devoir
dewandelaer
dewe
dewelle
dewez
deye
deyesse
deyi
deynut
deyo
dezert
dfa
dfou
dfu
dge
dgins
dgre
dhote
di
dia
diable
diaedje
dial
diale
dialectal
dialectale
dialectales
dialecte
dialectes
dialectologie
diales
dianthus
diba
dibout
dibro
dica
diccionairaedje
diccionaire
diccionaires
diccionairi
dicipes
dicla
dictateur
dicte
dictionnaire
dicweli
did
didier
didins
didjuner
die
diele
dier
dierin
dierinne
dierinnes
dierinnmint
dierins
diermite
dies
dieu
dieudonne
diew
diewa
difa
dife
diferin
diferince
diferinces
diferinne
diferinnes
diferinnmint
diferins
diffe
difficile
difficulte
difiner
difou
diftongaedje
difu
digest
dignite
digre
digue
dih
diha
dihale
dihaler
dihe
dihessi
dihez
dihoter
dije
dijeu
dijh
dijha
dijhaedje
dijhans
dijhant
dijhe
dijhea
dijheu
dijheut
dijhinme
dijhinne
dijhinnes
dijhne
dijhnut
dijhoz
dijoz
dik
dile
dilong
dilongue
diloujhe
diloujhi
dim
dimanant
dimanants
dimanche
dimanda
dimande
dimander
dimandeu
dimandez
dimandrece
dimane
dimani
dime
dimegne
dimegnes
dimeu
dimeure
dimey
dimeye
dimin
dimint
dimitri
dimora
dimorance
dimorant
dimorants
dimore
dimorer
dimornut
dimwin
din
dina
dinaedje
dinant
dindje
dine
diner
dinez
dini
dinltins
dinne
dinner
dinnut
dinozo
dinre
dinreut
dins
dinsi
dinsite
dint
dinte
dintele
dints
dion
dipa
dipind
dipindeut
diplome
dipus
dir
dire
direccion
directeur
direction
directumint
direk
direu
direus
direut
diri
diront
dirot
diroz
dis
disba
disbiyi
disbro
disburtaker
disca
discalotaedje
discandje
discandji
discatchi
discatibule
discha
dischaver
dischind
dischindant
dischindants
dischinde
dischindou
dischinte
dischirer
discipes
disclo
disco
disconsyi
disconte
discoraedji
discours
discouvie
discovere
discoviete
discovri
discovrou
discramiaedje
discramyi
discrexhe
discri
discrijhaedje
discrire
discwa
disdire
disdjoke
disdu
disdut
disease
disfa
disfac
disface
disfacer
disfaflotaedje
disfaflote
disfe
disfijhaedje
disfind
disfinda
disfinde
disfindeu
disfindeus
disfindou
disfindous
disfindowe
disfinse
disfo
disfoirci
disfondowe
disfondowes
disfouyi
disfwait
disgoste
disgueuyi
disk
diski
dislaxhaedje
dislaxheye
dislaxhi
dislaxhiveus
dislodji
disloyi
dismacraler
dismantchaedje
dismantche
dismantchi
dismaryi
disme
dismetant
dismete
disminti
dismonte
dismoussi
disnazia
disnorte
disnuki
dispa
dispaitchi
dispare
disparexhaedje
disparexhe
disparexhou
dispasse
dispe
dispetroner
dispie
dispierte
dispierter
dispiete
dispinde
dispindeu
dispinse
dispinser
dispite
dispiter
displaystyle
displouctaedje
disploume
disploumer
disployi
dispo
dispou
dispouye
dispouyes
dispouyi
dispoy
dispu
dispus
dispute
disputer
disqu
disrashonnaedje
disrecloymint
disri
disrindje
disrindji
disro
disroye
diss
disse
disseu
disseule
dissidjmint
disso
dissu
dissur
dissus
dist
distaetchi
distance
distcha
distcherdji
distcheyaedje
distcheyaedjes
diste
distelle
disti
distinde
distindou
distinkyi
distou
distri
distrik
distriks
distru
distrujhaedje
distrure
disvaler
disvo
disvoyi
diswa
diswaibyi
diswalpaedje
diswalpe
diswalper
dit
dite
diterminant
dition
ditrop
dits
diu
div
divan
divancete
divancetire
divanceye
divant
divanteure
divantrin
divantrinne
dive
diveu
diveur
diveut
divie
divin
divinltins
divins
divint
divintrin
divintrinne
divintrinnes
divintrinnmint
divise
division
divize
divizer
divizion
divna
divnance
divnant
divne
divneut
divni
divnou
divnous
divnowe
divnu
divo
divoice
divoirc
divoirci
divre
divreut
divuzle
divwer
dix
diyacritike
diyacritikes
diyagnostik
diyalecta
diyalectolodjeye
diyalectolodjike
diyalectolodjikes
diyalectolodjisses
diyaleke
diyalekes
diyamant
diyamete
diynut
diyoceze
dizeu
dizeur
dizeutrin
dizeutrinne
dizi
dizo
dizon
dizos
dizotrin
dizotrinne
diœu
dj
dja
djadida
djaedje
djaena
djaene
djaenes
djaenisse
djaeye
djaeyes
djaeyi
djaive
djaiy
djale
djaler
djalhe
djalofrene
djalofrenes
djalot
djalots
djalous
djalozreye
djama
djamas
djambe
djambes
djambon
djambons
djambot
djan
djane
djanmiou
djannesse
djans
djant
djante
djanti
djanvi
djapon
djapone
djasse
djate
djave
djavea
djawe
djazira
djc
dje
djean
djedene
djel
djelaba
djele
djemi
djena
djene
djenera
djeneze
djenva
djenveye
djenvire
djer
djera
djere
djeret
djerlaxhe
djermale
djermanike
djerme
djermer
djermon
djermwin
djeron
djerpene
djeruzalem
djeryi
djes
djesse
djesses
djet
djete
djeter
djetes
djeton
djetrou
djeu
djeure
djeus
djeve
djeye
djeyografeye
djeyograficmint
djeyografike
djeyolodjeye
djeyolodjikes
djeyometreye
djeyometrike
djezi
djezu
djezus
djezwites
djha
djhaedje
djhan
djhans
djhant
djhe
djheu
djheut
djhi
djhoz
dji
djibi
djiblou
djibraltar
djiffs
djigot
djigue
djihan
djihe
djihene
djilet
djili
djimbe
djimepe
djimlastike
djin
djina
djinape
djinda
djine
djinefe
djiner
djineze
djiniesse
djinixhe
djinne
djinner
djino
djinre
djinres
djins
djint
djinteye
djinteymint
djinti
djintis
djintiyesse
djints
djiper
djira
djistou
djiva
djive
djivet
djivion
djivions
djivisse
djivronde
djmele
djmepe
djmint
djnaedje
djnape
djner
djneze
djniesse
djniesses
djno
djnos
djo
djob
djodogne
djok
djoke
djoker
djoleye
djoli
djon
djonc
djond
djondant
djondants
djonde
djondou
djondrece
djondreces
djondu
djone
djonkea
djonne
djonnea
djonneas
djonnes
djonnesse
djonnete
djonnetes
djonnlaedje
djonteure
djonteures
djose
djoseuf
djoste
djot
djote
djotes
djou
djoupeye
djourdu
djourma
djourna
djourne
djous
djouwa
djouwaedje
djouwant
djouwe
djouwer
djouwet
djouwets
djouweu
djouweus
djouweuse
djouwi
djouwnut
djouxhire
djowe
djower
djoye
djoyes
djoyeu
djoyeus
djoyeuse
djoyeuzmint
djoze
djre
djrec
djrece
djri
dju
djubet
djuda
djudayisse
djude
djudi
djudje
djudjes
djudji
djudjmint
djudla
djule
djulete
djulia
djulyin
djumet
djumont
djun
djune
djuner
djupiter
djupsyins
djura
djuraedje
djure
djurer
djureus
djuri
djus
djusk
djusqu
djusse
djusses
djustice
djustumint
djuzrin
djuzrinne
djwe
djwif
djwifs
djwive
djɛ
dla
dle
dler
dloujhi
dm
dmanants
dmanda
dmandaedje
dmande
dmander
dmandeu
dmane
dmani
dme
dmefiyi
dmeure
dmey
dmeye
dmf
dmint
dmora
dmorance
dmorances
dmorant
dmorants
dmore
dmorer
dmorez
dmornut
dmorre
dmwin
dna
dnant
dne
dner
dni
dnut
do
dobe
dobes
doble
dobler
dobleure
dochriye
doco
docquier
docsal
docteu
docteur
docteurs
doctoresse
documint
documinta
documints
dodet
dodobe
doe
does
doet
doets
doevnut
dofe
dogue
dohet
doigt
doime
doirmaedje
doirmant
doirmante
doirme
doirmeut
doirmi
doirmou
doirmoz
doit
dol
dola
doleur
domestica
domesticus
domine
dominique
dominne
dominnes
don
dona
donald
donc
donco
done
doner
doneu
donnay
donne
donner
dont
doppagne
dore
dorene
dormir
dos
dosimont
dosse
dossi
dossire
dostoyevskiy
dot
dotance
dote
doter
dots
dou
douard
doube
double
douc
douccala
douce
doudouye
doul
doumiesse
doutrepont
douve
douwa
doux
douze
dowe
down
dowo
doya
doye
doze
dozinme
dozinne
dpoy
dpus
dr
dra
drache
dragon
dramatike
dramatikes
drame
drap
drapea
drapeas
drapeau
draps
dre
dream
drec
drece
drene
drener
dresse
dresseye
dressi
dreu
dreut
dreute
dreye
dri
dricot
drigle
drindje
dringuele
dro
droci
droet
droete
droets
drogue
droit
droite
droixhe
drola
droldimint
drole
droles
dron
drone
drou
drouke
droukes
drouve
drovaedje
drovant
drove
drovi
drovou
drovowe
drovoz
drovu
dru
drwe
ds
dscha
dschinde
dso
dsu
dsus
dtrop
dtw
du
dubois
duc
ducarme
duchatto
duche
duchesne
duculot
dufrane
duhem
dujha
dujhance
dujhances
duk
duks
dul
dule
dume
dumont
dunker
duper
dupuis
dur
dura
durant
durbuy
dure
durer
durnale
dus
dusqu
dutcheye
dutroux
duv
duval
duvant
duve
duvins
duvivier
duysenx
duysinx
duze
dv
dva
dvancete
dvancetes
dvans
dvant
dvantrin
dvd
dve
dveres
dveu
dveur
dveut
dvie
dvier
dvin
dvinltins
dvins
dvize
dvizer
dvizes
dvou
dvoz
dvre
dvreut
dvu
dvwer
dvwers
dwa
dwaʀ
dwe
dwecea
dwin
dwɛ
dy
dyi
dys
dze
dzeu
dzeur
dzeus
dzeutrin
dzi
dzo
dzø
dø
dœ
dœs
dɔ
dɛ
dɛl
dɛn
dɛs
dɛt
dɛʀ
dʀa
dʀi
dʀɔ
dʀɛ
e
ea
eau
eaux
ebagance
ebagants
ebague
ebaguer
ebe
eberweter
eberwetez
ebli
ebola
ebreu
eburtake
eburtaker
ec
eca
ecdu
ech
echternak
eciclopedeye
eciclopedikes
ecinse
ecinte
eclipe
eclo
ecloyaedje
ecne
eco
ecolodjeye
ecolodjisse
economeye
economike
economikes
ecoraedji
ecra
ecramiaedje
ecramyi
ecta
ecwa
ecwateur
ed
eda
eddy
eden
edeure
edicion
edicions
edite
edith
edja
edjalaedje
edjale
edjaler
edjaloe
edjermone
edji
edjipe
edmond
edoime
edoirmi
edoirmou
edon
edou
edouard
edroet
edujhoe
edurer
edvincion
edvinte
edvinter
edvinteu
edward
een
efagni
efance
efant
efants
efel
efet
efeze
effet
efirdji
efonce
eforner
efoufyi
efouwaedje
efouwe
eg
egadje
egadji
eglijhe
eglijhes
eglome
egloumea
ego
egolene
egoler
egolina
egoliner
egoloe
egre
eguegne
egzadecima
egzamin
egzercice
egzimpe
egzimpes
egzimplaires
egziste
egzister
egzo
eh
eha
ehalante
ehale
ehaler
ehalmint
ei
eie
ein
ekipaedje
ekipaedjes
ekipe
ekipes
el
elaidi
elastike
elaxheye
elaxhi
ele
eleccion
eleccions
electricite
electricyin
electrike
electrikes
electromagnetikes
elemint
elemints
eles
eleve
elever
eli
elicoptere
elie
elinne
elipe
elise
ell
ella
elle
elles
elodji
els
elwe
elze
elzi
em
ema
emacralaedje
emacrale
emacraler
emantcha
emantchaedje
emantche
emantcheure
emantcheures
emantchi
emayi
embanner
embarras
eme
emey
emi
emilaedje
emile
emiles
emilreye
eminne
emission
emissions
emma
emmanuel
emme
emoenne
emoenner
emon
empe
emtene
en
enaiwaedje
enawaire
encore
encyclope
end
endalaedje
endale
endaler
ende
endon
endroit
ene
enerdjeye
enevie
enfant
enfants
enfin
english
engroe
enima
enindji
enlever
enn
enne
eno
enocin
enondaedje
enonde
enonder
enque
ens
ensemble
ente
entendre
entre
entrer
entrin
enu
enute
envd
envers
envie
environs
envoyer
enziva
eo
epa
epatle
epestifere
epi
epitete
epla
eplaec
eplaida
eplaidaedje
eplaidaedjes
eplaide
eplaideu
eplaideye
eplaideyes
eplaidi
eplaidive
eplaidreyes
eplocta
eploctaedje
eplocte
eplocter
eployaedje
eployant
eploye
eployeye
eployeyes
eployi
eployive
eploynut
epoirte
epoirter
epoke
epope
epou
epronte
epronter
epweznaedje
epweznant
epwezne
epwezner
epwis
er
era
eraire
eraler
ere
eredjistre
eredjistrer
eredjistrumint
eredjistrumints
ereze
eri
eric
eriesses
eriophorum
erire
erirece
erireces
eritaedje
eritance
erite
eriti
erive
ermeton
ermite
ernest
ero
erote
eroyene
erse
eru
eruni
erva
es
esba
escha
eschandi
escho
eschoice
escla
esco
escole
esconte
escourci
escran
escri
escrijheus
escuze
escuzer
eshonna
eshonne
eskelete
esla
esneu
espa
espace
espagne
espagnol
espagnole
espagnols
espaitchance
espaitche
espaitchi
espe
espece
especes
especia
espedicion
esperance
esperanto
espere
esperts
esperyince
espie
esplica
esplicaedje
esplicant
esplike
espliker
esplo
esploreu
espo
espontane
esportigne
espre
esprinde
esprit
esprits
espwer
espwete
ess
essai
essawira
essayer
esse
essegne
essere
essilaedje
essince
esso
essocter
essonle
esst
est
esta
estale
estance
estans
estant
estat
estats
estazunyin
estazunyinne
estazunyins
estcha
estchante
este
esteu
esteus
esteut
estez
esther
esti
estint
esto
estoele
estonyin
estot
estoumak
estouve
estoz
estra
et
eta
etait
etat
etc
etch
etcherpetaedje
ete
eter
etere
eterer
etermint
etermints
eterna
eternite
eterprijhe
eterprijhes
eterprinde
etertini
etienne
etimolodjeye
etimolodjeyes
etimolodjicmint
etimolodjike
etimolodjikes
etind
etinda
etinde
etindeut
etindou
etiopeye
etir
etire
etires
eto
etot
etou
etourpiner
etrernete
etreve
etrindji
etrindjir
etrindjire
etrindjires
etrindjirs
etrinne
etrinner
etrinneu
etrinnmint
etrocla
etroclaedje
etrocle
etrocler
etude
etur
eu
euge
eun
eune
euphorbia
eur
eure
eures
eurit
euro
europaeus
europe
euros
eus
euse
eut
eux
euxhe
euzmint
eva
evandji
evandjili
evayi
eve
eveke
evekes
evetchi
eveye
evgne
evi
evie
evier
evike
evironmint
evnd
evo
evole
evolucion
evont
evoya
evoyaedje
evoye
evoyeu
evoyeye
evoyi
evoyive
evrard
ewaera
ewaerant
ewaere
ewaerer
ewal
ewaldt
ewale
ewaliste
ewalpe
ewalper
ewalpeure
ewalpeures
ewals
ewou
ex
examen
excite
exemple
exhowe
expe
expression
expressions
exte
extre
ey
eye
eyet
eyou
eyu
ez
eze
ezope
f
fa
fabie
fabricant
fabrike
fabriker
fabrique
fabry
fac
face
facebook
fache
facile
facteur
facteurs
faculte
faculteit
fade
faedje
faeroye
fafa
faflotaedje
faflote
faflotes
fagna
fagne
fagnes
fagnrece
fagot
fagots
fai
faible
faim
faimonveye
faire
fais
fait
faite
faitindje
faitindjes
faits
faivie
faizan
fak
fala
falachas
falco
fale
faleu
faleur
faleut
fali
falijhe
falijhes
falijhou
falle
falot
falou
falu
fame
famenne
fames
fameu
fameus
fameuse
fameux
fameuzmint
fami
famile
familes
famille
fan
fane
fans
fant
fants
far
farawon
farce
fare
farene
farenne
faridondon
farine
farjole
farmac
faro
fas
fastrou
fat
fatigue
fau
faucon
fauconnier
faufes
faulx
faure
faureu
faurot
faus
faut
faute
faux
faw
fawene
faws
faxhe
faxhene
faxhenes
faxhes
faxhete
faxhi
fay
faye
fayenes
fayi
fayis
fc
fe
federa
feie
feies
fel
fele
felene
felerijhaedje
felesse
felicyin
feller
felmint
fels
fem
feme
femes
feminisse
femme
femrin
femrinne
femrins
fena
fenaesse
fenaesses
fendre
fene
fener
feneyant
fenicyin
fenominne
fente
fer
ferdinand
fere
ferer
feri
ferire
ferme
fermer
fernand
fernuk
ferou
fes
fesbok
fessaedje
fesse
fesses
festuca
fet
fetchire
fetchires
feu
feume
feumes
feumme
feummes
feus
feve
fever
feves
fevri
few
fexhe
feye
feyes
fez
fg
fgm
fi
fiant
fias
ficcion
fiche
fide
fidel
fideles
fie
fier
fiermint
fiers
fiesse
fiesses
fieste
fiesteye
fiesti
fiestis
fiestixh
fiestixhe
fieu
fifine
fig
figueure
figure
fijha
fijhaedje
fijhans
fijhant
fijhe
fijheu
fijheus
fijheuse
fijheut
fijhoz
fike
fikes
fiki
fil
file
filer
filet
filets
filipe
fille
film
filmaedje
filme
filmer
filolodjeye
filozofe
filozofes
filozofeye
filozofike
fils
fime
fimes
fin
fina
finance
finances
find
finde
findou
fine
fineye
finfe
fini
finie
finiesse
finiesses
finis
finit
finixh
finixha
finixhe
finlande
fins
fint
finte
finwe
fion
fioz
fir
fire
firlotches
firmin
firs
first
firte
fis
fistou
fistous
fit
fitchi
five
fives
fivet
fixe
fiya
fiyate
fiye
fiyi
fize
fizicmint
fizik
fizike
fizikes
fiziks
fiziolodjeye
fje
fjha
fjhaedje
fjhans
fjhant
fjhe
fjheu
fjheus
fjheut
fjhi
fjhoz
fji
fjot
fjɛ
fla
flairant
flairante
flaire
flairer
flamand
flamande
flamands
flame
flamind
flaminde
flaminds
flaminete
flammarion
flanc
flande
flandes
flandre
flani
flate
flater
flates
flauwe
flaxhe
flaxhi
flayea
flayi
fle
flema
fleme
flesch
fletche
fleu
fleur
fleurs
fleuru
fleuve
fli
flipe
flipveye
flitche
flo
floravile
flore
florefe
florene
florent
florete
floreye
flori
floriconte
floricontes
florin
florins
florit
florixh
florixha
florixhe
flormint
flotche
flotches
flotchrec
flotchrece
flote
flots
flou
flouwi
flouxhe
floye
floyon
flu
flupe
flute
fly
flø
flɔ
flɛ
fniesse
fniesses
fo
foclore
foclorike
foclorikes
foclorisse
foe
foete
foi
foice
foices
foidje
foidjes
foin
foir
foiravant
foirci
foirdji
foire
foirt
foirts
fois
foisti
foit
foite
foixhes
fok
folklore
fon
fonccion
fonccionaire
fonce
foncea
foncer
fond
fonda
fondaedje
fonde
fondmint
fondou
fondreye
fondri
fonds
fone
foneticmint
fonetike
fonfonse
foninme
foninmes
fonne
fonnet
fonolodjeye
fonse
fonsene
font
fontaine
fonte
fontinne
fontinnes
for
forbate
forbatou
forbot
forboutaedje
forbouter
force
forcoridjaedje
forcrexhe
fordjeu
fordoirmi
fore
forer
foret
forgeu
forgeur
forir
forire
formagnant
formagnants
formagni
forme
formule
forna
fornaiviaedje
forne
fornea
forneas
forner
forni
fornouri
forom
fors
forso
fort
fortchete
fortune
forveyou
forveyowe
fosfo
fosse
fosses
fot
fotaedje
fotant
fotbal
fotbale
fotbalisse
fotche
fotches
fotchre
fote
foteu
foto
fotografeye
fotografyi
fotos
fotou
fou
fougnant
fougnants
fougni
fouhe
fouiller
fouke
foule
foulon
foume
foumer
foumi
foumire
foumires
four
fouri
fourit
fours
fous
fout
foutant
foute
foutu
fouwa
fouwe
fouwire
fouxhe
fouxhoz
fouya
fouyaedje
fouyas
fouye
fouyes
fouyi
fouyton
foxhale
foyant
foye
foyer
foyes
foyi
foyon
foyou
foyous
fr
fra
frai
fraijhe
fraijhes
fraine
fraire
frais
fraiteure
frake
framba
framriye
franc
franca
francard
france
francesse
francesses
francijha
francijhaedje
francijhas
francijhi
francike
francis
francisco
francken
franco
francoprovinc
francortchamp
francs
frank
franke
frankinet
franquin
frans
frantchi
franwal
franz
frapper
frawe
frawtinaedje
frawtinaedjes
frawtiner
fre
frecanter
free
frenay
freu
freus
freut
frexh
frexha
frexhe
frexheur
frexhi
frexhs
freyeu
freyi
frez
fri
fricasse
friedrich
frigo
frin
frinne
frise
frisse
frisses
fristouye
fritche
fritches
frize
fro
froed
froede
froedeur
froedeure
froeds
froid
from
fromlene
fronci
front
frontie
frontire
frontires
frote
froter
froteu
frou
froumadje
froxhi
froye
froyi
froyon
froz
fru
frumele
frumeles
frumihe
frumijhe
frumint
frumints
frumjhi
fruskin
frut
fruts
fruzi
fruzixh
frwe
fs
ft
fu
fuche
fume
fumi
fumier
fumwe
furet
furle
furler
fusse
fut
futeur
futurrece
fuze
fuzik
fuziyi
fuʀ
fwa
fwace
fwaces
fwai
fwaire
fwais
fwait
fwaite
fwaites
fwaits
fwaiye
fwaiynut
fwart
fwate
fwe
fwebe
fwin
fwɛ
fy
fye
fyi
fœ
fɔ
fɔʀ
fɛ
fɛj
fɛʀ
fʀa
fʀi
fʀy
fʀɔ
fʀɛ
g
ga
gaan
gabriel
gabrielle
gabriyel
gade
gades
gadji
gadot
gadots
gai
gaiy
gaiye
gaiys
gal
galant
galants
galates
gale
galetes
galice
galicyin
galile
gallimard
galo
galop
galopea
gam
gama
game
gamene
gamenes
gamin
gamins
gand
gangne
gangni
gant
garc
garde
garder
gare
garene
gargasson
gargolete
garguete
garnir
gaspar
gaspard
gasse
gaston
gat
gate
gates
gatte
gauche
gauditiaubois
gaulle
gave
gaviot
gaviote
gaya
gaye
gayel
gayele
gayelike
gayels
gayet
gayete
gayole
gayoles
gaz
gaza
gaze
gazete
gazetes
gazette
gaziaux
gazti
gb
ge
gei
geindra
geins
gel
gele
gen
genaux
gendarme
gene
gengoux
gens
geoffroy
geois
geoise
george
georges
ger
gerhardt
gerlache
germain
germaine
germanica
ges
gesell
get
gfay
gh
ghislain
ghys
gi
giacomoni
gilbert
gillain
gilles
gillet
gilliard
gin
gins
gion
gionales
gis
givre
gl
glace
glaece
glaeces
glaeci
glaireuse
gland
glande
glandes
glands
glawene
gle
gleize
glene
gler
glete
gleter
gli
glije
glime
glin
glinaci
glindisse
glise
glo
globules
gloire
glon
gloriya
glossaire
glou
glumiant
glumiante
glwe
glwere
gm
gn
gna
gnant
gne
gnenut
gner
gnes
gneu
gneye
gngnos
gni
gno
gnognot
gnognote
gnon
gnos
gnu
go
gob
gobtindje
gochliye
god
godart
gode
godefroid
godenne
godet
godetche
godferdom
godfrwe
godi
goethals
gofe
gofes
goffart
goffinet
gogne
goidje
goirdjeye
goirdji
golafe
golafmint
gole
golete
golza
gomze
gon
gonfle
gonfler
gonri
google
gordene
gordenes
gore
gorea
gorge
gorli
gos
gosse
gosselies
gossoncou
goste
goster
gotale
gote
goter
gotes
gothier
gotire
gotletes
gotte
gou
gougne
gougni
gougouye
goulmima
gourdin
gout
goute
goutrou
gouvi
goviene
govienmint
govienmints
govierneu
goyi
goza
gozete
gozi
gr
gra
graevi
graevleus
graevleuse
grafe
graide
grain
gram
grames
grammaire
gramme
gran
grand
grande
grandes
grandeu
grandeur
grandgagnage
grandi
grandiveu
grandiveus
grandiveuse
grandiveuste
grandiveuzmint
grandmont
grands
grangrinne
grani
grante
gras
gratter
grave
grawe
grawes
graweye
grawyi
gre
grece
gregne
gregnes
grek
greke
greks
grena
grenier
grete
greter
gretri
greve
greves
grevesse
grevesses
grevisse
grevissi
greye
greyi
gri
grignard
grigne
grigneus
grigni
grignous
grigoryin
grigwere
grijhe
grimm
grin
grinne
grinnes
grinnveye
grins
gripe
griper
gripete
gris
gritchete
gritchi
griyeus
griyeuse
grizou
gro
grogne
grogni
grognon
grond
grope
gros
grosse
grosses
grossie
grossir
grote
grotes
grou
groujhi
groumiote
groupe
groupes
growe
growes
groxheur
groyinne
gru
grune
grus
gruzine
gruziner
gsm
gt
gts
gu
gubiet
gue
guea
guede
guer
guere
gueres
gueri
guernouye
guernouyes
guerre
gues
guete
guetes
guetteur
gueu
gueule
gueus
gueuya
gueuye
gueuyes
gueuyi
gueye
gueyes
gui
guia
guide
guigne
guilin
guillaume
guimauve
guine
guintche
guita
gulie
gumes
gurna
gurnadi
gurni
gurnouye
gurnouyes
gurzale
gurzales
gurzali
gurzea
gurzeas
gusse
gusta
gustave
gustin
gutenberg
guy
gwarani
gyi
gzimpe
h
ha
haas
haba
habets
habit
habitants
habitude
hache
hachette
haema
haerna
haernas
haernaxhi
haetchi
haeya
haeyeme
haeyi
hagnant
hagnante
hagne
hagneure
hagni
hagnon
hagnons
hagnu
haha
hai
haie
hainaut
haine
haire
hairyi
hait
haiteye
haiti
hal
halaedje
halazi
halcote
halcoter
halcoti
halcrosse
halcrosses
hale
halene
halenes
haler
haleu
half
halkiner
halleux
haloe
halof
halotche
ham
hamal
hamblenne
hame
hamea
hameas
haminte
hamtea
hamteas
hamwe
hamza
han
hancre
handele
haner
hanete
haneu
hanga
hanri
hans
hanscroufe
hant
hantche
hantches
hante
hanter
hanteus
hanu
hapa
hape
haper
hapeu
hapeus
happe
happy
harbouya
hard
hardeye
hardi
harlake
harlez
harloucrale
harote
harpe
harsin
hart
hartog
has
hasard
hassan
hasse
haswe
hat
hatcha
hatche
hatchi
hate
hati
hatrea
haust
haut
haute
have
havelange
havet
havlondje
havsin
havte
havurna
hawe
hawea
hawer
hay
haycou
haycous
haye
hayi
hayon
hayons
haza
hazale
hazard
haze
he
hebben
hecq
hegel
heim
hena
hendschel
hene
henin
henrard
henri
henry
hepe
hepiete
her
herbe
herbillon
here
herer
herge
herin
herleme
herlin
herma
hertcheye
hertchi
herubel
herve
hes
hesbaye
hesbois
hesse
hesses
hesta
hestape
het
heu
heure
heures
heureux
heuzea
heuzeu
heve
heye
heyes
heyi
heymans
hez
hi
hicter
hie
hiede
hier
hierda
hierdi
hierdule
hiernaux
higne
hij
hin
hinant
hine
hiner
hinne
hinnot
hinri
hintche
hipe
his
hisse
histoire
history
hit
hitler
hivie
hiyi
ho
hobete
hock
hoda
hodant
hode
hoder
hodi
hodimont
hodisse
hodister
hodre
hoe
holande
holandesse
hole
holer
holly
hologne
home
homm
homme
hommes
hon
hondje
hongre
hongreye
hongrwe
honneur
honorable
honore
hons
honte
honteu
honteus
honteuse
honteuzmint
hop
hope
hopea
hopeas
hopes
hopler
horace
horion
hors
hosmint
hosse
hosseuse
hossi
hosslet
hostin
hot
hotche
hote
hou
houbart
houbert
houbion
houbonde
houbonte
houcaedje
houfe
houge
hougne
hougnes
houi
houie
houille
houke
houki
houlot
houlpe
houmer
houp
houpe
houpea
houpete
houpi
houprale
hour
hourd
hourdaedje
houre
hourete
houriche
hourixh
hourlea
hourleas
hoursea
house
houte
houton
houtou
houtous
houwa
houwe
houwer
houye
houyet
houyeu
houyeus
houyire
houyires
houyot
houyreye
houza
houzaedje
houze
houzer
houziaux
how
howe
hoye
hoyou
hoze
hozetes
htm
html
http
https
hu
huaco
hubert
huche
hugo
hui
huit
huke
hurard
hure
hut
hutwe
huy
hwe
hy
hye
hypoderma
hø
hɔ
hɛ
hɛt
hɛʀ
i
ia
iau
ibm
ibn
ich
ici
id
idatike
ide
ideie
identite
ideyolodjeye
idintite
idje
idoles
idrodjinne
ie
ienne
ier
ies
iesse
ieu
ieun
if
ifri
igne
ii
iii
ijhi
ik
ike
iket
il
ila
ile
ille
ils
im
ima
imaudje
imaudjes
imbaras
imbe
ime
imi
imparfait
impe
impire
impo
importe
impossibe
impreur
imprimaedje
imprimateure
imprime
imprimer
imprimeu
imprimreye
in
ina
ince
incipite
ind
inde
indepindance
index
indicatif
individu
indje
indjenieur
indjes
indji
indjole
indjustice
indo
indonezeye
industreye
industreyes
industriyel
indyin
indyins
ine
iner
inf
infe
infele
infie
infier
infinitif
infinitifs
infirmire
infle
infler
info
informa
infos
ing
ingl
ingle
inglesse
inglesses
inglutere
ingredyints
ingue
ingueze
ingui
ininme
inkete
inketes
inla
inme
inmer
inmna
inn
inne
innmi
innmis
inse
inseke
insekes
insi
insidon
instant
institucion
institucions
institut
instrumint
instrumints
int
intche
inte
intel
intere
interessant
interesse
interesses
international
internet
internete
interpre
inteu
inteure
intite
intr
intra
intrant
intre
intrer
intrez
introduction
introduire
intur
inverno
invi
invinta
invite
inviter
invna
inze
inzotike
io
ion
ip
ir
irak
iran
irans
ircam
ire
ireut
iri
iris
irlande
irlope
iront
iroz
irre
is
isaac
isbn
isi
islam
islamike
iso
israe
israyel
israyeli
isse
ist
ista
istasse
iste
istoricmint
istorike
istorikes
istoryin
istoryins
istwa
istwe
istwere
istweres
it
ita
itali
italike
ite
item
iu
iun
iv
iva
ivan
ive
iveus
ivie
ivier
iviers
ivre
ivwere
ix
ixh
iy
iye
iyea
iyes
iyreye
iys
iza
izer
izlande
j
ja
jacky
jacob
jacqueline
jacques
jadje
jaki
jama
jamai
jamais
jambe
jambes
jame
james
jamwais
jamwe
jan
janda
jane
janmi
jans
janson
jant
janvier
jany
jardin
jat
jate
jdes
je
jean
jeanine
jeanne
jel
jele
jenny
jes
jespers
jet
jeter
jeu
jeune
jgof
jh
jhaedje
jhant
jhe
jhea
jhes
jheu
jhey
jheye
jheyes
jheymint
jheys
jhi
jhinete
jhire
jhires
jhirmint
jhiste
jhmince
jhminces
jhner
jho
jhon
jhone
jhones
jhonmint
jhons
jhou
jhte
jhter
jhu
ji
jiang
jime
jin
jine
jins
jis
jklc
jo
job
joe
joelants
johan
johannes
john
jon
jone
jordan
jos
jose
joselyne
joseph
jospa
josserand
jot
jou
jouer
jour
journal
journe
jours
jowe
joyeux
joz
jpg
ju
judet
juge
jule
jules
julie
julien
julos
jumet
juniperus
jurgen
jus
jusk
jusqu
jusse
juste
justice
justin
justine
justumint
jwe
jy
jø
jɔ
jɛ
jɛs
jɛt
k
ka
kaf
kai
kal
kan
kand
kant
kas
kat
kaw
kaʀ
ke
kea
kebek
kegn
kekete
kel
kem
ken
kendal
kene
ker
kerchi
kernaxhe
kerton
kertons
kes
kesse
kesses
kession
ket
kete
ketes
keu
keude
keur
keure
keures
keuse
keute
keutes
keuve
keuze
kg
ki
kibate
kibe
kibetchi
kibin
kibouter
kick
kidja
kidu
kidujhance
kidure
kihagne
kihagni
kil
kilo
kilome
kilomete
kilometes
kilos
kim
kimande
kimander
kimandeu
kimaxhi
kime
kimene
kimere
kimina
kiminc
kimince
kiminci
kimint
kimon
kin
kinable
kinchassa
kine
kiner
kinike
kinikes
kinkin
kinohe
kinoxhance
kinoxhe
kinoxheut
kinoxhou
kinoxhous
kinoxhowe
kipa
kipagneye
kipo
kira
kirsch
kischirer
kiss
kisse
kitaeyi
kitape
kitaper
kitchessi
kitoide
kitoirdowe
kitra
kiwi
kixha
kixhiyi
kiyev
kja
kjɔ
kla
kle
kli
klo
klɔ
klɛ
km
knokke
ko
koksijde
kom
kon
kou
kra
kre
krieg
ku
kulome
kus
kuʀ
kwa
kwan
kwaʀ
kwe
kwi
kwɔ
kwɛ
ky
kyi
kyl
kø
kœ
kɔ
kɔl
kɔm
kɔs
kɔt
kɔʀ
kɛ
kɛn
kɛt
kɛʀ
kʀa
kʀi
kʀu
kʀɔ
kʀɛ
kʀɛs
l
la
label
labo
labrin
lac
laca
lace
lacea
lache
lachi
lacia
lacobe
lactarius
ladde
laddins
ladje
ladjes
ladri
ladsu
ladvins
laec
laecea
laedje
laesse
laessoe
laetche
lafontaine
lafontinne
lafore
lagauche
lagnet
lagrange
lah
lahaye
lai
laid
laida
laide
laidmint
laids
laire
laispi
laisse
laisser
lait
laitreye
laiwe
laixhe
laixhi
laiyi
lak
lake
lale
lalibre
laloux
lam
lambert
lambiet
lambillion
lamborelle
lame
lamea
lames
lampe
lampes
lamproye
lan
lanawaire
lanc
lance
lancer
lanchtou
lanci
land
lande
lane
lang
lange
language
langue
langues
lans
lant
lante
lantiene
lants
lanwi
lao
lape
laper
lapete
lapin
lapins
lapote
lard
large
larink
larousse
las
lasse
lat
late
latene
latenes
lathuy
latin
laton
latons
lau
laudje
launay
laure
laurent
lauvau
lavaedje
lavasse
lave
laver
laverva
lavete
lavoe
lavola
law
lawe
lawer
lawes
lawri
laxhe
laye
lazard
lazer
lb
lber
lc
lco
ldimint
le
lea
leas
lebierre
lebois
leccion
lechanteur
lecomte
lecteur
leddimwin
ledjinde
ledjir
ledjire
ledjirmint
lefe
lefebvre
leffe
lefin
leglijhe
legrand
legros
legume
legumes
leie
lejeune
lejoly
leloup
lem
lemai
lemaire
lemint
lempereur
lene
lenes
lenfant
lepage
lepe
lepes
lequarre
ler
lere
leroy
lerutte
lerwe
lerweti
les
lesoir
lesse
lessene
lessinea
lessive
let
letchi
lete
letes
lette
lettres
leu
leuco
leune
leup
leur
leure
leures
leurs
leus
leuse
leut
leuve
leuze
levage
levant
levantrece
levaux
leve
lever
levi
lewin
lewis
lexhe
lexhi
lexique
leya
leyans
leyant
leye
leyes
leyi
leyisse
leyive
leyon
leyone
lez
lezi
lfeu
lfeye
lheur
li
lia
liards
liban
libe
libera
libert
liberte
libes
libeye
libin
libins
libra
libre
libreoffice
lic
lice
licien
licince
lidje
lidjwe
lidjwesse
lie
lieffe
lien
liene
lier
lierneu
liernu
liesse
lieu
lieux
ligne
lignes
ligni
lignouveye
ligue
lijha
lijhaedje
lijhant
lijhe
lijheu
lijheus
lijhi
lijhoz
lik
like
liken
likens
likide
likides
lili
liliane
lim
limbo
limbordjwe
limbork
limbourg
lime
limerike
limerle
limero
limeros
limerotaedje
limerote
limite
limotche
limpre
limpreur
lin
lina
linc
lindje
line
linet
linete
linga
lingadje
lingadjes
lingaedje
lingaedjes
lingala
linge
lingue
linguistique
linne
linse
linsi
lint
lintiles
linux
linwe
linwes
linwince
linwincieus
linwincieuse
linwistike
linwistikes
lion
lire
lis
lisa
lisbete
lise
lisse
lisses
liste
listerio
lit
litalo
lite
literaire
literateure
lites
litt
litte
little
litwaneye
litwanyin
live
livea
liveas
lives
livre
livrer
livret
livreye
lix
liye
liyon
liyons
liz
lizer
lja
lje
ljes
ljique
ll
lla
lle
lles
lli
lm
lmi
lmin
lmint
lmont
lnut
lo
loc
loca
locaux
loce
locet
locution
lodelinsart
lodje
lodjeu
lodjeus
lodji
lodjike
lodjisse
lodjmint
lodlinsa
lodomez
loe
loi
loigne
loignes
loignreye
loin
loiseau
loke
lokes
loket
lolium
lolote
loma
lomaedje
lomaedjes
lomba
lome
lomer
lomeut
lomi
lomme
lomnut
lompre
lomre
lon
londe
londi
londje
londjin
londjinniveuzmint
londjinnmint
londmwin
long
longou
longous
longowe
longs
longtimps
longue
longues
longueur
longuie
lonlala
lonmint
lons
lontchamp
lontimps
lontins
lonze
loos
lope
loque
loques
lora
loriaux
lorin
lorinne
lorint
loriot
los
losse
lot
lotche
lotchets
lote
lotes
loto
lou
louca
loucant
louis
louise
louke
loukete
loukeure
loukeye
louki
loukive
louline
loume
loumer
loumi
loumire
loumires
loumot
loumrote
loup
loupe
louque
louqui
lourd
louvie
louwaedje
louwate
louwe
louwer
louwete
louwi
louwis
louwisse
lovagne
love
lovegne
lovin
lovire
lowe
loyaedje
loye
loyeure
loyeures
loyeye
loyeyes
loyi
loyive
loyminoymint
loz
lozindje
lre
lresse
lreye
ls
lsis
lt
lte
lu
luc
lucien
lucy
lucyin
lugni
lui
luigi
lujhant
lujhe
lujhea
luk
lum
lumc
lume
lumi
lumie
lumumba
lune
lunes
lunrece
lure
lureus
lureuzmint
lursete
lurson
lus
lusse
lussimbordjwe
lussimbork
lustre
lute
luther
lutrubwe
luxembourg
luzance
luzere
lva
lwe
lweya
lwɛ
ly
lyali
lyi
lyin
lyinne
lyins
lz
lze
lzi
lø
lœ
lɔ
lɔt
lɛ
lɛj
lɛn
lɛs
lɛt
m
ma
maboul
mac
maca
macasse
macedwene
mache
machene
machenes
machi
machiavel
machine
machines
machinisse
machure
maclote
macrale
macrales
macrea
macsa
macsigrogne
macte
mad
madame
madi
madje
madjike
madjre
madlinne
madlon
madrid
mady
maedje
mafe
mafle
mafwe
magazin
magazine
maggy
magn
magna
magnaedje
magnant
magnants
magne
magneu
magneus
magneuse
magneye
magni
magnijhon
magnive
magnnut
magnre
magot
magrite
magritte
magriyete
mahi
mahin
mahy
mai
maie
maigri
maigue
main
mains
mais
maison
maiss
maisse
maisses
maissin
major
make
maker
makes
maket
makete
maketes
mal
mala
malade
malades
maladeye
maladeyes
maladi
maladie
maladif
malaudji
malauji
male
malene
malet
malete
maleu
malherbe
malheur
mali
malice
malin
malins
malme
malmedy
malo
malonne
malt
malte
malto
malton
maltoner
maltons
mam
mama
maman
mambe
mambor
mambornance
mamborner
mame
mames
mami
mamite
mamites
mamjhele
mammife
man
manadje
manaedje
manaedjes
manaedjeus
manaedji
manaedjmint
manc
mancance
manceye
manche
manci
mand
mandarin
mandat
mande
mander
mane
maneu
maneuve
maneuvrer
manfred
manger
mangon
mangonreye
manhe
mani
manie
manifesse
manike
manire
manires
manke
manker
manne
manneste
mannet
mannete
manni
mannixhance
mano
manote
manouwe
manoye
manoyes
manque
mansa
mant
mantche
mantches
mantchi
mante
mantea
mantia
manu
many
map
mape
mapes
maque
maquet
mar
mara
maraexhe
marais
marakech
maraton
maraye
marbe
marc
marca
marcant
marce
marcel
marcelle
marchal
marchand
marche
marcher
marchi
marchot
marcote
marcou
marcour
mardjo
mare
mareder
maredsou
mareie
marene
maret
mareu
mareye
margaye
margayes
margayi
margougnaedje
margougni
marguerite
mari
maria
mariadje
mariaedje
mariaedjes
mariage
mariait
marian
marie
marier
mariette
marieye
marin
marinde
mariolinne
marionete
marionetes
marius
marixha
mark
marke
marker
markes
marlanwe
marle
maro
maroc
marok
marokin
marokinne
marokins
maron
marone
marones
maroni
marote
marou
maroye
marque
marquer
marquet
mars
marseyesse
martchand
martchande
martchander
martchandeye
martchandeyes
martchandijhe
martchandijhes
martchands
martchi
martchoter
marte
marti
martin
martine
marxmuller
maryi
mas
masbor
mascara
mashale
mashales
massale
massales
massaux
masse
masses
masset
masseur
masson
mastea
mastoke
mastokes
mat
matagne
matante
matantes
match
matche
matchurea
mate
matematike
matematikes
matene
matenes
materia
materio
mathi
mathieu
mathot
mati
matie
matile
matin
matine
matire
maton
matons
matoufe
matrice
matterne
matthieu
mau
maubeuge
maudoux
maugre
maujo
maujon
maujone
maujones
maule
maurice
maus
mauvais
mauvaise
mawe
maweur
maweures
mawori
maworis
mawoumet
mawyi
max
maxha
maxhaedje
maxhe
maxheure
maxheye
maxhi
maxhisse
maxhure
maxhurer
maxime
may
maya
mayane
maye
mayence
mayes
mayet
mayeu
mayeur
mayeurs
mayi
mayisse
mayni
mayon
mayoresse
mayot
mayte
mazete
mazindje
mazoute
maʀ
mc
mcoye
mdey
mdi
mdiy
mdiyin
mdiyinne
me
mea
meas
mecanike
mecsike
med
meda
medaye
medayes
medce
medcene
medi
media
medias
medica
meer
mehin
mehins
mei
meie
meke
mel
mele
meler
melin
meliye
melkin
mellifera
membre
memwere
memweres
men
mence
mendeleyev
mene
menes
menirs
ment
mentir
ments
menu
mer
merance
merci
merckx
merde
mere
meres
merite
mers
merveye
merveyes
mes
mesbridji
meskene
messaedje
messaedjes
messaedji
messanceye
messe
messes
messeye
mesti
mestre
mesure
met
meta
metaedje
metal
metans
metant
metchanste
metchant
metchante
metche
mete
metes
meteu
meteut
meteyo
meti
metingue
metingues
metnut
metou
metous
metowe
metowes
metoz
metre
metro
metroz
mets
mette
metti
mettou
mettre
meu
meube
meubes
meule
meumeures
meunier
meur
meure
meurer
meures
meuri
meurisse
meurs
meus
meuse
mexhnaedje
mexhne
mexhner
mexhon
meye
meyes
meyeu
meyeus
meyeuse
meyi
meynute
meyon
meza
mezale
mezeure
meʀ
mg
mgoun
mi
mia
miceliom
michael
michaux
miche
michel
micoplasses
micoye
micro
microbe
microbes
micromania
microscopike
microscopikes
microsoft
midi
midjote
midone
mie
miele
mier
miercopete
miercorin
mierdjin
mierdo
miere
mierkeure
mierkidi
miernou
mierpi
mierseu
mierseule
miersipepieuzmint
miete
mietes
miette
mieu
mieule
mieux
mignolet
mignon
mignons
migote
mih
mik
mil
mildiou
mile
milet
milieu
milita
militaire
militaires
mille
millot
milo
miloute
mimbe
mimbes
mimile
min
mina
minc
mince
minci
mincion
mindje
mindji
mine
miner
minera
mines
minet
mineu
mineye
mingi
mini
minimom
minisse
minisses
ministere
ministre
minme
minmes
minne
minorite
minou
minre
mins
mint
minte
mintes
minteu
minti
mintni
minton
mintrece
mintreye
mints
minute
minutes
mir
mira
mirabilia
mire
mirlifitches
mirlon
miroe
mirwa
mis
mise
misse
mission
miste
misterdam
mistere
mit
mita
mitan
mitant
mitche
mitches
mitchi
mitchot
mitchrou
mite
mitolodjeye
mitrinne
mive
miya
miye
miyin
miyo
miyon
miyons
miyot
mize
mizera
mizere
mizeres
mizrete
miœu
mji
mjɛʀ
mm
mme
mnou
mnujhi
mnujhreye
mo
moca
moch
moche
moches
mocrec
mocreye
mod
modaedje
mode
modele
modeles
modeste
modiene
modienes
modolo
moe
moenna
moennaedje
moennance
moenne
moenner
moennes
moenneu
moenneus
moennrece
moens
moes
mofes
moflasse
mogeonne
mohamed
mohammed
mohe
mohon
mohone
mohones
mohonne
moi
moin
moins
moir
moirci
moire
moirmont
moirt
moirti
moirts
mois
moite
moitie
moke
moker
mokion
mol
moldaveye
mole
molecule
molecules
molete
molie
molin
molinea
molins
mollet
molon
molone
molons
molou
molusse
moman
moment
momint
momints
mon
monami
monbia
moncea
monceas
moncha
moncheu
moncrabeau
monde
mondia
mondjoye
mondju
mone
mongoleye
moni
monique
monkeur
monnaie
monne
monnes
monni
monoloke
monolokes
monon
mononke
monoteyisses
monparan
mons
monse
monseu
monsieu
monsieur
monsieus
monsigneur
mont
monta
montaedje
montagne
montagnes
montagu
montana
montant
montants
monte
montellier
montenegro
monter
montgne
montgneye
monti
montinne
montinnes
montneye
montniye
montre
monts
monumint
monumints
mopliyaedje
mopliyi
moquer
mora
moraedje
morale
morance
morant
morayns
more
morea
moreau
morer
moresnet
morete
mori
morice
moritanreye
morou
mort
moru
mos
moscou
moske
moslimi
mosse
mossea
mosseas
mosses
mossiat
mossieu
mosta
moste
mostenne
mostere
mostra
mostraedje
mostrant
mostre
mostrer
mostrez
mot
motchoe
mote
moteu
moteur
moti
motire
motli
moto
motoit
moton
motons
motos
motrece
mots
mottard
mottet
motyince
mou
mouche
mouches
mouchon
mouchons
moucron
moude
moudes
moudre
moudreu
moudreus
moudreuse
moudri
moudris
mougne
mougneu
mougni
mouhagne
moule
moulet
moulete
moulets
moulin
moulot
mouma
moumint
moumints
mour
moure
moureau
mourir
mourre
mourt
mousmint
mousmints
moussa
moussant
mousse
moussemints
mousser
mousseu
mousseure
mousseures
mousseye
moussi
moussive
moustatche
mousti
moustre
moustrer
moute
mouton
mouvement
mouvmint
mouvmints
mouvter
mouwai
mouwale
mouwe
mouwea
mouwer
mouwrece
mouyi
mouzaive
mouze
mouzon
mowe
moxhe
moxhes
moxhet
moxhete
moxhets
moxhi
moxhnire
moxhon
moxhons
moya
moyale
moye
moyen
moyene
moyeye
moyin
moyina
moyins
moyisse
moyou
mozale
mozete
moziner
mr
mreye
mson
mt
mtet
mu
muche
muchete
muchi
muchyi
munujhi
munute
munutes
mur
mura
muraye
murayes
murea
muret
muroe
muroetrece
mus
muse
musike
musique
musse
musses
mustea
mutwe
muze
muzea
muzete
muzeure
muzica
muzicyin
muzicyins
muzike
muzikes
muzulman
muzulmande
muzulmans
muzurer
mve
mwa
mwai
mwaijhe
mwaijhi
mwairon
mwais
mwaisse
mwaisses
mwaistresse
mwaistri
mwaistrijhe
mwaiye
mwaiyes
mwart
mwarts
mwasse
mwate
mwe
mwelons
mwin
mwinde
mwinni
mwinre
mwins
mwinte
mwintes
mwints
mwɛ
my
myeu
myi
myste
mzeure
mzeures
mzurer
mø
mœ
mɔ
mɔs
mɛ
mɛj
mɛn
mɛs
mɛt
mɛʀ
n
na
nac
nachi
nacht
naciona
nadine
nadje
naedje
naedjes
naedji
nafraiteure
nage
nager
nai
nait
naivia
naiviaedje
naivieu
naivyi
nal
nale
naler
nam
name
nametche
nameu
nameur
namur
namurois
namurwe
namurwesse
nance
nances
nandrin
nane
nanesse
nanete
nankinets
nans
nant
nante
nanti
napea
napole
napoleyon
nare
narene
narenes
nareus
nas
nasse
nassogne
nat
natacha
nateure
natif
nation
national
nature
naturel
naturele
naturelmint
naturels
nau
naud
nauje
nauji
navea
naveas
naw
nawe
nawea
nawearinne
nawes
naxhe
naxhes
naxhi
nayo
nazia
nazis
nc
ncia
ncwante
ncwantinne
ncweme
nd
ndale
ndaler
nde
ndie
ndimint
ndje
ndjes
ndji
ndjin
ndjins
ndjole
ndjoles
ndjolijhi
ndjolike
ndjolikes
ndjolisse
ndjolreye
ne
nea
neas
nedje
nedji
nefe
neige
nej
nel
nele
nelson
nement
nemint
nen
nene
neni
nenni
nent
ner
nere
nervyins
nes
nesse
nest
nestor
net
nete
netieure
nettoyer
netyi
neu
neuf
neur
neus
neuse
neut
neute
neveu
new
news
newton
nexhance
nexhou
neya
neye
neyerlande
neyi
nez
nfjhance
ng
ngt
ngue
nguete
nh
ni
nia
niche
nicht
nichte
nicion
nicolai
nicolas
nicole
nicolet
nicot
nid
nidjer
nidjeria
nie
nier
nieron
niers
nierson
nierveus
niestle
niet
nietsche
nieu
nieuws
night
nigra
nik
nike
nil
nin
nindje
ninne
nint
ninte
nire
nis
nisse
nit
nite
nitince
nitrodjinne
niu
nivaye
nive
nivele
nivelles
nivelwe
niver
nivter
niya
niye
nja
nk
nket
nkinme
nkinne
nl
nme
nmint
nn
nne
nnes
nni
nnva
no
nobe
nobel
nocint
nocre
noda
node
noder
nodeur
nodidjo
nodidju
noe
noejhe
noejhes
noejhete
noejhetes
noejhi
noer
noera
noere
noeres
noereur
noeriste
noers
nohe
noi
noice
noices
noinclude
noir
noire
nol
nole
noleva
nolle
nolu
nom
nombe
nombes
nombre
nome
nominatif
noms
non
nona
nonante
nonde
nonke
nonlo
nonna
nonne
nonnrece
nonsyince
nope
nord
nore
noret
norma
normal
normand
normandeye
norvedje
norvedjin
nos
noss
nosse
nosses
nost
noste
not
nota
notant
notdji
note
noter
notes
notre
notru
notule
nou
nouf
nouk
nouri
nouriteure
nourixh
nourixhe
nourriture
nous
nouv
nouve
nouveau
nouvelle
nouvelles
nouveye
nouvia
nouvinme
nouvinne
nouwaedje
nouwaedjes
nouwe
nouzome
nove
novea
noveas
noveate
novel
novelan
novele
noveles
novelle
novelmint
noveye
novia
novice
novimbe
nowe
noyaedje
noye
noyi
noz
noze
nozo
nq
nr
nrade
nrdi
nre
nrece
nresse
nreut
nreye
nrk
nront
nroz
ns
nsa
nse
nson
nss
nt
nte
ntes
ntoit
ntosse
nu
nucre
nue
nuit
nuk
nuke
nukete
nuketes
nuki
nuks
nule
nume
nur
nus
nut
nute
nutes
nuteye
nvite
nvnou
nvnowe
nwa
nwe
nwɛ
nxhe
ny
nyns
nyt
nze
nzinme
nzinne
nø
nœ
nœud
nɔ
nɛ
nɛj
nɛt
o
obdjet
obe
objet
oble
oblidje
oblidjeye
oblidji
obliga
observatoires
obstacle
obus
oc
oca
occasion
occidentale
occitan
oceyan
oceyans
ocgniye
oche
oci
ocsidjinne
octave
octet
octo
ocupa
ocupaedje
ocupaedjes
ocupe
ocuper
oda
ode
oder
odeu
odeur
odile
odio
odji
odon
odore
oe
oen
oende
of
ofagne
off
office
officinale
officinalis
ofice
ofices
ofici
oficir
oficire
oficires
oficirmint
oficirs
ofinsive
ofrande
ofri
ofrixhaedje
oh
ohe
oho
oi
oidje
oignies
ois
oise
oiste
oister
oize
oizeur
oizire
oizires
oizou
oje
ok
ol
olande
ole
oleracea
oli
olimpike
olimpikes
olive
olives
olivi
olivier
olyinnes
olympiques
om
omar
ombe
ombion
ombre
ombrire
ombwe
ome
omer
omes
omofone
omofoneye
omonime
omonimes
omonimeye
omrin
omrinne
omrins
on
onard
onc
onde
one
oneu
oneur
oneurs
onglete
ongletes
ongue
ongues
oniesse
oniestrute
onk
onke
onks
onorer
ons
ont
onte
onu
onz
onze
onzinme
op
ope
open
opensuse
opera
operance
operer
operete
ophile
opinion
opo
opold
or
ora
oraedje
orandje
orandjes
oraye
orayes
orban
orci
ordinaire
ordinaires
ordinairmint
ordinateur
ordre
ore
oreye
orfulin
org
organe
organes
organiza
orge
ori
oridjene
oridjina
origine
orire
orkesse
oronde
orondes
orthographe
orto
ortodosse
ortodosses
ortografe
ortografeye
ortografeyes
ortografike
ortografikes
ortografyi
os
oscar
ospice
ospita
osse
osselet
ossi
ossu
ostaedjes
ostake
ostant
oste
osteye
osti
ostinde
ostis
ostraleye
ot
otan
otdja
ote
otel
otels
oter
oteur
oteurs
otjacques
oto
otobiyografeye
otobiyografike
otobusse
otoca
otoman
otomans
otomaticmint
otomatike
otonome
otonomeye
otopseye
otorijhi
otorite
otos
otostra
otovoye
otriche
otrichyin
otrichyins
otruche
ottant
otto
ou
oube
oucha
ouchal
ouci
oucial
oucrinne
oucrinnwe
oucrinnyins
oude
oudobe
oudon
oudonbe
ouest
ouf
oufalijhe
oufti
ouganda
ougre
ouh
ouhe
oui
oujhea
oujheas
oujhene
oujhenes
oula
oumes
oumeur
our
ouri
ourit
ourougway
ouroundi
ours
ourse
ourteye
ourteyes
ous
out
oute
outre
ouve
ouves
ouvrier
ouvrir
ouwed
ouwess
ouxh
ouxhe
ouxhi
ouxhs
ouy
ouya
ouye
ouyes
ouys
over
overe
ovi
ovis
ovra
ovradje
ovradjes
ovraedje
ovraedjes
ovrant
ovre
ovrer
ovreu
ovri
ovrire
ovrires
ovroe
owe
oxh
oxhea
oxheas
oxhs
oy
oya
oyant
oye
oyeu
oyeut
oyez
oyi
oyon
oyou
oyowe
oyoz
oyu
oz
oze
p
pa
pablo
pac
pace
pachi
pachis
pacifike
paco
pacte
pacyin
pacyince
pad
padeco
padje
padri
padvant
padvie
padzeu
padzo
paedje
paf
page
pages
pai
paile
pailon
pain
painblanc
pair
paire
paix
pake
paket
pakets
pakistan
pal
pala
pale
pales
palestene
palestini
palete
paletot
palijhou
paliju
palivole
palizoyike
palon
palonaedje
palte
paltot
paltots
palw
pan
panama
pandre
pane
panea
paneas
panes
pani
panne
pans
pansa
panse
pansreye
pant
pantalon
pante
pantere
panti
papa
pape
papi
papis
papou
paquay
paque
paquet
par
para
parade
paradis
paragway
parai
paraplu
paration
parc
parce
pardon
pardone
pardoner
pare
pareie
pareil
parents
parer
paret
parexhe
parexhou
parey
pareye
pareyes
pareymint
pareys
parfond
parfonde
parint
parintaedje
parinte
parints
paris
park
parks
parle
parler
parmine
paroe
paroeze
parole
paroles
part
parti
partie
partij
partir
partot
partout
parve
parvinou
pas
pascal
pask
paske
paskeye
paskeyes
paski
pasku
pasmint
pasnut
pasqu
pasque
pasqui
pasre
pasreut
pass
passa
passadje
passaedje
passaedjes
passage
passant
passe
passer
passet
passete
passeu
passez
passi
passion
passive
pasteur
pasteure
pasteures
pat
pata
patacons
patata
pate
pates
patocoste
patoe
patois
patrake
patreye
patrice
patrick
patrimoenne
patron
pattava
patte
patwe
pau
paufe
pauje
paul
paurt
paurtadji
paurti
pause
paut
pautot
pauve
pauves
pauvre
pave
pavmint
pavoe
paw
pawe
pawou
paxhe
paxhi
paxhis
paxhna
pay
payaedje
payasse
paye
payele
payelinne
payeye
payi
payin
payinne
payins
payis
payisan
payive
payizaedje
payizan
payizans
paymint
payre
pays
paze
pazea
pazeas
paʀ
pbb
pc
pcd
pdf
pe
pea
peas
peces
peche
pecle
peclers
pecti
pegnon
peine
peintre
peinture
peke
peket
pekets
pekin
pela
pelake
pelant
pele
peler
pelete
peletes
pelinne
pelle
peloe
pelote
pelouse
pelrins
peme
pemes
pemi
pen
pena
penalti
penas
pendant
pene
penes
peneus
peneuse
penin
penitince
penleu
pense
penser
pepete
pepin
pepinster
per
perce
perche
perdre
perdu
pere
peres
peret
peri
perike
periki
periodike
perlin
perlinaedje
perlins
permete
permeteut
permetou
permis
permission
peron
perou
persone
personne
persounaedje
persounaedjes
perwe
pes
pesse
peste
pestele
pesteler
pet
peta
petaedje
petale
petales
petant
petche
petches
petcheur
petchi
pete
peter
petersbork
peteus
peticion
petit
petite
petits
petra
petrea
petrole
pette
peturon
peu
peumon
peumoneye
peumons
peupe
peupes
peupla
peuple
peuprece
peur
peure
peus
peut
pexhe
pexheu
pexheus
pexhi
pexhon
pexhons
peye
pez
pezant
pezante
pezants
peze
pezer
ph
phane
pharisiens
phe
philippe
phillips
philologie
phone
php
pi
pia
piaedje
pian
piane
piano
piant
pib
pic
pica
picaedje
picant
picard
picas
pice
picete
picetes
piceure
piceures
piceye
pici
picot
picote
picots
picron
picrons
picsel
picsels
pid
pide
pidjes
pidjon
pidjons
pidjote
pids
pie
pied
piede
piedreut
pieds
piele
pieles
pier
pierard
pierdaedje
pierdant
pierde
pierdou
pierdous
pierdowe
pierdowes
pierot
pierre
pierret
pierrot
piersan
pierzin
pietaire
pietche
piete
pietes
pietkin
pietris
piette
pieu
pif
pik
pike
piker
pikes
piket
pikete
pikets
pikeure
pila
pile
pilipili
pilote
pin
pince
pind
pinda
pindant
pindants
pinde
pindeut
pindou
pindous
pindowe
pindowes
pindu
pine
ping
pingne
pingni
pinne
pinon
pins
pinsant
pinse
pinser
pinses
pinseu
pinsez
pinsion
pinsione
pinsnut
pinson
pint
pintcosse
pinte
pintes
pinteure
pinus
pinyin
piole
pion
piou
pip
pipe
pipsak
pipsaks
pique
piquer
pire
pirene
pires
piret
pirete
piretes
pirlodje
piroe
piron
pirot
pirreye
pirson
pirsoul
pis
pisse
piste
pistolet
pit
pitaedje
pitchote
pite
piter
piteuse
pitie
pitieus
pitit
pitite
pitites
pitits
pitizeye
pitre
pixha
pixhant
pixhe
pixhete
pixheye
pixhi
pixhlote
piyano
piyi
piyintche
piyo
piyote
pja
pji
pjɛ
pjɛʀ
pl
pla
placant
place
placer
places
pladje
pladjes
plaec
plaece
plaeces
plaeci
plaene
plafond
plai
plaigi
plaijhanmint
plaijhant
plaijhante
plaijhi
plaijhis
plaire
plaisanterie
plaisir
plait
plake
plaker
plakes
plakete
plan
plane
planete
planetes
plans
plant
planta
plantche
plantches
plantchete
plantchi
plante
planter
plantes
plantiveus
plaque
plastik
plastike
plastikes
plat
platchter
plate
platea
plateas
plateau
platene
platezak
platne
platre
plats
play
playe
ple
plein
pleine
pler
pleu
pleur
pleure
pleus
pleut
pli
plik
plin
plind
plinde
plinne
plinnes
plins
plint
plinte
plis
plo
plok
plokes
ploketes
plomb
plome
plomes
ploncaedje
plonk
plonke
plonki
plope
plopes
plora
plore
plorer
plot
plotche
plou
plouki
plouma
ploumaedje
ploume
ploumer
ploumes
ploumion
ploumte
ploure
ploureut
plout
plouve
plouves
plouze
plovinete
ployant
ploye
ployi
ploz
plu
plucher
plume
plumes
plurial
pluriyal
pluriyals
plus
plusieurs
pluto
ply
plɔ
plɛ
pmint
pneu
po
pob
poche
pocwe
podbon
podri
poe
poenne
poennes
poenneus
poere
poeres
poeret
poeri
poes
poeve
poi
poice
point
pointe
points
poirt
poirta
poirtaedje
poirtant
poirte
poirter
poirteu
poirteus
poitchrece
poite
poites
poitre
poize
poizer
poki
pol
pola
polaire
polans
polant
pole
polen
polene
polenes
polet
polets
poleu
poleur
poleut
poleymint
polez
poli
police
polici
policire
polimint
polin
polipo
polite
politesse
politicmint
politicresse
politike
politikes
politiki
politique
polnut
pologne
polone
polou
poloz
polu
pomme
pommes
pompe
pompi
pon
pona
ponaedje
ponant
pond
pondant
pondante
pondants
ponde
pondeu
pondeure
pondeures
pondeus
pondlo
pondou
pondre
pone
pong
ponne
ponou
ponre
pons
ponse
pont
ponte
pontes
pontiaedje
ponts
popa
pope
popene
popula
populaire
populaires
populus
poque
poquoi
poqwe
por
porai
porc
porce
porcession
porcintaedje
pordjet
pordjets
pore
porea
poreas
porete
poretes
poreu
porion
pormoenna
pormoenne
pormoenner
porshu
porshure
porshuve
porshuvou
portant
portchesse
portchessi
porte
porter
porto
portrait
portraits
portugal
portugue
portuguesse
pos
poser
position
posse
posses
possibe
possibes
possible
posson
possube
post
posta
poste
postea
posteure
posteures
posti
pot
potaedje
potale
potcha
potchant
potchas
potche
potches
potchi
pote
potea
poteas
poti
potier
potiket
potince
pots
pou
pouce
pouces
pouche
pouchlon
poude
poudingue
poufiasse
pougn
pougna
pougne
pougnet
pougneye
pougneyes
pougni
pougns
pouiller
poujha
poujhe
poujhi
poul
poule
pouma
poupa
poupe
pouphan
pouque
pouqwe
pour
pourc
pource
pourcea
pourceas
pourcia
poure
poureu
poureye
pouri
pourot
pourquoi
pourtant
pous
pousqui
pousse
pousser
pousses
poussi
poussie
pout
pouvoir
pouvwe
pouvwer
pouxhance
pouxhant
pouye
pouyes
povwer
powete
powetes
powetike
powezeye
powezeyes
powinme
powinmes
poy
poyaedje
poyaedjes
poye
poyes
poyete
poyetes
poyi
poyon
poyons
poyou
poyowe
poys
poyti
poytreye
poytreyes
pp
pr
pra
praireye
prandje
prandjire
prandjloe
pratensis
pratike
pratikes
pratique
pratiques
pre
preca
preferince
prefet
premi
premie
premier
prendre
presga
presque
press
pressant
presse
presser
presses
pression
pretchaedje
pretche
pretcheu
pretchi
pretchmint
pretchmints
pretinde
preu
preumi
preuve
preye
preyea
prezidint
prezidinte
prezince
prezint
prezinta
prezintaedje
prezinte
prezinter
prezintoe
prezintoes
prezintrece
prezintreces
pri
prie
priesses
prigneaux
prii
prijhe
prijhni
prijhon
primaire
prime
primo
prin
prince
princes
princesse
principa
prind
prinda
prindaedje
prindant
prinde
prindeut
prindez
prindi
prindou
prindoz
prindre
prinds
prinjhe
prins
printe
pris
prise
prive
privot
prix
priye
priyesse
priyesses
priyeu
priyi
priyire
priyires
pro
proba
proble
problinme
problinmes
proce
produ
produjhaedje
produjheu
produre
prof
profe
professeur
profete
proficiate
profit
profite
profiter
programe
programes
progre
projet
prome
promesse
promete
prometou
pron
pronne
pronnes
pronni
prono
prononc
prononce
prononceye
prononci
prononcive
pronos
propagande
prope
prophe
propo
propos
propre
proprie
proses
prosper
prote
proteccion
protedji
protestant
protestants
proteyenes
protozowaires
prou
proutler
prouve
prouves
prov
prove
prover
proverbes
province
provinces
provnance
provnant
provne
provneut
provni
proye
proyes
pru
prume
prumi
prumiou
prumire
prumires
prumrece
pruste
pruster
prusti
prustin
prustixh
pryor
ps
psa
psi
pt
ptante
ptchi
pte
pter
ptete
pti
ptit
ptite
ptites
ptits
ptizeye
pu
pub
public
publik
publike
publiks
publique
publiyi
puce
pucele
puch
pudnut
pufkene
puis
puise
puissant
pun
puni
pupa
pupe
pupes
pupont
pur
purade
purda
purdant
purde
purdeu
purdeut
purdoz
pure
purea
purete
pureure
purnale
purnales
purnali
purnea
purneas
pus
pusk
puski
pusqu
pusqui
puss
pusse
put
putete
puto
putoit
putot
puvite
puzieure
puzieurs
puʀ
pwa
pwaire
pwaires
pwarte
pwarter
pwate
pwaʀ
pwe
pwel
pwels
pweti
pwetrene
pweturlin
pwezon
pwi
pwin
pwinmwin
pwins
pwinte
pwints
pwis
pwɛ
pwɛʀ
py
pyi
pyʀ
pø
pœ
pɔ
pɔs
pɔʀ
pɛ
pɛl
pɛs
pɛt
pɛʀ
pʀe
pʀi
pʀy
pʀɔ
pʀɛ
pʀɛs
q
qa
qu
qua
quai
qualite
quand
quant
quantite
quarante
quasimint
quate
quato
quatre
quausu
que
quefi
quel
quelle
quelqu
quelque
quelques
quertinmont
ques
question
quet
queue
queuwe
quevrain
qui
quinaux
quinet
quinze
quipe
quipes
quite
quoe
quoi
quoique
quu
qwa
qwand
qwate
qwe
qwi
qwite
r
ra
raba
rabanair
rabat
rabate
rabatou
rabaxhanmint
rabaxhant
rabaxhi
rabeazi
rabindlaedje
rabindle
rabindler
rabiyi
rable
rabo
rabot
raboulets
rabre
rabressaedje
rabresse
rabressi
rabroke
rabroker
rabule
rabulets
rac
raca
racafougni
racatuzer
race
rache
rachone
racine
racisse
raclairi
raclape
raclaper
racle
raclo
racontaedje
racontaedjes
raconte
raconter
raconteu
racontrece
racontrou
racou
racoulot
racourteye
racourti
racourtixhnut
racrapote
racrapoter
racrole
racroler
racsegne
racsegnes
racsure
racuzina
racwe
rad
rada
radaptaedje
raddimint
rade
rademint
radio
radje
radjes
radji
radjonde
radjou
radjoutaedje
radjoutant
radjoutante
radjoute
radjouter
radmint
radon
radou
rae
raece
raecene
raecenes
raeces
raecine
raecisse
raedje
raedjes
raes
raetche
raetchi
raetchon
raeze
raezer
raezete
raezoe
raf
rafa
rafeye
rafi
rafiya
rafiyant
rafiyi
rafo
rafoirci
rafoircixh
rafoircixhaedje
rafoircixhante
rafrisker
rafroedi
rafroedixhmint
rafu
ragaiyi
rage
ragosse
ragrandi
ragrawyi
raguider
rahener
rahouca
rahoucant
rahoucrece
rahouke
rahouki
rai
raidje
raidji
raigra
rain
raire
rais
raison
raiwaedje
raiwe
raiwer
raiwi
raiwire
raiye
rak
rake
rakeude
ral
rala
ralaedje
rale
raler
raletchi
ralfabetijhaedje
ralfabetijhi
rali
ralongui
raloyaedje
raloye
raloyeye
raloyi
ram
ramadje
ramasse
ramasser
ramdam
rame
rames
ramessaedje
ramexhnaedje
ramexhne
ramexhner
ramin
ramoenne
ramoenner
ramoes
ramoirt
ramon
ramonasse
ramonc
ramone
ramons
ramouyi
rampa
rampe
rampiou
rampono
ramter
ran
ranc
rance
randaxhe
randaxhi
randon
rang
range
ranger
ranoeri
rans
rant
ranteule
rantoele
rantoeles
rantwe
ranuki
ranunculus
ranxhe
ranxhi
raoul
rap
rapa
raparexhe
rapauji
rape
rapele
rapexhaedje
rapexhi
rapi
rapia
rapici
rapide
rapidement
rapinse
rapinser
raple
rapleni
raplou
raploure
rapo
rapoirt
rapoirtaedje
rapoirtaedjes
rapoirte
rapoirter
rapoirts
rapoite
rapoitrou
rapontyi
rapou
raprepiaedje
raprepyi
raprinde
raprotchi
raptiti
raptitixha
raptitixhante
rapurer
rapwa
rapwairi
rapwe
rard
rarindjeye
rarindji
rarive
rariver
ras
rascod
rascoda
rascodaedje
rascode
rascodou
rascourti
rascove
rascovere
rascovre
rascovri
rascovrou
rascoyi
rascra
rasgoutadje
rashi
rashiaedje
rashid
rashiou
rashious
rashiowe
rashir
rashonna
rashonnaedje
rashonne
rashonner
raspepyi
raspouyi
rasse
rassemblement
rassembler
rassiekes
rassonle
rassonraedje
rassonre
rassonrer
rasta
rastampe
raste
rastina
rastini
rastrind
rastrindaedje
rastrindant
rastrinde
rastrindou
rastroeti
rat
rata
ratacaedje
rataetchi
ratake
rataker
rataque
ratayon
ratayons
ratchatcha
ratchcou
ratchitchi
ratchte
ratchter
rate
rater
rates
rathme
ratind
ratindance
ratindant
ratinde
ratindeu
ratindeut
ratindnut
ratindou
ratindoz
ration
ratna
ratni
rato
ratou
ratour
ratourna
ratournaedje
ratournaedjes
ratournant
ratourne
ratourner
ratourneu
ratourneure
ratourneures
ratrape
ratraper
ratropler
rats
rature
ratuzer
rau
rauyi
rava
ravale
ravaler
rave
ravel
raveur
ravicaedje
ravike
raviker
ravitaymint
ravize
ravizer
ravo
raw
rawa
rawai
rawaite
rawaiti
rawe
rawete
rawetes
rawi
rawiants
rawijhe
rawijhi
rawyi
raxhon
ray
raye
rayes
rayeye
rayi
rayire
raymond
rays
razane
razans
raze
razouyi
rba
rbaedje
rbaedjes
rbalesse
rbant
rbatijhi
rbe
rber
rbetchfessaedje
rbi
rbis
rbo
rbon
rboute
rbouter
rbro
rc
rca
rcandje
rcandji
rce
rcene
rcepa
rcepe
rcer
rcetes
rche
rchi
rci
rciene
rcin
rcine
rcinele
rciner
rcire
rclamaedje
rclame
rclamer
rclames
rclape
rclo
rco
rcoe
rcomprindaedje
rconoxhe
rcopyi
rcoridji
rcweraedje
rcweraedjes
rcwerances
rcwereu
rcwereus
rcweri
rcyi
rd
rda
rdaedje
rdance
rdans
rdant
rde
rdene
rdenes
rder
rdeu
rdeus
rdeye
rdez
rdi
rdia
rdieus
rdijhaedje
rdin
rdine
rdini
rdinwe
rdire
rdispene
rdiveus
rdja
rdje
rdjete
rdjetea
rdjeu
rdjeur
rdjeus
rdji
rdjint
rdjinte
rdjintene
rdjonde
rdo
rdon
rdou
rdous
rdowe
rdowes
rdoz
rds
rdu
rdumints
rduro
rdus
re
rea
reader
reas
rebanaedje
rebanaedjes
rebane
rebo
rec
recassi
rece
reces
recherche
recitaedje
reclame
reclo
recloyaedje
recloymint
recra
recsisse
recsisses
rectingue
recueil
recwa
red
redeuihl
redi
rediveuse
redja
redjime
redjimint
redjisse
redjon
redjona
redjons
refanti
refaxhi
referandom
referince
refoirci
refudji
regard
regarder
regions
regrigni
regues
regulus
reie
rela
rele
reler
reli
relijha
relijhaedje
relire
remacle
remantchi
reme
rement
remettre
remint
remise
remoenner
remouchamps
remoure
remuer
ren
renairi
renant
renard
rence
renciation
rendre
rene
rener
renier
renkin
renonder
renson
rent
rentrer
renverser
repa
repetaedje
repete
repeter
repi
replaec
replaece
replaeceye
replaeci
replaidaedje
replaideye
replaidi
reployi
repre
reprendre
republike
rer
res
reschandi
reschandixhaedje
resconte
rescontere
rescontre
rescontrer
rescoule
rescouler
respecte
respecter
respectiveuzmint
respet
respiraedje
respire
respirer
respleu
resploe
respond
responda
respondant
respondas
responde
respondeu
respondi
respondou
responsa
response
responses
ress
resse
ressere
resserer
resses
ressources
rest
restant
restants
restcha
reste
restorant
restorants
ret
retchessi
rete
retour
retoure
retourner
retraite
retro
retrocle
reu
reus
reuse
reuss
reut
reutxhene
reux
reve
rever
revinte
revinter
revinteus
revintreye
revintreyes
revole
revolucion
revolver
revoye
revoyi
revue
rew
rewoeyi
rewoeyon
rex
rexha
rexhaedje
rexhe
rexheut
rexhnut
rexhou
rexhowe
rexhowes
reyaccion
reye
reyes
reynolds
reyons
reyusse
reyussi
rez
rezieve
rezistance
rezistants
rezister
rfe
rfi
rfo
rfond
rfondaedje
rfondant
rfonde
rfondeus
rfondou
rfondous
rfondowe
rfondowes
rfrancijhaedje
rfrancijhi
rfrin
rfuze
rfwait
rga
rgint
rglati
rgne
rgni
rgon
rgret
rgrete
rgue
ri
ria
riant
ribanaedje
ribane
ribe
ribes
ribiveye
ribolete
ribote
riboute
ribouter
ric
rica
ricandjeye
ricandji
rice
ricepe
ricepeure
ricepeures
riceprece
ricete
ricfoirter
richard
riche
riciner
riclame
riclamer
riclaper
riclo
ricmande
ricminci
ricnoxha
ricnoxhance
ricnoxhe
ricnoxhou
ricnoxhous
ricnoxhowe
rico
ricomprindaedje
ricomprins
ricopyi
ricoridji
ricovri
ricsinsa
ricweraedje
ricwereu
ricweri
rid
rida
ridaedje
ridant
ridants
ride
ridea
rideau
rider
ridire
ridivni
ridjonde
ridner
ridoblaedje
ridobler
ridoblete
ridoe
ridu
ridve
rie
riel
rien
rier
riete
rieu
rieur
rif
rife
rifjhaedje
rifo
rifondaedje
rifondant
rifonde
rifondou
rifondous
rifondowe
rifrancijhaedje
rifrancijhi
rifuze
rifwait
rigaux
riglati
rigodon
rigon
riguelle
riha
rihe
riherez
rik
rike
riketes
rila
rile
riletchi
rileve
rilever
rilidjeus
rilidjeuse
rilidjeuses
rilidjeuzmint
rilidjon
rilome
riloper
rilouke
rilouki
riloyi
rilu
rilure
rim
rima
rimaedje
rimagne
rimarca
rimarke
rimas
rime
rimeas
rimer
rimerciyi
rimes
rimetaedje
rimetant
rimete
rimetou
rimetous
rimetowe
rimetoz
rimiele
rimimbere
rimimbrance
rimimbrer
rimonte
rimonter
rimouwe
rimouwer
rimouye
rimowe
rimple
rimpleye
rimpli
rimplis
rimplixh
rin
rina
rinaxhi
rince
rind
rinda
rindaedje
rinde
rindeu
rindeut
rindez
rindje
rindjeye
rindjeyes
rindji
rindjmint
rindou
rindous
rindoz
rindre
rindu
rine
rinetyi
rinfle
ringne
rinme
rinne
rinnes
rins
rint
rinte
rintere
rintes
rinteure
rinti
rintrant
rintre
rintrer
rio
riot
riou
ripa
ripasse
ripasser
ripaxhe
ripete
riployi
ripoize
ripoizer
ripouwaryin
riprezinta
riprezintant
riprezinte
riprind
riprinde
riprinjhe
riprins
rique
rir
rire
rires
rireye
rirpasse
ris
rischaper
rischeure
risco
riscompinse
riscri
riscrijhaedje
riscrire
riscrireut
rise
rishonnance
rishonnant
rishonne
rishonner
riske
risker
riskeus
rispa
rispitaedje
rispite
rispiter
risque
rissaetchaedje
rissaetche
rissaetchi
risse
rissereut
risses
rissinti
risso
rissourdaedje
risti
ristinde
ristitchaedje
ristitchete
ristitcheye
ristitchi
ristope
ristoper
rit
rita
ritaeyi
ritape
ritcha
ritchaire
ritche
ritches
ritchesse
ritchesses
rite
ritni
ritnou
ritnowe
ritou
ritoume
ritoumer
ritourne
ritourner
ritrouve
ritrova
ritrove
ritrover
riv
riva
rivaedje
rivazi
rive
river
riveus
rivey
rivie
rivindje
rivindji
rivire
rivires
rivna
rivnaedje
rivnant
rivne
rivneut
rivni
rivnou
rivnous
rivnowe
rivnoz
rivnu
rivo
rivuwe
riwaitant
riwaite
riwaiteye
riwaiti
riwalnijha
riwalnijhaedje
riwalnijhi
riwalonijhi
riwe
riweri
rixhea
rixhorbi
rixhot
rixhots
riya
riyaedje
riyant
riye
riyeut
riyoz
riz
rize
rizultat
rje
rk
rke
rkea
rker
rkinoxhous
rl
rla
rlaedje
rlaedjes
rlan
rlant
rlante
rlave
rlaver
rlaye
rle
rler
rlers
rlet
rletche
rlets
rleu
rleve
rlever
rli
rlidjeus
rlidjon
rlidjons
rligni
rlike
rlikes
rlire
rlocter
rlodje
rlodji
rlome
rlon
rlot
rlote
rlouke
rlouki
rloye
rloyi
rlu
rlukin
rlumagne
rlumint
rluminti
rlure
rlwer
rma
rmagnaedje
rmagne
rmagni
rmane
rmant
rmarke
rmatike
rme
rmeneye
rmenyin
rmenyins
rmer
rmerciyi
rmes
rmetaedje
rmetant
rmete
rmetou
rmetous
rmetowe
rmetowes
rmey
rmi
rmilire
rmimbere
rmimbrer
rmin
rmint
rmistice
rmite
rmon
rmonak
rmonaks
rmonica
rmons
rmont
rmontant
rmonte
rmonter
rmou
rmoussi
rmouwe
rmouwer
rmowe
rmu
rmule
rmwere
rn
rna
rnaedje
rnake
rnale
rnales
rnand
rnant
rnau
rnaxhi
rne
rnea
rner
rneteye
rnetyi
rneu
rni
rnir
rnis
rnisse
rniteure
rniyon
rno
rnoe
rnon
rnonci
rnos
rnou
rnu
ro
roba
robe
rober
robert
robete
robetes
robin
robinet
robot
robots
roci
rock
rocou
rode
rodja
rodje
rodjes
rodji
rododo
rodolphe
roe
roed
roede
roejhe
roemiant
roemiants
roemyi
roger
rogne
rognes
rogneus
roi
roiste
roister
rok
rola
roland
role
roles
roli
rolofe
rom
romagnesi
romain
romains
roman
romande
romane
romanes
romans
romanti
rome
romin
rominne
romins
rompe
rompeure
rompont
ron
ronce
rond
ronde
rondea
rondeas
rondin
ronds
ronflant
ronfler
ronique
rons
ronsa
ront
ronxhe
ronxhes
rortografiaedje
rortografyi
ros
rosa
rose
roslante
ross
rosse
rossea
rosser
rossete
rossignol
rosti
rot
rotaedje
rotant
rotche
rotches
rotchfoirt
rotchi
rotcho
rote
roter
rotes
roteu
rotez
roti
rotnut
rotte
rou
roubliyi
rouchtete
roudje
roudjes
roue
rouf
roufion
roufions
roufla
rouge
roukes
roule
rouler
roumaneye
roumantche
roumdoudoum
roumin
roumins
rouspe
rousseau
rousselle
route
rouvi
rouwa
rouwale
rouwales
rouwe
rouwer
rouwess
roux
rouye
rouyot
roveye
rovi
roviance
rovie
roviou
rovyi
rovyisse
row
rowe
rowes
roy
roya
royal
royale
roye
royes
royi
royinne
royle
royon
royons
roytea
roz
roze
rozea
rozeas
rozire
rozou
rp
rpasse
rpasser
rpayi
rpe
rpi
rpind
rpint
rpixhe
rpiyi
rplante
rployi
rpoize
rpoizer
rpou
rprezintant
rprezintants
rprezinte
rprezinter
rprin
rprind
rprinde
rprinjhe
rprinjhes
rprins
rprotche
rprotches
rprotchi
rps
rque
rquer
rre
rrece
rreye
rreyes
rs
rsaetchaedje
rsaetchant
rsaetche
rsaetchi
rse
rseu
rshonnance
rshonne
rshonner
rsi
rsieve
rsint
rsintou
rso
rson
rsouwe
rsouwer
rsovni
rsumont
rt
rta
rtaedje
rtaedji
rtaeyi
rtance
rtant
rtante
rtape
rtbf
rtcha
rtche
rtchet
rtchi
rtchisse
rtchitecteure
rtchives
rtcho
rtchuveke
rte
rtea
rteas
rtene
rter
rtes
rteu
rteye
rteyes
rti
rticho
rticion
rticipe
rticipes
rticot
rticots
rticuli
rtif
rtificielmint
rtifs
rtike
rtikes
rtin
rtinance
rtine
rtinet
rting
rtire
rtis
rtisse
rtisses
rtistike
rtisyince
rtit
rtixh
rtixha
rtixhaedje
rtixhant
rtixhe
rtixheut
rtixhre
rtl
rtografeye
rton
rtou
rtoume
rtoumer
rtourne
rtourner
rtous
rtre
rtrouve
rtrouvnut
rtrove
rtrover
rts
rtu
rtumint
rtumints
rtune
rturesse
ru
ruba
ruban
rude
rudjeye
rudjin
rudy
rue
rujhe
rujhes
rujhu
rumex
rundstedt
rune
rurale
rusli
russe
russi
russule
rustea
rusteler
ruth
ruwe
rva
rvante
rvazi
rve
rveu
rvey
rveye
rvi
rvice
rvie
rvier
rvierdimint
rviker
rvinde
rvindje
rvindji
rvir
rvo
rvowes
rvu
rvuwe
rvuwes
rwa
rwaitant
rwaitants
rwaite
rwaiteye
rwaiti
rwaitive
rwaitnut
rwalonijhi
rwanda
rwangni
rwe
rwene
rwenes
rweri
rweya
rwine
ry
ryi
rze
rzeye
rzi
rzultat
rzultats
rɛ
rɛj
s
sa
sabat
sabaux
sabaye
sabine
sabots
sac
sacadji
sacramint
sacre
sacrifice
sacrifyi
sacristeye
sacwant
sacwante
sacwantes
sacwants
sacwe
saddam
sadje
sadju
saedje
saedjes
saedjesse
saetch
saetchaedje
saetchant
saetche
saetcheye
saetchi
saetchot
saetchots
saetchs
saeye
saeyea
saeyeas
saga
sage
sai
sain
saint
sainte
saints
sais
saison
saiss
sait
saive
saiwaedje
saiwe
saiwer
saiwire
saiwoe
saizi
sake
saki
sal
sala
salazar
sale
saler
salix
salle
salme
saloe
salomon
salon
salouwer
salut
saluta
salzene
sam
sambe
sambre
sambveye
same
samer
samin
saminne
samrou
samue
samwe
samwinne
samwinnes
san
sang
sanke
sans
sanson
sant
santa
sante
santiago
santiveus
sape
sapin
sapins
sapinse
sapinste
saquante
saquantes
saquants
saque
saqui
saquoe
saquoi
saqwants
saqwe
sara
sarachaga
saratxaga
sarazin
sarazins
sarde
sare
sart
sat
satan
satch
satche
satchi
sativa
sativum
sau
sauce
sauf
saurt
saut
sautau
saute
sauter
sauvadje
sauvage
sauve
sav
savans
savant
savants
savate
savates
save
saveu
saveur
saveut
savez
savi
savnut
savo
savoir
savon
savot
savou
savoye
savoz
savti
savu
saw
sawe
sawice
sawou
sawoura
saya
sayant
saye
sayes
sayi
sayive
saze
sba
sbara
sbarant
sbare
sbarer
sbarmint
sbe
sbetchaedje
sblari
sc
sca
scabe
scaillet
scalot
scanaedje
scanda
scaner
scanfa
scape
scawaedje
scawe
scaye
sce
sch
scha
schadrea
schaeffner
schaerbote
schaesses
schaesseus
schaessi
schafiote
schafyi
schalete
schapaedje
schape
schaper
schate
schave
schaver
schavrece
schaye
schayes
schayete
schayire
schayon
schayteu
schene
schenes
schete
schetes
schetler
schetter
scheu
scheure
scheut
scheuve
schi
schiele
schieles
schild
schiner
schinete
schinler
schinon
schinons
schipe
schiper
schira
schire
schirer
schita
schite
schiter
schitrou
schmitz
scho
schoefs
schoice
schoices
schoirc
schoirci
schome
schoovaerts
schorse
schorseye
schorsoe
schou
schoume
schoumer
schoumrece
schoupe
schove
schover
schoye
schoyou
scius
scla
sclameure
sclat
sclater
sclats
sclaubas
scle
sclide
sclimbe
sclimboigne
scluze
scn
sco
scoirpion
scolaedje
scole
scoler
scoles
scoli
scome
sconte
scontre
scoreye
scorion
scoryi
scou
scours
scra
scramer
scran
scre
screne
screpe
screper
scret
screye
scri
scribes
scrijha
scrijhaedje
scrijhaedjes
scrijhant
scrijhas
scrijhe
scrijheu
scrijheus
scrijheuse
scrijheut
scrijhnut
scrinea
scrini
scrire
scrit
scrote
scroter
scroufier
sculte
sculteu
scwa
scwere
scyince
sda
sdan
se
sea
seau
sebastopol
sec
seccion
second
secouer
sedyn
see
segni
seigneu
sein
seke
sel
sele
selon
selvais
sem
semaedje
semaine
semdi
seme
semer
semint
sene
senegal
senes
sens
sent
senter
sentir
sepe
seph
sepi
sepiance
sepou
sepreut
sept
septante
ser
sera
seracuze
serait
serans
serant
serbeye
sere
serena
serene
serer
seret
sereu
sereut
serez
serge
seri
serieus
serieuse
seront
seroz
serre
sert
serva
servais
service
servotte
serwai
ses
sessouwalite
set
setch
setche
setchi
setchmint
setchresse
setchri
setchs
sete
setimbe
setinme
setinne
seton
seu
seuie
seul
seule
seules
seulmint
seur
seure
seurmint
seurs
seus
seuve
seuye
sey
seyance
seye
sez
sfasie
sfwait
sfwaite
sfwaits
sg
sgondaire
sgondes
sgoter
sh
shabot
shaboti
shabots
sharealike
she
shele
sheles
shi
shijh
shijhe
shijhes
shijhinme
shijhinne
shijhler
shofele
shofla
shoflaedje
shoflant
shofle
shofler
shoflet
shoflete
shofleu
shonnance
shonne
shonner
shoufe
shu
shure
shuva
shuvance
shuvanmint
shuvant
shuvante
shuvants
shuve
shuveu
shuveus
shuveut
shuvion
shuvnut
shuvou
shuvowe
si
sia
siba
sibare
sibarer
sibereye
sibetchaedje
sic
sich
sicile
sicilyin
sicole
sicoles
sicoli
sicolodjike
siconte
sicoreye
sicret
sicretaire
sicrete
sicreye
sicri
sicrijha
sicrijhaedje
sicrijhaedjes
sicrijhas
sicrijheu
sicrijheus
sicrijheuse
sicrire
sida
sident
sidi
sidint
sidje
sidjes
sie
sieke
siekes
siera
siermint
siermon
sierpint
sierpints
sierra
siervaedje
siervant
siervante
sierve
sierveu
sierveut
siervi
siervice
siervices
siervou
siervowe
sies
sieu
sieve
sievnut
sif
sifwait
sifwaite
sifwaitmint
signe
signer
signeu
signeur
signeurreye
signeurs
signorreye
sigonde
sike
sikepieye
sikepyi
sil
silince
sillabe
sillabes
sillabusse
sillon
silo
silvin
simbole
sime
simenon
simince
simon
simone
simonis
simonon
simpe
simpes
simple
simplumint
simpmint
simwe
sin
sina
sinaedje
since
sincieu
sincieus
sincieuse
sincieuzmint
sindicat
sindrome
sine
siner
sing
single
singuli
singuliers
sinifiance
sinistre
sinne
sinnes
sinnetes
sinon
sinonime
sinonimes
sinonimeye
sins
sinsa
sinse
sinses
sinsiu
sint
sinta
sintaedje
sintake
sintant
sinte
sinter
sintes
sinteu
sinteut
sinteze
sinti
sintimint
sintimints
sintince
sintou
sintoz
sints
sintu
sion
sip
sipa
sipagne
sipale
sipata
sipe
sipecia
sipene
sipepieus
sipesse
sipexheur
sipite
sipiter
siponte
sipot
sipotaedje
sipotcha
sipotchaedje
sipotcheye
sipotchi
sipote
sipou
sir
sire
sireye
sirinke
siro
sis
siste
sistinme
sistinmes
sita
sitantche
site
siter
siti
sitind
sitindaedje
sitinde
sitindou
sitindowe
sititche
sititchete
sititchi
sitoele
sitoelreye
sitofe
sitok
sitou
sitouve
sitouwa
sitrame
sitroet
sitroete
sitron
situ
sivierba
six
siya
siyi
sizet
sja
sjɔ
sjɛ
sjɛʀ
sk
ska
ske
skelins
skepi
skepia
skepiaedje
skepiance
skepyi
sketch
sketchs
skete
sketer
ski
skignou
skin
skivter
sko
skol
sku
sky
skɔ
skɛ
skʀi
sla
slangen
sle
sler
slimin
sllw
slo
slovinne
smal
sme
smea
smince
sminces
smu
smwe
snaps
snr
so
sobayi
sobricot
sobriket
soc
soce
soces
socia
socialisse
socialisses
socie
societe
sociolinwince
sociolinwistike
soda
sodoirmant
soe
soeye
soeyexhe
soeyoz
sofle
sofler
sofrance
sofri
sofrixh
sofrou
sogne
sogni
sohait
sohaitaedje
sohaite
sohaiti
sohe
sohy
soi
soir
soire
soit
soke
sokete
sokyi
sol
sola
soladji
solaire
solar
sole
solea
soleas
soleil
solia
solide
solitaire
solo
solos
solrece
solrinne
solucion
solution
solwa
somadji
sombrefe
some
somja
somme
sommes
son
sondjant
sondje
sondjes
sondjeu
sondji
sondjive
sone
soner
song
songe
songi
sonk
sonle
sonne
sonner
sonre
sons
sont
sope
soper
sopoirt
sopoirter
sopoirteus
sopresse
sopwa
sor
sorcoinrece
sordjant
sordjou
sordre
sore
soret
soreye
sori
sorire
soris
sorleve
sorlever
sorlon
sort
sorte
sorti
sortir
sortite
sortitre
sortot
sorvike
sorviker
sorwalonde
sorwalondes
sos
sot
sote
sotea
soteas
sotni
sotnou
sots
sotte
sottiaux
sou
souche
souci
soucoun
soucouns
soucre
soucreye
souda
soudan
soude
souffle
sougnante
sougne
sougnez
sougniye
souk
souke
souker
soula
soulmint
soumey
sounaedje
soune
souner
sounete
souneu
soupe
sour
sourate
source
sourd
sourdant
sourdants
sourds
sours
sous
souv
souvenir
souvent
souviens
souvint
souvret
souwaedje
souwant
souwe
souwer
souweu
souweur
souwinne
souzane
sov
sove
soverdea
soverdeas
sovietike
sovietikes
sovin
sovint
sovnance
sovnances
sovni
sovnis
sovnoz
sovrin
sowe
soya
soyaedje
soyant
soye
soyete
soyeu
soyeus
soyi
soyoere
soyreye
soyu
sp
spa
spaak
spagne
spagnol
spale
spales
spani
spate
spater
spaurgni
spawta
spayisses
spc
spe
speate
specia
specialisse
specta
speculo
spene
spenes
spepieus
spepieuzmint
spepyi
spesse
spesses
spetin
spexhe
spexheur
speye
spg
spi
spie
spierkel
spin
spina
spine
spiner
spingue
spinoe
spinosa
spinreye
spirou
spirous
spitaedje
spitant
spitante
spitch
spite
spiter
spites
spitron
spitrons
spiyi
splawne
sple
spleu
spleus
splike
splinke
splitchant
splitchi
splossi
splunter
spo
spond
sponde
spondu
sponse
sponses
spontane
sponte
spontin
sporon
sporons
sport
sportif
sportifs
spot
spotaedje
spotcha
spotchaedje
spotchant
spotche
spotcheye
spotchi
spote
spoter
spots
spou
spoujhi
spoutnik
spozer
spp
spra
spre
sprewe
sprewes
sprimont
sprit
sprogni
sps
spu
spwe
spɔ
spɛ
squ
sque
sqwaire
sqwe
sre
sreut
ss
ssa
ssadje
ssaedje
ssai
ssale
ssance
ssant
ssante
ssatchi
sse
ssea
ssene
ssenes
sser
sses
ssete
ssetes
sseu
sseure
sseye
ssi
ssif
ssin
ssinte
ssion
ssire
ssires
sso
sson
ssonle
ssons
ssotea
ssou
ssu
ssus
ssyin
ssyinne
st
sta
staelens
stalene
staline
stamone
stampe
stanc
standa
standard
stans
stant
stantche
stantchi
staquet
star
stasse
state
stater
station
statistikes
stats
statut
staule
staure
stauve
ste
stedjreye
stefane
steinweg
stepe
steper
ster
steu
steule
steules
steut
steven
stez
sti
stia
stie
stiene
stienlet
stierni
stike
stin
stind
stinda
stindaedje
stinde
stindou
stindu
stint
stion
stirner
stit
stitchant
stitche
stitchete
stitchetes
stitchi
sto
stocaesse
stoe
stoelace
stoele
stoeles
stoeli
stof
stofant
stofe
stofer
stofes
stoide
stoisy
stok
stoke
stoks
stombyi
stone
stons
stop
stopa
stope
stoper
stos
stot
stou
stoumac
stoumak
stoumont
stouve
stoz
stra
straegne
strame
stramer
stre
streel
strek
strer
stri
strifion
strimaedje
strime
strimer
strin
strinde
strindou
strins
strintchamp
stritchaedje
stritche
stritchi
stroet
stroete
stroetmint
stromae
stron
stronne
stronner
strons
strou
strouk
stru
strwe
stu
studes
studeye
studia
studiaedje
studiaedjes
studiant
studiants
studias
studio
studyi
stwa
stwe
stɔ
stɛ
stʀa
stʀɔ
su
suars
subixhant
subtil
subzides
suc
succe
suci
sucre
sucri
sud
suddjonctif
sudjet
sudjetrece
sudjets
sudjonctif
suffixe
suis
suite
sujet
suke
sul
sullon
sultat
sun
suni
sunites
supe
super
supo
supple
sur
surale
sure
surface
surmint
surte
surtout
sus
sustance
sustantif
sustantifs
sustantivaedje
sustantivire
sute
suwe
suwede
suwedwe
sv
svierba
swa
swe
swele
swer
swere
swessante
swessantinne
swira
swisse
swɛ
sy
syin
syince
syinces
syins
syntaxe
syste
syʀ
sø
sœ
sɔ
sɔʀ
sɛ
sɛj
sɛn
sɛp
sɛt
sɛʀ
t
ta
tabeur
table
tableau
tablier
taburi
tacsi
tadje
taedje
taedjes
taenant
taene
taener
taenisse
taes
taesnire
taessea
taesson
taessons
taetche
taetches
taexhon
taexhons
taeyant
taeye
taeyes
taeyeu
taeyi
tagueu
tai
taient
taijhe
taijhoz
tail
taile
taille
tailler
taire
tais
taiss
tait
tak
take
takes
tal
tale
talon
talons
talus
tamazir
tambour
tamene
tamis
tan
tance
tandis
tandji
tane
tanfler
tang
tanganica
tango
tank
tanks
tans
tant
tante
tantea
tanto
tants
tapa
tapaedje
tapant
tape
taper
tapes
tapeu
tapeuse
tapez
tapis
tappe
taprece
tard
tas
tasse
tat
tata
tau
taudje
taurd
taurdji
taure
taussi
tauve
taviene
tawe
tawea
taxhe
taxhea
taxhlete
taye
taylande
tayon
tayons
tazota
tba
tblgr
tch
tcha
tchaba
tchabot
tchabote
tchabotes
tchaca
tchaeconk
tchaedje
tchaeke
tchaekene
tchaesconk
tchaf
tchafete
tchafia
tchafiaedjes
tchafo
tchafter
tchafyi
tchai
tchair
tchaire
tchairire
tchait
tchak
tchake
tchaleu
tchalon
tchalons
tchambe
tchambes
tchame
tchames
tchamosse
tchamosseure
tchamosseures
tchamossi
tchamp
tchampagne
tchampete
tchampi
tchampinne
tchampinnes
tchampion
tchampionat
tchampionats
tchampions
tchampnwe
tchamps
tchampyi
tchan
tchanc
tchance
tchances
tchande
tchandele
tchandeles
tchandji
tchandle
tchandleuse
tchane
tchansni
tchanson
tchansons
tchant
tchantaedje
tchantans
tchantant
tchantche
tchante
tchanter
tchanteu
tchanteus
tchanteuse
tchantez
tchanti
tchantnut
tchantoere
tchantre
tchantrece
tchantreye
tchants
tchapa
tchape
tchapea
tchapeas
tchapele
tchapeles
tchapia
tchapistrea
tchapite
tchaplet
tchapon
tchaptre
tchapurne
tcharite
tchat
tchatch
tchau
tchaud
tchaufer
tchaufeu
tchaur
tchaus
tchawe
tchawes
tche
tchedje
tchedjes
tchefsi
tcheke
tchekeye
tchena
tchenas
tchene
tchenea
tcheneas
tchenoe
tchenonne
tchenou
tchenvire
tcher
tchera
tcherbon
tcherbonaedje
tcherdje
tcherdji
tcherdon
tchere
tcherete
tcheretes
tchereye
tcheri
tcheriaedje
tcherin
tcheriot
tchermila
tcheron
tcherons
tcherowe
tcherowes
tcherpetaedje
tcherpeti
tcherpinte
tchersi
tcherte
tcherwaedje
tcherwe
tcherwer
tcherweu
tcheryi
tches
tcheslet
tcheslinea
tchespire
tchesse
tchesses
tchesseu
tchesseus
tchessi
tchession
tchestea
tchesteas
tchestret
tchestrole
tchestrolet
tchesturlin
tchesturlinne
tchet
tchete
tchetes
tchetidi
tchetoere
tchetoeres
tchets
tcheu
tcheus
tcheuse
tcheutche
tchevi
tcheyaedje
tcheye
tcheyes
tcheyire
tcheyires
tcheyou
tchfias
tchfo
tchi
tchicte
tchicter
tchife
tchifes
tchik
tchike
tchikes
tchiket
tchili
tchimeye
tchimicmint
tchimijhe
tchimike
tchimikes
tchimin
tchimine
tchimisse
tchimpion
tchin
tchini
tchinisse
tchinisses
tchinne
tchinnes
tchins
tchipote
tchipoter
tchir
tchire
tchirou
tchirous
tchitche
tchitches
tchitcheye
tchitchi
tchitchou
tchitchron
tchiva
tchivali
tchive
tchiveas
tchivene
tchiveye
tchivleure
tchivrou
tchiyote
tchmijhe
tchmin
tchmine
tchmins
tchmint
tcho
tchocola
tchoezeye
tchoezi
tchoezis
tchofe
tchofile
tchoi
tchok
tchoke
tchoker
tcholeur
tcholeurs
tchon
tchonveye
tchot
tchou
tchouk
tchre
tchu
tchuze
tchva
tchvea
tchveas
tchvene
tchveye
tchvirons
tchwe
te
tea
teau
tec
techelheyt
tecnicmint
tecnike
tecnikes
tecnolodjeye
tecse
tecses
tefi
tegne
tel
tele
teleferike
telefone
telefones
teler
televuzion
telin
telle
tement
temint
temoen
temoens
temognaedje
temonaedje
tempe
temps
temter
tenawete
tendre
tendu
tene
tenir
tenisse
tenonco
tentieux
ter
tera
terchedon
tere
teres
tereze
teri
teribe
terin
teris
terisse
teritwere
teritweres
terme
termene
termenes
termetant
termine
teroe
terorisse
terorisses
terrain
terre
ters
tertos
tertot
tertotes
tertous
tes
testamint
tet
tete
tetene
teter
tetes
tette
teu
teur
teure
teures
teurs
teus
teut
texhaedje
texhe
texheu
texhou
texhous
teya
teye
teyi
teyolodjeye
teyoreye
teyoricmint
teyorike
tez
teze
tfn
tg
th
tha
that
the
themelin
theo
there
they
thibeau
thie
thierry
thirion
thirionet
thiry
this
thomas
thompson
thomsin
thonet
thor
thoune
ti
tia
tiaedje
tiba
tibetin
tibi
tidje
tidjes
tie
tien
tiene
tienes
tienne
tier
tieraxhe
tiers
tiess
tiesse
tiesses
tiesticule
tiestire
tiestou
tieu
tif
tifinar
tifinare
tifinars
tifone
tifones
tige
tigne
tigneus
tigue
tijd
tijhner
tik
tike
tiket
tikets
tila
tilkin
timbe
time
times
timister
timp
timpe
timperateure
timpere
timpes
timpesse
timpli
timprou
timps
timusse
tin
tinaedje
tinant
tind
tinde
tindeu
tindje
tindou
tindreye
tindu
tine
tiner
tineut
tini
tinkiaedje
tinkyi
tinme
tinmes
tinne
tinou
tinowe
tinoz
tinre
tinroxh
tinru
tins
tint
tinte
tinter
tintin
tinzayeure
tinzintins
tion
tipe
tipetape
tipicmint
tipike
tipikes
tipografeye
tipografike
tique
tir
tira
tiraedje
tirant
tire
tirer
tireus
tiri
tirlibibi
tirou
tis
tise
tisse
tiste
tit
titche
tite
tites
titine
tito
titre
tits
tive
tiver
tiyi
tiyou
tizi
tizo
tja
tjɛ
tle
tler
tlindje
tmint
tnant
tne
tneut
tni
tniveye
tnou
tnut
to
tobolsk
tocoe
tocoste
tocter
tode
todi
todis
todroet
toe
toele
toeles
toenne
toet
toetea
toets
tofe
tofer
tohogne
toi
toide
toile
toirdaedje
toirdou
toirt
toirtcheye
toirtchi
toit
toitche
tok
toke
toker
tola
tole
toles
tolminme
tolmonde
toltins
tolu
tolus
tom
tomates
tombale
tombe
tomber
tombes
tombeur
tomboe
tome
tomes
ton
tonde
tone
tonea
toneas
tones
tonete
tongue
toni
tonike
tonire
tonk
tonne
tonner
tonoere
tons
tont
tonton
tonwere
top
topet
toplin
toponimeye
toponymie
topre
torade
toratte
tore
torea
toreas
torebay
torleuse
torne
tortea
tortos
tortotes
tos
tossa
tossaedje
tosse
tosser
tossi
tossint
tot
tota
totafwait
totafwaitmint
totaleure
totasteure
totava
tote
totenonco
toter
totes
totfeye
totossu
totoute
totshu
totsu
tott
tou
toubac
toubak
toubaks
toubion
touche
toucher
toudi
toudis
touffe
toujours
touma
toumaedje
toumant
toumas
toume
toumer
toumi
toupin
tour
tourbeye
tourdi
tourene
tourisse
tourisses
touristike
tourkeye
tourmint
tourmints
tournaedje
tournai
tournant
tournante
tournants
tourne
tourner
tourneure
tourniket
tournikete
tournisse
tourpene
tours
toursea
toursi
toursion
toursiveus
toursixhaedje
tourtous
tous
toussaint
tout
toutche
toutchi
toute
toutes
toutsi
toutsis
touwaedje
touwe
touwea
touwer
touweu
towe
toz
tr
tra
tracas
tracasse
trace
tracteur
tracteurs
tradu
tradujhaedje
traece
traeyin
trai
train
traire
trait
traitaedje
traitant
traite
traiter
traiti
traitmint
traitoe
traits
trake
trale
tram
trams
tranche
tranger
tranje
trankile
trans
transe
transene
transes
transi
transilvaneye
transine
translataedje
translataedjes
transliteraedje
transpoirts
trape
trapisse
trapisses
trau
travail
travailler
travay
travaye
travayi
travers
traveure
travos
trawaedje
trawe
trawer
traze
tre
trebouxhi
trece
trecins
trefe
tregne
trempont
trente
trepa
trepasse
trer
trera
tres
tresse
treu
treus
treva
treve
trexhe
treye
treyisse
trez
trezo
tri
tribole
tribu
tribuna
tribune
tribus
trifolium
trike
trimblene
trimer
trimle
trimler
trimpe
trimper
trin
trinite
trinne
trinner
trinnes
trinnmint
trins
trintche
trintches
trinte
trintinne
tripe
tripes
triple
tripler
trisse
triste
triticum
trive
trivie
trivierse
triya
triyane
triyanon
triyeu
triyingue
tro
trocle
trocrece
troejhinme
troejhinne
troes
trois
troke
trokes
trole
trompe
tromper
trompete
tron
tronc
tronce
trond
tronnant
tronne
tronner
tronnmint
trop
trope
tropea
tropeas
tropes
tropike
troplete
trossi
trot
trote
trou
trouble
troubler
troufe
troufes
troufire
troufler
troufreye
troufreyes
trouk
trouks
troupe
trouv
trouve
trouver
trouvre
trouvroz
trova
trovant
trovas
trove
trover
trovez
trovi
trovu
troye
troyes
troyreye
tru
truire
truke
trukes
trumint
truvie
trwa
trwe
try
ts
tsa
tt
tta
ttafwait
ttafwaitmint
ttaleure
tte
ttossu
tu
tube
tubes
tubize
tude
tudes
tue
tuer
tume
tunel
tunizeye
tur
turdus
ture
turkeye
turks
turon
turtos
tus
tuwe
tuza
tuzaedje
tuzaedjes
tuzance
tuzant
tuze
tuzer
tuzeu
tuzez
tuʀ
tv
twa
twas
twaʀ
twe
twelete
twenete
twin
twɛ
ty
tyi
tymologie
tymologique
type
tyʀ
tæ
tø
tœ
tɔ
tɔʀ
tɛ
tɛj
tɛk
tɛn
tɛt
tɛʀ
tʀa
tʀe
tʀi
tʀu
tʀy
tʀɔ
tʀɛ
tʀɛj
tʀɛs
u
ube
uch
uche
uci
ucl
ucw
udinme
udon
udonbe
uk
uke
ulb
ule
ulg
ulinne
ulone
umanite
ume
un
una
und
une
unesco
uneyes
uni
unico
unike
union
unis
unite
univ
universite
univiers
univiersele
univiersite
unn
unported
uns
up
ur
urdug
ure
ureus
ureuzmint
urlin
uro
urope
uropeyin
uropeyinne
uropeyins
uros
urss
us
usa
usage
usb
use
uste
usteye
usteyes
ut
ute
utilise
uva
uvcw
uve
uveut
uvou
uw
uwar
uyttebrouck
uzaedje
uzaedjes
uzance
uzances
uze
uzer
uzeu
uzeus
v
va
vacances
vacarme
vacce
vaccine
vaccinium
vaccins
vacha
vache
vadje
vadjes
vaedje
vagon
vagons
vai
vaice
vaici
vaila
vaillant
vais
val
valant
vale
valet
valets
valeu
valeur
valeure
valeurs
valeut
vali
valijhe
valise
valixhance
valixhances
valle
valmy
valou
valu
van
vandamme
vandereuse
vanderstoken
vandervelde
vane
vaner
vangile
vanorle
vans
vant
vante
vanter
vantrin
var
varade
variante
varyi
varyiste
vas
vase
vass
vasse
vat
vatche
vatches
vatchi
vatchresse
vatican
vau
vaurien
vaus
vaut
vaux
vayant
vayante
vayants
vaye
vdisse
ve
vea
veas
vece
vedje
vef
vegne
vegnes
vegnnut
veie
veille
veiller
veke
velaedje
vele
veler
velin
velire
velo
velos
venci
vene
venez
venezwela
venir
vent
venusse
vepes
ver
vera
verbe
verbok
verda
verdea
verdeure
verdeures
verdire
verdjale
vere
veres
verita
verite
verkin
verlaine
verlinne
vermer
verre
verreye
vers
vert
verte
verts
vervi
vervier
verviers
very
verzin
ves
veskeveye
vespre
vespriyon
vesse
vesses
vet
vetche
vete
veterinaire
vetes
veu
veule
veulire
veur
veus
veut
veux
veve
vevi
vexha
vexheye
vey
veya
veyanmint
veyans
veyant
veye
veyes
veyeu
veyeut
veyi
veyou
veyous
veyowe
veyowes
veyoz
veyu
vez
vi
via
viadje
viadjes
viance
vias
vica
vicaedje
vicai
vicance
vicans
vicant
vicante
vicantes
vicants
vice
vicia
vicnut
vicoter
vicre
victime
victor
victwe
victwere
vide
videyo
videyos
vie
viebe
viebes
viedje
vieille
vieme
viene
vienne
vient
vier
vierbire
vierbires
viere
vierge
vierlete
vierletes
vierna
viers
vierset
vierton
vietnam
vieux
vif
vigne
vigneron
vigot
vigreus
vii
viii
vijhe
vijhene
vijhenes
vijhna
vijhnaedje
vijnauve
vik
vikai
vikant
vike
viker
viki
vila
viladje
vile
vilete
vilin
villa
village
ville
villers
vilvo
vimbe
vin
vina
vinaigue
vinant
vincent
vind
vinda
vindaedje
vinde
vindeu
vindeus
vindeut
vindince
vindji
vindou
vindous
vindowe
vindu
vine
vineut
vinez
vingt
vini
vinki
vinou
vinous
vinowe
vinoz
vinre
vins
vint
vinta
vintche
vinte
vintinme
vintinne
vints
vinu
viole
violes
violete
violetes
violon
violoneu
violoneus
violonisse
vion
vique
viquer
vir
vire
vireu
vireus
viroux
viru
virus
virwin
virwinva
vis
visadje
vise
vision
visite
viss
visse
viste
vit
vitamene
vitamenes
vite
vitesse
vitmint
vitolet
viv
viva
vivacite
vive
vivi
vivre
vix
viya
viyadje
viyaedje
viyaedjes
viyance
viye
viyes
viyesse
viyole
vizaedje
vizaedjes
vize
vizite
viziter
vizon
vizu
vja
vjɔ
vjɛ
vjɛʀ
vla
vlaams
vlaedje
vlans
vlant
vle
vlea
vleas
vler
vlete
vleu
vleur
vleut
vli
vlon
vlote
vlou
vloz
vls
vlu
vlø
vmint
vna
vnant
vne
vneut
vni
vnire
vnou
vnous
vnowe
vnoz
vnu
vo
vocabulaire
vochal
voci
vocial
voe
voenne
voennes
voere
voeroz
voes
voess
voet
voeye
voeyeut
voeynut
voi
voici
voie
voila
voir
vois
voix
vol
vola
volaedje
volans
volant
volante
volantes
volants
vole
voler
volet
voleu
voleur
voleus
voleut
volez
voli
volleyball
volnut
volontaire
volontaires
volonte
volou
voloz
voltaire
volte
volti
voltru
volu
volucion
volume
volution
volve
von
vons
vont
voor
vor
vore
vorer
voreu
vormint
vos
voss
vosse
vost
voste
vot
votre
vou
voure
voureu
vouro
vous
vouss
vout
voux
voya
voyadje
voyadjeu
voyadji
voyaedja
voyaedjants
voyaedje
voyaedjes
voyaedjeu
voyaedjeus
voyaedji
voyage
voyale
voyales
voye
voyes
voyi
voylete
voz
vozo
vrai
vraie
vraiment
vraimint
vrais
vraiy
vraiye
vraiyes
vraiymint
vraiys
vray
vre
vrer
vresse
vreu
vri
vrienden
vrindts
vrite
vriteus
vriteuzmint
vrou
vrt
vru
vs
vsg
vte
vu
vuda
vudaedje
vudant
vude
vudes
vudi
vudive
vue
vulgare
vulgaris
vurce
vurna
vurne
vus
vut
vuwe
vuze
vuzion
vuzle
vwa
vwe
vwele
vweles
vweteure
vweteures
vwɛ
vy
vynckt
vø
vœ
vɔ
vɛ
vɛj
vɛl
vɛs
vɛt
vɛʀ
vʀe
vʀi
vʀɛ
w
wa
wache
waches
wachlire
wachote
wachoter
wadje
wadjeure
wadji
waedje
waeranteye
waeranti
waerantixhaedje
waerapi
waeraxhe
waeraxhes
waeraxhmint
waerbea
waerbeas
waeret
waerglaece
waerixhea
waerixhet
waerleu
waermaye
waernu
waerou
waesse
waessin
waeye
waezon
wagnle
wagon
wague
waha
wai
waibe
waibes
waidaedje
waide
waides
waidyi
waime
waire
waisse
wait
waita
waitant
waite
waiti
waitive
waitrou
wal
walakeye
walcou
wale
wales
walin
walipica
wallon
wallonie
wallonne
wallonnes
wallons
walloon
walo
walon
walonca
walond
walone
walones
waloneu
waloneus
waloneye
waloni
walonreye
walons
walter
walthe
wame
wan
wandion
wangna
wangnaedje
wangnant
wangne
wangnes
wangni
wangnre
wanlin
want
wants
wanze
wapeur
war
warabe
ware
wareme
warmich
warnant
warnier
warnin
warokea
warot
wartburg
wartique
warum
was
wasab
wash
washington
waslet
waste
wastea
wasteas
wastene
wat
watch
wate
waterlo
waut
waxhea
way
waye
wayi
wayimaedje
wayime
wayimer
wayindje
waʀ
we
web
wegniye
wekene
welin
wene
wer
werbestele
were
werene
werisse
werner
werotte
wes
wesla
wespireye
wespiyant
wess
wesse
wesses
west
wete
weu
wi
wiccionaire
wice
wie
wiket
wiki
wikidata
wikipedia
wikisource
wikisourd
wikt
wiktionary
wild
wilhelm
wilicom
will
willame
willem
william
willy
wilmotte
win
wind
windea
windows
winne
winner
wion
wionace
wions
wis
wisconsene
wisconsin
wisimus
wiss
wisse
wiste
wit
witche
with
wiya
wiyam
wiyere
wiyete
wiyinme
wo
wodon
woe
woeye
woeyi
wonze
world
wou
woye
wp
wu
www
wø
wɔ
wɛ
wɛs
wɛt
wɛʀ
x
xavier
xce
xh
xha
xhaedje
xhale
xhaler
xhalter
xhame
xhamea
xhames
xhant
xhavane
xhaxhler
xhe
xhea
xhene
xherbiner
xherbins
xhes
xheu
xheure
xheye
xhi
xhignesse
xhilete
xhiltant
xhiltante
xhilte
xhilteas
xhilter
xhina
xhinaedje
xhine
xhiner
xhiyi
xhle
xhner
xho
xhofrai
xhon
xhone
xhons
xhorbi
xhore
xhou
xhoutsiplou
xhufele
xhufla
xhuflaedje
xhufle
xhufler
xhuflet
xhufleu
xhwe
xi
xii
xiii
xiv
xix
xv
xvi
xvii
xviii
xx
xxi
xxii
xxiii
xxx
y
ya
yache
yaedje
yalta
yan
yance
yande
yane
yann
yannick
yans
yanse
yant
yants
yauk
ye
yebe
yebes
yemint
yene
yenut
yer
yerbe
yere
yes
yesse
yesses
yet
yete
yeu
yeure
yeus
yeusses
yeut
yeux
yexhe
yeye
yeyes
yez
yi
yin
yink
yinne
yins
yint
yinte
yis
yiste
yite
yive
yle
yler
ymint
ynaedje
yne
yner
ynete
ynetmint
yneu
ynu
ynut
yo
yod
yolodjeye
yolodjince
yon
yona
yons
yopo
yoran
york
yot
yote
yoter
you
yougoslaveye
your
youssef
youtube
yoz
yre
yrece
yresse
yreut
ys
ysay
yte
yu
yun
yussi
yute
yvan
yves
yvon
yvonne
z
za
zabele
zace
zadjes
zaedje
zaedjes
zaedjisse
zak
zan
zande
zandrins
zans
zant
zante
zantes
zants
zanzan
zavi
zba
ze
zea
zebes
zef
zel
zelande
zeles
zelle
zelles
zels
zer
zero
zes
zete
zeu
zeure
zeus
zeuse
zez
zgh
zh
zi
zia
zich
zicion
zido
zie
zijn
zim
zin
zine
ziner
zines
zingle
zingler
zinme
zion
zire
zita
zivembordjwe
zivembork
zivenbork
ziverco
ziyea
ziyon
zja
zjɔ
zjɛ
zlete
zletes
zlike
zmint
znut
zo
zolodjeye
zon
zone
zonigne
zoreyya
zos
zou
zouple
zoupler
zous
zre
zrene
zu
zucion
zucions
zultan
zumint
zus
zuvion
zwe
zwer
zwers
zy
zyinme
zø
zɔ
zɛ
zɛt
{
|
}
~

¢
£
¥
§
©
ª
«
­
°
±
²
³
´
µ
·
º
»
¿
×
ß
ßß
æ
ð
ðð
÷
ø
þþ
đ
ħ
ı
ĸ
ł
ŋ
ŋŋ
œ
œil
œuvre
œuvres
ŧ
ſ
ſi
ƕƕ
ƛ
ƣƣ
ƨƨ
ƫ
ƭ
ƴ
ƶ
ƽƽ
ƿƿ
ǀ
ǁ
ǂ
ǃ
ǌ
ǝ
ȝȝ
ȡ
ȣȣ
ȶ
ɂɂ
ɇ
ɏ
ɑ
ɑɑ
ɔ
ɔs
ɔɔ
ɔʀ
ɕ
ɖɖ
ɘ
ə
əə
ɛ
ɛl
ɛn
ɛs
ɛɛ
ɛʀ
ɡ
ɡa
ɡe
ɡi
ɡla
ɡle
ɡlɔ
ɡlɛ
ɡu
ɡø
ɡɔ
ɡɔt
ɡɛ
ɡʀa
ɡʀaw
ɡʀi
ɡʀy
ɡʀɔ
ɡʀɛ
ɢ
ɣ
ɣɣ
ɨ
ɩɩ
ɪ
ɫ
ɲ
ɲa
ɲe
ɲi
ɲu
ɲø
ɲɔ
ɲɛ
ɴ
ɵ
ɶ
ɸ
ɹ
ʀ
ʀa
ʀas
ʀat
ʀaw
ʀe
ʀi
ʀik
ʀis
ʀja
ʀji
ʀjɔ
ʀo
ʀt
ʀu
ʀwɛ
ʀy
ʀø
ʀœ
ʀɔ
ʀɔt
ʀɛ
ʀɛj
ʀɛn
ʀɛs
ʀɛt
ʀʀ
ʁ
ʃ
ʃa
ʃal
ʃat
ʃe
ʃi
ʃin
ʃo
ʃu
ʃy
ʃø
ʃœ
ʃɔ
ʃɛ
ʃɛn
ʃɛs
ʃɛt
ʃɛʀ
ʃʃ
ʇ
ʈ
ʊʊ
ʋʋ
ʏ
ʒ
ʒa
ʒat
ʒe
ʒi
ʒis
ʒo
ʒu
ʒwɛ
ʒy
ʒys
ʒø
ʒœ
ʒɔ
ʒɛ
ʒɛj
ʒɛn
ʒɛt
ʒɛʀ
ʒʒ
ʘ
ʙ
ʛ
ʜ
ʟ
ʤ
ʤɛ
ʧ
ʧi
ʧɛ
ʰ
ʲ
ʷ
ʻ
ʼ
ʾ
ˀ
ˁ
ˈ
ˌ
ː
ːˈ
ˑ
ˤ
̀
́
̂
̃
̄
̆
̇
̈
̉
̊
̋
̌
̍
̏
̐
̑
̓
̔
̘
̙
̛
̝
̞
̣
̤
̥
̦
̧
̨
̪
̭
̯
̰
̱
̲
̸
̽
͂
ͅ
͡
΄
α
β
γ
δ
ε
ζ
η
θ
ι
κ
λ
μ
ν
ξ
ο
π
ρ
ς
σ
τ
υ
φ
χ
ψ
ω
ϳ
а
в
е
и
к
с
ц
я
ְ
ִ
ַ
ָ
ׁ
ה
ח
מ
ש
،
؛
؟
ء
ا
اب
اح
ار
اس
ال
الا
الة
المفعول
ام
ان
اه
اي
ب
بة
بد
بر
بل
بن
بو
بي
ة
ت
ث
ج
جل
ح
حي
خ
خر
د
در
ديال
ذ
ر
رة
ري
ز
س
سم
ش
شي
ص
ض
ط
طة
ظ
ع
على
عند
عود
عي
غ
ف
فع
فل
في
ق
ك
كل
كم
كي
ل
لا
لة
لى
لي
ليالي
م
ما
مر
مش
مع
مل
من
ن
ه
هد
و
ور
وزن
ول
ى
ي
يجري
يد
ير
يل
ين
ً
ٌ
َ
ُ
ِ
ّ
ْ
ٓ
ٔ
ٕ
ٰ
ڭ
प
ि
ी
्
া
་
།
ག
ང
ད
ན
བ
ཡ
ར
ལ
ས
ི
ུ
ེ
ོ
ྱ
ា
ᴀ
ᴁ
ᴃ
ᴄ
ᴅ
ᴆ
ᴇ
ᴊ
ᴋ
ᴌ
ᴍ
ᴎ
ᴏ
ᴐ
ᴕ
ᴖ
ᴗ
ᴘ
ᴙ
ᴚ
ᴛ
ᴜ
ᴠ
ᴡ
ᴢ
ᴣ
ᵊ
ᵒ
ᵗ
ᵭ
ᵵ
ᵹᵹ
ᵻ
ᵾ
ᶁ
ᶏ
ᶑ
᷎
ẟ
ỽỽ
‎
‏
‑
‒
–
—
‘
’
“
”
†
•
…
′
‿
⁂
ⁿ
₡
₥
€
₮
₳
₵
₸
⃝
ℂ
℃
ℐ
ℑ
ℤ
ℨ
ℭ
℮
ℯ
ℰ
ℳ
ℴ
ℹ
ⅎⅎ
ⅰ
ⅴ
ⅹ
ⅼ
ⅽ
ⅿ
→
↔
↷
⇒
⇨
∀
∃
−
√
∧
∨
∫
≈
③
④
⑦
⒜
⒞
⒠
⒤
⒨
⒩
⒪
⒯
⒴
⒵
ⓐ
ⓒ
ⓔ
ⓕ
ⓘ
ⓙ
ⓚ
ⓛ
ⓜ
ⓝ
ⓞ
ⓟ
ⓢ
ⓣ
ⓤ
ⓥ
ⓦ
ⓧ
ⓨ
ⓩ
◌
☉
⟺
ⱥ
ⱦ
ⱶ
ⱷ
ⱻ
ⴰ
ⴱ
ⴳ
ⴴ
ⴷ
ⴹ
ⴻ
ⴼ
ⴽ
ⵀ
ⵃ
ⵄ
ⵅ
ⵇ
ⵉ
ⵊ
ⵍ
ⵎ
ⵏ
ⵓ
ⵔ
ⵕ
ⵖ
ⵙ
ⵚ
ⵛ
ⵜ
ⵟ
ⵠ
ⵡ
ⵢ
ⵣ
ⵥ
ⵯ
⺀
⺄
⺆
⺈
⺊
⺌
⺕
⺝
⺸
⺼
⿰
⿱
⿲
⿳
⿴
⿵
⿶
⿷
⿸
⿹
⿺
⿻
〢
あ
い
う
か
き
く
こ
し
す
た
ち
っ
つ
と
な
に
の
は
ひ
ふ
ほ
み
ゅ
ら
る
ん
゙
゚
ア
イ
コ
シ
ス
タ
ト
ニ
ノ
フ
ユ
ラ
リ
ル
ロ
ワ
ン
ー
㇁
㇂
㇄
㇇
㇈
㇉
㇓
㐁
㐄
㐅
㐌
㐫
㐬
㐭
㐮
㐱
㑒
㒵
㒸
㒼
㓁
㓞
㔾
㕛
㕣
㖾
㘝
㚅
㚇
㚔
㚘
㝉
㝡
㝴
㝵
㞋
㞢
㞷
㠩
㠭
㠯
㡀
㡭
㡿
㢲
㢴
㣇
㣺
㥯
㪅
㫄
㫐
㫒
㫺
㬅
㬎
㬥
㬰
㲋
㳄
㷠
㸒
㸚
㸦
㼌
㼲
㽞
㿟
䀠
䂞
䍃
䏍
䒑
䖍
䖒
䖝
䖵
䙴
䚻
䜌
䝿
䡛
䧹
䪞
一
丁
丂
七
丄
丅
丆
万
丈
三
上
下
丌
不
与
丏
丐
丑
专
且
丕
世
丘
丙
业
东
丞
丢
丣
两
严
並
丨
丩
个
丫
丬
中
丮
丰
丱
串
丵
丶
丷
丸
丹
为
主
丽
丿
乀
乂
乃
久
乆
乇
么
义
之
乌
乍
乎
乏
乐
乑
乔
乖
乗
乘
乙
乚
乛
乜
九
乞
也
习
乡
乳
乾
亀
亅
了
亇
予
争
事
二
亍
于
亏
亐
云
互
亓
五
井
亘
亚
亜
亞
亟
亠
亡
亢
交
亥
亦
产
亨
亩
享
京
亭
亮
亯
亰
亲
亳
亶
亷
人
亻
亼
亾
仁
今
介
仌
从
仐
仑
仒
仓
仕
他
付
仝
代
令
以
任
企
伊
伏
伐
休
会
伯
但
位
何
佘
余
作
佥
使
來
侈
侌
侖
侯
侵
便
保
俞
信
修
倉
倍
候
倠
備
僉
僕
儿
兀
允
兂
元
兄
充
兆
兇
先
光
兊
克
兌
免
兑
兒
兓
兔
党
兜
兟
入
全
兩
兪
八
公
六
兮
兰
共
关
兵
其
具
典
兹
兼
冀
冂
冃
冄
内
冈
冉
冊
冋
册
再
冎
冏
冐
冒
冓
冖
冗
冘
军
农
冝
冡
冥
冫
冬
冷
几
凡
凢
凵
凶
凷
凸
凹
出
函
凾
刀
刁
刂
刃
刄
刅
分
切
刍
刑
刕
刖
列
刘
则
初
別
利
别
到
制
刺
則
削
剌
前
剡
剽
劉
力
功
加
劦
助
劫
劳
劵
勃
勇
勉
勒
動
務
勞
勤
勹
勺
勻
勾
勿
匀
匂
包
匆
匈
匊
匋
匍
匕
化
北
匚
匝
匡
匪
匱
匸
匹
区
医
匽
匿
區
十
卂
千
卄
卅
卆
升
午
卉
半
卌
华
卑
卒
卓
单
卖
南
卜
卝
卞
占
卡
卢
卣
卤
卦
卩
卪
卬
卯
印
危
即
却
卵
卷
卸
卻
厂
厃
厄
历
厈
厉
厌
厓
厘
厚
原
厤
厥
厨
厭
厲
厶
厷
厸
去
厼
厽
叀
参
參
叅
又
叉
及
友
双
反
叐
发
叒
叔
叕
取
受
叚
叜
叟
口
古
句
另
叩
只
召
可
台
叱
史
右
叵
号
司
叹
吂
各
吅
合
吉
吊
吋
同
名
后
吏
向
吕
君
吝
吞
否
含
启
吳
吴
吹
吾
呂
呆
呈
告
员
呙
周
命
咅
和
咎
咠
咢
咨
咸
咼
哀
品
哉
員
哥
哲
唐
商
啇
問
啚
啬
啻
善
喜
喬
單
喿
嗇
噩
嚴
囊
囗
囘
囙
囚
四
回
囟
因
囧
囬
困
囱
囷
固
国
圂
圅
國
圍
圓
土
圡
圣
圥
在
圭
地
圶
圼
坐
坒
坚
坴
垂
垔
垚
埀
埋
埶
執
基
堂
堅
堆
堇
堯
塞
墨
壘
士
壬
壯
声
壳
壴
壹
壺
壽
夂
处
夅
夆
备
夊
夋
夌
复
夏
夒
夕
外
夗
夘
多
夜
夢
大
夨
天
太
夫
夬
夭
央
失
夲
头
夷
夸
夹
夻
夾
奂
奄
奇
奈
奉
奎
奏
奐
契
奓
奔
奚
奞
奠
奢
奥
奭
女
奴
奻
好
如
妄
妙
妟
妥
妻
妾
姑
委
姜
威
娄
婁
婴
嬰
嬴
子
孑
孔
孕
孖
字
存
孚
孛
孝
孟
季
孤
学
孫
孱
學
宀
宁
宂
它
宅
宇
守
安
宋
完
宏
宓
宗
官
定
宛
宜
宝
客
宣
室
宮
宰
害
家
容
宾
宿
寄
寅
密
富
寒
察
寧
審
寫
寬
寮
寸
对
寺
寻
寽
対
寿
封
尃
射
将
將
專
尉
尊
尋
尌
對
小
少
尒
尓
尔
尖
尗
尚
尞
尢
尣
尤
尧
尨
尭
就
尸
尹
尺
尻
尼
尽
尾
尿
局
居
屈
屋
屎
屏
屑
展
屖
屚
属
屠
屡
屬
屮
屯
屰
山
屵
屾
岁
岂
岑
岡
岩
岳
岸
峯
島
崇
崑
崔
崖
崙
崩
嵬
嶲
巂
巛
川
州
巟
巠
巢
巤
工
左
巧
巨
巩
巫
差
己
已
巳
巴
巷
巸
巽
巾
巿
帀
市
布
希
帚
帛
帝
带
師
席
帶
常
干
平
年
幵
并
幷
幸
幺
幻
幼
幽
幾
广
広
庄
床
底
店
庚
府
度
庫
庭
庶
康
庸
廉
廌
廛
廣
廩
廴
延
廷
建
廾
廿
开
弁
弃
弄
弇
弋
式
弓
弔
引
弗
弘
弜
弟
弥
弦
弱
張
強
强
彊
彌
彎
彐
彑
当
彔
录
彖
彗
彡
形
彥
彦
彧
彭
彳
役
彼
往
待
律
徒
得
徙
從
復
微
徵
心
忄
必
忌
忍
志
忝
忠
忩
快
念
忽
忿
思
怠
急
怱
恆
恒
恩
恭
息
悉
患
悤
悲
悶
惠
惡
惢
愁
愈
意
愛
感
慈
慧
慮
憂
憲
應
戀
戈
戉
戊
戋
戌
戍
戎
成
我
戒
戔
或
戚
戠
戢
截
戲
戶
户
戹
戼
戾
房
所
扁
扇
手
扌
才
打
托
执
承
折
拉
拜
拿
掌
推
提
摩
支
攴
攵
收
攸
改
放
政
敄
敏
敕
敖
敗
敝
敞
敢
散
敦
敫
敬
数
敷
數
斂
文
斉
斊
斗
斤
斥
斩
斬
斯
新
方
於
施
斿
旁
旋
族
无
旡
既
旣
日
旦
旧
旨
早
旬
旱
旲
时
旾
昆
昇
昌
昍
明
昏
易
昔
昗
昜
星
春
昬
是
昱
昴
昷
時
晃
晋
晏
普
景
晶
智
暑
暴
曇
曜
曩
曰
曲
曳
更
曷
書
曹
曼
曾
替
最
朁
會
月
有
朋
服
朔
朕
朗
望
朝
期
木
朩
未
末
本
札
朮
术
朱
朵
朶
朿
杀
杏
杜
束
条
来
東
杲
杳
松
析
林
枚
果
枝
枲
枼
某
柔
查
柬
柰
柴
栗
桀
桑
桼
梁
條
梟
梨
棘
棠
棥
森
楚
業
楽
榮
樂
樊
欠
次
欣
欮
欲
欶
欽
款
歆
歇
歛
止
正
此
步
武
歨
歪
歮
歯
歰
歲
歴
歷
歸
歹
歺
死
殳
段
殷
殸
殹
殺
殻
殿
毋
毌
母
每
毒
比
毕
毚
毛
毳
氏
氐
民
气
氣
水
氵
氶
氷
永
氺
氾
求
汉
汝
汞
江
沃
沓
沙
沝
泉
法
波
泣
泥
泰
洛
洪
活
派
流
浦
浪
浮
淡
淮
清
渚
渠
湯
滿
漢
漸
火
灬
灭
灰
灵
灷
炅
炎
炏
炗
炙
炭
為
烈
烏
烝
焉
無
焦
焱
然
煞
熊
熏
燕
營
燮
爪
爫
爭
爯
爰
爱
爲
爵
父
爻
爽
爾
爿
片
牙
牚
牛
牜
牟
牢
牧
牪
牽
犀
犬
犭
犮
狂
狄
狊
独
狺
猋
猒
猪
献
獻
玄
率
玉
王
玟
玨
珎
班
琴
瑟
瑩
瓜
瓦
甘
甚
生
産
用
甫
甬
田
由
甲
申
电
甶
男
甸
甹
画
甾
畀
界
畏
畐
留
畜
畟
畢
畧
畨
番
畫
異
畱
當
畺
畾
疊
疋
疌
疑
疒
疾
癶
癸
癹
登
發
白
百
皀
皃
的
皆
皇
皋
皐
皕
皮
皷
皿
盃
盆
盇
盈
益
盍
盎
监
盒
盖
盛
盡
監
盤
盧
目
直
相
盾
省
眇
眉
看
眔
眞
真
眷
眼
眾
着
睘
睪
睿
瞏
瞢
瞿
矍
矛
矞
矢
矣
知
矦
短
石
破
碎
磊
磨
示
礻
礼
祟
票
祭
禀
禁
禸
禹
禺
离
禽
禾
禿
秀
秃
秉
秋
科
秝
秦
移
稟
穀
穌
穴
究
穹
空
穿
突
窄
窒
立
竒
竜
竝
竟
章
童
竹
笑
笠
筆
等
答
箕
算
箴
節
篤
篭
米
粉
粛
粟
粤
粦
粲
糞
糸
糹
系
約
納
素
索
紫
累
細
絜
絫
絲
維
綿
縣
繇
纍
纟
缶
网
罒
罔
罕
罗
罙
罡
罢
罪
署
罷
羅
羊
羌
羍
美
羔
羕
羗
羞
羡
羣
群
義
羲
羸
羽
翁
翏
習
翕
翟
翠
翼
老
耂
考
者
耆
而
耎
耑
耒
耳
耴
耶
耷
聂
聊
聖
聚
聶
聿
肀
肃
肅
肉
肖
肙
肥
肩
肯
育
肴
胃
背
胡
胥
能
脊
脩
膚
臣
臤
臧
自
臬
臭
臯
臱
至
致
臺
臼
臽
臾
臿
舀
舂
舄
與
興
舉
舌
舍
舛
舜
舞
舟
般
艮
良
色
艸
艹
艾
芒
芔
芬
芮
花
芳
芺
芻
苔
苗
苟
若
苦
英
茶
茸
荅
草
荒
荣
荼
莆
莧
莫
莽
菆
菊
菐
華
萬
落
葉
著
葛
董
葵
蒙
蒦
蒼
蓋
蓬
蓺
蔑
蔡
蕉
蕭
薄
薛
薦
薰
藍
藏
藥
蘭
虍
虎
虐
虒
虔
處
虖
虗
虘
虚
虛
虜
虞
虫
虽
蚤
蚩
蜀
蜜
蟲
蠡
血
行
衍
衛
衣
衤
表
衮
衰
袁
袞
褭
褱
襄
襾
西
覀
要
覃
見
規
覓
覧
親
覽
见
角
解
言
訁
訇
計
詹
語
誩
諸
讠
语
谷
豆
豈
豊
豐
豕
豖
豙
象
豦
豩
豪
豸
貇
貝
貞
貟
負
貢
貧
貪
貫
責
貳
貴
買
費
賁
資
賈
賏
賓
賔
賛
賞
賢
賣
質
賴
贊
贝
贡
责
贯
贲
贵
赖
赞
赤
赦
走
越
足
路
蹇
身
躬
車
軍
軎
軟
輦
车
辛
辜
辟
辥
辰
辱
農
辵
辶
边
达
过
近
连
迷
追
退
送
逆
逐
通
速
造
逢
連
逮
週
進
遀
遂
過
道
達
遣
適
遷
遺
邊
邑
邕
那
邦
邪
郎
部
郭
都
鄉
酉
酋
配
酓
釆
采
里
重
野
量
金
釒
錢
钅
長
镸
长
門
閃
閉
開
閏
閑
閒
間
閔
閵
閻
闌
门
间
闷
阑
阜
阝
阿
降
陳
隆
隊
隋
隡
隨
隱
隶
隹
隺
隻
隼
隽
难
雀
雁
集
雈
雋
雍
雐
雔
雙
雚
雜
雝
離
難
雨
雩
雪
雲
零
雷
需
霍
霜
霝
霞
霸
靈
靑
青
非
靡
面
靣
革
韋
韦
韭
韯
韱
音
頁
頃
項
須
頗
頡
頻
顛
页
風
风
飛
飞
食
飠
養
饣
首
香
馬
馮
駦
马
骨
高
髟
鬥
鬯
鬲
鬼
魚
魯
鮮
鱼
鲁
鳥
鳳
鸟
鹵
鹿
麃
麗
麥
麦
麻
黃
黄
黍
黎
黑
黒
黨
黹
黽
黾
鼎
鼓
鼠
鼻
齊
齋
齐
齒
齿
龍
龙
龜
龟
龠
龰
龱
龴
龵
龶
龷
龸
龹
ꜣ
ꜥ
ꜧ
ꜫ
ꜭ
ꜯ
ꜰ
ꜱ
ꝋ
ꝛ
ꝝ
ꝣ
ꝩ
ꝫ
ꝭ
ꝯ
ꝶ
ꝸ
ꝺ
ꝼ
ꞃ
ꞅ
ꞇ
ꞌ
ꞓ
ꞔ
ꞗ
ꞛ
ꞝ
ꞟ
ꞵ
ꞷ
ꟺ
ꭅ
ꭆ
ꭐ
ꭓ
ꭡ
ꭥ
者
艹
？
＠
ａ
ｃ
ｅ
ｆ
ｉ
ｊ
ｋ
ｌ
ｍ
ｎ
ｏ
ｐ
ｓ
ｔ
ｕ
ｖ
ｗ
ｘ
ｙ
ｚ
￠
￥
𝐀
𝐂
𝐄
𝐈
𝐌
𝐎
𝐓
𝐘
𝐙
𝐚
𝐜
𝐞
𝐢
𝐦
𝐧
𝐨
𝐭
𝐲
𝐳
𝐴
𝐶
𝐸
𝐼
𝑀
𝑂
𝑇
𝑌
𝑍
𝑎
𝑐
𝑒
𝑖
𝑚
𝑛
𝑜
𝑡
𝑦
𝑧
𝑨
𝑪
𝑬
𝑰
𝑴
𝑶
𝑻
𝒀
𝒁
𝒂
𝒄
𝒆
𝒊
𝒎
𝒏
𝒐
𝒕
𝒚
𝒛
𝒜
𝒞
𝒪
𝒯
𝒴
𝒵
𝒶
𝒸
𝒾
𝓂
𝓃
𝓉
𝓎
𝓏
𝓐
𝓒
𝓔
𝓘
𝓜
𝓞
𝓣
𝓨
𝓩
𝓪
𝓬
𝓮
𝓲
𝓶
𝓷
𝓸
𝓽
𝔂
𝔃
𝔄
𝔈
𝔐
𝔒
𝔗
𝔜
𝔞
𝔠
𝔢
𝔦
𝔪
𝔫
𝔬
𝔱
𝔶
𝔷
𝔸
𝔼
𝕀
𝕄
𝕆
𝕋
𝕐
𝕒
𝕔
𝕖
𝕚
𝕞
𝕟
𝕠
𝕥
𝕪
𝕫
𝕬
𝕮
𝕰
𝕴
𝕸
𝕺
𝕿
𝖄
𝖅
𝖆
𝖈
𝖊
𝖎
𝖒
𝖓
𝖔
𝖙
𝖞
𝖟
𝖠
𝖢
𝖤
𝖨
𝖬
𝖮
𝖳
𝖸
𝖹
𝖺
𝖼
𝖾
𝗂
𝗆
𝗇
𝗈
𝗍
𝗒
𝗓
𝗔
𝗖
𝗘
𝗜
𝗠
𝗢
𝗧
𝗬
𝗭
𝗮
𝗰
𝗲
𝗶
𝗺
𝗻
𝗼
𝘁
𝘆
𝘇
𝘈
𝘊
𝘌
𝘐
𝘔
𝘖
𝘛
𝘠
𝘡
𝘢
𝘤
𝘦
𝘪
𝘮
𝘯
𝘰
𝘵
𝘺
𝘻
𝘼
𝘾
𝙀
𝙄
𝙈
𝙊
𝙏
𝙔
𝙕
𝙖
𝙘
𝙚
𝙞
𝙢
𝙣
𝙤
𝙩
𝙮
𝙯
𝚤
𠀁
𠀃
𠀆
𠀉
𠀎
𠀐
𠁁
𠁣
𠂆
𠂇
𠂈
𠂉
𠂊
𠂋
𠂎
𠂒
𠂔
𠂛
𠂡
𠂢
𠂤
𠂬
𠂭
𠂹
𠃊
𠃋
𠃌
𠃍
𠃎
𠃑
𠃓
𠃔
𠃜
𠄌
𠄎
𠄠
𠄢
𠆢
𠆥
𠇍
𠈌
𠌵
𠓜
𠔉
𠔥
𠔼
𠔽
𠔿
𠕀
𠕁
𠕋
𠘧
𠘨
𠙻
𠙼
𠚏
𠚒
𠚤
𠚪
𠣏
𠤎
𠤕
𠥓
𠦄
𠦑
𠦝
𠧒
𠧗
𠧪
𠩺
𠪚
𠫓
𠫔
𠫤
𠬛
𠬝
𠬞
𠬢
𠬤
𠬶
𠮛
𠮦
𠮷
𠯑
𠱠
𠳮
𠷎
𡈼
𡉀
𡉵
𡌥
𡍮
𡏳
𡕒
𡕩
𡕰
𡖅
𡗗
𡗜
𡘆
𡘤
𡧱
𡨄
𡩧
𡬠
𡭽
𡰣
𡰥
𡰪
𡰯
𡰱
𡷈
𡸁
𡿨
𡿩
𡿪
𡿺
𢀖
𢀛
𢀩
𢁙
𢆉
𢆰
𢆶
𢇁
𢇇
𢉖
𢌬
𢌿
𢏚
𢑑
𢑚
𢖻
𢙣
𢛳
𢦏
𢦒
𢧵
𢼄
𢾕
𣁋
𣄼
𣅀
𣅽
𣍘
𣎳
𣎵
𣏋
𣏼
𣗥
𣥂
𣥖
𣦵
𣦼
𣧄
𣪊
𣪠
𣬉
𣳾
𣶒
𤇾
𤊽
𤐫
𤓰
𤔔
𤕨
𤣩
𤰇
𤰔
𤰞
𤴓
𤴔
𤽄
𥁑
𥁕
𥃦
𥃩
𥃭
𥇡
𥑟
𥘅
𥘈
𥝢
𥫗
𥱡
𦈢
𦉪
𦉬
𦉼
𦍌
𦍒
𦎧
𦐇
𦓔
𦔮
𦘒
𦙃
𦚏
𦣝
𦣞
𦣻
𦥑
𦥔
𦥯
𦨉
𦭝
𦰩
𧆞
𧈧
𧘇
𧰨
𧴪
𧴮
𧵩
𧾷
𨸏
𨾴
𩙿
𩠐
𩫏
𩵋
𪉷
𪜀
𪟽
𪠲
𪩲
𫇦
𫔭
𫜸
𫝀
𫠣
𫠩
𫢉
𫥞
𫩏
𫩠
𫪡
𫲽
𫶧
𬀷
𬐘
𬗌
𬙙
𬛸
𬜯
𬟩
𬯁
𬴘
𬺻
𬼉
𬼖
𭀰
𭁈
𭁨
𭅰
𭑈
𭕄
𭗼
𭤨
𭥫
𭻾
𮅕
𮊿
𮍌
𮍏
𮓗
𮥼
𮧮
廾
𰀁
𰀄
𰀈
𰀉
𰀕
𰀠
𰀡
𰀢
𰀪
𰁜
𰃮
𰆊
𰆘
𰋙
𰕎
𰢴
𰧭
𰯲
40--
41--
42--
43--
44--
45--
46--
48--
49--
50--
51--
53--
55--
56--
61--
62--
64--
66--
67--
68--
69--
70--
71--
73--
76--
80--
87--
93--
99--
a--
aa--
ab--
aba--
abat--
abe--
abi--
abo--
abond--
abou--
abru--
absol--
absolu--
abu--
ac--
aca--
acci--
acer--
ach--
aci--
aclim--
aco--
acou--
acpa--
acpagn--
acse--
ad--
adapt--
ade--
adj--
adjon--
ado--
adro--
adu--
adv--
ae--
af--
afi--
afon--
ag--
aga--
agron--
agu--
aguel--
ah--
aha--
ahe--
ahou--
ai--
aigui--
air--
ais--
aiwi--
ak--
al--
ala--
ale--
algo--
ali--
all--
alle--
alm--
alo--
alou--
alpin--
alu--
am--
ama--
amant--
ambul--
ame--
amer--
ami--
amu--
an--
ana--
and--
ane--
angl--
ani--
anich--
ano--
ans--
ant--
anti--
ap--
apa--
ape--
api--
apo--
apro--
apur--
ar--
ara--
araeg--
arc--
ard--
ari--
arin--
arkeyo--
aro--
arou--
art--
artif--
as--
asco--
asdjam--
ashy--
assa--
asse--
assi--
asta--
aste--
at--
ata--
atch--
ate--
ater--
ati--
atmos--
atou--
atta--
atte--
au--
aus--
auto--
autru--
av--
ava--
ave--
avi--
avo--
aw--
await--
awi--
axh--
ay--
ayi--
az--
b--
ba--
babi--
bac--
bad--
bag--
bah--
bai--
bal--
bam--
ban--
band--
bapti--
bar--
bara--
barda--
barthol--
bas--
bat--
bata--
bati--
batu--
bau--
baw--
baxh--
bay--
be--
bea--
beau--
bec--
beg--
bel--
ben--
ber--
berwe--
bes--
betch--
beu--
bi--
bibli--
bie--
bijh--
bin--
bina--
bio--
bis--
biyo--
bla--
blan--
blaw--
ble--
blo--
blu--
bn--
bo--
bob--
boe--
boh--
boi--
bol--
bon--
bor--
bos--
bot--
bou--
bouf--
boun--
bour--
bout--
bouxh--
boy--
bra--
brac--
brai--
bran--
bras--
bre--
breu--
bri--
bric--
brimbo--
bro--
brou--
bru--
bu--
budd--
bul--
bur--
bus--
but--
bwa--
bwe--
bwejh--
c--
ca--
cac--
caf--
cafou--
cai--
cal--
cali--
caligu--
cam--
cama--
can--
cana--
canna--
cap--
capit--
car--
carabi--
cari--
carima--
carnas--
carot--
cas--
casca--
cat--
cau--
caval--
cay--
ce--
cem--
cer--
ces--
cf--
ch--
cha--
cham--
chan--
char--
chau--
che--
cher--
chi--
chif--
cho--
chou--
chu--
chuch--
ci--
ciber--
cie--
cin--
cir--
cis--
cit--
cl--
cla--
clande--
cle--
cli--
clim--
clo--
cm--
cmand--
cno--
co--
cob--
cocs--
coe--
cofe--
coi--
coid--
coir--
col--
cole--
coli--
colni--
com--
compa--
compli--
compt--
comu--
con--
conc--
concur--
confu--
conju--
cons--
cont--
contem--
cop--
cope--
coqu--
cor--
cori--
correc--
cos--
cot--
cou--
couni--
cour--
cous--
cout--
cov--
coz--
cra--
cran--
cre--
cri--
cris--
cro--
croe--
croejhe--
crom--
cron--
crou--
cru--
cs--
cta--
cu--
cul--
cur--
cwa--
cwar--
cwe--
cwi--
cy--
d--
da--
dai--
dal--
dam--
dan--
dans--
dar--
dau--
dd--
de--
deci--
del--
den--
der--
des--
det--
deu--
di--
dia--
dibi--
dic--
die--
dih--
dihot--
dik--
diloujh--
dim--
dime--
din--
dint--
diplo--
dir--
dis--
disco--
discu--
disfir--
disgos--
disho--
dist--
distro--
disvo--
div--
dixhom--
diya--
dj--
dja--
djam--
djan--
djaur--
dje--
djer--
djeyo--
dji--
djo--
djond--
djot--
djou--
dju--
djups--
dm--
dme--
do--
dob--
doc--
docs--
docu--
doe--
doet--
dol--
dom--
don--
dou--
dra--
dre--
dri--
dro--
dru--
ds--
dschin--
du--
duc--
dur--
dus--
duv--
dv--
dve--
dvin--
dwa--
dy--
dza--
dzo--
e--
ea--
ebe--
ec--
eca--
ece--
ech--
eco--
ecorae--
ed--
eda--
edit--
edja--
edjips--
edoi--
edu--
edur--
ef--
efar--
efor--
efou--
efu--
eg--
egay--
ego--
egur--
egzi--
eha--
eher--
ei--
ein--
el--
ele--
elec--
eli--
em--
emi--
en--
end--
ennu--
ensor--
entre--
epe--
epi--
epuf--
er--
era--
ere--
eri--
ero--
ershon--
eruni--
es--
escla--
espli--
esplo--
espo--
esqui--
ess--
est--
esti--
estre--
et--
eta--
etcher--
eter--
eto--
etrai--
eu--
eus--
ev--
eva--
evayi--
eve--
evo--
ew--
ewal--
ex--
expli--
explo--
extra--
ey--
ez--
f--
fa--
fabri--
fac--
fai--
fan--
far--
fas--
fat--
fau--
fe--
fel--
fem--
fer--
ferti--
fes--
festi--
feu--
fi--
fie--
fig--
fil--
fin--
find--
fini--
fir--
fis--
fit--
fla--
flam--
fle--
fli--
flo--
fo--
foe--
foi--
foir--
foit--
fon--
fonol--
foot--
for--
fore--
fort--
foto--
fou--
fouet--
four--
fra--
frai--
fram--
fraw--
frawi--
fre--
fri--
fro--
frou--
fru--
frum--
frut--
ft--
fu--
fut--
fwa--
fwe--
fy--
g--
ga--
gad--
gal--
gam--
gang--
gar--
gaspi--
gau--
gaut--
gaz--
ge--
gem--
gen--
ger--
ges--
gh--
gi--
gin--
gis--
gl--
glaw--
glawi--
gle--
gli--
glo--
glu--
gn--
go--
gob--
god--
gof--
goir--
gol--
gon--
gor--
gos--
gou--
gouver--
goydel--
gra--
gram--
gran--
graw--
gre--
grenou--
gri--
grin--
gro--
grou--
gru--
gu--
gue--
gui--
h--
ha--
hai--
hal--
ham--
han--
hant--
har--
harl--
hat--
haw--
haz--
he--
hem--
her--
hes--
heu--
hey--
hi--
hie--
hin--
his--
histo--
ho--
hom--
hon--
hop--
hos--
hot--
hou--
houl--
houp--
hu--
hy--
hypo--
i--
ia--
id--
ie--
ieu--
if--
igh--
ik--
il--
im--
ima--
impe--
impo--
impri--
in--
ina--
ind--
inde--
indi--
indus--
inf--
inspe--
insta--
int--
inte--
io--
ip--
ir--
irak--
is--
ist--
it--
iu--
iv--
iy--
izo--
j--
ja--
jan--
je--
jh--
jhi--
ji--
jo--
jodo--
jon--
jou--
ju--
k--
ka--
kai--
kaj--
ke--
kel--
ken--
ker--
kes--
ket--
keu--
kh--
kha--
khe--
ki--
kim--
kin--
km--
kno--
ko--
ku--
l--
la--
laborat--
lac--
lai--
lam--
lambo--
lan--
lar--
las--
lat--
lau--
law--
le--
lea--
lec--
ler--
les--
let--
leu--
lgi--
li--
lic--
lim--
limo--
lin--
linw--
lis--
lit--
lm--
lo--
loc--
loi--
lon--
long--
lor--
lot--
lou--
lov--
ls--
lt--
lu--
luc--
lume--
lus--
lwa--
lwe--
ly--
m--
ma--
mac--
mad--
madjo--
mag--
mai--
mal--
mala--
mam--
man--
manc--
manni--
mar--
mara--
mari--
mas--
mat--
mate--
mau--
maw--
max--
maz--
me--
med--
mei--
mel--
mem--
men--
ment--
mepri--
mer--
merovi--
mes--
messaedj--
met--
meu--
mey--
mezu--
mi--
mie--
mier--
mil--
mili--
mim--
min--
mir--
mirli--
mis--
mit--
mize--
mo--
mod--
moenn--
moi--
mol--
mon--
mons--
mor--
mori--
mos--
mot--
mou--
moxh--
mozin--
mu--
mult--
mur--
mus--
muz--
muzu--
mwai--
mwe--
mwin--
my--
mzu--
n--
na--
nai--
naivu--
narci--
nas--
nat--
natur--
navi--
naw--
naxh--
naza--
nc--
nd--
ndjo--
ne--
neder--
nes--
net--
neu--
ni--
nie--
nit--
nk--
nn--
no--
nom--
non--
not--
nou--
nour--
nr--
nt--
nu--
ny--
o--
ob--
obli--
oc--
odo--
oe--
oeu--
of--
off--
oh--
oi--
ok--
ol--
oli--
olo--
olym--
om--
on--
onies--
ont--
op--
open--
or--
ora--
ore--
org--
organi--
ori--
oroban--
os--
ossu--
ot--
oto--
ou--
our--
out--
ouv--
ovi--
p--
pa--
pac--
pai--
pal--
palus--
pan--
papi--
par--
para--
parc--
pare--
pas--
pat--
patri--
pau--
paw--
pay--
pe--
pel--
pen--
per--
peri--
pes--
pet--
petro--
peu--
pexh--
pexho--
ph--
pi--
pia--
pic--
pica--
pie--
pier--
pin--
pind--
pip--
pis--
pit--
piyo--
pla--
plai--
plat--
platch--
pli--
plind--
plo--
plou--
plu--
po--
poe--
poi--
pol--
poli--
poly--
pom--
pon--
poq--
por--
pos--
pot--
pou--
pouch--
pouri--
pra--
prandj--
prati--
pre--
pri--
pro--
prof--
profe--
provi--
pru--
pu--
pub--
pur--
pus--
put--
pwa--
py--
q--
qa--
qu--
qua--
que--
quere--
qui--
qwa--
qwi--
r--
ra--
raba--
rabo--
rac--
raca--
racu--
rad--
radio--
rae--
raf--
raga--
ragri--
rahop--
rai--
ral--
rale--
ralou--
ram--
ran--
rap--
rapa--
rape--
raprind--
ras--
rat--
rata--
ratchi--
ratoir--
ratro--
rau--
rava--
ravi--
raw--
rawi--
ray--
rayi--
rba--
rbi--
rbo--
rc--
rca--
rce--
rci--
rcins--
rco--
rcom--
rcono--
rcwer--
rd--
rde--
rdi--
rdin--
rdjon--
rdo--
re--
rec--
recou--
recroque--
red--
redji--
refra--
regre--
rela--
reli--
rem--
ren--
res--
respe--
respi--
respou--
resse--
ret--
reu--
rew--
reya--
rez--
rfi--
rfu--
rgu--
ri--
ribam--
ric--
rica--
rico--
ricom--
ricwer--
rid--
ridis--
ridji--
rif--
rigui--
rile--
riloc--
rilu--
rim--
rimos--
rimou--
rin--
rind--
rine--
rino--
rins--
rio--
ripa--
ripro--
rir--
ris--
rit--
ritou--
riv--
riva--
riyot--
rk--
rl--
rla--
rle--
rli--
rlu--
rma--
rme--
rmi--
rmim--
rmon--
rmou--
rmu--
rna--
rne--
rni--
rno--
ro--
rob--
roe--
rom--
ron--
ros--
rot--
rou--
rouv--
roz--
rp--
rpi--
rpoi--
rpro--
rs--
rsae--
rse--
rsho--
rshon--
rsi--
rt--
rta--
rti--
rto--
rtou--
rtrou--
ru--
rujh--
rvi--
rvo--
rwa--
rwalni--
s--
sa--
sac--
sacru--
sai--
sal--
salop--
sam--
san--
sar--
sat--
sau--
sav--
saw--
sba--
sbe--
sc--
sca--
sch--
scha--
scher--
schi--
scho--
schu--
scie--
scle--
sco--
scou--
scra--
scult--
scus--
se--
sec--
sei--
sel--
sem--
semit--
ser--
seri--
ses--
set--
seu--
sg--
sh--
she--
shijh--
shin--
shof--
shofel--
shon--
shouf--
shu--
si--
siba--
sic--
sicol--
sie--
sif--
signa--
sike--
sil--
sim--
simpli--
sin--
sinna--
sip--
sipit--
sir--
sis--
sitri--
situ--
siya--
sk--
ske--
ski--
sla--
so--
soc--
socio--
soe--
soi--
sol--
som--
son--
sor--
sori--
sorreya--
sos--
sot--
sou--
souf--
sov--
sp--
spa--
spani--
spe--
spi--
splaw--
spli--
split--
splo--
spo--
spu--
squ--
ssa--
st--
sta--
ste--
sti--
sto--
stoe--
stoir--
stou--
stra--
stri--
stu--
su--
sub--
subzi--
suc--
sud--
sul--
supp--
suppor--
sur--
surveil--
sus--
sv--
swa--
swe--
swer--
sy--
syl--
sym--
t--
ta--
taen--
tai--
tal--
tam--
tan--
tant--
taqui--
tas--
tat--
tau--
tay--
tch--
tcha--
tchari--
tche--
tcher--
tches--
tchi--
tcho--
tchu--
te--
tech--
tel--
tele--
tem--
tend--
tent--
ter--
tera--
tes--
tet--
tex--
teyo--
th--
thy--
ti--
tie--
tilm--
tim--
timp--
tin--
tir--
tis--
tit--
titu--
tiz--
to--
tocs--
toi--
tom--
ton--
topon--
tos--
tot--
tou--
tour--
tous--
touw--
tra--
tradi--
tranqu--
tranquil--
trans--
tre--
trem--
tres--
tri--
tric--
trim--
trin--
tro--
troe--
tron--
trou--
tru--
ts--
tt--
tu--
tuni--
tur--
ty--
u--
un--
uni--
univer--
up--
ur--
uro--
us--
ut--
v--
va--
vacc--
vaga--
vai--
val--
vali--
van--
var--
vau--
ve--
ver--
ves--
veu--
vi--
via--
vic--
vie--
vier--
vik--
vin--
vind--
vir--
vis--
vit--
viv--
vla--
vo--
voe--
voi--
vol--
von--
vor--
vot--
vou--
vri--
vu--
vul--
vy--
w--
wa--
wacho--
waeri--
waez--
wai--
wal--
wan--
war--
was--
wayi--
we--
web--
wer--
wes--
whe--
whi--
wi--
wie--
wiki--
wim--
win--
wo--
woliga--
wu--
x--
xh--
xha--
xhe--
xherbi--
xhi--
xho--
xhof--
xhu--
xx--
y--
ya--
ye--
yer--
yi--
yin--
yo--
yu--
z--
za--
zam--
zan--
ze--
zef--
zel--
zi--
zig--
zim--
zin--
zo--
zon--
zou--
zu--
æ--
œ--
ſ--
ɔ--
ɛ--
ɛs--
ɡ--
ɣ--
ɲ--
ʀ--
ʀa--
ʁ--
ʃ--
ʒ--
ʤ--
ʧ--
ا--
ال--
ب--
ت--
ج--
ح--
حز--
خ--
د--
ر--
ز--
س--
سم--
ش--
ص--
ض--
ط--
ع--
غ--
ف--
فل--
ق--
ك--
كر--
ل--
م--
مد--
مس--
ن--
ه--
و--
وا--
ي--
ڭ--
--0
--1
--2
--3
--4
--40
--5
--6
--7
--8
--9
--a
--ac
--ace
--ad
--ade
--adje
--ae
--aedje
--age
--ager
--ai
--ail
--ain
--aine
--aire
--ais
--ak
--al
--ale
--alite
--am
--an
--ance
--ane
--ans
--ant
--ante
--anus
--ar
--ard
--aria
--as
--asse
--at
--ate
--atum
--au
--aud
--aux
--ay
--aye
--ayes
--ays
--b
--ba
--banne
--be
--ber
--bi
--billon
--ble
--blement
--bo
--bon
--bu
--burg
--bwe
--byi
--c
--ca
--cago
--ccion
--ce
--cea
--ceau
--cer
--ces
--ch
--cha
--chaedje
--che
--chi
--cht
--chta
--chte
--chu
--ci
--cia
--cieu
--cieus
--cion
--cipe
--cir
--ck
--cle
--co
--cot
--cq
--cs
--cse
--ct
--cta
--ctaedje
--cte
--cti
--ctif
--ction
--cu
--cum
--cus
--cyin
--d
--da
--dam
--de
--der
--des
--dge
--dgi
--di
--dia
--diccion
--din
--dj
--dja
--dje
--dji
--do
--don
--dor
--dou
--dre
--ds
--du
--dun
--e
--ea
--eas
--eau
--ed
--edi
--edje
--edjes
--ef
--ek
--el
--ele
--els
--em
--ement
--en
--ence
--ene
--eni
--ent
--ep
--er
--ere
--erpe
--ers
--es
--ese
--et
--ete
--etes
--ets
--ette
--eu
--eur
--eure
--eus
--euse
--eut
--eux
--eye
--eyes
--ez
--f
--fa
--fe
--fen
--fer
--fes
--ff
--ffe
--fi
--fle
--fler
--fo
--fonike
--fonikes
--fou
--fs
--fte
--fter
--fto
--fu
--fyi
--g
--ga
--gan
--gance
--ge
--gen
--ger
--gh
--ghe
--ght
--gi
--gie
--gir
--gle
--gn
--gna
--gnaedje
--gne
--gni
--gnies
--gnnut
--gny
--go
--gou
--gre
--gs
--gu
--gue
--gus
--h
--ha
--he
--hen
--heu
--hi
--hili
--hir
--hl
--hn
--ho
--hr
--hre
--ht
--hu
--hus
--hy
--hyi
--i
--ia
--iaedje
--ial
--iant
--ias
--ibe
--ic
--ica
--ice
--icion
--ico
--id
--ida
--ie
--ien
--ient
--ier
--ieu
--ieye
--if
--ifyi
--ig
--ige
--igne
--ii
--ijhe
--ik
--ike
--ikes
--il
--ile
--illage
--ille
--ime
--imont
--in
--ince
--ine
--ines
--inete
--ing
--ini
--inme
--ino
--ins
--int
--io
--iom
--ion
--ior
--iot
--iote
--iou
--ip
--ique
--ir
--irder
--ire
--ires
--iro
--iryi
--is
--ise
--iser
--isme
--isse
--isses
--iste
--it
--ite
--itin
--itude
--ium
--ius
--ive
--iya
--iye
--iyi
--ize
--j
--ja
--je
--jeu
--jh
--jha
--jhant
--jhe
--jhi
--jhnut
--ji
--jn
--jo
--k
--ka
--ke
--ker
--kes
--ket
--keye
--ki
--kion
--ko
--ks
--kt
--l
--la
--lag
--lage
--lala
--las
--ld
--le
--lement
--len
--ler
--les
--let
--leu
--leur
--ley
--lf
--li
--lia
--lie
--lin
--lir
--lis
--lisse
--lk
--lke
--ll
--lla
--lle
--ller
--llon
--lly
--lo
--logie
--lon
--lot
--lou
--lrece
--lreye
--ls
--lt
--lti
--lu
--ly
--lz
--m
--ma
--man
--mans
--mb
--mba
--mbe
--mble
--me
--ment
--mer
--mes
--mi
--mia
--mie
--min
--mint
--mion
--mis
--mler
--mment
--mo
--mon
--mont
--mor
--mp
--mpe
--mps
--mre
--ms
--mt
--mte
--mter
--munyi
--my
--myi
--n
--na
--naire
--nant
--nc
--nce
--ncer
--nces
--nche
--nci
--nd
--nda
--ndant
--nde
--ndeye
--ndi
--ndja
--ndjaedje
--ndjant
--ndjne
--ndo
--ndou
--ndowe
--ndre
--ndu
--ndula
--ne
--nea
--nel
--nelle
--ner
--nes
--neu
--ng
--nge
--ni
--nie
--nier
--niom
--nir
--nk
--nker
--nle
--nler
--nme
--nmint
--nmmint
--nn
--nne
--nner
--nnut
--no
--noe
--nois
--non
--not
--nou
--nquet
--ns
--nse
--nt
--nta
--ntchi
--nte
--nter
--nti
--ntin
--nts
--nu
--num
--nut
--nwe
--ny
--nyin
--o
--od
--oe
--oes
--oge
--ogie
--oi
--oin
--oine
--oir
--oire
--ois
--ok
--oke
--oker
--ol
--ole
--oler
--olus
--om
--ome
--on
--ona
--ond
--one
--oni
--onne
--onner
--ons
--ont
--or
--ore
--ort
--os
--ot
--ota
--ote
--ots
--otte
--ou
--oune
--our
--ous
--ouwe
--ouwer
--oux
--ov
--ow
--owe
--owes
--oy
--oz
--p
--pa
--pe
--pect
--pel
--per
--pes
--phie
--pi
--pia
--pio
--pir
--plaedje
--ple
--po
--port
--ppe
--pper
--pre
--ps
--pt
--pte
--pti
--pu
--pyi
--q
--qu
--que
--r
--ra
--rai
--rait
--rans
--rant
--rc
--rce
--rch
--rci
--rd
--rde
--rdi
--re
--rec
--rece
--ren
--rer
--res
--resse
--ret
--reu
--reus
--reut
--reye
--reyes
--rg
--ri
--ria
--rie
--rin
--rium
--rius
--rix
--rk
--rlou
--rme
--rn
--rna
--rne
--rner
--rnut
--ro
--ron
--ront
--rou
--roz
--rre
--rs
--rsa
--rse
--rser
--rsi
--rt
--rte
--rti
--ru
--rum
--rus
--ry
--ryi
--ryinne
--s
--sa
--sance
--sch
--se
--sen
--ser
--ses
--sh
--si
--sin
--sk
--sne
--so
--son
--ss
--ssa
--sse
--sses
--ssi
--st
--sta
--ste
--stea
--ster
--su
--t
--ta
--tage
--tai
--tan
--tche
--te
--teke
--ten
--ter
--tes
--teu
--teur
--th
--ti
--tic
--tie
--tier
--tif
--tig
--tike
--tikes
--tile
--tin
--tion
--tium
--tle
--to
--ton
--tou
--tra
--tre
--ts
--tt
--tte
--ttes
--tu
--tus
--twe
--twere
--ty
--tz
--u
--ua
--uan
--uce
--ud
--uda
--ude
--ue
--uer
--uf
--ufa
--ui
--uit
--uje
--ul
--ula
--ule
--ulet
--um
--ume
--umer
--umont
--un
--une
--ur
--ura
--ure
--urer
--ures
--uri
--urne
--urs
--us
--use
--uses
--usse
--ut
--utchi
--ute
--uve
--uwe
--uwer
--ux
--uy
--uye
--uyi
--uzmint
--v
--va
--val
--ve
--vel
--ver
--ves
--veu
--veuzmint
--veye
--vi
--vidi
--vie
--vnut
--vo
--vra
--vre
--vter
--vu
--w
--wa
--we
--wer
--wes
--wi
--win
--wn
--wo
--wre
--ws
--wt
--wte
--wyi
--x
--xe
--xh
--xha
--xhaedje
--xhance
--xhant
--xhante
--xhe
--xheu
--xheut
--xhi
--xhmint
--xhnut
--xhoe
--xhowe
--xhre
--y
--ya
--ye
--yes
--yeu
--yi
--yin
--yince
--yisse
--yle
--ymint
--yn
--ynut
--yo
--yoe
--yon
--you
--yowe
--yoz
--yre
--yreye
--yter
--yti
--yu
--z
--za
--zaeci
--ze
--zene
--zer
--zet
--zeye
--zi
--zig
--zin
--ziye
--zo
--zoe
--zyin
--æ
--ø
--œ
--œu
--ɑ
--ɔ
--ɛ
--ɛt
--ɲ
--ʀ
--ʁ
--ʃ
--ʒ
--ς
--ا
--ب
--ة
--ت
--ج
--جة
--ح
--خ
--د
--دة
--ر
--ز
--زة
--س
--سة
--ش
--ص
--ض
--ط
--ع
--ف
--فة
--ق
--ك
--ل
--م
--ن
--ه
--ها
--و
--وس
--ى
--ي
--ية
--ڭ
