!
"
#
##0
##1
##10
##11
##12
##13
##14
##15
##16
##17
##18
##19
##2
##20
##21
##22
##23
##24
##25
##26
##27
##28
##29
##3
##30
##31
##32
##33
##34
##35
##36
##37
##38
##39
##4
##40
##41
##42
##43
##44
##45
##46
##47
##48
##49
##5
##50
##51
##52
##53
##54
##55
##56
##57
##58
##59
##6
##60
##61
##62
##63
##64
##65
##66
##67
##68
##69
##7
##70
##71
##72
##73
##74
##75
##76
##77
##78
##79
##8
##80
##81
##82
##83
##84
##85
##86
##87
##88
##89
##9
##90
##91
##92
##93
##94
##95
##96
##97
##98
##99
%
&
'
(
)
*
+
,
-
.
/
0
00
000
0001
001
01
02
03
04
05
06
060
067
07
08
09
1
10
100
1000
101
102
103
104
105
106
107
108
1080
109
1093
11
110
1100
111
112
113
114
115
116
117
118
119
12
120
1200
121
122
123
124
125
126
127
128
129
13
130
1300
131
132
133
134
13422577
135
136
137
138
139
14
140
1400
141
142
143
144
145
146
1475
14790
148
1480
149
1496
15
150
1500
1505
151
1519
152
1520
153
1533
154
1541
1543
155
156
1563
1564
1568
157
15732482
158
1580
159
1596
1598
16
160
1600
161
1613
1614
1617
162
163
1630
1632
1639
164
1642
1645
165
1650
166
167
1676
168
1682
1684
169
1693
1694
1696
17
170
1700
1707
171
1710
172
1721
1725
1727
17299517
173
1730
17378135
174
1740
1741
1743
175
1750
1756
1758
176
1760
1762
1768
1769
177
1770
1773
1774
1775
1777
1778
1779
178
1781
1782
1784
1785
1786
1788
1789
1789619
179
1790
1791
1792
1794
1796
1797
1798
1799
18
180
1800
1801
1802
1803
1804
1805
1808
1809
181
1810
1811
1812
1813
1814
1815
1816
1817
1818
1819
182
1820
1821
1822
1823
1824
1825
1826
1827
1828
1829
183
1830
1831
1832
1833
1834
1835
1836
1837
1838
1839
184
1840
1841
1842
1843
1844
1845
1847
1848
1849
185
1850
1851
1852
1853
1854
1855
1856
1857
1858
1859
186
1860
1861
1862
1863
1864
1865
1866
1867
1868
1869
187
1870
1871
1872
1873
1874
1875
1876
1877
1878
1879
188
1880
1881
1882
1883
1884
1885
1886
1887
1888
1889
189
1890
1891
1892
1893
1894
1895
1896
1897
1898
1899
19
190
1900
1901
1902
19025604
1903
1904
1905
1906
1907
1908
1909
191
1910
1911
1912
1913
1914
1915
1916
1917
1918
1919
192
1920
1921
1922
1923
1924
1925
1926
1927
1928
1929
193
1930
1931
1932
1933
1934
1935
1936
1937
1938
1939
194
1940
1941
1942
1943
1944
1945
1946
1947
1948
1949
195
1950
1951
1952
1953
1954
1955
1956
1957
1958
1959
196
1960
1961
1962
1963
1964
1965
1966
1967
1968
1969
197
1970
1971
1972
1973
1974
1975
1976
1977
1978
1979
198
1980
1981
1982
1983
1984
1985
1986
1987
1988
1989
199
1990
1991
1992
1993
19938912
1994
1995
1996
1997
1998
1999
2
20
200
2000
2001
2002
2003
2004
2005
2006
2007
2008
2009
201
2010
2011
2012
2013
2014
2015
2016
2017
2018
2019
202
2020
2021
2022
203
204
205
206
207
208
209
21
210
211
21223
214
21401824
215
216
217
219
22
220
221
222
223
224
225
228
229
23
230
231
232
233
234
235
236
237
237227
238
239
24
240
242
244
245
246
25
250
251
252
254
255
256
257
258
259
26
260
261
262
263
264
265
266
267
268
269
27
270
273
274
275
28
280
281
282
283
284
285
287
288
29
290
292
293
294
295
297
298
299
3
30
300
3000
301
302
304
3055
306
308
309
31
310
311
312
313
314
315
316
317
318
32
320
321
322
323
324
325
326
328
329
33
330
331
332
333
334
335
336
337
338
339
34
340
342
343
344
347
348
35
350
356
3561957
358
36
360
361
362
3621644
363
365
36578
37
375
38
380
39
4
40
400
402
409
41
410
412
417
42
43
44
440
45
450
46
460
467
47
48
49
491
495
5
50
500
5000
51
517
52
520
53
54
5446
55
550
56
57
5790
58
59
6
60
600
6036
61
610
62
622
63
64
65
650
66
67
68
69
699
7
70
700
7000
71
72
722
73
74
740
748
75
750
76
77
78
783
79
7979
8
80
800
81
814
8142
82
83
84
85
850
86
87
88
884
884446
89
9
90
900
91
92
93
930
94
95
950
951
952
953
96
963
967
97
9715
97719790
977378
978
98
99
:
;
<
=
>
?
@
[
\
]
^
_
`
a
aa
aalto
aazien
aazies
abba
aberi
abertawe
abertawen
ablonu
about
abr
abraham
abramov
abramovan
abu
ac
acade
accademiadellescienze
achille
acref
actes
ad
ada
adam
adams
adanke
adar
admirualu
adolf
adressi
adrienmeren
afganistuananke
afganistuanu
afini
afinoin
afon
afriekan
afriekas
afriekku
afrikan
afrikas
ag
agencia
agjuva
agojev
ah
ahan
ahat
ahava
ahmatistu
aho
aholoil
ahtia
ahven
ahvendu
ahvenkaloin
ai
aic
aiga
aigah
aigaine
aigannu
aigazis
aigoih
aigu
aigua
aigukavven
aiguva
aiguvyo
aija
aijakse
aijal
aijan
aijanluguu
aijannu
aijas
aijemba
aijembah
aijembi
aijoi
aijoin
aijois
aikovskii
ainavo
ainavokse
ainavoluaduine
aine
aineh
ainehen
ainehennu
ainehet
ainehien
ainehii
ainehtu
aino
ainos
aires
aittu
aix
aja
ajan
ajankohta
ajattelii
ajatustu
ajau
ajeli
ajoi
ajua
ak
akadiemiekku
akan
akatemian
akira
akkazin
akkiloic
akko
akkompanementu
akku
akl
akov
aks
akse
akseli
akt
aktiivine
aktiivizesti
aktiivizet
aktinoidoin
aktivistu
al
ala
alah
alaine
alajoukon
alal
alalleh
alalline
alan
alangomualoin
alanko
alapuoli
alas
alasaksikse
alasaksin
alastu
alavozen
alazen
alazes
alazet
alazien
alazii
alazis
alba
albert
albifrons
album
ale
aleksandr
aleksandra
aleksandran
aleksandru
alekseevic
aleksei
aleksejevic
aleksi
aleksis
alemba
alexander
alfred
algai
algajen
algau
algavui
algavuu
algebran
algoi
algu
alguaineh
alguainehen
alguainehien
alguainehis
alguainehtu
alguh
alguhpanii
alguhpanijannu
alguhpanijoinnu
alguhpanijois
algukursu
algupera
alguperia
algupuolel
algus
algussah
ali
alica
alighieri
alipunktu
alkindi
alkvist
all
alla
allan
alle
allegro
allettih
allettuu
allgemeines
allmusic
allukse
allun
allus
almanakku
alna
alnan
alo
aloh
aloijen
aloitti
aloveh
aloveheh
alovehel
alovehele
alovehellizen
alovehen
alovehenke
alovehes
alovehet
alovehien
alovehii
alovehil
alovehile
alovehis
alovehtu
alovehvezilo
alun
alus
alvar
alz
am
amadeus
ambulatourii
ame
america
american
ameriekan
ameriekas
ameriekkalaine
ameriekku
amerigo
amerika
amerikan
amerikanjia
amerikas
amerikkah
amerikku
amieriekan
amieriekas
amierikan
amierikas
amierikkalaine
amlwch
ammui
ammuttih
ammuzis
an
ana
anas
and
andanuh
andau
anders
andersen
andimet
andoi
andorra
andre
andrei
andrejevna
andua
angeles
angl
angliekse
anglielaine
anglielazen
anglielazet
anglien
anglies
anglii
angolan
angueira
angueiran
animacien
animacii
animation
animattori
anin
anja
anjogi
anke
ankielizes
ankomin
anna
anne
anneli
annelin
annetah
annettih
annettu
annu
annuaire
ansambl
anser
antarktidas
antic
antiekan
antigua
antikainen
antikazen
antilian
antoine
anton
antonio
antonova
antti
anukseh
anuksen
anuksenjoven
anuksenlinnan
anuksenlinnas
anuksenlinnaspa
anuksenlinnu
anukses
anus
anusjogeh
anusjogi
anusrandaine
apel
apin
apostolan
apostoloin
apus
ar
arab
arabian
arabien
arabienke
araheinia
archinform
archive
archives
archivioricordi
are
area
argipa
argivoidu
argivois
arhangel
arhangelin
arhiivan
arhiivas
arhiivu
arhijepiskoppu
arhippa
arhitektoran
arhitektoru
arhitektuuran
arhitektuuru
ari
arinova
aristotel
arja
arkadii
arkhimedes
arkisto
arkkipiispa
armas
armenien
armieh
armien
armies
armii
armstrong
arnoi
arnoin
art
arthur
article
artikkeli
artikkelih
artikkelii
artikkelis
artist
artistannu
artistat
artists
artistu
artnet
arto
artugu
artugua
aruab
aruabien
arveh
arven
arves
arvi
arvid
arvo
arvokas
arvokkahin
arvon
arvonimen
arvonimi
arvos
arvostettu
as
asa
askas
asnt
asounan
asounu
asounua
asovn
asp
aspa
aspirantuuran
aspx
assil
association
astana
aste
astettu
asti
astieloi
astien
astrid
astroin
astronomy
astui
astus
at
ata
atah
atlanta
atlantan
atlantiekan
atlantien
atlantin
atlantizen
atlas
atoman
atommassu
atomnoumer
atomunoumer
attih
au
audi
auer
august
auguste
augustus
aunuksen
aunus
austrielaine
autetah
auteurs
author
authors
autoi
autority
auttau
avai
avan
avattih
avattu
avavui
avavuu
avdejevo
avdejevon
avin
avoinkirjasto
avstrielaine
avstrien
avstrienke
avstries
avstrii
avstrualien
avstrualies
avstrualii
avtodorogal
avtodorogu
avtodorogua
avtokilbailii
avtonoumine
avtonoumizen
avul
avvoi
avvutetah
avvutettih
avvuttau
avvutti
avvuttua
award
aythya
ayxzsvttotz
az
azemu
azerbaidz
azetetah
azetettih
azetettu
azetuskohtan
azetuskohtu
azien
azies
azot
azovanmeri
azui
azutah
azuttih
azuttu
azuu
b
ba
babelio
bach
bad
bagaman
bah
bai
baikal
balietan
baliettu
baliettua
balkanan
ballua
baltiekan
baltiekku
baltiekkumeren
baltiekkusuomelaine
baltien
baltienmeren
ban
banglades
banz
baptiste
barabuanistu
barbados
barbuda
barentsanmeren
barto
bas
basho
basingstoke
basketbol
baskimuan
baskimuas
basseinah
basso
bassu
bb
bbc
bd
bdgest
be
beat
beatles
beethoven
beethovenan
bel
beljakov
bell
belomorskan
belomorskaspa
belomorsko
belomorsku
ben
benezit
benfron
benin
benz
bercelius
berkli
berlin
berlinan
bern
bernard
bernini
bernoulli
berry
beweb
bi
biblien
biblii
bibliothe
big
bin
bina
bingen
bingenila
biografie
biographie
biographies
biographisches
biography
biolougien
birdlife
biusante
biznesmies
bjorndalen
black
blair
blica
blog
blogspot
blue
blues
bnf
bo
bobien
bobii
bobrovin
bogdanov
bogdanova
boi
boiko
bokat
bokis
bol
boleti
bolguarienke
bols
bom
bomal
boman
bomban
bonapart
bondan
book
books
borc
boris
boruman
bosnia
bosnii
botsvanan
botticelli
br
brahms
brahmsan
branta
braziilielaine
braziilii
brazilia
brendojev
brendojevan
brihac
brinuanielaine
britain
britanielaine
britanien
britanies
britannica
britannielaine
british
brituanien
brituanies
brituanii
bro
broadway
bronzu
bronzumedalin
brown
brozovic
brunei
bu
bua
buabo
bubrih
bubrihan
bucephala
budapes
budapest
buddhalaiz
buenos
bul
bumioson
bumuagale
bunukku
bureau
burkina
burundin
by
c
ca
cac
caesar
cambridge
camus
carelia
carelian
carl
carlo
carlos
castren
castrenan
cat
catalana
catalogo
category
cb
cc
cd
ce
census
century
ceredigionan
cgi
ch
chaplin
charles
chicago
chiesacattolica
chile
chlidonias
chopin
christian
christmas
churchill
churchillin
cia
ciirakko
citaciihaireh
cite
cities
city
citypopulation
ck
cl
clangula
claude
clerk
club
clwyd
clywedog
cm
cmyk
cnimeke
co
coi
cole
collection
colvin
com
community
companion
company
companyn
complete
con
content
cook
coon
council
crex
cristatus
cruz
cs
cu
cultural
culture
cummings
curie
cy
cyanide
cymru
cz
d
da
dai
daimler
dali
dalton
daniekse
daniel
danielaine
danien
danii
dante
darja
darjaine
darryl
darwin
das
data
database
david
day
daz
db
dc
dd
ddewi
de
death
debrecen
debussy
dee
default
deh
dekoratiivizennu
del
delarge
delft
delhi
deli
della
demo
demographia
demokruatilline
demokruattine
demokruattizen
den
dendrocopos
dengua
denis
deputuatakse
deputuattu
der
dergran
derz
des
descartes
dessoilan
dessoilas
dessoilu
details
detgiz
detizdat
deutsche
devi
dewil
dewin
di
dia
diametras
dicentrarchus
dickens
dict
dictionaries
dictionary
die
died
dielo
dielos
dies
digital
dih
diktatuuran
din
dinamo
dinastien
diplomuattu
discogs
discovery
disku
disney
displaystyle
divizii
dizaineru
djwuuqhy
dk
dmi
dmitrii
dmitrijevic
do
doc
doi
dokumentoi
dokumentois
dollarua
domnan
don
dorogal
dorogan
dorogat
dorogu
dorogua
dostalit
dostojevskii
douard
douglas
douhtoru
douhturi
douro
douron
dovaris
drac
dramaturgu
drawings
druamuteatran
druamuteatru
drycin
du
dubalov
dubinina
dubininan
dublinu
dudkina
dus
duumaic
duumaijah
duumaittih
duuman
dvd
dvor
dvorc
dwc
dxcrjrqmnmsa
dy
dyfedarchaeology
dyfrdwy
dyfrdwyn
dykauti
dyma
dyy
dz
e
eaa
eba
ebnikka
ebno
ec
ed
edehpa
edelfelt
edeno
edgar
edison
edith
edition
edpzqyd
edu
edustai
edvard
ee
eehien
eeposan
eepossu
eero
eesti
eestikse
eestin
efiopii
eg
egi
eh
ehov
ehta
ei
eigo
eigu
eikkah
eiku
eikuic
eila
einar
eino
einstein
eisteddfod
ekonomistu
ekonoumiekku
ekonoumiekkukeskus
ekskursieloi
ekvadoran
el
ela
elaigu
elaigua
elaijan
elaijas
ele
elementoin
elementti
elementu
elementua
eleta
elettih
eletty
eli
elia
elias
elina
elisabet
elisenvuaran
ella
elleh
ellenda
ellendeta
ellendia
elokseh
eloksen
elokses
elokuu
elokuudu
elokuul
elokuun
elokuus
elos
elostu
elvis
ema
emah
emanuel
emen
emes
emil
emma
emmo
empion
empionakse
empionannu
empionu
en
ena
enciclope
enciclopedia
enciklopedija
encyclopedia
encyclopædia
endan
endine
endizeh
endizelleh
endizen
endu
energien
english
eni
enieru
enima
enimisto
enimite
enimyo
enimytteh
enin
eninjogeh
eniten
enja
enko
enkon
enne
ennen
ennevahnas
ennusti
entsiklopedija
enzi
enziallus
enzikerdua
enzikerran
enzima
enzimma
enzin
epia
eppu
er
era
erbakova
erbakovan
erbii
eri
eric
erikseh
erilastu
erilazet
erilazien
erilazii
erilazis
erilline
eriluaduine
eriluadustu
eriluaduzet
eriluaduzien
eriluaduzii
erinomaine
eritengi
eritrei
eriva
erkki
erkoi
ernest
ernis
ernst
ero
eroi
eroitetah
eroitettih
eroittau
eroitti
erotah
erottih
eruo
eruou
erza
es
esa
eskelinen
eskoi
eskoit
esky
espan
esperanto
espn
est
estadi
estado
estatal
esto
estounielaine
estounien
estounies
estounii
eswatini
et
ethnologue
etieda
etiijon
etiijos
etno
etnogruaffu
etnokul
etnougraffu
eu
eule
euler
euraazien
europaeus
europan
europas
europe
ev
eva
evakkoh
evan
evoi
evskii
evuyxhzuhdwx
ex
extra
eyck
ezi
ezim
ezimerkikse
ezitetty
ezitta
ezitti
ezityi
ezma
f
fa
faberz
faces
factbook
failu
fallingwater
fame
fameh
family
fantascienza
faraday
faso
fed
federacien
federatiivine
federatiivizen
federatsien
federatsii
federualline
federuallizeh
fedosova
fedotova
fedotovan
fedulova
fembio
fenlli
feofan
fermal
fernan
fers
festivuali
festivualin
ff
fi
fia
fiction
fidz
figures
figurua
fiiziekan
fiiziekko
fiiziekku
fiizikku
fil
filatov
files
filippinat
filippova
filippovan
film
filman
filmas
filmois
filmportal
filmu
filmua
filologu
filolougien
filolougizen
filosouffizen
filosouffu
filosoufien
filosoufu
filoulogu
filozoufu
find
finland
finnish
firenze
firman
first
fis
fiskul
fiziekan
fizikku
fiziolougu
flavun
floran
fol
folk
folkloristu
folklouran
fondan
fondu
foptw
for
ford
formuatas
forsberg
fortunatova
fosforua
fotokuvii
fotokuvua
fotokuvuaju
foundation
fplmtlwdjgnsdz
fr
franc
france
francielaine
francien
francii
francisco
frank
franklin
fransielaine
fransien
fransii
frantsielaine
frantsien
frantsienke
frantsii
franz
fre
fred
free
friedrich
from
frontal
frontale
frontan
frontu
fruktu
ftretrans
fullsteam
fulltext
fune
g
ga
gabon
gabriel
gaiti
galilei
galileo
galina
gallejan
gallen
gallery
galliuman
gan
gandhi
gandhin
garbaluo
gastroli
gaudeamus
gauss
gaussan
gavia
gavriil
gazietat
gaziettu
gcgfarl
ge
geh
gektarua
gektuarua
gema
gemyksen
gemys
genealogics
geneastar
general
generalissimus
generalnyi
generualu
genetc
genetz
genrih
geodezistu
geonet
georg
george
georgii
georgij
georgijevskii
germ
germanium
germuanieh
germuanielaine
germuanielas
germuanien
germuanienke
germuanienkielizii
germuanies
germuanii
germuanilaine
getinvolved
geva
gevy
gg
gi
gian
gibran
gie
gii
gilo
gilojeva
gilugu
gimarin
gimnuazies
giovanni
girls
gituaral
gituaristu
gituaru
giuseppe
gks
gl
glenn
glinka
global
globe
gma
go
goethe
gogh
gogol
gold
golden
goldman
gollandielaine
gollandien
gonduras
google
gor
gora
gorod
gors
gorski
gost
gosudarstvennoi
gottfried
gov
goya
gr
gra
grammua
gran
grand
graniittu
grave
great
grec
grecies
greco
grenlandii
grets
gretsien
gretsies
gretsii
gria
griba
gribua
grieg
griek
griekan
griekkalazes
grigorianskoin
grigorii
grivan
grivoin
grivois
gro
gromova
group
grove
gru
gruadussii
gruadussua
gruafikko
grup
grus
gruuzii
gruyter
gry
gu
guarbalo
guardian
guazu
guba
gubernieh
gubernien
gubernii
gubernuator
guidebooks
gul
gustaf
gustav
gutenberg
gvatemala
gvinea
gvineanke
gvinein
gw
gybin
gyi
gyja
gylling
gyllingan
gylo
gyric
gyy
h
ha
haapalammen
haavikko
hafren
hahmo
haigariloin
haikol
hairahtuksii
haju
hajuu
haldiet
haldivo
haldivoic
haldivolline
haldivollizennu
hall
hallic
hallindolline
hallindollizesti
hallindon
hannu
hans
hantin
hantuzis
harakka
harakku
harjaittamah
harjaittelii
harjaitti
harjoituskogomus
harjustu
harlun
harmai
harmless
harmuadu
harmuan
harmuat
harri
harriet
harrison
harsoinen
harvah
harvembah
harvembi
harvinaine
harvu
has
hassisen
hattu
haudou
haugi
haugii
havac
havumec
havvondu
havvotah
havvu
havvumec
hebo
hebuo
hec
hedi
heidy
heija
heikki
heil
heile
heiligenlexikon
heimo
heimoh
heimokunnat
heimon
heina
heinia
heino
heinrich
heinykazvi
heinykuu
heinykuudu
heinykuul
heinykuun
heinykuus
heinys
heis
heiska
heitti
hel
helena
helene
helium
helmer
helmi
helpo
helpoh
helsingfors
helsingin
helsingis
helsingissa
helsinki
helsinkin
helsinkis
helyla
hemba
hembi
hembisto
hemingway
henda
hengellizen
hengen
hengi
hengie
hengih
hengilo
henkilo
henri
henrik
henry
herbert
hermanan
hertz
herzegovina
hes
hevon
hgi
hh
hhoev
hi
hia
hic
hiekkua
hien
hieru
hieruh
hierun
hierus
high
hih
hii
hiihta
hiihtoambujien
hiihtoammundan
hiihtoammundas
hiihtokilvois
hiija
hiilau
hiimiekat
hiimiekku
hiimielline
hiimiellizes
hiimiellizien
hiimikku
hiiri
hiitola
hiitolan
hil
hildegard
hill
hima
himikse
himol
himyo
hin
hindulaiz
hine
hirundo
hirvaksen
hirvas
hirven
hirvet
hirvi
hirvie
hirvilo
his
histoire
historia
historic
history
histouriedu
histourieh
histouriekku
histourielline
histouriellistu
histouriellizen
histourien
histouries
histourii
hisugukielet
hitc
hitchcock
hitler
hiz
hizen
hizes
hk
hka
hko
hlc
hmo
ho
hobjankarvaine
hobjanva
hobjanvalgei
hobjazen
hobju
hobjumedalin
hockey
hoikat
hoikku
hokusai
hollandielaine
hollandii
home
hong
hora
horan
horch
hormu
horua
horvatienke
hos
hoteli
house
how
hristianskoi
hristianskoin
hristos
hristosan
hrom
hrvatska
hs
hta
hte
hten
hti
htie
htielo
htientiijustelii
htieta
htiettih
htiettyy
htih
htijen
htilo
htitiedoilii
htm
html
hto
http
https
hty
huabu
huabuvezi
huabuvien
huavan
hugo
hukan
hukku
hume
huoldu
huoli
huolimattah
huomai
huomivuo
huondeksel
huondes
huonukset
hurual
huruale
hus
huuhtellah
hylla
hyman
hympo
hyo
hyppa
hyva
hyvia
hyvin
hyvyo
hyybiet
hyybii
i
ia
iana
ibuti
ic
id
ida
idel
idela
idelin
idy
ie
iel
ielleh
ien
ies
iga
igi
igia
igor
ih
ihan
ihes
ii
iii
iirakko
iirakkoloin
iirakkuo
iirakon
iisus
iisusan
iivan
iivanan
iivananpa
iivatat
iivatoin
iivattoin
iivattua
iivo
ija
ijakse
ijan
ijat
ijes
ijev
ijia
ijien
ijih
ijii
ijis
ijo
ijoin
ijy
ijypa
ik
ikistuanu
ikko
ikkolois
ikkunat
iko
ikot
iks
ikse
il
ilaine
ilazen
ilazet
ilazien
ildu
ile
ilema
ili
ilii
ilin
ilja
illa
illeh
illh
illhportal
ilma
ilmah
ilmahpia
ilmai
ilman
ilmari
ilmas
ilmasto
ilmaston
ilmestyi
ilmestyttih
ilmestyy
ilmivo
ilmoih
ilmoihpia
ilmoile
ilmoitettih
ilmoitti
ilmu
ilo
ilves
ilyi
ilynyh
ilyta
ilyteta
ilytta
ilyttia
ilyttih
ilyy
ima
imale
imat
imatja
imbilahten
imbilahti
imekse
imen
imenny
imes
imetta
imi
imien
imii
imis
immanuel
imo
imperien
imperii
imperuatoru
impressionizman
in
ina
inan
inat
inc
inda
index
india
indielaine
indien
indienke
indies
indii
indo
indonezien
indy
ine
inehmine
inehmisty
inen
info
information
ington
inha
inieru
inke
inmuavaldivo
inmust
inny
ino
inoi
inoin
inselgy
institut
institute
instituto
instituutan
instituutas
instituuttah
instituuttu
insuari
inta
international
internet
internetan
internetas
inua
inz
ioann
ioannovna
iogann
iprage
ipuu
ir
iran
iranan
irananke
iranke
irc
ire
irina
irish
irka
irlandien
irlandii
irma
is
isaac
isabart
isakov
isbn
isen
isia
islamilaine
island
islandien
islandii
islands
ismo
iso
isp
ispa
ispanien
ispanies
ispuanielaine
ispuanielazet
ispuanien
ispuanies
ispuanii
ispuu
istanbul
istutetah
it
ita
italielaine
italii
itau
itaucultural
itemid
itilleq
itkaja
itkuvirty
ito
itteli
itti
ittih
itualielaine
itualien
itualies
itualii
iuc
iv
iva
ivan
ivangorodan
ivanov
ivanova
ivanovic
ivanovna
ivia
ivinny
ivissa
ivo
ivy
ivykodi
ivymia
ivypastos
ix
iy
iz
iza
izdanja
izdateljstva
izen
izet
izrail
izrailan
izrailanke
izv
j
ja
jaakkima
jaakkiman
jaakko
jaakkola
jaan
jack
jackson
jacob
jagau
jagavui
jagavuu
jagua
jakob
jakov
jakovlev
jalal
jalgaine
jalgu
jalgua
jalgumia
jalguva
jallat
james
jan
jansson
janssonan
jap
japounielaine
japounien
japounies
japounii
jari
jarved
jas
jasnaja
jatkau
jatkoi
jatkovoinan
jatkua
jatkui
jazzpajattai
jc
je
jean
jegiptalazet
jegiptan
jegiptas
jegiptu
jegor
jegozero
jekaterina
jekaterinan
jelena
jelizaveta
jen
jers
jes
jessoilan
jeugdliteratuur
jevangelii
jevangelin
jevgenii
jevic
jevropan
jevroupan
jevroupas
jevrouppah
jevrouppalaine
jevruazien
jevruazies
jevruo
jevruopan
jevruopas
jevsejev
jia
jien
jii
jile
jina
jis
jj
jlrbv
jo
joensalo
joensalon
joensuu
joensuun
joey
joga
jogahine
jogahizel
jogahizes
jogapa
jogeh
jogi
jogie
jogiloi
jogiloin
jogilois
johan
johann
johanna
johannes
john
johnny
johtai
johtajakse
johtajan
johtajannu
johtau
johti
johtol
joki
jonas
jonathan
joseph
josif
jouc
joukko
joukkoh
joukkoloih
joukkoloin
joukkolois
joukkoveh
joukkoveheh
joukkovehen
joukkovehes
joukkovehtu
joukkuo
joukole
joukolleh
joukon
joukonke
joukos
joukot
joulupukin
joulupukki
journal
jousnen
jovel
joven
jovenalan
jovensuu
jovensuun
jovensuus
joves
jovespa
jovet
jpg
jstor
juablokku
juatah
juattih
juattu
juha
juhani
juho
juice
jukagiri
jukka
julgai
julgine
julguamo
julguamon
julguamos
julia
julija
julius
julkaisija
julkaisu
julkaisuja
julkaisupaikka
jullattih
jullattu
july
jumal
jumalan
jumaldoman
jumalua
juminkeko
juna
jungen
juoksou
juomine
juomistu
juomoin
jurii
jurot
jussi
juurdu
juuret
juuri
juuriloi
juusto
juuston
juustot
juustuo
juva
juvvah
jy
jygei
jyrgil
jyrka
jyrzijo
jys
jyskyja
jyttyine
jyttyma
jyva
k
ka
kaalamon
kac
kadajikko
kafka
kaglas
kagru
kaheksa
kahlo
kahteh
kahtei
kahtekse
kahtel
kahten
kahtes
kahtu
kahtukymmendy
kai
kaidu
kaiken
kaikenmostu
kaikes
kaikil
kaikile
kaikin
kaikis
kaikki
kaikkie
kaikkiedah
kaikkiel
kaikkien
kaikkih
kaikkii
kaino
kairo
kais
kaisa
kaitaja
kaivandukoneh
kaivandukonehet
kaivandukonehii
kaivo
kaivon
kaivos
kaksi
kaksikymmen
kaksitostu
kal
kala
kalaallit
kalac
kalagen
kalaheimo
kalalajii
kalan
kalastajat
kalastus
kalasugu
kalat
kalatalouden
kaldaine
kalenderin
kalenduaruan
kalendula
kalevala
kalevalan
kalevalas
kalevalaspa
kalevalastu
kalifornien
kalifornii
kalii
kallehennu
kallela
kallis
kalmah
kalmal
kalmat
kalmisto
kalmistol
kalmiz
kalmu
kalmuz
kaloi
kalua
kambodz
kamc
kamerun
kan
kandau
kandeleh
kandelehel
kandelehen
kandiduatakse
kandiduatan
kandiduattu
kandu
kandukieli
kandurahvahien
kannaksel
kannaksen
kannas
kannates
kannatestu
kannattai
kannatti
kansa
kansallisbiografia
kansalliset
kansalliskirjailija
kansan
kant
kantele
kanto
kanuadan
kanuadas
kanuadu
kanualal
kanualan
kanualu
kanzalline
kanzalliskielizien
kanzalliz
kanzallizeh
kanzallizen
kanzallizes
kanzallizien
kanzi
kanzoil
kanzoin
kanzoinva
kanzua
kanzukundien
kappalehtu
karajan
karakas
karaoke
karel
karelia
karelija
karelski
kargavusvuon
kargei
karhu
karhuma
kari
kariban
karibien
karielan
karielazin
karj
karjal
karjala
karjalabrihat
karjalah
karjalaine
karjalainen
karjalais
karjalaisen
karjalaiset
karjalaiskyla
karjalaisten
karjalakse
karjalan
karjalankieline
karjalankielisty
karjalankielizeh
karjalankielizen
karjalankielizet
karjalankielizien
karjalansivistysseura
karjalas
karjalaspa
karjalassa
karjalastu
karjalaz
karjalazeh
karjalazen
karjalazes
karjalazet
karjalazien
karjalazih
karjalazii
karjalazil
karjalazis
karjalu
karjalua
karjua
karkoitettih
karl
karlova
karmalanja
karoliina
karpova
kartohkua
karvan
karvu
karvukortehtu
kas
kaspien
kat
katalunielaine
katalunien
katar
kategourii
katettu
kattau
kaukonen
kaunehkirjalliz
kaunis
kauppu
kaupunginkirjasto
kaupunkien
kauti
kavkuazal
kavven
kaz
kazahstanas
kazahstuanas
kazvai
kazvamah
kazvanuh
kazvatetah
kazvatettih
kazvattau
kazvatti
kazvattua
kazvatuksen
kazvatus
kazvau
kazvetah
kazvi
kazvii
kazviloin
kazvin
kazvinnu
kazvisyo
kazvit
kazvoi
kazvoksien
kazvua
ke
kebjei
kebjieh
kec
keda
kefiiru
kefiirua
kegri
kehita
kehiteta
kehitettih
kehitetty
kehitta
kehitti
kehittia
kehittyi
kehityi
kehitykseh
kehityksen
kehitykses
kehitynnyh
kehitys
kehitysty
kehoitti
kehoitukses
keinolluajittu
keisari
keisarin
keita
keiteta
keitettih
keitettyy
keitta
keittia
keittokirja
keksi
keksii
keksija
keksindo
kel
kela
keldaine
keldastu
keldazen
keldazet
kelduvihelda
kellojallat
kelyksen
kelykses
kelys
kem
kemi
kemijogi
kemijoven
kemin
ken
kenda
kendja
kengo
kepler
keppika
ker
kera
keral
kerdah
kerdoi
kerdomuksen
kerdomukset
kerdomuksien
kerdomuksii
kerdomus
kerdomustu
kerdou
kerdua
kerduo
keria
keric
kerran
kerras
kerrotah
kert
kertomuksia
keskeh
keskel
keskena
keskes
keski
keskiaijan
keskila
keskima
keskimia
keskine
keskiozas
keskipuoles
keskis
keskisyvys
keskoija
keskuc
keskuksen
keskuksennu
keskukses
keskus
keskuskomitietan
kesta
kesti
kestia
ket
kettunen
keuruu
keva
kevia
kexholm
kexholman
key
keyna
keza
kezoidu
kezra
kg
khalil
kharlamovin
khl
khwarizmi
ki
kia
kic
kid
kielda
kieldy
kieleh
kielekse
kielel
kielele
kielella
kielen
kielenny
kielentutkii
kielentutkijat
kieles
kielespa
kielet
kieleva
kieli
kielien
kielih
kielii
kielijoukko
kielijoukkoh
kielijoukkuoh
kielikone
kielikse
kielikunnan
kielil
kielile
kielilo
kielinny
kieliopin
kielioppi
kieliperehen
kielipeza
kielis
kielispa
kielitiijon
kielitoimiston
kielten
kien
kierda
kierdi
kiestingin
kii
kiimuaigu
kiini
kiinnostui
kiis
kiiseli
kiiselii
kiiz
kijev
kil
kilbah
kilbahajai
kilbailijat
kilbailijua
kilboi
kilboih
kilbu
kilometri
kilometrii
kilometril
kilometrin
kilometris
kilometrua
kiluo
kilvan
kilvas
kilvat
kilvoin
kilvois
kim
kin
kinan
kindred
king
kingdom
kinnerma
kinnunen
kino
kinoartistu
kinolois
kinon
kinoprod
kipina
kipran
kirchhoff
kiribatin
kirien
kirikko
kirikkyo
kiriko
kirja
kirjah
kirjailii
kirjailijannu
kirjailijoi
kirjaimii
kirjaimikko
kirjaimikon
kirjaimil
kirjaimin
kirjain
kirjaine
kirjallisuuden
kirjalliz
kirjan
kirjas
kirjasto
kirjaston
kirjastu
kirjat
kirjaviite
kirjavu
kirjazii
kirjoi
kirjoih
kirjoin
kirjoitti
kirju
kirjua
kirjukielen
kirjukieli
kirjuta
kirjutanda
kirjutannuh
kirjutetah
kirjutettih
kirjutettu
kirjutettuloi
kirjutettuu
kirjutetut
kirjuttai
kirjuttajan
kirjuttajannu
kirjuttajat
kirjuttajien
kirjuttajii
kirjuttajua
kirjuttamah
kirjuttanuh
kirjuttau
kirjutti
kirjuttua
kirjutuksen
kirjutukses
kirjutukset
kirjutuksii
kirjutuksis
kirjutus
kirjutusmerki
kirjutussistiemu
kirjutustaba
kirjutustavas
kirjutustu
kirovan
kirvehel
kirves
kirvesjogi
kis
kit
kitai
kitailaine
kitain
kitainke
kitais
kitee
kiteel
kito
kits
kiuru
kivac
kiven
kivet
kivi
kivie
kivija
kivikirikko
kivilo
kivine
kivizii
kiz
kk
kka
kki
kkia
kkii
kkilo
kko
kks
kkyla
kl
klassa
klassalla
klassillizen
klassine
klassizen
kluasan
kluuban
kluubas
kluubu
km
knaw
knia
kniigah
kniigan
kniigas
kniigoi
kniigoin
kniigois
kniigu
kniigua
knuuttila
ko
kobal
koc
kodaine
kodi
kodic
kodih
kodii
kodiloin
kodima
kodimuan
kodirannan
kodvan
kodvazen
kogo
kogomus
kogonah
kogonaine
kogonaz
kogonevvostoliiton
kohennettu
kohtah
kohtal
kohtas
kohtat
kohti
kohtii
kohtis
kohtu
kohtua
koi
koidu
koillisozas
koillisrannal
koillisrannikol
koillizeh
koillizes
koilu
koin
koiru
kois
koit
koitajogeh
koivisto
koivu
koivuja
koivun
kok
kol
kola
kolah
kolalla
kolan
kolas
kolatsella
kolc
kolez
koli
kolis
kollasja
kolmandeh
kolmandekse
kolmandel
kolmanden
kolmandes
kolmas
kolme
kolmeh
kolmen
kolmes
kolmie
koloda
kolodozero
kolounii
kolua
kolumbien
kolumbus
koma
komin
komissuaroin
komitietan
kommunistizen
kommunistoin
kompleksu
komsomolan
kon
kondien
kondiet
kondii
kondratjev
kondratjeva
kondupohjan
kondupohjaspa
kondupohju
kone
koneh
konehmuasteri
konen
kongan
kongo
kongon
kongresan
konkka
konoi
konservatourien
konsonantu
konstantin
konzu
konzutahto
koordinuatat
kopernikus
koppali
korbirac
korbisella
korbivaroi
korea
korean
koreas
korein
korela
korelan
korendo
korgei
korgeis
korgeviman
korgevin
korgevuol
korgevus
korgevuttu
korgiedu
korgieloi
korgielois
korgiembi
korgiesti
kornei
korsakov
korvat
korzi
kos
kosken
kosket
koski
koskie
koskii
koskijoi
kosmetiekas
kosmoja
kost
kosta
kostamuks
kostamuksen
kostamus
kot
kotaja
kotimaisten
kotisivut
kotkatja
kottaraine
kotus
koufein
kov
kova
kovah
kovan
kovat
koveran
koverin
kozabos
kozan
kr
kra
krasnoborskoin
krc
kriitiekku
kriptografu
kristian
krivcoin
krlez
krons
kruuga
kruus
ks
kse
kseh
ksen
kset
ksi
ksien
ksii
ksyi
ksyttih
ksytty
ku
kua
kuadunuzien
kuappu
kuaren
kuari
kuattuloin
kubovon
kubrick
kuc
kudai
kudakui
kudamah
kudamal
kudaman
kudamas
kudamat
kudamien
kudamih
kudamii
kudamil
kudamis
kudamua
kuduadu
kuduah
kudual
kudualoi
kudualoil
kudualoin
kudualois
kuduan
kuduas
kuduat
kudz
kuganavolokan
kuha
kuhkutti
kuhn
kuhua
kui
kuibo
kuikkien
kuikku
kuittija
kuittizen
kuivatah
kuivattih
kuivattuloi
kuivattulois
kuivetah
kuivis
kuivu
kuivua
kujo
kujola
kukan
kukantera
kukat
kukindan
kukkazet
kukkazii
kukkii
kukkimah
kukkiu
kukku
kukkua
kul
kuldaine
kuldu
kuldumedalin
kulduseppy
kulgietah
kulgiettih
kulgou
kullervo
kulttuuri
kulttuurin
kulturnav
kuluu
kumman
kummua
kun
kundah
kundoh
kundu
kuni
kunic
kunigas
kuningahan
kuningas
kuningaskundu
kuningaskunnan
kuningatar
kunnan
kunnas
kunne
kunnivoic
kunnivoitettu
kunnivoittu
kunnivokse
kunnivomerki
kunnivomerkii
kunnivomerkil
kunnivomerkilo
kunnos
kunta
kuntien
kuokkaja
kuolan
kuoldih
kuolduu
kuolendan
kuolendassah
kuolendua
kuoli
kuolluh
kuolluon
kuollut
kuolou
kuoltuu
kuopio
kuopion
kuopios
kuor
kuordu
kuori
kuorisiendy
kuornahuksen
kuornahus
kuoz
kupc
kupee
kuprijanov
kur
kurenniemi
kurgijoven
kurgijoves
kurortu
kurosawa
kursit
kurt
kus
kuspa
kustantamo
kutiz
kuu
kuudaman
kuudu
kuuja
kuul
kuuloi
kuulou
kuulta
kuulu
kuului
kuulujannu
kuulujat
kuulujien
kuulujua
kuulumah
kuuluta
kuulutah
kuuluttih
kuuluu
kuuluz
kuun
kuus
kuusinen
kuusizen
kuustu
kuut
kuuzen
kuuzi
kuuzimuan
kuva
kuvaili
kuvanvesta
kuvat
kuvataidoilii
kuvattu
kuvauksia
kuveit
kuvii
kuvis
kuvua
kuvven
kuvvenden
kuvvendes
kuvves
kuz
kvadruattukilometrii
kvartsiittu
ky
kyja
kyl
kyla
kylia
kylien
kylih
kylii
kylis
kylla
kylma
kylmykuu
kylmykuudu
kylmykuul
kylmykuun
kylmykuus
kyly
kylyh
kymmendy
kymmene
kymmenes
kymmenii
kymrikse
kymrila
kymrin
kymrinkielisty
kymrinkielizii
kymrinmuan
kymrinmuas
kyo
kypsa
kypseta
kyyhko
kyykka
kyzyi
kyzymyksii
l
la
laatokan
lac
lad
ladan
ladva
ladvan
ladvu
lagerlo
lagevo
lagevol
lahdenpohjan
lahdenpohju
lahkoh
lahnu
lahnua
lahonnuh
lahteh
lahten
lahtenke
lahtenpera
lahtes
lahtespa
lahtet
lahti
lahtie
lahtilois
laihinsana
laila
laine
laiteh
laitio
laitoksel
laitoksen
laitokset
laitoksien
laitos
laitostu
laivannu
laivat
laivu
laivua
laji
lajii
lajiloi
lajilois
lajin
lajit
lake
laks
lambahan
lambie
lambiloin
lammen
lampi
lang
langetah
langid
langu
language
lankinen
lantanoidoin
lapinc
lappeenranta
lapsen
lapsennu
lapset
lapsi
lapsien
lapsienke
lapsienkirjuttai
lapsienpa
lapsih
lapsii
lapsile
lapsus
lapsusaijas
larin
larisa
lars
las
laskeh
laskehes
laskietahes
laskou
lasku
last
lastu
lat
latinakse
latinalazes
latinan
latvaja
latvia
latvian
latvielaine
latvien
lauhkei
lauhkien
laukat
laukku
laukkua
laulu
lauluja
laureattu
lauri
lavaja
laval
lavale
lavija
lavran
lazutina
le
league
learned
lebedev
ledelarge
leena
leftrightarrow
lehma
lehteh
lehten
lehtes
lehtet
lehti
lehtie
lehtii
lehtikuuzi
lehtilo
lehtimec
lehtimies
lehtinen
lehtipuu
lehtipuuloin
lehtis
leibia
leibniz
leikata
lekkujad
leksikografski
leksikon
lembi
lemija
lenda
lendiera
lendieran
lendoazemu
lendokonehen
lenin
leninan
leningrad
leningradan
leningruadan
leningruadu
leo
leon
leonard
leonardo
leone
leonhard
leonid
lepa
leppa
leppysieni
lerpwl
les
leskenlehti
leskinen
leskizen
leskov
lespromhouzu
let
lev
levei
levevys
levevytty
leviet
leviey
levii
levinnyh
levita
levitetty
levitta
levon
levonen
lexikon
lgeh
lgela
lgi
lgia
lgilo
lgima
lgivuozinnu
li
lia
liaigaine
libanalaine
libertsova
libiec
libo
library
librevil
libris
lic
liec
liedmaja
lieksaja
lievoi
life
ligakuu
ligakuudu
ligakuul
ligakuun
ligakuus
ligakuussah
lih
liha
lihan
lihtens
lihua
lii
liideh
liideheh
liidehehpa
liidehes
liidehozas
liidehrannal
liijakse
liijan
liikkehen
liikkuo
liikkuu
liikutah
liisa
liitettih
liiton
liitta
liitto
liittoh
liittyi
liittyo
liittyy
liityi
liityta
liivin
likko
liko
lil
lilo
lima
limeren
limerenke
limeri
lin
lincoln
lindgren
lindu
linduheimo
linduine
linduja
linduloi
linduloin
lindustu
linduu
line
linkoln
linna
linnaeus
linnah
linnakse
linnal
linnan
linnanjyttyine
linnannu
linnas
linnaspa
linnat
linnoi
linnoih
linnoin
linnois
linnu
linnua
linnukundah
linnukunnan
linnukunnas
linnun
linnupiiris
linnut
lintu
lintuatlas
lintulan
lis
lissa
list
listy
lit
literature
literatuuran
literatuuru
literatuurua
literatuuruktiitiekku
litrua
litteratursa
little
litvan
litvu
liukkonen
liusja
live
livvi
livvikse
livvin
livvinkarjalakse
livvinkarjalan
livvis
liygi
liygila
liz
liza
lizeh
lizel
lizen
lizes
lizet
lizien
lizih
lizil
liħa
lja
ll
lla
lle
lleh
llel
llele
lles
llespa
lline
llisty
llizen
llizes
llizesti
llizet
llizii
llo
llskapet
llugwy
lly
llyn
llyo
lma
lmo
lo
lobac
local
location
logikan
lohi
lohija
lohkol
lohtu
loimolan
loitton
london
londonan
londonas
long
lonin
loninan
loppi
loppiettih
loppiettu
loppiettuu
loppih
loppu
loppuh
loppui
loppupuolel
loppussah
loppuu
lopukse
lopul
lopun
lopus
lorenzo
los
lougiekan
lougiekku
louhen
louhi
louis
loukon
lounas
lounasozas
lounasrannal
lounazes
lounuas
louvre
love
lovelace
loxia
lpa
ls
lta
ltpsxf
lu
luadi
luadie
luadii
luadijannu
luadijat
luadijes
luadijoinnu
luadimah
luadimine
luadimizeh
luadimizes
luadinuh
luadiu
luadogah
luadogan
luadogu
luadu
luaduh
luaduu
luageri
luaitah
luaittih
luaittu
luaji
luajindah
luajindu
luajitah
luajittih
luajittu
luajittuh
luajittuloi
luajittuu
luajitun
luajitus
luajitut
luavun
luazarin
ludwig
lugemah
lugi
lugie
lugiettu
lugijat
lugijoin
lugu
luguh
lugumia
luguu
lui
luigi
luistelijoin
luja
lujoitetah
lukan
lukic
lukin
luku
lukuma
lumatja
lumilavval
lundgren
lundu
lundy
lungulansuaren
lungulansuari
luo
luodeheh
luodehen
luodehes
luodehozas
luodehrannal
luokka
luokku
luondo
luonduo
luonnolline
luonnon
luonnontieda
luonnontiedoilii
luonnontutkii
luonnos
luontoportti
lusia
luteransoin
luvendakniiga
luvettelo
luvetteloh
luvul
luvulpa
luvun
luvus
lv
lyhendysmerki
lyhyo
lyhyt
lyka
lykkia
lyn
lyo
lysta
lyydi
lyydikse
lyydila
lyydilaiz
lyydin
lyydis
m
ma
maa
mac
macmillan
madal
madaloi
mado
madonna
maduo
magdalena
magei
magellan
magellanan
magniedu
magu
maguu
maha
mahatma
maido
maidopyha
maidovalahat
maiduo
maija
maijon
maijonke
maijos
mail
main
mainic
mainitah
mainittu
mainitun
maja
majai
majuat
makarov
makarovan
makedounien
maksankarvaine
maksankarvastu
maksettih
maksim
mal
malaizii
malinavarakan
malinke
malmi
malta
maltanuh
maltau
maltetah
maltettih
maltoi
malttau
man
managua
manasteri
manasterih
manasterile
manasterin
manasteris
manaw
manc
mandela
manderehen
manderen
manderien
manet
manga
manner
mannerheim
mansin
manuahat
manuahoin
mao
map
maputu
marc
marcel
marcello
marcial
marco
marfa
mari
maria
marie
marija
marika
marin
marina
marinuijah
marja
marjaine
marjat
marjatta
marjoi
marjois
marjukka
mark
markianova
marko
markus
marky
marokko
mars
marsal
marsan
marshall
martin
martsial
martti
marx
mary
mas
massan
massu
master
mastroianni
mat
matematiekku
matematiekkua
matematikku
matemuatiekan
matemuatiekku
matemuatikku
materialy
materjualoi
materjualu
materjualua
matfein
matikku
matikkua
matka
matkah
matkailii
matkailijua
matkal
matkan
matkaopas
matkas
matkat
matku
matkua
matkuau
matsuo
matthias
matti
matvein
mavustehennu
max
maxwell
mayor
mba
mbi
mbia
mbo
me
mea
mec
medalii
medalin
media
medvez
meh
mehaniekku
meheva
mehiko
mehu
mehus
mehuu
meija
meile
meksikan
melanitta
melentjeva
melentjevan
mellic
melline
memorial
memphis
mendelejev
mendelejevan
mendih
mendyy
meni
menna
mennes
mennyo
mennyt
meno
mercedes
merdy
mereh
merel
meren
merenke
merenpinnan
merensuomelazien
meres
meret
mergus
meri
merikukko
merilo
meriportu
merirozvo
merki
merkic
merkil
merkilo
merkita
merkitta
merkitty
mes
metallan
metallas
metalline
metalloin
metallois
metallu
metallua
metrii
metrin
metrissa
metropolien
metrua
metsa
metts
metty
mg
mi
mia
mic
michael
michel
michelangelo
mida
mie
miehekse
miehele
miehen
miehenny
miehet
miehien
mieldy
mieldykiinnitta
mieleh
mielel
mieles
mielet
mieli
mielii
mielis
mien
mieros
mies
miesty
mifolougien
mifolougies
mifolougii
migu
mih
mihai
mihail
mihailovic
mihailovna
miihkali
miikul
miikulan
miinalan
mika
mikkeli
mikko
miks
milj
miljardua
miljonua
miljoonua
miljounua
mill
millimetrii
miloradova
milton
min
mina
minda
mine
minerualas
minerualua
minerualuainehtu
ministerstvu
ministroin
ministru
minsku
minun
miranda
mirandan
mironova
miroslav
mis
missa
misty
mitah
mitchell
mizeh
mizekse
mizen
mizenny
mizes
mizet
mizien
mizii
mizis
mm
mma
mmi
mmia
mmien
mmih
mmii
mmil
mmin
mmis
mmitys
mmo
mmy
mo
modern
modernizman
modest
moel
moin
moine
moinke
mois
moizen
moizet
moizii
moizis
moks
molduavien
mollembat
mollembien
mollembil
mollembis
moma
mondu
moneh
monen
mones
monet
moni
monien
monih
monii
monikon
monil
monile
moniloin
monis
monivuodehine
monivuodine
montaigne
moore
mordouvien
mordvan
morgunov
mos
mosander
moskova
moskovah
moskovan
moskovas
moskovu
moskva
moskvas
most
mostu
mot
motor
motoran
mount
movie
mozambikanke
mozart
mp
mramoran
mramorua
mruamoran
ms
mu
mua
muadu
muah
muailman
muailmanperindo
muailmanvoinan
muailmas
muailmua
muakera
muakundu
muakunnan
muakunnas
mual
mualavuksis
muale
mualoih
mualoin
mualois
muamah
muaman
muamanke
muamankielel
muamankielen
muamankielenny
muamankieli
muamo
muamon
muan
muanitah
muanittih
muanivomiehen
muanivomies
muanke
muankuores
muanruadajan
muanruadajat
muanruadajien
muantutkii
muapera
muarjan
muarjat
muarjoi
muarjoin
muarjois
muarju
muarjua
muas
muaspa
muasteri
muat
muatiijot
muc
mudua
muga
mugagi
mugah
mugai
mugaz
muhammad
muijal
muinaine
muinas
muinaz
muinazen
muinazet
muistelee
muita
mujehja
mujeja
mul
mullonen
muniu
munja
munne
munzinger
muodo
muodoh
muodoine
muodoloi
muoduo
muokattih
murdeheh
murdehel
murdehele
murdehen
murdehennu
murdehes
murdehet
murdehien
murdehil
murdehile
murdehis
murmanskan
murmansku
murray
murreh
murrehtu
murrekirja
music
musicalics
musorgskii
must
musta
mustan
mustankosken
mustanmeren
mustas
mustat
mustellah
mustelmat
mustetah
mustien
mustoh
mustoittau
mustokohtu
mustokompleksu
mustokse
mustolaudu
mustomerki
mustomerkilo
mustomerkit
mustopac
mustu
mustua
mustuc
mustumado
mustumeren
muu
muudu
muudugi
muuloin
muumi
muumiloin
muumimami
muuminotkon
muumipeigoi
muumipeigoin
muumit
muumitata
muumitatan
muun
muur
muut
muutettih
muutgi
muutoksii
muutti
muuttolindu
muuttua
muuttui
muuttuo
muuttuou
muuttuu
muutui
muututah
muututtih
muuzikan
muuzikas
muuzikkah
muuzikko
muuzikku
muuzikkua
muuzikkumies
muuzikkus
muuzikkuteatran
muvakas
muvvon
muvvos
muvvostau
muvvostetah
muvvostettu
muvvot
muz
muzavanruskei
muzavanruskiet
muzavanvihandat
muzavu
muzei
muzeih
muzeil
muzein
muzeis
muzien
muzikantat
muzikantu
mw
my
mylla
mynydd
myo
myrkylline
mys
myvva
n
na
nac
nacional
nacionalna
nadez
nafarroa
nagrehet
nagristu
nahkan
nahku
nahkua
nahkusiibi
nai
naine
naistenja
naizen
naizet
naizien
naizis
name
names
nan
napoleon
nasa
nastu
nat
natalja
national
nationalbibliothek
nationale
nationalencyklopedin
nato
nd
nda
ndekse
ndel
nden
ndes
ndi
ndia
ndin
ndis
ndo
ndu
ndy
ndyi
ndykohtah
ndykohtan
ndykohtat
ndykohtu
ndykohtua
ndyo
ndysoittimet
ndytia
ne
nec
neda
neh
neic
neidine
nekrasov
nekrasovan
nel
nele
nelio
nelja
nella
nelli
nellia
nellikko
nelson
nen
nenetsan
nenga
nengoine
nengozien
nenke
neodiimu
nepal
nepalan
nero
nerokas
nerokkahannu
neroniekku
nerot
neruo
nes
net
network
neuvosto
neva
nevis
nevostoliiton
nevskoin
nevvosto
nevvostoaijan
nevvostoh
nevvostolaine
nevvostoliitole
nevvostoliiton
nevvostoliitos
nevvostoliitto
nevvostoliittoh
nevvostoliittolaine
nevvoston
nevvostotazavaldu
nevvostotazavallan
nevvostovallan
nevvotah
new
news
newton
ngo
nhl
nhoidoala
nhoidotila
ni
nia
nic
niccolo
nieglikko
nieglikon
niemel
niemen
niemi
niemimua
niemimual
niemimuan
nieminen
nietzsche
nigeru
night
nigo
nii
niidy
niilan
niilo
niis
niitta
niittylo
niittymarin
nije
niken
nikitina
nikol
nikola
nikolai
nikolajevic
nikolaus
nikolskaja
nikonzu
nikov
nil
nimeh
nimeke
nimekeh
nimekse
nimel
nimen
nimes
nimespa
nimet
nimeto
nimetto
nimetty
nimi
nimida
nimie
nimii
nimil
nimilo
nimine
nimisty
nimiteta
nimitettih
nimitetty
nimitti
nimityksen
nimitys
nimizeh
nimizel
nimizen
nimizes
nina
ninnetta
nis
nisja
nisjoven
niva
nivouze
niz
nja
njogi
njoven
nke
nkielizen
nkp
nkukkastu
nl
nlasku
nlaskuh
nlaskuhpa
nlaskun
nlaskuozas
nlaskupuolel
nlaskupuolen
nlaskupuoles
nlaskupuoline
nlaskurannal
nlaskus
nmuallizel
nmuallizen
nn
nna
nne
nneh
nneta
nnetta
nnettih
nnetty
nnetynny
nno
nnouzu
nnouzuh
nnouzuhpa
nnouzun
nnouzuozas
nnouzupuoleh
nnouzupuolel
nnouzupuoles
nnouzupuoline
nnouzupuolizes
nnouzurannal
nnouzus
nnrot
nnrotan
nny
nnyh
nnyo
nnyt
no
nobel
nobelan
noi
noin
noit
noosfere
norbert
normaali
norman
norris
norske
north
norviegielaine
norviegien
norviegies
norviegii
nos
nosta
nostamah
nostatti
nostetah
nostettih
nostettu
nosti
nostua
not
noumer
noumeru
nousia
nouzi
nouzou
nova
novellua
novgorodan
novinkan
now
npa
nrannan
nro
ns
nstlerlexikon
nta
nto
nu
nunaatan
nuokkija
nuordu
nuorembi
nuoren
nuorennu
nuoret
nuori
nuorien
nuorii
nuorisojulkkikset
nuoriz
nuoz
nurmeksen
nurmes
nurmija
nussu
nvalgien
ny
nyc
nygo
nygyaigaine
nygyaigastu
nygyaigazen
nygyaigazet
nygyzen
nyh
nyt
nytimes
o
oba
obinon
oc
och
odor
odorovic
odorovna
odva
oesterreich
of
off
official
oficial
og
ogiz
ogneva
ohjai
ohjuajannu
ohjuajis
ohjuaju
ohjuau
oi
oidu
oigei
oigevuon
oigieh
oigiel
oigiele
oih
oihkiz
oil
oile
oilu
oin
oinja
oinke
ois
oit
oja
ojat
ojen
ojien
ojq
ojua
okas
okkah
okku
oks
oksah
oksakas
oksat
oksis
oksituanakse
oksu
okt
ol
olanto
oldas
oldih
oldihgo
oldu
ole
oleg
olemas
olen
olet
olga
oli
olii
olijah
olijal
olijan
olijas
olijat
olijoi
olijoin
olijua
olimpiadukiz
olimpiiskolois
olis
olkah
olkan
olkannu
olkas
olkaspa
olkassah
olku
olkua
olla
ollah
ollahgi
olles
ollou
olluh
olmuz
oloi
oloin
ololois
olotilas
oltarven
oltus
olympics
om
oma
omah
omal
omaluaduine
oman
omanan
omannu
omas
omassah
omat
omattah
omaz
omenduksii
omien
omih
omii
omil
omin
ominaz
omis
omistai
omistettu
omua
on
onat
ondajogeh
ondajogi
ondrei
one
onez
ongi
ongo
oniegan
onieganja
onieganrannikon
onieguja
onieguniemel
onihmanja
online
onneli
onnelin
onov
onovan
ontology
oo
op
opastai
opastajakse
opastajan
opastajannu
opastajat
opastajien
opastamah
opastetah
opastettih
opasti
opastui
opastujat
opastujes
opastujile
opastujua
opastuksen
opastumah
opastundan
opastundu
opastundua
opastuo
opastus
opastustu
opastutah
opastuttih
opastuu
opc
operietan
opittih
oppi
oppiu
option
or
oran
oranz
orapihl
oraskuu
oraskuudu
oraskuul
oraskuun
oraskuus
oravan
oravangrivan
oravat
oravu
ordenu
ordz
org
orkestru
oro
ortjo
ortodoksizen
ortodoksizes
orwell
orz
os
osa
oscar
osoite
ostettih
ostua
otah
otatko
otava
otavan
otetah
otettih
otettu
other
otja
otlandielaine
otlandien
otlandies
otr
ottajen
ottamah
ottamizen
ottanuh
ottau
ottavuttih
otti
otto
ottua
ou
ouc
oudor
oulu
oulun
oulus
ouperan
ouperas
ouperu
ouperua
ouperusa
our
ouru
out
outja
ov
ova
ovan
ovin
ovkin
oxford
oy
oyme
oza
ozah
ozakse
ozan
ozannu
ozanottai
ozanottajannu
ozas
ozasto
ozastol
ozastole
ozaston
ozat
ozavaldivos
ozero
ozii
ozittain
ozua
ozutahes
ozutelmas
ozutelmat
ozutelmu
ozutelmua
ozutelmukirjailii
ozutetah
ozutettih
ozutettu
ozuttamah
ozuttau
ozutteli
ozuttelii
ozuttelijakse
ozuttelijan
ozuttelijat
ozuttelijoin
ozuttelijois
ozuttelu
ozuttelut
ozutti
ozuttihes
ozuttua
p
pa
paavo
paavola
pablo
pac
padua
page
pagin
paginanveda
paginat
paginluadu
paginluadulois
paginluavus
paginsanakirju
pagizemah
pagizi
pagizijoi
pagizijua
pagizou
pagoh
pagolazien
paha
pahan
pahas
pahasti
pahat
pahoi
pahoin
pahomov
pahomova
pahomovan
pahua
paic
paikallizet
paikannimilo
paikkarin
paikkoi
paikku
paikoitellen
paimoi
paimoin
pain
painau
painetah
painettih
painettu
paino
painos
paintings
painua
paista
paistah
paistih
paistu
paja
pajamo
pajatandas
pajatetah
pajatettih
pajattai
pajattajat
pajattajua
pajattamah
pajattau
pajatti
pajattua
pajo
pajojoukko
pajoloi
pajoloin
pajon
pajonluadii
pajopruazniekkua
pajot
pajun
pajuo
pakkaine
pakkasc
pakkaskuu
pakkaskuudu
pakkaskuul
pakkaskuun
pakkaskuus
pakkastu
pakkazien
pakutah
pakutuskiz
pal
pala
palkindo
palkindoloin
palkindon
palkindot
palkinduo
palkittih
palkittu
paloi
palua
pam
panama
panaman
panc
pandih
pandu
panemah
pani
panna
pannah
panoksen
paolo
papinkosken
pappi
papua
paradisae
paragvai
parahakse
parahannu
parahat
parahien
parahii
parahis
parahite
parandajes
parandamizeh
parandau
parandua
paras
paraske
paraskeva
parastu
parembi
pariiz
paris
parisdescartes
pariz
parkinsonan
parluamentan
parluamentu
partieh
partien
partizanoin
partizuanoin
pas
pastetah
pasteur
paul
pauli
paulo
pavel
pavlovic
pdf
pe
pec
peda
pedagogic
pedoela
pedrat
pedro
pedru
pedrun
peerage
pehmei
peiteta
peitoc
peitta
peittonimi
pekin
pekka
peldo
peldoc
peldoloil
peldoz
pelvahan
pelvas
pelvastu
pembrokeshirecoast
pentti
penttonen
penziel
people
per
pera
perca
pereh
pereheh
perehen
perehenke
perehes
perehespa
perehis
perehty
perhin
peria
perikles
perindo
periodan
periodas
periodika
permila
persielaine
persien
person
personen
persounan
persudus
perti
pertii
pertija
pertilo
pertilomu
pertin
pertis
pertti
perttu
perttunen
perttuzen
peru
perun
perustai
perustajakse
perustajannu
perustajii
perustajis
perustamizeh
perustamizen
perustehel
perustetah
perustettih
perustettu
perusti
perustua
perustuu
pes
peskuc
pesonen
pesta
peter
petri
petroskoi
petroskoih
petroskoil
petroskoile
petroskoin
petroskois
petroskoispa
petroskoissah
petrov
petrovic
petrovna
petrovnan
petrovskin
petrovskoi
petrovskoin
petrozavodsk
petta
peza
pezia
pezii
pezis
peziy
pezoittuu
pezoitutah
pg
philosophy
phoenicurus
php
pia
pianistu
picasso
pid
pida
pidi
pidia
piduhus
piduhusria
piduhuttu
pidulic
pie
piekseta
pielizen
pienda
piendy
pienehko
pienel
pienemba
pienembi
pienembii
pienen
pienenny
pienes
pienet
pieni
pienien
pienii
pienin
pier
pierre
pieta
pietari
pietarin
pietta
piettih
pietty
piha
pihal
pihale
pihl
pihua
piirdehet
piirdehii
piiri
piirih
piirii
piiril
piirilo
piirin
piirinke
piiris
piirit
piirra
piirrettylo
piirualoin
piiteri
piiterih
piiterila
piiterin
piiteris
piiterispa
pikc
pikkaraine
pikoi
pil
pilaris
pimien
pin
pindu
pindua
pinduala
pindualan
pindualas
pindualua
pindus
pinnal
pinnan
piramidu
pirtti
piscovois
pita
pitka
pitkemba
pitkembi
pitkevys
pitkia
pitkin
pitky
pitkyja
pitkyrandu
pitkyrannan
piz
pjer
pl
pla
placebo
placebon
plan
planet
plang
planietan
planiettu
plank
plato
platon
platonan
plotin
plotina
plotinan
plotinua
plotinvezisto
pmknaw
pn
po
poc
podiceps
podporoz
poe
poen
pogostan
pogostu
pohjaine
pohjakse
pohjal
pohjale
pohjan
pohjanmua
pohjanmuan
pohjannu
pohjas
pohjasozas
pohjaspuolel
pohjasrannal
pohjasrannikol
pohjastu
pohjavuu
pohjazeh
pohjazel
pohjazen
pohjazes
pohjazespa
pohjazin
pohjazis
pohjoinen
pohjois
pohju
poigah
poigastu
poigazet
poigazien
poigazii
poigoveh
poigu
poigua
poijan
poijat
poikki
poko
pokrovan
pol
poliitiekan
poliitiekas
poliitiekku
poliittine
poliittistu
poliittizen
polo
polon
pols
poltettu
popeda
popov
popul
population
poraja
port
portat
portu
portugaliekse
portugalien
portugalies
portugalilaine
porvoo
pos
poselenieh
poselenien
poselenies
poselenii
postojanov
potkuriloil
poventsa
poventsan
pp
ppa
ppo
ppy
pravda
pravoslavnoi
pravoslavnoin
pravoslavnoit
pravosluavizii
pravosluavnoi
premiehet
preobraz
president
presley
press
prezidentan
prezidentu
prezidiuman
pria
prihodah
pris
pro
probliemat
prod
produktivnoi
professional
professorakse
professorannu
professoru
programman
programmas
programmes
project
projektan
projektoin
projektu
projektua
prokkonen
prokudin
proleksis
prosopographique
prostoi
proust
prouzua
pruazniekan
pruazniekkoi
pruazniekku
pruazniekkua
pruaznuijah
prussien
psa
pt
puadanen
puadenel
puadenen
puadja
puaksuh
puaksumbah
puaksumbi
pualikku
puan
puaran
puaru
puarua
puavilan
pub
publications
publishers
publishing
puc
puffinus
puhdistus
puhtahas
puhtas
puhtastu
pull
pulling
punalippu
punk
puoldu
puoleh
puolekkai
puolekse
puolel
puolele
puolen
puoles
puolespa
puolet
puoli
puolii
puolil
puolis
puolistai
puolisti
puoliva
puoloveheh
puolovehen
puolovehes
pus
putin
putkozero
puu
puuc
puudogan
puudogaspa
puudogassah
puudogu
puudu
puuhine
puukirikko
puuloi
puuloih
puuloin
puulois
puun
puunandimis
puus
puusepa
puustoh
puut
puuttuu
puutui
puututtih
py
pyha
pyhia
pyhien
pyhitta
pyo
pystytettih
pyvveta
pyy
pyydia
pyzyy
q
que
quijote
r
ra
rac
radio
radioaktiivine
radivotehniekan
rafael
rahvahal
rahvahale
rahvahalline
rahvahallizen
rahvahan
rahvahanopistos
rahvahanrunohuon
rahvahanrunohuttu
rahvahanvaldu
rahvahas
rahvahat
rahvahien
rahvahienva
rahvahii
rahvahis
rahvas
rahvastu
raija
rainer
raisa
raja
rajal
rajan
rajanvardoic
rajassah
rajat
rajoin
rajoittuu
rajoituu
rajua
rakendamah
rakendamizes
rakendeh
rakendettih
rakendettu
rakendua
rakendukset
rakenduksii
rakendus
rakendustu
rakennus
ramone
ramonen
ramones
ramonesan
ramsey
randoi
randu
randua
randupiha
randuviivan
rannal
rannale
rannan
rannat
rannikko
rannikol
rannikon
rannoil
rastavan
rastavua
raudu
raududorogal
raududorogan
raududorogu
raududorogua
raududorogustancien
raududorogustancii
raududorogustansiel
raududorogustansii
raudutieazemu
raudutien
rauhan
rauhansobimuksen
rauhoitettu
rauman
rautio
ravei
ravieh
ravvan
ravvas
razumov
razvua
razvumia
rba
rdy
re
reboi
reboin
rebol
record
records
red
redaktorannu
redkie
ref
reh
reihan
reijo
rekisterikeskus
rekords
rel
rembrandt
rems
ren
renaissance
rene
renessansan
rengas
renoir
repertuarah
repu
republic
republika
rerih
res
resources
ret
reunat
reunoil
review
revol
rga
rgb
rgei
rgevima
rgevimii
rgevin
rgi
rgiekse
rgielo
rgienny
rgiet
rgii
rgija
rgikaloin
ri
ria
ric
rica
richard
riehtila
rien
riga
rih
rii
riic
riikka
riimalaine
riiman
riimas
riimu
riippuu
riipus
riista
rikas
rikka
rikki
rikkii
rikku
riksarkivet
ril
rilleh
rilo
rimskii
rin
rine
rinnal
rinne
rio
rippujen
rippumattah
rippuu
ris
ristija
ristikanzal
ristikanzale
ristikanzan
ristikanzannu
ristikanzas
ristikanzat
ristikanzoi
ristikanzoih
ristikanzoile
ristikanzoin
ristikanzois
ristikanzu
ristikanzua
risto
risty
risunkat
rit
rita
ritella
ritettih
ritetty
river
rivis
rizet
rja
rjesta
rjesto
rjestyksen
rjestykses
rjj
rk
rka
rkdartists
rko
rkperiodika
ro
robert
roberts
rock
rodieu
rodih
rodihes
rodiihes
rodinja
rodinuhes
rodivui
rodivunnuh
rodivutah
rodnina
rodos
rodosal
rodu
rodukundah
rodukundua
roduu
roduz
roger
roglo
rohtukazvinnu
roih
roihes
roindu
roindua
roindukyla
roindumuannu
roindupa
roinduperia
roinnuh
roinnuhes
roita
roitah
roitahes
roittih
roittihes
rok
rokjoukon
roll
rolling
roma
roman
romanov
romanovan
romanovic
romanovoin
romantiekan
romantiekku
romuanan
romuanas
romuanoi
romuanu
ron
roosevelt
rouli
roulii
rouliloi
roulilois
roulin
roulis
rouno
rouzovoi
rouzovoit
rovio
rovion
rovun
rovus
roz
roza
rozo
rr
rspb
rta
rtsila
rttina
ru
rua
ruadai
ruadajan
ruadajat
ruadajes
ruadajien
ruadajua
ruadamah
ruadanuh
ruadau
ruadivon
ruado
ruadobruja
ruadoh
ruadoi
ruadokommunnan
ruadoloi
ruadoloin
ruadolois
ruadua
ruaduo
ruahto
ruahtuo
ruandan
ruanittu
ruatah
ruattih
ruavon
ruavonnu
ruavos
ruavot
rubei
rubens
rubieu
rubis
rubl
rubs
ruc
rudolf
rudua
ruficollis
rugaja
rugarven
rugojev
rugojevan
ruho
ruhon
ruis
ruistu
rumi
rumiinienke
runeberg
rungan
rungo
rungon
rungu
runo
runoelmu
runohuon
runohus
runohuttu
runoilan
runoilii
runoilijan
runoilijannu
runoilijat
runoilijoin
runoilijois
runoja
runokogomus
runokyla
runoloi
runoloin
runolois
runonpajattai
runonpajattajan
runonpajattajien
runot
runuo
ruoc
ruokoja
ruokolampi
ruokos
ruskealan
ruskei
ruskeikulkukuikku
ruskiedu
ruskieh
ruskieloin
ruskien
ruskiet
ruspakko
russia
ruutat
ruveta
ruvetah
ruvettih
rv
rveh
rvel
rvela
rvele
rven
rvenke
rvenoja
rventaguzen
rves
rvespa
rvessah
rvet
rvi
rvie
rvien
rvilo
rvirudua
ry
ryn
ryz
s
sa
saamelazien
saamen
saamilaine
sada
sadoi
sadua
sagarvo
sah
sai
saimaalta
saint
saital
saitu
sakari
saksonalaine
sal
salavat
saldatan
saldatat
saldatoin
saldattoile
saldattoin
saldattua
salix
sallinen
salmen
salmes
salmi
salmin
salmis
salonja
salvador
salvattih
salvattu
salvettu
salzburg
sama
samah
samal
saman
samannimine
samannimizeh
samannimizel
samannimizen
samannimizes
samannu
samas
samat
samojedi
sampo
samua
san
sana
sanakirja
sanakirjan
sanakirjas
sanakirju
sanakirjua
sanakniigan
sanakniigu
sanakniigua
sanal
sanan
sananpia
sananpolved
sananpolvet
sananpolvie
sananpolviloi
sanas
sanaspa
sanasto
sanaston
sanastuo
sanat
sandalja
sandro
saneli
sanelii
sanellah
sanelou
sanfourche
sangei
sanna
sanni
sanoi
sanoin
sanois
sanomah
sanomat
sanommo
sanotah
sanottih
sanottu
sanou
santimetrii
santjago
santtu
sanua
sanuo
sarjan
sarjas
sarju
sarjukoomiksu
sarvet
sattuma
satuja
saudi
saur
savante
saveljev
saveljeva
saves
savi
savin
savon
savonlinnan
savos
sbpgt
scheele
schjerfbeck
schubert
science
score
se
sebastian
section
sedov
sedovan
seesja
segamec
segasulateh
segez
sego
seic
seina
seizoi
seizou
sekretari
sekretarikse
sekretarinnu
sel
selgi
selgih
selgy
selite
sella
sellis
sellitetty
sellitta
sellitti
sellittia
selma
sem
semc
semmite
sen
senda
senegalanke
sent
senta
sentii
sentissa
senuatan
serbien
serbienke
sergei
server
seta
seura
seurah
seuran
seuru
sez
sezo
sgi
shakespeare
sheehan
shelley
short
shtml
si
sia
sibelius
siberih
siberin
siberis
sibiries
sibiris
sic
sida
siddhartha
sie
siegi
sielun
siemendy
siemenet
siemenii
sienet
sieni
siepa
sierra
siga
sih
siibien
siigu
siigua
siilinja
siinu
siirdia
siirdyi
siirdyo
siirdyy
siiric
siirrettih
siivet
sija
sijah
sijahine
sijahizennu
sijaic
sijal
sijale
sijas
sijoic
sijoitannuhes
sijoitetah
sijoitettih
sijoittui
sijoittuu
sijoitunnuh
sijoitunnuhes
sikse
sil
silaigua
sile
silei
sille
silloi
sillozen
silma
silmy
silmykaivon
simvolu
sina
sinfounii
single
sinikka
sinine
sinisalo
sinisalon
sinisty
sinitskaja
sinizen
sinizet
sinne
sinstituutti
sinule
sinun
sir
sirkka
sisa
sissa
sistiemallizen
sistiemallizes
sistieman
sistiemas
sistiemu
sit
site
sites
sitpa
sivistysseura
sivistysseuran
sivottu
sivu
sivujogi
sivujoukon
sivusto
sivustol
sivut
siza
sja
sk
ska
skaja
skan
skansen
skela
ski
skii
skirjan
skoi
skoin
skryvwyse
sks
sky
skyla
skyn
skys
sl
slam
slavmo
sliuhkat
sluavilaine
sluuz
sm
smirnov
smirnova
smith
smolenskoin
sms
snac
snimaic
snt
so
sobih
sobii
soc
socialistizen
societies
society
sofia
sofokles
soitetah
soitettih
soitin
soitindu
soittai
soittajat
soittajien
soittajua
soittamah
soittau
soitti
soittimien
soittimii
soittimil
soittua
sokolov
solomonan
soloveckoin
somali
sordavala
sordavalan
sorly
sorokan
sorsa
sortaval
sortavala
sortavalan
sortavalas
sortavalassah
sorzien
sosialistine
sosialistizen
sosnovets
sosnovetsan
sotsialistizen
souhozu
soussih
south
sovat
sovhouzan
spa
spaso
specialistu
speculative
spektakliloi
spektaklis
sportan
sportas
sportu
sportua
sportukarjieran
sportumal
sportumies
sportumuasteri
sportus
sps
srednjoilla
sri
sroic
srojittih
srojittu
sruavon
ss
ssa
ssah
ssyh
ssyo
st
sta
staatsbibliothek
stalin
stalinan
stancii
stanley
stansiel
stansii
starinan
starinoi
starinoin
stars
stat
states
statfin
stepanov
stepanova
sterna
steta
stettih
stetty
stettylo
steve
steven
sti
stia
stica
stih
stiil
stin
stokgol
stola
stolakiz
stolbovan
stone
stones
store
story
strauss
stravinski
stuatusan
stuatussu
sty
styksen
stysela
su
sua
suadih
suadu
suaduu
suaha
suahah
suai
suaja
suajah
suajakse
suaju
suamizekse
suan
suannuh
suannuzien
suanuh
suardu
suareh
suarel
suarele
suaren
suares
suaret
suari
suarien
suarija
suaril
suariloi
suariloil
suariloile
suariloin
suariloinke
suarilois
suarin
suaristo
suaristoh
suariston
suaristos
suarivaldivo
suarivaldivon
suarnat
suarnoi
suarnoin
suarnois
suarnu
suarnua
suarnukera
suarnuromuanu
suas
suate
suau
suavutukset
sud
sudan
sudananke
sugu
suguh
sugunimi
sugupolvi
sugupolvile
suguu
suistamo
suistamol
suistamon
suistamonja
sukkaja
sukset
suksil
sul
sulakuu
sulakuudu
sulakuul
sulakuun
sulakuus
sulattua
sumaja
sumajogi
sumposadan
sumski
suo
suodunuot
suohizii
suoja
suolan
suolatah
suolatoivezine
suoloil
suoloin
suolu
suolua
suolusma
suom
suomalaine
suomalainen
suomalais
suomalaisen
suomeh
suomekse
suomelaine
suomelas
suomelastu
suomelasugrilazien
suomelazeh
suomelazen
suomelazes
suomelazet
suomelazien
suomelazii
suomele
suomen
suomenke
suomenkieline
suomenkielizen
suomenkielizes
suomenruoc
suomentanut
suomes
suomesgi
suomespa
suomi
suomussalmen
sur
surinam
surku
surman
suu
suudittih
suudu
suun
suunujogi
suunujoven
suur
suurdu
suureh
suurekse
suurel
suurembah
suuremban
suurembat
suurembi
suurembii
suurembua
suuren
suurennu
suures
suuret
suuri
suuric
suurien
suurih
suurii
suurija
suurikoskelo
suuriman
suurimas
suurimat
suurimbat
suurimbis
suurimii
suurimis
suurin
suuris
suurlahten
suuruon
suurus
suus
suvaic
suvaijah
suveh
suvehpa
suves
suvi
suviafriekkalaine
suvikarjalakse
suvikarjalan
suviozas
suvipuolel
suvipuoles
suvirannal
suvizes
suvorov
suvorovan
suvun
suvuspa
sv
sva
svenska
svetlana
svuad
swift
syda
sygyzy
sygyzyl
sygyzyn
syksyn
syndyy
synty
syo
syva
syvin
syvva
syvys
syvyskuu
syvyskuudu
syvyskuul
syvyskuun
syvyskuus
syvyskuussah
syy
syylo
syynny
t
ta
tab
taba
tabah
table
tabua
tac
tadz
tagaka
tagan
tagaperin
tagua
tahtahah
tahtahas
tahto
tahtoi
tahton
tahtotah
tahtottih
tahtou
tai
taidehen
taidehmualuaju
taido
taidoilii
taidoilijan
taidoilijannu
taidomualuaju
taiduo
taijon
taivahah
taival
taivan
taivas
takala
tal
tallendai
tallinn
talo
taloi
taloidu
taloih
taloin
talois
taloit
taloloin
talovuon
talovus
talvehtitah
talvehtiu
talvekse
talvel
talvela
talven
talvi
talvikiz
talvikuu
talvikuudu
talvikuul
talvikuun
talvikuus
talvilindu
talviojan
talviolimpiadukiz
talvisovat
talvivoinan
tamara
tambic
tammi
tampere
tampereen
tan
tandfonline
tansi
tansii
tanzanienke
tapahtui
tapahtuu
tapettih
tapettuloile
tapettuloin
tarasovin
tarin
tarina
tarja
tarkah
tarkoitetah
tarkoitettu
tarkoittau
tarkoitti
tarkoittua
tarkoituksennu
tarkoitus
tarkovskii
tarku
tartu
tartun
tas
tasavalta
tat
tatarstuanan
tatjana
tatuaroin
taudi
taudiloih
taulukos
taun
taval
tavalline
tavallizeh
tavallizen
tavan
tavannu
tavarua
tavatah
tavattih
tavattu
taylor
tazangol
tazavaldah
tazavaldanke
tazavaldu
tazavallakse
tazavallan
tazavallanke
tazavallas
tazol
te
teatrah
teatran
teatras
teatru
teatrua
tedja
tedri
teemannu
teemas
teh
tehniekan
tehniekku
tehta
tekija
tekstat
teksteja
tekstoi
tekstu
tekstua
tel
telekanualu
telekeskus
telky
templatois
temps
ten
tennissu
teodor
teoksessa
teoksia
teourien
tera
terbii
terentjev
teria
termina
terva
terveh
tervehyo
tervehys
tervehytty
tesla
teta
tettih
teurii
tevokseh
tevoksen
tevoksennu
tevokses
tevokset
tevoksien
tevoksii
tevoksis
tevolliz
tevos
tevostu
tfil
th
thaimuan
that
the
theodor
theodore
this
thomas
ti
tia
tiainen
tie
tieda
tiede
tiedia
tiedo
tiedoakadeemien
tiedoakadiemien
tiedoalan
tiedoiniekan
tiedokeskuksen
tiedokirjutustu
tiedokonehen
tiedokunnan
tiedoloi
tiedoloin
tiedomiehet
tiedomiehien
tiedomies
tiedomiesty
tiedoruavon
tiedot
tieduo
tiel
tiemannu
tienoru
tieta
tietosanakirja
tietta
tiettih
tiezi
tihvina
tiija
tiijolline
tiijollizen
tiijon
tiijonala
tiijot
tiijustettih
tiijustua
tiiks
tikka
til
tila
tilah
tilata
tilavus
tilkuzet
tilkuzien
time
times
timo
timoi
timonen
timor
timoran
timozen
tin
tinan
tinua
tio
tit
titanic
title
tja
tken
tkuu
tkuudu
tkuul
tkuun
tkuus
tm
to
tobago
tobi
today
todevuttua
togo
tohmajoven
toi
toic
toim
toimehpaniikomitietan
toimehpanokomitietan
toimi
toimii
toimijatiedot
toimindan
toimindua
toimittai
toimittajakse
toimittajan
toimittajannu
toimitus
toimiu
toinah
toine
toinen
toivo
toizeh
toizekse
toizel
toizele
toizen
toizenke
toizennu
toizes
toizet
toizien
toizih
toizii
toiziigi
toizil
toizile
toizin
toizis
tokio
tokion
tol
tolstoi
tolstoin
tolvaja
tom
tomberg
tome
tommy
tonnua
topasja
torasja
torvi
tossuvuon
tostu
totalituarizen
tottu
toukkua
tourism
tove
tovelline
tovelliz
toven
tovesti
tozi
tr
traus
travel
tretjak
tretjakua
trinidad
trophy
tros
trumpetistu
ts
tsirkan
tsoi
tsoin
tsuari
tsuarikunnan
tsuarin
tt
tta
ttehet
ttenic
tti
ttia
ttie
ttih
ttii
ttilo
ttinen
tto
tts
tty
ttylo
ttyy
tu
tua
tuakse
tuas
tuatan
tuaton
tuattah
tuatto
tuhanden
tuhanzii
tuhat
tuhattu
tuhjo
tuhjoine
tuhjoz
tuhukuu
tuhukuudu
tuhukuul
tuhukuun
tuhukuus
tukkukoskelo
tukkunah
tuldih
tuldu
tulduu
tule
tulee
tulemah
tulen
tuli
tulieh
tuliel
tulien
tulii
tulima
tulla
tullah
tulli
tulluh
tuloksennu
tulokset
tuloksii
tulomda
tulou
tundemattoman
tundietah
tundiettih
tundiettu
tundiettuloi
tundietun
tundietut
tundrukuikku
tunguol
tunguon
tungutja
tunisu
tunnetah
tunnetuin
tunniste
tunnus
tunnusti
tunnustua
tuns
tuodih
tuodu
tuohes
tuohi
tuohikirjaine
tuolleh
tuomas
tuomen
tuomi
tuomipihl
tuoppaja
tuotando
tuotandos
tuottehii
tuou
turbu
turdus
turing
turingan
turistua
turki
turkin
turku
turtsien
turtsienke
turun
turunen
turvupielus
tutah
tutki
tutkii
tutkijan
tutkijat
tutkijoin
tutkimah
tutkimizeh
tutkimuksen
tutkimukset
tutkimus
tutkimuskeskuksen
tutkimuskeskus
tutkimuslaitos
tutkimusmatkailii
tutkimustu
tutkinuh
tutkitah
tutkittu
tutkiu
tuttavui
tuttu
tuuhei
tuuhoine
tuuksen
tuula
tuulel
tuulen
tuuliajolla
tuuloksenjogeh
tuulos
tuulosja
tuurah
tuuran
tuuras
tuuroin
tuurois
tuuru
tuurua
tuurualan
tuurukeskus
tuuruperindo
tuurutaloi
tuvakse
tuvan
tuvas
tuvvah
tv
tverin
tverinkarjalakse
twain
twrch
tyhja
tyo
tyrma
tyt
tyta
tyto
tytta
tytto
tyveh
tyves
tyynen
tyynenmeren
tyynimeri
tzdb
u
ua
uajan
uajat
uajien
uajoin
uaju
uajua
uajuu
ual
uale
uallonpiduhus
uamah
uan
uanan
uari
uaritah
uassuu
uasti
ubl
ubov
uc
udmila
udmurtien
udmurties
ugandanke
ugrilaine
ugrilainen
ugrilaisen
ugrilazeh
ugrilazen
ugrilazet
ugrilazien
ugrilazis
uguivda
uhc
uhtuol
uhtuon
ui
uic
uikku
uikkuloin
uikuja
uikujogeh
uikujoki
uikujoven
uikunsuaren
uiljam
uinduallikko
uivelo
ujeva
ujezdan
ujezdu
uk
ukko
ukon
ukovskii
ukrainalastu
ukrainan
ukrainanke
ukrainas
uks
ukseh
uksen
ukses
ukset
uksien
uksii
ul
ulan
ulgomualaine
ulgomualazien
ulgona
ulgopuolel
uloi
umah
umiinien
un
undukera
unelma
unesco
unescon
uni
union
united
university
unohtuksih
unspecified
untranslated
uo
uoh
uojoven
uoju
uojuh
uojun
uol
uon
uontutkii
uos
uot
up
uploads
uppoi
upul
uralilaine
uralilazen
uralilazet
uran
urheilupuisto
urhoi
uri
urik
urin
urnalistu
urnualah
urnualan
urnualas
urnualat
urnualois
urnualu
urnualua
uroc
uroja
urosja
ursa
uruanan
us
usa
usad
usaloveh
usarvostelii
usean
useru
uskeskus
usko
uskoh
uskoi
uskon
uskondo
uskotah
uskottih
usmies
ust
ustu
ut
utah
uttih
uttu
uu
uudeh
uudizet
uudizii
uuhu
uuksunjogi
uulic
uuruine
uuruzii
uusi
uut
uutiset
uutja
uuttu
uuzi
uuzien
uuzih
uuzii
uuzikyla
uv
uvas
uvvekse
uvven
uvves
uvvessah
uvvet
uz
uzbekistuananke
v
va
vac
vaccinium
vador
vagoi
vagoin
vahalaukkuu
vahatja
vahja
vahnan
vahnas
vahnat
vahnembat
vahnembi
vahnimat
vahnimii
vahnin
vahnoi
vahnois
vahnu
vahnua
vahnuaigaine
vahvaja
vai
vaigei
vaigu
vaihtau
vaihteleh
vaihtoi
vaiku
vaikutannuh
vaikutetah
vaikutettih
vaikuttanuh
vaikuttau
vaikutti
vaikutukses
vaikutus
vaikutustu
vajai
val
valamoi
valamoin
valdah
valdain
valdivo
valdivoh
valdivolline
valdivollizen
valdivoloin
valdivomies
valdivon
valdivonvallas
valdivonyliopistoh
valdivonyliopiston
valdivonyliopistos
valdivos
valdivot
valdivuo
valdu
valdua
valdukundah
valdukundu
valdukunnan
valdumereh
valdumeren
valdumerenke
valdumeres
valdumeri
valentin
valentina
valetah
valgei
valgeiroz
valgeisiibic
valgiedu
valgieloi
valgieloin
valgien
valgies
valgiet
valgo
valgoven
valguo
valic
valistus
vallan
vallankumovuksen
vallankumovustu
vallas
valletta
vallic
vallitah
vallittih
vallittu
vallitut
vallon
valmehekse
valmis
valmistamah
valmistamine
valmistamizeh
valmistamizen
valmistamizes
valmistetah
valmistettih
valmistettu
valmisti
valpahembi
van
vangiloin
varattavu
varavos
varc
vardoic
varen
varkaus
varoin
varpaja
varrel
varres
vartu
varua
varustajes
varustetah
varzi
varzii
varzinkarjalan
varzinkarjalas
vas
vasil
vasili
vasilii
vasiljev
vasiljevic
vasiljevna
vasken
vaski
vaskic
vastah
vastahnouzun
vastai
vastalpa
vastata
vastatah
vaste
vastu
vastuau
vastukarai
vastustai
vatikanan
vaz
ve
veda
vedeh
vedi
vedia
vegarusja
vehkeh
vehkehet
vehkehii
vehkehty
veic
veikki
veitsarien
veitsarii
vel
velda
veldi
velenda
veljet
vella
vellen
velleskalmu
vellesto
velli
vellie
ven
vena
venan
venc
veneh
venesuelan
vengriela
vengrien
vengrienke
vengries
vengrii
veps
vepsa
vera
verbilo
verdi
verdin
veres
veria
verkkoviite
verkosivut
verlag
vermeer
vernon
verraten
verratunnu
versiedy
versien
versio
verso
ves
vesa
vesi
vesta
vetsuarielaine
vetty
vezi
vezibasseinan
vezilo
vezirottu
vezisto
vezivoimalu
vezua
vi
via
viborgan
vic
victor
videlen
videlenjogeh
vie
viel
vielja
vien
viena
vienakse
vienan
vienankarjalaine
vienankarjalakse
vienankarjalan
vienanmereh
vienanmeren
vienda
vieno
vierahien
vieres
vies
viestit
viet
vieta
vietnaman
vietta
vietti
viettih
vietty
view
viey
vih
vihandan
vihandu
vihandua
vihjatah
vii
viii
viijen
viijenden
viijendes
viijes
viikattehel
viinu
viinua
viipurin
viitattu
viiteh
viitetta
viitty
viizi
vija
viks
vikse
viktor
viktorovic
vil
vilgan
vilgu
villalanja
vilu
viluc
vilulois
vilus
vimis
vin
vincent
vinci
vinnyh
vinogruadan
vinsent
viola
viralline
virallizesti
virallizet
virdu
virduau
virginia
virheellinen
virkeh
virralline
virrallizen
virrallizes
virrallizesti
virrallizet
virrallizis
virran
virras
virratah
virret
virtaranta
virtual
virujen
vis
vita
vitamiinoi
vitamiinoin
vitamiinua
vitettih
vitetty
vitta
vivaldi
vizakoivun
vizcr
vk
vladimir
vladimirovic
vladislav
vlaoj
vo
vodi
vodlaja
vodlajogeh
vodlajogi
vodlajoven
voi
voibi
voidas
voidih
voidu
voija
voijah
voimattoman
voinah
voinal
voinan
voinas
voinke
voinnuh
voinu
voinua
vois
voiskat
voit
voitettih
voitetukse
voiton
voittai
voittajakse
voittajannu
voittau
voitti
voitto
voittua
vojac
vojennoi
vojennoin
vokali
vol
volgan
volkov
vologdan
volontir
voltaire
voltairen
volume
von
voronkusieni
vorotoih
vottovaara
voulosti
voulostih
voulostin
voulostis
voz
vrangel
vratari
vratarinnu
vs
vuaru
vuaz
vuitin
vuitti
vuittii
vuodeh
vuodehizennu
vuoden
vuodessah
vuodizennu
vuoh
vuokkiniemes
vuokkiniemi
vuon
vuonna
vuonnu
vuoren
vuori
vuoristo
vuosi
vuotta
vuottoja
vuottu
vuoz
vuozi
vuozien
vuozii
vuozil
vuozinnu
vuozipa
vuozis
vuozisada
vuozisavoin
vuozisual
vuozisuan
vuozisuas
vuozituhandel
vuvennu
vuvvekse
vuvvel
vuvven
vuvvenaijas
vuvvennu
vuvvenu
vuvves
vuvvespa
vuvvessah
vuvvet
vv
vva
vvedenskii
vvelleh
vvettih
vvetty
vvy
vy
vyi
vykset
vyksii
vyn
vynda
vynnyh
vyo
vys
vysty
vyt
vyta
vytta
vyttih
vyy
w
wagner
wagneran
wales
walk
walt
waltari
waltarin
walter
washington
watch
web
weilin
welsh
what
who
wien
wiki
wikipedia
wikipedien
wikipedies
wikipedii
wiley
wilhelm
william
winston
with
wolfgang
wonderful
woolf
word
works
world
wp
wright
writers
wsoy
wuorikoski
ww
www
x
xcpsneamo
xi
xii
xiii
xiv
xix
xli
xls
xprcihhvhk
xv
xvi
xvii
xviii
xx
xxi
xxii
y
yaholoil
yda
ydi
ydia
ydih
ydin
ydo
ydyi
ydyy
year
yela
yellow
yh
yha
yhdistys
yheksa
yhkiz
yhteh
yhtehine
yhtehizeh
yhtehizen
yhtehizes
yhteiskunnalline
yhteiskunnallizen
yhteisruavos
yhteizo
yhtekse
yhtel
yhtelaigua
yhtella
yhten
yhtena
yhtenjyttyine
yhtenny
yhtes
yhtet
yhtevyksen
yhtevyksis
yhtevyo
yhtista
yhtistehet
yhtisteta
yhtistettih
yhtistetty
yhtisti
yhtistia
yhtistyksen
yhtistynnyh
yhtistynnyo
yhtistynyo
yhtistynyzien
yhtistys
yhtistyta
yhty
yhtyi
yhtyma
yhtymy
yhtynyh
yhtys
yhtysvaldaine
yhtysvaldalaine
yhtysvaldalazii
yhtysvaldoih
yhtysvaldoin
yhtysvaldulaine
yhtysvallat
yhtysvalloin
yhtysvallois
yhtyta
yhtyttih
yhtyy
yja
yk
ykana
yksen
ykses
yksi
yksikai
yksikko
yksiko
yksilo
yksin
yksina
yksitellen
yksitostu
yksitta
yl
yla
yle
yleiskieles
ylen
yli
ylima
yliopisto
yliopistoh
yliopistolois
yliopiston
yliopistos
yllo
ylo
ylyy
yma
ymandz
ymba
yn
yna
ynia
ynnyh
ynys
yo
yoaysb
york
yorkas
you
youtube
ypunktu
yr
yritta
yrityspalvelu
yrjo
yrnjdsmcjy
yruadokeskus
ys
ysta
yt
yta
ytelma
yteta
ytetta
ytettih
ytetty
ytettylo
yto
ytta
ytteita
ytti
yttia
yttih
ytto
ytty
yttyy
ytynyt
yy
yzi
z
za
zaikov
zaitsev
zaitsevan
zambienke
zambii
zanne
zavod
zavodal
zavodan
zavodu
ze
zedong
zeh
zekse
zel
zele
zen
zenet
zenkukan
zenny
zensistieman
zes
zesti
zet
zgf
zi
zien
zih
zii
ziifuw
zikirjuttai
zikirjutuksen
zikirjutuksien
zikse
zil
zimbabve
zin
zinaida
zinny
zipuu
zipuun
zir
zis
ziteh
zitys
zo
zones
zuaharii
zualas
zualu
zy
{
|
}
~
«
°
±
²
³
´
·
º
»
¾
æ
ð
þ
ʰ
ʹ
ˈ
ː
˘
̀
́
̂
̃
̄
̆
̇
̈
̊
̋
̌
̓
̔
̣
̦
̧
̨
͂
΄
α
ε
ι
ν
ρ
ς
а
августа
академия
александр
александрович
алексеевич
алексеи
анисимов
анна
апреля
архив
б
бен
берлинская
библиотека
биографическии
богородицы
болото
большая
брокгауз
брокгауза
в
варои
венян
вкп
во
водохранилище
военная
востоковедения
всесоюзнои
г
га
гаи
география
георгия
года
гора
горе
горы
горькии
госиздат
государства
государственнои
грамматика
д
даллас
декабря
для
дмитриевич
дмитрии
доклуада
доминиканского
доп
древностеи
е
ездал
елисеева
ефрон
ефрона
з
заи
зимин
и
иван
иванович
ивантер
идентификатор
из
изд
издания
издательства
издательство
изобразительного
ил
имя
институт
института
исаков
искусства
испании
истории
история
июля
июня
к
каргосиздат
каргосиздатта
карел
карелии
карелия
карельские
карельскии
карельских
карельского
карельскои
каталог
ки
кирья
киэлен
классал
классалла
классических
классическои
классои
книга
ков
коммунистическои
комплекс
константин
корсаков
коткозерское
красная
краткая
л
ла
ле
лексикон
ленин
ленинград
лесная
литературан
литературная
лла
лович
лои
луади
любкер
любкеру
м
мактьютор
марта
математики
матери
мая
михаи
монастырь
москва
муниципальныи
муниципальным
н
на
народнои
населения
населенных
наука
нах
национальная
начальнои
начальнолои
не
неполнои
николаевич
николаи
николая
новая
новыи
ноября
о
образованиям
общество
обыкновенная
озеро
октмо
октября
ольга
онлаи
от
п
павлов
павлович
паи
пе
педагогики
пер
переведи
переводан
перепись
периодика
песни
петрович
петрозаводск
петрозаводска
по
победоносца
повести
поселение
постоянного
проверено
птицы
пунктов
р
разрезе
раи
ран
реальныи
ред
реестр
республики
рисункат
рождества
россии
россия
русскии
с
саи
санонда
сборникка
святои
сельских
сельское
сентября
ская
скии
скои
словарь
служба
советская
сост
состоянию
спб
среднеи
ссср
ста
сталин
статистики
степанова
стрела
суарна
суарнат
съездал
сытин
т
терехова
тов
тои
толстои
том
тр
у
ул
упражнениеи
учебникка
ф
февраля
федеральная
федерации
филологии
финляндии
х
храм
худож
художеств
цева
церковь
цк
ч
чаган
чаи
часовня
че
чехов
численность
чуасти
чудотворца
ш
школан
школиэн
ы
э
экс
энзимяне
энциклопедическии
энциклопедия
ю
юнеско
я
языка
языков
января
і
ӡ
ְ
ִ
ֵ
ַ
ָ
ׂ
א
י
ל
מ
ר
ש
ת
ا
ع
ل
َ
ُ
ِ
ّ
ٔ
ٕ
ހ
ރ
އ
ވ
މ
ދ
ޖ
ާ
ި
ު
ެ
ް
ज
भ
ा
ေ
်
‎
‏
–
—
―
‘
’
“
”
„
•
…
‰
′
″
№
↑
→
↔
↷
−
③
④
⑦
⺀
⺄
⺆
⺈
⺊
⺌
⺕
⺝
⺸
⺼
⿰
⿱
⿲
⿳
⿴
⿵
⿶
⿷
⿸
⿹
⿺
⿻
、
〢
か
た
て
に
の
る
れ
゙
イ
コ
タ
ヒ
ユ
ン
ー
㇁
㇂
㇄
㇇
㇈
㇉
㇓
㐁
㐄
㐅
㐌
㐫
㐬
㐭
㐮
㐱
㑒
㒵
㒸
㒼
㓁
㓞
㔾
㕛
㕣
㖾
㘝
㚅
㚇
㚔
㚘
㝉
㝡
㝴
㝵
㞋
㞢
㞷
㠩
㠭
㠯
㡀
㡭
㡿
㢲
㢴
㣇
㣺
㥯
㪅
㫄
㫐
㫒
㫺
㬅
㬎
㬥
㬰
㲋
㳄
㷠
㸒
㸚
㸦
㼌
㼲
㽞
㿟
䀠
䂞
䍃
䏍
䒑
䖍
䖒
䖝
䖵
䙴
䚻
䜌
䝿
䡛
䧹
䪞
一
丁
丂
七
丄
丅
丆
万
丈
三
上
下
丌
不
与
丏
丐
丑
专
且
丕
世
丘
丙
业
东
丞
丢
丣
两
严
並
丨
丩
个
丫
丬
中
丮
丰
丱
串
丵
丶
丷
丸
丹
为
主
丽
丿
乀
乂
乃
久
乆
乇
么
义
之
乌
乍
乎
乏
乐
乑
乔
乖
乗
乘
乙
乚
乛
乜
九
乞
也
习
乡
乳
乾
亀
亅
了
亇
予
争
事
二
亍
于
亏
亐
云
互
亓
五
井
亘
亚
亜
亞
亟
亠
亡
亢
交
亥
亦
产
亨
亩
享
京
亭
亮
亯
亰
亲
亳
亶
亷
人
亻
亼
亾
仁
今
介
仌
从
仐
仑
仒
仓
仕
他
付
仝
代
令
以
任
企
伊
伏
伐
休
会
伯
但
位
何
佘
余
作
佥
使
來
侈
侌
侖
侯
侵
便
保
俞
信
修
倉
倍
候
倠
備
僉
僕
儿
兀
允
兂
元
兄
充
兆
兇
先
光
兊
克
兌
免
兑
兒
兓
兔
党
兜
兟
入
全
兩
兪
八
公
六
兮
兰
共
关
兵
其
具
典
兹
兼
冀
冂
冃
冄
内
冈
冉
冊
冋
册
再
冎
冏
冐
冒
冓
冖
冗
冘
军
农
冝
冡
冥
冫
冬
冷
几
凡
凢
凵
凶
凷
凸
凹
出
函
凾
刀
刁
刂
刃
刄
刅
分
切
刍
刑
刕
刖
列
刘
则
初
別
利
别
到
制
刺
則
削
剌
前
剡
剽
劉
力
功
加
劦
助
劫
劳
劵
勃
勇
勉
勒
動
務
勞
勤
勹
勺
勻
勾
勿
匀
匂
包
匆
匈
匊
匋
匍
匕
化
北
匚
匝
匡
匪
匱
匸
匹
区
医
匽
匿
區
十
卂
千
卄
卅
卆
升
午
卉
半
卌
华
卑
卒
卓
協
单
卖
南
卜
卝
卞
占
卡
卢
卣
卤
卦
卩
卪
卬
卯
印
危
即
却
卵
卷
卸
卻
厂
厃
厄
历
厈
厉
厌
厓
厘
厚
原
厤
厥
厨
厭
厲
厶
厷
厸
去
厼
厽
叀
参
參
叅
又
叉
及
友
双
反
叐
发
叒
叔
叕
取
受
叚
叜
叟
口
古
句
另
叩
只
召
可
台
叱
史
右
叵
号
司
叹
吂
各
吅
合
吉
吊
吋
同
名
后
吏
向
吕
君
吝
吞
否
含
启
吳
吴
吹
吾
呂
呆
呈
告
员
呙
周
命
咅
和
咎
咠
咢
咨
咸
咼
哀
品
哉
員
哥
哲
唐
商
啇
問
啚
啬
啻
善
喜
喬
單
喿
嗇
噩
嚴
囊
囗
囘
囙
囚
四
回
囟
因
囧
囬
困
囱
囷
固
国
圂
圅
國
圍
圓
土
圡
圣
圥
在
圭
地
圶
圼
坐
坒
坚
坴
垂
垔
垚
埀
埋
埶
執
基
堂
堅
堆
堇
堯
塞
墨
壘
士
壬
壯
声
壳
壴
壹
壺
壽
夂
处
夅
夆
备
夊
夋
夌
复
夏
夒
夕
外
夗
夘
多
夜
夢
大
夨
天
太
夫
夬
夭
央
失
夲
头
夷
夸
夹
夻
夾
奂
奄
奇
奈
奉
奎
奏
奐
契
奓
奔
奚
奞
奠
奢
奥
奭
女
奴
奻
好
如
妄
妙
妟
妥
妻
妾
姑
委
姜
威
娄
婁
婴
嬰
嬴
子
孑
孔
孕
孖
字
存
孚
孛
孝
孟
季
孤
学
孫
孱
學
宀
宁
宂
它
宅
宇
守
安
宋
完
宏
宓
宗
官
定
宛
宜
宝
客
宣
室
宮
宰
害
家
容
宾
宿
寄
寅
密
富
寒
察
寧
審
寫
寬
寮
寸
对
寺
寻
寽
対
寿
封
尃
射
将
將
專
尉
尊
尋
尌
對
小
少
尒
尓
尔
尖
尗
尚
尞
尢
尣
尤
尧
尨
尭
就
尸
尹
尺
尻
尼
尽
尾
尿
局
居
屈
屋
屎
屏
屑
展
屖
屚
属
屠
屡
屬
屮
屯
屰
山
屵
屾
岁
岂
岑
岡
岩
岳
岸
峯
島
崇
崑
崔
崖
崙
崩
嵬
嶲
巂
巛
川
州
巟
巠
巢
巤
工
左
巧
巨
巩
巫
差
己
已
巳
巴
巷
巸
巽
巾
巿
帀
市
布
希
帚
帛
帝
带
師
席
帶
常
干
平
年
幵
并
幷
幸
幺
幻
幼
幽
幾
广
広
庄
床
底
店
庚
府
度
庫
庭
庶
康
庸
廉
廌
廛
廣
廩
廴
延
廷
建
廾
廿
开
弁
弃
弄
弇
弋
式
弓
弔
引
弗
弘
弜
弟
弥
弦
弱
張
強
强
彊
彌
彎
彐
彑
当
彔
录
彖
彗
彡
形
彥
彦
彧
彭
彳
役
彼
往
待
律
徒
得
徙
從
復
微
徵
心
忄
必
忌
忍
志
忝
忠
忩
快
念
忽
忿
思
怠
急
怱
恆
恒
恩
恭
息
悉
患
悤
悲
悶
惠
惡
惢
愁
愈
意
愛
感
慈
慧
慮
憂
憲
應
戀
戈
戉
戊
戋
戌
戍
戎
成
我
戒
戔
或
戚
戠
戢
截
戲
戶
户
戹
戼
戾
房
所
扁
扇
手
扌
才
打
托
执
承
折
拉
拜
拿
掌
推
提
摩
撃
支
攴
攵
收
攸
改
放
政
敄
敏
敕
敖
敗
敝
敞
敢
散
敦
敫
敬
数
敷
數
斂
文
斉
斊
斗
斤
斥
斩
斬
斯
新
方
於
施
斿
旁
旋
族
无
旡
既
旣
日
旦
旧
旨
早
旬
旱
旲
时
旾
昆
昇
昌
昍
明
昏
易
昔
昗
昜
星
春
昬
是
昱
昴
昷
時
晃
晋
晏
普
景
晶
智
暑
暴
曇
曩
曰
曲
曳
更
曷
書
曹
曼
曾
替
最
朁
會
月
有
朋
服
朔
朕
朗
望
朝
木
朩
未
末
本
札
朮
术
朱
朵
朶
朿
杀
杏
村
杜
束
条
来
東
杲
杳
松
析
林
枚
果
枝
枲
枼
某
柔
查
柬
柰
柴
栗
桀
桑
桼
梁
條
梟
梨
棘
棠
棥
森
楚
業
楽
概
榮
樂
樊
欠
次
欣
欮
欲
欶
欽
款
歆
歇
歛
止
正
此
步
武
歨
歪
歮
歯
歰
歲
歴
歷
歸
歹
歺
死
殳
段
殷
殸
殹
殺
殻
殿
毋
毌
母
毎
每
毒
比
毕
毚
毛
毳
氏
氐
民
气
氣
水
氵
氶
氷
永
氺
氾
求
汝
汞
江
沃
沓
沙
沝
泉
法
波
泣
泥
泰
洛
洪
活
派
流
浦
浪
浮
淡
淮
清
渚
渠
湯
滿
演
漸
火
灬
灭
灰
灵
灷
炅
炎
炏
炗
炙
炭
為
烈
烏
烝
焉
無
焦
焱
然
煞
熊
熏
燕
營
燮
爪
爫
爭
爯
爰
爱
爲
爵
父
爻
爽
爾
爿
片
牙
牚
牛
牜
牟
牢
牧
牪
牽
犀
犬
犭
犮
狂
狄
狊
独
狺
猋
猒
猪
献
獻
玄
率
玉
王
玟
玨
珎
班
琴
瑟
瑩
瓜
瓦
甘
甚
生
産
用
甫
甬
田
由
甲
申
电
甶
男
甸
甹
町
画
甾
畀
界
畏
畐
留
畜
畟
畢
畧
畨
番
畫
異
畱
當
畺
畾
疊
疋
疌
疑
疒
疾
癶
癸
癹
登
發
白
百
皀
皃
的
皆
皇
皋
皐
皕
皮
皷
皿
盃
盆
盇
盈
益
盍
盎
监
盒
盖
盛
盡
監
盤
盧
目
直
相
盾
省
眇
眉
看
県
眔
眞
真
眷
眼
眾
着
睘
睪
睿
瞏
瞢
瞿
矍
矛
矞
矢
矣
知
矦
短
石
破
碎
磊
磨
示
礻
礼
社
祟
票
祭
禀
禁
禸
禹
禺
离
禽
禾
禿
秀
秃
秉
秋
科
秝
秦
移
稟
穀
穌
穴
究
穹
空
穿
突
窄
窒
立
竒
竜
竝
竟
章
童
竹
笑
笠
筆
等
答
箕
算
箴
節
篤
篭
米
粉
粛
粟
粤
粦
粲
糞
糸
糹
系
約
納
素
索
紫
累
細
絜
絫
絲
維
綿
縣
繇
纍
纟
缶
网
罒
罔
罕
罗
罙
罡
罢
罪
署
罷
羅
羊
羌
羍
美
羔
羕
羗
羞
羡
羣
群
義
羲
羸
羽
翁
翏
習
翕
翟
翠
翼
老
耂
考
者
耆
而
耎
耑
耒
耳
耴
耶
耷
聂
聊
聖
聚
聞
聶
聿
肀
肃
肅
肉
肖
肙
肥
肩
肯
育
肴
胃
背
胡
胥
能
脊
脩
膚
臣
臤
臧
自
臬
臭
臯
臱
至
致
臺
臼
臽
臾
臿
舀
舂
舄
與
興
舉
舌
舍
舛
舜
舞
舟
般
艮
良
色
艸
艹
艾
芒
芔
芬
芮
花
芳
芺
芻
苔
苗
苟
若
苦
英
茶
茸
荅
草
荒
荣
荼
莆
莧
莫
莽
菆
菊
菐
華
萬
落
葉
著
葛
董
葵
蒙
蒦
蒼
蓋
蓬
蓺
蔑
蔡
蕉
蕭
薄
薛
薦
薰
藍
藏
藥
蘭
虍
虎
虐
虒
虔
處
虖
虗
虘
虚
虛
虜
虞
虫
虽
蚤
蚩
蜀
蜜
蟲
蠡
血
行
衍
衛
衣
衤
表
衮
衰
袁
袞
褭
褱
襄
襾
西
覀
要
覃
見
規
覓
覧
親
覽
见
角
解
言
訁
訇
計
詹
誩
説
調
諸
讠
谷
豆
豈
豊
豐
豕
豖
豙
象
豦
豩
豪
豸
貇
貝
貞
貟
負
貢
貧
貪
貫
責
貳
貴
買
費
賁
資
賈
賏
賓
賔
賛
賞
賢
賣
質
賴
贊
贝
贡
责
贯
贲
贵
赖
赞
赤
赦
走
越
足
路
蹇
身
躬
車
軍
軎
軟
輦
车
辛
辜
辟
辥
辰
辱
農
辵
辶
边
达
过
近
连
迷
追
退
送
逆
逐
通
速
造
逢
連
逮
進
遀
遂
過
道
達
遣
適
遷
遺
邊
邑
邕
那
邦
邪
郎
部
郭
都
鄉
酉
酋
配
酓
釆
采
里
重
野
量
金
釒
銃
錢
钅
長
镸
长
門
閃
閉
開
閏
閑
閒
間
閔
閵
閻
闌
门
间
闷
阑
阜
阝
阿
降
陳
隆
隊
隋
隡
隨
隱
隶
隹
隺
隻
隼
隽
难
雀
雁
集
雈
雋
雍
雐
雔
雙
雚
雜
雝
離
難
雨
雩
雪
雲
零
雷
需
霍
霜
霝
霞
霸
靈
靑
青
非
靡
面
靣
革
韋
韦
韭
韯
韱
音
頁
頃
項
須
頗
頡
頻
顛
页
風
风
飛
飞
食
飠
養
饣
首
香
馬
馮
駦
马
骨
高
髟
鬥
鬯
鬲
鬼
魚
魯
鮮
鱼
鲁
鳥
鳳
鸟
鹵
鹿
麃
麗
麥
麦
麻
黃
黄
黍
黎
黑
黒
黨
黹
黽
黾
鼎
鼓
鼠
鼻
齊
齋
齐
齒
齿
龍
龙
龜
龟
龠
龰
龱
龴
龵
龶
龷
龸
龹
者
艹
﻿
３
？
𠀁
𠀃
𠀆
𠀉
𠀎
𠀐
𠁁
𠁣
𠂆
𠂇
𠂈
𠂉
𠂊
𠂋
𠂎
𠂒
𠂔
𠂛
𠂡
𠂢
𠂤
𠂬
𠂭
𠂹
𠃊
𠃋
𠃌
𠃍
𠃎
𠃑
𠃓
𠃔
𠃜
𠄌
𠄎
𠄠
𠄢
𠆢
𠆥
𠇍
𠈌
𠌵
𠓜
𠔉
𠔥
𠔼
𠔽
𠔿
𠕀
𠕁
𠕋
𠘧
𠘨
𠙻
𠙼
𠚏
𠚒
𠚤
𠚪
𠣏
𠤎
𠤕
𠥓
𠦄
𠦑
𠦝
𠧒
𠧗
𠧪
𠩺
𠪚
𠫓
𠫔
𠫤
𠬛
𠬝
𠬞
𠬢
𠬤
𠬶
𠮛
𠮦
𠮷
𠯑
𠱠
𠳮
𠷎
𡈼
𡉀
𡉵
𡌥
𡍮
𡏳
𡕒
𡕩
𡕰
𡖅
𡗗
𡗜
𡘆
𡘤
𡧱
𡨄
𡩧
𡬠
𡭽
𡰣
𡰥
𡰪
𡰯
𡰱
𡷈
𡸁
𡿨
𡿩
𡿪
𡿺
𢀖
𢀛
𢀩
𢁙
𢆉
𢆰
𢆶
𢇁
𢇇
𢉖
𢌬
𢌿
𢏚
𢑑
𢑚
𢖻
𢙣
𢛳
𢦏
𢦒
𢧵
𢼄
𢾕
𣁋
𣄼
𣅀
𣅽
𣍘
𣎳
𣎵
𣏋
𣏼
𣗥
𣥂
𣥖
𣦵
𣦼
𣧄
𣪊
𣪠
𣬉
𣳾
𣶒
𤇾
𤊽
𤐫
𤓰
𤔔
𤕨
𤣩
𤰇
𤰔
𤰞
𤴓
𤴔
𤽄
𥁑
𥁕
𥃦
𥃩
𥃭
𥇡
𥑟
𥘅
𥘈
𥝢
𥫗
𥱡
𦈢
𦉪
𦉬
𦉼
𦍌
𦍒
𦎧
𦐇
𦓔
𦔮
𦘒
𦙃
𦚏
𦣝
𦣞
𦣻
𦥑
𦥔
𦥯
𦨉
𦭝
𦰩
𧆞
𧈧
𧘇
𧰨
𧴪
𧴮
𧵩
𧾷
𨸏
𨾴
𩙿
𩠐
𩫏
𩵋
𪉷
𪜀
𪟽
𪠲
𪩲
𫇦
𫔭
𫜸
𫝀
𫠣
𫠩
𫢉
𫥞
𫩏
𫩠
𫪡
𫲽
𫶧
𬀷
𬐘
𬗌
𬙙
𬛸
𬜯
𬟩
𬯁
𬴘
𬺻
𬼉
𬼖
𭀰
𭁈
𭁨
𭅰
𭑈
𭕄
𭗼
𭤨
𭥫
𭻾
𮅕
𮊿
𮍌
𮍏
𮓗
𮥼
𮧮
廾
𰀁
𰀄
𰀈
𰀉
𰀕
𰀠
𰀡
𰀢
𰀪
𰁜
𰃮
𰆊
𰆘
𰋙
𰕎
𰢴
𰧭
𰯲
01--
14--
155--
83--
90--
a--
aa--
aber--
ac--
ad--
afi--
ag--
ah--
ai--
aigu--
ainehel--
aittu--
aja--
aje--
ajel--
ak--
akadee--
aktiivi--
al--
ala--
alal--
alango--
ale--
aleks--
algav--
am--
amerie--
ammu--
ammundu--
ammundutarbe--
amst--
an--
ana--
anar--
anta--
antolou--
anuks--
ar--
areil--
argen--
argenti--
arheol--
arhitek--
arma--
art--
as--
aspiran--
at--
au--
aust--
av--
avaja--
avtonou--
avtou--
avut--
avv--
avvon--
az--
aziel--
b--
ba--
barabua--
bas--
be--
beau--
bel--
ber--
bi--
bib--
biblio--
bil--
biog--
biolou--
bo--
bol--
bolgu--
boliv--
boro--
bos--
br--
brat--
braz--
brih--
brita--
britann--
bronzu--
bu--
buk--
by--
c--
ca--
car--
carelicu--
caro--
cat--
ce--
cen--
ch--
cin--
cl--
clas--
co--
colo--
com--
cu--
cym--
d--
da--
damas--
de--
di--
dia--
die--
dipl--
divi--
do--
don--
doroga--
druamu--
du--
dubro--
duu--
dy--
e--
ec--
ed--
edu--
ee--
effek--
efiop--
eg--
egein--
egy--
eh--
ehallindo--
ei--
ekonou--
ekvuatouriel--
el--
eleme--
eli--
elle--
elo--
elos--
eme--
en--
encykl--
endi--
ener--
eni--
ennevahna--
er--
eri--
ernogo--
es--
est--
et--
eth--
etnil--
eu--
ev--
eva--
ex--
ezi--
ezit--
f--
fa--
fac--
fak--
fe--
fed--
fen--
fer--
fi--
filosouf--
fir--
fla--
fo--
fos--
fr--
fran--
fransiela--
frants--
g--
ga--
gar--
ge--
geograp--
ger--
gi--
go--
golla--
gor--
gos--
gr--
gra--
gri--
gu--
gw--
gy--
h--
ha--
habo--
hallindo--
han--
happa--
har--
harja--
harv--
harvina--
hau--
havv--
he--
hei--
hen--
hene--
henge--
her--
hi--
hiekku--
hiet--
hii--
hiih--
hin--
histo--
histouriel--
hk--
ho--
holla--
hte--
hti--
hty--
hu--
hua--
huo--
huon--
hy--
hydro--
hyy--
i--
iden--
ie--
iel--
ih--
ii--
iiva--
ij--
ik--
ikaa--
ikistua--
ikkun--
iko--
il--
ilj--
illin--
ilo--
ilve--
imp--
impee--
imperfek--
in--
intersugu--
ir--
is--
isla--
isp--
isto--
istu--
it--
ita--
iv--
ivy--
iz--
izoto--
j--
ja--
jaga--
jagav--
jalla--
jalo--
jat--
je--
jepar--
jere--
jes--
jev--
jevro--
jevroup--
jo--
joga--
johto--
jor--
jou--
jouhi--
ju--
jua--
jul--
jun--
juo--
jup--
juu--
juv--
jy--
k--
ka--
kada--
kagru--
kaiva--
kal--
kala--
kalle--
kalli--
kallivo--
kamp--
kan--
kanabro--
kanda--
kanga--
kanzala--
kanzallis--
kanzukun--
kapit--
kar--
kara--
karo--
karv--
kas--
kat--
katal--
kau--
kauk--
kauneh--
kaup--
kauppu--
kavk--
kaz--
kazah--
kazva--
kazvatta--
kazvo--
ke--
keb--
kebj--
kehi--
kel--
kello--
ken--
ker--
kesk--
keski--
keskus--
ki--
kiel--
kieli--
kii--
kil--
kin--
kirgi--
kiril--
kirja--
kirju--
kirjutta--
kivi--
kl--
klassiil--
klua--
ko--
kodaz--
kodi--
kogomu--
koi--
koivi--
kok--
kol--
kommuni--
komp--
kon--
konferen--
kor--
korho--
koro--
kosketin--
kot--
kottara--
kouf--
koul--
kov--
kr--
krem--
ks--
ku--
kua--
kui--
kuja--
kukka--
kul--
kun--
kunni--
kunnivo--
kuollu--
kur--
kuren--
kus--
kuun--
kuva--
kuvi--
kuz--
ky--
kyp--
kyzy--
l--
la--
laborato--
lahden--
lahjo--
lait--
laito--
lap--
las--
lat--
lau--
le--
lege--
leh--
lei--
leiby--
leik--
lemme--
lendo--
leppy--
leuc--
lev--
lgi--
li--
lia--
libe--
lie--
lii--
linnan--
linnu--
liop--
lisit--
lit--
litera--
livvin--
ll--
lo--
loit--
loito--
lor--
lou--
louren--
lu--
luav--
luge--
lugu--
luist--
lun--
luo--
luodeh--
luomis--
luve--
luzi--
ly--
lyh--
lyk--
m--
ma--
maa--
mad--
madaga--
mag--
maga--
maido--
maj--
makko--
mal--
maldi--
man--
marga--
mari--
mas--
mat--
materj--
mauz--
mav--
me--
meliorativ--
mem--
meri--
mi--
mie--
mikr--
min--
minerualu--
mis--
mmi--
mo--
mol--
mon--
mona--
monar--
monast--
mongoul--
moni--
monu--
mor--
mora--
morfolou--
mu--
mua--
mualav--
muan--
muho--
muinas--
mur--
mustu--
muz--
muzavan--
n--
na--
nai--
nat--
nd--
ndy--
ne--
neis--
nelli--
nengo--
nept--
nevvosto--
ni--
nie--
nieg--
nige--
nii--
nirv--
nl--
nlasku--
nnouzu--
no--
nor--
nosta--
nou--
nouz--
nov--
ns--
nu--
nukk--
nuor--
nuore--
nur--
nurme--
nygy--
o--
objek--
obo--
obr--
ohja--
ohje--
ohjel--
oi--
oigev--
oja--
okl--
okru--
oksit--
ol--
ole--
om--
oma--
omen--
on--
onda--
onihman--
op--
opas--
opassu--
opasta--
opastu--
opastus--
operiet--
or--
organ--
organiz--
orke--
ortodo--
os--
ote--
ov--
oza--
ozut--
ozutel--
p--
pa--
pagin--
paik--
paikall--
paj--
pajo--
pajus--
pakis--
pal--
pala--
paleon--
pan--
papin--
par--
para--
pas--
pasto--
patr--
pav--
pe--
ped--
peh--
pei--
peit--
peitto--
pen--
per--
pereh--
perindehel--
pezo--
pi--
pie--
pielu--
pih--
pii--
piiri--
pik--
pikka--
pikku--
pil--
pir--
pit--
pl--
pla--
po--
poh--
pohja--
pohjas--
pohjaze--
pohjo--
poik--
pol--
polii--
polto--
por--
porda--
pos--
pot--
poudiu--
pp--
pra--
pre--
pri--
pro--
problie--
projek--
prote--
pruaznie--
pu--
pua--
pui--
pun--
puoli--
pur--
puu--
px--
py--
q--
qeqertar--
r--
ra--
raad--
rahva--
rahvahan--
raja--
rajoit--
rakenda--
rakendu--
ran--
rann--
ratta--
rau--
raudu--
rauma--
raz--
re--
realiz--
red--
rel--
res--
ri--
rii--
rimal--
ris--
risti--
rit--
rk--
ro--
rodu--
rohtu--
rohtuvoi--
ross--
rr--
ru--
rua--
ruada--
ruado--
ruis--
runo--
ruo--
rupp--
ruske--
ruu--
rven--
ry--
s--
sa--
saame--
sada--
sadu--
saf--
sah--
sai--
sammatu--
san--
sara--
sata--
sav--
savon--
sch--
se--
sel--
sem--
ser--
seu--
sha--
si--
sibe--
sibi--
sie--
siir--
siirdy--
sijo--
sijoit--
sikti--
sil--
silmy--
simfou--
sin--
sir--
sivu--
sk--
skandina--
skandinua--
sl--
sliu--
slov--
slova--
sm--
so--
sobimu--
soit--
soita--
sor--
sou--
sovets--
sp--
spe--
sportu--
sprin--
sroj--
st--
sta--
ste--
ster--
stra--
strass--
stu--
stuu--
su--
sua--
suavut--
sub--
sugu--
sul--
suo--
suom--
suomen--
susiedu--
suu--
suur--
suut--
suvi--
sv--
sy--
syn--
sys--
t--
ta--
tah--
tai--
taideh--
tal--
talvi--
tan--
tapah--
tapahtu--
tar--
tarka--
tarke--
tarkoit--
tav--
taval--
taza--
te--
ted--
tee--
tehniku--
teks--
tele--
tempera--
ten--
teor--
ter--
teri--
terv--
th--
thai--
ti--
tie--
tiedo--
tih--
tiij--
til--
tit--
to--
todev--
tohma--
ton--
toras--
tr--
tra--
tran--
tri--
ts--
tti--
tu--
tua--
tulo--
tun--
tundema--
tunnetu--
tuo--
tur--
turistu--
turk--
turkmenist--
tuu--
tuuru--
tv--
tverin--
ty--
tyh--
tyt--
tyy--
u--
ua--
ud--
udmur--
ufat--
ugril--
ugu--
uh--
ui--
uk--
ul--
ulgo--
umin--
un--
univer--
uno--
uo--
up--
ur--
ura--
urho--
urnu--
urua--
us--
uskomu--
uspens--
ut--
uu--
uudi--
uuksun--
uv--
uvvis--
uvvistu--
uz--
uzbekis--
v--
va--
vah--
vahne--
vai--
val--
valdivo--
valdivon--
valdu--
valke--
valpahan--
van--
var--
vara--
varba--
varka--
varo--
varu--
varzin--
vas--
vau--
ve--
vedovoimal--
vel--
velde--
veliko--
ven--
ver--
vere--
verko--
ves--
vet--
vi--
vie--
vienan--
vih--
vihanie--
vii--
viizah--
vir--
vira--
virta--
viza--
vkon--
vo--
vod--
voi--
voimattom--
vol--
voro--
vua--
vui--
vuo--
vuu--
vv--
vveden--
vy--
vys--
w--
war--
wat--
wel--
whi--
wil--
win--
xx--
y--
ydi--
yh--
yhte--
yhteis--
yhten--
yhtes--
yhtevy--
yhti--
yhtisty--
yk--
yle--
yleis--
yli--
yn--
yr--
yrua--
yruado--
ys--
yt--
z--
za--
ze--
zel--
zen--
zi--
zo--
zoroastria--
zuaha--
ан--
б--
ба--
бе--
в--
ва--
вас--
вер--
верх--
вики--
вот--
г--
гу--
д--
з--
заду--
ио--
к--
ка--
киэ--
ко--
кон--
ку--
л--
м--
ма--
музык--
н--
нацио--
но--
о--
па--
пар--
пе--
по--
р--
с--
са--
со--
совре--
т--
у--
ф--
х--
цен--
яз--
ا--
--0
--1
--2
--3
--4
--5
--6
--7
--8
--9
--a
--ac
--ah
--ahes
--ai
--ain
--aine
--aja
--al
--ale
--almi
--aloi
--amah
--ampi
--an
--ani
--aniekku
--anke
--ano
--ar
--ard
--ary
--as
--astu
--at
--ation
--au
--azen
--azet
--azii
--b
--ba
--c
--ca
--ce
--ces
--che
--cii
--ck
--co
--ct
--d
--da
--dah
--damu
--dan
--das
--de
--dekse
--del
--di
--dii
--dis
--dja
--do
--doloi
--doz
--dran
--du
--dua
--duo
--dy
--dz
--e
--ec
--ed
--een
--eh
--ehet
--ei
--eih
--eja
--ekku
--ekse
--el
--ela
--ele
--elgy
--ell
--elline
--elo
--en
--enke
--enny
--enou
--enuh
--er
--ern
--eru
--es
--et
--eta
--etah
--ettih
--ettu
--etty
--eura
--ev
--ey
--ez
--f
--g
--ga
--gas
--gat
--ge
--ges
--gi
--gin
--go
--gon
--gozero
--gu
--gua
--gy
--h
--ha
--hal
--han
--hat
--he
--hen
--hes
--hi
--ho
--i
--ia
--ial
--ic
--ica
--ie
--iedu
--ieh
--iekse
--ielazen
--ielazet
--ien
--ier
--ies
--ieto
--ih
--ii
--ija
--ika
--ikan
--il
--ila
--ile
--ilii
--ilijoin
--ilijua
--ilu
--imet
--imu
--in
--ine
--ing
--ini
--innu
--inu
--io
--ion
--ions
--ip
--is
--isto
--iston
--istu
--it
--ita
--ittu
--itut
--ium
--ius
--iz
--izekse
--izes
--izet
--izii
--izis
--j
--ja
--jan
--jannu
--jat
--je
--jen
--jev
--jevna
--jii
--jis
--jogeh
--jogi
--johtai
--joile
--join
--joven
--ju
--jua
--jyttyzet
--k
--ka
--kah
--kahat
--kaja
--kan
--ke
--kera
--kerdaine
--ki
--kia
--kielizes
--kielizii
--kies
--kku
--kniigu
--ko
--kodi
--kohtannu
--konferensii
--ks
--ksa
--kse
--kses
--ku
--kuja
--kuvia
--l
--la
--lah
--lahten
--laine
--laji
--lal
--lan
--lav
--lazen
--lazet
--lc
--le
--leh
--lehet
--len
--ley
--li
--lien
--lies
--line
--linnu
--listu
--lizet
--lizii
--lla
--llistu
--lo
--loi
--loih
--loil
--loin
--lois
--lon
--lot
--lph
--ls
--lu
--lua
--lus
--lut
--luz
--ly
--m
--ma
--mah
--man
--mar
--mas
--men
--mer
--meren
--meri
--met
--mi
--mia
--mii
--mine
--mja
--mmat
--mo
--moi
--mov
--mozero
--mpi
--mu
--mua
--mukses
--muksis
--mus
--muzei
--my
--n
--na
--nal
--nallis
--nan
--nanke
--nas
--nce
--nd
--ndah
--ndas
--ndat
--ndeh
--ndu
--ndua
--ne
--nen
--nes
--ng
--ni
--niekku
--niekky
--nien
--nienke
--nii
--nin
--nka
--nke
--nn
--nnu
--nnuh
--no
--non
--nov
--ns
--nt
--ntu
--nu
--nua
--nuh
--nus
--ny
--o
--odu
--oi
--oih
--oil
--oin
--ois
--oja
--ok
--ol
--ola
--on
--onan
--onu
--ope
--opistos
--or
--os
--ot
--otut
--ous
--ov
--ova
--ovic
--oza
--p
--pa
--pan
--pe
--pen
--pia
--pos
--ps
--pson
--pukku
--q
--qan
--r
--ra
--rah
--ral
--ran
--randu
--ras
--rat
--rd
--re
--rg
--rhan
--ri
--ries
--rju
--rn
--rna
--ro
--roi
--rov
--rs
--rt
--ru
--ruaduo
--ry
--rz
--s
--sa
--sah
--san
--sas
--sat
--se
--set
--si
--sion
--sk
--so
--son
--sov
--spa
--ss
--sson
--ssu
--st
--stajan
--stajat
--sti
--sto
--ston
--stu
--stua
--su
--sua
--syo
--t
--ta
--tah
--tajua
--tamah
--tandua
--tannu
--tari
--tas
--tau
--tavah
--tavat
--tavu
--tavus
--te
--ten
--ter
--tes
--teta
--tetah
--tettu
--tetus
--ti
--tiedy
--tih
--tiijon
--tikku
--tion
--to
--toh
--toja
--ton
--tor
--toran
--tos
--tostu
--tra
--tri
--trum
--ts
--tsi
--tsies
--tsii
--tta
--ttai
--ttajinnu
--ttih
--ttu
--ttua
--ttuu
--tty
--tu
--tua
--tui
--tuksen
--tukses
--tun
--tunuh
--tuo
--tus
--tustu
--tuu
--ty
--tyl
--tyn
--u
--ua
--uajis
--uh
--uhu
--ui
--uja
--uksis
--ul
--ula
--um
--un
--uo
--uon
--ur
--us
--usja
--uska
--uu
--uzu
--v
--va
--vah
--vaja
--vat
--vattu
--ven
--vet
--vo
--voh
--vu
--vua
--vuitis
--vunnuh
--vuo
--vuodine
--vus
--vuu
--vven
--w
--x
--y
--ya
--yi
--yn
--yo
--ys
--yt
--z
--zan
--zas
--zat
--zeh
--zen
--zero
--zes
--zet
--zien
--zies
--zih
--zii
--zil
--zile
--zis
--zmu
--zov
--zu
--а
--аара
--ан
--ая
--в
--ва
--д
--дия
--е
--ев
--ева
--ель
--и
--ии
--ия
--к
--ка
--ко
--кт
--л
--льныи
--м
--н
--нн
--нов
--нои
--ны
--о
--ов
--ова
--ого
--ои
--он
--ор
--р
--ров
--рог
--с
--са
--ст
--т
--х
--ц
--ции
--ы
--ьевич
--я
--ن
