!
"
#
##0
##1
##10
##11
##12
##13
##14
##15
##16
##17
##18
##19
##2
##20
##21
##22
##23
##24
##25
##26
##27
##28
##29
##3
##30
##31
##32
##33
##34
##35
##36
##37
##38
##39
##4
##40
##41
##42
##43
##44
##45
##46
##47
##48
##49
##5
##50
##51
##52
##53
##54
##55
##56
##57
##58
##59
##6
##60
##61
##62
##63
##64
##65
##66
##67
##68
##69
##7
##70
##71
##72
##73
##74
##75
##76
##77
##78
##79
##8
##80
##81
##82
##83
##84
##85
##86
##87
##88
##89
##9
##90
##91
##92
##93
##94
##95
##96
##97
##98
##99
$
%
&
'
(
)
+
,
-
.
/
0
00
000
01
02
03
04
05
06
07
08
09
1
10
100
1000
11
12
13
14
140
15
16
17
1778
1781
1782
1788
1790
1791
1795
18
1820
1823
1837
1844
1878
1879
1887
1889
1890
1893
1896
1898
19
1900
1907
1911
1913
1916
1917
1918
1919
1921
1922
1923
1924
1925
1927
1931
1932
1933
1939
1945
1949
1950
1951
1952
1953
1954
1955
1956
1957
1959
1960
1961
1963
1964
1965
1966
1967
1968
1969
1970
1971
1972
1973
1974
1975
1976
1977
1978
1979
1980
1981
1982
1983
1984
1985
1986
1987
1988
1989
1990
1991
1992
1993
1994
1995
1996
1997
1998
1999
2
20
200
2000
2001
2002
2003
2004
2005
2006
2007
2008
2009
2010
2011
2012
2013
2014
2015
2016
2017
2018
2019
2020
2021
2022
21
22
23
24
25
250
26
27
28
29
3
30
300
31
32
33
34
35
36
37
39
4
40
400
43
44
45
46
47
48
5
50
500
51
54
55
6
60
600
62
64
65
69
7
71
77
8
80
800
81
82
85
9
90
900
978
98
:
;
<
=
>
?
[
\
]
_
`
a
aapi
abajo
about
abu
access
actor
actress
ad
adriana
ae
aesthetics
africa
agne
aha
ahao
ahe
ahi
ahiahi
aho
ahu
ai
aia
aiea
aihue
aikia
ailani
ailauala
ailona
aina
ainaonao
air
airport
aka
akahai
akahele
akahi
akai
akamai
akau
akea
akeakamai
akelanika
aki
akike
akiki
akino
akiou
akipihopa
akoil
akomi
akonia
aku
akua
akula
akuma
al
ala
alaea
alahaka
alahele
alahi
alai
alaka
alama
alan
alanui
alap
alapia
alba
alberto
aldehuela
ale
alea
alekelia
alekina
alele
alemanaka
alepania
alex
alexander
algiris
ali
alice
alikona
alima
all
alla
almaza
almeida
almendra
almohalla
alni
alo
aloali
aloha
alopeke
alshai
alves
am
ama
amahai
amaiakai
amaka
amakila
amami
amana
amanaiaka
amapa
amau
amaua
ambedkar
ame
amelika
amelikania
american
amerika
amess
ami
amoa
amor
an
ana
anae
anai
anakola
anakuhi
anawa
and
andre
ane
anemoku
angeles
ani
aniani
anikama
anime
ann
anna
anne
ano
anos
anthony
anto
antonio
anu
ao
aos
aotearoa
apa
apekanikana
apelika
apelila
apuni
ar
aranda
archive
archives
are
argan
argentina
arriba
art
article
arts
as
asa
asia
association
at
ati
atikala
atle
au
aua
auao
auaua
auhau
aui
aukake
aukala
aukekulelia
aukekulia
auna
aupuni
aupunian
australia
australian
austronesia
awa
awaha
awai
awale
awama
awamala
awana
awanalakawana
award
awelika
awi
awina
aza
azaba
azabai
azanai
azanawa
azanu
azawa
b
ba
baby
back
baharaina
baibala
bank
bao
barack
barker
baroque
barrios
barros
bastida
bastos
bau
bay
bbc
bc
bce
be
beach
beethoven
beijing
ben
berlin
bernice
best
betancur
betty
bi
bible
bierzo
big
bihar
biography
birdo
bishop
blica
blog
bo
bolsonaro
bon
book
books
bosenia
boushaki
bowser
bpm
br
braga
brasil
brazil
britannica
brook
bros
bu
buddha
buddhism
buddhist
buke
bureba
burger
burgos
by
c
ca
caesar
caio
california
calzada
camdeborde
camino
campeonato
campo
campos
can
canis
cannabis
cantabria
cape
capital
cardoso
carl
carlos
carol
casa
castilla
castille
castrillo
castro
catherine
cawai
cazanai
ce
cea
census
center
central
cgi
cha
champions
chan
channel
charles
chauharmal
chile
china
chiquititas
christ
christian
christopher
church
ci
cia
cio
cite
cities
city
clara
clone
club
cnica
co
cohen
cole
colloredo
colomba
com
commons
company
concerto
conmebol
console
constanze
content
copa
corac
coronavirus
corpo
costa
county
cristal
cristina
cruz
cu
cui
cultura
cultural
culture
cup
cuzack
cynthia
d
da
daisy
daniel
dans
danuta
das
date
davi
david
de
del
der
des
deus
dewey
di
dia
diana
dictionary
die
disney
do
dog
dominiak
don
dona
donald
donkey
dora
doraemon
dos
dr
drama
ds
du
duarte
dublin
duck
duckan
duero
dz
e
ea
early
east
easter
eau
ed
edinburgh
edizioni
eduardo
eha
ehami
ehawau
ehiku
ei
eia
eivoky
eiwa
eka
ekahi
ekalekia
ekalesia
ekateringof
eke
ekepela
eki
ekolu
el
ela
ele
eleku
elele
elemakule
elepani
eleu
elima
elizabeth
elua
em
ema
emeiniahai
emepela
emi
empty
en
ena
encinas
encyclopedia
enehana
enekini
enelani
enemi
eng
england
english
entertainment
eo
eono
epekema
error
es
esgueva
espan
est
esteban
et
ethnologue
eu
euanelio
eulopa
europa
europe
european
ewa
ewalu
export
ez
f
fa
fabio
facebook
fair
falabella
family
farani
faria
fatal
fe
feridos
fernandes
fernando
ferraz
ferreira
festival
fi
ficha
fico
fifa
filho
film
final
first
flo
florin
foglio
folha
football
for
fordi
fr
franc
france
francisco
frank
fre
free
french
fresno
from
fu
fuente
fuentes
fur
futbolo
futuna
future
g
gabriel
games
garcia
garden
gau
gautama
general
genus
george
gerais
giovanna
global
globo
go
godal
goethe
goia
goofy
google
gordon
gov
government
granada
grand
great
green
guaren
guerra
guide
guinness
gumiel
h
ha
hae
hahai
hahau
hai
haia
haipule
haka
hakahaka
hakaka
haki
haku
hala
hale
halihali
halliwell
han
hana
hanai
hanaia
hanana
hanape
hanau
hanauma
hanauna
haneleku
haneli
hanohano
hanu
hao
haole
hapa
hapaha
hapalua
hapanui
hapawalu
hate
hathaway
hau
haukapila
hauma
haumana
haunapuma
have
haw
hawai
hawaii
hawaiian
haydn
haß
he
hea
health
hebero
hei
heiau
hekili
hekilimaila
hele
helehelena
helena
helene
help
helu
heluhelu
heluna
hema
hemaiala
hemo
hemolele
henderson
henry
henryk
heona
hepe
heroism
heu
hewa
hi
hihi
hihia
hihiu
hiki
hikina
hiku
hili
hilina
hilo
hina
hio
histo
historical
history
ho
hoa
hoaaloha
hoaha
hoahanau
hoan
hoapili
hoe
hoi
hoihoi
hoike
hoikehonui
hoje
hokkaido
hola
holo
holoholona
holomoana
holomua
home
hong
honolulu
honua
hoolea
hope
hopena
hopu
hou
house
hoverboard
how
htm
html
http
https
hu
hua
huahana
huaka
huapala
huapalapala
huerta
huey
huhu
hui
huinakolu
huki
hula
hulahula
huli
hulikoehana
huluhulu
human
huna
hunakalia
i
ia
iaka
iakama
ian
ianuali
iapana
ie
ierusalema
iesu
ignored
ihau
ihi
iho
ihola
ii
iii
ika
ikahaikana
ikahi
ikaika
ikalia
ikawa
ike
ikehu
ikela
ikena
ikepili
iki
iko
il
ilai
ilaka
ilana
ilelani
ili
ilikai
ilio
iloko
ima
imahana
imau
imdb
imi
imua
in
ina
inana
inapuni
india
indian
ine
information
inia
inidonesia
ino
inoa
inoanahi
institute
intercontinental
interlingua
interlingue
international
internationale
inui
io
ioane
iolani
ioreda
ipl
ipu
is
isabel
isbn
isera
iseraela
islam
island
islands
israel
it
italia
iti
iu
iudaio
iukaio
iulai
iulani
iune
iuwapa
iv
ivan
iwa
iwahine
iwaka
iwi
j
jack
jackson
jaloo
james
jan
january
januszewicz
japa
japan
japanese
jar
jayanti
jean
jen
jesus
jet
jo
joa
joana
johann
john
johnson
jonas
jorge
jose
joseph
joyce
jr
ju
juan
juarros
junho
juǀ
k
ka
kabbalah
kagoshima
kaha
kahakai
kahaki
kahawai
kahe
kahi
kahiki
kahiko
kahikohiko
kaho
kahu
kahua
kahului
kahuna
kai
kaia
kaiapuni
kaiaulu
kaikaina
kaikamahine
kaikua
kaikuahine
kaila
kailua
kaiu
kaka
kakahiaka
kakou
kala
kalama
kalana
kalani
kalaupapa
kalawao
kaleponi
kali
kalikiano
kalikimaka
kalo
kalolaina
kama
kamaka
kamakau
kamakawiwo
kamali
kamehameha
kamepiula
kana
kanada
kanaha
kanaka
kanakoluku
kanalima
kananga
kanaonoku
kanasa
kani
kanu
kaona
kapa
kapi
kapikala
kapu
kapua
karistiano
kart
kasakana
katolika
kau
kaua
kauhale
kauikeaouli
kauka
kaukani
kaukau
kaula
kaulahao
kaulana
kaulike
kaumaha
kaumoku
kaunakakai
kauno
kauo
kauoha
kauwela
kawena
ke
kea
keaka
keakea
keefer
keia
keiki
keikika
kekaha
kekahi
keke
kekeka
kekeke
kekemapa
kela
kele
kelekolio
kelema
kelemania
kelepona
kelikoli
keluma
kemikala
kemokalaka
kena
kenekulia
kenemaka
keo
keokia
kepakemapa
kepani
kepania
kfc
kg
ki
kia
kialama
kids
kihi
kiki
kikine
kiko
kikokikona
kikowaena
kilani
kile
kilo
kilomika
kim
kime
kina
king
kingdom
kini
kino
kinohi
kio
kipa
kiu
kiure
kiwika
klawa
klm
klubas
km
ko
koa
koe
koena
koho
koi
koke
koko
kokoke
kole
kolo
kolohe
kolona
kolu
komo
komohana
kona
konene
kong
kope
korea
kou
krav
kristiano
kristo
ku
kua
kuahene
kualapu
kuea
kuekene
kuete
kuhi
kuhikuhi
kuhina
kuikilani
kuini
kuke
kukelopa
kuki
kukui
kula
kulanakauhale
kulanui
kuleana
kulu
kuludiskana
kumu
kumuhana
kumuka
kumuku
kumumana
kumumea
kumuwaiwai
kupapa
kupua
kupuna
l
la
lae
lago
lahaina
lahalaha
lai
laikini
laila
laimeaola
laka
lakauakama
lakia
lakina
lako
lakou
lala
lalo
lama
lamaio
lamalama
lamo
lana
lanahai
lanakauhale
lanakila
land
language
languages
lani
lapa
lapita
lara
las
lau
lauea
laula
launa
laura
laurent
lawa
lawai
lawe
lawehala
lawelawe
le
lea
league
leandro
lee
lehua
lehulehu
leka
lele
lelo
lemaiki
leningrad
leo
leon
leonard
leonardo
leopaki
leopold
lepa
lepe
lepo
lepupalika
lepupalikankie
les
leti
lewa
lexus
lez
li
lia
libertadores
library
lica
lie
liholiho
lika
likaono
like
likelike
likiawaike
lili
lilo
lima
limahana
limihu
lio
lion
liona
lituania
liu
liukiuniua
live
lo
loa
loaa
loea
lohe
lohelohe
lohi
loi
loiloi
loina
loio
loire
loko
lole
loli
lolo
loma
lono
lorenzo
los
louie
lu
lua
luakini
luaku
luapele
lucas
ludwig
lui
luigi
luiz
luka
lukemapuka
luku
lula
lumi
luna
lunalilo
lydia
lyon
m
ma
macau
madrid
mafui
maga
magazine
maha
mahainaluna
mahalo
mahana
mahavira
mahele
mahi
mahina
mahope
mahuika
mai
maia
maiakaha
maika
maikai
maikama
maiki
mail
maila
maka
makahiki
makana
makani
makau
makauhale
make
makelika
makemake
makemakika
maki
makona
makua
makuahine
makuaka
makuakane
mala
malaisia
malaki
malas
male
malhac
malihini
malo
maluhia
maluna
mamao
mamo
mamua
man
mana
manawa
manaza
manga
mannheim
manu
manuahi
maoli
maopopo
mapa
maps
mar
marcelo
marcos
mare
mari
maria
mariana
marino
mario
marti
martin
martinet
mary
masedonia
master
mau
maua
maui
mauikeaouli
mauna
maupa
mawaena
mawaho
mawo
may
mayor
mcdonald
me
mea
meaille
meakanu
meakino
meana
media
mei
meia
meka
mekiko
mela
melanikia
mele
melelana
melemele
memo
mendes
meni
menos
merindad
mesia
meu
mi
mia
michael
mickey
miguel
mika
miki
mikio
mikionali
mile
miliona
milkshake
minas
minekoka
mini
minnie
minuke
miriam
misionari
missing
miyako
mkala
mm
mo
moa
moana
module
moe
mohameka
mokekao
moku
mokulele
mokuna
mokupuni
mole
molemona
moloka
molokai
mon
monachus
monokolia
monosolo
monte
moramona
morre
mos
moscow
most
motu
mouse
movie
mozamabika
mozart
mu
mua
mui
muli
muliwai
mun
mundo
munich
muscat
museum
music
musica
muslim
my
n
na
nacional
nada
naehana
naewele
naha
nahele
nahipiahi
nai
nail
naka
nako
nala
nalala
nalo
nalowale
nalu
nama
namapama
name
nana
nane
nani
napa
nas
national
nau
naunau
nava
nawa
nawanu
ndez
ne
nei
neka
nekelana
nekele
nekeleimi
nekeli
nela
nele
netflix
new
news
ng
ni
nia
nick
nickelodeon
niho
niihau
niki
nil
nintendo
nio
niue
no
noa
noho
nohoaupuni
nohona
noi
nolewai
nomcebo
non
nona
nonkilling
nos
not
noticias
nova
novela
november
nowemapa
nu
nui
nuia
nuioka
nuki
nunca
nunes
o
oa
obama
oboe
oca
oceania
october
oe
of
official
oha
ohana
ohanohano
ohe
ohi
ohiki
oho
oholo
ohui
ohuli
oi
oia
oiai
oihana
oiho
oikaika
oili
oilina
oka
okahe
okahi
okahua
okakopa
okalahoma
okalakupua
okalaleo
okani
okau
oke
okela
okele
oki
okinawa
okipa
oko
okolohua
okolokolo
okomo
oku
okua
okumu
ol
ola
olaha
olakino
olana
olani
olaule
olauna
olawe
ole
olele
olelo
oli
olilo
olimalima
oliveira
olo
olohe
ololi
olu
olunia
oma
omaha
omaika
omaka
omalu
omana
omaopopo
omau
omeheu
omniglot
omo
omohala
on
ona
onaninani
one
oni
ono
onoho
onohonoho
onui
opa
opau
ope
open
opi
opiha
opili
opio
opo
oponopono
opuka
opuna
opuni
or
org
ori
original
oro
ortolani
os
oteros
ou
ouka
oukou
oulu
ouna
ovce
over
p
pa
pacific
pae
page
paha
paho
pahu
pahuhopu
pai
paia
paio
paipai
paipala
paka
paki
pakipika
pakitana
pala
palacios
palakiahine
palakila
palama
palani
palapala
pale
palekana
palena
pali
palika
palisa
pan
pana
panako
panala
panama
pane
pani
paniolo
panthera
papa
papahana
papekema
para
parabo
parameter
paris
park
parker
party
pas
paswan
paswans
patri
pau
pauahi
pauku
paulista
paulo
paulu
pauoa
pdf
pe
peach
pearl
pedro
pedrosa
pehea
peke
pekelala
peku
pel
pela
pele
peleka
pelekane
pelekania
pelekia
pelekikena
pelekikenan
pelekiuma
pelelina
pelipekika
pen
pena
peniki
people
pepa
pepehi
pepeluali
pete
peter
petersburg
philippe
php
pi
piano
piha
pika
piki
piko
pila
pili
pilialoha
pilikia
pilikino
pilikua
pilina
piliona
pilipino
piliwi
pinepine
pinilana
pinilla
pinto
pio
pipi
pires
pitlok
place
po
poe
pohaku
poi
poke
poki
pokukala
polapola
polenekia
polenesia
polinesia
politika
poloka
polokalamu
pololei
polonesia
polu
polvorosa
polynesia
polynesian
poni
pono
pope
population
por
portal
porto
portuguese
post
potugala
power
pp
prado
prague
press
princess
project
pu
pua
puana
puebla
puente
puhi
puka
pukalani
puke
puki
pukiki
pukui
pule
pulu
puna
punahele
punahou
puni
pusillus
q
que
queen
quem
quindou
quintana
quintanilla
r
ra
rachid
radio
rafael
rama
ramiro
ramo
ramos
rapa
rapanui
rcia
re
recopa
rede
regina
reo
repu
repubalika
republic
retrieved
return
returned
review
reykjavi
rez
ri
ria
ribeiro
ribera
ricardo
richard
rico
riley
rimi
rio
rita
ritier
riu
rivera
roa
robert
rock
rodrigo
roma
rosa
royal
rsula
ru
rue
rushton
russia
ryukyu
s
sa
sabatella
sael
saint
saku
salamanca
salzburg
samuel
san
sana
sanabria
sanders
sanfourche
santa
santander
santiago
santiba
santos
sao
satsuma
sau
saudi
sauo
sawa
sawyers
sayago
sban
sbt
schiller
school
science
script
se
sea
seal
sega
seine
sem
seoul
sepa
sepania
sera
sergeant
seri
series
serikal
seripia
shakespeare
sheryl
shinkai
show
si
sia
siddhartha
sierra
sil
sila
sililanaka
silva
site
slate
smash
smashenburn
smith
so
sobre
soccerway
social
society
solomon
somalia
sonata
sonic
soria
south
souza
soviet
sports
spotify
st
star
state
states
statistics
story
strinati
studies
studio
su
sua
sudamericana
sui
suiau
suna
sung
super
supercopa
supposed
suria
switch
symphony
system
t
ta
table
tag
tahiti
tai
taiuana
taylor
te
telenovela
temple
tenerife
tennis
tera
terra
texas
th
thalia
that
the
theatre
there
this
thomas
ti
tico
tieka
tiekia
time
times
tiro
to
toad
tokelau
tokyo
tolstoi
tom
tomaszewska
tonga
top
tormes
torre
torsten
tourism
town
trenor
tropicaliente
tshisa
tu
tua
tulidia
tulidiana
tuna
tupi
tureke
tv
u
ua
uaha
uai
uaka
uakala
uakana
uakawa
uala
ualama
uali
uama
uamai
uana
uatau
uaua
uawai
uefa
uhane
uhi
uhiwa
uhonua
ui
uila
uk
uka
ukaela
ukali
ukana
ukani
uke
ukelena
uki
ukiuki
uku
ula
ule
ulu
um
uma
ume
umeke
umi
umiku
umikumama
un
una
unai
unaka
united
uniui
university
unknown
uno
unuhi
uokalani
uol
upolu
urdu
url
us
use
uwai
v
va
val
vale
valle
value
valverde
van
varela
ve
veda
vega
vera
veuster
vi
vicente
victoria
vida
video
vienna
vila
villalbilla
villanueva
villar
villatuelda
voce
von
w
wa
waci
wae
waena
waha
wahi
wahie
wahine
waho
wai
waiho
waihona
wailuku
waiwai
wakinekona
waku
wala
wale
waleluka
wall
walt
walu
wana
war
wario
was
wau
wd
we
web
website
wehe
wehewehe
wela
welemoneka
west
western
westervelt
what
who
why
wi
wia
wiekanama
wii
wiki
wikimedia
wikio
wikipedia
wikipikia
wikiwiki
wili
wiliau
wilikinia
william
winner
winter
with
wiuala
wiwo
wo
woana
wokel
wokele
wokelimia
wolfgang
words
world
worldometer
wu
www
x
xavier
xhosa
y
yaeyama
yd
years
yeltes
york
yoshi
you
young
your
youtube
yun
yves
z
za
zaha
zamora
zanawi
zani
zapata
zeigler
zu
{
|
}
~
§
ª
«
°
²
´
»
×
ǀ
ǂ
ʘ
ʲ
ʻ
ʼ
ˈ
ː
̀
́
̂
̃
̄
̆
̇
̈
̉
̋
̌
̓
̔
̛
̣
̧
̨
̩
͂
ͅ
͡
α
ε
η
ι
και
ν
ο
π
ς
ω
а
в
е
екатерингоф
и
к
м
н
о
п
петербурга
с
санкт
спб
т
ְ
ִ
ַ
ּ
ב
ה
ן
ע
ר
ا
ٔ
ٕ
ހ
ރ
އ
ޖ
ާ
ި
ެ
ް
ं
क
त
न
ब
भ
म
र
व
स
ह
ा
ि
ी
े
्
க
ர
ா
ி
்
ັ
​
‎
–
—
‘
’
“
”
†
•
′
№
™
↔
↷
③
④
⑦
⺀
⺄
⺆
⺈
⺊
⺌
⺕
⺝
⺸
⺼
⿰
⿱
⿲
⿳
⿴
⿵
⿶
⿷
⿸
⿹
⿺
⿻
、
「
」
〢
い
う
え
き
こ
し
た
と
な
に
の
は
ま
み
も
れ
ん
゙
゚
オ
ク
ケ
コ
シ
ス
チ
ッ
テ
ト
ニ
ハ
ヒ
マ
ミ
メ
ユ
ラ
リ
レ
ン
ー
㇁
㇂
㇄
㇇
㇈
㇉
㇓
㐁
㐄
㐅
㐌
㐫
㐬
㐭
㐮
㐱
㑒
㒵
㒸
㒼
㓁
㓞
㔾
㕛
㕣
㖾
㘝
㚅
㚇
㚔
㚘
㝉
㝡
㝴
㝵
㞋
㞢
㞷
㠩
㠭
㠯
㡀
㡭
㡿
㢲
㢴
㣇
㣺
㥯
㪅
㫄
㫐
㫒
㫺
㬅
㬎
㬥
㬰
㲋
㳄
㷠
㸒
㸚
㸦
㼌
㼲
㽞
㿟
䀠
䂞
䍃
䏍
䒑
䖍
䖒
䖝
䖵
䙴
䚻
䜌
䝿
䡛
䧹
䪞
一
丁
丂
七
丄
丅
丆
万
丈
三
上
下
丌
不
与
丏
丐
丑
专
且
丕
世
丘
丙
业
东
丞
丢
丣
两
严
並
丨
丩
个
丫
丬
中
丮
丰
丱
串
丵
丶
丷
丸
丹
为
主
丽
丿
乀
乂
乃
久
乆
乇
么
义
之
乌
乍
乎
乏
乐
乑
乔
乖
乗
乘
乙
乚
乛
乜
九
乞
也
习
乡
乳
乾
亀
亅
了
亇
予
争
事
二
亍
于
亏
亐
云
互
亓
五
井
亘
亚
亜
亞
亟
亠
亡
亢
交
亥
亦
产
亨
亩
享
京
亭
亮
亯
亰
亲
亳
亶
亷
人
亻
亼
亾
仁
今
介
仌
从
仐
仑
仒
仓
仕
他
付
仝
代
令
以
任
企
伊
伏
伐
休
会
伯
但
位
何
佘
余
作
佥
使
來
侈
侌
侖
侯
侵
便
保
俞
信
修
倉
倍
候
倠
備
僉
僕
儿
兀
允
兂
元
兄
充
兆
兇
先
光
兊
克
兌
免
兑
兒
兓
兔
党
兜
兟
入
全
兩
兪
八
公
六
兮
兰
共
关
兵
其
具
典
兹
兼
冀
冂
冃
冄
内
冈
冉
冊
冋
册
再
冎
冏
冐
冒
冓
冖
冗
冘
军
农
冝
冡
冥
冫
冬
冷
几
凡
凢
凵
凶
凷
凸
凹
出
函
凾
刀
刁
刂
刃
刄
刅
分
切
刍
刑
刕
刖
列
刘
则
初
別
利
别
到
制
刺
則
削
剌
前
剡
剽
劉
力
功
加
劦
助
劫
劳
劵
勃
勇
勉
勒
動
務
勞
勤
勹
勺
勻
勾
勿
匀
匂
包
匆
匈
匊
匋
匍
匕
化
北
匚
匝
匡
匪
匱
匸
匹
区
医
匽
匿
區
十
卂
千
卄
卅
卆
升
午
卉
半
卌
华
卑
卒
卓
单
卖
南
卜
卝
卞
占
卡
卢
卣
卤
卦
卩
卪
卬
卯
印
危
即
却
卵
卷
卸
卻
厂
厃
厄
历
厈
厉
厌
厓
厘
厚
原
厤
厥
厨
厭
厲
厶
厷
厸
去
厼
厽
叀
参
參
叅
又
叉
及
友
双
反
叐
发
叒
叔
叕
取
受
叚
叜
叟
口
古
句
另
叩
只
召
可
台
叱
史
右
叵
号
司
叹
吂
各
吅
合
吉
吊
吋
同
名
后
吏
向
吕
君
吝
吞
否
含
启
吳
吴
吹
吾
呂
呆
呈
告
员
呙
周
命
咅
和
咎
咠
咢
咨
咸
咼
哀
品
哉
員
哥
哲
唐
商
啇
問
啚
啬
啻
善
喜
喬
單
喿
嗇
噩
嚴
囊
囗
囘
囙
囚
四
回
囟
因
囧
囬
困
囱
囷
固
国
圂
圅
國
圍
圓
土
圡
圣
圥
在
圭
地
圶
圼
坐
坒
坚
坴
垂
垔
垚
埀
埋
埶
執
基
堂
堅
堆
堇
堯
塞
墨
壘
士
壬
壯
声
売
壳
壴
壹
壺
壽
夂
处
夅
夆
备
夊
夋
夌
复
夏
夒
夕
外
夗
夘
多
夜
夢
大
夨
天
太
夫
夬
夭
央
失
夲
头
夷
夸
夹
夻
夾
奂
奄
奇
奈
奉
奎
奏
奐
契
奓
奔
奚
奞
奠
奢
奥
奭
女
奴
奻
好
如
妄
妙
妟
妥
妻
妾
姑
委
姜
威
娄
婁
婴
嬰
嬴
子
孑
孔
孕
孖
字
存
孚
孛
孝
孟
季
孤
学
孫
孱
學
宀
宁
宂
它
宅
宇
守
安
宋
完
宏
宓
宗
官
定
宛
宜
宝
客
宣
室
宮
宰
害
家
容
宾
宿
寄
寅
密
富
寒
察
寧
審
寫
寬
寮
寸
对
寺
寻
寽
対
寿
封
尃
射
将
將
專
尉
尊
尋
尌
對
小
少
尒
尓
尔
尖
尗
尚
尞
尢
尣
尤
尧
尨
尭
就
尸
尹
尺
尻
尼
尽
尾
尿
局
居
屈
屋
屎
屏
屑
展
屖
屚
属
屠
屡
屬
屮
屯
屰
山
屵
屾
岁
岂
岑
岡
岩
岳
岸
峯
島
崇
崑
崔
崖
崙
崩
嵬
嶲
巂
巛
川
州
巟
巠
巢
巤
工
左
巧
巨
巩
巫
差
己
已
巳
巴
巷
巸
巽
巾
巿
帀
市
布
希
帚
帛
帝
带
師
席
帶
常
干
平
年
幵
并
幷
幸
幺
幻
幼
幽
幾
广
広
庄
床
底
店
庚
府
度
庫
庭
庶
康
庸
廉
廌
廛
廣
廩
廴
延
廷
建
廾
廿
开
弁
弃
弄
弇
弋
式
弓
弔
引
弗
弘
弜
弟
弥
弦
弱
張
強
强
彊
彌
彎
彐
彑
当
彔
录
彖
彗
彡
形
彥
彦
彧
彭
彳
役
彼
往
待
律
徒
得
徙
從
復
微
徵
心
忄
必
忌
忍
志
忝
忠
忩
快
念
忽
忿
思
怠
急
怱
恆
恒
恩
恭
息
悉
患
悤
悲
悶
惠
惡
惢
愁
愈
意
愛
感
慈
慧
慮
憂
憲
應
戀
戈
戉
戊
戋
戌
戍
戎
成
我
戒
戔
或
戚
戠
戢
截
戲
戶
户
戹
戼
戾
房
所
扁
扇
手
扌
才
打
托
执
承
折
拉
拜
拿
掌
推
提
摩
支
攴
攵
收
攸
改
放
政
敄
敏
敕
敖
敗
敝
敞
敢
散
敦
敫
敬
数
敷
數
斂
文
斉
斊
斗
斤
斥
斩
斬
斯
新
方
於
施
斿
旁
旋
族
无
旡
既
旣
日
旦
旧
旨
早
旬
旱
旲
时
旾
昆
昇
昌
昍
明
昏
易
昔
昗
昜
星
春
昬
是
昱
昴
昷
時
晃
晋
晏
普
景
晶
智
暑
暴
曇
曩
曰
曲
曳
更
曷
書
曹
曼
曾
替
最
朁
會
月
有
朋
服
朔
朕
朗
望
朝
木
朩
未
末
本
札
朮
术
朱
朵
朶
朿
杀
杏
杜
束
条
来
東
杲
杳
松
析
林
枚
果
枝
枲
枼
某
柔
查
柬
柰
柴
栗
桀
桃
桑
桼
梁
條
梟
梨
棘
棠
棥
森
楚
業
楽
榮
樂
樊
欠
次
欣
欮
欲
欶
欽
款
歆
歇
歛
止
正
此
步
武
歨
歪
歮
歯
歰
歲
歴
歷
歸
歹
歺
死
殳
段
殷
殸
殹
殺
殻
殿
毋
毌
母
每
毒
比
毕
毚
毛
毳
氏
氐
民
气
氣
水
氵
氶
氷
永
氺
氾
求
汝
汞
江
沃
沓
沖
沙
沝
河
泉
法
波
泣
泥
泰
洛
洪
活
派
流
浦
浪
浮
海
淡
淮
清
渚
渠
港
湯
滿
漸
火
灬
灭
灰
灵
灷
炅
炎
炏
炗
炙
炭
為
烈
烏
烝
焉
無
焦
焱
然
煞
熊
熏
燕
營
燮
爪
爫
爭
爯
爰
爱
爲
爵
父
爻
爽
爾
爿
片
牙
牚
牛
牜
牟
牢
牧
牪
牽
犀
犬
犭
犮
狂
狄
狊
独
狺
猋
猒
猪
猫
献
獻
玄
率
玉
王
玟
玨
珎
班
球
琉
琴
瑟
瑩
瓜
瓦
甘
甚
生
産
用
甫
甬
田
由
甲
申
电
甶
男
甸
甹
画
甾
畀
界
畏
畐
留
畜
畟
畢
畧
畨
番
畫
異
畱
當
畺
畾
疊
疋
疌
疑
疒
疾
癶
癸
癹
登
發
白
百
皀
皃
的
皆
皇
皋
皐
皕
皮
皷
皿
盃
盆
盇
盈
益
盍
盎
监
盒
盖
盛
盡
監
盤
盧
目
直
相
盾
省
眇
眉
看
眔
眞
真
眷
眼
眾
着
睘
睪
睿
瞏
瞢
瞿
矍
矛
矞
矢
矣
知
矦
短
石
破
碎
磊
磨
示
礻
礼
祟
票
祭
禀
禁
禸
禹
禺
离
禽
禾
禿
秀
秃
秉
秋
科
秝
秦
移
稟
穀
穌
穴
究
穹
空
穿
突
窄
窒
立
竒
竜
竝
竟
章
童
竹
笑
笠
筆
等
答
箕
算
箴
節
篤
篭
米
粉
粛
粟
粤
粦
粲
糞
糸
糹
系
約
納
素
索
紫
累
細
絜
絫
絲
維
綿
縄
縣
繇
纍
纟
缶
网
罒
罔
罕
罗
罙
罡
罢
罪
署
罷
羅
羊
羌
羍
美
羔
羕
羗
羞
羡
羣
群
義
羲
羸
羽
翁
翏
習
翕
翟
翠
翼
老
耂
考
者
耆
而
耎
耑
耒
耳
耴
耶
耷
聂
聊
聖
聚
聶
聿
肀
肃
肅
肉
肖
肙
肥
肩
肯
育
肴
胃
背
胡
胥
能
脊
脩
膚
臣
臤
臧
自
臬
臭
臯
臱
至
致
臺
臼
臽
臾
臿
舀
舂
舄
與
興
舉
舌
舍
舛
舜
舞
舟
般
艮
良
色
艸
艹
艾
芒
芔
芬
芮
花
芳
芺
芻
苔
苗
苟
若
苦
英
茶
茸
荅
草
荒
荣
荼
莆
莧
莫
莽
菆
菊
菐
華
萬
落
葉
著
葛
董
葵
蒙
蒦
蒼
蓋
蓬
蓺
蔑
蔡
蕉
蕭
薄
薛
薦
薰
藍
藏
藥
蘭
虍
虎
虐
虒
虔
處
虖
虗
虘
虚
虛
虜
虞
虫
虽
蚤
蚩
蜀
蜜
蟲
蠡
血
行
衍
衛
衣
衤
表
衮
衰
袁
袋
袞
褭
褱
襄
襾
西
覀
要
覃
見
規
覓
覧
親
覽
见
角
解
言
訁
訇
計
詹
語
誩
諸
讠
谷
豆
豈
豊
豐
豕
豖
豙
象
豦
豩
豪
豸
貇
貝
貞
貟
負
貢
貧
貪
貫
責
貳
貴
買
費
賁
資
賈
賏
賓
賔
賛
賞
賢
賣
質
賴
贊
贝
贡
责
贯
贲
贵
赖
赞
赤
赦
走
越
足
路
蹇
身
躬
車
軍
軎
軟
輦
车
辛
辜
辟
辥
辰
辱
農
辵
辶
边
达
过
近
连
迷
追
退
送
逆
逐
通
速
造
逢
連
逮
進
遀
遂
過
道
達
遣
適
遷
遺
邊
邑
邕
那
邦
邪
郎
部
郭
都
鄉
酉
酋
配
酓
釆
采
里
重
野
量
金
釒
錢
钅
長
镸
长
門
閃
閉
開
閏
閑
閒
間
閔
閵
閻
闌
门
间
闷
阑
阜
阝
阿
降
陳
隆
隊
隋
隡
隨
隱
隶
隹
隺
隻
隼
隽
难
雀
雁
集
雈
雋
雍
雐
雔
雙
雚
雜
雝
離
難
雨
雩
雪
雲
零
雷
需
霍
霜
霝
霞
霸
靈
靑
青
非
靡
面
靣
革
韋
韦
韭
韯
韱
音
頁
頃
項
須
頗
頡
頻
顛
页
風
风
飛
飞
食
飠
養
饣
首
香
馬
馮
駦
马
骨
高
髟
鬥
鬯
鬲
鬼
魚
魯
鮮
鱼
鲁
鳥
鳳
鸟
鹵
鹿
麃
麗
麥
麦
麻
黃
黄
黍
黎
黑
黒
黨
黹
黽
黾
鼎
鼓
鼠
鼻
齊
齋
齐
齒
齿
龍
龙
龜
龟
龠
龰
龱
龴
龵
龶
龷
龸
龹
者
艹
！
０
？
￼
𠀁
𠀃
𠀆
𠀉
𠀎
𠀐
𠁁
𠁣
𠂆
𠂇
𠂈
𠂉
𠂊
𠂋
𠂎
𠂒
𠂔
𠂛
𠂡
𠂢
𠂤
𠂬
𠂭
𠂹
𠃊
𠃋
𠃌
𠃍
𠃎
𠃑
𠃓
𠃔
𠃜
𠄌
𠄎
𠄠
𠄢
𠆢
𠆥
𠇍
𠈌
𠌵
𠓜
𠔉
𠔥
𠔼
𠔽
𠔿
𠕀
𠕁
𠕋
𠘧
𠘨
𠙻
𠙼
𠚏
𠚒
𠚤
𠚪
𠣏
𠤎
𠤕
𠥓
𠦄
𠦑
𠦝
𠧒
𠧗
𠧪
𠩺
𠪚
𠫓
𠫔
𠫤
𠬛
𠬝
𠬞
𠬢
𠬤
𠬶
𠮛
𠮦
𠮷
𠯑
𠱠
𠳮
𠷎
𡈼
𡉀
𡉵
𡌥
𡍮
𡏳
𡕒
𡕩
𡕰
𡖅
𡗗
𡗜
𡘆
𡘤
𡧱
𡨄
𡩧
𡬠
𡭽
𡰣
𡰥
𡰪
𡰯
𡰱
𡷈
𡸁
𡿨
𡿩
𡿪
𡿺
𢀖
𢀛
𢀩
𢁙
𢆉
𢆰
𢆶
𢇁
𢇇
𢉖
𢌬
𢌿
𢏚
𢑑
𢑚
𢖻
𢙣
𢛳
𢦏
𢦒
𢧵
𢼄
𢾕
𣁋
𣄼
𣅀
𣅽
𣍘
𣎳
𣎵
𣏋
𣏼
𣗥
𣥂
𣥖
𣦵
𣦼
𣧄
𣪊
𣪠
𣬉
𣳾
𣶒
𤇾
𤊽
𤐫
𤓰
𤔔
𤕨
𤣩
𤰇
𤰔
𤰞
𤴓
𤴔
𤽄
𥁑
𥁕
𥃦
𥃩
𥃭
𥇡
𥑟
𥘅
𥘈
𥝢
𥫗
𥱡
𦈢
𦉪
𦉬
𦉼
𦍌
𦍒
𦎧
𦐇
𦓔
𦔮
𦘒
𦙃
𦚏
𦣝
𦣞
𦣻
𦥑
𦥔
𦥯
𦨉
𦭝
𦰩
𧆞
𧈧
𧘇
𧰨
𧴪
𧴮
𧵩
𧾷
𨸏
𨾴
𩙿
𩠐
𩫏
𩵋
𪉷
𪜀
𪟽
𪠲
𪩲
𫇦
𫔭
𫜸
𫝀
𫠣
𫠩
𫢉
𫥞
𫩏
𫩠
𫪡
𫲽
𫶧
𬀷
𬐘
𬗌
𬙙
𬛸
𬜯
𬟩
𬯁
𬴘
𬺻
𬼉
𬼖
𭀰
𭁈
𭁨
𭅰
𭑈
𭕄
𭗼
𭤨
𭥫
𭻾
𮅕
𮊿
𮍌
𮍏
𮓗
𮥼
𮧮
廾
𰀁
𰀄
𰀈
𰀉
𰀕
𰀠
𰀡
𰀢
𰀪
𰁜
𰃮
𰆊
𰆘
𰋙
𰕎
𰢴
𰧭
𰯲
15--
16--
17--
18--
19--
3--
4--
5--
6--
7--
8--
9--
a--
aca--
ad--
ag--
ahu--
ai--
aka--
al--
alde--
am--
an--
ana--
ane--
ang--
ao--
ar--
as--
at--
au--
aug--
b--
ba--
bar--
be--
bi--
bo--
bour--
br--
bu--
c--
ca--
cam--
car--
cast--
ce--
cer--
chi--
cho--
ci--
co--
com--
con--
conf--
cri--
crist--
cu--
d--
da--
de--
di--
do--
dr--
du--
e--
ea--
ed--
el--
ele--
em--
emi--
en--
ent--
es--
f--
fa--
fe--
fer--
fin--
fo--
fr--
g--
gar--
go--
gra--
gu--
ha--
ham--
hame--
har--
he--
hei--
her--
hi--
ho--
hu--
hua--
hui--
i--
ia--
ie--
il--
in--
inst--
io--
is--
iu--
j--
jai--
jo--
ju--
k--
ka--
kana--
kani--
kau--
ke--
kela--
ki--
kil--
ko--
kone--
ku--
kua--
l--
la--
lar--
lau--
le--
leg--
li--
lo--
lu--
ly--
m--
ma--
maka--
mal--
man--
mate--
mau--
me--
mel--
men--
mer--
mi--
mil--
misi--
mo--
mor--
mu--
mul--
mun--
n--
na--
nc--
ne--
ng--
ni--
no--
nor--
nu--
o--
ol--
ole--
on--
or--
os--
p--
pa--
pai--
par--
pe--
pho--
pi--
pla--
plu--
po--
poli--
pols--
pra--
pre--
pri--
prin--
prof--
prog--
pu--
pub--
q--
qua--
r--
ra--
re--
refe--
reg--
ri--
ro--
rodrigu--
ru--
s--
sa--
sal--
sc--
scot--
se--
si--
so--
sor--
sour--
spe--
st--
su--
t--
ta--
te--
tele--
th--
ti--
to--
tra--
tu--
u--
ua--
un--
univer--
v--
val--
ve--
ver--
vi--
vil--
villa--
wa--
wai--
we--
wi--
wil--
wo--
x--
xi--
y--
z--
za--
zu--
μ--
τ--
п--
русс--
--0
--1
--2
--3
--38
--4
--42
--5
--56
--6
--68
--7
--70
--74
--75
--76
--8
--83
--84
--86
--9
--99
--a
--al
--ali
--ama
--an
--ary
--au
--b
--ba
--c
--ca
--cal
--car
--cat
--ce
--ch
--ck
--co
--ct
--d
--da
--de
--do
--dor
--ds
--dy
--e
--ed
--ei
--eiro
--ek
--el
--elo
--en
--er
--es
--et
--eta
--ew
--ez
--f
--g
--ga
--gal
--gas
--ge
--go
--guni
--h
--ha
--hi
--hl
--ho
--i
--ia
--ian
--ic
--in
--ina
--ir
--iros
--is
--ist
--ity
--ja
--jo
--k
--ka
--kan
--ke
--ki
--ko
--ku
--l
--la
--lani
--ldo
--le
--lem
--lha
--li
--ll
--lla
--llo
--lo
--loa
--lu
--lua
--ly
--m
--ma
--mber
--mbia
--mi
--mo
--mp
--mu
--n
--na
--nan
--nce
--nch
--ncia
--nd
--nda
--ne
--nes
--ng
--nga
--nha
--ni
--nia
--nian
--no
--ns
--nt
--nte
--nu
--ny
--o
--och
--oda
--ok
--on
--ons
--os
--p
--pa
--pe
--po
--pona
--pu
--r
--ra
--rd
--re
--res
--rg
--rga
--rk
--rl
--rn
--ro
--ros
--rry
--rs
--rt
--ry
--s
--sa
--se
--sh
--shi
--si
--so
--ssa
--ster
--t
--ta
--te
--ted
--ti
--tion
--to
--ton
--tor
--tory
--tro
--ts
--tu
--ty
--u
--ua
--ur
--us
--v
--va
--ve
--vo
--w
--wa
--way
--wie
--wn
--x
--y
--ya
--z
--za
--zo
--ς
--υ
