!
"
#
##0
##1
##10
##11
##12
##13
##14
##15
##16
##17
##18
##19
##2
##20
##21
##22
##23
##24
##25
##26
##27
##28
##29
##3
##30
##31
##32
##33
##34
##35
##36
##37
##38
##39
##4
##40
##41
##42
##43
##44
##45
##46
##47
##48
##49
##5
##50
##51
##52
##53
##54
##55
##56
##57
##58
##59
##6
##60
##61
##62
##63
##64
##65
##66
##67
##68
##69
##7
##70
##71
##72
##73
##74
##75
##76
##77
##78
##79
##8
##80
##81
##82
##83
##84
##85
##86
##87
##88
##89
##9
##90
##91
##92
##93
##94
##95
##96
##97
##98
##99
$
%
&
'
(
)
*
+
,
-
.
/
0
00
000
01
02
03
04
05
06
07
08
09
1
10
100
101
102
103
105
11
12
13
14
15
16
17
18
19
1968
1985
2
20
200
2003
2004
2005
2009
2010
2011
2012
2013
2014
2015
2016
2017
2018
2019
2021
2022
2030
21
22
23
24
25
250
26
27
28
29
3
30
300
31
32
33
34
35
36
37
38
39
4
40
41
42
43
44
45
46
47
48
490
5
50
500
51
52
54
55
56
57
58
59
6
60
65
68
7
71
72
75
77
8
80
800
81
85
87
9
90
909
:
;
<
=
>
?
@
[
]
_
a
ab
abajo
abierta
abiertas
abierto
abiertos
about
abr
abre
abril
abrir
abstencio
abuso
acade
academia
acceder
accesible
acceso
access
accio
acciones
according
acerca
acervo
acompan
acordo
acoso
acrux
act
acta
activa
activamente
active
actively
actividad
actividades
activismo
activistas
activities
activity
activo
activos
acto
actores
actos
actu
actual
actuales
actualizacio
actualizar
actualmente
actuar
acudieron
acuerda
acuerdo
acuerdos
ada
adaptacio
addition
adecuadas
adecuado
adelante
adema
adicional
adicionales
adir
administracio
administrador
administradores
administrativas
admisio
admitidos
adn
ado
adolfo
adria
adriana
adultos
afecta
aficionados
afines
after
against
agenda
ago
agosto
agreement
agregar
agua
aguascalientes
agusti
aharoni
ahi
ahora
aired
aires
al
ala
alameda
alan
alatriste
alberga
alberto
alc
alca
alcance
alcances
alcantar
alcanzar
aldea
alejandro
alema
alemania
alex
alfonso
alfredo
algo
algu
alguien
alguna
algunas
alguno
algunos
aliados
alianza
alianzas
alicia
all
alla
alli
alliance
alo
alonso
alrededor
also
alta
alternativas
alto
alumnos
alvaz
am
ama
ambas
ambiente
ambos
ame
america
american
amigos
amir
among
amos
amoxcalli
amplia
ampliar
amplio
an
ana
and
andre
andrea
android
andy
andycyca
anexo
angie
aniversario
anniversary
annual
ano
ante
antelacio
anterior
anteriores
anteriormente
antes
antiguo
antonieta
antonio
antropologi
anual
anuncio
any
anza
apago
aparece
aparecen
aparecer
apartado
apertura
apg
aplicacio
aplicarse
aporta
aportado
aportar
aporto
apoya
apoyado
apoyan
apoyar
apoyo
apoyos
app
aprende
aprender
aprendi
aprendizaje
april
aprobacio
aprobadas
aprobado
apropiacio
aproximadamente
aprueban
aquella
aquellas
aquellos
aqui
ar
arago
archives
archivo
archivos
are
area
argentina
argumento
argumentos
ariana
armenta
around
arqueolo
arquitecto
arquitectura
arriba
art
artandfeminism
arte
artes
arti
article
articles
articulo
artistas
arts
as
asaf
asamblea
ase
asegurar
asesori
asi
asia
asignatura
asimismo
asiste
asistencia
asistentes
asistido
asistieron
asistir
asociacio
asociaciones
asociadas
asociados
aspecto
aspectos
astrolabio
asturias
asuntos
at
atencio
atentamente
atte
attend
attendance
attended
attendees
au
audiencia
audio
auditorio
august
aula
aulas
aumentar
aunque
authorities
auto
automa
autonomous
autor
autores
autoridad
autoridades
autorizacio
available
avance
avances
avendan
award
ayuda
ayudando
ayudar
ayudarnos
ayude
ayuntamiento
az
azcapotzalco
azteca
azulejos
b
ba
bachiller
backstage
bado
bahi
baja
bajo
ballet
bamos
ban
banda
barrera
barrio
barro
bartov
basada
basado
basados
base
based
bases
basic
bastante
batalla
battroid
be
beauvoir
bebidas
becarias
becarios
because
becerril
been
before
began
being
bellas
beneficio
beneficios
beneme
berli
best
betancourt
between
bib
bibliogra
bibliografi
biblioteca
bibliotecarios
bibliotecas
bien
bienes
bienvenida
biodiversidad
biografi
biologi
bis
blanca
blica
blicas
blico
blicos
bloch
blog
blogs
bloquear
board
bolivia
borrado
borrador
bosque
both
boto
braille
brasil
brecha
breve
brido
briones
broadcast
broadcasting
bu
buap
buen
buena
buenas
bueno
buenos
busca
buscamos
buscan
buscando
buscar
buscara
but
by
bytes
c
ca
cabe
cabo
cackchiquel
cada
cafe
cak
calendario
calidad
california
call
calle
called
calo
camacho
cambio
cambios
camino
campaign
campan
campo
campos
campus
campusero
can
canada
canal
canales
candidatos
candidatura
cantidad
cantidades
capacidad
capacitacio
capacitar
capi
capilla
capital
cara
caracteres
caracteri
cargo
cargos
caribe
carin
carl
carlos
carlosolis
carmen
carranza
carrera
carrillo
carro
carso
carta
cartel
carteles
casa
casi
casilla
caso
casos
castan
castellano
castillo
castro
cata
catala
catalun
categori
causa
causas
cc
ccut
cdmx
cdt
ce
cecilia
celebra
celebracio
celebrada
celebrarse
celebrate
censura
center
central
centre
centro
centros
cerca
cercani
ceremony
cero
cerrar
ceuami
ch
challenge
chapter
chapters
chapultepec
charla
charlas
chiapas
chihuahua
children
chile
chilpa
chimaltenango
china
cholula
chopo
christian
ciberne
ciclo
ciencia
ciencias
cienti
ciento
cientos
cierre
ciertas
ciertos
cil
cinco
cincuenta
cine
cinema
cineteca
cita
cities
citizens
city
ciudad
ciudadana
ciudadanos
ciudades
civil
civiles
cla
clara
claro
clase
clases
class
classroom
claudia
claudio
claustro
clave
claves
click
clientes
club
clubes
cnica
cnicas
cnico
co
coahuila
cobertura
cocyp
coffee
colaboracio
colaborador
colaboradores
colaborar
colaborativa
colaborativo
coleccio
colecciones
colectiva
colectivo
colegio
colima
colina
collaboration
colmex
coloca
colocar
colombia
colonia
com
coma
comalapa
come
comentarios
comento
comenzando
comenzar
comenzara
comenzo
comercial
comerciales
comienza
comisio
comite
committee
commons
communication
communications
communities
community
como
compan
compartimos
compartir
competencia
competente
competentes
completa
completamente
completo
complicado
comportamiento
comprometidos
compromiso
computacio
computer
comu
comunes
comunicacio
comunicaciones
comunicado
comunicadores
comunicar
comunidad
comunidades
comunitario
con
conabio
conaculta
concepto
conceptos
concurso
concursos
condesa
condicio
condiciones
conducta
conectados
conexio
conference
conferencia
conferencias
confiable
confianza
confirmar
conformada
conformado
conformar
conforme
congreso
congress
conjunta
conjuntamente
conjuntas
conjunto
conjuntos
conoce
conocer
conoci
conocido
conocidos
conocimiento
conocimientos
conozcan
conseguir
consejo
conservacio
conservar
considera
consideracio
considerado
consideramos
consideran
considerar
considerara
considere
consigna
consistio
consolidar
constante
constitucio
construccio
construir
construyendo
consulta
consultado
consultar
contactar
contacto
contactos
contamos
contar
contempora
contemporary
contener
contenido
contenidos
content
contents
contest
contexto
continuacio
continuar
conto
contr
contra
contracultura
contribucio
contribuciones
contribuir
contribuyendo
control
convencio
convenciones
convenio
convento
conversations
conversatorio
convertirse
convivencia
convoca
convocatoria
cooperacio
coordinacio
coordinado
coordinador
coordinadora
coordinadores
coordinar
coordinara
coordinator
copia
copyleft
copyright
corchetes
cord
core
correcta
corregir
correo
correogsk
correos
corresponde
correspondencia
correspondiente
correspondientes
corro
corto
cosa
cosas
cosi
costo
costos
council
countries
country
coyoaca
cpmx
cre
crea
creacio
creaciones
creada
creado
creadores
creados
creando
crear
creara
crearon
create
created
creative
creatividad
crecer
crecimiento
creo
cri
criterio
criterios
cruz
cter
ctica
cticas
ctico
cticos
ctor
cua
cuaed
cual
cuales
cualquier
cualquiera
cuando
cuanto
cuarto
cuatro
cuenta
cuentan
cuentas
cula
culas
culo
culos
cultura
cultural
culturales
culturas
culture
cumbre
cumple
cumplimiento
cumplir
curadores
curaduri
curso
cursos
cuya
cynthia
d
da
dada
dado
dan
dando
daniel
daniela
danza
dar
dara
darle
darse
dashboard
data
date
datos
david
day
days
de
debe
debemos
deben
debera
deberi
debes
debido
december
decide
decided
decidido
decidieron
decidimos
decidio
decir
decisio
decisiones
dedicada
dedicado
defensa
defensor
defensoras
define
definicio
definiciones
definido
definir
definira
definitiva
dejar
del
delito
delitos
dema
democracia
dentro
denuncia
departamento
departamentos
department
der
derecha
derecho
derechos
deres
derivado
desarrollado
desarrollar
desarrollo
descripcio
desde
desea
deseable
deseamos
desean
deseas
desee
deseen
desempen
despue
destaca
destacadas
destacados
destacar
detalles
determinada
determinar
detra
development
df
dgtic
di
dia
dic
dica
dicas
diccionario
dice
dicha
dichas
dicho
dichos
diciembre
dico
dicos
dictamen
did
diego
dieron
diez
diferencia
diferente
diferentes
different
difi
difundir
difusio
digital
digitales
digitalizacio
digo
digos
dijo
dina
dinero
dio
diputados
direccio
directa
directamente
directiva
directivo
directivos
director
directora
directores
diri
dirigida
dirigido
dirigio
disc
disciplina
disciplinaria
disciplinario
discriminacio
discurso
discusio
discusiones
discutir
disen
disponibilidad
disponible
disponibles
disposicio
disposiciones
dispuestos
distancia
distinta
distintas
distintos
distribucio
distribution
distrito
dito
diversas
diversidad
diversity
diversos
divisio
divulgacio
do
docente
docentes
documentacio
documental
documentar
documento
documentos
domicilio
domingo
dominio
dominios
don
donacio
donaciones
donantes
donar
donde
dormir
dos
dr
drini
duda
dudas
due
duen
dulo
duracio
durante
during
e
each
earthquake
ebius
ecatepec
eco
econo
economi
ecuador
eda
edad
edgar
edicio
ediciones
edificio
edit
edita
editado
editados
editamos
editando
editar
editaron
editathon
editato
editaton
editatona
editatones
edited
editing
edition
edito
editor
editoras
editores
editorial
editors
eduardo
educacio
education
educational
educativa
educativas
educativo
educativos
eduwiki
efectiva
efectivo
efectos
eileen
eje
ejecucio
ejecutiva
ejecutivo
ejemplo
ejemplos
ejercicio
el
elaboracio
elaborado
elaborar
ele
eleccio
elecciones
electo
electores
electro
electronic
elegir
elemento
elementos
eliminar
elisa
ella
ellas
ello
ellos
elpezflaco
embajadores
embargo
emiliano
emisio
empezar
empleados
emprendedor
empresa
empresarial
empresas
en
encargada
encargado
encargan
encargara
enciclope
enciclopedia
encontrar
encuentra
encuentran
encuentren
encuentro
encuentros
end
ended
ene
energi
enero
enfocado
engineering
english
enlace
enlaces
enlazar
enorme
enredadera
enrique
enriquecer
ensayo
ensen
entender
enteratech
entero
entidad
entidades
entiende
entonces
entorno
entornos
entrada
entradas
entrar
entre
entrega
entrevista
entrevistas
entusiastas
envi
enviar
enviara
enz
episode
equidad
equipo
equipos
er
era
eran
eres
ernesto
ero
eros
error
errores
es
esa
esas
esca
escenario
escenarios
escolar
escribe
escribir
escritas
escrito
escritor
escritos
escritura
escuela
escuelas
ese
esencial
esenciales
esfuerzo
esfuerzos
eso
esos
espacio
espacios
espan
especi
especial
especiales
especialista
especialistas
especializado
especialmente
especie
especies
espera
espero
esq
esquivel
esta
estaba
estaban
establece
establecer
establecidas
establecido
establecimiento
estacio
estadi
estado
estados
estamos
estar
estara
estari
estas
estatua
estatuto
estatutos
este
esti
estilo
esto
estos
estoy
estrada
estrate
estrategia
estrategias
estructura
estudiante
estudiantes
estudiantil
estudiantiles
estudio
estudios
estuvieron
estuvo
etapa
etc
etce
evaluacio
evaluation
evelazquez
even
event
evento
eventos
events
every
evitar
excelente
exclusivamente
exilio
exista
existe
existen
existencia
existentes
existiera
existir
expandir
expansio
expediente
experience
experiences
experiencia
experiencias
experimentar
expertos
explicacio
explicar
explico
explotacio
expo
exposicio
exposiciones
expresa
expresio
extensio
externo
externos
extra
extranjero
ez
f
fa
facebook
facilidad
facilitadores
facilitar
facultad
facultades
faculty
fair
falta
faltas
familia
familiares
far
favor
fayerwayer
fb
fe
febrero
february
fecha
fechas
federal
female
feminism
feminista
feno
feria
fernanda
fernando
fes
fest
festival
few
ffyl
fi
fiables
fica
ficas
ficha
fico
ficos
fiesta
file
filiberto
film
filosofi
fin
final
finalidad
finalizar
finalmente
fines
firefox
firefoxos
firma
firmantes
firme
first
fitoschido
flash
flisol
flor
flores
fm
follow
following
fomentar
fondeo
fondo
fondos
fonoteca
for
foreign
forma
formacio
formal
formalmente
formar
formas
formato
formatos
foro
forotv
fortalecer
forum
foto
fotofesti
fotofestin
fotogra
fotografi
fotografiar
fotos
foundation
four
fractal
france
francesa
francisco
frankfurt
free
freedom
frente
frica
from
frontier
fue
fuente
fuentes
fuera
fueron
fuerte
fuerza
full
funcio
funciona
funcionamiento
funciones
fundacio
fundador
fundamentales
fundar
futuras
future
futuro
futuros
g
gabriela
galeri
galicia
galindo
gambi
gana
ganadoras
ganadores
ganar
gap
garantizar
garci
gardner
garfield
gasto
gastos
gathering
gave
ge
gelauff
gena
genas
gender
genera
generacio
generado
generadores
general
generales
generando
generar
genes
gente
geogra
geografi
gestio
get
gica
gicas
gico
gicos
gilberto
gina
ginas
give
given
glam
global
gmail
go
gobierno
gobiernos
goldin
gonza
google
gora
got
government
grabacio
gracias
grado
grafos
gran
grande
grandes
grant
grants
grave
graves
great
group
groups
grupo
grupos
guadalajara
guadalupe
guatemala
guayaquil
gubernamentales
guerra
guerrero
guez
gui
guinness
gusta
gustari
gustavo
gusto
gutie
h
ha
haber
habi
habilidades
habla
hablado
hablante
hablantes
hablar
hablo
habra
habri
hace
hacemos
hacen
hacer
hacerlo
hacerse
hacia
hacie
haciendo
hacker
had
hagan
haifa
hall
han
hara
has
hashtag
hasta
have
hay
haya
hayan
he
head
hecha
hechas
hecho
hechos
held
help
helter
hemos
her
here
hermanos
hermene
herna
herramienta
herramientas
hi
hice
hicieron
hicimos
hidalgo
high
hilton
his
hispana
hispanohablante
histo
historia
historias
historical
history
hizo
hola
hombres
hong
hope
hora
horario
horarios
horas
horasdearte
horizontal
hospital
hotel
hour
hours
how
hoy
hrs
http
https
huac
huajuapan
huatl
hub
hubiera
hubieran
hubo
hugo
huiquipedia
human
humanidad
humanidades
humanista
humanities
humano
humanos
i
ib
ibero
iberoamericana
iberoconf
iberocoop
idea
ideal
ideas
identidad
identificacio
identificar
idioma
idiomas
iems
igeregi
igual
igualmente
ii
ima
imagen
images
impacto
impartida
impartido
impartieron
impartio
impetu
implementacio
implementar
implica
importancia
important
importante
importantes
importar
imposibilidad
impresiones
imprimir
impulsar
imputado
in
inaceptable
inah
inali
inauguracio
included
including
incluir
inclusio
incluso
incluye
incluyen
incluyendo
incoacio
incorporacio
incorporar
increi
incrementar
incubacio
incubadora
incubator
incumplimiento
independencia
independiente
index
indi
india
indigenous
indio
indispensable
individual
industrial
infantil
influencia
info
informa
informacio
informador
informar
information
informe
informes
infraccio
infractor
infraestructura
ingenieri
ingle
ingreso
inicial
inicialmente
iniciamos
iniciar
iniciara
iniciativa
iniciativas
inicio
initiative
inmediatamente
innovacio
innovation
inquietudes
instalacio
instalaciones
instancia
institucio
institucional
institucionales
instituciones
institute
instituto
instructor
instrumento
integrado
integral
integran
integrante
integrantes
integrar
integrarse
intelectual
intelectuales
intencio
interaccio
intercambio
intercultural
intere
interesada
interesadas
interesado
interesados
interesante
intereses
interest
interested
interfaces
interfaz
interior
interna
internacional
internacionales
international
internet
interno
internos
intervencio
interview
into
introduccio
introduction
introductoria
investigacio
investigaciones
investigador
investigadores
invitacio
invitada
invitados
invitamos
invitar
invited
involucrados
involucrar
ip
ipn
ir
irene
is
iso
isopixel
israel
issues
it
italia
italiano
itesm
its
iv
iva
ivan
ivanmartinez
izquierda
iztapalapa
j
jalisco
jama
james
january
jaontiveros
javier
jefe
jimbo
jime
jimmy
jo
joanes
johnny
join
jointly
jorge
jornada
jose
jpg
jua
juan
juana
juanton
judicial
judiciales
jueves
jueveswiki
jul
julio
july
jun
june
junio
junta
juntas
junto
jurado
juri
jurisdiccio
just
justicia
justificacio
juventud
k
kalach
kaqchikel
karl
keynote
kind
kingwergs
know
knowledge
known
kong
kurimanzutto
l
la
lab
labor
laboral
laboratorio
labores
lado
landa
language
languages
largo
las
last
latin
latina
latinoame
latinoamericana
latinoamericano
laura
law
lazalde
le
leal
learn
learning
lector
lectores
lectura
lee
leer
legal
legales
legi
legislacio
legisladores
lei
leigh
lengua
lenguaje
lenguas
leo
les
less
letra
letras
letters
leves
ley
leyes
lez
li
liberacio
libertad
libertades
library
libre
libres
libro
libros
lic
licencia
licencias
licenciatura
licenses
liderazgo
life
like
lila
limitaciones
linares
lineamientos
lingu
link
links
lisis
list
lista
listado
listas
listo
literatura
literature
live
llamada
llamado
llega
llegar
llego
llenar
lleva
llevado
llevar
llevara
llevo
lo
lobby
local
locales
localizacio
lodewijk
logi
logo
logos
lograr
logre
logros
lolmay
londres
longino
lorente
lorenzo
loreto
los
lot
loves
ltima
ltimas
ltimo
ltimos
ltiples
lucha
luchadoras
luci
lucro
luego
lugar
lugares
luis
luisalvaz
luisina
lunch
lunes
luz
lvarez
m
ma
made
madero
maestra
maestri
maestro
magazine
magister
magistral
main
make
mal
male
man
manejo
manera
manifestar
manifestaron
mano
mantener
mantenimiento
mantiene
manual
manuel
many
mar
mara
marathon
marato
maratones
marca
marcas
marcela
march
marco
marcos
mari
mariachi
mario
marro
marrovi
martes
marti
marvin
marx
marzo
mas
masewalkopa
masiva
mata
matema
materia
material
materiales
materna
mathematicae
may
maya
mayas
mayo
mayor
mayores
mayori
mbito
mbitos
me
mecanismos
medalla
media
mediante
mediawiki
medida
medidas
medio
medios
meet
meeting
meetings
mejor
mejora
mejorar
mejoraron
mejores
member
members
memoria
memory
men
mencio
menciona
mencionados
menciono
menor
menos
mensaje
mensajes
mensual
mensuales
merced
mero
meros
mes
mesa
meses
message
meta
metas
metodologi
metrics
metro
metropolitan
metropolitana
metros
mexican
mexicana
mexicanas
mexicano
mexicanos
mexico
meyer
mez
mi
mica
micas
michael
mico
micos
mie
miembro
miembros
mientras
miguel
mil
milenio
miles
millones
minuta
minutas
minutos
miranda
mis
misio
misma
mismas
mismo
mismos
mite
mites
mo
modelo
modelos
moderno
modificaciones
modo
moebius
mojica
momento
moncayo
monitors
montan
monterrey
month
monthly
months
monumental
monumento
monumentos
monuments
mora
more
morejo
morelos
morning
most
mostrar
mostro
motivada
motivo
motivos
movement
movimiento
mozilla
mpetu
mputo
mtro
mu
muac
mucha
muchas
mucho
muchos
muci
mujer
mujeres
mulo
multiforo
multimedia
mun
mundial
mundo
municipal
museo
museos
museum
museums
musical
muy
mx
my
n
na
nacio
nacional
nacionales
nada
nadie
nah
nahuatl
nanotecnologi
national
nativos
naturaleza
naturalista
nccep
nchez
ndar
ndares
nde
ndez
ndice
ndose
ne
nea
neas
necesarias
necesario
necesarios
necesidad
necesidades
necesita
necesitamos
need
nelson
neo
neos
ner
nero
net
netha
network
networks
neutral
neutralidad
new
news
next
nez
nfasis
ngel
ni
nica
nicamente
nicas
nico
nicos
nimo
nin
ningu
ninguna
nivel
no
noche
nochebuena
noe
nohemi
nohemisupra
nom
noma
nombre
nombres
norma
normas
norte
north
nos
nosotros
not
nota
notas
noticias
notificacio
notimex
nov
november
noviembre
now
ntar
ntas
nto
nu
nuestra
nuestras
nuestro
nuestros
nueva
nuevas
nuevo
nuevos
number
numbers
nunam
nunca
o
oaxaca
ob
objetivo
objetivos
objeto
objetos
obligacio
obligaciones
obra
obras
obsta
obstante
obtener
obtuvo
ocasio
occidente
oct
octavio
october
octubre
ocupan
of
offer
offered
official
oficial
oficialmente
oficinas
ol
ola
oles
olvida
olvides
omar
on
once
one
online
only
opcio
opciones
open
opinio
opiniones
oportunidad
oportunidades
oposicio
or
orange
orden
ordenar
order
org
organiza
organizacio
organizacional
organizaciones
organizada
organizado
organizador
organizadores
organizar
organization
organized
organizers
organizing
oriente
origen
original
originarias
originarios
oropeza
orquesta
orquestas
ortiz
ortografi
os
osvaldo
other
otra
otras
otro
otros
our
out
outreach
over
own
oz
p
pa
pablo
padaguan
padro
page
pago
pai
palabra
palabras
palacio
panama
panel
pantalla
papel
par
para
parece
parecer
parque
part
parte
partes
participa
participacio
participado
participan
participante
participantes
participants
participar
participaron
participate
participated
participation
participen
participo
particular
particulares
particularmente
partir
party
pasadas
pasado
pasados
pasagu
pasar
pase
paso
pasos
patal
patricio
patrimonial
patrimoniales
patrimonio
patrocinadores
patrocinio
patzici
patzu
paul
paz
pdf
pe
pedago
pedir
pedro
peli
pen
penal
pendiente
pendientes
pensamiento
pensando
pensar
people
pepe
pequen
perder
perfecta
perfil
perio
periodismo
periodistas
periodo
perjuicio
permanente
permitan
permite
permitio
pero
persona
personajes
personal
personales
personas
persons
perspectiva
pertenece
perteneciente
pesar
pesos
pestan
peter
peticio
pez
philosophy
photo
photograph
photographs
photos
photowalk
php
picos
picture
pida
pide
piedra
pienso
pilares
piloto
pipa
pla
place
plan
planeacio
planes
planilla
planillas
planning
plantea
planteado
plantel
planteo
plantilla
plantillas
plataforma
playera
playeras
plaza
plazo
plazos
pleno
plural
pm
png
poblacio
poblanas
poblanos
poca
pocas
poco
pocos
podcast
podemos
poder
podi
podra
podri
poli
policy
polite
political
ponencia
poner
popular
por
porque
portada
portal
portales
posee
posgrado
posibilidad
posibilidades
posible
posibles
positiva
possible
post
posteos
posteriormente
postura
potencial
potential
potosi
pouzin
pra
practicar
practices
pregunta
preguntas
premiacio
premio
premios
prensa
preocupacio
preparacio
preparatoria
preparatorio
prescripcio
presence
presencia
presencial
presenciales
presenta
presentacio
presentada
presentar
presentaron
presentation
presente
presentes
presento
preservar
president
presidente
press
presunciones
presuntamente
presupuesto
pretende
previa
previamente
previas
previo
previos
previous
previously
previsto
priani
primer
primera
primeras
primero
primeros
principal
principales
principalmente
principiantes
principio
principios
prioritarios
privacidad
privada
privadas
pro
probable
probablemente
problem
problema
problemas
procedera
procedimiento
procedimientos
proceso
procesos
process
produccio
produced
profe
profesional
profesionales
profesor
profesora
profesores
professor
program
programa
programacio
programados
programas
project
projects
promedio
promocio
promover
pronto
propia
propiedad
propio
propios
propo
propone
proponer
proporcionar
proposal
propuesta
propuestas
propuesto
propuestos
proteccio
proteger
protesta
protoplasmakid
proveedores
provisional
proyeccio
proyecto
proyectos
prueba
pruebas
pu
public
publicacio
publicaciones
publicada
publicado
publicar
publicidad
pude
puebla
pueblo
pueblos
pueda
puedan
puede
pueden
puedes
puedo
pues
puesto
puestos
punto
puntos
puntual
q
que
quechua
queda
quedo
quere
queremos
questions
qui
quie
quien
quienes
quieran
quiere
quieren
quieres
quiero
quijano
quinto
quiza
r
ra
radio
radiofo
radiohead
rafael
rage
rally
rami
ramos
razo
razones
rcoles
rcvelascoe
rdida
re
rea
reactor
read
ready
real
reales
realidad
realiza
realizacio
realizada
realizadas
realizado
realizados
realizamos
realizan
realizando
realizar
realizara
realizaremos
realizarlo
realizaron
realizarse
realizo
realmente
reas
received
recent
rechazo
recibe
recibido
recibir
reciente
recientemente
recientes
recinto
reclutar
recomienda
reconocimiento
recopilar
record
recordatorio
recorrido
recorridos
recuerda
recurso
recursos
recusacio
red
redaccio
redactado
redactar
redactor
redes
reduccio
reduction
reembolso
ref
referencia
referencias
referente
reflexio
reflexiones
reforma
reformas
regio
regional
registrado
registrados
registraron
registrarse
registro
reglamento
reglas
regulaciones
reino
relacio
relacionada
relacionadas
relacionado
relacionados
relaciones
related
relativo
relevancia
relevantes
religio
report
reporte
reportes
repositorio
representa
representacio
representan
representante
representantes
representatives
represented
represento
repu
republicano
request
requiere
requisitos
research
resen
residencia
resistencia
resolucio
resoluciones
resolver
respaldar
respectivos
respecto
respetar
responder
responsabilidad
responsabilidades
responsable
responsables
respuesta
respuestas
restantes
resto
resulta
resultado
resultados
results
retiro
reto
retos
reu
reunimos
reunio
reuniones
reunir
review
revisar
revisara
revisio
revista
revolucionaria
reyes
reynosa
rez
rgano
ri
ria
rica
ricardo
ricas
richard
rico
ricos
rida
riesgo
riesgos
rights
ring
riqueza
rita
rivera
rmino
rminos
roberto
rock
rodin
rodolfo
rodri
rol
roles
roma
ronda
rosario
rosas
route
rrafo
rrez
rueda
rufino
ruiz
rumbo
run
ruta
s
sa
sabe
sabemos
saben
saber
sabi
sala
salazar
salgado
salo
saloca
salud
saludos
salvador
salvo
same
san
sancio
sanciones
sandoval
sansi
santa
santiago
sar
satisfaccio
saturday
school
science
sciences
scouting
se
sea
sean
sec
seccio
second
secretari
secretaria
secretariat
secretario
sector
secundaria
sede
sedes
see
sefidari
segu
seguido
seguimiento
seguir
seguire
segunda
segundo
seguridad
seis
sema
semana
semanas
semestre
seminario
seminary
sen
senado
sencilla
sensibilizacio
sentido
sep
september
septiembre
ser
sera
seres
sergio
sergiozaragoza
seri
seria
serie
servicio
servicios
servidores
servir
ses
sesio
sesiones
session
sessions
several
sexto
sexual
share
shared
sharing
she
should
show
si
sian
sica
sicas
sico
sicos
sido
siempre
siendo
sierra
siete
siga
siglas
siglo
siglos
significa
sigue
siguiente
siguientes
silva
silvia
similar
simone
simple
simplemente
simples
simulta
sin
since
sinergia
sinfo
sino
sintaxis
siquiera
sirve
sismo
sistema
sistemas
sitio
sitios
sito
situacio
skelter
slim
so
sobre
social
sociales
socialtic
socias
sociedad
society
socio
socios
software
sola
solamente
soli
solicitar
solicitud
solo
some
son
sonora
sopa
sopitas
sor
soria
soumaya
soy
space
spain
spanish
special
specific
squeda
st
sta
staff
stand
star
start
state
stica
sticas
stickers
stico
sticos
still
storify
story
strategy
student
students
studies
su
subcomandante
subida
subidas
subir
subirlos
subject
subjects
such
sue
suen
suficiente
suficientes
sugiere
suma
sumar
summer
superior
superiores
support
supported
sur
surge
sus
suspensio
swift
t
ta
takashi
take
tal
talavera
talento
tales
talismani
talismanin
talk
talks
taller
talleres
tamaliike
taman
tamaulipas
tamayo
tambie
tan
tantas
tanto
tarde
tarea
tareas
taro
te
teacher
teachers
team
teatro
technical
technological
technology
tecnolo
tecnologi
telecomunicaciones
telefo
televisa
televisio
telmex
telmexhub
tema
temas
templo
ten
tendencias
tendra
tendri
tenemos
tener
tenga
tengan
tengo
teni
tenido
teniendo
tenth
teo
teori
tepalcayos
tepalcayotl
tequila
tera
tercer
tercera
tercero
terceros
terminar
termino
territorio
tesorero
testimonial
testimonio
testimonios
texto
textos
th
than
that
the
their
thelmadatter
them
there
these
they
third
this
thon
those
three
through
ti
tic
tica
ticamente
ticas
tico
ticos
tiempo
tiempos
tiene
tienen
tienes
tijuana
til
tiles
time
tipo
tipos
tips
title
titular
titulares
tlatelolco
tlaxcala
tlcan
to
toco
toda
todas
todo
todos
tolerance
tolerancia
toma
tomando
tomar
tomo
took
top
topic
topics
torno
torre
torres
total
totales
totalidad
totalmente
totimehuacan
totonaco
tour
tours
towards
tra
trabaja
trabajado
trabajan
trabajando
trabajar
trabajo
trabajos
traduccio
traducciones
traducir
traductores
training
tramitacio
tranmisio
transferencia
translation
transmisio
transmission
transparencia
transporte
tras
trata
tratados
tratan
tratar
trato
trave
tres
tretikov
tricas
troya
trustees
truth
ts
tu
tulo
tulos
turismo
turno
tus
tutorial
tuvieron
tuvimos
tuvo
tv
tw
tweets
twitter
two
type
u
uam
ubicacio
ubicada
ubicado
ubuntu
udlap
un
una
unam
unarte
unas
under
unidad
unidas
unido
unidos
unio
universal
universidad
universidades
universitaria
universitario
university
universo
uno
unos
until
up
uruguay
us
usa
usamos
usando
usar
use
used
user
users
uso
usted
ustedes
usuaria
usuario
usuarios
utc
utica
utilidad
utilizacio
utilizada
utilizar
utilizaremos
v
va
vallejo
valley
valor
valores
values
vamos
van
variante
variantes
varias
varios
vasco
vasconcelos
ve
veces
vega
velasco
vemos
venes
venezuela
ventajas
venue
ver
vera
veracidad
veracruz
veracruzana
verdad
verdadera
veri
verificabilidad
verificaciones
vero
versio
versiones
very
vez
vi
viaje
vicente
vicepresidente
victor
vida
video
videos
viene
viernes
view
vigilancia
vil
vila
viles
village
villegas
vinculacio
violacio
violaciones
violencia
virtual
visible
visio
visit
visita
visitantes
visitar
visitas
vista
visto
visual
vivir
vivo
vobo
vocal
voceri
voices
voluntad
voluntari
voluntaria
voluntariado
voluntarias
voluntario
voluntarios
volunteer
volunteers
votacio
votaciones
votar
voto
votos
voz
vuelve
w
wales
walter
want
was
washington
watch
way
we
web
week
well
were
wewetlahtulle
what
where
which
who
wikcionario
wiki
wikiarte
wikibooks
wikiccionario
wikidata
wikiddhh
wikidiccionario
wikieducacio
wikilibros
wikilovesmonuments
wikimani
wikimania
wikimedia
wikimediamexico
wikimedians
wikimedistas
wikimujeres
wikinoticias
wikipedia
wikipedians
wikipedias
wikipedista
wikipedistas
wikipedists
wikipetya
wikiproyecto
wikipuebla
wikis
wikisource
wikisprintp
wikiunam
wikiune
wikiviajes
wikiwars
wikiwomen
wikiwomencamp
wiktionary
will
with
within
without
wlm
wm
wmar
wmf
wmmx
women
work
worked
working
workshop
workshops
world
wotancito
would
wp
writing
written
www
x
xalapa
xico
xima
ximas
ximo
ximos
xito
y
ya
year
years
yo
york
you
your
youth
youtube
yua
yucata
z
zacatecas
zapata
zapopan
zar
zeiss
zo
zona
zonas
zquez
zubiri
|
}
~

¡
ª
«
°
·
º
»
¿
̀
́
̃
̄
̈
α
​
‎
–
—
‘
’
“
”
•
…
‪
‬
↔
↷
≥
③
④
⑦
⺀
⺄
⺆
⺈
⺊
⺌
⺕
⺝
⺸
⺼
⿰
⿱
⿲
⿳
⿴
⿵
⿶
⿷
⿸
⿹
⿺
⿻
〢
コ
ユ
㇁
㇂
㇄
㇇
㇈
㇉
㇓
㐁
㐄
㐅
㐌
㐫
㐬
㐭
㐮
㐱
㑒
㒵
㒸
㒼
㓁
㓞
㔾
㕛
㕣
㖾
㘝
㚅
㚇
㚔
㚘
㝉
㝡
㝴
㝵
㞋
㞢
㞷
㠩
㠭
㠯
㡀
㡭
㡿
㢲
㢴
㣇
㣺
㥯
㪅
㫄
㫐
㫒
㫺
㬅
㬎
㬥
㬰
㲋
㳄
㷠
㸒
㸚
㸦
㼌
㼲
㽞
㿟
䀠
䂞
䍃
䏍
䒑
䖍
䖒
䖝
䖵
䙴
䚻
䜌
䝿
䡛
䧹
䪞
一
丁
丂
七
丄
丅
丆
万
丈
三
上
下
丌
不
与
丏
丐
丑
专
且
丕
世
丘
丙
业
东
丞
丢
丣
两
严
並
丨
丩
个
丫
丬
中
丮
丰
丱
串
丵
丶
丷
丸
丹
为
主
丽
丿
乀
乂
乃
久
乆
乇
么
义
之
乌
乍
乎
乏
乐
乑
乔
乖
乗
乘
乙
乚
乛
乜
九
乞
也
习
乡
乳
乾
亀
亅
了
亇
予
争
事
二
亍
于
亏
亐
云
互
亓
五
井
亘
亚
亜
亞
亟
亠
亡
亢
交
亥
亦
产
亨
亩
享
京
亭
亮
亯
亰
亲
亳
亶
亷
人
亻
亼
亾
仁
今
介
仌
从
仐
仑
仒
仓
仕
他
付
仝
代
令
以
任
企
伊
伏
伐
休
会
伯
但
位
何
佘
余
作
佥
使
來
侈
侌
侖
侯
侵
便
保
俞
信
修
倉
倍
候
倠
備
僉
僕
儿
兀
允
兂
元
兄
充
兆
兇
先
光
兊
克
兌
免
兑
兒
兓
兔
党
兜
兟
入
全
兩
兪
八
公
六
兮
兰
共
关
兵
其
具
典
兹
兼
冀
冂
冃
冄
内
冈
冉
冊
冋
册
再
冎
冏
冐
冒
冓
冖
冗
冘
军
农
冝
冡
冥
冫
冬
冷
几
凡
凢
凵
凶
凷
凸
凹
出
函
凾
刀
刁
刂
刃
刄
刅
分
切
刍
刑
刕
刖
列
刘
则
初
別
利
别
到
制
刺
則
削
剌
前
剡
剽
劉
力
功
加
劦
助
劫
劳
劵
勃
勇
勉
勒
動
務
勞
勤
勹
勺
勻
勾
勿
匀
匂
包
匆
匈
匊
匋
匍
匕
化
北
匚
匝
匡
匪
匱
匸
匹
区
医
匽
匿
區
十
卂
千
卄
卅
卆
升
午
卉
半
卌
华
卑
卒
卓
单
卖
南
卜
卝
卞
占
卡
卢
卣
卤
卦
卩
卪
卬
卯
印
危
即
却
卵
卷
卸
卻
厂
厃
厄
历
厈
厉
厌
厓
厘
厚
原
厤
厥
厨
厭
厲
厶
厷
厸
去
厼
厽
叀
参
參
叅
又
叉
及
友
双
反
叐
发
叒
叔
叕
取
受
叚
叜
叟
口
古
句
另
叩
只
召
可
台
叱
史
右
叵
号
司
叹
吂
各
吅
合
吉
吊
吋
同
名
后
吏
向
吕
君
吝
吞
否
含
启
吳
吴
吹
吾
呂
呆
呈
告
员
呙
周
命
咅
和
咎
咠
咢
咨
咸
咼
哀
品
哉
員
哥
哲
唐
商
啇
問
啚
啬
啻
善
喜
喬
單
喿
嗇
噩
嚴
囊
囗
囘
囙
囚
四
回
囟
因
囧
囬
困
囱
囷
固
国
圂
圅
國
圍
圓
土
圡
圣
圥
在
圭
地
圶
圼
坐
坒
坚
坴
垂
垔
垚
埀
埋
埶
執
基
堂
堅
堆
堇
堯
塞
墨
壘
士
壬
壯
声
壳
壴
壹
壺
壽
夂
处
夅
夆
备
夊
夋
夌
复
夏
夒
夕
外
夗
夘
多
夜
夢
大
夨
天
太
夫
夬
夭
央
失
夲
头
夷
夸
夹
夻
夾
奂
奄
奇
奈
奉
奎
奏
奐
契
奓
奔
奚
奞
奠
奢
奥
奭
女
奴
奻
好
如
妄
妙
妟
妥
妻
妾
姑
委
姜
威
娄
婁
婴
嬰
嬴
子
孑
孔
孕
孖
字
存
孚
孛
孝
孟
季
孤
学
孫
孱
學
宀
宁
宂
它
宅
宇
守
安
宋
完
宏
宓
宗
官
定
宛
宜
宝
客
宣
室
宮
宰
害
家
容
宾
宿
寄
寅
密
富
寒
察
寧
審
寫
寬
寮
寸
对
寺
寻
寽
対
寿
封
尃
射
将
將
專
尉
尊
尋
尌
對
小
少
尒
尓
尔
尖
尗
尚
尞
尢
尣
尤
尧
尨
尭
就
尸
尹
尺
尻
尼
尽
尾
尿
局
居
屈
屋
屎
屏
屑
展
屖
屚
属
屠
屡
屬
屮
屯
屰
山
屵
屾
岁
岂
岑
岡
岩
岳
岸
峯
島
崇
崑
崔
崖
崙
崩
嵬
嶲
巂
巛
川
州
巟
巠
巢
巤
工
左
巧
巨
巩
巫
差
己
已
巳
巴
巷
巸
巽
巾
巿
帀
市
布
希
帚
帛
帝
带
師
席
帶
常
干
平
年
幵
并
幷
幸
幺
幻
幼
幽
幾
广
広
庄
床
底
店
庚
府
度
庫
庭
庶
康
庸
廉
廌
廛
廣
廩
廴
延
廷
建
廾
廿
开
弁
弃
弄
弇
弋
式
弓
弔
引
弗
弘
弜
弟
弥
弦
弱
張
強
强
彊
彌
彎
彐
彑
当
彔
录
彖
彗
彡
形
彥
彦
彧
彭
彳
役
彼
往
待
律
徒
得
徙
從
復
微
徵
心
忄
必
忌
忍
志
忝
忠
忩
快
念
忽
忿
思
怠
急
怱
恆
恒
恩
恭
息
悉
患
悤
悲
悶
惠
惡
惢
愁
愈
意
愛
感
慈
慧
慮
憂
憲
應
戀
戈
戉
戊
戋
戌
戍
戎
成
我
戒
戔
或
戚
戠
戢
截
戲
戶
户
戹
戼
戾
房
所
扁
扇
手
扌
才
打
托
执
承
折
拉
拜
拿
掌
推
提
摩
支
攴
攵
收
攸
改
放
政
敄
敏
敕
敖
敗
敝
敞
敢
散
敦
敫
敬
数
敷
數
斂
文
斉
斊
斗
斤
斥
斩
斬
斯
新
方
於
施
斿
旁
旋
族
无
旡
既
旣
日
旦
旧
旨
早
旬
旱
旲
时
旾
昆
昇
昌
昍
明
昏
易
昔
昗
昜
星
春
昬
是
昱
昴
昷
時
晃
晋
晏
普
景
晶
智
暑
暴
曇
曩
曰
曲
曳
更
曷
書
曹
曼
曾
替
最
朁
會
月
有
朋
服
朔
朕
朗
望
朝
木
朩
未
末
本
札
朮
术
朱
朵
朶
朿
杀
杏
杜
束
条
来
東
杲
杳
松
析
林
枚
果
枝
枲
枼
某
柔
查
柬
柰
柴
栗
桀
桑
桼
梁
條
梟
梨
棘
棠
棥
森
楚
業
楽
榮
樂
樊
欠
次
欣
欮
欲
欶
欽
款
歆
歇
歛
止
正
此
步
武
歨
歪
歮
歯
歰
歲
歴
歷
歸
歹
歺
死
殳
段
殷
殸
殹
殺
殻
殿
毋
毌
母
每
毒
比
毕
毚
毛
毳
氏
氐
民
气
氣
水
氵
氶
氷
永
氺
氾
求
汝
汞
江
沃
沓
沙
沝
泉
法
波
泣
泥
泰
洛
洪
活
派
流
浦
浪
浮
淡
淮
清
渚
渠
湯
滿
漸
火
灬
灭
灰
灵
灷
炅
炎
炏
炗
炙
炭
為
烈
烏
烝
焉
無
焦
焱
然
煞
熊
熏
燕
營
燮
爪
爫
爭
爯
爰
爱
爲
爵
父
爻
爽
爾
爿
片
牙
牚
牛
牜
牟
牢
牧
牪
牽
犀
犬
犭
犮
狂
狄
狊
独
狺
猋
猒
猪
献
獻
玄
率
玉
王
玟
玨
珎
班
琴
瑟
瑩
瓜
瓦
甘
甚
生
産
用
甫
甬
田
由
甲
申
电
甶
男
甸
甹
画
甾
畀
界
畏
畐
留
畜
畟
畢
畧
畨
番
畫
異
畱
當
畺
畾
疊
疋
疌
疑
疒
疾
癶
癸
癹
登
發
白
百
皀
皃
的
皆
皇
皋
皐
皕
皮
皷
皿
盃
盆
盇
盈
益
盍
盎
监
盒
盖
盛
盡
監
盤
盧
目
直
相
盾
省
眇
眉
看
眔
眞
真
眷
眼
眾
着
睘
睪
睿
瞏
瞢
瞿
矍
矛
矞
矢
矣
知
矦
短
石
破
碎
磊
磨
示
礻
礼
祟
票
祭
禀
禁
禸
禹
禺
离
禽
禾
禿
秀
秃
秉
秋
科
秝
秦
移
稟
穀
穌
穴
究
穹
空
穿
突
窄
窒
立
竒
竜
竝
竟
章
童
竹
笑
笠
筆
等
答
箕
算
箴
節
篤
篭
米
粉
粛
粟
粤
粦
粲
糞
糸
糹
系
約
納
素
索
紫
累
細
絜
絫
絲
維
綿
縣
繇
纍
纟
缶
网
罒
罔
罕
罗
罙
罡
罢
罪
署
罷
羅
羊
羌
羍
美
羔
羕
羗
羞
羡
羣
群
義
羲
羸
羽
翁
翏
習
翕
翟
翠
翼
老
耂
考
者
耆
而
耎
耑
耒
耳
耴
耶
耷
聂
聊
聖
聚
聶
聿
肀
肃
肅
肉
肖
肙
肥
肩
肯
育
肴
胃
背
胡
胥
能
脊
脩
膚
臣
臤
臧
自
臬
臭
臯
臱
至
致
臺
臼
臽
臾
臿
舀
舂
舄
與
興
舉
舌
舍
舛
舜
舞
舟
般
艮
良
色
艸
艹
艾
芒
芔
芬
芮
花
芳
芺
芻
苔
苗
苟
若
苦
英
茶
茸
荅
草
荒
荣
荼
莆
莧
莫
莽
菆
菊
菐
華
萬
落
葉
著
葛
董
葵
蒙
蒦
蒼
蓋
蓬
蓺
蔑
蔡
蕉
蕭
薄
薛
薦
薰
藍
藏
藥
蘭
虍
虎
虐
虒
虔
處
虖
虗
虘
虚
虛
虜
虞
虫
虽
蚤
蚩
蜀
蜜
蟲
蠡
血
行
衍
衛
衣
衤
表
衮
衰
袁
袞
褭
褱
襄
襾
西
覀
要
覃
見
規
覓
覧
親
覽
见
角
解
言
訁
訇
計
詹
誩
諸
讠
谷
豆
豈
豊
豐
豕
豖
豙
象
豦
豩
豪
豸
貇
貝
貞
貟
負
貢
貧
貪
貫
責
貳
貴
買
費
賁
資
賈
賏
賓
賔
賛
賞
賢
賣
質
賴
贊
贝
贡
责
贯
贲
贵
赖
赞
赤
赦
走
越
足
路
蹇
身
躬
車
軍
軎
軟
輦
车
辛
辜
辟
辥
辰
辱
農
辵
辶
边
达
过
近
连
迷
追
退
送
逆
逐
通
速
造
逢
連
逮
進
遀
遂
過
道
達
遣
適
遷
遺
邊
邑
邕
那
邦
邪
郎
部
郭
都
鄉
酉
酋
配
酓
釆
采
里
重
野
量
金
釒
錢
钅
長
镸
长
門
閃
閉
開
閏
閑
閒
間
閔
閵
閻
闌
门
间
闷
阑
阜
阝
阿
降
陳
隆
隊
隋
隡
隨
隱
隶
隹
隺
隻
隼
隽
难
雀
雁
集
雈
雋
雍
雐
雔
雙
雚
雜
雝
離
難
雨
雩
雪
雲
零
雷
需
霍
霜
霝
霞
霸
靈
靑
青
非
靡
面
靣
革
韋
韦
韭
韯
韱
音
頁
頃
項
須
頗
頡
頻
顛
页
風
风
飛
飞
食
飠
養
饣
首
香
馬
馮
駦
马
骨
高
髟
鬥
鬯
鬲
鬼
魚
魯
鮮
鱼
鲁
鳥
鳳
鸟
鹵
鹿
麃
麗
麥
麦
麻
黃
黄
黍
黎
黑
黒
黨
黹
黽
黾
鼎
鼓
鼠
鼻
齊
齋
齐
齒
齿
龍
龙
龜
龟
龠
龰
龱
龴
龵
龶
龷
龸
龹
者
艹
？
𠀁
𠀃
𠀆
𠀉
𠀎
𠀐
𠁁
𠁣
𠂆
𠂇
𠂈
𠂉
𠂊
𠂋
𠂎
𠂒
𠂔
𠂛
𠂡
𠂢
𠂤
𠂬
𠂭
𠂹
𠃊
𠃋
𠃌
𠃍
𠃎
𠃑
𠃓
𠃔
𠃜
𠄌
𠄎
𠄠
𠄢
𠆢
𠆥
𠇍
𠈌
𠌵
𠓜
𠔉
𠔥
𠔼
𠔽
𠔿
𠕀
𠕁
𠕋
𠘧
𠘨
𠙻
𠙼
𠚏
𠚒
𠚤
𠚪
𠣏
𠤎
𠤕
𠥓
𠦄
𠦑
𠦝
𠧒
𠧗
𠧪
𠩺
𠪚
𠫓
𠫔
𠫤
𠬛
𠬝
𠬞
𠬢
𠬤
𠬶
𠮛
𠮦
𠮷
𠯑
𠱠
𠳮
𠷎
𡈼
𡉀
𡉵
𡌥
𡍮
𡏳
𡕒
𡕩
𡕰
𡖅
𡗗
𡗜
𡘆
𡘤
𡧱
𡨄
𡩧
𡬠
𡭽
𡰣
𡰥
𡰪
𡰯
𡰱
𡷈
𡸁
𡿨
𡿩
𡿪
𡿺
𢀖
𢀛
𢀩
𢁙
𢆉
𢆰
𢆶
𢇁
𢇇
𢉖
𢌬
𢌿
𢏚
𢑑
𢑚
𢖻
𢙣
𢛳
𢦏
𢦒
𢧵
𢼄
𢾕
𣁋
𣄼
𣅀
𣅽
𣍘
𣎳
𣎵
𣏋
𣏼
𣗥
𣥂
𣥖
𣦵
𣦼
𣧄
𣪊
𣪠
𣬉
𣳾
𣶒
𤇾
𤊽
𤐫
𤓰
𤔔
𤕨
𤣩
𤰇
𤰔
𤰞
𤴓
𤴔
𤽄
𥁑
𥁕
𥃦
𥃩
𥃭
𥇡
𥑟
𥘅
𥘈
𥝢
𥫗
𥱡
𦈢
𦉪
𦉬
𦉼
𦍌
𦍒
𦎧
𦐇
𦓔
𦔮
𦘒
𦙃
𦚏
𦣝
𦣞
𦣻
𦥑
𦥔
𦥯
𦨉
𦭝
𦰩
𧆞
𧈧
𧘇
𧰨
𧴪
𧴮
𧵩
𧾷
𨸏
𨾴
𩙿
𩠐
𩫏
𩵋
𪉷
𪜀
𪟽
𪠲
𪩲
𫇦
𫔭
𫜸
𫝀
𫠣
𫠩
𫢉
𫥞
𫩏
𫩠
𫪡
𫲽
𫶧
𬀷
𬐘
𬗌
𬙙
𬛸
𬜯
𬟩
𬯁
𬴘
𬺻
𬼉
𬼖
𭀰
𭁈
𭁨
𭅰
𭑈
𭕄
𭗼
𭤨
𭥫
𭻾
𮅕
𮊿
𮍌
𮍏
𮓗
𮥼
𮧮
廾
𰀁
𰀄
𰀈
𰀉
𰀕
𰀠
𰀡
𰀢
𰀪
𰁜
𰃮
𰆊
𰆘
𰋙
𰕎
𰢴
𰧭
𰯲
19--
6--
7--
8--
9--
a--
ab--
acco--
acep--
aconteci--
ad--
admini--
administ--
afili--
ag--
agr--
al--
ali--
alter--
ami--
an--
anali--
antrop--
ap--
ar--
argu--
as--
ase--
asig--
astr--
at--
au--
auto--
avanz--
aven--
avi--
aw--
ay--
b--
ba--
ban--
be--
ber--
bi--
bo--
bole--
bor--
bri--
bus--
c--
ca--
cab--
cambi--
can--
carg--
ce--
cen--
cer--
cere--
ch--
che--
chi--
ci--
cib--
cier--
cir--
circu--
clasi--
cli--
co--
col--
collec--
com--
comple--
compre--
con--
conf--
consi--
coor--
cor--
corri--
cour--
ct--
cu--
cuen--
cui--
cum--
cumpli--
cuo--
cur--
cura--
curi--
d--
da--
de--
debi--
deci--
defe--
dej--
denomin--
des--
desa--
desar--
deter--
deve--
di--
dia--
difun--
dis--
do--
docu--
du--
e--
eco--
ef--
el--
em--
en--
encu--
enfo--
enfren--
entendi--
es--
esp--
est--
euro--
ex--
exi--
explo--
exten--
f--
fa--
fan--
fe--
fer--
fi--
financi--
fo--
fra--
fran--
frecu--
fri--
fun--
funda--
g--
ge--
go--
gra--
grow--
guar--
gui--
ha--
hack--
heb--
ho--
hol--
hu--
hus--
i--
ib--
ide--
ilus--
im--
imp--
imple--
impre--
impul--
in--
inaugu--
inclu--
inclui--
incre--
influ--
ing--
ingre--
inst--
integ--
inter--
introdu--
inve--
invi--
involuc--
is--
it--
j--
ja--
je--
ju--
jue--
k--
ke--
l--
la--
lag--
le--
lea--
lg--
li--
libra--
lla--
lle--
lo--
lu--
m--
ma--
mani--
me--
merca--
mi--
mo--
mon--
mu--
mues--
mul--
multi--
n--
na--
ndo--
ne--
neg--
ni--
no--
noti--
nu--
o--
ob--
objec--
ocur--
ocurri--
of--
ol--
op--
or--
ori--
os--
otorg--
p--
pa--
pag--
pano--
pe--
per--
permi--
pi--
pier--
pin--
pla--
plani--
po--
pob--
pobla--
pos--
pre--
pri--
prin--
pro--
proce--
pu--
publi--
pudi--
q--
r--
ra--
ran--
ras--
rde--
re--
rec--
recup--
recur--
reg--
regis--
regu--
rela--
rele--
ren--
rep--
requi--
res--
resguar--
resi--
respec--
revi--
ri--
ro--
rob--
ru--
s--
sa--
se--
sen--
sex--
sh--
si--
sien--
sig--
so--
soli--
sour--
sp--
speak--
spon--
st--
su--
sub--
subi--
suge--
suje--
super--
sus--
t--
ta--
tab--
tax--
te--
ter--
tex--
th--
tho--
ti--
to--
tor--
totomi--
tra--
trans--
tri--
tro--
tu--
u--
ur--
us--
utiliz--
va--
ve--
veri--
vi--
vin--
vini--
vo--
w--
wi--
wiki--
win--
x--
y--
ya--
z--
--0
--1
--2
--3
--4
--5
--6
--7
--8
--9
--97
--a
--ac
--acio
--acy
--ad
--ado
--ah
--aje
--ak
--al
--an
--ando
--ar
--ario
--as
--ation
--b
--bar
--be
--bi
--ble
--bles
--blo
--bo
--c
--ca
--ccio
--ce
--ces
--ch
--che
--ci
--cia
--ciacio
--cio
--ciones
--ck
--co
--cta
--cto
--cy
--d
--da
--dad
--das
--de
--ded
--des
--di
--ding
--do
--dor
--dora
--dos
--dra
--dro
--ducir
--e
--ed
--eja
--el
--emos
--encia
--endo
--ente
--eo
--er
--ers
--es
--et
--eta
--f
--fi
--fo
--ft
--ful
--g
--ga
--ge
--ged
--gencia
--ght
--gi
--gio
--go
--gra
--gu
--gua
--h
--i
--ia
--ic
--ice
--icio
--id
--ida
--idad
--ido
--iendo
--iento
--il
--imos
--in
--ina
--ing
--io
--ion
--ions
--ismo
--istas
--ity
--ive
--ivo
--izacio
--izado
--izados
--izar
--izo
--j
--ja
--jo
--k
--ks
--l
--la
--lada
--lar
--las
--lco
--ldo
--le
--les
--lf
--lla
--lo
--ls
--lto
--ly
--m
--ma
--me
--mente
--miento
--mir
--mo
--mos
--mx
--n
--na
--nado
--nal
--nar
--nce
--ncia
--ncias
--ncio
--nd
--ndo
--ne
--nes
--nez
--ng
--no
--nos
--ns
--nt
--nta
--nte
--ntes
--nto
--o
--ogi
--on
--ones
--or
--os
--p
--pa
--pcio
--pe
--po
--ptar
--q
--r
--ra
--ral
--rar
--rd
--re
--res
--rga
--ri
--ria
--rido
--rio
--rios
--rmo
--ro
--ron
--rs
--rse
--ruccio
--s
--sa
--se
--sh
--ship
--sio
--sion
--site
--so
--ss
--st
--ste
--sti
--t
--ta
--tacio
--tado
--tamente
--tar
--tas
--tation
--tativa
--te
--ted
--ter
--tes
--thing
--ti
--tida
--tido
--ting
--tion
--tiva
--tivas
--tive
--tivo
--tivos
--to
--tos
--ts
--tty
--tud
--tv
--ty
--u
--up
--va
--vacio
--var
--ve
--vi
--vo
--w
--x
--y
--z
--za
