!
"
#
##0
##1
##10
##11
##12
##13
##14
##15
##16
##17
##18
##19
##2
##20
##21
##22
##23
##24
##25
##26
##27
##28
##29
##3
##30
##31
##32
##33
##34
##35
##36
##37
##38
##39
##4
##40
##41
##42
##43
##44
##45
##46
##47
##48
##49
##5
##50
##51
##52
##53
##54
##55
##56
##57
##58
##59
##6
##60
##61
##62
##63
##64
##65
##66
##67
##68
##69
##7
##70
##71
##72
##73
##74
##75
##76
##77
##78
##79
##8
##80
##81
##82
##83
##84
##85
##86
##87
##88
##89
##9
##90
##91
##92
##93
##94
##95
##96
##97
##98
##99
%
&
'
(
)
*
+
,
-
.
/
0
00
000
00001
0001
001
0062700553
009
01
010
015
0195082095
02
022
02242
0240
0277
0282
0291
03
032
04
0405
0415234794
0415234795
05
056
0578
06
0684805332
0691152071
07
0729
073
0745
08
080
0816071365
0822
09
1
10
100
1000
1007
101
1016
1017
102
1029
103
104
105
106
107
1071
108
1086
109
1093
11
110
111
1111
112
1126
113
114
1144
115
1154
116
117
118
1181
1186
119
11916
12
120
1200
1211
1229
123
1236
1237
124
1241
1242
1247
125
1253
126
126442
1265
127
128
129
1290
13
130
1300
131
132
133
134
135
1359
136
137
1377
138
139
14
140
141
142
1424
143
1436
144
145
1450
146
147
1472
148
149
1492
1493
1499
15
150
1500
1503
151
152
1527
153
1535
1536
1538
154
1540
1542
155
1552
1553
1558
156
1560
1564
1565
1567
1571
1578
158
159
1599
16
160
1605
161
162
1620
1625
163
1638
1639616
1646
165
1653
1659
166
1660
1664
1666
1669
167
1670
1671
1676
168
1682
169
1692
17
170
1700
171
1719
172
1720
1728
173
175
1750
176
1760
1762
1764
177
1772
1775
1776
1777
1779
178
1780
1781
1783
1784
1785
1786
1789
179
1790
1792
1797
18
180
1800
1804
1805
1808
1809
181
1810
1811
1813
1815
1816
1817
1818
1821
1822
1823
1825
1826
1827
1828
1829
183
1830
1832
1833
1834
1835
1837
1838
1839
184
1840
1841
1842
1843
1844
1845
1846
1847
1848
1849
185
1850
1851
1852
1853
1854
1855
1856
1857
1858
1859
186
1860
1861
1862
1863
1864
1865
1866
1867
1868
1869
187
1870
1871
1872
1873
1874
1875
1876
1877
1878
1879
188
1880
1881
1882
1883
1884
1885
1886
1887
1888
1889
189
1890
1891
1892
1893
1894
1895
1896
1897
1898
1899
19
190
1900
1901
1902
1903
19032007
1904
1905
1906
1907
1908
1909
191
1910
1911
1912
1913
1914
1915
1916
1917
1918
1919
192
1920
1921
1922
1923
1924
1925
1926
1927
1928
1929
193
1930
1931
1932
1933
1934
1935
1936
1937
1938
1939
194
1940
1941
1942
1943
1944
1945
1946
1947
1948
1949
195
1950
1951
1952
1953
1954
1955
1956
1957
1958
1959
196
1960
1961
1962
1963
1964
1965
1966
1967
1968
1969
197
1970
1971
1972
1973
1974
1975
1976
1977
1978
1979
198
1980
1981
1982
1983
1984
1985
1986
1987
1988
1989
1990
1991
1992
1993
1994
1995
1996
1997
1998
1999
2
20
200
2000
2001
2002
2003
2004
2005
2006
2007
2008
2009
201
2010
2011
2012
2013
2014
2015
2016
2017
2018
2019
2020
202021
2021
2022
2027
203
204
205
206
2061
207
208
21
210
211
212
213
214
215
2152
216
218
219
22
220
221
222
223
224
225
226
228
229
23
230
2307
231
232
233
234
235
236
237
238
239
24
240
241
242
243
244
245
246
247
248
249
25
250
251
252
253
2531
254
255
256
257
2570
259
26
260
261
262
264
265
266
267
268
269
27
270
271
272
273
274
275
276
277
278
279
28
281
282
283
284
287
289
29
291
292
293
294
295
296
297
298
299
3
30
300
3000
3008
301
302
303
304
305
306
307
309
31
310
311
312
313
314
315
316
317
319
32
320
322
323
3234
324
327
33
330
333
334
335
3354
336
34
340
341
342
343
344
346
347
348
35
350
351
352
353
356
359
36
360
361
362
368
369
37
375
377
378
379
38
380
381
382
384
385
387
388
39
390
392
393
394
395
398
399
4
40
400
4000
4008
401
4020
4039
405
4051
406
409
41
411
4129
413
415
416
4160
42
420
421
428
429
43
430
432
435
436
43602
4381
44
443
445
446
448
449
4496
45
450
453
46
464
465
46953
47
470
471
472
473
477
48
481
482
484
486
49
491
492
494
495
5
50
500
5000
501
506
509
51
510
514
515
516
517
518
52
520
521
525
527
528
529
53
532
534
535
5379
538
5387
539
5395
54
540
547
55
550
553
56
5647
56902
57
574
57607
579
57958
58
58648
587
59
593
6
60
600
609
61
61069
616
618
62
622
62919
63
631
639
64
645
647
65
650
654
655
659
66
664
67
670
671
672
674
67877
679
68
684
688
69
690
691
692
697
7
70
700
7006
7007
71
7103
7141
715
72
73
732
733
738
7385
74
74104
7425
7432
747
7493
75
7546
7567
7595
76
7614
77
78
784
7864
79
795
8
80
800
80019
8006001
8014
8017
8018
8020
8032
8047
807
81
8108
8122
8133
813797980
8160
8165
8166
82
8223
8225
83
84
84162
8444
8459
84816
85
850712
8517
85371
85743
86
867
86950
87
88
89
89476
9
90
905093
91
91940
92
923
93
933
94
944
95
951
952
954
958
96
961
963
9649082
966
97
976
978
9780195337709
9780786418145
9783110251586
9783447057875
979
98
981
9876
99
9949
9955
9984
9985
9986
:
;
<
=
>
?
@
[
]
^
_
a
aa
aasta
ababa
abbreviata
abbreviatum
abc
aberta
abierta
about
abraham
abs
absolute
abuja
ac
acacallis
academia
academic
academy
acampe
acanthephippium
account
accra
acer
acianthera
acianthus
acineta
ackerman
ackermania
aconitoides
acostaea
acriopsis
acrolophia
across
act
acta
action
actualites
aculeata
acuminatum
ad
ada
adam
adamkus
adams
adansonia
adatok
addis
addison
adenoncos
adm
admgor
admin
administration
administrative
admrzn
admsurgut
adolf
adria
adrian
advanced
aerangis
aeranthes
aerides
af
affairs
africa
africaines
african
africana
afrika
afrique
after
against
aganisia
age
agency
aglossorrhyncha
agreement
agric
agriculture
agrostophyllum
ahmet
air
ais
al
alain
alaline
alan
alaska
alata
alba
albert
alberto
albrecht
albumas
alex
alexander
alfred
algeria
algirdas
ali
all
allan
allen
almanac
along
alp
alphabet
alta
altensteinia
alticola
always
alytaus
alytus
am
amabilis
america
american
americana
americas
ames
amesiella
amitostigma
amsterdam
an
ana
anacamptis
analysis
anathallis
anatolica
anatomy
anceps
ancient
ancipitia
ancistrorhynchus
and
anders
anderson
andmed
andmete
andre
andrew
androcorys
andy
angela
angeles
angola
angraecopsis
anguloa
angustifolia
angustilabia
animal
ankara
ann
anna
annales
anne
annona
annual
anoectochilus
ansellia
antarctic
antarctica
antarktis
anthoceros
anthony
anthropocene
anthropology
anthropophora
antigua
antilla
antiquity
anyks
apartheid
aperti
aphylla
api
apie
apoda
aporoides
apostasia
apparent
appendicula
appendiculata
appiah
applanata
applications
applied
approach
april
aprilis
ar
arab
arabia
arabian
arabic
arachnis
arachnites
aramaic
arameans
arbete
arbor
arcadia
arch
archaeology
archinform
architecture
archive
archives
arctic
are
area
areas
arenas
argentina
aristata
arizona
ark
armandii
army
arne
arno
arnold
arnottia
around
arq
arquitectura
art
arte
arthur
article
articles
arto
artocarpus
arts
arx
as
asce
ascidieria
ascocentrum
ascoglossum
ashgate
asia
asian
asiat
asmara
asp
aspasia
aspidogyne
aspx
assam
assets
association
astri
astronomical
astronomy
astrophysics
asuncio
asustusjaotus
asustustihedus
asustusu
at
athens
atkla
atlantic
atlas
atmosphere
atmospheric
atopoglossum
att
attachments
attenuata
atvira
atwood
au
auct
audrone
auflage
august
aulosepalum
aurantiaca
aurea
aureus
austral
australia
australian
australis
author
authority
authors
autonomy
auxopus
auzias
avatud
aver
avoimen
axel
az
azerbaijans
b
ba
back
background
bad
bahamas
bahamian
bailey
baker
baku
bal
ball
baltimore
bamako
band
bang
bangladesh
bank
barb
barbados
barbara
barbata
barbosella
barbuda
barcelona
barkeria
barlia
barnes
barringer
barros
barry
bart
bartlett
bas
baschek
based
basic
basil
basingstoke
basiphyllaea
baskervilla
bat
bateman
batemannia
battle
batumi
bauer
baumann
bayerische
bb
bbc
bc
bd
bdl
be
beatles
beck
beclardia
befolkning
befolkningsfo
before
beginning
behind
beih
beijing
being
bekker
bel
belarus
belize
bell
beloglottis
belstat
ben
bendradarbiavimas
benin
benjamin
benjamins
benn
benth
benthamia
berg
berkeley
berlin
bernard
berners
beso
besson
best
bethlehem
better
between
bevoelkerung
bevoelkerungsstand
beyond
bf
bg
bhutan
bialystok
bianch
bibcode
bible
biblical
bibliographisches
bibliography
bibliothe
bicolor
biden
biermannia
bifrenaria
big
bijdr
bilaterales
bilbao
biloba
biographical
biography
biol
biological
biologique
biology
bip
bipinnula
bir
bird
birds
birth
bis
bissau
biznes
bl
black
blackwell
blatter
bletia
bletilla
blica
blood
bloomington
bloomsbury
blue
blume
bnf
bo
board
bodo
bogota
boiss
boliviensis
bollea
bolus
bolusiana
bonnet
bonplandia
book
books
bordeaux
borneensis
borneo
bosnia
bosser
boston
bostonas
bot
botswana
boulder
bouriquet
boyce
boyer
br
brachionidium
brachtia
brachypeza
brachystele
bracteosa
brade
bradt
bras
brasil
brassavola
brassia
bratislava
brazauskas
brazil
brazzaville
breivik
bremen
brenesia
brest
brett
brevipes
brian
brief
brieger
briggs
brill
brit
britain
britannica
british
broadway
brockhaus
bromheadia
broughtonia
brown
brownleea
browser
bruce
brunswick
bryansk
bryceana
bu
buchtienia
budapest
building
buildings
buitenzorg
bul
bulgaria
bulgarian
bull
bulletin
bureau
burkina
burma
burns
burton
burundi
business
button
by
byrne
byte
c
ca
cadetia
caesarea
cahiers
caladenia
calanthe
calcarata
cali
california
calochilus
calopogon
calypso
calyptorhynchus
cambridge
cameroon
cameroun
campbell
campylocentrum
camus
can
canada
canadian
canary
candida
canis
canon
capanemia
cape
capensis
capital
capitale
capitals
caracas
caribbean
caricifolia
carinata
carl
carlos
carlson
carnevali
carol
carole
carolina
caroline
carr
carroll
cary
cas
case
cases
castro
catalana
catalogue
catasetum
category
catherine
catholic
catling
cattleya
caucaea
caucasus
caudata
caularthron
causes
cavendish
cbs
cd
ce
celebica
celje
cengage
censos
census
center
central
centralbl
centre
centuries
century
cephalanthera
cephalantheropsis
cephalotes
ceratandra
ceratostylis
cernua
cfm
cgi
ch
chad
cham
chamaeangis
chamaegastrodia
change
changed
changes
changing
chants
chapman
chapter
charlene
charles
chase
chaubardia
chaubardiella
checklist
cheirostylis
chemistry
chen
chernivtsy
chiapas
chicago
chile
chiloglottis
chilopogon
chiloschista
china
chisinau
chitonanthera
chlorantha
chondrorhyncha
chris
christenson
christian
christianity
christie
christine
christophe
christopher
chronicle
chronicles
chroniochilus
chrysocycnis
chrysoglossum
church
churchill
chuselnist
chysis
chytroglossa
ci
cia
ciconia
cid
cifu
ciliolata
cinema
cirrhaea
cischweinfia
cite
cities
citizen
citizenship
citrina
citta
city
citypopulation
ciudad
ciudades
civil
civilization
clade
claderia
claire
clandestina
clarendon
clark
class
classical
classification
classofcontent
claude
clavata
clavicornis
clavigera
cleisocentron
cleistogama
clem
click
cliffs
climate
climatology
clio
close
cloud
clowesia
club
cms
cn
cnig
cnt
co
coast
coastal
coccineorchis
cochleanthes
cochlioda
codes
codonorchis
coelia
cogn
cohen
coilostylis
cold
cole
colin
coll
collabium
collected
collection
college
collegium
collier
collins
collinwood
colombia
colombiana
colon
colonial
colonialism
colonisation
colony
colorado
columba
columbia
columbus
com
comber
comedy
coming
commentary
commerce
commercial
commission
committee
common
commons
communication
communities
community
comoros
companion
company
comparative
comparettia
compass
complete
composition
comprehensive
compressa
computer
computing
comune
conakry
concept
concepts
concinna
concise
concolor
conference
conflict
confusa
congo
congress
connect
connecticut
conquest
conservation
consortium
constantia
constitution
constitutional
contact
contemporary
content
context
continental
continents
contr
control
convention
cook
cooper
cooperation
cooperi
corallorhiza
cordem
cordigera
core
cornell
cornuta
corporation
corruption
corunastylis
corybas
corycium
corymborkis
cosmos
cossacks
costa
costaricensis
council
counter
counties
countries
country
county
courier
course
coventry
craig
crc
create
creation
cremastra
cribb
crida
crimea
crisis
cristata
critical
crocodeilanthe
croix
cross
crossroads
crown
cryptarrhena
cryptocentrum
cryptochilus
cryptopus
cryptostylis
cs
csb
ct
cuba
cuban
cucullata
cultura
cultural
culture
cultures
curlie
curranii
current
currey
curtis
cuspidata
customs
cy
cyanaeorchis
cyanea
cybriwsky
cyclones
cyclopogon
cycnoches
cymbidiella
cymbidifolia
cymbidium
cynorkis
cyphochilus
cypripedium
cyrtopodium
cyrtosia
cyrtostylis
cystorchis
cz
czech
czso
d
da
dactylorhiza
dados
dai
dajov
dakar
dalessandroi
dallas
dallwitz
dalstro
damascus
dan
dana
dance
daniel
daniels
danmarks
dans
dansk
danych
dar
das
data
database
datan
dataplattform
dataset
date
dati
datos
datu
datumoj
daugavpils
david
davidson
davies
davis
day
days
db
dbinet
dbscripts
dc
de
dea
dead
dean
dearborn
death
deborah
debrecen
decalo
december
decipiens
decline
deep
default
definition
dei
deiregyne
del
delano
delhi
dell
della
delle
dem
demo
democracy
democratic
demogr
demografia
demographic
demography
den
dendrobium
dendrochilum
dendrophylax
densiflora
denticulata
department
der
derek
des
deschise
descriere
descriptions
desde
desert
design
desktopdefault
destatis
details
deutsch
deutsche
deutschen
developing
development
di
dia
dialects
dialog
diane
dichaea
dichromanthus
dickson
dictionaries
dictionary
didactylus
didymoplexis
die
diego
diels
dieter
dietrich
digital
dija
dilochia
dilomilis
dimensions
dimerandra
diphylax
diplocaulobium
dipodium
dir
directory
disa
disaster
discogs
discolor
discovering
discovery
disease
disperis
distribution
district
ditions
diuris
diversity
division
dizionario
djibouti
dk
dla
dlib
dm
do
doc
docid
dockrillia
docs
documents
dod
dodge
dodson
dodsonii
doi
domingo
domingoa
dominica
dominican
dominique
don
donald
donne
dordrecht
doritis
dos
douala
doubleday
douglas
dov
dover
downie
download
dr
dracontia
dracula
drakaea
drakensberg
drama
dream
dreiser
dressler
dresslerella
dressleri
dressleria
druk
drymoda
dsee
du
dublin
duckeella
duke
dunst
duomenu
durand
during
dushanbe
dyb
dynamics
dynt
dz
e
earina
earliest
early
earth
earthquake
earthquakes
east
eastern
ebx
ec
ecology
econom
economic
economics
economist
economy
ecosystems
ecuador
ed
edda
edgar
ediciones
edinburgh
edited
edition
editions
editor
editorial
edn
eds
edu
education
educational
edward
edwards
ee
eerdmans
eesti
eestigiid
effect
effects
efter
eggelingia
egypt
egyptian
ehrman
ein
eine
einer
el
ela
elata
eleanor
elegans
elements
elite
elizabeth
elkins
ellen
elliott
ellis
elmeri
elongatia
eloyella
elsevier
elukoha
emarginata
embassy
embreea
emergence
emmanuel
empire
empires
empusa
en
ena
enciclopedia
enciklope
enciklopedija
enciklopedijos
enciklopediju
encrenaz
encyclopaedia
encyclope
encyclopedia
encyclopædia
end
endl
endotrachys
eng
engineering
england
engler
englewood
english
enrique
entsu
environment
environmental
epiblastus
epic
epidendroideae
epidendrum
epigeneium
epipactis
epipogium
equatorial
equestris
era
erecta
eria
eric
erik
eriochilus
eriopsis
eritrea
eritrean
erl
ernest
ersa
erubescens
erycina
es
escobar
eske
esky
esmeralda
espan
essay
essays
essential
est
estadi
estado
estat
estimates
esto
estonia
estonian
eswatini
et
ethiopia
ethiopian
ethnic
ethnicity
ethnologue
ethnology
eu
eulophia
eulophiella
europa
europe
european
eurostat
evans
events
evidence
evolution
ex
exilis
expedition
experience
experiences
exploration
exploring
extraordinary
eyoh
f
faber
face
factbook
facto
facts
fage
failed
faktiline
falcata
fall
falola
families
family
fan
fargesii
farrar
faso
faulkner
fdr
fe
features
federal
federation
felix
female
fenno
fernandel
fernando
fest
feynman
ff
fi
fiction
fields
figures
file
files
filiformis
film
filmportal
films
fimbriata
final
finance
find
finet
finland
finnish
finno
fire
first
fitzg
fitzroy
five
fl
flava
flavescens
fleming
flickingeria
flood
flora
floribunda
florida
flow
flowering
focke
focus
foldats
foliosa
folkemengde
folklore
folkma
food
foorumi
for
force
foreign
forest
format
formation
forpus
fortress
foster
fotoalbumas
foundation
foundations
four
fourth
fowler
fr
fragrans
franc
france
francis
francisco
frank
frankfurt
franklin
franko
franz
frapp
frederick
free
freedom
freetown
french
friedrich
from
frontier
frost
fruit
frye
fu
fuchsii
fukuy
fund
fundacio
fundamentals
funkiella
fute
future
g
ga
gabin
gable
gabon
gaborone
gabriel
gada
gagnep
gal
galaxy
gale
galeandra
galearis
galeola
galeotti
gales
gambia
garay
garci
gard
gargz
garland
gary
gastrochilus
gates
gazetteer
gc
gdansk
ge
gemeinden
gemellaggi
gen
gender
genera
general
gennaio
genocide
genyorchis
geo
geoffrey
geograficzny
geographic
geographical
geography
geological
geology
geometry
geonames
geonet
geophysical
geoportaal
georg
george
georges
georgia
georgian
geos
geostat
gerais
gerald
gerhard
gerlach
german
germany
geschichte
geschlecht
gesellschaft
gesellschaftstaat
getfile
geva
gh
ghana
giant
gigantea
gigas
gilbert
gilli
giroux
gks
global
globaldatalab
globalization
globe
glomera
glossary
glossodia
glumacea
gnd
go
gob
gobierno
godfrey
gold
golden
gondwana
gonza
good
google
gordon
gorod
goroda
gospel
gospels
gostyam
gouv
gov
governance
government
governments
govpubs
gr
gracile
gracilis
graham
gramata
graminea
graminifolia
grammar
gran
grand
grande
grandiflora
grandiflorus
grandis
grant
grao
grave
gray
graz
great
greater
greece
greek
green
greene
greenwood
gregory
griff
griseb
group
growing
growth
gru
grus
gruyter
gryfino
gu
guardian
guatemala
guez
guide
guides
guilford
guine
guinea
gulf
gutenberg
guttata
guy
guyana
gzella
h
ha
habitantes
habitat
hachette
hagstofa
hainanensis
haiti
halconensis
haldus
haldusreformi
haldusu
hall
halle
hamburg
hamer
hamilton
hand
handbook
handbuch
hangund
hannover
hans
harare
harcourt
hard
harmattan
harold
harper
harpercollins
harrassowitz
harris
harrison
harry
hart
hartford
harv
harvard
harvey
harveyana
has
hashim
hatschbachii
have
haven
hawaii
hawkes
hay
hayat
hayata
hayes
hd
hdi
hdl
he
healey
health
hearing
heart
heath
heikel
heikki
heinemann
heinrich
helen
helleborine
heller
helmut
help
helsingfors
helsinki
helyne
hemsl
henri
henry
herb
herbert
here
heritage
hermanamientos
hermanas
hermans
herzegovina
high
hikmet
hill
hills
hilton
himalaya
himalayas
hinge
hirtz
hirtzii
his
hispaniola
hist
histo
histoire
historia
historians
historic
historical
histories
history
hitler
hmso
ho
hoboken
hoehne
hoehnea
hoffman
holger
holland
hollywood
holocaust
holt
holttum
holy
home
homo
honduras
hook
hope
hopkins
hopper
horn
houghton
house
housing
how
howard
hr
hrsg
htm
html
http
https
hu
hudson
hugh
hughes
human
humilis
hungary
hunt
hurst
hydrology
hymns
i
ia
iai
ian
iana
ibb
ibge
ibuar
ic
ice
iceland
icon
id
idc
idea
ideas
identification
identity
ideology
idmenu
ie
iedz
iedzi
iedzivotaju
iedzskaits
iene
if
ih
ii
iii
il
ilan
ilhas
iliustr
illinois
illustrated
illustrations
iltnere
im
image
images
imbricata
imdb
img
imke
immigration
impact
imperial
implications
imprenta
in
ina
inc
incarnata
including
incorporated
indeksu
independence
indes
index
india
indian
indiana
indicator
indies
indigenous
indo
indonesia
indonesian
industrial
industry
ine
inebase
influence
info
infobase
inform
information
ins
insects
inside
insight
inst
institut
institutas
institute
institution
institutions
instituto
insularis
integration
intelligence
interactive
intermedia
internacionales
international
internationale
internationales
internationellt
internazionali
internet
intervention
interview
into
introducing
introduction
io
ionos
iprage
ir
iran
iranian
iranica
iraq
ird
ireland
irina
irish
iron
irpin
is
isaac
isbn
islam
islamic
island
islands
iso
ispv
israel
issn
issue
issues
istanbul
istat
istorija
istoriya
it
italian
italica
italy
item
ithaca
its
iu
iuniverse
ius
iv
ivan
ivilnius
ivoire
ix
izbrani
izmir
j
ja
jaanuar
jack
jackson
jacques
jacquiniella
jaguar
jahrb
jakarta
jamaica
james
jan
jane
janeiro
janice
janua
januari
january
japan
jarae
jard
jas
java
javanica
javier
jay
jean
jefferson
jeffrey
jeffries
jelgava
jennifer
jennings
jenny
jeremy
jerome
jersey
jerusalem
jesus
jewish
ji
jill
jim
jo
joa
joachim
joe
johann
johannes
johannesburg
john
johns
johnson
jonas
jonathan
jones
jonis
jordan
jorge
jose
joseph
jost
journal
journey
joyce
jp
jpg
jr
jsonapi
jsp
jstor
ju
jules
julian
julius
july
jumelage
jumelages
june
juni
juss
just
justice
jyva
k
ka
kampala
kane
kaniensis
kansas
kardes
kardeskentler
karen
karin
karl
karthala
kas
kat
katangensis
kauna
kaunas
kaupunki
kaupunkien
kazalniki
kazin
ke
kegelii
kehra
keila
keith
kelly
ken
kennedy
kenneth
kent
kenya
kershaw
kevin
kew
key
kherson
ki
kiel
kigali
kinabaluensis
king
kingdom
kingdoms
kingii
kingston
kirjastus
kis
kittr
klaipe
klaipeda
klaus
klopeedia
klotzsch
knopf
know
knowledge
knox
knuth
ko
kommun
kommune
kommuner
koosseis
korpiklaani
kotka
kovtp
kraenzl
kraenzlinella
krakow
kras
kreutz
kro
ks
ksh
ksuse
ksustes
ku
kuma
kumar
kunta
kunth
kuntien
kuntze
kuressaare
kurt
kutler
kwame
kwazulu
kyivcity
kz
l
la
lab
labor
labour
laciniata
laevis
lake
lam
lamb
land
lands
landscape
lane
lang
language
languages
langues
lanham
larnaka
larry
las
last
late
latifolia
latifolium
latilabris
latin
latipetala
latvia
latvijas
laura
laurence
lauterbach
law
lawrence
laws
laxiflora
lazdiju
ld
le
leadership
leafl
learner
learning
learnt
leben
lech
lechevalier
lee
legacy
legal
lehm
leiden
leidykla
leipzig
leningrad
leo
leonard
leone
les
leslie
lesotho
letno
letters
level
levin
lewis
lex
lexikon
ley
leyte
lez
li
liber
liberia
liberty
libraries
library
libreville
librivox
libya
liechtenstein
liepa
lietuva
lietuviu
lietuvos
life
light
ligulata
liigi
like
lilongwe
lima
limited
limits
lin
lincoln
linda
linden
lindl
lindley
lindleyalis
lindleyana
linearifolia
lingua
linguistic
linguistics
link
linkresolverservlet
linn
linnankoski
linz
liparis
lisboa
lisbon
lissauer
list
lista
lit
literary
literature
lithuania
little
littlefield
littmann
live
lives
living
lk
ll
ller
lo
local
localities
location
locations
lodz
loefgr
lome
london
lonely
long
longibracteata
longicauda
longicaulis
longicornu
longifolia
longilabris
longipes
longman
lore
los
lost
louis
love
low
lt
ltd
lu
luanda
lublin
lublina
luc
lucida
lucksom
lueddemanniana
luer
luis
luisia
lukuma
lumotlar
lundy
luokitukset
luokitusavain
lusaka
luteola
lutskrada
luzon
lv
lvivrada
lynn
lynne
lyon
m
ma
maaamet
maakatastri
maboroensis
macmillan
macra
macrantha
macrophylla
maculata
madagascar
made
madeira
madrid
magazine
magna
magnitudes
magyarorsza
main
maint
majalis
majesty
major
make
making
makino
mala
malawi
malaya
malayan
malaysia
malferma
malgache
mali
mallama
malta
malu
maluku
mammals
man
management
mancall
manchester
manfred
manila
mann
mannfjoldi
mannheim
manning
mansf
manual
manuel
many
map
mapping
maps
maputo
marc
march
marcus
margaret
marginata
mari
maria
marie
marine
mark
market
markus
mars
marseille
marshall
martin
mary
maryland
masam
mascula
mashke
mass
massachusetts
massacre
mat
mathematical
mathematics
matter
matthew
maugham
maurice
mauritania
mauritanie
maxima
may
mayor
mazz
mbabane
mcfarland
mcgraw
md
me
meaning
meanings
med
media
mediabank
medical
medicine
medieval
mediterranean
melbourne
mem
memoirs
memories
memory
menezes
mer
meras
meridionalis
merriam
merrill
merrillii
mes
mesta
met
meta
meteorological
meteorology
methods
methuen
metro
metropolis
metsato
mexican
mexico
mez
mezhdunarodnye
mi
miasta
miasto
michael
michel
michigan
micrantha
micranthum
microphyta
mid
middle
miescie
miestai
miesto
mieszkancow
mifflin
migration
migrations
mike
milan
military
millennium
miller
milton
miltonia
minas
mind
mindanao
ministe
minister
minneapolis
minnesota
minor
miranda
mires
mis
misc
miskrada
missouri
mista
mit
mitchell
mk
mo
model
modern
modernity
mohamed
moksha
moldova
monde
mone
monetary
monogr
monrovia
montana
month
monthly
moon
moore
mordva
more
moroni
morris
moscow
most
movie
movies
mozambique
mpumalanga
mr
mrd
msn
mu
mua
muell
mun
muni
municipal
municipalities
municipality
municipio
municipios
munst
munzinger
murphy
murray
mus
muscicola
museum
music
muslim
must
mwakikagile
mx
my
myanmar
mycteria
myth
myths
mytnik
məlumat
n
na
nach
nachtr
nacional
nairobi
nakai
name
namen
names
namibia
nams
nana
nancy
narrative
nas
nasa
naselja
nash
nashi
nat
natal
nation
national
nationalbibliothek
nationale
nationalencyklopedin
nationalism
nations
native
nato
natural
nature
nazi
nc
nchen
ncipe
nd
ndez
ndigen
ndringar
ne
near
nebraska
ned
neglecta
neil
nelson
neo
neofinetia
neptune
nervosa
nestor
net
netherlands
network
neudecker
new
newark
news
newton
next
ng
ngd
nh
ni
niamey
nicaragua
nicholas
nicholls
nicolson
niger
nigeria
night
nime
nin
nineteenth
nivalis
nixon
nj
nkrumah
nl
nm
nnov
no
noaa
node
noe
noire
nomi
non
nord
norman
north
northamerica
northern
norton
norway
not
notes
nothosubsp
notul
nouakchott
nov
nova
novadi
novados
novadu
november
novo
now
nr
nrcs
nsf
nster
nubia
nuda
number
nutans
nw
ny
nyi
nyu
nyve
o
oaxaca
obci
objects
oblanceolata
obovata
obr
observations
obtusa
obyvatel
ocean
oceans
och
ochiq
ochreata
oclc
octarrhena
october
od
odontoglossum
odorata
odoratissimus
odprte
of
office
official
ofsetas
og
ographie
ohio
oil
ois
oklahoma
oktober
ol
olai
old
oligantha
oliver
olszewski
om
oma
omr
on
oncidium
one
online
only
ons
onwards
op
open
opendata
opera
operation
ophiopogonoides
oppositifolia
or
orae
oral
oras
orasul
orch
orchadian
orchid
orchidaceae
orchidacearum
orchidee
orchideen
orchids
orchis
order
oreophila
org
organisation
organization
oriental
origin
original
origins
ormerod
orqui
orquideologia
ortiz
os
oslo
osp
otevr
other
otnosheniy
otostylis
otto
otvorenih
otvorenog
otvoreny
otwarty
otwartych
ou
ouagadougou
ouest
ougrienne
oulu
oulun
oup
our
out
outer
outline
outre
outside
ouvertes
ovalis
ovata
over
overview
oxford
p
pa
paasilinna
paasonen
pabst
pacific
padre
pagasti
page
pages
pageview
painter
paksas
palermo
palestine
palestinian
palgrave
pallens
pallida
pallidiflavens
palmas
palustris
pan
pana
panama
paneve
panevezys
pantl
paper
paperback
papers
papilionacea
papillosa
papuana
par
para
paradise
paradoxa
paraguay
parajubaea
parana
paranaensis
paris
parish
park
part
partner
partneri
partneriai
partners
partnerskie
partnerstadt
partnerstaedte
partnery
party
parva
parviflora
parvifolia
parvula
past
pasts
pasvaldibas
patens
pater
path
patricia
patrick
patti
patula
pauciflora
paul
paulo
pays
pazink
pcode
pdf
pe
peace
pearce
pearson
pectinata
pedersen
peerage
pelecanus
pelican
peltonen
pen
pendens
penguin
peninsula
peninsulas
penn
pennsylvania
people
peoples
per
performance
performing
period
periods
perrier
perrieri
persee
persian
personal
personen
perspective
perspectives
peru
peter
petit
petro
pez
pfitzer
pg
ph
phalaenopsis
philadelphia
philip
philipp
philippe
philippine
philippinense
philippinensis
philippines
philippinescensusofpopulationlgus
phillip
phillips
philosophy
php
physical
physics
physiology
phytotax
piattaforma
picta
pictures
piero
pierre
pilifera
pilse
pilseta
pilsetas
pindala
pinus
pittsburgh
pl
place
placenames
places
plan
planet
planetary
planets
planning
plant
plants
plataforma
plate
plateforme
platform
platforma
platforması
platformja
platformo
platformu
plattform
platvormi
plays
please
pleurothallis
plovdiv
plugin
pluto
pm
pmid
pmlp
po
poblacio
poblacion
pobratimi
pobratimskih
pobratimy
pobratymy
poc
pod
podataka
podatke
poe
poepp
poetic
poetry
points
poir
pojark
poland
polar
policies
policy
political
politician
politics
politik
politique
polity
polsha
polska
polskiego
poor
pop
popolazione
popular
population
populations
portal
portilla
portillae
porto
portrait
portugal
porvoo
post
postcolonial
pour
poverty
powellii
power
pp
ppe
ppen
pr
practical
practice
practices
praeger
praha
pre
prebivalstvo
precipitation
preliminary
prensa
prentice
present
presentation
presentationstandard
preservation
preses
presidency
president
presidential
presidents
press
pretoria
pri
pridgeon
prime
princeton
principia
principles
print
printing
pro
problem
problems
proc
process
processes
prodr
production
products
profile
profiles
program
programme
programming
progress
project
projekti
prorepentia
prospects
prosser
prov
province
provincialis
przemysl
psa
pseudocymbiformis
pseudonyms
psl
psychology
pt
pu
pub
pubescens
publ
public
publicat
publication
publications
publique
published
publisher
publishers
publishing
pulchella
pulchra
pumila
pumilum
punctata
punctulata
pupulin
purpurascens
purpurata
purpurea
purpurella
pusilla
putin
pvm
px
pxen
pxnet
pxt
pxweb
py
pyramidalis
q
quarter
quarterly
que
queen
queensland
quest
question
questions
quito
r
ra
race
rachel
rada
radiata
radvilis
raf
rahvaarv
rahvastik
rahvastiku
rahvastikunaitajad
rain
rainer
rakvere
ralph
rami
ramosa
random
rank
rao
rar
rard
rasmussen
rat
rathaus
raymond
razvitiya
rchb
rd
re
reader
reading
real
reality
rebecca
recent
recherche
reconstruction
record
records
red
ref
referat
reference
reflections
reflexa
reform
reg
region
regional
regions
regkat
regni
reich
reichenbach
reid
reims
reise
relaciones
related
relations
relationships
relazioni
religion
religions
religious
remota
ren
renaissance
renanthera
rendle
renz
repert
report
reports
reptans
repu
republic
republica
republicanism
republik
republika
republikas
res
research
residente
resistance
resource
resources
results
rethinking
reticulata
retrieval
retrieved
rev
review
reviews
revised
revision
revisited
revolution
rez
rgen
rgi
rgse
rheine
rhynchostylis
ri
ria
rica
rich
richard
rico
ridl
rienner
riga
rights
rigida
riket
ring
rio
rise
rita
river
rivers
rivneportal
rl
ro
road
robert
roberts
robertson
robin
robinson
robusta
rocznik
rodr
rodri
rodriguezia
roger
rogers
rokis
roland
rolandas
role
rolfe
roma
roman
rome
romero
ronald
room
roosevelt
roots
rosa
rosario
rose
rosea
rosen
ross
rosstat
rostellata
rothman
rough
routledge
rowman
roy
royal
royen
rs
rsl
ru
rubens
rubia
rubric
rupestris
rupp
rural
rus
russell
russia
russian
rutgers
ruth
rutk
rv
rvar
rwanda
rxid
ryazan
rysiu
s
sa
saccata
saccolabium
sacramento
sacred
sadraudzibas
sage
sahara
saint
salazar
salem
salix
salvador
sam
samuel
san
sanguinea
santa
santiago
santo
santos
sara
sarah
sarajevo
sarcochilus
saudi
saunders
sc
scarecrow
schedul
schilleriana
schlechter
schltr
scholarly
scholars
school
schuit
schumann
schuster
schutzgeb
schweinf
sci
science
sciences
scientific
scientist
scientists
scott
scribner
scribners
se
sea
sean
search
seas
sebastian
sec
second
secret
section
security
see
seidenf
selbyana
selected
selena
self
semitic
senate
senegal
senghas
sepp
september
serge
series
server
service
services
setting
settlement
settlements
seura
seventh
severodvinsk
sex
shaping
shaw
sheffield
sheviak
shillington
short
show
si
sia
siamensis
siberia
side
siegerist
sierra
sights
sigmoidea
sign
sil
silva
silver
simia
similis
simon
simplex
sin
since
sindi
singapore
sir
sister
sistercities
site
sites
sixteenth
size
sk
skaits
sketch
ski
skinner
skopje
sky
skyla
skyrius
sl
slave
slavery
slnl
slovak
slovenia
slovenija
sm
small
smith
smithsonian
snow
so
soc
social
sociala
socialism
socie
societies
society
sofia
sokoloff
solano
solar
somali
somalia
some
somerset
son
sond
song
sons
soo
soto
source
sources
south
southamerica
southeast
southern
southwest
soviet
sp
space
spaces
spain
spathulata
spatial
spaustuve
spec
special
species
speciosa
specklinia
spectabilis
speech
sphrase
spiranthes
spitzelii
sprache
spread
spring
springer
squez
sr
sritys
ssb
ssp
st
sta
staatsbibliothek
stadt
stage
stan
stanbul
standard
standish
stanford
stanislavski
stanley
star
starportal
stars
start
stat
state
states
statfin
stationery
statistica
statistical
statisticky
statistics
statistik
statistika
statistikaamet
statistikas
statistikker
statline
stats
status
statweb
steel
stefan
stellilabium
stenia
stenophylla
stephen
sterling
sterreichische
steve
steven
stewart
steyermarkii
stica
stokes
stone
storage
stories
story
strange
strategic
strategies
straus
streptopetala
striata
stricta
structure
structures
struggle
stuart
students
studies
studio
study
stuttgart
stuttgarts
style
su
sub
subsection
subsp
suc
sud
sudan
sul
sulawesi
sulphurea
sumatra
sumatrana
summerh
sun
suomalais
suomen
suppl
sur
surguta
survey
survival
sus
susan
sustainability
sverige
svit
svyazi
sw
swaziland
sweden
sweet
swiat
switzerland
symbols
synonym
syntax
syria
syriac
syst
system
systems
szczecin
szlach
słownik
t
ta
tab
tabellen
tabid
tabindex
table
tableviewlayout
tadr
tainia
tallinn
talpinaria
tampere
tang
tanton
tanzania
tarptautinis
tartu
tas
tass
tauris
tausch
taylor
tbilisi
tbilisiinfigures
tc
tchad
te
technology
ted
tejano
temperature
ten
tenella
tennessee
tenuis
terast
teritoria
term
terra
territories
territory
terrorism
terry
testament
testvervarosok
texas
text
textbook
texts
tgm
th
thailand
thames
than
that
the
theatre
their
themes
theodore
theories
theory
they
things
third
this
thomas
thompson
thouars
thought
threat
three
through
thunb
ti
tica
tiedot
tietoa
til
tim
time
times
timothy
tipo
tis
titan
title
tiyambe
tna
to
tobago
today
togo
toiminta
tokyo
tom
tome
top
topic
topics
torallyi
toronto
torricellensis
torsvik
torun
toscano
total
totl
tourism
towards
town
towns
toyin
tps
tr
trade
tradition
traditional
traditions
tragedy
trakai
trans
transaction
transformation
transition
translated
translating
translation
transvaal
traunsteineri
travel
travels
treccani
tree
trends
trial
trichoglottis
trifida
triloba
trinidad
tripoli
trop
tropical
truncata
truncicola
trust
truth
ts
tsi
tu
tucson
tudes
tunis
tunisia
turfosa
turkey
turku
turner
turpa
turun
tuyama
twentieth
twenty
twin
two
txt
type
tzdb
u
ua
ucb
uganda
ugricum
ugrilainen
uk
ukr
ukraina
ukraine
ukrajina
ukrcensus
ukrstat
uliginosa
ulmer
ultimate
um
un
una
uncatum
unciferia
und
under
understanding
une
unesco
uniflora
union
unit
united
univ
universal
universalis
universe
universidad
universite
university
unknown
unrecognized
unso
unspecified
up
updated
upload
uploads
upper
uppsala
uranus
urbain
urbaine
urban
urbana
urbanisation
urbanization
url
uruguay
urvilleana
us
usa
usage
usda
use
user
utena
utenos
utility
uus
uz
uzsienio
uzzinas
v
va
vaadatud
vaerak
vaginata
valdas
valida
valle
value
vamuu
van
vanda
vandopsis
vanille
vanillier
vanorter
vanuse
var
variation
variegata
various
varval
vasquezii
vatican
vaticano
ve
veg
veiklos
veloppement
venez
venezuela
venosa
venusta
verdc
verde
verilerin
verkostot
verlag
verm
verrucosa
versicolor
version
verso
versus
verwaltung
very
vestita
vi
via
victor
victoria
victorian
vie
vieni
vietnam
view
viewer
vigo
vihtori
vii
viii
viking
viljandi
ville
villes
villosa
vilniu
vilnius
vincent
vintage
violacea
violence
virginalis
virginia
viridis
vis
visaginas
vision
visions
visual
vko
vneshn
vo
vogel
vol
vols
volume
volumes
von
vota
voyage
voyages
vrk
vrm
vs
vw
vyyskaupungit
w
wa
wagner
wales
walker
wall
walpers
walter
walther
wang
war
ward
warm
warren
wars
warsz
warszawa
was
washington
water
watson
way
wayne
wcm
we
weather
web
webcitation
weber
website
webster
weekly
weidenfeld
wells
welt
welwitschii
werner
wesley
west
western
westminster
westport
westview
what
where
white
who
why
wide
wieku
wien
wiesbaden
wight
wiki
wikimedia
wikipedia
wikisource
wild
wiley
will
william
williams
wilson
wind
windhoek
winkler
winnipeg
winston
wirtschaft
wissen
with
within
wm
wo
wolfgang
women
wood
woodrow
woolfson
word
words
work
works
world
worldbank
worldometers
worldwide
wp
wps
writing
written
wsoy
wspolpraca
www
x
xi
xii
xiii
xiv
xix
xls
xlsx
xlvi
xstadat
xv
xvi
xvii
xviii
xx
xxi
xxx
y
ya
yale
yaounde
year
yearbook
years
yo
yonkers
york
you
young
your
youth
youtube
ys
ysta
yu
yunnan
yunnanensis
z
za
zagraniczna
zagreb
zahlenfakten
zambia
zarathustra
zastupitelstvo
zb
zbigniew
ze
zealand
zeleza
zigazgata
zimbabwe
zip
zone
zones
zoroaster
zoroastrianism
zt
zu
zur
zygostates
{
|
}
~
«
¬
­
°
²
¹
º
»
×
æ
ı
ık
ıq
ɒ
ʰ
ʲ
ʹ
ʻ
ʼ
ˈ
ˌ
ː
̀
́
̂
̃
̄
̆
̇
̈
̊
̋
̌
̓
̔
̣
̦
̧
̨
̯
͂
͡
α
ανοικτω
γος
δ
δεδομε
ε
η
ι
λο
με
ν
νων
ο
πα
πλατφο
ρμα
ς
ω
а
абасыянык
абсолютонь
абу
абхазия
абья
абэба
ава
авань
авась
ават
аватне
аватнень
авать
аввакум
аввакумонь
август
августков
августковста
августста
авестиень
авив
авинть
австралие
австралиеса
австралия
австралияса
австралиясь
австрия
австриянь
автономиясь
автономных
автономонь
авторитаризмась
авторсь
ад
адамкус
аделазе
аделамда
аделамдонза
аделась
адкрытых
административно
администрации
администрацияти
адольф
адыс
азербаи
ази
азие
азиень
азиеса
азия
азиянь
азияса
азиясь
азкс
азксонь
азкст
азома
азомс
азондови
азондомань
азондомат
азондоматне
азондсы
азондсь
азонды
азораи
азорондама
азорондамань
азоронь
азорсь
азорть
азрапкин
азсь
азф
азфоль
аи
аист
академии
академия
акашкин
акваториясь
аккра
акротири
аксель
активистсь
акционеронь
акша
ал
ала
аландонь
алашань
албания
але
александр
александрович
алексеевич
алексеень
алексеи
алеутонь
алжир
алжирия
али
алитус
алкимиень
аллан
алматы
алонь
алста
алу
алфавит
алфавитсь
алхт
аль
альбомсь
альфрэд
аля
алякс
аляксеи
алямкин
алянц
алянь
алясь
алятне
аляфтома
аляц
америка
американонь
американь
америкаса
америкась
америконь
америкса
ами
амман
амстердам
ан
ана
ананьина
анархистонь
анасть
анатоли
анатолии
анатоліи
анатомиясь
анг
анге
англ
англакс
англань
англии
англиянь
англонь
ангола
анголень
анголь
анджэлес
андора
андреи
андрэ
анимациесь
анкара
анклавсь
анна
аннонась
аноклама
аноклась
ансамбли
антананариву
антарктидась
антарктикась
антигуа
антициклонць
антонии
антонипне
анцек
аньцек
аню
апак
апон
апр
апрель
апрельков
апрельковста
апрельста
ара
араб
арабия
арабонь
араи
араль
арам
арапов
арасть
арась
арга
аргентина
ардатов
аристэ
аркеологиень
аркивонь
арктикась
армения
армянонь
артаев
ару
арх
археологии
архив
архивнаи
архивонь
архтома
архтф
архтысь
арьсемаса
арьсесть
арьсесь
арьсеф
арьсихть
ассоц
ассоциация
асср
аст
астана
астрахань
астрономсь
асу
асунсьон
асш
асыҡ
аськолкс
ате
атерень
атланта
атлантикань
атмосферась
атмосфернаи
атоллсь
атомонь
атышев
атя
атям
атямас
атямсь
атянин
атянь
атятне
ауновскии
ауцэ
аф
афанасьев
афганистан
афитт
афкукс
афкуксонь
афоль
афольхть
африка
африкань
африкаса
африкась
африконь
африкса
ахмэта
ахты
ахура
ачык
аш
ашгабад
ашдод
ашезе
ашезь
ашель
ашесть
ашу
ашық
ащемаса
ащемась
ащесь
ащи
ащихть
б
ба
баба
бабань
бабась
бабать
багама
багдад
бадачоньтомаи
база
баи
баку
балаково
балашов
балета
балладнаи
балладная
балтонь
бамако
банги
бангкок
бангладэш
банк
банка
баня
барбуда
барнаул
барселона
батуми
батунь
бауска
бахрэи
башка
бебан
без
безбородов
беи
бел
беларузмастор
беларузмасторонь
беларузонь
беларузь
беларусь
белосток
бельгия
бережани
берестечко
бетлеем
библиотек
библиотека
бильбао
биография
биологии
биологиянь
биологиясь
биосферась
бисау
бишкек
бл
блика
блокланд
бо
богдан
богота
боз
бои
боксса
болг
болгария
болгарияса
более
боливие
боливия
большая
бордо
борис
борисович
борнео
босния
ботаникс
ботсвана
бояркин
бояркина
браззавиль
бразилиа
бразилие
бразилия
бразилияса
братислава
браузерсь
бремен
британия
британонь
брод
брокгауз
брэст
брюсель
брюсэль
брянск
бта
будапешт
букань
букваса
букурэшт
буркина
бурса
бурунди
бутан
бутылов
бушмин
буэнос
бъди
быта
бытования
бэи
бэлград
бэльгия
бэльци
бэнин
бэрлин
бэрэжаны
бэх
бюро
в
ва
вааса
вага
вагановои
вад
вадковскии
вадывел
ваи
ваксарош
ваксс
ваксса
вал
валда
валдас
валентин
валентина
валкс
валкст
валлувксонь
валлувкссь
валмораи
валморама
валморамань
валморамась
валморат
валморонь
валом
валонзон
валонь
валса
валста
валсь
валсюлмось
валть
валхне
валхнень
валхт
вальмя
валю
вам
ван
ванк
ваномасна
ваномась
ваномс
ванондыхнень
ванфтовихть
ванфтовсь
ванфтома
ванфтомс
ваны
ваныец
вань
вараждин
вармань
вармась
варматнень
варна
варшава
варянят
вас
васенда
васенце
васенцеда
васенцекс
васенцесь
васень
василии
василь
васильевич
васта
вастова
вастокс
вастонь
вастоц
вастс
вастса
вастсна
вастсь
вастт
васттне
васттнень
вастть
васу
васьфневи
васьфневихть
ватикан
вашингтон
вв
ве
вед
ведень
ведомости
ведомосттнень
ведсь
ведти
ведь
ведьлотка
ведьса
ведьта
ведява
веи
века
веконь
векста
векть
веле
велева
велень
веленясь
велеряи
велеса
велеста
велесь
велет
велети
велетне
велетнень
велеть
вели
великаи
великои
вельвичия
вельде
велява
вена
венг
венгеронь
венгрань
венеж
венежень
венесуэла
венеция
венчакова
вень
вердэ
вержи
вермава
верования
версь
верхне
верховноі
верхтялимось
весенне
вестевок
вестник
весть
вете
ветеце
веттне
ветть
веть
вешаев
виард
вид
видавництво
видавничии
виде
видема
видемс
видеса
види
видиень
видне
видьмонза
видьмонь
видьмотне
виет
виетнам
вижниця
вии
википедиесь
википедии
википедия
виктор
вильнюс
вильсон
вильям
вильянди
винань
виндгук
виннипэг
винсэнт
вип
вирень
вирть
вирь
вирьга
вирьса
вирьхнень
вирява
витсен
витсенонь
вишкста
вишня
вишняков
вишні
вкась
владикавказ
владимир
владимировна
власть
внутренних
внутригородским
во
вов
вовчка
вовчок
вод
водясова
воеводши
воеводшиса
возняк
вои
волго
волжскии
волинська
волині
вологда
вологодскои
володимир
володымыр
вонень
вонь
вопросам
вопросы
воркута
воронеж
вортман
ворьгодсь
времен
временник
вроцлав
все
всемирного
всемирныи
всеобщая
всероссии
всесоюзная
вступ
вт
вудро
вулканть
вы
вып
выпуск
выру
вышня
вьетнам
вэнтспилс
вэнэзуэла
вярде
вярдень
вяре
вяри
вярьгак
вяти
вятиец
вятись
вятсь
вячеслав
від
відкритих
г
га
габаронэ
габон
габэн
гавана
гавонь
гаврилов
гадаев
гадаева
гажась
газ
газетаса
газетась
газетать
гаи
гаити
галина
галкина
гамбия
гана
ганибалонь
гарарэ
гарма
гартфорд
гатчина
гаффарова
гвадалахара
гвардия
гватэмала
гвинеи
гвинэя
гвияна
гг
гданьск
гдыня
ге
геи
геннадии
генрих
генуя
географии
географическяи
географиянь
географиясь
географиять
географсь
географічна
германие
германия
германиянь
германияса
германонь
герои
ги
гибралтар
гидрологическая
гидрометеоиздат
гидросферась
гимнась
гин
гинонь
гитлер
гихл
гл
главнаи
главныи
глаголсь
глаголхнень
гов
говорить
год
года
годов
году
годы
гола
голандонь
голенков
голова
головна
головноі
голос
гом
гомель
гондванась
гондурас
гонолулу
гонь
гор
город
города
городам
городах
городе
городищась
городище
городов
городок
городским
городских
городского
городское
горож
горожть
горса
горькаень
гос
госкомстат
государствань
государственнаи
государственная
государственного
государственное
государственнои
государственныи
государство
градове
гражданскяи
грамматикань
гран
грант
граф
грек
грекмастор
грекмасторса
грекокс
греконь
гренобль
греци
греция
греч
григории
гришунина
гришуткин
грубешув
груз
грузии
грузинонь
грузия
грузиянь
грузияса
группань
грэнадинт
гуанчжоу
губ
губенко
губерн
губерниень
губернии
губерния
губерниянь
губерниять
губернскяи
гуляев
гуманитарные
гурьянова
гусар
гэи
гэорг
гэрнси
гюнтекин
гялец
гяль
гяльбе
гяльбень
гяльбет
гялькс
гяльсь
гянджа
д
да
дакар
дамаск
дан
данилюк
даних
данмастор
данни
даннои
данным
данных
данонь
даных
даугавпилс
де
дебрецен
девин
девятаев
девятаевть
девяткина
деи
декабрьков
декабрьковста
декабрьста
дел
деление
дели
дель
демографиясь
демократиянь
демоскоп
департамент
депутат
деректер
державна
дефис
деятельности
дж
джакарта
джан
джанонь
джанскяи
джибути
джидда
джо
джованни
джон
джонсон
джордж
джура
джэи
джэрси
дзюба
ди
диктаторсь
дин
дипломатсь
дис
для
дмитро
дмитров
днестраланга
днипро
дня
дніпро
до
довідник
додаҳои
доктор
докторсь
документи
документт
дом
доминго
доминика
доминикан
доминиканонь
доминикань
дон
донецьк
донза
донэ
донэцьк
доп
дор
дорофеев
дорофеень
дорошенко
досліджень
доха
др
драи
драма
драмань
драмат
драматургсь
древнеи
дрогобич
дрогобыч
другие
других
ду
дуала
дубаи
дубасов
дубасовонь
дубе
дублин
дуда
думать
думка
дурбан
духовнаи
душанбэ
ды
дье
дьячка
дэ
дэкэлия
дэли
дэн
дэнысэнко
дяи
діяльність
е
евграфович
евразиеса
евреень
европа
евсевьев
его
единиц
ее
ежегодник
ежовка
екатеринбург
елгава
елена
ельмеев
ельниконь
ен
енциклопедичних
енциклопедія
ень
ереван
ермания
ерусалим
если
ефимова
ефрон
ж
жа
жан
жанэи
жарав
жатть
ждя
же
жешув
живаи
жиганова
жизни
жизнь
жителеи
житомир
життя
жка
жу
жуватань
жуватат
жувататне
журавль
журнал
журналистсь
журналса
журналсь
журналть
з
за
завалишин
заговоры
загрэб
заи
закарь
закон
замбия
замечательных
замки
западныи
записки
заповедника
заслуженнаи
захар
збруч
збірник
зеланда
земля
зи
зимбабвэ
зимнии
зирня
зирняи
зия
зкрауклэ
знак
зо
зовут
золочів
зороастризмань
зрнянь
зу
зубово
зубу
зубунь
зърня
зърнянь
зьвестак
зэлэнськии
зэр
зэстафони
и
иван
ивано
иванова
иванович
иваново
ивр
ивуар
идель
идем
идентификатор
идень
идеологиясь
идиофонат
идькс
идькспингста
ижевск
из
избр
изв
известия
известият
изд
издание
издатель
издательстваса
издательствась
издательство
измир
изображении
израиль
изученность
изь
ила
иланди
илань
иласа
иласта
илась
илат
илати
илатнень
илать
или
ильич
ильхтема
илья
илю
иля
илядсь
илякс
илять
им
имбабась
императорсь
империи
имяреков
имярекова
ина
инголе
инголень
инголи
ингольде
ингольдень
индекс
индиень
индиеса
индия
индиянь
индо
индокитаи
индонэзия
ине
иневедень
иневедсь
иневедь
иневедьге
иневедьжиреса
инженеронь
инзара
инзарань
инзаронь
инкса
инсар
инсаре
институт
институтть
инструментальная
инструментального
инструментальные
инструментов
инструментсь
инструменты
интаи
интернационалсь
интернет
интернетса
интернетсь
интерфеи
информатикань
информатикась
информатике
информацие
информациесь
информациянь
информациясь
инь
инялясь
иняру
иордан
иордания
иосиф
ирак
иран
иранонь
иранца
ирвел
ирго
ирландмастор
ирландонь
ирпинь
исаак
искусство
искусствоведения
исламабад
исламонь
исландия
исп
испания
испаниянь
испанонь
исполнительства
использование
исса
исслед
исследовании
исследования
исследовательсь
исследовательхне
истанбул
истории
историии
историко
историкоэтнографич
историксь
историческая
исторические
историческии
историческяи
история
историянь
историясь
историять
источник
исть
итал
итали
италие
италиень
италия
италиянь
итальянонь
итогам
итоги
итогов
их
ичкоздень
ичкозе
июльков
июльковста
июльста
июля
июнь
июньков
июньковста
июньста
к
ка
кабаева
кабо
кавказса
кавказскяи
каганць
кагодса
кадажень
кадом
каз
казан
казанском
казань
казахонь
казахстан
казеннаи
казне
казнень
казнет
казьф
казьфоль
каи
каир
как
какаду
кал
калгода
календарно
календарь
кали
калининград
калифорния
калкнень
калконь
калкть
калмама
калонь
калоп
калопне
калопт
калуга
калхт
каль
кальдяв
калядань
камбоджа
каменнобродскяи
каменныи
каменяр
кампала
камэрун
канада
канадаса
канадонь
канады
каназор
канария
канд
кандидат
кандомс
каннесть
канцлерсь
карабах
каракас
карга
каргонь
кардазава
карелонь
карень
карибонь
карл
кармаи
кармасть
кармась
карта
картатнень
картац
карташов
карша
каршек
каршес
карьялань
карязбакарсь
касабланка
касонды
касондыхть
кассть
кассь
кастория
касумкент
касфтомс
касы
касыкс
касыксне
касыксонь
касыкссь
касыкст
катар
катовице
каунас
кафксть
кафксувоце
кафта
кафцьке
кв
кгк
кда
ке
кевонзаф
кевонь
кеву
кеи
келеса
келец
кели
келин
келина
келу
келувонь
кель
кельги
кельгома
кельме
кельмеширень
кельмеширеса
кемаи
кемаль
кемгафтува
кеме
кемзисемгоце
кемонь
кепотьксонди
керенскяи
кержи
керсесть
керсись
ки
киви
кивиыли
кигали
кигель
кие
киза
кизаса
кизефкснень
кизода
кизонда
кизонь
кизоньберьф
кизоня
кизоса
кизоста
кизось
кизот
кизоти
кизотнень
кизоть
кила
килинги
кильдюшкина
кимиень
кин
кина
кингстон
кинигань
кинось
киншаса
кинь
кинякин
киото
кипр
кипра
кипрань
кирдезь
кирдемастор
кирдемасторонь
кирдемасторсь
кирдемасторть
кирдемс
кирди
кирдсть
кирдсь
кирдьсы
кирилл
кирляи
кирьхксонь
кирюков
кись
кит
китаень
китаи
китано
китап
кито
китс
кить
китькскя
китьксонза
кишинэу
киі
кк
кки
клаи
кларк
кле
клеи
кливленд
климатсь
км
кн
книга
книгань
книгаса
книгась
книгат
книгать
книгац
книжка
книжнаи
книжное
ко
ков
ковгярькссь
ковгярьксть
ковель
коволхне
ковонь
ковста
ковсь
ковти
ковть
ковылкино
ковылкинскяи
ковэль
кода
кодама
кодамовок
кодамот
коень
кожфонь
кожфсь
кожфть
коза
козя
кои
кол
кола
коламбус
колга
колганза
коллективного
колма
колмогемонь
колмоце
коло
коломия
коломна
коломыя
колумбие
колумбия
колхозонь
коми
комис
комитет
комитетонь
комитетсь
комитетть
комор
комортне
комплекс
композиторонь
композиторс
композиторсь
компьютеронь
компьютерсь
комсомолонь
комсь
кона
конакри
конанди
конань
конась
конат
конатне
конатнень
конац
конго
кондясти
конин
конституция
конституциянь
контексте
континентсь
контроль
конунгсь
конуссь
конусть
конференции
копенгаген
кор
коре
корож
корольсь
корхнида
корхнихть
корхтави
корхтаи
корхтама
корхтамань
корхтамась
корхтаматнень
корхтамолезкс
корхтасть
корхтась
корхтафкснень
корхтафксса
корхтафкссь
корэя
корэянь
корява
коряков
коряс
коса
косова
косово
коста
костка
коське
косів
кот
кота
котка
котоце
котф
котфонь
котфста
кофкснень
кочеваткин
кочкаи
кочкась
кочкаф
кочкафоль
кочксевсь
кочксесть
кочкуровань
кошардомвиень
кошардомвии
кошелева
кошице
коҥго
крае
краев
краи
кракув
крандаз
кранциянь
кранцмастор
кранцмасторонь
кранцмасторса
кранцонь
красная
красно
краснослободскяи
красныи
краткии
края
краям
краєзнавчии
кре
кременчук
крим
кристозшида
кристозшинь
критикась
критиксь
криша
крупных
крус
крхка
крэмэнчук
кс
ксе
ксенда
ксесь
кстиндамда
кто
куба
кубанцев
кубіи
кува
кувака
кувалма
кувалмос
кувалмоса
кувалмосна
кувалмоц
куване
кувэи
куд
кудазорсь
кудбирьф
кудозонза
кудонц
кудонь
кудоц
кудпирьф
кудпирьфста
кудс
кудса
кудста
кудсь
кудть
куду
кужа
кузнецов
кузьма
куи
кул
кулакова
кулдымсь
куликова
куломда
кулось
кулоф
культур
культура
культурань
культураснон
культурась
культуронь
культуры
кульчицькии
куля
кулят
кулятнень
кумокань
кунара
кунардонь
кундьянь
кундьяста
кунцема
куопио
курок
курокста
курс
курэссаарэ
кусар
кут
кутаиси
куттнень
кучемс
кучка
кучкаковста
кучкань
кучкаса
кучкаста
кучкастонь
кучкать
кучф
кучфоль
куяр
кши
кшинь
кшить
кшни
кшнинь
кштишендсть
къда
кърдань
кържа
кърхка
кърхкаста
кърхтаж
кыив
кыллюкам
кылын
кыргызстан
кьявик
кэи
кэния
кэри
кяденьгирдикс
кядье
кядьса
кядьста
кядяла
кядялу
кяжи
кялень
кяль
кяльвал
кяльвалонь
кяльда
кялькс
кяльлувкссодама
кяльс
кяльса
кяльста
кяльсь
кяльти
кяльть
кяльхне
кяльхненди
кяльхнень
кярьксоц
кярькссь
кяшал
л
ла
лагос
лагунась
ладогань
ладяф
лаи
лама
ламбама
ламне
ламода
ламоксть
ламоль
ламонь
ламос
ламотне
ламоц
ланга
лангаксоц
лангозонза
лангонь
лангоц
лангс
лангса
лангста
ланд
лаос
лапшин
лар
ларионов
лас
ластя
лат
латвии
латвия
латвиянь
латвияса
латинонь
латинскяи
латцихне
латышонь
лауреат
лауреатсь
лахти
лац
лаца
лацонне
лацонь
лацот
лашма
лашмань
лашмонь
ле
левжа
левжась
левина
левчаев
лезгинскяи
лездсь
лезды
лездыец
лезкс
леи
лекарственные
лексикась
лексикология
лексикологиясь
лексическои
лем
лемдезе
лемдезь
лемдяи
лемневи
лемнезь
лемонза
лемонц
лемоц
лемоцоль
лемс
лемса
лемсна
лемста
лемсь
лемтне
лемть
лемтьф
лемтьфоль
ленинград
ленинградское
леонид
лепне
лепнень
лердиҥ
леся
лесі
лет
летнии
летопись
лешсь
ли
либия
либэрия
ливан
лидия
лиепая
лилонгвэ
лима
лимныця
лингвистикань
лингвистических
лингвогеографиянь
линда
линнанкоски
линц
лион
липатов
липня
лисабон
лисендема
лисенди
лисендихть
лисендсть
лисендсь
лиси
лисихть
лиссть
лиссь
лит
литва
литванонь
литвань
литваса
литература
литературань
литератураса
литературась
литературе
литературнаи
литературная
литературно
литературных
литературоведениясь
литературонь
литературть
литературы
литосферась
лихтенштаи
лишме
лишмонь
лишмось
лишмоть
лия
лиякс
лият
лиятне
лкам
лл
ло
лов
ловна
ловсь
логинць
лодзь
локсти
ломаненза
ломанень
ломанти
ломанть
ломанць
ломань
ломаньда
ломанье
ломанькс
ломаньтналонь
ломаньтъналонь
ломатненди
ломатнень
ломаттне
ломаттненди
ломаттнень
ломатть
ломшин
лондон
лопа
лопанза
лопанзон
лопань
лопаса
лопась
лопат
лопатина
лопац
лос
лотка
лоткова
лотксема
лофцань
лофцонь
лофцта
лсспк
луанда
лувксса
лувови
лувома
лувомась
лувомать
лувондови
лувондовихть
лувондовсть
лувондовсь
лувондозь
лувондсазь
лудза
луис
лука
лусака
луцьк
лушкина
лысенков
ль
львив
львивонь
львів
львівська
льн
лэонэ
лэсото
лэся
люблин
любляна
людвиг
людеи
люди
людмила
люксембур
люксэмбург
ляень
ляи
лямбе
лямбеширень
лямбеширеса
лямбирень
ляпе
лятфневи
лятфневсь
лятфтаматне
ліквідацію
лімниця
літератури
літературно
м
ма
мааконд
маалыматтарды
маарду
мавритания
магнезь
мад
мадагаскар
мадагаскарса
мадома
мадрид
мадьярмастор
мадьяронь
мазы
маи
мак
макао
макашин
македония
македониянь
макне
макнень
макова
маконь
макса
максим
максольхть
максома
максомс
максси
макссь
максф
максфоль
максь
макть
макушкин
макушкина
мала
малабо
малава
малави
малады
малаи
маласа
маластонь
малат
мали
малькин
мальта
малюмат
мама
ман
манагуа
манила
мантияц
мапуто
маракаи
мари
марибор
марино
маринь
мариуполь
мария
марк
марка
марко
марков
марковста
марнек
марокко
марс
марса
марстонь
марсэль
март
мартста
мархта
мархтонза
мархтост
мархтот
марына
маряи
марія
маскаев
масляев
масср
мастор
масторга
масторкитьксонза
масторкитькссна
масторкс
масторлангонь
масторлангса
масторлангть
масторонь
масторса
масторста
масторсь
масторть
мастору
масторхне
масторхнень
масэру
математикань
математиксь
материал
материалда
материалов
материалхне
материалхнень
материалхт
материалы
материксь
матеріали
махачкала
машина
машинань
маштоль
маштсть
машты
мбабанэ
мвд
ме
медальса
медельин
медень
медть
медь
межвуз
международнаи
международнои
мезе
мезевок
мезень
мезосферась
мезсь
меки
меколанкт
мекольце
мекольцесь
мексика
мексико
мексиконь
меле
мельганза
мельге
мельдень
мельников
мельничук
мелянзаи
менелень
менельвенежень
менельпе
менельса
меня
мерида
меркури
меркушкин
мес
мест
места
место
метал
метра
метрашка
мехико
мешаваня
мешень
мешкудонкса
мзярда
мзярошка
мзярс
микола
миктерия
милан
милушка
мильонда
мильоншка
министерства
минскои
минуле
минь
мирдец
мирсь
мирть
митка
митриев
митрополитсь
мифнень
мифология
мифологиянь
мифологияса
мифологиясь
михаи
михаил
мишанин
мишанина
мишендема
мишина
мла
млаошсь
млась
млат
млекопитающих
мм
мне
многоголосные
мо
могадишу
могиле
мода
модакучкастонь
модань
модас
модаса
модась
модати
модатнень
модать
можно
мозамбик
мои
мокш
мокша
мокшавать
мокшан
мокшански
мокшанскии
мокшанско
мокшанского
мокшанском
мокшекс
мокшень
мокшесь
мокшет
мокшетзянь
мокшетне
мокшетнень
мокшеть
мокши
мокшии
мокшин
мокшина
мокшони
мокшонь
мокшэрзянь
мокшэрзятне
мокшэрзятнень
молдавская
молдова
молема
молемс
моли
молихть
молодая
молоде
мольсть
мольсь
мольф
мон
монако
монархиясь
монастырень
монастырьхнень
монголия
монровия
монрэаль
монтерреи
монтэвидэо
монь
мора
мораи
морама
морамань
морамась
морась
морафтома
мордва
мордвась
мордватнень
мордвать
мордве
мордвин
мордвы
мордкниизд
мордов
мордовии
мордовия
мордовиянь
мордовияса
мордовиястат
мордовиясь
мордовиять
мордововского
мордовская
мордовские
мордовскии
мордовских
мордовско
мордовского
мордовское
мордовскои
мордовскяи
морони
моронь
морот
моротнень
мороть
морсесть
морсесь
морсь
морфемикась
морфологиясь
морфологиять
моря
морять
москва
моску
москувонь
москуву
москунь
москуса
мот
моэм
мр
мс
музеи
музыка
музыкальная
музыкальное
музыкальнои
музыкальные
муниципальным
муниципальных
муравье
муствеэ
мцхэта
мъзярда
мъзярошка
мърдась
мыколаив
мытищи
мьянма
мэдээллии
мэн
мэнсфилд
мяленц
мялень
мялец
мяль
мяльс
мяльса
мяльть
мялямгудса
мялямсь
мяляфневсь
мянь
мярьге
мярьгихть
мярьгоманц
мярьгсть
мярьк
міст
міста
місто
мәғлүмәт
н
на
над
надежда
надежин
надеи
надстир
надю
названия
наи
наличного
наличное
налкхись
налхки
налхкись
налхкома
налхкомат
налхксь
нам
намибия
намык
нан
нань
нарва
нарис
нариси
нармонень
нармонь
нармоттне
нармоттнень
нармотть
наровчатского
народа
народнаи
народная
народно
народного
народное
народные
народных
народні
народов
народонь
народть
нароттнень
наручадь
наса
населе
население
населением
населения
населенные
населенных
населення
нась
наталка
нать
наук
наука
наукань
науки
наукова
наукове
науч
научнаи
научно
национализмась
националонь
национальнаи
национальныи
нациясь
начале
начало
наявного
нга
нгаса
нгаста
нгат
нджамэна
ндолпаз
не
неаполь
нед
недерландонь
недерлантт
нек
некрасов
нем
нема
немань
нематне
нематнень
неменцонь
немецонь
неологизмась
нептун
нза
ни
ниамэи
нигэр
нигэрия
нижегородскяи
нижняи
ниигн
никарагуа
николаевич
николаес
николаи
никон
никононь
никосия
никсон
ниле
нилеце
нильгемонь
нина
нинге
нка
нки
нкснень
нкссь
нные
нных
но
нов
нова
новаторствась
новаторство
новая
новгородонь
нови
ново
новонь
новосибирск
новыи
нознавства
нолдави
нолдазе
нолдаи
нолдалезь
нолдама
нолдаманди
нолдамась
нолдась
нолдаф
нолдафкс
нолдафоль
ноляви
номероц
норвегия
норвегиянь
норвегияса
норвегонь
норзяд
норзядонь
норкин
нормативныи
норматне
ноябрьков
ноябрьста
нська
нськии
нськоі
нтш
нты
нуакшот
нури
нъльне
ны
ныи
ныммэ
нь
нью
ньюарк
ньютон
нэ
нэвис
нээлттэи
ню
нюрьхкяня
нюрямонь
ня
няеви
няемс
няи
някань
нярь
нясь
нят
няфневи
няфнесазь
няфнесы
няфтеви
няфтемац
няфтемс
няфти
нәшрияты
о
оао
об
областеи
области
область
областям
області
обозрение
образ
образовании
образованиям
обрядах
обрядовые
обрядовыи
общеобразовательнаи
общеобразовательных
общества
обществань
обществать
общественно
обществознанию
обществознаниянь
общии
обычаи
ович
овкс
огаи
оганн
оганнес
оганнэсбург
огаре
огарева
огаревонь
огъядышетсконъя
од
одась
одговши
одеса
одукс
одэнсэ
одэса
озер
озкс
озксвятиень
озкснень
озксонди
озксонь
озксса
озксста
озкссь
озкст
озксть
озондольхть
озондома
озондсть
озонкшнесть
ои
ока
океаниеса
океанияса
окончательных
округа
округов
оксана
октмо
октябрь
октябрьков
октябрьста
ола
олаи
олег
омба
омбоце
омбоцесь
омбоцети
омонимсь
омонипне
омскои
он
она
онам
онишкис
оннаи
онных
онов
ононь
онорэ
онть
онц
онца
онць
оны
онь
онів
оон
ооо
оп
оперань
опир
описание
орденца
оржа
орк
орксофта
орлов
орлова
орозаень
орозаи
орфофафическяи
орхидея
осадкатне
осака
осе
осенне
осетинонь
осетинскяи
осетия
осло
основа
остап
от
отв
отворени
отворените
отвореног
отд
отделение
отечественнаи
отечественнои
открытых
оттне
отть
оулу
офицалонь
официалонь
официальнои
официальном
официальныи
офтонь
оценка
оцю
оцюведень
оцюведсь
оцюведь
оцюнякс
оцюнясь
оцюняц
оцюсь
оцюфт
оцязор
оцязоравась
оцязорксшись
оцязоронь
оцязорсна
оцязорсь
оцязорть
очерк
очерки
очеркнень
очижинь
очка
ош
ошева
ошекс
ошень
ошкар
ошкя
ошкясь
ошкять
ошне
ошнень
ошса
ошсь
ошти
ошть
оэнсуу
п
па
паасонен
паваз
павлович
павол
пазмора
паи
пак
пакистан
пакся
паксява
паксянь
паксяса
паксять
пакш
паланга
палермо
палестина
палуоя
пальма
пальмас
памятная
памятники
панама
пангеясь
панда
пандонь
паневежыс
панема
панжада
панжи
панцезь
панчф
панчфоль
панчфонза
панчфонь
папуа
пара
парагваи
парацэльс
париж
парламентонь
парма
паронипне
парца
пас
патра
патти
патяи
паулу
пауль
паця
пачат
пачк
пачфни
пачфнихть
педа
педагогиень
пеи
пели
пеликан
пелькс
пельсть
пенз
пенза
пензань
пензенская
пензенскои
пензенскяи
пер
первая
первыи
перень
переписеи
переписи
перепись
период
периодонь
пермень
персиень
перу
перхляи
перьф
перьфканза
перьфпяльть
перяф
перяфкс
пес
песа
песни
песта
петерсон
петерсононь
петр
петро
петров
петрович
петьколец
пец
печатлась
печатлаф
печкольхть
печксесть
пидеф
пиди
пиже
пизелкссь
пизем
пиземсь
пилиппинтне
пильге
пильгонь
пинг
пинге
пингонь
пингоц
пингс
пингста
пингстонза
пингсь
пингти
пингть
пинкнень
пинясов
пирьфса
пирьхтьляи
пирэ
писателень
писатель
питерьбур
питерьбуронь
питни
питтсбург
пицесть
пиче
пишля
пишлясь
платформ
платформа
платформазы
платформаи
платформасы
платформаһы
пловдив
плутон
плятформа
по
побратимени
поверхностных
повлиявшие
поволжскии
поволжья
повсь
повфнесть
повят
под
података
податоци
подгорица
поза
покадии
покаи
покама
покаманза
покаманзон
покаманц
покамась
покамат
покаряв
покась
покодема
покоди
покодихть
покодсь
покш
пол
полафни
полафтыец
полаяи
полга
полгань
полгас
полгаста
полгась
полгать
полень
полисемия
политикань
политикась
политиконь
политиксь
политическяи
политксь
полтава
полу
полубояров
поль
польша
поляков
поляконь
попугаи
пор
порвоо
пори
порт
портал
порталоц
порталсь
порту
португалия
португалонь
посе
поселении
поселения
поселениям
поселкам
поселков
пособие
пособия
постанова
постоянного
постоянных
потапкин
потма
потмоса
потье
поче
почта
почф
поэзии
поэзия
поэзияса
поэзиясь
поэма
поэтическое
пою
появасть
правда
правительстве
прага
празднично
праи
практикум
прама
прашенды
прая
президента
президентонь
президентоц
президентсь
премьер
претория
при
приднестровская
принсипи
природного
про
пробныи
программась
проза
прозаиксь
произведениянза
проссэр
проф
профессиональному
профессор
профессорсь
прохоров
процессонь
процессь
прыстань
пря
прянц
прянь
пряошец
пряошсь
пряс
пряса
пряснон
пряц
пси
псков
птиц
птолемеи
публицистсь
пудин
пула
пунктам
пунктов
пунктуациянь
пунктуациясь
пункты
пуре
пуреш
пурешть
пуромкс
пуромксонь
пуромксс
пуромкссь
пуромксть
пуромкшнесть
пуромкшнесь
пустаи
пустомити
путин
путинизм
путлер
путнезь
путнелезь
путнельхть
путнесть
путозь
путолезь
путольхть
путома
путомац
путомс
путсть
путсь
путф
путфоль
путівник
пциг
пцтаи
пчкафтома
пчкафтысь
пшень
пъцтаи
пъчкафтыкс
пылтсамаа
пьер
пьеса
пэи
пэкин
пэнн
пэру
пюсси
пяк
пяле
пялевень
пялес
пялешарса
пялешинь
пяли
пялькс
пяльксова
пяльксокс
пяльксонза
пяльксонзон
пяльксоц
пяльксса
пялькссонза
пялькссь
пянакуд
пянакудть
пярну
пяршин
пята
пятаош
пяшень
пяшксе
р
ра
раамат
рабат
работа
работась
рава
равань
равжа
равжапанда
равжирень
равонь
равош
радвилишкис
ради
радонежскии
радянська
радянськоі
разбои
разговорник
раздельно
размещение
разрезе
разыскания
раи
ракс
ракшань
ракшась
ракшатнень
рамалла
ран
рана
рассказы
растения
рась
ратне
рать
рахафтысь
рац
рашид
рашызмась
рая
ргада
ргу
революционеронь
революционерсь
региональнои
регионць
ред
редактировать
редактор
редакторкс
редакція
редкол
редколегіі
режисерсь
режиссе
реи
реинкарнациеть
рек
религиозные
респ
респу
республик
республика
республикам
республикань
республикаса
республикась
республикать
республике
республики
республиконь
республикса
республиксь
республикть
ресурсне
ресурсы
ретороманонь
решат
рига
рика
рим
римонь
рио
ричард
ркснень
рма
рмадозе
рмадозень
рмадома
рмадомань
рмадомась
рмадомат
рмадомать
рмадомста
рмадсть
рмадсь
рмады
рмадыень
рмадысь
рматксса
рматкшнесь
рматф
рматфкс
рматфонц
ро
роби
робэрт
рогир
рогожина
родаев
рождения
розань
розасна
розень
рок
рокишкис
року
роли
роман
романонь
романчук
ронга
ронгань
ронь
росарио
россии
россия
россиянь
россияса
россиять
росстат
ростов
росток
рось
рот
роттердам
роштува
роштувань
рср
рсфср
рсь
ртс
ру
руанда
руз
рузаевка
рузанкин
рузвэльт
рузкс
рузмасторонь
рузмасторса
рузмасторть
рузонь
рузск
рум
румыния
рус
русе
руска
русланова
русне
руснень
русская
русские
русскии
русско
русского
русскои
русскяи
руст
рустави
русэ
рут
ручин
рф
рыбкинского
рьба
рьвакс
рьвянять
рьвяяма
рьсян
рэи
рэс
рэспубликась
рязанень
рязань
рялезь
рясь
річок
с
са
сааминь
саамонь
савсь
сад
сазанонь
саи
саитов
сак
сакрамэнто
сакс
саксонь
сал
салават
салазгярьге
салтыков
салтыкова
сальвадор
самбир
самородов
самошкин
самс
сан
сандор
санкт
санта
сантиметра
сантиметрашка
санто
сантьяго
сарагоса
сараево
сараз
саразонь
саранош
сараношень
сараношса
сараношсь
сараношть
саранск
саранские
саранскяи
саратов
саратувонь
састь
сась
сатириксь
сатомшка
сатурн
саты
саудонь
сауэ
саф
сафонова
сашендсть
сашендсь
сб
сбергсь
сборник
сборниксь
свадьба
сведении
сведения
свои
свыше
се
себеж
северного
северо
северодвинскои
севилья
седи
седова
седои
седяма
седямань
седямать
сеи
сел
села
селикса
сельских
сельского
сельское
семантикась
сембе
сембода
сембонди
сембонь
сембось
семботь
сембоц
семинариянь
семьянь
семьяса
сен
сенем
сент
сентябрьков
сентябрьковста
сентябрьста
сер
сербия
сервере
сергеи
сергии
сергу
серень
серес
серец
сери
серии
серия
сермадомань
сермадысь
сесть
сетенень
сетень
сетеньсь
сетьме
сетя
сибаи
сибирскии
сибирского
сибирьса
сиволь
сигнальная
сиде
сидеста
сидоровкась
сил
силезия
силезиянь
силламяэ
симбирень
симбирск
симбирскои
симбирскяи
символоц
симфэрополь
син
сингапур
синди
синонипне
синтаксиссь
синь
сире
сирегрек
сиретьф
сирия
сисем
сисемце
система
системе
сити
сиянь
ск
скалваи
ская
скии
скои
скопье
скрэнтон
скульпторсь
скэррит
скяи
славутич
славутыч
славянонь
слитно
слободского
слов
словакия
словаконь
словарь
словарю
словен
словения
словенияса
слово
служба
слэн
см
смидовича
смила
смирнов
смирновонь
смоліи
смузень
смузсь
смузьсна
смузьшинь
сна
снегире
снина
снярда
со
собственнои
совета
советов
советонь
советскаи
советская
советскяи
современнои
содавикс
содазе
содазь
содаи
содама
содамань
содамась
содаф
содафоль
содафт
содафткя
сокаень
сокаи
сокаль
сокама
соксса
солдатко
солов
сомаи
сомалия
сомэрсэт
сон
сонга
сонетсь
сонза
сонцень
сонць
сонь
сортт
сост
состав
состоянии
состоянию
соткс
соткснень
сотксонь
сотксса
соткссь
соткст
сотксть
сотф
софия
социализмань
социально
социальным
сочи
союз
союза
союзонь
союзти
союзть
спасскяи
спб
спиридонов
списки
список
спортонь
справочник
среди
среднегодовая
среднем
средняи
сср
ссрс
ссср
ссь
ст
ста
ставрополь
стак
стака
сталмода
сталмось
сталмоц
стама
стамбул
стандартонь
стане
станциять
станя
старина
старины
старостась
стат
статбель
статеи
статистика
статистике
статистики
статистическая
статистические
статистическии
статистическое
статистическяи
статистичнии
статьи
статью
статья
ство
степан
стильса
стирец
стирть
стирь
стирьхне
стирьхнень
стихонь
стихотворениянза
стокольм
стор
странички
стратосферась
стрии
строи
стрыи
стяма
стямать
суах
субгруппастонь
субрэгионць
субъектов
субъектсь
суваи
сувасть
сувась
сувсесть
сувсесь
сувси
сувсихть
судан
сузгярьге
сузсь
сукст
сулеи
суматра
сумгаит
суом
суоми
суоминь
сура
сураев
сургут
суринам
суронь
суры
сучасне
сучасноі
сценаристсь
сша
сыктывкар
сын
сь
сьерра
сэнт
сэнэгал
сэул
сюдаска
сюзгари
сюкпря
сюмать
сюнеда
ся
сявозе
сявозь
сявомок
сявомс
сявондсть
сявф
сяда
сядокиза
сядокизонь
сядокизоста
сядокизоть
сядонга
сяка
сяльде
сянгяря
сянди
сянкса
сянь
сярьгеи
сяс
сят
сятко
сятнень
сіл
січня
т
та
табл
таблица
таблицы
таватф
тавцан
тага
таджыкистан
таза
тазь
таи
таиланд
так
такеси
таллин
таллинн
тамб
тамбов
тамбовского
тамбовскяи
тампэрэ
тан
танзание
танзания
тарав
тарадоц
тарадса
тарадсь
тарбеень
тарбеи
таргама
таргонь
таргоши
тарксемась
тарнамась
тарту
тартунь
тасть
тась
тат
татар
татаронь
татарско
татарстан
татархне
татархнень
татархт
татьяна
татю
тафневоль
тафневсть
тафневсь
тафнесть
тафтксоц
тафтовсь
тафтозе
тафтома
тафтомась
тафтомс
тафтф
тафтфоль
тафтысь
ташкэнт
тбилиси
тверь
твк
творчество
творчеству
творчості
творчість
те
театр
театрань
театраса
театрась
тебе
тебя
тев
тевлафне
тевонь
тевс
тевса
тевсь
тевть
теенза
теест
теи
текст
тексттне
тель
темникав
темникавонь
темникованнекс
темяшевась
теньгжелень
теодор
терминов
терминология
терминонь
термосферась
тернопіль
тернопільська
тернопільщина
территориальное
территориальных
территориять
терюхаттне
терюшевань
тефне
тефнень
тефт
техникт
ти
тиеви
тиевома
тиевомасна
тиевсь
тиезе
тиезь
тиельхть
тиема
тиеманц
тиемс
тиендевсть
тиендевсь
тиендезь
тиендельхть
тиендема
тиенди
тиендсть
тии
тиись
тиихть
тимофеевич
тинь
тип
типа
типография
типографиясь
тирана
тирасполь
тись
тиф
тифоль
тифт
тише
тишень
ткова
тконь
ткс
ткса
тксост
ткста
ткть
ткши
тлумач
тналоннетнень
то
тобаго
тов
того
тоза
токио
тол
толку
толонь
том
томас
томах
томбунь
томса
томсь
томэ
тон
тона
тонадома
тонадомань
тонадоматнень
тонатф
тонафнезе
тонафнема
тонафнемаксонь
тонафнемань
тонафнемаса
тонафнемваста
тонафнемвастса
тонафнемста
тонафнесыне
тонафнесь
тонафниец
тонафтома
тонафтомань
тонафтомат
тонафтф
тонафты
тонафтыень
тонафтыкс
тонафтысь
тонь
топонимическому
торама
торонто
торпингонь
торпингста
торпингта
тоса
тр
традиуиятне
традиции
традиционнои
традиционные
традиционных
тракаи
трваса
тринидад
триполи
трнава
трои
тронько
тропиконь
тропосферась
трудовои
труды
трускавець
трускавэць
тряи
тсь
тувонь
тувот
тувотнень
тукумс
тунда
тундань
тундась
тунис
тунисия
тур
турецкая
турин
турка
туркамастор
туркамасторса
туркань
туркмэнистан
турконь
туркс
турку
турци
тусон
тусть
тусь
тц
тъналонь
тъналса
тъналста
тъналстонь
тъналсь
тъналть
тървава
търваса
ты
тысяч
тысячи
ть
тэгусигальпа
тэгэран
тэодор
тэрнопиль
тэсалоники
тюжя
тюремань
тюремась
тюри
тюсонь
тюсса
тюссонь
тюссь
тюштень
тюштя
тюштянь
тя
тяда
тядянц
тядяц
тяза
тяи
тяка
тялонда
тялонь
тялось
тяни
тянивок
тяниень
тянкса
тянь
тяньцзинь
тяса
тяста
тястонь
тят
тяфта
тяфтама
тячемс
тячиень
тяшкс
тяшкста
тяште
тяштезе
тяштема
тяштеналсь
тяштень
тяштеня
тяштенятне
тяшти
тяштись
тяштсь
тяштть
тяштьксонзон
у
уганда
угор
угорских
угорскяи
угрань
угров
угронь
удм
удмурт
удмуртском
удыскылъе
удэ
уезда
уезде
уездов
уездонь
уезонь
ужгород
ужеса
узбекистан
уи
указ
указан
указатель
укр
украина
украинаса
украинка
украинонь
украинца
украины
украі
улаанбаатар
улан
уле
улеза
улель
улема
улемась
уленди
улендихть
ули
улихть
ульсть
ульсь
ульцяв
ун
унгэни
университет
университета
университете
университетов
университетонь
университетса
университетть
университету
упоряд
управление
уптмн
урал
урала
уралонь
уралья
уран
уре
урмаста
урср
уругваи
усад
усксесть
устно
усьтэм
утворення
утилитась
утяма
уфаева
уфаи
уфамса
ухань
уча
уче
учеб
учебнаи
учебное
учен
учимся
учителя
ушедомс
ушедсть
ушедсь
ушедфоль
ушеды
ушедыец
ушеса
ушесь
ушетксокс
ушетксоц
ушетксста
ушетфоль
ушетфтоль
ушмовятись
ушмонц
ушмонь
ушмось
уштефоль
уштефтоль
уэльс
ф
фаи
фаик
факторы
фалу
фараонсь
фареронь
фасо
фаунань
фашизмась
фе
февральков
февральковста
февральста
федеральная
федеральныи
федеральных
федерациень
федерациеса
федерациеть
федерации
федерациянь
федерациясь
федор
феоктистонь
фернан
фернандель
феррара
фз
физикань
физикась
физиконь
физиксь
физиологиясь
физических
филиппин
филологиень
филологии
филологические
филологическии
филологиянь
философсь
фильм
фильмань
фильмонь
финансы
финно
финскяи
фкат
фкс
фкснень
фкст
фксть
фкя
фкянди
фкянь
фкясь
флорэнция
фо
фолклэндонь
фолкнэр
фольклор
фольклорно
фольклорных
фольклоронь
фольклорсь
фольклорть
фон
фонетикась
формась
формац
фотоархтофкст
фр
франка
франкивскои
франклин
франко
франкфурт
франци
франции
франциско
франциянь
французонь
франчэско
фридрих
фритаун
фси
х
хаи
ханои
харкив
хартум
хашури
хеи
хельсинки
херцеговина
хи
химиксь
химических
химиянь
хне
хненди
хнень
хо
хозяи
хопра
хор
хорватия
хосе
хочу
хошимин
храми
хть
художествань
художественнаи
художественная
хуст
хх
хэи
хэрсон
ц
ца
цария
цариянь
царонь
це
цебярь
цебярьда
центр
центра
центральное
центральныи
центрать
центров
церькав
церькавонь
церькавсь
цзинань
цивилизация
циклонць
циле
цилеши
циликин
цинь
цсу
цхалтубо
цыганкин
цьк
ця
цянь
цярахманць
ч
чад
час
часть
че
чебоксары
человек
челяба
челябинского
чемпионць
ченстохова
черапкин
черапонь
через
череповец
черимои
черногория
черняев
чернівці
четнаи
чех
чехия
чехмастор
чехмасторса
чехонь
чеш
чиатура
чикаго
чили
чисельність
численности
численность
численностью
число
чон
чорноморськ
чорткив
что
чуважень
чувашскии
чувашско
чудотка
чхи
чэнду
чэрнивци
ш
шабан
шабань
шабат
шабатне
шабатненди
шабатнень
шаблон
шабра
шабрань
шабрац
шава
шавф
шавфоль
шавши
шадым
шанхаи
шарль
шарфнесь
шарфни
шары
шарыхть
шарьхкодеви
шахматов
шахов
шач
шачема
шачеманц
шачемань
шачемас
шачи
шачсть
шачсь
шваи
швед
шведмастор
шведмасторса
шведонь
швеи
швеции
швеция
шевченка
ши
шивалгом
шивалгомань
шивалгомширенди
шивалгомширень
шивалгомширеса
шида
шиндяев
шинь
шиньмадомаширень
шиньстяма
шиньстямаширень
шиня
ширде
ширдень
ширенц
ширень
ширес
ширеса
ширесонза
ширесь
ширец
шири
ширманкина
шиста
шистонза
шистяма
шистямань
шистямаширень
шистямаширеса
шистямширеса
шись
шит
шити
шитнень
шить
ших
шка
шкаенди
шкаень
шкаи
школ
школа
школаослы
школаса
школатненди
школать
школьнаи
школьная
школьныи
шнама
шнаф
шобда
шобдава
шокшет
шон
шоръе
шотландонь
шпицбэргэн
шра
шри
штатолть
штатсь
штаттне
што
штоба
шуваланя
шуваня
шудемац
шуди
шукшин
шумбра
шумбраши
шумэн
шуроста
шуфта
шуфтонь
шуфтста
шуфтсь
шуфттнень
шяи
шять
шяхярень
шяяи
щам
щамса
щамсна
щанкина
щедрин
щедрина
що
ъ
ърьвянять
ърьвяяма
ы
ыгэва
ыхви
ыэсуу
ь
э
эвондаи
эвондасть
эвондась
эгипт
эдгар
эдда
эди
эжен
эзга
эзда
эздонза
эздост
эзраи
эи
эквадор
экваториянь
экваторсь
экз
экзосферась
экологиясь
экономикань
экономикась
экономиконь
экономическим
экономических
электрононь
электроулав
элементсь
эли
элизабэттон
эль
эмиратне
эндрю
энциклопедие
энциклопедиеса
энциклопедическии
энциклопедия
энциклопедиясь
эняльдельхть
эняльдсть
эрек
эрз
эрзень
эрзи
эрзя
эрзяи
эрзякс
эрзяля
эрзянски
эрзянскии
эрзянь
эрзят
эрзятне
эрзятнень
эрзять
эритрэя
эрь
эрьгя
эрьзя
эрьзянь
эрьхке
эрьхнезь
эряви
эрявикс
эрявикст
эрявихть
эряволь
эряи
эряма
эрямань
эрямопингонц
эрямопингонь
эрямопингоц
эрямопингсь
эрясть
эрясь
эряф
эряфонц
эряфонь
эряфоц
эряфса
эряфсь
эряфть
эса
эсватини
эсонза
эспоо
эст
эста
эстеи
эсти
эстинь
эстокиге
эстонии
эстониянь
эстононь
эсь
эсьнень
эсьотям
этимологические
этимологиясь
этиопия
этно
этногенезсь
этнографиень
этнографии
этнографические
этнографическии
этнографическяи
этнографиясь
этнографсь
этнологиясь
этноса
этноссь
эуразиясь
эуропонь
эуропса
эчке
ээсти
ю
юбилеи
ювяскюля
юго
юдина
южного
южныи
юмаи
юмась
юн
юнеско
юпитерь
юр
юридического
юрии
юрмала
юромста
юромсь
юронза
юронь
юроц
юрс
юрста
юрхтава
юріи
я
ябиру
ява
явас
явоманц
яворив
яворів
явропань
явропонь
явропса
явропу
яз
язык
языка
языке
языков
языковои
як
якаи
якама
якасть
якась
яковлев
яковлевич
якстерь
яку
якутии
якшама
ялгаксшинь
ям
ямаи
ян
январь
январьгов
январьковста
январьста
января
яненко
янош
яп
японмастор
япононь
япунмастор
япунонь
ярмак
ярмакне
ярмаконь
ярмакт
ярослав
ярославль
ярхцама
ярхцамбяль
ярхцамбяльс
ярхцси
ять
є
і
іван
івана
ігор
іл
ім
імені
ін
інститут
історико
історія
історіі
բաց
շտեմարան
տվյալների
ְ
ִ
ר
ا
الجزاي
الجمهورية
المملكة
اوپن
ج
جمهورية
ر
فارم
َ
ٓ
ٔ
ٕ
پلیٹ
ڈیٹا
भ
ा
्
ং
দ
ব
ল
শ
া
ে
্
க
ட
ி
ு
்
་
ག
ལ
ུ
ྲ
င
န
မ
ာ
ု
ေ
်
ြ
ა
გ
გვ
და
ენციკლოპედია
ვ
ზ
თ
თბ
თბილისი
ლ
მ
მონაცემები
პლატფორმა
საბჭოთა
საქართველო
საქართველოს
ტ
ქართული
ღია
შ
ც
წ
წყალტუბო
ჯ
ჯაოშვილი
ជ
ព
រ
ា
្
​
‎
‐
–
—
‘
’
“
”
„
†
•
…
‪
′
№
↔
↷
−
③
④
⑦
─
ⴰ
ⴳ
ⴷ
ⴻ
ⵉ
ⵎ
ⵏ
ⵓ
ⵔ
ⵜ
ⵢ
ⵣ
⺀
⺄
⺆
⺈
⺊
⺌
⺕
⺝
⺸
⺼
⿰
⿱
⿲
⿳
⿴
⿵
⿶
⿷
⿸
⿹
⿺
⿻
々
〢
あ
た
ち
の
ひ
゙
カ
コ
ユ
㇁
㇂
㇄
㇇
㇈
㇉
㇓
㐁
㐄
㐅
㐌
㐫
㐬
㐭
㐮
㐱
㑒
㒵
㒸
㒼
㓁
㓞
㔾
㕛
㕣
㖾
㘝
㚅
㚇
㚔
㚘
㝉
㝡
㝴
㝵
㞋
㞢
㞷
㠩
㠭
㠯
㡀
㡭
㡿
㢲
㢴
㣇
㣺
㥯
㪅
㫄
㫐
㫒
㫺
㬅
㬎
㬥
㬰
㲋
㳄
㷠
㸒
㸚
㸦
㼌
㼲
㽞
㿟
䀠
䂞
䍃
䏍
䒑
䖍
䖒
䖝
䖵
䙴
䚻
䜌
䝿
䡛
䧹
䪞
一
丁
丂
七
丄
丅
丆
万
丈
三
上
下
丌
不
与
丏
丐
丑
专
且
丕
世
丘
丙
业
东
丞
丢
丣
两
严
並
丨
丩
个
丫
丬
中
丮
丰
丱
串
丵
丶
丷
丸
丹
为
主
丽
丿
乀
乂
乃
久
乆
乇
么
义
之
乌
乍
乎
乏
乐
乑
乔
乖
乗
乘
乙
乚
乛
乜
九
乞
也
习
乡
乳
乾
亀
亅
了
亇
予
争
事
二
亍
于
亏
亐
云
互
亓
五
井
亘
亚
亜
亞
亟
亠
亡
亢
交
亥
亦
产
亨
亩
享
京
亭
亮
亯
亰
亲
亳
亶
亷
人
亻
亼
亾
仁
今
介
仌
从
仐
仑
仒
仓
仕
他
付
仝
代
令
以
仮
任
企
伊
伏
伐
休
会
伯
但
位
何
佘
余
作
佥
使
來
侈
侌
侖
供
侯
侵
便
保
俞
信
修
倉
倍
候
倠
備
僉
僕
儿
兀
允
兂
元
兄
充
兆
兇
先
光
兊
克
兌
免
兑
兒
兓
兔
党
兜
兟
入
全
兩
兪
八
公
六
兮
兰
共
关
兵
其
具
典
兹
兼
冀
冂
冃
冄
内
冈
冉
冊
冋
册
再
冎
冏
冐
冒
冓
冖
冗
冘
军
农
冝
冡
冥
冫
冬
冷
几
凡
凢
凵
凶
凷
凸
凹
出
函
凾
刀
刁
刂
刃
刄
刅
分
切
刍
刑
刕
刖
列
刘
则
初
別
利
别
到
制
刺
則
削
剌
前
剡
剽
劉
力
功
加
劦
助
劫
劳
劵
勃
勇
勉
勒
動
務
勞
勤
勹
勺
勻
勾
勿
匀
匂
包
匆
匈
匊
匋
匍
匕
化
北
匚
匝
匡
匪
匱
匸
匹
区
医
匽
匿
區
十
卂
千
卄
卅
卆
升
午
卉
半
卌
华
卑
卒
卓
单
卖
南
卜
卝
卞
占
卡
卢
卣
卤
卦
卩
卪
卬
卯
印
危
即
却
卵
卷
卸
卻
厂
厃
厄
历
厈
厉
厌
厓
厘
厚
原
厤
厥
厨
厭
厲
厶
厷
厸
去
厼
厽
叀
参
參
叅
又
叉
及
友
双
反
叐
发
叒
叔
叕
取
受
叚
叜
叟
口
古
句
另
叩
只
召
可
台
叱
史
右
叵
号
司
叹
吂
各
吅
合
吉
吊
吋
同
名
后
吏
向
吕
君
吝
吞
否
含
启
吳
吴
吹
吾
呂
呆
呈
告
员
呙
周
命
咅
和
咎
咠
咢
咨
咸
咼
哀
品
哉
員
哥
哲
唐
商
啇
問
啚
啬
啻
善
喜
喬
單
喿
嗇
噩
嚴
囊
囗
囘
囙
囚
四
回
囟
因
囧
囬
困
囱
囷
固
国
圂
圅
國
圍
圓
土
圡
圣
圥
在
圭
地
圶
圼
坐
坒
坚
坡
坴
垂
垔
垚
埀
埋
埶
執
基
堂
堅
堆
堇
堯
塞
墨
壘
士
壬
壯
声
壳
壴
壹
壺
壽
夂
处
夅
夆
备
夊
夋
夌
复
夏
夒
夕
外
夗
夘
多
夜
夢
大
夨
天
太
夫
夬
夭
央
失
夲
头
夷
夸
夹
夻
夾
奂
奄
奇
奈
奉
奎
奏
奐
契
奓
奔
奚
奞
奠
奢
奥
奭
女
奴
奻
好
如
妄
妙
妟
妥
妻
妾
姑
委
姜
威
娄
婁
婴
嬰
嬴
子
孑
孔
孕
孖
字
存
孚
孛
孝
孟
季
孤
学
孫
孱
學
宀
宁
宂
它
宅
宇
守
安
宋
完
宏
宓
宗
官
定
宛
宜
宝
客
宣
室
宮
宰
害
家
容
宾
宿
寄
寅
密
富
寒
察
寧
審
寫
寬
寮
寸
对
寺
寻
寽
対
寿
封
尃
射
将
將
專
尉
尊
尋
尌
對
小
少
尒
尓
尔
尖
尗
尚
尞
尢
尣
尤
尧
尨
尭
就
尸
尹
尺
尻
尼
尽
尾
尿
局
居
屈
屋
屎
屏
屑
展
屖
屚
属
屠
屡
屬
屮
屯
屰
山
屵
屾
岁
岂
岑
岡
岩
岳
岸
峯
島
崇
崑
崔
崖
崙
崩
嵬
嶲
巂
巛
川
州
巟
巠
巢
巤
工
左
巧
巨
巩
巫
差
己
已
巳
巴
巷
巸
巽
巾
巿
帀
市
布
希
帚
帛
帝
带
師
席
帶
常
干
平
年
幵
并
幷
幸
幺
幻
幼
幽
幾
广
広
庄
床
底
店
庚
府
度
庫
庭
庶
康
庸
廉
廌
廛
廣
廩
廴
延
廷
建
廾
廿
开
弁
弃
弄
弇
弋
式
弓
弔
引
弗
弘
弜
弟
弥
弦
弱
張
強
强
彊
彌
彎
彐
彑
当
彔
录
彖
彗
彡
形
彥
彦
彧
彭
彳
役
彼
往
待
律
徒
得
徙
從
復
微
徵
心
忄
必
忌
忍
志
忝
忠
忩
快
念
忽
忿
思
怠
急
怱
恆
恒
恩
恭
息
悉
患
悤
悲
悶
惠
惡
惢
愁
愈
意
愛
感
慈
慧
慮
憂
憲
應
戀
戈
戉
戊
戋
戌
戍
戎
成
我
戒
戔
或
戚
戠
戢
截
戲
戶
户
戹
戼
戾
房
所
扁
扇
手
扌
才
打
托
执
承
折
拉
拜
拿
掌
推
提
摩
支
攴
攵
收
攸
改
放
政
敄
敏
敕
敖
敗
敝
敞
敢
散
敦
敫
敬
数
敷
數
斂
文
斉
斊
斗
斤
斥
斩
斬
斯
新
方
於
施
斿
旁
旋
族
无
旡
既
旣
日
旦
旧
旨
早
旬
旱
旲
时
旾
昆
昇
昌
昍
明
昏
易
昔
昗
昜
星
春
昬
是
昱
昴
昷
時
晃
晋
晏
普
景
晶
智
暑
暴
曇
曩
曰
曲
曳
更
曷
書
曹
曼
曾
替
最
朁
會
月
有
朋
服
朔
朕
朗
望
朝
木
朩
未
末
本
札
朮
术
朱
朵
朶
朿
杀
杏
杜
束
条
来
東
杲
杳
松
析
林
枚
果
枝
枲
枼
某
柔
查
柬
柰
柴
栗
桀
桑
桼
梁
條
梟
梨
棘
棠
棥
森
楚
業
楽
概
榮
樂
樊
欠
次
欣
欮
欲
欶
欽
款
歆
歇
歛
止
正
此
步
武
歨
歪
歮
歯
歰
歲
歴
歷
歸
歹
歺
死
殳
段
殷
殸
殹
殺
殻
殿
毋
毌
母
每
毒
比
毕
毚
毛
毳
氏
氐
民
气
氣
水
氵
氶
氷
永
氺
氾
求
汝
汞
江
沃
沓
沙
沝
泉
法
波
泣
泥
泰
洛
洪
活
派
流
浦
浪
浮
淡
淮
清
渚
渠
湯
滿
漸
火
灬
灭
灰
灵
灷
炅
炎
炏
炗
炙
炭
為
烈
烏
烝
焉
無
焦
焱
然
煞
熊
熏
燕
營
燮
爪
爫
爭
爯
爰
爱
爲
爵
父
爻
爽
爾
爿
片
牙
牚
牛
牜
牟
牢
牧
牪
牽
犀
犬
犭
犮
狂
狄
狊
独
狺
猋
猒
猪
献
獻
玄
率
玉
王
玟
玨
珎
班
琴
瑟
瑩
瓜
瓦
甘
甚
生
産
用
甫
甬
田
由
甲
申
电
甶
男
甸
甹
画
甾
畀
界
畏
畐
留
畜
畟
畢
畧
畨
番
畫
異
畱
當
畺
畾
疊
疋
疌
疑
疒
疾
癶
癸
癹
登
發
白
百
皀
皃
的
皆
皇
皋
皐
皕
皮
皷
皿
盃
盆
盇
盈
益
盍
盎
监
盒
盖
盛
盡
監
盤
盧
目
直
相
盾
省
眇
眉
看
眔
眞
真
眷
眼
眾
着
睘
睪
睿
瞏
瞢
瞿
矍
矛
矞
矢
矣
知
矦
短
石
破
碎
磊
磨
示
礻
礼
社
祟
票
祭
禀
禁
禸
禹
禺
离
禽
禾
禿
秀
私
秃
秉
秋
科
秝
秦
移
稟
穀
穌
穴
究
穹
空
穿
突
窄
窒
立
竒
竜
竝
竟
章
童
竹
笑
笠
筆
等
答
箕
算
箴
節
篤
篭
米
粉
粛
粟
粤
粦
粲
糞
糸
糹
系
約
納
素
索
紫
累
細
絜
絫
絲
維
綿
縣
繇
纍
纟
缶
网
罒
罔
罕
罗
罙
罡
罢
罪
署
罷
羅
羊
羌
羍
美
羔
羕
羗
羞
羡
羣
群
義
羲
羸
羽
翁
翏
習
翕
翟
翠
翼
老
耂
考
者
耆
而
耎
耑
耒
耳
耴
耶
耷
聂
聊
聖
聚
聶
聿
肀
肃
肅
肉
肖
肙
肥
肩
肯
育
肴
胃
背
胡
胥
能
脊
脩
膚
臣
臤
臧
自
臬
臭
臯
臱
至
致
臺
臼
臽
臾
臿
舀
舂
舄
與
興
舉
舌
舍
舛
舜
舞
舟
般
艮
良
色
艸
艹
艾
芒
芔
芬
芮
花
芳
芺
芻
苔
苗
苟
若
苦
英
茶
茸
荅
草
荒
荣
荼
莆
莧
莫
莽
菆
菊
菐
華
萬
落
葉
著
葛
董
葵
蒙
蒦
蒼
蓋
蓬
蓺
蔑
蔡
蕉
蕭
薄
薛
薦
薰
藍
藏
藥
蘭
虍
虎
虐
虒
虔
處
虖
虗
虘
虚
虛
虜
虞
虫
虽
蚤
蚩
蜀
蜜
蟲
蠡
血
行
衍
衛
衣
衤
表
衮
衰
袁
袞
褭
褱
襄
襾
西
覀
要
覃
見
規
覓
覧
親
覽
见
角
解
言
訁
訇
計
詹
誩
諸
讠
谷
豆
豈
豊
豐
豕
豖
豙
象
豦
豩
豪
豸
貇
貝
貞
貟
負
貢
貧
貪
貫
責
貳
貴
買
費
賁
資
賈
賏
賓
賔
賛
賞
賢
賣
質
賴
贊
贝
贡
责
贯
贲
贵
赖
赞
赤
赦
走
越
足
路
蹇
身
躬
車
軍
軎
軟
輦
车
辛
辜
辟
辥
辰
辱
農
辵
辶
边
达
过
近
连
迷
追
退
送
逆
逐
通
速
造
逢
連
逮
進
遀
遂
過
道
達
遣
適
遷
遺
邊
邑
邕
那
邦
邪
郎
部
郭
都
鄉
酉
酋
配
酓
釆
采
里
重
野
量
金
釒
錢
钅
長
镸
长
門
閃
閉
開
閏
閑
閒
間
閔
閵
閻
闌
门
间
闷
阑
阜
阝
阿
降
陳
隆
隊
隋
隡
隨
隱
隶
隹
隺
隻
隼
隽
难
雀
雁
集
雈
雋
雍
雐
雔
雙
雚
雜
雝
離
難
雨
雩
雪
雲
零
雷
需
霍
霜
霝
霞
霸
靈
靑
青
非
靡
面
靣
革
韋
韦
韭
韯
韱
音
頁
頃
項
須
頗
頡
頻
顛
页
風
风
飛
飞
食
飠
養
饣
首
香
馬
馮
駦
马
骨
高
髟
鬥
鬯
鬲
鬼
魚
魯
鮮
鱼
鲁
鳥
鳳
鸟
鹵
鹿
麃
麗
麥
麦
麻
黃
黄
黍
黎
黑
黒
黨
黹
黽
黾
鼎
鼓
鼠
鼻
齊
齋
齐
齒
齿
龍
龙
龜
龟
龠
龰
龱
龴
龵
龶
龷
龸
龹
者
艹
︠
︡
？
𠀁
𠀃
𠀆
𠀉
𠀎
𠀐
𠁁
𠁣
𠂆
𠂇
𠂈
𠂉
𠂊
𠂋
𠂎
𠂒
𠂔
𠂛
𠂡
𠂢
𠂤
𠂬
𠂭
𠂹
𠃊
𠃋
𠃌
𠃍
𠃎
𠃑
𠃓
𠃔
𠃜
𠄌
𠄎
𠄠
𠄢
𠆢
𠆥
𠇍
𠈌
𠌵
𠓜
𠔉
𠔥
𠔼
𠔽
𠔿
𠕀
𠕁
𠕋
𠘧
𠘨
𠙻
𠙼
𠚏
𠚒
𠚤
𠚪
𠣏
𠤎
𠤕
𠥓
𠦄
𠦑
𠦝
𠧒
𠧗
𠧪
𠩺
𠪚
𠫓
𠫔
𠫤
𠬛
𠬝
𠬞
𠬢
𠬤
𠬶
𠮛
𠮦
𠮷
𠯑
𠱠
𠳮
𠷎
𡈼
𡉀
𡉵
𡌥
𡍮
𡏳
𡕒
𡕩
𡕰
𡖅
𡗗
𡗜
𡘆
𡘤
𡧱
𡨄
𡩧
𡬠
𡭽
𡰣
𡰥
𡰪
𡰯
𡰱
𡷈
𡸁
𡿨
𡿩
𡿪
𡿺
𢀖
𢀛
𢀩
𢁙
𢆉
𢆰
𢆶
𢇁
𢇇
𢉖
𢌬
𢌿
𢏚
𢑑
𢑚
𢖻
𢙣
𢛳
𢦏
𢦒
𢧵
𢼄
𢾕
𣁋
𣄼
𣅀
𣅽
𣍘
𣎳
𣎵
𣏋
𣏼
𣗥
𣥂
𣥖
𣦵
𣦼
𣧄
𣪊
𣪠
𣬉
𣳾
𣶒
𤇾
𤊽
𤐫
𤓰
𤔔
𤕨
𤣩
𤰇
𤰔
𤰞
𤴓
𤴔
𤽄
𥁑
𥁕
𥃦
𥃩
𥃭
𥇡
𥑟
𥘅
𥘈
𥝢
𥫗
𥱡
𦈢
𦉪
𦉬
𦉼
𦍌
𦍒
𦎧
𦐇
𦓔
𦔮
𦘒
𦙃
𦚏
𦣝
𦣞
𦣻
𦥑
𦥔
𦥯
𦨉
𦭝
𦰩
𧆞
𧈧
𧘇
𧰨
𧴪
𧴮
𧵩
𧾷
𨸏
𨾴
𩙿
𩠐
𩫏
𩵋
𪉷
𪜀
𪟽
𪠲
𪩲
𫇦
𫔭
𫜸
𫝀
𫠣
𫠩
𫢉
𫥞
𫩏
𫩠
𫪡
𫲽
𫶧
𬀷
𬐘
𬗌
𬙙
𬛸
𬜯
𬟩
𬯁
𬴘
𬺻
𬼉
𬼖
𭀰
𭁈
𭁨
𭅰
𭑈
𭕄
𭗼
𭤨
𭥫
𭻾
𮅕
𮊿
𮍌
𮍏
𮓗
𮥼
𮧮
廾
𰀁
𰀄
𰀈
𰀉
𰀕
𰀠
𰀡
𰀢
𰀪
𰁜
𰃮
𰆊
𰆘
𰋙
𰕎
𰢴
𰧭
𰯲
00--
01--
03--
04--
05--
06--
12--
16--
17--
18--
33--
34--
37--
40--
43--
44--
46--
47--
53--
54--
55--
56--
59--
62--
69--
70--
71--
73--
74--
76--
77--
78--
79--
80--
81--
82--
83--
84--
85--
86--
87--
88--
89--
90--
978--
99--
a--
abb--
aber--
ac--
acro--
acum--
ad--
aden--
af--
al--
albo--
ale--
ali--
all--
alp--
am--
amaz--
an--
and--
anfr--
angu--
anta--
anth--
anthro--
app--
ar--
aris--
as--
asu--
at--
atro--
au--
auricu--
aus--
aust--
ave--
b--
ba--
bapt--
bar--
be--
ber--
biblio--
bic--
bif--
bin--
bino--
bio--
bl--
bo--
bor--
br--
brach--
bre--
brevi--
broo--
bu--
bur--
c--
ca--
cald--
cale--
cam--
can--
car--
card--
cari--
carno--
cau--
ce--
cen--
centr--
ch--
cha--
chan--
char--
che--
chel--
chlo--
chrys--
ci--
cinna--
circ--
cla--
co--
coc--
coch--
coel--
coelog--
com--
con--
cond--
cong--
const--
conve--
cor--
cord--
cras--
crassi--
crassif--
cre--
cri--
criti--
cro--
cu--
cucum--
cy--
cyc--
d--
da--
dacty--
de--
di--
dict--
diffe--
dipl--
dis--
disc--
dist--
dnipro--
do--
doli--
dow--
dr--
dra--
du--
dur--
dyna--
dz--
e--
ebur--
ec--
ed--
ei--
ek--
el--
ele--
elec--
elon--
em--
en--
enc--
end--
eng--
ensif--
ephipp--
epidemi--
es--
esp--
eth--
eu--
eura--
eve--
ex--
ey--
f--
fa--
far--
fas--
fau--
fe--
fer--
fi--
fitz--
fl--
fla--
flor--
fon--
for--
fos--
fou--
fr--
fu--
func--
g--
ga--
gal--
ge--
geme--
geo--
gio--
gle--
glo--
go--
gr--
gra--
gracil--
gu--
guil--
h--
ha--
har--
has--
haw--
he--
hea--
hel--
her--
hir--
ho--
hr--
hu--
hum--
hy--
i--
iden--
ig--
im--
imag--
in--
inns--
inte--
inter--
intr--
inve--
io--
ir--
is--
isa--
it--
iz--
j--
ja--
japo--
je--
jen--
jes--
ji--
jo--
ju--
jyva--
k--
ka--
kal--
kar--
ke--
ki--
kle--
ko--
koha--
kra--
ku--
kun--
ky--
l--
la--
lam--
lance--
lati--
lau--
lc--
le--
lept--
les--
leu--
li--
lim--
lo--
lu--
lud--
lv--
m--
ma--
mac--
macro--
macu--
mad--
mag--
magni--
mam--
man--
mar--
mat--
mau--
mc--
me--
measu--
mech--
med--
mela--
mer--
mi--
micro--
mil--
min--
minu--
mo--
mob--
mon--
monte--
mor--
mord--
mordw--
mu--
mucro--
mult--
my--
n--
na--
ne--
neo--
ng--
ni--
nigr--
no--
nor--
north--
nq--
nu--
o--
obl--
oc--
och--
od--
ol--
oli--
om--
on--
one--
op--
or--
os--
ou--
p--
pa--
pachy--
pan--
papu--
pas--
pe--
pen--
per--
peti--
ph--
philos--
pho--
pin--
pio--
pir--
pl--
platy--
po--
pobr--
pod--
pol--
por--
pos--
pot--
pou--
pr--
pra--
prae--
pre--
pri--
pro--
przemy--
pseudo--
pu--
pulch--
punc--
pup--
q--
quis--
r--
ra--
radym--
rain--
rand--
rap--
re--
recon--
recu--
reg--
rein--
rho--
ri--
rid--
ro--
roch--
rog--
rost--
ru--
s--
sa--
sac--
sam--
san--
sc--
scand--
sch--
schu--
se--
ser--
serru--
sha--
she--
shu--
si--
sig--
sik--
sim--
six--
sm--
so--
soli--
sp--
spat--
spathu--
st--
sta--
staat--
stadt--
staedte--
sten--
stu--
su--
sub--
sw--
sylv--
symbo--
t--
ta--
tai--
tau--
te--
tech--
tect--
tele--
ter--
th--
thom--
ti--
tigr--
to--
tor--
tr--
tra--
trans--
tre--
tri--
tric--
tti--
tu--
tubercu--
tur--
u--
um--
un--
unif--
up--
ur--
us--
v--
va--
ve--
ven--
ver--
verrucu--
vi--
vill--
vir--
vo--
w--
wa--
wan--
we--
wil--
wo--
woj--
wri--
x--
y--
ya--
ye--
z--
za--
ze--
zoro--
zu--
ν--
τ--
а--
аб--
ав--
аве--
админист--
административ--
администраци--
аз--
азо--
азон--
азонкш--
азор--
ак--
ака--
ал--
але--
ан--
анок--
антропо--
ар--
ара--
аркео--
арне--
ароп--
арти--
архитек--
арьсе--
ас--
асп--
атмосфе--
ах--
аш--
аще--
б--
ба--
бан--
бар--
бас--
бе--
би--
бо--
бол--
бор--
бр--
бра--
бре--
бу--
бур--
буря--
бы--
бэ--
бэр--
в--
ва--
вал--
валзюл--
валсюл--
ванф--
ваны--
вар--
вас--
ве--
ведь--
веш--
ви--
видь--
викили--
во--
вол--
воли--
восточ--
вы--
вьрь--
вя--
вяте--
вяшко--
г--
га--
гали--
ге--
гео--
геоме--
геор--
ги--
го--
гов--
гор--
гот--
гра--
грамма--
гри--
гу--
гэ--
д--
да--
даге--
де--
демо--
дер--
дерб--
дея--
дж--
ди--
диа--
дми--
до--
докумен--
дон--
доцен--
ду--
душ--
дэ--
е--
ев--
евра--
евро--
ж--
жан--
же--
жо--
жу--
з--
за--
запи--
зе--
зо--
зоро--
и--
из--
или--
им--
ин--
инголь--
ине--
инжи--
ир--
ис--
ичал--
к--
ка--
кав--
кагод--
кал--
кале--
калмо--
ками--
кан--
кап--
кар--
кара--
каре--
карзи--
карь--
касо--
касф--
касфт--
каф--
кафе--
ке--
кев--
кельме--
кемо--
кер--
кеф--
ки--
кир--
кирди--
кл--
клас--
ключев--
кн--
кни--
ко--
код--
кож--
компо--
кон--
константи--
кор--
корхни--
коч--
кошар--
кп--
кр--
крестьян--
кри--
кристоз--
кры--
ку--
кудазо--
куль--
куля--
кун--
кш--
кшти--
кър--
кэ--
кя--
кядь--
кярь--
л--
ла--
лав--
лад--
ланг--
ле--
лез--
лен--
ли--
литера--
лих--
лиш--
ло--
лото--
лу--
лув--
лувкс--
ль--
лю--
лям--
лятф--
лятфне--
лі--
м--
ма--
маз--
мар--
мас--
мастор--
ме--
мезь--
мене--
мето--
меще--
ми--
миль--
мин--
минист--
министер--
мо--
мон--
монгол--
моно--
мор--
морд--
моро--
москов--
му--
муво--
мурза--
муру--
мяляф--
мян--
мярь--
н--
на--
налх--
нар--
национа--
націона--
не--
ни--
нидер--
ниж--
но--
нол--
ноля--
ноляв--
нор--
ну--
нур--
ню--
ня--
няф--
няфте--
о--
об--
обря--
ог--
од--
оз--
оза--
озон--
озонды--
оле--
ор--
орксоф--
ос--
от--
отаф--
оф--
оцю--
очижи--
ош--
п--
па--
пал--
памят--
пан--
панд--
панже--
пар--
пачф--
пе--
пее--
пер--
петербург--
петь--
печат--
пи--
пильг--
писа--
питне--
по--
поб--
повф--
пок--
полаф--
пон--
пот--
поч--
пра--
пре--
премия--
препод--
про--
пря--
пряф--
пу--
публици--
пуро--
пут--
путнев--
пушкин--
пъчкаф--
пяк--
пяле--
р--
ра--
раз--
ракшат--
рас--
рах--
ре--
рели--
ри--
рма--
ро--
ру--
руб--
руз--
рх--
рыб--
рь--
ря--
ряз--
рязан--
рі--
с--
са--
сал--
сама--
сат--
св--
свет--
се--
сель--
сем--
семья--
сер--
си--
сибир--
сим--
систе--
ск--
сказ--
со--
совет--
содамо--
сот--
соци--
сп--
ст--
ста--
сти--
стир--
стру--
су--
сур--
сы--
сыч--
сь--
сю--
ся--
сядо--
т--
та--
тар--
тара--
татар--
таф--
твер--
творчест--
те--
теле--
темников--
тер--
терри--
ти--
тие--
тии--
тик--
тин--
тнал--
то--
тов--
тонафтом--
тор--
тр--
тра--
тран--
тре--
ту--
тушенд--
тъ--
тънал--
тър--
тыр--
тэ--
тэр--
тю--
тюре--
тя--
тяд--
тяряф--
тяш--
тяшть--
у--
уез--
уендем--
уже--
узбэки--
уль--
ун--
уні--
ур--
ус--
уск--
учи--
учрежде--
уш--
уше--
ушмо--
ф--
фа--
фе--
фев--
феде--
федера--
фи--
фло--
фо--
фр--
х--
хар--
хер--
хи--
хо--
хорва--
ц--
ца--
це--
цебяр--
церьку--
ци--
цэ--
ця--
ч--
ча--
че--
чемпи--
чис--
чор--
чу--
чува--
ш--
ша--
шаво--
шама--
шарф--
шарьх--
шарьхко--
ши--
шир--
шире--
шо--
шта--
шу--
шя--
щ--
щаф--
ыф--
э--
эд--
эня--
эпо--
эра--
эрь--
эряв--
эряен--
эрям--
эс--
этниче--
этно--
ю--
юж--
юкс--
юр--
юро--
я--
яво--
як--
ял--
ялган--
яп--
ярх--
ярхцамбя--
і--
--0
--1
--18
--2
--3
--4
--5
--57
--6
--63
--7
--8
--9
--93
--a
--abia
--acea
--acy
--ad
--ae
--al
--ald
--ale
--alism
--all
--am
--an
--ance
--and
--anic
--annii
--ans
--antha
--ara
--ard
--aria
--aris
--ary
--as
--at
--ata
--ate
--ation
--ations
--b
--ba
--be
--ber
--berg
--bes
--bility
--ble
--bo
--by
--c
--ca
--cal
--capa
--caulon
--ccio
--cco
--ce
--cea
--cens
--ces
--ch
--cher
--ches
--chilus
--chya
--ck
--co
--cola
--cs
--ct
--cta
--ction
--culata
--cy
--d
--da
--dae
--dd
--de
--ded
--di
--do
--dra
--ds
--dy
--e
--ea
--ean
--eata
--ed
--ees
--eg
--ei
--ek
--el
--ella
--en
--ene
--enia
--ens
--ense
--ensis
--ent
--er
--eri
--ern
--ers
--ert
--es
--esis
--et
--eu
--ev
--evic
--ew
--exa
--ey
--ez
--f
--fera
--folia
--g
--ga
--gae
--gdu
--ge
--ger
--gera
--gia
--gical
--gie
--gin
--ging
--go
--grafi
--gs
--gton
--gu
--h
--ha
--he
--hen
--her
--hip
--hn
--hylla
--hyllum
--i
--ia
--iae
--ian
--iana
--iata
--ic
--ica
--ical
--icia
--ico
--ics
--id
--idae
--idence
--ides
--ie
--iella
--iensis
--ier
--ies
--ii
--ija
--ik
--il
--ila
--ilabia
--ilum
--ilus
--imo
--in
--ina
--ine
--ing
--io
--ion
--ions
--iopsis
--ipes
--ir
--is
--isation
--ische
--ise
--ism
--issima
--ist
--it
--ita
--itarian
--itarianism
--ite
--itica
--ity
--ium
--ive
--ix
--iya
--iz
--ization
--ja
--jo
--k
--ka
--kara
--ke
--ki
--ko
--ks
--ku
--l
--la
--land
--lata
--ld
--le
--ler
--lf
--lii
--lis
--ll
--lla
--lle
--llo
--lly
--lm
--lo
--logy
--lora
--ls
--lu
--lum
--lus
--ly
--lyn
--lz
--m
--ma
--maa
--man
--me
--mensis
--ment
--mi
--mie
--mond
--mosa
--ms
--my
--n
--na
--nae
--nce
--nd
--ne
--ner
--ng
--ni
--nia
--nii
--nis
--nn
--nna
--nne
--no
--ns
--nse
--nsis
--nt
--nta
--ntha
--nthus
--nton
--ntrum
--nts
--nu
--num
--nuta
--ny
--o
--oa
--oba
--ock
--ography
--ogy
--oi
--oides
--oit
--olia
--ology
--om
--on
--onii
--ophila
--or
--ors
--ort
--ory
--os
--osa
--ot
--ov
--ow
--ox
--p
--pala
--petala
--phila
--phora
--phylla
--pils
--ps
--psis
--q
--r
--ra
--rae
--ral
--raphy
--rchis
--rchy
--re
--rhynchus
--ri
--ric
--rii
--rik
--rina
--ris
--rn
--ro
--rpa
--rr
--rry
--rs
--rsa
--rt
--rtii
--ru
--rum
--ry
--s
--sa
--sc
--se
--sed
--sen
--ses
--sey
--sh
--si
--siana
--sii
--sima
--sion
--sis
--sm
--son
--sonii
--sor
--ss
--st
--ster
--sum
--t
--ta
--tae
--tala
--tan
--tata
--te
--tea
--ter
--tera
--tes
--th
--tha
--thus
--ti
--tia
--tic
--tics
--tii
--tion
--tive
--tle
--to
--ton
--ts
--tt
--tte
--tum
--tus
--ty
--tylis
--tz
--u
--ua
--ual
--uca
--ue
--ui
--ul
--ula
--ulata
--ulis
--ulosa
--ultural
--um
--ur
--ure
--us
--uta
--ux
--v
--va
--ve
--vo
--w
--wa
--x
--xa
--y
--ya
--yana
--yd
--ye
--yer
--ylla
--yllum
--yn
--ys
--z
--ze
--α
--ς
--а
--ада
--аи
--аксь
--ам
--ания
--анные
--ань
--ар
--ард
--ас
--аса
--ась
--ат
--ати
--атне
--ать
--ац
--ая
--б
--берьф
--би
--бря
--бу
--бург
--бэр
--в
--ва
--ве
--ви
--вка
--вна
--во
--вок
--всть
--всь
--г
--га
--ге
--гии
--гиясь
--го
--гсь
--д
--да
--дась
--деви
--джа
--ди
--дсть
--дсь
--дть
--ды
--дь
--е
--ев
--ева
--евна
--евсь
--евть
--едсь
--езь
--еи
--ек
--екс
--ел
--ель
--еля
--ем
--енди
--ензон
--енц
--ень
--ер
--ес
--еса
--есть
--ет
--ец
--ж
--з
--за
--зе
--змась
--зон
--зь
--и
--ид
--ие
--иеса
--ии
--ик
--ин
--ис
--ихть
--ич
--ию
--ия
--иянь
--иясь
--к
--ка
--кась
--ке
--ки
--кии
--ко
--конь
--кс
--кса
--ксоц
--кссь
--кт
--ку
--л
--ла
--лии
--лма
--лонь
--ль
--лья
--ля
--м
--ма
--маса
--мась
--мат
--маф
--мда
--ме
--мик
--мс
--мса
--н
--на
--наи
--нг
--нд
--нди
--ндсь
--нды
--не
--незь
--ненди
--нень
--нзон
--ни
--нии
--ник
--нин
--ния
--нко
--нкса
--нная
--ння
--но
--нои
--ному
--нон
--нонь
--нт
--нц
--нца
--нць
--ные
--ных
--нь
--нюк
--ня
--няса
--нят
--о
--ов
--ова
--ович
--огиясь
--ого
--ое
--ои
--ок
--окс
--ол
--олезь
--оль
--ольхть
--ом
--ома
--он
--онди
--онза
--онзон
--онц
--онь
--ор
--оть
--оц
--п
--пт
--птф
--р
--ра
--рг
--рга
--рд
--ре
--рет
--ри
--рие
--рии
--рк
--рнои
--ро
--рс
--рск
--рсь
--рт
--рть
--рхт
--рцов
--ры
--рь
--рэ
--с
--са
--сазь
--си
--ск
--ская
--ские
--скии
--ских
--ского
--скои
--скяи
--сна
--снон
--снонды
--ст
--ста
--сти
--сть
--сы
--сь
--ськии
--т
--та
--те
--ти
--тк
--тне
--тнень
--то
--тольхть
--тонза
--тт
--тть
--ту
--тф
--ты
--ть
--тэ
--у
--уд
--ук
--ург
--ус
--ф
--фне
--фнезь
--фнень
--фоль
--фт
--фтозе
--фтоц
--фтф
--х
--ха
--хкя
--хне
--хнень
--хть
--ц
--ца
--це
--цк
--цне
--ць
--ця
--ч
--чжоу
--чи
--ш
--ша
--шеи
--шире
--шири
--ще
--щина
--ъе
--ы
--ые
--ь
--ьки
--э
--эн
--эр
--ю
--юк
--я
--яда
--яи
--ян
--янь
--яса
--ясь
--ят
--яф
--і
--ів
--іи
--ічнии
--ل
--ა
--ი
