!
"
#
##0
##1
##10
##11
##12
##13
##14
##15
##16
##17
##18
##19
##2
##20
##21
##22
##23
##24
##25
##26
##27
##28
##29
##3
##30
##31
##32
##33
##34
##35
##36
##37
##38
##39
##4
##40
##41
##42
##43
##44
##45
##46
##47
##48
##49
##5
##50
##51
##52
##53
##54
##55
##56
##57
##58
##59
##6
##60
##61
##62
##63
##64
##65
##66
##67
##68
##69
##7
##70
##71
##72
##73
##74
##75
##76
##77
##78
##79
##8
##80
##81
##82
##83
##84
##85
##86
##87
##88
##89
##9
##90
##91
##92
##93
##94
##95
##96
##97
##98
##99
$
%
&
'
(
)
*
+
,
-
.
/
0
00
000
01
02
03
04
05
06
07
08
09
1
10
100
1000
101
102
103
104
105
106
1066
107
109
11
110
111
112
113
114
115
116
1171
118
1193
12
120
1200
1204
121
122
124
125
1250
127
1270
129
13
130
1300
131
1310
133
134
135
136
139
1391
14
140
142
143
145
1453
149
1490
1492
1497
15
150
1500
1504
1513
1516
1519
1520
1521
1524
1525
153
1535
1536
1539
1541
1542
1543
155
1550
1552
1553
1558
1560
1563
1564
1575
1578
1580
1590
1596
16
160
1605
1606
1610
1616
1632
164
165
1675
1677
168
1693
17
1700
171
1717
1720
1724
173
175
1750
1762
1772
1778
1780
1783
1787
1789
1790
1791
18
180
1800
1803
1810
1812
1814
1815
1816
1817
1818
1819
182
1821
1822
1823
1824
1826
1828
183
1830
1831
1832
1835
1836
1837
1840
1842
1843
1845
1846
1847
1848
1850
1851
1852
1853
1854
1855
1856
1857
1858
1859
186
1860
1861
1862
1863
1864
1865
1866
1867
1868
1869
187
1870
1871
1872
1873
1874
1875
1876
1877
1878
1879
1880
1881
1882
1883
1884
1885
1886
1887
1888
1889
1890
1891
1892
1893
1894
1895
1896
1897
1898
1899
19
190
1900
1901
1902
1903
1904
1905
1906
1907
1908
1909
191
1910
1911
1912
1913
1914
1915
1916
1917
1918
1919
1920
1921
1922
1923
1924
1925
1926
1927
1928
1929
1930
1931
1932
1933
1934
1935
1936
1937
1938
1939
194
1940
1941
1942
1943
1944
1945
1946
1947
1948
1949
1950
1951
1952
1953
1954
1955
1956
1957
1958
1959
1960
1961
1962
1963
1964
1965
1966
1967
1968
1969
1970
1971
1972
1973
1974
1975
1976
1977
1978
1979
1980
1981
1982
1983
1984
1985
1986
1987
1988
1989
1990
1991
1992
1993
1994
1995
1996
1997
1998
1999
2
20
200
2000
2001
2002
2003
2004
2005
2006
2007
2008
2009
201
2010
2011
2012
2013
2014
2015
2016
2017
2018
2019
2020
2021
2022
208
21
210
213
217
22
220
221
225
23
230
232
235
236
24
240
241
242
246
249
25
250
2500
257
26
264
265
27
270
274
275
277
28
280
284
28472
29
290
3
30
300
3000
301
302
306
31
310
315
32
320
323
325
33
330
332
335
34
341
35
350
356
36
360
366
37
37444
375
38
380
39
390
391
395
397
4
40
400
4000
409
41
410
415
417
42
420
4217
423
43
430
44
441
443
445
45
450
451
46
460
462
468
47
470
476
479
48
480
49
492
498
5
50
500
5000
51
52
521
525
53
54
547
55
550
56
564
57
570
574
58
580
586
59
6
60
600
602
6031
61
610
612
613
617
62
620
63
64
640
65
650
66
669
67
68
684
69
691
7
70
700
7000
71
718
72
722
73
74
7448
75
750
753
76
77
78
79
8
80
800
81
814
82
83
84
85
850
858
86
87
88
886
89
9
90
900
91
92
93
931
94
95
950
96
97
975
977
978
98
980
99
:
;
<
=
>
?
@
[
\
]
^
_
`
a
aaiun
aarau
aaron
ab
abad
abait
abala
abandonada
abandonar
abandonaron
abandono
abargil
abarka
abasha
abashan
abasho
abba
abc
abd
abdul
abdullah
abekasis
aber
abi
abian
abierta
abierto
abirached
abitada
abitantes
aboab
aboltar
abolto
aborijinala
aborijinalas
aborijinalo
aborijinalos
about
abrabanel
abraham
abreviatura
abril
absoluta
abu
abundansia
abundante
ac
acade
academia
academy
acala
acambay
acapulco
acatla
acceso
accessed
according
achakes
acheto
ackley
acolman
acra
acre
act
activist
activista
actopan
actor
actual
actualidad
aculco
acun
ad
ada
adam
adana
adar
adas
adela
adelantado
adelantar
adelante
adelanto
adelantre
adema
ademas
adentro
ades
adherents
adina
adio
adjektivos
adjensia
adjuda
adjudar
adjudo
adjustando
adjustarse
adler
administrada
administrasion
administrasiyon
administrasyon
administrativa
administrativamente
administrativas
administrativo
administrativos
adminstrativo
admirasion
adolf
adoptada
adoptado
adoptaron
adopto
adorar
adria
adriatiko
adultos
adumim
aedada
aedadas
aedado
aedados
aek
aerea
aereo
aerolinea
aerolineas
aeroporto
aeropuerto
aerospace
afama
afamada
afamado
afamados
affaires
affairs
afganistan
afghanistan
afilu
afinkada
afinkadas
afinkado
afinkados
afinkamiento
afinkamientos
afinkan
afinkaron
afinkarse
afinko
afirma
afirman
afirmasiones
afirmo
afito
afitos
aforsaron
africa
african
afrika
afrikaans
afrikana
afrikanas
afrikano
afrikanos
afrique
after
afuera
aga
agada
against
agan
agaw
age
agency
aglomerasion
aglomerasiones
aglutinasion
agora
agosto
agradavle
agri
agricultura
agrikola
agrikolas
agrikultura
agrupa
agua
aguas
aguascalientes
agusti
agustin
ah
aharon
aharvada
ahashverosh
ahava
ahayim
ahmed
ahmet
ahrida
ahronot
ahuachapa
ahue
ahuera
ahumada
ai
ailuropoda
ain
ainda
air
airbus
aircraft
aire
aires
airlines
airport
airports
ais
aise
ajacuba
ajena
ajenas
ajenos
ajensia
ajo
ajuntamiento
ajustando
ajustar
ak
akaba
akabada
akabado
akabar
akabaron
akabo
akade
akademia
akademias
akademika
akademiko
akademikos
akadio
akava
akavar
akavidamiento
akavo
akbar
akel
akeya
akeyas
akeyos
aki
akiva
aklaro
ako
akodesh
akodro
akodros
akontese
akontesimientos
akontesio
akordo
akorruto
akov
akra
akre
akresentar
akresento
akron
akronimo
akrotiri
aks
aksa
aksepta
akseptada
akseptado
akseptados
akseptan
akseptar
akseptaron
akseptasion
akseptava
aksepto
akseso
aksidente
aksion
aksiones
aksiyon
aksiyones
akta
aktitud
aktiva
aktividad
aktividades
aktivismo
aktivista
aktivita
aktivitad
aktivitades
aktivitas
aktivo
aktivos
akto
aktor
aktores
aktos
aktrisa
aktual
aktuala
aktuales
aktualidad
aktualita
aktualmente
aktualo
aktualos
aktuar
aktuasion
akuerdo
akumuladas
akurtado
akuya
akuzativo
akyu
al
ala
alabama
alagoas
alaha
alain
alajuela
alan
alarco
alas
alaska
alaton
alava
alayim
alba
albania
alberga
albert
alberta
alberto
album
albuquerque
alburquerque
alcala
alderedor
alderredo
alderredor
aldredor
ale
alef
alefbet
alegre
alegri
alegria
alegriya
alejandria
alejandro
aleksander
aleksandriya
aleksandro
alema
aleman
alemana
alemania
alene
aleppo
ales
aleste
alevi
alex
alexa
alexander
alexandra
alfa
alfabeto
alfasi
alfassa
alfonso
alfred
alfredo
algarve
algazi
algebra
algebraika
algo
algun
alguna
algunas
algunos
alhad
alhambra
ali
aliado
aliados
aliansa
alianza
alighieri
alikante
alimentasion
alimento
alimentos
aliya
aljama
alkalde
alkaldia
alkansa
alkansando
alkansar
alkanse
alkanso
alkanzo
alkavo
alkazarkivir
alko
alkun
alkuna
alkunas
alkuno
alkunos
alkunya
alkunyas
all
alla
allado
allen
allende
alliance
alma
alman
almana
almanas
almanes
almania
almanya
almaty
almaza
almeria
almohade
almoloya
almosnino
alom
alon
alonso
alos
alpes
alquisiras
alrededor
alrededores
alsafra
alsasia
also
alstom
alta
altamente
altamirano
altar
altas
altepetl
alternativa
alternativos
altesa
altitud
altneuland
alto
altoplano
altos
altura
alturas
alvaro
aly
alzeyte
am
ama
amaaravi
amacuzac
amador
amalgam
amanalco
amaneser
amar
amariyo
amatada
amatar
amate
amatenango
amatepec
amato
amatores
amazigh
amazon
amazonas
amazonia
ambas
ambasada
ambasadas
ambasador
ambasadora
ambeza
ambezada
ambezamiento
ambezan
ambezando
ambezar
ambezaron
ambezava
ambezo
ambiente
ambito
ambos
ambre
amburgo
ame
amealco
amecameca
ameleh
amemshala
amenasas
amenaza
america
american
americana
americanus
amerika
amerikana
amerikanas
amerikano
amerikanos
amerikas
ami
amida
amiga
amigo
amigos
amijor
amijorada
amijorado
amijoramiento
amijorar
amijoraron
amijores
amijoro
amikdash
amina
aminatou
amir
amistad
amman
amor
amore
amortada
amortadas
amortado
amortados
amortamiento
amortamientos
amortamyento
amortar
amortaron
amorto
amos
amostra
amostrada
amostradas
amostrado
amostran
amostrando
amostrar
amostraron
amostrava
amostro
amplia
ampliamente
amplio
amram
amrita
amsterdam
amuchigua
amuchiguando
amundsen
amur
an
ana
anadolu
anakkale
analisis
analitika
anana
anassi
anatolia
anatomiya
ancha
ancho
ancient
and
andalus
andalusi
andaluz
andaluzi
andaluziya
andar
ande
andes
andjak
andorra
andre
andrea
angamacutiro
angel
angela
angeles
angelika
angelina
anglo
angola
ani
animado
animal
animales
aniversario
aniyar
aniyo
aniyos
anjeles
ankara
anke
ankontra
ankontraba
ankontrada
ankontradas
ankontran
ankontrar
ankontraron
ankontro
anna
annan
anne
anniversary
annual
ano
another
ansestros
ansi
ansiklope
ansiklopedia
ansiklopedya
ansina
antalya
antarctic
antartika
antartiko
ante
antepasados
anterior
anteriores
anteriormente
antes
anthony
anti
antiga
antigamente
antigua
antiguas
antiguedad
antiguo
antiguos
antika
antikamente
antikas
antikita
antiko
antikos
antilles
antioquia
antisemita
antisemitas
antisemitismo
antisemitizmo
antiyas
anto
antofagasta
antoni
antonio
antonses
antropolojiya
anual
anuario
anunsiar
anunsio
anusim
anyada
anyadas
anyo
anyos
ao
aora
apan
aparato
aparatos
aparente
aparese
aparesen
apareser
aparesiendo
aparesieron
aparesio
apareskan
apariensia
aparisiones
apartados
apartaja
apartajada
apartajado
apartajamiento
aparte
apartene
apartener
apartenia
apartheid
apartiene
apartienen
apatrono
apaxco
apenas
apertura
aperturada
aperturado
aperturamiento
aperturar
aperturo
apl
aplika
aplikada
aplikado
aplikar
apo
apodaca
aporta
aporte
aportes
apostol
apostoles
apostolo
apoya
apoyado
apoyar
apoyaron
apoyo
approaches
aprender
aprendizaje
apresenta
apresentada
apresentado
apresentador
apresentadora
apresentados
apresentan
apresentando
apresentar
apresentasion
apresentava
apresento
aprezados
april
aproksimada
aproksimadamente
aproksimativamente
apropiada
apropiadas
apropiado
apropiados
aprovechado
aprovo
aqui
ar
ara
arab
araba
arabas
arabe
arabes
arabi
arabia
arabian
arabic
arabiya
arabo
arabos
arabs
arad
arafat
arago
aragon
aragonez
aragoneza
aramaic
aramberri
aramea
arameo
arashi
arauca
arauco
arav
arba
archaeology
archipielago
architecture
archivado
archive
archivo
archivos
arctos
arctotherium
ardjel
ardjelia
are
area
areas
arefujiados
arekipa
arekojer
arekojeron
arena
arenal
arenas
arequipa
aresentaron
aresive
aresivida
aresivido
aresividos
aresiviendo
aresivieron
aresivio
aresivir
argentina
argov
ari
aria
arias
arica
aridas
arie
ariel
ariento
arientro
arifujiados
arik
ariko
arina
arios
arista
aristegui
aristo
aristoteles
aritme
aritmetika
ariv
ariva
arivada
arivar
arivaron
arivo
arizona
arjel
arjelia
arjelina
arjentina
arjentino
arjentinos
arkansas
arkeo
arkeolo
arkeolojika
arkeolojikas
arkeolojiko
arkeolojikos
arkeolojiya
arkia
arkidiosesis
arkipe
arkipelago
arkipielago
arkipye
arkitekto
arkitektoniko
arkitektos
arkitektura
arkivo
arkivos
arko
arkos
arlington
armada
armadas
armado
armados
armamento
armand
armas
armenia
armenian
armenias
armenio
armenios
aroeste
aron
aroncados
aroncar
around
arqueolo
arriba
arriva
arrivada
arrivadas
arrivan
arrivar
arrivaron
arrivarono
arrivo
arrogamiento
arrogar
arrondjados
arrondjamiento
arroyo
arroz
ars
arsim
art
arte
arteaga
artes
artesanos
arthur
arti
article
artifisial
artifisiala
artigas
artiko
artikolo
artikolos
artista
artistas
artistic
artistika
artistikas
artistiko
artistikos
artistos
arts
artsah
arturo
aruba
aruh
arutz
arvit
arvole
arvoles
arvoliko
ary
aryeh
as
asamblea
asansor
ase
asegu
asegun
asembrada
asen
asender
asentado
asentamiento
asentamientos
asentamyento
asentaron
aseptada
aser
aserka
ashana
ashdod
asher
ashirim
ashkelon
ashkenaz
ashkenazi
ashkenazim
ashkenazis
ashram
asi
asia
asian
asiendo
asientos
asigu
asigun
asilo
asima
asimilasiyon
asimismo
askala
asmara
asociacio
asosiada
asosiado
asosiados
asosiasion
asosiasiones
asosiasiyon
asp
aspekto
aspektos
assembly
associated
association
asta
astronomiya
astronomos
astros
asturiano
asturias
asukar
asuncio
asuntos
asustado
asya
asyatiko
asyatikos
at
ata
atacama
atakada
atakar
atakaron
atako
atakos
atamientos
atassi
atatu
ataturk
ate
ateizmo
atenas
atenco
atensio
atension
atentados
ateos
atid
atina
atines
atitalaquia
atizapa
atl
atla
atlacomulco
atlan
atlanta
atlantiko
atlas
atlautla
atle
atletiko
atletismo
atmosfera
ato
atomika
atomos
atotonilco
atra
atraer
atraktivos
atras
atrasado
atravesada
atributos
atzmaut
au
auckland
audiensia
auerbach
august
auguste
augustus
aula
auma
aumentar
aumento
aun
aunke
aunque
auschwitz
ausensia
australia
australian
australianos
australis
austria
authority
auto
autobusos
autonoma
autor
autora
autores
autoridad
autoridades
autres
aux
av
avagar
avanse
ave
avec
avenida
avenidas
avenir
aver
aves
avi
avia
avian
aviasion
avierto
avila
avinu
avio
avion
aviones
avitada
avitado
avitantes
avitaron
aviv
aviva
aviya
avizo
avla
avlada
avladas
avlado
avlados
avlan
avlando
avlante
avlantes
avlar
avlaron
avlava
avlavan
avlo
avner
avoda
avokata
avokato
avokatos
avraam
avraham
avram
avril
avrio
avrir
avriya
avtor
avtores
avtoridad
avtoridades
avyerto
avyertura
avyo
award
awards
away
axapusco
axel
ay
aya
ayam
ayapango
ayazgos
ayegar
ayegaron
ayga
ayi
ayifsiano
ayifto
ayinda
ayre
ayres
ayroporto
ayroportos
ayti
ayuda
ayudar
ayudaron
ayudo
ayuntamiento
az
aza
azawad
azcapotzalco
aze
azed
azen
azer
azerbaidjan
azerbaijan
azeri
azeris
azerla
azerlo
azerse
azete
azi
azia
azian
aziendo
aziz
azkenazim
azno
aznos
azoulay
azriel
azrieli
azta
azteka
azteko
aztekos
azueta
azul
azure
b
ba
baal
bab
baba
babel
babilonia
baboun
baby
babylon
bacalar
bach
back
bad
badajoz
baden
badiraguato
bagdad
baghdad
baha
bahai
bahamas
bahi
bahia
bahrain
bahrein
bai
baikonur
baile
bairros
baja
baji
bajo
bakanyado
baku
bal
bala
balanca
balas
balat
balear
baleares
bali
balkan
balkanes
balkanos
balkon
baltasar
baltika
balıkesir
bamidbar
ban
banco
band
banda
bandas
bandeira
banderas
bandiera
bando
bandyera
bang
bangladesh
bank
banka
bankas
banker
banko
bano
banyo
bar
barbara
barcelona
barinas
barkan
barkas
barkat
barkisimeto
barkos
baron
barquisimeto
barraga
barranquilla
barrio
barrios
barro
barroko
barry
barselona
bartolo
bartolome
baruch
baruh
baruj
barulyo
bas
basa
basada
basadas
base
bases
basha
bashas
bashir
basho
bashos
basika
basikamente
basilea
basilika
baska
basketbol
basko
bastante
bat
batalya
batalyas
bataya
batei
batopilas
battle
bautista
bava
bavaria
bavli
bay
baye
bayles
baz
baza
bazada
bazadas
bazado
bazados
bazas
bbc
bd
be
beach
beaufort
beautiful
bec
becerra
beck
become
becomes
beer
beersheva
beethoven
before
begin
behind
behora
beijing
beira
beiras
beirut
beisbol
beit
beiteinu
beja
bel
belarus
beldiye
bele
belediye
belediyes
beleyide
beleyides
belgium
belize
beljika
bell
bella
belmonte
belmopan
belo
belogrado
ben
benacerraf
benadam
benarroch
benayoun
bendayan
bendelac
bendicho
bendigamos
bendizion
bene
benedictus
benefisios
bengualid
beni
benidorm
benito
benjami
benjamin
benoliel
bentolila
benveniste
benzin
ber
beraha
berahot
berbe
bereber
bereberes
bereshit
bering
berlin
berman
bernard
bernardino
bernardo
bertha
bertrand
bes
best
bestias
bet
beta
betahayim
betar
beth
bethlehem
between
bever
bevida
bevidas
bey
beyog
beyrouth
bezalel
bezbas
bi
bialik
bible
biblia
biblikas
biblioteca
bibliotecas
biblioteka
bielorusia
bien
bienes
bienestar
biervo
biervos
big
biga
bilbao
biles
bill
billboard
bilyetos
bimuelos
bin
binyamin
binyanei
bio
biobi
biodiversidad
biografi
biografiya
biography
biokemika
biolo
biolojika
biolojiya
bir
bira
birkat
birkenau
birmingham
birobidjan
birobidzhan
bis
bisantino
bishkek
bisikleta
biskocho
bisnes
bisnesman
bissau
bitola
bivas
bive
biven
bivi
bivia
bivian
biviendo
bivieron
bivio
bivir
biviya
biviyan
bivos
bizans
bizansio
bizantina
bizantino
bizantinos
black
blanca
blanco
blanka
blankas
blanko
blankos
blas
blatt
blica
blico
blika
bliko
blog
blogspot
bloko
blokos
blu
blue
bnei
bo
boa
board
boca
bocas
boda
bodas
bodre
boe
boeing
bog
bogota
bohemia
boikot
boka
boker
bola
bolas
boli
bolivar
bolivariana
bolivia
bolo
bolonya
bolos
bolsa
bomba
bombas
bon
bonaire
book
books
boom
boquero
borde
bordeado
bordeaux
boreal
boris
borkowski
born
bosfor
boske
boskes
bosnia
boston
bota
botanika
botikas
bouhamed
boulevard
boxeo
boy
boyaca
boz
br
bra
braga
branco
brasil
brasilena
brasileno
brasilia
brasiliana
brasiliano
braso
brasos
bratislava
braun
bravo
brazil
brazo
brazos
bre
breaks
brega
bretanya
breton
breve
brevemente
brian
brill
bring
brit
brita
britanika
britanikas
britaniko
britanikos
britannica
british
broadcasting
bronse
bronze
brooklyn
brother
browniano
broza
bruce
bruno
brunswick
bruselas
bu
bucureshti
budapest
budismo
budista
budizmo
buen
buena
buenas
buenaventura
buenavista
bueno
buenos
bufadora
buhara
buhori
building
bukureshti
bulgara
bulgaria
bulgariana
bulgarianos
bulgariya
bulgaro
bulgaros
bull
bundesla
bunyuelos
burcu
burdeos
bureau
burgos
burkina
buro
buros
bursa
burundi
bus
bushka
bushkan
bushkando
bushkar
bushkaron
bushkavan
bushkida
bushkita
bushko
business
but
butikas
buto
buyidas
buz
bwv
by
byeloruso
byen
byervos
c
ca
caazapa
caballero
caban
cabo
caborca
cabos
cacahoata
cactus
cada
caddesi
caesar
caf
cajamarca
calakmul
caldas
cali
calidad
california
calimaya
calkini
call
calpulalpan
calvillo
cam
cambourakis
cambridge
camila
camille
camino
camondo
camp
campeche
campo
campos
campus
can
canada
canadian
canal
canarias
canary
cancio
cancu
candelaria
canetti
canis
cao
cap
cape
capi
capita
capital
capulhuac
caqueta
car
caracas
carbajal
carbo
cargo
caribe
carl
carlos
carmelo
carmen
carnage
carnegie
carol
carole
caroline
carranza
carren
carrillo
carta
cartagena
cartier
carvajal
carvallo
casa
casablanca
casanare
casas
casco
caso
castellana
castellano
castelo
castilla
castillo
castro
cat
cata
catala
catalana
catalans
catalina
catalogo
catalunya
catamarca
catarina
categori
catherine
cato
catorce
cauca
caucasus
causa
cayo
cbs
cd
ce
ceara
cefet
celebrity
cementerio
cemetery
censo
census
center
centla
central
centre
centro
century
ceo
cerca
cerro
cervantes
cesar
ch
cha
chaabouni
chabad
chaco
chad
chaim
chalco
challenge
challenger
champion
championships
champoto
chan
chaouen
chapa
chapala
chapines
chapultepec
charles
charlie
charlotte
charreria
chauen
chechenya
cheddi
cheka
chekia
cheko
chekoslovakia
chelyabinsk
chetumal
chi
chiapa
chiapas
chiautla
chibcha
chicago
chichimekos
chico
chicoloapan
chiconcuac
chicontepec
chief
chihuahua
chika
chikas
chike
chikez
chikli
chikly
chiko
chikolata
chikos
chile
chilena
chileno
chilenos
chili
chilla
chilpancingo
chimalhuaca
chimaltenango
china
chinandega
chinchipe
chinese
chipilo
chiquimula
chiriqui
chis
choco
chocro
choi
choluteca
chopin
chp
chriqui
chris
christian
christians
christopher
chronicle
chubut
chumbero
chumberos
church
ci
cia
cicek
cie
cielo
ciencias
cienti
cim
cincinnati
cine
cinema
cio
cita
citation
cite
cities
citizen
citrus
city
ciudad
ciudades
civdad
civil
cl
clara
clark
classic
claude
claudia
claudio
cle
clinton
club
cluj
cm
cnn
co
coacalco
coahuila
coatepec
coba
cochabamba
cochin
cocle
cocotitla
cohen
coimbra
cole
colima
colin
collection
college
colo
colombia
colonet
colonia
colonial
color
colorado
columbia
com
comala
comalcalco
comares
comayagua
come
comenzo
comercio
comic
comics
commission
committee
commonwealth
communities
community
como
comondu
company
competition
complete
comportar
composites
compostela
compuesto
comu
comunidad
comunidades
con
conc
concepcio
concert
concertos
conciencia
conde
conference
conflict
congregation
congreso
congress
connecticut
connection
conocido
conscie
consejo
constitution
consuelo
consultable
consultado
contact
contemporary
contenido
contra
contreras
contribuir
control
convention
conversos
cooper
coord
copa
copias
coquimatla
coquimbo
coro
coronado
coronel
corozal
corporation
corpus
corrientes
corte
corun
corzo
cosi
costa
council
country
courage
court
couvertes
covid
coyoaca
coyotepec
coyotl
coyuca
cozumel
creek
creta
cri
crif
criminologi
cristianismo
cristo
cro
crucero
cruces
crunia
cruz
cs
ctor
cu
cuajimalpa
cual
cuando
cuatro
cuauhte
cuaute
cuautitla
cuautla
cuba
cuenca
cuernavaca
cueva
culiaca
culo
cultura
cultural
culturas
culture
cumhuriyet
cun
cundinamarca
cup
curac
curie
curiel
curitiba
cusco
customs
cuyo
d
da
dada
dado
dados
daegu
daily
dainda
dakar
dakhil
dalai
damask
dame
dan
dana
dande
dando
danez
dani
daniel
daniela
danimarka
dans
dansa
dante
danyo
danyos
danza
danzas
dar
darbuka
dardanelos
darie
darija
dario
darle
das
data
database
datan
datas
datasion
dato
datos
daughter
dava
david
davidson
day
days
dc
de
dead
death
debasho
debate
debe
deben
debi
debido
debio
debora
debut
december
dechidieron
dechidio
declaration
dedikada
dedikado
dediko
defender
defenderse
defendida
defendidas
defendido
defendidos
defendiendo
defendio
defensa
defense
defensor
define
definen
definida
definido
definidos
definio
definir
definisio
definision
definisiones
definisiyon
definitiva
definitivamente
deformasion
deg
degree
dei
deidad
deja
dejaron
dek
dekada
deke
deklara
deklarada
deklarado
deklarados
deklararon
deklarasion
deklarasiyon
deklarasyon
deklaro
dekreto
del
dela
delantre
delas
delegasion
delegasionala
delegasiones
deleon
delhi
della
delos
dels
delta
dema
demanda
demandado
demandando
demandar
demandaron
demandas
demandava
demandavan
demando
demanyana
demas
democra
democracia
democracy
demokra
demokrasia
demokratika
demokratiko
dempue
dempues
den
denantes
denis
deniz
denomina
denominacio
denominado
denominados
denominan
denominasion
denominasyones
densidad
dentes
dentro
denver
departamentala
departamentales
departamento
departamentos
departametos
department
depende
dependensia
dependensias
dependiendo
dependiente
deporte
deportivo
depues
deputada
deputados
der
derecha
derechos
deres
deriva
derivada
derivadas
derivado
derrota
derrotado
des
desague
desambiguasion
desarrollo
desarroyo
desde
desemboka
desembokadura
desen
desendiente
desendientes
desenes
desenyo
desertiko
desgrasia
desha
deshadura
deshando
deshar
deshara
desharon
deshavan
desho
desidieron
desidio
desidir
desiembre
desierto
design
designer
desinya
desinyada
desinyado
desinyar
desinyo
desinyos
desir
deskansar
deskanso
deskonosido
deskripsion
deskrive
deskriven
deskrivir
deskues
deskuvri
despartamento
despertar
desplazar
despue
despues
despuez
destaka
destakada
destakado
destakan
destakar
deste
destinada
destino
destinos
destruida
destruksion
destruksiyon
destruyeron
destruyida
destruyido
destruyo
desvelopa
desvelopado
desvelopamiento
desvelopar
desveloparon
desvelopo
desye
desyerto
desyertos
details
detalyo
detalyos
detener
determinados
determinasion
detras
deuterokanonikos
deutsche
deux
devarim
deve
development
deven
devido
dezde
dezeya
dezeyo
dezi
dezia
deziembre
dezir
dezvelopa
dezvelopada
dezvelopadas
dezvelopado
dezvelopados
dezvelopamiento
dezvelopamye
dezvelopamyento
dezvelopar
dezveloparon
dezvelopo
dhekelia
di
dia
diada
dialect
dialecto
dialekto
dialektos
dialog
diamantes
diaria
diario
diarios
dias
diaspora
diaz
dibujos
diccionari
diccionario
dicha
dichas
dicho
diciembre
dico
dictionary
dida
die
diego
dientro
dieron
dies
diesel
diesiseis
dieu
diez
diferensia
diferensias
diferente
diferentes
difi
difikultades
difisil
digital
dignita
dignitat
dijo
dika
diko
diksionario
diksionarios
diktadura
diktan
dili
dimensiones
diminutivo
din
dinamarka
dinastia
dinastiya
dinero
dingu
dingun
dinguna
dinguno
dio
dios
diosa
dioses
diosesis
diploma
diplomatika
diplomatikas
diputada
diputado
diputados
direccio
director
direksion
direksiyon
direkta
direktamente
direktiva
direkto
direktor
direktora
direktores
diri
dirijida
dirijido
dirijidos
dirijio
dirijir
dirijo
dirita
dirito
diritos
disco
dise
disenyada
disenyado
disenyo
disenyos
disho
disiembre
disiplina
disiplinas
disko
diskorso
diskorsos
diskos
diskriminasyon
diskue
diskues
diskurso
diskusion
diskutido
disponible
dissiplina
dista
distancia
distansia
distinta
distintas
distinto
distintos
distribusion
distrito
distritos
distrofia
ditions
dito
diversas
diversidad
diversita
diverso
diversos
divide
dividida
dividido
divididos
dividir
divina
divino
divisado
divisio
division
divisyon
diwan
diya
diyalektos
diyas
diz
dize
dizen
dizi
dizia
diziembre
diziembro
diziendo
dizientes
dizir
dj
djabotinsky
djakarta
djamaika
djapon
djava
djehova
djene
djeneral
djenerala
djeneralmente
djenerasion
djenerasiones
djenero
djenetika
djenetikas
djenosidio
djente
djerba
djerbi
djibraltar
djidda
djidio
djidios
djimnastika
djirona
djoga
djogado
djogan
djogo
djogos
djoha
djohannesburgo
djordania
djordano
djornal
djornalista
djoven
djovenes
djovenil
djovenos
djoyas
djudaismo
djudaizmo
djudeo
djudeoespanyol
djudeos
djuderia
djuderias
djudezmo
djudi
djudia
djudias
djudio
djudios
djudo
djudyo
djudyos
djuega
djuegan
djuegar
djuego
djuegos
djueves
djugador
djugadores
djugar
djugoslavia
djuhuri
djuliano
djulio
djunio
djunta
djunto
djuntos
djurnal
djurnales
djurnalismo
djurnalista
djurnalistas
djurnalisto
djurnalistos
djustisia
djusto
djustos
djutisia
djuzgo
djuzgos
do
doble
doctor
documentary
documents
dodje
dog
doha
doi
doktor
doktorado
doktorat
doktrina
dokumental
dokumentalo
dokumentario
dokumentasion
dokumento
dokumentos
dolar
dolares
dolensias
dolores
dolyo
dom
dome
domestica
domestikos
domi
domina
dominado
dominante
dominar
dominasion
domingo
dominika
dominikana
dominio
don
donald
donato
donde
dong
dor
doris
doron
dos
dosen
dosena
doseno
dospues
dospuez
dotados
douglas
dov
down
doz
doze
dr
dra
drae
drama
dran
dras
dre
dream
dreams
dres
dresden
dress
dreyfus
dro
drogas
dros
drusos
du
duarte
dubai
dublin
dubrovnik
duda
dudas
duenyo
duero
duitama
duke
dulo
dulse
dulses
dumont
dunas
dunke
duolingo
dura
durango
durante
durban
duro
duros
dushanbe
dvarim
dvd
dyas
dyeron
dyo
dyp
dz
e
earth
east
eastern
ebrea
ebreas
ebreo
ebreos
ec
ecatepec
ecatzingo
echa
echada
echar
echas
echo
echos
econo
economic
economist
ecuador
ed
edad
eden
edicio
ediciones
edifisio
edifisios
edikto
edimburgo
edirne
edisio
edision
edisiones
edisiyon
edisyon
editado
edited
edition
editor
editora
editore
editores
editorial
editoriala
edizioni
edizyo
edmond
eds
edu
eduardo
educac
educacio
education
edukar
edukasio
edukasion
edukasiyon
edukativa
edukativas
edukativo
edukativos
edward
ee
eeuu
efekto
efektos
efendi
eglesia
eglesias
eglezya
eglisia
egzempio
egzemplares
egzemplo
egzemplos
egzepto
egzersisios
egzilio
egzisitio
egzista
egziste
egzisten
egzistensia
egzistensya
egzistente
egzistentes
egzisti
egzistia
egzistian
egzistieron
egzistio
egzistir
egzito
ehal
ehud
eihal
eilat
ein
eine
einstein
eje
ejea
ejekutivo
ejemplo
ejersito
ejido
ejidos
ejipto
ek
ekilibro
ekip
ekipo
ekipos
ekips
ekivalente
ekivalentes
ekolojiya
ekono
ekonomia
ekonomika
ekonomikamente
ekonomikas
ekonomiko
ekonomikos
ekonomistas
ekonomisto
ekonomiya
eks
eksepsion
eksepto
eksiliados
eksilio
eksiste
eksisten
eksistensia
eksito
ekskavasiones
eksklave
ekspansion
ekspedision
ekspedisiones
ekspedito
eksperiensia
eksperimental
eksperimento
eksperimentos
eksplika
eksplikar
eksplikasion
eksplorador
eksploradores
eksplorar
eksposizion
ekspresio
ekspresion
ekspresiones
ekspulsados
ekspulsion
ekspulsiones
ekstender
ekstendida
ekstendido
ekstendio
ekstensa
ekstensio
ekstension
ekstensiyo
ekstensiyon
ekstensyon
eksterior
eksteriores
eksterminio
eksternos
ekstiende
ekstranieros
ekstranjera
ekstranjeros
ekstremo
ekuasion
ekuasiones
ekue
ekvador
ekvatoriala
el
ela
elbaz
eldad
ele
elected
elections
electo
elejida
elejido
elejidos
elejito
eleksiones
eleksiyon
eleksiyones
elekta
elekto
elektrika
elektrikos
elektrisidad
elektrisita
elektronika
elemento
elementos
elena
eleva
elevada
elevado
elevados
elevo
elevos
eli
elia
elias
eliezer
elijio
elijir
eliminar
elisa
elite
eliyahu
elizaveta
elkabetz
ella
elle
ellos
els
elsa
eltahawy
em
embargo
embarko
embasho
embassy
embeza
embezo
emblema
emerjente
emigrantes
emigrar
emigraron
emigrasion
emigro
emiliano
emiratos
emisoras
emite
emiten
emmanuelle
emperador
emperatrisa
emperio
empesa
empesar
empesaron
empesijo
empesijos
empeso
empezo
empiegado
empiegados
empiego
empiesa
empiesan
empiesar
empiesaron
empiese
empieses
empieso
empire
emplea
emporta
emportansia
emportante
emportantes
emportar
emprender
empresa
empresario
empresas
emprestados
emprimero
empuesto
empuestos
en
enbasho
enciclope
enciclopedia
enciclopedias
encuentra
encyclopaedia
encyclopedia
encyclopædia
end
endagora
endeluego
endema
endemas
endemaz
endenantes
endependensia
endia
endiya
endjuntamente
endjunto
endjuntos
endustria
endustrial
endustriala
endustrias
enel
enemigo
ener
energi
energy
enerjia
enerjiya
enero
enfluensa
enfluensia
enfluensias
enfluensya
enformasiyo
enfrente
engels
england
english
engrandesio
enjenieriya
enjenyeriya
enjenyeros
enjuntamente
enjunto
enkanto
enklave
enkomendar
enkomiendas
enkontra
enkontrado
enkontran
enkontraron
enkontro
enkontros
enkorajar
enkorajo
enkuentra
enkuentran
enla
enlas
enlaso
enlos
enrejistrada
enrejistrado
enrejistrar
enrejistro
enrejistros
enric
enrico
enriko
enrique
enriquez
enriva
ensayo
ensayos
ensen
ensenada
ensenyansa
ensenyanza
ensenyar
enshemplo
enshemplos
ensima
ensino
ensinos
ensinyansas
ente
entender
entendido
enteresante
entereso
enteresos
entero
enterrado
entidad
entidades
entonces
entonses
entorno
entra
entrada
entrar
entraron
entre
entrega
entrego
entreprisa
entreprisas
entretenimye
entretenimyento
entrevista
entrevistas
entro
enverano
enverso
envezes
enviado
enviados
enviar
envierno
envio
ephraim
epi
epoka
epokas
equipo
equus
er
era
eran
eredero
erensia
eres
eretz
eric
erik
eris
eritrea
ermana
ermanada
ermanamientos
ermanas
ermano
ermanos
ermeni
ermenis
ermoza
ermozas
ermozo
ermozura
eroe
eroes
error
ertzel
erudito
eruv
es
esa
esas
esca
escobedo
escrito
escudo
escuinapa
ese
esefarad
esena
esenario
esensiales
esforso
esfuenyo
eshemplo
eshkol
eshraghi
eshue
eskakes
eskala
eskaleras
eskapa
eskapada
eskapando
eskapar
eskaparon
eskapo
eskenazi
esklavitud
esklavos
eskojer
eskojida
eskojido
eskojidos
eskola
eskolas
eskosia
eskribio
eskrim
eskrima
eskrimista
eskrita
eskritas
eskrito
eskritor
eskritora
eskritores
eskritos
eskritura
eskrituras
eskrivano
eskrive
eskriven
eskriviendo
eskrivio
eskrivir
eskrivyo
eskucha
eskucho
eskudo
eskuela
eskuelas
eskultor
eskultores
eskultura
eskulturas
eslavas
eslavos
eslovakia
eslovenia
esmirna
esnoga
esnogas
eso
esos
espacio
espagnol
espan
espande
espandida
espandidas
espandido
espanto
espanya
espanyol
espanyola
espanyolas
espanyoles
espasial
espasiala
espasio
espasios
especial
espektadores
espektro
espera
esperansa
esperanto
esperanza
espesial
espesiala
espesialas
espesiales
espesialidades
espesialisada
espesialisado
espesialista
espesialmente
espesias
espesie
espesies
espesifikamente
espesyalmente
espi
espinoza
espiritu
espiritual
espital
esplendor
espn
espor
esporte
esportes
esportista
esportistas
esportiva
esportivas
esportivo
esportivos
esposa
espoza
espozada
espozamiento
espozaron
espozarse
espozo
essaouira
essays
est
esta
estaba
estaban
establese
estableser
estableserse
establesida
establesido
establesidos
establesieron
establesimiento
establesio
estacio
estadi
estadio
estadistika
estadistikas
estado
estados
estadounidense
estadounidenses
estambol
estamos
estan
estanbol
estandar
estando
estar
estas
estasion
estasiones
estatal
estato
estatos
estatua
estatus
estatuto
estava
estavan
este
esteli
ester
estero
estes
esther
esti
estil
estilo
estilos
estima
estimada
esto
estokolma
estokolmo
estonia
estoria
estos
estrada
estradas
estranieros
estrasburgo
estrate
estratejika
estratejiko
estrecho
estrella
estremadura
estresho
estreya
estreyas
estrikta
estruktura
estrukturas
estuario
estudia
estudian
estudiando
estudiantes
estudiar
estudio
estudios
estudiosos
estudis
estuvo
et
etapa
etapas
etc
eterna
eterno
ethiopia
ethiopian
ethnologue
etika
etimolo
etimolojia
etimolojiya
etiope
etiopia
etiqueta
etnia
etnias
etnika
etnikas
etniko
etnikos
etr
ets
ettakatol
etz
eu
eugenio
euro
europa
europe
europea
european
euros
eurostar
eurovision
euskadi
euskera
eustatius
ev
eva
evanje
evanjelika
evanjelikas
evanjelyo
evenemento
evenementos
evento
eventos
eventualmente
ever
evidensia
evidensias
evitar
evolusio
evolusion
evrasia
evrasya
evropa
evropea
evropeas
evropeo
evropeos
evrovizion
evrovizyo
ex
exekutivo
existe
existensia
exodus
expo
exposicio
express
expulsados
expulsion
exteriores
eya
eyal
eyas
eyo
eyos
eyoz
ez
ezban
ezekiel
ezmirna
ezra
f
fa
fabela
fabra
fabrika
fabrikados
fabrikante
fabrikas
face
facebook
faces
factbook
faena
fair
fakto
faktores
faktorias
faktos
falco
fall
fallecio
falta
fama
familia
familiar
familias
family
famine
famiya
famiyas
famosa
famoso
famosos
famoza
famozo
famozos
fan
far
faro
farsi
fase
fashion
fasil
faso
father
fatimata
fatma
fauna
favla
favlado
favlan
favlantes
favlar
favna
favor
fayard
faze
fazer
fbi
fe
febrero
february
federado
federados
federal
federala
federalas
federalo
federasion
federasiyon
federation
feel
fei
felat
felipe
female
femenina
feminista
fenisia
fenisio
fenisios
feno
fenomeno
fenomenos
ferdinand
feria
feridos
fermentasion
fermentasiyon
fermi
ferna
fernando
fero
ferrara
ferroviaria
fertil
fes
fest
festival
festivales
festividades
fevrero
fey
fez
fi
fica
fico
ficos
ficus
fidel
fideles
fierro
fiesta
fiestado
fiestas
fight
figura
figuras
fika
fikamente
fikas
fiko
fikos
fila
filipinas
filipino
film
filmo
filmos
filo
filologos
filolojiya
filoso
filosofia
filosofiya
filosofo
fin
fina
finado
final
finala
finalas
finales
finalmente
financial
finansas
finansiera
finansiero
finansieros
finanzas
find
fines
finlandia
firefox
firenze
firma
firmado
firmar
firmo
first
fischer
fisika
fisikas
fisiko
fisiolojiya
fista
five
fiyeles
fizo
flamenko
flandes
flekos
flickr
flor
flora
florensia
flores
florida
flory
flota
fluret
flurete
fluvial
fm
fo
folk
folklor
folklore
folklorikas
fonda
fondada
fondado
fondador
fondadora
fondadores
fondamentales
fondar
fondaron
fondasio
fondasion
fondasiyon
fondo
fondos
fondose
fonemas
fonetika
fonksion
fonksiona
fonksionar
fonksiones
fonseca
font
food
for
forbes
force
ford
foreign
forest
forma
formada
formado
formal
formalmente
forman
formando
formar
formaron
formas
formasio
formasion
formasiones
formato
formava
formentera
former
formo
formosa
formula
forno
foro
fortalesa
fortaleza
forte
fortuna
forum
forward
foto
fotoelektriko
fotografi
fotografiya
fotografiyas
fotolyo
fotolyos
fotos
foundation
four
fox
fr
fra
fragua
fraguada
fraguadas
fraguado
fraguados
fraguamiento
fraguamye
fraguamyento
fraguando
fraguar
fraguaron
fraguas
fraguo
franc
france
francesa
francesc
francesco
francez
francia
francis
francisca
francisco
franco
franja
frank
franka
frankel
frankfurt
franko
frankos
franses
fransesa
franseses
fransez
franseza
fransezas
fransezes
fransezos
fransia
fransisco
fransisko
fransya
franz
franzes
franzesa
franzisko
frasa
frasas
frase
fraternalmente
fray
fraza
fre
free
frejol
frekuensia
frekuente
frekuentemente
frekuentes
french
frente
freska
fresko
freskos
fri
frida
friedman
friedrich
friend
friends
frika
frio
friya
from
frontera
frontiera
frontieras
fronton
fruta
frutas
fruto
frutos
fu
fue
fuego
fuente
fuentes
fuera
fueran
fueron
fuersa
fuersas
fuerte
fuertes
fuerza
fuerzas
fuese
fund
funda
fundacio
fundada
fundado
fundador
fundadores
fundamental
fundamentales
fundar
fundaron
fundasio
fundasion
fundo
funsio
funsion
funsiones
futbol
futura
future
futuro
fuyendo
fuyeron
fuyir
fuyo
fuzion
fye
fyeles
fyesta
fyestas
g
ga
gabinete
gabirol
gabon
gabriel
gad
gaddafi
gadol
gal
galana
galanas
galano
galanos
galata
galeana
galego
galeriya
gales
galez
galgalatz
galia
galil
galilea
galileo
galit
galitzia
galizia
gallegos
gallery
gallimard
galut
gama
game
gameo
gameos
games
gamus
gan
gana
ganaderia
ganado
ganador
ganadora
ganadoras
ganando
ganansias
ganar
gandhi
gangemi
gano
ganyo
gaon
gara
garci
garden
garganta
garin
garza
garzo
gas
gaspar
gasto
gato
gatos
gawc
gay
gayega
gayego
gaz
gaza
gazeta
gazetas
gazetesi
gazette
ge
gemara
genas
gene
general
generales
generalitat
generation
genes
geniza
genocide
genova
gente
geogra
geografi
geographic
geographical
geomorfolojiya
george
georges
georgetown
georgia
gerais
gerbi
german
gerra
gerras
gerrear
gerreros
gerreyar
gerreyaron
gerreyo
get
geto
gets
geula
ghana
gharnati
ghasra
ghetto
ghriba
ghul
gi
gia
giada
gibraltar
gica
gico
gicos
gil
gilbert
giles
gimel
gina
ginea
gio
giorgi
giovanni
girl
girls
gitara
gitarra
giudeo
giv
givat
glasgow
gli
glifo
global
globala
globe
gloria
gnu
go
goa
gob
gobernador
gobierno
goffin
goia
gola
golan
gold
golda
goldberg
golden
golfo
golor
golpe
gonza
good
google
gordon
gos
got
gotiko
gov
governa
governador
governadores
governante
governantes
government
governo
governos
govierno
goviernos
govyerno
goyim
goza
gozan
gra
gracia
gracias
grado
grados
gradualmente
grafi
grafia
grafika
grafiya
grafos
grama
gramatika
grammar
gran
granada
grand
grande
grandemente
grandes
grandor
granos
grasia
grasias
gravado
gravedad
graves
gravo
gre
great
greater
greek
greenberg
greenwich
grega
gregas
grego
gregoriano
gregos
grenoble
gresia
griega
griego
griegos
grijalva
grizo
groenlandia
grosso
group
grumiaux
grup
grupo
grupos
grups
gs
gu
gua
guadalajara
guadalupe
guadra
guadrados
guadrar
guaido
guaini
guajira
guam
guanacaste
guanacevi
guanajuato
guangzhou
guanyo
guarani
guarda
guardia
guardian
guas
guatemala
guaviare
guayana
guayaquil
guerra
guerras
guerrero
guerta
guertas
gueso
guesos
guevo
guevos
guez
gui
guide
guillermo
guinea
guitarra
gulf
gurion
gush
gustav
gustavo
gutenberg
gutie
gutman
guyana
guzma
gymnastics
gzito
h
ha
haaretz
hab
habad
habana
habe
haber
haberes
habi
habiba
habima
habitantes
habla
hace
hachuel
hacia
hadad
hade
hadid
hag
hagana
haggadah
hagim
hagopian
haham
hahambas
hahamim
hai
haidar
haifa
haim
hak
haketi
haketia
hakitia
hal
hala
haleva
halevi
halfon
halic
halis
hall
hama
hamas
hamburgo
hamra
hamsa
hamsas
han
hands
hangzhou
hanna
hannon
hanoi
hanoune
hans
hanukka
hanukkiya
hany
hapkido
har
hara
harav
harbin
haredi
haredim
harem
harina
harinas
harold
harry
hartford
harvard
has
hasan
haser
hashem
hasia
hasidim
haskil
haskoy
hassan
hasta
hatikva
hatuna
hava
haverim
havla
hawaii
hay
haya
hayde
hayes
hayim
hayom
haza
hazan
hazanim
haziendas
hazina
hazino
hazinos
hazinura
hazinuras
he
head
heart
hebrea
hebreo
hebrew
hecelchaka
hecho
hechos
heinrich
helarctos
held
helen
helena
helsinki
hen
henares
henri
henry
her
herald
heredia
herencia
heritage
herman
hermann
hermon
hermosillo
herna
hernando
herramientas
herrera
hersegovina
herzegovina
herzl
herzliya
hevron
hi
hidalgo
hidjab
hierro
higgins
high
hija
hijo
hijos
hill
hillary
hillel
hilonim
himnesias
hindu
hip
hipo
his
hispania
hispano
histo
histoire
historia
historical
history
hit
hitler
hits
hizo
ho
hohma
hoi
hoja
hojas
holding
hollywood
holocaust
holocausto
holod
holodomor
holon
holstein
holy
holz
hombre
hombres
home
homenaje
homo
honduras
hong
hongqiao
honolulu
honor
honorary
honoris
honra
hop
hopelche
horizonte
hospital
hot
hotan
hotel
house
houston
how
hoy
hoz
htm
html
http
https
hu
hua
huac
huamantla
huang
huasteca
huatl
huatulco
hudson
hue
huego
huehuetenango
huehuetoca
huejotzingo
huelva
huera
hueron
huersa
huersados
huersas
huersos
huerte
huertes
huesca
hueypoxtla
huffington
hugo
hui
huila
huitzilopochtli
huixquilucan
human
humana
humanas
humanidad
humano
humanos
humido
hungarian
hungary
hunter
hymens
i
iaaf
iai
iakub
ian
iba
ibague
iban
ibe
iberia
iberika
iberiko
ibisa
ibm
ibn
ic
ice
id
ida
idaho
idea
ideas
identidad
identifikados
identifikar
identity
ideolojiya
idio
idioma
idiomas
idish
idiyoma
ido
idolos
idris
iec
iglesia
iglesias
iglezia
iglezias
iglezya
ignacio
igual
iguala
iguales
igualmente
ii
iii
ija
ijas
ijo
ijos
iko
il
ila
ilan
ildefonso
ildiko
iller
illinois
ils
im
ima
imagen
images
imaje
imajen
imajenes
imajes
imam
imdb
imej
imejes
imi
imigrantes
imigrasion
imno
imola
impakto
imperador
imperfekto
imperia
imperial
imperio
importa
importansia
importante
importantes
imprenta
impuestos
impulso
in
ina
inafed
inc
incheon
incluye
indarctos
indemas
independe
independensia
independent
independentista
independiente
independientes
independyente
index
indi
india
indian
indiana
indiano
indianos
indias
indica
indijena
indijenas
indijenos
indika
indikan
indikativo
indiko
indio
indios
indirekto
indise
individual
individuala
individuos
indo
indoevropea
indoevropeas
indonesia
indonesya
induizmo
industria
industrial
industriala
industrias
industries
industriozos
industry
ine
inegi
inferior
infinitivos
influensa
influensia
influensias
influyentes
info
informa
informacio
informasio
informasion
informasiyon
informasyo
informatika
information
infraestruktura
inglaterra
ingle
ingles
inglesa
inglez
ingleza
inglezes
inglezo
inglezos
ingreso
inimigos
inisial
inisialmente
inisiativa
inisio
inkisizio
inkisizion
inklui
inkluida
inkluir
inkluso
inkluye
inkluyen
inkluyendo
inkluzo
inmediatamente
inmigrantes
innsbruck
input
inquisicio
insektos
insolas
inspirado
inspirados
inspirasion
instalasiones
instalasyon
institusion
institusiones
institut
institute
instituto
institutos
instrumento
instrumentos
insyeme
inte
integrado
integrantes
integrar
integrasion
intelektual
intelektuala
intelektualos
intelijensia
intension
intenso
intento
intentos
inter
interaksio
interaksion
intere
interes
intereso
interior
interiores
interlingua
interna
internacional
internas
internasional
internasionala
internasionalas
internasionales
internasionalmente
internasionalo
internasionalos
internasyonal
internasyonala
internasyonales
international
internet
interno
interpretasio
interpretasion
interpretasiones
interview
intibuca
intifada
into
introduccio
introduction
introduktoryo
introduzido
invadido
invasion
invasyon
invento
inventor
invernal
inverno
investigacio
investigador
investigadores
investigasio
investigasion
investigasiones
investigasyon
invierno
inyetos
inyevada
inyevadas
inyevado
inyeve
ioannis
iprage
iquitos
ir
irak
iraki
irakis
iran
irani
iranian
irapuato
iraq
iraqi
ire
irlanda
irse
is
isa
isaac
isabel
isak
isbn
isbol
ish
isha
isidoro
isidro
isieron
isil
isis
isla
islam
islamabad
islamic
islamika
islamiko
islamikos
island
islandia
islas
iso
isola
isolas
ispano
israe
israel
israeli
israeliana
israelianas
israeliano
israelianos
israelis
israelita
israir
issn
istanbul
istmo
isto
istoria
istoriador
istoriadores
istorias
istorika
istorikamente
istorikas
istoriko
istorikos
istorya
istoryador
istoryas
it
italia
italian
italiana
italianas
italiano
italianos
italika
italy
itf
its
itsak
itshak
itu
iturbide
itza
iv
iva
ivan
ivri
ivrit
ix
ixtapa
ixtapaluca
ixtapan
ixtlahuaca
iyar
iza
izabal
izabela
izcalli
izieron
izla
izlas
izmir
izo
izrael
iztacalco
iztapalapa
izyeron
izz
j
ja
jack
jackson
jacob
jacques
jae
jaen
jaffa
jagan
jagoda
jakob
jalan
jalapa
jalisco
jalisko
jalpan
jaltenco
jama
jamal
james
jamil
jan
jane
janeiro
janet
japon
japoneza
japonezas
japonezo
japonezos
jar
jardi
jardin
jason
jaume
java
javier
jazeera
jazz
je
jean
jeffrey
jehova
jena
jenas
jenera
jenerado
jeneral
jenerala
jenerales
jeneralmente
jenerar
jenerasion
jenerasiones
jenerasiyon
jenero
jenes
jeno
jenosidio
jente
jeogra
jeografi
jeografika
jeografikamente
jeografikas
jeografikos
jeografiya
jeolojiya
jeometriya
jeorjia
jeorjiano
jero
jersey
jerusale
jerusalem
jessica
jesu
jesus
jew
jewish
jews
ji
jibraltar
jika
jikas
jiko
jikos
jilotepec
jilotzingo
jime
jimmy
jina
jinas
jiquipilco
jiutepec
jo
joa
joan
jocotitla
joe
joel
johannes
john
johnson
joint
jonathan
jones
joquicingo
jordan
jordi
jorge
jornada
jose
josef
josefov
joseph
joshua
journal
journalist
journey
joven
jr
jta
jua
juan
juana
juarez
juatu
juchitepec
judah
judai
judaica
judaism
jude
judensau
judenstaat
judeo
judeoespan
juderi
judeus
judi
judio
judios
judit
judith
judo
judy
juegos
juifs
juisio
jujuy
julian
juliantla
julio
july
june
junio
junior
junta
junto
jurado
jure
jurnal
jurnales
just
justice
justo
jutiapa
k
ka
kabala
kabayo
kabesa
kabil
kabildo
kabilia
kabo
kabul
kada
kadaldia
kadas
kaddish
kadena
kadenas
kadi
kadima
kadiz
kadosh
kaer
kahal
kahlo
kahn
kai
kaida
kaiman
kairo
kaje
kaji
kakao
kaktos
kal
kala
kalabria
kale
kaledonia
kaleja
kalejas
kalendario
kales
kali
kalidad
kaliente
kalifato
kalifornia
kaliningrado
kaliza
kalkula
kalkulo
kalor
kalorosa
kaltilyano
kamara
kamareta
kamaretas
kambio
kambodja
kamerun
kamhi
kaminar
kamino
kaminos
kamondo
kampamento
kampamentos
kampanya
kampanyas
kampeonato
kampesinos
kampo
kampos
kampus
kana
kanada
kanadiana
kanadiano
kanadiense
kanal
kanales
kanaria
kanarias
kandela
kandelabro
kandelas
kandidata
kandidato
kandidatos
kane
kaninos
kanon
kanotaj
kansas
kansio
kansion
kansiones
kanta
kantabria
kantada
kantadas
kantadera
kantaderas
kantadero
kantaderos
kantado
kantador
kantadora
kantadores
kantan
kantando
kantante
kantar
kantaron
kantava
kante
kantes
kantidad
kantidades
kantigas
kantika
kantikas
kanto
kanton
kantones
kanun
kanyon
kapa
kapachita
kapachitad
kapas
kapaz
kapita
kapital
kapitala
kapitalas
kapitalista
kapitolo
kapiya
kapiyas
kaplan
kaptura
kara
karabah
karabakh
karaitas
karakas
karakter
karakteres
karakteri
karakteristika
karakteristikas
karamete
karar
karas
karatas
karate
karbon
karga
kargo
karibe
karibeana
kariera
karieras
karl
karman
karmel
karmiel
karnaval
karne
karnes
karo
karolina
karosas
karrera
karreras
karriera
karta
kartago
kartajines
kartajinesa
kartajinesas
kartajineses
kartas
kasa
kasablanka
kasher
kashgar
kashrut
kashtan
kasi
kasino
kaso
kasos
kasparov
kaspia
kaspio
kassams
kastelyano
kastelyon
kasteyano
kastigo
kastilya
kastilyana
kastilyano
kastilyo
kastiya
kastiyano
kastiyo
katala
katalan
katalana
katalanos
katalina
katalunya
katar
katarina
katedral
katedrala
kateggori
kateggoria
kateggoriya
kategori
kategoria
kategoriya
kategoriyas
katena
katenas
kato
katolika
katolikas
katoliko
katolikos
katolisismo
katolisizmo
katowice
katrados
katrena
katreno
katro
katz
kausa
kausas
kavayero
kavayo
kavayos
kave
kaversera
kavesa
kavesera
kaveza
kavida
kavkaz
kavo
kavza
kavzaron
kavzo
kavzos
kaye
kayer
kayida
kayla
kayo
kayro
kaza
kazada
kazado
kazadores
kazakistan
kazal
kazales
kazalinos
kazamiento
kazamye
kazamyento
kazan
kazar
kazaron
kazas
kazaz
kazerio
kazo
kazos
kc
ke
kebab
kebek
kechua
keda
kedan
kedando
kedar
kedaron
kedarse
kedavan
kede
kedo
keep
kehila
keila
keilas
keilot
kel
kemal
kemaron
kemika
ken
kenes
keneset
kenia
kenpo
kenya
kerala
kere
keren
keria
kerian
kerida
kerido
kern
kero
kes
kesariya
keso
kestyo
kfar
kg
khaja
khan
khatami
khina
khomeini
ki
kibbutz
kibris
kids
kidush
kien
kienes
kiev
kijo
kilisa
kilisia
kilisias
kilo
kilometros
kima
kimas
kin
kina
kineza
kinezo
kinezos
king
kings
kingston
kinse
kinsenos
kinyentos
kinze
kipa
kippur
kipre
kipriyota
kirgizstan
kiri
kiriat
kiryat
kishot
kita
kitada
kitadas
kitado
kitados
kitando
kitar
kitaron
kites
kito
kitts
kkl
kla
klanes
klara
klaramente
klaro
klasa
klasas
klase
klases
klasifika
klasifikada
klasifikan
klasifikar
klasifikasion
klasifiko
klasika
klasikas
klasiko
klasikos
klausura
klein
kli
klima
klimas
klimatolojiya
klip
klo
klos
klub
klubes
km
knesset
knikas
know
ko
koalision
kobi
kobre
kocaeli
kochi
kochin
kodesh
kodiche
kodigo
kodigos
kodrela
kodreros
koe
koen
kofi
kohav
kol
kola
kolas
kolavorasion
kolay
kolej
koleksion
koleksiones
koleksiyon
kolektiva
kolektivo
kolina
kolinas
kolinda
kolmiyos
kolo
kolomb
kolombia
kolombiana
kolombiano
kolombianos
kolon
kolonia
kolonial
koloniala
kolonialas
koloniales
kolonializmo
kolonialo
kolonias
kolonisazion
kolonistas
kolonizadores
kolonizasio
kolonizasion
kolonizasiyo
kolonos
kolonya
kolor
kolorada
koloradas
kolorado
kolorados
kolores
kolos
kolumna
kom
komandante
komandantes
komando
komares
komarka
kombate
kome
komedia
komen
komenso
komentario
komentarios
komenzaron
komenzo
komer
komersantes
komersial
komersiala
komersialas
komersiales
komersio
komersios
komersyo
komida
komidas
komienza
komienzos
komision
komisionado
komite
komo
komoras
kompania
kompanyia
kompanyias
komparada
komparado
komparasiyon
komparte
komparten
kompartida
kompartido
kompetensa
kompetensas
kompetensia
kompetision
kompite
kompitio
komplejo
komplekso
kompleksos
komplementa
komplemento
kompleta
kompletada
kompletamente
kompletar
kompleto
komponente
komponentes
komportamiento
kompositor
kompostela
kompozado
kompozador
kompra
komprende
komprender
kompuesta
kompuesto
kompuestos
komputadora
komputasional
komputer
komu
komun
komuna
komunas
komunes
komunida
komunidad
komunidades
komunika
komunikar
komunikasion
komunikasiones
komunikasiyon
komunikasyon
komunismo
komunista
komunistas
komunisto
komunistos
komunita
komunitario
komunitas
komunmente
kon
kondado
kondados
konde
kondena
kondision
kondisiones
kondisyonal
kondisyones
kondjunto
kondukta
konejo
konejos
konekta
konektan
konfederasion
konferansa
konferansas
konferensa
konferensas
konferensia
konfeso
konfirmado
konflikto
konfliktos
konforma
konformada
konformado
konforman
konformando
konformar
konformaron
konformava
konformavan
konformo
konfusianizmo
kong
kongo
kongreso
konjugasyo
konjunkto
konjunto
konkista
konkistada
konkistado
konkistador
konkistadores
konkistar
konkistaron
konkisto
konkorso
konkreto
konkurso
konose
konosemos
konosen
konosensia
konosensya
konoser
konosian
konosida
konosidas
konosido
konosidos
konosimiento
konosimientos
konosimyento
konosimyentos
konosio
konozido
konquista
konsantrasion
konseiyeros
konsejas
konsejo
konsekuensa
konsekuensas
konsekuensia
konsentra
konsentrasion
konsepsion
konsepto
konseptos
konserto
konsertos
konserva
konservador
konservadora
konservadores
konservan
konservasion
konservatorio
konsesho
konsidera
konsiderada
konsideradas
konsiderado
konsiderados
konsideran
konsiderar
konsidero
konsierto
konsigieron
konsigio
konsigir
konsiste
konsonantes
konstante
konstantemente
konstantino
konstantinopla
konstantinopoli
konstitusion
konstitusiyon
konstitusyon
konstituye
konstituyen
konstituyente
konstituyo
konstruida
konstruido
konstruksion
konstruksiyon
konstruye
konstruyida
konstruyido
konstruyidos
konstruyir
konstruyo
konsul
konsulado
konsulta
konsultado
konsumo
konta
kontaba
kontada
kontado
kontakto
kontaktos
kontan
kontar
kontava
konteksto
kontener
kontenido
kontiene
kontinental
kontinentala
kontinentales
kontinente
kontinentes
kontinua
kontinuar
kontinuaron
kontinuo
konto
kontra
kontrario
kontrato
kontro
kontrol
kontrola
kontrolada
kontrolado
kontrolar
kontrolo
kontroversias
konvenios
konvensiones
konvento
konversion
konversos
konvertido
konvertidos
konvertir
konvertirse
konvertirsen
konvidada
konvido
konvierte
konvirtieron
konvirtio
kook
kooperasion
kooperativa
koordenadas
koordinadas
kopa
kopenhage
kopias
koraje
korajoza
koral
koran
koraso
korason
kordiyera
kordoba
kordova
korea
koreano
korfu
korno
koro
korona
koronas
korpo
korpos
korrejidora
korrekta
korrekto
korrer
korresponde
korresponden
korriente
korta
korte
kortes
kortijo
korunya
kos
kosas
kosher
kosina
kosmodrom
kosovo
kosta
kostas
koste
kostera
kosteras
kosto
kostumbra
kostumbras
kostumbre
kostumbres
kotel
kotidiana
kovren
koyot
koza
kozas
krakovia
kramer
kranios
krav
kreado
kreando
krear
kreasion
kreatura
kreaturas
kree
kreemos
kreen
kreensia
kreensias
krema
kreo
krese
kreser
kresiendo
kresiente
kresieron
kresimiento
kresimye
kresimyento
kresio
kreye
kreyen
kreyensia
kreyensias
kreyensya
kreyentes
kreyi
kreyia
kreyian
kreyo
kri
kria
kriada
kriadas
kriado
kriador
kriados
kriando
kriar
kriaron
kriasion
kriasiyon
kriasyon
kriaturas
krimea
krimen
kriminolojiya
krio
krios
kripto
krisa
krisis
kristiana
kristianas
kristianismo
kristianizmo
kristiano
kristianos
kristo
kristobal
kristof
kristya
kristyana
kristyanismo
kristyano
kristyanos
kritika
kritikas
kriyola
kro
kroasia
kroata
kroatia
kronikas
krusada
krusar
krusata
krusatas
kruz
kruza
kruzan
kruzaron
kruze
ksiko
ktika
ktikas
ktiko
kto
ktx
ku
kua
kual
kuala
kualas
kuales
kualidad
kualker
kualkier
kualo
kualos
kualunke
kuanasi
kuando
kuantas
kuantika
kuanto
kuantos
kuarto
kuatro
kuatrosientos
kuba
kubierta
kubre
kuchundu
kudia
kudiada
kudiado
kudian
kudiando
kudiar
kudio
kue
kuenka
kuenko
kuenta
kuentan
kuento
kuentos
kuerpo
kuestion
kuevas
kula
kulas
kulo
kulos
kultivo
kultivos
kulto
kultos
kultura
kultural
kulturala
kulturalas
kulturales
kulturalmente
kulturalo
kulturalos
kulturas
kumer
kumida
kumidas
kumple
kumplen
kumplir
kuna
kuomintang
kupa
kupola
kurasao
kurdish
kurdistan
kurdos
kurso
kursos
kurta
kurto
kurtos
kuveit
kuvijada
kuwait
kuya
kuyo
kuzari
kuzguncuk
kuzina
kuzinar
kuzinas
kyiv
kyodan
kyurdi
kyushu
kıbrıs
l
la
labor
labrador
labut
laden
ladina
ladino
ladinokomunita
lado
ladron
lady
laga
lago
lagona
lagos
laguna
lahore
lake
lalehet
lalla
lama
lambayeque
lampa
lampas
lana
land
lands
lang
language
languages
langue
lanka
lansado
lansadora
lansados
lansamiento
lansar
lanso
lanzarote
lao
lapid
laput
lar
lara
larache
laredo
lares
larga
largo
larkey
las
lashon
lashones
last
late
lati
latifa
latin
latina
latino
latinoamerika
latinos
latitud
latrans
launches
laura
lavor
lavora
lavorado
lavoradores
lavoran
lavorando
lavorantes
lavorar
lavoraron
lavorava
lavoravan
lavores
lavorista
lavoro
lavoros
law
laz
lbum
le
lea
lead
leader
leaders
leadership
league
learning
lebanese
lebanon
lebu
lech
leche
ledjilastiva
lee
leer
leg
lega
legado
legal
legales
legio
leha
lehem
lei
leib
leibniz
leipzig
lejano
lejion
lejislativa
lejislativo
lejos
leksiko
lektores
lektura
lema
lempira
lengua
lenguaje
lenguas
lenin
leningrado
lentamente
leo
leon
leonard
leonardo
leone
leopold
ler
lerdo
lerida
lerma
les
lesensia
leshos
leste
let
letonia
letra
letras
letter
leu
leumi
lev
levanon
levantada
levante
levanto
levelo
levelos
levi
levy
lewis
ley
leyenda
leyes
leyla
leyva
lez
lezion
lgebra
lgv
li
lia
liasion
liasiones
libanesa
libanezo
libanon
libbera
libbero
libberos
libe
liber
libera
liberacio
liberal
liberalismo
liberalo
liberasion
liberation
liberia
libero
liberos
libertad
libertador
liberty
libia
library
libre
libres
libro
libros
libya
lica
licht
lida
lider
liderazgo
lideres
lido
lieberman
liechtenstein
life
liga
ligero
light
lika
likas
liko
likos
likud
lila
lille
lima
limassol
limita
limitado
limite
limites
limito
limitos
limo
limon
lincoln
linda
lindero
linderos
lindes
line
linea
lineas
linet
lingu
lingua
linguas
lingui
linguista
linguistika
linguistiko
linguistikos
linguistos
link
linor
linya
linyas
lion
lionel
lior
lisboa
lise
lisensia
lisesi
lisha
lishana
lishanid
lision
lisionadas
lisionado
lisionados
lisiones
lisis
list
lista
listas
lit
lite
literalmente
literaria
literarias
literario
literatura
literature
litoral
little
lituania
live
living
livorno
livre
livriko
livro
livros
lix
ljubljana
lkar
lkulo
ll
lla
llamada
llamadas
llamado
llano
llanquihue
lleida
llengua
lleonard
llobregat
lo
local
localidades
lod
logo
logos
logrado
lograr
logro
loira
loja
lojika
lojistika
lokal
lokala
lokalas
lokales
lokalidad
lokalidades
lokalo
lokomosion
lola
lolita
london
londra
londres
long
longitud
lonjas
lonjitud
lonjitudes
lonso
lonsos
lopez
lord
lorenzo
loreto
los
lost
loughborough
louis
louise
love
loz
ltd
ltima
ltimas
ltimo
ltimos
lu
lubavitch
lublin
lubomyr
lucas
lucha
lucharon
luci
luciuk
ludwig
luego
lugar
lugares
lugo
lui
luis
luisiana
lukro
luksemburgo
luna
lunes
lunga
lungas
lungesa
lungeza
lungo
lungos
luses
lusho
luta
luterana
luteranizmo
lutero
luther
luto
luvia
luvianos
luvias
luvya
luxembourg
luxemburg
luz
luzzatto
lvaro
lyon
m
ma
maa
maale
maales
maalos
maarten
mabrouk
mac
macau
mace
macedonia
macedonian
macias
madagaskar
madas
made
madeira
madera
madero
madison
madjar
madjaristan
madrasa
madre
madres
madrid
maduro
maestra
maestro
maestros
maga
magayanes
magazen
magazin
magazine
magazines
magdalena
magen
maghreb
magic
maglev
magnetiko
magno
mago
magreb
magrib
magunsia
magzilar
maha
mahavira
mahmoud
mahomat
mahon
mai
maimon
maimonides
main
mais
maiz
majiko
majikos
major
majora
majoria
majorita
makabeos
makao
make
makedonia
makedonio
makes
makinas
making
makkabim
mako
maksima
maksimo
mal
mala
malabar
malaga
malasia
malayalam
maldonado
male
males
malgrado
malha
mali
malik
malika
malinalco
mallorca
malls
malo
malorozamente
malta
maltez
mama
mamertinos
mami
mamiferos
mamo
mamut
man
mana
manadero
management
managua
manantiales
manar
manaus
mancha
manchester
mandada
mandar
mandarin
mandato
mandela
mando
manera
maneras
manga
manhattan
manifestasion
manifestasiones
manifiesto
manifiestos
manitova
mano
manoach
manos
mansana
manseva
mansevas
manseve
manseves
mansevez
mansevika
mansevo
mansevos
mantener
mantenido
mantiene
mantienen
mantuvieron
manuel
manuskritos
manyana
manzanillo
mao
maoz
map
mapa
mapas
maps
mar
mara
maracaibo
maran
maranha
marathi
marc
marcas
marcel
march
marcha
marco
marcos
mardini
mare
mares
marfil
margalit
margarita
mari
maria
mariam
mariana
mariano
marido
marie
marina
marineros
marino
mario
maritimas
maritimo
maritimus
mark
marka
markada
markados
markas
marko
marks
marksista
marmara
marmol
maroc
marokana
maroki
marokis
maroko
marrakech
marrakesh
marrano
marranos
marrokana
marrokano
marrokanos
marroki
marrokis
marroko
marroqui
marruecos
marseya
marshall
marsiales
marso
marta
martes
martha
marti
martin
martinika
martir
marx
marzo
mas
masa
masakre
masas
masaya
masedonia
mashiah
masivo
maslahatos
maso
masorti
mass
massachusetts
master
masters
mata
matado
matados
matagalpa
matando
matar
mataron
matehuala
matema
matematika
matematikas
matematiko
mateo
mateos
materia
material
materiales
materials
materna
matilda
matitiahu
matlatzincas
matlatzingo
matmid
mato
matrimonio
matriz
mattei
matthew
mau
maule
maurice
mauricio
maurisio
mauritania
mavi
max
maxim
maxima
maximiliano
may
maya
mayana
mayas
mayo
mayor
mayora
mayoras
mayores
mayori
mayoria
mayorita
mayorka
mayormente
mayotte
maz
mazahua
mazal
mazales
mazatla
mbaye
mbolo
mbro
mbros
me
mea
meara
medal
medals
medalya
medalyas
medelli
medeyin
media
mediados
mediana
mediante
medias
medical
medida
medidas
medieval
medievala
medika
mediko
medikos
medina
medinat
medio
medios
medisina
mediterra
mediterranea
mediterraneo
medya
medyo
meet
megila
megilat
megorashim
mehdi
mehmet
meimad
meir
mejor
mejores
meka
mekanika
meksikana
meksikanas
meksikano
meksikanos
meksiko
melbourne
melchor
melda
meldada
meldadas
meldado
meldados
meldadura
meldan
meldar
meldo
meleagris
melilla
meliya
mellah
mellon
melursus
melzi
members
membro
membros
meme
memoria
memorial
memorias
men
menachem
menahem
menashe
mendes
mendoza
mene
menes
menester
menesteres
meno
menor
menora
menores
menorka
menos
mensiona
mentada
mentado
mente
menudo
mer
merah
meral
mercado
merced
mercure
merida
meridiano
meridionala
merindad
merka
merkader
merkaderes
merkado
merkados
merkadurias
merkar
merkato
merkatos
merkava
merkaz
merko
mero
meros
mersenarios
mersi
mersin
mes
mesa
meses
meseta
meshiko
mesianiko
mesika
mesina
meskitas
meskla
mesklan
mesklando
mesklar
mesklaron
mesma
mesmamente
mesmo
mesoame
mesoamerika
mesoamerikano
mesopotamia
messas
meta
metal
metales
metapa
mete
meteorolojiya
metepec
meter
metida
metidos
metio
metodista
metodo
metodos
metro
metropoli
metropolis
metropolitan
metropolitana
metropolitano
metropolitanos
metros
metztitla
meuheret
mevaseret
mexicali
mexicaltzingo
mexicano
mexicanos
mexico
mexihco
mexihtli
mexiko
mexiquense
mez
meza
mezes
mezkita
mezkitas
mezkla
mezma
mezmo
mezquital
mezuza
mg
mi
mia
miami
mica
michael
michel
michigan
michoaca
mico
middle
mide
mides
midia
midio
midios
midrash
mie
miedo
miembro
miembros
miento
mientras
mientres
mierkoles
migrasion
migrasiones
miguel
mijor
mijores
mika
mikas
mike
mikhail
miko
mikos
mikronesia
miksta
mikve
mil
mila
milano
milenio
miles
mileva
militar
militares
military
millones
milpa
milyon
milyones
mimouna
mimuna
min
mina
minare
minas
minera
mineral
minerales
mineria
minh
minha
minhag
minhagim
mini
minima
minister
ministerio
ministra
ministro
ministros
ministry
minores
minoria
minoritarias
minoriya
minoriyas
minsk
minutos
minya
minyan
miquel
mir
mira
miracle
mirakolo
miranda
mirando
mirar
mirbeau
miri
miriam
mis
mishkita
mishkitas
mishna
misio
misioneros
misiones
misisipi
misma
mismamente
mismas
mismo
mismos
miss
mission
missouri
mistiko
mistura
misturado
misturados
mit
mitad
mites
mito
mitolojiya
mitos
mitsva
mitsvot
mix
miyones
mizma
mizmo
mizrah
mizrahi
mizrahim
mizrahis
mizura
mm
mo
moc
moda
modas
mode
model
modelo
modelos
moderado
modern
moderna
modernas
modernidad
moderno
modernos
modesto
modi
modo
modos
modre
mohamed
mohammad
mohammed
moise
moldava
moldavia
moldova
moledet
molekular
molie
molina
momax
momento
momentos
mon
mona
monako
monarka
monarkiya
monasterio
monastir
monclova
monde
mondial
mondiala
mondiales
mondialos
mondo
moneda
monedas
monetaria
mongolia
monitor
monografi
monotei
monoteistas
monoteizmo
mons
mont
montan
montanya
montanyas
montanyosa
montanyosas
monte
montemayor
montenegro
monterrey
montes
montevideo
montjui
montreal
montserrat
montsoreau
monumento
monumentos
moquegua
mor
mora
morada
moradas
morado
moradores
moral
morales
moran
morando
morantes
morar
moraron
moravan
moravano
moraza
morbihan
mordechai
mordehai
more
morelia
morelos
moreno
mori
morir
mormo
mormonismo
morning
moro
moroccan
morocco
moros
morris
morte
mortos
mos
mosambiko
moscona
moscow
moses
moshe
mosku
mossad
most
mostra
mosul
mota
mother
motivo
motivos
motor
motores
moulay
mount
movie
movimento
movimentos
movimiento
movimientos
movimyento
mozart
mozes
mozilla
mozotros
mp
mpo
mqi
mr
msnm
mu
muammar
muchas
muchigua
muchiguamiento
muchiguan
muchiguando
muchiguar
muchiguaron
muchiguo
mucho
muchos
mudaron
mudo
muere
muerta
muerte
muerto
muertos
muestra
muestro
muestros
mueva
muevamente
muevas
mueve
mueveno
muevo
muevos
muhamad
muhammad
mui
mujer
mujeres
mulege
multi
mumbai
mun
munc
muncha
munchas
muncho
munchos
mundial
mundiala
mundo
munich
municipal
municipality
municipio
municipios
munisipal
munisipala
munisipalidad
munisipalidades
munisipalitad
munisipio
munisipios
munsha
munshas
munsho
munshos
munsipio
muntaner
muntanya
muntanyas
muntanyosas
mural
murat
muraya
murayas
murieron
murio
murir
muro
muros
murray
mursia
muryo
musa
musafir
musafires
muse
museo
museum
musevi
music
musical
musika
musikal
musikala
musiko
musikos
muslim
muslumanos
mustafa
musulman
musulmana
musulmanes
musulmano
musulmanos
muy
muze
muzeo
muzeos
muzeyo
muzeyos
muzika
muzikal
muzikala
muzikales
muzikos
mw
mx
my
mye
myel
myembro
myembros
myentras
myriam
n
na
nabhani
nacio
nacional
naciones
nada
nadie
naftali
nagano
nagorno
nahichevan
nahuas
nahuatl
nahum
nai
naim
nam
name
names
namibia
nang
nantes
napoleon
napoli
nar
narin
nas
nasa
nase
nasen
naser
nasi
nasida
nasido
nasidos
nasieron
nasimiento
nasimye
nasimyento
nasio
nasion
nasional
nasionala
nasionalas
nasionales
nasionalidad
nasionalismo
nasionalista
nasionalizmo
nasionalo
nasionalos
nasiones
nasyo
nasyon
nasyonal
nasyonala
nasyonalista
nasyones
natal
natan
natasion
nathan
nation
national
nations
nativa
nativas
nativo
nativos
natura
natural
naturala
naturalas
naturales
naturaleza
naturalo
natzratim
naucalpan
navarra
nave
navegador
navegante
naves
navi
navios
navon
nayarit
nayla
nazaret
nazi
nazis
ncatl
nchez
ncia
nda
ndar
nder
ndez
ndice
ndiro
ndo
ndolo
ndose
ne
nea
near
neas
nederland
needs
neerlandesa
neerlandesas
neerlandez
neerlandeza
neerlandezos
negev
negosiante
negosio
negosios
negra
negro
nehru
nektar
nel
nelly
nelson
neo
neri
nes
nesechita
nesesario
nesesidad
nesesidades
nesesita
neshama
net
netanya
netanyahu
network
neue
neuque
nevada
neve
nevis
new
news
newton
nextlalpan
nez
nezahualco
ng
ngel
ngeles
ngua
nguez
nha
nhat
ni
nia
nic
nica
nico
nicola
nicolas
niemeyer
nieto
nieve
nifus
niger
night
niigata
nijer
nijeria
nika
nikaragua
nikas
nike
nikkudot
niko
nikos
nikosiya
nikudot
nilo
nima
nimo
nin
nina
ninguna
ninya
ninyo
ninyos
nio
nir
nis
nisa
nissan
nissim
nivel
niveles
nivelo
nivelos
niversitesi
nixon
nm
no
noah
nobel
noble
nobles
nochada
nochadas
noche
noches
nodo
noel
nogueira
noma
nomadas
nombra
nombrada
nombrado
nombramiento
nombrar
nombraron
nombre
nombres
nominativo
nomo
nomvre
non
nona
nono
nonoo
nopaltepec
nord
nordeste
nordoeste
noreste
normal
normalmente
normas
normativa
normes
norodom
noroeste
norte
norteamerika
north
northern
northwest
noruega
norvejia
nos
noshan
nosotros
not
nota
notable
notas
notes
noticia
noticias
notisias
nova
novel
novela
novelas
november
novembre
novembro
novia
noviembre
noviembro
noviemvre
novle
novo
novosibirsk
novyembre
now
npr
nrg
nsia
nsola
nsula
nte
ntes
nti
ntico
ntika
ntiko
nto
ntos
ntre
ntro
nu
nuclear
nuestra
nuestros
nueva
nuevas
nueve
nuevo
nuevos
nuit
nuklear
nukleares
nukleo
number
numero
numeros
numerosa
numerosas
numerosos
numerozos
nunavut
nunka
nur
nuremberg
nusah
ny
nyeve
nyu
o
oasis
oaxaca
obama
obispado
obispo
obituary
objektivo
objektivos
objekto
objektos
objetivo
objeto
objetos
oblast
obligado
obligasiones
obra
obras
obrego
observador
observadores
observasion
observations
observatorio
obstante
obtener
obtenida
obtiene
obtuvo
ocampo
oce
ochena
ocheno
ocho
ochobre
ochu
ocotepeque
ocoyoacac
octave
october
octubre
ocuilan
odessa
odio
odmar
odo
oeste
of
ofek
oferta
office
official
oficial
ofir
ofisial
ofisiala
ofisialas
ofisiales
ofisialmente
ofisialo
ofisina
ofisinas
ofisio
ofisyal
ofisyala
ofisyales
ofisyalmente
ofizialmente
ofra
ofrese
ofresen
ofreser
ofri
ogusto
oh
ohio
ois
oise
oja
ojas
ojo
ojos
ok
okasiones
oklahoma
oksidental
oksidentala
oksidentalas
oksidentales
oksidente
oksitano
okto
oktobre
oktubre
okupa
okupada
okupadas
okupado
okupan
okuparon
okupasion
okupasyon
okupava
okupo
okurre
ol
ola
olam
olanda
olandesa
olandez
olandeza
olandezas
old
oldu
oles
oli
olim
olimpika
olimpiko
olimpikos
oliva
oliver
olivia
olivo
olmert
oloko
olokosto
olsen
olympia
olympic
olympics
oman
omar
ombeliko
ombre
ombres
ometepe
omniglot
omo
omonima
omonimo
omsk
on
once
onda
ondas
onde
one
ong
online
only
onor
onorario
onores
onra
ontario
ontaryo
onu
onze
op
open
opens
opera
operar
operasion
operasiones
opinio
opinion
opiniones
oporto
oportunidad
oportunidades
oposision
oposisyon
oposizion
opozada
opozadas
opozado
opposition
opuntia
or
ora
oral
oran
orange
orario
oras
orasion
orasiones
orbe
orbita
orchestra
orde
orden
ordenador
ordenadores
ordenados
ordenansas
ordenar
ordenes
ordeno
order
oregon
oren
org
orga
organika
organisa
organisada
organisadas
organisado
organisar
organisasion
organisasiones
organisasiyon
organisasyon
organisation
organismo
organismos
organiso
organizada
organizasion
organizasiones
organizasiyon
organization
organizo
organo
orgolyo
orhan
ori
orient
oriental
orientala
oriente
origen
original
originally
orijen
orijenes
orijin
orijinal
orijinala
orijinalas
orijinales
orijinalmente
orijinalo
orijinalos
orijinaria
orijinarias
orijinario
orijinarios
orijines
orijino
orinoco
oriya
oriyas
orizaba
orkesta
orly
ormigon
oro
orot
orozco
ortako
orthodox
ortiz
ortodoksa
ortodoksas
ortodokses
ortodokso
ortodoksos
ortodoxa
ortogra
ortografia
ortografiya
oruro
oryental
oryentala
oryentales
oryente
os
osaka
osama
osasuna
oscar
ose
osea
oseania
oseaniya
oseano
oseanografi
oseanos
osetia
oshri
osiko
oslo
osmanlı
oso
ospital
ostelera
osteles
ostralia
ostralya
ostria
ostriako
ostro
otan
oteles
other
otho
oto
otobus
otobuses
otobusos
otomana
otomano
otomanos
otomi
otomis
otomobil
otomobiles
otonoma
otonomas
otonomia
otonomiya
otonomo
otonyo
otopista
otopistas
otoridad
otoridades
otra
otras
otro
otronos
otros
otruna
otrunas
otrunos
ottawa
otto
ottoman
ottomana
ottomano
ottomanos
otumba
otzoloapan
otzolotepec
ou
oud
our
out
ov
ovadia
over
overview
oviedo
ovligados
ovra
ovras
oxford
oy
oyendia
oz
ozsoy
ozumba
p
pa
pabello
pablo
pachuca
paci
pacific
padova
padre
padres
paez
paezes
pagar
page
pagina
pago
pai
pais
paisaje
paises
paiz
paizaje
paizajes
paizes
pajina
pakistan
pakto
palabra
palabras
palace
palacio
palasio
palasios
palatinado
palavra
palavras
palensia
paleoli
palermo
palestina
palestine
palestinian
palestiniana
palestinianos
palestino
palestinos
palizada
palma
palmahim
palmas
palo
palos
pampa
pamplona
pan
panama
panbasho
pancasila
pando
panhispa
panorama
panteras
paolo
papa
papalotla
papas
papel
papiamento
papo
papu
par
para
paradesi
paraguay
parai
paralelamente
parana
paras
parashat
parashot
pardo
pared
paredes
parese
paresen
pareser
paresida
paresidas
paresido
paresidos
pari
parinacota
pario
paris
park
parke
parkes
parko
parkos
parlamentaria
parlamentario
parlamento
parliament
parque
parras
parrokia
parrokias
parselas
parsialmente
part
partaja
partajada
partajado
partajamiento
partajar
parte
partes
parti
participacio
partida
partido
partidos
partikolar
partikolares
partikular
partikularmente
partio
partir
partisi
partisipa
partisipar
partisiparon
partisipasion
partisipo
partito
partitos
party
pas
pasa
pasado
pasados
pasaje
pasajeiros
pasajeros
pasan
pasando
pasaporto
pasar
pasaron
pasavan
pase
pasha
pasharo
pasharos
pasi
pasifiko
paskua
paso
pasos
passes
pasta
pastores
pasuk
patadas
patagonia
patas
patentes
patin
patria
patrick
patrimonio
patron
patronato
patrones
patrono
patta
pauker
paul
paula
paulette
paulo
paulus
pavey
pavlo
pavo
payis
payises
payiz
payizes
pays
paz
pazo
pdf
pe
peace
pecha
pedir
pedra
pedrer
pedreras
pedrida
pedrieron
pedrio
pedro
pekados
pekenya
pekenyas
pekin
peking
peles
peli
peligro
pelivanura
pelo
pelota
pen
penal
penang
pendolino
pendular
penguin
peni
peninsola
peninsula
penjamo
pennsylvania
pensador
pensadores
pensamiento
pensar
penserios
pentekostalas
penya
people
pequen
per
pera
perahia
perder
peregrinos
pereira
peres
peretz
perez
perfect
perfekta
perfekto
perfil
pergamino
peri
perigeo
perikolo
perio
periodiko
periodikos
periodismo
periodistas
periodo
periodos
perla
permanente
permanesio
permiso
permite
permiten
permitiendo
permitio
permitir
pernambuco
pero
peros
perro
perros
persa
persas
persekusion
persekusiones
persia
persian
persona
personaje
personajes
personal
personalas
personales
personalitad
personas
personaz
pertenensia
pertenese
pertenesen
pertenesiente
pertenesientes
pertenesio
peru
perugia
peryodo
pesah
pesar
pesaro
pese
peshes
peso
pesukim
petah
pete
peter
petersburgo
petro
petroleo
petrolera
petrolio
pez
pg
ph
philadelphia
philips
phoenix
photo
photos
php
pi
pia
piano
piaui
pib
pichona
pictures
pide
pidio
pie
piedra
piedras
piedre
piel
piensa
piero
pierre
pies
piesa
piesas
pieza
piezas
piko
pikos
pila
pilar
pilares
pilota
piloto
piminton
pinhas
pino
pinos
pintadas
pintador
pintadores
pintar
pinto
pintor
pintura
pinturas
pinyin
pio
pionera
pionero
pioneros
pira
piratas
pirineos
pisa
pishi
pishin
pishka
pishkado
pishkadores
pishkados
piso
pisos
pissarro
pista
pitiusas
pittsburgh
piura
pl
pla
place
places
plaga
plaj
plajas
plajes
plaka
plakas
plan
planada
planadas
planeta
planetas
planifikada
planifikado
plano
planos
planta
plantas
plasa
plastikas
plastiko
plata
plataforma
plato
platos
playa
playas
plaza
plazer
plazo
pleven
plovdiv
pluperfekto
plural
plurilingues
plus
pm
po
poblacio
poblada
poblasio
poblasion
poblasiyo
poblasyon
pobreza
poca
poco
pode
podemos
poder
poderes
poderoso
podi
podia
podre
podri
poe
poema
poemas
poesi
poesia
poeta
poetas
poezia
poeziya
pogrom
pogromos
point
points
poka
pokas
poko
pokos
pol
polaco
polaka
polako
polakos
poland
polandball
polar
polga
poli
polici
polinesia
polis
polisario
polisia
polisiya
politica
political
politics
politika
politikamente
politikas
politiko
politikos
polo
poloneza
polonezos
polonia
polos
polotitla
polrec
pomerania
pompeu
ponce
pone
poniente
ponte
pontes
pop
popocatepetl
popular
populares
popularmente
populasion
population
por
porfiriato
porfirio
porke
porko
porsentaje
port
porta
portal
portas
porto
portokal
portos
portugal
portugez
portugeza
portugezas
portugezes
portugezo
portugezos
portugue
portuguesa
portuguese
portuguez
posee
posesio
posesiones
poseye
posibilidad
posible
posiblemente
posision
posivle
posivlemente
posizion
post
posta
postal
posterior
posteriores
posteriormente
posto
potensia
potensias
potosi
pour
pov
povlada
povladas
povlado
povladores
povlados
povlasio
povlasion
povlasiones
povlasiyo
povlasiyon
povlasyon
power
powerful
poyo
pozisiyo
pozo
pp
ppe
ppp
pra
prada
praga
prague
praktika
praktikada
praktikado
praktikados
praktikantes
praktikar
praktikas
prat
pre
precla
predominante
prefektura
preistoria
preistoriko
prekolombina
prekolombinas
prekolombino
prekolombinos
premie
premier
premio
premios
prenda
prens
prensa
prensipal
prensipales
prensipalmente
prenyada
presa
presencia
presensia
presensya
presenta
presente
presentes
preseptos
preside
presidencia
presidensia
presidensial
presidensialas
president
presidenta
presidente
presidentes
presio
presion
presisa
presisamente
presisan
press
presse
presta
prestan
prestar
prestijio
presto
prestor
prestores
preta
pretas
pretende
preto
pretos
prezente
prezidenta
prezidente
pri
prima
primaria
primarias
primas
primavera
prime
primer
primera
primeramente
primeras
primero
primeros
primitivo
primo
primos
princeton
princhipe
princhipesa
princip
principal
principales
prinsipado
prinsipal
prinsipala
prinsipalas
prinsipales
prinsipalmente
prinsipalo
prinsipalos
prinsipe
prinsipiar
prinsipio
prinsipios
pritzker
privada
privadas
privado
privados
prix
prize
prizio
prizion
pro
probabilidad
probablemente
problema
problemas
proceedings
proceso
prodjekto
prodjektos
production
produksio
produksion
produksiyon
produkto
produktor
produktora
produktores
produktos
produse
produsen
produsida
produsido
produsir
produze
produzida
produzido
produzir
prof
profesional
profesionala
profesionales
profesor
profesora
profesores
profeta
profetas
profil
profile
program
programa
programas
programasio
programasiyon
progresista
progreso
project
projekto
proklamado
proksima
proksimo
prokuktos
prokura
promedio
promover
promueve
pronombres
pronto
pronunsia
pronunsiada
pronunsiado
pronunsiasion
pronunsiasiyon
propaganda
propia
propiamente
propias
propiedad
propiedades
propieta
propietario
propio
propios
propo
propone
propoza
propozada
propozado
propozo
propria
propuesta
propuesto
propuso
prosede
prosedente
prosedentes
prosesal
proseso
prosesos
protejer
protejido
proteksion
proteksiyon
protektor
protektorado
protesta
protestante
protestantes
protestaron
protestas
prova
provablemente
provas
prove
provensiya
provensiyas
proves
provesa
proviene
provienen
provincia
provinsia
provinsias
provoko
proyekto
proyektos
prunus
prusia
psikolojiya
pt
ptolomeo
pu
public
publicacio
publications
publika
publikada
publikadas
publikado
publikados
publikamente
publikar
publikas
publikasion
publikasiyon
publiko
publikos
publique
published
publishers
publishing
pudieron
pudo
pudong
puebla
pueblo
pueblos
pueda
puedan
puede
puededora
puededoras
pueden
pueder
puederes
puederoza
puedes
puedesh
puedia
puedian
puedo
puente
puerko
puerkos
puerpo
puerpos
puerta
puertas
puerto
puertos
pues
puesto
puevlo
puevlos
pujo
punika
puno
punta
puntarenas
puntas
punto
puntos
pura
pure
purepecha
purim
purke
puro
purua
puso
putin
putumayo
puvlikado
puvlikados
puvlikasion
puvliko
pye
pyel
q
qa
qadri
qaeda
qaida
qatar
qi
qingdao
qu
quad
quds
que
quebec
queen
queens
quere
quetzaltenango
quez
quiche
quie
quien
quijote
quintana
quinto
r
ra
raba
rabat
rabbi
rabe
rabenu
rabi
rabin
rabinato
rabiniko
rabino
rabinos
rabo
rabos
rachel
rada
radiasion
radikal
radio
radiodifusion
rae
rafael
rahel
rai
railway
railways
rais
raises
raisman
raiz
raizes
raketa
raki
rakı
ralph
ram
rama
ramas
ramat
ramba
rambam
ramchal
ramhal
ramla
ramo
ramon
ramos
rana
ranas
rancho
ranh
ranking
raphael
rapida
rapidamente
rapido
raqqa
raquel
ras
rasa
rasas
rasd
rashi
rasial
rasizmo
rason
ratas
ration
ratzeburg
rau
rav
raymond
rayo
rayos
raza
razas
razo
razon
razones
rbara
rcega
rcito
rd
rdenas
rdenes
rdoba
re
rea
reaksiyones
real
reales
realidad
reality
realizada
realizado
realizar
reas
reasons
rebbe
rebbi
rebelion
rebetiko
rebivir
recherche
recheta
rechetas
recife
record
records
red
redaktor
rede
redes
redusir
reem
ref
refaeli
referencias
referendum
referensia
referensias
referido
referirse
refiere
reflan
reflanes
reform
reforma
reformas
reformista
reformistas
refranes
refugee
refugio
refujiados
refujio
regalado
reggio
regina
regio
region
regional
regionala
regla
reglas
regular
regulares
rehovot
rei
reich
reina
reinado
reino
reinos
rejima
rejio
rejion
rejional
rejionala
rejionalas
rejionales
rejionalo
rejiones
rejistro
rejistros
rejto
reko
rekodro
rekodros
rekonkista
rekonose
rekonosen
rekonosensia
rekonosida
rekonosidas
rekonosido
rekonosidos
rekonosimiento
rekonosimye
rekonosimyento
rekonstruksio
rekuperar
rekursos
relacio
relaciones
relasio
relasion
relasiona
relasionada
relasionadas
relasionado
relasionados
relasiones
relasiyon
relasyones
relations
relativamente
relatividad
relato
relatos
relieve
religio
religion
religions
religious
religioza
relijio
relijion
relijiones
relijiosa
relijiosas
relijioso
relijiosos
relijioza
relijiozas
relijiozo
relijiozos
rem
remedios
remontan
remuevasiyon
renania
renasimiento
renault
rene
renombrada
renombrado
renunsia
report
reportaje
reporter
repozo
representa
representada
representan
representante
representantes
representar
representasion
representativa
represetado
repu
republic
republika
repuesta
repuestas
repuvlika
repuvlikano
repuvlikas
res
research
reserva
reservas
reshet
resibe
residencia
residensia
residentes
resiente
resientemente
resientes
resistensia
resive
resiven
resivido
resivieron
resivio
resivir
resnik
resolution
resolver
respektivamente
respekto
responsa
responsavle
respuesta
resto
restorada
restorantes
restorar
restorasion
restos
resulta
resultado
resultados
results
resyentemente
retirada
retiro
retorika
retorno
retrato
retrieved
reunio
reunion
reunir
reushita
reushitar
reushito
reusho
reuters
reuven
revela
review
revillagigedo
revisio
revisiyonista
revista
revistas
revival
revolta
revolusion
revolusionaria
revolusionario
revolusiyon
revolusyon
revolution
rey
reyes
reyna
reynado
reyno
reynos
reynosa
rez
reza
rezensionen
rezos
rho
rhodesia
ri
ria
riba
ribeira
ribera
rica
ricardo
richard
rick
rico
rida
rieles
riera
rif
riforma
rifujiados
riga
right
rights
rika
rikamente
rikas
rikesa
rikeza
rikezas
riko
rikos
rimon
rin
rinco
rio
riohacha
rioja
rios
risaralda
rise
rishon
rising
rit
rita
rith
ritmika
ritmo
rito
ritornar
ritorno
ritos
ritter
ritu
ritual
rituales
rivas
river
rivera
rivieras
rj
rjenes
rk
rkc
rkiye
rmino
rminos
rna
rno
rnos
ro
road
robert
roberto
robin
robles
rochelle
rock
rockefeller
rodas
rodea
rodeada
rodeado
rodes
rodin
rodri
rodrigo
rodrik
roger
rojas
rojda
rojo
roka
roketa
roketas
rokosas
rol
roma
roman
romana
romanas
romaniotas
romano
romanos
romansa
romansas
romanse
romanya
rome
romero
romo
romos
ron
ronald
ronda
rondo
ronit
roo
ropa
ros
rosa
rosales
rosario
rosarito
rosas
rose
rosh
roth
rothschild
rotterdam
roubaix
rouen
routledge
rova
royal
roz
roza
rprete
rquez
rra
rrez
rriyet
rsa
rsas
rsito
rso
rsos
rt
rte
rto
ru
ruah
rubel
rue
ruinas
ruiz
rumana
rumania
rumano
rumbo
rumorosa
running
rural
rurales
rusa
rusia
ruso
rusos
russa
russia
russian
russo
rut
ruta
rutas
ruth
rya
ryal
s
sa
saba
sabah
saban
sabana
sabancı
sabe
saber
sabetay
sabiha
sacatepe
safa
safano
safed
safra
sagrada
sagradas
sagrado
sagrados
sahara
saharaui
saharauis
sahel
said
saint
sajonia
sakar
sakramento
sakro
sal
sala
saladas
salado
salaino
salam
salama
salamanca
salamanka
salazar
sale
saleh
salem
salgado
sali
salida
salieron
salim
salio
salir
salma
salo
salomon
salon
salonik
salonika
salt
salta
saltillo
salto
salud
saludes
salvador
salvaje
salvajes
salvar
salvaron
salvo
salyeron
salyo
salzburgo
samama
samaria
sami
samir
samoa
samuel
san
sana
sanedad
sangre
sankore
sanskrita
sant
santa
santander
santare
santiago
santo
santos
santuario
sar
sara
saragosa
sarah
sarajevo
sarano
saray
sardenya
sarfatiko
sarit
sarkozy
sate
satelit
satelits
satellite
satisfaser
satmar
saudi
saudia
saudis
saudita
saul
save
savor
saya
sayas
says
scheiner
schleswig
scho
scholars
school
schrobsdorff
schubert
schumann
schuster
schwartz
schwarze
science
sciences
scientific
scientology
scopus
scotland
scott
sde
sderot
sdf
se
sea
sean
search
seattle
sebahat
sebastia
sebastian
second
secretari
secuencia
seda
sedaka
sede
seder
sedes
sedesol
see
sefarad
sefaradi
sefaradim
sefaradis
sefardi
sefardim
sefardis
sefer
seglo
segovia
segu
segun
segunda
segundo
segura
seguridad
seguritad
seis
seka
sekanias
sekas
seklo
seko
sekos
sekretaria
sekretario
sekreto
seksion
seksiones
seksiyon
seksiyones
seksuala
sektor
sektores
sekular
sekulares
sekundaria
sekundarias
sekurita
sekuritad
selahaddin
selanik
selchukes
selebra
selebrado
selebrar
selebrasion
selebrasiones
selected
selk
selta
selva
semana
semanada
semanal
semanas
sembol
sementario
sementerio
sementeryo
semi
seminario
semitas
semitika
semiyas
sen
senado
senador
senate
senegal
senior
seno
sensia
sensias
sensiolojiya
senso
sentido
sentir
sentrada
sentral
sentrala
sentralas
sentralo
sentro
sentroamerikano
sentros
senyor
seoul
separa
separada
separadas
separado
separar
separasion
sephardi
sephardic
sephardim
september
septembre
septiembre
septiembro
ser
sera
seramika
serbia
serbio
serbios
serbo
sereales
seremonia
serena
seres
serfaty
serge
sergio
seri
seria
serie
series
seriya
serka
serkada
serkana
serkanas
serkani
serkano
serkanos
serpyentes
serra
serrado
serralada
serraladas
serrano
serro
serros
servia
service
servir
servis
servisio
servisios
ses
sesenta
sesh
seshena
sesheno
set
sete
setenta
setiembre
settimanal
seuda
seul
seuta
sevada
seven
severin
severo
sevi
sevilla
seviya
sevoya
sexo
sexual
seya
seyan
sfenks
sh
sha
shabat
shabazi
shabbat
shabbazi
shah
shahar
shakespeare
shalem
shalom
shamash
shamir
shampiona
shampionato
shampionatos
shampiyonato
shampiyonatos
shanghai
shans
shapira
shara
sharabi
sharas
sharfa
sharfo
sharfos
sharia
sharif
sharon
shas
shaul
shavit
she
shearim
shearith
shef
shefa
shefe
shefes
shehrazad
sheikh
sheinbaum
sheka
shekalim
shekel
shekels
shel
shelomo
shem
shema
shemesh
shemot
shemuel
shenzhen
sher
sheva
shi
shimon
shin
shinkansen
shino
shinto
shir
shirat
shiri
shirurjiya
shlomi
shlomo
shmuel
shmulik
shoa
shoah
shohat
shomron
short
shoshanat
show
shtetl
shu
shuadit
shuku
shukur
shul
shulhan
si
siber
siberia
sica
sico
side
sidi
sido
sidra
sidurim
sie
siedra
sieklo
sieklos
siekolo
sielo
siemens
siempre
sien
siendo
sienes
siensia
siensias
sienti
sientifika
sientifikas
sientifiko
sientifikos
sientistos
sierra
sierta
sierto
siete
sietembre
sieten
sietena
sieteno
sifrei
sige
sigen
sigido
sigidos
sigiente
sigientes
sigieron
siginte
sigintes
sigio
sigir
siglas
siglo
siglos
significa
signifika
signifikado
sigue
siguiente
siguientes
sigun
sigunda
sigundo
sihanouk
siim
sika
sikas
siklo
siklos
siknifika
siko
sikodrama
sikos
silensio
siles
silesia
silesiano
silicon
silva
silver
silverman
silvestre
silvestres
sima
siman
simantov
simbo
simbol
simbolo
simbolos
similar
similares
simiteryo
simo
simon
simone
simple
simplemente
simples
simplifikado
sin
sinagog
sinagoga
sinagogas
sinai
sinaloa
sinan
since
sine
sinema
sinemateka
sinematografi
sinetika
singapur
singer
singh
single
singular
sinken
sinkena
sinkeno
sinkenos
sinkiang
sinko
sino
sint
sinyal
sinyales
sinyatura
sinyaturado
sinyifica
sinyifika
sinyifikado
sinyifikados
sinyifikasion
sinyor
sinyora
sinyori
sinyos
sion
sionista
sir
sirakusa
siria
siriliko
sirio
sirios
sirka
sirkulasiyon
sirve
sirven
sirvio
sisdjordania
sisilia
sistem
sistema
sistemas
sistems
sister
sita
site
sitio
sitios
sitizena
sitizeno
sitizenos
sito
situada
situado
situasio
situasion
situasyon
siudad
siudades
sivdad
sivdadania
sivdadano
sivdadanos
sivdades
sivdadinos
sivil
siviles
sivilizasion
sivilizasiones
sixto
siya
siynifika
sk
ski
skola
skolas
skopia
skopje
skosia
sku
slalom
slam
sland
slogan
sm
smadar
small
smirna
smith
smo
smyrna
sncf
snow
so
soberano
sobre
sobro
social
societies
society
soconusco
soerjosoemarno
sofia
sofiya
sofo
software
sol
sola
solamente
solar
soldado
soldados
soledad
soli
solidaridad
solika
solista
solitreo
solo
solola
solomon
solu
solusion
solusiones
somaliya
sombra
sometido
sometidos
somos
son
sona
sonata
sonatas
sonete
sonetes
song
songs
sonia
sonido
sonora
sonsonate
sont
sophie
soportada
soportar
soprano
sor
soria
sosial
sosiales
sosialismo
sosialista
sosiedad
sosiedades
sosiolojiya
sospechas
sosyal
sosyala
sosyalas
sosyales
sosyalista
sosyalistas
sosyeta
sosyete
sosyetes
soto
sougia
souk
soumaya
south
southern
soverano
soviet
sovietika
sovre
sovresale
sovye
sovyetika
sovyetikas
sovyetiko
sovyetikos
sox
soy
soyaniquilpan
soyuz
space
spacecom
spain
spanish
speed
speg
spinoza
spor
sport
sports
spot
spring
springer
sr
sri
srpska
ss
st
sta
stalin
stalinist
stanbul
standard
stanford
star
stas
state
states
station
statistical
statistics
status
ste
stepanakert
stephen
steven
stica
stico
stika
stikas
stiko
stikos
sto
stock
stone
stories
storm
story
stos
strasburgo
strauss
street
struggle
student
studies
studio
study
stuttgart
style
stylo
su
sua
suave
sub
subjontivo
subliminal
subte
subterraneo
success
suchiate
sucre
sud
sudafrika
sudamerika
sudan
sudeste
suditansa
sudoeste
sueko
suele
suelen
suelo
suen
suerte
suertes
suesia
suez
sufijo
sufisientes
sufrimiento
sufrio
sufrir
suisa
suiso
sujeto
sujetos
sul
sula
suleiman
sulla
sullivan
sulta
sultan
sultepec
suma
summer
sumo
sun
sunday
superar
superfisia
superfisie
superfisye
superior
superiores
supo
supone
suporte
suprema
supremo
supuestamente
sur
sureste
suria
surinam
surjen
surjir
suroeste
survey
surya
sus
susana
sustituir
sustrato
suya
suz
suzman
suzy
svobodny
swahili
sweet
swimmer
sydney
sye
syeklo
syeklos
syelo
syempre
syendo
syete
syklo
synagoge
synagogue
synagogues
syria
syrian
system
systems
syzmo
t
ta
taanit
tabako
tabasco
tabla
tablas
tacna
tadjikistan
tadre
taekwondo
tahounia
taifas
tailandes
tailandia
taipei
tait
taiwan
tajikistan
tajo
take
takes
tal
talavera
talento
tales
talgo
talibanes
talit
talkauano
tallinn
talmud
tam
tamajaq
tamanyo
tamanyos
tamasheq
tamaulipas
tamazight
tambe
tamben
tambie
tambien
tambyen
tami
tampoko
tan
tanah
tanger
tanjer
tank
tannoudji
tansu
tanto
tanxugueiras
tanye
tanyedor
tanyedora
tanyer
tanzania
tao
taoi
taoizmo
tap
tapachula
tapestry
tapetes
taqbaylit
tarapaca
tarbut
tarde
tarea
taref
tarifit
tarija
taro
tarragona
tasa
tashkent
tat
tate
tatoeba
tau
tavla
tawakkul
tawakul
taxco
taylor
tbol
te
team
teatro
teatros
teca
tecate
technion
technology
techo
tecnolo
tecoma
teddy
tefila
tefilat
tefilot
tegucigalpa
teheran
tehran
tehuaca
tehuantepec
teide
teilim
teitelbaum
tejupilco
teknika
teknikas
teknolo
teknolojiko
teknolojiya
teknolojiyas
tekstiles
teksto
tekstos
tel
tela
telas
tele
telefo
telefon
telegraph
teles
television
televisyon
televizion
televizyo
televizyon
tema
temamatla
teman
temani
temanis
temas
temascalapa
temascalcingo
temascaltepec
temixco
temoaya
temor
temperatura
temperaturas
templada
templado
temple
templo
templos
tempo
temporada
temporal
temprana
temuco
ten
tenabo
tenancingo
tenango
tendensia
tendensias
tene
tenemos
tener
tenerife
tenga
tengan
teni
tenia
tenian
tenido
teniendo
teniente
tenis
teniya
teniyan
tennessee
tennis
tenochtitla
tenochtitlan
tenosique
tenta
tentando
tentar
tentaron
tento
tenyian
teo
teolojiya
teoloyucan
teorema
teori
teoria
teorias
teorika
teoriya
teoriyas
teotihuaca
teotlalpan
tepeji
tepetl
tepetlaoxtoc
tepetlixpa
tepezala
tepic
tepotzotla
tequisquiapan
tequixquiac
teritoriyos
terminal
termino
terminos
termo
termos
terra
terranova
terremoto
terreno
terrenos
terrestre
terrestres
territo
territorial
territorio
territorios
territoryo
terror
terrorista
terroristas
terrorizmo
tersera
teruel
tes
tesis
testamento
testemunyos
testigos
tetepango
tetua
tetuan
tetuani
teva
texas
texcaltitla
texcalyacac
texcoco
tezontepec
tezoyuca
tgv
th
that
the
their
theo
theodor
theory
thessaloniki
thibetanus
third
this
thomas
those
three
through
thy
ti
tianguis
tianguistenco
tiberias
tibet
tibetano
tica
ticas
tico
ticos
tiempo
tiempos
tiene
tienen
tienes
tiera
tierra
tierras
tifinagh
tigres
tijuana
tika
tikamente
tikas
tiko
tikos
tikva
tima
timbuktu
time
times
timilpan
timo
timor
timur
tinduf
tini
tinia
tinian
tinido
tiniendo
tip
tipo
tipos
tirana
tirano
tiro
tisha
title
tito
titolo
titolos
titulo
tiyo
tiza
tizayuca
tizi
tizimi
tla
tlachco
tlahuelilpan
tlahuicas
tlalmanalco
tlalnepantla
tlalpan
tlan
tlapanaloya
tlaquepaque
tlatlaya
tlaxcala
tlaxco
tlaxcoapan
tlaxiaca
tlazala
tniko
tnikos
to
tocancipa
tocantins
toda
todas
today
todo
todos
todu
togo
tokar
tokio
tokyo
tolcayuca
toledano
toledo
tolima
tolo
tolos
tolosa
toltekos
toluca
toma
tomada
tomadas
tomado
toman
tomando
tomar
tomaron
tomas
tomat
tomats
tomba
tombas
tome
tomo
tonanitla
tonatico
tony
too
top
topa
topada
topadas
topado
topados
topan
topar
toparon
toparse
toparsen
topava
topavan
topo
topolojiya
toponimia
toponimo
topuz
toqui
tora
toradas
torah
torino
tornar
tornaron
torno
toro
toronto
toros
torre
torreo
torres
tortiya
total
totala
totales
totalidad
totalmente
tote
toulouse
tour
tourism
tours
tous
tov
tower
town
toyota
tr
tra
trabajadores
trabajar
trabajo
trabajos
trabzon
trade
tradicio
tradisio
tradision
tradisional
tradisionala
tradisionalas
tradisionales
tradisionalmente
tradisiones
tradisiyon
tradisiyones
tradisyon
tradisyonal
tradition
traduksio
traduksion
traduksiones
traduksiyon
traduksiyones
traduksyon
tradusido
traduzido
traer
trafik
trafiko
train
trakai
trakya
tram
tramvay
trankila
trans
transbordo
transforma
transilvania
transito
transkavkazia
transkripsion
translation
transliterasion
transmisiyon
transmitido
transportar
transporte
transporto
transrapid
tranzporto
tras
trata
tratado
tratados
tratamiento
tratan
trato
trave
travel
traverso
traves
trayido
tre
treblinka
tredje
tree
treinador
treinta
tren
trenes
treno
trenos
trenta
tres
trese
treser
tresera
tresero
tresladada
tresladado
tresladar
tresladasion
tresladasiyon
tribu
tribunal
tribune
tribus
trieste
trigo
trinidad
trio
tripla
triple
tripoli
triste
triunfo
tro
troka
trokada
trokadas
trokado
trokamiento
trokamientos
trokamyentos
trokan
trokando
trokar
trokara
trokaron
trokarse
troko
trokos
tropas
tropikal
tropikala
tropikalas
tropikales
trotsky
trotta
trump
trupas
trusheron
trusho
ts
tsahal
tsava
tse
tsur
tu
tuareg
tucuma
tuda
tudas
tudela
tudes
tudo
tudos
tula
tulancingo
tulo
tultepec
tultitla
tulum
tumba
tumbas
tumbes
tuncel
tundra
tunel
tuneles
tunesia
tunesiano
tunis
tunisia
tunisian
tunisie
tunja
tupi
turan
turco
turi
turismo
turistas
turistika
turistiko
turistos
turizmo
turiztiko
turiztikos
turiztos
turka
turkana
turkanas
turkano
turkanos
turkas
turkey
turkia
turkish
turkiya
turkmenistan
turko
turkos
turnamentos
turnuva
tutti
tuvieron
tuvo
tuxtla
tv
tvi
twitter
two
tye
tyempo
tyempos
tyene
tyenen
tyerra
tyerras
tyerrito
tyerritorio
tyerritorios
tzion
tzitzit
tzu
u
ua
uae
ubika
ubikada
ubikadas
ubikado
ubikados
ubikasion
ucayali
ud
ue
ufkir
uganda
uigur
uk
ukraina
ukraine
ukraini
ukrainia
ukrainian
ukrainio
ukrainios
ukrania
ul
ulai
ulay
ulpan
ultima
ultimas
ultimo
ultimos
ultra
ultramar
uma
umana
umanas
umanidad
umanidades
umanitad
umanitades
umano
umanos
umberto
umedad
umido
umm
umut
un
una
unam
unas
und
under
une
unen
unesco
ungaria
ungario
uni
unida
unidad
unidades
unidas
unido
unidos
unieron
unifikada
unifikado
unifikasion
uniforme
unika
unikamente
uniko
unikos
unio
union
unir
unirse
unita
unitas
united
unito
unitos
universal
universala
universelle
universidad
universidade
universidades
universita
universitaria
universitario
universitas
university
universo
uno
unos
uns
up
urales
uranio
urbana
urbanas
urbano
urbanos
urbe
urdu
uri
ursavus
urss
ursus
uru
uruapan
uruguay
uruguayo
urumchi
us
usa
usado
usador
usadores
usados
usar
uso
ut
utah
utilidad
utiliza
utilizado
utilizan
utilizar
uu
uva
uvas
uvikadas
uvo
uygur
uza
uzaba
uzaban
uzada
uzadas
uzado
uzados
uzan
uzando
uzar
uzarlo
uzaron
uzarse
uzava
uzavan
uzbeka
uzbekistan
uziel
uzo
uzos
uzu
uzualmente
uzuarios
v
va
vado
vaka
vakas
val
valdgeym
valdivia
vale
valencia
valenciana
valensia
valensiana
valensiano
valey
valladolid
valle
valley
valo
valor
valores
valparai
valparaiso
vamos
van
vancouver
vannes
vanuatu
vapor
vapores
var
variables
variada
variado
variados
variante
variantes
varias
variasiones
variedad
variedades
varios
varna
varsovia
vas
vasco
vashem
vaska
vasko
vasta
vatikano
vaupes
vaya
vayadolid
vaye
vayes
vayikra
ve
vease
veces
vedrad
vedradera
vedradero
vedre
vedres
vega
veinte
veja
vejetal
vel
vela
velar
velosidad
ven
venda
vender
vendidas
vendio
venerado
venesia
veneti
venezia
venezolana
venezolano
venezuela
venezuelana
venezuelano
venezuelanos
venice
venida
venidas
venido
venidos
venir
venta
vente
ventura
venustiano
ver
vera
veracruz
veraguas
verano
verapaz
verbo
verbos
verdad
verdadera
verdadero
verde
verduzco
verguensa
verlag
vermont
vernacular
vernakular
vernon
versio
version
versiones
versiyon
versiyones
verso
versos
very
ves
veses
vesinos
vestidos
vestijios
vez
vezes
vi
via
viaja
viajan
viajar
viajaron
viaje
viajero
viajeros
viajes
viajo
vian
vias
vice
vicente
vichada
victims
victor
victoria
vida
vidal
vidas
vide
video
videos
vido
vie
vieja
viejas
viejo
viejos
viena
viene
vienen
viento
vientos
viernes
vieron
vietnam
vietnameza
vietnamezo
view
vige
vii
viii
vijita
vijitado
vijitan
vijitar
vijitarla
vijitas
vijitava
vijito
vikimedya
vikipedia
vikipedya
vikipedyas
viktimas
viktor
viktoria
viktorias
vila
vilayet
vilayetes
villa
villada
villages
villahermosa
villanueva
villarreal
vilna
vin
vinci
vini
vinieron
vinir
vino
vinos
vinya
vinyas
vinyedos
vinyeron
vio
violensia
violeta
violin
virginia
virjen
virjin
virrey
virreynato
virtual
virtud
vise
visegra
visepresidente
visible
visio
vision
visit
visita
visitada
visitadas
visitados
visitantes
visitar
visitarla
vista
vistido
vistidos
vistir
visto
visyon
vita
viva
vive
vivienda
vivir
vivo
vivos
viya
viyas
viyatuelda
vize
vizinas
vizino
vizinos
vizkaya
vladi
vladimir
vladivostok
vlika
vo
voces
voice
vokabulario
vokales
vol
voleibol
volga
volka
volkano
volo
volos
volu
volume
volumen
voluntad
volvio
von
vora
vos
vosges
votasiones
vote
voto
votos
voy
voyvodato
voz
vrbanja
vuelta
vuelve
vulgaris
vung
vy
w
wa
wade
wadi
wales
walk
walla
walter
wants
war
warszawa
was
washington
watch
water
way
wayuu
wayuunaiki
wałe
we
web
website
week
weekly
weiss
weizmann
welcome
welle
welt
west
western
westminster
what
when
where
which
white
who
why
wie
wiki
wikimapia
wikimedia
wikipedia
wilamowice
wilaya
wilayas
wilhelm
will
william
williams
wilme
wilson
wimbledon
win
windows
wine
wingate
winner
winners
wins
winter
wise
with
without
wo
woman
women
word
work
works
world
wright
wrocław
wta
wu
wuhan
www
wyoming
x
xablo
xalapa
xalatlaco
xauen
xel
xi
xianfan
xico
xicohte
xii
xiii
xilitla
xiv
xix
xixon
xocalı
xochimilco
xonacatla
xuetas
xuetes
xv
xvi
xvii
xviii
xx
xxi
y
ya
yaakov
yad
yafo
yahudi
yair
yakup
yakutsk
yale
yam
yama
yamaba
yamaban
yamada
yamadas
yamado
yamados
yaman
yamando
yamar
yamaron
yamarse
yamas
yamava
yamavan
yamo
yan
yankees
yanos
yanura
yapto
yarden
yas
yasemin
yasimientos
yasmin
yasmina
yau
yavan
yavne
yazidi
yazidis
ye
year
years
yediot
yega
yegada
yegado
yegan
yegando
yegar
yegaron
yegavan
yego
yehoshua
yehuda
yekke
yekkes
yelada
yelido
yelo
yeltsin
yemen
yemeni
yen
yena
yenes
yeno
yerba
yerro
yerros
yerus
yerushala
yerushalayim
yerushalmi
yerva
yesh
yeshiva
yeshivot
yeshu
yeso
yesukristo
yeuda
yeva
yevada
yevado
yevados
yevan
yevar
yevarlo
yevaron
yevo
yid
yiddish
yiddishe
yim
yir
yishuvim
yisrael
yisraeli
yisraeliana
yisraelianas
yisraeliano
yisraelianos
yisraelis
yitshak
yitzhak
yivo
ynet
yo
yom
yona
yonatan
yoni
york
yoro
yoruba
yosef
yossi
yotl
you
young
your
yousef
youth
youtube
ypj
yu
yucata
yugoslavia
yukata
yukatan
yulio
yusef
yusra
z
za
zacapa
zacatecas
zacazonapan
zacualpan
zafrani
zaha
zahra
zalman
zambia
zamora
zankoul
zapata
zapatero
zapotla
zar
zaragoza
zaro
zarzavat
zarzavates
zarzevates
zatz
zaza
ze
zeev
zehava
zeina
zeit
zelanda
zenit
zer
zero
zho
zhuang
zi
ziaten
zihuatanejo
zika
zimbabwe
zimmer
zinacanta
zinacantepec
zion
zionism
zionismo
zionista
zionistas
zionizmo
zirguela
ziynet
zmir
zmo
zo
zohar
zon
zona
zonas
zoolojia
zoolojiya
zor
zorear
zquez
zsoy
zu
zulia
zulu
zumpahuaca
zumpango
zur
zurich
zvi
zwi
zyeg
{
|
}
~
¡
§
ª
«
®
°
²
³
´
·
¹
º
»
¿
×
ß
đa
ı
ło
łobez
ʒ
ʻ
ʼ
ʾ
ʿ
ˈ
ː
ˢ
ˤ
̀
́
̂
̃
̄
̆
̇
̈
̉
̊
̋
̌
̓
̔
̛
̣
̦
̧
̨
̪
̱
͂
͡
α
β
ε
ελλα
θ
θεσσαλονι
ι
ιστορι
κης
λης
ν
ο
πο
πολις
ρ
ς
της
ω
в
и
н
о
р
т
і
ְ
ֱ
ֲ
ִ
ֵ
ֶ
ַ
ָ
ֹ
ֻ
ּ
־
ֿ
ׁ
ׂ
א
אב
אביב
אבן
אה
או
אוטראס
אוטרוס
אומאנוס
און
אונ
אונה
אונו
אונידאס
אונידוס
אוניון
אוסיאנו
אוריג
אטלאנטיקו
אי
איב
איברופה
אידיומה
אידיש
איזלה
איטאליה
איטימולוג
איל
אימיסוראס
אימפורטאנטי
אימפיריו
אין
אינ
אינדאגורה
אינדימאס
אינטרה
אינטרי
איניטי
איניל
איס
איסבוזו
איסטאדו
איסטאדוס
איסטאן
איסטאס
איסטה
איסטודייו
איסטודײו
איסטי
איספאנייול
איספאנײה
איספאנײול
אירה
אל
אלמאניה
אלנה
אם
אמה
אמיז
אמיריקה
אמפליאנדולו
אן
אנדי
אניס
אנײו
אס
אסטה
אספיקטוס
אקטואל
ארטי
ארטיס
ארטיקולו
אש
את
אתר
אױסטה
אײ
אײוארטי
אײודאראס
ב
באתר
בו
בילגיקה
בית
בן
בני
בניון
ברחוב
בריטון
ג
גראן
גראנדי
גראנדיס
גױרה
ד
דאד
דאיל
דאל
דאלמאניה
דאת
דה
דוד
דוס
די
דיב
דיל
דילה
דילהס
דילוס
דינאמארקה
דיסדה
דיסדי
דיספױס
דיריטו
דער
ה
הבית
הו
החיים
הכנסת
הלאומית
הספרייה
הר
התנ
ו
וד
ודיאו
וס
ור
וראר
ז
ח
ט
טאמביין
טאמבײן
טודאס
טודה
טודו
טודוס
טופה
טורקײה
טיאטרו
טייני
טיליב
טראב
טראדוקסייון
טריס
טײרה
י
יאו
ידה
יה
יהודה
יו
יון
יוסף
יי
ייה
ייון
יל
ים
ין
ינו
יס
יסיקה
יעקב
יצחק
יקה
יקו
יקיפדײאס
יקיפדײה
יר
ירושלים
ישראל
ית
ך
כ
כל
כריסטינה
ל
לא
לאדינו
לאטין
לאס
לה
לו
לוביק
לוס
ליטיראטורה
לימיטה
לינגואה
לינגואס
לינגוה
ם
מ
מאז
מאס
מאר
מה
מו
מואיב
מוב
מוזיקה
מונג
מונדו
מונדיאל
מידיטיראניו
מיטוס
מיקסיקאנוס
מיקסיקו
מכון
מרכז
ן
נ
נאסייוניס
נאסײוניס
נו
נומברה
נומברי
נורטה
נורטי
נמל
נסרין
ס
סאו
סה
סו
סוב
סוד
סולו
סון
סוס
סור
סי
סיב
סיבדאד
סיגונדה
סידו
סין
סינטרו
סיסטימה
סיר
סױסה
ע
עברית
עדן
עו
עזרא
על
עם
ף
פ
פאאיז
פאאיס
פאאיסיס
פאלאב
פארה
פארטה
פארטי
פארטיס
פואידיס
פון
פור
פורמה
פידיראל
פין
פינינסולה
פירו
פירסונאס
פירסונה
פראנסיס
פראנסיסה
פראנצײה
פרובינסיה
פריפיקטורה
פױ
ץ
צ
ק
קא
קאטידראל
קאפיטאל
קאפיטאלה
קדרי
קה
קהל
קולטורה
קומו
קון
קונוסידו
קי
קריית
ר
ראדײו
ראציבורג
רבי
רה
רו
רומה
רי
ריגײון
ריו
ריזיון
ריליג
רין
ריפובליקה
ש
שו
שיב
שיבדאד
שיבדאדיס
של
שלום
שלמה
שער
ת
תו
תל
ײדיש
ײה
׳
״
ا
الا
القدس
بن
ة
ح
د
ر
س
ع
في
ل
م
معبد
و
ي
َ
ُ
ِ
ّ
ْ
ٓ
ٔ
ٕ
ग
द
न
र
व
ा
ि
ी
्
ਿ
ં
ા
ച
ි
፡
​
‌
‎
–
—
‘
’
“
”
†
•
…
‪
‫
‬
′
″
€
™
↔
↷
③
④
⑦
─
│
└
├
ⴰ
ⴷ
ⴻ
ⴼ
ⵉ
ⵍ
ⵎ
ⵏ
ⵓ
ⵔ
ⵙ
ⵚ
ⵛ
ⵜ
ⵣ
⺀
⺄
⺆
⺈
⺊
⺌
⺕
⺝
⺸
⺼
⿰
⿱
⿲
⿳
⿴
⿵
⿶
⿷
⿸
⿹
⿺
⿻
〢
゙
コ
タ
ハ
ユ
ン
ー
㇁
㇂
㇄
㇇
㇈
㇉
㇓
㐁
㐄
㐅
㐌
㐫
㐬
㐭
㐮
㐱
㑒
㒵
㒸
㒼
㓁
㓞
㔾
㕛
㕣
㖾
㘝
㚅
㚇
㚔
㚘
㝉
㝡
㝴
㝵
㞋
㞢
㞷
㠩
㠭
㠯
㡀
㡭
㡿
㢲
㢴
㣇
㣺
㥯
㪅
㫄
㫐
㫒
㫺
㬅
㬎
㬥
㬰
㲋
㳄
㷠
㸒
㸚
㸦
㼌
㼲
㽞
㿟
䀠
䂞
䍃
䏍
䒑
䖍
䖒
䖝
䖵
䙴
䚻
䜌
䝿
䡛
䧹
䪞
一
丁
丂
七
丄
丅
丆
万
丈
三
上
下
丌
不
与
丏
丐
丑
专
且
丕
世
丘
丙
业
东
丞
丢
丣
两
严
並
丨
丩
个
丫
丬
中
丮
丰
丱
串
丵
丶
丷
丸
丹
为
主
丽
丿
乀
乂
乃
久
乆
乇
么
义
之
乌
乍
乎
乏
乐
乑
乔
乖
乗
乘
乙
乚
乛
乜
九
乞
也
习
乡
乳
乾
亀
亅
了
亇
予
争
事
二
亍
于
亏
亐
云
互
亓
五
井
亘
亚
亜
亞
亟
亠
亡
亢
交
亥
亦
产
亨
亩
享
京
亭
亮
亯
亰
亲
亳
亶
亷
人
亻
亼
亾
仁
今
介
仌
从
仐
仑
仒
仓
仕
他
付
仝
代
令
以
任
企
伊
伏
伐
休
会
伯
但
位
体
何
佘
余
作
佥
使
來
侈
例
侌
侖
侯
侵
便
保
俞
信
修
倉
倍
候
倠
備
僉
僕
儿
兀
允
兂
元
兄
充
兆
兇
先
光
兊
克
兌
免
兑
兒
兓
兔
党
兜
兟
入
全
兩
兪
八
公
六
兮
兰
共
关
兵
其
具
典
兹
兼
冀
冂
冃
冄
内
円
冈
冉
冊
冋
册
再
冎
冏
冐
冒
冓
冖
冗
冘
军
农
冝
冡
冥
冫
冬
冷
几
凡
凢
凵
凶
凷
凸
凹
出
函
凾
刀
刁
刂
刃
刄
刅
分
切
刍
刑
刕
刖
列
刘
则
初
別
利
别
到
制
刺
則
削
剌
前
剡
剽
劉
力
功
加
劦
动
助
劫
劳
劵
勃
勇
勉
勒
動
務
勞
勤
勹
勺
勻
勾
勿
匀
匂
包
匆
匈
匊
匋
匍
匕
化
北
匚
匝
匡
匪
匱
匸
匹
区
医
匽
匿
區
十
卂
千
卄
卅
卆
升
午
卉
半
卌
华
卑
卒
卓
单
卖
南
卜
卝
卞
占
卡
卢
卣
卤
卦
卩
卪
卬
卯
印
危
即
却
卵
卷
卸
卻
厂
厃
厄
历
厈
厉
厌
厓
厘
厚
原
厤
厥
厨
厭
厲
厶
厷
厸
去
厼
厽
叀
参
參
叅
又
叉
及
友
双
反
叐
发
叒
叔
叕
取
受
叚
叜
叟
口
古
句
另
叩
只
召
可
台
叱
史
右
叵
号
司
叹
吂
各
吅
合
吉
吊
吋
同
名
后
吏
向
吕
君
吝
吞
否
含
启
吳
吴
吹
吾
呂
呆
呈
告
员
呙
周
命
咅
和
咎
咠
咢
咨
咸
咼
哀
品
哈
哉
員
哥
哲
唐
商
啇
問
啚
啬
啻
善
喜
喬
單
喿
嗇
噩
嚴
囊
囗
囘
囙
囚
四
回
囟
因
囧
囬
困
囱
囷
固
国
圂
圅
國
圍
圓
土
圡
圣
圥
在
圭
地
圶
圼
坐
坒
坚
坴
垂
垔
垚
埀
埋
埶
執
基
堂
堅
堆
堇
堡
堯
塞
墨
壘
士
壬
壮
壯
声
壳
壴
壹
壺
壽
夂
处
夅
夆
备
夊
夋
夌
复
夏
夒
夕
外
夗
夘
多
夜
夢
大
夨
天
太
夫
夬
夭
央
失
夲
头
夷
夸
夹
夻
夾
奂
奄
奇
奈
奉
奎
奏
奐
契
奓
奔
奚
奞
奠
奢
奥
奭
女
奴
奻
好
如
妄
妙
妟
妥
妻
妾
姑
委
姜
威
娄
婁
婴
嬰
嬴
子
孑
孔
孕
孖
字
存
孚
孛
孝
孟
季
孤
学
孫
孱
學
宀
宁
宂
它
宅
宇
守
安
宋
完
宏
宓
宗
官
定
宛
宜
宝
客
宣
室
宮
宰
害
家
容
宾
宿
寄
寅
密
富
寒
察
寧
審
寫
寬
寮
寸
对
寺
寻
寽
対
寿
封
尃
射
将
將
專
尉
尊
尋
尌
對
小
少
尒
尓
尔
尖
尗
尚
尞
尢
尣
尤
尧
尨
尭
就
尸
尹
尺
尻
尼
尽
尾
尿
局
居
屈
屋
屎
屏
屑
展
屖
屚
属
屠
屡
屬
屮
屯
屰
山
屵
屾
岁
岂
岑
岡
岩
岳
岸
峯
島
崇
崑
崔
崖
崙
崩
嵬
嶲
巂
巛
川
州
巟
巠
巢
巤
工
左
巧
巨
巩
巫
差
己
已
巳
巴
巷
巸
巽
巾
巿
帀
市
布
希
帚
帛
帝
带
師
席
帶
常
干
平
年
幵
并
幷
幸
幹
幺
幻
幼
幽
幾
广
広
庄
床
底
店
庚
府
度
庫
庭
庶
康
庸
廉
廌
廛
廣
廩
廴
延
廷
建
廾
廿
开
弁
弃
弄
弇
弋
式
弓
弔
引
弗
弘
弜
弟
弥
弦
弱
張
強
强
彊
彌
彎
彐
彑
当
彔
录
彖
彗
彡
形
彥
彦
彧
彭
彳
役
彼
往
待
律
徒
得
徙
從
復
微
徵
德
心
忄
必
忌
忍
志
忝
忠
忩
快
念
忽
忿
思
怠
急
怱
恆
恒
恩
恭
息
悉
患
悤
悲
悶
惠
惡
惢
愁
愈
意
愛
感
慈
慧
慮
憂
憲
應
戀
戈
戉
戊
戋
戌
戍
戎
成
我
戒
戔
或
戚
戠
戢
截
戲
戶
户
戹
戼
戾
房
所
扁
扇
手
扌
才
打
托
执
承
折
拉
拜
拼
拿
掌
推
提
摩
支
攴
攵
收
攸
改
放
政
敄
敏
敕
敖
敗
敝
敞
敢
散
敦
敫
敬
数
敷
數
斂
文
斉
斊
斗
斤
斥
斩
斬
斯
新
方
於
施
斿
旁
旋
族
无
旡
既
旣
日
旦
旧
旨
早
旬
旱
旲
时
旾
昆
昇
昌
昍
明
昏
易
昔
昗
昜
星
春
昬
是
昱
昴
昷
時
晃
晋
晏
普
景
晶
智
暑
暴
曇
曩
曰
曲
曳
更
曷
書
曹
曼
曾
替
最
朁
會
月
有
朋
服
朔
朕
朗
望
朝
木
朩
未
末
本
札
朮
术
朱
朵
朶
朿
杀
李
杏
杜
束
条
来
東
杲
杳
松
析
林
枚
果
枝
枲
枼
某
柔
查
柬
柰
柴
栗
桀
桑
桼
梁
條
梟
梨
棘
棠
棥
森
楚
業
楽
榮
樂
樊
欠
次
欣
欮
欲
欶
欽
款
歆
歇
歛
止
正
此
步
武
歨
歪
歮
歯
歰
歲
歴
歷
歸
歹
歺
死
殳
段
殷
殸
殹
殺
殻
殿
毋
毌
母
每
毒
比
毕
毚
毛
毳
氏
氐
民
气
氣
水
氵
氶
氷
永
氺
氾
求
汇
汉
汝
汞
江
沃
沓
沙
沝
沪
泉
法
波
泣
泥
泰
洛
洪
活
派
流
浦
浪
浮
海
淡
淮
清
渚
渠
湯
滿
漸
澳
火
灬
灭
灰
灵
灷
炅
炎
炏
炗
炙
炭
為
烈
烏
烝
焉
無
焦
焱
然
煞
熊
熏
燕
營
燮
爪
爫
爭
爯
爰
爱
爲
爵
父
爻
爽
爾
爿
片
牙
牚
牛
牜
牟
牢
牧
牪
牽
犀
犬
犭
犮
狂
狄
狊
独
狺
猋
猒
猪
献
獻
玄
率
玉
王
玟
玨
珎
班
琴
瑟
瑩
璠
瓜
瓦
甘
甚
生
産
用
甫
甬
田
由
甲
申
电
甶
男
甸
甹
画
甾
畀
界
畏
畐
留
畜
畟
畢
畧
畨
番
畫
異
畱
當
畺
畾
疊
疋
疌
疑
疒
疾
癶
癸
癹
登
發
白
百
皀
皃
的
皆
皇
皋
皐
皕
皮
皷
皿
盃
盆
盇
盈
益
盍
盎
监
盒
盖
盛
盡
監
盤
盧
目
直
相
盾
省
眇
眉
看
眔
眞
真
眷
眼
眾
着
睘
睪
睿
瞏
瞢
瞿
矍
矛
矞
矢
矣
知
矦
短
石
破
碎
磊
磨
示
礻
礼
祟
票
祭
禀
禁
禸
禹
禺
离
禽
禾
禿
秀
秃
秉
秋
科
秝
秦
移
稟
穀
穌
穴
究
穹
空
穿
突
窄
窒
立
竒
竜
竝
竟
章
童
竹
笑
笠
筆
等
答
简
箕
算
箴
節
篤
篭
簡
米
粉
粛
粟
粤
粦
粲
糞
糸
糹
系
約
納
素
索
紫
累
細
絜
絫
絲
經
維
綿
線
縣
繁
繇
纍
纟
缶
网
罒
罔
罕
罗
罙
罡
罢
罪
署
罷
羅
羊
羌
羍
美
羔
羕
羗
羞
羡
羣
群
義
羲
羸
羽
翁
翏
習
翕
翟
翠
翼
老
耂
考
者
耆
而
耎
耑
耒
耳
耴
耶
耷
聂
聊
聖
聚
聶
聿
肀
肃
肅
肉
肖
肙
肥
肩
肯
育
肴
胃
背
胡
胥
能
脊
脩
膚
臣
臤
臧
自
臬
臭
臯
臱
至
致
臺
臼
臽
臾
臿
舀
舂
舄
與
興
舉
舌
舍
舛
舜
舞
舟
般
艮
良
色
艸
艹
艾
芒
芔
芬
芮
花
芳
芺
芻
苔
苗
苟
若
苦
英
茶
茸
荅
草
荒
荣
荼
莆
莧
莫
莽
菆
菊
菐
華
萬
落
葉
著
葛
董
葵
蒙
蒦
蒼
蓋
蓬
蓺
蔑
蔡
蕉
蕭
薄
薛
薦
薰
藍
藏
藥
蘭
虍
虎
虐
虒
虔
處
虖
虗
虘
虚
虛
虜
虞
虫
虽
蚤
蚩
蜀
蜜
蟲
蠡
血
行
衍
衛
衣
衤
表
衮
衰
袁
袞
褭
褱
襄
襾
西
覀
要
覃
見
規
覓
覧
親
覽
见
角
解
言
訁
訇
計
詹
語
誩
諸
讠
谷
豆
豈
豊
豐
豕
豖
豙
象
豦
豩
豪
豸
貇
貝
貞
貟
負
貢
貧
貪
貫
責
貳
貴
買
費
賁
資
賈
賏
賓
賔
賛
賞
賢
賣
質
賴
贊
贝
贡
责
贯
贲
贵
赖
赞
赤
赦
走
越
足
路
蹇
身
躬
車
軍
軎
軟
輦
车
辛
辜
辟
辥
辰
辱
農
辵
辶
边
达
过
运
近
连
迷
追
退
送
逆
逐
通
速
造
逢
連
逮
進
遀
遂
過
道
達
遣
適
遷
遺
邊
邑
邕
那
邦
邪
郎
部
郭
都
鄉
酉
酋
配
酓
釆
采
里
重
野
量
金
釒
錢
钅
長
镸
长
門
閃
閉
開
閏
閑
閒
間
閔
閵
閻
闌
门
间
闷
阑
阜
阝
阿
降
陳
隆
隊
隋
際
隡
隨
隱
隶
隹
隺
隻
隼
隽
难
雀
雁
集
雈
雋
雍
雐
雔
雙
雚
雜
雝
離
難
雨
雩
雪
雲
零
雷
需
霍
霜
霝
霞
霸
靈
靑
青
非
靡
面
靣
革
韋
韦
韭
韯
韱
音
頁
頃
項
須
頗
頡
頻
顛
页
風
风
飛
飞
食
飠
養
饣
馆
首
香
馬
馮
駦
马
骨
體
高
髟
鬥
鬯
鬲
鬼
魚
魯
鮮
鱼
鲁
鳥
鳳
鸟
鹵
鹿
麃
麗
麥
麦
麻
黃
黄
黍
黎
黑
黒
黨
黹
黽
黾
鼎
鼓
鼠
鼻
齊
齋
齐
齒
齿
龍
龙
龜
龟
龠
龰
龱
龴
龵
龶
龷
龸
龹
者
艹
﻿
？
𠀁
𠀃
𠀆
𠀉
𠀎
𠀐
𠁁
𠁣
𠂆
𠂇
𠂈
𠂉
𠂊
𠂋
𠂎
𠂒
𠂔
𠂛
𠂡
𠂢
𠂤
𠂬
𠂭
𠂹
𠃊
𠃋
𠃌
𠃍
𠃎
𠃑
𠃓
𠃔
𠃜
𠄌
𠄎
𠄠
𠄢
𠆢
𠆥
𠇍
𠈌
𠌵
𠓜
𠔉
𠔥
𠔼
𠔽
𠔿
𠕀
𠕁
𠕋
𠘧
𠘨
𠙻
𠙼
𠚏
𠚒
𠚤
𠚪
𠣏
𠤎
𠤕
𠥓
𠦄
𠦑
𠦝
𠧒
𠧗
𠧪
𠩺
𠪚
𠫓
𠫔
𠫤
𠬛
𠬝
𠬞
𠬢
𠬤
𠬶
𠮛
𠮦
𠮷
𠯑
𠱠
𠳮
𠷎
𡈼
𡉀
𡉵
𡌥
𡍮
𡏳
𡕒
𡕩
𡕰
𡖅
𡗗
𡗜
𡘆
𡘤
𡧱
𡨄
𡩧
𡬠
𡭽
𡰣
𡰥
𡰪
𡰯
𡰱
𡷈
𡸁
𡿨
𡿩
𡿪
𡿺
𢀖
𢀛
𢀩
𢁙
𢆉
𢆰
𢆶
𢇁
𢇇
𢉖
𢌬
𢌿
𢏚
𢑑
𢑚
𢖻
𢙣
𢛳
𢦏
𢦒
𢧵
𢼄
𢾕
𣁋
𣄼
𣅀
𣅽
𣍘
𣎳
𣎵
𣏋
𣏼
𣗥
𣥂
𣥖
𣦵
𣦼
𣧄
𣪊
𣪠
𣬉
𣳾
𣶒
𤇾
𤊽
𤐫
𤓰
𤔔
𤕨
𤣩
𤰇
𤰔
𤰞
𤴓
𤴔
𤽄
𥁑
𥁕
𥃦
𥃩
𥃭
𥇡
𥑟
𥘅
𥘈
𥝢
𥫗
𥱡
𦈢
𦉪
𦉬
𦉼
𦍌
𦍒
𦎧
𦐇
𦓔
𦔮
𦘒
𦙃
𦚏
𦣝
𦣞
𦣻
𦥑
𦥔
𦥯
𦨉
𦭝
𦰩
𧆞
𧈧
𧘇
𧰨
𧴪
𧴮
𧵩
𧾷
𨸏
𨾴
𩙿
𩠐
𩫏
𩵋
𪉷
𪜀
𪟽
𪠲
𪩲
𫇦
𫔭
𫜸
𫝀
𫠣
𫠩
𫢉
𫥞
𫩏
𫩠
𫪡
𫲽
𫶧
𬀷
𬐘
𬗌
𬙙
𬛸
𬜯
𬟩
𬯁
𬴘
𬺻
𬼉
𬼖
𭀰
𭁈
𭁨
𭅰
𭑈
𭕄
𭗼
𭤨
𭥫
𭻾
𮅕
𮊿
𮍌
𮍏
𮓗
𮥼
𮧮
廾
𰀁
𰀄
𰀈
𰀉
𰀕
𰀠
𰀡
𰀢
𰀪
𰁜
𰃮
𰆊
𰆘
𰋙
𰕎
𰢴
𰧭
𰯲
08--
11--
12--
13--
14--
15--
16--
17--
18--
20--
53--
55--
86--
88--
96--
99--
a--
ab--
abedi--
abi--
abor--
abri--
abstra--
abu--
ac--
achi--
ad--
adapt--
adi--
adisi--
adision--
ador--
aer--
af--
afi--
ag--
agri--
agu--
ah--
ahar--
ai--
air--
ak--
ake--
ako--
akompan--
akti--
aktu--
al--
ale--
alevan--
algu--
ali--
alta--
alte--
am--
ama--
ame--
ami--
an--
ana--
and--
ang--
ani--
anno--
anses--
antro--
ao--
ap--
apo--
app--
apren--
apro--
apt--
ar--
ara--
arca--
are--
aresi--
argu--
arki--
arte--
arti--
arvol--
as--
ase--
aseme--
asi--
asia--
asig--
asist--
asiste--
asosi--
asp--
associa--
astro--
astrono--
asus--
at--
ata--
ataka--
ate--
ato--
atrak--
atribu--
au--
aug--
auto--
av--
avan--
avi--
avig--
avita--
avto--
ay--
aye--
az--
azi--
azken--
b--
ba--
bakte--
bal--
bar--
bas--
bat--
be--
bek--
bel--
ben--
bendi--
benefi--
ber--
bes--
bey--
bi--
biblio--
bilbi--
bio--
bis--
biv--
blan--
blo--
bo--
bon--
bor--
bos--
bots--
br--
bri--
bu--
buch--
budd--
buhar--
bul--
bur--
burge--
bus--
bush--
by--
c--
ca--
cal--
cali--
cam--
can--
car--
castil--
ce--
cele--
ch--
cha--
cham--
char--
chec--
chi--
chum--
ci--
cie--
cin--
cl--
cle--
co--
com--
comme--
compo--
comu--
con--
cono--
const--
constru--
conta--
cor--
cri--
crist--
cu--
cus--
d--
da--
dan--
de--
dec--
dechi--
decl--
dedi--
defi--
dek--
del--
dele--
demo--
den--
depu--
der--
des--
desa--
descu--
deser--
deskubr--
destru--
deter--
dev--
dezvelop--
di--
dia--
dig--
diji--
dik--
din--
direktr--
diri--
dis--
discipl--
dishkovri--
diskri--
disku--
dist--
distri--
distribu--
div--
divi--
dj--
djen--
djer--
dji--
dju--
djudaiza--
djuz--
do--
docu--
doku--
dome--
don--
dr--
du--
dun--
dye--
e--
ec--
ed--
edit--
efek--
efekti--
egsis--
ehe--
eisen--
ejer--
ejip--
ek--
ekon--
eks--
ekspl--
ekste--
el--
ela--
elec--
elek--
elektro--
eli--
em--
embi--
emi--
emir--
empe--
en--
encar--
end--
ender--
enfren--
eng--
engi--
enje--
enor--
ensin--
ento--
er--
era--
ere--
es--
escu--
ese--
esh--
eshken--
eskon--
eskri--
eskritu--
eslo--
espe--
espesi--
est--
et--
etran--
eu--
euro--
ev--
evid--
evol--
evro--
ex--
extran--
ez--
f--
fa--
fac--
fal--
far--
fe--
feder--
feli--
fenis--
fer--
fi--
fik--
film--
filo--
fin--
fina--
flo--
flu--
fo--
for--
fre--
fron--
fu--
funera--
g--
ga--
gab--
gal--
galar--
gam--
gan--
gav--
ge--
ger--
gerrea--
ghas--
gi--
gia--
glo--
go--
gober--
gra--
gradu--
gre--
gri--
gru--
gu--
gua--
guer--
gurd--
h--
ha--
hak--
ham--
has--
hay--
he--
heil--
hek--
hen--
her--
herce--
hi--
ho--
hon--
hor--
hu--
hua--
hue--
hui--
i--
id--
iden--
identi--
idro--
ik--
il--
ile--
illu--
ilus--
ilustra--
im--
imi--
in--
inde--
indo--
indu--
indust--
inf--
influ--
ingre--
inisi--
inje--
ink--
inklu--
ins--
insi--
inst--
insta--
institu--
instruk--
inte--
inter--
introdu--
inva--
ipo--
ir--
is--
ispano--
it--
iv--
ix--
iz--
j--
ja--
jag--
je--
jen--
jer--
jesu--
ji--
jo--
ju--
jue--
k--
ka--
kab--
kai--
kal--
kamp--
kan--
kar--
karto--
kata--
kau--
kav--
kay--
ke--
ken--
kes--
khi--
ki--
kin--
kla--
kli--
ko--
koe--
kol--
kola--
kolekti--
kom--
kompl--
kon--
kondju--
kondu--
konme--
konst--
konven--
koor--
kor--
korreji--
kos--
kra--
kre--
krea--
kres--
kri--
krim--
kripto--
krite--
kru--
ku--
kua--
kuanti--
kue--
kul--
kulti--
kum--
kun--
kur--
kuv--
kwa--
l--
la--
lan--
latino--
lau--
le--
ledj--
lef--
leg--
lei--
les--
levan--
levanta--
li--
liv--
ll--
lle--
llu--
lo--
lu--
luk--
m--
ma--
mac--
maest--
mag--
magni--
mah--
mal--
man--
mani--
mar--
mas--
mat--
mau--
may--
maz--
mbi--
me--
medi--
mel--
mela--
mem--
men--
mer--
mes--
meti--
mexi--
mey--
mi--
mie--
migra--
migrato--
mil--
milen--
min--
mis--
mo--
modi--
mok--
mon--
mongo--
monop--
monu--
move--
mp--
mu--
multi--
mun--
muslu--
my--
n--
na--
nah--
nan--
ne--
nech--
nega--
neo--
neu--
neut--
news--
ng--
ni--
no--
nor--
nou--
nu--
o--
ob--
obre--
obser--
oc--
oce--
och--
octa--
of--
ofen--
oh--
ok--
okur--
ol--
on--
op--
or--
ori--
orkes--
oro--
os--
oso--
oto--
ou--
out--
ov--
oy--
p--
pa--
pai--
pal--
pan--
par--
para--
pas--
pase--
pe--
pen--
per--
pereg--
perife--
pes--
petro--
ph--
pi--
pia--
pie--
pin--
pit--
piy--
pl--
plani--
plat--
po--
pob--
pol--
poli--
pon--
por--
posi--
pov--
pra--
pre--
pres--
presu--
prey--
prezi--
pri--
prinsi--
pro--
produ--
profis--
pros--
prote--
proto--
pu--
pul--
qa--
qu--
r--
ra--
ranch--
ras--
rd--
re--
rea--
reak--
recog--
redus--
refer--
regi--
reji--
reko--
reli--
remem--
ren--
repre--
res--
resis--
respon--
reus--
ri--
riv--
ro--
rompi--
rt--
ru--
s--
sa--
sac--
sal--
sam--
san--
sch--
sco--
se--
sea--
sec--
secu--
seg--
segi--
sek--
seku--
sel--
selek--
selu--
seme--
semi--
sen--
senti--
sentro--
sept--
ser--
serti--
servi--
set--
sex--
sh--
sha--
shi--
sho--
si--
sid--
sig--
sigi--
sigo--
sigui--
sil--
sin--
siny--
sir--
siv--
sk--
sla--
slo--
so--
sober--
sol--
sor--
sour--
spe--
spi--
st--
sta--
stati--
ste--
sto--
su--
sub--
suk--
super--
sur--
sus--
sused--
sustitu--
sy--
sye--
syna--
t--
ta--
tab--
tadra--
tai--
tak--
tam--
tar--
tart--
te--
tek--
tele--
ten--
teo--
ter--
tes--
tex--
th--
the--
ti--
tla--
tlax--
to--
tol--
toler--
tor--
tortu--
toto--
tr--
tra--
tradu--
trans--
traye--
tre--
tres--
triun--
tro--
tru--
ts--
tu--
tur--
tzomp--
u--
ub--
ubi--
ucra--
ud--
uk--
ul--
un--
uni--
ur--
us--
usa--
ut--
uvi--
uzbe--
v--
va--
val--
van--
var--
ve--
ven--
ver--
vi--
viole--
vir--
vo--
vol--
vue--
vul--
vy--
w--
wa--
we--
wed--
wein--
wer--
wil--
wit--
wo--
x--
xi--
xin--
xue--
xx--
y--
ya--
ye--
yid--
yo--
yu--
z--
za--
zak--
zam--
zapo--
ze--
zel--
zi--
zo--
zu--
zucker--
ı--
θ--
κ--
א--
אב--
או--
אוב--
אוט--
אי--
איט--
אל--
אנ--
אנט--
אס--
אפרי--
אר--
ארי--
ארקיו--
ב--
בא--
ג--
גאל--
ד--
די--
דיפינ--
ה--
היה--
המ--
ו--
ז--
ח--
ט--
טא--
טו--
טיריט--
טירמ--
י--
יה--
ינ--
יסט--
כ--
ל--
מ--
מאײ--
מו--
מי--
מיס--
מיש--
נ--
נאטור--
נור--
ס--
סו--
סי--
סיג--
סינ--
ספר--
ע--
פ--
פא--
פו--
פואי--
פרימ--
פױב--
צ--
ק--
קא--
קו--
קוא--
קוו--
קולטור--
קונ--
קונג--
קונו--
קונסי--
ר--
רי--
ש--
ת--
ا--
ال--
الب--
ب--
س--
ع--
ل--
م--
مح--
ي--
--0
--1
--2
--3
--33
--4
--5
--6
--7
--8
--9
--a
--aba
--acio
--ad
--ada
--adas
--ado
--ador
--ados
--age
--ah
--ai
--ain
--ajo
--ak
--akas
--al
--ala
--am
--amiento
--amientos
--an
--ana
--ando
--anel
--aniya
--ano
--anos
--ant
--ante
--ar
--ard
--ario
--aron
--as
--asio
--asion
--asyon
--at
--ati
--ation
--atura
--au
--ava
--ay
--az
--b
--ba
--ball
--ban
--bc
--be
--berg
--bi
--bia
--ble
--blo
--bo
--bs
--bu
--burgo
--c
--ca
--cal
--cas
--ce
--ced
--cer
--ces
--ch
--che
--chi
--cho
--cht
--chu
--ci
--cio
--ck
--cks
--co
--ct
--cta
--cu
--cus
--cy
--d
--da
--dad
--dades
--dam
--das
--de
--der
--dera
--dero
--des
--di
--dido
--dir
--dja
--do
--dol
--dom
--dor
--dora
--dores
--dos
--ds
--dt
--ducido
--dujo
--dye
--dın
--e
--ea
--ece
--ecto
--ectos
--ed
--ega
--eh
--ei
--ejo
--el
--em
--en
--ena
--ence
--endo
--eno
--enos
--ensia
--ent
--enta
--ento
--entos
--enyo
--eo
--eos
--ep
--er
--era
--eri
--eria
--ering
--erio
--eriya
--ero
--eron
--eros
--ers
--es
--esa
--esh
--esi
--esio
--est
--et
--eta
--ete
--ev
--ey
--ez
--eza
--f
--fa
--fe
--fer
--ff
--fi
--fika
--fisio
--fo
--ft
--g
--ga
--gar
--ge
--gen
--ger
--ges
--gest
--gi
--gir
--gna
--go
--gra
--graphy
--gs
--gu
--gy
--h
--ha
--ham
--he
--het
--hi
--him
--hiriya
--ho
--hon
--hr
--hs
--ht
--hvili
--i
--ia
--iado
--ial
--iana
--iano
--iar
--ias
--ic
--icia
--id
--ida
--idad
--ide
--ido
--idos
--ie
--ientas
--iento
--ientos
--ieron
--igo
--ih
--ik
--ika
--ikas
--ike
--iko
--il
--iles
--im
--ima
--imiento
--imo
--in
--ina
--ine
--ines
--ing
--ings
--ino
--inos
--io
--ion
--iona
--iones
--ios
--ir
--ira
--iro
--is
--isa
--isar
--isasion
--ise
--isi
--isio
--ism
--ismo
--ist
--ista
--istas
--isto
--istos
--isyon
--it
--ita
--itad
--itar
--ition
--ito
--ium
--iva
--ive
--ivo
--iya
--iyas
--iyo
--iyon
--iyones
--iz
--iza
--izado
--izasion
--izmo
--izo
--j
--ja
--jas
--je
--jen
--jes
--jeto
--ji
--jia
--jikamente
--jio
--jiya
--jo
--k
--ka
--kado
--kar
--kas
--kat
--ke
--kh
--ki
--kia
--kis
--ko
--kos
--ks
--ksio
--ksyon
--kta
--l
--la
--lada
--lan
--lar
--las
--lava
--lco
--ld
--lda
--lde
--le
--leri
--les
--lf
--li
--lin
--lios
--lla
--lle
--lli
--llo
--lo
--log
--logi
--logy
--loji
--lojiya
--lon
--los
--ls
--lta
--ly
--m
--ma
--mada
--man
--me
--ment
--mente
--mento
--mentos
--metieron
--mi
--miento
--mim
--mo
--mol
--molojiya
--mos
--ms
--mu
--mula
--mye
--myento
--n
--na
--nal
--nas
--nc
--nce
--ncia
--ncy
--nd
--nda
--nde
--ndez
--ndo
--ne
--nel
--ner
--nero
--ners
--nes
--nez
--ng
--nga
--ni
--nia
--nika
--nim
--ning
--nio
--nita
--nitas
--nizacio
--nk
--nn
--no
--nomi
--nos
--ns
--nsa
--nse
--nsia
--nsio
--nsky
--nsya
--nt
--nta
--ntada
--ntado
--ntar
--nte
--ntes
--ntia
--ntin
--ntina
--nto
--nus
--nut
--ny
--nya
--nyo
--nyos
--nza
--o
--oa
--od
--oe
--ogi
--ogy
--oh
--ojia
--ojiya
--ol
--olo
--om
--on
--ona
--ones
--or
--ores
--oro
--ort
--os
--ot
--ota
--ov
--ova
--ozo
--p
--pa
--pan
--pe
--phy
--po
--pol
--ponde
--port
--ptados
--pu
--q
--que
--r
--ra
--rado
--ral
--ran
--raneos
--rar
--ras
--rd
--rdo
--re
--ren
--rera
--res
--ret
--rg
--rgo
--ri
--ria
--rias
--ric
--rie
--rio
--rios
--ris
--riya
--riz
--rka
--rko
--rms
--rn
--rns
--ro
--ron
--ros
--rot
--rre
--rren
--rro
--rry
--rs
--rse
--rt
--rta
--rte
--ructura
--ry
--ryo
--s
--sa
--sada
--sas
--sca
--sch
--se
--sen
--sh
--si
--sia
--siado
--sial
--sian
--sias
--sio
--sion
--siones
--sis
--sive
--sivo
--siyo
--siyon
--ska
--sko
--sky
--so
--son
--sos
--ss
--sse
--st
--sta
--stein
--stic
--sto
--sya
--syo
--syon
--sı
--t
--ta
--tad
--tada
--tado
--tados
--tal
--tamye
--tando
--tar
--tas
--tasiyon
--te
--ter
--tes
--text
--th
--ti
--tia
--tial
--tido
--ties
--tika
--tiko
--tim
--ting
--tino
--tio
--tion
--tiva
--tive
--tivo
--tivos
--tl
--tli
--to
--ton
--tor
--torio
--tors
--tos
--ts
--tti
--tu
--tud
--tum
--tura
--ture
--ty
--tz
--u
--ua
--ual
--uan
--ud
--ue
--uk
--uko
--ulto
--um
--un
--ung
--ur
--ura
--urd
--urs
--us
--ut
--v
--va
--vada
--van
--ve
--vi
--vim
--vir
--visa
--visiyon
--vle
--vo
--w
--wa
--way
--wi
--x
--xt
--y
--ya
--yan
--yar
--yas
--ye
--yer
--yesida
--yi
--yim
--yo
--yol
--yon
--yones
--yor
--yos
--ys
--yu
--ywood
--z
--za
--zada
--zado
--zan
--zas
--ze
--zen
--zes
--zi
--zia
--zin
--zio
--zmo
--zo
--zos
--zu
--ß
--ı
--ław
--ν
--е
--и
--א
--ב
--בה
--ג
--גוס
--ד
--דה
--דו
--דן
--ה
--ו
--ול
--ומי
--ון
--וניס
--וס
--ז
--ח
--ט
--טאדו
--טה
--טו
--טוס
--טיב
--י
--יאל
--יב
--יה
--יו
--ין
--ינה
--יס
--ית
--יײון
--ך
--ל
--ם
--מינטו
--ן
--נ
--נה
--נטאל
--נטו
--ס
--סטה
--פ
--פה
--פו
--פלינה
--ץ
--ק
--קו
--ר
--רג
--רה
--רת
--ש
--ת
--ײה
--ײו
--ײון
--ײוניס
--ا
--ان
--بية
--ة
--را
--غرب
--م
--ي
--ية
