!
"
#
##0
##1
##10
##11
##12
##13
##14
##15
##16
##17
##18
##19
##2
##20
##21
##22
##23
##24
##25
##26
##27
##28
##29
##3
##30
##31
##32
##33
##34
##35
##36
##37
##38
##39
##4
##40
##41
##42
##43
##44
##45
##46
##47
##48
##49
##5
##50
##51
##52
##53
##54
##55
##56
##57
##58
##59
##6
##60
##61
##62
##63
##64
##65
##66
##67
##68
##69
##7
##70
##71
##72
##73
##74
##75
##76
##77
##78
##79
##8
##80
##81
##82
##83
##84
##85
##86
##87
##88
##89
##9
##90
##91
##92
##93
##94
##95
##96
##97
##98
##99
$
%
&
'
(
)
*
+
,
-
.
/
0
00
000
01
02
03
04
0471238961
05
054621
06
07
0701190508230114
08
09
1
10
100
1000
1001
1002
1003
1007
1009
101
1010
1012
1016
102
1020
1021
1022
1024
1028
103
1030
1038
104
1040
1045
1048
1049
105
1050
1054
1058
106
1060
1063
107
1070
108
1080
1085
1086
109
1090
1099
11
110
1100
1101
1103
1107
111
1110
1119
112
1120
1124
1126
1127
113
1130
113104
114
1140
115
1150
1153
1159
116
1160
117
1170
118
1180
1181
1186
1187
119
1190
1191
12
120
1200
1206
1209
121
1210
1216
122
1220
1227
1229
123
1230
1234
1237
124
1240
1241
125
1250
1254
1259
126
1260
1264
1265
1269
127
1270
1271
1276
1277
1278
1279
128
1280
1285
129
1290
1294
1299
13
130
1300
1302
1303
1307
131
1310
1311
132
1320
1323
1328
1329
133
1330
1332
134
1340
1342
1349
135
1350
1351
1352
136
1360
1368
1369
137
1370
1372
1378
138
1380
1384
1389
139
1390
1392
1398
1399
14
140
1400
1402
1405
1406
141
1410
1413
1415
1418
142
1420
1421
1422
1424
1425
142502
1428
1429
143
1430
1431
1433
1435
1439
144
1440
1447
1449
145
1450
1453
1455
1457
1458
146
1460
1464
1469
147
1470
1476
148
1480
1485
1487
1489
149
1490
1492
15
150
1500
1503
1505
1506
1509
151
1510
1519
152
1520
1521
1522
1527
1528
153
1530
1534
1537
154
1540
1549
155
1550
1554
1555
1559
156
1560
1564
1567
157
1570
1572
1579
158
1580
1582
1585
1588
1589
159
1590
1591
1592
1598
16
160
1600
1605
1609
161
1610
1611
1616
1619
162
1620
1621
1623
1624
1626
1627
163
1630
164
1640
1643
1644
1645
1646
1649
165
1650
166
1660
1661
1662
1669
167
1670
1672
1673
1678
168
1680
1681
1682
1683
1685
1689
169
1690
1696
1699
17
170
1700
1706
1707
1709
171
1710
1715
1719
172
1720
1722
1724
1727
1729
173
1730
1735
1739
174
1740
1749
175
1750
1752
1755
1758
1759
176
1760
1767
1769
177
1770
1776
1778
1779
178
1780
1782
1784
1787
1789
179
1790
1791
1792
1794
1795
1796
1799
18
180
1800
1801
1802
1804
1805
1809
181
1810
1812
1813
1814
1818
1819
182
1820
1821
1822
1823
1824
1825
1826
1828
1829
183
1830
1831
1832
1833
1834
1835
1836
1837
1839
184
1840
1841
1842
1843
1844
1845
1846
1847
1848
1849
185
1850
1851
1852
1853
1854
1856
1857
1858
1859
186
1860
1861
1862
1863
1864
1865
1866
1867
1868
1869
187
1870
1871
1872
1873
1874
1875
1877
1878
1879
188
1880
1881
1882
1883
1884
1885
1886
1887
1889
189
1890
1891
1893
1894
1895
1896
1897
1898
1899
19
190
1900
1901
1902
1903
1904
1905
1906
1907
1908
1909
191
1910
1911
1912
1913
1914
1915
1916
1917
1918
1919
192
1920
1921
1922
1923
1924
1925
1926
1927
1928
1929
193
1930
1931
1932
1933
1934
1935
1936
1937
1938
1939
194
1940
1941
1942
1943
1944
1945
1946
1947
1948
1949
195
1950
1951
1952
1953
1954
1955
1956
1957
1958
1959
196
1960
1961
1962
1963
1964
1965
1966
1967
1968
1969
197
1970
1971
1972
1973
1974
1975
1976
1977
1978
1979
198
1980
1981
1982
1983
1984
1985
1986
1987
1988
1989
199
1990
1991
1992
1993
1994
1995
1996
1997
1998
1999
2
20
200
2000
2001
2002
2003
2004
2005
2006
2007
2008
2009
201
2010
2011
2012
2013
2014
2015
2016
2017
2018
2019
202
2020
2021
2022
203
204
205
206
207
208
209
21
210
211
212
213
214
215
216
217
218
219
22
220
221
222
223
224
225
226
227
228
229
23
230
231
232
233
234
235
236
237
238
239
24
240
241
242
243
244
245
246
247
248
249
25
250
251
252
253
254
255
256
257
258
259
26
260
261
262
263
264
265
266
267
268
269
27
270
271
272
273
274
275
276
277
278
279
28
280
281
282
283
284
285
286
287
288
289
29
290
291
292
293
294
295
296
297
298
299
3
30
300
301
302
303
304
305
306
307
308
309
31
310
3104
311
312
313
314
315
316
317
318
319
32
320
321
322
323
324
325
326
327
328
329
33
330
331
332
333
334
335
336
3365
337
338
339
34
340
341
342
343
344
345
346
347
348
349
35
350
351
352
353
354
355
3555
356
357
358
359
36
360
361
362
363
364
365
366
37
370
38
380
383
384
39
390
399
4
40
400
401
4020
41
410
418
419
42
420
43
430
44
440
45
450
453
46
460
462
47
470
475
479
48
480
485
486
49
490
498
499
5
50
500
5000
5037
509
51
510
511
514
52
520
5285
529
53
530
535
539
54
540
546
55
550
551
555
559
56
560
561
569
57
570
574
579
58
580
581
589
59
590
592
6
60
600
604
606
607
61
610
618
619
62
620
625
626
627
628
629
63
630
633
639
64
640
649
65
650
657
66
660
668
669
67
670
676
678
68
680
683
684
685
689
69
690
699
7
70
700
701
705
708
709
71
710
711
712
7174
72
720
725
727
729
73
730
74
740
742
75
750
7506
752
76
760
762
768
77
770
772
779
78
780
788
79
790
8
80
800
805
80592
81
810
816
819
82
820
824
827
83
830
84
840
843
847
85
850
858
86
860
867
87
870
872
88
880
881
884
885
89
890
891
896
897
898
9
90
900
903
907
908
909
91
910
911
919
92
920
925
926
927
928
929
93
930
931
933
935
939
94
940
942
943
944
945
95
950
951
955
96
960
964
97
970
972
973
974
976
978
9787211023547
9787532643271
979
98
980
986
99
990
996
997
999
:
;
<
=
>
?
@
[
\
]
^
_
`
a
abdullin
about
abundances
academy
access
actinide
actinium
adeline
adolf
afghanistan
agape
ai
aincrad
akb
al
alabama
alaska
albert
alberta
alberto
alcl
alexander
alexandre
alfred
algeria
all
allen
america
american
amour
amsterdam
amusphere
an
and
anderson
andorra
andrew
android
ang
angeles
anna
antilles
ao
april
ar
are
argentina
arizona
arkansas
armenia
arthur
aruba
as
ascension
at
atom
atomic
au
augma
august
australia
australian
azerbaijan
b
ba
bach
bad
bahamas
baker
baldwin
bangladesh
banknotes
barack
barat
barber
bbc
be
belarus
benedictus
benito
benjamin
benton
berlin
bernard
best
beta
bfricke
bhutan
bi
bia
bibcode
bie
bieng
big
bih
bilibili
bill
bin
bing
bk
black
blog
bo
bolivia
bonaire
bonaparte
bonifacius
book
boone
bosnia
box
br
british
brown
bu
bua
bulgaria
buo
buong
bureau
buren
business
butler
butterworth
by
c
ca
cacl
caco
caelestinus
calculation
caldwell
calhoun
california
cameroon
campbell
canberra
cao
carbon
caribe
carolina
carroll
carter
carthago
cas
casarosa
cass
cathedral
ccr
cd
ce
center
cf
ch
cha
chad
charat
charles
charlotte
chaturanga
che
chemical
chemie
chemistry
chen
cherokee
chi
chia
chiang
chie
chieng
chikudun
children
chile
china
chinese
ching
chio
chiu
cho
chong
christian
chu
chua
chung
chuo
church
ci
cia
cie
cing
cio
ciong
citeweb
city
ciu
cl
clair
clark
clarke
class
claudius
clay
clayderman
clemens
cleveland
clinton
clo
cm
cmn
cn
cna
cnbc
cnki
co
code
colle
collection
colombia
color
colorado
columbia
com
comic
commission
commons
commonwealth
company
complex
compound
compounds
conference
congo
connecticut
cook
coronavirus
corporation
costa
country
county
cov
covid
crawford
crc
crispr
croatia
crystal
cu
cua
cuba
cucl
cuk
culture
cumberland
cuo
curac
custer
d
da
dak
dakota
dalai
dallas
dame
dang
daniel
darleane
data
database
date
david
daviess
davis
db
dbms
de
dead
decatur
decay
dek
dekalb
delaware
delta
der
desdemona
developers
di
dia
dialect
diana
dickinson
dictionary
die
dio
dioh
discovery
displaystyle
diu
div
division
djibouti
dl
dmm
dna
do
documentation
doi
dollar
dominica
donald
dong
doraemon
dordrecht
double
douglas
dream
du
dua
dumas
duo
dvd
dwight
e
earnshaw
east
edelstein
edition
edwards
ek
el
element
elements
elizabeth
ellis
em
employees
en
encyclopedia
end
eng
england
english
enrico
er
eros
es
esmeralda
essex
estonia
eswatini
et
ethiopia
ethnologue
eu
europa
eustatius
evenk
example
eyre
f
facebook
fayette
fb
fe
fecl
felix
fes
fifa
fiji
films
fire
first
fl
florida
floyd
foochow
for
foundation
fr
frac
franc
france
franklin
freud
friedrich
from
fu
fuger
fujian
fulton
function
future
fuzhou
g
ga
gaddafi
gael
gah
gang
garfield
gases
ge
genghis
george
georgia
gi
gia
giang
gibraltar
gie
ging
gio
github
giu
gloomy
gnu
go
golden
gong
gonzales
google
gov
graham
grand
grant
gray
grayson
great
green
greene
greenwood
gregorius
grenada
group
grundy
gruzia
gu
gua
guang
guardian
guide
guinea
gulliver
gung
guo
gurney
guyana
gyeongsang
h
ha
hadrianus
hak
hakka
half
hall
hamilton
hamlet
hampshire
hancock
handbook
hardin
harding
harris
harrison
harry
haskell
hawaii
hcl
hclo
he
heiko
heinemann
helena
hello
henderson
hendry
henry
herodotus
herzegovina
hf
hi
hia
hideyoshi
hie
hill
hing
hio
hiong
hisaishi
history
hitler
hiu
hiv
hk
ho
hoffman
hok
holmes
holo
holopedia
holt
hours
houston
houyhnhnm
how
howard
html
http
https
hu
hua
hugo
hui
human
hung
huo
huong
hwang
i
ia
ic
icu
idaho
ie
iek
ieu
if
ik
il
ili
illinois
in
inc
indiana
info
information
ing
innocentius
inorganic
institute
international
io
ioannes
ios
iowa
ipa
ipad
iran
iraq
ireland
iron
is
isbn
island
islands
isle
iso
isotopes
isotopic
issn
istanbul
it
ito
iu
iupac
ivoire
j
ja
jack
jackson
jamaica
james
jane
january
japan
jasper
java
javascript
jawa
jean
jefferson
jeolla
jersey
ji
jim
jo
joe
johann
john
johnson
johnston
jones
joseph
journal
jr
juan
june
k
ka
kadokawa
kai
kalimantan
kampuchea
kampung
kansas
karenin
karenina
karl
kashmir
kazakh
kazakhstan
kbr
kcl
ke
kek
kent
kentucky
kg
khabarovsk
khan
khmer
ki
kia
kiaŋ
kie
kim
king
kio
kiowa
kiribati
kirk
kiu
km
kmno
knox
ko
ku
kua
kublai
kui
kundera
kuo
kuro
kuwait
kyrgyz
kyrgyzstan
l
la
lafayette
lake
lama
lamar
lancaster
language
lanka
lanthanum
lao
laos
last
lauderdale
lawrence
le
lee
left
leger
lenin
leo
leone
les
letters
lev
levin
lewis
lhoba
li
lia
liberty
libya
lie
liechtenstein
life
lik
lilliput
lincoln
linn
lio
lisboa
list
lithuania
little
liu
livingston
lo
logan
london
long
los
louis
louisiana
love
lowndes
lowood
lp
lu
lua
lucia
luk
luna
luo
luther
luxembourg
ly
lyon
m
ma
maarten
maclay
macon
madison
madrid
magiri
magnetic
main
maine
maldives
man
march
margaret
marino
marion
marshall
martin
marx
mary
maryland
mason
massachusetts
matter
may
maya
mcintosh
mclean
mcpherson
me
meade
media
mediawiki
medina
mercer
metal
metals
mexico
mg
mgcl
mgo
mi
mia
miami
michael
michigan
microsoft
middlesex
mie
mik
miller
mills
mineral
minh
minnesota
mississippi
missouri
mitchell
mm
mno
mo
mon
monpa
monroe
montana
montgomery
moore
morgan
morning
morocco
morris
morss
morton
mozambique
mt
mu
mua
muammar
mulao
muo
murray
music
mussolini
mustela
my
mzj
n
na
naalo
nacl
naha
nahco
nai
nakhon
nam
name
nano
naoh
napole
nassau
national
nato
natural
nature
nauru
nazi
nba
ncipe
ncov
nd
ne
nebraska
nelson
nepal
nervgear
net
netherlands
nevada
nevis
new
news
newton
ng
nga
nge
ngi
ngia
ngie
ngiek
ngio
ngiu
ngo
ngu
ngua
nguo
nguok
nguye
nh
ni
nia
nicholas
nicolaus
nie
nigeria
nik
ninh
nio
nist
niu
niue
nixon
no
nobel
noble
norfolk
norman
north
northampton
northern
notre
novel
november
now
nu
nua
nuclear
number
nuo
ny
o
oa
obama
oda
oedipus
of
oganessian
oh
ohio
okinawa
oklahoma
olympic
omoro
on
oneida
online
ophelia
orange
oregon
org
orleans
osage
osceola
oslo
osman
ossetia
othello
othmer
ottawa
otto
ou
over
oxford
p
pa
page
pak
pakistan
palestine
pamuk
panama
papua
paris
park
paul
paulus
pawnee
paŋ
pd
pdf
pe
pedia
pekan
pennsylvania
perak
periodic
perry
pershina
peru
peter
pharaoh
phelps
phi
philadelphia
philia
philip
phillips
php
phrvb
phrvl
phu
physical
physics
physrevb
physrevc
physrevlett
pi
pia
pickens
pie
pierce
pierre
piggies
pike
pip
pius
pixar
platon
platte
pmid
po
polk
polynesia
pop
pope
port
post
potter
pour
pp
pradesh
press
pri
prince
principles
prize
production
properties
protest
pu
pua
public
pulaski
punk
puo
putin
putnam
python
q
qaeda
qatar
qq
qua
quasimodo
queen
r
ra
randolph
ray
rd
re
reaction
red
reed
ref
relativistic
report
republic
return
review
rhode
rica
rice
rich
richard
richland
richmond
right
rio
river
rm
rna
rnap
robert
robertson
rochester
rock
rockingham
roger
roma
romania
roosevelt
rovio
rowan
royal
rthk
ru
russell
rutherford
rwanda
s
sa
saba
sai
saint
salar
saline
sam
samoa
san
sandwich
sang
santa
sao
sars
satsuma
satunushi
saudi
saŋ
school
schuyler
science
sciences
scotland
scott
se
sea
sebastian
sek
seminole
senegal
seng
seoul
september
serbia
set
severe
sevier
seychelles
sg
sh
shakespeare
shelby
sheridan
sherman
shuen
si
sia
siang
sie
sierra
sieu
sik
sing
single
sint
sio
sioh
siong
sioux
sir
siu
sixtus
slovenia
sm
smith
snopes
so
society
sokrates
solomon
somerset
son
song
songs
south
span
springer
sql
sri
st
stability
stalin
standard
star
stark
state
states
stephanus
stephens
stevens
stewart
stlin
stone
story
strauss
street
structural
su
sudan
suk
sulawesi
sullivan
summit
sumter
sunday
sung
suo
superheavy
susceptibility
sussex
swift
sydney
synthesis
system
sz
szomoru
t
ta
table
tagore
tai
tajik
tanzania
tasmania
tatar
tau
taylor
te
tech
technology
temu
tenggara
tennessee
territory
teton
texas
tezuka
th
tha
that
thayer
the
then
this
thomas
thornfield
ti
tia
tie
tieng
times
timor
tio
title
tiu
tl
to
tobago
todd
tokugawa
tolstoy
tome
tonga
touŋ
toyotomi
tra
transactinide
transactinides
transition
tribe
trigger
trinidad
ts
tu
tua
tung
tunisia
tuvalu
tv
tw
twitter
tyler
tɕ
u
ua
uang
ubuntu
ue
uk
ukraine
ung
union
united
university
unix
uo
uoi
uok
uparrow
ural
urbanus
url
uruguay
us
utah
uyghur
uzbek
uzbekistan
v
va
valeria
valley
van
vasa
vaticano
ve
venezuela
verde
vermont
vernon
vi
victor
victoria
vie
vila
village
vincent
virgin
virginia
visual
vitos
vladimir
volume
von
vronsky
vua
w
wales
walker
warren
warszawa
washington
wayne
we
web
webster
weights
wells
west
western
what
wheeler
white
wiki
wikibooks
wikidata
wikimedia
wikinews
wikipedia
wikisource
wikispecies
wiktionary
wiley
wilkinson
william
williams
williamson
wilson
windows
winnebago
wisconsin
with
wong
wood
work
workers
world
worth
wright
wuhan
www
wyoming
x
y
yangon
yen
yo
york
you
youtube
yu
yughur
yuri
z
zh
zimbabwe
zn
znso
{
|
}
~
«
°
²
²¹
³³
³¹
·
»
×
æ
đa
đi
đo
ŋ
œ
ɔ
ɕ
ɛ
ɸ
ʔ
ʝ
ʮ
ʰ
ˀ
ˈ
ː
˥
˦
˧
˨
˩
̀
́
̂
̃
̄
̆
̇
̈
̉
̊
̋
̌
̍
̓
̔
̛
̣
̤
̧
̨
̩
̿
͂
͡
α
β
γ
δ
ε
ζ
η
θ
ι
κ
λ
μ
ν
ξ
ο
π
ρ
ς
σ
τ
υ
φ
χ
ψ
ω
в
н
улс
ч
ְ
ִ
ֵ
ֶ
ַ
ָ
ֹ
ּ
־
ׁ
א
ב
ד
ה
ח
י
כ
ל
ם
מ
ן
ס
ר
ש
ת
ا
ي
ُ
ٔ
ٕ
क
त
द
ध
ब
र
श
ा
ि
ु
े
ो
्
া
্
ช
ั
ิ
ี
ุ
์
་
།
ཁ
ག
ང
ཆ
ད
ན
པ
བ
མ
ར
ལ
ས
ི
ུ
ེ
ོ
ྐ
ྒ
ྔ
ྗ
ྱ
ྲ
ླ
ྷ
န
မ
ိ
ု
ေ
့
း
္
်
ြ
조선
ខ
ព
ភ
ម
រ
ស
ា
ុ
ែ
្
᠋
᠌
ᠬᠠᠭᠠᠨ
ᡥᡡᠸᠠᠩᡩᡳ
​
‎
–
—
―
‘
’
“
”
„
‟
•
…
‧
′
″
⁵
⁵³
ⁿ
₩
€
℃
↑
→
↓
↔
↷
−
∙
∽
≡
③
④
⑦
⑨
─
△
▼
○
⟶
⺀
⺄
⺆
⺈
⺊
⺌
⺕
⺝
⺮
⺸
⺼
⿰
⿱
⿲
⿳
⿴
⿵
⿶
⿷
⿸
⿹
⿺
⿻
、
。
〈
〉
《
》
「
」
『
』
【
】
〜
〢
あ
い
う
え
お
か
き
く
け
こ
さ
し
す
せ
そ
た
ち
っ
つ
て
と
な
に
ね
の
は
ひ
ふ
へ
ほ
ま
み
む
め
も
ゃ
や
ゆ
ょ
よ
ら
り
る
れ
ろ
わ
を
ん
゙
゚
ァ
ア
ィ
イ
ゥ
ウ
ェ
エ
オ
カ
キ
ク
ケ
コ
サ
シ
ス
セ
ソ
タ
チ
ッ
ツ
テ
ト
ナ
ニ
ノ
ハ
ヒ
フ
ヘ
ホ
マ
ミ
ム
メ
モ
ャ
ュ
ユ
ョ
ラ
リ
ル
レ
ロ
ワ
ン
・
ー
ㄉ
ㄝ
ㄤ
ㄨ
㇁
㇂
㇄
㇇
㇈
㇉
㇓
㎡
㐁
㐄
㐅
㐌
㐫
㐬
㐭
㐮
㐱
㑁
㑒
㑚
㒵
㒸
㒼
㓁
㓞
㔾
㕛
㕣
㖾
㗝
㘝
㚅
㚇
㚔
㚘
㝉
㝡
㝴
㝵
㞋
㞢
㞷
㠩
㠭
㠯
㡀
㡭
㡿
㢲
㢴
㣇
㣺
㥯
㦿
㪅
㪗
㫄
㫐
㫒
㫺
㬅
㬎
㬥
㬰
㲋
㲺
㳄
㵟
㷄
㷠
㸒
㸚
㸦
㼌
㼲
㽞
㾀
㾪
㿟
䀠
䀹
䂞
䅢
䉐
䋎
䍃
䍜
䏍
䒑
䖍
䖒
䖝
䖵
䖻
䗁
䗃
䙴
䚻
䜌
䝿
䟛
䡛
䧹
䪞
一
丁
丂
七
丄
丅
丆
万
丈
三
上
下
丌
不
与
丏
丐
丑
专
且
丕
世
丘
丙
业
东
丞
丟
丢
丣
两
严
並
丨
丩
个
丫
丬
中
丮
丰
丱
串
临
丵
丶
丷
丸
丹
为
主
丽
举
丿
乀
乂
乃
久
乆
乇
么
义
之
乌
乍
乎
乏
乐
乑
乒
乓
乔
乖
乗
乘
乙
乚
乛
乜
九
乞
也
习
乡
书
买
乱
乳
乾
亀
亂
亅
了
亇
予
争
事
二
亍
于
亏
亐
云
互
亓
五
井
亘
亚
些
亜
亞
亟
亠
亡
亢
交
亥
亦
产
亨
亩
享
京
亭
亮
亯
亰
亲
亳
亶
亷
人
亻
亼
亾
亿
什
仁
仂
仅
仈
今
介
仌
仍
从
仐
仑
仒
仓
仔
仕
他
仗
付
仙
仝
代
令
以
们
仮
仰
仱
仲
件
价
任
份
仿
企
伊
伍
伏
伐
休
伓
众
优
会
伝
伟
传
伦
伪
伬
伯
估
伲
伴
伸
伺
似
伽
但
佇
佈
位
低
住
佐
佑
体
佔
何
佗
佘
余
佛
作
你
佥
佩
佪
佬
佳
併
佺
佻
使
來
侈
例
侌
侍
侖
侗
供
依
侠
価
侦
侨
侬
侮
侯
侵
侶
便
係
促
俄
俊
俗
俚
保
俞
俠
信
俤
俥
修
俱
俾
倉
個
倍
們
倒
倖
候
倚
倛
借
倠
倡
倩
倪
倫
倭
债
值
假
偉
偌
偏
做
停
健
側
偶
偷
偽
傀
傅
傈
傑
傘
備
傢
傣
催
傳
債
傷
僅
僉
像
僑
僕
僧
僳
價
僻
儀
儂
億
儋
儒
儕
償
儡
儥
優
儲
儷
儿
兀
允
兂
元
兄
充
兆
兇
先
光
兊
克
兌
免
兑
兒
兓
兔
党
兜
兟
入
內
全
兩
兪
八
公
六
兮
兰
共
关
兴
兵
其
具
典
兹
养
兼
冀
冂
冃
冄
内
冇
冈
冉
冊
冋
册
再
冎
冏
冐
冒
冓
冕
冖
冗
冘
写
军
农
冝
冠
冡
冤
冥
冫
冬
冰
决
况
冶
冷
准
凊
凌
凍
凝
几
凡
凢
凤
凰
凱
凵
凶
凷
凸
凹
出
函
凾
刀
刁
刂
刃
刄
刅
分
切
刊
刍
刑
划
刕
刖
列
刘
则
创
初
刣
判
別
刨
利
刪
别
到
制
刷
券
刺
刻
剂
剃
則
削
剌
前
剎
剛
剝
剡
剧
剩
剪
副
割
創
剽
劃
劇
劉
劍
劑
力
办
功
加
务
劦
动
助
努
劫
劳
劵
势
勃
勇
勉
勒
動
勖
務
勝
勞
募
勢
勤
勳
勵
勸
勹
勺
勻
勾
勿
匀
匂
包
匆
匈
匊
匋
匍
匕
化
北
匚
匝
匡
匣
匪
匯
匱
匸
匹
区
医
匽
匾
匿
區
十
卂
千
卄
卅
卆
升
午
卉
半
卌
华
协
卑
卒
卓
協
单
卖
南
博
卜
卝
卞
占
卡
卢
卣
卤
卦
卩
卪
卫
卬
卯
印
危
即
却
卵
卷
卸
卻
卿
厂
厃
厄
历
厈
厉
压
厌
厓
厘
厚
厝
原
厢
厤
厥
厦
厨
厭
厲
厶
厷
厸
去
厼
厽
县
叀
参
參
叅
又
叉
及
友
双
反
収
叐
发
叒
叔
叕
取
受
变
叙
叚
叛
叜
叟
叢
口
古
句
另
叩
只
叫
召
可
台
叱
史
右
叵
叶
号
司
叹
吂
吃
各
吅
合
吉
吊
吋
同
名
后
吏
吐
向
吓
吕
吗
君
吝
吞
吟
否
吧
含
启
吳
吴
吵
吶
吸
吹
吾
呂
呆
呈
告
员
呙
呢
呣
周
味
呶
呸
呼
命
咅
和
咎
咏
咑
咒
咖
咠
咢
咨
咬
咯
咸
咼
咿
哀
品
哆
哇
哈
哉
哊
响
哔
員
哥
哩
哪
哭
哲
哺
哼
唇
唐
售
唯
唱
唸
唻
商
啇
啊
問
啓
啚
啜
啟
啡
啤
啦
啬
啲
啷
啻
啼
喀
善
喇
喉
喊
喏
喔
喙
喚
喜
喝
喪
喫
喬
單
営
喻
喿
嗇
嗎
嗚
嗞
嗣
嗦
嗵
嗶
嗽
嘆
嘉
嘎
嘛
嘢
嘴
噠
器
噩
噲
噴
噶
噸
噹
嚗
嚨
嚴
嚽
囀
囇
囉
囊
囗
囘
囙
囚
四
囝
回
囟
因
囡
团
団
囥
囧
囫
囬
园
困
囱
围
囷
固
国
图
圂
圃
圅
圆
圇
圈
國
圍
園
圓
圖
團
土
圡
圣
圥
在
圭
地
圳
圶
场
圼
址
坂
均
坊
坎
坏
坐
坑
坒
块
坚
坠
坡
坦
坪
坴
坵
垂
垃
型
垔
垚
垣
埀
埃
埋
城
埔
埕
埗
域
埠
埶
執
培
基
堂
堅
堆
堇
堡
堪
堯
報
場
堵
塊
塌
塍
塑
塔
塕
塗
塘
塚
塞
塢
填
塵
境
墊
墓
墘
墙
墜
增
墨
墩
墰
墻
墾
墿
壁
壇
壓
壘
壞
壟
壤
壩
士
壬
壯
声
売
壳
壴
壹
壺
壽
夂
处
夅
夆
备
変
夊
夋
夌
复
夏
夒
夕
外
夗
夘
多
夜
够
夠
夢
夥
大
夨
天
太
夫
夬
夭
央
失
夲
头
夷
夸
夹
夻
夾
奂
奄
奇
奈
奉
奋
奎
奏
奐
契
奓
奔
奕
奖
套
奚
奞
奠
奢
奥
奧
奪
奭
奮
女
奴
奶
奸
奻
好
如
妃
妄
妇
妊
妓
妖
妙
妝
妟
妥
妮
妹
妻
妾
姆
姊
始
姐
姑
姓
委
姕
姚
姜
姬
姮
姻
姿
威
娃
娄
娘
娛
娜
娠
娥
娱
婁
婆
婉
婚
婢
婦
婧
婴
婶
婿
媒
媛
媽
嫁
嫂
嫌
嫡
嫦
嫩
嬌
嬤
嬪
嬭
嬰
嬴
嬷
嬸
孃
子
孑
孔
孕
孖
字
存
孙
孚
孛
孝
孟
季
孤
学
孩
孫
孱
學
宀
宁
宂
它
宅
宇
守
安
宋
完
宏
宓
宗
官
宙
定
宛
宜
宝
实
実
客
宣
室
宥
宦
宫
宮
宰
害
宴
宵
家
容
宾
宿
寄
寅
密
寇
富
寒
寓
察
寢
實
寧
寨
審
寫
寬
寮
寰
寶
寸
对
寺
寻
导
寽
対
寿
封
尃
射
尅
将
將
專
尉
尊
尋
尌
對
導
小
少
尒
尓
尔
尖
尗
尙
尚
尞
尢
尣
尤
尧
尨
尭
就
尸
尹
尺
尻
尼
尽
尾
尿
局
层
居
屆
屈
届
屋
屍
屎
屏
屑
展
屖
屚
属
屠
屡
層
屬
屮
屯
屰
山
屵
屹
屾
岁
岂
岐
岑
岛
岡
岩
岱
岳
岸
峡
峯
峰
島
峽
崇
崎
崑
崔
崖
崗
崙
崩
嵊
嵐
嵬
嶲
嶺
嶼
嶽
巂
巖
巛
川
州
巟
巠
巡
巢
巤
工
左
巧
巨
巩
巫
差
巰
己
已
巳
巴
巷
巸
巽
巾
巿
帀
币
市
布
帆
师
希
帖
帚
帛
帝
帥
带
師
席
帳
帶
常
帽
幕
幣
幫
干
平
年
幵
并
幷
幸
幹
幺
幻
幼
幽
幾
广
広
庄
庆
庇
床
序
库
应
底
店
庙
庚
府
度
座
庫
庬
庭
庵
庶
康
庸
廁
廂
廈
廉
廊
廌
廚
廛
廟
廠
廢
廣
廩
廬
廮
廳
廴
延
廷
建
廾
廿
开
弁
异
弃
弄
弇
弊
弋
式
弓
弔
引
弗
弘
弜
弟
张
弥
弦
弱
張
強
强
彈
彊
彌
彎
彐
彑
当
彔
录
彖
彗
彙
彝
彡
形
彥
彦
彧
彩
彬
彭
彰
影
彳
役
彼
往
征
待
很
律
後
徐
徑
徒
得
徙
徛
從
御
復
循
微
徳
徵
德
徹
徽
心
忄
必
忆
忌
忍
志
忘
忙
忝
忠
忤
忩
快
念
忻
忽
忿
怀
态
怎
怒
怕
思
怠
怡
急
性
怨
怪
怱
总
恁
恆
恋
恐
恒
恕
恢
恥
恨
恩
恪
恭
息
恰
悄
悅
悉
悠
患
悤
悦
悲
悶
情
惇
惟
惠
惡
惢
惨
想
惹
惻
愁
愆
愈
愉
意
愚
愛
感
愿
慈
態
慎
慕
慘
慢
慣
慧
慨
慮
慰
慶
憂
憐
憑
憤
憲
憶
應
懲
懶
懷
懸
懿
戀
戈
戉
戊
戋
戌
戍
戎
戏
成
我
戒
戔
或
战
戚
戛
戠
戢
截
戰
戲
戳
戴
戶
户
戹
戼
戾
房
所
扁
扇
扉
手
扌
才
扎
扒
打
扔
托
扛
扣
执
扩
扮
扶
批
找
承
技
把
抑
抒
抓
投
抖
抗
折
抛
抜
护
报
披
抱
抹
押
抽
抾
拆
拇
拈
拉
拋
拍
拒
拓
拔
拖
拗
拘
招
拜
括
拯
拱
拳
拼
拿
持
挃
指
挈
按
挑
挖
挥
挨
挪
振
挺
捉
捏
捐
捞
换
据
捲
捵
捷
捼
掃
掄
授
掉
掌
掏
排
掘
掛
掠
採
探
接
控
推
掰
揀
描
提
插
揚
換
揢
揭
揮
援
損
搓
搖
搗
搜
搞
搦
搬
搭
搶
摆
摒
摔
摘
摩
摳
摸
摻
撃
撇
撈
撐
撒
撕
撙
撞
撤
撥
撫
播
撮
擁
擇
擊
擋
操
擎
擔
擘
據
擬
擴
擺
攀
攏
攔
攖
攜
攝
攤
支
攴
攵
收
攸
改
攻
放
政
敄
故
敆
效
敎
敏
救
敕
敖
敗
敘
教
敝
敞
敢
散
敦
敫
敬
数
敲
整
敵
敷
數
斂
文
斉
斊
斌
斑
斗
料
斜
斤
斥
斧
斩
斬
断
斯
新
斷
方
於
施
斿
旁
旅
旋
族
旗
无
旡
既
旣
日
旦
旧
旨
早
旬
旭
旱
旲
时
旺
旾
昂
昆
昇
昌
昍
明
昏
易
昔
昕
昗
昜
星
映
春
昧
昨
昬
昭
是
昰
昱
昴
昶
昷
時
晃
晉
晋
晏
晓
晖
晚
晝
晟
晡
晨
普
景
晰
晴
晶
智
暂
暉
暑
暖
暗
暝
暨
暫
暴
暹
暾
曆
曇
曉
曜
曝
曠
曦
曩
曰
曲
曳
更
曷
書
曹
曼
曾
替
最
朁
會
月
有
朋
服
朔
朕
朗
望
朝
期
木
朩
未
末
本
札
朮
术
朱
朴
朵
朶
机
朿
杀
杂
权
杆
杉
李
杏
材
村
杖
杜
束
条
来
杨
杭
杯
杰
東
杲
杳
杷
松
板
极
构
枇
析
枕
林
枚
果
枝
枯
枲
架
枷
枼
柄
柏
某
染
柔
柘
柚
柝
查
柬
柯
柰
柱
柳
柴
柿
标
栏
栗
校
栢
栩
株
样
核
根
格
栽
桀
桂
桃
框
案
桌
桐
桑
桓
档
桥
桶
桼
桿
梁
梅
梓
梗
條
梟
梢
梦
梧
梨
梯
梳
梵
检
棄
棉
棋
棕
棗
棘
棚
棠
棣
棥
森
棲
棺
椅
植
椎
椏
椒
椰
椿
楊
楓
楚
楨
業
極
楷
楻
楼
楽
概
榔
榕
榜
榦
榭
榮
榴
構
槍
槓
様
槽
槿
樂
樊
樑
樓
標
樞
樟
模
樣
樫
樹
樺
橄
橋
橘
橙
機
橡
橢
橫
檀
檐
檔
檜
檢
檨
檳
檻
櫃
櫞
櫥
欄
權
欖
欛
欠
次
欢
欣
欮
欲
欶
欺
欽
款
歃
歆
歇
歉
歌
歐
歛
歞
歠
歡
止
正
此
步
武
歧
歨
歪
歮
歯
歰
歲
歴
歷
歸
歹
歺
死
殊
殖
殘
殳
殴
段
殷
殸
殹
殺
殻
殼
殿
毀
毅
毋
毌
母
每
毒
毓
比
毕
毗
毚
毛
毫
毬
毳
氏
氐
民
气
氖
気
氙
氛
氟
氡
氣
氦
氧
氨
氪
氫
氬
氮
氯
水
氵
氶
氷
永
氺
氽
氾
汀
汁
求
汆
汇
汉
汕
汗
汙
汝
汞
江
池
污
汤
汪
決
汽
汾
沂
沃
沈
沉
沒
沓
沖
沙
沛
沝
沟
没
沪
沫
沰
河
沸
油
治
沿
況
泄
泅
泉
泊
泌
法
泛
泡
波
泣
泥
注
泰
泽
洋
洗
洛
洞
津
洪
洲
洵
活
派
流
测
济
浓
浙
浚
浦
浩
浪
浮
海
浸
涂
消
涉
涌
涛
涨
涪
涯
液
涵
涼
淀
淄
淑
淚
淡
淤
淨
淩
淪
淫
淮
深
淳
淵
混
淸
淺
添
清
渊
渐
渔
渗
渚
減
渝
渠
渡
渣
渤
渦
渧
温
測
港
渴
游
湃
湄
湍
湖
湘
湛
湧
湮
湯
湾
湿
源
準
溜
溝
溧
溪
溫
溯
溴
溶
滄
滅
滇
滉
滋
滑
滓
满
滤
滨
滲
滴
滸
滾
滿
漁
漂
漆
漈
漏
演
漠
漢
漤
漫
漲
漳
漸
漿
潁
潑
潔
潘
潛
潜
潤
潨
潭
潮
潰
潸
潼
澄
澈
澎
澤
澱
澳
激
濂
濃
濕
濛
濟
濠
濤
濫
濮
濱
瀉
瀋
瀏
瀑
瀕
瀚
瀛
瀬
灌
灑
灘
灣
火
灬
灭
灯
灰
灴
灵
灶
灷
災
炅
炆
炊
炎
炏
炖
炗
炙
炭
炮
炸
点
為
烈
烏
烘
烝
烟
热
烰
烴
烷
焉
焙
焚
無
焦
焰
焱
然
煉
煎
煙
煞
煥
照
煩
煬
煮
熁
熊
熏
熒
熔
熙
熟
熨
熬
熱
熹
熾
燃
燈
燉
燋
燒
燕
燙
營
燬
燭
燮
爆
爐
爛
爪
爫
爬
爭
爯
爰
爱
爲
爵
父
爸
爹
爺
爻
爽
爾
爿
牆
片
版
牌
牙
牚
牛
牜
牟
牡
牢
牧
物
牪
牯
牲
牳
特
牽
犀
犖
犧
犬
犭
犮
犯
状
狀
狂
狄
狊
狐
狗
狠
狡
独
狸
狺
狼
猋
猒
猖
猛
猜
猩
猪
猫
献
猴
猶
猷
獄
獅
獎
獗
獨
獲
獵
獸
獻
玄
率
玉
王
玟
玨
玩
环
现
玲
玻
珂
珊
珍
珎
珠
珦
班
現
球
琅
理
琉
琊
琛
琯
琰
琳
琴
琵
琶
瑋
瑗
瑚
瑛
瑜
瑞
瑟
瑣
瑤
瑩
瑪
璃
璋
璧
環
瓊
瓜
瓣
瓦
瓮
瓶
瓷
甄
甌
甕
甘
甚
甜
生
產
産
用
甩
甫
甬
田
由
甲
申
电
甶
男
甸
甹
画
甾
畀
界
畏
畐
留
畜
畝
畟
畢
略
畧
畨
番
畫
異
畱
畲
當
畺
畾
疆
疊
疋
疌
疍
疑
疒
疔
疗
疫
疲
疵
疼
疾
病
症
痛
痢
痰
瘋
瘓
瘟
瘡
療
癇
癌
癩
癮
癱
癲
癶
癸
癹
発
登
發
白
百
皀
皂
皃
的
皆
皇
皋
皐
皕
皮
皷
皿
盂
盃
盆
盇
盈
益
盍
盎
监
盒
盖
盛
盟
盡
監
盤
盧
盪
目
盲
直
相
盼
盾
省
眇
眉
看
県
眔
眚
眞
真
眠
眩
眶
眷
眼
眾
着
睇
睏
睘
睡
督
睦
睪
睭
睿
瞏
瞢
瞻
瞿
矍
矛
矞
矢
矣
知
矦
矩
短
矮
石
矽
码
砂
砍
砒
研
砧
砲
破
砷
砸
砹
硅
硒
硝
硩
硫
硬
确
硼
碎
碗
碘
碚
碟
碧
碩
碰
碲
碳
確
碼
碾
磁
磅
磊
磚
磨
磬
磯
磷
磺
礎
礙
礦
礫
礱
示
礻
礼
社
祀
祁
祈
祐
祖
祝
神
祟
祠
祥
票
祭
祿
禀
禁
禍
禎
福
禦
禧
禪
禮
禱
禳
禸
禹
禺
离
禽
禾
禿
秀
私
秃
秉
秋
种
科
秒
秘
秝
秞
租
秤
秦
秩
秫
秮
称
移
稀
稅
稈
程
稗
稚
稟
稠
種
稱
稻
稼
稽
稿
穀
穄
穆
穌
積
穎
穗
穩
穴
究
穹
空
穿
突
窄
窒
窗
窩
窮
窾
竄
竇
立
竒
站
竜
竝
竞
竟
章
童
端
競
竹
竿
笑
笔
笞
笠
符
第
筅
筆
等
筋
筍
筑
筒
答
策
筝
筵
筹
签
简
箂
箏
箒
箔
箕
算
管
箬
箱
箴
箸
節
範
篆
篇
築
篙
篡
篤
篩
篭
篷
簡
簪
簫
簳
簷
簽
籃
籌
籍
籠
籩
籲
米
类
籽
粉
粒
粗
粘
粙
粛
粞
粟
粤
粥
粦
粱
粲
粵
粹
粽
精
粿
糊
糕
糖
糜
糞
糟
糧
糸
糹
系
紀
紂
約
紅
紋
納
紐
紓
純
紗
紙
級
素
紡
索
紫
紮
累
細
紹
終
組
結
絕
絜
絞
絡
給
絨
絫
統
絲
絶
綁
綏
經
綜
綠
綢
綦
綫
綬
維
綱
網
綴
綵
綻
綽
綿
緊
緒
線
緝
緣
編
緩
緬
緯
練
縄
縊
縛
縣
縮
縱
總
績
繁
繆
繇
織
繞
繡
繩
繪
繫
繼
纂
續
纍
纏
纖
纟
红
约
级
纪
纯
纳
纷
纸
纽
线
组
细
织
终
绍
绎
经
结
绕
给
络
绝
统
继
绩
维
综
编
缘
缶
缺
罐
网
罒
罔
罕
罗
罙
罡
罢
罩
罪
置
罰
署
罵
罷
羅
羈
羊
羌
羍
美
羔
羕
羗
羞
羡
羣
群
義
羲
羸
羹
羽
羿
翁
翅
翊
翏
習
翔
翕
翟
翠
翡
翦
翩
翰
翹
翻
翼
耀
老
耂
考
者
耆
而
耎
耐
耑
耒
耕
耙
耨
耳
耴
耶
耷
耻
耿
聂
聊
职
联
聖
聚
聞
聯
聰
聲
聶
職
聽
聿
肀
肃
肅
肉
肌
肖
肘
肙
肚
肝
股
肢
肥
肩
肪
肯
育
肴
肺
胃
背
胎
胚
胞
胡
胤
胥
胰
胲
胶
胸
能
脂
脅
脈
脊
脏
脑
脧
脩
脫
脬
脰
脱
脸
脾
腎
腐
腓
腔
腕
腦
腫
腰
腳
腸
腹
腺
腾
腿
膀
膚
膜
膠
膩
膺
膽
臂
臉
臍
臘
臚
臟
臣
臤
臧
臨
自
臬
臭
臯
臱
至
致
臺
臼
臽
臾
臿
舀
舂
舄
與
興
舉
舊
舌
舍
舒
舛
舜
舞
舟
航
般
舰
船
艇
艘
艦
艮
良
色
艷
艸
艹
艺
艾
节
芋
芒
芔
芘
芙
芝
芥
芦
芬
芭
芮
芯
花
芳
芹
芺
芻
芽
苇
苏
苑
苔
苗
苞
苟
苣
若
苦
英
茂
范
茄
茅
茉
茍
茨
茲
茵
茶
茸
荀
荅
荆
草
荊
荒
荔
荣
荷
荸
荼
莆
莇
莉
莊
莎
莒
莓
莖
莗
莞
莧
莫
莱
获
莽
菁
菅
菆
菇
菊
菌
菐
菓
菜
菠
菢
菩
華
菰
菲
萄
萆
萊
萌
萍
营
萧
萬
萵
落
葆
葉
著
葛
葡
董
葦
葫
葬
葵
蒂
蒋
蒐
蒙
蒜
蒦
蒲
蒸
蒼
蓁
蓆
蓉
蓋
蓝
蓬
蓮
蓺
蔑
蔗
蔚
蔡
蔣
蔥
蔬
蔭
蔽
蕉
蕊
蕩
蕪
蕭
蕹
蕾
薄
薇
薌
薑
薛
薦
薧
薩
薪
薯
薰
薺
藁
藉
藍
藏
藜
藝
藤
藥
藩
蘆
蘇
蘊
蘋
蘑
蘭
蘿
虍
虎
虐
虒
虔
處
虖
虗
虘
虚
虛
虜
虞
號
虧
虫
虱
虹
虼
虽
蚊
蚌
蚓
蚣
蚤
蚨
蚩
蚰
蚶
蚻
蛄
蛇
蛋
蛙
蛛
蛤
蛦
蛼
蛾
蜀
蜂
蜃
蜆
蜊
蜑
蜓
蜘
蜚
蜜
蜞
蜫
蜱
蜻
蝕
蝗
蝙
蝠
蝦
蝴
蝶
螂
融
螞
螢
螯
螳
螺
蟄
蟆
蟒
蟛
蟟
蟧
蟲
蟳
蟹
蟻
蠅
蠊
蠍
蠓
蠔
蠟
蠡
蠣
蠶
蠻
血
衆
行
衍
術
街
衙
衛
衝
衞
衡
衢
衣
衤
补
表
衫
衮
衰
衹
袁
袋
袍
袖
袞
被
袭
裁
裂
装
裏
裔
裕
裙
補
裝
裡
裳
裹
製
複
褒
褚
褪
褭
褱
褲
襄
襾
西
覀
要
覃
覆
覇
覈
見
規
覓
視
覡
覧
親
覭
覷
覺
覽
觀
见
观
视
角
解
觸
言
訁
訂
訇
計
訊
討
訓
託
記
訟
訪
設
許
訴
診
註
詔
評
詞
詢
試
詩
話
該
詳
詹
誌
認
誓
誕
語
誠
誡
誤
誦
誩
說
説
誰
課
誼
調
談
請
諒
論
諡
諧
諫
諭
諮
諱
諷
諸
諺
諾
謀
謂
謙
講
謝
謠
謡
謨
證
譏
識
譚
譜
警
譬
譯
議
譲
譴
護
讀
變
讓
讚
讠
计
订
认
讨
让
议
讯
记
讲
许
论
设
访
证
评
识
诊
词
译
诔
试
诗
诚
话
诞
该
语
说
诵
请
读
课
谁
调
谈
谓
谣
谦
谱
谴
谷
豆
豈
豉
豊
豎
豐
豕
豖
豙
豚
象
豦
豩
豪
豫
豬
豸
豹
豺
貇
貌
貓
貝
貞
貟
負
財
貢
貧
貨
販
貪
貫
責
貯
貳
貴
貶
買
費
貼
貽
貿
賀
賁
賂
賄
資
賈
賊
賏
賓
賔
賛
賜
賞
賠
賢
賣
賤
賦
質
賬
賭
賴
賺
購
賽
贅
贈
贊
贏
贖
贛
贝
贡
财
责
贤
质
贯
贲
贴
贵
贸
费
贺
资
赋
赏
赖
赛
赞
赢
赤
赦
赫
走
赴
赵
起
趁
超
越
趕
趙
趟
趣
趨
足
趾
跃
跑
距
跟
跡
跣
跨
跪
跬
路
跳
踊
踏
踐
踪
蹄
蹇
蹈
蹤
蹲
躃
躄
躍
躒
身
躬
躲
軀
車
軌
軍
軎
軒
軟
軸
較
載
輒
輔
輕
輝
輦
輩
輪
輯
輸
輿
轄
轅
轉
轎
车
轨
轮
软
轰
轻
较
辆
辈
辑
输
辖
辛
辜
辞
辟
辣
辥
辦
辨
辭
辮
辯
辰
辱
農
辵
辶
边
达
迅
过
迎
运
近
返
还
这
进
远
违
连
迦
迨
迪
迫
述
迴
迷
迹
追
退
送
逃
逆
选
透
逐
途
逕
逗
這
通
逝
速
造
逢
連
逮
週
進
逸
逼
逾
逿
遀
遂
遇
遊
運
遍
過
遐
道
達
違
遗
遘
遜
遞
遠
遣
適
遭
遮
遲
遵
遷
選
遺
遼
避
邀
邁
還
邊
邏
邑
邕
邢
那
邦
邪
邱
邵
邸
邹
邽
郊
郎
郡
部
郭
郴
郵
都
鄉
鄒
鄧
鄭
鄰
鄺
酉
酋
配
酒
酓
酥
酬
酵
酶
酷
酸
醃
醇
醉
醋
醒
醜
醫
醬
醮
釆
采
釋
里
重
野
量
釐
金
釒
釘
釜
針
釩
鈀
鈁
鈇
鈈
鈉
鈔
鈕
鈞
鈣
鈦
鈧
鈮
鈴
鈷
鈸
鈹
鈺
鈾
鉀
鉄
鉍
鉎
鉑
鉗
鉚
鉛
鉝
鉢
鉨
鉬
鉸
鉺
鉻
銀
銃
銅
銇
銓
銘
銜
銣
銫
銳
銷
銻
鋁
鋅
鋇
鋒
鋪
鋰
鋸
鋼
錄
錐
錒
錘
錠
錢
錦
錨
錫
錯
録
錳
錶
鍋
鍵
鍶
鍺
鍾
鎂
鎄
鎖
鎘
鎢
鎮
鎳
鎵
鎶
鎿
鏈
鏡
鏨
鏻
鏽
鐘
鐤
鐦
鐳
鐵
鐸
鑑
鑒
鑫
鑭
鑼
鑽
钅
针
钟
钱
铁
铭
银
销
镇
長
镸
长
門
閃
閉
開
閏
閑
閒
間
閔
閘
関
閣
閩
閭
閱
閵
閻
闊
闌
闘
關
门
闪
闭
问
间
闷
闻
闽
阁
阑
阜
阝
队
阡
阪
阮
防
阻
阿
陀
附
际
陆
陈
降
限
陝
陞
院
陣
除
险
陪
陰
陳
陵
陶
陷
陸
陽
隆
隊
隋
隍
階
随
隐
隔
際
障
隡
隨
險
隱
隴
隶
隸
隹
隺
隻
隼
隽
难
雀
雁
雄
雅
集
雈
雉
雋
雌
雍
雐
雔
雕
雖
雙
雚
雜
雝
雞
離
難
雨
雩
雪
雲
零
雷
雹
雺
電
需
霁
霄
震
霉
霍
霖
霜
霝
霞
霧
露
霸
霹
霽
靂
靈
靑
青
靖
静
靜
非
靠
靡
面
靣
革
靳
靶
鞋
鞍
鞠
韋
韓
韦
韭
韯
韱
音
韶
韻
響
頁
頂
頃
項
順
須
頌
預
頒
頓
頗
領
頡
頦
頭
頷
頸
頻
題
額
顏
顔
願
顛
類
顧
顯
页
顶
项
预
领
频
题
颜
風
颱
风
飛
飞
食
飠
飯
飲
飼
飽
飾
餃
餅
養
餐
餓
餔
餘
餜
餡
館
饃
饒
饣
饰
饼
馆
首
香
馬
馮
馴
駃
駐
駕
駛
駝
駢
駦
駱
駿
騎
騙
騰
騶
驅
驍
驐
驗
驚
驛
马
驻
驼
验
骏
骨
骲
骹
骿
髀
髒
髓
體
高
髟
髪
髮
髻
鬅
鬆
鬚
鬥
鬧
鬬
鬯
鬱
鬲
鬼
魁
魂
魇
魏
魔
魚
魨
魯
魺
鮑
鮭
鮮
鯉
鯨
鰓
鰭
鰲
鰻
鱉
鱟
鱺
鱼
鲁
鲜
鲤
鳥
鳩
鳳
鳴
鴉
鴓
鴝
鴨
鴰
鴻
鴿
鵑
鵝
鵡
鵬
鵲
鶇
鶴
鷂
鷄
鷗
鷰
鷹
鷺
鸚
鸟
鸿
鹅
鹊
鹰
鹵
鹹
鹼
鹽
鹿
麃
麒
麗
麟
麥
麦
麵
麸
麺
麻
麼
麾
黃
黄
黍
黎
黑
黒
黔
默
黛
黜
點
黨
黹
黽
黾
鼇
鼎
鼓
鼠
鼬
鼻
齅
齊
齋
齐
齒
齡
齣
齿
龍
龔
龕
龙
龜
龟
龠
龰
龱
龴
龵
龶
龷
龸
龹
鿫
ꆈ
ꌠ
者
艹
﻿
！
＃
＆
（
）
，
－
．
／
０
２
３
：
；
？
｜
𠀁
𠀃
𠀆
𠀉
𠀎
𠀐
𠁁
𠁣
𠂆
𠂇
𠂈
𠂉
𠂊
𠂋
𠂎
𠂒
𠂔
𠂛
𠂡
𠂢
𠂤
𠂬
𠂭
𠂹
𠃊
𠃋
𠃌
𠃍
𠃎
𠃑
𠃓
𠃔
𠃜
𠄌
𠄎
𠄠
𠄢
𠆢
𠆥
𠆧
𠇍
𠈌
𠌵
𠓜
𠔉
𠔥
𠔼
𠔽
𠔿
𠕀
𠕁
𠕇
𠕋
𠘧
𠘨
𠙻
𠙼
𠚏
𠚒
𠚤
𠚪
𠚺
𠣏
𠤎
𠤕
𠥓
𠦄
𠦑
𠦝
𠧒
𠧗
𠧪
𠩺
𠪚
𠫓
𠫔
𠫤
𠬛
𠬝
𠬞
𠬢
𠬤
𠬶
𠮛
𠮦
𠮷
𠯑
𠱠
𠲥
𠳮
𠷎
𡅏
𡈼
𡉀
𡉵
𡌥
𡍮
𡏳
𡕒
𡕩
𡕰
𡖅
𡗗
𡗜
𡘆
𡘤
𡧱
𡨄
𡩧
𡬠
𡭽
𡰣
𡰥
𡰪
𡰯
𡰱
𡷈
𡸁
𡿨
𡿩
𡿪
𡿺
𢀖
𢀛
𢀩
𢁙
𢆉
𢆰
𢆶
𢇁
𢇇
𢉖
𢌬
𢌿
𢏚
𢑑
𢑚
𢖻
𢙣
𢛳
𢦏
𢦒
𢧵
𢯽
𢱈
𢲫
𢼄
𢾕
𣁋
𣄼
𣅀
𣅽
𣆯
𣍐
𣍘
𣎳
𣎵
𣏋
𣏼
𣗥
𣗬
𣥂
𣥖
𣦵
𣦼
𣧄
𣪊
𣪠
𣬉
𣳾
𣶒
𤇾
𤈦
𤊽
𤐫
𤓰
𤔔
𤕨
𤞚
𤣩
𤤰
𤰇
𤰔
𤰞
𤴓
𤴔
𤽄
𥁑
𥁕
𥃦
𥃩
𥃭
𥇡
𥍉
𥏘
𥑟
𥘅
𥘈
𥝢
𥫗
𥱡
𥺪
𥻵
𦈢
𦉪
𦉬
𦉼
𦍌
𦍒
𦎧
𦐇
𦓔
𦔮
𦘒
𦙃
𦚏
𦣝
𦣞
𦣻
𦥑
𦥔
𦥯
𦨉
𦭝
𦰩
𧆞
𧈧
𧋘
𧏫
𧑎
𧘇
𧰨
𧲇
𧴪
𧴮
𧵩
𧾷
𨸏
𨾴
𩄻
𩙿
𩠐
𩨑
𩩍
𩫏
𩵋
𩸎
𩽏
𪉷
𪏸
𪜀
𪜶
𪟽
𪠲
𪢌
𪩲
𪺾
𫇦
𫔭
𫜸
𫝀
𫠣
𫠩
𫢉
𫥞
𫩏
𫩠
𫪡
𫲽
𫶧
𬀷
𬂌
𬐘
𬗌
𬙙
𬛸
𬜯
𬟩
𬯁
𬴘
𬺻
𬼉
𬼖
𭀰
𭁈
𭁨
𭅰
𭑈
𭕄
𭗼
𭤨
𭥫
𭻾
𮅕
𮊿
𮍌
𮍏
𮓗
𮥼
𮧮
廾
𰀁
𰀄
𰀈
𰀉
𰀕
𰀠
𰀡
𰀢
𰀪
𰁜
𰃮
𰆊
𰆘
𰋙
𰕎
𰢴
𰧭
𰯲
01--
04--
07--
37--
a--
ade--
ag--
aga--
ai--
aki--
al--
ali--
alp--
ama--
an--
ar--
as--
at--
ay--
b--
ba--
bal--
bar--
bay--
be--
bea--
ber--
bi--
bo--
bor--
br--
bra--
braz--
bry--
bu--
bur--
c--
ca--
cal--
cam--
car--
ch--
cha--
che--
chr--
chris--
cle--
co--
col--
com--
con--
cor--
cr--
cre--
cu--
cur--
cy--
d--
da--
de--
deuts--
di--
do--
du--
e--
ed--
el--
em--
er--
es--
experi--
f--
fa--
fe--
fl--
fr--
fu--
g--
ga--
gal--
ge--
gi--
go--
gra--
gre--
gu--
h--
ha--
ham--
han--
har--
haw--
hay--
he--
hel--
her--
hi--
hic--
high--
hiro--
ho--
hok--
hu--
hy--
i--
iber--
in--
io--
is--
it--
iu--
j--
ja--
je--
jer--
jo--
ju--
k--
ka--
kan--
ke--
ken--
kit--
kle--
ko--
kos--
ku--
l--
la--
lau--
le--
li--
lo--
lu--
lub--
m--
ma--
mal--
mar--
me--
mel--
mem--
mi--
mil--
mo--
moun--
mu--
mus--
my--
n--
na--
nan--
ne--
ni--
nic--
no--
nu--
o--
off--
or--
p--
pa--
pas--
patr--
pe--
pea--
pem--
per--
phi--
pho--
pi--
pit--
pla--
po--
polo--
pon--
pra--
pu--
r--
ra--
re--
rea--
rez--
ro--
roa--
ru--
s--
sa--
sal--
san--
se--
ser--
sh--
shi--
si--
sig--
ska--
so--
soma--
sou--
spo--
st--
ste--
step--
sto--
stra--
su--
suma--
sur--
t--
ta--
te--
th--
ti--
to--
tor--
tr--
tre--
ts--
tur--
tw--
u--
uk--
uni--
up--
uta--
v--
va--
ver--
vi--
vo--
w--
waba--
wal--
was--
wau--
we--
wes--
wi--
wil--
win--
wind--
wy--
x--
y--
ya--
ye--
yu--
z--
æ--
ŋ--
œ--
ɛ--
ʔ--
ʝ--
α--
κ--
π--
τ--
ག--
--0
--1
--2
--3
--35
--4
--5
--56
--6
--7
--8
--9
--a
--ad
--am
--an
--arrow
--ata
--aw
--b
--ban
--ble
--burg
--c
--ca
--cade
--cal
--ce
--ch
--ck
--cks
--co
--cy
--d
--da
--de
--don
--dor
--ds
--dy
--e
--ee
--el
--ell
--en
--er
--ers
--es
--ey
--f
--g
--ga
--gan
--gg
--ght
--grad
--h
--ha
--i
--ia
--ic
--ick
--ics
--id
--ide
--ie
--ima
--in
--ine
--ing
--io
--ir
--is
--istan
--ita
--ium
--ive
--ju
--k
--ka
--ke
--kee
--l
--la
--lan
--land
--ld
--le
--ley
--ll
--lla
--lle
--lls
--lm
--lo
--lu
--m
--mi
--mmad
--n
--na
--nan
--nburg
--nce
--ncy
--nd
--ne
--nee
--nes
--ng
--ngs
--ni
--nn
--no
--noe
--non
--ns
--nt
--ntic
--o
--od
--on
--ort
--os
--osa
--p
--pt
--q
--r
--ra
--ral
--rch
--rd
--re
--ri
--ria
--rk
--rn
--rne
--ro
--rry
--rs
--rt
--ry
--s
--sa
--se
--sha
--sk
--ska
--smus
--son
--ss
--st
--ster
--t
--ta
--te
--ted
--tes
--th
--tin
--to
--ton
--tory
--tt
--tte
--tus
--u
--ui
--um
--un
--up
--ur
--ure
--us
--uŋ
--v
--va
--w
--wall
--wan
--way
--wi
--x
--xt
--y
--ye
--ys
--z
--ŋ
--ɑ
--ɑŋ
--ς
