!
"
#
##0
##1
##10
##11
##12
##13
##14
##15
##16
##17
##18
##19
##2
##20
##21
##22
##23
##24
##25
##26
##27
##28
##29
##3
##30
##31
##32
##33
##34
##35
##36
##37
##38
##39
##4
##40
##41
##42
##43
##44
##45
##46
##47
##48
##49
##5
##50
##51
##52
##53
##54
##55
##56
##57
##58
##59
##6
##60
##61
##62
##63
##64
##65
##66
##67
##68
##69
##7
##70
##71
##72
##73
##74
##75
##76
##77
##78
##79
##8
##80
##81
##82
##83
##84
##85
##86
##87
##88
##89
##9
##90
##91
##92
##93
##94
##95
##96
##97
##98
##99
$
%
&
'
(
)
*
+
,
-
.
/
0
00
000
0000
001
0014
009
01
014
015
02
020
022
024
03
038
04
05
06
065
07
075
08
09
1
10
100
1000
101
1017
102
103
104
1042
1048
105
1054
106
1065
1066
107
1079
108
1080
1084
109
1094
1095
1099
11
110
1100
1102
1105
1106
111
1115
112
1126
113
1130
1137
114
1141
1145
1147
115
1150
116
1160
1162
1165
117
1170
1171
1176
1178
118
1180
1185
119
1190
1191
1197
1199
12
120
1200
1203
1204
1208
121
1210
1214
12148
1215
1216
1217
1218
122
1220
1221
1225
1229
123
1230
1237
1239
124
1240
125
1250
126
1261
1269
127
1270
1272
1278
128
1283
1287
129
1290
1292
1296
13
130
1300
1301
1302
1304
1306
1308
131
1310
1314
132
1320
1325
1327
1328
1329
133
1330
1337
134
1340
1346
1347
135
1350
1351
1356
1358
136
1360
1361
1362
1364
1369
138
1380
1388
139
1390
14
140
1400
1405
141
1411
1415
1417
1419
142
1420
1422
1426
1429
143
1430
1433
1435
1436
1437
144
1440
1445
1449
145
1450
1453
1455
1460
1461
1462
1463
1464
1467
147
1470
1472
1473
1475
1477
1478
1480
1482
1483
149
1490
1492
1494
1495
15
150
1500
1505
1506
1507
1508
1509
151
1510
1512
1515
1517
1519
152
1520
1521
1525
1528
153
1530
1534
1535
1537
1538
154
1540
155
1550
1552
1553
1557
1558
1560
1562
1563
1564
1565
1567
1568
1569
1570
1571
1572
1575
1579
1580
1581
159
1594
1596
1597
1598
1599
16
160
1600
1604
1605
1606
1607
1608
1609
161
1610
1612
1614
1615
1618
1619
162
1621
1622
1624
1625
1627
1628
1629
1631
1632
1633
1635
1636
1638
164
1640
1641
1642
1643
1644
1648
1649
165
1650
1651
1652
1653
1654
1655
1656
1658
1659
166
1660
1661
1662
1664
1665
1666
1668
1669
167
1670
1671
1672
1673
1674
1675
1676
1677
1678
1679
168
1680
1681
1682
1684
1685
1686
1687
1688
169
1690
1691
1694
1695
1696
1698
17
170
1700
1701
1703
1704
1705
1706
1707
171
1710
1711
1712
1713
1714
1715
1716
1717
1718
1719
172
1720
1721
1722
1723
1724
1725
1726
1727
1728
1729
173
1730
1731
1732
1733
1734
1735
1736
1737
1738
1739
174
1740
1741
1742
1743
1744
1745
1746
1747
1748
1749
175
1750
1751
1752
1753
1754
1755
1756
1757
1758
1759
176
1760
1761
1762
1763
1764
1765
1766
1767
1768
1769
177
1770
1771
1772
1773
1774
1775
1776
1777
1778
1779
1780
1781
1782
1783
1784
1785
1786
1787
1788
1789
179
1790
1791
1792
1793
1794
1795
1796
1797
1798
1799
18
180
1800
1801
1802
1803
1804
1805
1806
1807
1808
1809
181
1810
1811
1812
1813
1814
1815
1816
1817
1818
1819
1820
1821
1822
1823
1824
1825
1826
1827
1828
1829
183
1830
1831
1832
1833
1834
1835
1836
1837
1838
1839
184
1840
1841
1842
1843
1844
1845
1846
1847
1848
1849
185
1850
1851
1852
1853
1854
1855
1856
1857
1858
1859
186
1860
1861
1862
1863
1864
1865
1866
1867
1868
1869
187
1870
1871
1872
1873
1874
1875
1876
1877
1878
1879
1880
1881
1882
1883
1884
1885
1886
1887
1888
1889
189
1890
1891
1892
1893
1894
1895
1896
1897
1898
1899
19
190
1900
1901
1902
1903
1904
1905
1906
1907
1908
1909
191
1910
1911
1912
1913
1914
1915
1916
1917
1918
1919
192
1920
1921
1922
1923
1924
1925
1926
1927
1928
1929
193
1930
1931
1932
1933
1934
1935
1936
1937
1938
1939
194
1940
1941
1942
1943
1944
1945
1946
1947
1948
1949
195
1950
1951
1952
1953
1954
1955
1956
1957
1958
1959
196
1960
1961
1962
1963
1964
1965
1966
1967
1968
1969
1970
1971
1972
1973
1974
1975
1976
1977
1978
1979
198
1980
1981
1982
1983
1984
1985
1986
1987
1988
1989
1990
1991
1992
1993
1994
1995
1996
1997
1998
1999
2
20
200
2000
2001
2002
2003
2004
2005
2006
2007
2008
2009
201
2010
2011
2012
2013
2014
2015
2016
2017
2018
2019
202
2020
2021
2022
203
204
205
206
207
208
209
21
210
2104
211
212
213
215
216
218
219
22
220
221
222
223
224
225
226
227
228
229
23
230
232
233
234
235
236
237
238
239
24
240
241
242
243
244
245
246
247
249
25
250
251
252
253
254
255
256
259
26
260
262
2643
2646
266
267
268
27
270
271
272
275
276
279
28
280
282
283
284
285
286
288
29
2915800057
293
294
295195302
2952306109
296
297
298
299
3
30
300
303
3030555556
304
305
306
308
31
311
312
313
314
315
317
32
320
324
326
329
33
330
331
333
334
336
337
339
34
340
346
349
35
350
352
354
355
358
36
360
361
363
364
365
367
369
37
370
375
38
380
383
385
39
3914
392
395
397
398
4
40
400
40000
406
408
41
412
414
415
417
42
420
421
424
425
428
43
430
435
44
440
445
448
45
450
452
455
456
457
46
460
467
47
470
474
475
476
48
480
49
491
493
494
496
5
50
500
51
510
511
52
520
53
54
544
55
56
567
57
570
575
58
59
6
60
600
603
605
61
619
62
620
625
63
630
64
640
6460
6464
65
650
652
66
67
673
68
69
7
70
700
704
705
71
72
720
73
733
7373
74
75
750
76
77
778
78
79
8
80
800
81
82
83
84
84253
84265
845
85
85706
86
860
86253
87
88
880
881
89
9
90
900
909030
90983
91
911
913924
915800
917453
917621
92
93
930364
934
937467
94
943052
945
95
950
96
960
965
97
9738193
976
978
9788836629299
98
987
988
99
996
:
;
<
=
>
?
@
[
\
]
^
_
`
a
aa
ab
abaciale
abai
abandon
abandonne
abattu
abaye
abbaye
abbayes
abbe
abbesse
abbeville
abbevillois
abbie
abe
abeille
abel
abes
abi
abitants
abjad
abjon
ablain
ablaincourt
ablotche
abolir
abord
about
abraham
abrahamikes
abrams
abre
abscon
absent
absolu
abus
ac
acade
academie
academy
acadie
acadien
acate
acater
acateu
accart
acce
accepte
accessdate
acchint
accint
accion
accompagne
accord
accorde
accords
accueil
accuse
ach
ache
aches
acheul
acheule
acheux
achiet
achille
achoche
achochonne
achon
achteur
achteure
achuchon
achuchonne
achuchons
achy
acide
acier
acion
acompangne
acord
acoutant
acoute
acouter
acq
acque
acques
acrocephalidae
acrocephalus
act
acta
acte
actes
acteu
acteur
acteus
acteuse
actif
action
actis
activite
actrice
actriche
actrisse
actualite
actualites
actue
actuel
actuelle
actuellement
acus
acware
ad
adagio
adalbaud
adam
adams
adaptacion
adaptation
adapte
ade
ades
adhe
adinville
adiu
adjectif
adme
administratif
administration
adn
adolescence
adolf
adolphe
adon
adonis
adopte
adrian
adrien
adrienne
adsoe
adulte
adve
adventures
advile
adville
adw
ae
aegopodium
affaire
affaires
affluint
affluints
affoaires
affoe
affutiaus
afin
afoaire
africa
africaine
african
afrike
afrique
after
afute
agache
agaches
again
agate
age
agence
agency
agenda
ages
agglome
agince
agint
agir
agit
aglome
agne
agneau
agombart
agre
agricole
agriculture
agronome
ah
ai
aicort
aide
aigle
aigny
aigu
ail
aile
ailes
aille
ailleurs
ailly
aim
aimable
aime
aimer
ain
ainge
aingville
ainme
ainmeur
ainne
ains
ainsi
ainsin
ainsworth
air
airaines
aire
aires
airoe
airon
ais
aise
aises
aisne
aix
aizcourt
ajoure
ajoute
akahige
ake
akes
akira
al
aladdin
aladon
alain
alan
alard
alaska
alba
albe
albert
albertine
alberto
albertrene
albin
album
albums
alburnus
alcius
ale
alemand
alemands
alemanne
alemant
alemante
alemants
alenc
aler
ales
alessandra
alessandro
alex
alexander
alexandre
alexandrie
alexandrine
alexandrines
alexis
alfabe
alfabet
alfred
alge
algues
ali
aliamet
alianche
alias
alice
alie
alighieri
alimint
aliminte
aline
alintour
alintours
alisacion
alisateu
alisateur
alisation
alise
alisme
alisse
aliste
alite
alix
all
alla
allais
alle
alleluia
allemagne
allemand
allemande
allemands
allen
aller
alleu
alleumoe
allez
allie
allium
alloait
alloaitte
allons
allouanne
alma
almanach
almand
almangne
alodjie
aloe
alogie
alogique
alone
alonville
alors
aloue
alouette
alpes
alpha
alphabet
alphonse
alpin
alpina
alprech
als
alsace
alte
alternative
altitude
alto
aluco
alve
alwe
am
amadeus
amand
amants
amassoe
amateu
amateur
amateus
ambassade
ambiorix
ambleteuse
ambroise
ame
amen
america
american
ames
amette
ami
amie
amienois
amiens
amiral
amis
amitie
amon
amont
amor
amore
amors
amougies
amouji
amour
amoureuse
amoureux
amours
ampe
amsterdam
an
ana
analise
analyse
anas
anastacia
anatidae
anatide
anatole
ance
ances
anche
anchie
anchien
anchienne
anchiennemint
anchiennes
anchiens
anchin
ancien
ancienne
anciennes
anciens
ancre
and
ande
andere
andes
andore
andouille
andoullette
andre
andrea
andrew
andy
ane
anecdotes
anemone
ange
angela
angeles
angelillo
angelo
angels
angers
anges
anglais
angleterre
angoule
anguilla
aniche
anie
anima
animacion
animal
animation
animaux
anime
anjou
anjvin
ankara
ankou
anme
anmes
anmeur
anmie
anmien
anmiennoe
anmiens
anmour
anmyin
anmyinnoue
ann
anna
annache
annales
anne
annequin
annette
annexe
anni
annick
annie
anniversary
annonchacion
annote
annuaire
annuelle
anonchacion
anonyme
anor
anos
another
ans
ansart
anser
ant
antan
ante
antenne
antes
anthieu
anthieuse
anthieuses
anthieusse
anthiu
anthius
anthologie
anthony
anthriscus
anthropologie
anthus
anti
antike
antilles
antiquaires
antique
antiquite
antitchite
anto
antoe
antoine
antoinette
antoing
anton
antoninus
antonio
ants
anve
anvers
anvin
anving
anzi
anzin
ao
aoc
aou
aouiez
aout
ap
apanage
aparoait
aparu
ape
aperc
api
aple
aploute
apo
apocalisse
apoge
apostoe
apostolike
apostrofe
apote
apothicaire
app
apparai
appareil
apparicion
apparitions
appartenant
appay
appe
appel
appele
appelle
appelot
appi
apple
applique
apporte
appre
apprenti
appris
approche
aprandre
apre
apreu
april
aprinde
aquarelle
aquarelles
aquatique
aque
aques
aquin
aquitaine
aquitainne
ar
ara
arabe
arabes
arabian
arabie
aractingi
aragon
araigne
araine
aras
arbale
arbe
arbites
arbre
arbres
arbreuve
arc
arcade
arche
archemont
archer
archers
archipel
architecte
architecture
archive
archives
arconnu
arconnue
arconstruit
arconstruite
arcs
arctike
arctique
arctium
arctos
ard
arde
ardea
ardenne
ardent
ardjue
ardoe
ardres
are
argent
argentina
argint
argintine
argoule
argroupe
arigne
aringemint
aristide
aristote
arive
ariver
ark
arke
arkite
arkitecte
arkitecture
arkitekte
arkive
arkives
arkivisse
arles
arleux
arligion
arlima
arly
armagnac
armand
arme
armel
armentie
armes
armide
armilly
arminti
armoe
armonaque
armonte
armor
armorial
armstrong
army
arn
arnaud
arni
arnoul
arnould
arny
aro
aronde
arondichemint
aros
arpenteuse
arpitan
arpre
arque
arques
arras
arre
arret
arrie
arrive
arriver
arrondichemint
arrondichemints
arrondissement
arrose
arrouaise
arry
ars
arse
arsoule
art
artche
artcyclopedia
arte
artemisia
arthur
artic
article
articles
artics
artike
artikes
artillerie
artillrie
artiques
artisanale
artisanat
artisse
artisses
artist
artiste
artistes
artistike
artistique
artistiques
artists
artoe
artois
arts
artur
artus
aru
as
ascq
asie
asin
asio
ask
asp
aspe
aspects
asper
asphodelus
aspire
aspx
asse
assemble
assez
assie
assiettes
assignies
assim
assimble
assimil
assimilacion
assimile
assis
assise
assistant
association
associations
associe
assompcion
assomption
assunta
assur
aste
astes
astragon
astral
astrolodjie
astrolodjique
astrononmie
asvile
at
atakes
atatche
atatu
ate
atelier
ateliers
ateu
ateur
ath
athe
athene
athie
athle
athois
ation
atlanta
atlantic
atlantike
atlantique
atlas
atomes
atre
atrice
atrix
attaque
attaques
attatche
attchy
attenelle
attente
attin
attinde
attrape
attribue
au
aube
auberchicourt
aubers
aubert
aubigny
aubin
auchel
auchez
auchi
auchy
aucourt
aucun
audace
audinghin
audio
audiothe
audomaroe
audricourt
audruicq
auf
aufrike
auger
augmente
augusse
augusta
auguste
augustin
augustine
aujourd
ault
aumale
aumate
aume
aumes
aumont
aunelle
aunia
auno
aupre
aura
auratus
aure
aurelius
auric
aurin
auriol
aurora
aurore
aus
aussi
aussito
australe
australia
australian
australie
australien
australiens
austrasie
austreberthe
aut
autaint
autant
autchun
aute
autel
autes
auteu
auteur
auteurs
auteus
authie
author
auto
autocar
automatique
automne
automobile
autonome
autoportrait
autorise
autorite
autour
autre
autrefois
autres
autriche
autt
auve
auvergne
aux
auxi
av
avaint
avait
aval
avance
avanche
avant
ave
avec
aveinne
avena
avenir
aventure
aventures
avenue
aves
avesne
avesnes
avesnois
aveu
aveuc
aveut
avez
aviateu
aviation
avibase
avignon
avin
avinne
avint
avinture
avintures
avion
avions
avis
avium
avo
avoais
avoait
avocat
avoe
avogadro
avoine
avoir
avois
avoit
avons
avos
avot
avou
avoue
avre
avri
avril
avron
avroult
avu
avuc
award
awards
awen
awi
awiki
axe
ay
ayaint
ayant
ayet
ayette
aythya
azay
aze
azerbai
azi
azie
azincourt
azur
b
ba
baba
babe
babel
baby
bac
bach
bachelet
bachine
back
bacoue
bacquet
bacte
bad
badaroux
badge
badminton
bagacum
bagrationi
bague
bahamas
bahia
bai
baie
baies
baille
baillet
bailleu
bailleul
bailleulmont
bailli
bailliage
bailliages
baillon
baillons
bailly
bains
baiwir
baker
bal
bala
balade
balancourt
bale
balkans
ball
ballade
ballades
ballard
balle
ballet
ballett
balling
ballon
balne
balodrome
balon
baltimore
baltique
banade
banc
band
bande
bandes
banque
bapaume
bapte
baptismaux
baptisse
baptiste
baque
bar
baralle
baraque
barbares
barbarie
barbe
barbedor
barberousse
barbez
barbier
barbu
barbus
barcelona
barcelone
barde
bardoux
bare
bareul
baril
barillet
bariton
barlin
barly
barney
barnum
baroke
baron
baroque
barque
barra
barras
barre
barres
barrie
barry
bart
barthe
barœul
bas
base
basel
bases
basho
basilike
basilique
basly
basque
bass
basse
basses
bassin
basson
bassure
bassureries
bastchule
bastien
bastion
bat
bata
bataille
batale
batarde
bate
baterie
bates
bati
batiaus
batieu
batieus
batimint
batimints
batinme
batir
batis
batisse
batite
baton
batt
batterie
battiato
battu
battus
bauche
baude
baudet
baudets
baudouin
bauduin
baut
bavay
bavie
bayard
bayinghin
bayonvili
bazin
bazintin
bazio
bbc
bc
bd
be
beach
beatles
beau
beaucamp
beaucamps
beaucarne
beaucourt
beaujolais
beaulieu
beaumanoir
beaumont
beaune
beauvais
beauvaisis
beauvy
beaux
bebop
bec
beck
becker
becque
becs
beethoven
beffro
beffroe
beffroi
beffrois
bel
belche
bele
belfast
belge
belges
belgian
belgie
belgique
belin
bell
bella
bellanger
belle
belleroche
belles
belleuse
belleval
belli
bellinghin
bello
bellonne
belloy
belon
belone
belve
ben
bene
benedicta
benedictus
benedikt
benito
benjamin
benko
benoi
benoit
benth
ber
berceuse
berche
berches
berck
berg
berge
bergen
berger
bergeronnette
berges
bergike
bergique
bergues
berguette
berio
berlette
berlicoque
berlin
berluse
bern
bernadette
bernanos
bernard
bernes
bernicourt
bernier
bernissart
berny
berquigneul
berri
berry
bersille
bersou
bert
bertal
bertangne
bertanne
berteaucourt
berthe
bertile
bertin
berton
bertrand
berzille
berzillie
bes
besnard
bessin
best
beta
betheune
betterave
betteraves
betula
beu
beuchin
beudet
beuleul
beunes
beure
beurre
beursault
beus
beussent
beuvraignes
beuvry
bi
biache
biau
biaucamp
biaumetz
biaumont
biaurins
biaurinville
biaus
biaux
bib
bibe
bibeu
bibi
bible
biblio
bibliobazaar
bibliografie
bibliographie
bibliographique
bibliote
biblioteca
bibliothe
bibu
bide
bidet
bie
bieau
bielles
bien
biencourt
biennal
biens
bientques
bienvenue
biermann
biette
bieu
bieucamp
bieucourt
bieufort
bieumont
bieus
bieutche
bieuvais
bieuvaisis
bieuve
bieuvo
bieux
big
bijous
bilan
bilancourt
bili
bilingue
bill
billet
billie
billon
billy
biloute
bilques
bimoteur
bin
binaire
binche
binchou
binde
bindes
binvile
bio
biografie
biografies
biographical
biographie
biographies
biographique
biographiques
biography
biolodjie
biologie
biomy
bion
biplan
bird
birds
birle
birmanie
birmingham
bis
biscella
bismillah
bistchuit
biste
bit
bits
bizantin
bizantins
bize
black
blaise
blake
blan
blanc
blanchard
blanche
blanchegorge
blanches
blancs
blange
blangin
blangy
blank
blanke
blankes
blanks
blanque
blanquetaque
blari
blaringhem
blason
blasons
blaton
blavincourt
ble
bleu
bleue
bleus
bleuse
bleuses
blica
blimond
blimont
blind
blindecques
bloc
bloch
bloe
blog
blogspot
blond
blonde
blondel
blood
blue
blues
bmg
bn
bnf
bo
bob
boca
bocage
boccoli
bochus
bocquet
bodart
bodel
boe
boeck
boen
bofe
bogota
bohain
bohe
bohourde
boi
boillot
boin
boinne
boins
boire
boiron
bois
boiss
boisson
boitel
boland
bolivie
bolomes
bombarde
bombardemint
bon
bonaparte
bond
bonheur
bonhomme
bonhonme
bonjour
bonn
bonne
bonnelieu
bonneterie
bonneton
bonnettes
bonnie
bonningues
bonnink
bons
bonte
book
books
boon
boquet
borain
boraine
borains
bord
borde
bordeaux
border
bordieus
bordon
bords
bordure
bore
borel
borin
borinage
boris
borne
bornes
boron
borse
bos
bosnie
bosque
bossa
bosse
boston
bot
botanica
botanike
botanique
botanisse
bots
botte
bou
boubers
boubert
bouchain
bouchave
bouche
boucher
bouchier
bouchon
boucly
boucourt
boucq
boucres
boudaines
boudin
boudjinville
boue
bouffe
bouffon
bouffonnerie
bougre
bouillancourt
bouillet
bouillincourt
bouillon
bouin
bouke
boulanger
boulans
boule
boulette
boulevard
boulfroy
boulha
boulindger
boulogne
boulon
boulonnais
boulonnaises
boulonne
boulonnoe
bouly
boum
bouque
bouquet
bouquins
bourbon
bourbote
bourbotte
bourbourg
bourcq
bourdgingnon
bourdgingnons
bourdieu
bourdjignons
bourdon
bouret
bouretz
bourg
bourgeois
bourgeos
bourges
bourgogne
bourgonne
bourjoe
bourle
bourloire
bourlon
bournonville
bourq
bourrut
bours
bourse
boury
bous
bousillage
boussu
bout
boutchi
boute
bouteille
boutincourt
boutique
boutirille
bouton
bouts
bouvaincourt
bouvet
bouvignies
bouvigny
bouvincourt
bouvines
bouvreuil
bouye
bouzincourt
bovelle
boves
bovide
boxeu
boy
boyaval
boyeffle
boyeffles
boyenval
boys
bpt
br
bra
brabanc
brabant
bracherie
braderie
brahms
brai
braillon
brailly
braine
bramieri
bran
branche
brancourt
branke
brankes
branta
bras
brasil
brass
brassard
brasse
brasserie
brasseur
brassica
brassy
brav
brave
braves
bray
brayou
brazil
brdy
bre
brebie
bref
breilly
brennus
brepols
bresle
bretagne
breteuil
breton
bretonneux
breu
breuil
breune
breus
breuvie
brian
brice
bridge
brie
briez
brigade
brigitte
brimeu
brin
brinne
brique
briquemannier
briques
briquet
briqueterie
brise
brissez
britain
britanique
britannike
britannique
brite
british
brno
broadway
brochant
broche
brocourt
broe
brohard
brokes
bromus
bronze
brooks
bros
brosne
brothers
brouay
brouchy
brouckbourq
brouette
brouteu
brouze
brown
bru
bruant
bruay
brudje
bruges
bruit
brule
brun
brunaux
brune
brunehault
brunehaut
brunnain
brunne
bruno
brunswick
brusselle
brussels
brut
bruvie
bruxelles
bruye
bu
buch
buchet
buchin
buchon
bucquoe
bucquoy
bud
budapest
budd
buddy
bue
buenos
buffard
buffet
bugny
buhaut
buigny
buire
buissie
buke
buker
buleux
bulgarie
bull
bullecourt
bulletin
bully
bunker
bunkers
buona
burbure
bure
bureau
bureaux
buridan
burkina
burlesque
buron
burre
bury
bus
bush
busnois
busse
bussie
bussu
bussy
buste
but
bute
buteo
butte
buvache
buveux
bvo
bvre
by
byin
bzanchon
c
ca
cabanis
cabaret
cabarets
cabaretwallon
cabe
cabillaud
cabinet
cabo
caboche
cabotan
cabotans
cabotins
cabu
cachant
cache
cacher
caches
cacheu
cacheus
cachin
cachy
cad
cadd
cade
cadet
cadets
cadoreus
cadre
caen
caesar
cafe
cafougnette
cage
cagnicourt
cagnin
caha
cahier
cahiers
cahin
cahon
cai
caillau
caille
cailleu
cailloux
cair
caire
caisse
cal
calabre
calabria
calais
calaisis
calcaire
calcule
cale
calendrier
caleu
caleus
calgary
calhe
calidris
california
californie
calin
calindrier
called
calme
calonne
calotterie
calvados
calvaire
calvaires
calvin
calvoaire
calvoe
calypso
cam
cama
cambe
cambiers
camblin
cambodge
cambrai
cambre
cambridge
cambrin
cambron
came
camie
camille
camp
campagne
campagnes
campanie
campbell
campdavaine
campe
campenard
campin
camping
campion
campionat
campionats
campionnat
campionnats
campionne
camps
campus
camus
can
cana
canaan
canada
canadensis
canadian
canadien
canal
canalise
canals
canard
canards
canaria
canaus
canche
cancheons
canchon
canchonnier
canchons
canchy
candidats
cando
cane
cange
canger
canique
canje
canjmints
canlers
canmon
cannes
canon
canson
cansons
cant
canta
cantando
cante
canter
canteu
canteus
canteuse
canteusse
cantharus
cantile
cantily
cantin
cantiques
canto
canton
cantons
cantorbe
cants
canve
caouin
caouts
cap
capacite
cape
capelle
capelles
capenoules
capet
capiau
capieu
capin
capitaine
capital
capitale
capitals
capite
cappel
cappella
cappelle
capron
caps
captivite
capture
capuchin
capuchon
car
caracte
carai
carax
carbo
carbon
carbonnache
carbonnel
carcaillot
carcaillou
carcaillous
carcassonne
carcul
carcy
cardinal
cardon
cardonette
cardoso
carduelis
care
carette
carez
caricature
carie
carinchy
carion
carite
carl
carle
carleroe
carles
carlier
carlo
carlos
carme
carmel
carmen
carnaval
carnets
carnoy
carol
caroline
carolingien
carolus
caron
carota
carotte
carottes
carpe
carpentier
carplute
carre
carreau
carrefour
carrie
carrier
cart
cartche
carte
cartele
carter
cartes
cartier
carton
cartulaire
carvin
cas
casa
case
casimir
casino
cassatt
casse
cassel
cassette
casseu
casseux
cassine
cassini
castafiore
castel
castelain
casterman
castille
castonade
castor
castrale
cat
catainne
catalan
catalog
catalogue
catares
catarime
catastrofe
cate
category
catelain
cateleine
catelin
catellenie
cateux
cathe
catherine
catholique
cathy
catiau
catiaus
catieau
catieu
catieus
catin
catolicime
catolike
catolikes
catolique
cats
catus
caucase
cauchie
cauchy
caud
caude
caudron
caudry
cauffer
caufriez
cault
cauroy
cause
caussinnes
cauvin
caux
cavalcade
cavalier
cave
caves
cavion
cawin
caye
cayelle
cayeux
cazier
cazin
cb
cc
cccconty
cd
ce
cefet
celle
celles
cello
celtes
celtique
celtiques
celui
cembre
cemeteries
cemetery
cendre
cendres
cense
census
cent
center
central
centrale
centre
centro
cents
century
cep
cephalus
cercamp
cercieu
cercle
cerf
certain
certaines
certains
cervantes
ces
cesar
cesena
cet
cette
ceusses
ceux
cf
ch
cha
chabot
chabrier
chacun
chagall
chagor
chagrin
chain
chaine
chaint
chair
chake
chal
chalon
chambord
chambre
chamonix
champ
champagne
champanne
champe
champfleury
champion
championship
championships
champs
chamuel
chan
chance
change
channel
chanoe
chanoine
chanoines
chanson
chansonnier
chansons
chant
chantal
chante
chanter
chanteur
chants
chap
chapelle
chapelles
chapite
chapitre
chapitres
chaq
chaqu
chaque
charadrius
charbon
chardon
charente
charge
charite
charlemagne
charleroi
charles
charlet
charlie
charlier
charlotte
charpentier
charruey
chart
charte
chartes
chartieu
chartres
chartreus
chartreuse
chartreux
chasse
chastel
chat
chatchun
chateau
chats
chauchoy
chaulnes
chauny
chaurand
chausse
chauvaux
chaux
chcourt
che
checs
chef
chefs
cheigneurs
chel
chele
chelle
chelles
chelte
cheltes
chemin
chemine
chemins
chen
chennevie
chenopodium
cher
cherche
chercher
cherfu
cherke
chertains
ches
chest
chet
cheu
cheuchoe
cheul
cheule
cheull
cheur
cheurs
cheus
cheux
cheval
chevalier
chevaliers
cheve
chevin
chevri
chevron
chez
chhp
chi
chial
chialise
chialisse
chianti
chiaus
chicago
chico
chicoere
chicon
chicore
chie
chief
chien
chiens
chiesa
chieuve
chifes
chiffres
chigot
chihiro
child
childe
chile
chimai
chimay
chimbe
chime
chimetie
chimie
chimintie
chin
china
chinc
chindes
chindlie
chindre
chine
chinese
chinghin
chinmetie
chinmtie
chinne
chinoe
chinois
chinq
chinquante
chint
chintache
chinte
chintes
chintral
chintrale
chints
chinture
chire
chirmont
chirque
chiruzien
chise
chit
chite
chitron
chivile
chivot
chizme
chl
chloe
chloris
cho
choc
chochon
chocques
chode
choir
choix
chol
chole
choles
chon
chonc
chonne
chonq
chonquie
chons
chonwe
chope
chophia
chophie
chopin
choquet
choral
chorche
chorchelles
chose
choses
chou
choucas
choue
chouette
choule
chouo
chout
choux
chpy
chre
chris
chrisse
christ
christian
christiane
christine
christmas
christophe
christopher
chronicles
chronique
chroniques
chti
chtimi
chtis
chu
chuc
chuchon
chucolat
chucq
chucre
chucrerie
chujets
chuke
chupe
chuque
chur
chus
chute
chuzanne
chœur
ci
cia
cial
ciale
cialise
cialisse
cialiste
cialite
cianco
cible
cichorium
cicla
ciconia
cide
cie
ciel
cieux
cile
cimbe
cimetie
cine
cinema
cinerea
cinq
cinquie
cinse
cinsemint
cinses
cinsie
cinsier
cinte
cio
circle
circonflexe
circuit
circus
cirilike
cirillo
cirque
cis
cise
cision
ciste
cit
citadelle
cite
citoyens
citroe
cits
city
ciu
cius
civil
civile
civilisacion
civilisation
civitas
cizancourt
cl
clabek
clache
clachike
clachique
clainvile
clair
claire
clairme
clairy
clara
claracion
clare
clarence
clari
clarine
clarque
class
classe
classement
classemint
classes
classico
classics
classificachon
classike
classique
classiques
claude
claudia
claudiana
claudio
claudius
claus
clavier
cle
clerc
clercq
clerge
clermont
cles
cleu
cleup
cleus
clichures
climeux
clin
clip
clo
clocher
clochers
cloches
clodomir
cloke
clokes
clokie
clokier
clonvile
cloque
cloques
cloquie
clos
clotaire
clotche
clotcher
clotchers
clotchie
clotchiers
cloud
clovis
club
clup
clups
cluse
cm
cmande
cmin
cminche
cmincher
cminchmint
cmins
cmint
cnrs
co
coast
cobra
cochon
cochons
coco
cococolo
cocre
cocteau
code
codes
codin
coe
coechie
coeur
cogghe
cognu
cohe
coi
coiffe
coimperator
coin
coincy
coine
cojeul
col
cola
colas
cole
coles
colette
colfontinne
colimbert
colin
coll
collaboracion
collaboration
collabore
collaris
colle
colleccion
collectif
collection
collections
collective
collectivite
college
collet
collets
collier
colliez
collin
colline
collines
colloque
collurio
colmant
cologie
cologique
cologne
colomb
colombe
colombia
colombie
colombier
colombo
colombophile
colonel
colonie
colonies
colonne
colonnes
colons
colte
columba
columbia
colvert
com
combat
combats
combattants
combin
come
comeune
comike
comincia
comines
coming
comique
comite
comm
commandant
commande
comme
comment
commentaires
commente
commerce
commercial
comminche
commission
commons
commonwealth
commun
communal
communale
communales
communaute
commune
communes
communication
communique
communis
como
comp
compagnie
compagnies
compagnon
compagnons
compangnie
company
comparatif
comparative
compare
comparoaison
compe
compie
compiegne
comple
complet
complete
completes
complexe
comporte
compose
composer
composeu
composicion
compositeu
compositeur
compositeurs
compositeus
composition
compositions
compositrice
compostelle
comprenant
comprind
comprinde
compris
compte
comptes
computer
comte
comtes
comtesse
comtoe
comune
con
concepcio
concepcion
concept
conception
concernant
concerne
concert
concerto
concerts
conche
conchil
conchile
concorde
concours
conda
condamne
condanne
conde
condette
conductrice
conduite
confe
confession
confins
conflit
conflits
confluince
confluinche
confluint
confonde
confondre
confre
conger
congie
congo
congre
conjugaison
conm
conme
conmerche
conmeunal
conmeunale
conmeunaute
conmeune
conmeunes
conmeunite
conmindrie
conmun
conmunal
conmunale
conmunaute
conmune
conmunes
conmunite
conmunote
connaissance
conne
connoait
connoe
connu
connue
connues
connus
connute
conomie
conomike
conomique
conomiques
conon
cononmie
conpingnie
conpingnies
conptes
conque
conquisent
conrad
consacre
conscrit
conse
conseil
conseiller
conseils
conservateur
conservateurs
conservatoe
conservatoire
conserve
conside
consie
consil
consilie
consilier
consiste
consonne
consonnes
constance
constant
constante
constantin
constantinnope
constantinople
constantius
conste
constitucion
constitucionne
constitue
constitution
construccion
construction
construire
construit
construite
consulte
cont
conta
contact
contacts
contche
conte
contemporain
contemporaine
contemporaines
contemporains
contemporary
contenant
content
conter
contes
conteur
conteville
contient
contimporaine
contimpore
contimporin
continent
continenta
continental
continint
continintales
continints
contint
continue
contraire
contre
contrebasse
contribue
contribution
contro
conty
convar
convention
conventionnel
convincion
cool
coope
coordonne
cop
cope
coper
copies
coq
coquelicot
coquelles
coquette
coquille
cor
coracion
corail
coran
corateu
corbeau
corbeu
corbie
corbieu
corbin
corblet
corcheu
corchlette
corde
cordes
cordiers
cordonnier
core
corinne
cornaille
cornailles
cornalhe
cornalle
corne
corneille
cornet
cornillot
cornu
cornus
corone
coronne
corons
corot
corporation
corps
corpus
corpuscherchepub
correspondance
correspondant
corridor
cors
corse
cort
corte
corti
cortoe
corvidae
corvus
cos
cosa
cose
cosenza
coses
cosi
cosse
cosserat
costa
costumes
cot
cote
cotentin
cotie
cotier
cotinchy
cots
cottere
cottes
coturnix
cou
couargnon
coubertin
coucher
couchi
couchy
couci
coucy
coudekerque
coudert
coudriers
coue
cougnou
couin
coule
couleur
couleurs
coulmelle
coulombe
coulon
coulonneux
country
coup
coupe
coupelle
coupez
coupigny
couple
couplet
couplets
coupole
coups
cour
courage
courant
courante
courantes
courcelles
courchelle
courcol
coureu
courir
couronne
courrie
courrier
cours
course
courses
court
courte
courtin
courtois
courtrai
courts
cousin
cousine
cousse
coust
coustantinoble
cousteaux
coutchant
coute
coutteure
coutumes
couturat
couture
couve
couvent
couvert
couverte
couvertes
couvint
couvrance
couvreur
couvrir
cover
coye
cq
cque
cques
cracra
crai
cramont
crampon
cran
crape
crasse
crazy
crdp
cre
creation
credo
creil
crema
crembreux
crenne
cret
creuhe
creuse
creuvetchœur
creux
cri
cricket
crie
crieur
crillon
crime
crimes
crimini
crinchon
crinon
crire
crise
crisse
crist
cristallerie
cristatus
cristianime
cristiannime
cristina
cristofe
crit
crite
crites
critique
critiques
crits
criture
critures
crivain
crivains
crive
criveu
criveus
crivin
crivins
crivoait
crivure
crivures
cro
croachie
croate
croche
crochets
croe
croenen
croisades
croise
croissant
croix
croize
crologique
cromlech
cronikes
croniques
croniqueu
cronnike
cropole
croquis
cros
crosette
cross
crossage
crosse
crotchants
crotoe
crotone
croue
crouy
crox
croy
croyances
croze
cru
crucifixion
crupelandt
crypte
cs
cse
ct
ctake
ctakes
cte
ctes
cteu
ctimbe
ction
cture
cu
cuba
cubisse
cucry
cucumis
cuer
cueur
cui
cuigne
cuinchy
cuires
cuise
cuisine
cuisinier
cuite
cul
cules
culs
cultchure
cultchures
culte
cultes
culture
culturebox
culturel
culturelle
culturelles
cultures
cum
cume
cuniculus
cunningham
cuore
cupe
curchy
cure
curie
curieux
curite
curlu
curtis
cus
cuscuta
cute
cuvillier
cuyer
cvalier
cvaliers
cwe
cwgc
cy
cycle
cyclisme
cyclisse
cygne
cygnus
cypre
cyprinidae
cyr
cyril
cyrille
cz
cœu
cœubert
cœuchie
cœur
d
da
dacteu
daction
dada
dagobert
dagogique
daguerre
dai
daille
dailymotion
dainche
dainger
dainville
daire
daisuke
dakota
dale
daler
dales
dallaches
dalle
dame
dames
dammartin
dance
dancourt
danel
danemark
danicourt
danie
daniel
danme
dannes
danniel
danoe
dans
danse
danser
danses
danseuse
dant
dante
danvin
dany
darain
dard
dare
dargent
darie
dariel
darin
darinne
darins
darius
darnal
darras
das
data
database
datant
date
dates
datette
daubigny
dauby
daucus
dauphine
dauques
dausias
dave
david
davis
davne
dawson
day
days
db
dc
ddin
ddins
ddlx
de
dea
dead
death
debrie
debussy
decagny
decarrie
decca
dech
dechl
dechriste
decin
decine
decins
decle
declercq
decottignies
decques
decroix
deesse
defer
defontaine
defuncte
deg
degli
degre
dei
deins
del
dela
delabre
delachaux
delacroix
delahaye
delancre
delannoy
delaporte
delattre
delbarre
delcourt
dele
delegorgue
delegorguei
delerive
delevoye
delhaye
delignie
delis
dell
della
delle
delmaire
delme
delmotte
delos
delphine
delporte
delzenne
dem
demailly
demain
demande
demeure
demi
deminder
demont
den
denacre
denain
dendre
dendrocitta
deneubourg
denier
deniers
denis
denise
densite
dent
dentu
denœux
depoilly
depre
depuis
der
derain
dereume
dergny
derie
deries
dernie
dernier
derniers
derny
derrie
derycke
des
desailly
desandrouin
desbordes
descamps
descartes
deschindant
description
design
desrousseaux
dessart
desse
dessert
dessin
dessinateu
dessine
dessins
dessus
destin
destine
details
deu
deufin
deuil
deul
deule
deum
deus
deusie
deusse
deute
deutschen
deuville
deux
deuxie
devant
devauchelle
devaux
development
devenir
devient
devillepoix
devise
devismes
devraine
dge
dgermannike
dgillaume
dgise
dgnincourt
dh
di
dia
diabe
diable
diagramme
diale
dialectal
dialectale
dialectales
dialecte
dialectes
dialectologie
dialogue
dialogues
diame
diana
diane
diape
dias
diathe
diaule
dich
dichon
dicion
dicions
dicis
dicke
dico
dicte
dictin
dictine
dictins
diction
dictionary
dictionnaire
dictionnaires
dicton
dictons
didier
die
dien
dienne
dieppe
dies
diesbach
dieu
dife
diffe
difficile
difficulte
diffuse
diffusion
difice
difices
difie
difrint
difrinte
difrintes
difrints
dige
dignu
dijon
dimanche
diminche
diminches
dimpre
din
dinastie
dinbreu
dinchite
dinkerk
dins
dinse
dinsite
dint
dints
dio
dioce
dioche
dion
diplo
diplomatique
diptyque
dique
dir
dirai
dire
direccion
direct
directe
directeu
directeur
direction
diren
diries
dirige
dirigeabe
dirigeant
dirigeu
dis
disant
dischipes
discipes
discografie
discours
discussion
diseux
diske
diskes
disney
disoait
disoe
disparu
disparus
dispe
displaystyle
disponible
dispositif
dispute
disque
disques
dist
distance
distillerie
distinccion
distingue
distribucion
district
dit
dite
diterrane
dites
diteu
diteur
dition
ditions
dits
diu
dius
div
divers
diverses
diversifie
diversite
divertimento
divine
divion
divise
division
divisions
divox
dix
dizincourt
dizionario
diztte
dizzy
dj
dja
djan
django
djapone
djazz
dje
djermanike
djerre
djerres
dji
djigne
djimicourt
djincourt
djipe
djitare
djitarisse
djiyo
djlise
djo
djote
dju
djuiyinne
djumappes
djumint
djunme
djurbize
dl
dlettes
dmande
dmeure
dmin
dminde
dmis
dms
dnain
dnis
do
doc
docteur
doctor
doctorat
doctrinne
document
documentaire
documentation
documents
documints
dodlinville
doe
dog
dogme
dohin
doi
doint
doit
dol
dole
dollar
dolmabahc
dolme
dolmen
doloy
dom
domaine
domainne
domart
domartin
dome
domenico
domestica
domesticus
domestique
domestiques
domice
dominacion
domini
dominique
dommartin
domon
dompierre
don
dona
donald
donatello
donc
donchel
done
dong
donjon
donmaine
donmaines
donmainne
donmart
donme
donn
donna
donnant
donne
donnees
donner
donnez
dons
dont
dontcheur
donvo
doors
dor
dore
doris
dormoire
dors
dos
dossier
dossiers
dou
douai
douaird
douaisien
douaisienne
douard
doube
doubes
double
doubles
douce
douche
doudiauville
doue
douglas
douilly
douleurs
doullens
doupe
douqu
dour
dourches
dourges
dourlin
dourlinnoe
dous
douse
dousqu
dousque
doute
douvrin
doux
douze
dover
down
doyen
dpis
dpu
dpui
dpuis
dq
dr
drache
dracunculus
dragon
dragons
drale
drales
dramatique
dramatiques
dramaturge
drame
drames
drap
drapieu
dre
dream
dreams
dreu
dreuil
dreyfus
dric
drie
driyes
dro
drocourt
droe
droit
droits
drots
drouot
droz
drucot
druides
dryincourt
ds
dseur
dsou
dsous
dsu
dsur
dsus
du
dubart
dubius
dubois
dubuffet
duc
ducache
ducacion
ducasse
ducasses
ducastelle
ducation
duchamp
duche
duchesse
ducs
duculot
ducum
dudon
dudule
due
duel
duet
dufay
dufour
dufrane
dufre
duhamel
duhayon
duhem
duisans
duit
dujardin
duke
dulphy
dumas
dumont
dumoulin
dune
dunes
dunite
dunke
dunkerque
duo
dupont
dupuis
duquef
duquesne
duquesnoy
duquet
dur
durable
duran
durand
durant
dure
durint
durs
durte
dury
dusqu
dusque
dutche
duthillœul
duthoit
duval
dvant
dvd
dve
dvenir
dvenu
dvenus
dvers
dvient
dvint
dvise
dvnu
dvoe
dvyint
dward
dy
dyincourt
dylan
dynastie
dynasty
dz
dzeur
e
ea
ean
earl
east
eau
eaucourt
eaufrance
eaux
ec
eccle
ecco
ech
eche
echl
echo
ecm
ecole
ecquemicourt
ecques
ecuador
ed
eddins
eden
edgar
ediciones
edicions
edilivre
edited
editeu
editeur
edition
editions
editore
editoriale
edmond
edo
edouard
edpis
edpuis
eds
edseur
edsous
edsu
edu
eduard
educac
education
edvant
edward
edwin
edz
edzeur
edzire
ee
efloras
eglise
eglises
egze
egzimpe
egzimpes
egzisse
egzode
eh
ehess
ei
eiffel
eiga
ein
eine
einne
ej
ek
eklitra
el
ele
elisabeth
elisabetta
elise
elizabeth
ell
ella
elle
elles
elliot
eloi
eloy
elsa
em
emberiza
eme
emi
emile
emma
emmanuel
emn
empire
emploi
emulation
emzure
en
encore
encrage
encreve
encyclope
encyclopedia
end
endroit
ene
enfance
enfant
enfants
enfer
enfin
engagement
engelaere
enghien
england
english
engraving
enguerrand
enluminure
enn
enne
ennemis
ennes
enque
enquin
enrico
ens
ensae
ensaladas
enseignement
ensemble
ensta
ensuite
entre
entretien
entretiens
environnement
environs
envoye
enzo
eon
ep
episode
epling
epn
eps
eq
equus
er
erbe
erbes
erche
ercinchemint
erconnoe
ercontche
erdre
ergint
eric
erich
erik
erithacus
erlandais
erligieus
erligieuse
erligion
ernaic
ernard
ernest
ernouvieu
eros
erpe
erpre
erquie
errance
erreur
erterduccion
erterduit
ertour
ervue
es
escal
escatologie
escaudrie
escaut
escouchy
escrebieux
esgonde
esistenziali
eslon
esn
esnault
espace
espache
espaches
espagne
espagnol
espagnole
espaingne
espan
espangne
espanne
espe
esplechin
espoe
espoir
espression
esprit
esprits
esquelbecq
esquisse
ess
essai
essais
essars
esse
essonne
est
estacion
estaires
estampe
estatue
este
esther
estienne
estile
estinsion
estoires
estoit
estre
estuaire
et
etaples
etc
etchettes
etelfay
ethnographique
ethnologie
ethnologiques
etienne
eton
etude
etudes
etymologie
eu
euch
euche
eud
eudes
eudpis
euge
eugnon
eugnons
euil
eul
eulalia
eulalie
eule
eun
eune
eur
eure
eureille
eures
euro
europaea
europe
european
europeana
eus
euskadi
eustache
eut
eute
eutel
eutes
eutie
eutre
euve
euves
eux
eva
evanjil
evans
eve
evidence
ex
exampe
excubitor
exe
exemplaires
exemple
exercice
eximpe
existe
expansion
expe
expire
explication
expose
exposition
expositions
express
expression
expressions
extension
extrait
extraits
exupe
eyck
eye
eyes
ez
f
fa
fabart
fabe
fabes
fabien
fables
fabliau
fabliaux
fabricacion
fabrice
fabrike
fabrique
fabuleux
fac
face
facebook
fachade
fache
fachime
fachon
facile
facquier
factbook
facteur
faculte
fado
fagne
fagus
fai
faidherbe
faille
fair
faire
fais
faisant
faisoait
faisoaitte
fait
faite
faits
fakir
falaise
falaises
falco
faloe
false
falvy
fame
famechon
fameux
famie
famile
familier
famille
familles
family
fampoux
fan
fanfare
fanme
fanmes
fanmile
fanmille
fanny
fant
fantaisie
fantaisies
fantastique
fantasy
fanto
fants
far
farbus
farce
farceur
farciennes
fare
farsin
fasce
fascicule
faso
fastoul
fats
faucon
faunaeur
faune
fauqu
fauquimbergue
faurce
faust
faut
faute
fauvaux
fauvette
faux
favart
favie
favino
favorite
fay
fayard
fe
feat
feature
featuring
feb
fecture
federacio
federal
federico
feimmes
felis
felix
feller
femelle
femme
femmes
fene
fenme
fense
fer
ferdinand
ferme
fermes
fermeture
fermont
fernand
fernando
ferne
ferques
ferrain
ferrand
ferre
ferrie
ferroviaire
ferry
ferte
fes
festival
festivals
fet
feu
feuchy
feuille
feuilles
feuilleton
feules
feume
feumes
feuminin
feurre
feus
feut
feutche
feute
feuvette
feuvettes
feuvin
feux
ff
ffwl
fi
fiche
ficheux
fichie
fichier
fichiers
fiction
fide
fidit
fidjure
fie
fief
fiefs
field
fiennes
fienvileu
fier
fiers
fieu
figaro
fignie
figure
figures
fil
filature
file
files
filet
filipe
fille
filles
film
filme
films
filoloque
filome
filosofe
filosofes
filosofie
filosofike
fils
filter
fin
final
finale
finales
finalisse
finalmint
finche
find
finde
fine
fini
finicion
finie
finir
finis
finit
finite
finitif
finition
finlande
finlinde
finme
finmes
fins
finse
fiorella
fipq
fire
firmin
firminus
first
fiscale
fisichien
fisike
fisikes
fissiau
fist
fit
fitche
fiu
fius
five
fives
fixe
fixes
fiye
fl
fla
flag
flamand
flamande
flamands
flamant
flamboe
flame
flaminc
flamind
flamink
flaminke
flaminkes
flamint
flammarion
flan
flande
flandes
flandre
flandres
flandriae
flane
flanmes
flat
flavius
fle
flecha
flemish
flencamp
flers
fleu
fleufe
fleur
fleurba
fleurs
fleuru
fleury
fleuve
flexions
flibieucourt
flichcourt
flickr
flinde
flip
flipe
flippe
flochel
flora
flore
florence
florent
florentin
florian
floride
florimond
florinche
floris
floristique
floruit
floury
flu
fluide
flute
fluy
fm
fo
foai
foaichon
foaire
foaisoe
foait
foaite
foaites
foaits
foaitte
foch
foe
foi
foire
fois
fol
folie
folies
folio
folk
folklore
folklorique
folle
folquin
fonchette
foncier
fonction
fond
fondacion
fondamental
fondateu
fondateur
fondateus
fondation
fonde
fonder
fonderie
fonds
fondu
fone
fons
font
fontain
fontaine
fontainne
fontan
fontana
fontanne
fonte
fontenay
fontes
fonts
football
foqu
foque
for
forbidden
force
forceville
forche
forches
fordinoe
fore
forest
forestel
forestier
foret
forge
forges
formacion
formant
format
formation
formats
forme
former
formes
formint
formule
forni
fors
fort
forte
forteresse
fortes
fortificacions
fortifications
fortifie
forts
forum
forville
fos
fosme
fosse
fosses
fotbale
fotbaleu
fotebale
fotebaleu
foteballeu
foto
fotografe
fotografie
fotografies
fotos
fou
fouait
fouan
foucart
foucaucourt
foue
fouilles
fouilloe
fouine
fouke
foule
foulon
foulques
foundation
fouos
fouque
fouquereul
fouquet
fouquie
four
foure
fourme
fourmes
fournes
fournier
fours
fourville
fous
foutin
fox
foyer
fr
fra
frac
fragments
frain
frainne
frainneville
frais
frameries
framri
framrie
franc
franca
france
francegenweb
francesca
francesco
franchais
franche
franchie
franchises
franchoais
franchoe
franchoue
francie
francine
francique
francis
francisco
francisque
franck
franco
francois
francqueville
francs
frank
franke
franleu
franme
franque
frans
fransart
franseu
fransu
franvili
franz
franzo
frase
frases
frasnes
fre
fred
freddy
free
freight
french
frencq
fresne
fresnes
fresnicourt
fresnot
fresnoy
fresque
fressenneville
fressin
freuche
freume
freuvile
freuvint
freux
freuyelle
fri
friart
fricasse
fricourt
friedrich
friedrichsdorf
friends
frimousset
frincate
frince
frinchais
frinche
frinchoe
frinco
frincofone
frinse
frise
frisell
frison
frisse
fro
froe
froid
froidmont
froissart
from
front
frontalie
frontcover
frontie
fronton
frouhin
froumache
froumaches
froumage
froumages
frouo
fruche
fruges
fruit
fruits
frut
fs
fu
fuche
fue
fugue
fuji
fuligule
full
fume
functe
fundamental
fune
funme
funt
furent
fursy
fus
fuschien
fuscien
fusil
fusille
fusion
fusionne
fut
futur
future
fville
fyloge
fzoe
g
ga
gabriel
gabriele
gabrielle
gacion
gae
gage
gai
gaillin
gaingne
gaingner
gaius
gal
gala
galante
galbraith
gale
galement
galemint
galerie
galeries
galeriye
gales
galibot
galican
galichien
galile
galite
galithes
galithike
galithikes
galithiques
galland
gallerie
gallery
galles
gallia
gallica
galliformes
gallimard
gallinago
gallo
galloe
gallois
galloromans
galo
galoe
gamache
gamaches
gamay
game
gamme
gan
gand
gang
ganne
gannes
gant
gapeinne
garanderie
garc
garchon
garchons
gard
garde
gardes
gardien
gardin
gardins
gardon
gare
garenne
gargantua
garinei
garnier
garonne
garzanti
gascogne
gaspard
gaston
gastronomie
gatche
gate
gatineau
gation
gatte
gauche
gaucher
gauchin
gaude
gaudechart
gaudefroy
gaudiempre
gauheria
gaule
gaules
gaulle
gauloe
gaulois
gauthier
gautier
gavia
gay
gayant
gayante
gayantin
gayants
gaz
gaze
gazette
gazettesports
gbs
gce
gdan
ge
gedichte
geins
geluck
gema
gembloux
gende
gendes
gene
genealogy
geneanet
general
genevie
gengembre
gennes
genre
gens
gent
gentien
gentilhommie
geo
geoffroy
geoleplubo
georg
george
georges
ger
gerais
gerberoy
germain
germaine
germinal
gerry
gershwin
gervais
ges
geschichte
geste
gestion
get
getty
getz
geujon
ghilain
ghislain
ghislaine
gi
giale
gie
gien
gienne
gieu
gieus
gif
gilbert
gildas
gildo
gille
gilles
gillespie
gillets
gime
giment
gimint
ginche
gindarmrie
ginde
gindes
gindoaire
ginme
gino
ginre
ginres
gins
gint
gintelle
ginza
giochi
gioco
gion
gional
gionale
gionales
gionaux
gionnaire
gions
giorgio
giovanni
giovannini
gipte
girard
giraud
girl
girouette
gis
gise
giste
gistre
gitarre
giulio
giuseppe
givenchy
givinchy
glache
glaine
glasgow
glass
gle
glenn
gles
gleude
gli
glimont
glinne
glise
glises
glisse
glisu
global
gloe
gloire
glorieus
glorieux
glossa
glossaire
glou
gn
gne
gnes
gneu
gni
gnier
gno
gnois
gnostikes
gny
go
gobelins
gobert
gobio
goblin
goc
god
godard
godault
godeberte
godefroy
godewarsvelde
godin
godiva
goe
goes
goethe
gofroe
gogh
gohelle
goire
gold
golf
golfe
goliath
gomart
gomie
gomm
gomme
gommecourt
gommegnies
gomont
gonaye
goncourt
gone
gonhin
good
google
gorce
gordon
gorge
gorgue
gorie
gorien
gories
gorre
goscinny
gosho
gosnay
gosse
gosselin
gossen
gosseu
got
gothique
gothiques
gotike
gotique
gottfried
gou
gouaches
goudallier
goujon
gournay
gout
goute
goutte
gouv
gouve
gouvernement
gouvernemint
gouverneur
gouvernmint
gouy
gouyasse
gov
gove
govine
gr
gra
grache
grafe
grafie
grafies
grafique
graincourt
graind
grainn
grains
gral
grale
gramint
grammaire
gramme
grammes
gran
grand
grandcourt
grande
grandes
grandiers
grandmint
grands
grandvilliers
grandviye
granflo
grange
granmin
granmint
granmoe
grant
granted
graphie
graphike
graphique
gras
grasse
grasset
grassouillet
gratien
gratte
grattepanche
grau
grauette
grauhe
grave
gravelines
gravelot
gravelote
graves
gravet
graveu
graveur
graveurs
gravis
gravure
gravures
gray
gre
great
greber
grec
grecque
grecs
green
grenier
grenoble
grenouille
grer
gresset
gressive
gricourt
grie
grigny
grille
grilles
grimpe
grin
grind
grinde
gris
grisard
grise
grisou
grive
groe
groenland
grope
gropes
gros
grosjean
gross
grosse
grosses
grotte
grouche
groue
groufiye
group
groupe
groupemint
groupes
grousse
grove
gru
grunge
gu
guadeloupe
gudecourt
gue
guemps
guernay
guernesey
guernouillard
guerre
guerres
guerze
gues
guesclin
guesnain
guet
guetteur
gueuche
gueugues
gueule
gueules
gueuvile
gueux
gui
guide
guides
guignet
guilagne
guilbert
guillaume
guillo
guillotine
guimpse
guin
guine
guines
guinne
guinse
guise
guislain
guitar
guitare
guive
gulie
gulier
guliers
guss
gustave
gutenberg
guy
guyane
guyencourt
guyonvarc
gvalhie
gvalie
gvalier
gvaliers
gvau
gvaus
gvo
gvos
gy
gypsy
gzimpe
gzimpes
h
ha
hab
habarcq
habitants
habitat
habite
habitints
habituellemint
hache
hachette
hachicourt
haematopus
hafringue
haha
hai
haie
haies
haiku
haillicourt
hainaut
haine
hainin
haisnes
hal
halatte
hale
halinghin
hall
halle
hallencourt
halloy
hallu
hallue
halluin
halte
ham
hambourq
hame
hameau
hamel
hames
hami
hamiau
hamiaus
hamieu
hamieus
hamilton
han
hana
hand
handbale
handball
handbook
hangard
hange
hanneton
hanoi
hans
hanse
hara
harbonnie
harbounie
hard
hardelot
hardi
hardines
hardinghin
harelde
haricot
haries
harmattan
harmonie
harmonium
harnes
harnicourt
harpe
harpignies
harponville
harris
harry
hart
haru
harvard
has
hau
haubourdin
haucourt
haut
haute
hauteclocque
hautecloque
hauterive
hautes
hauteur
hautrage
hauts
hautvile
have
havre
havrincourt
hawai
hayao
haydn
haye
haynin
hayot
hazan
hazebrouck
hdr
he
heart
heavy
hebdomadaire
hecq
hecquet
hectares
hector
heillin
heinosuke
heinrich
heinz
helas
helpe
hem
hen
hendrix
henne
hennequin
hennuyer
henri
henriette
henry
her
herb
herbe
herbelles
herbert
herchies
hercule
herge
herman
hermann
hermant
hermaville
herment
hernu
herpe
herve
hesdin
hesmond
hespel
hesse
het
heuchin
heule
heur
heure
heures
heureux
heuringhin
heurt
heut
heutboe
heutbwe
heute
heutel
heutes
heuteur
heuts
hi
hibou
hie
hier
hierpe
high
hilaire
hill
himalaya
himbe
hin
hincourt
hindko
hinincourt
hinnin
hinri
hinzi
hippolais
hippolyte
hiromasa
hirondelle
hiroshi
hirundo
his
hisamatsu
hist
histo
histoe
histogramme
histoire
histoires
historia
historien
historiens
historike
historikes
historique
historiques
history
hitler
hive
hiver
hl
ho
hockey
hodenc
hoffmann
hoi
hokusai
holder
holiday
holinde
hollande
hollinde
hollywood
holmes
holstein
hombleux
home
homm
hommage
homme
hommes
homo
homonymes
homonymie
hon
honegger
honfleur
hong
hongrie
hongroe
honme
honmes
honne
honneur
honoraire
honore
honte
horace
horizon
horloge
hornoe
hornoy
hornu
hors
hortillonnache
hortillonnaches
hortillonnages
hortillons
hortoe
hospice
hot
hotel
hotoie
hou
houdain
houdenc
houffe
houille
houlle
houllefort
houpeu
hourlon
hourlons
house
houtaing
houtland
how
howard
hr
hrady
hrkal
hrsg
htm
html
http
https
hu
hubert
hucheinneville
hucqueliers
hudson
hugo
huguenote
huguenots
hugues
huguet
hui
huile
huit
hulluch
hulotte
humain
humaine
humaines
humains
human
humanite
humbercamps
humbercourt
humbert
hume
humide
humides
humie
humorisse
humour
hupe
huppe
huppy
hurionville
hurt
huvelle
huy
hyacinthe
hyancourt
hydro
hydrologique
hyme
hymne
hypolai
i
ia
iago
ian
iau
iaucourt
iaus
ibe
iberque
ibrahim
ice
ich
ichi
ici
id
ide
identifiant
identite
idintifie
idintite
idiologie
idiot
ido
iduna
ie
ieau
ier
ieu
if
ign
ignace
ignaucourt
ii
iii
iiie
ikeda
il
ile
iles
ill
ille
illinois
illot
illustracions
illustratieons
illustration
illustrations
illustre
ilo
ils
ilse
im
imache
imaches
image
imagerie
images
imaginaire
imaginoe
imav
imbar
imbe
imbelteuse
imbezingue
imble
imbouchure
imbry
imdb
ime
immacule
immate
imme
imp
impe
impereu
impire
imploe
impo
importance
importanche
important
importante
importants
importe
importer
impotenti
impr
impression
impressionist
impressionnisme
impressions
imprime
imprimerie
imprimeu
imprimeur
imprisonne
impromptu
imslp
in
ina
inattindu
inaugure
inc
incarne
inceinte
incendie
inch
inchertitude
inchienne
inchtitut
inchy
inciclope
inclos
inclut
inconnu
inconnue
inconnus
incore
incorpore
incourage
incre
ind
inde
index
indge
indiana
indien
indique
indo
indone
indroe
indrouot
industrie
industriel
industrielle
industriels
industries
ine
infant
infanterie
infants
infe
infer
infin
infini
infirmie
influence
influince
influinche
info
informacion
informacions
informatike
information
informations
informatique
informatise
infos
infra
infty
ingage
ingbe
inge
inghin
inglaise
ingle
inglete
inglo
ingloe
ingue
inguelte
ingueltie
inguin
inhnui
inhui
inhume
inke
inle
inleve
inmemories
inn
inne
innhui
innochints
innui
inque
inquihin
inquin
inrap
inre
inri
ins
insanne
inscripcion
inscription
inscriptions
inscrit
inscrite
inscrits
inse
insectes
insee
inseignemint
insimbe
insingnmints
inspecteur
inspire
installe
institue
institut
institute
institution
institutions
instituto
instruction
instruments
instrumint
instrumints
insuite
intaille
intailles
intarktike
intarnacional
intarnacionale
intarnacionnal
intarnational
intarne
intarpre
inte
intelligence
inter
interdit
interme
intermi
internacional
internacionale
international
internationale
internationaux
interne
internet
interpre
interrogative
interview
intie
intier
intind
intinde
intindu
intite
intitule
intour
intoure
intra
intrainne
intrainner
intre
intrez
introduction
introduit
introduite
intybus
inv
invai
inval
invasion
invasions
inve
inventaire
invente
inventeu
invention
invers
invie
invinte
inviron
invirons
invisible
invite
invo
invoe
invoue
inxent
io
ionis
ipa
ir
ira
irak
iran
ircam
irchonwelz
ire
ireland
irlinde
iron
is
isaac
isabella
isabelle
isbergues
isbn
ise
isidore
islam
islamique
island
islinde
iso
israe
issa
issart
isse
issn
issu
issue
issus
ist
istamboul
istanbul
istat
istituto
istoce
istoe
istorike
istorikes
istorikmint
istwa
isu
it
italia
italiana
italiani
italiano
italie
italien
italienne
italiens
italique
italo
item
itine
itis
ito
itou
itout
iulius
iut
iv
ivar
ivart
ive
iver
ivergny
ix
ixe
ixelles
iz
ize
j
ja
jack
jackson
jacob
jacobs
jacqueline
jacquemart
jacques
jadis
jae
jagger
jalousie
jamais
jamela
james
jamoais
jamoe
jan
jana
jane
janeiro
janmoais
janvie
janvier
japan
japanese
japon
japonais
japone
japonne
japonoe
jaqrie
jaque
jaques
jardez
jardin
jardins
jarrett
jaune
jaure
jav
java
jay
jazz
jc
je
jean
jeanne
jeannette
jehan
jehanne
jemappes
jenny
jersey
jes
jeter
jette
jeu
jeudi
jeune
jeunes
jeunesse
jeunet
jeux
jeuxpicards
jhe
ji
jia
jim
jimmy
jin
jinsei
jinvie
jinvier
jne
jo
joa
joachim
joan
job
joconde
joe
jografie
johan
johann
johannes
john
johnny
johnson
joie
join
joinne
joinnes
joinville
joli
jolimetz
jolly
joly
jon
jonas
jonathan
jones
jonn
jonne
jonnes
jor
jordi
jornal
jornalisse
jornals
jorne
jors
jose
josef
josei
joseph
josse
josue
jou
jouancoux
joubert
joue
joueur
jouin
jour
journal
journalisse
journals
journaux
journe
journey
jours
joute
joyeuse
joyeux
jp
jpg
jr
jte
ju
juait
juan
jube
judai
judas
jude
judi
judith
jue
juer
juette
jueu
jueus
juge
jugement
juger
juges
juif
juigne
juilet
juillet
juin
juis
juive
jujmint
jules
julia
julie
julien
juliette
julitte
julius
julos
jume
jumelache
jumelage
jumele
jumelles
jumet
jumint
jungle
junior
juniors
juniperus
jupiter
jurassic
jure
jurion
jury
jus
jusqu
jusse
just
juste
justice
justifie
justin
justine
k
ka
kaamelott
kaimberlottes
kain
kajdanski
kamini
kan
karate
karl
kartli
kavi
kazakhstan
kaze
kcion
ke
kei
keiichi
keisuke
keith
keller
keltique
kemal
ken
kenji
kenny
kent
kerksken
kermesse
kes
kessinger
ketto
keu
keuchie
keup
keups
keur
keus
keute
keuve
kg
ki
kid
kie
kien
kiens
kili
kilome
kim
kimbre
kin
kine
king
kinne
kinoe
kinoshita
kintin
kinuyo
kiosque
kipling
kipre
kipriote
kiss
kita
kitano
kiyohiko
kiyoshi
klaus
klitra
km
kmin
kminche
kmincher
kminchmint
kmins
kmint
known
ko
koi
kolonne
kong
konrad
kopierre
kore
korngold
kose
kosovo
krafft
kte
ku
kuro
kurosawa
kurt
kurth
kvau
kveau
ky
kyo
l
la
labbe
label
labellise
labor
laboration
laboratoe
laboratoire
laborde
laboureur
labourse
labre
labyrinthe
lac
lacape
lacion
lacouture
lacroix
lacs
lady
lae
laffitte
laffont
lafleur
lafosse
lafre
lagique
lagnicourt
lai
laiche
laicher
laid
laigne
laine
lainne
lais
laisse
laissez
lait
lake
laleu
lalloeu
lam
lambert
lambes
lamendin
lamium
lamoricie
lamotte
lampasse
lampe
lamy
lan
lanc
lance
lancel
lancer
lanche
lancheron
lanchron
land
lande
landes
landi
landowski
landrecies
landrethun
lands
lang
langache
langage
langages
lange
langes
langlois
language
languages
langue
languedoc
languepicarde
langues
languevoe
lanie
laniidae
lanius
lanka
lannoy
lanque
lante
lanterne
laon
laonnoe
laonnois
lapin
lapins
laquelle
laquette
lard
lardgeur
large
largue
lariguette
larousse
larris
larus
larvent
las
last
lat
late
lateur
latin
latine
latinne
latins
latitude
latium
lattre
launay
laure
laurence
laurent
laurint
lausanne
lautrec
laval
lave
lavenir
lavie
lavier
lavoe
lavoixdunord
law
lawe
laye
lazards
lazare
lc
lchin
ldegalerie
le
lebas
lebe
lebesgue
lebeuf
lebiez
leblanc
leblond
lebrun
lec
lecat
leclabart
leclerc
leclercq
lecomte
lection
lectronique
lecture
ledieu
ledinghin
lee
lefe
lefebvre
lefils
leforest
lefort
legay
legend
legrand
legs
leine
leipzig
leleu
leleux
lemaire
leme
lemer
lemint
lemur
lemy
lendemin
lenglet
lengrand
lenie
lens
leo
leonardo
leos
leperlier
lequel
ler
lerin
lerinage
lerins
leroux
leroy
les
lesage
lesclap
lescot
lesieux
lesne
lessines
lestienne
lestin
lesueur
let
letellier
lets
lette
lettes
lettre
lettres
leu
leuciscus
leuilly
leulinghin
leumie
leune
leups
leur
leurint
leurs
leus
leute
leuven
leuz
leuze
levage
levant
leve
leverd
levrault
lewarde
lewis
lexique
leymaniye
lez
lge
lhe
li
lia
liaison
liancourt
liane
liauwette
liban
libataire
libaude
libbrecht
libe
libellule
liberal
libercourt
liberte
libes
libraire
libraires
librairie
libraries
library
libre
lichtenthal
licien
licorne
licourt
licques
lidje
lie
liechtenstein
lieder
lien
liens
lier
liettres
lieu
lieutenant
lieux
lifamote
lifamotes
life
lifes
liger
light
lighthouse
ligicourt
ligne
ligny
ligue
ligure
like
lile
lili
lille
lillers
lillois
lillos
lilos
lily
lim
lime
limite
limites
limon
limosa
limpe
lin
linand
linche
lincheu
linda
linde
lindi
lindjuisse
lindjuistique
line
lines
linette
linfle
lingache
linge
linghin
lingne
lingua
lingue
lingues
linguistics
linguistike
linguistique
linguistiques
lingwisse
lingwistike
linke
linme
linnaeus
linot
linotte
linque
linse
lio
lion
lionel
lions
lippa
lippino
lique
lire
lis
lisa
lisabeth
lisant
lisbonne
lise
lisenne
liser
lisieux
lisse
lissene
lisses
list
liste
lit
lite
lites
litte
little
littoral
lituanie
liturgie
liu
liudmila
lius
live
liverpool
lives
livossart
livourne
livre
livres
livret
lix
ll
llargues
llc
lle
llimont
lme
lmint
ln
lo
loach
lobbes
local
locale
localemint
locales
localisation
localite
locaux
locon
locuteus
lodi
lodie
lodies
lodigiano
loe
loeuilly
loge
logeon
logie
logis
logo
lohim
loi
loin
loire
lois
loisirs
loisne
loison
lombard
lombardie
lombards
lombart
lomme
lompret
lon
londe
londes
londgeur
londjeu
londjeur
london
londres
long
longfosse
longitude
longpre
longs
longtans
longue
longuenesse
longues
longueval
longueville
longuevo
longvilliers
lonme
lonmer
lonmoait
lonmoe
lonno
lonque
lons
loo
look
looking
loos
loques
lorainne
lord
lorde
lorenzo
lorette
loriot
lorisse
lorraine
lors
los
losc
lost
lot
lota
lotin
lotte
lou
louche
louches
louchet
loucheux
loue
louges
louis
louise
louisiane
loup
loupe
loups
lourdes
louvain
louve
louvie
louvignies
louvincourt
louvre
love
lovire
loy
loye
loyen
loyens
lozinghin
lp
lrinnache
ls
ltd
lte
ltry
lty
lu
luc
luca
lucas
luce
lucheux
luchue
luciano
lucie
lucien
lucius
lucky
lude
ludovic
ludwig
lue
lueur
lugle
luglien
lugy
lui
luigi
lully
lulu
lumie
lundi
lune
lung
lus
luscinia
lussimbourjoe
lussimbourk
lussimbourq
lustucru
lute
luther
lutte
luxembourg
lve
lver
lwarte
lxiii
ly
lyapkalo
lycalopex
lyce
lyche
lyde
lyon
lyre
lyrique
lys
lyse
lyssois
lz
m
ma
mabe
mac
macabe
macao
macbeth
mace
mache
machiel
machine
machines
machy
maclou
macquart
macqueron
macron
mad
madagascar
madame
maddie
made
madelaine
madeleine
madelon
mademoiselle
madge
madjet
madone
madonna
madrid
mae
mafe
magalha
magasin
magasins
magazine
mage
maggie
magic
magique
magne
magneu
magnicourt
magnificat
magnon
magrite
mahaut
maheu
mahieu
mahon
mai
maignan
maijon
mail
maillard
maille
maillet
mailly
main
maine
mainne
mainnie
mains
mainstream
maintenant
maintenay
maintenir
maire
maires
mairie
mais
maisnil
maison
maisonneuve
maisons
maizicourt
majeur
majeure
majon
major
majorite
makaritoru
make
makeba
maki
mal
malade
malades
maladie
maladies
maladrerie
malburny
male
malgre
malhe
malheur
malinots
malle
mallet
mallorca
mallu
malmaison
malmoe
malo
malte
malterie
malus
malva
mama
maman
mambo
mame
mammife
mamouille
man
manche
manchin
mandarin
mandat
mande
manes
manessier
manga
mangne
manhattan
manicourt
manie
manier
manille
manin
maninghin
manipulation
manique
manke
manman
manmife
manne
mannoia
manoe
manoir
manouche
manque
mans
mant
mante
mantele
mantieu
mants
manuel
manufacture
manuscript
manuscrit
manuscrits
mappe
mapquest
maps
maque
maquereau
maqueus
mar
mara
maracaibo
marais
marant
marathon
marbe
marc
marcasse
marcel
marceline
march
marchand
marche
marcher
marches
marchiennes
marcinelle
marck
marclet
marco
marconne
marconnelle
marcq
marcus
mard
mardaga
mardi
mardick
mare
mares
maresquel
marest
mareu
mareul
margat
margre
marguerite
mari
maria
mariache
mariage
marianne
maricourt
marie
mariette
marin
marine
marinleu
marins
mario
marion
marione
marionnettes
maris
marissel
marissiaux
mariste
marister
maritima
maritime
maritimes
marius
mark
marke
marle
marles
marly
marmottan
marne
maroc
maroilles
marolles
marone
maroniez
maroume
maroumet
marquay
marque
marquette
marquillies
marquintie
marquion
marquis
marquise
marquisse
mars
marseille
marshall
martchainneville
martche
martelle
marthe
marti
martial
martin
martinchart
martine
martini
martinie
martinique
martinsart
martiny
marty
martyr
martyrs
maru
marx
mary
maryland
marœuil
mas
masahiro
masculin
masculine
mason
masons
masque
mass
massachusetts
massacre
massake
masse
masses
massif
masson
master
mat
matante
match
mate
maternelle
maternite
mathe
mathieu
mathilde
matichien
matie
matike
matikes
matin
matique
matiques
matisse
matiu
matsuo
matteo
matthieu
mattina
mau
maubeuche
maubeuge
mauclair
mauger
maugre
maur
maurice
mauricette
maurizio
maurpo
maus
mauvais
mawais
mawaise
max
maxence
maxime
maximilien
may
maye
mayenne
mayer
mayeu
mayeule
mayeur
mayeus
mazancourt
mazingarbe
mazingarpe
mazinghin
mazza
mbe
mcrae
me
meaux
media
medieval
meets
megarhynchos
meilleu
meilleur
meilleure
meilleurs
meillie
mein
meint
mel
melbourne
melillo
melling
mello
melo
melolonthinae
melon
membre
membres
memoire
memoiresdepierre
memorial
memorialgenweb
memory
men
mence
menhir
menhirs
mensuel
ment
menteur
mentionne
ments
meots
mer
merce
merchi
merci
mercier
merck
mercure
mercy
meredith
mergus
merimee
merle
mers
merveillement
merveilles
merville
mery
mes
mesnil
messager
messe
messes
messie
messike
messin
messines
messire
mesure
mesures
met
metal
metro
mets
mett
mette
mettez
mettot
mettre
metz
meu
meudit
meudon
meulen
meume
meumes
meunier
meunumint
meunumints
meurchin
meurdesoif
meurt
meuse
meuvi
mexique
meyrat
mg
mh
mhz
mi
mia
micaela
michael
miche
michel
michele
micheli
michelin
michigan
mick
mickey
micourt
micromania
middle
midi
midy
mie
mien
miencourt
mies
mieu
mieute
mieux
mifune
migne
migrateu
migratrisse
migre
miguel
mike
mikio
mil
milan
milane
milanese
milani
milano
mile
miles
milhaud
milie
milieu
milincourt
militaire
militaires
militant
military
milite
militoaire
militoaires
militoe
mill
millars
mille
million
millions
milliquant
millon
millons
milo
mimbe
mimbes
mimi
mimoyecques
min
minas
minche
minde
mine
mines
mineur
mineure
mineurs
minge
minger
mingeus
minh
mini
minie
minier
minimalisse
minimes
minin
miniserie
minisse
ministe
ministre
ministres
minkoff
minme
minmes
minor
minoru
minot
minque
mins
minse
mint
mintal
mintale
minte
minton
mints
minuit
minutes
mio
mique
miquelon
miques
miracle
miracles
mirake
miraques
miriam
mirlitoe
miroir
mis
misbehavin
mise
miserere
mises
miss
missa
misse
mission
missions
missouri
miste
mistral
mit
mitan
mite
mites
mitologie
miu
mius
miux
mixte
miyamoto
miyazaki
miyons
mizoguchi
mm
mmanuel
mme
mn
mne
mner
mni
mo
moai
moaire
moais
moaison
moaisons
moaite
moaites
moaitresse
moaitrise
mobile
mobilier
moc
modalite
modave
mode
modern
moderne
modernes
modes
modeste
modifie
modifier
modularis
module
moe
moer
moeurs
mografie
moi
moignage
moine
moineau
moins
moire
moires
mois
moitie
mol
mole
moles
molet
molie
moligneu
molin
molinet
molinghin
molins
moll
molle
molliens
momelin
moment
moments
momint
momo
mon
mona
monaco
monacu
monarchie
monaste
monastoe
monboube
monceau
moncheaux
monchecourt
monchel
monchy
monde
mondial
mondiale
mondiales
mondicourt
mone
monedula
monelle
mongivo
mongrenier
moni
monies
monique
monk
monnaie
monnaies
monne
monnoe
monnouaie
monogatari
monographie
monographies
monologues
monologuues
monoloques
monomoteur
mononoke
monote
mons
monseigneur
monsieu
monsieur
monstrelet
monsure
mont
montagne
montaingnes
montane
montant
montanus
montataire
montcavrel
montdidier
montdidji
monte
montenoe
monter
montgolfie
months
montiale
montie
montier
montignin
montigny
montini
montmartre
montmirail
montoe
montois
montoise
montoises
montpellier
montre
montrer
montreu
montreuil
monts
montsoreau
montyi
monument
monumental
monuments
monumint
monumints
moon
morale
morales
morande
morant
morative
moravie
morbecque
morceaux
morchies
morciau
morcieu
morcourt
more
moreau
morel
moreno
mores
moreuil
moreul
morgan
mori
morial
moribus
morin
moringhin
morinie
morins
moritz
morlancourt
mormon
morphologie
mort
mortagne
morte
morts
morveux
morvile
mory
mos
mosan
moscou
moselle
mosque
mossieu
mot
motacilla
mote
motets
moteur
motian
moto
mots
motte
mottes
mou
mouche
mouchon
mouchons
moucourt
moucron
moue
moufle
mouille
mouke
moulbe
moulin
moulins
moulle
moult
mouni
mounieu
mountain
mouqhe
mouque
mouques
mourir
mourle
mourmoule
mouscron
mouse
mousquetaire
mousse
mousseron
mousset
mout
moutarde
moute
mouton
moutons
mouvement
mouvemint
mouvemints
mouvmint
movie
moy
moyecques
moyen
moyenneville
moyin
moyincourt
moyles
moyne
mozart
mp
mr
mreucourt
mrs
ms
msure
mu
muccino
muche
mucher
muches
mue
muet
muets
muin
muisit
mulation
mulligan
mulot
mulpas
multime
multipes
mun
mundial
munich
munichipal
munichipale
municipal
municipale
municipales
mur
murailles
murales
murer
muros
murray
murs
musashi
muse
musee
musenor
museum
music
musica
musical
musicale
musicales
musichien
musichiens
musicien
musiciens
musike
musikes
musique
musiques
mussolini
mustafa
mutation
mute
mutile
mutualite
mwi
my
myriam
myste
mythologie
mœurs
n
na
nabu
nache
nacion
nacional
nacionale
nacionnal
nacionnale
nacions
nade
nadine
nage
nagement
nages
nageuse
nai
naic
nain
naissance
naite
nakamura
naked
nam
name
nameur
nampont
namps
namur
nancy
nanie
nant
nanterre
nantes
nanty
nape
napole
napoule
narcisse
nard
nario
narisse
naruse
nat
natacha
natale
natation
nateu
nateur
nathalie
nathan
natif
nation
national
nationale
nationales
nationaux
nations
nativite
natura
naturalise
naturalisse
nature
naturel
naturelle
naturelles
naturels
nau
nausicaa
navare
navarre
nave
navet
navette
navire
nazare
nazart
nazie
nazime
nazionale
nazis
ncbi
nchen
ncia
nd
ne
necropolis
need
nef
neiches
neige
neiges
neil
nel
nelly
nellyhalle
nels
nelson
nement
nemint
nemints
nen
neptune
ner
nere
nergie
nero
nery
nes
nesillas
nesle
net
nette
network
neu
neucatel
neuches
neue
neuf
neuilly
neuly
neumolin
neurmind
neurminde
neurmindes
neurmindie
neurminds
neustrie
neutre
neuve
neuvie
neuvile
neuville
neuvillette
neuvireu
never
neveu
neville
new
newgaso
news
newton
nez
ng
nhe
nhie
nhioe
nhui
ni
nibas
nibo
nicaise
nicaragua
nice
niche
niches
nicheu
nicheusse
nichiens
nicien
nick
nicode
nicolas
nicole
nicourt
nid
nie
nielles
nien
nieppe
nies
niestle
nieu
nieur
nieurs
nieus
nigella
night
nightingale
nigra
niikuni
nike
nikolai
nil
nin
ninghin
nini
ninoche
ninsule
nio
nippon
nique
nir
nirlinde
nirlindoe
nirs
nirvana
nis
nison
nisse
niste
nistrachon
nistracion
nistrateu
nistratif
nistrative
nite
nive
niviau
nivie
nivieu
nl
nme
nmes
nmint
nmints
nn
nne
nnes
nneville
no
noah
noait
nobe
nobel
nobes
nobiliaire
nobis
noble
nobles
noblesse
noce
noces
nocion
nocq
noctua
nocturne
noe
noemi
noeux
noi
noir
noire
noirs
nois
noly
nom
nombe
nombes
nombre
nombreuses
nombreux
nome
nomination
nomme
noms
nomura
non
nonesuch
nonne
nons
nope
nopode
nopte
nor
norbert
nord
nords
norlu
normale
norman
normand
normandie
normannorum
norme
normindie
norrint
nortboucourt
north
northern
norve
nos
nostra
nostre
not
notamment
notammint
notanmint
note
notele
noter
notes
notice
notices
notre
nots
notte
nou
noue
nouet
noulette
noume
nounou
nouot
nour
nourrit
nous
nouve
nouveau
nouveaux
nouvel
nouvelle
nouvelles
nouviau
nouvieu
nouvion
nov
nova
novara
nove
novelle
november
novembre
novie
novimbe
novus
now
noy
noye
noyelle
noyelles
noyer
noyon
noyots
nre
ns
nt
nu
nucle
nue
nufacture
nuit
nuits
nul
num
nume
nuncq
nus
nveu
ny
nzi
nœux
o
oaire
obald
obe
obin
objectif
objet
objets
oblicamp
oblie
obres
obriyeu
obse
observateur
observations
obtenir
oc
ocasion
occasion
occasionne
occhidint
occhidintal
occhidintale
occident
occidental
occidentale
occitan
occitanie
occupation
occupe
oce
oche
ochi
ochruros
oclc
ocoche
octave
octet
octets
octobe
octobre
odal
odale
odeon
odile
odon
odore
odrome
oe
oeil
oeuves
oeuvre
oeuvres
of
off
offekerque
offenbach
offerts
office
offiche
offichie
offichiel
official
officiel
officier
officinalis
offignie
offin
ofichie
ofichiel
oficial
oficie
ogg
ogive
ogni
ografe
ografie
ographes
ographie
ographique
ogy
oh
oi
oie
oies
oignies
ois
oise
oiseau
oiseaux
oisy
oit
oizo
oizos
ojons
ol
ola
old
ole
oleracea
oles
olhain
olie
oliennes
olimpikes
olimpique
olimpiques
olithique
olitike
olive
olivier
olodjie
olodjikes
olodjique
olodjyin
ologie
ologike
ologikes
ologique
ologiques
ologue
oloque
olympique
olympiques
om
ombe
ombre
ombres
ome
omer
omie
on
onard
once
oncle
onde
one
onepage
ong
ongnies
onival
onke
online
only
onme
onmes
onna
onne
onomastique
onore
onques
ons
ont
ontario
onu
onze
onzie
oooooooo
oooooooooooooooooooooooooooooooooooooooooooooooo
ooooooooooooooooooooooooooooooooooooooooooooooooo
op
opale
opard
ope
open
opera
ophile
opinions
opold
opolitique
oportail
opose
oppidum
oppose
oppy
opte
option
opus
or
oral
orale
orange
oratoe
orcheste
orchester
orchestra
orchestre
orchide
orchies
orde
ordinaire
ordonne
ordre
ore
oreille
orfe
org
organisation
organise
orge
orgie
orgien
orgue
oricourt
orie
orient
oriental
orientale
oriente
origanum
originaire
original
originale
originaux
origine
origines
originne
origny
oriol
oriolus
orke
orkeste
orle
orme
orne
ornithologique
oro
ors
orsay
orse
orsigno
orthographe
ortodoxe
ortodoxes
ortougrafe
orville
oryctolagus
oryint
oryintale
os
osc
oscar
oseille
osier
osieus
oslo
oson
osons
ostralegus
ostrevent
ostricourt
osvaldo
oswald
ot
otchupacion
otchupe
ote
otes
other
oti
otils
otoko
otriche
otrike
ottawa
ottignies
ottoman
otus
ou
oubin
oubli
oublie
oucrinne
oudry
oue
ouen
ouest
ouet
ouffo
oui
ouin
oul
oulchy
ours
ourton
ourviers
out
oute
outils
outre
outriauwe
ouve
ouvert
ouverte
ouvertes
ouverture
ouville
ouvrache
ouvraches
ouvrage
ouvrages
ouvre
ouvrer
ouvrie
ouvrier
ouvriers
over
ovide
ovile
oxford
oye
oz
ozieux
ozu
p
pa
pablo
pache
paches
pachifike
pacific
pacifique
padoa
pag
page
pages
pagesperso
pagne
pagnette
pagnol
pagnols
pagny
pagodinho
pagus
pahon
pai
paillard
paillart
pain
pair
paix
pakistan
pal
pala
palais
palaiseau
palazzo
pale
palestinne
paleta
palette
palettes
palfart
palio
palissy
pall
pallone
palmare
palme
palmer
pamoins
pamphle
pamphlet
pan
panche
panda
pandour
pangloss
panneau
panneaux
pannieus
panorama
panoramio
panoramique
pans
panthe
panthera
paolo
paon
paons
papa
papaute
papaver
pape
papes
papie
papier
papiers
papillon
papillons
papin
paque
paques
par
para
paracion
parade
paradis
paraguay
parai
paralle
parc
parce
parcours
parcs
pardieu
pardon
pardri
pare
parent
parenty
parer
parfoe
parfois
parfos
parges
pargny
parints
paris
parisien
parisiens
paristech
parjure
park
parker
parl
parlache
parlant
parle
parleke
parlementaires
parlemint
parlemintoe
parlent
parler
parlers
parltte
parmentier
parmi
parmint
parnou
parodie
paroe
paroisse
paroissiale
parole
paroles
parra
pars
parsonnache
parsonnaches
parsonnages
parsonne
parsonnes
part
partage
parte
partement
partemental
partementale
partementales
partements
partemint
partemints
parti
particions
participe
particule
particulie
particulier
partie
parties
partir
partis
partisans
partition
partitions
partmint
partout
party
paru
parus
parvis
pas
pascal
pascale
pasqua
pasqual
pasque
pasquille
pasquilles
pass
passa
passache
passage
passages
passant
passe
passer
passereau
passereaux
passeriformes
passion
passions
paste
pastel
pastels
pasteur
pastinaca
pastorale
pastura
pasture
pate
pater
patinache
patinage
patineus
patismit
patoe
patois
patoisant
patoisantes
patoisants
patoises
patrice
patrick
patrie
patrimoe
patrimoine
patrimoue
patron
pattes
pature
patures
patwas
patwe
pau
pauchet
paul
paule
pauline
paulo
paume
paures
paus
pauv
pauve
pauvre
pav
pave
pavel
pavie
pavillon
paviole
pavo
pavot
pay
payis
payot
pays
paysage
paysages
paysan
paysans
pcd
pcf
pci
pdf
pe
pearl
pecoul
pecq
pedro
peine
peint
peinte
peintre
peintres
peinture
peintures
pelle
pelota
pelote
pelouse
pelouses
pen
pendant
penelope
penguin
penin
pennsylvania
pense
pentel
people
pepper
per
perce
perche
percussions
perd
perdrix
perdu
perdue
perdus
peregrinus
perfin
perfoe
performance
performances
perie
perle
permaninte
perme
permet
permissions
pernes
perpe
perret
perrin
perrochaud
perroquet
persan
perse
persee
perso
person
personnache
personnage
personne
personnel
personnes
perthes
pertoire
pertout
pes
peste
petcheus
peter
peterson
peterswar
petit
petite
petites
petits
petrus
peu
peugeot
peule
peume
peumes
peupe
peupes
peuple
peuplier
peur
peut
peuvent
pfaff
pfaffenhoffen
pg
ph
phalacrocorax
phane
phant
phe
phile
philharmonic
philibert
philip
philippa
philippe
philippines
philologie
philologiques
philome
philomelos
philosophie
phinaert
phine
phoenicurus
phone
photo
photographe
photographie
photographies
photographique
photos
php
physique
pi
pianisse
piano
pianos
piat
piau
pib
pic
pica
picard
picarde
picardes
picardia
picardie
picardisant
picardisants
picardiye
picards
picarte
picartes
picartext
picarvie
picasso
pice
piche
piches
picholit
pichon
pichons
pico
picoche
picquigny
pide
pie
pieces
pied
pieds
pier
pierfrancesco
piero
pierre
pierrefonds
pierres
pierrot
pieta
pietro
pieu
pieus
pigeon
pigeonnier
pignon
pihen
pihin
pikar
pila
pilate
pile
pilet
pilipines
pilot
pilota
pilote
pilsner
pin
pinakothek
pinche
pinchefalise
pinchon
pind
pinda
pindaint
pindanche
pindant
pindante
pinde
pinderleots
pindint
pindu
pine
pinette
pineuzon
pingitore
pinguet
pinkigni
pinne
pinon
pinot
pins
pinse
pinser
pinsoe
pinstte
pint
pintateuke
pintatonike
pinte
pintecoute
pintes
pinto
pinture
pintures
pinyin
pio
pion
pionne
pionnier
piot
piots
pipasso
pipe
pipi
pipit
pique
piquet
pir
pirate
pirates
pire
pis
piscine
pisode
pisodes
piss
pissy
piste
pistes
pistoles
pistons
pital
pitchigny
pite
pites
pitie
pittefaux
pittellioen
pittoresque
piu
pius
pivoine
pivot
pl
pla
place
places
plache
plaches
plachy
plafond
plage
plai
plain
plaine
plaines
plainne
plainville
plaisi
plaisir
plake
plan
plane
plangne
planques
planquette
plans
plant
plante
plantes
plaque
plaques
plaquette
plasticien
plat
plate
platiau
platier
platieu
platine
plats
platyrhynchos
play
plays
ple
plein
pleine
pleins
plessier
plessis
pleu
pleume
pleumecoq
pleumes
pleumoe
pleurie
pleut
pleuve
pleuves
plomb
plon
plongeon
plot
plote
plouvain
plouy
plu
pluie
plume
plupart
pluridisciplinaire
pluriel
plus
plusieurs
plusieus
plut
plutarque
pluto
pluvier
plzen
pm
pnancourt
png
po
poais
poaiyis
poaiyisans
poche
pod
podagraria
podiceps
poe
poen
poesia
poeta
poids
poin
poing
poinme
poinmes
point
pointe
points
poire
poiret
poirier
pois
poisson
poiteux
poitiers
poix
poke
poker
pol
polaire
pole
police
polincove
polissoe
polissoir
politichien
politike
politikes
politique
politiques
pologne
polone
polonne
polska
polygram
polyne
polyte
polytechnique
pome
pomme
pommera
pommes
pommier
pompe
pompidou
pompieux
pon
ponche
ponchon
ponctuacion
pond
ponme
ponnou
ponse
ponses
pont
ponthieu
pontiu
pontoe
ponts
pop
pope
populachon
populacion
populacions
populaire
populaires
population
populations
popule
populoaire
populoaires
populoe
poque
por
porche
porco
pore
porgne
porion
porjet
porquoe
porquoi
porsuire
port
portail
portal
portals
portant
porte
porter
portes
portette
porto
portrait
portraits
ports
portugais
portugal
portugoe
portugue
pos
pose
posicion
positif
position
posse
possession
possessions
possibe
possibilite
post
postales
poste
postes
posthume
posto
pot
potager
poterie
poteries
potez
potier
pots
pottier
pou
pouchin
poude
poue
pouille
pouillette
pouillot
pouillu
poulain
poulainville
poule
poulenc
poulet
poulhe
poultier
poupe
pour
pourquoe
pourquoi
pourra
pourre
pourri
pourris
pourtant
pourvinche
pouse
pousse
poussie
poussin
poute
poutrincourt
pouvoe
pouvoir
poves
povez
poviez
povoe
powe
pozie
pp
ppeville
ppp
pr
prado
prague
prairie
prarond
pratike
pratique
pratiques
prayez
prazdroj
pre
pref
premie
premier
premiers
premio
prend
prendre
pres
presbyte
presentation
presque
press
presse
presses
pression
pressor
preu
preume
preumie
preures
preus
preusidint
preuve
preuves
preux
prie
prier
prieur
prieure
prima
primitif
primitifs
primorum
prin
prince
princes
princesse
prinche
princhesse
princhipal
princhipale
princhipalemint
princhipales
princhipals
princhipaute
princhipaux
principal
principalemint
principales
principals
principaute
principaux
principes
prind
prinde
prinds
prinmie
prins
prinse
print
printe
printemps
printsec
priorite
pris
prise
prison
prisonnier
privat
prive
privile
prix
pro
probabilite
proble
proce
procession
processionnaire
proche
proches
procure
prodje
prodjet
produccion
product
producteu
producteur
production
productions
produire
produit
produits
proe
profe
professeu
professeur
professionnel
profit
profondeur
progne
programme
programmes
progre
progression
project
projet
prologue
prolongemint
promenade
promenades
prominse
promocion
promoteu
promu
pron
pronne
pronnieux
pronom
pronoms
prononce
prononcer
prononche
prononcher
prononciacion
prononciation
pronville
prope
propes
propos
propose
proposicion
proprie
prose
proses
prospe
protais
prote
protection
protestant
protestante
protestantes
protestantime
protestants
proussel
prouve
prouvinche
prouvinches
prouzi
prova
provence
proverbes
provin
province
provinces
provinche
provinches
provinchial
provincia
provincial
provinciale
pruche
prumie
prumier
prumiers
prune
prunella
prunier
prunmie
prunmier
prunmiers
prunus
prussiens
ps
psaumes
pseudo
pseudonyme
pt
ptiot
ptiote
ptiots
ptit
ptite
pts
ptt
pu
pub
public
publicachon
publicachons
publicacion
publicacions
publicain
publication
publications
publics
publie
publike
publique
publiques
publisher
publishers
publishing
publius
puccini
puce
puche
pucheu
puchvile
puerto
puf
puffin
puffinus
puhin
pui
puis
puisieux
puisque
puissance
puissances
puissant
puits
pulcella
punk
puno
pupart
pur
pure
pus
pusieurs
pusieus
pusiurs
put
putacion
pute
putois
putot
puvoe
puvtte
puy
puys
py
pyeongchang
pyre
pyrrhula
pythe
q
qhe
qheue
qhie
qi
qu
qua
quador
quae
quai
qualite
quand
quanqu
quant
quante
quantite
quarante
quaregnon
quarre
quart
quartet
quartier
quarts
quasi
quasimint
quat
quate
quater
quaternaire
quates
quateur
quatie
quatore
quatorze
quatrains
quatre
quatrie
quatuor
que
queen
quel
quelle
quelque
quelques
quence
quences
quend
quentin
quentovic
queques
quer
querchin
querquedula
querre
ques
quesnes
quesnoy
queste
question
questionnaire
questions
questres
queu
queuchoy
queue
queufour
queuille
queuq
queuques
queus
queux
qui
quid
quie
quien
quilles
quin
quinche
quind
quinquet
quinquets
quinquin
quint
quinte
quintette
quintin
quinze
quio
quipe
quitte
quitter
quo
quoe
quoi
quotidien
quy
quœux
r
ra
rabe
rabelais
rabistotche
race
races
rache
rachinnes
rachon
racing
racion
racions
raconte
raconter
racquinghin
rade
radio
radiodiffuse
rafael
rafale
rafoe
rafore
raforer
rage
rai
raie
rail
rain
rainchveu
rainecourt
rainne
raire
raires
rais
raison
raisonne
raisons
raiuno
rajoute
ral
rale
ralemint
rales
ralmint
ram
rama
ramazzotti
rambure
ramburelle
rambures
ramier
ramintuvouer
ramintuvries
ramique
ramo
ramoe
ramont
ran
rance
ranchecourt
rancourt
rand
randonne
rang
range
ranie
ransart
rant
rante
ranto
raoul
raphae
raphin
rapide
raport
raporte
rappeu
rapport
rapports
raqhet
raques
rard
rare
ras
rasho
rassanne
rasse
rat
ratache
ratche
ratchette
rate
rateur
rateurs
ration
rations
rative
ratrice
ratro
rattache
rature
ratures
raus
raux
ravage
ravel
raveline
ravez
raviser
ray
raye
raymond
raymonde
razie
rb
rba
rbe
rberie
rberoe
rbeu
rbiale
rbotin
rbroe
rc
rca
rche
rcher
rchincourt
rchite
rcho
rchon
rchu
rchuvoe
rchy
rciche
rcinsemint
rclo
rcolize
rconnoe
rconnu
rconstruit
rconstruite
rcourt
rd
rda
rdainne
rde
rdes
rdhie
rdi
rdin
rdon
rdrecque
rds
rduit
rduits
rdure
re
real
realisateu
rebergues
rec
recensement
recette
recherche
recherches
reclus
record
recorded
recording
recordings
records
recques
recueil
recueillies
recueillis
red
redalie
ref
reflets
refus
regard
regards
regel
reggio
regia
regina
region
regional
regione
registre
regnart
regulus
rei
reich
reilles
reims
reine
reinhardt
reinne
relais
related
relatif
relatifs
relations
relative
releve
reliant
relie
relief
religieuse
religieux
reliques
remarquable
remarquables
rembrandt
rement
remint
remo
remy
ren
renaissance
renard
renart
renaud
rence
rences
rencontre
rend
rendez
rendu
rendus
rene
rennes
renouard
rent
rentes
rents
renty
reports
repre
reprint
reprises
reproduction
repu
republika
requests
requiem
rer
res
resende
resnum
respect
responsabe
resse
ressources
rest
restaurant
restauration
restaure
reste
rester
restes
result
ret
retable
retenu
retour
retourne
retrouve
rette
rettes
reu
reulou
reus
reut
reuze
revenu
revue
revues
rex
rey
rezensionen
rfauw
rfay
rfayin
rfichie
rfoaite
rfoaits
rg
rge
rgicourt
rgie
rgne
rgny
rgroupe
rgure
rhapsodie
rhe
rhin
rho
rhythm
ri
ria
riache
rial
riale
riancourt
rianne
riau
riaux
ribe
ribemont
ribieucourt
ric
rica
ricain
ricaine
ricaines
riccardo
rich
richard
richards
richau
riche
riches
richesses
richie
richon
richter
rico
ricorde
ricouart
ricourt
ricquebourq
rictrude
rideau
ridenne
ridionale
rie
riel
rien
riencourt
rienne
riennes
riens
rier
ries
rietz
rieu
rieur
rieure
rieures
rieurs
rieuse
rieux
riez
rif
rifier
rige
rigole
rigueux
riguingo
riguinguette
rike
rikes
rikin
riley
rimbovau
rime
rimes
rimparts
rimplace
rimplache
rimplacher
rimpli
rimporte
rin
rinche
rinches
rinconte
rincontes
rincontre
rincquessent
rind
rinde
rindonne
rindu
rine
ring
ringand
ringne
ringue
rinmecourt
rinneville
rins
rint
rintdinldainne
rinte
rintes
rintre
rintrer
rints
rinvile
rio
riode
riodes
riodique
rion
rions
rios
riot
riparia
rique
riquier
rir
rire
ris
rise
risin
rism
risme
rissart
risse
risset
ristikes
rit
ritabe
ritable
ritache
ritage
ritchaine
ritchier
ritchin
rite
ritie
ritiers
ritme
ritoe
riu
rius
rivage
rive
rives
rivie
rivroe
rix
rj
rk
rke
rle
rler
rlet
rlette
rlie
rligieus
rligieuse
rligion
rligions
rlikes
rlin
rlincourt
rlo
rlon
rlu
rlurage
rluve
rly
rmain
rmaine
rmanike
rmanique
rmanofone
rmans
rmaville
rme
rmelinghin
rmeu
rmignie
rmin
rmindoe
rmindos
rminduvile
rmine
rmini
rmint
rmintachon
rmis
rmont
rn
rna
rnache
rnacional
rnant
rnante
rnard
rne
rnemint
rnes
rneu
rnevile
rnincourt
rno
rnoe
rnr
rny
ro
road
roaire
roaisin
roaison
roait
robe
robecques
robert
roberto
robespierre
robin
robinet
robinson
robot
roch
roche
rochefort
rochefoucauld
rocher
rock
roclincourt
rocourt
rodie
rodolphe
roe
roepstem
roger
rogerol
rogers
rogier
roi
rois
roisin
roit
rojin
rojins
roland
role
roll
rollancourt
rolland
rolling
rollot
roma
romagne
romain
romaine
romaines
romainne
romains
roman
romance
romanchier
romancier
romane
romanes
romanne
romanov
romans
rombly
rome
ron
ronald
roncheu
rond
ronde
rondeau
rondes
rondo
rone
ronique
ronmainne
ronne
ronnes
ronny
rons
ront
room
roost
ropi
roport
roquetoire
roquette
rorisses
ros
rosa
rosace
rosamel
rosati
rose
roses
rosie
rossi
rossigno
rossignol
rosso
rot
rote
rotique
rou
rouanne
roubais
roubaix
roube
rouche
rouches
rouchi
roucourt
roue
rouen
rouf
rouge
rouges
rougy
rouille
roujhe
roulant
roule
roumain
roumanie
rouo
rousie
rousse
rousseau
roussel
roussent
rousserolle
roussillon
route
routes
rouvre
rouvro
rouvroy
roux
rouy
rove
rovingien
rovingiens
row
roy
royal
royale
royaume
royaux
roye
royon
roze
rozier
rpchon
rpe
rpigny
rpont
rpos
rpre
rprind
rprinde
rpris
rprises
rqhe
rque
rquignu
rquy
rrain
rre
rrega
rrerie
rres
rrie
rritoe
rriu
rrurerie
rs
rsanne
rse
rsin
rsion
rsoe
rt
rtain
rtainne
rtangue
rtanne
rtbf
rtche
rtcher
rtchuiche
rte
rterduit
rterduites
rtes
rteucourt
rteuil
rtiens
rto
rton
rtons
rtonvile
rtour
rtraduit
rtreuve
rtruve
ru
ruban
rubimpre
rude
rudit
rudyard
rue
ruelle
rues
rugbi
rugby
ruin
ruine
ruines
ruinne
ruinnes
ruisseau
ruisseauville
ruitz
ruiz
rumilly
ruminghin
rumsey
rural
rurale
rus
rusalem
rusien
russe
russes
russia
russie
rustiques
rusyin
rute
ruwelz
rva
rvacion
rvateu
rvatoe
rve
rvelle
rvice
rviens
rvient
rville
rvin
rvir
rvoe
rvue
rvues
rwe
ry
rythme
rze
rzille
s
sa
sabe
sabes
sable
sabrina
sac
sache
saches
sachin
sacre
sacrement
sacsons
sade
sades
sage
sagebien
sages
sagesse
sahara
sai
saillin
saillisel
sailly
sainghin
saingneu
sainneville
sains
saint
sainte
saintes
saints
sais
saisevo
saison
saisons
sait
saitige
saito
sake
sal
salade
salamandre
salau
sale
salengro
sales
saletkzi
salette
saleux
salicornia
saliens
salle
salles
salmon
salome
salomon
salon
saloue
salt
salut
salvador
salvia
sam
sama
samara
samarobriua
samarobriva
samba
sambe
sambre
same
samedi
samo
samoreau
samourai
samson
samuel
san
sancti
sandemont
sandra
sandre
sandrine
sang
sange
sangneur
sangneurie
sankt
sanli
sanmuel
sannier
sanremo
sans
sant
santa
sante
santerre
santes
santiago
santo
sao
sapiens
sapin
sapporo
sapre
sar
sara
sarah
sarcelle
sarcus
sardaigne
sardine
sarrasins
sars
sart
sarthe
sarton
sartre
sas
sasaki
satie
satires
satirique
sativa
saturnin
sau
sauchy
sauf
saulges
saumur
saut
saute
sauvage
sauvages
sauve
sauvegarde
sauveu
sauveur
savant
savantes
savants
savary
saveuse
savez
savoe
savoie
savoir
savy
saxe
saxofone
saxon
saxons
sayne
sc
scalles
scandale
scarpe
scarpelle
sce
scene
scepcionne
schach
sche
schmitt
schola
school
schriewer
schwarze
science
sciences
scienche
scienches
scientifique
scientifiques
scirpaceus
sclusivemint
scoeuilles
scofieu
scolaire
scope
score
scorpion
scots
scott
scre
scribande
sculptcheu
sculptchure
sculpte
sculpteu
sculpteur
sculpteurs
sculpture
sculptures
se
search
season
seattle
seau
sebastian
sec
seccion
seclin
second
seconde
secondes
secours
secre
secret
secrets
secteur
sectimbe
section
see
seghers
seigneu
seigneur
seigneuriale
seigneurie
seigneurs
seigneus
seignolle
seiichi
seiji
sein
seine
seingneu
seishun
sekchion
sekchon
sekcion
sel
seleccio
selle
selles
selon
semaine
semblat
seme
semi
semont
sempe
sempre
sempy
sen
senat
sence
senlecq
senlis
sens
sense
sent
sentant
sentation
sente
sentimental
sept
september
septembre
septentrion
septentrionale
septie
septimbe
sequenza
ser
sera
serai
serbe
serbie
sercelle
serdu
serge
sergent
sergio
serial
series
serinus
serre
serrurier
sert
sertchu
serve
servi
service
services
servins
servir
servoe
ses
sessions
set
sette
seu
seucourt
seudards
seuf
seuil
seul
seule
seulemint
seules
seulmint
seuls
seur
seure
seurlonme
seurmint
seurnom
seurtout
seurvat
seus
seut
seuvache
seuve
seuver
seuveu
seuvile
seuvmint
seux
severus
sex
sexe
sexy
seydoux
sfio
sfn
sforza
sga
sgond
sgonde
sgre
shakespeare
sharp
she
shelly
shibuya
shigemune
shiki
shimazu
shimizu
shin
shiro
sho
shogun
shop
shorty
show
shtml
shu
si
siastike
siastique
sibe
sibilla
sica
sich
sicile
sidaner
side
sidence
sident
sides
sidince
sidinche
sidint
sidinte
sidney
sidonie
sie
sien
sienches
sienne
siens
sies
sieu
sieur
sieus
sifflet
siffleur
signe
signes
sikh
sil
sile
silence
silex
silien
sille
silles
silvaire
silvestris
simbole
simboles
sime
similar
simile
simon
simone
simons
simpe
simpes
simple
simplifie
simpson
sin
sinbole
sinbolique
since
sinche
sinches
sindicat
sine
sinet
sinfonie
singapour
singne
singnes
singneur
singneurs
sings
singulier
sinmdi
sinne
sinon
sinople
sins
sinse
sint
sintacion
sintant
sintants
sinte
sinter
sintes
sintimint
sints
sion
sir
sire
sires
sirie
sirs
sis
sisie
sistance
sistant
sistante
sistants
siste
sit
sitant
site
sites
sito
situacion
situe
six
sk
ske
sketches
ski
skira
sky
skynet
slack
slam
slave
sllw
slon
slovake
slovakie
slove
smaingne
smainne
sme
smet
smirnova
smith
sn
sncf
sne
snot
so
sobre
sobriquets
soc
sochial
sochiale
sochiales
sochialisse
sochie
social
sociale
sociales
socialisse
socialiste
socie
societe
society
sociologie
soe
soerie
soeur
soeva
soi
soin
soir
soire
soissons
soit
soixante
sokrys
sol
soldat
soldats
sole
soleil
solel
solisse
solitaire
solo
sols
sombe
sombre
sommaire
somme
sommes
somogy
son
sonate
sonchus
song
songe
songs
sonjon
sonme
sonmes
sonne
sonnet
sonnets
sonny
sono
sons
sont
sony
sophie
soprano
sor
sorbonne
sorcie
sordon
soret
sorrus
sors
sorse
sort
sorte
sortes
sorti
sortie
sortir
sortis
sos
sot
sotchi
sots
sou
souche
souchez
soucourt
soue
souffle
sougniye
souhait
souillu
soul
souldat
souldats
soulier
sound
sounds
souor
soupe
souper
source
sources
sourd
sourds
sous
sousa
soutenue
souterraine
souterrains
south
souty
souv
souvenances
souvenir
souvenirs
souvent
souverain
souviens
souvint
souvintefoe
sovie
sp
space
spache
spagnol
spaingne
spaingnol
spaingnols
span
spanne
spatial
spatiale
spatialisme
spatialistes
spatule
spe
special
species
spectacle
spectake
spectakes
spectaque
spielberg
spinus
spirit
spirituel
spirituels
sploe
sploitacion
sploite
splorateu
spoerli
sponsabe
sport
sportif
sportive
sportives
sports
spose
sposicion
sposicions
spp
spression
springfield
sprit
squ
square
sque
sr
sra
sri
srin
sro
sroait
sroe
sront
sry
ss
ssanche
ssaquaches
sse
sselle
sses
ssico
ssie
ssons
ssus
ssy
st
sta
stacion
stacions
stade
staires
stamint
stan
standard
stanislas
stanley
stant
staquet
star
stars
start
stat
state
states
station
statistica
statistiche
statistics
statistikes
statistique
statistiques
stats
statuaire
statue
statues
status
statut
staure
stchulpteu
stchulpteus
ste
steenvoorde
stefania
stella
stephen
sterna
sterne
steve
steven
steward
stewart
sti
stie
stiges
stile
stimpes
stique
stival
stivant
stivante
stock
stockage
stockholm
stone
stones
stonie
storck
storia
story
strait
straits
strasbourg
straye
stre
street
streptopelia
string
strix
structure
structures
stuaires
stubert
studies
studio
stuttgart
style
su
sub
subes
suboscines
subsp
succe
succession
sucche
succhession
sucre
sucrerie
sud
sudje
sudoc
sue
suel
sueur
suffit
sugata
sui
suicide
suire
suis
suisse
suit
suite
suites
suivant
suivantes
suivants
suivi
suivie
sujet
sujets
sulla
sully
sulpice
sultan
sultats
sum
sumako
sume
sung
suoaire
sup
supe
super
superfichie
supiche
supli
suplitchet
supple
supra
sur
sure
sureau
sureccion
surfache
suriname
surlonme
surnoms
suronin
surpitchet
surpitchets
surques
surre
surtout
sury
sus
susanne
sutton
suzanne
suze
svg
sweet
swi
swimrankings
swing
sword
sy
sydney
syinces
syinches
syintifike
sylabes
syllabe
sylvain
sylvatica
sylve
sylvestre
sylvestris
sylvia
sylvie
symbole
symphonie
symphony
syndicale
syndicalisse
syndicat
synte
synthe
syste
sz
sze
sœur
sœurs
t
ta
tabac
tabe
tabes
table
tableau
tableaux
tabli
tablie
tablir
tablissements
tablit
tache
tacion
taekwondo
tage
tahon
tai
taient
taiheiyo
tail
taille
tailleferre
tailly
tails
tain
taine
taing
taire
tais
tait
taiyo
takashi
take
taken
takes
takeshi
tal
talaupe
tale
tales
tallandier
talmar
talon
talpaert
tals
tambour
tambourin
tamis
tamps
tampz
tan
tanaka
tandis
tang
tango
tangs
tanie
tans
tant
tante
tanzanie
tape
tapes
tapisserie
tapisseries
tapisseriye
tapisseriyes
taples
taqueti
taraxacum
tard
tardieu
targette
tarte
tasse
tasses
tat
tatinghem
tatinghin
tats
tattegrain
tau
taunus
taux
taxon
taxons
taylor
tayons
tch
tchai
tchaingne
tchand
tche
tcheinne
tcher
tchestion
tcheu
tcheue
tcheur
tcheus
tchi
tchie
tchien
tchiens
tchilles
tchin
tchine
tchinoe
tchinze
tchiot
tchipe
tchipes
tcho
tchoeur
tchot
tchotchotte
tchote
tchots
tchottain
tchou
tchout
tchu
tchucq
tchuin
tchuir
tchuire
tchuisine
tchuite
tchuives
tchule
tchulte
tchultive
tchulture
tchulturel
tchure
tchute
tchœur
tchœurs
te
teau
teaux
technique
techniques
technologie
technologies
tei
teigne
teinne
teint
teknike
teknique
teknolodjie
tel
tela
telain
telet
tell
tellement
tellemint
tellenie
tellier
tels
tempe
temple
templeuve
tempo
temps
ten
tenant
tencourt
tend
tennessee
tennis
tent
tenu
teot
ter
terbourg
terme
termes
termine
ternite
ternois
ternoise
terra
terrain
terre
terres
terreur
terrible
terribles
terril
terrils
terris
territoe
territoire
territoires
territoriales
terroir
terry
terte
tertous
tertout
tertoute
tertoutes
terzoli
tes
teske
teskes
test
testament
testamint
tette
teu
teufe
teupe
teur
teurde
teut
text
texte
textes
textile
th
thai
that
the
theatre
thelle
thencourt
thennes
theobald
theodore
therdonne
therwane
theune
thibeau
thie
thiembronne
thierry
thieulain
thieuloye
thiot
this
thode
thodes
thoe
thoix
thomas
thonet
thorel
three
thulin
thun
thune
thymus
ti
tia
tiau
tibe
tibet
tibi
tica
ticion
ticions
tie
tien
tienne
tiennes
tiens
tient
tier
tierce
tierre
tiers
tieu
tieufe
tieuloy
tiger
tigny
tigre
tike
tikes
tilia
tille
tilleu
tilleul
tilleus
tilloloe
tillon
tilloy
tilly
tiloe
tilques
tim
timbe
timbo
time
timent
times
timint
timints
timpe
timplie
timplu
timps
timpu
tin
tincourt
tincques
tind
tinde
tindi
tindu
tindue
tingry
tinin
tinincourt
tins
tint
tinte
tintenfa
tintenfass
tintin
tinto
tiologie
tiologien
tiologiens
tiologike
tiot
tiote
tiotes
tiots
tiott
tipe
tipes
tipike
tique
tiques
tir
tire
tiremande
tirer
tiret
tis
tisje
tissage
tisse
tisser
tissus
tit
titanic
tite
tites
tition
title
titre
titres
tits
titulaire
titus
tmint
to
toai
toaiette
toait
toaitte
toc
tode
todes
toe
toette
toi
toile
toiles
tois
toison
toit
tojors
tojours
tokyo
tole
tom
tomas
tombe
tombeau
tomber
tombes
tome
tomes
tommy
ton
tondeur
toni
tonie
tonique
tonne
tonneau
tonnerre
tonnes
tonos
tons
tony
topkapı
toponymie
toquinho
tor
tora
torajiro
torchis
torchy
tordeuse
torino
tornai
torne
torner
tornoe
toronto
torre
tort
tortefontaine
tortequenne
tortue
tos
toscane
toscanne
toshiro
tot
total
totale
totalmint
tote
tots
tou
touche
toudi
toudis
toue
toujours
toul
toulouse
touot
touquet
tour
touraine
tourco
tourcoing
touret
tourisme
touristike
touristique
tourmont
tournai
tournaisien
tournaisienne
tournaisis
tournan
tournay
tourne
tournelle
tournoe
tours
tous
toussaint
tout
toutchet
toute
toutes
toutincourt
town
toy
tr
tra
trace
traces
trache
tracher
trachurus
trad
trade
tradicion
tradicionne
tradicionnel
tradicionnels
tradicions
tradition
traditionnelle
traditionniste
traditions
traduccion
traductieon
traduction
traduit
tradwit
trafe
trage
trai
train
trains
trait
traite
traitemint
traits
trale
tramecourt
tranche
trancourt
trange
tranger
trangers
tranlay
trannerie
trans
transcription
transept
transforme
transfrontalie
transicion
transloy
transport
transports
trape
trarca
travail
travaille
travailler
traval
travaux
trave
travers
traverse
tre
tree
treize
tremble
trente
tres
tresse
treu
treus
treuve
tri
tribu
tribunal
tribus
tricourt
trie
trier
triers
trimestre
trimestriel
trin
tringa
tringue
trinite
trinne
trinte
trio
tripe
triple
triptyque
trique
trise
tristan
triste
triticum
tro
troaite
troe
trofe
troglodytes
trois
troisie
trole
trombone
trompe
trompette
tronille
tronne
tronville
trop
tropicale
tropole
tropolitaine
tros
trospective
trot
trotteur
trou
troubadours
troube
troue
trouille
trouos
troupe
troupes
trouve
trouver
trouvoe
tru
truc
true
truit
truits
trusque
truve
truvoe
truvtte
ts
tsar
tsu
tt
tte
ttes
tu
tuba
tube
tubersent
tubize
tude
tudes
tudiants
tudie
tue
tuer
tulloy
tully
tumulus
tunis
tunisie
tunne
tunnel
tuo
turc
turcs
turdus
ture
tures
turin
turkewich
turkie
turnhout
turque
turquie
tus
tutta
tutte
tutti
tv
tvin
twat
twenty
twin
two
twois
ty
tymologique
type
types
typique
typographie
u
ude
uderzo
ue
uei
ufmg
ufr
uge
uicn
uis
uit
uk
ukrainian
ulb
ulm
ulmus
ulster
ultime
ultimo
ulysse
um
uma
umain
umainne
umains
umanime
ump
un
una
und
underground
undp
une
unesco
unhne
uni
unicode
unies
union
unique
uniquemint
unis
unit
unite
united
univ
univarse
univarsite
univers
universal
universalis
universel
universelle
universidade
universis
universita
universitaire
universitaires
universite
university
unn
unne
unnike
unnion
unnis
unnite
uns
uomo
up
upjv
upload
uploads
upon
urasie
urbain
urbaine
urchon
url
uro
urope
urquell
urss
ursus
uruguay
us
usa
usache
usage
usages
use
user
users
ushihara
usine
usines
ussi
ussir
ustache
ustinov
ut
uta
utc
utilise
uze
uzer
uzeus
v
va
vaast
vacances
vache
vacherand
vacquerie
vacqueriette
vague
vaillant
vaime
vainqueur
vaint
vaire
vake
vakes
val
valdese
vale
valencia
valencian
valenciana
valenciennes
valentin
valentine
valerius
valery
vales
valet
valeur
valeurs
valhuon
valinchie
valinchienne
valinchinne
valinciennes
valincyinne
valle
valley
valloe
vallon
valmore
valoe
valois
vals
valse
value
vamberchi
van
vancouver
vandewattyne
vandone
vanellus
vange
vangile
vangiles
vaniot
vanneaux
vanolande
vant
vapeur
vaque
vaques
vaquier
var
vare
vareinne
varese
variabes
variacions
variante
variantes
variation
variations
varie
varlet
varloe
varo
varsovie
vas
vase
vasincourt
vasion
vasseur
vast
vaste
vatche
vates
vatican
vau
vauban
vaudan
vaudeville
vaughan
vaulx
vaut
vaux
vavar
vave
ve
vecœur
vedette
vegas
veil
veille
veint
velet
veloppe
veloppement
veloppemint
velopper
velours
venant
venart
vendin
vendo
venezuela
vengeance
venise
vent
vente
ventre
vents
venu
ver
verbe
verdi
verdier
verdun
verdure
verger
verlag
verlaine
vermand
vermandois
verne
vernon
vero
verr
verre
verrier
vers
versailles
versant
version
versions
verso
vert
verte
vertes
vertou
verts
vertu
vertus
verve
verviers
ves
vestiges
veu
veuchelle
veut
veuve
veux
vexin
veyren
vi
via
viaduc
viamichelin
vian
vianne
viaus
viaux
vice
vicente
vices
vichy
vicomte
victimes
victoe
victoire
victor
victoric
victoue
vida
vidame
vide
video
vie
vieil
vieille
vieilles
vielle
vielles
viencourt
vienne
viennette
vienntte
viens
vient
vierche
vierches
vierge
vies
vietnam
vieu
vieux
view
vifs
vigne
vignes
vigneux
vii
viie
viii
viiie
vikings
viktor
vilache
vilaches
vilage
vilain
vile
vileneuve
viles
vill
villa
villache
villaches
village
villages
villancicos
villas
ville
villehardouin
villeneuve
villers
villes
villette
villon
vimeo
vimeu
vimeuse
vin
vincennes
vincent
vincente
vincenzo
vinci
vind
vinde
vindin
vindu
vinge
vingne
vingnes
vingt
vini
vinicius
vinme
vino
vins
vint
vinte
vintille
vints
viola
violeta
violette
violin
viollet
violon
violoncelle
vion
vir
vire
virgile
virginie
viromanduorum
vis
visage
visages
vise
vision
visions
visitacion
visite
visme
vismes
visse
vit
vita
vitasse
vite
vitesse
vitis
vitmint
vitrail
vitrals
vitraux
vitry
viu
viul
viule
viules
vius
viux
viv
viva
vivace
vivant
vivante
vivants
vivarais
vive
vivette
viviani
vivo
vivoait
vivoe
vivre
viye
vla
vlaanderen
vlc
vle
vlo
vlope
vloper
vlopmint
vnais
vnez
vnir
vnoait
vnoe
vnu
vnue
vnus
vo
vocabulaire
voce
vodie
voe
voi
voice
voie
voila
voile
voir
voisin
voisines
voisselle
voit
voix
vol
volant
volcan
volcans
vole
volet
voleurs
voleux
voloait
volonte
vols
voltaire
volte
voltes
voluchon
volucion
volue
volume
volumes
volution
volutionnaire
vom
von
vont
voor
voque
vos
vost
vostre
vot
vote
votes
votre
vou
voue
vouloe
voulu
vous
voute
vox
voyache
voyage
voyages
voyageur
voyageurs
voynet
vrai
vraie
vraigne
vraignes
vraimint
vre
vrerie
vres
vreux
vrie
vrier
vrin
vron
vtte
vu
vue
vues
vulfran
vulgare
vulgaris
vulpes
vus
vut
vv
vve
vy
vyinntte
vyint
w
wa
waast
wagne
wagner
waide
wailly
wal
walcir
wales
wall
waller
wallis
wallo
wallon
wallonie
wallonne
wallonnes
wallons
walon
walonne
walonnie
walons
walter
walther
waluzet
wambrechies
wames
wamin
wan
wandjniye
wandrille
want
war
warde
warder
wardrecques
warendin
warfuse
wargemont
wargnie
warlencourt
warlu
warlus
warneton
warneuton
warquignies
warre
wartburg
warte
wartie
wartier
wartiers
wary
was
washington
wasmes
wasmue
wast
watch
water
watieu
watkyne
watteeuw
wattrelos
wauquelin
wavans
wavrans
wavre
wavrin
way
we
web
weber
webtv
week
welsh
weppe
weppes
west
westhoek
weu
weyden
what
when
whisky
white
whitley
who
wicar
wichin
wicquiller
width
wien
wiers
wiesbaden
wikamote
wiki
wikibooks
wikime
wikimedia
wikipasdecalais
wikipe
wikipedia
wikiquote
wikisource
wikispecies
wikiversity
wiktionary
wilhelm
will
william
williams
willy
wimereux
wimil
wimille
wimraw
wincourt
wind
winme
winter
wirquin
wisconsin
wissant
with
wo
woe
wolf
wolfgang
woman
women
wood
woody
wordpress
work
works
world
worldcat
wp
wt
wu
wulmer
www
wycliffe
x
xare
xavier
xe
xent
xi
xico
xie
xii
xiie
xiii
xiiie
xiv
xive
xix
xixe
xl
xls
xv
xve
xvi
xvie
xvii
xviie
xviii
xviiie
xx
xxe
xxie
xxxvi
y
ya
yache
yage
yaint
yakuza
yal
yale
yamamoto
yann
yant
yardbird
yarra
yart
yasujiro
yate
yaume
ye
year
years
yel
yelle
yen
yenne
yer
yers
yes
yette
yeu
yeus
yeuse
yeux
yhwh
yi
yin
yincourt
yine
yinne
yins
yis
yisans
yiux
yn
yo
yojimbo
yon
yona
yonne
york
yoru
yoshimura
yoshinobu
yot
you
young
your
youtube
ys
ysagisse
ysans
yser
yu
yucourt
yude
yure
yvan
yvelines
yvert
yves
yvette
yvrin
yvrincheux
yzieux
z
za
zabelle
zaburo
zac
ze
zeca
zeff
zeit
zh
zhe
zho
zi
zie
zilinde
zin
zingue
zius
zo
zodiake
zoku
zola
zon
zone
zones
zoo
zoom
zoonomen
zorn
zos
zous
zrole
zu
zuave
zulma
zur
zurich
zus
zz
zzes
{
|
}
~
§
«
­
°
±
²
³
´
·
¹
º
»
×
æ
ø
đa
đo
ĳ
œ
œil
œuf
œufe
œuvre
œuvres
ɑ
ɔ
ɕ
ɖ
ə
ɛ
ɡ
ɥ
ɪ
ɰ
ɸ
ʂ
ʃ
ʈ
ʊ
ʌ
ʎ
ʐ
ʑ
ʒ
ʘ
ʰ
ʲ
ʷ
ʹ
ʼ
ʾ
ʿ
ˈ
ˌ
ː
ˑ
˦
˧
˨
̀
́
̂
̃
̄
̆
̇
̈
̉
̊
̋
̌
̓
̔
̕
̛
̜
̠
̣
̧
̨
̩
̪
̯
͂
͡
α
β
δ
ε
η
θ
ι
λ
ν
ο
π
ς
υ
χ
ϑ
а
в
и
у
ѽ
ָ
ֹ
א
י
ל
ؕ
ء
ا
ب
ة
ت
ث
ج
ح
خ
د
ذ
ر
ز
س
ش
ص
ض
ط
ظ
ع
غ
ف
ق
ل
م
ن
ه
و
َ
ِ
ّ
ٓ
ٔ
ٹ
پ
چ
ڈ
ڑ
ژ
ک
گ
ں
ھ
ی
ے
ݨ
य
श
ष
ा
ि
े
्
ั
ิ
ี
ุ
้
ັ
ິ
ີ
ຸ
ົ
‎
–
—
‘
’
“
”
†
•
…
′
″
⁡
€
ℨ
→
↔
↷
∑
−
∞
≃
≈
⋯
③
④
⑦
─
│
└
├
█
▲
◆
●
♦
♭
♯
⺀
⺄
⺆
⺈
⺊
⺌
⺕
⺝
⺸
⺼
⿰
⿱
⿲
⿳
⿴
⿵
⿶
⿷
⿸
⿹
⿺
⿻
、
。
々
〢
あ
い
う
え
お
か
き
く
け
こ
さ
し
す
せ
そ
た
ち
っ
つ
て
と
な
に
ぬ
ね
の
は
ひ
ふ
へ
ほ
ま
む
め
も
ゃ
や
ゆ
ょ
よ
ら
り
る
れ
ろ
わ
を
ん
゙
゚
ゝ
ィ
イ
ウ
オ
カ
ク
コ
サ
シ
ス
タ
テ
ト
ナ
ニ
ハ
ヒ
フ
ヘ
ホ
マ
ム
ヤ
ュ
ユ
ラ
リ
ル
ロ
ン
・
ー
㇁
㇂
㇄
㇇
㇈
㇉
㇓
㐁
㐄
㐅
㐌
㐫
㐬
㐭
㐮
㐱
㑒
㒵
㒸
㒼
㓁
㓞
㔾
㕛
㕣
㖾
㘝
㚅
㚇
㚔
㚘
㝉
㝡
㝴
㝵
㞋
㞢
㞷
㠩
㠭
㠯
㡀
㡭
㡿
㢲
㢴
㣇
㣺
㥯
㪅
㫄
㫐
㫒
㫺
㬅
㬎
㬥
㬰
㲋
㳄
㷠
㸒
㸚
㸦
㼌
㼲
㽞
㿟
䀠
䂞
䍃
䏍
䒑
䖍
䖒
䖝
䖵
䙴
䚻
䜌
䝿
䡛
䧹
䪞
一
丁
丂
七
丄
丅
丆
万
丈
三
上
下
丌
不
与
丏
丐
丑
专
且
丕
世
丘
丙
业
东
丞
丢
丣
两
严
並
丨
丩
个
丫
丬
中
丮
丰
丱
串
丵
丶
丷
丸
丹
为
主
丽
丿
乀
乂
乃
久
乆
乇
么
义
之
乌
乍
乎
乏
乐
乑
乔
乖
乗
乘
乙
乚
乛
乜
九
乞
也
习
乡
乳
乾
亀
亅
了
亇
予
争
事
二
亍
于
亏
亐
云
互
亓
五
井
亘
亚
亜
亞
亟
亠
亡
亢
交
亥
亦
产
亨
亩
享
京
亭
亮
亯
亰
亲
亳
亶
亷
人
亻
亼
亾
仁
今
介
仌
从
仐
仑
仒
仓
仕
他
付
仝
代
令
以
任
企
伊
伏
伐
休
会
伝
伯
但
位
体
何
佘
余
作
佥
使
來
侈
侌
侖
侯
侵
便
保
俞
信
修
俳
倉
倍
候
倠
健
備
僉
僕
優
儿
兀
允
兂
元
兄
充
兆
兇
先
光
兊
克
兌
免
兑
兒
兓
兔
党
兜
兟
入
全
兩
兪
八
公
六
兮
兰
共
关
兵
其
具
典
兹
兼
冀
冂
冃
冄
内
冈
冉
冊
冋
册
再
冎
冏
冐
冒
冓
冖
冗
冘
军
农
冝
冡
冥
冫
冬
冷
几
凡
凢
処
凵
凶
凷
凸
凹
出
函
凾
刀
刁
刂
刃
刄
刅
分
切
刍
刑
刕
刖
列
刘
则
初
別
利
别
到
制
刺
則
削
剌
前
剡
剽
劉
力
功
加
劦
助
劫
劳
労
劵
勃
勇
勉
勒
動
務
勝
勞
勤
勹
勺
勻
勾
勿
匀
匂
包
匆
匈
匊
匋
匍
匕
化
北
匚
匝
匡
匪
匱
匸
匹
区
医
匽
匿
區
十
卂
千
卄
卅
卆
升
午
卉
半
卌
华
卑
卒
卓
单
卖
南
卜
卝
卞
占
卡
卢
卣
卤
卦
卩
卪
卬
卯
印
危
即
却
卵
卷
卸
卻
厂
厃
厄
历
厈
厉
厌
厓
厘
厚
原
厤
厥
厨
厭
厲
厶
厷
厸
去
厼
厽
叀
参
參
叅
又
叉
及
友
双
反
叐
发
叒
叔
叕
取
受
叚
叜
叟
口
古
句
另
叩
只
召
可
台
叱
史
右
叵
号
司
叹
吂
各
吅
合
吉
吊
吋
同
名
后
吏
向
吕
君
吝
吞
否
含
启
吳
吴
吹
吾
呂
呆
呈
告
员
呙
周
命
咅
和
咎
咠
咢
咨
咸
咼
哀
品
哉
員
哥
哲
唄
唐
商
啇
問
啚
啬
啻
善
喜
喬
單
喿
嗇
噩
嚴
囊
囗
囘
囙
囚
四
回
囟
因
団
囧
囬
困
囱
囷
固
国
圂
圅
國
圍
圓
土
圡
圣
圥
在
圭
地
圶
圼
坊
坐
坒
坚
坴
垂
垔
垚
埀
埋
城
埶
執
基
堂
堅
堆
堇
堯
場
塞
墨
壘
士
壬
壯
声
壳
壴
壹
壺
壽
夂
处
夅
夆
备
夊
夋
夌
复
夏
夒
夕
外
夗
夘
多
夜
夢
大
夨
天
太
夫
夬
夭
央
失
夲
头
夷
夸
夹
夻
夾
奂
奄
奇
奈
奉
奎
奏
奐
契
奓
奔
奚
奞
奠
奢
奥
奭
女
奴
奻
好
如
妄
妖
妙
妟
妥
妹
妻
妾
姉
始
姑
委
姜
姿
威
娄
娘
娼
婁
婚
婴
嫁
嬢
嬰
嬴
子
孑
孔
孕
孖
字
存
孚
孛
孝
孟
季
孤
学
孫
孱
學
宀
宁
宂
它
宅
宇
守
安
宋
完
宏
宓
宗
官
定
宛
宜
宝
実
客
宣
室
宮
宰
害
家
容
宾
宿
寄
寅
密
富
寒
察
寧
審
寫
寬
寮
寸
对
寺
寻
寽
対
寿
封
尃
射
将
將
專
尉
尊
尋
尌
對
小
少
尒
尓
尔
尖
尗
尚
尞
尢
尣
尤
尧
尨
尭
就
尸
尹
尺
尻
尼
尽
尾
尿
局
居
屈
屋
屎
屏
屑
展
屖
屚
属
屠
屡
屬
屮
屯
屰
山
屵
屾
岁
岂
岑
岡
岩
岳
岸
峯
島
崇
崎
崑
崔
崖
崙
崩
嵬
嶲
巂
巛
川
州
巟
巠
巢
巤
工
左
巧
巨
巩
巫
差
己
已
巳
巴
巷
巸
巻
巽
巾
巿
帀
市
布
希
帚
帛
帝
带
師
席
帶
常
干
平
年
幵
并
幷
幸
幺
幻
幼
幽
幾
广
広
庄
床
底
店
庚
府
度
座
庫
庭
庶
康
庸
廉
廌
廛
廣
廩
廴
延
廷
建
廾
廿
开
弁
弃
弄
弇
弋
式
弓
弔
引
弗
弘
弜
弟
弥
弦
弱
張
強
强
彊
彌
彎
彐
彑
当
彔
录
彖
彗
彡
形
彥
彦
彧
彭
影
彳
役
彼
往
待
律
後
徒
得
徙
從
御
復
微
徵
心
忄
必
忌
忍
志
忝
忠
忩
快
念
忽
忿
思
怠
急
性
怪
怱
恆
恋
恒
恩
恭
息
悉
悟
患
悤
悪
悲
悶
情
惠
惡
惢
愁
愈
意
愛
感
慈
慧
慮
憂
憲
應
戀
戈
戉
戊
戋
戌
戍
戎
成
我
戒
戔
或
戚
戠
戢
截
戲
戶
户
戸
戹
戼
戾
房
所
扁
扇
手
扌
才
打
托
执
承
折
拉
拜
拳
拼
拿
掌
推
提
摩
支
攴
攵
收
攸
改
放
政
敄
敏
敕
敖
敗
教
敝
敞
敢
散
敦
敫
敬
数
敵
敷
數
斂
文
斉
斊
斗
斤
斥
斩
斬
斯
新
方
於
施
斿
旁
旅
旋
族
无
旡
既
旣
日
旦
旧
旨
早
旬
旱
旲
时
旾
昆
昇
昌
昍
明
昏
易
昔
昗
昜
星
映
春
昬
是
昱
昴
昷
時
晃
晋
晏
普
景
晴
晶
智
暁
暑
暴
曇
曩
曰
曲
曳
更
曷
書
曹
曼
曾
替
最
朁
會
月
有
朋
服
朔
朕
朗
望
朝
木
朩
未
末
本
札
朮
术
朱
朵
朶
朿
杀
杏
村
杜
束
条
来
東
杲
杳
松
析
林
枚
果
枝
枲
枼
某
染
柔
查
柬
柰
柴
栗
桀
桑
桼
梁
條
梟
梨
棘
棠
棥
森
椿
楚
業
極
楽
榮
様
樂
樊
欠
次
欣
欮
欲
欶
欽
款
歆
歇
歌
歛
止
正
此
步
武
歨
歪
歮
歯
歰
歲
歴
歷
歸
歹
歺
死
殳
段
殷
殸
殹
殺
殻
殿
毋
毌
母
每
毒
比
毕
毚
毛
毳
毽
氏
氐
民
气
気
氣
水
氵
氶
氷
永
氺
氾
求
汝
汞
江
池
沃
沓
沙
沝
沢
泉
法
波
泣
泥
泰
洋
洛
津
洪
活
派
流
浦
浪
浮
海
淡
淮
清
渚
渠
渡
游
湯
溝
滿
漸
澤
澳
激
火
灬
灭
灰
灵
灷
炅
炎
炏
炗
炙
炭
為
烈
烏
烝
焉
無
焦
焱
然
煙
煞
熊
熏
燕
營
燮
爪
爫
爭
爯
爰
爱
爲
爵
父
爻
爽
爾
爿
片
牙
牚
牛
牜
牟
牢
牧
物
牪
牽
犀
犬
犭
犮
狂
狄
狊
独
狺
猋
猒
猪
猫
献
獅
獻
玄
率
玉
王
玟
玨
玻
珎
班
琴
瑟
瑩
璃
瓜
瓦
甘
甚
生
産
用
甫
甬
田
由
甲
申
电
甶
男
甸
甹
画
甾
畀
界
畏
畐
留
畜
畟
畢
畧
畨
番
畫
異
畱
當
畺
畾
疊
疋
疌
疑
疒
疾
癶
癸
癹
発
登
發
白
百
皀
皃
的
皆
皇
皋
皐
皕
皮
皷
皿
盃
盆
盇
盈
益
盍
盎
监
盒
盖
盛
盡
監
盤
盧
目
直
相
盾
省
眇
眉
看
眔
眞
真
眷
眼
眾
着
睘
睪
睿
瞏
瞢
瞿
矍
矛
矞
矢
矣
知
矦
短
石
砂
破
碎
碧
磊
磨
示
礻
礼
神
祟
票
祭
禀
禁
禸
禹
禺
离
禽
禾
禿
秀
私
秃
秉
秋
科
秝
秦
移
稟
穀
穌
穴
究
穹
空
穿
突
窄
窒
立
竒
竜
竝
竟
章
童
竹
笑
笠
第
筆
等
答
箕
算
箴
節
篇
篤
篭
籠
米
粉
粛
粟
粤
粦
粲
糞
糸
糹
系
約
紅
納
素
索
紫
累
細
結
絜
絫
絲
絹
続
維
綿
線
編
縣
繇
纍
纟
缶
网
罒
罔
罕
罗
罙
罡
罢
罪
署
罷
羅
羊
羌
羍
美
羔
羕
羗
羞
羡
羣
群
義
羲
羸
羽
翁
翏
習
翕
翟
翠
翼
老
耂
考
者
耆
而
耎
耑
耒
耳
耴
耶
耷
聂
聊
聖
聚
聶
聿
肀
肃
肅
肉
肖
肙
肥
肩
肯
育
肴
胃
背
胡
胥
能
脊
脩
膚
臣
臤
臧
自
臬
臭
臯
臱
至
致
臺
臼
臽
臾
臿
舀
舂
舄
與
興
舉
舌
舍
舛
舜
舞
舟
般
船
艮
良
色
艸
艹
艾
芒
芔
芬
芭
芮
花
芳
芺
芻
苔
苗
苟
若
苦
英
茶
茸
荅
草
荒
荣
荼
莆
莧
莫
莽
菆
菊
菐
華
萬
落
葉
著
葛
董
葵
蒙
蒦
蒼
蓋
蓬
蓺
蔑
蔡
蔵
蕉
蕭
薄
薛
薦
薰
藍
藏
藥
蘭
虍
虎
虐
虒
虔
處
虖
虗
虘
虚
虛
虜
虞
虫
虽
蚤
蚩
蛙
蜀
蜜
蟲
蠡
血
行
衍
街
衛
衣
衤
表
衮
衰
袁
袞
裁
褭
褱
襄
襾
西
覀
要
覃
見
規
覓
覚
覧
親
覽
见
角
解
言
訁
訇
計
記
詹
語
誩
談
諸
讠
语
谷
豆
豈
豊
豐
豕
豖
豙
象
豦
豩
豪
豸
貇
貝
貞
貟
負
貢
貧
貪
貫
責
貳
貴
買
費
賁
資
賈
賏
賓
賔
賛
賞
賢
賣
質
賴
贊
贝
贡
责
贯
贲
贵
赖
赞
赤
赦
走
越
足
路
踢
蹇
身
躬
車
軍
軎
軒
軟
転
輝
輦
车
辛
辜
辟
辥
辰
辱
農
辵
辶
边
込
达
过
近
连
迷
追
退
送
逆
逐
通
速
造
逢
連
逮
進
遀
遂
遊
過
道
達
遠
遣
適
遷
遺
邊
邑
邕
那
邦
邨
邪
郎
部
郭
郷
都
鄉
酉
酋
配
酓
釆
采
里
重
野
量
金
釒
鉄
銀
錢
録
钅
長
镸
长
門
閃
閉
開
閏
閑
閒
間
閔
閵
閻
闌
闘
门
间
闷
阑
阜
阝
阿
降
陣
陳
陸
陽
隆
隊
隋
隠
隡
隨
隱
隶
隹
隺
隻
隼
隽
难
雀
雁
雄
集
雈
雋
雍
雐
雑
雔
雙
雚
雜
雝
離
難
雨
雩
雪
雲
零
雷
需
霍
霜
霝
霞
霸
靈
靑
青
非
靡
面
靣
革
韋
韓
韦
韭
韯
韱
音
頁
頃
項
須
頗
頡
頭
頻
顛
页
風
风
飛
飞
食
飠
養
館
饣
首
香
馬
馮
駦
马
骨
高
髟
鬥
鬯
鬲
鬼
魔
魚
魯
鮮
鱼
鲁
鳥
鳳
鸟
鹵
鹿
麃
麗
麥
麦
麻
黃
黄
黍
黎
黑
黒
黨
黹
黽
黾
鼎
鼓
鼠
鼻
齊
齋
齐
齒
齿
龍
龙
龜
龟
龠
龰
龱
龴
龵
龶
龷
龸
龹
ꞩ
者
艹
ﬆ
ﻥ
﻿
（
）
：
？
ｃ
ｆ
𐌄
𐌅
𐌉
𐌊
𐌋
𐌍
𐌏
𐌑
𐌔
𐌖
𐌗
𐌙
𝔄
𝔞
𝔷
𠀁
𠀃
𠀆
𠀉
𠀎
𠀐
𠁁
𠁣
𠂆
𠂇
𠂈
𠂉
𠂊
𠂋
𠂎
𠂒
𠂔
𠂛
𠂡
𠂢
𠂤
𠂬
𠂭
𠂹
𠃊
𠃋
𠃌
𠃍
𠃎
𠃑
𠃓
𠃔
𠃜
𠄌
𠄎
𠄠
𠄢
𠆢
𠆥
𠇍
𠈌
𠌵
𠓜
𠔉
𠔥
𠔼
𠔽
𠔿
𠕀
𠕁
𠕋
𠘧
𠘨
𠙻
𠙼
𠚏
𠚒
𠚤
𠚪
𠣏
𠤎
𠤕
𠥓
𠦄
𠦑
𠦝
𠧒
𠧗
𠧪
𠩺
𠪚
𠫓
𠫔
𠫤
𠬛
𠬝
𠬞
𠬢
𠬤
𠬶
𠮛
𠮦
𠮷
𠯑
𠱠
𠳮
𠷎
𡈼
𡉀
𡉵
𡌥
𡍮
𡏳
𡕒
𡕩
𡕰
𡖅
𡗗
𡗜
𡘆
𡘤
𡧱
𡨄
𡩧
𡬠
𡭽
𡰣
𡰥
𡰪
𡰯
𡰱
𡷈
𡸁
𡿨
𡿩
𡿪
𡿺
𢀖
𢀛
𢀩
𢁙
𢆉
𢆰
𢆶
𢇁
𢇇
𢉖
𢌬
𢌿
𢏚
𢑑
𢑚
𢖻
𢙣
𢛳
𢦏
𢦒
𢧵
𢼄
𢾕
𣁋
𣄼
𣅀
𣅽
𣍘
𣎳
𣎵
𣏋
𣏼
𣗥
𣥂
𣥖
𣦵
𣦼
𣧄
𣪊
𣪠
𣬉
𣳾
𣶒
𤇾
𤊽
𤐫
𤓰
𤔔
𤕨
𤣩
𤰇
𤰔
𤰞
𤴓
𤴔
𤽄
𥁑
𥁕
𥃦
𥃩
𥃭
𥇡
𥑟
𥘅
𥘈
𥝢
𥫗
𥱡
𦈢
𦉪
𦉬
𦉼
𦍌
𦍒
𦎧
𦐇
𦓔
𦔮
𦘒
𦙃
𦚏
𦣝
𦣞
𦣻
𦥑
𦥔
𦥯
𦨉
𦭝
𦰩
𧆞
𧈧
𧘇
𧰨
𧴪
𧴮
𧵩
𧾷
𨸏
𨾴
𩙿
𩠐
𩫏
𩵋
𪉷
𪜀
𪟽
𪠲
𪩲
𫇦
𫔭
𫜸
𫝀
𫠣
𫠩
𫢉
𫥞
𫩏
𫩠
𫪡
𫲽
𫶧
𬀷
𬐘
𬗌
𬙙
𬛸
𬜯
𬟩
𬯁
𬴘
𬺻
𬼉
𬼖
𭀰
𭁈
𭁨
𭅰
𭑈
𭕄
𭗼
𭤨
𭥫
𭻾
𮅕
𮊿
𮍌
𮍏
𮓗
𮥼
𮧮
廾
𰀁
𰀄
𰀈
𰀉
𰀕
𰀠
𰀡
𰀢
𰀪
𰁜
𰃮
𰆊
𰆘
𰋙
𰕎
𰢴
𰧭
𰯲
00--
01--
02--
03--
04--
05--
06--
07--
08--
09--
13--
14--
15--
16--
26--
27--
29139--
34--
363--
37--
40--
47--
48--
50--
58--
61--
62--
63--
64--
65--
66--
69--
70--
71--
72--
73--
74--
75--
76--
77--
78--
79--
80--
81--
82--
84--
85--
86--
87--
88--
89--
90--
91--
92--
93--
94--
95--
96--
978--
a--
aa--
ab--
abe--
abi--
abu--
ac--
acci--
ach--
ache--
acq--
act--
activ--
acu--
ad--
adria--
ae--
aegith--
aff--
ago--
agri--
ai--
ain--
aka--
al--
ale--
ali--
all--
alo--
als--
am--
ama--
ame--
ami--
an--
ana--
and--
ang--
annon--
ans--
ant--
ap--
app--
appol--
ar--
arbr--
arc--
archi--
ard--
arli--
arn--
art--
artou--
as--
assas--
astro--
at--
ate--
atta--
atu--
au--
aube--
auln--
aus--
aut--
auto--
av--
ay--
b--
ba--
bac--
bai--
baing--
bal--
bar--
bas--
base--
bat--
bau--
be--
beau--
bec--
bel--
belle--
ben--
ber--
bern--
beu--
bi--
biau--
bib--
bie--
bien--
big--
bin--
bio--
bis--
ble--
bo--
bob--
bocc--
bois--
bom--
bombar--
bomp--
bon--
bot--
bou--
bour--
bout--
bouve--
boy--
br--
bra--
bran--
bre--
bri--
brit--
bro--
broc--
brou--
bru--
bu--
bus--
but--
by--
c--
ca--
caba--
cad--
cai--
cal--
cam--
cama--
camp--
can--
canna--
cap--
car--
cas--
cat--
catal--
cau--
caval--
cave--
ce--
cele--
cend--
cep--
ces--
ceu--
ch--
cha--
chan--
che--
chel--
chen--
cher--
chi--
chiru--
chit--
chl--
cho--
chon--
chou--
chron--
chry--
ci--
circu--
cit--
ciu--
cl--
cle--
clo--
cm--
co--
col--
colle--
com--
comm--
comp--
con--
confi--
conm--
constru--
cop--
cor--
corbe--
cornou--
corres--
corte--
cos--
coslo--
cot--
cou--
cra--
cre--
creu--
cri--
cro--
crois--
cru--
ct--
cu--
cui--
cul--
cuve--
cy--
cyan--
cz--
d--
da--
dago--
dal--
dan--
dau--
dauter--
de--
del--
dela--
dele--
dem--
den--
der--
des--
deuts--
dge--
di--
dia--
die--
difi--
digi--
dimen--
din--
diri--
dis--
disci--
discipl--
disco--
dist--
dit--
div--
dja--
dje--
dji--
dju--
do--
doc--
dom--
dor--
dou--
dr--
dre--
dro--
dru--
drum--
du--
duc--
dur--
dz--
e--
ec--
econ--
ed--
eff--
egzi--
ei--
ein--
ek--
el--
ele--
em--
emi--
en--
ence--
eng--
enlu--
ep--
er--
es--
esco--
esculpt--
espe--
ess--
est--
estaim--
estchulp--
et--
eu--
eury--
eve--
ex--
expl--
expli--
f--
fa--
fabri--
fac--
fai--
familia--
far--
fau--
fe--
feder--
fer--
feu--
ff--
fi--
fie--
fil--
fin--
fisi--
fl--
fla--
flor--
flu--
fo--
fog--
fon--
for--
fos--
fou--
four--
fr--
fra--
fre--
free--
fri--
fring--
fro--
fu--
fus--
g--
ga--
gai--
gal--
gam--
gar--
ge--
gen--
gend--
gene--
geo--
geoff--
ger--
german--
gi--
gian--
gin--
gind--
giu--
gla--
gle--
glo--
go--
goc--
god--
gou--
gr--
gra--
grafi--
gran--
gre--
gri--
grimp--
grin--
gru--
gu--
gue--
gueu--
gui--
guy--
gy--
h--
ha--
hab--
hagi--
hai--
ham--
han--
happ--
har--
has--
haut--
haute--
he--
hen--
her--
herb--
heute--
hi--
hin--
ho--
hom--
hon--
hosp--
hot--
hou--
hu--
hy--
hydro--
i--
id--
il--
illus--
im--
ima--
imp--
in--
inaugu--
inc--
inch--
inclu--
incu--
ind--
indi--
individue--
indomp--
ing--
inlu--
inn--
inonda--
ins--
instru--
insu--
inter--
inut--
inv--
io--
ir--
is--
iso--
ist--
it--
iv--
j--
ja--
jan--
je--
ji--
jo--
jon--
jor--
jou--
ju--
k--
ka--
kan--
ke--
ker--
ki--
kin--
ko--
ku--
kval--
l--
la--
labou--
lac--
lae--
lai--
lam--
lamou--
lan--
las--
lat--
lau--
lava--
le--
lec--
lectri--
len--
leo--
les--
let--
leu--
ley--
li--
lie--
lim--
lin--
lipni--
lit--
litho--
litte--
lo--
locu--
loge--
logi--
lon--
long--
lot--
lou--
loy--
lrin--
lu--
luc--
lum--
lus--
ly--
lz--
m--
ma--
mac--
mag--
mai--
main--
majus--
mal--
man--
manage--
manif--
mar--
mari--
mas--
mat--
mato--
mau--
maxim--
may--
me--
mel--
men--
mer--
mes--
meu--
mi--
mid--
mil--
min--
mint--
minus--
mio--
mira--
mit--
mo--
moc--
modifica--
moi--
mois--
mol--
mon--
mont--
monte--
mor--
mos--
mot--
mou--
mout--
mu--
multi--
mus--
music--
my--
myrt--
n--
na--
naiss--
nat--
nau--
navi--
nd--
ne--
neder--
nes--
neu--
ni--
nie--
nig--
nin--
nishi--
nn--
no--
nom--
non--
nor--
nos--
not--
nou--
nov--
ns--
nt--
nu--
num--
nuo--
ny--
o--
ob--
obe--
obli--
obscu--
oc--
of--
off--
oh--
ok--
ol--
olli--
oly--
om--
on--
ont--
op--
open--
or--
ordin--
ore--
org--
organ--
organis--
ori--
orne--
ornith--
orto--
os--
ot--
ou--
oui--
out--
ouv--
ouve--
p--
pa--
pai--
pal--
pan--
par--
para--
pars--
pas--
pata--
patri--
patrio--
pay--
pe--
pen--
per--
peu--
ph--
phas--
philoso--
philosophi--
pi--
pic--
pie--
pin--
pind--
pint--
pis--
pl--
pla--
plan--
play--
ple--
pleu--
po--
poe--
poit--
pol--
pomp--
pont--
pop--
por--
port--
pot--
pou--
pour--
pr--
pre--
priv--
pro--
probable--
pru--
psy--
pu--
pub--
pul--
pun--
pur--
q--
qhu--
qua--
quali--
que--
quenou--
quer--
qui--
r--
ra--
rading--
radio--
raff--
rai--
ral--
ram--
ramintu--
ran--
rar--
ras--
rat--
rau--
rb--
rba--
rbu--
rc--
rcu--
rd--
rdu--
re--
rec--
red--
ref--
rei--
rein--
reli--
remp--
ren--
res--
ret--
reu--
rg--
ri--
rif--
rimp--
rin--
rir--
ris--
rit--
rix--
rj--
rn--
rna--
rnou--
ro--
rodri--
roman--
ron--
ros--
rot--
rou--
rs--
rt--
ru--
rus--
rve--
ry--
s--
sa--
sab--
sac--
sal--
sallaum--
san--
sar--
sara--
satu--
sau--
sc--
scand--
sce--
sch--
schi--
scul--
se--
sec--
sei--
sel--
sept--
septin--
ser--
ses--
seu--
seur--
sha--
she--
shi--
si--
sibi--
sici--
sign--
signifi--
sil--
sin--
sint--
sis--
situ--
siv--
sk--
slo--
sn--
so--
socio--
soi--
sol--
son--
sor--
sou--
souv--
sp--
spos--
ss--
ssu--
st--
sta--
stchulp--
ste--
stra--
stu--
su--
sub--
sui--
sum--
sun--
sup--
suppr--
sur--
sy--
syl--
t--
ta--
tai--
taka--
tal--
tan--
tanz--
tard--
tas--
taver--
tch--
tchu--
te--
tent--
ter--
termin--
tes--
th--
the--
theo--
thio--
thu--
ti--
tie--
til--
tim--
tin--
tir--
tit--
to--
toi--
tom--
ton--
topo--
tor--
tos--
tou--
tour--
tra--
tradu--
trans--
trapp--
tre--
tres--
treu--
tri--
trin--
tro--
trou--
tru--
tsu--
tu--
ty--
tymolo--
tyran--
u--
ue--
uk--
ul--
um--
un--
uni--
up--
urba--
uro--
us--
ut--
v--
va--
vaga--
val--
van--
vanda--
var--
vare--
vas--
vau--
ve--
vend--
ver--
verna--
ves--
veu--
vexilo--
vi--
vir--
vis--
vit--
viv--
vo--
voi--
vol--
volont--
vou--
vu--
vy--
w--
wa--
wal--
war--
we--
web--
west--
wi--
wid--
wiki--
wil--
win--
wis--
wit--
wo--
wood--
wu--
x--
xx--
y--
ya--
yal--
yo--
ys--
yu--
z--
za--
ze--
zin--
zo--
ł--
œ--
κα--
λ--
ν--
ο--
π--
ρ--
ا--
--0
--1
--11
--111
--1111
--11111
--2
--22
--222
--222222
--27777778
--3
--33
--333
--3333
--33333
--38888889
--3888889
--4
--4444
--44444
--4444444
--5
--55555556
--5555556
--555556
--55556
--5556
--56
--6
--66666667
--6666667
--66667
--6667
--7
--7778
--78
--8
--88888889
--8888889
--88889
--8889
--9
--94444444
--a
--able
--ac
--ace
--ache
--ad
--ade
--ado
--ae
--age
--ah
--ai
--aigne
--ail
--ain
--aine
--aingne
--aint
--aire
--ais
--ait
--al
--ale
--alus
--am
--ama
--an
--ana
--anc
--and
--angne
--ani
--anne
--ano
--ans
--ant
--ante
--anum
--anus
--ar
--ard
--ari
--art
--as
--ase
--asia
--at
--ata
--ate
--ati
--ature
--atus
--au
--aud
--aux
--ax
--ay
--b
--ba
--ban
--be
--bi
--ble
--bo
--bs
--bu
--burg
--by
--c
--ca
--ccion
--ce
--ceau
--ces
--ch
--chau
--che
--chi
--chipe
--chy
--ci
--cio
--cion
--ck
--cle
--co
--court
--cq
--cs
--cte
--ctives
--cy
--d
--da
--dad
--dae
--dage
--dain
--dan
--dart
--de
--des
--df
--di
--dia
--die
--do
--ds
--dt
--du
--dy
--e
--ea
--eau
--ed
--eg
--el
--elet
--elli
--em
--emint
--en
--ence
--ent
--eo
--er
--era
--ere
--erie
--erre
--ers
--ert
--es
--est
--et
--ette
--eu
--eur
--eus
--ez
--f
--fay
--fe
--ffe
--ffes
--ffre
--fia
--fie
--fike
--fort
--ft
--g
--ga
--ge
--ger
--ggio
--gh
--ghem
--ghin
--ght
--gi
--gie
--gike
--gium
--gne
--go
--gon
--gs
--gt
--gton
--gu
--gus
--h
--ha
--he
--hem
--hen
--hi
--hia
--hie
--hiki
--hioe
--hip
--hm
--hn
--ho
--hol
--ht
--hus
--i
--ia
--ial
--iale
--ian
--ianus
--iau
--ic
--ica
--icacion
--iche
--ico
--id
--ida
--idae
--ide
--ie
--ien
--ienne
--iens
--ient
--ier
--iers
--ies
--ieux
--iez
--if
--ife
--ification
--ifs
--ige
--ignies
--igny
--igo
--ii
--iidae
--ike
--ikes
--il
--ile
--illon
--im
--ime
--in
--ina
--ince
--incourt
--ine
--ines
--ing
--ini
--ino
--ins
--int
--inte
--ints
--io
--ion
--ions
--ios
--iot
--ipe
--ique
--ir
--ire
--is
--ise
--isme
--isse
--issy
--ista
--iste
--it
--ita
--ite
--ites
--ition
--iture
--ity
--iu
--ium
--ius
--ivite
--ix
--iz
--j
--ji
--jo
--ju
--k
--ka
--kai
--kay
--ke
--kes
--ki
--ko
--ku
--ky
--l
--la
--las
--lay
--ld
--le
--les
--let
--leux
--ley
--lf
--lha
--li
--lie
--lier
--lieu
--lin
--lis
--listes
--lit
--liye
--ll
--lla
--lle
--lles
--llier
--llo
--llon
--llou
--lly
--lo
--loe
--logike
--logy
--lois
--lon
--lot
--lpte
--ls
--lt
--lu
--lus
--ly
--m
--ma
--macion
--man
--mbert
--me
--ment
--ments
--mes
--mi
--mint
--mis
--mo
--mon
--mont
--mpe
--ms
--mus
--my
--n
--na
--naire
--nal
--nale
--nari
--nas
--nato
--nay
--nc
--nce
--ncer
--nces
--ncy
--nd
--nde
--ndre
--ndrez
--ne
--nel
--nelle
--nels
--nemint
--ner
--nes
--net
--neu
--neus
--ng
--ngne
--ngt
--ni
--nie
--nier
--nime
--nir
--nisse
--nit
--nix
--nna
--nne
--nnes
--nnoe
--no
--noe
--ns
--nsis
--nt
--nte
--nts
--nu
--nus
--ny
--o
--oai
--oait
--ody
--oe
--oi
--oin
--oir
--ois
--oit
--oke
--ol
--ole
--oli
--olle
--olo
--omagus
--on
--one
--oni
--ons
--or
--ori
--oriale
--orius
--ory
--os
--ot
--ote
--ots
--otte
--ou
--oue
--our
--ourt
--ous
--ox
--oy
--oyd
--p
--pa
--pcion
--pe
--peau
--pes
--phy
--pin
--po
--ps
--pte
--pus
--q
--qhu
--qu
--que
--r
--ra
--ratura
--rault
--rc
--rd
--re
--reau
--rel
--res
--rg
--rgh
--ri
--ria
--ribution
--ridae
--rie
--rix
--rl
--rm
--rn
--rnance
--rne
--ro
--ron
--roy
--rp
--rre
--rs
--rse
--rt
--rte
--ru
--rum
--ry
--s
--sa
--sance
--sburg
--sco
--scourt
--se
--ses
--set
--sh
--shi
--shika
--si
--sia
--sis
--sius
--ski
--sle
--sne
--so
--son
--soy
--ss
--ssa
--sse
--sseur
--ssion
--sson
--st
--ste
--ston
--su
--sy
--t
--ta
--tant
--te
--ter
--terie
--tes
--teu
--th
--thus
--ti
--tice
--tie
--tif
--tige
--tine
--tion
--tive
--to
--toir
--ton
--tre
--try
--ts
--tt
--tta
--tte
--ttes
--tti
--tu
--tz
--u
--ua
--ud
--ue
--uel
--ues
--uf
--ui
--uil
--uin
--uke
--ul
--ula
--ule
--ult
--um
--ume
--un
--une
--uo
--up
--ur
--ure
--ures
--uridae
--urs
--urt
--us
--use
--uses
--ut
--ute
--utus
--ux
--v
--va
--val
--ve
--ven
--ver
--ves
--vie
--vo
--w
--wa
--we
--wi
--wick
--wn
--x
--xion
--y
--ya
--yck
--ye
--yle
--yo
--ys
--z
--za
--ze
--zer
--zi
--zione
--zo
--zu
--zzo
--æ
--α
--ς
--υ
--م
