!
"
#
##0
##1
##10
##11
##12
##13
##14
##15
##16
##17
##18
##19
##2
##20
##21
##22
##23
##24
##25
##26
##27
##28
##29
##3
##30
##31
##32
##33
##34
##35
##36
##37
##38
##39
##4
##40
##41
##42
##43
##44
##45
##46
##47
##48
##49
##5
##50
##51
##52
##53
##54
##55
##56
##57
##58
##59
##6
##60
##61
##62
##63
##64
##65
##66
##67
##68
##69
##7
##70
##71
##72
##73
##74
##75
##76
##77
##78
##79
##8
##80
##81
##82
##83
##84
##85
##86
##87
##88
##89
##9
##90
##91
##92
##93
##94
##95
##96
##97
##98
##99
$
%
&
'
(
)
*
,
-
.
/
0
00
000
1
10
100
11
12
13
14
15
16
17
18
1852
1864
1876
1879
19
1900
1906
1907
1912
1921
1924
1928
1930
1933
1934
1937
1941
1949
1950
1951
1952
1953
1956
1958
1959
1960
1961
1963
1964
1965
1966
1968
1969
1970
1971
1972
1973
1974
1975
1976
1977
1978
1979
1980
1981
1982
1983
1984
1985
1986
1987
1988
1989
1990
1991
1992
1993
1994
1995
1996
1997
1998
1999
2
20
200
2000
2001
2002
2003
2004
2005
2006
2007
2008
2009
2010
2011
2012
2013
2014
2015
2016
2017
2018
2019
2020
2021
2022
21
22
23
24
25
26
27
28
29
3
30
31
32
34
4
40
400
45
5
50
53
6
7
8
84
9
978
:
;
<
=
?
[
]
_
a
aberta
abitibi
ac
accueil
aci
acikan
acit
acitc
acotinikatew
actakaniwok
actakaniwon
actakiniwok
actakiniwon
actatc
actaw
acte
actek
acteki
acterik
acteriw
actew
actotin
actualite
ade
afin
agathe
aiamihaw
aiamihe
aiamihewin
aiapew
aiatcitc
aicatc
aicaw
aicinakoki
aicinakon
aicinakono
aicinakosiw
aicinikasoritci
aicinikateki
aimihe
ais
aistakok
aistakoki
aitatc
aititosketc
aitotak
aitotam
aka
akamik
akimaskw
akokatcic
akokisikan
akopisotc
akosi
akosikamikokw
akositc
akositcik
akosiw
akosiwikamikok
akosiwikamikokw
akosiwin
akosiwiniw
akotaniwon
akotitakaniwon
akso
al
alanis
albert
alberta
alice
alisatrice
aller
ame
ametc
amiskw
amiskwa
amos
anaha
anahawe
anahwe
anawe
and
andre
anehi
ange
ani
anicinape
aniha
anihe
aniheriw
anihi
anihowe
anihwe
aniki
anne
annie
anohe
anohwe
anotc
anowe
ans
antoine
aou
apatak
apatan
apatcitakaniwok
apatcitatc
apatcitatcik
apatcitaw
apatcitawok
apatisitc
apatisiw
apicacik
apicacin
apicicitc
apicicitcik
apiciciw
apikocica
apiritci
apita
apitak
apitan
apitc
apitcihakaniwitc
apitcihatc
apitcik
apitcitakaniwok
apitcitakiniwok
apitcitakiniwon
apitcitapanak
apitcitatc
apitcitatcik
apitcitaw
apitisitc
apitisiw
apiw
apowi
arakaniwitc
arakaniwiw
aric
arikic
arikica
arimanik
arimatc
arimomakaniwitc
arimomakaniwiw
arimomatc
arimotak
arimotam
arimotcikatek
arimotcikatew
arimowetc
arimowetcik
arimowewin
arimowewiniw
arimwetc
arimwetcik
arimwewin
arimwewiniw
aripi
armatc
arotc
arotcikotc
arowepinaniwok
art
article
articles
arts
asam
asama
asini
asinik
asiniwa
asitatisitc
aska
aski
askik
askikw
askiriw
asko
askowi
aspin
aspinikotc
assemble
assiniwi
assomption
ata
atamik
atamipekok
atampekok
atawe
atcita
atcitcamoc
athanase
atikamekok
atikamekw
atikamekwa
atikw
atimw
ation
atisokan
atisokana
atisokanik
atisokaniw
atisoketc
atisokew
atita
atoskaniwok
atoskaniwon
atoske
atosketc
atosketcik
au
autochtone
autochtones
autres
aux
avec
avoir
avril
awaca
awacak
awacamec
awaci
awacic
awaciwiritci
awaciwitc
awacmec
awashish
awesis
awesisa
awesisak
awesisik
awia
awik
awikak
awiketc
awin
awiriw
awiriwa
awocamec
awokan
b
baie
band
baptiste
barrage
basile
bay
be
bear
beauce
beaupre
bec
bellemare
benoit
bernard
bien
black
blainville
boivin
boucher
britannique
c
ca
cakitato
cakitoto
cakotc
cakweciw
canada
candidatures
cap
capetciwotakanik
carleton
carol
carte
cartes
cartier
catherine
cawonok
cbc
ce
cecoc
cembre
cenikatek
cenikatew
centre
cesar
cha
chachai
chaleurs
charles
chatham
christian
christine
ci
cicikw
cicip
cigwic
cikakw
cikopi
cikopik
cikwic
cile
cits
ciwominan
ciwotakan
claire
clark
claude
cle
cliquez
cna
co
cocotesi
code
cole
collection
colombie
com
comeau
comment
commission
commons
compte
comte
concours
connaissance
conseil
constance
constant
convention
coocoo
cook
coria
coriariw
coriet
cosse
court
cowatc
cowemin
cre
cri
cris
cta
culture
d
dam
dame
daniel
dans
david
de
demandes
denise
des
devoir
dia
die
dit
dition
dominique
dossiers
du
dube
e
east
echaquan
eci
ecinakok
ecinakonik
ecinakositc
eckwa
edmond
edmonton
ehe
eka
eki
eko
ekoci
ekoni
ekota
ekotca
ekote
elisabeth
emitcikoci
emitcikocic
emitcikocicak
emitcokocic
emitikociwi
emma
emtcikocicak
en
encyclope
enko
enkon
enkoweriw
enkweriw
epa
epe
epitc
epomci
epowamici
epwamci
epwamici
epwamoci
er
erikam
ernest
erotc
erowek
es
esko
espaces
est
estakok
estelle
et
etca
etcakwan
eva
ewi
expe
f
facebook
fadden
faire
falls
farnham
fe
festival
film
first
flamand
florent
fondation
fontaine
fort
fr
franc
francis
francophone
g
gabriel
gaspe
ge
genevie
george
georges
ghislain
gilles
grand
grande
grands
groupe
h
ha
haut
henri
henriette
herold
high
hills
hockey
https
hudson
i
ia
ica
icanano
icaniwok
icaritci
icatc
icatcik
icaw
icawok
ici
icinakok
icinakoki
icinakon
icinakonik
icinakoniw
icinakosiritci
icinakositc
icinakositcik
icinakosiw
icinakosiwok
icinikaso
icinikasoriwa
icinikasotc
icinikasotcik
icinikatakaniwitc
icinikatakaniwitcik
icinikatakaniwiw
icinikatakiniw
icinikatakiniwitc
icinikatakiniwiw
icinikatamok
icinikatcikatek
icinikatcikaterik
icinikatcikateriw
icinikatcikatew
icinikatek
icinikaterik
icinikateriw
icinikatew
icinkasoriwa
icinkasotc
icinkatcikatew
icinkatew
icipekahikan
ickipitatanatikokaniwon
ickote
ickoteapi
ickotek
ickoteriw
ickwa
ickwaparik
ickwatek
ickweca
ickwecak
ickwecic
ickweciwiritci
icpimik
illustrer
ils
images
in
indian
indiens
innu
innus
inuit
irakonikewiniw
irapatak
irapatcitatc
irapatcitcikan
irapitak
irapitcitcakan
irapitcitcikan
irapitisiw
irik
irikik
irin
irinatikw
irinatikwapo
irini
irinicak
iriniokw
iriniskak
iriniw
iriniwa
iriniwitc
iriniwiw
iriniwok
iriniwokw
isai
isaie
isbn
isidore
iskwatowitc
iskwecic
iskwew
iskwewa
iskwewitc
iskwewiw
iskwewok
iskwewokw
island
isparik
isparinik
isparitc
ispariw
it
ita
itactek
itakaniwiw
itakaniwok
itakopan
itaniwok
itapitc
itatc
ite
itekera
itekopan
itemakak
itemikan
itepanak
iteritak
iteritakositc
iteritam
itertam
itetc
itetcik
itew
itewakopan
itewin
itewok
iti
itikera
itikititc
itiko
ititosketc
ititoskew
itonion
itoniwok
itoniwon
itotisketc
itotiskew
itotiskewin
itwaniwok
itwaniwon
ivan
j
jacob
jacques
james
jane
janvier
je
jean
jeannine
john
johnson
joliette
jos
jose
joseph
joyce
juillet
juin
julie
k
ka
kaci
kackihatc
kackihew
kackitaritci
kackitatc
kackitatcik
kackitaw
kackitawok
kahnawake
kaie
kakakew
kaketin
kaki
kakone
kanape
kanata
kanatak
kanawerimew
kaneiw
kanesatake
kanewiw
kape
kaskeritak
kaskeritakon
kaskeritakosiw
kaskeritam
kaskeritcikatek
kaskina
kata
kateri
kawawachikamach
kawi
ke
kebek
kecko
kecpin
kek
kekat
kekekw
keki
kekocic
kekocica
kekociciriw
kekocicriw
kekociriw
kekotc
kekwan
kekwariw
kenositc
kepek
ketca
ketcinatc
kete
kewir
kewirawaw
kewirawow
kewirowaw
kewirowow
ki
kiackw
kiapatc
kicakimitek
kicapiskisikan
kice
kiceatisiritci
kiceatisitc
kiceatisitcik
kicepa
kicik
kicikak
kicikarik
kicikaw
kiciparik
kicitek
kiciterik
kicko
kickwa
kicpin
kictapatak
kictapitak
kictapitan
kictapitisiw
kictaw
kicteritakosiw
kika
kimiwok
kimocomino
kimotc
kinec
kinoce
kinocew
kinokepitcikanik
kinowec
kipa
kipahikan
kipe
kir
kirano
kirika
kiripi
kiripin
kirka
kirowe
kisinak
kisinarik
kisinaw
kisisikatek
kisisipatakaniwok
kisisotc
kiskerimakaniwiw
kiskerimatcik
kiskerimew
kiskeritak
kiskeritakik
kiskeritakok
kiskeritakon
kiskeritakositc
kiskeritakosiw
kiskeritam
kiskeritamowin
kiskeritcikatek
kiskinohamakaniwitcik
kiskinohamake
kiskinohamaketc
kiskinohamakew
kiskinohamakewin
kiskinohamakewinik
kiskinohamakewiniw
kiskinohamaso
kiskinohamasotc
kiskinohamasotcik
kiskinohamatawkamikok
kiskinohamatokamikok
kiskinohamatowikamikok
kiskinohamatowikamikw
kiskinohamatowkamikw
kiskinohomake
kiskinohomasotc
kiskinohomatokamikok
kispiwatak
kispiwatam
kit
kita
kitaki
kitaskino
kitca
kitci
kitcikamik
kitciki
kitciko
kitciparik
kitciparitc
kitciwe
kitigan
kitikan
kitikaniwok
kitikaniwon
kitiketcik
kito
kitotakan
kitotakanik
kitotc
kiwe
kiwetinisiw
kiwetino
kiwetinok
kiwetnok
kiwetonok
kiwew
km
ko
kokoc
kokom
kokotce
kokotcewa
kon
konakisiritci
konakisitc
konik
konikisiritci
koski
kotak
kotakeriw
kotakihi
kotakihik
kotakik
kotawino
kotc
kotci
kotcikotc
kotcitaw
kotik
kotikhik
kotonitatc
kowiskw
krika
kwei
kwekahakew
kwetcitatc
l
la
labrador
lac
lake
lanaudie
language
langue
laurent
laurentides
laval
le
legault
leme
les
lexique
lien
lieu
ligue
lina
liste
lizabeth
lnh
logo
loi
louis
louisa
louise
loup
luc
lucie
lucien
m
ma
mackiki
mackikiatikw
mackikiatikwa
mackikiriniwa
mackikiriw
mackowak
mackowisitc
mackowisiw
madeleine
maggie
mahikan
mai
maka
makatesiw
makatewariw
makatewisitc
makatewisiw
makona
makonikotc
makue
maliotenam
mamik
mamo
manawan
manawani
manawanik
mani
manito
manitoba
manouane
mantcoc
mantcoca
marc
marcel
marguerite
mari
marie
mariette
marotc
martha
marthe
mary
mashteuiatsh
masinactetcitcikan
masinactetcitcikanik
masinactetcitcikaniw
masinahak
masinaham
masinahikan
masinahikana
masinahikanatikw
masinahikanik
masinahikaniw
masinahike
masinahiketc
masinahiketcik
masinasowiniw
masinatek
maskisin
masko
maskomi
maskowa
matakan
matana
matanak
matanarik
matawak
matawaw
matca
matcaritci
matcatc
matcatcik
matcaw
matcawok
matce
matceatisitc
matceketc
matcekitc
matcekiw
matceparik
matci
matcike
maticowe
matikatc
matisiritci
matisitc
matisitcik
matisiw
matisiwok
mattawa
mawotci
mawtci
maxime
mcgill
mckenzie
me
meka
mekatekorewa
mekatewokorew
mekwa
mekwat
mekwata
mekwatc
ment
mequesh
mer
meskanak
meskanariw
meskanaw
meskano
metapeckeka
metapeckekak
metaperotin
metowaketc
metowan
metowanikana
metowaniw
metowetc
metowetcik
metowew
metowewinik
mexique
mi
mia
micak
micarik
micariw
micaw
micer
michel
mici
micikititc
micikititcik
micikitiw
mickekwatikw
micta
mictahi
mictikok
mictikoke
mictikokw
mictikoriw
mictikw
mictikwa
mihitisotc
mikinakw
mikisiw
mikiwam
mikiwama
mikiwamik
mikiwamiriw
mikiwamiskak
miko
mikociw
mikomin
mikomini
mikon
mikona
mikosiw
mikwetc
mile
mina
minatc
minawa
minawatc
minic
miniciriw
minikwaniwok
minikwaniwon
minikwew
minoc
minowatc
minwatc
miparik
mirakaniwitc
mirakaniwiw
mireritam
mireritamok
miretc
miretcik
mirew
miro
mirokak
mirokitc
miroparik
miroparin
miroparitc
mirositc
mirosiw
miroskamik
miroskaminik
mirotakoniw
mirowacik
mirowacin
mirowacinik
mirowapitan
mirwacin
misawatc
misiwe
miskak
miskomik
misowatc
misowe
mistahimaskwa
mistissini
mita
mitana
mitatc
mitato
mitaw
mitcen
mitcenik
mitceniw
mitceno
mitcet
mitcetaw
mitcetiok
mitcetiriwa
mitcetitc
mitcetitcik
mitcetiw
mitcetiwok
mitcetiwokw
mitceto
mitcetwaw
mitci
mitcik
mitcikawin
mitcim
mitcimiriw
mitcinaniwok
mitcinaniwon
mitciso
mitcisonaniwok
mitcisotc
mitcisotcik
mitcitcik
mitciw
mitciwok
mite
miti
mitina
mitowi
mitwi
moar
mobile
mocak
mockinikatek
mode
mohakw
mohawk
mokoman
mokotakan
monsieur
mont
montagnais
montagnes
montre
monts
moriak
mos
mosa
mosowan
mot
motci
motcik
motetc
mowakaniwitc
mowakaniwiw
mowakiniwitc
mowakiniwiw
mowatc
mowatcik
mowew
n
na
nac
naha
nahwe
nakapehanok
nakapehonok
nakota
nakowi
nakwe
nakwi
nama
namekos
namekosa
namekosi
names
namesa
naminas
naminasiriw
nanakatcitaw
nanakatisitc
nanake
nanikotana
nanikotin
nanikotina
nanto
nantonak
napanew
nape
napitc
naskapi
naskapis
nastasia
natarapaniwon
natasha
nation
national
nationale
nations
natowi
nda
nde
ne
neashit
nehe
neheriw
nehi
nehiro
nehiromo
nehiromowin
nehirosiwa
nehirosiwok
nehirowisi
nehirowisiok
nehirowisiskak
nehirowisiw
nehirowisiwa
nehirowisiwok
nehirowisiwokw
neki
nemitana
neriw
neriwisiok
neta
nete
new
newashish
newiriwa
ni
niagara
niapitc
niaran
niaraniriwa
niarano
niciriwa
nicitana
nicitcik
nicitina
niciwonatcitakaniwon
nico
nicowaso
nicowaw
nictam
nictana
nictiriwa
nicto
nictowitc
nicw
nicwaso
nicwaw
nihe
niheriw
nika
nikamo
nikamotc
nikamowiniw
nikan
nikani
nikanik
nikanipiw
nikapehonok
niki
nikickowatc
nikikw
nikon
nikotc
nikotin
nikotowaso
nikotwaso
nikotwatciriwa
niminaniwok
nimocom
nin
ninan
nipa
nipahakaniwitc
nipahatc
nipahatcik
nipara
niparitci
nipatatc
nipawok
nipi
nipic
nipica
nipiciriw
nipicke
nipik
nipin
nipinatcac
nipinik
nipira
nipiriw
nipiwok
nipo
nipotc
nipowiritci
nipowitc
nipra
niquay
niska
nit
nita
nitacikan
nitaskinan
nitawikik
nitawikiritci
nitawikitc
nitawikiw
nitawkiritci
nitawkitc
nitawkiw
nitawokik
nitawokin
nitawokino
nitawokiritci
nitawokiriwa
nitawokitc
nitawokiw
nitc
nitcanicak
nite
nitehik
nitowakitc
nitowakiw
no
noce
nohowe
nohwe
nokok
nokon
nokonik
nokoniw
nokositc
nokosiw
nokosiwok
nom
nord
north
nos
nosinetakaniwokw
nosinetatc
nota
notawi
notawinan
notc
notci
notcimi
notcimik
notcimiw
notre
nous
nouveau
nouvelle
nta
nte
nti
ntoho
ntohotc
ntohotcik
ntokohotc
ntowatc
ntoweritak
nunavut
o
obligatoire
obomsawin
ocakai
ocakak
ociceca
ocihakaniwitc
ocihakaniwiw
ocihakiniwitc
ocihatc
ocihatcik
ocihew
ocima
ocimotc
ocitakaniok
ocitakaniokw
ocitakaniwok
ocitakaniwoki
ocitakaniwon
ocitakaniwonik
ocitakiniwok
ocitakiniwon
ocitaniwok
ocitaritci
ocitatc
ocitatcik
ocitaw
ocitawok
ocki
ockicikok
ockicikw
ockinikicica
ockinikiw
ockinikiwa
ockinikiwok
ocpimik
octesa
octikwan
octikwanik
octobre
octotak
odanak
of
ohe
ohomisiw
ohwe
ohweriw
ois
okacic
okaia
okanagan
okawia
okawinan
okawiwa
okima
okimaciwinik
okimaciwitc
okimaciwiw
okimakaniwok
okimaw
okimawa
okimawinak
okimawinik
okimawitc
okimawitcik
okimawiw
okimawok
okitc
okititin
okoma
okosa
okot
okowak
okowimesa
okwimesa
olocalisation
omasinahikan
omicomeca
omiki
omikitc
omikiwam
omikiwamik
omikonima
omikw
omisa
omisitanak
omocoma
on
onahakicim
onahakicima
onakitik
onapema
onawis
one
onf
onihewokw
onihikaniwon
onikamowin
onikihikowa
onikihikwa
onimiski
onitcanica
onitcaniciriw
onitcanicitc
onitcaniciwaw
onitcaniciwawa
onondaga
onotc
ont
ontario
open
opictikweak
opictikweiak
opimatisiwin
opimatisiwinik
opimera
opimetak
opisikan
opisimoma
opitciwan
opitciwonok
opiwi
opwamik
or
orakan
orakeskw
orakonikewiniw
orale
ordre
oreritak
org
orina
orle
orowiparik
orowitc
orowitimik
osam
osami
osawisiw
osikatek
osikatew
osima
osimiwawa
osit
ositaskw
ositinak
oskan
oskanik
oskat
oskatik
oskatinak
oski
oskon
oso
ospiskonik
ot
ota
otacikan
otacikaniw
otactamikok
otaia
otakikomitc
otakocik
otakocinik
otakosiwin
otakweto
otakwetosima
otamiro
otamironaniwok
otamiroritci
otamirotakaniwok
otamirotatcik
otamirotaw
otamirotc
otamirotcik
otamirowakaniwok
otamirowin
otamirowiniw
otamirowok
otananik
otanisa
otanisiwawa
otapan
otapaniw
otapi
otapinak
otapinakik
otasinakek
otaski
otaskik
otaskiwak
otaskiwaw
otasnakek
otatakon
otatama
otatisokan
otatokon
otawi
otawia
otawinan
otawiwa
otci
otciparik
otciparin
otciparinik
otcipariw
otcipirik
otciritci
otciriwa
otcirowek
otcirowemakana
otcitakotc
otcitc
otcitci
otcitcik
otcitcinak
otciw
otcockw
otcotcoma
ote
otehi
otehik
otehimin
otena
otenak
otenam
otenamik
otenariw
otenaw
otenawa
oteno
otenowa
otikona
otinak
otinam
otinikatek
otinikatew
otirinima
otiskwema
otokai
oton
otonik
ototewok
ototokon
ototokwakan
ottawa
ou
ouest
ouverture
owe
owec
p
pa
pacta
pactek
pactonew
page
paix
pakekin
pakekina
pakicik
pakitinak
pakitohaniwok
pakotci
pakwe
pakwecikan
pamatisitc
pamatisitcik
pamitcitc
papeikw
papitoc
par
parame
participants
participation
pas
pascal
pasotc
patak
patoc
patrick
paul
pauline
pe
pecitcik
pecotcic
pecotcik
pectcik
peiko
peikociriwa
peikon
peikonok
peikw
peikwa
peikwaw
pekatc
pekon
pekwaw
pemacic
pemantcic
pematcic
perce
pessamit
petak
petakok
petakositc
petakosiw
petam
petaw
petiquay
petowaw
petowew
philippe
philome
phine
photo
photographique
photos
picard
picicikw
pien
pierre
pikiw
pikogan
pimatisinaniwok
pimatisiritci
pimatisitc
pimatisitcik
pimatisiw
pimatisiwin
pimatisiwinik
pimatisiwiniw
pimotetc
pinaskin
pinawetc
pineshish
pipok
pipon
pipona
piponesikopon
piponesipan
piponesitc
piponesiw
piponik
piponikak
piponikarik
piponkarik
pirecic
pirecica
pirecicak
piresiw
piresiwok
pirew
pirewa
pisimok
pisimw
pisimwa
pisimwok
piskatek
pitakamik
pitaketc
pitaketcik
pitakew
pitama
pitc
pitci
pitcipipok
pitcipipon
pitikew
pitoc
plus
point
pointe
poni
port
positc
posiwok
pot
pour
pre
premie
presse
presses
principe
prix
projet
projets
q
qu
que
qui
quitich
quitish
quoquochi
r
radio
rard
rareak
rareiak
rarewak
re
rekak
rene
repentigny
reretc
res
ric
richard
richelieu
richmond
rikasimon
rikasimonik
rimouski
rita
river
rivie
robertson
roch
ronique
rose
rotik
rotinik
rouge
s
sa
saguenay
saint
sainte
sakahikan
sakay
sakihew
sakihikan
sakihikanik
sakihikaniw
sakihitin
sakitatc
sakitatcik
sakitaw
sakotc
salomon
samian
samuel
sani
sante
sar
saskatchewan
sault
schefferville
se
secondaire
sence
seni
sepier
sept
seront
shawinigan
sherbrooke
si
sie
sikahatasotc
sikok
sikon
sikonik
simon
simone
sioui
sioux
sipi
sipik
sipiriw
sisipaskot
siskapatinikatek
soka
son
sont
sort
sosan
soter
sound
sous
squamish
st
stanley
sur
sutton
suzanne
t
ta
taci
tacikak
tacikam
tacikaniok
tacikaniwok
tacikatew
tacikeritci
taciketc
taciketcik
tacikew
tacikewok
tacikewokw
tacinaniwok
taciritci
taciriwa
tacitcik
tacitikenak
taciwok
taciwokw
tahltan
takapikenikan
takocik
takocin
takocinitc
takocinitcik
takok
takoki
takon
takonatc
takonik
takonikotc
takoniw
takono
takonopan
takwakik
takwakinik
tan
tante
tapacic
tapickotc
tapiskwan
tapowe
tapwe
tarasak
taritci
tariwa
tatak
tataw
tatc
tatcik
tatiniw
tatino
tato
tatopiponesipan
tatopiponikak
tatopiponikarik
tatopiponkarik
tatoponikak
taw
tawok
tca
tcani
tcatcer
tci
tciman
tcimanik
tcimaniw
tcimatakaniwok
tcipa
tcipakwan
tcipakwaniwok
tcipe
tcotco
tcotcocanapo
te
teauvert
tecikotc
tekaci
tekci
tekera
tekici
tepirak
terak
terre
terrebonne
terres
territoire
tes
tesinike
tetawitc
tetipiwakan
tewehikana
the
thomas
tipahikan
tipahikaneaw
tipahikanicic
tipahikatek
tipaskonikewinik
tipatcimo
tipatcimotc
tiperitak
tiperitam
tipi
tipirowe
tipiskak
tipiskarik
titak
tite
to
tohetc
tokon
toponymie
toponymiques
toronto
totak
totakik
totakotc
totam
totaman
totamok
totamoritci
totcikatek
totcikaterik
totcikatew
totowakaniwitc
totowatc
tourisme
tradition
trage
traite
tre
trois
tu
tuque
u
uashat
un
une
universite
uqac
uqam
user
utilisateur
v
va
val
valeur
valley
vancouver
ve
victoria
vincent
vision
voir
vollant
voter
votre
vous
vrier
w
wa
wacamec
wacik
waiec
wamew
wamin
wapak
wapamakaniwitc
wapamatc
wapamatcik
wapamew
wapamitin
wapanok
wapariw
wapatak
wapatakik
wapatam
wapataman
wapikon
wapikoni
wapikonia
wapikoniriw
wapisiritci
wapisitc
wapisitcik
wapisiw
wapitak
wapitam
wapoc
wapoca
warowik
wasikatotc
wasikicikw
wasikototc
wasite
waska
waskok
waw
wawatc
wawiriw
waworiw
we
web
wec
weckat
weckatc
wectakaniwok
wectakiniwok
wectatc
wectatcik
wectaw
wekimatc
wellie
wemotaci
wemotacik
wendake
west
wetci
wetciparik
wewerita
wi
wiak
wias
wiasiketc
wiasiriw
wiaw
wiawik
wicamakaniwiw
wiec
wikasi
wikasiriw
wikatciciw
wikicin
wikimatc
wikime
wikimedia
wikimew
wikipe
wikipedia
wikipetcia
wikitciciw
wikwas
wikwasatikw
wikwasiriw
william
windsor
winnipeg
wipatc
wipita
wir
wirata
wirawaw
wirawow
wircike
wirctam
wirin
wirowaw
wirowow
wirtip
wirwow
wisaketcakw
wisaketcakwa
wisikak
wiskat
witak
witakik
witam
witamako
witamowakaniwitc
witc
witci
witcicana
witcicanik
witcihatc
witcihew
witcihici
witcihietc
witcihiew
witcihiko
witcihikotc
witcihiwew
witcikatek
witciriniwa
witcitaw
witiko
wiwa
www
x
y
york
z
zibi
{
|
}
~
¨
«
°
²
¸
»
ʼ
̀
́
̂
̈
̧
̱
‎
–
—
‘
’
“
”
…
′
″
↔
↷
③
④
⑦
⺀
⺄
⺆
⺈
⺊
⺌
⺕
⺝
⺸
⺼
⿰
⿱
⿲
⿳
⿴
⿵
⿶
⿷
⿸
⿹
⿺
⿻
〢
コ
ユ
㇁
㇂
㇄
㇇
㇈
㇉
㇓
㐁
㐄
㐅
㐌
㐫
㐬
㐭
㐮
㐱
㑒
㒵
㒸
㒼
㓁
㓞
㔾
㕛
㕣
㖾
㘝
㚅
㚇
㚔
㚘
㝉
㝡
㝴
㝵
㞋
㞢
㞷
㠩
㠭
㠯
㡀
㡭
㡿
㢲
㢴
㣇
㣺
㥯
㪅
㫄
㫐
㫒
㫺
㬅
㬎
㬥
㬰
㲋
㳄
㷠
㸒
㸚
㸦
㼌
㼲
㽞
㿟
䀠
䂞
䍃
䏍
䒑
䖍
䖒
䖝
䖵
䙴
䚻
䜌
䝿
䡛
䧹
䪞
一
丁
丂
七
丄
丅
丆
万
丈
三
上
下
丌
不
与
丏
丐
丑
专
且
丕
世
丘
丙
业
东
丞
丢
丣
两
严
並
丨
丩
个
丫
丬
中
丮
丰
丱
串
丵
丶
丷
丸
丹
为
主
丽
丿
乀
乂
乃
久
乆
乇
么
义
之
乌
乍
乎
乏
乐
乑
乔
乖
乗
乘
乙
乚
乛
乜
九
乞
也
习
乡
乳
乾
亀
亅
了
亇
予
争
事
二
亍
于
亏
亐
云
互
亓
五
井
亘
亚
亜
亞
亟
亠
亡
亢
交
亥
亦
产
亨
亩
享
京
亭
亮
亯
亰
亲
亳
亶
亷
人
亻
亼
亾
仁
今
介
仌
从
仐
仑
仒
仓
仕
他
付
仝
代
令
以
任
企
伊
伏
伐
休
会
伯
但
位
何
佘
余
作
佥
使
來
侈
侌
侖
侯
侵
便
保
俞
信
修
倉
倍
候
倠
備
僉
僕
儿
兀
允
兂
元
兄
充
兆
兇
先
光
兊
克
兌
免
兑
兒
兓
兔
党
兜
兟
入
全
兩
兪
八
公
六
兮
兰
共
关
兵
其
具
典
兹
兼
冀
冂
冃
冄
内
冈
冉
冊
冋
册
再
冎
冏
冐
冒
冓
冖
冗
冘
军
农
冝
冡
冥
冫
冬
冷
几
凡
凢
凵
凶
凷
凸
凹
出
函
凾
刀
刁
刂
刃
刄
刅
分
切
刍
刑
刕
刖
列
刘
则
初
別
利
别
到
制
刺
則
削
剌
前
剡
剽
劉
力
功
加
劦
助
劫
劳
劵
勃
勇
勉
勒
動
務
勞
勤
勹
勺
勻
勾
勿
匀
匂
包
匆
匈
匊
匋
匍
匕
化
北
匚
匝
匡
匪
匱
匸
匹
区
医
匽
匿
區
十
卂
千
卄
卅
卆
升
午
卉
半
卌
华
卑
卒
卓
单
卖
南
卜
卝
卞
占
卡
卢
卣
卤
卦
卩
卪
卬
卯
印
危
即
却
卵
卷
卸
卻
厂
厃
厄
历
厈
厉
厌
厓
厘
厚
原
厤
厥
厨
厭
厲
厶
厷
厸
去
厼
厽
叀
参
參
叅
又
叉
及
友
双
反
叐
发
叒
叔
叕
取
受
叚
叜
叟
口
古
句
另
叩
只
召
可
台
叱
史
右
叵
号
司
叹
吂
各
吅
合
吉
吊
吋
同
名
后
吏
向
吕
君
吝
吞
否
含
启
吳
吴
吹
吾
呂
呆
呈
告
员
呙
周
命
咅
和
咎
咠
咢
咨
咸
咼
哀
品
哉
員
哥
哲
唐
商
啇
問
啚
啬
啻
善
喜
喬
單
喿
嗇
噩
嚴
囊
囗
囘
囙
囚
四
回
囟
因
囧
囬
困
囱
囷
固
国
圂
圅
國
圍
圓
土
圡
圣
圥
在
圭
地
圶
圼
坐
坒
坚
坴
垂
垔
垚
埀
埋
埶
執
基
堂
堅
堆
堇
堯
塞
墨
壘
士
壬
壯
声
壳
壴
壹
壺
壽
夂
处
夅
夆
备
夊
夋
夌
复
夏
夒
夕
外
夗
夘
多
夜
夢
大
夨
天
太
夫
夬
夭
央
失
夲
头
夷
夸
夹
夻
夾
奂
奄
奇
奈
奉
奎
奏
奐
契
奓
奔
奚
奞
奠
奢
奥
奭
女
奴
奻
好
如
妄
妙
妟
妥
妻
妾
姑
委
姜
威
娄
婁
婴
嬰
嬴
子
孑
孔
孕
孖
字
存
孚
孛
孝
孟
季
孤
学
孫
孱
學
宀
宁
宂
它
宅
宇
守
安
宋
完
宏
宓
宗
官
定
宛
宜
宝
客
宣
室
宮
宰
害
家
容
宾
宿
寄
寅
密
富
寒
察
寧
審
寫
寬
寮
寸
对
寺
寻
寽
対
寿
封
尃
射
将
將
專
尉
尊
尋
尌
對
小
少
尒
尓
尔
尖
尗
尚
尞
尢
尣
尤
尧
尨
尭
就
尸
尹
尺
尻
尼
尽
尾
尿
局
居
屈
屋
屎
屏
屑
展
屖
屚
属
屠
屡
屬
屮
屯
屰
山
屵
屾
岁
岂
岑
岡
岩
岳
岸
峯
島
崇
崑
崔
崖
崙
崩
嵬
嶲
巂
巛
川
州
巟
巠
巢
巤
工
左
巧
巨
巩
巫
差
己
已
巳
巴
巷
巸
巽
巾
巿
帀
市
布
希
帚
帛
帝
带
師
席
帶
常
干
平
年
幵
并
幷
幸
幺
幻
幼
幽
幾
广
広
庄
床
底
店
庚
府
度
庫
庭
庶
康
庸
廉
廌
廛
廣
廩
廴
延
廷
建
廾
廿
开
弁
弃
弄
弇
弋
式
弓
弔
引
弗
弘
弜
弟
弥
弦
弱
張
強
强
彊
彌
彎
彐
彑
当
彔
录
彖
彗
彡
形
彥
彦
彧
彭
彳
役
彼
往
待
律
徒
得
徙
從
復
微
徵
心
忄
必
忌
忍
志
忝
忠
忩
快
念
忽
忿
思
怠
急
怱
恆
恒
恩
恭
息
悉
患
悤
悲
悶
惠
惡
惢
愁
愈
意
愛
感
慈
慧
慮
憂
憲
應
戀
戈
戉
戊
戋
戌
戍
戎
成
我
戒
戔
或
戚
戠
戢
截
戲
戶
户
戹
戼
戾
房
所
扁
扇
手
扌
才
打
托
执
承
折
拉
拜
拿
掌
推
提
摩
支
攴
攵
收
攸
改
放
政
敄
敏
敕
敖
敗
敝
敞
敢
散
敦
敫
敬
数
敷
數
斂
文
斉
斊
斗
斤
斥
斩
斬
斯
新
方
於
施
斿
旁
旋
族
无
旡
既
旣
日
旦
旧
旨
早
旬
旱
旲
时
旾
昆
昇
昌
昍
明
昏
易
昔
昗
昜
星
春
昬
是
昱
昴
昷
時
晃
晋
晏
普
景
晶
智
暑
暴
曇
曩
曰
曲
曳
更
曷
書
曹
曼
曾
替
最
朁
會
月
有
朋
服
朔
朕
朗
望
朝
木
朩
未
末
本
札
朮
术
朱
朵
朶
朿
杀
杏
杜
束
条
来
東
杲
杳
松
析
林
枚
果
枝
枲
枼
某
柔
查
柬
柰
柴
栗
桀
桑
桼
梁
條
梟
梨
棘
棠
棥
森
楚
業
楽
榮
樂
樊
欠
次
欣
欮
欲
欶
欽
款
歆
歇
歛
止
正
此
步
武
歨
歪
歮
歯
歰
歲
歴
歷
歸
歹
歺
死
殳
段
殷
殸
殹
殺
殻
殿
毋
毌
母
每
毒
比
毕
毚
毛
毳
氏
氐
民
气
氣
水
氵
氶
氷
永
氺
氾
求
汝
汞
江
沃
沓
沙
沝
泉
法
波
泣
泥
泰
洛
洪
活
派
流
浦
浪
浮
淡
淮
清
渚
渠
湯
滿
漸
火
灬
灭
灰
灵
灷
炅
炎
炏
炗
炙
炭
為
烈
烏
烝
焉
無
焦
焱
然
煞
熊
熏
燕
營
燮
爪
爫
爭
爯
爰
爱
爲
爵
父
爻
爽
爾
爿
片
牙
牚
牛
牜
牟
牢
牧
牪
牽
犀
犬
犭
犮
狂
狄
狊
独
狺
猋
猒
猪
献
獻
玄
率
玉
王
玟
玨
珎
班
琴
瑟
瑩
瓜
瓦
甘
甚
生
産
用
甫
甬
田
由
甲
申
电
甶
男
甸
甹
画
甾
畀
界
畏
畐
留
畜
畟
畢
畧
畨
番
畫
異
畱
當
畺
畾
疊
疋
疌
疑
疒
疾
癶
癸
癹
登
發
白
百
皀
皃
的
皆
皇
皋
皐
皕
皮
皷
皿
盃
盆
盇
盈
益
盍
盎
监
盒
盖
盛
盡
監
盤
盧
目
直
相
盾
省
眇
眉
看
眔
眞
真
眷
眼
眾
着
睘
睪
睿
瞏
瞢
瞿
矍
矛
矞
矢
矣
知
矦
短
石
破
碎
磊
磨
示
礻
礼
祟
票
祭
禀
禁
禸
禹
禺
离
禽
禾
禿
秀
秃
秉
秋
科
秝
秦
移
稟
穀
穌
穴
究
穹
空
穿
突
窄
窒
立
竒
竜
竝
竟
章
童
竹
笑
笠
筆
等
答
箕
算
箴
節
篤
篭
米
粉
粛
粟
粤
粦
粲
糞
糸
糹
系
約
納
素
索
紫
累
細
絜
絫
絲
維
綿
縣
繇
纍
纟
缶
网
罒
罔
罕
罗
罙
罡
罢
罪
署
罷
羅
羊
羌
羍
美
羔
羕
羗
羞
羡
羣
群
義
羲
羸
羽
翁
翏
習
翕
翟
翠
翼
老
耂
考
者
耆
而
耎
耑
耒
耳
耴
耶
耷
聂
聊
聖
聚
聶
聿
肀
肃
肅
肉
肖
肙
肥
肩
肯
育
肴
胃
背
胡
胥
能
脊
脩
膚
臣
臤
臧
自
臬
臭
臯
臱
至
致
臺
臼
臽
臾
臿
舀
舂
舄
與
興
舉
舌
舍
舛
舜
舞
舟
般
艮
良
色
艸
艹
艾
芒
芔
芬
芮
花
芳
芺
芻
苔
苗
苟
若
苦
英
茶
茸
荅
草
荒
荣
荼
莆
莧
莫
莽
菆
菊
菐
華
萬
落
葉
著
葛
董
葵
蒙
蒦
蒼
蓋
蓬
蓺
蔑
蔡
蕉
蕭
薄
薛
薦
薰
藍
藏
藥
蘭
虍
虎
虐
虒
虔
處
虖
虗
虘
虚
虛
虜
虞
虫
虽
蚤
蚩
蜀
蜜
蟲
蠡
血
行
衍
衛
衣
衤
表
衮
衰
袁
袞
褭
褱
襄
襾
西
覀
要
覃
見
規
覓
覧
親
覽
见
角
解
言
訁
訇
計
詹
誩
諸
讠
谷
豆
豈
豊
豐
豕
豖
豙
象
豦
豩
豪
豸
貇
貝
貞
貟
負
貢
貧
貪
貫
責
貳
貴
買
費
賁
資
賈
賏
賓
賔
賛
賞
賢
賣
質
賴
贊
贝
贡
责
贯
贲
贵
赖
赞
赤
赦
走
越
足
路
蹇
身
躬
車
軍
軎
軟
輦
车
辛
辜
辟
辥
辰
辱
農
辵
辶
边
达
过
近
连
迷
追
退
送
逆
逐
通
速
造
逢
連
逮
進
遀
遂
過
道
達
遣
適
遷
遺
邊
邑
邕
那
邦
邪
郎
部
郭
都
鄉
酉
酋
配
酓
釆
采
里
重
野
量
金
釒
錢
钅
長
镸
长
門
閃
閉
開
閏
閑
閒
間
閔
閵
閻
闌
门
间
闷
阑
阜
阝
阿
降
陳
隆
隊
隋
隡
隨
隱
隶
隹
隺
隻
隼
隽
难
雀
雁
集
雈
雋
雍
雐
雔
雙
雚
雜
雝
離
難
雨
雩
雪
雲
零
雷
需
霍
霜
霝
霞
霸
靈
靑
青
非
靡
面
靣
革
韋
韦
韭
韯
韱
音
頁
頃
項
須
頗
頡
頻
顛
页
風
风
飛
飞
食
飠
養
饣
首
香
馬
馮
駦
马
骨
高
髟
鬥
鬯
鬲
鬼
魚
魯
鮮
鱼
鲁
鳥
鳳
鸟
鹵
鹿
麃
麗
麥
麦
麻
黃
黄
黍
黎
黑
黒
黨
黹
黽
黾
鼎
鼓
鼠
鼻
齊
齋
齐
齒
齿
龍
龙
龜
龟
龠
龰
龱
龴
龵
龶
龷
龸
龹
者
艹
？
𠀁
𠀃
𠀆
𠀉
𠀎
𠀐
𠁁
𠁣
𠂆
𠂇
𠂈
𠂉
𠂊
𠂋
𠂎
𠂒
𠂔
𠂛
𠂡
𠂢
𠂤
𠂬
𠂭
𠂹
𠃊
𠃋
𠃌
𠃍
𠃎
𠃑
𠃓
𠃔
𠃜
𠄌
𠄎
𠄠
𠄢
𠆢
𠆥
𠇍
𠈌
𠌵
𠓜
𠔉
𠔥
𠔼
𠔽
𠔿
𠕀
𠕁
𠕋
𠘧
𠘨
𠙻
𠙼
𠚏
𠚒
𠚤
𠚪
𠣏
𠤎
𠤕
𠥓
𠦄
𠦑
𠦝
𠧒
𠧗
𠧪
𠩺
𠪚
𠫓
𠫔
𠫤
𠬛
𠬝
𠬞
𠬢
𠬤
𠬶
𠮛
𠮦
𠮷
𠯑
𠱠
𠳮
𠷎
𡈼
𡉀
𡉵
𡌥
𡍮
𡏳
𡕒
𡕩
𡕰
𡖅
𡗗
𡗜
𡘆
𡘤
𡧱
𡨄
𡩧
𡬠
𡭽
𡰣
𡰥
𡰪
𡰯
𡰱
𡷈
𡸁
𡿨
𡿩
𡿪
𡿺
𢀖
𢀛
𢀩
𢁙
𢆉
𢆰
𢆶
𢇁
𢇇
𢉖
𢌬
𢌿
𢏚
𢑑
𢑚
𢖻
𢙣
𢛳
𢦏
𢦒
𢧵
𢼄
𢾕
𣁋
𣄼
𣅀
𣅽
𣍘
𣎳
𣎵
𣏋
𣏼
𣗥
𣥂
𣥖
𣦵
𣦼
𣧄
𣪊
𣪠
𣬉
𣳾
𣶒
𤇾
𤊽
𤐫
𤓰
𤔔
𤕨
𤣩
𤰇
𤰔
𤰞
𤴓
𤴔
𤽄
𥁑
𥁕
𥃦
𥃩
𥃭
𥇡
𥑟
𥘅
𥘈
𥝢
𥫗
𥱡
𦈢
𦉪
𦉬
𦉼
𦍌
𦍒
𦎧
𦐇
𦓔
𦔮
𦘒
𦙃
𦚏
𦣝
𦣞
𦣻
𦥑
𦥔
𦥯
𦨉
𦭝
𦰩
𧆞
𧈧
𧘇
𧰨
𧴪
𧴮
𧵩
𧾷
𨸏
𨾴
𩙿
𩠐
𩫏
𩵋
𪉷
𪜀
𪟽
𪠲
𪩲
𫇦
𫔭
𫜸
𫝀
𫠣
𫠩
𫢉
𫥞
𫩏
𫩠
𫪡
𫲽
𫶧
𬀷
𬐘
𬗌
𬙙
𬛸
𬜯
𬟩
𬯁
𬴘
𬺻
𬼉
𬼖
𭀰
𭁈
𭁨
𭅰
𭑈
𭕄
𭗼
𭤨
𭥫
𭻾
𮅕
𮊿
𮍌
𮍏
𮓗
𮥼
𮧮
廾
𰀁
𰀄
𰀈
𰀉
𰀕
𰀠
𰀡
𰀢
𰀪
𰁜
𰃮
𰆊
𰆘
𰋙
𰕎
𰢴
𰧭
𰯲
0--
18--
19--
3--
4--
5--
6--
7--
8--
9--
a--
ac--
aca--
acki--
ad--
admini--
ag--
ai--
aia--
aiami--
aici--
ais--
aka--
ako--
akopison--
al--
algon--
amis--
an--
anah--
ap--
ar--
araki--
arakini--
ari--
arim--
arimowa--
asi--
at--
atco--
ati--
atiko--
atisokwakani--
attika--
au--
b--
bas--
be--
beau--
bou--
br--
bro--
c--
ca--
cana--
ce--
cec--
ch--
ci--
cip--
cla--
co--
con--
cou--
cr--
d--
de--
di--
don--
dor--
e--
ed--
el--
em--
en--
es--
et--
f--
fem--
for--
g--
gag--
ger--
gi--
gra--
gu--
h--
haw--
hu--
i--
ici--
icinika--
im--
in--
inter--
ir--
ira--
irin--
is--
isk--
ispo--
it--
ite--
j--
jac--
je--
jo--
ju--
just--
k--
ka--
kac--
kak--
kaki--
kamic--
kana--
kanawapa--
kanawe--
kas--
kasker--
kaski--
kat--
ke--
ki--
kic--
kici--
kictapa--
kicte--
kimo--
kino--
kir--
kis--
kisker--
kiskeri--
kiskerit--
kiski--
kiskinoha--
kiskinohama--
kiskinoho--
ko--
koctati--
kor--
koto--
l--
la--
le--
li--
lingui--
m--
ma--
mac--
mako--
man--
mani--
mar--
mas--
masi--
masinacte--
mat--
mata--
mati--
mau--
me--
mec--
meko--
memb--
mes--
met--
meto--
mi--
mic--
mick--
micka--
micti--
mid--
mik--
mil--
mir--
mira--
mirapa--
mire--
mirer--
miri--
miro--
mis--
misi--
misinhi--
mit--
mo--
mokockatci--
mon--
mor--
mot--
my--
n--
na--
name--
nana--
nanaka--
nanakatci--
natawer--
ne--
nes--
ni--
niar--
nic--
nico--
niko--
nipa--
nipahi--
nisa--
no--
nor--
note--
nto--
ntokohi--
ntoparin--
ntowapa--
ntowe--
nu--
o--
oc--
oca--
ocawac--
ocawi--
oci--
ocita--
ocki--
oco--
oko--
omi--
omitoner--
on--
ona--
oni--
onit--
onitca--
opia--
opoh--
or--
ora--
oro--
orowi--
osa--
ospit--
ot--
ota--
otanisi--
otari--
otce--
otita--
ou--
p--
pa--
pac--
paka--
pakici--
pamati--
pamicikopike--
pamikicikwe--
papoko--
pe--
pekwa--
pi--
piki--
pin--
pisi--
piska--
piskare--
pito--
pla--
po--
poni--
pro--
r--
ra--
re--
ren--
ri--
rik--
ris--
ro--
s--
sa--
sakhi--
saki--
sakiha--
sakihi--
sci--
se--
si--
siki--
so--
soci--
soki--
st--
t--
ta--
tacike--
tak--
takoci--
tap--
tapwa--
tati--
tato--
tci--
te--
ti--
tipa--
tiripa--
tito--
to--
tou--
tr--
u--
v--
ver--
vi--
wa--
wac--
wai--
wap--
wapa--
wapi--
was--
wases--
we--
wec--
wepa--
wepina--
wh--
wi--
wiki--
wikwa--
wir--
wisi--
y--
zac--
--0
--1
--2
--3
--4
--43
--48
--5
--6
--7
--8
--9
--a
--ai
--ak
--akopon
--akoponen
--amak
--an
--anik
--aniwon
--apo
--ar
--arik
--aspan
--atc
--au
--aw
--burg
--by
--c
--ca
--ce
--che
--ci
--cic
--cik
--cikan
--ciketc
--cin
--cinaniwok
--cinik
--ciritci
--ciriw
--citc
--citcik
--ciw
--ck
--ckaw
--ctikw
--d
--e
--ed
--eian
--ek
--el
--ep
--er
--es
--ew
--ewin
--g
--ge
--h
--hak
--hakaniwitc
--hakaniwiw
--hatc
--he
--hew
--hi
--hikan
--hikanatikw
--hikw
--hitisotc
--hiwetc
--hotc
--i
--iak
--ian
--ic
--icic
--ie
--ihew
--ik
--ikaniwon
--ikatew
--ike
--im
--in
--inak
--inan
--ine
--inik
--iniw
--io
--iok
--ionik
--ipan
--ire
--iritci
--iriw
--iriwa
--is
--isiw
--itakaniwon
--itc
--itci
--itcik
--iw
--iwaw
--iwitc
--iwok
--iwon
--k
--kak
--kamak
--kamik
--kamikw
--kan
--kana
--kanik
--kaniw
--kaniwiw
--kaniwok
--kaniwon
--katek
--katew
--ke
--kean
--ketc
--ketcik
--kew
--kewinik
--ki
--kik
--kiniw
--kiniwok
--kiritci
--kiw
--ko
--kocic
--kocimonaniwok
--kok
--kon
--kopan
--kopon
--kositc
--kosiw
--ks
--kw
--kwan
--kwetc
--l
--la
--le
--lie
--line
--ll
--m
--ma
--man
--matc
--me
--mew
--mi
--mik
--min
--ming
--mmy
--mo
--mok
--mowin
--n
--na
--nak
--nam
--nan
--naniok
--naniwok
--naniwon
--nant
--nariw
--naso
--nd
--ne
--ni
--nik
--niok
--nion
--niw
--niwiw
--niwok
--niwon
--niwonik
--no
--ns
--nt
--nts
--ny
--o
--ock
--ok
--okw
--on
--onik
--opan
--opon
--oritci
--os
--otc
--owa
--p
--pan
--parinik
--paritcik
--petc
--pi
--piskw
--q
--r
--ra
--ratc
--rd
--re
--retc
--rew
--rie
--rik
--rimatc
--rimew
--rimowiniw
--riniwa
--riniwok
--ritci
--riw
--riwa
--ro
--rs
--rt
--rtci
--ry
--s
--se
--sh
--si
--siritci
--siriwa
--sitc
--siw
--sk
--ska
--skak
--so
--sotc
--span
--ss
--sse
--t
--ta
--tak
--takaniwiritci
--takaniwok
--takaniwon
--takaniwonik
--tam
--tatc
--taw
--tc
--tci
--tcik
--te
--tek
--teriw
--tew
--tewak
--th
--tik
--tike
--tion
--tisitc
--to
--ts
--tte
--u
--ur
--urs
--us
--ut
--ux
--ville
--vue
--w
--wa
--wak
--waketc
--wakiw
--wakopan
--wakopon
--wamik
--wan
--waniwok
--watc
--waw
--we
--wek
--wepisitc
--wew
--wi
--win
--winik
--winiw
--wiw
--wok
--wokw
--won
--wonik
--wow
--x
--y
--z
