!
"
#
##0
##1
##10
##11
##12
##13
##14
##15
##16
##17
##18
##19
##2
##20
##21
##22
##23
##24
##25
##26
##27
##28
##29
##3
##30
##31
##32
##33
##34
##35
##36
##37
##38
##39
##4
##40
##41
##42
##43
##44
##45
##46
##47
##48
##49
##5
##50
##51
##52
##53
##54
##55
##56
##57
##58
##59
##6
##60
##61
##62
##63
##64
##65
##66
##67
##68
##69
##7
##70
##71
##72
##73
##74
##75
##76
##77
##78
##79
##8
##80
##81
##82
##83
##84
##85
##86
##87
##88
##89
##9
##90
##91
##92
##93
##94
##95
##96
##97
##98
##99
$
%
&
'
(
)
*
+
,
-
.
/
0
00
000
0000
007
01
014
02
020
022
024
025
029
03
030
031
032
033
034
035
036
037
038
039
04
040
041
042
043
044
045
046
047
048
049
05
050
051
052
053
054
055
056
057
058
059
06
060
061
062
063
064
065
066
067
068
069
07
070
071
072
073
074
075
076
077
078
079
08
080
081
082
083
084
085
086
087
088
089
09
090
091
092
093
094
095
096
097
098
099
1
10
100
1000
1006
101
1016
102
103
1038
104
105
106
1063
107
108
109
11
110
111
112
113
114
115
116
117
118
119
12
120
1200
121
122
123
124
125
126
127
128
129
13
130
131
132
133
134
135
136
137
138
139
14
140
141
142
143
144
145
146
147
148
149
15
150
1500
151
152
153
154
155
156
157
158
159
16
160
161
162
163
164
165
166
167
168
169
17
170
171
172
173
174
175
1757
176
177
178
179
18
180
1800
181
1814
182
1826
183
1830
1833
1834
1836
1837
1838
184
1841
1842
1846
1847
1849
185
1850
1851
1856
1858
1859
186
1860
1861
1862
1863
1864
1865
1866
1867
1868
1869
187
1870
1871
1872
1873
1874
1875
1876
1877
1878
1879
188
1880
1881
1882
1883
1884
1885
1886
1887
1888
1889
189
1890
1891
1892
1893
1894
1895
1896
1897
1898
1899
19
190
1900
1901
1902
1903
1904
1905
1906
1907
1908
1909
191
1910
1911
1912
1913
1914
1915
1916
1917
1918
1919
192
1920
1921
1922
1923
1924
1925
1926
1927
1928
1929
193
1930
1931
1932
1933
1934
1935
1936
1937
1938
1939
194
1940
1941
1942
1943
1944
1945
1946
1947
1948
1949
195
1950
1951
1952
1953
1954
1955
1956
1957
1958
1959
196
1960
1961
1962
1963
1964
1965
1966
1967
1968
1969
197
1970
1971
1972
1973
1974
1975
1976
1977
1978
1979
198
1980
1981
1982
1983
1984
1985
1986
1987
1988
1989
199
1990
1991
1992
1993
1994
1995
1996
1997
1998
1999
2
20
200
2000
2001
2002
2003
2004
20040616075334
2005
2006
2007
2008
2009
201
2010
2011
2012
2013
2014
2015
2016
2017
2018
2019
202
2020
2021
2022
2024
203
204
205
206
207
208
209
21
210
211
212
213
214
215
216
217
218
219
22
220
221
222
223
224
225
226
227
228
229
23
230
231
232
233
234
235
236
237
238
239
24
240
241
242
243
244
245
246
247
248
249
25
250
251
252
253
254
255
256
257
259
26
260
261
262
263
264
265
266
267
268
269
27
270
271
2710063
272
273
274
275
276
277
278
279
28
280
281
282
283
284
285
286
287
288
289
29
290
291
292
293
294
295
296
297
298
299
3
30
300
301
302
303
304
306
31
310
312
313
315
316
317
318
32
320
321
323
325
327
329
33
330
331
333
338
34
340
345
347
35
350
351
354
355
356
357
36
360
361
369
37
375
38
380
385
387
39
393
395
4
40
400
404
407
41
415
42
420
43
433
44
45
450
46
461
465
47
470
48
480
486
487
49
498
5
50
500
51
512
519
52
520
521
53
54
540
55
550
56
561
57
570
58
582
59
592
593
595
6
60
600
602
61
62
623
63
64
65
650
66
67
6702
68
69
7
70
700
71
72
73
74
75
750
76
77
78
79
8
80
800
81
82
83
84
85
86
87
88
886
89
9
90
900
91
92
93
94
95
96
97
978
979
98
981
99
999
:
;
<
=
>
?
@
[
\
]
^
_
`
a
aa
aaptos
ab
abad
abadi
abaik
abang
abbas
abc
abd
abdominalis
abdul
abdullah
abdurrahman
aberrans
abidin
abih
abjad
about
abraham
abu
abuih
abyssocladia
ac
academic
academy
acalolepta
acanthella
acanthonevra
acara
acarnia
acarnidae
acarnus
acaro
acartauchenius
access
accessdate
accessed
aceh
achmad
aciculites
acidiella
acnemia
acok
acragas
acritus
acroceratitis
act
actia
actinoptera
actinopus
aculeata
aculepeira
acuminata
acutipula
ad
ada
adaik
adalah
adam
adaptasi
adat
adesmus
adetus
adi
adiak
adiaknyo
adik
adityawarman
administrasi
administratif
administration
administrativ
adnan
ado
adolah
adonan
adonyo
adopun
adu
aduak
ae
aedes
aedimorphus
aegogropila
aeletes
aelurillus
aequalis
af
affairs
affinis
afghanistan
afraflacilla
africa
african
africana
afrika
afrolimonia
afroneta
after
ag
agabus
against
agak
agam
agama
agamo
agapanthia
agar
agdam
age
agelas
agelasta
agen
agency
ages
agiah
agresi
agresif
agromyza
agromyzidae
aguang
agung
agus
agustus
agyneta
ah
ahli
ahmad
ai
aia
aianyo
aie
aip
aipc
air
airport
aisyah
aj
ajak
ajang
ajaran
aji
ajo
ak
aka
akademi
akademik
akademisi
akan
akar
akbar
akhia
akhianyo
akhir
akhirnya
akhirnyo
akia
akianyo
akiaran
akibaik
akibaiknyo
akibat
akreditasi
aksara
akses
aksi
aktif
aktivis
aktivitas
aktor
aktris
aku
akun
akuntansi
akut
al
ala
alah
alaik
alam
alami
alan
alang
alas
alasan
alaska
alat
alba
albert
albifrons
albomaculata
album
aldrichi
aleh
alek
aleochara
alepia
alergi
alexander
ali
aliah
alih
alim
aliran
aljabar
aljazair
alkitab
all
allah
allen
alliopsis
allobaccha
allodia
allodiopsis
allograpta
alluaudomyia
alokasi
alpaida
alpha
alpina
alquran
also
alternatif
alticola
aluih
alum
aluminium
alumni
alun
am
amabilis
amaik
amak
amaknyo
aman
amanat
amanda
amauromyza
amber
ambiak
ambigua
amblypsilopus
ambo
ambon
ambun
ameh
america
american
americana
amerika
amin
amir
among
amor
amorphinopsis
ampadu
ampang
ampek
amphilectus
amphimedon
amphoriscus
ampia
ampiang
amran
amrullah
amsterdam
amuah
amurensis
an
anaglyptus
anai
anak
anaknya
anaknyo
analis
analisis
analysis
anam
anambas
anas
anastoechus
anastrepha
anatella
anau
anautojenik
ancak
ancaman
ancient
ancorina
ancorinidae
ancua
and
anda
andalas
andaleh
andaman
anderson
andi
andre
andrenosoma
andrew
android
aneka
anelaphus
aneomochtherus
anepsion
ang
angan
angek
angeles
anggaran
anggota
anggotanyo
angin
angka
angkasa
angkatan
angkek
angko
angkola
angku
angkutan
angok
angola
angulata
anguliphantes
angusta
angustifrons
ani
animalia
anisia
anjiang
anjik
anjing
annual
annulata
annulicornis
annulipes
anomala
anomiopus
anomoia
anopheles
antankarana
antar
antara
antaranews
antaranyo
antarctica
antaro
antaronyo
antena
antennalis
antennata
antho
anthomyiidae
anthony
anthos
anthrax
anti
antigen
antocha
antropologi
anugerah
anwar
anyaman
anyo
ao
ap
apa
apak
apakah
apaknyo
apbd
apbn
aphoebantus
api
apicalis
aplikasi
aplysina
aplysinidae
apo
apobilo
apocephalus
apokah
apollo
apolysis
apomecyna
apopun
appendiculata
april
aprionus
aq
ar
arab
arabia
arabic
arachnida
arachnodes
araeoncus
arah
araneae
araneidae
araneus
arati
aratinyo
arato
arbitrase
arca
archer
archipelago
architecture
archive
archived
archytas
arctica
arctotipula
arcuata
arcuphantes
are
area
arek
arena
argentina
argiope
argyra
ari
arif
arifin
arkeologi
arkys
armada
armata
armenia
armigeres
arnaudi
arsip
arsitek
arsitektur
art
artemisina
arthrocnodax
arthropoda
arthur
arti
article
artikel
artinyo
artis
arts
aru
aruih
arus
as
asa
asahan
asal
asali
asam
asanyo
asarkina
asas
asasi
asbestopluma
asean
asemonea
ashikaga
asia
asian
asiang
asiatica
asilidae
asilus
asin
asing
asisten
asli
aslinyo
asnan
aso
asok
asosiasi
aspek
asphondylia
assamensis
assimilis
associated
association
asteroid
asteroids
asthenargus
astronomi
astronomical
asuransi
asynapta
at
atarba
atas
atau
ataupun
ateh
atehnyo
aten
ateuchus
atherigona
atheta
atholus
ati
atinyo
atlantica
atlantik
atlas
atlet
atmosfer
atok
atom
atomosia
atra
atrata
atrichopogon
aturan
atylotus
atypophthalmus
au
audio
audisi
august
aulagromyza
auletta
aulospongus
aur
aurantiaca
aurata
aurea
australasian
australia
australian
australiensis
australis
austria
austrolimnophila
austromolophilus
austronesia
austrosynapha
author
authors
av
aw
awa
awak
awal
awalnyo
awan
awanyo
award
awards
ax
axinella
axinellidae
axinyssa
axosuberites
ay
ayah
ayahnyo
ayam
ayat
ayu
az
azarkina
azerbaijan
azhar
aziz
azizah
azores
b
ba
baa
baagamo
baarati
baasa
bab
babagai
babahan
babahaso
babahayo
babak
baban
babantuak
babarapo
babasis
babateh
babatehan
babeda
babedo
babi
babuek
babukik
babungo
babunyi
baburu
bacakak
bacampua
bacanius
bacarito
bacchisa
back
bactrocera
bada
badagang
badah
badai
badak
badan
badannyo
badarah
badasa
badasakan
badasaran
badasarkan
badaulaik
badia
badiri
badirinyo
badunsanak
baduo
baeoura
bafungsi
bagabuang
bagaimana
bagala
baganti
bagantuang
bagarak
bagi
bagian
bagindo
bagonjong
baguno
bagus
bahan
bahasa
bahasia
bahasil
bahaso
bahasonyo
bahayo
bahkan
bahrain
bahru
bahsonyo
bahu
bahubuangan
bahwa
bahwasanyo
baiak
baik
baillargeon
bailly
baisi
baitu
baja
bajak
bajalan
bajarak
baju
bajuang
bajudul
bajumlah
bak
baka
bakadudukan
bakaik
bakaitan
bakal
bakambang
bakapasitas
bakar
bakarajo
bakato
bakeh
bakeri
bakisar
bako
bakomunikasi
bakteri
bakti
baku
bakuaso
bakumpua
bakunjuang
bakurang
bala
balabiahan
balado
balah
balahan
balai
balakang
balakangan
balaku
balando
balang
balangsuang
balanjuik
balansuang
balap
balari
baleh
bali
baliak
baliau
balik
ball
balogh
balok
balokasi
baluik
bamacam
bamain
bamakna
bambang
bambu
bamukim
bamulo
ban
bana
banamo
banang
banca
bancano
banco
band
banda
bandar
bandara
bandaro
bandiang
bando
bandung
bang
bangka
bangkai
bangkik
bangkinang
bangkok
bangku
bangladesh
bangsa
bangsawan
bangso
bangun
bangunan
bangunannyo
bani
banjar
banjarmasin
banjir
bank
banks
banso
banten
banteng
bantu
bantuak
bantuaknyo
bantuan
banua
banuhampu
banyak
banyaknyo
banyuasin
bao
bapak
bapandapek
bapanduduak
bapangaruah
baparan
baparang
bapikia
bapindah
bapori
bapusek
bara
barado
baragam
baragamo
baraik
baraja
barakhia
baralek
barambuik
barang
barangkek
barani
baranti
barapi
bararti
barasa
barasal
barasia
barasiah
barasil
barat
barbara
bareh
barek
bareproduksi
barih
barikuik
barikuiknyo
baringin
baris
barisan
barisi
baritania
barito
baro
barono
barrion
baru
baruah
baruak
baruang
barubah
barulah
barulang
barumua
barupo
barusaho
basa
basah
basalis
basamo
basamoan
basandi
basatu
base
based
basi
basifaik
basilewskyi
basipaik
basir
basis
basket
basketball
baso
basobok
basonyo
bastatus
basuki
basuo
basurek
baswedan
bata
batagak
batahan
batak
batalua
batam
batambah
batampek
batamu
batang
batangguang
batanghari
batangnyo
batanyo
batas
batavia
bateh
batesi
bathippus
bathyphantes
batiak
batik
batin
batindak
batingkek
batino
batipuh
batocera
batrachorhina
batrisodes
batu
batua
batuah
batuak
batuan
batuang
batugas
batugeh
batujuan
batuka
batur
baturuik
batusangkar
baubah
baukuran
baumua
baun
bausaho
bavariasi
bavia
bawah
bawahan
bawahnyo
bawang
bawarna
bawarno
bayam
bayang
bayi
bayu
bayua
bb
bbc
bc
bd
be
beasiswa
beata
beatty
beaver
bebas
beberapa
beckeri
beda
bedagai
begitu
beijing
bekas
bekasi
bekerja
beko
bela
belajar
belakang
belanda
belgia
beliau
belitung
bella
belle
belt
belum
belvosia
ben
benar
bencana
benda
bendera
bengalensis
bengkalis
bengkulu
benjamin
bensin
benteng
bentuk
benua
berada
berang
berarti
beras
berasal
berat
berbagai
berbeda
berdasarkan
berdeniella
berdiri
bergenstamm
bergerak
bergquist
berhasil
berikut
beringotipula
berita
berjalan
berkas
berland
berlin
bernard
berry
bersama
bersatu
bertambah
berubah
berulang
besar
besi
best
betawi
betino
beton
between
bezzia
bf
bg
bh
bhutan
bi
bia
biak
biannulata
bianor
biaro
biasa
biasanya
biasanyo
biaso
biasonyo
biaya
biayo
bibcode
bibia
bicolor
bid
bidang
bidessus
biemna
bifasciata
bifida
big
biji
bijo
bila
bilah
bilangan
biliak
bill
billaea
bilo
bimaculata
bimaculatus
bin
binatang
bini
bininyo
binjai
bintan
bintang
binti
bio
biografi
biography
biologi
biology
bioskop
bireun
biro
biru
bisa
bisby
bishop
bisnis
biso
bissau
bisuak
biswas
bivittata
bizantium
bj
bk
bl
black
blackwall
bledius
blepephaeus
blepharella
blepisanis
blest
blog
blok
bm
bmw
bn
bo
board
bodi
bodies
body
bogor
bola
boleh
boletina
bolivia
bom
bombyliidae
bombylius
bonjol
book
books
boot
borealis
borneensis
borneo
borojevic
bosegh
bosmans
bosnia
boston
botanophila
botswana
bourgoin
boury
boven
bowerbank
box
boy
bp
bpcb
bps
bq
br
brachypogon
brachypremna
brasil
brasiliensis
brauer
brazil
breda
breitfuss
brescovit
brevicornis
brevicornu
brevipennis
brevipes
brevis
brignoli
brill
britain
britania
britannica
british
bromo
broughton
brown
browser
brunei
brunettia
brunnea
brunneus
bryant
brøndsted
bs
bt
bu
buah
buahan
buahnyo
buai
buakaw
buang
buatan
buayo
bubua
bubuak
bubur
budak
budaya
budayawan
budayo
buddha
budi
buek
bugih
bugis
bujang
bujur
bukan
bukanlah
bukik
bukiktinggi
bukit
bukittinggi
bukti
buku
bukunyo
bulan
bulando
bulek
bulgaria
buliah
bulian
bulletin
bulu
buluah
bumbu
bumi
bunda
bundo
bung
bunga
bungo
bungonyo
bungsu
bunyi
buo
bupati
bureau
burhanuddin
bursa
burton
buruak
buruang
buruh
burung
bus
business
but
butler
butuah
buya
bv
bw
bx
by
bz
c
ca
cabang
cacia
cadangan
cadiak
cagar
cagarbudaya
cahaya
cahayo
caia
cairan
calcarea
caledonia
caliak
california
californica
callitrichia
callyspongia
callyspongiidae
calon
calthropella
calycomyza
calyx
cam
camargo
cambridge
cameh
campiglossa
campo
campsicnemus
camptomyia
campua
campuran
campylocheta
campylomyza
can
canada
canadensis
candi
cando
canduang
caniago
canthidium
canthon
cantik
cap
capek
capellen
capensis
capital
caporiacco
car
cara
carcelia
carcinops
care
cari
carinata
carito
carl
carmia
caro
caroline
caronyo
carpelimus
carrhotus
carter
carteri
caryomyia
case
castanea
cat
catachlorops
catalina
catalog
catalogue
catatan
catharsius
catur
caussols
cb
cc
ccd
cd
cdc
ce
cecidomyia
cecidomyiidae
cegak
cek
ceko
celebensis
census
censusindia
center
central
centre
centromerus
century
cepat
cerambycidae
ceraticelus
ceratinella
ceratinopsis
ceratitis
ceratocheilus
ceratopogon
ceratopogonidae
ceratopsion
cerdistus
ceresium
cerita
cerodontha
ceromya
ceroplesis
cerpen
cetak
cetakan
cf
cg
ch
cha
chaetabraeus
chairil
chalcoscirtus
chalinidae
chalinula
cham
chamberlin
chambers
champa
championship
chan
chandra
change
changing
chaniago
chapter
characella
chariesthes
charles
chart
checklist
cheilotrichia
chemistry
chen
cherry
cherrybelle
chetogena
chibi
chicago
chickering
children
chile
chilensis
chili
china
chinensis
chinese
chionea
chira
chironomidae
chironomus
chlamydopsis
chloridolum
chlorophorus
choerades
chondrilla
chondrocladia
chondropsis
chonocephalus
chorizopes
christian
christine
christopher
christy
chromatomyia
chrysanthrax
chrysoprasis
chrysops
chrysosoma
chrysotus
church
ci
cia
ciek
ciliata
cina
cinachyrella
cincin
cincta
cindawan
cindua
cinerea
cingulata
cino
cinta
cinto
ciocalypta
cipta
cirebon
ciri
cirik
cita
cite
cities
cito
citra
city
civil
cj
ck
cl
cladochalina
cladocroce
cladorhiza
cladorhizidae
claripennis
clarke
class
classifying
clathria
clathrina
clavata
clearing
clephydroneura
cleptometopus
climate
clinical
clinodiplosis
cliona
clionaidae
closterus
club
cluzobra
clytus
cm
cn
cnn
co
coauthors
cobanus
coccorchestes
cocok
code
coelosia
coelosphaera
coelosphaeridae
coenosia
cognata
cokelat
coklat
coleoptera
collaris
collection
college
collinsia
colobothea
colonial
columbia
com
comba
cometes
comets
commission
committee
commons
communis
community
company
comparative
complete
compressa
compsibidion
comptosia
conan
concolor
condong
condylostylus
conference
conform
confusa
congress
conica
conophorus
conservation
constitution
contarinia
contemporary
content
contoh
contohnyo
control
copa
copelatus
copestylum
cophura
copris
coprophanaeus
copy
coquillettidia
corak
corallistes
cordyla
cornell
cornuta
corona
coronavirus
corporation
cortodera
corvospongilla
corythalia
cosmophasis
costa
costalis
cotinusa
council
countries
country
county
court
covid
cp
cq
cr
craniella
crassa
crassipes
creek
crella
crellidae
cricotopus
cristata
critical
crosby
cryptolabis
cs
css
ct
ctenophora
cu
cuaca
cubadak
cubo
cucu
cukuik
cukup
culex
culicidae
culicoides
cultural
culture
cuma
cup
curah
curam
current
cut
cuti
cutler
cv
cw
cx
cy
cyber
cybister
cyclosa
cydistomyia
cylindrica
cylindromyia
cyrtarachne
cyrtoneurina
cyrtophora
cyrtopogon
cytaea
cytherea
cz
d
da
dactylia
dactylolabis
dacus
dadiah
dado
daerah
daftar
dagang
dagiang
daging
dahan
dahl
dahlan
dahlgrenius
dahulu
dahulunyo
dai
daily
dairi
dak
dakek
dakwah
dalam
dalamnyo
damai
damalis
damam
damikian
dampak
dan
dana
danau
dangan
daniel
dapaik
dapat
dapek
dapil
dapua
dara
darah
darat
daratan
darek
dari
daring
daripada
daripado
daro
darul
darurat
darussalam
darwinella
das
dasa
dasar
dasarnyo
dasineura
dasybasis
dasyhelea
dasypogon
data
database
datang
datar
dataran
date
dato
datuak
datuk
daulu
daulunyo
daun
daunnyo
david
davis
day
daya
dayak
dayo
db
dc
dd
de
death
debehogne
debilis
debit
debut
december
decipiens
deeleman
definisi
definition
dek
dekade
dekan
dekat
del
delhi
deli
delia
delicata
delta
deltochilum
demak
demi
demikian
democracy
demografi
demokrasi
demokrat
demonax
demospongiae
den
dendang
dendrilla
dendryphantes
dendy
dendyi
dengan
denis
denmark
denpasar
dentata
depan
departemen
department
depok
depressa
deputi
der
derajat
dercitus
derolus
deronectes
des
desa
desain
desember
desert
desmacella
desmacellidae
desmiphora
desmopachria
destinasi
desvoidy
detail
details
detective
detik
detikhealth
detiknews
development
devi
dewa
dewan
dewasa
dewi
dexia
df
dg
dh
dharma
dharmasraya
dhumavati
di
dia
diabaikan
diabetes
diabuih
diadelia
diadoan
diadokan
diagiah
diagiahan
diagnosis
diakses
diakui
dialek
diam
diambiak
diamesa
diameter
dianggap
dianggok
diangkek
diantaro
diantaronyo
dianuik
diaphorus
diarsipkan
diateh
diatua
diatur
diawali
dibaco
dibagi
dibaka
dibandiang
dibandiangan
dibandiangkan
dibangun
dibantu
dibantuak
dibao
dibaok
dibawah
dibentuk
diberi
diberikan
dibuang
dibuek
dibukak
dibungkuih
dicaliak
dicampua
dicapai
dicari
dicetak
dichaetomyia
dichelacera
dichotomius
dicranomyia
dicranophragma
dicranoptycha
dictionary
didalam
didapek
didefinisikan
didirian
didirikan
didominasi
diduga
didukuang
die
difficilis
difusi
diganti
digantian
digantikan
digital
digitata
digoel
digoreng
digunakan
digunoan
digunokan
dihapus
dihasiakan
dihasilkan
dihuni
diikuti
diisi
dijadian
dijadikan
dijalehan
dijua
dikaliliangi
dikalola
dikaluaan
dikaluakan
dikambangkan
dikana
dikarajoan
dikaranoan
dikaranokan
dikaruniai
dikatahui
dikataui
dikatoan
dikatokan
dikelola
dikenal
diketahui
dikirim
dikonsumsi
dikunjuangi
dikunjungi
dilahiakan
dilaksanakan
dilakuan
dilakukan
dilalui
dilanjuikan
dilantik
dilaporkan
dilarang
dilatakan
dilatakkan
dilengkapi
diliek
dima
dimainan
dimainkan
dimakamkan
dimakan
dimanfaatkan
dimano
dimasak
dimasuakan
dimensi
dimidiata
dimiliki
dimintak
diminum
dimuek
dimulai
dinamoan
dinamoi
dinamokan
dinas
dinasti
dindiang
dingin
dini
dinilai
dinyatoan
dinyatokan
dioctria
diogmites
diolah
diolenius
dipacayo
dipacik
dipagunoan
dipahami
dipakai
dipakiroan
dipakirokan
dipandang
dipangaruahi
dipanggia
diparaluan
dipasang
dipicayo
dipiliah
dipimpin
dipindahan
dipindahkan
diplocephalus
diploma
diplomat
diplonevra
diponegoro
dipotong
diproduksi
diptera
diraiah
dirancang
direktorat
direktori
direktur
diresmian
diresmikan
diri
dirilis
dirinyo
dirphya
dirut
disababkan
disabuik
disabuikan
disadioan
disahkan
disajian
disajikan
disampaian
disampaikan
disampiang
disarankan
discodermia
disease
diseases
disebabkan
disebut
disembolus
disiko
disimpan
disinan
disingkek
disiplin
diskusi
dispar
displaystyle
dissimilis
distenia
distincta
distinctus
distribusi
distrik
disukoi
disusun
disutradarai
ditabang
ditabik
ditabikan
ditabikkan
ditagakan
ditahan
ditambah
ditambahan
ditambahkan
ditampuah
ditamuan
ditamui
ditamuii
ditamukan
ditanam
ditandoi
ditangkok
ditantuan
ditarimo
ditatapkan
ditayangan
ditemukan
ditetapkan
ditulih
ditunjuak
diturunkan
ditutuakan
ditutuik
diubah
diuni
divisi
division
diyakini
dj
djamil
djamin
djpk
djur
dk
dki
dkk
dl
dll
dm
dn
dna
do
doa
docosia
doh
dohrniphora
doi
dokter
doktor
dokumen
dokumentasi
doleschall
dolichopeza
dolichopodidae
dolichopus
dolok
domain
domestik
dominan
don
donald
dong
doom
dorcadion
dorsalis
dosen
dosis
dotor
download
dp
dpd
dpl
dpr
dprd
dq
dr
dragmacidon
drama
drino
dro
drosophila
drs
drug
drugs
drymeia
ds
dsb
dt
du
dua
dubia
dubiaranea
dubius
duduak
duduk
dukcapil
duku
dukuangan
dukun
dulang
dulu
dulunyo
dumai
dunia
dunio
dunsanak
duo
duri
durian
dusun
duta
dutch
dv
dw
dwi
dx
dy
dynatosoma
dysidea
dysideidae
dysmachus
dytiscidae
dz
dziedzickia
e
ea
eagle
early
earth
east
eastern
eb
eblisia
eburia
eburodacrys
ec
echinochalina
echinoclathria
echinodictyum
echinopodium
ecionemia
economic
economy
ectyodoryx
ed
edisi
edison
edition
editor
eds
edu
education
edward
edwards
edwardsi
ee
ef
efek
efektif
effendi
efferia
eg
egesina
eh
ei
ej
ejov
ek
eka
ekologi
ekonomi
ekosistem
eks
eksekutif
eksentrisitas
ekspedisi
ekspor
ekspres
ekspresi
ekuador
el
elaphidion
elegans
elektron
elektronik
elemen
elephantomyia
elitra
elizabeth
ellipteroides
elly
eloeophila
elok
elongata
elongatus
elor
elsevier
elst
em
emas
emerton
empat
empeda
empire
en
enak
enam
encyclopaedia
encyclopedia
encyclopædia
end
endectyon
endemik
energi
engineering
england
english
enim
ensiklopedi
ensiklopedia
entelecara
entertainment
environment
eo
eosen
ep
epalpus
epania
ephydatia
epicypta
epierus
epiphragma
episode
eq
er
era
erecta
eremotipula
eretmapodites
eric
erigone
erigonoplus
eriocera
eriophora
erioptera
erniwati
eropa
erylus
es
esc
esenbeckia
eskov
esnault
esperiopsidae
esperiopsis
essays
estola
et
ethiopia
ethnic
ethnicity
ethnologue
etnik
etnis
eu
eucelatoria
euderces
eumicrotipula
eunapius
eunidia
euophrys
euphranta
euphylidorea
eupogonius
eurasia
europe
european
eurypon
eurysternus
euscelidia
euspilotus
eustala
eutreta
eutrichota
ev
evarcha
evenhuis
everest
evolusi
evolution
ew
ex
excitation
exechia
exechiopsis
exhyalanthrax
exigua
exilis
exocelina
exocentrus
exoprosopa
exorista
express
ey
ez
f
fa
facebook
fact
factbook
facts
fage
fahmi
fakta
faktor
fakultas
falcata
fallax
false
famili
familia
family
faq
far
farmasi
farpoint
farra
fasciata
fasciatus
fasciospongia
fase
fasilitas
fatwa
fauna
fauzi
fb
fc
fd
fe
feb
februari
february
federal
federasi
federation
feminin
femoralis
fenestrata
fenomena
fernandez
ferruginea
festiva
festival
ff
fg
fh
fi
fidena
fifa
fiji
file
files
filipina
film
filosofi
filsafat
filsuf
filum
final
finali
finalis
financial
finlandia
firdaus
first
fisik
fisika
fitri
fitur
five
fix
fj
fk
fl
flava
flavescens
flavicornis
flavipennis
flavipes
flaviventris
flora
flores
florida
flu
fm
fn
fo
fokus
food
football
for
forbes
forcepia
forcipomyia
ford
foreign
formal
formasi
format
formosa
formosana
formotipula
fort
forum
fosil
foto
foundation
fountain
fox
fp
fq
fr
fragilis
fraksi
franc
france
francis
francisco
franganillo
frank
frasa
frea
frederick
free
freedom
frekuensi
french
freya
friends
from
frontalis
frontcover
fs
ft
fu
full
fulva
fumipennis
fund
funebris
fungsi
furcata
fusca
fuscipennis
fuscus
future
fv
fw
fx
fy
fz
g
ga
gabon
gabuangan
gadang
gadangnyo
gadih
gading
gadis
gadjah
gado
gaduang
gaek
gaeknyo
gagah
gagal
gagasan
gajah
gajalo
gajbe
gaji
gala
galak
galamai
galang
galapagos
galeh
galiano
galok
galombang
gamba
gambar
gambaran
game
games
gampo
gan
ganda
gandang
gandhi
gangguan
gani
ganti
gantiang
ganting
gao
garak
garakan
garam
garang
gareja
garih
garik
garis
garuda
gas
gasteracantha
gata
gatah
gaya
gayo
gazetteer
gb
gc
gd
ge
gedung
gehrels
gejala
gelar
gelliodes
gellius
gema
gemeente
gempa
gen
general
generasi
genetik
geniculata
genus
geodia
geodiidae
geografi
geografis
geographic
geography
geologi
geonet
george
georgia
gerak
gerakan
geranomyia
gerbang
gereja
german
germany
geron
gertsch
gf
gg
gh
ghana
gibbons
gigantea
gigas
gigi
gilo
gj
gk
gl
glabra
glaphyra
glenea
gletser
global
globosa
gm
gn
gnomidolon
gnophomyia
gnypeta
go
gobah
god
godang
goephanes
gol
gold
golkar
golongan
gombak
gonatium
gongylidiellum
gongylidioides
gonia
goniodineura
gonjong
gonomyia
good
goodricke
google
goreang
goreng
gorontalo
gov
government
gp
gq
gr
gracilipes
gracilis
gram
gramedia
grammonota
grand
grandis
grantessa
grantia
graphomya
graptomyza
gravitasi
gray
great
greater
greek
green
greenland
gregorian
gressitti
grisea
grisescens
griswold
groeneveld
group
groups
grup
gs
gt
gto
gu
gua
guancha
guardian
guatemala
gubernur
gudang
guguak
gugus
guiana
guide
guinea
guitarra
gula
gulai
gulo
guno
gunuang
gunung
guo
gurih
guru
gurun
gusti
guttata
guyana
gv
gw
gx
gy
gymnastes
gymnodia
gymnophora
gymnopleurus
gynoplistia
gyrophaena
gz
h
ha
habibie
habis
habitat
habitatnyo
habrocestum
habronattus
hadi
hadiah
hadir
hadis
hadits
haeckel
haemadipsa
haematopota
hajdu
haji
hak
hakim
hal
halal
halaman
haleakala
halichoclona
halichondria
halichondriidae
haliclona
halim
halisarca
hall
halodiplosis
haluan
haluih
ham
hamacantha
hamata
hamataliwa
hamid
hamka
hampia
hampir
hamzah
han
handbook
hanya
hanyo
haplinis
happy
hapus
harago
haram
harapan
harato
harau
harga
hari
harian
harimau
harry
harta
harten
haruih
harum
harun
harus
harvard
has
hasan
hasanuddin
hasarius
hasia
hasil
hasril
hassan
hasundutan
hasyim
hati
hatinya
hatta
havaika
have
hawaii
hayati
hb
hc
hd
he
health
hebat
hebrides
hee
hektar
hektare
helena
helictopleurus
heligmonevra
helin
helina
heliocopris
heliophanus
helius
hello
helsdingen
hemiasterella
hemigellius
hemilea
hemingway
hemipenthes
hendak
hendri
henry
hentschel
hentz
hentzia
hepatitis
herbivora
hercostomus
heritage
herman
heryawan
hesperotipula
het
heterachthes
heteralonia
heteropogon
heterotropus
heteroxyidae
hewan
hexachaeta
hexatoma
hf
hg
hh
hias
hiasan
hiburan
hidangan
hiduik
hiduiknyo
hidup
higginsia
high
hijau
hilaira
hilang
hilia
hilir
hill
hills
himalaya
himpunan
hindia
hindu
hingga
hinggo
hippospongia
hirsuta
hirsutus
hirta
his
hispaniola
hispida
hister
histeridae
historical
historis
history
hitam
hitler
hiu
hj
hk
hl
hlm
hm
hn
ho
hogg
holarktik
hollywood
holm
holmes
hololepta
holoplatys
holopogon
holorusia
holt
holy
home
honda
honduras
hong
hongaria
hooper
horison
hoshino
hospital
hotel
house
houten
how
howe
hozawa
hp
hq
hr
hs
ht
html
http
https
hu
hubuangan
hubungan
hujan
hukum
hukuman
hull
hulu
human
humaniora
humas
humbang
humeralis
humilis
huruf
husein
hutan
hv
hw
hx
hy
hyattella
hybomitra
hydaticus
hydroglyphus
hydrophorus
hydroporus
hydrotaea
hydrovatus
hygrotus
hyllisia
hyllus
hymedesmia
hymedesmiidae
hymenancora
hymeniacidon
hypaeus
hyphydrus
hypocacculus
hypocaccus
hypognatha
hyrtios
hz
i
ia
iain
ianuarie
ibadah
ibn
ibnu
ibrahim
ibrani
ibu
ibukota
ibunyo
icar
icarus
ichthyodes
icius
id
ide
identik
identitas
identity
ideologi
idham
idiocera
idris
iduik
iduiknyo
idul
iei
ii
iii
ijau
ijuak
ikan
ikatan
ikek
ikip
iklan
iklim
iko
ikolah
ikon
ikua
ikuik
il
ilang
ilau
ilimu
ilir
ilmiah
ilmu
ilmuwan
ilor
ilyas
ilybius
imam
iman
imdb
imigran
imitator
immaculata
impact
implan
improphantes
in
inaequalis
inc
incek
incerta
incestophantes
including
incrustans
indah
indak
indaklah
indang
indeks
independen
index
india
indian
indica
indicus
indie
indische
individu
indo
indonesia
indonesian
indotipula
indra
indragiri
induak
induaknyo
industri
industry
inermis
infectious
infeksi
inflata
influenza
info
informasi
informatika
information
infrastruktur
inggirih
inggo
inggrih
inggris
ingin
ini
inilah
inornata
inovasi
insani
insecta
insignis
instagram
insting
institusi
institut
institute
institutul
instruksi
insularis
insulin
int
intan
intelektual
intelligence
interaksi
intermedia
intermedius
internal
internasional
international
internet
interrupta
inti
into
introduction
investasi
inyiak
inyo
io
iolah
ional
iophon
iotroata
iotrochota
ipa
ipb
iqbal
ir
irak
irama
iran
iraq
ircinia
irciniidae
irlandia
irregularis
irwan
is
isa
isbn
ischnothrix
ischnotoma
isi
isinyo
iskandar
islam
islamic
islamiyah
island
islands
ismail
iso
isodictya
isonzo
israel
issn
istana
istanbul
istano
istiadaik
istilah
istimewa
istri
istrinyo
isu
it
italia
itam
itb
itiak
itis
ito
its
itu
itulah
iucn
iv
ivie
ix
iyo
iyolah
izin
j
ja
jaapiella
jabar
jabatan
jabatannyo
jabrayil
jabung
jackson
jadi
jaeff
jaek
jago
jaguang
jajahan
jajak
jakarta
jala
jalan
jalanan
jaleh
jalua
jalur
jam
jamaah
jamaicensis
jamaika
jaman
jambak
jambatan
jambi
jambu
jamee
james
jamil
jan
jane
jang
jangan
jangko
janiah
janjang
janji
jantan
jantuang
januari
january
jao
japan
japanagromyza
japanese
japang
japonica
japonicus
jarak
jarang
jari
jariang
jaringan
jarum
jasa
jaso
jaspis
jati
jatuah
jatuh
jauah
jauh
java
javanica
jawa
jawab
jawek
jawi
jaya
jazeera
jb
jc
jd
je
jean
jejak
jembatan
jendela
jenderal
jenis
jenkin
jepang
jerman
jerusalem
jet
jewish
jf
jg
jh
ji
jihad
jika
jiko
jikok
jilid
jin
jingga
jinih
jiwa
jj
jk
jkt
jl
jm
jn
jo
joan
jocque
johannes
john
johnson
johnsoni
johor
joko
jokowi
jolong
jonathan
jones
jong
jopang
jordanoleiopus
jorong
jose
joseph
journal
jp
jpg
jpl
jq
jr
js
jstor
jt
ju
jua
juan
juara
juaro
judul
juels
juga
jugo
juli
julukan
july
jumalah
jumlah
jumlahnyo
jun
june
jung
juni
junior
juo
juri
jurnal
jurnalis
jurnalistik
juru
jurusan
justice
jusuf
juta
jv
jw
jx
jy
jz
k
ka
kaadaan
kaagamoan
kaamanan
kaampek
kaanam
kab
kaba
kabakaran
kabangsaan
kabanyakan
kabar
kabaradoan
kabau
kabebasan
kabel
kabiasaan
kabiasoan
kabijakan
kabinet
kabudayaan
kabudayoan
kabun
kabupaten
kabutuahan
kabutuhan
kacamatan
kacang
kacau
kaciak
kaco
kacomato
kacuali
kadai
kadal
kadalam
kadalaman
kadang
kadar
kadatangan
kadokteran
kadua
kaduduakan
kadudukan
kaduo
kaduonyo
kagiatan
kahidupan
kahilangan
kahin
kahormatan
kain
kaindahan
kainginan
kairo
kaisar
kajadian
kajahatan
kajai
kajang
kajian
kajuaraan
kakaisaran
kakak
kakalahan
kakayoan
kaki
kakinyo
kaku
kakuasaan
kakuasoan
kakuatan
kakurangan
kala
kaladi
kalah
kalahiran
kalainan
kalam
kalangan
kalas
kalau
kalcerrytus
kaledonia
kalender
kaleng
kali
kalian
kaliang
kalimaik
kalimantan
kalimo
kalinyo
kalla
kalompok
kalsium
kaltim
kalua
kaluang
kaluarga
kaluarganyo
kaluargo
kalurahan
kamajuan
kamampuan
kamanakan
kamanangan
kamang
kamantarian
kamar
kamardekaan
kamatian
kamba
kambali
kambang
kambiang
kambing
kamboja
kamera
kamerdekaan
kamerun
kami
kamil
kampanye
kampar
kampuang
kampung
kampus
kamu
kamudian
kamungkinan
kamus
kan
kanada
kanagarian
kanai
kanak
kanal
kanan
kanari
kancang
kandali
kandang
kandangnyo
kandaraan
kanduang
kanduangan
kandungan
kang
kanker
kantang
kantin
kantor
kantua
kapa
kapadatan
kapado
kapal
kapalo
kapalonyo
kapamimpinan
kapantiangan
kapasitas
kapau
kapeh
kapicayoan
kapolisian
kapten
kapua
kapulauan
kapur
kaputusan
karajaan
karajinan
karajo
karajoan
karajonyo
karak
karakorum
karakter
karakteristik
karambia
karang
karangan
karano
karateh
karbohidrat
karbon
kareh
karena
kareno
karet
kareta
kariang
karier
kariernyo
karim
karimun
karir
karno
karo
karsch
karshomyia
kartini
kartu
karupuak
karusakan
karya
karyanyo
karyawan
kasa
kasadaran
kasado
kasadonyo
kasalahan
kasaluruahan
kasatuan
kasehatan
kasenian
kashmir
kasih
kasihatan
kasim
kasultanan
kasus
kaszabi
kata
katan
katantuan
katarangan
katedral
kategori
kathmandu
katigo
katiko
katinggian
kato
katolik
katto
katua
katujuah
katuo
katupek
katurunan
kau
kauangan
kaum
kauntuangan
kaur
kawah
kawajiban
kawan
kawannyo
kawasan
kawin
kaya
kayakinan
kayo
kayu
kazakhstan
kb
kbbi
kc
kd
ke
keadaan
keadilan
keamanan
kebangkitan
kebijakan
kebudayaan
kebun
kec
kecamatan
kecap
kecek
kecepatan
kecil
kedah
kedokteran
kedua
kegiatan
kehidupan
kehormatan
kehutanan
kekaisaran
kelantan
kelapa
kelas
kelenteng
kelly
kelok
kelompok
keluar
keluarga
kelurahan
kembali
kemdikbud
kemendagri
kemenkeu
kementerian
kemerdekaan
kemudian
kena
kendaraan
kenek
kental
kenya
kepada
kepahiang
kepala
kependudukan
kepulauan
kepustakaan
keputusan
kerajaan
keras
kereta
kerinci
kerja
kesatuan
kesehatan
kesenian
kesultanan
ketapang
ketek
keteknyo
ketiga
ketika
ketua
keturunan
keuangan
kewarganegaraan
keyserling
kf
kg
kh
khadijah
khalifah
khan
khas
khatib
khatulistiwa
khazar
khusus
khususnyo
ki
kida
kieh
kilometer
kim
kimia
kinabalu
king
kingdom
kini
kiniko
kirgizstan
kiri
kirk
kirkpatrick
kiro
kisah
kita
kitab
kito
kitt
kj
kk
kl
klan
klasifikasi
klasik
klautau
klet
klinik
klub
kluet
km
kn
knowledge
ko
kobayashi
koch
kochi
kock
kodam
kode
koi
koin
kok
kolam
koleksi
kolesterol
kolombia
kolonel
koloni
kolonial
koltun
komandan
komando
kombinasi
komedi
komering
komersial
komisaris
komisi
komite
komodo
komoro
kompas
kompetisi
komplek
kompleks
komplikasi
komponen
komposisi
komputer
komunikasi
komunis
komunitas
kondisi
konfederasi
konferensi
konflik
kong
kongo
kongres
konon
konsentrasi
konsep
konser
konservasi
konsonan
konstitusi
konstruksi
konsumen
konsumsi
kontak
konteks
kontemporer
kontrak
koordinat
koordinator
koperasi
kopi
koponen
koran
korban
korea
korean
korlevic
koronavirus
korupsi
kosong
kosta
kota
kotak
kotanyo
koto
kozok
kp
kpt
kpu
kq
kr
krakatau
kreatif
kredit
krisis
kristal
kristen
kritik
kritikus
kritis
krueng
ks
kt
ku
kuah
kuaik
kuala
kuali
kualitas
kuantan
kuaso
kuat
kuba
kubah
kubang
kubu
kuciang
kuda
kudian
kudo
kudus
kue
kuek
kuil
kuku
kulczynski
kulek
kuliah
kulik
kuliknyo
kuliner
kulit
kumango
kumbang
kumparan
kumpulan
kumuah
kunci
kuniang
kuning
kunjuangan
kuno
kunyik
kupang
kurang
kurangnyo
kuranji
kurikulum
kurinci
kurisi
kursi
kursus
kuruang
kurun
kusuih
kutai
kutiko
kutipan
kutub
kuwait
kv
kw
kx
ky
kyoto
kz
l
la
laba
labah
labek
labiah
labicymbium
labih
laboratorium
labuah
labuhan
labuhanbatu
lacconectus
laccophilus
ladang
lado
laeta
laetesia
laevis
lagi
lagu
lah
lahan
lahat
lahia
lahir
lai
laia
lain
lainnya
lainnyo
lainyo
laju
lake
laki
lakinyo
laksamana
laku
lalok
lalu
lama
lamah
lamak
laman
lamang
lamarck
lambago
lambah
lambang
lambe
lambek
lambok
lambrecht
lamela
laminacauda
lamo
lamonyo
lampau
lampu
lampuang
lampung
land
landasan
lanei
langan
langau
langgam
langik
langit
langka
langkah
langkat
langkok
langona
langsuang
langsung
language
languages
lanjuik
lanka
lansuang
lantai
lantik
laos
laosensis
lapan
lapangan
lapau
lapeh
lapek
laphria
laphystia
lapisan
laporan
larangan
lareh
largest
lari
larinia
laruik
larva
larvanyo
las
lasiopogon
lasioptera
laskar
last
lat
lata
latak
lataknyo
latar
lateralis
latif
latifrons
latihan
latin
latipennis
latrunculia
latuihan
lauak
laubenfels
lauik
laut
lautan
law
lawah
lawan
lawang
lawas
laweh
lawrence
layak
layanan
layang
layar
lazim
lb
lc
ld
ldii
le
league
leang
leba
lebanon
lebar
lebih
lebong
lecteria
ledomyia
lee
legal
legenda
legislatif
leia
leiden
leiponeura
leita
lelaki
leluhur
lemak
lematang
lembaga
lembah
lembak
lempeng
lendenfeld
lengkap
lennon
lentera
lepida
lepidanthrax
lepthyphantes
leptoconops
leptogaster
leptolabis
leptomorphus
leptostylus
leptotarsus
leptura
lepturges
lereng
les
lespesia
lessert
lestodiplosis
letkol
letnan
leucandra
leucetta
leucosolenia
leuser
level
levi
levii
levis
lewat
lewis
lexus
lf
lg
lh
li
lia
liar
liatongus
liau
libnotes
library
libya
licin
lidah
lie
liek
life
liga
light
ligyra
lihat
lihia
lilin
lima
limau
limbago
limbodessus
limnophila
limnophora
limo
limonia
limoniidae
lincoln
linda
linduang
line
linear
linearis
lineata
lineatus
lingga
linggau
lingkaran
lingkuangan
lingkungan
lingua
linguistics
linguistik
link
linnaemya
lintang
lintas
lintasan
lintau
linteh
linyphantes
linyphia
linyphiidae
lipek
liputan
lirik
liriomyza
lisan
lispe
lispocephala
lissodendoryx
list
listrik
literature
litsinger
little
live
liverpool
lixophaga
lj
lk
ll
lm
ln
lo
lobata
lobiah
local
localita
localities
locket
locuint
logam
logunov
lokal
lokasi
lolos
lomatia
lomba
lombok
london
loneos
long
longicauda
longicollis
longicornis
longipalpis
longipennis
longipes
longirostris
longurio
lontong
lord
lore
los
louis
love
lower
lp
lpg
lq
lr
ls
lt
ltd
lu
lua
luak
luar
luas
lubang
lubis
lubuak
lubuk
lubuklinggau
lucas
lucida
lueh
lues
lugubris
luhak
luka
lukisan
lukla
lukman
luko
luluih
lulus
lulusan
lumba
lumpur
lunak
lunatipula
lundbeck
lupo
lurah
luruih
lutea
lutzomyia
luweh
lv
lw
lx
ly
lycidas
lydella
lyssomanes
lz
m
ma
maa
maabihan
maadoan
maadok
maagiah
maagiahan
maaja
maalami
maambek
maambiak
maangkek
maatua
macam
macan
machimus
machine
macmillan
macquart
macrolabis
macromastix
maculata
maculatus
maculipennis
maculosa
mada
madagascar
madagascariensis
madagaskar
madang
maddison
made
madeira
madinah
madrasah
madrid
madu
madura
magazine
magek
magister
magna
magnifica
magnitudo
mago
mah
maha
mahasiakan
mahasiswa
mahisok
mahkamah
mahkota
mahmud
mahyeldi
mai
maikuik
main
maira
maisi
majalah
majapahit
majelis
majemuk
major
maju
mak
maka
makah
makam
makan
makanan
makassar
makhluk
makin
making
makkah
makmur
makna
mako
maksimal
maksimum
malabihi
malah
malahiakan
malainkan
malaka
malakek
malaksanakan
malakuan
malakukan
malalui
malam
malambangkan
malang
malangkuang
malanjuikan
malanjuikkan
malapehan
malarang
malaria
malatuih
malawan
malawi
malay
malaya
malayani
malaysia
malayu
malewati
mali
maliek
malik
malikussaleh
malin
malinduangi
malindungi
malintang
maliputi
malloch
mallochohelea
mallophora
malu
maluku
mamacik
mamahami
mamainan
mamainkan
mamak
mamakai
mamakan
mamalia
mamaluak
mamanangan
mamanangkan
mamandang
mamanjang
mamanuahi
mamanuhi
mamarintah
mamasak
mamasuakan
mamasuki
mambaco
mambagi
mambahas
mambali
mambangun
mambantang
mambantu
mambantuak
mambao
mambaok
mambari
mambarikan
mambawo
mambayia
mambuang
mambuek
mambueknyo
mambukak
mambunuah
mamicu
mamiliah
mamiliki
mamimpin
mamintak
mamisahan
mamotong
mampakiroan
mampalajari
mampangaruhi
mamparoleh
mampatahankan
mamproduksi
mampu
mampunyai
mampunyoi
mamuek
mamulai
mamungkinkan
mamutuihan
man
mana
manabikan
manado
managakan
management
manahan
manajemen
manambah
manambahan
manampuah
manampuang
manamuan
manamukan
mananam
manandoan
manang
manangah
manangani
manangih
manangkok
manantang
manantuan
manara
manari
manarik
manarimo
manaruih
manatap
mancagah
mancakuik
mancakup
mancaliak
mancapai
mancari
mancaritoan
mancataik
mancetak
manchester
mancik
manciptakan
mancubo
mandailing
mandaki
mandanga
mandapek
mandapekan
mandapekkan
mandarito
mande
mandeh
mandi
mandiami
mandiri
mandirian
mandirikan
mandorong
manduduki
mandukuang
manfaat
manga
mangacu
mangaja
mangaji
mangaku
mangakui
mangalahan
mangalami
mangalia
mangalola
mangaluaan
mangaluakan
mangambangan
mangambangkan
manganai
manganduang
manganggap
manganuik
mangarajoan
mangarati
mangatahui
mangatasi
mangatoan
mangatokan
mangatur
mangecek
mangecekan
mangenai
manggaleh
manggambaran
manggambarkan
mangganti
manggantian
manggantikan
manggarik
manggerek
manggunakan
manggunoan
manggunokan
manghasilkan
mangikuti
mangirim
mangkaji
mangklaim
mangko
mangkuto
mangora
mangorbit
manguasai
manguasoi
mangubah
mangunoan
mangurangi
manih
manikah
manikmati
maningga
maninggaan
maninggakan
maningkek
maningkekan
maninjau
manis
manjabaik
manjabat
manjadi
manjadian
manjadikan
manjago
manjalanan
manjalang
manjalani
manjalankan
manjalehan
manjalin
manjua
mano
manolak
manolong
manonton
manota
mantan
mantari
manual
manuju
manulak
manulih
manulis
manunggu
manunjang
manunjuak
manunjuakan
manunjuakkan
manuntuik
manuruik
manurun
manurunan
manurunkan
manusia
manutuik
many
manyababan
manyababkan
manyabuik
manyabuikan
manyabuiknyo
manyadioan
manyadiokan
manyalasaian
manyalasaikan
manyambuik
manyampaian
manyarang
manyarupoi
manyatoan
manyatokan
manyeba
manyebabkan
manyerap
manyimpan
manyukoi
manyusun
map
mar
marabuik
marah
maraiah
maraih
marantau
marapi
marapulai
maraso
marato
march
mardeka
mareka
maret
marga
margaret
margarinotus
marginalis
marginata
mari
maria
marie
maritim
mark
markas
market
marketing
marmorata
maro
maroko
marpissa
mars
marshall
marshalli
martabak
martie
martin
marujuak
marupakan
marupoan
marupokan
marusak
marusik
mary
marzuki
mas
masa
masaalah
masajik
masak
masakan
masalah
masam
masarakaik
masehi
masia
masiah
masiang
masicera
masih
masin
masing
masjid
maskapai
maskipun
maso
massa
master
mastophora
masuak
masuakan
masuaknyo
masuk
masyarakaik
masyarakat
masyumi
mata
matahari
matang
mataram
matematika
materi
material
mati
mato
matoari
matohari
matonyo
matriks
matrilineal
mau
maubah
maubek
mauni
maupun
mawakili
max
may
maya
mayor
mayoritas
mazda
mazhab
mc
md
mdpl
me
mecometopus
mecopisthes
medali
medan
medetera
media
medical
medicine
medieval
medina
medis
mediterania
megacyllene
megalitik
megaselia
mei
meigenia
meioneta
meja
mekkah
meksiko
melaka
melakukan
melaloncha
melalui
melanagromyza
melayu
melihat
mello
memang
membangun
membawa
memberi
memberikan
membuat
memiliki
memoriam
mempunyai
men
menara
menarik
mencari
mendapat
menduduki
menemerus
menengah
menerima
menesia
mengabaikan
mengambil
mengapa
mengenai
mengenal
menggunakan
menhir
menikah
meninggal
menjadi
mental
mentawai
menteri
menu
menuju
menurut
menyebabkan
merah
merangin
merantau
merdeka
merek
mereka
meriah
meridionalis
merionoeda
mermessus
merrett
merupakan
merupokan
mesa
mesembrius
mesin
mesir
meski
meskipun
mesnil
mesocyphona
mesomyia
mesosa
mesuji
metacatharsius
metaleptyphantes
metalimnobia
metallica
metaphidippus
metasphenisca
metazygia
metepeira
meter
meters
metode
metopina
metro
metropolitan
mewah
mexcala
mexicana
mexicanus
mexico
mg
mh
mi
micans
michael
michigan
micrargus
micrathena
microciona
microcionidae
microcyba
microneta
micropsectra
microsoft
microstylum
microtipula
middle
mie
migrasi
mihrab
mikro
mil
milenium
milesia
miliak
miliar
milik
military
militer
miller
millidge
million
millot
mimomyia
mimpi
min
minang
minangkabau
minaro
mineral
minggu
mini
minik
minima
minimal
ministry
minor
minta
mintak
minum
minuman
minuscula
minuta
minutus
minyak
mira
mirabilis
mirip
mirnawati
misalnyo
misanyo
misi
miskin
mispila
mit
mitos
mitra
mitsubishi
mixta
mizan
mj
mk
ml
mm
mn
mo
mobil
mobile
mochtar
modal
mode
model
moderen
modern
modesta
modestus
mogrus
mohamad
mohammad
mohon
moko
molekul
mollis
molophilus
monardia
monetary
mongabay
mongol
mongolia
mongoma
monochamus
monohelea
montana
montanus
month
monticola
monumen
moral
morbidelli
more
morellia
mormia
most
motif
motor
mount
moussay
movement
movie
moyang
mp
mpr
mq
mr
ms
mt
mu
muara
muaro
muchtar
muda
mudah
mudiak
mudo
mughiphantes
muhammad
muhammadiyah
mui
mukasuik
mukim
muko
mukomuko
mukonyo
mula
mulai
mulia
mulo
mulonyo
muluik
muncua
muncuanyo
muncul
mundur
mungkin
mungko
munir
muntah
murah
murid
murik
murni
musa
musajik
musca
muscidae
museum
musi
music
musik
musim
musisi
muslim
muslims
musti
musuah
musyawarah
mutiara
mutlaknyo
muyang
mw
mx
my
myanmar
mycale
mycalidae
mycetophila
mycetophilidae
mycodiplosis
mycomya
mydaea
myia
myiopharus
myospila
myrmarachne
mythicomyia
myxilla
n
na
nabi
nada
nafilah
nagar
nagara
nagari
nagaro
naiak
naik
nak
nalayan
nam
nama
name
names
namibia
namo
namonyo
nampak
namun
nan
nana
nanggroe
nangko
nanti
napomyza
nara
nas
nasa
nasdem
nasi
nasib
nasional
nasionalis
naskah
nasution
nat
natal
natalensis
nation
national
nations
natrium
natsir
natuna
natural
nature
navis
nazif
nb
nc
ncov
nd
ndak
ndarmall
ne
neal
nealcidion
near
neat
nebrioporus
nebula
needville
negara
negatif
negeri
nektar
nemoraea
nenek
neoclytus
neocompsa
neodexiopsis
neoempheria
neoitamus
neolasioptera
neolophonotus
neomaso
neomochtherus
neomyia
neon
neopetrosia
neoplocaederus
neoscona
nepal
nepalensis
nepenthes
nephrotoma
neptosternus
neptunus
nerax
neriene
nesopeza
net
netflix
netherlands
nethinius
network
neuratelia
neurigona
new
newbks
news
newton
ng
ngarai
nh
ni
niaik
nias
nicolson
nieh
niei
niger
nigeria
nigra
nigrescens
nigricans
nigriceps
nigricornis
nigripennis
nigripes
nigrita
nigriventris
nikah
nil
nilai
nilobezzia
niniak
nio
niphates
niphatidae
niphona
niphoparmena
nippononeta
nira
nitens
nitida
nitidus
nitrogen
nj
njan
nl
nm
no
nobel
nobilis
noegus
noer
nol
nomina
nominasi
nomor
non
nonaktif
nopember
norma
normal
norman
north
northern
norwegia
not
notata
notolomatia
novaezealandiae
novel
november
now
np
nq
nr
ns
nt
ntul
nu
nuclear
nugini
nuklir
number
nupserha
nur
nurbaya
nurdin
nurul
nusa
nusantara
nv
nw
nx
ny
nya
nyak
nyaman
nyanyian
nyato
nyeri
nyo
nyssodrysternum
nz
o
oa
ob
obat
oberea
obereopsis
object
objek
obliqua
obor
obrium
obscura
obscurus
observatorium
observatory
oc
occidentalis
oceanapia
oceanian
ochicanthon
ochlerotatus
ochracea
oclc
ocrepeira
october
ocyptamus
od
odas
odontocera
oe
oedaspis
oedothorax
of
office
official
og
ogan
oh
ohio
oi
oizumi
oj
ok
okezone
oksigen
oktober
ol
olah
olahan
olahraga
old
oleh
olenecamptus
oligota
olimpiade
om
omalodes
ombak
ombilin
ommata
ommatius
on
oncideres
oncosclera
onde
ondr
one
onepage
onitis
online
only
ono
onthophagus
oo
op
opaca
open
operasi
ophiomyia
opisthoncus
opsion
oq
or
oral
orang
orbit
orde
order
ordo
oreodera
oreoneta
oreonetides
org
organ
organik
organisasi
organisme
organization
oriental
orientalis
origin
original
origins
orimarga
ormosia
ornamen
ornata
ornatus
oropeza
orrell
orthocladius
ortodoks
os
ot
other
oto
otomatis
otomotif
otonom
otonomi
otoritas
otot
ou
our
out
ouvrard
ov
over
ow
ox
oxford
oxyna
oxyopes
oxyopidae
oxypoda
oxyrhiza
oy
oz
ozodicera
p
pa
pabedaan
pabrik
pabuatan
pacah
pacahan
pachycraerus
pacific
pacifica
pacu
pada
padagang
padagangan
padalaman
padang
padangpanjang
padati
padeh
padek
paderi
padi
padilla
pado
padri
paduan
padusi
paga
pagar
pagarakan
pagaruyuang
pagaruyung
pagawai
page
pagi
paglinawan
pagu
paguno
pagunuangan
paguruan
paham
pahang
pahat
pahlawan
pai
paik
paja
pajabaik
pajak
pajalanan
pajanjian
pajuang
pajuangan
pak
pakabunan
pakai
pakaian
pakakeh
pakambangan
pakampuangan
pakan
pakar
pakarajo
pakaro
pakawinan
pakek
pakiroan
pakistan
pakpak
paku
palabuahan
palabuhan
palajaran
palaksanaan
palatiah
palatihan
palawanan
palayanan
palearktik
palembang
pales
palestina
paliang
palinduangan
paling
pallens
pallida
palliduphantes
pallidus
pallipes
palo
palomar
palopor
palpada
palpalis
palpomyia
palu
palukih
palustris
pamahaman
pamain
pamainan
pamakaian
pamanang
pamandangan
pamarentah
pamarentahan
pamaresoan
pamarintah
pamarintahan
pambagian
pambakaran
pambali
pambangkik
pambangunan
pambantu
pambantuakan
pambarian
pambarontakan
pambayaran
pambuatan
pambuek
pambuluah
pamekaran
pameran
pamerintah
pamikiran
pamiliahan
pamiliak
pamilihan
pamilik
pamilu
pamimpin
pamintaan
pamuda
pamudo
pamukaan
pamukiman
pamukoan
pan
panabangan
panah
panaliti
panalitian
panama
panambahan
panamensis
panamoan
panampilan
panamuan
pananganan
panarangan
panari
panarimo
panas
pancarian
pancasila
panchayat
pancorius
pandai
pandaki
pandakian
pandan
pandang
pandangan
pandapaik
pandapatan
pandapek
pandarito
pandatang
pandemi
pandidiakan
pandidikan
pandidikannyo
pandiri
pandirian
panduan
panduduak
panduduaknyo
pandudukan
panduduknyo
pandukuang
paneh
panel
panen
pangacara
pangadilan
pangakuan
pangalaman
pangambangan
pangan
pangarang
pangaruah
pangatahuan
pangatauan
pangawasan
pangek
pangeran
panggang
pangganti
panggerek
panggiat
panggilan
pangguang
panggung
pangguno
panggunoan
pangharagoan
panghargaan
panghulu
pangikuik
pangka
pangkalan
pangkek
panglima
panglimo
pangolahan
panguaso
pangulu
pangunjuang
panguruih
pangusaha
pangusaho
panikahan
paninggalan
paningkatan
paningkekan
panitia
panjago
panjajah
panjajahan
panjang
panjangnyo
panjaro
panji
panjua
panjualan
panonton
panorama
pantai
pantiang
pantun
panuah
panulih
panulisan
panumpang
panurunan
panutua
panutuik
panyabab
panyair
panyakik
panyanyi
panyebaran
panyimpanan
panyuko
panzeria
papan
paparangan
papua
papuatipula
para
paraclius
paradaban
paradelphomyia
paradoxa
paraguay
parah
parahu
paraiaran
parairan
parak
paralatan
paralimnophila
parallela
paralu
parameter
paramongoma
parampek
paran
parancih
parang
parangai
parangkek
parantau
parantauan
parasaan
parasit
parastrangalis
paratian
paratropus
paraturan
paravilla
parawatan
parawixia
parayoan
parazoa
pardana
pardano
parekonomian
parempheriella
parent
pariaman
pariangan
parik
parikanan
parilaku
paringatan
paringkek
parintah
pariode
paris
paristiwa
parisus
parit
pariuak
pariwisata
park
parlemen
parmukaan
parnah
paro
parolehan
paromalus
paroster
part
partai
partamo
partamonyo
partikel
paru
parubahan
paruik
parumahan
parusahaan
parusahoan
parusaoan
parva
parvula
parvulus
pas
pasa
pasagi
pasai
pasak
pasal
pasaman
pasambahan
pasan
pasang
pasangan
pasar
pasatuan
pasatujuan
pasawat
pasca
pascasarjana
pasia
pasien
pasifik
pasir
pasisia
pasti
pasukan
patah
patahanan
patai
patamo
patamonyo
patamuan
patandiangan
patang
patangahan
patani
patanian
patrick
patuang
patuik
patumbuahan
patunjuakan
pauh
paul
paus
pautan
pawakilan
payah
payakumbuh
payokumbuah
payuang
payung
pb
pbb
pc
pd
pdf
pdri
pe
peace
peak
pebruari
peckham
pedagang
pedaria
pedoman
pegawai
pegesimallus
pegohylemyia
pegomya
pegunungan
pejabat
pejuang
pekan
pekanbaru
pekerjaan
pelabuhan
pelajar
pelajaran
pelaksana
pelaksanaan
pelalawan
pelangi
pelantikan
pelayan
pelecopsis
pelegrina
pelestarian
peleteria
pellenes
pelukis
pemain
pematang
pembagian
pembangunan
pembantu
pembentukan
pemberontakan
pembinaan
pemeliharaan
pemeran
pemerintah
pemerintahan
pemikiran
pemilihan
pemilu
pemimpin
pemuda
pena
penanganan
penares
pendek
pendidikan
pendiri
penduduk
penelitian
penerbangan
penerbit
penerbitan
penetapan
peng
pengadilan
pengelolaan
pengembangan
pengertian
pengetahuan
penghargaan
penghulu
pengkajian
penguin
pengusaha
penicillata
peninggalan
penjabat
pensacola
pensiun
penting
penuh
penulis
penyakit
penyanyi
people
peoples
per
perak
peran
peranan
perancis
perang
perangkek
peraturan
perdagangan
perdana
perdata
perempuan
perencanaan
pergerakan
pergi
perguruan
peribaea
peribahasa
pericoma
periksa
peringkat
periode
periscepsia
perissus
peristiwa
perjalanan
perjanjian
perjuangan
perkara
perkawinan
perkembangan
perlu
perm
permainan
permendagri
permi
permukaan
pernah
pernikahan
perolehan
peromyia
perpres
perpustakaan
pers
persatuan
persegi
persen
persia
persiapan
persimilis
persis
perspektif
pertahanan
pertama
pertamina
pertamo
pertanian
perti
pertimbangan
pertuan
peru
perubahan
perusahaan
peruviana
perwakilan
perwira
pesantren
pesawat
peserta
pesisir
pesta
peta
petak
petani
peter
peti
petit
petrorossia
petrosia
petrunkevitch
peucetia
pf
pg
ph
phaea
phakellia
phalacrotophora
phanaeus
phaonia
phasia
phelister
phiale
phidippus
philhygra
philip
philippinensis
philippines
philodicus
philoliche
philonthus
philophylla
philornis
philosepedon
philosophy
phintella
phlebotomus
phlegra
phone
phora
phorbas
phoridae
phorocera
php
phronia
phryxe
phthinia
phthiria
phylidorea
phyllolabis
physics
phytobia
phytoecia
phytoliriomyza
phytomyptera
phytomyza
pi
piala
picayo
picta
pictipennis
pictures
pidana
pidari
pidato
pidie
pidonia
pigott
pihak
pikiran
pilem
piliang
pilihan
pilkada
pilosa
pilosus
pilot
pimpinan
pinang
pindah
pinggang
pinggia
pintu
pione
pires
piriang
pisang
pisau
pita
pitih
pityohyphantes
pj
pk
pki
pks
pl
place
plagithmysus
planet
planetary
planetella
planetesimal
plant
plants
plastik
platambus
platensina
platnick
plato
platylister
platylomalus
platynectes
platysoma
platytipula
plaumanni
player
plexippoides
plexippus
plumosa
plusiomyia
pluto
pm
pmc
pmid
pn
pneumonia
po
pocock
poecilanthrax
poecillastra
poeciloneta
pohon
poin
point
pokok
pola
polandia
pole
polen
policy
polinesia
polisi
polita
politeknik
political
politics
politik
politikus
politisi
polri
poltys
polymastia
polymera
polypedilum
pondok
pontianak
pop
popular
populasi
populasinyo
populat
population
populer
porifera
porrhomma
porricondyla
port
portal
portia
portugal
portugih
portugis
pos
posisi
positif
poso
post
potensi
pothyne
poto
potong
potongan
potret
powell
power
pp
pq
pr
pra
prabowo
prabumulih
practice
pradesh
prajurit
praktik
praktis
pramudiarja
pramuka
pranala
prancis
prasasti
prayitno
predator
premier
prescott
present
presenter
presiden
president
press
prestasi
prevention
pria
pribadi
pribumi
prima
primer
primordial
princeton
pringsewu
prinsip
printsec
prionolabis
prionus
prix
pro
proceedings
procladius
production
produk
produksi
produser
prof
profesi
profesional
profesor
profil
profile
progonomyia
program
programme
project
proklamasi
promachus
promosi
properti
propinqua
propinsi
proses
prosesi
prosoplus
prosopocera
protein
protelean
protestan
proto
protokol
proton
protosuberites
provinsi
provisional
proxima
proyek
prri
pruinosa
ps
psammocinia
psammoclema
psapharochrus
pselliophora
pseudacteon
pseudexechia
pseudicius
pseudolimnophila
pseudonapomyza
pseudophorellia
pseudosuberites
psikologi
psiloconopa
psorophora
pssi
psychoda
psychodidae
pt
pterelachisus
pterolophia
ptilodexia
ptilogyna
pu
pua
puaso
pub
pubescens
public
publications
publik
published
publishers
publishing
pucuak
puerto
puisi
pukua
pukul
pula
pulang
pulau
pulchella
pulcher
pulchra
puliciphora
pulitzer
pulo
puluah
puluahan
puluh
puluik
pumila
pun
punah
puncak
punctata
punctatus
puncticollis
punctipennis
pungguang
punya
punyo
pupuik
pura
purba
purbakala
purn
purpuricenus
pusako
pusat
pusek
pusilla
pusillus
pustaka
puti
putiah
putih
putra
putri
putuih
putusan
pv
pw
px
py
pygmaea
pygophora
pyk
pytheas
pz
q
qa
qatar
qb
qc
qd
qe
qf
qg
qh
qj
qk
ql
qm
qn
qo
qp
qq
qr
qs
qt
qu
quadrimaculata
quedius
queensland
qur
quraish
quraisy
quran
qv
qw
qx
qy
qz
r
ra
rabano
rabdophaga
rabuang
racun
radar
raden
radiasi
radio
radiospongilla
ragam
ragi
ragu
rahim
rahmah
rahman
rainbow
rais
raja
rajah
rajo
rakik
raksasa
rakyaik
rakyat
ramadan
ramadhan
rambatan
rambuik
rami
ramosa
rampah
ranah
ranang
rancak
rancangan
randah
randai
randang
rang
rangik
rangka
rangkaian
rangkiang
rangko
rantai
rantang
rantau
rantiang
rao
rapat
rapek
rapi
ras
rasa
rasmi
raso
rasonyo
raspailia
raspailiidae
rasul
rasulullah
rasyid
rata
rato
ratu
ratusan
rawa
rawas
ray
raya
rayo
rayon
rb
rc
rcti
rd
re
read
reading
reaksi
real
recensa
record
records
red
redaksi
redaktur
redir
reedy
ref
reference
references
reformasi
region
regional
registrasi
regnum
reichenbachia
reinhold
rejang
rekor
rektor
rel
relatif
relations
religion
religions
religious
remaja
remo
rempah
rencana
rendah
rendang
rengat
reniera
renovasi
report
repository
republic
republik
republika
research
resep
residen
resmi
resort
resources
respon
resseliella
restoran
results
reticulata
retrieved
reuters
rev
review
revolusi
revolusioner
revolution
rf
rg
rh
rhabdastrella
rhabderemia
rhabdomastix
rhagoletis
rhantus
rhaphium
rhaphuma
rhene
rhipidia
rhizaxinella
rhizoniera
rhopalomyia
rhytiphora
ri
riau
ribu
ribuan
rica
richard
richter
rico
ridley
rights
rika
rimbo
rincian
ringan
rise
riset
risiko
ritual
rivai
river
riwayaik
riwayat
rizal
rj
rk
rl
rm
rn
rni
ro
road
robert
robineau
robusta
rock
roda
roewer
roger
roh
rokan
rokok
role
roma
roman
romawi
rombongan
rondibilis
rono
ropica
roskov
rotan
roti
routledge
row
roy
royal
rp
rq
rr
rri
rs
rt
ru
ruang
ruangan
rubella
rubra
rudal
rudolf
rueh
rufa
rufescens
ruficornis
rufipes
rufiventris
rufula
rugosa
ruiz
rujuakan
ruku
rukun
rumah
rumahnya
rumahnyo
rumania
rumik
rumpuik
rumpun
runciang
runtuah
rupa
rupiah
rupo
ruponyo
rusak
rusia
rusli
ruso
russell
russia
russian
rute
rutilia
rutin
rv
rw
rx
ry
rymosia
rz
s
sa
saaik
saari
saaristo
saat
sabab
sabagai
sabagaimano
sabagainyo
sabagian
sabah
sabalah
sabaliaknyo
sabalum
sabalumnyo
sabalun
sabalunnyo
sabana
sabananyo
sabanta
sabanyak
sabatang
sabauh
sabtu
sabuah
sabuak
sabuik
sabun
sabutan
sacara
sacaro
sacukuiknyo
sadang
sadangkan
sadar
sado
sadoalah
sadolah
sadonyo
sagadang
sagalo
sagan
sagi
sagita
sago
sagu
sah
sahabaik
sahabat
saham
sahari
sahinggo
said
saikua
saindaknyo
sainggo
sains
saint
saintifik
sairiang
saisuak
saitis
saito
saja
sajak
sajarah
sajauah
sajinih
sajo
sajuak
sajumlah
saka
sakali
sakaligus
sakaliliang
sakalompok
saketek
sakik
sakit
sakita
sakitar
sakitaran
sakitarnyo
sako
sakola
sakolah
saksi
sakti
sakura
sakutu
sala
salafi
salah
salain
salalu
salam
salamaik
salamo
salamonyo
salanjuiknyo
salapan
salapeh
salasai
salat
salatan
salaweh
saleh
salero
saliang
salib
salim
salinan
saling
salju
salman
salo
salticidae
salticus
saluak
saluang
saluran
saluruah
salvador
sam
sama
samacam
samad
samak
samakin
samananjuang
samanjak
samantaro
samaso
samba
sambal
sambalado
sambia
sambilan
saminggu
samo
samoa
samosir
sampah
sampai
sampel
sampiang
sampik
samping
samudera
samudra
samulo
san
sanak
sanang
sandi
sandiri
sandiwara
sang
sangaik
sangajo
sangat
sangek
sanggar
sanggau
sangihe
sangkek
sani
sanjato
sanjo
sanskerta
santa
santan
sapanjang
sapanuahnyo
saparti
sapasang
sapeda
saperda
sapi
saprinus
sapuluah
sar
sara
saraf
sarah
sarai
sarana
sarang
sarangan
saranggo
sarangkaian
sarasah
sarato
saratuih
sarawa
sarawak
sarbuak
sari
saribu
sarik
sarikaik
sarikat
sarikek
sarinda
sarjana
sarolangun
saroman
saropogon
saroto
sars
saruang
saruaso
sarupo
sasak
sasamo
sasaran
sasaurang
sassacus
sastra
sastrawan
sasuai
sasuatu
sasudah
sasudahnyo
satahun
satalah
satampek
satangah
sataruihnyo
sataun
satchelliella
sate
satelit
sati
satinggi
satingkek
satiok
sato
satu
satuan
satuju
satunyo
satwa
saudagar
saudara
saudi
saurang
savignia
savtshenkia
saw
sawah
sawahlunto
saya
sayang
sayok
sayoknyo
sayua
sayur
sayuran
sb
sc
scamboneura
scaptia
scarabaeidae
scarabaeus
scharff
schenkel
schizomyia
schmidt
schmidti
school
schummelia
sciades
sciapus
science
sciences
scientific
sciophila
scotinotylus
scott
sctv
scutellaris
scutellata
scylaticus
sd
sdn
se
sea
search
sebab
sebagai
sebagian
sebaran
sebelah
sebelum
sebelumnya
sebuah
sebutan
secara
second
security
sedang
sedangkan
sederhana
sedikit
see
segar
segi
sehari
sehat
sehingga
sei
sejak
sejarah
sejenis
sejumlah
sekali
sekarang
sekitar
sekolah
sekretariat
sekretaris
sektor
sekutu
sel
selain
selalu
selama
selamat
selandia
selangor
selat
selatan
selo
seluas
seluma
seluruh
semarang
sembilan
semen
semenanjung
sementara
semi
seminar
sempat
semua
senberg
sendiri
sendok
senegal
senegalensis
seng
seni
seniman
senin
senior
sensus
sentral
senyawa
seo
seorang
seoul
sepak
sepanjang
seperti
september
sepuluh
serang
serangan
serat
serbia
serdang
sergentomyia
seri
serial
seribu
series
serikat
sering
serixia
serta
server
service
seseorang
sesuai
sesuatu
set
setda
setelah
setia
setiap
setiawan
setigera
setosa
sewaktu
seychelles
sf
sg
sh
shah
shamakhi
shanghai
shannonomyia
sharur
shi
shihab
short
show
si
sia
siak
siam
siamang
siamensis
siang
sianok
siantar
siap
siapa
siapo
siaran
siberut
sibianor
sibirica
sibolga
sidang
siding
sidusa
sifaik
sifat
signata
signifikan
siguntua
sijarah
sijarawan
sijobang
sijunjung
sikap
sikek
sikkimensis
siko
sikola
sikolah
sikumbang
silat
silek
silla
silungkang
sim
simaetha
simalungun
simawang
simbol
simeulue
similis
simon
simoni
simpang
simpanse
simplex
simulans
sinan
sinar
since
sindrom
sinensis
sinetron
singa
singapore
singapura
singgah
singgalang
singh
singingi
singkarak
singkatan
singkek
singkil
single
singularis
sini
sinonim
sinotipula
sintula
sinyal
sipadeh
sipaik
sipak
siphona
sipil
sir
sirah
siregar
siriah
sirip
sisi
siso
sistem
siswa
site
siti
sitti
sitticus
situ
situasi
situs
sj
sjahrir
sk
skala
skenario
sl
slamet
slavia
slovenia
slowakia
slutanva
sm
sma
small
sman
smith
smittia
smk
smp
sn
so
soal
soares
social
society
socorro
soeharto
soekarno
soest
soestella
solar
solid
solieria
sollas
solo
solok
solomon
somatidia
some
sondra
song
songket
sopan
sophia
sophira
sophronica
sos
sosial
sosialis
sosiologi
sosok
soto
sotomayor
source
south
southeast
southern
soviet
sp
space
spacewatch
spain
spanish
spanyol
special
species
speciosa
spectabilis
spesialis
spesies
spesifik
spheciospongia
sphecozone
spider
spilogona
spinipennis
spinosa
spinosus
spirembolus
splendens
spogostylum
spongia
spongiidae
spongilla
spongillidae
spongosorites
spons
sport
sports
spring
springer
sq
sr
sri
sriwijaya
ss
st
stabil
stackelbergi
stad
stadion
staf
staff
stand
standar
stanford
staphylinidae
star
stasiun
state
states
statistica
statistical
statistics
statistik
status
stefaniola
stegomyia
stelletta
stemonyphantes
stenaelurillus
stenellipsis
stenhomalus
stenopogon
stenotabanus
stenus
stephen
steven
stichopogon
stilobezzia
stizocera
stoeba
stone
story
straits
strand
strandi
strangalia
strategi
strategis
street
striata
stroke
strongylacidon
strongylophora
structurii
struktur
stub
studi
studies
studio
study
style
stylopus
styringomyia
su
suami
suaminyo
suanggi
suara
suaro
suasana
suatu
sub
subagai
subalah
subarang
suberites
subregnum
subspesies
subst
substcheck
subtilis
subur
suci
sudah
sudan
sudaro
sudirman
suduik
suhu
suka
sukarno
suko
sukses
suku
sulaiman
sulaman
sulawesi
sulik
sultan
sulu
sumangaik
sumatera
sumatra
sumatrana
sumatrensis
sumba
sumbangan
sumbar
sumbayang
sumber
summary
sumpah
sumpur
sumsel
sumua
sumut
sun
sunan
sunda
sunday
sung
sungai
sungayang
sungguh
sunnah
sunni
suntiang
suok
supaya
supayo
super
surabaya
surah
surakarta
surambi
surang
surat
surau
surek
suriah
suriname
survey
surya
susah
susilo
susu
susunan
sutan
sutradara
suturalis
suzuki
sv
sw
swasta
sweden
swedia
swiss
sx
sy
syafruddin
syah
syair
syaraik
syarak
syariah
syarif
sybistroma
sybra
sycettusa
sycon
syeikh
syekh
syiah
syllitus
symplecta
sympycnus
synageles
synagelides
synapha
synemosyna
syntormon
syrphidae
system
systems
systoechus
systropus
sz
szynski
t
ta
taadok
taba
tabagi
tabaiak
tabaka
tabanam
tabang
tabanidae
tabantang
tabantuak
tabantuaknyo
tabanus
tabanyak
tabateh
tabek
tabel
tabiang
tabik
table
tabu
tabuah
tabuang
tabuek
tabuik
tabukak
tabukti
tacataik
tacatat
tachina
tachinidae
tachygyna
tachytrechus
taczanowski
tadaftar
tadanga
tadapek
tadi
tadiri
tafsir
tag
tagabuang
tagadang
tagaduah
tagak
tagantuang
tagolong
tahadok
tahan
tahanan
tahap
tahapan
tahta
tahu
tahubuang
tahun
tahunan
taipei
taiwan
tajadi
tajadinyo
tajago
tajam
tajamahan
tajikistan
tajun
tak
takadang
takah
takaik
takamuko
takana
takanai
takanan
takenal
takuik
takuruang
talabiah
talago
talalu
talam
talampau
talang
talapeh
talatak
talavera
talempong
tali
talibaik
taliek
talingo
talok
talua
taluak
tamaik
taman
tamasuak
tamat
tambah
tambahan
tambang
tambo
tamiang
tamil
tampak
tampek
tampeknyo
tampil
tampuah
tamu
tamurun
tan
tanago
tanah
tanam
tanaman
tanamo
tanang
tanasevitch
tanda
tando
tanduak
tang
tangah
tangan
tangannyo
tangerang
tangga
tanggal
tanggamus
tanggo
tangguang
tangkai
tangkok
tani
tanikawa
tanita
tanjuang
tanjung
tanjungpinang
tanpa
tantang
tantangan
tantara
tantaro
tantu
tanyato
tanypremna
tanyptera
tanytarsus
tanzania
tapai
tapak
tapangaruah
tapanuli
tapaso
tapek
tapeknyo
tapi
tapian
tapiliah
tapinocyba
tapisah
tapuang
tarab
tarakhia
tarakhir
taranak
tarancam
tarang
taraso
tarbiyah
target
tari
tarian
tarif
tarik
tarikaik
tarok
tarsalis
taruih
tarumbu
tarusan
tarutamo
tasabuik
tasadio
taseba
tasebar
tasiocera
tasiso
tasmania
tasuo
tasusun
tata
tatantu
tatap
tatapi
tatar
tatinggi
tatok
tatulih
tatuo
tatutuik
tau
taufik
taufiq
taun
tautamo
tavakilian
tawa
tawar
taxonomy
tayang
taylor
tb
tc
td
te
team
teater
tebing
tebo
technology
tedania
teenebelle
teh
tekanan
teknik
teknologi
teks
telah
telamonia
telegram
telekomunikasi
telepon
televisi
telkom
telmatoscopus
telua
teluk
tema
teman
tembok
tempat
templat
tempo
tenaga
tenella
tengah
tenggara
tenggi
tengku
tenis
tentang
tentara
tenuiphantes
tenuis
teori
tephritidae
tephritis
tepi
terakhir
terapi
terbaik
terbesar
terbuat
terbuka
terdapat
terdiri
terellia
terengganu
teretrius
terhadap
teritoriale
terjadi
terjun
terkenal
terlalu
terletak
term
termasuk
terminal
ternate
terpilih
tersebut
tertinggi
tes
tesla
test
testacea
tetap
tetapi
tethya
tetilla
tetillidae
tetragoneura
teucholabis
teuchophorus
teuku
tewas
text
tf
tg
th
thai
thaib
thailand
thaler
thalysias
than
that
thawalib
the
their
thenea
theory
there
they
thiania
thiele
thinophilus
thiodina
this
thomas
thompson
thoosa
thoracica
thorecta
thorectidae
thorell
three
thricops
through
thrypticus
thyene
thyridanthrax
ti
tiada
tiang
tiba
tibet
tibialis
tibo
tidak
tidur
tiga
tigo
tikader
tikuluak
tim
timah
timbago
timbua
time
timea
times
timnas
timor
timua
timur
tindak
tindakan
tingga
tinggal
tinggi
tingginyo
tingkah
tingkat
tingkatan
tingkek
tinju
tiok
tionghoa
tiongkok
tipe
tipih
tipula
tipulidae
tipulodina
tirto
titan
titiak
titik
title
tj
tk
tl
tm
tmesisternus
tn
tni
to
toba
today
toko
tokoh
tokyo
tol
tolmerus
tolong
tom
tome
tomoplagia
ton
tonggak
top
topik
topografi
topomyia
topsent
topsenti
topsentia
toraja
total
tour
tourism
tower
town
towns
townsend
townsendi
toxochalina
toxomerus
toxophora
toxorhina
toxorhynchites
tp
tq
tr
trade
tradisi
tradisional
tradition
trans
transmigrasi
transneptunus
transportasi
travel
treatment
tree
trentepohlia
tri
triangularis
tribalus
tribun
tribunnews
trichodolichopeza
trichomyia
trichoncus
trichonta
trichosia
trichotipula
tricolor
trifasciata
trigonoptera
trinidad
triphleba
triplicitipula
tripteroides
trirhithrum
tristis
trite
trivittata
trochospongilla
troglohyphantes
tropical
tropidion
tropis
troya
truncata
trupanea
trypanaeus
trypeta
trypeticus
ts
tsunami
tt
tu
tua
tuah
tuan
tuang
tuangku
tuanku
tuberculata
tuberosa
tubuah
tubuh
tucker
tugas
tugeh
tugu
tuh
tuhan
tujuah
tujuan
tujuannyo
tujuh
tukang
tulang
tulangbawang
tulih
tulisan
tulisannyo
tullgren
tulus
tumbuah
tumbuahan
tumbuh
tumbuhan
tumor
tun
tungga
tunggal
tunggu
tungkek
tungku
tunisia
tuo
tuonyo
tupai
turkey
turki
turkmenistan
turnamen
turuik
turun
turunan
tutuik
tutup
tv
tvri
tw
twitter
two
tx
ty
typhochrestus
tz
u
ua
uang
uap
ub
ubek
ubi
ubuangan
uc
ucapan
ud
uda
udang
udara
udaro
ue
uefa
uesac
uf
ug
uganda
ugm
uh
ui
uin
uj
ujan
uji
ujian
ujuang
ujuangnyo
ujung
uk
ukiran
ukraina
ukuran
ukurannyo
ul
ula
ulahrago
ulama
ulando
ulang
uli
ulosa
ulu
um
uma
umaik
umar
umat
umua
umum
umumnyo
un
unand
und
undang
undangan
under
understanding
unesco
unggeh
ungkapan
ungu
uni
unicolor
uniformis
unik
unimal
union
unit
united
universal
universe
universitas
university
unp
unsua
unsur
unto
untuak
untuk
uo
up
upacara
upacaro
upayo
update
uq
ur
urang
uranotaenia
urata
urban
urek
urgleptes
url
urophora
uroxys
urquhart
uruf
uruguay
urusan
urutan
us
usa
usaha
usaho
usai
usao
use
usia
usman
usu
usua
usul
usus
ut
utak
utama
utamo
utamonyo
utan
utang
utara
utaro
utusan
uu
uv
uvarus
uw
ux
uy
uyung
uz
uzbekistan
v
va
vacelet
vaksin
valida
van
varia
variabilis
varians
variasi
variegata
variegatus
varipes
vb
vc
vd
ve
ved
vegetasi
venezuela
venusta
verrallina
verrucosa
versi
versicolor
version
vertebrata
vestiplex
vf
vg
vh
vi
via
vicina
vicinus
viciria
victoria
video
vietnam
view
vii
viii
villa
villages
villeneuve
villosa
vincent
vink
violacea
virginia
viridis
virus
vis
visual
visualisasi
vitamin
vittata
vittatus
viva
vj
vk
vl
vm
vn
vo
voc
vockeroth
vokal
vol
volume
vomerula
von
vp
vq
vr
vrh
vs
vt
vu
vulcanella
vulgaris
vulkanik
vv
vw
vx
vy
vz
w
wa
waang
wabah
wacana
wadah
wafaik
wafat
wagner
wagneriana
wahana
wahid
wahyu
wajah
wajib
wak
wakatu
wakia
wakil
waktu
walau
walaupun
walckenaer
walckenaeria
wales
wali
walikota
walker
wall
walter
wang
wangi
wanita
wanless
war
warga
warisan
warna
warnanyo
warno
wartawan
waruga
was
washington
water
wawancara
way
wayang
wayback
wb
wc
wd
we
web
website
webster
were
wesolowska
west
western
westring
wf
wg
wh
what
whatsapp
when
which
white
who
why
wib
widodo
wijaya
wiki
wikidata
wikimedia
wikipedia
wikivoyage
wilayah
wilayahnyo
wiley
will
william
williams
wilson
wilsonella
windows
winnertzia
winthemia
wisata
wisatawan
with
wj
wk
wl
wm
wn
wo
women
wong
woo
woodiphora
work
working
works
world
worldcat
worms
wp
wq
wr
ws
wt
wu
wuhan
wujuik
wunderlich
wv
ww
www
wx
wy
wyeomyia
wz
x
xa
xb
xc
xd
xe
xenofrea
xestospongia
xf
xg
xh
xi
xie
xii
xinglong
xj
xk
xl
xm
xn
xo
xp
xq
xr
xs
xt
xu
xv
xw
xx
xy
xylotrechus
xystrocera
xz
y
ya
yaginumaella
yahudi
yaitu
yaitunyo
yakin
yakni
yale
yaman
yamatotipula
yamin
yang
yani
yatim
yayasan
yb
yc
yd
ye
year
years
yemen
yerusalem
yeung
yf
yg
yh
yin
yj
yk
yl
yllenus
ym
yn
yo
yogyakarta
yoitu
yola
yonex
york
you
young
youtube
yp
yq
yr
ys
yt
yu
yuan
yudhoyono
yunani
yunnanensis
yunus
yupiter
yusuf
yv
yvesia
yw
yx
yy
yz
z
zabka
zain
zainal
zainuddin
zaman
zat
zein
zelandotipula
zenodorus
zhang
zhu
zimbabwe
zoltowski
zona
zubir
zygoballus
zygomyia
{
|
}
~
£
©
«
­
®
°
±
²
³
´
·
º
»
½
×
ı
ŋ
ɑ
ə
ʰ
ʲ
ʻ
ʾ
ʿ
ˈ
ˌ
ː
̀
́
̂
̃
̄
̆
̇
̈
̉
̊
̋
̌
̓
̔
̛
̣
̦
̧
͂
α
β
δ
δρο
ε
η
θ
ς
σος
ω
а
в
и
м
н
с
т
ְ
ִ
ֹ
ا
ب
ة
ت
ج
ح
د
ذ
ر
س
ش
ع
ف
ق
ك
ل
م
ن
ه
و
ي
ً
ٍ
َ
ُ
ِ
ّ
ْ
ٓ
ٔ
ٕ
ٰ
क
त
द
न
प
म
र
ल
स
ा
ि
ी
ु
े
ो
्
া
ி
்
ต
ม
ั
ิ
ี
ื
ุ
ู
่
้
์
་
្
ᮤ
᮪
ᯮ
᯲
​
‎
‐
–
—
‘
’
“
”
•
…
′
″
⁄
€
→
↔
↵
↷
−
≥
③
④
⑦
█
●
☉
⟨
⟩
⺀
⺄
⺆
⺈
⺊
⺌
⺕
⺝
⺸
⺼
⿰
⿱
⿲
⿳
⿴
⿵
⿶
⿷
⿸
⿹
⿺
⿻
、
《
》
「
」
〢
い
う
か
こ
さ
す
た
て
と
に
の
み
も
よ
ら
り
る
を
ん
゙
゚
ア
イ
ク
コ
シ
ス
ト
ニ
フ
ユ
ラ
ル
ン
・
ー
㇁
㇂
㇄
㇇
㇈
㇉
㇓
㐁
㐄
㐅
㐌
㐫
㐬
㐭
㐮
㐱
㑒
㒵
㒸
㒼
㓁
㓞
㔾
㕛
㕣
㖾
㘝
㚅
㚇
㚔
㚘
㝉
㝡
㝴
㝵
㞋
㞢
㞷
㠩
㠭
㠯
㡀
㡭
㡿
㢲
㢴
㣇
㣺
㥯
㪅
㫄
㫐
㫒
㫺
㬅
㬎
㬥
㬰
㲋
㳄
㷠
㸒
㸚
㸦
㼌
㼲
㽞
㿟
䀠
䂞
䍃
䏍
䒑
䖍
䖒
䖝
䖵
䙴
䚻
䜌
䝿
䡛
䧹
䪞
一
丁
丂
七
丄
丅
丆
万
丈
三
上
下
丌
不
与
丏
丐
丑
专
且
丕
世
丘
丙
业
东
丞
丢
丣
两
严
並
丨
丩
个
丫
丬
中
丮
丰
丱
串
丵
丶
丷
丸
丹
为
主
丽
丿
乀
乂
乃
久
乆
乇
么
义
之
乌
乍
乎
乏
乐
乑
乔
乖
乗
乘
乙
乚
乛
乜
九
乞
也
习
乡
乳
乾
亀
亅
了
亇
予
争
事
二
亍
于
亏
亐
云
互
亓
五
井
亘
亚
亜
亞
亟
亠
亡
亢
交
亥
亦
产
亨
亩
享
京
亭
亮
亯
亰
亲
亳
亶
亷
人
亻
亼
亾
仁
今
介
仌
从
仐
仑
仒
仓
仕
他
付
仝
代
令
以
任
企
伊
伏
伐
休
会
伯
但
位
何
佘
余
作
佥
使
來
侈
侌
侖
侯
侵
便
保
俞
信
修
倉
倍
候
倠
備
僉
僕
儿
兀
允
兂
元
兄
充
兆
兇
先
光
兊
克
兌
免
兑
兒
兓
兔
党
兜
兟
入
全
兩
兪
八
公
六
兮
兰
共
关
兵
其
具
典
兹
兼
冀
冂
冃
冄
内
冈
冉
冊
冋
册
再
冎
冏
冐
冒
冓
冖
冗
冘
军
农
冝
冡
冥
冫
冬
冷
几
凡
凢
凵
凶
凷
凸
凹
出
函
凾
刀
刁
刂
刃
刄
刅
分
切
刍
刑
刕
刖
列
刘
则
初
別
利
别
到
制
刺
則
削
剌
前
剡
剽
劉
力
功
加
劦
助
劫
劳
劵
勃
勇
勉
勒
動
務
勞
勤
勹
勺
勻
勾
勿
匀
匂
包
匆
匈
匊
匋
匍
匕
化
北
匚
匝
匡
匪
匱
匸
匹
区
医
匽
匿
區
十
卂
千
卄
卅
卆
升
午
卉
半
卌
华
卑
卒
卓
单
卖
南
卜
卝
卞
占
卡
卢
卣
卤
卦
卩
卪
卬
卯
印
危
即
却
卵
卷
卸
卻
厂
厃
厄
历
厈
厉
厌
厓
厘
厚
原
厤
厥
厨
厭
厲
厶
厷
厸
去
厼
厽
叀
参
參
叅
又
叉
及
友
双
反
叐
发
叒
叔
叕
取
受
叚
叜
叟
口
古
句
另
叩
只
召
可
台
叱
史
右
叵
号
司
叹
吂
各
吅
合
吉
吊
吋
同
名
后
吏
向
吕
君
吝
吞
否
含
启
吳
吴
吹
吾
呂
呆
呈
告
员
呙
周
命
咅
和
咎
咠
咢
咨
咸
咼
哀
品
哉
員
哥
哲
唐
商
啇
問
啚
啬
啻
善
喜
喬
單
喿
嗇
噩
嚴
囊
囗
囘
囙
囚
四
回
囟
因
囧
囬
困
囱
囷
固
国
圂
圅
國
圍
圓
土
圡
圣
圥
在
圭
地
圶
圼
坐
坒
坚
坴
垂
垔
垚
埀
埋
埶
執
基
堂
堅
堆
堇
堯
塞
墨
壘
士
壬
壯
声
壳
壴
壹
壺
壽
夂
处
夅
夆
备
夊
夋
夌
复
夏
夒
夕
外
夗
夘
多
夜
夢
大
夨
天
太
夫
夬
夭
央
失
夲
头
夷
夸
夹
夻
夾
奂
奄
奇
奈
奉
奎
奏
奐
契
奓
奔
奚
奞
奠
奢
奥
奭
女
奴
奻
好
如
妄
妙
妟
妥
妻
妾
姑
委
姜
威
娄
婁
婴
嬰
嬴
子
孑
孔
孕
孖
字
存
孚
孛
孝
孟
季
孤
学
孫
孱
學
宀
宁
宂
它
宅
宇
守
安
宋
完
宏
宓
宗
官
定
宛
宜
宝
客
宣
室
宮
宰
害
家
容
宾
宿
寄
寅
密
富
寒
察
寧
審
寫
寬
寮
寸
对
寺
寻
寽
対
寿
封
尃
射
将
將
專
尉
尊
尋
尌
對
小
少
尒
尓
尔
尖
尗
尚
尞
尢
尣
尤
尧
尨
尭
就
尸
尹
尺
尻
尼
尽
尾
尿
局
居
屈
屋
屎
屏
屑
展
屖
屚
属
屠
屡
屬
屮
屯
屰
山
屵
屾
岁
岂
岑
岡
岩
岳
岸
峯
島
崇
崑
崔
崖
崙
崩
嵬
嶲
巂
巛
川
州
巟
巠
巢
巤
工
左
巧
巨
巩
巫
差
己
已
巳
巴
巷
巸
巽
巾
巿
帀
市
布
希
帚
帛
帝
带
師
席
帶
常
干
平
年
幵
并
幷
幸
幺
幻
幼
幽
幾
广
広
庄
床
底
店
庚
府
度
庫
庭
庶
康
庸
廉
廌
廛
廣
廩
廴
延
廷
建
廾
廿
开
弁
弃
弄
弇
弋
式
弓
弔
引
弗
弘
弜
弟
弥
弦
弱
張
強
强
彊
彌
彎
彐
彑
当
彔
录
彖
彗
彡
形
彥
彦
彧
彭
彳
役
彼
往
待
律
徒
得
徙
從
復
微
徵
心
忄
必
忌
忍
志
忝
忠
忩
快
念
忽
忿
思
怠
急
怱
恆
恒
恩
恭
息
悉
患
悤
悲
悶
惠
惡
惢
愁
愈
意
愛
感
慈
慧
慮
憂
憲
應
戀
戈
戉
戊
戋
戌
戍
戎
成
我
戒
戔
或
戚
戠
戢
截
戲
戶
户
戸
戹
戼
戾
房
所
扁
扇
手
扌
才
打
托
执
承
折
拉
拜
拿
掌
推
提
摩
支
攴
攵
收
攸
改
放
政
敄
敏
敕
敖
敗
敝
敞
敢
散
敦
敫
敬
数
敷
數
斂
文
斉
斊
斗
斤
斥
斩
斬
斯
新
方
於
施
斿
旁
旋
族
无
旡
既
旣
日
旦
旧
旨
早
旬
旱
旲
时
旾
昆
昇
昌
昍
明
昏
易
昔
昗
昜
星
春
昬
是
昱
昴
昷
時
晃
晋
晏
普
景
晶
智
暑
暴
曇
曩
曰
曲
曳
更
曷
書
曹
曼
曾
替
最
朁
會
月
有
朋
服
朔
朕
朗
望
朝
木
朩
未
末
本
札
朮
术
朱
朵
朶
朿
杀
杏
杜
束
条
来
東
杲
杳
松
析
林
枚
果
枝
枲
枼
某
柔
查
柬
柰
柴
栗
桀
桑
桼
梁
條
梟
梨
棘
棠
棥
森
楚
業
楽
榮
樂
樊
欠
次
欣
欮
欲
欶
欽
款
歆
歇
歛
止
正
此
步
武
歨
歪
歮
歯
歰
歲
歴
歷
歸
歹
歺
死
殳
段
殷
殸
殹
殺
殻
殿
毋
毌
母
每
毒
比
毕
毚
毛
毳
氏
氐
民
气
氣
水
氵
氶
氷
永
氺
氾
求
汉
汝
汞
江
沃
沓
沙
沝
泉
法
波
泣
泥
泰
洛
洪
活
派
流
浦
浪
浮
海
淡
淮
清
渚
渠
港
湯
滿
漸
火
灬
灭
灰
灵
灷
炅
炎
炏
炗
炙
炭
為
烈
烏
烝
焉
無
焦
焱
然
煞
熊
熏
燕
營
燮
爪
爫
爭
爯
爰
爱
爲
爵
父
爻
爽
爾
爿
片
牙
牚
牛
牜
牟
牢
牧
牪
牽
犀
犬
犭
犮
狂
狄
狊
独
狺
猋
猒
猪
献
獻
玄
率
玉
王
玟
玨
珎
班
琴
瑟
瑩
瓜
瓦
甘
甚
生
産
用
甫
甬
田
由
甲
申
电
甶
男
甸
甹
画
甾
畀
界
畏
畐
留
畜
畟
畢
畧
畨
番
畫
異
畱
當
畺
畾
疊
疋
疌
疑
疒
疾
癶
癸
癹
登
發
白
百
皀
皃
的
皆
皇
皋
皐
皕
皮
皷
皿
盃
盆
盇
盈
益
盍
盎
监
盒
盖
盛
盡
監
盤
盧
目
直
相
盾
省
眇
眉
看
眔
眞
真
眷
眼
眾
着
睘
睪
睿
瞏
瞢
瞿
矍
矛
矞
矢
矣
知
矦
短
石
破
碎
磊
磨
示
礻
礼
神
祟
票
祭
禀
禁
禸
禹
禺
离
禽
禾
禿
秀
秃
秉
秋
科
秝
秦
移
稟
穀
穌
穴
究
穹
空
穿
突
窄
窒
立
竒
竜
竝
竟
章
童
竹
笑
笠
第
筆
等
答
箕
算
箴
節
篤
篭
米
粉
粛
粟
粤
粦
粲
糞
糸
糹
系
約
納
素
索
紫
累
細
絜
絫
絲
維
綿
縣
繇
纍
纟
缶
网
罒
罔
罕
罗
罙
罡
罢
罪
署
罷
羅
羊
羌
羍
美
羔
羕
羗
羞
羡
羣
群
義
羲
羸
羽
翁
翏
習
翕
翟
翠
翼
老
耂
考
者
耆
而
耎
耑
耒
耳
耴
耶
耷
聂
聊
聖
聚
聶
聿
肀
肃
肅
肉
肖
肙
肥
肩
肯
育
肴
胃
背
胡
胥
能
脊
脩
膚
臣
臤
臧
自
臬
臭
臯
臱
至
致
臺
臼
臽
臾
臿
舀
舂
舄
與
興
舉
舌
舍
舛
舜
舞
舟
般
艮
良
色
艸
艹
艾
芒
芔
芬
芮
花
芳
芺
芻
苔
苗
苟
若
苦
英
茶
茸
荅
草
荒
荣
荼
莆
莧
莫
莽
菆
菊
菐
華
萬
落
葉
著
葛
董
葵
蒙
蒦
蒼
蓋
蓬
蓺
蔑
蔡
蕉
蕭
薄
薛
薦
薰
藍
藏
藥
蘭
虍
虎
虐
虒
虔
處
虖
虗
虘
虚
虛
虜
虞
虫
虽
蚤
蚩
蜀
蜜
蟲
蠡
血
行
衍
衛
衣
衤
表
衮
衰
袁
袞
褭
褱
襄
襾
西
覀
要
覃
見
規
覓
覧
親
覽
见
角
解
言
訁
訇
計
詹
語
誩
諸
讠
谷
豆
豈
豊
豐
豕
豖
豙
象
豦
豩
豪
豸
貇
貝
貞
貟
負
貢
貧
貪
貫
責
貳
貴
買
費
賁
資
賈
賏
賓
賔
賛
賞
賢
賣
質
賴
贊
贝
贡
责
贯
贲
贵
赖
赞
赤
赦
走
越
足
路
蹇
身
躬
車
軍
軎
軟
輦
车
辛
辜
辟
辥
辰
辱
農
辵
辶
边
达
过
近
连
迷
追
退
送
逆
逐
通
速
造
逢
連
逮
進
遀
遂
過
道
達
遣
適
遷
遺
邊
邑
邕
那
邦
邪
郎
部
郭
都
鄉
酉
酋
配
酓
釆
采
里
重
野
量
金
釒
錢
钅
長
镸
长
門
閃
閉
開
閏
閑
閒
間
閔
関
閵
閻
闌
门
间
闷
阑
阜
阝
阿
降
陳
隆
隊
隋
隡
隨
隱
隶
隹
隺
隻
隼
隽
难
雀
雁
集
雈
雋
雍
雐
雔
雙
雚
雜
雝
離
難
雨
雩
雪
雲
零
雷
需
霍
霜
霝
霞
霸
靈
靑
青
非
靡
面
靣
革
韋
韓
韦
韭
韯
韱
音
頁
頃
項
須
頗
頡
頻
顛
页
風
风
飛
飞
食
飠
養
饣
首
香
馬
馮
駦
马
骨
高
髟
鬥
鬯
鬲
鬼
魚
魯
鮮
鱼
鲁
鳥
鳳
鸟
鹵
鹿
麃
麗
麥
麦
麻
黃
黄
黍
黎
黑
黒
黨
黹
黽
黾
鼎
鼓
鼠
鼻
齊
齋
齐
齒
齿
龍
龙
龜
龟
龠
龰
龱
龴
龵
龶
龷
龸
龹
ꦂ
ꦏ
ꦠ
ꦤ
ꦩ
ꦫ
ꦮ
ꦱ
ꦶ
ꦸ
ꦺ
ꦼ
꧀
者
艹
﻿
（
）
，
：
？
�
🌱
🍯
𠀁
𠀃
𠀆
𠀉
𠀎
𠀐
𠁁
𠁣
𠂆
𠂇
𠂈
𠂉
𠂊
𠂋
𠂎
𠂒
𠂔
𠂛
𠂡
𠂢
𠂤
𠂬
𠂭
𠂹
𠃊
𠃋
𠃌
𠃍
𠃎
𠃑
𠃓
𠃔
𠃜
𠄌
𠄎
𠄠
𠄢
𠆢
𠆥
𠇍
𠈌
𠌵
𠓜
𠔉
𠔥
𠔼
𠔽
𠔿
𠕀
𠕁
𠕋
𠘧
𠘨
𠙻
𠙼
𠚏
𠚒
𠚤
𠚪
𠣏
𠤎
𠤕
𠥓
𠦄
𠦑
𠦝
𠧒
𠧗
𠧪
𠩺
𠪚
𠫓
𠫔
𠫤
𠬛
𠬝
𠬞
𠬢
𠬤
𠬶
𠮛
𠮦
𠮷
𠯑
𠱠
𠳮
𠷎
𡈼
𡉀
𡉵
𡌥
𡍮
𡏳
𡕒
𡕩
𡕰
𡖅
𡗗
𡗜
𡘆
𡘤
𡧱
𡨄
𡩧
𡬠
𡭽
𡰣
𡰥
𡰪
𡰯
𡰱
𡷈
𡸁
𡿨
𡿩
𡿪
𡿺
𢀖
𢀛
𢀩
𢁙
𢆉
𢆰
𢆶
𢇁
𢇇
𢉖
𢌬
𢌿
𢏚
𢑑
𢑚
𢖻
𢙣
𢛳
𢦏
𢦒
𢧵
𢼄
𢾕
𣁋
𣄼
𣅀
𣅽
𣍘
𣎳
𣎵
𣏋
𣏼
𣗥
𣥂
𣥖
𣦵
𣦼
𣧄
𣪊
𣪠
𣬉
𣳾
𣶒
𤇾
𤊽
𤐫
𤓰
𤔔
𤕨
𤣩
𤰇
𤰔
𤰞
𤴓
𤴔
𤽄
𥁑
𥁕
𥃦
𥃩
𥃭
𥇡
𥑟
𥘅
𥘈
𥝢
𥫗
𥱡
𦈢
𦉪
𦉬
𦉼
𦍌
𦍒
𦎧
𦐇
𦓔
𦔮
𦘒
𦙃
𦚏
𦣝
𦣞
𦣻
𦥑
𦥔
𦥯
𦨉
𦭝
𦰩
𧆞
𧈧
𧘇
𧰨
𧴪
𧴮
𧵩
𧾷
𨸏
𨾴
𩙿
𩠐
𩫏
𩵋
𪉷
𪜀
𪟽
𪠲
𪩲
𫇦
𫔭
𫜸
𫝀
𫠣
𫠩
𫢉
𫥞
𫩏
𫩠
𫪡
𫲽
𫶧
𬀷
𬐘
𬗌
𬙙
𬛸
𬜯
𬟩
𬯁
𬴘
𬺻
𬼉
𬼖
𭀰
𭁈
𭁨
𭅰
𭑈
𭕄
𭗼
𭤨
𭥫
𭻾
𮅕
𮊿
𮍌
𮍏
𮓗
𮥼
𮧮
廾
𰀁
𰀄
𰀈
𰀉
𰀕
𰀠
𰀡
𰀢
𰀪
𰁜
𰃮
𰆊
𰆘
𰋙
𰕎
𰢴
𰧭
𰯲
00--
01--
02--
162--
163--
225--
228--
25--
257--
264--
297--
30--
31--
316--
32--
33--
34--
35--
356--
36--
360--
37--
39--
40--
41--
42--
44--
47--
48--
50--
51--
52--
53--
54--
55--
56--
57--
58--
59--
60--
61--
62--
63--
64--
65--
67--
68--
69--
70--
71--
72--
73--
74--
75--
76--
77--
78--
79--
80--
81--
82--
83--
84--
85--
86--
87--
88--
89--
90--
978--
99--
ab--
abbr--
aber--
ac--
acan--
acanth--
acantho--
acco--
achr--
acid--
acro--
ad--
ada--
ado--
ae--
aei--
aenigm--
aeth--
af--
afro--
ag--
agri--
ah--
ahuk--
ai--
air--
aj--
ak--
aki--
aku--
al--
albi--
albo--
alex--
algo--
ali--
alte--
alti--
am--
amaz--
ami--
amph--
amphi--
an--
anat--
ancylo--
ang--
angus--
ani--
annu--
anom--
anoplo--
anten--
anthro--
anti--
anto--
ap--
apa--
aphr--
api--
apo--
aq--
ar--
arac--
arbo--
arch--
arcu--
argen--
argu--
argyro--
ari--
as--
aspi--
aste--
astr--
asyn--
at--
ater--
atri--
atro--
atte--
au--
aur--
auri--
aust--
austra--
austro--
av--
ax--
ay--
az--
ba--
baa--
bab--
babi--
bach--
bact--
baga--
bagu--
bak--
baka--
bale--
ban--
bao--
barb--
barc--
bari--
barr--
bary--
basa--
basi--
bata--
bath--
batu--
baz--
be--
ben--
bera--
berb--
berc--
berd--
bere--
berg--
berh--
beri--
berj--
berk--
berl--
berm--
bern--
berp--
bers--
bert--
beru--
berw--
bh--
bi--
bia--
bico--
bidesso--
bilo--
bin--
bio--
birm--
bl--
blan--
blepha--
bo--
boli--
boro--
bp--
br--
brac--
brachy--
brev--
brevi--
bri--
brit--
brun--
bryo--
bu--
budd--
budi--
buil--
bun--
by--
ca--
caco--
caku--
calc--
cale--
cali--
calig--
call--
calli--
calo--
cam--
can--
cap--
car--
cast--
cat--
cauc--
cave--
ce--
cend--
cent--
ceph--
cera--
cerb--
cere--
ceyl--
ch--
cha--
chel--
chi--
chloro--
chri--
chry--
chryso--
ci--
cinc--
cine--
cing--
circ--
circum--
cl--
clas--
clat--
clau--
clav--
clavi--
cleo--
cli--
clin--
clyt--
co--
cocc--
cole--
coll--
colo--
colom--
com--
communi--
con--
conc--
cond--
cong--
coni--
conj--
cons--
cont--
conv--
conver--
copt--
coqu--
cora--
cori--
corn--
corr--
corti--
cory--
cosm--
cr--
cras--
crassi--
cri--
cribri--
cris--
croc--
cros--
cruc--
cryp--
crypto--
cu--
culi--
curv--
cusp--
cy--
cyan--
cyli--
cylind--
cyrt--
da--
dan--
de--
dece--
decl--
deco--
defi--
del--
demo--
den--
dense--
denticu--
des--
detik--
dh--
di--
dia--
diba--
dibu--
dich--
dict--
dictyo--
didi--
die--
diff--
diga--
digu--
diha--
dii--
diir--
diju--
dika--
diku--
dila--
dili--
dilu--
dime--
dipa--
dipe--
diper--
dipi--
dipl--
dira--
dire--
disa--
disc--
dise--
disj--
diso--
diss--
dist--
disu--
dita--
dite--
diti--
ditu--
dive--
dj--
djam--
do--
docu--
doli--
dolich--
dolo--
doro--
doug--
down--
dr--
du--
dy--
ea--
eb--
ec--
ech--
echin--
ed--
ef--
eg--
ei--
ej--
ek--
eks--
el--
elec--
eleg--
elep--
em--
emarg--
emer--
en--
end--
eng--
eo--
ep--
epi--
epil--
eq--
er--
erem--
erio--
eryt--
erythr--
es--
et--
eti--
eu--
eury--
ev--
eval--
ever--
ex--
exca--
exce--
exi--
expl--
extr--
fa--
fair--
falc--
fals--
far--
fasci--
fascicu--
fe--
femo--
ferr--
fi--
fibu--
fili--
fimbr--
fist--
fl--
flabel--
flav--
flavi--
flavol--
flor--
flori--
flu--
fo--
for--
fr--
frat--
fri--
fron--
fu--
fulig--
fulv--
fulvi--
fumi--
furc--
fusc--
fusci--
g--
ga--
gali--
gam--
gan--
gard--
ge--
gem--
gen--
geof--
geom--
geos--
gh--
gi--
gia--
gibb--
gil--
gin--
gir--
git--
gl--
glab--
glau--
glob--
gn--
gnat--
go--
gr--
grac--
gran--
gras--
gri--
gris--
griseo--
gu--
gua--
gutt--
gy--
gymn--
gymnoc--
h--
ha--
habr--
haem--
hain--
hal--
ham--
han--
hapl--
harm--
hart--
has--
haz--
he--
hebe--
hei--
heli--
helv--
hemi--
hend--
hero--
hesp--
hexa--
hi--
hid--
hidro--
high--
hijr--
hikm--
hil--
hin--
hipp--
hir--
hirti--
his--
ho--
holl--
holo--
homa--
homo--
hopl--
how--
hu--
hy--
hypo--
hyps--
i--
ia--
ibe--
ibu--
id--
idio--
ign--
ikh--
il--
illi--
illu--
im--
ima--
imm--
imp--
imper--
imr--
in--
inc--
indi--
indo--
infe--
infl--
inno--
insc--
insi--
inso--
insp--
inst--
instru--
insu--
int--
integ--
inter--
inve--
io--
ir--
is--
isa--
isch--
iso--
isti--
it--
iv--
ja--
jaco--
jan--
jaya--
je--
jen--
ji--
jo--
ju--
ka--
kab--
kaba--
kaka--
kale--
kam--
kan--
kapa--
kapi--
kara--
kari--
kart--
kasa--
kau--
kaz--
ke--
kec--
kela--
kele--
kem--
kemen--
ken--
kend--
kera--
kete--
kh--
ki--
kl--
kn--
ko--
komo--
komp--
kons--
kont--
kontro--
kr--
krat--
kri--
ks--
ku--
kund--
kw--
ky--
la--
labo--
lacu--
laevi--
lam--
lame--
lanc--
lang--
lant--
lat--
lati--
latrunc--
le--
lei--
lem--
leng--
lept--
lere--
les--
leuc--
leucos--
li--
lim--
limn--
limo--
lin--
lind--
ling--
liss--
lite--
lito--
litt--
lk--
ll--
lo--
log--
loph--
lp--
lu--
luci--
luct--
lum--
lute--
lutei--
luz--
ly--
m--
ma--
maa--
mace--
macr--
macroc--
macu--
maculi--
magn--
magni--
mah--
maha--
mai--
mala--
malai--
male--
mali--
mall--
malo--
mam--
mama--
maman--
mambu--
mamin--
mamp--
mampang--
mampar--
mampat--
mamu--
man--
mana--
manem--
mang--
mangg--
manggabu--
mangh--
mangu--
mani--
manum--
many--
manyam--
mar--
maran--
mas--
mathe--
mau--
mc--
me--
mecy--
medi--
medite--
mega--
mei--
mela--
melano--
mele--
meli--
mem--
meme--
memo--
memp--
memper--
men--
meng--
menga--
menge--
mengg--
mengh--
mengu--
menya--
menye--
merc--
meri--
meso--
mess--
meta--
mi--
mich--
micr--
microc--
microt--
mil--
mimo--
min--
minutis--
miri--
misa--
miss--
mo--
mon--
mona--
mono--
mont--
mu--
mucr--
mult--
multi--
muly--
muta--
my--
n--
na--
nan--
navi--
naz--
nc--
nd--
ne--
nebu--
neder--
negl--
nemo--
neob--
neoc--
neol--
neoli--
neop--
neos--
neot--
neur--
ng--
ni--
nich--
nico--
nigr--
nigri--
nigromac--
nipp--
niti--
nitidi--
no--
not--
nu--
nudi--
nur--
ny--
oa--
ob--
obsc--
obso--
oc--
occi--
ocel--
ochr--
ochreo--
od--
oe--
of--
og--
ok--
ol--
oligo--
oliv--
om--
on--
op--
ophr--
or--
ori--
orth--
os--
oste--
ot--
oto--
ov--
over--
ox--
oz--
pa--
pabu--
pach--
pachast--
pai--
pala--
pale--
pall--
pallid--
palm--
palp--
pam--
paman--
pamba--
pambi--
pambu--
pame--
pami--
pamin--
pamu--
pan--
panam--
panan--
panang--
panar--
pang--
panga--
pangg--
pangh--
pangu--
panom--
panya--
panyu--
papi--
papu--
para--
pare--
parh--
pari--
parj--
parm--
parp--
pars--
parv--
pas--
pata--
pate--
pati--
patri--
patt--
patun--
paup--
pe--
pect--
pell--
pem--
pemba--
pembe--
peme--
pen--
penc--
pend--
pene--
peng--
penins--
penj--
pent--
peny--
per--
peri--
petr--
ph--
phae--
phil--
phor--
phry--
phyl--
phym--
phyt--
pi--
pict--
pili--
pinc--
ping--
pinj--
pl--
plac--
plag--
plagio--
plan--
plas--
plat--
play--
pleu--
pli--
plur--
po--
poec--
poecil--
poli--
poll--
poly--
pp--
pr--
pra--
pres--
pret--
pri--
prio--
pro--
proto--
ps--
psam--
pseu--
pseuda--
pseude--
pseudo--
psil--
pt--
pu--
pulc--
pulv--
pun--
punct--
purp--
purw--
py--
pygm--
pyre--
q--
qa--
qu--
quad--
quadri--
ra--
raff--
ram--
ran--
ras--
re--
reco--
red--
reg--
rei--
rein--
rel--
repr--
resi--
reso--
reticu--
retr--
rev--
rh--
rheo--
rhod--
rhopal--
ri--
rig--
rim--
ring--
riz--
ro--
roh--
rond--
rost--
rs--
ru--
rubi--
rubri--
rufi--
rufo--
rum--
ry--
sa--
sah--
sai--
saja--
sali--
sam--
san--
sar--
sari--
saw--
sc--
scab--
scep--
scha--
sche--
schm--
scho--
schu--
scol--
scop--
scot--
scri--
se--
seba--
seku--
sel--
sem--
semi--
seno--
senti--
serr--
set--
sh--
shan--
sher--
shi--
si--
sigm--
sign--
sili--
silv--
silves--
sim--
simil--
sina--
sind--
sing--
sino--
sint--
sisy--
sj--
sk--
skot--
sl--
sm--
sn--
snow--
so--
soed--
soem--
sole--
soli--
som--
sp--
spat--
spec--
spha--
sphe--
spi--
spicu--
spil--
spin--
spini--
spir--
spiras--
sple--
spong--
squa--
sri--
st--
stel--
sten--
step--
ster--
sterno--
sti--
stich--
stict--
stigm--
stom--
stra--
stre--
stri--
stro--
strong--
stru--
styl--
su--
sub--
succ--
suka--
super--
susp--
sw--
sy--
syam--
sylv--
symp--
synd--
synt--
ta--
tach--
taen--
tag--
tah--
tai--
tak--
tala--
talo--
tam--
tamp--
tan--
tara--
taru--
tau--
te--
tech--
tele--
tem--
temp--
tene--
teng--
tenu--
tera--
terb--
terc--
terd--
tere--
terg--
teri--
terj--
terk--
terl--
terp--
terr--
ters--
tert--
teru--
tes--
teth--
tetr--
th--
the--
thin--
thom--
thre--
ti--
tim--
tj--
tn--
to--
toku--
tol--
tom--
ton--
toxi--
tr--
trachy--
trans--
tri--
trun--
trypan--
ts--
tu--
tuberc--
tubu--
tum--
tun--
turk--
tw--
ty--
ub--
uc--
ud--
ue--
ug--
uj--
uk--
ul--
ula--
um--
umbr--
un--
und--
ungg--
uni--
up--
ur--
us--
ussu--
ut--
va--
vale--
van--
vari--
ve--
velu--
vent--
venu--
vern--
vesp--
vi--
vibr--
vill--
viol--
virg--
viri--
vitti--
vl--
vo--
voi--
vol--
vu--
w--
wa--
war--
was--
we--
wh--
wi--
wid--
wiki--
wil--
win--
wir--
wis--
wit--
wo--
word--
wr--
wu--
xa--
xant--
xantho--
xe--
xeno--
xi--
xylo--
y--
ya--
yagin--
ye--
yo--
yu--
yun--
z--
zai--
zam--
zea--
zeb--
zel--
zi--
zoo--
zul--
ا--
ب--
--0
--00
--03
--1
--12
--14
--18
--2
--3
--35
--37
--4
--42
--5
--52
--53
--58
--6
--60
--62
--63
--69
--7
--71
--74
--75
--8
--84
--9
--a
--aa
--aan
--ab
--aba
--abilis
--abis
--ac
--aca
--ace
--ach
--ad
--ae
--aea
--aeus
--af
--afi
--ag
--aga
--agi
--ah
--ahan
--ahi
--ai
--aian
--aik
--ain
--ait
--aj
--aja
--ajian
--ak
--akan
--aksi
--al
--ale
--alis
--alo
--als
--aluan
--alus
--am
--ama
--ambah
--ami
--amia
--amma
--amomops
--an
--ana
--anan
--ance
--ang
--anian
--anni
--annya
--annyo
--ano
--ans
--ant
--antha
--anus
--ao
--ap
--aph
--ar
--ara
--aran
--ard
--aro
--arsis
--arsus
--ary
--as
--asi
--aster
--astix
--at
--ata
--atan
--ate
--ated
--ates
--ation
--ato
--ator
--atrix
--atu
--atum
--atus
--au
--aun
--ava
--ax
--ay
--aya
--ayi
--ayo
--b
--ba
--bah
--ban
--bar
--bat
--be
--beh
--bek
--bel
--ber
--berg
--bet
--bi
--bik
--bil
--bilis
--bius
--ble
--bo
--bok
--bola
--bs
--bu
--buih
--buik
--c
--ca
--cah
--cak
--cal
--calis
--cana
--cantha
--ce
--cea
--ceae
--cegah
--cens
--ceps
--cer
--cera
--cerus
--ces
--ceus
--ch
--che
--chela
--chema
--chi
--chora
--chus
--ci
--cia
--cies
--cik
--cis
--ciura
--cius
--ck
--cki
--co
--cola
--collis
--con
--cornis
--craft
--crus
--cs
--ct
--cta
--ctata
--ctes
--cts
--ctus
--cu
--cua
--cuik
--cula
--culus
--cum
--cus
--cy
--d
--da
--dae
--dah
--dale
--dam
--dang
--dap
--daptasi
--dar
--ddin
--de
--di
--diak
--didik
--dih
--dii
--dik
--din
--dingan
--diplosis
--dir
--dis
--dius
--do
--dok
--dopsi
--dor
--dra
--ds
--dt
--du
--dua
--dum
--dun
--dung
--dus
--dy
--dyla
--e
--ea
--eae
--eata
--eatus
--ed
--eda
--edo
--ee
--ef
--egara
--egi
--eh
--ei
--eia
--ein
--ek
--el
--ela
--elea
--eli
--elis
--ell
--ella
--ellus
--em
--ema
--emah
--eme
--emen
--emia
--emis
--emus
--en
--ena
--ence
--eng
--eni
--enia
--ens
--ense
--ensi
--ensis
--ent
--enta
--enus
--eps
--er
--era
--erg
--ergi
--eri
--eria
--erma
--ero
--eromeyenia
--ers
--ert
--erus
--ery
--es
--esa
--esi
--esis
--ess
--est
--estia
--et
--eta
--eti
--etic
--etik
--etosa
--ett
--etus
--eum
--eur
--eura
--eurus
--eus
--eva
--evi
--ex
--exa
--ey
--eyi
--ez
--eza
--ezi
--f
--faaik
--fat
--fer
--fera
--fi
--field
--frons
--ful
--g
--ga
--gah
--gai
--gajar
--gak
--gal
--gam
--gan
--gang
--gar
--garan
--garuh
--gat
--ge
--gek
--ger
--gera
--gga
--ggung
--gh
--ght
--gi
--gia
--gian
--gih
--ginatus
--ging
--gka
--gkai
--gkan
--gku
--gkuak
--gn
--go
--gon
--gona
--grafi
--gs
--gsa
--gsi
--gso
--gu
--gua
--gul
--gung
--gus
--gy
--h
--ha
--haeta
--hal
--han
--hap
--har
--hara
--haro
--hat
--he
--hea
--hela
--her
--hes
--hew
--hi
--hia
--hid
--hila
--hilus
--hina
--hing
--hip
--hkan
--ho
--hora
--horax
--hrix
--hrus
--ht
--hu
--hum
--hus
--hy
--hysis
--i
--ia
--iaan
--iae
--iah
--iak
--ial
--ian
--iana
--iang
--iani
--ianus
--ias
--iata
--iatus
--ib
--ic
--ica
--ical
--iceps
--ich
--icola
--icollis
--icornis
--ics
--icta
--ictus
--icum
--icus
--id
--ida
--idae
--ides
--idia
--idium
--ie
--ief
--iella
--iensis
--ier
--ieri
--ies
--if
--ifer
--ifera
--ifrons
--iga
--iger
--igera
--igi
--igma
--ign
--ignata
--ih
--ihat
--ihkan
--ii
--ik
--ika
--ikat
--iki
--il
--ila
--ilan
--ile
--ilis
--illa
--illus
--ilus
--im
--ima
--imbulkan
--imonia
--imus
--in
--ina
--inan
--ine
--inea
--inella
--ineus
--ing
--ingan
--ingi
--inosa
--ins
--inus
--io
--iola
--ion
--ions
--iopsis
--ior
--ios
--ip
--ipalpus
--ipennis
--ipes
--ir
--ira
--iru
--is
--isasi
--iscus
--ise
--iseta
--ish
--isi
--ism
--isme
--ist
--ister
--it
--ita
--itan
--itarsis
--itas
--ites
--iti
--ities
--itif
--ition
--ity
--ium
--ius
--iva
--ive
--iyah
--iz
--ization
--j
--ja
--jaan
--jabat
--jaga
--jah
--jaik
--jak
--jar
--jarah
--jaran
--jek
--jer
--ji
--jia
--jo
--ju
--juk
--jukan
--k
--ka
--kab
--kah
--kai
--kaik
--kak
--kal
--kan
--kap
--kar
--kasi
--kat
--kau
--ke
--keh
--kek
--ker
--kes
--kh
--khiri
--ki
--kia
--kih
--kii
--kin
--kir
--kis
--kit
--kita
--kkan
--knyo
--ko
--kok
--kolah
--kon
--kripsi
--ks
--ksi
--ktif
--ku
--kua
--kuak
--kuih
--kuik
--kuran
--kus
--l
--la
--lae
--laena
--lah
--lai
--lak
--lam
--lan
--lana
--lang
--lar
--lava
--ld
--ldi
--le
--lea
--leh
--lei
--lek
--lensis
--ler
--let
--ley
--leyi
--li
--lia
--liah
--lian
--liang
--lid
--lidae
--lih
--lik
--lim
--lin
--lina
--ling
--lis
--lisme
--lit
--liun
--lkan
--ll
--lla
--llata
--lli
--llidae
--llis
--llus
--lo
--log
--logi
--logy
--lon
--lor
--lpis
--lpus
--ls
--lt
--lta
--lu
--lum
--lus
--ly
--lytus
--lı
--m
--ma
--madya
--mal
--man
--mat
--mba
--mbau
--mbi
--mbo
--me
--mer
--mera
--mi
--mia
--mima
--mis
--mma
--mo
--moan
--mon
--mpa
--mpak
--mpang
--mpilan
--mpok
--ms
--mu
--mun
--mur
--mus
--my
--mya
--myia
--myza
--n
--na
--nae
--nah
--nai
--nak
--nakan
--nal
--nan
--nang
--nangan
--natus
--navia
--nce
--nci
--nctus
--ncus
--nd
--nda
--ndang
--ndi
--ndiang
--ndo
--ndra
--ndus
--ne
--nea
--ned
--nei
--nel
--nella
--nensis
--ner
--nes
--neura
--ney
--ng
--nga
--ngan
--nggu
--ngi
--ngia
--ngkek
--ngko
--ngkuik
--ngs
--ni
--nia
--nicus
--nih
--nii
--ning
--nis
--nius
--njato
--njo
--nk
--nn
--nnis
--nnyo
--no
--noi
--nops
--nosa
--ns
--nsa
--nse
--nsi
--nsis
--nt
--nta
--ntaan
--ntai
--ntak
--ntan
--nti
--ntian
--ntifikasi
--nto
--ntris
--nts
--ntu
--ntukan
--num
--nus
--nut
--ny
--nya
--nyi
--nyo
--o
--oa
--oalan
--oan
--oba
--obia
--ochaeta
--ochina
--ock
--odes
--oe
--oensis
--off
--og
--ogaster
--ogi
--ogon
--ogy
--oh
--oi
--oid
--oides
--ok
--okan
--ol
--ola
--olata
--olo
--ologi
--olus
--om
--oma
--ome
--omima
--omo
--ompok
--omyia
--omyza
--on
--ona
--onal
--oner
--ong
--oni
--onia
--onic
--onica
--onis
--ons
--ont
--onus
--op
--opachria
--ophila
--ops
--opsis
--optera
--opus
--or
--ora
--orax
--ore
--ori
--orpha
--ors
--orum
--orus
--ory
--oryx
--os
--osa
--osema
--osia
--osis
--osoma
--ospongia
--ossa
--osum
--osus
--ot
--ota
--otata
--otes
--oti
--otus
--ous
--ov
--ovi
--ovina
--ow
--ows
--ox
--p
--pa
--pan
--par
--pat
--pati
--paung
--pe
--peira
--pek
--pennis
--pes
--pex
--peza
--pha
--phantes
--phia
--phila
--philus
--phis
--phus
--pi
--pia
--pik
--pina
--ping
--pis
--pkan
--ple
--plexa
--plosis
--po
--poan
--poda
--pogon
--pongia
--por
--pos
--prov
--ps
--psi
--psis
--pta
--ption
--ptus
--pu
--puih
--puik
--pun
--pur
--pura
--puro
--pus
--pyga
--q
--qbaj
--que
--r
--ra
--rae
--rah
--rai
--raik
--rak
--ral
--ralis
--ram
--ran
--rani
--rap
--rat
--rau
--rax
--rd
--rdi
--re
--rea
--reh
--rei
--rek
--ren
--rensis
--res
--rez
--rg
--rgi
--rgus
--ri
--ria
--ricus
--rii
--rik
--ril
--rima
--rin
--rina
--ring
--rinus
--ris
--rit
--rita
--rium
--rius
--rix
--rja
--rkan
--rki
--rman
--rn
--rnis
--rnus
--ro
--roi
--rok
--rol
--ron
--rpha
--rphus
--rra
--rs
--rsa
--rsis
--rt
--rti
--rto
--ru
--ruah
--ruan
--ruh
--ruik
--rul
--rum
--run
--rus
--ry
--s
--sa
--sae
--sai
--samo
--san
--sasi
--sat
--sata
--scelis
--scens
--sch
--sche
--se
--sek
--sen
--ser
--ses
--sh
--si
--sia
--sii
--silkan
--sima
--sina
--sion
--sis
--sius
--ska
--skan
--skii
--sm
--sme
--smus
--so
--sok
--soma
--son
--soni
--sopodus
--sor
--spis
--spora
--ss
--ssa
--ssima
--ssus
--st
--sta
--stan
--ster
--stes
--stic
--stigma
--stus
--su
--suah
--suik
--sul
--sum
--sur
--sus
--t
--ta
--taan
--tah
--tai
--tal
--tam
--tama
--tan
--tar
--tara
--taran
--taro
--tary
--tas
--tasi
--tat
--tatus
--te
--tea
--ted
--teh
--tek
--tella
--ten
--teng
--tensi
--tensis
--ter
--tera
--terna
--terus
--tes
--teus
--th
--tha
--thi
--thus
--thy
--ti
--tia
--tial
--tian
--tic
--tica
--ticus
--tidae
--ties
--tif
--tigma
--tii
--tik
--tika
--til
--tilis
--tin
--tina
--tine
--ting
--tinus
--tion
--tions
--tis
--tium
--tix
--tkan
--to
--toan
--tok
--tor
--tory
--tos
--tosa
--tra
--tro
--ts
--tt
--tta
--tti
--ttus
--tu
--tua
--tuih
--tuk
--tula
--tum
--tur
--tura
--tus
--tusa
--ty
--tyla
--tylus
--u
--ua
--uah
--uak
--ual
--uan
--ucta
--ud
--uddin
--udi
--udin
--ue
--uel
--ues
--uh
--uhan
--ui
--uih
--uik
--uk
--uka
--ukan
--ul
--ula
--ullah
--um
--un
--una
--unan
--ung
--ungi
--uo
--up
--ur
--ura
--uran
--ure
--urg
--uri
--uru
--urus
--us
--usi
--ut
--uta
--v
--va
--ve
--vec
--versa
--vi
--vora
--w
--wa
--wah
--wan
--wanan
--wat
--wati
--we
--weh
--well
--wi
--win
--wo
--x
--xa
--xea
--xia
--xus
--xya
--y
--ya
--yah
--yak
--yan
--yar
--ydrus
--yga
--yi
--yia
--yla
--ylus
--yma
--yn
--ynchus
--yo
--yoan
--ypus
--yra
--ys
--yta
--ytes
--yu
--yuik
--yx
--yyah
--yza
--z
--za
--zal
--zar
--ze
--zi
--zim
--ı
--د
