!
"
#
##0
##1
##10
##11
##12
##13
##14
##15
##16
##17
##18
##19
##2
##20
##21
##22
##23
##24
##25
##26
##27
##28
##29
##3
##30
##31
##32
##33
##34
##35
##36
##37
##38
##39
##4
##40
##41
##42
##43
##44
##45
##46
##47
##48
##49
##5
##50
##51
##52
##53
##54
##55
##56
##57
##58
##59
##6
##60
##61
##62
##63
##64
##65
##66
##67
##68
##69
##7
##70
##71
##72
##73
##74
##75
##76
##77
##78
##79
##8
##80
##81
##82
##83
##84
##85
##86
##87
##88
##89
##9
##90
##91
##92
##93
##94
##95
##96
##97
##98
##99
$
%
&
'
(
)
*
+
,
-
.
/
0
00
000
01
0140
02
03
030
04
05
06
0633
068
07
08
09
1
10
100
1000
1001
1002
1006
1007
101
1016
1017
1019
102
1025
103
1030
1035
1038
104
1042
1046
105
1051
1056
106
1066
107
1073
108
1080
1086
109
1093
1095
1098
11
110
1100
1102
111
112
1122
1126
1128
113
1135
1136
114
1146
115
1157
116
117
118
1186
119
12
120
1200
121
122
1222
1227
123
124
1248
125
1250
1252
1254
126
127
1273
128
129
1293
13
130
1300
1309
131
132
1328
133
1333
134
135
1350
136
1360
1362
1365
1367
137
1371
138
1389
139
14
140
1400
141
1414
1415
1416
142
1424
1429
143
1433
1436
144
1447
1448
145
1451
1456
1459
146
1466
147
1473
1478
148
1486
149
15
150
1500
1502
151
1511
1512
1515
1517
1518
1519
152
1520
1521
1522
1526
1527
153
154
1546
1547
155
1554
156
157
1570
1575
1579
158
1582
1583
1586
1587
159
1596
16
160
1600
1601
161
1610
1612
1613
1619
162
1620
163
1637
164
1641
1642
1645
165
1650
1657
166
1660
1663
1668
167
1670
1672
1674
1675
1677
1679
168
1680
1684
1685
1687
1688
1689
169
1690
1691
1694
1695
17
170
1700
1701
1702
1703
1704
1705
1707
171
172
1726
1727
173
1734
1737
174
1740
1742
1745
1749
175
1750
1751
1755
1756
176
1761
1765
1766
1767
177
1772
1773
1777
1778
178
1780
1781
1784
1785
1786
1787
1788
1789
179
1790
1791
1796
18
180
1800
1801
1802
1805
1806
1807
1808
181
1810
1811
1812
1813
1814
1816
1817
1818
1819
182
1820
1823
1824
1825
1826
1827
1829
183
1830
1831
1832
1833
1834
1835
1837
1838
1839
1840
1841
1842
1843
1844
1845
1846
1847
1848
185
1850
1851
1853
1855
1856
1857
1858
1859
186
1860
1861
1862
1863
1864
1865
1867
187
1870
1872
1873
1874
1875
1878
1879
188
1880
1881
1882
1883
1885
1886
1887
1888
1889
189
1890
1891
1893
1894
1896
1897
1898
1899
19
190
1900
1901
1902
1903
1904
1905
1906
1907
1908
191
1910
1911
1912
1913
1914
1915
1916
1917
1918
1919
192
1920
1921
1922
1923
1924
1925
1926
1927
1928
1929
193
1930
1931
1932
1933
1934
1935
1936
1937
1938
1939
194
1940
1941
1942
1943
1944
1945
1946
1947
1948
1949
195
1950
1951
1952
1953
1954
1955
1956
1957
1958
1959
196
1960
1961
1962
1963
1964
1965
1966
1967
1968
1969
197
1970
1971
1972
1973
1974
1975
1976
1977
1978
1979
198
1980
1981
1982
1983
1984
1985
1986
1987
1988
1989
199
1990
1991
1992
1993
1994
1995
1996
1997
1998
1999
2
20
200
2000
2001
2002
2003
2004
2005
2006
2007
2008
2009
201
2010
2011
2012
2013
2014
2015
2016
2017
2018
2019
202
2020
2021
2022
203
204
205
206
207
208
209
21
210
2100
211
212
215
216
218
219
22
220
221
222
223
224
225
226
227
228
23
230
2307
231
233
234
235
236
237
238
239
24
240
242
243
244
245
246
248
249
25
250
2500
251
253
254
255
257
258
26
260
262
263
264
265
266
268
27
270
271
272
275
276
277
278
28
280
281
282
283
284
285
286
288
289
29
290
291
292
293
294
296
297
299
3
30
300
301
302
304
305
306
307
308
309
31
310
312
313
314
315
316
3166
319
32
320
321
322
323
324
325
326
3261
327
329
33
330
331
332
333
338
339
34
340
341
342
344
345
347
348
35
350
351
352
353
354
355
356
358
359
36
360
361
362
363
364
365
366
368
37
370
373
374
375
378
38
380
382
384
385
387
39
392
393
395
399
4
40
400
4000
401
402
405
407
408
409
41
410
412
415
419
42
420
421
422
424
428
429
43
430
431
432
434
436
437
438
44
440
441
443
445
446
45
450
452
453
455
456
457
46
460
461
462
463
466
467
47
470
471
473
477
479
48
480
483
486
489
49
490
493
4936
494
498
5
50
500
501
504
508
509
51
510
511
515
516
52
521
523
53
530
535
536
539
54
540
543
545
548
55
551
553
558
56
560
561
563
57
570
572
574
578
579
58
588
59
590
593
597
6
60
600
601
602
61
611
612
62
628
629
63
630
633
639
64
640
648
65
650
66
661
666
669
67
670
671
672
6736
674
68
680
689
69
7
70
700
702
705
709
71
716
718
72
723
726
727
73
731
732
739
74
744
747
75
750
752
76
764
768
77
778
78
781
782
783
79
790
795
8
80
800
81
817
819
82
83
838
84
840
85
850
856
86
863
865
867
87
873
874
878
879
88
880
884
885
89
891
898
9
90
900
91
910
916
919
92
924
928
929
93
930
932
935
94
942
947
95
950
956
96
960
962
964
967
968
97
973
976
977
978
979
98
980
981
984
985
987
988
989
99
991
:
;
<
=
>
?
@
[
\
]
^
_
`
a
aa
abad
abadi
abah
abang
abdi
abdomen
abdul
abdullah
abdurrahman
abdurrochim
abhidhamma
abimanyu
abjad
abkhazia
aborigin
abot
about
abri
abs
absah
absolute
abstract
abstrak
abu
abung
ac
acad
academic
academy
acara
access
accessed
account
aceh
achmad
aci
acknowledgements
act
acting
action
acute
ad
ada
adalah
adam
adams
adanya
adaptasi
adapun
adat
add
added
ade
adegan
adem
adhedhasar
adhem
adi
adik
adikarto
adiknya
adikodrati
adil
adimulyo
adine
adipala
adipati
admikistrasi
admikistratif
administrasi
administratif
administration
administrative
adoh
adol
adolf
adonan
adonara
adsabs
adu
adus
aek
aerosol
afdeeling
affairs
affandi
afganistan
africa
afrika
after
against
agak
agam
agama
agamane
agar
agats
age
agenda
ageng
aggregate
agi
agni
agong
agraris
agresi
agung
agus
agustinus
agustus
ah
ahli
ahmad
ai
aids
air
airasia
airlangga
airlines
airport
airways
ais
aj
aja
ajaib
ajang
ajaran
ajarane
aji
ajibarang
akademi
akal
akan
akar
akbar
ake
akeh
akehe
akhir
akhire
akhirnya
akibat
akibate
akibatnya
akrab
aksara
akses
aksi
aksimuda
aksioma
aktif
aktivis
aktivitas
aktor
aktris
aku
akuntansi
akuwu
al
ala
alai
alam
alaman
alamat
alamate
alami
alamiah
alan
alanya
alas
alasan
alat
albania
albert
albertus
album
ale
alengka
alesan
alexander
alfabet
alfred
alga
ali
alian
aliansi
alias
alice
align
alih
aliran
alit
aljabar
aljazair
alkimia
alkitab
alkohol
all
alla
allah
allen
allowed
alm
almarhum
alok
alomorf
alon
alor
aloysius
alpha
alpide
also
alt
alternatif
alu
aluh
alun
alur
alus
alva
alwi
am
ama
amadeus
amal
amalan
aman
amanah
amanat
amandemen
amangkurat
amantadine
amanuban
amar
amarasi
amarga
amas
amat
amazon
amba
ambal
ambalika
ambane
ambarawa
ambassador
ambegan
ambika
ambon
ambruk
ambune
ame
america
american
amerika
ametung
amfoang
amien
amin
amir
amitabha
ammar
among
amonia
ampana
ampar
ampat
ampel
ampelgading
ampuh
ams
amsterdam
amuntai
amurang
an
ana
anak
anakan
anake
anakku
anaknya
analisis
analysis
anambas
anane
ananging
ananta
ancaman
ancient
ancol
and
anda
andalan
andaman
andhap
andi
andre
andrew
andy
aneh
aneka
ange
angel
angeles
anget
anggapan
anggaran
angger
anggi
anggone
anggota
anggotane
anggotanya
anggrek
angguk
anggun
anggur
angin
angiosperm
angiospermae
angka
angkasa
angkat
angkatan
angkate
angket
angklung
angkola
angkor
angkot
angkutan
angrok
animal
animalia
animasi
animisme
anjani
anjatan
anjing
anjog
anjuran
ankylosaurus
ann
anna
annona
annual
annuario
annurev
anom
another
antaga
antar
antara
antarane
antaranya
antareja
antariksa
antarkota
antartika
antasari
antasena
anthony
anti
antige
antigen
antillen
antioksidan
antiviral
antivirus
anton
antonio
antonius
antropologi
ants
antv
anu
anugerah
anumerta
anusapati
anwar
any
anyar
anyer
aorta
ap
apa
apabila
apakah
apalagi
apamaning
apapun
apel
apg
aphelion
api
apik
apike
aplang
aplikasi
apollo
apostolik
apple
appointed
april
aquinas
ar
ara
arab
arah
arahan
arahat
aran
arane
arang
arca
archimedes
archipelago
architecture
archive
archuleta
ardi
are
area
areal
arek
arema
arena
arep
arga
argentina
arginin
argo
argumen
ari
aria
arief
arif
arifin
aring
aris
aristoteles
aristotle
aritmetika
ariya
arjuna
arkeologi
arkeozoikum
armada
armenia
arms
army
arnoldus
arok
around
arsip
arsitek
arsitektur
arsyad
art
arteri
artha
arthur
arti
article
articles
artikel
artikele
artine
artinya
artis
artistik
arts
aru
arum
arung
arungbinang
arupa
arus
arwah
arxiv
arya
as
asahan
asal
asale
asalnya
asam
asap
asas
asasi
asean
asem
aset
asia
asian
asil
asimov
asin
asinan
asing
asisi
asisten
asli
asline
aslinya
asma
asmara
asmat
asor
asosiasi
asp
aspal
aspek
aspirasi
aspx
asrama
asri
asring
assembly
associated
association
asteroid
astina
astra
astro
astrofisika
astronom
astronomi
astronomical
astronomy
astrophysical
astrophysics
asu
asuh
asuhan
asuransi
aswaja
aswin
asy
at
atambua
atap
atas
atau
ataupun
atawa
ateleng
ateng
athena
ati
atine
atlantic
atlantik
atlas
atlet
atm
atmonadi
atmosfer
atmosfernya
atom
atos
atraksi
atrium
aturan
atusan
au
audio
august
australia
australian
austria
austronesia
author
authority
authors
autobot
available
avian
awak
awake
awal
awalan
awale
awalnya
awam
awan
awang
award
awards
awe
aweh
awet
awit
awu
awujud
ayah
ayahnya
ayam
ayamaru
ayat
ayem
ayo
ayodhya
ayu
azerbaijan
azhar
azis
aziz
b
ba
bab
babad
babadan
babagan
babak
babakan
babar
babaran
babat
babi
babo
baca
bacan
bach
back
background
badai
badak
badan
badawi
badeg
badhe
badhut
badminton
baduga
badung
badut
baduy
bae
baen
bagaimana
bagaimanapun
bage
bagean
bagelen
bagi
bagian
bagiane
bagiyan
bagong
bagus
bagyo
bah
bahagia
bahama
bahan
bahane
bahari
bahasa
bahasan
bahaya
bahkan
bahrain
bahwa
baik
baiknya
baja
bajaj
bajawa
bajo
baju
bajuri
bakal
bakalan
bakar
bakat
bakau
bakongan
bakorwil
bakso
bakteri
bakti
baku
bakul
bakumpai
bal
bala
baladewa
baladewan
balai
balan
balangan
balap
balapan
bale
bali
balik
balikpapan
balita
ball
balong
balongan
balung
balungan
bambang
bambu
ban
bancar
banci
band
banda
bandar
bandara
bandaraya
bandha
bandhar
bandhara
banding
bandingan
bandjermasin
bandung
banget
banggai
bangka
bangkalan
bangkinang
bangko
bangkok
bangku
bangladesh
bangli
bangsa
bangsal
bangsane
bangsawan
bangsri
bangun
bangunan
bani
banjar
banjaran
banjaranyar
banjarbaru
banjarejo
banjarharjo
banjarmangu
banjarmasin
banjarnegara
banjarparakan
banjarsari
banjir
banjur
banjuran
bank
bantaeng
bantar
bantarbolang
bantarkawung
bantarsari
banten
banteng
banteran
bantuan
bantul
banua
banuaka
banyak
banyaknya
banyu
banyuangi
banyuasin
banyumas
banyumasan
banyumudal
banyune
banyuurip
banyuwangi
bapa
bapak
bapake
bar
bara
barabai
barack
barak
barang
barat
bareng
baribin
baris
barisan
baritan
barito
barkas
barlingmascakeb
baro
baron
barong
barongan
barongsai
barre
barru
barton
baru
barumun
baruna
barung
barus
barycenter
barzanji
bas
basa
basah
basane
base
based
basic
basis
basket
basry
bass
basshunter
bastian
basudewa
basuki
bata
batak
batalyon
batam
batang
batanghari
batara
batari
batas
batasan
batavia
batee
bates
batesan
batese
bathara
bathin
bati
batik
batin
batu
batuan
batubara
batur
baturaden
baturaja
baturetno
baturraden
batursari
batuwarno
bau
baubau
bausastra
bawah
bawahan
bawahane
bawahnya
bawana
bawang
bawean
bawor
baworan
bay
baya
bayan
bayangan
bayi
bayu
bbc
be
beagle
beautiful
beban
bebas
bebatuan
bebek
beber
beberapa
becak
becik
beda
bedagai
bedah
bedane
bedug
been
beethoven
before
begalan
begawan
begin
begitu
behind
beijing
being
beji
bekas
bekasi
bekerja
bela
belah
belahan
belajar
belakang
belakangan
belanda
belanja
belarus
belas
belerang
belgia
beli
beliatn
beliau
belik
beling
belitang
belitung
bell
belt
belu
belum
ben
benang
benar
benawa
bencana
benda
bendahara
bendera
bendhe
bendo
bendungan
bener
bengawan
bengi
bengkalis
bengkayang
bengkel
bengkoang
bengkong
bengkulu
bening
benjamin
benny
benteng
bentuk
bentuke
bentuknya
benua
benuaq
benyamin
benz
berabad
beracun
berada
beragam
beragama
berakhir
berakhirnya
berakibat
beralih
beran
beraneka
beranggotakan
berangkat
berani
berapi
berarti
beras
berasal
berat
berau
berawal
berbagai
berbahasa
berbahaya
berbakti
berbalik
berbangsa
berbasis
berbatasan
berbatesan
berbeda
berbentuk
berbicara
berbuat
bercampur
bercocok
berdagang
berdarah
berdasar
berdasarkan
berdaulat
berdekatan
berdiameter
berdiri
berdirinya
berdua
berencana
berevolusi
berfungsi
bergabung
berganti
bergantung
bergaya
bergelar
bergerak
berguna
berguru
berhak
berhala
berharga
berhasil
berhenti
berhubungan
beri
beribukota
berikut
berikutnya
beringin
berisi
berita
berjalan
berjanji
berjarak
berjaya
berjiwa
berjuang
berjudul
berjumlah
berkah
berkaitan
berkali
berkarya
berkas
berkat
berkata
berkebangsaan
berkedudukan
berkehendak
berkelanjutan
berkeley
berkeliling
berkembang
berkenaan
berkenan
berkisar
berkomunikasi
berkontraksi
berkontribusi
berkuasa
berkuda
berkumpul
berkunjung
berkurang
berlainan
berlaku
berlangsung
berlanjut
berlawanan
berlayar
berlebihan
berlin
berlokasi
bermacam
bermain
bermaksud
bermanfaat
bermata
berminat
bermotor
bermuara
bermukim
bermula
bernama
bernard
bernuansa
berobah
beroperasi
berpasangan
berpendapat
berpendidikan
berpenduduk
berpengaruh
berperan
berperang
berperioda
berpihak
berpikir
berpindah
berpotensi
berpusat
berputar
berputra
bersama
bersamaan
bersamanya
bersangkutan
bersatu
bersaudara
bersedia
bersejarah
bersekutu
bersenjata
bersesuaian
bersifat
bersih
berskala
berstatus
bersuara
bersumpah
bertahan
bertahap
bertahta
bertambah
bertambahnya
bertanggung
bertanggungjawab
bertanya
bertapa
bertarung
bertekad
bertempat
bertempur
bertemu
bertentangan
bertepatan
bertindak
bertitik
bertugas
bertujuan
bertumbuh
berturut
berubah
berukuran
berumur
berupa
berusaha
berusia
bervariasi
berwajah
berwarna
besar
besaran
besarnya
beserta
besi
besok
best
besuki
betapa
betawi
betina
betung
between
beyond
bha
bhagawad
bhakti
bharat
bharata
bharatawarsha
bharatayuddha
bhatara
bhikkhu
bhre
bhutan
bi
biak
bianglala
biaro
biasa
biasane
biasanya
biawak
biaya
bibcode
bibit
biboki
bidadari
bidan
bidang
bidoih
biduk
big
bijaksana
biji
bikomi
bila
bilah
bilang
bilangan
bilik
bill
billionaires
bima
bimasakti
bimbingan
bin
bina
binangun
binatang
bing
bingung
binh
binjai
binomial
binong
binongko
bintan
bintang
bintik
bintuni
binuang
bio
biodiversity
biografi
biography
biol
biola
biologi
biologis
biology
bioskop
bir
bireuen
biro
birokrat
biru
bis
bisa
bisma
bisnis
bisri
bissau
biting
bitung
biyasa
biyasane
biyung
biyunge
bk
bl
black
blak
blakan
blakasuta
blambangan
blanakan
blanc
blang
blankon
blater
blendung
blimbing
blimbingsari
blitar
blog
blogspot
blok
blora
blue
bmj
bms
bo
boalemo
bob
bobosan
bobot
bobote
bobotsari
bocah
bodeh
body
boen
bogor
bogorejo
bogowonto
bojo
bojone
bojonegoro
bojong
bojongsari
bok
bola
bolaang
bolang
bolango
boled
boleh
bolivia
bolon
bolong
bom
bombana
bonang
bonaparte
bondowoso
bone
boneka
bongas
bongkel
bongkok
bonjok
bonn
bonorowo
bontang
book
books
boom
bor
borneo
borobudur
borong
bosnia
boston
botani
botswana
boven
box
boyolali
bp
bpd
bpk
bps
br
brahma
brahmana
brambang
brandan
brarti
brasil
bratasena
brati
brawijaya
brazil
brebes
bridge
brief
brigadir
brigjen
brill
britania
britannica
british
bromo
brondong
brown
bruder
brunei
bruno
bruto
bt
bua
buah
buahan
buahdua
buana
buang
buat
buatan
buay
buaya
buayan
bubar
bubi
bubungan
bubur
budak
budaya
budayane
budayawan
buddha
budha
budi
budidaya
budiman
budin
bugis
buih
buitenzorg
bujur
buka
bukan
bukanlah
bukateja
bukit
bukittinggi
bukti
buktine
buku
bukune
bukunya
bulaksari
bulan
bulanan
bulat
buleleng
bulgaria
bull
bulletin
bulu
bulukerto
bulukumba
bulungan
bulurejo
bulus
buluspesantren
bumblebee
bumbu
bumbune
bumi
bumiayu
bumiputra
bumirejo
buncis
bunda
bunder
bung
bunga
bungah
bungku
bungkus
bungo
bungsu
bunguran
buntil
buntu
bunuh
bunut
bunyi
bunyu
buol
bupati
bupatine
bupatinya
bureau
burkina
burma
burok
buru
buruh
buruk
burundi
burung
bus
busana
bush
business
busur
but
buta
butiran
buton
butuh
buwono
bwv
bwx
by
byasa
c
ca
cabai
cabang
cabe
cablaka
cacaban
cacaeh
cacahe
cacing
cadangan
cafe
cagar
cah
cahaya
cahya
cair
cairan
caknan
cakra
cakung
california
called
calon
caltech
calung
cam
camat
cambridge
camellia
campa
campur
campuran
campurane
campursari
can
canada
canda
candi
candimulyo
candiwulan
candra
cangkring
cantik
cap
cape
capital
cara
carane
cargo
cari
caringin
carita
carl
carolina
carolus
carrefour
caruban
case
cassiki
cassini
catatan
catetan
catholic
catur
cb
cd
cdc
ce
cedhak
cekak
ceko
celah
celebes
cell
cemara
cemerlang
cempaka
cendana
cendekiawan
cenderung
cendhek
cengkareng
census
centaur
center
centers
central
centre
century
cepat
cepedak
ceper
cepet
cepot
cepu
cerah
ceramah
cerbon
cerdas
ceres
cerita
ceritane
ceritanya
cerme
cermin
cetak
cetha
cfm
cgi
ch
chaaon
chad
chairil
chaiya
chaiyya
chal
chale
challis
championships
chandra
change
changing
channel
characteristics
charles
charon
chasselas
chen
cheng
chi
chicago
chief
children
chili
china
chinese
chip
chola
chris
christian
christianity
church
ci
cia
ciamis
cianjur
ciawi
cibadak
cibalong
cibangkong
cibatu
cibeber
cibeunying
cibeureum
cibingbin
cibinong
cibitung
cibodas
cibogo
cibugel
cicalengka
cidadap
cidahu
cidolog
cigugur
cijambe
cijeruk
cijeungjing
cikadu
cikakak
cikal
cikampek
cikarang
cikole
cikoneng
cikuning
cilacap
cilamaya
cilandak
cilebok
ciledug
cilegon
cileles
cilengkrang
cilik
cilincing
cilongok
cimahi
cimalaka
cimanggu
cimanuk
cimarga
cimaung
cina
cincin
cinta
cintanya
cinten
ciomas
cipaku
cipanas
cipari
cipayung
cipeundeuy
cipicung
cipta
ciptaan
ciptoroso
ciputat
ciputra
cirebon
ciri
cirine
cisalak
cisarua
cisitu
cita
citarum
citation
cite
citebook
citeureup
cithakan
cities
citra
citruline
city
citypopulation
ciung
civil
civilization
ciwaringin
ciwidey
clapar
clark
class
cleopatra
clin
clinical
cloud
club
cm
co
coba
cocog
cocok
cocos
code
cokan
coke
coklat
cokronegara
cokrowedono
col
collection
college
colloredo
colomadu
colonial
color
columbia
com
comal
combined
combrang
comets
committee
common
commons
community
company
comparison
complete
computer
conceicao
concerto
conditions
condong
conference
confucius
conggeang
congot
considered
contains
content
continent
continental
continents
conto
contoh
contohnya
contone
control
convert
copies
copy
copying
copyright
corak
cornelis
corporation
cot
cotro
could
council
countries
country
course
court
cover
covers
cowong
cowongan
cox
crita
critane
critical
cs
cu
cuaca
cublak
cucu
cukup
cultural
culture
cup
curah
curie
curiga
current
curug
curup
cut
cuti
d
da
dada
dadi
dadine
dados
dadu
daendels
daeng
daerah
daerahe
daerahnya
daftar
dagang
daging
daginge
daha
dahsyat
dahulu
dai
daily
dairi
dakwah
dalam
dalamnya
dalan
dalane
dalang
dalem
dalimartha
dam
damai
damar
dampak
dampake
dampaknya
damri
dan
dana
danang
danaraja
danasri
danau
dandang
dangdut
dangerously
dani
daniel
danum
dapat
dapodik
daptar
dapur
dar
dara
darah
darat
daratan
dari
daring
darinya
daripada
darma
darmaraja
darto
darul
darurat
darussalam
darwin
das
dasar
dasarata
dasare
dasarnya
dasawarsa
data
database
datang
datangnya
datar
dataran
datu
datuk
daulat
daun
david
davies
davis
dawa
dawane
dawe
dawuhan
day
daya
dayak
dayeuhluhur
dayu
dc
dd
dda
de
dead
death
debian
debit
debu
debut
december
decepticon
deddy
dede
dedes
dedi
dedications
deep
definisi
definition
defri
degawe
dekade
dekanat
dekat
dekatnya
deklarasi
dekonsentrasi
dekrit
del
delapan
delegasi
deleng
delhi
deli
delta
demak
demam
demang
demi
demikian
demografi
demokrasi
demokrat
demokratik
demokratis
dempo
demung
den
dendam
dene
deneng
dengan
dengkil
dening
denmark
denny
denpasar
depan
departemen
department
depdagri
depkes
depkeu
depok
depresi
der
derajat
deras
derby
deret
dermayon
dermayu
des
desa
desain
desakan
desane
desember
desentralisasi
desktop
detail
detailed
details
detik
detiknews
development
dewa
dewabrata
dewaca
dewan
dewantara
dewasa
dewek
deweke
dewi
dhae
dhaerah
dhagelan
dhalang
dhamma
dharma
dhasar
dhe
dhewe
dhewek
dheweke
dhialek
dhiksi
dhis
dhukun
dhuwet
dhuwit
dhuwur
dhuwure
di
dia
diabadikan
diabe
diabetes
diadakan
diadaptasi
diajarkan
diakibatkan
diakoni
diakse
diakses
diakui
dialami
dialek
dialog
diam
diamati
diambil
diameter
dianakna
dianggap
dianggep
dianggo
diangkat
diantara
diantaranya
dianugerahi
dianut
diapit
diarani
diare
diarsipkan
diartikan
diasingkan
diasuh
diatas
diatur
diaturaken
diawali
dibagi
dibahas
dibakar
dibandhingake
dibanding
dibandingkan
dibangun
dibantu
dibatasi
dibatesi
dibawa
dibawah
dibedakan
dibentuk
diberi
diberikan
diberlakukan
dibiarkan
dibuang
dibuat
dibuka
dibuktikan
dibungkus
dibunuh
dibutuhkan
dibutuhna
dicabut
dicampur
dicapai
dicekel
diceluk
diceritakan
dicetak
dicipta
diciptakan
dicithak
dictionary
diculik
didadekna
didalam
didalamnya
didampingi
didanai
didapat
didasarkan
didegna
dideleng
didi
didiami
didik
didirikan
didirikna
didol
didominasi
didorong
diduduki
diduga
didukung
die
diego
dieng
dienggo
diferensial
digabung
digambarkan
diganti
digantikan
digawa
digawe
digelar
digital
digodog
digoel
digolet
digoleti
digolongkan
digoreng
digunakan
digunakna
dihadiri
dihapus
diharapkan
diharuskan
dihasilkan
dihias
dihitung
dihormati
dihubungkan
dihukum
dihuni
diikuti
diiringi
diiris
diisi
dijabat
dijadikan
dijaga
dijalankan
dijelaskan
dijelasna
dijenengi
dijikot
dijual
dijukut
dijuluki
dijumpai
dijupuk
dikaitkan
dikaji
dikandung
dikarenakan
dikaruniai
dikatakan
dikategorikan
dikawruhi
dikelilingi
dikelola
dikelompokkan
dikeluarkan
dikembangake
dikembangkan
dikembangna
dikemukakan
dikenal
dikenali
dikenalna
dikerjakan
diketahui
diketuai
dikira
dikirim
dikirimkan
dikisahkan
diklaim
diklasifikasikan
diklasifikasikna
dikontrol
dikotil
dikti
dikuasai
dikukuhkan
dikunjungi
dikutuk
dilahirkan
dilakokna
dilakoni
dilaksanakan
dilaksanakna
dilakukan
dilakukannya
dilalui
dilanda
dilanjutkan
dilanjutna
dilantik
dilaporkan
dilarang
dilatih
dilayani
dilebokna
dilengkapi
dilepaskan
diletakkan
dilewati
dili
dilihat
dilindungi
dilintasi
diliwati
dimainkan
dimakamkan
dimakan
dimaksud
dimaksudkan
dimaksudna
dimana
dimasukkan
dimekarkan
dimensi
dimiliki
diminta
dimolai
dimuat
dimulai
dina
dinamai
dinamakan
dinamika
dinamis
dinane
dinas
dinasti
dinding
ding
dingerte
dinggo
dingin
dini
diniyah
dinobatkan
dinosaurus
dinuga
dinyatakan
diobah
dioceses
dioksida
diolah
diombe
dioperasikan
diorama
diosis
diowaih
dipa
dipadakna
dipahami
dipakai
dipandang
dipanegara
dipangan
dipanggil
dipastikan
dipateni
dipe
dipecah
dipelajari
dipeloni
dipeluk
dipengaruhi
dipenjara
dipentaskan
dipenuhi
dipercaya
dipercayai
diperentah
dipergunakan
diperingati
diperintah
diperintahkan
diperkenalkan
diperkirakan
diperkirakna
diperlokake
diperluas
diperlukan
diperoleh
dipertahankan
dipertuan
diperuntukkan
dipigunakake
dipilih
dipimpin
dipimpinnya
dipindah
dipindahkan
dipindahna
dipisah
dipisahkan
dipisahna
diplomatik
diponegoro
diprodhuksi
diproduksi
dipun
dipundarbe
dipunundhuh
diragukan
diran
dirancang
dirasa
dirasakan
dirayakan
dire
directory
direktur
direncanakan
diresmikan
diresmikena
diresmikna
direwangi
diri
dirilis
dirina
dirinya
dirjen
diryat
dis
disababake
disajikan
disambiguasi
disambut
disampaikan
disamping
disana
disclaimers
discovery
disease
diseases
disebabake
disebabkan
disebabna
disebut
disebutkan
disebutna
disediakan
disediakna
disegani
disekitar
diselenggarakan
diselesaikan
diselidiki
disempurnakan
disenengi
disepakati
diserahkan
diserang
diserap
disertai
disetujui
disiapna
disimpan
disimpen
disingkat
disini
disiplin
disit
diskusi
distribusi
distribute
distribution
distrik
distro
disukai
disunting
disusul
disusun
disutradarai
ditabuh
ditahan
ditaklukkan
ditambah
ditambahi
ditambahkan
ditambaih
ditampa
ditandai
ditandatangani
ditandur
ditanggap
ditangkap
ditarik
ditata
ditekani
ditemokake
ditemokna
ditemoni
ditempuh
ditemui
ditemukan
ditemukna
ditentukan
diterapkan
diterbitkan
diterima
diterjemahkan
diteruskan
diterusna
ditetapkan
ditetapna
ditetepna
dithuthuk
ditimbulake
ditindakake
ditinggal
ditinggalkan
ditingkatkan
ditokna
ditolak
ditugaskan
ditujukan
ditularake
ditulis
ditunjuk
diturunkan
ditutup
dituturaken
dituturkan
dituturna
diubah
diubengi
diucapkan
diuji
diukur
diumumkan
diundang
diurus
diurutna
diusir
diusulkan
diutus
div
divisi
division
diwariskan
diwasa
diwe
diwedharake
diwehna
diwei
diwenehi
diwiwiti
diy
diyakini
dj
djakarta
djamain
djambatan
djibouti
djoko
djpk
dki
dll
do
doa
doc
document
documentation
documents
dodol
dodolan
does
dogdog
doi
dokter
doktor
doktrin
dokume
dokumen
dokumentasi
dol
dolan
dolanan
dolar
dolok
dom
domba
domestik
dominan
dominika
dominikan
dompu
don
donald
donat
dondong
dong
donga
dongeng
donggala
donny
donya
doplang
dopokan
dos
dosa
dosen
download
doyan
dpd
dpl
dpr
dprd
dps
dq
dr
dra
drajat
drama
dramaga
drastis
dreams
dretarastra
drona
dropadi
drs
drt
drum
drupada
ds
dsb
dt
dua
dudu
duduk
due
dugaan
duhamel
duit
duka
dukkha
duku
dukuh
dukuhseti
dukuhwaru
dukun
dukung
dukungan
dulu
dulunya
dumadi
dumai
dumoga
dumunung
dunia
duniawi
dunya
dupa
dur
dure
duren
duri
durian
during
durung
duryodana
dusun
duta
dutch
duwe
duweni
duwur
duwure
dvd
dwaraka
dwarf
dwi
dwipangga
dyah
e
each
earl
early
earth
east
eastern
eb
ebeg
ebi
ebiet
ecology
economic
economist
ed
edaran
eddy
edi
edinburgh
edisi
edison
edit
edition
editions
editor
eds
edu
education
edward
efek
efektif
effect
egin
egrang
eh
eid
einstein
either
ejaan
eka
ekliptika
eko
ekologi
ekonomi
ekor
eks
eksekutif
eksis
eksistensi
ekspansi
ekspatriat
ekspedisi
eksplosif
ekspor
ekspres
ekspresi
ekuador
ekuestrian
el
elatior
elektron
elektronik
elemen
elements
eling
elips
elit
elizabeth
elmu
em
email
emas
embaloh
embassies
emerging
emisi
emma
emosi
emosional
empat
emping
empire
emplasemen
empuk
en
enak
enam
encarta
enceladus
enclave
encyclopaedia
encyclopedia
encyclopædia
end
endang
endas
ende
endemik
endhep
endhog
endi
endog
endok
endorsements
endosperma
enem
energi
eng
enggon
enggone
engl
england
english
enim
enom
enome
enrekang
ensiklopedi
ensiklopedia
entang
entas
entertainment
enthus
entitas
entitled
entong
entry
environment
enzim
eon
epidemi
epidemic
epidemics
epidemiology
episode
epos
era
erat
erectus
eris
eritrea
ernst
eromoko
eropa
eropah
erry
es
esa
esih
esposito
estetika
estonia
esuk
et
ethics
ethiopia
ethnicity
etika
etlingera
etnik
etnis
etruska
etungan
eurasia
europe
european
evaluasi
event
evolusi
evolution
ewonan
ex
examples
exclave
experience
exploration
external
f
facebook
fact
factbook
facto
facts
fadjar
fajar
fak
fakfak
fakta
faktor
fakultas
falah
falcon
fallen
famili
familia
family
faq
far
farmasi
fasilitas
faso
fast
fatahillah
fatima
fauna
favorit
fc
fdl
fe
februari
february
federal
federasi
federation
fenisia
fenomena
feodal
fermentasi
feromon
ferry
festival
fi
fidelio
field
fields
fifa
figur
figures
figurmas
fiji
fiksi
file
filem
filipina
film
filogeni
filosofi
filsafat
filsuf
final
finansial
finlandia
firdaus
fire
firman
first
fisik
fisika
fisikawan
fitch
fitri
fitur
fitzroy
five
flora
flores
florida
flowering
flu
fluida
focus
fokus
following
fonem
font
food
football
for
forbes
ford
foreign
forest
form
formal
formasi
format
formation
formats
formula
fort
forum
fosil
foto
fotosintesis
foundation
fox
fraksi
franc
francis
francisco
frank
frans
fransiskus
franz
free
freedom
french
freud
friedrich
from
front
fruit
fruits
ft
fu
fuad
full
fullurl
fund
fungi
fungsi
fungsine
fungsional
fusi
future
g
ga
gabon
gabung
gabungan
gabus
gadang
gaddafi
gading
gadis
gadisku
gadjah
gado
gadung
gagah
gagal
gagang
gagap
gagasan
gagrag
gaib
gajah
gajayana
gaji
gala
galaksi
galang
galangan
galeh
galela
galeri
galesong
galileo
galle
gallery
galuh
galunggung
galur
gam
gama
gaman
gambang
gambar
gambaran
gambarsari
gambia
gambir
gambiran
gambyong
game
gamel
gamelan
games
gametofit
gampang
gamping
ganda
gandatapa
gandring
gandrung
gandrungmangu
gandum
gandusari
ganeas
gang
gangga
gangguan
gangsal
gantar
ganteng
ganti
gantian
gantung
ganu
gapura
gara
garam
gareng
gari
garing
garis
garner
garuda
garung
garut
garwa
garwane
gas
gasing
gates
gatot
gatotkaca
gatra
gaung
gautama
gawe
gawean
gaweane
gaya
gayo
gaza
gazetteer
gdp
ge
gebang
gebe
gedang
gedangan
gede
gedhang
gedhe
gedhong
gedong
gedung
gegandhe
geger
gejala
gejrot
gelang
gelap
gelar
gelare
gelem
gelembung
gelombang
gelora
gema
gemar
gembala
gembira
gembong
gembus
gemeente
gemien
gemiye
gemiyen
gemolong
gempa
gempol
genah
gendang
gendhing
gending
gendu
gene
geneng
general
generasi
geni
genoeh
genome
genteng
genting
genus
geo
geografi
geografis
geografise
geographic
geologi
geologis
geometri
geophysical
george
georgia
gepeng
gerak
gerakan
gerbang
gereja
gerejani
gerejawi
gerilya
german
germany
gerombolan
gesang
gesekan
gesi
getaran
getas
getih
getuk
geusan
geyer
ghana
giant
gianyar
giat
gie
gigi
gigih
gijill
gili
ginjal
gintung
giovanni
giri
girimarto
giritontro
giriwoyo
gita
gitar
given
giyanti
gizi
glabed
glagah
glempang
glenmore
glepung
global
glodok
gmbh
gnu
go
goa
goal
godaan
godhong
godhonge
godong
gold
gole
golek
golf
golkar
golongan
gombong
gondang
gondangrejo
gone
gong
good
google
gor
gordon
goreng
gorengan
gorontalo
gotama
gotong
gottfried
gov
government
governor
gowa
gp
gps
grabag
graham
gram
gramedia
grand
grant
gratis
gravitasi
gravitasinya
gravity
gre
great
greatest
grecol
green
greenland
greenwich
gregorian
gregorius
grendeng
gresik
griya
grobogan
grogol
grogot
grombyang
gros
grosir
ground
group
growing
grujugan
grumbul
grup
gsfc
gua
guangzhou
guardian
guatemala
gubahan
gubeng
gubernur
gubug
guci
gudang
gugur
gugusan
guide
guillain
guinea
gula
gumantung
gumarang
gumawang
gumelar
gumelem
gumiwang
guna
gunane
gunawan
gundul
gunem
gung
gunggung
guno
guntur
gunung
gunungsari
gunungsitoli
gurih
guru
gurune
gurunya
gus
gusdur
gusti
gutenberg
gutul
guwe
guyana
gymnospermae
h
ha
habibie
habis
habitat
hadapan
hadi
hadiah
hadinata
hadiningrat
hadir
hadiwijaya
hague
hai
haiti
hajar
hajatan
haji
hak
hake
hakekat
hakim
hakka
hal
halal
halaman
halim
hall
halmahera
halnya
halte
halus
ham
hamba
hamengku
hamengkubuwana
hamengkubuwono
hamid
hamil
hamparan
hampir
hampra
hamzah
han
hands
hangat
hannover
hanoi
hanoman
hanuman
hanura
hanya
hanyalah
happy
haram
harapan
hardware
harfiah
harga
hari
harian
harimau
harinya
harjowinangun
harper
harry
harta
hartono
harun
harus
haruslah
haruyan
harvard
haryanto
has
hasan
hasanuddin
hasil
hasile
hasilnya
hastinapura
hasundutan
hasyim
hat
hatan
hati
hatta
haumea
haurgeulis
have
hawa
hawaii
hayam
hayati
haydn
hb
hdr
he
header
health
heart
heat
hebat
height
hektar
hektare
heliopause
heliosfer
helium
helm
hemagglutinin
hendak
hendrick
hendro
henri
henricus
henry
henslow
herald
heran
herbal
here
heritage
herman
herschel
heryawan
herzegovina
het
hewan
hi
hias
hiburan
hidajat
hidayat
hidayatullah
hidrogen
hidrokarbon
hidup
hidupnya
hierarchy
hieroglif
high
highly
hijau
hijrah
hijriyah
hikayat
hilang
hilangnya
hilbert
hilir
hill
himacita
himalaya
himpunan
hindia
hindraf
hindu
hingga
hipotesis
hirarki
hirawan
his
historical
historis
history
hitam
hits
hitungan
hiv
hizan
hj
hl
hlm
hm
hn
ho
hobi
hoi
hok
hollywood
home
homo
hong
hongaria
hongkong
honje
hooke
horizon
horizons
hormat
hormon
horse
host
hotel
house
houston
how
however
hp
hpai
hs
htm
html
http
https
hu
hubble
hubungan
hubungane
hubungannya
huda
hue
hui
hujan
hukum
hukuman
hulu
human
humans
humbang
humor
huruf
husada
husein
huta
hutan
huygens
hwa
hwee
hyang
i
ia
iain
ialah
ian
iata
iau
ibadah
iban
ibanic
ibm
ibrahim
ibrani
ibu
ibukota
ibukotane
ibukotanya
ibune
ibunya
icar
icarus
ice
icmi
icon
id
ide
ideal
identik
identitas
ideologi
idham
idi
idris
idul
if
ignatius
ii
iii
ijen
iji
ijig
ijin
ijo
ijuk
ika
ikan
ikatan
iki
ikip
iklan
iklim
iku
ikut
ilang
ile
ilegal
ilham
ilir
illustrated
ilmiah
ilmu
ilmuan
ilmuwan
image
images
imam
iman
imbal
imf
imigran
imlek
immaculata
imogiri
impor
improvisasi
imun
in
inang
inc
incheon
include
including
indah
indeks
independen
independence
index
india
indian
indians
indische
individu
individual
indo
indochina
indone
indonesia
indonesian
indonesiane
indoor
indosiar
indra
indragiri
indrajit
indralaya
indramayu
indraprastha
induk
industri
industrial
inf
infanteri
infe
infect
infection
infections
infectious
infeksi
inflasi
influenza
info
infobox
infoplease
informal
informasi
informatika
information
infrastruktur
ing
ingentaconnect
inggih
inggris
ingin
ingkang
inhibitor
ini
inilah
injil
innanga
inokulum
inovasi
input
insana
inside
inspektur
inspirasi
instalasi
institusi
institut
institute
instrumen
int
intan
integral
integrasi
intel
intelektual
interaksi
interaktif
interior
internal
internasional
international
internet
interpelasi
inthil
inti
intine
into
introduction
inuman
invariant
investasi
investor
inyong
ion
ip
ipa
ipb
ipm
iprage
iptek
iq
ir
irak
irama
iran
irawan
ireng
iri
irian
irigasi
iring
iringan
iris
irisan
irlandia
irung
irus
is
isa
isaac
isbn
ishak
ishq
isi
isih
isine
isinya
iskak
iskandar
islam
islamic
island
islandia
islands
ismail
ismaya
iso
israel
issn
istana
isteri
istiadat
istilah
istimewa
istri
istrinya
isu
it
italia
itb
itc
item
itemid
its
itu
itulah
itungan
iv
iwak
ix
iya
izin
j
ja
jaang
jaba
jabar
jabarprov
jabatan
jabatane
jabatannya
jabodetabek
jabotabek
jabung
jack
jackson
jacobus
jadah
jadi
jae
jagad
jago
jagung
jahat
jahe
jailolo
jajahan
jajal
jajan
jajanan
jajar
jaka
jakarta
jalan
jalanan
jalaran
jalil
jalur
jam
jama
jamaika
jamak
jaman
jamane
jambangan
jambe
jambi
jamblang
jambon
jambu
james
jami
jamu
jamur
jamuran
jan
janamejaya
jane
jang
jangan
janggala
jangka
jangkauan
jangrana
janin
janji
janjinya
jantan
jantung
januari
january
japah
japan
jarak
jarake
jaran
jarang
jare
jarene
jari
jaring
jaringan
jasa
jasanya
jasmine
jasminum
jatayu
jaten
jateng
jati
jatibarang
jatigede
jatijajar
jatilawang
jatiluhur
jatim
jatimulyo
jatinangor
jatinegara
jatinunggal
jatipurno
jatipuro
jatirejo
jatiroto
jatisaba
jatisari
jatisrono
jatiyoso
jatuh
jatuhnya
jauh
java
javanese
jawa
jawab
jawaban
jawi
jaya
jayabaya
jayadrata
jayakarta
jayapura
jayawijaya
jazirah
jazz
jean
jebres
jebule
jeddah
jejak
jejeran
jelai
jelas
jelata
jemaja
jembangan
jembar
jembatan
jember
jemblug
jemblung
jembrana
jemuah
jemur
jenang
jenar
jenawi
jend
jenderal
jendral
jeneng
jenengane
jenenge
jenengi
jeneponto
jenggot
jengkol
jenis
jenise
jenjang
jennifer
jepang
jepara
jepon
jeram
jerat
jere
jerene
jerman
jernih
jero
jerone
jeroning
jersey
jeruk
jeruklegi
jesuit
jetis
jewitt
jews
jiao
jibril
jihad
jika
jiken
jilid
jim
jin
jinis
jinise
jipang
jitu
jiwa
jl
jln
jmpl
jo
jodoh
joe
jogja
jogjakarta
jogyakarta
johann
johannes
john
johnson
johny
joho
johor
joko
jokowi
jombang
jombor
jompo
jonathan
jones
jong
jonggrang
jorong
joseph
joshua
journal
journals
jpg
jpl
jr
jrakah
jroning
js
jstor
jt
ju
jual
juan
juara
judul
judule
juga
jujur
juli
julian
julu
julukan
july
jumantono
jumapolo
jumat
jumlaeh
jumlah
jumlahe
jumlahnya
jumlahpenduduk
june
jungle
juni
junior
jupiter
juragan
jure
jurnal
jurnalis
juru
jurusan
jus
justru
jusuf
juta
jutaan
juwana
k
ka
kaamanan
kaanan
kab
kabaena
kabar
kabat
kabe
kabeh
kabhi
kabinet
kabisat
kabudayan
kabukak
kabupate
kabupaten
kabupatene
kabur
kabut
kaca
kacang
kadang
kadar
kadazan
kaddafi
kadhafi
kadhang
kadhar
kadi
kadipaten
kados
kadus
kae
kaget
kagiatan
kagum
kagungan
kahanan
kahayan
kahiman
kahin
kahuripan
kahyangan
kai
kaimana
kain
kainfe
kaisar
kaitan
kaitane
kajar
kaji
kajian
kakak
kakaknya
kakang
kakange
kakao
kakawin
kake
kakebalan
kakek
kaki
kaku
kala
kalah
kalang
kalangan
kalapa
kalau
kalbar
kalebu
kaledupa
kalen
kalender
kalendher
kali
kalianget
kalibagor
kalibaru
kalibata
kalibawang
kalibening
kaligesing
kaligondang
kalijaga
kalijambe
kalijaran
kalikabong
kalikajar
kalima
kalimanah
kalimantan
kalimat
kalingga
kalinya
kaliori
kalipuro
kaliputih
kalirejo
kalisabuk
kalisalak
kalisari
kalitanjung
kalitengah
kalium
kaliurip
kaliwedi
kaliwiro
kaliwungu
kaliyan
kalkulus
kalla
kalo
kalsel
kalsium
kaltim
kalurahan
kamaba
kamal
kamandaka
kamar
kambangan
kambi
kambing
kamboja
kambrium
kamerun
kami
kamis
kamma
kamp
kampanye
kampar
kampong
kampung
kampus
kamu
kamulan
kamulyan
kamungkinan
kamus
kan
kana
kanada
kanak
kanal
kanami
kanan
kanayatn
kanca
kancane
kancil
kanda
kandang
kandangan
kandanghaur
kandawa
kandel
kandidat
kandung
kandungan
kang
kangean
kangge
kanggo
kangkung
kaniraras
kanisius
kanjeng
kanker
kano
kanoman
kanthi
kanti
kantil
kanton
kantong
kantor
kanuragan
kao
kapal
kapan
kapanlagi
kapas
kapasitas
kapat
kape
kapetakan
kaping
kapita
kapital
kapolri
kapten
kapuas
kapuloan
kapungkur
kapur
kapusin
karakter
karakteristik
karang
karangan
karanganyar
karangasem
karangbolong
karangduwur
karanggayam
karanggedang
karanggintung
karangjambu
karangjati
karangkemiri
karangklesem
karangkobar
karanglewas
karangmalang
karangmangu
karangmoncol
karangnangka
karangpandan
karangpetir
karangpoh
karangpucung
karangrayung
karangreja
karangrejo
karangsalam
karangsambung
karangsari
karangsembung
karangtalun
karangtengah
karangturi
karas
karate
karau
karawaci
karawang
karbohidrat
karbon
kardinal
kare
karena
karenanya
kareside
karesidenan
karet
kari
karibia
karier
kariernya
karimata
karimun
karimunjawa
karl
karma
karna
karno
karo
karpela
karta
kartanegara
kartasura
kartika
kartini
kartsen
karya
karyane
karyanya
kasar
kasarung
kase
kasebut
kasepuhan
kasih
kasihan
kasil
kasim
kaspia
kasta
kasten
kasultanan
kasunanan
kasus
kat
kata
katalog
katane
katedral
kategori
katingan
katolik
katon
katone
katowice
katrangan
kau
kaukasus
kaum
kauman
kaundhuh
kaur
kauw
kawah
kawali
kawan
kawaoka
kawasan
kawedanan
kawi
kawin
kawit
kawula
kawunganten
kaya
kayak
kayan
kayane
kayangan
kayata
kayen
kayong
kayu
kazakhstan
kb
ke
keadaan
keadilan
keagamaan
keahlian
keajaiban
keakehan
keamanan
keanekaragaman
keanggotaan
kebagi
kebahagiaan
kebak
kebakalan
kebakaran
kebaktian
kebanggan
kebangkitan
kebangsaan
kebanyakan
kebasen
kebayoran
kebebasan
kebenaran
kebencian
kebentuk
keberadaan
keberadaannya
keberanian
keberatan
keberhasilan
kebetulan
kebiasaan
kebidanan
kebijakan
kebijaksanaan
kebo
kebocoran
kebon
kebonagung
kebondalem
kebudayaan
kebukak
kebumen
kebumian
kebun
kebutuhan
kec
kecamatan
kecantikan
kecap
kecatet
kecelakaan
kecepatan
kecerdasan
kecewa
kecil
kecombrang
kecuali
kecut
kedaden
kedadian
kedah
kedalam
kedalaman
kedamaian
kedatangan
kedaulatan
kedawung
kedelai
kedele
kediaman
kediri
kedokteran
kedondong
kedu
kedua
keduanya
kedudukan
kedung
kedungbanteng
kedungbenda
kedungjati
kedungreja
kedungrejo
kedungtuban
kedungwaru
kedungwringin
kedungwuluh
kedutaan
keempat
keenam
keerom
kefamenanu
kegagalan
kegembiraan
kegiatan
kegunaan
kehadiran
kehakiman
kehendak
kehidupan
kehidupannya
kehilangan
kehormatan
kehutanan
kei
keindahan
keinginan
keistimewaan
kejaba
kejadian
kejahatan
kejajar
kejawar
kejawen
kejayaan
kejobong
keju
kejuaraan
kejuruan
kekacauan
kekaisaran
kekarepane
kekayaan
kekerasan
kekhalifahan
kekhasan
kekhususan
kekuasaan
kekuasaane
kekuasaannya
kekuatan
kekuatane
kekuatannya
kekurangan
kelahiran
kelairan
kelak
kelakuan
kelalen
kelam
kelambi
kelamin
kelangan
kelangsungan
kelanjutan
kelantan
kelapa
kelas
kelaskaran
kelautan
kelebu
kelembaban
kelenteng
kelepasan
kelima
keling
kelir
kelire
keliru
kelompok
kelopak
keloro
kelorone
kelua
keluar
keluarga
keluargane
keluarganya
kelumpang
kelurahan
kemacetan
kemajuan
kemakmuran
kemampuan
kemampuannya
kemang
kemangkon
kemantren
kemanusiaan
kemarahan
kemarau
kemasyarakatan
kematian
kematiannya
kembali
kembang
kembange
kembar
kembaran
kemenangan
kementerian
kementrian
kemenyan
kemerdekaan
kemerdekaannya
kemiri
kemiringan
kemis
kemiskinan
kempot
kempul
kemranjen
kemudian
kemunangan
kemungkinan
kemuning
ken
kena
kenaikan
kenal
kenang
kenanga
kenangan
kenapa
kencana
kendaga
kendal
kendala
kendali
kendall
kendan
kendang
kendaraan
kendari
kendati
kendawangan
kendeng
kendhang
kendi
kenduren
kene
kenegaraan
kenneth
kenong
kental
kentang
kenteng
kenthang
kenthong
kenthongan
kenya
kenyataan
kenyataannya
kep
kepada
kepadanya
kepadatan
kepahiang
kepala
kepalanya
kepandaian
kepanduan
kepang
kepanjen
kepayang
kepe
kepemimpinan
kepenak
kependudukan
kepengin
kepentingan
keperawatan
kepercayaan
keperluan
kepil
kepilih
kepisah
kepler
kepoh
kepolisian
keppres
kepresidenan
kepribadian
kepriwe
kepriye
keprok
kepulauan
kepuloan
kepunahan
kepustakaan
keputusan
kera
kerabat
kerajaan
kerajaane
kerajaannya
kerajinan
kerak
keramat
keramik
kerang
kerangka
keras
keraton
kerbau
kerdil
kerep
kereta
keretanya
keri
kerinci
kering
keripik
keris
kerja
kerjasama
kerjo
kernel
kerohanian
keroncong
kertajaya
kertanegara
kertarajasa
kertas
kertek
kertosono
kerugian
keruh
kerupuk
kerusakan
kerusuhan
kesadaran
kesaktian
kesal
kesalahan
kesamaan
kesan
kesatria
kesatuan
kesebar
kesehatan
keseimbangan
kesejahteraan
kesel
keselamatan
keseluruhan
kesempatan
kesenangan
kesenian
kesepakatan
kesimpulan
kesohor
kesuburan
kesugihan
kesuh
kesuksesan
kesulitan
kesultanan
kesusun
ketan
ketanggungan
ketapang
ketata
ketelu
ketemu
ketenger
ketentuan
keterangan
ketetapan
ketiga
ketiganya
ketika
ketimbang
ketinggian
keton
ketone
ketua
ketuhanan
ketujuh
ketungau
keturunan
keturunane
keturunannya
ketutup
keuangan
keunggulan
keunikan
keuntungan
keuskupan
kewajiban
kewan
kewarganegaraan
kewenangan
key
keyakinan
kg
kh
khalifah
khan
khas
khasbullah
khase
khasiat
khatulistiwa
khmer
kho
khong
khonghucu
khotbah
khusus
khususe
khususnya
ki
kiai
kian
kiaracondong
kick
kidul
kidule
kie
kien
kijang
kiki
kikim
kilo
kilometer
kim
kimia
kinabalu
kinerja
king
kingdom
kini
kinjeng
kira
kirana
kiri
kisah
kisam
kisaran
kisi
kismantoro
kita
kitab
kiwa
kiwe
kiya
kiye
kk
kl
klaim
klalen
klambi
klambu
klampok
klang
klangenan
klapa
klapagading
klasifikasi
klasik
klaten
klawing
klcc
klebu
klemantan
klenteng
klia
klik
klinik
klirong
kliwon
klompok
klorofil
klub
kluet
klungkung
km
kna
knowledge
known
ko
koalisi
koba
kober
kodam
kode
kodepos
koderi
kodi
kodrati
koh
kok
kokoh
kol
kolaka
kolam
kolang
koleksi
koleksinya
kolom
kolombia
kolonel
koloni
kolonial
kolonialisme
komandan
komando
kombinasi
komering
komersial
komet
komisaris
komisi
komite
komitmen
komoditas
komodo
kompas
kompeni
kompetisi
komplek
kompleks
komplikasi
komponen
komponis
kompor
komposer
komposisi
komposisinya
komputasi
komputer
komunetmas
komunikasi
komunis
komunitas
komuter
kon
konangan
konawe
kondang
kondhang
kondisi
koneksi
konferensi
konflik
konfrontasi
konfusianisme
konfusius
kong
konggres
konghucu
kongo
kongregasi
kongres
kongzi
konjektur
konlang
kono
konomi
konon
konsekuensi
konsentrasi
konsep
konser
konservasi
konsesi
konsonan
konstan
konstitusi
konstitusional
konstruksi
konsumsi
kontak
konteks
kontemporer
konten
kontrak
kontribusi
kontributor
kontrol
kontroversi
kontroversial
koordinasi
koordinat
koordinator
kopang
koperasi
kopi
koptik
kora
koran
korawa
korban
korea
korean
koridor
korsi
korupsi
kos
kosa
kosih
kosmis
kosong
kosovo
kostrad
kota
kotabaru
kotabumi
kotagede
kotak
kotamadya
kotamobagu
kotane
kotapraja
kotawaringin
kotayasa
kothak
koto
kotoran
kowe
kp
kpud
kradenan
kragan
krajan
krakal
krakatau
kramat
krandegan
krangkeng
krapyak
krasa
kraton
krayan
kreatif
krekel
kreol
kresna
krim
kripik
krishna
krisis
kristen
kristiani
kristoforus
kristus
kritik
kritis
kriya
kriyik
krl
kroasia
kronik
kronis
kroya
krt
krueng
krungu
krupuk
ks
ksatria
ksi
ktif
ktp
ktt
ku
kuah
kuala
kualitas
kualitase
kualuh
kuantan
kuantum
kuasa
kuat
kuba
kubah
kubu
kuburan
kuching
kucing
kuda
kudeta
kudhi
kudhu
kudu
kudune
kudus
kue
kuen
kuil
kuin
kuiper
kujang
kukus
kula
kuliah
kuliner
kulisusu
kulit
kulite
kulon
kulone
kultur
kultural
kumbang
kumpulan
kuna
kunci
kuncung
kundang
kundur
kunduran
kuning
kuningan
kunir
kunjungan
kunjungi
kuno
kunti
kuntulan
kupang
kupat
kuping
kupu
kur
kura
kurang
kurangnya
kurawa
kurikulum
kuripan
kurnia
kursi
kursif
kursus
kuru
kurukshetra
kurun
kurungan
kusan
kusir
kusuma
kuta
kutai
kutaliman
kutaraja
kutasari
kutha
kutipan
kutoarjo
kutojaya
kutowinangun
kutub
kutukan
kuwait
kuwarasan
kuwat
kuwe
kuwi
kwe
kwi
kwik
kyai
l
la
laba
laboratorium
labu
labuan
labuh
labuhan
labuhanbatu
lactose
lada
ladang
laden
ladin
lagi
lagu
lah
laham
lahan
lahat
lahir
lahirlah
lahirnya
lain
lainnya
lair
lairan
laire
lais
lajeng
laju
laki
lakon
laksamana
lakshmana
laksmana
laktat
laku
lali
lalu
lam
lama
lamandau
lamanya
lambang
lambat
lambung
lamongan
lampau
lampu
lampung
lamuk
lan
lanang
lanange
lancar
lancet
land
landa
landak
landas
landasan
landep
landscape
lane
lang
langgar
langgeng
langit
langka
langkah
langkat
langowan
langsa
langsung
language
languages
lanjut
lanjutan
lanka
lantai
lantaran
lantes
lanthing
lanting
lao
laos
lapangan
lapas
lapisan
laporan
lara
larang
larangan
larantuka
laras
large
largest
laris
lasem
laskar
last
latar
latif
latihan
latin
latvia
lauk
laura
laut
lautan
law
lawa
lawai
lawak
lawan
lawang
lawas
lawe
laws
lawu
lawuh
layak
layanan
layang
layar
lazim
lc
le
lebah
lebak
lebaksiu
lebanon
lebar
lebaran
lebat
lebeng
lebih
lebong
ledakan
ledo
ledok
ledung
lee
left
legal
legenda
legendaris
legi
legislatif
legok
legoksari
lehman
leibniz
leksono
lelaki
lelara
lelo
leluhur
lemah
lemahe
lemak
lembaga
lembah
lembang
lembar
lembaran
lembata
lembu
lembut
lemes
lempeng
lempuyangan
lencana
lenga
lengan
lengger
lenggeran
lengkap
lengkape
lengko
lengkong
leo
leonardo
leonardus
leone
leopold
lepas
lereng
les
lesmana
lestari
leste
lesung
letak
letake
letaknya
letkol
letnan
letter
letup
leuser
level
lewas
lewat
lewih
lewis
lex
lha
lho
lhokseumawe
li
lia
lian
liane
liang
liar
liat
libels
liberal
library
libur
libya
license
licin
lie
liem
life
liga
light
lihat
like
lilyana
lim
lima
limang
limau
limbangan
limboto
limited
limpakuwus
lindu
line
lingga
linggarjati
linggau
lingkar
lingkaran
lingkungan
lingkungannya
lingkup
linguistik
link
links
lintang
lintas
lintasan
linud
linux
liong
lipat
liputan
lisan
lise
lisensi
list
listrik
lists
literature
lithuania
liukang
live
living
liwat
liwung
liya
liyane
liza
lkis
lly
loa
loano
lobang
local
location
lodaya
logam
logat
logawa
logika
logistik
logo
lohgawe
lok
loka
lokakarya
lokal
lokasi
lokasine
lokasinya
lokomotif
loloda
lolos
lomba
lombok
londok
london
lonely
long
lonjong
lor
lore
loro
lorone
lorong
los
losari
louis
love
low
lower
lowong
lp
ls
lt
ltd
lu
luar
luas
luase
luasnya
lubang
lubis
lubuk
lubuklinggau
lucu
ludruk
ludwig
lues
luhur
luka
lukis
lukisan
lulus
lulusan
lumahan
lumahing
lumajang
lumantar
lumayan
lumba
lumbir
lumbu
lumbung
lumpang
lumping
lumpur
lumrahe
lumut
lunak
lunar
lunga
lungkang
luragung
lurah
lurus
lutung
luwih
luwu
luwuk
lyell
lyy
m
ma
maarif
maatschappij
maba
mabur
mac
maca
macam
macan
macapatan
macau
macem
macmillan
mada
madagaskar
madan
madang
made
madhep
madinah
madiun
madrasah
madu
madukara
madura
madya
maen
maestro
magazine
magelang
magetan
magglutinin
maghribi
magis
magnesium
magnet
magnetic
magnetosfer
maha
mahabharata
mahakam
mahakudus
mahal
mahameru
maharaja
mahasiswa
mahathir
mahayana
mahesa
mahir
mahkamah
mahkota
mahluk
mahmud
mail
mailing
main
maja
majalah
majalengka
majapahit
majatengah
majelis
majemuk
majenang
majene
major
maju
mak
maka
makale
makam
makan
makanan
makane
makarya
makasar
makassar
makau
make
makedonia
makes
makhluk
makin
making
maklumat
makmur
makna
maknane
maksimal
maksud
maksude
maksudnya
mal
malabar
maladewa
malah
malahan
malahayu
malaikat
malaka
malam
malang
malay
malaya
malaysia
malaysian
malem
mali
malih
malik
malinau
maling
malioboro
mall
malta
maluku
mamalia
mamasa
mamberamo
mampir
mampu
mamuju
man
mana
manado
management
manajemen
manapun
mancanegara
mancing
mandailing
mandala
mandan
mandar
mandarin
mandat
mandau
mandeg
mandi
mandiminyak
mandiraja
mandiri
mandor
mandraguna
mandrehe
mane
maneh
manfaat
manfaate
mang
mangan
mangane
mangga
manggar
manggarai
manggis
manggon
manggone
manggung
mangifera
mangkane
mangkat
mangkok
mangkono
mangkubumi
mangkunagara
mangkunegaran
mangkurat
mangli
mango
mangsa
mangsan
mangsane
mangun
manik
manikmaya
manila
maning
manipura
manis
manisan
manjat
manjing
manna
mannheim
manokwari
mantan
mantap
mantel
manten
mantra
mantu
manual
manuals
manufaktur
manuk
manumanasa
manungsa
manusia
manut
many
manyaran
maos
map
mapan
mapia
mappi
mara
marabahan
marah
marakna
marang
marani
march
marco
mare
marekna
maret
marga
margadana
margasana
margasari
margasatwa
margin
margono
mari
maria
marie
maring
maritim
maritime
mark
markas
market
maroko
maros
mars
marsekal
marshall
martabak
martadipura
martadireja
martapura
martin
martinus
mary
marzuki
mas
masa
masak
masakan
masalah
masarakat
masaran
masehi
masih
masing
masjid
masker
mass
massa
massal
master
masuk
masuknya
masyarakat
masyarakate
masyumi
mata
matahari
matak
matakin
matan
mataram
mataraman
mate
matematika
matematikawan
matematis
mateng
mateni
materi
material
matesih
math
mathe
mathematica
mathematical
mathematics
mati
matori
matrikulasi
matrix
matter
mattha
matthew
mau
maulana
maumere
maumu
maune
maupun
mawa
mawar
mawasangka
mawi
mawon
max
maxwell
may
maya
mayang
maybrat
mayjen
mayor
mayoritas
mayuta
mazhab
mbagi
mbah
mbahas
mbahayani
mbalik
mbang
mbangun
mbantu
mbarang
mbe
mbedakna
mbekayu
mbengi
mbentuk
mbiyantu
mbiyen
mbledug
mbok
mboten
mbran
mbuh
mbukak
mbungkus
mburi
mburine
mc
me
means
med
medali
medan
medang
media
medical
medicine
medis
medium
meeting
mega
megah
megamendung
megatron
megawati
meh
mei
meja
mekanika
mekanisme
mekar
mekarsari
mekkah
mekong
meksiko
melahirkan
melainkan
melak
melaka
melaksanakan
melakukan
melalui
melamar
melambangkan
melampaui
melan
melanda
melanesia
melanggar
melanjutkan
melaporkan
melarikan
melatih
melawan
melawi
melayani
melayu
melbourne
melebar
melebihi
melebu
meledak
melepaskan
meletakkan
meletus
melewati
melibatkan
melihat
melimpah
melinda
melindungi
melintasi
meliputi
melon
melu
meluas
memadai
memadukan
memahami
memainkan
memajukan
memakai
memakan
memaksa
memamerkan
memanah
memancarkan
memandang
memanfaatkan
memang
memanggil
memanjang
memasak
memasuki
membaca
membagi
membahas
membakar
membalas
membandingkan
membangun
membantu
membawa
membawanya
membayar
membedakan
membekukan
membela
membelah
membeli
membentang
membentuk
memberi
memberikan
membiarkan
membuat
membuatnya
membujuk
membujur
membuka
membuktikan
membunuh
membutuhkan
memegang
memelihara
memeluk
memenangkan
memengaruhi
mementaskan
memenuhi
memerintah
memerintahkan
memerlukan
memicu
memihak
memilih
memiliki
memimpin
memindahkan
meminta
memisahkan
memohon
mempawah
mempelajari
mempengaruhi
memper
memperbaiki
mempercepat
memperebutkan
memperhatikan
memperingati
memperjuangkan
memperkenalkan
memperkirakan
memperkuat
memperlihatkan
memperluas
mempermudah
memperoleh
mempertahankan
mempunyai
memuat
memudahkan
memulai
memungkinkan
memusatkan
memutar
memutuskan
men
menak
menaklukan
menaklukkan
menambah
menampilkan
menandakan
menandatangani
menang
menangani
menanggapi
menangkap
menangna
menanyakan
menara
menari
menarik
menawa
menawan
menawarkan
menawi
mencabut
mencakup
mencapai
mencari
mencatat
mencegah
menceritakan
mencintai
menciptakan
mencoba
mencukupi
mendadak
mendagri
mendalam
mendapat
mendapatkan
mendarat
mendasar
mendatangkan
mendekati
mendengar
mendengarkan
menderita
mendiami
mendirikan
mendoan
mendominasi
mendorong
menduduki
mendukung
menegaskan
menekankan
menembus
menempati
menempatkan
menempuh
menemui
menemukan
meneng
menengah
menentang
menentukan
menerapkan
menerbitkan
menerima
menerus
meneruskan
menetap
menetapkan
meng
mengacu
mengadakan
mengadopsi
mengajak
mengajar
mengajarkan
mengajukan
mengakhiri
mengakibatkan
mengaku
mengakui
mengalahkan
mengalami
mengalir
mengamati
mengambil
mengancam
mengandalkan
mengandung
menganggap
mengangkat
mengantarkan
menganti
mengantisipasi
menganut
mengapa
mengarah
mengatakan
mengatasi
mengatur
mengedari
mengejar
mengelilingi
mengelola
mengeluarkan
mengembalikan
mengembangkan
mengemukakan
mengenai
mengenal
mengenali
mengenang
mengerjakan
mengerti
mengetahui
menggabungkan
menggala
menggambarkan
mengganggu
mengganti
menggantikan
menggempur
menggubah
menggunakan
menghabiskan
menghadap
menghadapi
menghadiri
menghadirkan
menghalangi
menghancurkan
mengharapkan
menghasilkan
menghentikan
menghidupkan
menghilang
menghindari
menghormati
menghubungkan
mengikat
mengikuti
mengingat
menginginkan
mengirim
mengirimkan
mengiringi
mengisi
mengitari
mengklaim
mengklasifikasikan
mengko
mengkone
mengkritik
mengorbit
menguasai
mengubah
mengucapkan
mengudara
mengukur
mengulang
mengumpulkan
mengumumkan
mengundang
mengundurkan
mengungkapkan
mengunjungi
menguntungkan
mengurangi
mengurus
mengusulkan
mengutus
mengwi
menikah
menikahi
menikmati
menimbulkan
meninggal
meninggalkan
meningkat
meningkatkan
meniru
menit
menjabat
menjadi
menjadikan
menjadikannya
menjaga
menjalani
menjalankan
menjalin
menjamin
menjanang
menjangan
menjawab
menjelajahi
menjelang
menjelaskan
menjelma
menjual
menjunjung
menko
menlo
menolak
menolong
menonjol
menonton
mentah
mental
mentarang
mentawai
mentaya
menteng
menteri
menu
menuai
menuju
menular
menulis
menuliskan
menunggu
menungsa
menungsane
menunjuk
menunjukan
menunjukkan
menuntut
menurun
menurunkan
menurunnya
menurut
menuturkan
menyadari
menyajikan
menyaksikan
menyamar
menyambut
menyang
menyanyi
menyanyikan
menyatakan
menyatukan
menyebabkan
menyebar
menyebarkan
menyebut
menyebutkan
menyebutnya
menyediakan
menyelamatkan
menyelenggarakan
menyelesaikan
menyerah
menyerahkan
menyerang
menyerap
menyertakan
menyerupai
menyetujui
menyimpan
menyimpulkan
menyingkirkan
menyukai
menyumbangkan
menyuruh
menyusul
menyusun
menyusuri
mera
merah
meraih
merak
merangin
merantau
meranti
merapi
merasa
merasakan
merata
merauke
merayakan
merbabu
merbau
mercury
merdeka
merden
merebut
merek
mereka
merencanakan
merga
mergane
mergo
meri
meriah
meriam
merjaya
merkurius
merlokna
mertapa
merujuk
merupakan
merusak
mesin
mesir
mesjid
meski
meskipun
mesthi
mesti
mesuji
meta
metal
metana
meteor
meter
metode
metro
metropolitan
metu
metune
meurs
mewah
mewakili
mewarisi
mewek
mewujudkan
mexico
meyakini
meyakinkan
mg
mgr
mi
michael
michigan
microbiol
microsoft
mid
middle
mie
migrasi
migunakake
migunani
mikael
mikaela
mike
mikro
mil
milenium
mili
miliar
milih
milik
miliknya
milis
military
militer
miller
milyar
mimika
mimpin
min
minahasa
minang
minangka
minangkabau
minat
mindahna
mineral
ming
minggu
minh
mini
minimal
mino
minor
minoritas
minta
minuman
minyak
mira
miri
miring
mirip
mirit
misa
misah
misahna
misal
misale
misalnya
misi
misionaris
miskin
misool
mission
missions
misteri
misterius
mistik
misuwur
mite
mitologi
mitos
mitra
miturut
mizwar
mlaku
mlathi
mlati
mlayu
mlebu
mlebune
mligi
mm
mmwr
mn
mo
moali
moamar
moammar
mobil
moch
mochamad
moci
moda
modal
mode
model
moderen
modern
modhe
modified
modifikasi
moga
moh
mohamad
mohammad
mojo
mojogedang
mojokerto
mojosari
mojotengah
moksa
molai
moldova
molecular
molekul
mollo
momen
momentum
monarki
monas
moncer
mondokan
monetary
mongol
mongolia
mongondow
monine
monokotil
monopoli
monte
montenegro
monthly
montor
monumen
monument
monyet
moon
moons
moore
moral
more
moro
morotai
morowali
mortalitas
mortality
moskona
most
motif
motivasi
moto
motogp
motor
moutong
moved
movie
moyang
moyo
mozart
mp
mpa
mpe
mper
mpr
mprs
mpu
mr
mrambat
mre
mrebet
mrenek
mrican
mring
mripat
mriyang
ms
msc
msi
msn
mts
mu
mualang
muammar
muara
muaro
muatan
mubeng
muda
mudah
mudal
mudhun
mudi
mudik
mugi
muhammad
muhammadiyah
mui
muka
muko
mukomuko
muksa
mukti
mukur
mula
mulai
mulane
mulanya
mulia
muljana
multi
multimedia
multiple
mulut
mulya
mulyadadi
mulyasari
mulyo
muna
munas
muncar
muncul
muncule
muncullah
munculnya
mundur
mung
munggah
munggu
mungkid
mungkin
mungkinake
mungsuh
munjul
muntah
muntang
murah
muria
murid
muride
muridnya
murka
murni
murung
muscat
museum
mushola
musi
music
musik
musike
musiknya
musikus
musim
musisi
muslich
muslihat
muslim
muslimin
muslims
musnah
muson
must
mustafa
mustaqim
mustika
musuh
musyawarah
mutahar
mutasi
muter
muthu
mutiara
mutlak
mutu
mutusna
muzik
mx
my
myanmar
n
na
nabi
nabire
nabuh
nad
nada
nafas
nafsu
naga
nagan
nagara
nagarakretagama
nagari
nagekeo
nagoya
nah
nahan
nahdlatul
naik
nakula
nalika
nalikane
nam
nama
namanya
nambah
nambani
name
names
namibia
namlea
nampa
nampilna
nampung
namun
namung
nan
nana
nanas
nandur
nang
nanga
nangalihkan
nangbentuk
nangbubarna
nangcabut
nanggap
nanggroe
nanggunakan
nanging
nangisor
nangka
nangkap
nangkep
nangmaksud
nangmekarkan
nangnangrikan
nangsahna
nangtetapkan
nangumumkan
nangunlangna
nantang
nanti
nantinya
napoleon
narada
nararya
nari
narita
nasa
nascar
nasi
nasib
nasihat
nasional
nasionalis
nasionalisme
naskah
nasution
nata
natadiningrat
natal
nation
national
nations
natl
natsir
natuna
natur
natural
naturalis
nature
naucalpan
navigasi
ncegah
nchen
ncidod
nd
ndadak
ndadekna
ndalan
ndao
ndeleng
ndesa
ndeyan
ndhagel
ndhuwe
ndhuweni
ndhuwur
ndi
ndilalah
ndisit
ndok
nduga
ndukung
nduwe
nduweke
nduweni
nduwur
nduwure
ne
near
nebula
neefe
negara
negarane
negatif
negeri
negosiasi
negri
nejm
nek
nelayan
nelson
nem
nembang
nembe
nemen
nemokake
nemokna
nempu
nemukna
nenek
neng
nentokna
nep
nepal
neptune
neptunus
nerima
nerusna
net
netep
netral
network
neuraminidase
neutron
new
news
newton
next
ng
ngabang
ngabehi
ngabei
ngada
ngadeg
ngadege
ngadegna
ngadepi
ngadirejo
ngadirojo
ngagabung
ngaji
ngakoni
ngaku
ngalahna
ngalami
ngalih
ngalir
ngalor
ngalusna
ngampel
ngan
nganakna
ngandhut
ngandung
nganggep
nganggo
ngangkat
nganjuk
ngantek
nganti
ngantos
nganut
ngapa
ngapak
ngarani
ngarep
ngargoyoso
ngaringan
ngasi
ngasilake
ngasilna
ngatur
ngawasi
ngaweh
ngawen
ngawi
ngayogyakarta
nge
ngeculake
ngelakoni
ngelanjutaken
ngelilingi
ngelindungi
ngeliputi
ngembang
ngembangna
ngemplak
ngenani
ngendi
ngenteni
ngerasa
ngerebut
ngerti
ngetan
ngetokna
ngetutna
ngewakili
ngewarisi
ngga
nggabung
nggada
nggambar
nggambarake
nggambarna
ngganggo
ngganggu
nggantekna
ngganti
nggantikna
nggawa
nggawe
nggawene
nggo
nggolet
nggoleti
nggon
nggone
nggunakake
nggunakna
ngidul
ngilang
ngilangake
ngilangna
ngindari
nginfe
ngirim
ngirimna
ngiringi
ngisi
ngisor
ngisore
nglakokna
nglakoni
nglambangna
nglawan
nglebokna
nglengkapi
nglewati
nglewihi
ngliwati
ngloram
ngobati
ngoko
ngolah
ngoleti
ngombe
ngombol
ngomong
ngomonge
ngormati
ngorong
ngrampal
ngrasa
ngrebut
ngreksa
ngresiki
ngroto
ngrujuk
ngrusak
nguasai
ngubah
ngubengi
ngucapna
ngumbah
ngumpul
ngumumna
ngundhakake
ngungsi
nguntoronadi
ngurangi
nguri
ngutamaken
nguyen
nh
nha
ni
niaga
nias
niat
nick
nidhokna
nien
nieuw
niger
nigeria
night
nijhoff
nikel
nikmat
niku
nila
nilai
nimbulake
nimbulna
nineplanets
ning
ningen
ninggal
ninggalna
ningkatna
nini
nippon
nira
niskala
nj
njaba
njabat
njaga
njagong
njajal
njalari
njaluk
njeblug
njenengi
njero
njerone
njle
njur
nkri
nl
nm
no
nobel
noir
nol
nom
noman
nomenklatur
nomer
nominasi
nomor
non
nonton
noor
nopember
nopia
norma
normal
norodom
north
northern
norwegia
not
nota
notasi
note
notice
notices
nova
novel
november
now
nrima
nsi
ntah
ntasi
ntc
nter
nthe
ntre
nu
nuansa
nuduhake
nugini
nugroho
nuju
nukleus
nuklir
nulis
nulisna
number
numbers
numerik
numfor
numpak
nunjukna
nuntut
nunukan
nur
nurani
nurdin
nurhaliza
nurul
nurunna
nusa
nusadadi
nusakambangan
nusantara
nusawangkal
nusawungu
nutrisi
nutup
nuturna
ny
nya
nyai
nyak
nyakup
nyalurna
nyaman
nyambung
nyambut
nyandhet
nyanyi
nyanyian
nyata
nyatakna
nyatane
nyawa
nyebabake
nyebabna
nyebar
nyebut
nyebute
nyebutna
nyediakna
nyegah
nyekel
nyerahna
nyerang
nyeri
nyi
nyimpen
nyiptakna
nyong
nyritakna
nytimes
nyunggi
nyunting
nyuwun
nzim
o
oba
obah
obama
obat
obatan
obi
object
objects
objek
obong
obor
observations
observatorium
observatory
observer
obyek
ocean
oceania
october
odisseus
oei
oetomo
of
off
office
official
ogan
ohio
oki
oksigen
oktober
ol
olah
olahraga
old
oleh
olih
olimpiade
olympic
om
omah
omahe
oman
omar
ombak
ombe
on
onan
onderhoorigheden
one
online
only
ono
ons
oort
oost
ooster
op
opak
opaque
open
opera
operanya
operasi
operator
opo
oposisi
opticks
optik
optimus
option
or
ora
orang
orbit
orbitnya
orde
order
ordo
org
organ
organik
organis
organisasi
organisme
organization
ori
orient
origin
original
origins
orkes
orkestra
os
osama
oseania
osing
oslo
ossetia
otak
other
otomatis
otonom
otonomi
otoritas
otot
ottoman
out
outer
over
overview
owabong
owah
owahan
owen
oxford
oxfordjournals
p
pa
paanv
paban
pabrik
pabuaran
pac
pacar
pacific
pacitan
pacul
pada
padahal
padalarang
padamara
padang
padangjaya
padangsari
padat
padding
padha
padhang
padi
padjadjaran
paduan
paduka
padukuhan
padureso
pagak
pagar
pagatan
page
pagedangan
pagedongan
pagelaran
pagentan
pager
pages
pagi
pagos
paguyangan
paguyuban
paham
pahang
pahlawan
pahonjean
pahuwato
pai
pajajaran
pajak
pajang
pak
pakaian
pakar
pakem
paket
pakis
pakistan
pakpak
paksa
paksi
paku
pakualaman
pakuan
pakubuwana
pakue
pala
palace
palang
palangka
palangkaraya
palaran
palas
palau
palawija
palembang
palestina
pali
palimanan
paling
palopo
palsu
palu
palung
paman
pamare
pambakal
pamekas
pamekasan
pameo
pameran
pamona
pamor
pamotan
pamriksan
pamudhunan
pamukan
pamulang
pamulihan
pamungkas
pan
panah
panahnya
panai
panalite
panaliti
panama
panarukan
panas
panca
pancasila
pancen
panchala
pancur
pancuran
pandai
pandak
pandan
pandanarum
pandang
pandangan
pandangannya
pandansari
pandawa
pandeglang
pandemi
pandemic
pandemik
pandhawa
pandhita
pandita
pandu
panduan
pane
panembahan
panen
panerus
pang
pangalengan
pangan
panganan
panganane
pangandaran
panganggo
pangangguna
pangeran
panggang
panggilan
panggonan
panggonane
panggunaan
panggung
pangjalu
pangkajene
pangkal
pangkalan
pangkalpinang
pangkat
panglima
pangobatan
pangon
pangrango
pangururan
pangurus
paniai
panitia
panjalu
panjang
panjangnya
panjat
panjenengan
panjer
panji
panorama
pantai
pantangan
pantar
pantas
pante
pantes
panti
pantun
pantura
panularan
panunggalan
panusupan
panyabungan
panyebaran
papa
papan
paparan
papat
paper
papers
papua
para
parade
paraguay
parah
parahyangan
parakan
parameswara
paranggupito
pararaton
parasit
parasurama
pardede
pare
parepare
pari
pariaman
paribasa
parigi
parikesit
paringin
paripurna
paris
pariwisata
park
parkir
parlemen
parlementer
parman
paroki
part
partai
partikel
partisipasi
partner
paru
parung
parwa
pas
pasai
pasal
pasaman
pasang
pasangan
pasar
pasaran
pasarsenen
pasca
pascasarjana
pase
paseh
pasemah
paser
pasi
pasie
pasifik
pasir
pasti
pastor
pasukan
pasundan
pasuruan
pasuruhan
patah
patang
patemon
paten
pathet
pathogenesis
pathogenic
pathol
pati
patia
patients
patih
patikraja
patimuan
patiya
patrick
patroli
patung
patut
paud
paul
paulo
paulus
paus
pawon
payakumbuh
payung
pbb
pc
pd
pdam
pdb
pdf
pdi
pdip
pe
peace
pearl
pecah
pecahan
pecel
pecinan
pedagang
pedalaman
pedang
pedas
pedes
pedesaan
pedhalangan
pedhek
pedhununge
pedoman
peduli
pedunung
pedununge
pegangan
pegawai
pegawe
pegunungan
pejabat
pejagoan
pejawaran
pejuang
pekalipan
pekalongan
pekan
pekanbaru
pekarangan
pekerja
pekerjaan
pekerjaannya
peking
pekiringan
pekuncen
pekunden
pelabuhan
pelaihari
pelajar
pelajaran
pelaksana
pelaksanaan
pelaku
pelalawan
pelan
pelanggan
pelanggaran
pelangi
pelataran
pelatih
pelatihan
pelaut
pelawak
pelayan
pelayanan
pelayaran
peleburan
pelelangan
pelem
pelengkap
pelestarian
pelindung
pelita
pelopor
pelosok
pelukis
pelutan
pemahaman
pemain
pemaine
pemakaman
pemakan
pemalang
pemali
pemanasan
pemandangan
pemandi
pemandian
pemandu
pemasaran
pematang
pematangsiantar
pembaca
pembagian
pembagiyan
pembangkit
pembangunan
pembangunannya
pembantaian
pembantu
pembaruan
pembatasan
pembayaran
pembebasan
pembelajaran
pembentukan
pemberangkatan
pemberian
pemberlakuan
pemberontak
pemberontakan
pembina
pembinaan
pembuahan
pembuangan
pembuatan
pembubaran
pembukaan
pembuluh
pembunuhan
pemburu
pemda
pemegang
pemekaran
pemeliharaan
pemeluk
pemenang
pementasan
pemeran
pemerentah
pemerentahan
pemerentahane
pemerentahannya
pemerintah
pemerintahan
pemerintahane
pemikiran
pemilih
pemilihan
pemilik
pemilu
pemimpin
pemisahan
pemkab
pemkot
pemrintahan
pemrograman
pemuda
pemujaan
pemuka
pemukiman
pemulihan
pemulutan
pemusik
penabuh
penajam
penakluk
penaklukan
penambahan
penampilan
penanaman
penang
penanggalan
penangkaran
penangsang
penari
penaruban
penasehat
penasihat
penawangan
penawar
penayagan
pencabutan
pencaharian
pencak
pencapaian
pencari
pencarian
pencegahan
pencerahan
pencernaan
pencipta
penciptaan
pendaki
pendamping
pendapa
pendapat
pendapatan
pendatang
pendek
pendekar
pendekatan
pendem
penderita
penderitaan
pendeta
pendhagel
pendidikan
pendidikannya
pendiri
pendirian
pendopo
penduduk
pendudukan
penduduke
penduduknya
pendukung
pendukungnya
penebangan
penegakan
peneliti
penelitian
penemu
penemuan
penemuannya
penerangan
penerapan
penerbangan
penerbit
penerbitan
penerimaan
penerus
penetapan
pengabdian
pengadegan
pengadilan
pengairan
pengajar
pengajaran
pengajian
pengakuan
pengalaman
pengamat
pengamatan
penganan
pengangguran
pengangkatan
pengangkutan
pengantar
penganten
pengantin
penganugerahan
penganut
pengarang
pengaruh
pengaruhe
pengaruhnya
pengasingan
pengasuh
pengaturan
pengawal
pengawasan
pengecualian
pengelolaan
pengelompokan
pengembang
pengembangan
pengempon
pengertian
pengesahan
pengetahuan
penggabungan
penggambaran
pengganti
penggerak
pengguna
penggunaan
penghargaan
penghasil
penghasilan
penghormatan
penghubung
penghulu
penghuni
pengikut
pengikutnya
pengin
penginjil
penginyongan
pengiring
pengkajian
pengobatan
pengolahan
penguasa
pengukuran
pengunduran
pengungsi
pengunjung
pengurangan
pengurus
pengusaha
penh
penilaian
peninggalan
peningkatan
penitisan
penjajah
penjajahan
penjalin
penjara
penjelajah
penjelajahan
penjelasan
penjelasane
penjelmaan
penjol
penjualan
penjuru
penobatan
penonton
penontone
pensiun
penting
pentingnya
penuh
penulis
penulisan
penumpang
penurunan
penutur
penyair
penyakit
penyamaran
penyanyi
penyebab
penyebar
penyebaran
penyeberangan
penyelenggara
penyelenggaraan
penyelesaian
penyelidikan
penyempurnaan
penyerahan
penyerangan
penyiar
penyimpangan
penyu
penyunting
people
pepatah
pepati
pepedan
peperangan
per
peradaban
peradilan
peraga
perahu
perairan
perak
peralatan
peralihan
peran
peranan
perancis
perang
perangkat
perantara
perantauan
perasaan
peraturan
perawan
perawat
perawatan
perayaan
perbaikan
perbandingan
perbankan
perbatasan
perbatesan
perbedaan
perbelanjaan
perbuatan
perbukitan
percabangan
percakapan
percaya
percepatan
percetakan
percobaan
percy
perda
perdagangan
perdamaian
perdana
perdata
perdebatan
perdikan
perebutan
peredaran
perek
pereke
perekonomian
perempuan
perencanaan
pereng
perentah
peresmian
performance
pergaulan
pergerakan
pergeseran
pergi
perguruan
perhatian
perhentian
perhimpunan
perhitungan
perhubungan
perihelion
perikanan
perilaku
perincian
peringatan
peringkat
perintah
perintis
period
periode
periodik
periplus
peristiwa
perjalanan
perjalanannya
perjanjen
perjanjian
perjuangan
perjuangane
perkampungan
perkantoran
perkara
perkasa
perkataan
perkawinan
perkebunan
perkemahan
perkembangan
perkembangane
perkembangannya
perkenalan
perkiraan
perkotaan
perkumpulan
perlahan
perlakuan
perlambang
perlawanan
perlengkapan
perlimaan
perlindungan
perlintasan
perlu
perluasan
permai
permainan
permaisuri
permanen
permasalahan
permata
permintaan
permission
permohonan
permukaan
permulaan
permusyawaratan
pernah
pernapasan
pernikahan
pernyataan
perobahan
perolehan
perpaduan
perpanjangan
perpindahan
perppu
perpres
perpustakaan
pers
persahabatan
persamaan
persatu
persatuan
persaudaraan
persawahan
persediaan
persegi
persekutuan
perselisihan
persemakmuran
persembahan
persen
persentase
persepsi
perserikatan
persetujuan
persia
persiapan
persip
persis
persoalan
person
personal
persyaratan
pertahanan
pertama
pertamane
pertamanya
pertambahan
pertambangan
pertandingan
pertanian
pertanyaan
pertapa
pertapaan
pertarungan
pertelon
pertempuran
pertemuan
pertengahan
pertimbangan
pertolongan
pertuan
pertukaran
pertumbuhan
pertunjukan
peru
perubahan
perumahan
perundang
perundingan
perusahaan
perut
perwakilan
perwalian
perwira
perwujudan
pesan
pesanggrahan
pesantren
pesat
pesawaran
pesawat
pesen
peserta
pesinden
pesisir
peso
pesta
pesut
peta
petak
petaling
petambakan
petanahan
petani
petarukan
peteng
peter
peternakan
peterson
petilasan
petinggi
petinju
petir
petit
petronas
petruk
petrus
petualangan
petugas
petuguran
petunjuk
peukan
peureulak
peusangan
peuyeum
pewaris
pewasingan
pewayangan
pg
pgi
pgri
ph
philip
philosophy
phnom
phong
php
phylogeny
physics
pia
piagam
piala
piano
pidato
pidie
pieres
pierre
pihak
pikatan
pikir
pikiran
pil
pilar
pilem
pilgub
pilihan
pilkada
pilpres
pimpinan
pinang
pindah
pindahan
pindho
ping
pinggir
pinggiran
pinggire
pinoh
pinolosian
pinot
pinrang
pintar
pinter
pintu
pinus
pinxton
pinyin
pioneer
pipa
pira
pirang
piranti
piring
piringan
pisah
pisan
pisanan
pisang
pisau
pit
pita
pitaka
pitembungan
pitik
pitu
pitung
pituruh
pius
pj
pkb
pki
place
plaju
plan
plana
plane
planet
planetary
planets
plant
plantae
plants
plantungan
plasma
plastik
plato
play
player
plays
plaza
plered
pleret
plesir
plesiran
plethok
ploso
plosorejo
plt
plta
pluit
plumbon
plumpungan
plupuh
plus
pluto
pmc
pmid
pmidlookup
pnas
pneumonia
png
pns
po
poci
pohon
point
pojok
pokok
pokoke
pol
pola
polah
polandia
polar
poleang
polewali
polisi
politeknik
political
politik
politikus
politis
politisi
polkam
polo
polri
polsoskam
polusi
polwil
pon
poncowarno
pondok
pong
ponggol
ponorogo
ponrang
pontianak
pontifico
pop
popular
popularitas
populasi
population
populer
poros
porselen
portal
portion
portugal
portugis
pos
posisi
posisine
positif
position
poso
post
potensi
potensial
potential
potong
potongan
potret
power
pp
ppp
pppi
pr
pra
prabawa
prabowo
prabu
prabumulih
pracimantoro
prahu
praja
prajnaparamita
prajurit
prajurite
praktek
praktik
praktis
prambanan
pramosa
pramuka
pranala
prancis
prapatan
prasarana
prasasti
prasejarah
prastawa
pratama
prau
prawan
praya
pre
prefek
prefektur
prembun
present
preserve
presiden
president
press
prestasi
prevention
previous
pria
priangan
pribadi
pribumi
prigi
prima
primata
prime
primer
primitif
princeton
principia
pring
pringsewu
prinsip
printed
priok
prisma
prix
priyayi
prize
pro
probolinggo
proc
proceedings
prodhuksi
production
produk
produksi
produktif
produsen
produser
prof
profesi
profesional
profil
profile
progo
program
programme
project
projek
proklamasi
properti
propinsi
proposisi
prose
proses
prote
protein
protektorat
protes
protestan
protokol
proton
provided
provincie
provinsi
proyek
ps
psikologi
pssi
pt
pua
puasa
pub
public
publication
publications
publik
published
publisher
publishers
publishing
pubs
pucang
pucuk
pucuke
pucung
puding
pudong
puger
puhpelem
puisi
pujangga
pujo
pukul
pula
pulang
pulau
pule
pulo
pulokulon
pulosari
puluh
puluhan
pun
punah
punakawan
puncak
puncaknya
punggawa
punggelan
punggung
pungkasan
pungkasane
punika
punjering
punjul
punya
pupuk
pura
purba
purbakala
purbalingga
purbasana
purbasora
puri
puring
purn
purnama
purnawarman
purnomo
purut
purwa
purwadadi
purwakarta
purwanegara
purwanto
purwantoro
purwareja
purwo
purwodadi
purwoharjo
purwojati
purwokerto
purwonegoro
purworeja
purworejo
purwosari
pusaka
pusat
pusate
puskesmas
puspa
pustaka
putaran
putera
puteri
putih
putra
putrajaya
putrane
putranya
putri
putrine
putu
putus
putusan
putussibau
puudoc
px
q
qaddafi
qadhafi
qaeda
qatar
qathafi
qs
quarter
quartet
query
qur
quran
r
ra
raa
rabak
rabies
rabu
race
racing
racun
rada
radang
radar
raden
radiasi
radikal
radio
radius
raga
ragam
ragi
ragu
rah
rahardjo
rahasia
rahayu
rahman
rahmat
rahwana
rahyang
rai
raider
raih
raine
rais
raja
rajah
rajane
rajawali
rajin
rakai
rakaman
rakeyan
rakit
raksasa
rakshasa
rakyat
rama
ramadan
ramah
ramai
ramalan
ramane
ramayana
rambah
rambang
rambut
rambutan
rambute
rame
rampung
ranau
rancabali
rancangan
randegan
randu
randublatung
randudongkal
randusanga
rang
rangan
range
rangga
rangka
rangkaian
rangkasbitung
rangkep
rangkeyan
rangrang
rangsang
ranh
ransiki
rantai
rantamsari
rantau
rante
rapang
rapat
rapi
rapid
rapper
ras
rasa
rasane
rasanya
rasio
rasional
rasul
rasulullah
rata
rate
ratna
ratu
ratusan
raung
raup
rawa
rawaapu
rawalo
rawamangun
rawan
rawana
rawas
rawit
raya
rb
rcti
rd
re
read
ready
reaksi
real
reap
reason
reassortment
rebab
rebana
rebo
reca
record
records
red
redeb
ref
reference
referendum
referensi
reformasi
refs
regan
regane
regency
regencypx
regencyxcithakan
regent
regina
region
regional
regions
regnum
regol
regulation
reinkarnasi
rejang
rejasari
rejo
rejosari
rek
rekannya
rekor
rekreasi
reksonoto
rektor
rel
rela
relatif
relations
relative
release
released
releases
relief
religi
religion
religions
religious
religius
remaja
rembang
rempah
renaisans
renan
renang
rencana
rencanane
rencananya
rendah
rendeng
rengat
renovasi
rentang
renungan
renyah
rep
report
reports
representasi
reprint
reproduksi
reptil
republic
republik
republika
reputasi
res
research
resep
resi
residen
resident
residentie
resik
resiko
resistance
resmi
resmine
resminya
resolusi
resonansi
resort
resource
resources
respiratory
response
restoran
retrieved
rev
reveals
review
reviews
revised
revo
revolusi
revolution
rezim
rg
rgi
rhodesia
ri
ria
rialat
riam
riattang
riau
ribu
ribuan
ribut
richard
richter
ricklefs
ride
ridwan
right
rights
rika
rikah
rikala
rikat
rilis
rimba
rimbo
rindu
ring
ringan
ringgit
rings
rinjing
rintisan
rio
ris
rise
riset
risiko
risk
ritual
riung
riwayat
rizal
rj
rk
rm
rn
rna
road
robert
robot
roc
rock
roda
rog
rogojampi
roh
rohani
rokan
rokok
rolas
roma
romawi
rombongan
ron
ronald
ronde
rong
rongga
ronggeng
root
roro
rotan
rotasi
rote
roti
routledge
rowokele
rowosari
roy
royal
royong
rp
rrc
rri
rs
rsi
rsud
rt
ru
ruang
ruangan
ruas
rudolf
rudolph
rudy
ruf
rugby
rujak
rujukan
rukun
rumah
rumangsa
rumania
rumbai
rumbia
rumpun
rumus
rumusan
runjung
runtuh
runtuhnya
rupa
rupane
rupat
rupiah
ruqyah
rusa
rusak
rusia
russell
russia
rustriningsih
rute
ruteng
rutin
ruu
rw
s
sa
saat
sabah
sabak
sabang
sabanjure
sabar
sabda
saben
sabenere
sabrang
sabtu
sabu
sabuk
sabun
sacara
sadang
sadar
sadewa
sadonya
sadranan
sadurunge
sae
saengga
safari
saged
sagu
sah
saha
sahabat
sahara
said
saiki
saindhenging
sains
saint
saja
sajarah
sajeroning
saji
sajroning
sak
saka
sakabe
saking
sakit
sakra
sakral
sakramen
saksi
sakti
sala
salah
salak
salaknegara
salam
salatiga
salawatan
salawati
sale
saleh
salem
salib
salim
salinan
saling
saliyane
saluran
salvador
salzburg
sam
sama
samapta
samarinda
samba
sambas
sambel
sambeng
sambi
sambil
sambirejo
sambiroto
samboja
sambong
sambongrejo
sambung
sambungmacan
sambutan
same
sami
samin
samma
samosir
sampai
sampanahan
sampang
sampe
samping
sampit
sampun
samudera
samudra
samuel
san
sana
sanajan
sanak
sanalah
sanana
sandi
sandiwara
sang
sanga
sangat
sangatlah
sangatta
sanget
sanggar
sanggau
sanggul
sanggup
sangha
sanghyang
sangihe
sangisore
sangkuni
sanjaya
sanoesi
sansekerta
sanskerta
santa
santai
santan
santanu
santen
santo
santoso
santri
santrine
sapa
saparua
sape
sapi
sapiens
sapu
sapunika
sapuran
sar
saradan
saraf
saragih
saran
sarana
sarang
sarawak
sare
sareng
sari
sarjana
sarmi
sarolangun
saron
sarta
saru
sarupa
sarwodadi
sasaran
sasi
sastra
sastrawan
sate
satelit
satria
satu
satuan
satunggaling
satunya
satupun
saturn
saturnus
satya
satyawati
saudagar
saudara
saudaranya
saudi
sauntara
sauto
saw
sawa
sawah
sawahan
sawangan
sawetara
sawijiking
sawijine
sawijining
sawise
sawit
sawo
sawunggalih
saya
sayang
sayembara
sayur
sayuran
sby
sc
scattered
school
sci
science
sciences
scientific
scientists
scj
score
scott
sctv
sd
sdn
sds
se
sea
seakeh
searah
search
season
seasonal
seattle
sebab
sebabe
sebagai
sebagaimana
sebagainya
sebagi
sebagian
sebagiyan
sebaliknya
sebanding
sebanyak
sebaran
sebastian
sebatik
sebayu
sebelah
sebelas
sebelum
sebelumnya
sebenarnya
sebenere
seberang
sebesar
sebuah
sebuku
sebut
sebutan
secara
second
secondary
section
sections
secukupe
security
seda
sedan
sedang
sedangkan
sedap
sedawane
sedayu
sedekah
sedela
sedemikian
sederajat
sederhana
sedikit
sedina
sedna
sedulur
sedulure
sedurung
sedurunge
see
seekor
sega
segala
segan
segar
segara
seger
segera
segi
segitiga
sego
sehari
sehat
sehingga
sei
seiring
sejahtera
sejajar
sejak
sejalan
sejaraeh
sejarah
sejarahe
sejarahnya
sejarawan
sejati
sejatine
sejauh
sejen
sejene
sejenis
sejennya
sejuk
sejumlah
seka
sekabehane
sekabehe
sekadar
sekadau
sekali
sekaligus
sekalipun
sekampung
sekang
sekar
sekarang
sekarmas
sekedar
sekeliling
sekian
sekitar
sekitare
sekitarnya
sekiye
seko
sekolah
sekolahan
sekretariat
sekretaris
seksologi
seksual
sekti
sektor
sekumpulan
sekunder
sekurang
sekutu
sel
sela
selai
selain
selalu
selam
selama
selamanya
selamat
selamatan
selan
selandia
selanegara
selang
selangkan
selangor
selanjutnya
selaras
selasa
selat
selatan
selawas
selayang
selayar
sele
selection
seleksi
selendang
selepas
selera
selesai
selesma
seliane
seliyane
selogiri
selokromo
selomanik
selomerto
selong
selor
selorejo
seluas
seluler
seluma
seluruh
seluruhnya
semacam
semadi
semakin
semampir
seman
semangat
semanggi
semangka
semar
semarang
semasa
semata
sembilan
semboyan
semburan
semen
semenanjung
semendawai
semendo
semenjak
sementara
semeru
semesta
semi
semidang
seminar
seminari
seminggu
semisal
semono
sempakwaja
sempat
sempati
sempet
sempit
sempor
sempu
sempurna
semu
semua
semuanya
semula
semut
senajan
senang
senayan
sendana
sendang
sendangagung
sendangmulyo
sendangrejo
sendangsari
sendi
sendiri
senegal
senen
seneng
sengaja
sengit
sengketa
sengsara
seni
seniman
senior
senja
senjata
senopati
sensus
sentani
sentra
sentral
sentul
senyawa
seo
seolah
seorang
seoul
sepak
sepakbola
sepang
sepanjang
separo
sepasang
sepeda
sepenuhnya
seperangkat
seperti
sepet
sepi
sepisan
sepisanan
september
sepuh
sepuluh
sepupu
sepupunya
sepur
seputar
seputih
serajoedal
seram
serambi
serang
serangan
serangga
serat
seratus
serayu
serba
serbia
serbuk
serdang
seri
seribu
series
serikat
sering
seringkali
serius
serpong
serta
seru
serupa
seruyan
server
service
services
sesaat
sesaji
sesak
sesama
sesampainya
seseorang
sesepuh
seskoad
sesuai
sesuatu
sesudah
sesungguhnya
set
setahun
setan
setara
setasiun
setaun
setelah
setempat
setengah
seteruse
sethithik
setia
setiap
setiawan
setidaknya
setingkat
setitik
setkab
setneg
setu
setuju
seumur
seunagan
seuwise
sevens
sewaktu
sewalike
sewijine
sewis
sewise
sewong
sewu
sfn
sh
shah
shalat
shall
shang
shanghai
sheet
sheikh
shenzhen
shi
shinto
short
should
show
shrewsbury
si
sia
siak
siam
siang
siantan
siantar
siap
siapa
siaran
siau
sibolga
sibuk
sici
sidamukti
sidamulya
sidane
sidang
sidareja
sidayu
siddharta
siddhartha
side
sidempuan
sidenreng
sidharta
sidin
sidoarjo
sidodadi
sidoharjo
sidomukti
sidomulyo
sidorejo
sie
siem
siempat
sierra
sies
sifat
sifate
sifatnya
sigaluh
sigi
signifikan
sih
siji
sijine
sijining
sikap
siki
sikil
sikile
sikka
siklus
silang
silat
silating
silaturrahmi
silau
silih
silihwarni
silikat
siliwangi
silsilah
siluman
sima
simalungun
simbang
simbol
simeulue
simfoni
simon
simpang
simpanse
simpson
simpur
sinar
sinau
since
sindang
sindangsari
sindrom
sinembah
sinetron
sing
singa
singapore
singapura
singaraja
singasari
singgah
singhasari
singingi
singkat
singkatan
singkawang
singkep
singkil
singkong
single
singojuruh
sini
sinilah
sinjai
sinta
sintang
sintren
siompu
sipat
sipil
siprus
sipuu
sir
sira
sirah
sirampog
sirau
sirkuit
sirkulasi
sirup
sisa
sisan
sisane
sisanya
sisi
sisih
sisipan
siste
sistem
sistematis
sister
siswa
siswi
siswocarito
sita
site
siten
sithik
siti
sitiran
sitoli
situ
situasi
situbondo
situraja
situs
siwa
siwur
six
size
sk
skala
skandal
skill
skotlandia
slamet
slametan
slasa
slawi
sleman
slendro
slinga
slipi
slogan
slogohimo
slovenia
slowakia
slta
sltp
sluke
sm
sma
sman
smith
smk
smkn
smp
smpn
sms
smu
so
soa
soal
soale
soc
society
socrates
soe
soebroto
soed
soedarman
soedirman
soeharto
soekarno
soekarnoputri
soekatno
soemarno
soerjadi
soesilo
soewardi
software
sogo
sok
soka
sokaraja
sokawera
soko
sol
solar
soleh
solidaritas
solo
solok
solor
somagede
somalangu
somalia
some
sometimes
son
sonata
songgolangit
songgon
sop
sopan
soppeng
sore
soreang
sorong
sos
sosial
sosialis
sosok
soto
soudant
source
sources
south
southeast
southern
soviet
sp
space
spanyol
spe
special
species
spektrum
spencer
spesialis
spesies
spesifik
spiral
spiritual
spons
spora
sport
spp
spread
springer
sql
squamosa
square
sragen
srandil
srangga
sregep
srenge
srengenge
sri
srikandi
srikaya
srimulat
sriwijaya
srono
sroto
srowot
srpska
sruweng
ss
ssd
st
staatsblad
stabil
stadion
staf
staff
stain
stalaktit
stan
standar
standard
stanford
stanley
star
stars
starscream
stasi
stasiun
state
states
statistics
statistik
statistika
status
statuse
statusnya
stefanus
stephen
steve
steven
stm
stmik
stoomtram
store
stories
story
strategi
strategis
stratosfer
street
stress
structure
struktur
struktural
stub
studi
studies
studinya
studios
study
style
su
suaka
suami
suara
suaramerdeka
suarane
suaranya
suasana
suatu
sub
subadra
subali
subang
subject
subjek
subroto
subtipe
subulussalam
subur
such
suci
sudagaran
sudah
sudamala
sudan
sudarman
sudarso
sudirman
sudjatmiko
sudut
sue
sufragan
sugeng
sugih
sugihan
sugihwaras
sugino
sugiono
sugriwa
suharto
suhu
suhunya
suka
sukabumi
sukadana
sukajaya
sukamara
sukaraja
sukarelawan
sukarno
sukasari
suket
sukodono
sukoharjo
sukolilo
sukorejo
sukra
sukses
suksesi
suku
sula
sulaiman
sulandono
sulang
sulasih
sulawesi
suling
sulit
sulsel
sultan
sulung
sumatera
sumatra
sumba
sumbang
sumbangan
sumbar
sumbawa
sumber
sumberagung
sumberdaya
sumbere
sumberejo
sumberlawang
sumberrejo
sumbersari
sumbu
sumebar
sumedang
sumenep
sumitro
summa
sumpah
sumpiuh
sumpyuh
sumur
sumut
sun
sunan
sunda
sundha
sung
sungai
sungguh
sungkai
sunni
sunrise
sunter
sunting
suntingan
sup
supaya
super
supernatural
supernova
supiori
suppl
supporter
suprapto
supriyadi
sura
surabaya
suradadi
surakarta
suran
surapati
surat
surawisesa
surga
suria
suriah
suriname
suro
surpanaka
surti
suru
suruh
surut
survei
survey
surya
suryani
susah
susan
susi
susilo
susmono
suster
susu
susuhunan
susukan
susunan
sutan
sutawijaya
sutedja
sutera
sutra
sutrisno
sutta
suvarnabhumi
suwarnadwipa
suwe
suwene
suweng
swadaya
swalayan
swara
swasta
swatantra
swaziland
swedia
swine
swiss
swp
swt
sy
sya
syafi
syah
syaharie
syailendra
syair
syamsuddin
syamsudin
syamsul
syarat
syariah
syarif
syarikat
sydney
syech
syeh
syekh
syiah
symptoms
syndrome
system
t
ta
tabalong
tabanan
tabang
tabel
tabir
table
tabrakan
tabuh
tabukan
tadah
tadi
tafsir
tagulandang
tah
tahan
tahap
tahapan
tahta
tahu
tahun
tahuna
tahunan
tahunnya
tai
taipei
taiwan
tajam
tajikistan
tak
takalar
takdir
take
takhta
taklukan
takon
taksaka
taksi
takson
taksonomi
takut
talaga
talang
talaud
tali
taliabu
talun
tama
taman
tamansari
tamat
tamba
tambah
tambahan
tambahane
tambahrejo
tambak
tambakrejo
tambakromo
tambaksari
tambaksogra
tambang
tambangan
tambi
tambora
tambrauw
tamiang
tamil
tamjidillah
tampah
tampak
tampan
tampil
tampilan
tamu
tan
tana
tanah
tanahabang
tanam
tanaman
tanda
tandes
tandha
tanduk
tanduran
tanete
tangan
tangen
tangerang
tangga
tanggal
tanggamus
tanggane
tanggeran
tanggul
tanggulangin
tanggung
tanggungharjo
tanggungjawab
tangkai
tangkap
tangkis
tangkuban
tani
tanimbar
tanjung
tanjunganom
tanjungbalai
tanjungkarang
tanjungkerta
tanjungpinang
tanjungpura
tanjungrejo
tanjungsari
tank
tanon
tanpa
tansah
tansaya
tantangan
tantowi
tanu
tanzania
taoisme
taoyuan
tap
tapa
tapak
tapaktuan
tapal
tapanuli
tape
tapen
tapi
tapin
tapung
tara
tarah
tarakan
tarbiyah
target
tari
tarian
tarik
tartamtu
tarub
tarumanagara
tarumanegara
taruna
tarung
tarusbawa
tasik
tasikmadu
tasikmalaya
task
tata
tatajeneng
tatanan
tatar
tau
tauco
tauge
tauhid
taun
taunan
taune
tawang
tawangharjo
tawangmangu
tawangrejo
tawangsari
tawar
tawaran
tawon
taxobox
taxon
tayan
taylor
tayuban
te
team
teater
tebal
tebing
tebingtinggi
tebo
tebu
technology
tedak
tegak
tegal
tegalan
tegalrejo
tegalsari
tegas
tegese
tegowanu
teguh
teh
tek
teka
tekan
tekanan
tekane
teknik
teknis
teknologi
teks
tekstil
tekstur
tektonik
telaga
telah
telanjang
telekomunikasi
telepon
telescope
teleskop
televisi
tellu
telp
telu
teluk
telulas
telung
telur
tema
teman
temanggung
temannya
tembaga
tembakau
tembang
tembe
tembilahan
tembok
tembung
tembunge
tembus
temenan
teminabuan
tempat
tempate
tempe
temperatur
tempo
tempointeraktif
tempuh
tempuran
tempurejo
temuan
temurun
tenaga
tenang
tenant
teng
tengah
tengahan
tengahe
tengaran
tengen
tengene
tenger
tenggara
tenggarong
tenggelam
tengger
tenggorok
tengku
tenis
tennis
tentang
tentara
tentrem
tentu
tenun
tenunan
teologi
teorema
teoretis
teori
teorinya
tepat
tepate
tepatnya
tepi
tepian
tepung
terakeh
terakhir
terakhirnya
terancam
terang
terapan
terapi
terasa
teratai
teratur
terbagi
terbaik
terbalik
terbang
terbanyak
terbaru
terbatas
terbebas
terbentang
terbentuk
terbentuknya
terbesar
terbilang
terbit
terbitan
terbuat
terbuka
terbukti
terbunuh
tercapai
tercatat
tercepat
tercermin
tercipta
terdaftar
terdahulu
terdapat
terdekat
terdesak
terdiri
terengganu
terestrial
tergantung
tergolong
terhadap
terhormat
terikat
terima
tering
teritori
teritorial
terjadi
terjadinya
terjangkau
terjatuh
terjauh
terjebak
terjemahan
terjun
terkait
terkandung
terkecil
terkemuka
terkena
terkenal
terkesan
terkuat
terlahir
terlalu
terlebih
terlepas
terletak
terlibat
terlihat
terluar
terluas
term
termaksud
termasuk
termasuke
terminal
termosfer
terms
ternak
ternama
ternate
ternyata
terompet
terpadat
terpadu
terpaksa
terpengaruh
terpenting
terpilih
terpisah
terpusat
territories
tersebar
tersebut
tersedia
tersendiri
tersimpan
tersisa
tersusun
tertarik
tertentu
tertib
tertinggi
tertua
tertulis
tertutup
terus
terusan
terusane
terutama
tes
tesih
tetanduran
tetangga
tetap
tetapi
tetep
tetun
teuku
teungku
teupah
tewas
tewasnya
teweh
texas
text
texts
teyeng
tgl
th
thai
thailand
thamrin
than
that
the
their
them
then
theory
theravada
there
theresia
these
they
things
third
this
thok
thomas
those
thought
three
through
thukul
thumb
ti
tiada
tiang
tiap
tiba
tidak
tidaklah
tidar
tidore
tidung
tidur
tiga
tigi
tik
tikus
tilpun
tim
timah
timang
timbang
timbul
time
times
timika
timnas
timor
timun
timur
timuran
tindak
tindakan
tinemu
tinentu
ting
tinggal
tinggarjaya
tinggi
tingkah
tingkat
tingkatan
tingkir
tinimbang
tinju
tiong
tionghoa
tiongkok
tipar
tipe
tipis
tipitaka
tiri
tiro
tirta
tirto
tirtomoyo
titan
titi
titiek
titik
title
titles
tiworo
tiyang
tjan
tjie
tjong
tk
tlaga
tlahab
tlatah
tlogorejo
tlogowungu
tm
tni
to
toba
tobago
tobelo
tobing
todanan
today
toer
togo
togog
tohari
tohjaya
tojo
tok
toko
tokoh
tokohindonesia
tokong
tokyo
tol
tolak
toli
tolikara
tolitoli
toluca
tom
tomat
tombak
tome
tomia
tomo
tomohon
ton
tondano
tonggak
tongkat
tonjong
tontonan
tontowi
tony
top
topeng
topi
topik
toraja
toroh
total
totalrugby
tour
tourism
tower
town
tpi
tract
trade
tradisi
tradisional
tradisonal
tragedi
tranangsional
trang
trans
transcontinental
transformasi
transformers
transisi
translated
translation
transmigrasi
transmisi
transmission
transmutasi
transnistria
transparency
transparent
transportasi
travel
trayek
treatment
trends
trenggalek
trenggono
trep
tresna
tri
tribhuwana
tribune
trigangga
trigu
triliun
trinidad
trinitas
trio
tripitaka
triplobastik
tripoli
tritih
triton
trojan
tropis
troposfer
troya
trubus
trumon
trus
trv
tsunami
tu
tua
tuah
tual
tualang
tuan
tuane
tuanya
tuban
tubuh
tubuhnya
tuduhan
tugas
tugase
tugasnya
tugu
tugumulyo
tuhan
tujuan
tujuane
tujuh
tuk
tukang
tukar
tuku
tukul
tulang
tuli
tulis
tulisan
tulisannya
tulung
tulungagung
tulus
tumapel
tumbang
tumbuh
tumbuhan
tumbuhnya
tumbukan
tumenggung
tumpang
tumpeng
tumprap
tumrap
tun
tunduk
tunggal
tunggu
tunggul
tungkal
tunisia
tunjung
tunjungan
tuntutan
tur
turangga
turi
turki
turkmenistan
turu
turun
turunan
turunnya
turut
tuti
tutuk
tutup
tutur
tuwa
tv
tvri
twitter
two
type
u
uan
uang
uap
ub
ubi
ubuntu
ucapan
ucul
udan
udang
udara
udayana
udhan
udhara
udik
udu
uga
uganda
ugi
ugm
uin
uis
uji
ujian
ujung
uk
ukara
ukir
ukiran
ukm
ukraina
ukuran
ukurane
ula
ulama
ulang
ulin
ulos
ulu
ulujami
ulum
umah
umahe
umang
umar
umat
umate
ummat
ump
umpamane
umum
umume
umumnya
umur
umure
un
una
und
undang
undangan
under
understanding
undp
unesco
ungaran
unggas
unggul
unggulan
ungu
uni
unik
union
unit
united
universal
universe
universitas
university
unlang
unsoed
unsur
until
untu
untuk
untukmu
untung
up
upacara
upamane
upaya
update
updated
upeti
upl
ural
urang
urangayu
uranus
urban
ure
uri
urip
uripe
url
uruguay
urung
urusan
urut
urutan
us
usa
usaha
usamah
use
usgs
usia
using
uskup
usul
usulan
usus
utama
utamane
utamanya
utami
utan
utang
utara
utawa
utawane
utawi
utomo
utuh
utusan
uu
uud
uuds
uut
uwis
uwoh
uya
uyah
uzbekistan
v
va
vaccine
vaccines
vaksin
vaksinasi
valley
valmiki
van
varian
variasi
various
vasco
vatican
vatikan
vektor
venezuela
ventrikel
venus
veramani
verde
verlag
verrier
versi
version
versions
verstappen
vertikal
vi
via
victoria
video
vientiane
vietnam
view
vihara
vii
viii
vikariat
vikaris
village
vinaya
vincentius
violin
viral
virol
virule
virus
viruses
visi
visual
vitamin
vitis
vivanews
voc
vokal
vol
voli
volume
volusi
von
voyager
vrna
vulkanik
w
wa
wabah
waca
wacana
wadah
wadaslintang
wade
wado
wadon
waduk
wae
wafat
wafatnya
wage
wagner
wagub
wah
wahab
wahana
wahid
wahing
wahyu
waigeo
waingapu
waisak
wajah
wajahnya
wajan
wajar
wajib
wajo
wakatobi
wakil
wakile
wakorumba
waktu
wakul
walanda
walau
walaupun
walenrang
wales
walet
wali
waligereja
walik
walikan
walikota
walisanga
walisongo
walker
wallace
waluyo
wamena
wamesa
wan
wana
wanadadi
wanara
wanarata
wanareja
wanasaba
wanasari
wanayasa
wang
wangi
wangon
wangsa
wangun
wani
wanita
wapres
war
wara
waras
wardiman
warga
wargane
warganya
waringin
warisan
warna
warnane
waropen
warranty
warsa
wartawan
warteg
waru
warung
warungpring
warureja
was
washington
wasiat
wasile
wasing
wasior
wat
watang
watara
watek
water
wates
watesan
watese
watu
watuk
watukumpul
watulawang
watulingga
watumalang
wawancara
wawasan
wawo
wawonii
way
wayah
wayang
wba
wbi
we
weather
web
weber
website
webster
weda
wedang
wedgwood
wedhus
wedi
wektu
wektune
weleri
welut
wen
wenang
wengi
weo
were
werkudara
werna
wernane
wernaning
weruh
wes
wesi
west
western
westminster
wetan
wetanan
wetane
wetar
weteng
wewatesan
wewenang
wewengkon
wewengkone
wewewa
what
wheat
when
where
which
white
whitney
who
whole
whose
wi
wib
wibisana
wibowo
wicitrawirya
wide
widodo
widowers
width
widura
widuri
widya
wigati
wiharso
wijaya
wijayakusuma
wiji
wijine
wijoyo
wiki
wikibooks
wikimedia
wikipe
wikipedia
wikipediawan
wikiquote
wikisource
wikitravel
wikivoyage
wilahan
wilayaeh
wilayah
wilayahe
wilayahnya
wilford
wilhelm
wilis
will
willem
william
williams
wina
winata
winates
wind
windows
wine
wingi
winong
wira
wiracarita
wiradadaha
wirakencana
wiranto
wirasaba
wiraswasta
wirata
wirosari
wis
wisanggeni
wisata
wisatawan
wisnu
wit
witan
wite
with
within
wiwit
wiwitane
wiyar
wlahar
wm
wo
woh
wohan
wohe
wolfgang
wolo
wolu
wolung
won
wondama
wong
wonge
wongsorejo
wonodadi
wonogiri
wonokerto
wonokromo
wonorejo
wonosari
wonosobo
wonten
woodard
word
words
work
works
workshop
world
woyla
wretikandayun
wu
wujud
wujude
wulan
wulu
wulung
wungu
wuni
wuruk
wuryantoro
www
x
xaverius
xi
xia
xiii
xu
xv
xvi
xx
xyz
y
ya
yadawa
yague
yah
yahoo
yahudi
yahukimo
yahya
yaiku
yaitu
yakin
yakni
yakue
yakuwe
yaman
yamin
yan
yang
yangko
yani
yap
yapen
yards
yasa
yasin
yayasan
yayati
ye
year
yearbook
years
yen
yesus
yg
yo
yogya
yogyakarta
yohanes
yoiku
yonex
yonif
yordania
york
yos
yosef
yoseph
you
young
your
yu
yudanegara
yudhoyono
yudikatif
yudistira
yun
yunani
yupiter
yuridis
yusuf
yusup
yuta
z
zainal
zaleha
zaman
zambia
zat
zi
ziarah
zimbabwe
zombie
zona
zoologi
zuider
{
|
}
~

¦
©
«
­
®
°
±
²
³
·
º
»
½
×
ß
æ
ɡ
ʼ
ʿ
ˈ
ː
̀
́
̂
̃
̄
̆
̇
̈
̉
̊
̋
̌
̓
̛
̣
̧
̨
͂
α
δ
μ
ς
ا
بن
ٔ
ٕ
ं
छ
ण
त
द
न
प
ब
भ
म
य
र
ल
व
ष
स
ा
ि
ी
ु
े
ै
्
ி
ு
்
ั
ี
អ
ា
្
ᮨ
᮪
​
‎
–
—
‘
’
“
”
•
…
′
″
‹
›
€
→
↔
↷
−
③
④
⑦
─
█
⟨
⟩
⺀
⺄
⺆
⺈
⺊
⺌
⺕
⺝
⺸
⺼
⿰
⿱
⿲
⿳
⿴
⿵
⿶
⿷
⿸
⿹
⿺
⿻
、
〢
こ
゙
゚
ア
ィ
イ
ウ
ェ
ク
コ
シ
ス
テ
ト
ハ
フ
ヘ
メ
ユ
ル
レ
ロ
ン
ー
㇁
㇂
㇄
㇇
㇈
㇉
㇓
㐁
㐄
㐅
㐌
㐫
㐬
㐭
㐮
㐱
㑒
㒵
㒸
㒼
㓁
㓞
㔾
㕛
㕣
㖾
㘝
㚅
㚇
㚔
㚘
㝉
㝡
㝴
㝵
㞋
㞢
㞷
㠩
㠭
㠯
㡀
㡭
㡿
㢲
㢴
㣇
㣺
㥯
㪅
㫄
㫐
㫒
㫺
㬅
㬎
㬥
㬰
㲋
㳄
㷠
㸒
㸚
㸦
㼌
㼲
㽞
㿟
䀠
䂞
䍃
䏍
䒑
䖍
䖒
䖝
䖵
䙴
䚻
䜌
䝿
䡛
䧹
䪞
一
丁
丂
七
丄
丅
丆
万
丈
三
上
下
丌
不
与
丏
丐
丑
专
且
丕
世
丘
丙
业
东
丞
丢
丣
两
严
並
丨
丩
个
丫
丬
中
丮
丰
丱
串
丵
丶
丷
丸
丹
为
主
丽
丿
乀
乂
乃
久
乆
乇
么
义
之
乌
乍
乎
乏
乐
乑
乔
乖
乗
乘
乙
乚
乛
乜
九
乞
也
习
乡
乳
乾
亀
亅
了
亇
予
争
事
二
亍
于
亏
亐
云
互
亓
五
井
亘
亚
亜
亞
亟
亠
亡
亢
交
亥
亦
产
亨
亩
享
京
亭
亮
亯
亰
亲
亳
亶
亷
人
亻
亼
亾
仁
今
介
仌
从
仐
仑
仒
仓
仕
他
付
仝
代
令
以
任
企
伊
伏
伐
休
会
伯
但
位
何
佘
余
作
佥
使
來
侈
侌
侖
侯
侵
便
保
俞
信
修
倉
倍
候
倠
備
僉
僕
儒
儿
兀
允
兂
元
兄
充
兆
兇
先
光
兊
克
兌
免
兑
兒
兓
兔
党
兜
兟
入
全
兩
兪
八
公
六
兮
兰
共
关
兵
其
具
典
兹
兼
冀
冂
冃
冄
内
冈
冉
冊
冋
册
再
冎
冏
冐
冒
冓
冖
冗
冘
军
农
冝
冡
冥
冫
冬
冷
几
凡
凢
凵
凶
凷
凸
凹
出
函
凾
刀
刁
刂
刃
刄
刅
分
切
刍
刑
刕
刖
列
刘
则
初
別
利
别
到
制
刺
則
削
剌
前
剡
剽
劉
力
功
加
劦
助
劫
劳
劵
勃
勇
勉
勒
動
務
勞
勤
勹
勺
勻
勾
勿
匀
匂
包
匆
匈
匊
匋
匍
匕
化
北
匚
匝
匡
匪
匱
匸
匹
区
医
匽
匿
區
十
卂
千
卄
卅
卆
升
午
卉
半
卌
华
卑
卒
卓
单
卖
南
卜
卝
卞
占
卡
卢
卣
卤
卦
卩
卪
卬
卯
印
危
即
却
卵
卷
卸
卻
厂
厃
厄
历
厈
厉
厌
厓
厘
厚
原
厤
厥
厨
厭
厲
厶
厷
厸
去
厼
厽
叀
参
參
叅
又
叉
及
友
双
反
叐
发
叒
叔
叕
取
受
叚
叜
叟
口
古
句
另
叩
只
召
可
台
叱
史
右
叵
号
司
叹
吂
各
吅
合
吉
吊
吋
同
名
后
吏
向
吕
君
吝
吞
否
含
启
吳
吴
吹
吾
呂
呆
呈
告
员
呙
周
命
咅
和
咎
咠
咢
咨
咸
咼
哀
品
哉
員
哥
哲
唐
商
啇
問
啚
啬
啻
善
喜
喬
單
喿
嗇
噩
嚴
囊
囗
囘
囙
囚
四
回
囟
因
囧
囬
困
囱
囷
固
国
圂
圅
國
圍
圓
土
圡
圣
圥
在
圭
地
圶
圼
坐
坒
坚
坴
垂
垔
垚
埀
埋
埶
執
基
堂
堅
堆
堇
堯
報
塞
墨
壘
士
壬
壯
声
壳
壴
壹
壺
壽
夂
处
夅
夆
备
夊
夋
夌
复
夏
夒
夕
外
夗
夘
多
夜
夢
大
夨
天
太
夫
夬
夭
央
失
夲
头
夷
夸
夹
夻
夾
奂
奄
奇
奈
奉
奎
奏
奐
契
奓
奔
奚
奞
奠
奢
奥
奭
女
奴
奻
好
如
妄
妙
妟
妥
妻
妾
姑
委
姜
威
娄
娘
婁
婴
嬰
嬴
子
孑
孔
孕
孖
字
存
孚
孛
孝
孟
季
孤
学
孫
孱
學
宀
宁
宂
它
宅
宇
守
安
宋
完
宏
宓
宗
官
定
宛
宜
宝
客
宣
室
宮
宰
害
家
容
宾
宿
寄
寅
密
富
寒
察
寧
審
寫
寬
寮
寸
对
寺
寻
寽
対
寿
封
尃
射
将
將
專
尉
尊
尋
尌
對
小
少
尒
尓
尔
尖
尗
尚
尞
尢
尣
尤
尧
尨
尭
就
尸
尹
尺
尻
尼
尽
尾
尿
局
居
屈
屋
屎
屏
屑
展
屖
屚
属
屠
屡
屬
屮
屯
屰
山
屵
屾
岁
岂
岑
岡
岩
岳
岸
峯
島
崇
崑
崔
崖
崙
崩
嵬
嶲
巂
巛
川
州
巟
巠
巢
巤
工
左
巧
巨
巩
巫
差
己
已
巳
巴
巷
巸
巽
巾
巿
帀
市
布
希
帚
帛
帝
带
師
席
帶
常
干
平
年
幵
并
幷
幸
幺
幻
幼
幽
幾
广
広
庄
床
底
店
庚
府
度
庫
庭
庶
康
庸
廉
廌
廛
廣
廩
廴
延
廷
建
廾
廿
开
弁
弃
弄
弇
弋
式
弓
弔
引
弗
弘
弜
弟
弥
弦
弱
張
強
强
彊
彌
彎
彐
彑
当
彔
录
彖
彗
彡
形
彥
彦
彧
彭
彳
役
彼
往
待
律
徒
得
徙
從
復
微
徵
心
忄
必
忌
忍
志
忝
忠
忩
快
念
忽
忿
思
怠
急
怱
恆
恒
恩
恭
息
悉
患
悤
悲
悶
惠
惡
惢
愁
愈
意
愛
感
慈
慧
慮
憂
憲
應
戀
戈
戉
戊
戋
戌
戍
戎
成
我
戒
戔
或
戚
戠
戢
截
戲
戶
户
戹
戼
戾
房
所
扁
扇
手
扌
才
打
托
执
承
折
拉
拜
拿
掌
推
提
摩
支
攴
攵
收
攸
改
放
政
敄
敏
敕
敖
敗
教
敝
敞
敢
散
敦
敫
敬
数
敷
數
斂
文
斉
斊
斗
斤
斥
斩
斬
斯
新
方
於
施
斿
旁
旋
族
无
旡
既
旣
日
旦
旧
旨
早
旬
旱
旲
时
旾
昆
昇
昌
昍
明
昏
易
昔
昗
昜
星
春
昬
是
昱
昴
昷
時
晃
晋
晏
普
景
晶
智
暑
暴
曆
曇
曩
曰
曲
曳
更
曷
書
曹
曼
曾
替
最
朁
會
月
有
朋
服
朔
朕
朗
望
朝
木
朩
未
末
本
札
朮
术
朱
朵
朶
朿
杀
杏
杜
束
条
来
東
杲
杳
松
析
林
枚
果
枝
枲
枼
某
柔
查
柬
柰
柴
栗
桀
桑
桼
梁
條
梟
梨
棘
棠
棥
森
楚
業
楽
榮
樂
樊
欠
次
欣
欮
欲
欶
欽
款
歆
歇
歛
止
正
此
步
武
歨
歪
歮
歯
歰
歲
歴
歷
歸
歹
歺
死
殳
段
殷
殸
殹
殺
殻
殿
毋
毌
母
每
毒
比
毕
毚
毛
毳
氏
氐
民
气
氣
水
氵
氶
氷
永
氺
氾
求
汝
汞
江
沃
沓
沙
沝
泉
法
波
泣
泥
泰
洛
洪
洲
活
派
流
浦
浪
浮
海
淡
淮
清
渚
渠
湯
滿
漸
火
灬
灭
灰
灵
灷
炅
炎
炏
炗
炙
炭
為
烈
烏
烝
焉
無
焦
焱
然
煞
熊
熏
燕
營
燮
爪
爫
爭
爯
爰
爱
爲
爵
父
爻
爽
爾
爿
片
版
牙
牚
牛
牜
牟
牢
牧
牪
牽
犀
犬
犭
犮
狂
狄
狊
独
狺
猋
猒
猪
献
獨
獻
玄
率
玉
王
玟
玨
珎
班
琴
瑟
瑩
瓜
瓦
甘
甚
生
産
用
甫
甬
田
由
甲
申
电
甶
男
甸
甹
画
甾
畀
界
畏
畐
留
畜
畟
畢
畧
畨
番
畫
異
畱
當
畺
畾
疊
疋
疌
疑
疒
疾
癶
癸
癹
登
發
白
百
皀
皃
的
皆
皇
皋
皐
皕
皮
皷
皿
盃
盆
盇
盈
益
盍
盎
监
盒
盖
盛
盡
監
盤
盧
目
直
相
盾
省
眇
眉
看
眔
眞
真
眷
眼
眾
着
睘
睪
睿
瞏
瞢
瞿
矍
矛
矞
矢
矣
知
矦
短
石
破
碎
磊
磨
示
礻
礼
祟
票
祭
禀
禁
禸
禹
禺
离
禽
禾
禿
秀
秃
秉
秋
科
秝
秦
移
稟
穀
穌
穴
究
穹
空
穿
突
窄
窒
立
竒
竜
竝
竟
章
童
竹
笑
笠
筆
等
答
箕
算
箴
節
篤
篭
米
粉
粛
粟
粤
粦
粲
糞
糸
糹
系
約
納
素
索
紫
累
細
絜
絫
絲
維
綿
縣
總
繇
纍
纟
缶
网
罒
罔
罕
罗
罙
罡
罢
罪
署
罷
羅
羊
羌
羍
美
羔
羕
羗
羞
羡
羣
群
義
羲
羸
羽
翁
翏
習
翕
翟
翠
翼
老
耂
考
者
耆
而
耎
耑
耒
耳
耴
耶
耷
聂
聊
聖
聚
聶
聿
肀
肃
肅
肉
肖
肙
肥
肩
肯
育
肴
胃
背
胡
胥
能
脊
脩
膚
臣
臤
臧
自
臬
臭
臯
臱
至
致
臺
臼
臽
臾
臿
舀
舂
舄
與
興
舉
舌
舍
舛
舜
舞
舟
般
船
艦
艮
良
色
艸
艹
艾
芒
芔
芬
芮
花
芳
芺
芻
苔
苗
苟
若
苦
英
茶
茸
荅
草
荒
荣
荼
莆
莧
莫
莽
菆
菊
菐
華
萬
落
葉
著
葛
董
葵
蒙
蒦
蒼
蓋
蓬
蓺
蔑
蔡
蕉
蕭
薄
薛
薦
薰
藍
藏
藥
蘭
虍
虎
虐
虒
虔
處
虖
虗
虘
虚
虛
虜
虞
虫
虽
蚤
蚩
蜀
蜜
蟲
蠡
血
行
衍
衛
衣
衤
表
衮
衰
袁
袞
褭
褱
襄
襾
西
覀
要
覃
見
規
覓
覧
親
覽
见
角
解
言
訁
訇
計
詹
語
誩
諸
讠
谷
豆
豈
豊
豐
豕
豖
豙
象
豦
豩
豪
豸
貇
貝
貞
貟
負
貢
貧
貪
貫
責
貳
貴
買
費
賁
資
賈
賏
賓
賔
賛
賞
賢
賣
質
賴
贊
贝
贡
责
贯
贲
贵
赖
赞
赤
赦
走
越
足
路
蹇
身
躬
車
軍
軎
軟
輦
车
辛
辜
辟
辥
辰
辱
農
辵
辶
边
达
过
近
连
迷
追
退
送
逆
逐
通
速
造
逢
連
逮
進
遀
遂
過
道
達
遣
適
遷
遺
邊
邑
邕
那
邦
邪
郎
部
郭
都
鄉
酉
酋
配
酓
釆
采
里
重
野
量
金
釒
錢
钅
長
镸
长
門
閃
閉
開
閏
閑
閒
間
閔
閵
閻
闌
门
间
闷
阑
阜
阝
阿
降
陳
隆
隊
隋
隡
隨
隱
隶
隹
隺
隻
隼
隽
难
雀
雁
集
雈
雋
雍
雐
雔
雙
雚
雜
雝
離
難
雨
雩
雪
雲
零
雷
需
霍
霜
霝
霞
霸
靈
靑
青
非
靡
面
靣
革
韋
韦
韭
韯
韱
音
頁
頃
項
須
頗
頡
頻
顛
页
風
风
飛
飞
食
飠
養
饣
首
香
馬
馮
駦
马
骨
高
髟
鬥
鬯
鬲
鬼
魚
魯
鮮
鱼
鲁
鳥
鳳
鸟
鹵
鹿
麃
麗
麥
麦
麻
黃
黄
黍
黎
黑
黒
黨
黹
黽
黾
鼎
鼓
鼠
鼻
齊
齋
齐
齒
齿
龍
龙
龜
龟
龠
龰
龱
龴
龵
龶
龷
龸
龹
ꦁ
ꦏ
ꦒ
ꦔ
ꦠ
ꦤ
ꦥ
ꦧ
ꦩ
ꦪ
ꦭ
ꦮ
ꦱ
ꦲ
ꦴ
ꦶ
ꦸ
ꦺ
ꦿ
꧀
者
艹
ﬂ
﻿
，
？
𠀁
𠀃
𠀆
𠀉
𠀎
𠀐
𠁁
𠁣
𠂆
𠂇
𠂈
𠂉
𠂊
𠂋
𠂎
𠂒
𠂔
𠂛
𠂡
𠂢
𠂤
𠂬
𠂭
𠂹
𠃊
𠃋
𠃌
𠃍
𠃎
𠃑
𠃓
𠃔
𠃜
𠄌
𠄎
𠄠
𠄢
𠆢
𠆥
𠇍
𠈌
𠌵
𠓜
𠔉
𠔥
𠔼
𠔽
𠔿
𠕀
𠕁
𠕋
𠘧
𠘨
𠙻
𠙼
𠚏
𠚒
𠚤
𠚪
𠣏
𠤎
𠤕
𠥓
𠦄
𠦑
𠦝
𠧒
𠧗
𠧪
𠩺
𠪚
𠫓
𠫔
𠫤
𠬛
𠬝
𠬞
𠬢
𠬤
𠬶
𠮛
𠮦
𠮷
𠯑
𠱠
𠳮
𠷎
𡈼
𡉀
𡉵
𡌥
𡍮
𡏳
𡕒
𡕩
𡕰
𡖅
𡗗
𡗜
𡘆
𡘤
𡧱
𡨄
𡩧
𡬠
𡭽
𡰣
𡰥
𡰪
𡰯
𡰱
𡷈
𡸁
𡿨
𡿩
𡿪
𡿺
𢀖
𢀛
𢀩
𢁙
𢆉
𢆰
𢆶
𢇁
𢇇
𢉖
𢌬
𢌿
𢏚
𢑑
𢑚
𢖻
𢙣
𢛳
𢦏
𢦒
𢧵
𢼄
𢾕
𣁋
𣄼
𣅀
𣅽
𣍘
𣎳
𣎵
𣏋
𣏼
𣗥
𣥂
𣥖
𣦵
𣦼
𣧄
𣪊
𣪠
𣬉
𣳾
𣶒
𤇾
𤊽
𤐫
𤓰
𤔔
𤕨
𤣩
𤰇
𤰔
𤰞
𤴓
𤴔
𤽄
𥁑
𥁕
𥃦
𥃩
𥃭
𥇡
𥑟
𥘅
𥘈
𥝢
𥫗
𥱡
𦈢
𦉪
𦉬
𦉼
𦍌
𦍒
𦎧
𦐇
𦓔
𦔮
𦘒
𦙃
𦚏
𦣝
𦣞
𦣻
𦥑
𦥔
𦥯
𦨉
𦭝
𦰩
𧆞
𧈧
𧘇
𧰨
𧴪
𧴮
𧵩
𧾷
𨸏
𨾴
𩙿
𩠐
𩫏
𩵋
𪉷
𪜀
𪟽
𪠲
𪩲
𫇦
𫔭
𫜸
𫝀
𫠣
𫠩
𫢉
𫥞
𫩏
𫩠
𫪡
𫲽
𫶧
𬀷
𬐘
𬗌
𬙙
𬛸
𬜯
𬟩
𬯁
𬴘
𬺻
𬼉
𬼖
𭀰
𭁈
𭁨
𭅰
𭑈
𭕄
𭗼
𭤨
𭥫
𭻾
𮅕
𮊿
𮍌
𮍏
𮓗
𮥼
𮧮
廾
𰀁
𰀄
𰀈
𰀉
𰀕
𰀠
𰀡
𰀢
𰀪
𰁜
𰃮
𰆊
𰆘
𰋙
𰕎
𰢴
𰧭
𰯲
00--
000--
01--
02--
03--
04--
05--
06--
08--
09--
49--
50--
56666--
59--
73333--
80--
81--
83--
90--
a--
ab--
abe--
ac--
ad--
adi--
af--
ag--
agri--
ah--
ai--
air--
aj--
aji--
ak--
al--
alf--
alt--
am--
ama--
an--
ana--
ang--
ani--
anta--
antar--
ap--
apo--
app--
appli--
ar--
argo--
ari--
arjo--
as--
astro--
at--
au--
b--
ba--
bab--
baga--
bah--
bak--
bala--
bam--
ban--
banyu--
bat--
batu--
be--
bed--
bek--
ben--
beng--
ber--
bera--
berb--
berd--
berdam--
berg--
berj--
berk--
berke--
berkel--
berm--
berp--
bers--
bert--
beru--
berw--
bi--
bio--
bl--
bo--
bod--
bon--
bond--
bone--
bonto--
bos--
bou--
br--
bre--
bron--
bu--
bub--
budd--
bulu--
bumi--
bun--
c--
ca--
cal--
cali--
camp--
can--
cang--
cap--
car--
cat--
ce--
cen--
ch--
ci--
cia--
ciki--
cira--
cla--
cle--
clu--
co--
com--
con--
cr--
cre--
cu--
d--
da--
dam--
dan--
dar--
de--
den--
depe--
der--
dha--
dhat--
dhe--
dhi--
dhu--
di--
dia--
dibe--
die--
dig--
dij--
dike--
diku--
dilu--
dio--
dip--
dipa--
dipe--
diper--
dipert--
dipi--
dis--
disesuai--
dita--
diti--
diu--
dj--
do--
dol--
dr--
dre--
dres--
du--
duk--
dur--
dus--
dy--
e--
eco--
ed--
efe--
ega--
eko--
ekste--
ekto--
el--
elect--
em--
emp--
en--
endo--
ene--
ep--
eq--
er--
era--
ere--
es--
et--
eu--
ev--
ex--
exp--
f--
fal--
fat--
fe--
fi--
fla--
fu--
furn--
g--
ga--
gad--
gam--
gan--
gand--
gang--
gap--
ge--
gem--
gen--
gend--
genj--
geo--
gha--
gi--
gili--
giri--
go--
gra--
gre--
gri--
gu--
gub--
guja--
h--
ha--
hal--
han--
har--
harp--
he--
heli--
hem--
herce--
hi--
ho--
hu--
hulu--
hy--
i--
ia--
ibu--
ica--
id--
il--
ila--
im--
imm--
imp--
in--
ind--
indi--
ini--
inter--
ip--
ir--
is--
iso--
it--
iu--
iv--
j--
ja--
jan--
jati--
jaya--
je--
jeb--
jem--
jen--
jeng--
jes--
jet--
jim--
jo--
ju--
jurang--
k--
ka--
kab--
kaca--
kado--
kago--
kai--
kaj--
kal--
kali--
kam--
kan--
kand--
kap--
kara--
karang--
kat--
ke--
keba--
keban--
kebo--
kece--
keda--
kedade--
kedung--
keke--
kem--
kemu--
ken--
kep--
kert--
kerta--
kese--
ketak--
ketidak--
kh--
kha--
ki--
kin--
kirgiz--
kl--
kle--
ko--
kol--
kom--
komp--
kon--
konst--
kr--
kra--
kre--
ku--
kus--
kuta--
l--
la--
lam--
lan--
le--
lebak--
lem--
lemah--
len--
leng--
leuwi--
li--
lili--
lim--
lin--
lo--
lon--
lu--
lun--
m--
ma--
mac--
mad--
mag--
mah--
maha--
maja--
mak--
mal--
man--
mang--
mangku--
mantri--
map--
mar--
mard--
mart--
masa--
mat--
mbe--
mbu--
mc--
me--
mean--
mech--
med--
mela--
mele--
mem--
memban--
membe--
memi--
memo--
memper--
men--
menam--
menan--
meng--
menge--
mengem--
menju--
menu--
meny--
menye--
menyu--
mer--
mera--
mere--
mert--
meu--
mi--
mle--
mo--
mod--
mon--
mono--
motor--
mr--
mre--
mu--
muja--
multi--
mun--
my--
n--
na--
nam--
nan--
nang--
naras--
nau--
naz--
nd--
nde--
ne--
neder--
nem--
net--
news--
ng--
ngag--
ngam--
nge--
ngg--
ngla--
ngo--
ngu--
ngung--
ni--
nit--
nj--
njel--
no--
nu--
nun--
nur--
ny--
nya--
nye--
nyeleng--
nyi--
nyu--
o--
oc--
oen--
of--
ok--
ol--
om--
on--
op--
or--
ora--
os--
ov--
p--
pa--
pad--
padang--
pager--
pai--
pak--
paku--
pal--
pam--
pan--
pang--
para--
pas--
pasa--
pat--
pd--
pe--
pega--
pel--
pela--
pem--
pembi--
peme--
pen--
pena--
penan--
pend--
pene--
penen--
peng--
pengkol--
peni--
penj--
penu--
penya--
penye--
penyem--
penyera--
penyi--
penyu--
per--
peri--
peta--
peu--
ph--
phi--
pho--
phy--
pi--
pid--
pin--
pir--
pla--
ple--
pli--
plu--
po--
poet--
pol--
poli--
polo--
polyne--
pon--
pop--
pp--
pr--
pra--
pre--
predi--
pri--
pro--
ps--
ptol--
pu--
pulmo--
pulo--
pulu--
pup--
purwa--
pus--
q--
qadhd--
qu--
quad--
r--
ra--
raja--
rak--
ram--
ran--
ranca--
re--
recom--
rek--
ren--
rep--
requ--
res--
resi--
rev--
ri--
rid--
rin--
ro--
rob--
rop--
ros--
rowo--
rt--
ru--
run--
rw--
s--
sa--
sal--
sam--
sama--
san--
sand--
sang--
sari--
sat--
saw--
sc--
se--
sea--
sebe--
sei--
sek--
sel--
sela--
sem--
sen--
sena--
sepe--
seper--
sess--
set--
seu--
sh--
shel--
si--
sida--
sido--
sig--
sili--
sim--
sip--
sir--
sjah--
sk--
sla--
so--
soe--
soka--
son--
sp--
spe--
squ--
sra--
sri--
st--
ste--
stro--
su--
sub--
sudi--
sug--
suka--
suko--
suma--
sun--
super--
sur--
suro--
swa--
swi--
sy--
syah--
symp--
t--
ta--
tak--
tali--
tam--
tambe--
tan--
taru--
te--
tegal--
tele--
tem--
tep--
ter--
tera--
terb--
terd--
terg--
terk--
terp--
ters--
tert--
th--
thom--
ti--
tj--
tle--
tlogo--
to--
tom--
ton--
tong--
tor--
tou--
toya--
tra--
trans--
tre--
tri--
tro--
tru--
tu--
tum--
tun--
tung--
tur--
u--
ub--
ujung--
um--
un--
ung--
uni--
up--
uru--
us--
ut--
v--
va--
ve--
vi--
vin--
vo--
vol--
w--
wa--
wal--
wana--
war--
watu--
we--
wed--
weo--
wi--
wib--
wido--
wiki--
win--
wira--
wli--
wo--
wono--
wot--
wu--
x--
y--
ya--
ye--
yo--
yu--
z--
za--
đ--
--0
--1
--2
--3
--333
--4
--5
--6
--667
--7
--8
--9
--a
--aa
--aan
--ab
--abat
--able
--ach
--ada
--ado
--ae
--afi
--ag
--aga
--ah
--ahan
--ai
--aik
--ain
--aja
--aji
--ak
--aka
--ake
--aken
--aksi
--al
--alang
--am
--amba
--an
--ana
--ane
--ang
--angan
--anggu
--ani
--annya
--ans
--ao
--ap
--apan
--apna
--apura
--ar
--ard
--ari
--arjo
--ary
--as
--asa
--asi
--at
--ata
--atan
--ate
--ation
--au
--awa
--awi
--ay
--aya
--b
--ba
--bai
--ban
--bar
--bat
--bb
--bd
--bi
--bil
--bo
--board
--bon
--bs
--bu
--buh
--bul
--bur
--burg
--c
--ca
--cak
--cal
--car
--ce
--ceae
--ceng
--cent
--ces
--ch
--ci
--cing
--ck
--cky
--co
--cs
--ct
--cu
--cung
--cur
--cus
--cy
--d
--da
--dah
--dak
--dal
--de
--dha
--dhi
--dhuran
--di
--dik
--dil
--din
--ding
--do
--doh
--dona
--doni
--dowo
--doyong
--dri
--ds
--du
--dua
--dug
--duh
--duk
--dul
--dung
--dy
--e
--ea
--ean
--ed
--ee
--eg
--eh
--ei
--ein
--eja
--ejo
--ek
--el
--ela
--ell
--em
--en
--ena
--ene
--eng
--ent
--ep
--epe
--er
--eri
--ers
--es
--ese
--esi
--est
--et
--etan
--eti
--eus
--ewa
--ey
--ez
--f
--fa
--fer
--ff
--fi
--fy
--g
--ga
--gah
--gai
--gak
--gal
--gan
--ganan
--gar
--gara
--gas
--gat
--ge
--gede
--gen
--ger
--get
--gga
--ggal
--ght
--gi
--gih
--gil
--gkal
--gkan
--gku
--gkut
--gna
--go
--gol
--graf
--grafi
--gu
--h
--ha
--han
--harjo
--hat
--he
--heng
--her
--hi
--hibur
--hna
--hu
--huh
--hun
--i
--ia
--iah
--ial
--ian
--iang
--ic
--ical
--ics
--id
--ie
--ies
--if
--ight
--ih
--ii
--ik
--iko
--iksa
--il
--ila
--ilai
--ill
--im
--ima
--in
--ina
--inal
--inasi
--ine
--ing
--inthes
--io
--ion
--ior
--ir
--ira
--iri
--is
--isasi
--ism
--isme
--ist
--it
--ita
--itan
--itas
--ity
--ium
--ius
--iveness
--iwa
--iwo
--j
--ja
--jah
--jak
--jar
--jati
--jaya
--je
--jen
--jer
--ji
--jol
--juk
--jung
--k
--ka
--kah
--kake
--kal
--kala
--kan
--kap
--kar
--kara
--karsa
--kasi
--kat
--kbud
--ke
--ken
--kerta
--ki
--kin
--kir
--kna
--ko
--kor
--kret
--kripsi
--ks
--ksa
--kspor
--kten
--ku
--kulon
--kung
--kust
--kusumo
--kut
--l
--la
--laan
--lah
--lak
--lan
--lar
--las
--lasi
--lat
--laya
--ld
--le
--let
--ley
--li
--lin
--ling
--lis
--lk
--lkan
--ll
--lla
--lle
--llo
--llu
--lo
--log
--logi
--logis
--lola
--lon
--ls
--lu
--luk
--lus
--ly
--m
--ma
--mah
--man
--mas
--mat
--mba
--mbak
--mbi
--mbu
--me
--ment
--mi
--mia
--mis
--mita
--mivir
--mo
--mu
--mulya
--mulyo
--murti
--my
--n
--na
--naan
--nai
--nak
--nan
--nar
--nard
--nata
--nce
--nci
--nd
--nda
--ndi
--ndo
--ne
--ner
--nes
--ng
--nga
--ngan
--nggu
--ngi
--ngka
--ngkan
--ngkap
--ngrat
--ngun
--ni
--nia
--nis
--njang
--njo
--nk
--no
--ns
--nsi
--nt
--nte
--nteni
--nti
--ntifikasi
--ntis
--nto
--nts
--ntu
--nu
--nung
--ny
--nya
--o
--oda
--oe
--og
--ogi
--ografi
--ogy
--oh
--oid
--ok
--oka
--ol
--ologi
--ology
--om
--ombo
--ome
--omerto
--omulyo
--on
--onal
--oner
--ong
--oni
--ono
--oo
--or
--orejo
--oro
--os
--osphere
--ot
--oto
--ow
--owo
--p
--pa
--pah
--pan
--par
--pat
--pc
--pe
--phic
--pi
--pna
--po
--por
--port
--ps
--pt
--pto
--pu
--pul
--pun
--pura
--puro
--pus
--put
--puti
--q
--que
--r
--ra
--rak
--raksa
--rami
--ran
--rap
--rat
--rau
--rck
--rd
--rdi
--re
--reja
--rejo
--rem
--ren
--reng
--res
--retno
--rg
--ri
--ria
--rin
--rip
--rium
--rjo
--rkan
--rne
--ro
--rok
--role
--ros
--rr
--rry
--rs
--rt
--rti
--ru
--ruh
--rul
--rum
--ry
--s
--sa
--sada
--san
--sari
--sat
--se
--sek
--sem
--sen
--sena
--sfer
--si
--sial
--sih
--sin
--sis
--sme
--so
--son
--sono
--sro
--ssa
--su
--suk
--suke
--sus
--sy
--t
--ta
--tahu
--tak
--tal
--tan
--tang
--tar
--tas
--tasi
--tau
--te
--ted
--tel
--ten
--ter
--tes
--tet
--th
--thi
--ti
--tic
--tif
--tih
--tik
--tin
--tina
--tion
--tip
--tis
--tive
--tmo
--to
--ton
--tor
--ts
--tt
--tu
--tua
--tum
--tur
--tus
--tut
--ty
--u
--ua
--ual
--uat
--ubung
--ud
--uda
--uddin
--udin
--ue
--ug
--uh
--ujud
--uk
--uka
--ukan
--ul
--ullah
--um
--uma
--un
--ung
--unyi
--up
--ur
--uran
--uru
--us
--usi
--ut
--uti
--utu
--uw
--uyung
--v
--ve
--ver
--w
--wa
--wai
--wan
--wardhana
--warman
--warno
--waru
--wati
--west
--wi
--wn
--wo
--x
--xa
--y
--ya
--yan
--yar
--yasa
--ye
--yi
--yo
--yono
--ys
--yu
--z
--za
--ze
--zi
