!
"
#
##0
##1
##10
##11
##12
##13
##14
##15
##16
##17
##18
##19
##2
##20
##21
##22
##23
##24
##25
##26
##27
##28
##29
##3
##30
##31
##32
##33
##34
##35
##36
##37
##38
##39
##4
##40
##41
##42
##43
##44
##45
##46
##47
##48
##49
##5
##50
##51
##52
##53
##54
##55
##56
##57
##58
##59
##6
##60
##61
##62
##63
##64
##65
##66
##67
##68
##69
##7
##70
##71
##72
##73
##74
##75
##76
##77
##78
##79
##8
##80
##81
##82
##83
##84
##85
##86
##87
##88
##89
##9
##90
##91
##92
##93
##94
##95
##96
##97
##98
##99
%
&
'
(
)
*
+
,
-
.
/
0
00
000
004
005
006
007
009
01
010
011
013
016
017
018
019
02
022
023
025
026
027
028
03
030
033
035
037
038
04
040
042
043
05
050
052
053
054
056
057
059
06
060
061
062
063
064
065
066
067
07
070
072
073
074
076
079
08
080
081
082
084
087
088
09
092
095
096
097
098
099
1
10
100
1000
101
102
103
104
105
106
107
108
109
11
110
111
112
113
114
115
116
117
118
119
12
120
121
122
123
124
125
126
127
128
129
13
130
131
132
133
134
135
136
137
138
14
140
141
142
143
144
145
146
147
148
149
15
150
151
1519
152
1520
153
1532
154
1540
1541
155
156
1561
157
1572
158
1586
159
1595
16
160
1600
1606
161
1611
1612
1613
1614
1615
1616
162
1620
1621
1622
1623
1624
1626
1627
1628
1629
163
1630
1632
1633
1634
1635
1636
1637
1638
1639
164
1640
1644
1645
1648
1649
165
1650
1655
1659
166
1660
1662
1664
167
1670
1672
1673
1674
1679
168
169
17
170
171
172
173
174
175
176
177
1774
1775
178
1780
1781
1782
1783
1787
1789
179
1790
1792
1795
1797
1799
18
180
1801
1802
1803
1804
1805
1806
1808
1809
181
1810
1811
1813
1814
1815
1816
1817
1818
1819
182
1820
1821
1822
1823
1824
1825
1826
1827
1828
1829
183
1830
1831
1832
1833
1834
1835
1836
1837
1838
1839
184
1840
1841
1842
1843
1844
1845
1846
1847
1848
1849
185
1850
1851
1852
1853
1854
1855
1856
1857
1858
1859
186
1860
1861
1862
1863
1864
1865
1866
1867
1868
1869
187
1870
1871
1872
1873
1874
1875
1876
1877
1878
1879
188
1880
1881
1882
1883
1884
1885
1886
1887
1888
1889
189
1890
1891
1892
1893
1894
1895
1896
1897
1898
1899
19
190
1900
1901
1902
1903
1904
1905
1906
1907
1908
1909
191
1910
1911
1912
1913
1914
1915
1916
1917
1918
1919
192
1920
1921
1922
1923
1924
1925
1926
1927
1928
1929
193
1930
1931
1932
1933
1934
1935
1936
1937
1938
1939
194
1940
1941
1942
1943
1944
1945
1946
1947
1948
1949
195
1950
1951
1952
1953
1954
1955
1956
1957
1958
1959
196
1960
1961
1962
1963
1964
1965
1966
1967
1968
1969
197
1970
1971
1972
1973
1974
1975
1976
1977
1978
1979
198
1980
1981
1982
1983
1984
1985
1986
1987
1988
1989
199
1990
1991
1992
1993
1994
1995
1996
1997
1998
1999
2
20
200
2000
2001
2002
2003
2004
2005
2006
2007
2008
2009
201
2010
2011
2012
2013
2014
2015
2016
2017
2018
2019
202
2020
2021
2022
203
204
205
206
207
208
209
21
210
211
212
213
214
215
216
217
218
219
22
220
221
222
223
224
225
226
227
228
229
23
230
231
232
233
234
235
236
237
238
239
24
240
241
242
243
244
245
246
247
248
249
25
250
251
252
253
254
255
256
257
259
26
260
261
262
264
265
266
267
268
269
27
270
272
274
275
276
277
278
28
280
281
282
283
284
286
287
288
289
29
290
291
292
293
294
295
296
297
298
299
3
30
300
301
302
303
304
305
306
307
308
309
31
310
311
312
313
315
316
317
318
319
32
320
321
323
324
325
326
328
329
33
330
331
332
333
334
335
336
337
338
339
34
340
341
342
345
346
347
349
35
350
351
352
353
355
356
357
358
359
36
360
362
363
364
365
366
367
369
37
370
371
372
373
374
376
377
378
379
38
380
382
384
385
387
39
390
391
392
394
395
396
397
399
4
40
400
401
402
403
404
405
406
407
409
41
410
411
412
414
415
416
417
418
419
42
420
421
423
425
426
427
428
43
430
431
432
433
434
436
438
439
44
440
441
443
444
445
446
447
448
449
45
450
451
452
455
456
458
459
46
460
461
462
463
464
465
466
467
47
470
471
472
473
475
477
479
48
480
482
484
485
489
49
490
492
494
495
498
499
5
50
500
502
504
505
508
509
51
511
512
513
515
517
518
52
520
521
522
523
524
525
526
527
528
529
53
532
535
537
539
54
540
542
543
544
545
546
547
548
55
550
551
552
556
557
558
559
56
560
566
567
568
57
570
571
572
573
574
575
576
578
579
58
580
581
582
584
585
588
589
59
590
591
592
593
594
596
597
598
6
60
600
602
606
608
609
61
611
612
613
614
615
617
619
62
620
621
622
623
625
628
629
63
630
631
633
634
635
636
637
64
640
641
642
643
644
645
646
647
648
65
650
651
652
655
657
66
660
662
663
664
666
667
669
67
670
671
672
673
674
675
676
677
679
68
680
681
682
686
687
69
690
691
692
693
696
697
698
699
7
70
700
702
704
705
707
708
71
712
713
717
718
72
721
723
724
725
729
73
730
731
732
734
736
737
738
739
74
742
743
745
746
748
749
75
750
752
757
758
759
76
760
762
764
766
768
77
770
771
773
774
777
78
780
781
783
785
786
787
789
79
791
792
795
796
797
798
8
80
800
801
803
804
805
806
807
808
809
81
810
811
813
814
815
82
820
822
823
825
826
828
829
83
830
836
838
84
842
843
845
846
847
848
85
850
851
852
853
854
855
858
859
86
860
861
862
868
87
870
871
874
875
876
879
88
880
882
883
884
886
888
89
890
892
894
896
897
899
9
90
900
901
902
903
904
905
906
907
908
91
910
911
912
913
914
916
918
919
92
920
922
923
924
925
928
93
930
931
937
938
939
94
940
942
945
946
947
948
95
950
951
956
959
96
963
965
966
968
97
971
972
973
974
975
976
978
979
98
980
983
984
987
988
99
993
994
995
996
9972
998
:
;
<
=
>
?
@
[
\
]
^
_
`
a
aacayipsin
ab
abad
abajo
abancay
abanto
abba
abboud
abc
abdel
abeja
abel
abelardo
abner
about
abraham
abrahan
abril
abu
abuela
abuelo
ac
aca
acade
academia
acantilado
acceso
accessdate
acchila
accio
accion
acerca
acero
acha
achacachi
achachi
achachilanak
achaku
achat
achaya
achi
achichi
achikan
achikt
acht
achu
achuma
achun
achunak
achunaka
achupaxa
achuqa
achuqalla
achuqallu
achuyirin
aco
acobamba
acosta
acqua
acre
across
acto
actor
actos
actriz
acts
actual
actualmente
acu
acuerdo
acun
ad
ada
adam
adams
adan
adela
adelante
adema
ademir
adenauer
adio
adjitivu
adolescente
adolfo
adoracio
adria
adventure
adventures
adımı
ae
aeropuerto
afe
afi
afirmacio
afonso
africa
after
afternoon
ag
again
agallpampa
agapito
agatha
age
agencia
agnes
agosto
agro
agrupacio
agu
agua
aguas
aguascalientes
aguayo
aguila
aguilar
aguirre
agurto
agusti
agustina
agustino
agustinos
ah
ahde
ahi
ahora
ahumada
aire
aires
ais
aise
ak
aka
akama
akampi
akampix
akan
akanaka
akanakawa
akanakax
akari
akasti
akat
akax
akaxa
akham
akhama
akhanakaxa
aki
akipt
akira
akirakiw
akiri
akiti
akiw
akiwa
akjam
akki
akni
aksa
aku
al
ala
alabama
alagoas
alain
alan
alarco
alas
alasin
alaska
alaxa
alaxpacha
alay
alayarux
alayo
alayza
alba
albarraci
albert
alberto
albino
albites
albornoz
albu
album
alca
alcala
alcalde
alcaldi
alcide
alcides
aldo
aldı
ale
alegre
alegri
alejandra
alejandro
alejo
aleksandr
alema
alemana
alemania
aleta
alex
alexander
alexandre
alfaguara
alfaro
alfonsina
alfonso
alfred
alfredo
algarrobal
algo
algu
alguien
algunas
algunos
ali
aliaga
alianza
alice
alicia
aliman
alina
alinakana
alipio
aliq
aliqa
aliqakiw
aliqat
aliri
aljan
aljapxi
alkimia
all
alla
allan
allende
allison
allpachu
allpi
allqa
allsun
alma
almanya
almas
almeida
alomi
alonso
alpaca
alpes
alpha
alrededor
als
alsace
also
alt
alta
altamirano
alternativa
alternativo
altiplano
alto
altu
altın
alva
alvarado
alvarez
alvaro
alves
alwan
always
alzamora
am
ama
amadeo
amadeus
amado
amador
amalia
aman
amanchan
amanda
amanecer
amantani
amantes
amapa
amar
amarilis
amarillo
amaru
amarujawira
amasuna
amasunu
amat
amauta
amaya
amazo
amazonas
amazonense
amazoni
amazonia
ambrosio
ame
amelia
america
american
americana
americanas
americano
amerika
ami
amigo
amigos
aminaqa
amor
amores
amotape
amp
ampar
ampara
amparampi
amparo
ampi
ampinaka
ampinakampi
ampis
ampisa
ampliada
amplio
ampu
ampuero
amsterdam
amta
amtachinu
amtawi
amtonio
amusco
amuykipt
amuyt
amuyu
amuyun
amuyunak
amy
an
ana
anak
anaka
anakap
anakaw
anakawa
anakax
anakithiri
anani
ananiya
anapia
anas
anat
anata
anatakaman
anatan
anatiri
ancash
anch
ancha
anchar
anchunqa
anco
and
andajes
andaluci
andalusiya
anderson
andes
andina
andino
andinos
andrade
andre
andrea
andreas
andrew
andris
andy
ange
angel
angela
angeles
angelo
angels
angui
angulo
anha
anhalt
ani
animal
anita
aniversario
aniwa
ankara
ankashu
ankawasi
ankha
ankiri
ann
anna
anne
annie
anno
ano
anqa
anqara
anqaru
anqasmarka
anqha
anqu
ans
ansa
ansas
anselmo
ant
anta
antabamba
antamarka
antan
antapampa
antaparqu
antarapa
antaray
antauta
antawa
antawaylla
antawayllaca
ante
antes
anthology
anthony
anti
antigua
antiguo
antiukiya
anto
antoine
antologi
anton
antonia
antonio
antun
antuniu
anu
anuladas
anunciacio
anx
anxa
ao
ap
apa
apan
apanipxi
apapxi
aparece
aparicio
apasa
apasin
apata
apatak
apataki
apatakiw
apatakix
apatakixa
apaw
apawa
apax
apaxa
apaza
ape
apep
aphrika
aphrikapi
apilla
apiri
apkama
aplaw
apnaqan
apnaqapxi
apo
apolo
aposto
apra
aprender
aprendizaje
april
aprista
apst
apsun
apt
apthapi
apthapin
apu
apunqu
apuntes
apure
apurimaq
apustul
apxa
apxan
apxaraki
apxi
apxiwa
aq
aqa
aqawa
aqcha
aqrakiya
aqu
aquel
aquella
aquellos
aqui
aquijes
aquiles
aquino
aquitaine
aqulla
aqumayu
aqupampa
aqupampilla
aqupiya
aqus
aqustampu
aquyra
aqway
ar
ara
arabia
arabiya
arabya
arago
araki
arakiwa
aramango
aramburu
aran
arana
aranda
arango
arankay
aranwa
arapa
aras
arauco
araujo
araxa
arbela
arca
arce
archibald
archive
archivo
archivos
arco
arde
ardenne
are
arena
arenal
arenas
arequipa
arequipen
argentina
argentino
arguedas
ari
arias
arica
ariel
ariola
ariqipa
aris
arista
arizona
arkansas
arkhi
arkı
arkıcı
arkıcıları
arkının
arkısı
arkısını
arma
armando
armas
armenia
arms
armstrong
arnaldo
arnulfo
aron
arqueolo
arrabal
arredondo
arriaga
arriba
arroyo
arst
arsun
arsuyan
art
arte
arteaga
artes
arthur
arti
article
artigas
artista
artistas
arturo
aru
aruchiri
aruma
arumita
arun
aruna
arunak
arunaka
arunx
arunxa
arupa
arupi
arusa
arusimin
aruskipan
aruskipt
arust
arusti
arut
aruta
aruw
aruwa
arux
aruxa
arxatiri
arxintina
arxintinaxa
arzobispo
arzuwispu
arı
as
asa
asamblea
asani
asankaru
asar
asaw
asawa
asax
ascencio
ascensio
ascensyon
ascensyun
asesinato
asi
asia
asillu
asimov
asin
asipxi
asiri
asiru
asis
asita
ask
aski
askipuniwa
askiw
askiwa
askpach
asnu
asociacio
aspecto
asqupi
assisi
astaire
astengo
astor
asturias
asu
asuncio
asunsyun
asunta
asya
asyapi
at
ata
atahualpa
atak
ataki
atakirakiwa
atakis
atakisa
atakiw
atakiwa
atakix
atakixa
atalaya
atan
atanak
ataraki
atarakiwa
atat
atavillos
ataw
atawa
atawallpa
atawra
ataxa
atc
ate
ateneo
athina
ati
atinin
atipt
atiquipa
atla
atlas
atra
attlee
atu
au
audio
august
augusta
auguste
augusto
aumentada
aunque
aurelia
aurelio
aurora
aus
austen
austral
australia
australla
austria
austriya
aute
auto
autobiogra
autobiografi
autogobierno
autor
autores
autoridad
autoridades
autorretrato
auvergne
ava
avelino
avellaneda
aventura
aventuras
aves
avila
avile
aw
awa
awankay
award
awatin
away
awaycha
awayu
awi
awichanakax
awikaruy
awinaka
awinpukyu
awisanakaxa
awix
awk
awki
awkikura
awn
awna
awnapax
awnapaxa
awnapxi
awni
awpaq
awqayaku
awrani
awrawa
awti
awya
ax
axa
axari
axwan
ay
aya
ayacucho
ayala
ayan
ayapata
ayapxi
ayaquchu
ayata
ayawaka
ayawi
ayawiri
aycha
aychapaxa
ayer
ayha
ayi
ayllo
ayllu
ayllun
aylluna
ayllux
aymar
aymara
aymaran
aymarat
aymarax
ayn
ayna
aynach
aynacha
aynacharusti
aynacht
ayni
aynı
ayo
ayquipa
ayri
ayriwanka
ayu
ayuda
ayui
ayuntamiento
ayuque
az
aza
azar
azeri
aznavour
azul
azur
azurduy
azzolu
azzurro
azərbaycan
b
ba
babilonia
baby
babylon
baca
bacalla
bach
back
bacon
bacteria
bacterias
bactrocera
bad
baden
bagua
bahia
baile
bailes
baja
bajo
bal
balance
baldeo
baldi
baldivieso
baldomero
baldwin
ball
ballivia
ballo
balsa
balsas
balta
baltasar
ban
banco
band
banda
bandaranaike
bandera
bangkok
baptiste
bar
barbara
barbuda
barca
barcelona
barco
bardales
bari
barinas
barnes
barquisimeto
barral
barranca
barranco
barranquilla
barranquita
barreda
barrenechea
barrera
barreto
barretto
barrientos
barrio
barrios
barro
barroco
barry
bartolo
bartolome
bartulumi
bas
basada
basado
basadre
base
based
basho
basilio
basshunter
bastidas
batalla
batres
battista
battle
bautista
bawtista
bay
bayern
baza
be
bear
beatles
beatrice
beatriz
beauvoir
becerra
beck
beckenbauer
bedoya
beethoven
begazo
behind
bejarano
bela
belau
bele
belgrado
bell
bella
bellas
bellavista
belle
belleza
bellido
bello
belo
beltra
belushi
belzu
ben
benavente
benavides
bence
bendezu
benedetti
benedetto
benedicto
beni
benicio
benigno
benites
benito
benjami
benjamin
ber
berau
bergman
berli
berlin
bermu
bernabe
bernal
bernard
bernardino
bernardo
berrospi
berta
bertonio
bertrand
beso
best
betancourt
betty
bezzi
bhutto
bi
biavo
biblia
bibliogra
bibliografi
biblioteca
bicentenario
bien
big
bigote
bilbao
bilingu
bill
billinghurst
billy
bin
bing
binidiktu
binitu
bio
biobi
biogra
biografi
biografia
biography
biolib
bir
birc
bird
bis
bita
black
blades
blanca
blanco
blas
blasco
bleu
blica
blico
blog
blogspot
blood
bloque
blu
blue
blues
blume
bo
bob
bobby
boca
bocanegra
bocas
body
bogart
bogota
bohr
bolan
bolero
boli
bolivar
bolivia
boliviano
bolivianos
bologna
bolognesi
bolonia
bombo
bompiani
bondy
bongara
bonilla
bonita
bonn
book
books
boom
bordeaux
bordo
borg
borges
boris
borja
bosco
bosna
bosnia
bosque
boston
bourgogne
bowen
boy
boys
br
bra
brahms
brandenburg
brando
brasil
brasilia
braulio
bravo
brea
brecht
bremen
bren
bretagne
breve
brezhnev
brian
bricen
bright
brita
britan
broadway
broncano
bronce
bros
brother
brown
bru
bruce
bruno
bs
bu
budapest
buddleja
buen
buena
buenaventura
buendi
bueno
buenos
buffalo
bufo
bujanda
bula
bulas
buldibuyo
bullo
bunge
burgos
burgus
burinkin
burton
burundi
busca
buscando
bush
business
busn
busquets
bustamante
butler
butros
by
bybys
byron
c
ca
caballe
caballero
caballeros
caballo
caballos
caban
cabana
cabanillas
cabaut
cabello
cabeza
cabezas
cabral
cabrejos
cabrera
cachicada
cacique
cada
cadena
caetano
cafe
cafrune
cagney
cahuana
cai
caja
cajahuaringa
cajamarca
cajas
calais
caldera
caldero
cali
california
calixto
calizaya
calla
callaghan
callamarca
callao
callas
callayuc
calle
calles
callupe
calor
calpe
calvo
calzada
camacho
camarena
camargo
cambio
cambios
cambridge
came
cameo
camille
camilo
caminando
camino
caminos
campan
campanilla
campeche
campesina
campesino
campesinos
campo
camporredondo
campos
campoverde
camus
can
canada
canal
canales
cancio
canciones
candamo
cani
cano
canoas
canseco
canta
cantando
cantar
cantinflas
canto
cantor
cantos
capilla
capita
capital
capote
car
cara
carabayllo
caracas
caras
caravaggio
carbajal
carbo
carbonera
cardenal
cargo
carhuapoma
caridad
carin
carita
carl
carlo
carlos
carlota
carmen
carnaval
carne
caro
carol
carolina
carpenter
carpentier
carpio
carranza
carrasco
carren
carrera
carreras
carrillo
carrio
carrizo
carta
cartas
cartel
carter
cartier
carumas
caruso
carvajal
carvalho
casa
casablanca
casado
casanova
casas
casaverde
case
casi
casimiro
caso
castan
castellano
castigo
castilla
castillo
castro
castrovirreyna
cat
cata
catacaos
catacora
catala
catalan
catalina
catamarka
catania
catarina
catedral
categori
category
caterina
catherine
catholic
cato
cattone
caudal
caudaloso
causa
cavero
cayetano
cayllahua
cayo
caza
cd
ce
ceara
cecilia
cecilio
cefet
celendi
celendin
celeste
celestino
celia
celos
celso
cementerio
cena
ceniza
centenario
center
central
centre
centro
centurio
century
cep
cerco
cerda
ceres
cerna
cerro
cervantes
cesar
ch
cha
chabuca
chacha
chachanakax
chachapuyas
chachas
chachaw
chaclacayo
chaco
chadi
chairo
chajtadu
chakapampa
chakas
chakaya
chakrapampa
chala
chalaco
chalamarka
chalan
chalco
challapampa
challas
challwa
challwana
challwanakaxa
challwanka
challwawachu
challwaxa
chalpun
chamaqa
chamberlain
chamorro
champagnat
champagne
champhayna
chan
chana
chanchamayu
changuillo
chanincha
chankay
chankayban
chapi
chaplin
chaqlla
chaqn
chaquchi
chara
characato
charakiwa
charasani
charat
charles
charlie
charlotte
charlton
charqui
charro
chaskirqan
chat
chauca
chavi
chaw
chawin
chawinillu
chawlan
chawpi
chawpimarka
chay
chayanta
chayru
che
checa
chen
chepe
cheto
chexya
cheyenne
chhichhillanka
chhijchhi
chhijchhis
chhiqani
chhiqhanakaxa
chhiy
chhullunkhaya
chhurun
chi
chiang
chiapas
chiappe
chiara
chicago
chichas
chichu
chiclayo
chico
chihuahua
chika
chikama
chikan
chikat
chikchi
chiklayu
chikt
chikyan
chilca
children
chile
chili
chiliqui
chiliti
chillka
chillun
chilquillo
chim
chimban
chimbote
chimpu
chimputi
chimpuwa
chimu
china
chincha
chinchaw
chinchay
chinchaypukyu
chinchiru
chinchiwasi
chinchu
ching
chino
chinu
chipana
chipin
chiqa
chiqan
chiqapa
chiqllan
chiqra
chiqt
chirac
chirimoto
chirinos
chiriwata
chiroque
chisquilla
chitilla
chiyara
chocano
chongos
chopin
choque
chorrillos
chosica
chota
christi
christian
christie
christina
christmas
christopher
chroicocephalus
chrome
cht
chu
chuca
chuchi
chucho
chugay
chugur
chuka
chukatamani
chukis
chukiyaw
chukiyawu
chuku
chukuwitu
chulli
chulukanas
chulumani
chulun
chumbe
chumpi
chumpitaz
chumpiwillka
chumuch
chunan
chunga
chuntali
chuntapampa
chupa
chupaka
chupamarka
chupan
chupika
chuqi
chuqipampa
chuqipampilla
chuqiwanka
chuqiyapu
chuqlluqucha
chuqu
chuqupi
chuqurwus
chura
churan
churas
churchill
churi
churinkuna
churkampa
churuja
churupampa
churus
chuta
chuym
chuyma
chuyman
chuymani
ci
ciclo
cido
cidob
cie
cielo
cien
ciencia
cienciajj
ciencias
cieneguilla
cienti
cientifico
cientificonakajj
cil
cinco
cine
cinq
cio
cipriano
circo
ciriaco
cirilo
ciro
cisneros
cita
cite
city
ciudad
ciudadano
ciudades
civil
cken
cl
cla
clamor
clara
clari
clark
claude
claudio
clave
cle
clement
clemente
cleto
cleveland
cli
clinton
clorinda
closer
club
cm
co
coahuila
coaquira
cochabamba
cochamal
cocharcas
cocle
codesido
codo
coello
coffee
cohana
cohen
coimbra
coipa
col
cola
colaboracio
colcamar
cole
coleccio
colectivo
colegio
colima
colina
collazos
collection
college
colo
colombia
colombo
colonia
colonial
color
colorado
colores
columbia
columbus
columna
com
comadreja
comandante
comas
come
comedia
comedias
comercio
comes
comiendo
comite
commercio
commons
como
compan
company
comparada
compilacio
completa
completas
complete
completo
completos
compostela
compuesto
comte
comu
comunal
comunicacio
comunidad
comunidades
con
concepcio
concert
concertacio
concha
concierto
concordia
concurso
conde
condepa
condesa
condesuyos
condicio
condori
conducta
conejo
conferencia
conferencias
confesiones
confianza
congo
congreso
conislla
conjugacio
conjunto
conmigo
connecticut
connery
conocimiento
conquista
conredes
consagrado
consejo
constantino
constitucio
construccio
constructora
construyendo
consuelo
consultado
contempora
contiene
contigo
continent
continente
contos
contra
contralmirante
contreras
control
convencio
convergencia
cook
cooper
copa
copacabana
copallin
copernico
cora
coral
corazo
corbacho
cordero
cordillera
cornejo
cornelio
coro
coronacio
coronado
coronel
corosha
corot
corpus
corrales
correa
corregida
correo
correspondencia
corrientes
corse
corswarem
corta
corte
cortez
corto
cortometraje
cosas
cosme
costa
costilla
country
county
court
crack
crates
crd
creacio
creo
crespo
cri
criac
crime
crimen
criolla
criollo
criollos
crisis
criso
crispi
cristal
cristiana
cristiano
cristina
cristo
cristoforo
cristubal
cro
cronologi
crosby
cross
cruces
crucificado
cruel
cruijff
crus
crusnaka
cruz
cruzado
cssr
ctica
ctico
ctor
cu
cua
cuaderno
cuadernos
cuadra
cuadros
cual
cualquier
cuando
cuarta
cuarto
cuatro
cuba
cubana
cubano
cubas
cuchumbaya
cue
cuenca
cuenta
cuento
cuentos
cuernavaca
cuerpo
cuesta
cuestio
cueto
cueva
cuispes
cujillo
cula
culas
culo
culos
culqui
cultura
cultural
culturales
cumbaza
cumbia
cumple
cun
cup
cupos
cura
curbstone
curgos
curi
curie
curitiba
curso
curtiz
cusano
cusco
cusi
custodio
cutervo
cutipa
cuy
cuya
cuzco
cvc
cypress
d
da
daddy
dado
daguas
dakota
dali
dallas
dalmasya
dama
damas
damia
damian
dammert
dan
daniel
dans
dante
danza
danıs
dar
dari
darie
dark
darwin
das
database
date
datem
datos
daughter
david
davis
day
days
daza
dc
de
dead
deakin
dean
death
deberi
debussy
decano
decir
dedicada
dedicado
defectivos
defensa
degas
dei
del
delaware
delerue
delfim
delfina
delgado
delhi
dell
della
delon
dem
demetrio
democra
democracia
democratico
demonio
den
denegri
deng
denis
dentro
deo
departamento
deportes
deportivo
der
deray
derecho
derechos
derrotero
des
desarrollo
descentralista
descripcio
desde
deseo
desert
desierto
desnuda
desnudo
despertar
despue
destino
deutschland
deux
devil
dez
dhabi
di
dia
diablo
dialectal
diana
diario
diarios
dias
diaz
diccionario
diciembre
diciendo
dickens
dico
dictionary
didi
die
diego
dies
dietrich
diez
diferente
digital
digo
dilthey
dimas
din
dina
dinamarka
dinger
dio
dionicio
dionisio
dios
diosan
dioses
diptera
dipterorum
dirac
direccio
directo
director
direito
dirigida
disco
discriminacio
discurso
discursos
distrital
distrito
dita
ditas
dith
dito
ditos
diversos
divina
divino
dix
diz
dj
djalma
djuna
do
doble
doce
doctor
documental
documentos
dog
dolo
dolor
dolores
dom
domanovic
dome
domenico
domi
domingo
domingu
dominicana
dominique
don
donato
donayre
donde
door
dora
dorado
doria
doris
dormir
dorothea
dorothy
dos
douard
douglas
down
downs
dr
drago
dragon
drama
dream
dreams
dresden
drew
drucker
du
dua
duarte
dublin
duck
duelo
duen
dulce
dumas
duminikana
duncan
duque
dura
durand
durango
durante
durch
dvd
dyo
e
eagle
earl
early
earth
east
easy
ec
echenique
echevarri
eco
econo
economic
ecuador
ed
eda
edad
ede
eden
edgar
edgard
edgardo
edic
edicio
edicion
ediciones
edicions
edigsa
edilberto
edison
edit
editada
editado
edith
edition
editor
editora
editores
editorial
edmundo
eds
edson
edu
eduard
eduardo
educa
educac
educacio
edward
edwin
ee
efrai
egipto
egu
eguiguren
eguren
eib
eielson
ein
eine
einer
einstein
eiro
eje
ejecutivo
ejemplo
ejemplos
ekka
el
eladio
elba
eleazar
elecciones
electoral
elegi
elena
elera
eleuterio
eli
elias
eliminacio
eliot
elisa
elisabeth
eliseo
elizabeth
ella
ellas
ellen
elliott
ello
ellos
elmer
elogio
eloi
eloy
elsa
elvira
elvis
em
emancipacio
emi
emilia
emiliano
emilio
emma
empresa
en
enamorado
enciclopedia
encinas
encuentra
encuentro
encyclopedia
end
enemigo
energi
enero
enfermedad
engels
english
enlace
enlaces
enlai
enri
enrico
enrique
enriqueta
enriquez
ensayo
ensayos
ensen
entonces
entre
entreme
entrevista
enz
enzo
ep
epi
epifanio
episodio
epita
epopeya
er
era
erasmo
ercilla
eres
erfurt
eric
erik
erkek
ernest
ernesto
ero
errante
error
erwin
es
esa
escalante
escalerillas
escena
escenas
esclavitud
escobar
escocia
escolar
escondido
escribio
escribir
escrita
escrito
escritor
escritoras
escritores
escritos
escudero
escudo
escuela
ese
esfuerzo
eslabo
esolutions
espacio
espada
espan
espasa
especial
especialmente
espejo
espera
esperanto
esperanza
espi
espino
espinoza
espiritual
esplendor
esposa
esquina
esquivel
essays
est
esta
estadi
estado
estados
estadounidense
estampas
estas
este
esteban
estela
estero
esther
esto
estos
estoy
estrada
estrella
estrellas
estrenada
estrenado
estrofa
estruendo
estuardo
estudio
estudios
et
etc
etcheverry
ete
eterno
ethel
eugenio
eulalia
eulogio
europa
europe
europea
eusebio
eva
evans
evaristo
evenhuis
evil
evo
evolucio
ex
exaltacio
exaltaciun
excl
executive
exilio
existencia
existencialismo
experanza
experimentacio
exposicio
express
expulsio
exteriores
extran
eye
ez
f
fa
fabia
fabio
fabricante
face
facebook
facultativo
faique
fajardo
falco
familia
familiar
family
fangio
fania
fanning
fano
fantasma
fantasmas
farfa
fari
farin
farsa
fatima
faulkner
faustino
fausto
favor
fc
fe
febrero
fecha
federacio
federal
federer
federico
feira
felice
feliciano
felipe
felix
feliz
femme
femmes
fer
ferdinand
ferenc
fermi
fermin
ferna
fernando
ferreira
ferren
ferrer
festival
fi
fica
ficas
ficcio
ficha
fico
ficos
fidel
fierro
fiesta
fifa
figueroa
figura
figuras
filin
filipi
fille
film
filmada
filo
filoso
filosofi
fin
final
finger
finland
fire
firenze
firma
firme
first
fisika
fito
fitzcarrald
fitzgerald
five
fk
flappers
flavio
flic
flo
flor
flora
florence
florencia
florencio
florentino
flores
floriano
florida
flowers
flynn
fntc
fo
folklore
folleto
fondo
fonseca
fontaine
football
for
force
ford
forma
formacio
formas
formato
formosa
fort
fortaleza
fortuna
fortunato
fotografi
fotos
four
fox
fr
fragmento
fragmentos
franc
franca
france
frances
francesa
francesca
francesco
franche
francia
francis
francisca
francisco
franciscu
francisku
franco
frank
franklin
fransa
franz
frases
fray
fre
fred
freddie
freddy
fredemo
frederick
fredy
free
french
frente
frepap
freud
freyre
fri
frias
frica
frida
friedrich
fritz
from
frondizi
frontera
fructuoso
fruto
fsln
fu
fue
fuego
fuente
fuentes
fuera
fuerte
fuerza
fuerzas
fujimori
fulgencio
full
fumagalli
fumec
fundacio
fundamentos
futuro
g
ga
gaba
gable
gabriel
gabriela
gaetano
gal
gala
galarreta
galaxia
galbusera
galdo
galeano
galeri
galilei
galileo
galindo
gallegos
gallery
gallina
gallo
galva
gamarra
gambini
gamboa
ganadora
gandhi
garay
garci
garcia
garcilaso
gardel
gardner
garibaldi
garland
garrido
garrincha
gary
gas
gasa
gaspar
gasparri
gasperi
gasset
gasto
gato
gauguin
gaulle
gavila
gaviota
ge
gemma
gena
genaro
genas
gene
general
genes
genova
gente
geoffrey
geografi
georg
george
georges
georgia
ger
gerais
gerald
gerardo
gerhard
germa
gero
gertrudis
gesi
get
ghana
giacomo
gica
gico
gicos
gil
gilbert
gilberto
giles
gilmer
gime
gina
ginas
giorgio
giovanna
giovanni
girl
girls
giuseppe
gladys
glasgow
globo
gloria
glory
go
gob
gobierno
god
godfather
godofredo
godoy
goes
goethe
goia
gold
golda
golden
golfo
golpe
gonza
gonzales
gonzalo
good
google
gora
gordon
gorki
gorriti
gov
goya
gra
grabado
grabados
grabar
grace
gracia
graciano
gracias
graciela
grado
grafo
graham
grama
gramatical
gramsci
gran
granada
granados
grand
granda
grande
grandes
grandez
grass
grau
great
grecia
greco
gredos
greek
green
greene
gregorio
gregory
greta
griego
griguryu
grimaldo
grimas
gris
grisya
grito
grocio
grosso
group
grover
grupo
gu
guadalupe
guadalupito
gualamita
gualberto
guanajuato
guarany
guardia
guatemala
guayaquil
guayasami
guerra
guerrero
guevara
guez
guglielmo
gui
guide
guido
guila
guille
guillermo
guillot
guio
guitarra
gumercindo
gun
gustav
gustavo
gutarra
gutenberg
gutie
gutierrez
guyane
guz
guzma
gyo
h
ha
hab
habana
haber
habla
habri
hace
hacer
hacha
hachcha
hachchayaya
hacia
hado
hakas
hakira
haley
hall
hallka
hambre
hamburg
hamlet
hampshire
han
hanan
hancco
hancock
hand
hannah
hannover
hans
hansberry
harawi
harding
hardy
harold
harriet
harris
harrison
harry
harvard
has
hasta
hatun
hatunqulla
haute
have
hawaii
hawks
hay
haya
haydn
he
heart
heaven
hecho
hechos
hedges
heeren
heinrich
heinz
heisenberg
helado
helen
helena
heli
hell
help
hemingway
hendrik
henri
henriette
henry
hepburn
her
hera
heras
heraud
herbert
hercule
here
heredia
herencia
heriberto
herman
hermana
hermann
hermano
hermanos
hermenegildo
hermes
hermilio
herminia
herminio
hermo
hermosa
hermosillo
herna
hernando
heroes
heroi
herrera
hertz
herzegovina
hessen
hi
hiascara
hidalgo
hielo
hierarchy
hierro
high
hija
hijo
hijos
hilario
hildebrando
hildebrandt
hill
hilton
himno
hinostroza
hipo
hirkan
his
hispa
histo
historia
historias
history
hisus
hitchcock
hitler
hizo
ho
hoffman
hogar
hohberg
hoja
hojas
holgui
hollywood
holmes
holstein
hombre
hombres
home
homenaje
homme
homo
hong
honolulu
honor
honorato
honores
honoria
honoris
hora
horacio
horas
horizonte
horizontes
horna
horrible
horse
hospital
hot
hotel
hour
house
houston
how
howard
hoy
hoyos
htm
html
http
https
hu
hua
huaca
huakachina
huallpa
huama
huamani
huan
huanca
huancane
huancavelica
huancayo
huang
huanta
huarancca
huaraz
huarcaya
huari
huarochiri
huatl
huayca
huayta
huch
huchusuma
huerta
huertas
huerto
hughes
hugo
huillca
huillka
huk
hulkan
hullaqa
humala
human
humana
humanista
humano
humanos
humareda
humay
humberto
humboldt
humphrey
hun
hungri
hunin
hunkariya
hunt
hunter
hurtado
husiy
huston
huwan
i
ia
iba
iban
ibdb
ibe
iberoamericana
ibrahim
ic
ica
icaic
icaza
ice
ich
icha
icharati
ichhupampa
ichit
icht
ichukan
ichun
id
ida
idaho
idea
ideas
idelfonso
ideologi
idioma
idiomas
iga
iglesia
iglesias
ignacio
ii
iii
ik
ika
ikin
ikunumista
ikwadur
il
ilawaya
ildefonso
ile
ili
ilik
ilk
illa
illawi
illimani
illinois
illkaymarka
illu
ilo
ilu
ilustraciones
ilustrada
ilustrado
ilustre
im
ima
imagen
images
iman
imdb
imilla
immanuel
imp
imperfecto
imperial
imperio
impersonales
impi
impr
imprenta
impresiones
impreso
imre
in
ina
inacabada
inak
inakax
inampari
inc
inca
inchupalla
incla
incluida
incluye
inconclusa
independencia
independiente
indi
india
indiana
indians
indias
indicativo
indio
indipindinsya
indira
indunisya
industrial
indya
ine
inei
infancia
infanta
infante
infantil
infantiles
infeccio
infierno
info
infogob
infopesa
informa
informacio
information
informe
inga
ingenio
inglaterra
ingle
inglesa
inglish
ingres
inguilpata
inhin
inka
inkawasi
inkha
inlatirra
inlis
inlish
inlisya
inmaculada
inmakulada
inmortal
innovacio
inocencio
inofuente
insecta
insiklikanaka
instituciones
institute
instituto
instruccio
intawi
intawiri
integracio
integracionista
integrando
intercultural
internacional
international
internet
interpreta
interpretacio
interpretado
inti
intocables
intransitivos
introduccio
introducing
inventario
investigacio
invierno
invisible
iosif
iowa
ipa
iparraguirre
ipata
iprage
iq
iqa
iqi
iqin
iqinchiri
iqipax
iqipaxa
iqiptu
iqitus
iqt
iquen
iquique
iquitos
iqut
ir
ira
iran
iray
ircash
irene
iri
irinakax
iris
iriwa
irlandiya
irma
irnaqan
irpiri
irpirin
irpirinakax
iru
is
isaac
isabel
isabella
isai
isaqanakasti
isbn
isch
ise
isi
isidoro
isidro
isidru
isinaka
isk
iskasin
iskuchaka
iskultur
iskus
iskusiya
isla
island
islandiya
islas
islay
isluwaqiya
isluwin
ismael
iso
ispan
ispin
ispirantu
israel
israyil
ist
istadu
istadus
istiki
istun
it
ita
italaki
italia
italiano
italiya
italiyaxa
italya
iti
itipi
itli
iturralde
ituwata
iu
iv
iva
ivo
iw
iwa
iwi
iwij
iwija
iwijanakaxa
iwis
iwrupa
iwrupana
iwrupapi
ix
ixa
ixi
ixinakaniwa
iya
iyan
iyar
iyara
iz
izq
izquierda
izquierdo
j
ja
jach
jacha
jacinto
jacintu
jack
jackson
jacob
jacobo
jacques
jae
jaguar
jaime
jaimes
jak
jaka
jakan
jakasipxi
jakasir
jakasirinakax
jakawipaxa
jakhu
jaki
jakir
jakiri
jakirinaka
jalantarusti
jalca
jaliri
jalisco
jaljata
jaljatawa
jall
jallu
jallupacha
jallus
jalsu
jam
jama
jamach
jaman
james
jamp
jan
janchi
janchina
janchipaxa
janchixa
jane
janeiro
janet
jani
janipuniw
janirakiw
janirakiwa
janirkuch
janis
janit
janiw
janiwa
jank
janq
jant
january
jap
japone
jaq
jaqe
jaqejj
jaqi
jaqichasin
jaqin
jaqina
jaqinak
jaqinaka
jaqinakan
jaqinakana
jaqinakaru
jaqinakaw
jaqinakawa
jaqinakax
jaqinakaxa
jaqiq
jaqir
jaqiru
jaqiw
jaqix
jaqixa
jaqukipan
jar
jara
jaramillo
jarani
jarawi
jardi
jardines
jariyan
jark
jaro
jarpa
jasa
jasak
jasaki
jasax
jasi
jasiraki
jatha
jauja
javier
jawaharlal
jawasa
jawir
jawira
jawiranaka
jawirawa
jawirax
jawq
jawsan
jaya
jayanak
jayanca
jaylliphust
jayllt
jayp
jayriyan
jayu
jazz
je
jean
jeanne
jeberos
jefe
jefferson
jehova
jenaro
jepelacio
jero
jersey
jerusale
jesse
jesu
jesucristo
jesus
jhenny
ji
jiang
jichha
jichhax
jichhu
jichhurunakkamasa
jik
jikhani
jikxatasi
jil
jila
jilat
jilata
jilguero
jili
jilili
jilir
jiliri
jilpacha
jilpachapinix
jilpachax
jilt
jim
jime
jimeno
jimmy
jinchu
jinchupaxa
jiri
jisa
jisk
jiskt
jisnawa
jist
jiwa
jiwan
jiwasa
jiwasan
jiwasax
jiwat
jiwata
jiwra
jne
jo
joa
joan
joaqui
job
joel
johan
johann
johannes
john
johnny
johnson
joinville
jonathan
jonava
jones
joplin
jorda
jorge
jornada
jornal
jose
josefa
josefina
joselito
josep
joseph
josephine
josue
journal
journey
joven
joya
joyce
jpg
jr
jrushchov
ju
jua
juajui
juan
juana
juaneco
juanjui
juarez
juch
judet
judith
juego
juegos
jujuy
juk
juka
juku
jukumari
julca
jules
juli
julia
julian
julio
jumbilla
jungle
juni
junin
junio
junt
junta
junto
juntos
jupa
jupan
jupanakan
jupanakar
jupanakaw
jupanakax
jupanakaxa
jupaw
jupax
jupha
juq
juri
jurma
jusiy
jusiya
just
justicia
justin
justiniano
justino
justo
jutan
jutapxi
juti
jutir
jutiri
juvenal
juventud
juyphi
juypi
juyra
k
ka
kachi
kachimayu
kachura
kafka
kahlo
kai
kallachi
kallao
kallawaya
kallkis
kallpa
kam
kamachi
kamalich
kamana
kamanana
kamasqa
kamaw
kamayuq
kamilaqa
kan
kanada
kanchapampa
kanchaqi
kanchayllu
kandilarya
kanka
kankallu
kankan
kansas
kant
kanta
kantarawi
kapachika
kapchiy
kapillas
kaplina
karl
karmin
karnawalnaka
kartulsuyu
kaskas
kasma
kast
kasta
kastill
kastilla
kastillanu
katari
kate
kategori
kathuliku
katjan
katt
katun
katuqan
kawalluqucha
kawkintixa
kawri
kawsay
kay
kaya
kaykay
kaylluma
kaynag
kayran
kayu
kayunakapax
kayunakapaxa
ke
kec
kennedy
kentucky
kerte
keynes
kha
khallka
khaya
khaysa
khillaypampa
khirkhi
khiti
khitis
khiwin
khuchhi
khuchun
khullunakaxa
khunu
khuyapayiri
ki
kichwa
kid
kiel
kikacha
kikihana
kikipa
kilawani
kill
killapi
kim
kimika
kimsa
kimsaqalq
king
kipkakiwa
kirakiw
kirawara
kirche
kirchner
kis
kiskachay
kiss
kisu
kisus
kiswar
kiswara
kiti
kitu
kiw
kiyaqa
kiyorxiya
klasisismu
klip
km
knight
knopf
know
known
ko
koch
kocsis
kohl
kong
konrad
kral
kraus
kristu
kristuwal
kro
krus
krusiru
krusnaka
kruwatiya
kruznaka
ku
kuba
kubitschek
kucharkas
kuka
kukachakra
kulasay
kulka
kullaka
kullakanakax
kuluwya
kumbinsyun
kumunista
kun
kuna
kunalaykutix
kunanakati
kunapachati
kunapachatix
kunapachatixa
kunas
kunasa
kunati
kunatix
kunatixa
kunats
kunatti
kunaw
kunawsatix
kunayman
kunaymana
kunjamasa
kunjamati
kunjamatix
kunjams
kunjamsa
kunka
kuns
kunsa
kunsipsyun
kunsthistorisches
kuntamana
kunti
kuntininti
kuntisuyus
kuntur
kunturkanki
kupa
kupi
kupisniki
kuraka
kurasku
kurimana
kurosawa
kurt
kurunku
kusa
kusikancha
kusikusi
kusipata
kustarika
kut
kutawasi
kuti
kutiw
kutt
kuwait
kuysmanku
kuyu
l
la
laberinto
labor
labruna
lachaqui
lado
ladro
lady
laga
lago
lagos
lagunas
laime
lajas
laka
lake
lalaquiz
lama
lamar
lamara
lamarque
lamas
lamay
lambayeque
lampa
lampalliqi
lamrama
lamud
lancones
land
landa
lang
langston
language
langue
lanka
lankhu
lanki
lanzarote
lao
lap
laphi
laq
laqampu
lara
laram
larama
laramarka
laraw
larco
laredo
largo
lari
larriva
larus
larya
las
laso
last
lastenia
lat
lati
latin
latina
latino
latinoamericano
latinu
laura
laureano
laurel
lavado
lavalle
lavalleja
lavoe
law
lawa
lawrence
lawriqucha
layal
layu
lazo
lbum
lcar
lchez
le
leal
leandro
lecciones
lech
lectores
lectura
led
lee
legal
legend
legio
legua
legui
leiden
leipzig
leiva
lemus
lengua
lenguaje
lenguas
lenin
lennon
leo
leonardo
leoncio
leoni
leonid
leonidas
leonor
leopoldo
lerdo
les
leslie
let
leticia
letra
letras
letters
lettres
leucocitos
leucophaeus
levanto
leveau
lexus
ley
leyenda
leyendas
leyva
lez
li
lia
liang
liberacio
libertad
libertador
libertadur
libido
library
libre
libreri
libres
libro
libros
libya
lic
lica
licas
lico
licupis
lida
lidia
lie
lienzo
life
light
lik
like
lila
liliana
lille
lillian
lima
limen
limpani
limpias
lin
linares
lince
lincoln
linda
lindley
line
ling
lingu
lingua
lino
linus
lio
lion
lip
liq
liqi
liquidacio
lirqay
lisboa
lisieux
lisis
lisso
list
lista
listesi
liszt
lite
literaria
literarias
literario
literarios
literatura
lito
litoral
little
lituan
lituani
lituaniya
litun
liu
live
liverpool
lives
liwitaka
liwru
lix
liyun
liz
liza
lizardo
lizarzaburu
ll
lla
llallagua
llalli
llama
llamado
llamados
llamayu
llamillin
llamo
llamp
llanto
llapa
llapan
llapanchik
llaqanura
llaqta
llaqtam
llaqtapi
llar
llata
llatunka
llaylla
llego
ller
lleras
llerena
lleri
llicuar
llika
llimphiri
llimphiy
llimphiyri
llipa
llipata
llona
llora
llorar
llosa
lluch
llumpaqa
lluq
lluqllapampa
lluqu
llusk
lluta
lluvia
lo
loa
loaiza
loayza
lobitos
lobo
loca
local
location
loco
locos
locura
logo
logos
loire
loja
lola
lollobrigida
lomas
london
londres
long
longar
longotea
longuita
lonya
loo
looz
lope
lopecancha
lopes
lopez
lorca
lord
loren
lorentz
lorenzo
lores
loretana
loreto
loretona
lorraine
los
losada
lost
louis
louisa
louise
louisiana
lourdes
louvre
love
loyola
loza
lozano
ltima
ltimas
ltimo
ltimos
lu
luca
lucanas
lucas
luces
lucha
luchemos
luci
luciano
lucila
lucio
lucma
lucy
luden
ludovico
ludwig
luego
lugar
lugosi
lui
luigi
luis
luisa
luja
luk
lukana
lukma
lukri
lukruqa
lukumpa
lumas
lumen
luna
lune
lup
lupe
luqmapampa
luque
lura
luran
lurapxi
lurasi
lurat
lurata
luratapax
luratawa
lurawinakax
lurayiri
luri
lurigancho
lurin
lurinzu
luriri
luritu
lurt
lusinchi
lusiya
luther
luxemburg
luximbur
luya
luyantu
luz
luzmila
luzuriaga
lvarez
lvaro
lvez
lvora
ly
lynch
lyon
lyun
m
ma
mac
macdonald
macedo
mach
machado
machaq
machaqa
machel
machu
machuca
maci
macmillan
mad
madame
madeleine
madison
madonna
madre
madrid
madrigal
maestra
maestro
maestros
magallanes
magda
magdalena
magic
magno
mago
magos
maguin
mahatma
mai
main
maine
maino
mainz
major
makidun
makis
makusani
mal
mala
maldonado
malku
mallku
mallkux
mallorca
mallq
malo
malpartida
malta
mama
mamajax
maman
mamani
mamara
mambo
mamuraya
man
mana
management
managing
managua
manantial
manas
manawa
mancha
manchego
manchester
manco
mandela
manera
manku
mann
mano
manolito
manolo
manos
manq
manqha
manqhan
manqhana
manqhanakan
manrique
manso
manta
mantan
mantari
mantaru
manti
mantilla
manual
manuel
manuela
manuelcha
mao
map
mapa
maqa
maqari
maqhis
maqui
mar
mara
maradona
marakay
marakaywu
maran
marana
maranakan
maranakanx
maranakax
maranha
marankani
maranura
maranwa
maranx
maras
marat
maraw
marax
marca
marcabal
marcel
marcela
marcelino
marcello
marcelo
march
marchena
marcial
marco
marconi
marcos
mardonio
mare
mares
margaret
margarita
mari
maria
mariana
mariano
marie
marilyn
marin
marina
marino
mario
mariposa
mariscal
mariya
mariyas
mark
marka
markachirinakax
markam
markan
markana
markanaka
markanakan
markanakana
markanakanx
markanakaxa
markani
markanx
markanxa
markap
markapata
markapi
markar
markaru
markaruw
markarux
markas
markat
markata
markatx
markawa
markawillka
markax
markaxa
marku
markus
marlene
marley
marlon
marne
marple
marqus
marruecos
mars
marseille
marshall
marta
martel
martha
marti
martin
martina
maru
marx
marxismo
mary
maryland
marzo
mas
masi
masisea
masma
maso
massachusetts
mastitis
mata
matanza
matar
matara
mate
matema
mateo
mater
mati
matilde
mato
matsuo
matto
mattos
matukana
maurice
mauricio
mauro
max
maximiliano
may
maya
mayacht
mayak
mayamp
mayani
mayer
mayi
mayj
mayja
mayjawa
mayjt
maynas
mayni
maynikam
maynin
maynit
mayniw
maynix
mayo
mayor
mayori
mayotte
maysatx
mayu
mayuq
mb
mccartney
mckinley
mdeki
me
meazza
meca
mecklenburg
medal
medalla
medel
medelli
media
medianoche
mediante
medina
medio
medrano
mego
meir
meji
mejor
melanio
melchor
mele
melecio
melgar
melgarejo
melito
melo
melodi
melville
memoria
memorial
memorias
men
mendigo
mendiza
mendoza
mene
menes
menos
mensaje
ment
mer
mera
mercaderes
mercado
merced
mercedes
mercury
merea
merello
merino
mero
meros
mes
mesa
mesi
mesones
meta
metro
metropolitana
metropolitano
mexicana
mexicano
mexicanos
mexico
meyza
mez
meza
mf
mg
mi
miami
mica
micaela
mich
michael
michel
michelangelo
michigan
michoaca
mickey
mico
micos
mide
midi
midiku
miedo
miedos
miembro
mientras
mifune
miguel
mikaela
mil
mila
milagro
milagros
milane
milano
mile
militar
milla
miller
millk
millones
milner
milpuc
milton
mina
minas
minerales
minh
ministerio
ministro
minnesota
minotauro
minutos
mir
mira
miracosta
miraflores
miranda
mircidis
miro
mirror
mirrors
mis
misa
misael
miscela
misio
misiones
misk
misma
mismo
miss
mississippi
missouri
misti
mistral
mistsu
mita
mitala
mites
mito
mix
mixer
mo
moche
moctezuma
modern
moderna
modesto
modo
mogrovejo
mohamed
moise
mojiganga
molina
molinopampa
molinos
momento
momentos
moncloa
mondadori
monet
monge
mono
monroe
mons
monsefu
monsen
monstruo
montalva
montalvo
montan
montana
monte
monteagudo
montenegro
montero
monterrey
montes
montesinos
montevideo
montoya
montserrat
monumento
monzo
moon
moore
moquegua
moqwegwa
mora
moral
morales
more
moreira
morelia
morelos
morena
moreno
moreyra
mori
morillo
morir
morning
moro
morrison
mortiz
mosca
moscoso
moscu
mosku
mosquera
mossa
mother
motivos
moto
mountain
mov
movie
movimiento
moving
moya
moyano
moyobamba
mozart
mp
mphu
mr
mrs
msc
msnm
mtv
mu
mucha
muchacha
mucho
mudo
muere
muerta
muerte
muerto
muhu
mujer
mujeres
mujica
muki
mukiwa
mukiyawyu
mulinu
mulinus
muller
mullintu
mullipampa
mullipata
mulliwaya
mulo
mun
munan
munasi
munata
mundial
mundo
mundos
mungui
muni
municipal
municipales
municipalidad
municipio
municipios
munisipiyunaka
munisipyu
muniw
muniwa
munka
munsun
muntan
muntanwa
muntiniru
muntivide
munupampa
muqiwa
mur
muralla
murder
murders
murga
murillo
muro
murrupun
muruq
musambiki
museo
museos
museu
museum
music
musical
musin
musiyu
mustela
musuq
musuqllaqta
mut
muxsa
muy
muya
muyu
muyupampa
my
mysteries
mysterious
mystery
n
na
nac
nacer
nacimiento
nacio
nacional
nacionales
nacionalista
naciones
nada
nadie
nak
naka
nama
namballe
name
namura
nanakan
nanakax
nanay
nanchuq
nancy
nantes
napoleo
napoli
naqa
naranja
naranjo
narciso
narin
nariz
narraciones
narrator
nas
nasa
nascimento
naska
nasser
nasyunal
natal
natalia
national
natividad
natiwidad
natural
naturaleza
navarrete
navarro
nave
navidad
nawa
nawta
naya
nayarit
nayax
nayluna
nayr
nayra
nayranakapax
nayraqat
nayraqata
nayraqatarux
nayraqatax
nayrar
nayrax
nayraxa
nayri
nayrir
nayriri
nazareno
nazarinu
nazario
nchen
nchez
ncia
ncipe
ncu
nde
ndel
nden
ndez
ndor
ndula
ne
nea
neas
nebraska
negra
negrete
negro
nehru
neil
neira
nejedly
nelly
nelson
neo
neri
nero
neruda
nes
net
nevada
neve
never
neville
new
newman
news
newton
neyra
nez
ng
ngaro
ngel
ngela
ngeles
ngora
nguez
ngulo
ni
nia
nica
nicanor
nicaragua
nicas
niccolo
nicholas
nico
nicola
nicolas
nicomedes
niedersachsen
niels
niepos
nieto
nieva
nieve
nievenaka
nieves
night
nihun
nikarwa
nikasyu
nikita
nikola
nikolai
nilo
nilton
nimas
nimo
nin
nina
ninapampa
ninaqaqa
nino
nio
nisqaqa
nixon
niy
niya
niyak
niyas
no
nobel
noble
noche
noches
nocturno
noe
noel
noemi
nolasco
nom
noma
nombre
nombres
nome
nonato
nor
nord
nordrhein
noriega
norma
normal
norman
normandie
norte
north
nos
nosotros
not
nota
notas
noticia
noticias
nouvelle
nova
novel
novela
novelas
november
noveno
novia
noviembre
novios
novoa
novola
now
ntara
ntesis
nti
ntico
nticos
ntimo
nu
nuclear
nuco
nuestra
nuestro
nuestros
nueva
nuevas
nueve
nuevo
nuevos
nun
nunca
nurweka
nwa
nxa
ny
nya
o
oar
oaxaca
obama
obando
obas
obdulio
obispo
objeto
oblitas
obra
obras
observaciones
ocalli
ocampo
ocan
occidente
oce
ocho
ochoa
ocsa
octava
octavio
octubre
ocucaje
oda
odio
odri
oeste
of
off
offenbach
official
oficial
oficiales
oficialmente
oficina
ofm
oh
ohio
ois
oise
ojeda
ojo
ojos
ok
oklahoma
ol
ola
olan
olano
olarak
old
oldr
oldu
oles
olga
oliva
olivares
oliveira
oliver
olivera
olivia
olivos
ollanta
olleros
olmedo
olo
olvido
omar
omara
omia
on
once
one
ones
onetti
ongo
online
only
onofrio
oo
op
opera
opinio
opu
oquendo
or
ora
oracio
orange
orbegoso
orden
order
ordo
ordon
ore
oregon
orellana
orfeo
org
organizacio
organizadas
organos
orgullo
orient
oriente
origen
original
originales
originalmente
orihuela
orilla
oriol
orita
orlando
orleans
oro
orozco
orquesta
orsay
orsi
ortega
ortiz
oruro
os
oscar
oscura
oscuridad
oskar
oslo
osma
oso
osorio
ospina
osvaldo
oswaldo
ota
otero
other
others
oton
otra
otras
otro
otros
ottawa
otto
ou
our
out
oveja
over
oviedo
owens
own
oxford
oz
p
pa
pablo
pac
pacaipampa
pacanga
pacen
pach
pacha
pachakamaq
pachakamilla
pachakiwa
pachakunas
pachakuteq
pachakutiq
pachamama
pachamamaru
pachamarka
pachan
pachana
pachanaka
pachanakax
pachantin
pachanx
pachanxa
pacharchiw
pachas
pachat
pachaw
pachawa
pachax
pachaxa
pachaykamay
pacheco
pachitiya
pachiya
pachiza
pachpa
paci
padilla
padre
padua
padwa
page
pai
paimas
paisaje
paita
pajarillo
pajuelo
paka
pakasmayu
pakistan
pala
palabra
palabras
palacio
palacios
palenque
palermo
palla
pallalla
pallan
pallanchakra
pallaqi
pallasqa
pallay
pallaytas
pallpata
pallqa
palma
palmas
paloma
palomino
palos
palpa
palpakachi
pampa
pampachiri
pampamarka
pampanakan
pampaqullqa
pampas
pan
panama
panamana
panaw
pancho
pando
panduro
panez
panka
pankan
panorama
panqara
panqaranaka
pantalunani
pantoja
paola
paolo
pap
papa
papandreou
papaplaya
papayal
pape
papel
papeles
papua
paqallqu
paqariqtampu
paqcha
paqu
paqucha
paqupampa
par
para
paradise
parado
parai
paramaribo
paramonga
paramount
parana
paranday
paraqas
paratya
parawayi
parco
parcona
pardo
pare
paredes
pareja
pari
pariachi
parin
parinari
parinax
pariona
paris
pariwanaqucha
park
parker
parlamento
parlan
parnaso
parole
parqu
parque
parra
parroquia
parruqia
parruqu
part
parte
participacio
particular
partido
partidu
partidupi
partir
partitura
party
paruru
paryarqa
paryawanka
pas
pasa
pasado
pasan
pascal
pasco
pascual
pasio
paso
pasqu
pastor
pastores
pastunaka
pasus
pat
pata
patak
pataka
pataki
patampuku
patan
patas
pataypampa
paterson
patin
patiwillka
patria
patricia
patricio
patrimonio
patrunax
paucar
paucartambo
paul
paula
paulet
paulina
pauling
paulino
paulo
pauluw
pavarotti
pawlu
pawqar
pawqara
pawqarpampa
pawqarpata
pawqarqulla
pawqartampu
pawsa
pay
paya
payan
payani
payhan
payi
payir
payiri
paylla
paypacha
pays
paz
pbro
pdf
pe
pearl
pebas
pec
peca
pecado
pecador
peche
pecho
peck
pedernera
pedro
peisa
peixoto
peki
pekin
pelaez
pelayo
pele
peli
peligro
pen
pena
peng
pennsylvania
pensamiento
people
pepe
pequen
per
pera
perales
peralta
percy
perdido
perdo
pereira
perez
perfect
perfecto
perfil
performance
peri
perico
perio
periodi
periodo
perkins
perla
pernambuco
pero
perpetuo
perricholi
perro
persona
personal
personales
personas
peru
peruana
peruanao
peruanas
peruano
peruanos
pesantes
pescador
pesque
pessoa
peste
pete
peter
petit
petrarca
petro
pey
pez
pezet
pezo
pfalz
phanchiri
phaqcha
phara
phasxi
phaxin
phaxs
phaxsi
phaxsin
phaxsina
phaxsipa
phaxsit
phayan
phayapxi
phayasin
philadelphia
philosophers
philosophy
phinlandya
phisi
phisix
phisqa
phisqani
phisqha
pho
php
phransiya
phransiyana
phransiyaxa
phransya
phuch
phucha
phuncha
phunchha
phuqht
phusan
phust
phuthi
phuti
phutti
phutwul
phuyunakapax
pi
piaf
piano
piazzolla
pica
picaflor
picardie
picasso
pichari
pichirwa
pichiwa
pico
pidru
pie
piedra
piel
piero
pierre
pieter
pietro
pikchu
pikuta
pilar
pilco
pilcuyo
pilikula
pillao
pillchaka
pillpichaka
pillpintu
pimentel
pimintil
pimpingos
pin
pineda
pinedo
pinglo
pinillos
pinkillu
pino
pinra
pintado
pinto
pintor
pintores
pintura
pinyin
pio
piqusin
pira
pirias
piriudysta
pirqa
piru
piruw
piruwanu
piruwna
piruwpa
piruwpi
piruwxa
pirwa
pisco
pisku
pisqupampa
pist
pita
pitirwurhu
pittsburgh
pitumarka
piura
piwra
piyasaya
piyu
pizango
pizarro
pl
pla
place
plak
planck
planeta
planita
planta
plantilla
plasencia
plata
platini
platiriya
plato
play
plays
plaza
pluma
png
pnp
po
pobre
poca
poco
poder
poe
poema
poemario
poemas
poems
poesi
poeta
poetas
poetry
poirot
polar
poli
polici
polis
politico
polka
polo
polonia
polygram
poma
ponasa
ponce
ponta
ponte
pontificia
pop
popular
population
por
porfirio
porque
porras
porres
port
porta
portada
portal
portillo
porto
portocarrero
portrait
portugal
portugue
portuondo
porvenir
posada
posadas
posible
posic
potosi
potsdam
pour
power
pozo
pozuzo
pp
ppc
pra
prada
prado
praha
prb
pre
preb
predicado
preguntas
prelado
prelatura
premio
prensa
presb
presencia
presenta
presentacio
presentado
presente
presidencia
presidente
presley
press
prete
pri
priale
prieto
prima
primaria
primavera
primer
primera
primeras
primero
primeros
primo
prince
princesa
princeton
principal
principios
prisidinti
prisidintipa
private
prize
pro
problema
problemas
proceso
procesos
profesionales
profesor
programa
progresa
progresista
progreso
project
pronombre
pronombri
propia
propio
propios
prosa
prosas
protesta
protocolo
provence
providencia
provincia
provincial
proyecto
prugrisu
pruwinsyal
psicologi
psuv
pu
pub
public
publica
publicacio
publicaciones
publicada
publicado
publicados
publicitario
publique
publishing
pucarani
pucarina
puccini
pucp
pucusana
puebla
pueblo
pueblos
puede
pueden
puedes
puente
puerta
puertas
puerto
puesto
pujra
pukallpa
pukara
pukaran
pukarani
pukina
pukllaykuna
pukupukux
pukus
pukyu
pula
pulan
pulitiku
pullu
pultumarka
pulun
puluwaya
pum
puma
pumakancha
pumapampa
pumaqanchi
pumaqucha
pumata
pumawaka
pun
punchana
punchaw
punchuni
punku
puno
punta
punto
punu
pupuja
puqsi
puquio
puquta
puquwanka
purak
puraka
puri
purin
purt
purtuguis
purtuwal
purtuyis
purus
puruy
pusaq
pushkin
pusi
pusible
pususu
put
putina
putumayu
putuni
putusi
puyka
pxa
pyanirichiw
pyre
q
qa
qachu
qajamarka
qala
qalamark
qalamarka
qalapuha
qallalli
qallanmarka
qallta
qalltan
qallu
qaman
qamapxi
qamaqix
qamasa
qamasipxi
qan
qanchi
qanqayllu
qapi
qapun
qapux
qaqa
qaqatampu
qarachi
qaraqutu
qaras
qarawili
qarqa
qarwa
qarwakallanka
qarwas
qarwayu
qashapampa
qashashi
qasikaypi
qasqapampa
qatachi
qatachilla
qatar
qatilluq
qatqa
qatun
qaw
qawana
qawaq
qawqha
qawra
qayarani
qayma
qayna
qayti
qhana
qhanan
qhanancht
qhapaq
qhapaqmarka
qharuru
qhawana
qhawanakunti
qhawanilla
qhawqha
qhichhwa
qhichwa
qhichway
qhipa
qhipaxa
qhipha
qhipharux
qhirwa
qhisphiyataw
qhusqhuri
qi
qichuwalla
qichwachaw
qillqa
qillqan
qillqapunku
qillqaq
qillqas
qillqata
qillqatata
qillqiri
qilqt
qimwiri
qin
qina
qiqin
qirqu
qiru
qirupallqa
qirupampa
qiruqutu
qiruwillka
qispiqanchi
qiwilla
quatre
qucha
quchan
quchapampa
quchaqasa
qucharqa
quchas
quchurqu
que
quechua
queen
quere
querecotillo
querer
querida
querido
quesada
quesque
quevedo
quez
qui
quie
quiem
quien
quiere
quiero
quijote
quimper
quin
quinjalca
quinn
quino
quinta
quintana
quintanilla
quinteto
quinto
quiro
quiroga
quiroz
quispe
quito
quizpez
qulcha
qulla
qullan
qullana
qullasi
qullasin
qullasuyu
qullaw
qullawa
qullpas
qullqa
qullqamarka
qullqapampa
qullqi
qullu
qullunaka
qullur
qulluwa
qullux
qullwas
qumpapata
qunayqa
qunchamarka
qunima
qunqalla
qunt
quntumasa
quod
qupa
qupani
qupuraki
quqa
quqata
qura
qurani
quri
quris
quriwaya
qurpa
qurpasi
qurqa
qurtuwa
qurumata
qusan
qusannaka
qusmi
quspan
qusqu
quta
qutan
qutana
qutanaka
qutapampa
qutarusi
qutawa
qutax
quturapi
quwasa
quwinqa
quya
quyllariskisqa
quyllur
quyllurqi
r
ra
rabin
rachel
rada
radical
radio
radoje
rafael
rafaela
raffaello
rai
raimondi
raimundo
rain
rak
rama
ramada
rami
ramirez
ramiro
ramo
ramos
ramsay
rana
ranchera
ranrakancha
ransiya
raoul
raphael
rapto
raquel
rase
rat
rate
rathaus
rato
ratones
rau
ravenna
ray
raymi
raymond
raymondi
raymundo
rayo
razo
rbara
rbol
rboles
rcal
rcamo
rcel
rcito
rculo
rd
rdenas
rdoba
rdova
rdu
re
rea
reagan
real
realidad
realizaron
rebelde
rebelio
recital
recodo
recoletos
reconstruccio
recopilacio
recordando
recording
records
recta
recuay
recuerdo
recuerdos
recursos
red
rede
reedicio
reeves
references
reflexiones
reforma
regina
regio
region
regional
regionales
regreso
regular
reichenberger
reims
reina
reine
reino
reis
relacio
relato
relatos
religio
religioso
rembrandt
remedios
remigio
rena
renacimiento
rene
rengifo
renoir
reparto
report
reportaje
repu
republic
republika
repulle
requejo
requena
requiem
res
research
resen
reserva
restauracio
reto
retrato
retratos
retrieved
reunida
reve
review
revilla
revisited
revista
revolucio
rey
reyes
reyna
reynaldo
reynoso
rez
rhein
rheinland
rho
rhode
ri
ria
rias
ribeiro
ribera
ribeyro
rica
ricardo
ricas
rich
richard
rico
ricos
rida
ride
rika
rikch
rikina
rikuway
rimac
rimaq
rin
rinakawa
rinakax
rinco
rinconada
ring
ringen
ringo
rio
rioja
rios
ripan
ripublika
rirqayku
risco
rit
rita
ritmo
rito
ritu
riva
rivadeneyra
rivas
river
rivera
rivero
rix
riy
riynaka
rj
rk
rkiye
rn
ro
roa
road
robbins
robert
roberto
robin
robles
roca
rocafuerte
rocha
roci
rock
rodas
rodo
rodolfo
rodri
rodrigo
rodriguez
roes
rogelio
roger
roja
rojas
rojo
rola
rolando
rolda
roll
rolling
roma
roman
romance
romani
romano
romel
romero
ronald
ronaldo
rondo
roo
rooney
roosevelt
roque
roraima
rosa
rosales
rosali
rosario
rosas
rose
rosendo
rosita
ross
rossi
rossini
rouge
rousseau
roy
rquez
rraga
rrez
rroco
rruqu
rttemberg
ru
rube
ruben
rubens
rubio
rueda
rufino
rui
ruisen
ruiz
rulfo
ruman
rumantisismu
rumanya
rumbos
rumi
rumisapa
run
runa
runakanx
runaqa
runtukan
runtus
rupa
ruqchaq
rural
rusa
rusaryu
rusaspata
rusi
rusiya
russell
rusu
rusya
ruta
ruth
rutherford
rux
rvulo
rwanda
ry
rzano
s
sa
saantia
saarbru
saarland
saavedra
sabandi
sabato
sabaynu
saber
sabes
sabina
sabino
sabogal
sabor
sacanche
sach
sachsen
sacrificio
sad
sagrada
sagrado
sagrario
sahara
said
saint
sal
salamanca
salamanka
salas
salaverry
salazar
salcedo
saldan
salem
sales
salga
salgado
salida
salinas
salitral
sallqa
sallqapampa
sallqawasi
salomo
salsa
salta
salud
salvador
salvaje
salvatierra
sam
sama
samagua
saman
samana
samanchan
samanez
samaniego
samart
samawa
sami
samichan
samipax
samiri
samkayayku
samuel
san
sana
sanaquran
sanatc
sanchez
sancos
sandia
sandinista
sandino
sandoval
sandro
sang
sangre
sank
sanku
sans
santa
santamari
santana
santander
santarsiero
santi
santiago
santiagu
santilla
santillana
santo
santos
santu
santunaka
sanzio
sapa
saphi
sapillica
sapo
saposoa
sapu
sapxarakiwa
sapxi
sapxiwa
sar
sara
sarah
saraksnawa
saran
sarapxi
saraqataru
saraqataruw
sarasara
saravia
sarawayxarakitayna
sarawi
sargento
sarin
sarmiento
sarnakawi
sarnaqa
sarnaqan
sarnaqapxi
sarnaqawi
sarnaqi
sarnaqiri
sartan
sartipampa
sartre
sarumilla
sas
sasa
sasaw
sasawa
sasin
sasina
sat
sata
satan
satarakiwa
satawa
sataxa
sataynax
satchmo
sate
sati
satipu
saturnino
satıs
sau
saw
sawsa
sawsipampa
sawuta
say
saya
sayan
sayla
saylla
sayt
saywitu
saywtu
scar
scara
scaras
schiaffino
schiller
schleswig
schmidt
school
schro
schubert
schuman
schumann
schwerin
science
scorza
scott
scribners
sculos
sdb
se
sea
sean
search
seattle
sebastia
sebastian
seccio
sechura
secret
secreto
secundario
sede
segu
segunda
segundo
segura
seguro
seine
seis
seix
seleccio
selected
sello
selva
sema
semblanza
semi
seminario
sen
sentido
sentimental
septiembre
sequeiros
ser
sera
serafi
serapio
serena
sergio
sergipe
seri
serie
serpiente
serrano
serrat
ses
sesto
seudo
seven
severo
sevilla
shakespeare
shanao
shanghai
shapaja
shaw
she
shek
sherlock
shevardnadze
shi
shinawatra
short
show
shunki
si
sica
sicchez
sichura
sicilya
sicos
sida
side
sido
siembra
siempre
siena
siendo
sierra
siete
sifuentes
siglo
siglos
sign
signature
significado
signo
signos
sikaya
siku
sikuwani
silencio
siles
sillapata
sillp
sillq
silva
silverio
silvestre
silvia
silvio
sima
simana
simbal
simeo
simi
similar
simipi
simo
simon
simone
simple
simplemente
simuna
sin
sina
sinaloa
sinatra
sinfo
singapur
single
sinkus
sino
sinqa
sint
sinti
sipan
sipawa
sipita
siqlla
siqsi
sir
sirka
sirwiya
sisa
sisapampa
sistema
sister
sitajara
sitapampa
site
sitio
sitixa
sito
situaciones
situwa
siwa
siwar
siwara
siwas
siwayu
six
sixto
siya
skazka
sleep
smith
snow
so
sobre
social
sociales
socialista
sociedad
society
socorro
sofi
sofia
sol
sola
solamente
solano
solar
solda
soldado
soledad
soledades
soleil
soler
soles
soli
solo
soloco
sologuren
sombra
sombras
some
something
somos
son
sonata
sonche
sondondo
sondorillo
sonetos
song
songs
sonido
sonora
sons
sont
sony
soo
soong
sophia
sopli
sor
soria
soriano
soritor
sosa
sostenible
sotelo
soto
sotomayor
sound
sousa
south
souza
soy
spain
spanish
spd
spedes
spencer
spider
spoli
sporting
spring
springs
spy
squez
squiza
sr
sri
sseldorf
st
sta
stalin
stanbul
stanford
stanley
star
starkey
starr
stars
state
states
stawayi
ste
stegui
stella
step
stephen
steve
sti
stica
sticas
stico
sticos
stockholm
stocles
stol
stomo
stone
stones
stor
stories
storni
story
strange
stranger
street
stu
studi
studies
studium
stuma
stumamente
stumo
stuttgart
su
sua
suajili
suarez
subtanjalla
sucedio
sucesio
such
sucre
sud
sudamericana
suelo
suen
suerte
sufijo
suite
suiza
sujeto
sukchapampa
sukri
sukuta
sul
sulca
sullana
sulli
sullu
sultan
sum
suma
sumac
sumalya
sumaq
sumate
sumaw
sumawa
summer
sumpach
sun
sunday
sung
suni
sunkhan
suntur
supe
super
superior
supremo
supyumpirakiw
suqawaya
sur
surco
surge
suriname
surit
surkupampa
surquillo
suruchuku
sus
susan
susana
susapaya
sustantivu
sut
suta
suti
sutichan
sutimp
sutimpi
sutin
sutinaka
sutini
sutipa
sutipax
sutiyiri
sutiyuq
sutnyang
suxta
suxu
suyk
suyo
suyt
suyu
suyumpiw
suyun
suyuna
suyunaka
suyupi
suyuwa
suyux
suyuxa
svg
sweet
swisiya
swisya
switsira
sydney
systema
sz
szyszlo
t
ta
tabaco
tabaconas
tabalosos
tabasco
table
tacabamba
tacna
tacuabe
tadeo
taft
tafur
taipe
tak
take
takes
taki
takin
takiri
takiw
takix
takkini
takya
tal
talara
talawira
tale
tales
talla
talledo
taller
tam
tama
tamarindo
tamariz
tamaulipas
tamayo
tambie
tambillo
tambo
tamil
tampu
tampupampa
tampurqu
tan
tana
tang
tango
tantacha
tantamayu
tantara
tantarika
tantiy
tanto
tanzania
tao
tapa
tapapx
tapara
tapat
tapax
tapayriwa
tapia
tapichi
taps
tapuq
taq
taqe
taqi
taqikuna
taqikunas
taqikunaw
taqin
taqiniw
taqna
taqpach
taqpacha
tara
tarafından
tarapaca
taraputu
taraqu
tarata
taray
tarazona
tarde
tarixa
tarkan
tarma
taro
tarpuy
tarukachi
tarza
tarzan
tasmania
tasso
tata
tatawa
tatax
tati
tatitu
tauro
taurus
tawantinsuyu
tawaqunakax
tawriya
tay
tayapampa
tayaqaqa
tayk
tayka
taylandya
taylor
tayna
taynawa
taype
tayphi
taypi
taypin
taypina
taypinkiwa
taypinx
tayta
taytakura
tbol
te
teatro
tecnolo
tecnologi
tedra
tegui
tejada
tela
tele
televisio
tello
tema
temainaak
temas
temi
temmuz
templo
ten
tener
tengo
teniente
tennessee
tenochtitlan
tenorio
tentacio
teo
teobaldo
teodoro
teodosio
teofilo
teori
tera
tercer
tercera
teresa
teresina
teresita
terra
terreros
terrones
terror
terry
tesis
tesoro
testamento
testimonio
testimonios
tevetog
texas
texcoco
texto
textos
tez
th
thai
thakhi
thakhin
thaki
than
thanh
thapay
thaqhasipxi
that
thaya
thayjata
the
their
them
then
theodore
theorie
there
thesaurus
they
thimpo
this
thiya
thomas
thompson
thomson
thorpe
three
thu
thujsa
thuqht
thuqhun
thuqt
thuru
thurunakawa
thyssen
ti
tibillo
tica
ticas
tico
ticona
ticos
tiempo
tiempos
tiene
tienen
tienne
tierra
tierras
tigre
tigres
tika
tikaku
tikillaqa
tikllakayan
tikrapu
tilali
tima
time
times
timoteo
tingo
tinguin
tinikachi
tinku
tinta
tintay
tinyawarku
tipan
tipo
tipografi
tipos
tirado
tirana
tirano
tirapata
tisku
titicaca
titikaka
titiqaqa
tito
tiwanaku
tiwulax
tiyawaya
tlaxcala
to
tocantins
tocmoche
toda
todas
todd
todo
todos
together
tokyo
toled
toledo
tolentino
toluca
tom
toma
tomas
tomasa
tome
tommy
tomo
tomorrow
tomos
ton
tony
too
toqet
tor
tord
torero
toribio
torino
tornero
torno
toro
torre
torres
torrijos
toshiro
total
totora
tour
tournavista
tours
tovar
town
tr
tra
trabajadores
trabajando
trabajemos
trabajo
trad
tradicio
tradicional
tradiciones
traduccio
traduce
traducir
traductor
traficoperu
tragedia
traje
transitivos
tras
trata
trave
travesi
tre
tree
tregua
treinta
trejo
trelles
tres
tri
tribu
tributo
trilogi
trinidad
trista
tristan
triste
tristes
trita
triunfo
trois
trompeteros
tropical
trotsky
trova
troveros
trucha
trudeau
true
trujillo
truman
tse
tu
tucupita
tuesta
tukachi
tukt
tukuman
tukun
tukutatx
tukuya
tukuyan
tulo
tuma
tumas
tumay
tumba
tumbaden
tumbes
tumipampa
tumpis
tuna
tunan
tunk
tunka
tunqu
tunta
tuntax
tupak
tupaq
tuqi
tuqin
tuqina
tuqiru
tuqirux
tuqiruxa
tuqit
tuqita
turaya
turco
turi
turismo
turkiya
turner
turpay
turpu
turu
tus
tusi
tuti
tutti
tv
two
tycoon
tzu
tı
u
ua
ubaldo
ubinas
uble
uca
ucar
ucayali
uchan
uchu
uchumayu
uchun
uchux
ucuncha
uficial
ufisyal
uganda
ugarte
ugarteche
uk
uka
ukajj
ukaki
ukampi
ukampins
ukampinsa
ukampirus
ukampirusa
ukampis
ukan
ukana
ukanak
ukanaka
ukanakasti
ukanakat
ukanakaw
ukanakawa
ukanakax
ukanakaxa
ukansti
ukanx
ukanxa
ukapachax
ukapachparakiw
ukar
ukaruw
ukaruwa
ukarux
ukast
ukasti
ukat
ukata
ukatakix
ukataw
ukatsti
ukatwa
ukatx
ukatxa
ukaw
ukawa
ukawjax
ukax
ukaxa
ukayali
ukch
ukha
ukham
ukhama
ukhamarak
ukhamaraki
ukhamarakiw
ukhamarakiwa
ukhamarus
ukhamarusa
ukhamat
ukhamata
ukhamaw
ukhamawa
ukhamaxa
ukhamipanxa
ukhawa
ukhax
ukhaxa
ukhun
ukhupampa
ukin
ukja
ukjam
ukjama
ukjamak
ukjamakiw
ukjaman
ukjamarak
ukjamaraki
ukjamarakiw
ukjamarus
ukjamatwa
ukjamaw
ukjamax
ukjami
ukjamipansti
ukjanakaw
ukjaruw
ukjarux
ukjaw
ukjax
ukjaxa
ukraniya
uksa
uksanx
uku
ukupa
ukx
ul
ula
ulan
ulaqa
ulimpiku
ulises
ullachiya
ullan
ullantaytampu
ullaraya
ulli
ullilen
ulliru
ullk
ulloa
ullqumayu
ullu
um
uma
umachiri
umalliq
umamp
uman
umana
umara
umari
umas
umati
umawa
umax
umberto
umbuqui
ump
umphi
umpi
umt
umu
un
una
unak
unaka
unakax
unakaxa
unanchasa
unay
uncle
und
under
une
unesco
unfinished
uni
unida
unidad
unidas
unidos
unidus
unidusna
unificado
unio
union
unir
united
universal
universidad
universidade
universita
universitaria
universitario
university
universo
unmsm
uno
unquy
unt
unu
unyun
up
upon
upp
uq
uqayku
uqi
uqix
uqiyapu
uqrus
uqshamarka
uqshapampa
uqupampa
uquru
uqururu
uquwiri
uquyu
ur
urakiwa
uranmarka
uraq
uraqi
uraqin
uraqina
uraqinxa
uraqiru
uraqita
uraqix
uraqpachan
uraqpachanxa
urasax
uraski
urbano
urbina
urcia
urdu
ureta
uri
uribe
urpay
urqu
urqunaka
urqupampa
urqus
ursula
uru
urubamba
urunaka
urunakax
uruniwa
urupampa
urupisa
ururillu
ururu
urut
uruw
uruwayi
uruwayixa
urux
uruxa
uruya
us
usa
usbik
usikayus
usiyanya
uskil
uso
usqa
usted
usu
usuario
usutaki
usuxa
ut
uta
utah
utampu
utan
utana
utanak
utanaka
utanakax
utanx
utapa
utapaxa
utaw
utax
utiqyaku
utja
utjan
utjana
utjapxi
utjaraki
utjarakiwa
utjasiri
utjatayna
utji
utjir
utjiri
utjiritayna
utjiwa
utjixa
utjka
utjki
utjkiti
utku
utkupampa
utt
utuqa
utuquni
utusku
uu
uw
uwa
uwatana
uwax
uwipu
uwispo
uwispu
uwisu
uwisunakaxa
uwisuxa
ux
uxi
uxn
uxu
uy
uyu
uyulu
uyun
uyuni
uyw
uywa
uywan
uywana
uywanak
uywanakana
uywanakaru
uywanakata
uywanakawa
uywanakax
uywanakaxa
uywapxi
uywat
uywata
uywawa
uywax
uywaxa
v
va
vaca
vacas
val
valca
valcarcel
valde
valdelomar
valderrama
valdez
valdivia
valdivieso
valdiza
vale
valencia
valenti
valentin
valentina
valentino
valenzuela
valera
valeriano
valerio
valga
valladolid
valle
vallejo
vallejos
valley
valo
valor
valores
valos
valparai
valqui
vals
valverde
vamos
van
vanguardia
var
vara
varela
vargas
variacio
varias
varios
varo
varona
vas
vasco
vasquez
vatican
vda
ve
veces
vecinal
vecino
vega
veinte
vela
velarde
velasco
venancio
venceslau
venecia
venegas
veneno
venes
venezia
venezuela
venganza
vengo
venta
ventana
ventanilla
ventura
venus
ver
vera
veracruz
veraguas
verano
verb
verbal
verbales
verbo
verbos
verbu
verdad
verde
verdes
verdi
vergara
vermont
vero
veronica
versio
versiones
verso
versos
verve
vervo
very
vest
vete
vez
vi
viaje
viajeros
viajes
vicarage
vicario
vice
vicenta
vicente
vichayal
victor
victoria
victorino
victorio
victory
vicun
vida
vidal
vidarte
vidas
video
videos
vie
vieira
vieja
viejo
viena
viene
viento
vietnam
vige
vigil
vigo
vii
viii
vil
vila
vilca
vilchez
villa
villacorta
villafuerte
village
villago
villagra
villalobos
villano
villanueva
villar
villarreal
villaverde
villavicencio
villazo
ville
villegas
villena
vin
vincent
vincenzo
vinci
vingt
vino
viola
violeta
virgen
virgilio
virginia
virrey
virtual
visio
vision
visor
vista
visto
vita
vitier
vito
vittorio
viuda
viva
vivaldi
vivanco
vivir
vivo
vizcarra
vladimir
vo
vocabulario
voces
voice
voices
vol
volador
vols
volu
volumen
volver
vom
von
vori
vorpommern
voyage
voz
vs
vuelo
vuelta
vuelve
w
wa
wabal
wachaq
wachu
wachun
wachuqullpa
wachus
wade
wagner
wak
waka
wakan
wakapampa
wakaxa
wakicha
wakichan
wakicht
wakirka
wakisi
wakisiri
wakiskir
wakiskiri
wakt
wal
wali
walinkan
walipuniw
walixa
walj
walja
waljan
walk
walker
wallanka
wallaqa
wallatax
wallpa
wallqanqa
wallqayuq
walltay
walpin
walpun
walsh
walt
walter
walwas
walxa
wamachuku
wamali
wamanqa
wamanqaqa
wamatampu
wamp
wampu
wampus
wan
wanchaq
wang
wank
wanka
wankan
wankani
wankapampa
wankapi
wankarama
wankarani
wankaray
wankarki
wankasanku
wankawillka
wankayu
wankayuq
wankuyu
wanta
wantar
wantu
wanuara
wanukiti
wanuku
waq
waqachiq
waqana
waqar
waqaypampa
waqrachuku
waqrapukyu
war
waral
waranq
waranqa
waranqh
waranqu
waras
warawara
wari
waripampa
warmaka
warmi
warminaka
warminakax
warminakaxa
warmiw
warmix
warmiy
warner
warren
waruchiri
warukuntu
waryaqa
was
washington
wasi
wasikuna
wasmin
wat
wata
watamanta
watapi
watimala
wawa
wawan
wawanak
wawanakaru
wawanakax
wawanakaxa
wawapa
wawku
wawra
waxt
way
waya
wayakil
wayakuntu
wayana
wayaqa
wayk
waykawachu
wayki
waylas
wayllapampa
wayllati
wayllawara
wayllay
wayllu
wayn
wayna
wayra
wayrapata
wayt
waytara
wayu
wayukachi
wałe
we
wea
web
website
wells
wenceslao
were
werner
west
westfalen
westphalen
what
when
white
whitehouse
who
wi
wich
wichhu
wichiqucha
wien
wiesbaden
wiesse
wife
wikipedia
wikipidiya
wikis
wiktionary
wila
wilber
wild
wilde
wilder
wildor
wilfredo
wilhelm
wililli
will
william
williams
willie
willk
willka
willkanota
willkanuta
willkapampa
willkawaman
willy
wilmer
wilson
win
winak
winaka
winakan
winakap
winakaw
winakax
winchu
wind
wini
winston
winterthur
wipa
wiqu
wir
wiraku
wirpakancha
wiru
wiruntu
wisconsin
wiskhalla
wislla
with
without
witness
wiw
wiwa
wix
wolf
wolfgang
woman
women
won
wong
wood
woolf
word
work
works
world
wrasil
wrasilxa
wresilen
written
wu
wukuta
wuliwar
wuliwya
wuliwyana
www
wyoming
x
xa
xalapa
xan
xapxiwa
xauxa
xavier
xi
xia
xiaoping
xico
xii
xiii
xiku
xilografi
xima
ximo
xiomara
xiti
xitos
xiv
xiwa
xix
xun
xv
xvi
xvii
xwila
xx
xxi
xxiii
y
ya
yachachijg
yachaq
yachay
yachaywasi
yala
yalana
yale
yamakis
yamango
yamas
yamo
yan
yanakancha
yanapa
yanapan
yanapt
yanaq
yanaqa
yanaqancha
yanaqiwa
yanas
yanawanka
yanawara
yanawaya
yanawqa
yang
yankee
yanqi
yant
yap
yaptı
yapu
yapuchan
yapuchata
yapuchawi
yaq
yaqha
yaqhanakamp
yaqhip
yaqhipa
yaqhipanakax
yaqhipanakaxa
yaqhippachanakax
yaqhippachax
yaqus
yarapampa
yarawi
yarumayu
yarusyaqan
yaruwillka
yat
yati
yatich
yaticha
yatichan
yatichiri
yatin
yatintan
yatipxaraki
yatipxi
yatiqa
yatiqan
yatiraki
yatiya
yatiyi
yatxatan
yatxatawi
yatxatawiri
yauca
yauyos
yawar
yawli
yawri
yawrisqi
yawyu
yawyukan
yaya
yayımladı
yaz
ye
year
years
yegros
yellow
yer
yeso
yi
yma
yo
yolanda
york
yorongos
you
young
your
youtube
yrigoyen
yu
yucata
yucra
yukanaka
yukay
yungas
yungay
yunka
yunkay
yunkuyu
yupanqui
yupaycha
yupaychan
yuqa
yuqanaka
yura
yuri
yurimawas
yurin
yuritaina
yuritayna
yuriwi
yuyapichis
yves
yıl
yılında
z
za
zacari
zacatecas
zafiro
zamora
zamudio
zanne
zapata
zapatero
zar
zaragoza
zaro
zarumilla
zavala
zavaleta
ze
zea
zedong
zeeman
zegarra
zela
zeno
zeppelin
zero
zevallos
zhang
zhao
zhou
zhu
zi
zico
zig
zik
ziyang
zoila
zoilo
zola
zona
zool
zorrilla
zorritos
zorro
zquez
zquita
zu
zum
zumpango
zur
zurbara
zuri
zuta
{
|
}
~
¡
ª
«
­
°
²
´
·
º
»
¿
×
ı
ın
ʲ
ʼ
ʿ
ˇ
ˈ
ː
̀
́
̂
̃
̄
̆
̇
̈
̊
̋
̌
̣
̦
̧
̨
α
ς
а
в
е
и
н
о
ְ
ִ
ַ
ָ
ֹ
ּ
ׁ
ו
י
מ
ע
ש
ة
ّ
ग
ध
न
र
ा
ि
ी
्
ং
দ
ব
র
ল
শ
হ
া
ি
ী
ু
ে
্
ા
க
ச
ந
ப
ா
ி
ீ
ு
ை
்
ක
්
ා
ු
ั
ิ
ุ
​
‌
‎
–
—
‘
’
“
”
„
†
•
…
‰
′
″
⁠
↔
↷
③
④
⑦
☉
☽
☾
⯓
ⴰ
ⵓ
ⵜ
⺀
⺄
⺆
⺈
⺊
⺌
⺕
⺝
⺸
⺼
⿰
⿱
⿲
⿳
⿴
⿵
⿶
⿷
⿸
⿹
⿺
⿻
。
〢
か
コ
ユ
㇁
㇂
㇄
㇇
㇈
㇉
㇓
㐁
㐄
㐅
㐌
㐫
㐬
㐭
㐮
㐱
㑒
㒵
㒸
㒼
㓁
㓞
㔾
㕛
㕣
㖾
㘝
㚅
㚇
㚔
㚘
㝉
㝡
㝴
㝵
㞋
㞢
㞷
㠩
㠭
㠯
㡀
㡭
㡿
㢲
㢴
㣇
㣺
㥯
㪅
㫄
㫐
㫒
㫺
㬅
㬎
㬥
㬰
㲋
㳄
㷠
㸒
㸚
㸦
㼌
㼲
㽞
㿟
䀠
䂞
䍃
䏍
䒑
䖍
䖒
䖝
䖵
䙴
䚻
䜌
䝿
䡛
䧹
䪞
一
丁
丂
七
丄
丅
丆
万
丈
三
上
下
丌
不
与
丏
丐
丑
专
且
丕
世
丘
丙
业
东
丞
丢
丣
两
严
並
丨
丩
个
丫
丬
中
丮
丰
丱
串
丵
丶
丷
丸
丹
为
主
丽
丿
乀
乂
乃
久
乆
乇
么
义
之
乌
乍
乎
乏
乐
乑
乔
乖
乗
乘
乙
乚
乛
乜
九
乞
也
习
乡
乳
乾
亀
亅
了
亇
予
争
事
二
亍
于
亏
亐
云
互
亓
五
井
亘
亚
亜
亞
亟
亠
亡
亢
交
亥
亦
产
亨
亩
享
京
亭
亮
亯
亰
亲
亳
亶
亷
人
亻
亼
亾
仁
今
介
仌
从
仐
仑
仒
仓
仕
他
付
仝
代
令
以
们
任
企
伊
伏
伐
休
会
伯
但
位
何
佘
余
作
佥
使
來
侈
侌
侖
侯
侵
便
保
俞
信
修
倉
倍
候
倠
備
僉
僕
儿
兀
允
兂
元
兄
充
兆
兇
先
光
兊
克
兌
免
兑
兒
兓
兔
党
兜
兟
入
全
兩
兪
八
公
六
兮
兰
共
关
兵
其
具
典
兹
兼
冀
冂
冃
冄
内
冈
冉
冊
冋
册
再
冎
冏
冐
冒
冓
冖
冗
冘
军
农
冝
冡
冥
冫
冬
冷
几
凡
凢
凵
凶
凷
凸
凹
出
函
凾
刀
刁
刂
刃
刄
刅
分
切
刍
刑
刕
刖
列
刘
则
初
別
利
别
到
制
刺
則
削
剌
前
剡
剽
劉
力
功
加
劦
助
劫
劳
劵
勃
勇
勉
勒
動
務
勞
勤
勹
勺
勻
勾
勿
匀
匂
包
匆
匈
匊
匋
匍
匕
化
北
匚
匝
匡
匪
匱
匸
匹
区
医
匽
匿
區
十
卂
千
卄
卅
卆
升
午
卉
半
卌
华
卑
卒
卓
单
卖
南
卜
卝
卞
占
卡
卢
卣
卤
卦
卩
卪
卬
卯
印
危
即
却
卵
卷
卸
卻
厂
厃
厄
历
厈
厉
厌
厓
厘
厚
原
厤
厥
厨
厭
厲
厶
厷
厸
去
厼
厽
叀
参
參
叅
又
叉
及
友
双
反
叐
发
叒
叔
叕
取
受
叚
叜
叟
口
古
句
另
叩
只
召
可
台
叱
史
右
叵
号
司
叹
吂
各
吅
合
吉
吊
吋
同
名
后
吏
向
吕
君
吝
吞
否
含
启
吳
吴
吹
吾
呂
呆
呈
告
员
呙
周
命
咅
和
咎
咠
咢
咨
咸
咼
哀
品
哉
員
哥
哲
唉
唐
商
啇
問
啚
啬
啻
善
喜
喬
單
喿
嗇
噢
噩
嚴
囊
囗
囘
囙
囚
四
回
囟
因
囧
囬
困
囱
囷
固
国
圂
圅
國
圍
圓
土
圡
圣
圥
在
圭
地
圶
圼
坐
坒
坚
坴
垂
垔
垚
埀
埋
埶
執
基
堂
堅
堆
堇
堯
塞
墨
壘
士
壬
壯
声
壳
壴
壹
壺
壽
夂
处
夅
夆
备
夊
夋
夌
复
夏
夒
夕
外
夗
夘
多
夜
夢
大
夨
天
太
夫
夬
夭
央
失
夲
头
夷
夸
夹
夻
夾
奂
奄
奇
奈
奉
奎
奏
奐
契
奓
奔
奚
奞
奠
奢
奥
奭
女
奴
奻
好
如
妄
妙
妟
妥
妻
妾
始
姑
委
姜
威
娄
婁
婚
婴
嬰
嬴
子
孑
孔
孕
孖
字
存
孚
孛
孝
孟
季
孤
学
孫
孱
學
宀
宁
宂
它
宅
宇
守
安
宋
完
宏
宓
宗
官
定
宛
宜
宝
客
宣
室
宮
宰
害
家
容
宾
宿
寄
寅
密
富
寒
察
寧
審
寫
寬
寮
寸
对
寺
寻
寽
対
寿
封
尃
射
将
將
專
尉
尊
尋
尌
對
小
少
尒
尓
尔
尖
尗
尚
尞
尢
尣
尤
尧
尨
尭
就
尸
尹
尺
尻
尼
尽
尾
尿
局
居
屈
屋
屎
屏
屑
展
屖
屚
属
屠
屡
屬
屮
屯
屰
山
屵
屾
岁
岂
岑
岡
岩
岳
岸
峯
島
崇
崑
崔
崖
崙
崩
嵬
嶲
巂
巛
川
州
巟
巠
巢
巤
工
左
巧
巨
巩
巫
差
己
已
巳
巴
巷
巸
巽
巾
巿
帀
市
布
希
帚
帛
帝
带
師
席
帶
常
干
平
年
幵
并
幷
幸
幺
幻
幼
幽
幾
广
広
庄
床
底
店
庚
府
度
庫
庭
庶
康
庸
廉
廌
廛
廣
廩
廴
延
廷
建
廾
廿
开
弁
弃
弄
弇
弋
式
弓
弔
引
弗
弘
弜
弟
弥
弦
弱
張
強
强
彊
彌
彎
彐
彑
当
彔
录
彖
彗
彡
形
彥
彦
彧
彭
彳
役
彼
往
待
很
律
徒
得
徙
從
復
微
徵
德
心
忄
必
忌
忍
志
忝
忠
忩
快
念
忽
忿
思
怠
急
怱
恆
恒
恩
恭
息
悉
患
悤
悲
悶
惠
惡
惢
愁
愈
意
愛
感
慈
慧
慮
憂
憲
應
戀
戈
戉
戊
戋
戌
戍
戎
成
我
戒
戔
或
戚
戠
戢
截
戲
戶
户
戹
戼
戾
房
所
扁
扇
手
扌
才
打
托
执
承
折
拉
拜
拿
掌
推
提
摩
支
攴
攵
收
攸
改
放
政
敄
敏
敕
敖
敗
敝
敞
敢
散
敦
敫
敬
数
敷
數
斂
文
斉
斊
斗
斤
斥
斩
斬
斯
新
方
於
施
斿
旁
旋
族
无
旡
既
旣
日
旦
旧
旨
早
旬
旱
旲
时
旾
昆
昇
昌
昍
明
昏
易
昔
昗
昜
星
春
昬
是
昱
昴
昷
時
晃
晋
晏
普
景
晶
智
暑
暴
曇
曩
曰
曲
曳
更
曷
書
曹
曼
曾
替
最
朁
會
月
有
朋
服
朔
朕
朗
望
朝
木
朩
未
末
本
札
朮
术
朱
朵
朶
机
朿
杀
李
杏
杜
束
条
来
東
杲
杳
松
析
林
枚
果
枝
枲
枼
某
柔
查
柬
柰
柴
栗
桀
桑
桼
梁
條
梟
梨
棘
棠
棥
森
楚
業
楽
榮
樂
樊
欠
次
欣
欮
欲
欶
欽
款
歆
歇
歛
止
正
此
步
武
歨
歪
歮
歯
歰
歲
歴
歷
歸
歹
歺
死
殳
段
殷
殸
殹
殺
殻
殿
毋
毌
母
每
毒
比
毕
毚
毛
毳
氏
氐
民
气
氣
水
氵
氶
氷
永
氺
氾
求
汝
汞
江
沃
沓
沙
沝
泉
法
波
泣
泥
泰
泽
洛
洪
活
派
流
浦
浪
浮
海
淡
淮
清
渚
渠
湯
滿
漸
火
灬
灭
灰
灵
灷
炅
炎
炏
炗
炙
炭
為
烈
烏
烝
焉
無
焦
焱
然
煞
熊
熏
燕
營
燮
爪
爫
爭
爯
爰
爱
爲
爵
父
爻
爽
爾
爿
片
牙
牚
牛
牜
牟
牢
牧
物
牪
牽
犀
犬
犭
犮
狂
狄
狊
独
狺
猋
猒
猪
献
獻
玄
率
玉
王
玟
玨
玩
珎
班
琴
瑟
瑩
瓜
瓦
甘
甚
生
産
用
甫
甬
田
由
甲
申
电
甶
男
甸
甹
画
甾
畀
界
畏
畐
留
畜
畟
畢
略
畧
畨
番
畫
異
畱
當
畺
畾
疊
疋
疌
疑
疒
疾
癶
癸
癹
登
發
白
百
皀
皃
的
皆
皇
皋
皐
皕
皮
皷
皿
盃
盆
盇
盈
益
盍
盎
监
盒
盖
盛
盡
監
盤
盧
目
直
相
盾
省
眇
眉
看
眔
眞
真
眷
眼
眾
着
睘
睪
睿
瞏
瞢
瞿
矍
矛
矞
矢
矣
知
矦
短
石
破
碎
磊
磨
示
礻
礼
祟
票
祭
禀
禁
禸
禹
禺
离
禽
禾
禿
秀
秃
秉
秋
科
秝
秦
移
稟
穀
穌
穴
究
穹
空
穿
突
窄
窒
立
竒
竜
竝
竟
章
童
竹
笑
笠
筆
等
答
箕
算
箴
節
篤
篭
米
粉
粛
粟
粤
粦
粲
糞
糸
糹
系
約
納
素
索
紫
累
細
絜
絫
絲
維
綿
縣
繇
纍
纟
结
缶
网
罒
罔
罕
罗
罙
罡
罢
罪
署
罷
羅
羊
羌
羍
美
羔
羕
羗
羞
羡
羣
群
義
羲
羸
羽
翁
翏
習
翕
翟
翠
翼
老
耂
考
者
耆
而
耎
耑
耒
耳
耴
耶
耷
聂
聊
聖
聚
聶
聿
肀
肃
肅
肉
肖
肙
肥
肩
肯
育
肴
胃
背
胡
胥
能
脊
脩
膚
臣
臤
臧
自
臬
臭
臯
臱
至
致
臺
臼
臽
臾
臿
舀
舂
舄
與
興
舉
舌
舍
舛
舜
舞
舟
般
艮
良
色
艸
艹
艾
芒
芔
芬
芮
花
芳
芺
芻
苔
苗
苟
若
苦
英
茶
茸
荅
草
荒
荣
荼
莆
莎
莧
莫
莽
菆
菊
菐
華
萬
落
葉
著
葛
董
葵
蒙
蒦
蒼
蓋
蓬
蓺
蔑
蔡
蕉
蕭
薄
薛
薦
薰
藍
藏
藥
蘭
虍
虎
虐
虒
虔
處
虖
虗
虘
虚
虛
虜
虞
虫
虽
蚤
蚩
蜀
蜜
蟲
蠡
血
行
衍
衛
衣
衤
表
衮
衰
袁
袞
褭
褱
襄
襾
西
覀
要
覃
見
規
覓
覧
親
覽
见
角
解
言
訁
訇
計
詹
誩
諸
讠
谷
豆
豈
豊
豐
豕
豖
豙
象
豦
豩
豪
豸
貇
貝
貞
貟
負
貢
貧
貪
貫
責
貳
貴
買
費
賁
資
賈
賏
賓
賔
賛
賞
賢
賣
質
賴
贊
贝
贡
责
贯
贲
贵
赖
赞
赤
赦
走
越
足
路
蹇
身
躬
車
軍
軎
軟
輦
车
辛
辜
辟
辥
辰
辱
農
辵
辶
边
达
过
近
连
迷
追
退
送
逆
逐
通
速
造
逢
連
逮
進
遀
遂
過
道
達
遣
適
遷
遺
邊
邑
邕
那
邦
邪
郎
部
郭
都
鄉
酉
酋
配
酓
釆
采
里
重
野
量
金
釒
錢
钅
長
镸
长
門
閃
閉
開
閏
閑
閒
間
閔
閵
閻
闌
门
间
闷
阑
阜
阝
阿
降
院
陳
隆
隊
隋
隡
隨
隱
隶
隹
隺
隻
隼
隽
难
雀
雁
集
雈
雋
雍
雐
雔
雙
雚
雜
雝
離
難
雨
雩
雪
雲
零
雷
需
霍
霜
霝
霞
霸
靈
靑
青
静
非
靡
面
靣
革
韋
韦
韭
韯
韱
音
頁
頃
項
須
頗
頡
頻
顛
页
風
风
飛
飞
食
飠
養
饣
首
香
馬
馮
駦
马
骨
高
髟
鬥
鬯
鬲
鬼
魚
魯
鮮
鱼
鲁
鳥
鳳
鸟
鹵
鹿
麃
麗
麥
麦
麻
黃
黄
黍
黎
黑
黒
黨
黹
黽
黾
鼎
鼓
鼠
鼻
齊
齋
齐
齒
齡
齿
龄
龍
龙
龜
龟
龠
龰
龱
龴
龵
龶
龷
龸
龹
者
艹
﻿
，
？
🜨
𠀁
𠀃
𠀆
𠀉
𠀎
𠀐
𠁁
𠁣
𠂆
𠂇
𠂈
𠂉
𠂊
𠂋
𠂎
𠂒
𠂔
𠂛
𠂡
𠂢
𠂤
𠂬
𠂭
𠂹
𠃊
𠃋
𠃌
𠃍
𠃎
𠃑
𠃓
𠃔
𠃜
𠄌
𠄎
𠄠
𠄢
𠆢
𠆥
𠇍
𠈌
𠌵
𠓜
𠔉
𠔥
𠔼
𠔽
𠔿
𠕀
𠕁
𠕋
𠘧
𠘨
𠙻
𠙼
𠚏
𠚒
𠚤
𠚪
𠣏
𠤎
𠤕
𠥓
𠦄
𠦑
𠦝
𠧒
𠧗
𠧪
𠩺
𠪚
𠫓
𠫔
𠫤
𠬛
𠬝
𠬞
𠬢
𠬤
𠬶
𠮛
𠮦
𠮷
𠯑
𠱠
𠳮
𠷎
𡈼
𡉀
𡉵
𡌥
𡍮
𡏳
𡕒
𡕩
𡕰
𡖅
𡗗
𡗜
𡘆
𡘤
𡧱
𡨄
𡩧
𡬠
𡭽
𡰣
𡰥
𡰪
𡰯
𡰱
𡷈
𡸁
𡿨
𡿩
𡿪
𡿺
𢀖
𢀛
𢀩
𢁙
𢆉
𢆰
𢆶
𢇁
𢇇
𢉖
𢌬
𢌿
𢏚
𢑑
𢑚
𢖻
𢙣
𢛳
𢦏
𢦒
𢧵
𢼄
𢾕
𣁋
𣄼
𣅀
𣅽
𣍘
𣎳
𣎵
𣏋
𣏼
𣗥
𣥂
𣥖
𣦵
𣦼
𣧄
𣪊
𣪠
𣬉
𣳾
𣶒
𤇾
𤊽
𤐫
𤓰
𤔔
𤕨
𤣩
𤰇
𤰔
𤰞
𤴓
𤴔
𤽄
𥁑
𥁕
𥃦
𥃩
𥃭
𥇡
𥑟
𥘅
𥘈
𥝢
𥫗
𥱡
𦈢
𦉪
𦉬
𦉼
𦍌
𦍒
𦎧
𦐇
𦓔
𦔮
𦘒
𦙃
𦚏
𦣝
𦣞
𦣻
𦥑
𦥔
𦥯
𦨉
𦭝
𦰩
𧆞
𧈧
𧘇
𧰨
𧴪
𧴮
𧵩
𧾷
𨸏
𨾴
𩙿
𩠐
𩫏
𩵋
𪉷
𪜀
𪟽
𪠲
𪩲
𫇦
𫔭
𫜸
𫝀
𫠣
𫠩
𫢉
𫥞
𫩏
𫩠
𫪡
𫲽
𫶧
𬀷
𬐘
𬗌
𬙙
𬛸
𬜯
𬟩
𬯁
𬴘
𬺻
𬼉
𬼖
𭀰
𭁈
𭁨
𭅰
𭑈
𭕄
𭗼
𭤨
𭥫
𭻾
𮅕
𮊿
𮍌
𮍏
𮓗
𮥼
𮧮
廾
𰀁
𰀄
𰀈
𰀉
𰀕
𰀠
𰀡
𰀢
𰀪
𰁜
𰃮
𰆊
𰆘
𰋙
𰕎
𰢴
𰧭
𰯲
a--
ab--
ac--
ace--
ach--
aco--
acti--
ad--
adje--
ae--
af--
affa--
ag--
agri--
ah--
aje--
ajll--
ak--
akat--
akhan--
aki--
akjam--
al--
alajj--
ale--
ales--
alfa--
ali--
all--
am--
ami--
amp--
amuy--
an--
ana--
anar--
and--
angu--
ani--
ano--
ap--
apa--
apo--
apxi--
aq--
aqa--
aqu--
ar--
ara--
are--
arge--
as--
ases--
asi--
ask--
aski--
askin--
assas--
at--
ata--
ato--
atri--
au--
auxilia--
avi--
aw--
awi--
awna--
awqa--
ax--
ay--
aya--
az--
b--
ba--
bal--
ban--
bar--
bas--
be--
ber--
bet--
bi--
big--
bis--
bla--
bo--
bol--
boni--
bor--
bos--
br--
brig--
brun--
bu--
bulga--
bur--
c--
ca--
cal--
calen--
can--
cap--
car--
cas--
casa--
cau--
caut--
cca--
ce--
cen--
cer--
ch--
cha--
chaka--
char--
che--
chhi--
chhiq--
chi--
chiq--
chu--
ci--
cine--
cir--
cis--
cla--
cli--
clo--
co--
col--
com--
comi--
con--
cor--
correspo--
correspon--
cos--
cra--
cre--
cri--
cu--
cul--
cur--
d--
da--
dan--
de--
dec--
defin--
del--
des--
descono--
detec--
deuts--
di--
dic--
dis--
do--
doc--
docu--
domi--
dr--
du--
dy--
e--
ec--
ed--
el--
ele--
elem--
em--
en--
eng--
epi--
equi--
er--
es--
esca--
escog--
est--
estu--
et--
eti--
eu--
eus--
eva--
eve--
ex--
expre--
f--
fa--
fan--
far--
fe--
fer--
fi--
figu--
fis--
fla--
fo--
folk--
for--
fors--
fr--
fri--
fu--
fun--
g--
ga--
gal--
gar--
ge--
gel--
geo--
ger--
ghi--
gho--
gi--
gil--
gio--
gis--
giu--
glo--
go--
god--
gor--
graba--
grego--
gri--
gu--
gue--
gui--
h--
ha--
har--
he--
hel--
her--
hi--
hil--
hin--
hispano--
ho--
hon--
hor--
hu--
hua--
huay--
i--
id--
ig--
igu--
ik--
il--
ill--
im--
ima--
impor--
in--
ina--
inc--
ing--
inka--
inquisi--
ins--
instru--
inte--
inter--
intr--
intro--
ir--
ira--
iri--
is--
isi--
it--
ix--
iz--
j--
ja--
jakap--
jal--
jan--
jaq--
jaqi--
jay--
je--
ji--
jichhu--
jikjata--
jin--
jo--
ju--
jupan--
k--
ka--
kal--
kam--
kamis--
kap--
kapi--
kar--
kara--
kas--
kasha--
kaw--
kawk--
kawkha--
kawki--
ke--
ken--
khi--
khu--
khull--
ki--
kin--
kiri--
kle--
ko--
ku--
kul--
kun--
kuna--
l--
la--
laka--
lan--
laq--
lar--
lawa--
lax--
lay--
le--
lec--
leg--
leo--
ler--
lez--
li--
lie--
lima--
lin--
liv--
ll--
lla--
lle--
lli--
lo--
lu--
luc--
lud--
lup--
lura--
m--
ma--
mac--
maca--
mad--
mag--
mai--
mal--
man--
map--
mar--
mara--
mas--
mat--
matrimo--
mau--
may--
maya--
mayu--
mb--
mc--
me--
medi--
mel--
men--
mer--
mes--
mi--
mid--
mik--
mil--
min--
mini--
mis--
miste--
mit--
mo--
mol--
moll--
mon--
monte--
mor--
mos--
mp--
mu--
mul--
mun--
mur--
n--
na--
nan--
nar--
nayra--
ndi--
ndu--
ne--
neu--
ng--
ni--
no--
nom--
nor--
nos--
nti--
nu--
o--
obr--
oc--
occiden--
of--
ol--
on--
op--
or--
ora--
org--
os--
p--
pa--
pac--
pai--
pal--
pan--
paq--
par--
pas--
pasa--
pat--
pata--
pay--
pe--
pedr--
pen--
per--
pereg--
pers--
pes--
pet--
pha--
phi--
phu--
phuq--
phy--
pi--
pic--
pin--
pir--
pis--
pl--
pla--
ple--
po--
pol--
pols--
pomp--
pop--
port--
pre--
pri--
pro--
pu--
publi--
pull--
pura--
puri--
puru--
pus--
put--
pxi--
q--
qa--
qala--
qama--
qara--
qaw--
qha--
qhi--
qhip--
qhu--
qi--
qis--
qua--
que--
qui--
quis--
qun--
r--
ra--
rag--
ral--
ran--
rd--
re--
reco--
ref--
reg--
relati--
ren--
res--
rga--
rhy--
ri--
rin--
ris--
ro--
rob--
roc--
ron--
ros--
rti--
ru--
rumb--
rus--
s--
sa--
sacra--
sal--
sam--
sami--
san--
sar--
sara--
saw--
sca--
sch--
se--
sen--
ser--
servi--
sha--
shi--
sho--
shu--
si--
signi--
sil--
sin--
sir--
siw--
so--
sol--
son--
sor--
st--
ste--
su--
sub--
sud--
sum--
supl--
supp--
sur--
sus--
suy--
sz--
t--
ta--
tak--
tama--
tan--
tapa--
tar--
taru--
taw--
te--
tech--
temp--
teo--
ter--
th--
thaq--
ti--
tiq--
titu--
to--
tol--
tor--
tos--
tou--
tr--
tra--
tradu--
tran--
trans--
tro--
tru--
tu--
tuc--
tuk--
tuku--
tur--
u--
uchu--
ue--
uf--
uk--
uka--
ukja--
uksa--
ukx--
ul--
um--
uma--
un--
una--
unt--
up--
uq--
ur--
uraq--
urqu--
uru--
us--
usu--
usuch--
ut--
uta--
utj--
utja--
uwi--
v--
va--
ve--
vel--
ven--
ver--
verte--
vi--
vie--
vil--
viol--
viz--
vo--
vol--
w--
wa--
wak--
wal--
wali--
wan--
waq--
war--
was--
way--
we--
whit--
wi--
wil--
win--
wir--
wis--
wisk--
wu--
x--
xa--
xarak--
xi--
y--
ya--
yan--
yapu--
yati--
yatip--
yaw--
ye--
yelt--
yi--
yo--
yu--
yun--
z--
za--
ze--
zi--
zle--
zor--
zu--
ı--
ık--
н--
--0
--1
--2
--3
--4
--5
--6
--7
--8
--9
--a
--acio
--ada
--ades
--ado
--aga
--ak
--aka
--akan
--akat
--akatakix
--akax
--akaxa
--aki
--akix
--al
--ala
--ali
--ame
--amp
--ampa
--an
--ana
--ang
--ani
--ano
--apax
--ar
--ard
--ari
--ario
--aru
--ary
--as
--ast
--at
--ata
--ataki
--ato
--au
--aw
--awa
--ax
--axa
--ay
--b
--ba
--bamba
--be
--bel
--bet
--bi
--bia
--ble
--bles
--bo
--c
--ca
--cahua
--cas
--cco
--ce
--cen
--ces
--ch
--cha
--chari
--chasi
--chasin
--che
--chi
--cho
--chos
--cht
--ci
--cia
--cio
--ciones
--ck
--co
--cocha
--cs
--ct
--cto
--cu
--cy
--d
--da
--dad
--das
--dda
--ddu
--de
--des
--di
--dia
--dida
--dillo
--dio
--do
--dor
--doro
--dos
--dra
--dri
--dro
--ds
--dt
--du
--dy
--dı
--e
--ea
--ecio
--ed
--el
--ela
--elli
--elo
--en
--ena
--enas
--encia
--ensis
--ente
--entes
--ento
--eo
--er
--erg
--eri
--ern
--ers
--es
--est
--et
--eta
--eto
--etti
--eux
--ey
--ez
--f
--fa
--fession
--ff
--fi
--fic
--field
--file
--ft
--g
--ga
--gada
--ge
--ges
--ggio
--gh
--ght
--gi
--gia
--gio
--glans
--gna
--gne
--go
--gos
--grafi
--gs
--gu
--gua
--guay
--h
--ha
--havn
--hi
--hiri
--hn
--ht
--hu
--huri
--i
--ia
--ias
--ibar
--ica
--icio
--ida
--idad
--idades
--ide
--ido
--idor
--ie
--ier
--ik
--iku
--il
--ila
--ille
--illo
--ima
--in
--ina
--ine
--ing
--ini
--ino
--ins
--io
--ios
--ique
--ir
--ire
--iri
--iro
--is
--isa
--ismo
--ista
--it
--ita
--itayna
--iti
--ito
--iu
--iw
--iwa
--ix
--izada
--izado
--j
--ja
--jam
--jan
--je
--jh
--jj
--jja
--jo
--jos
--ju
--k
--ka
--kan
--kana
--kas
--kawa
--kax
--ki
--kin
--kiri
--kiw
--kiwa
--ks
--ku
--l
--la
--ladı
--lar
--lca
--ld
--lda
--lde
--ldo
--le
--leus
--lf
--li
--lk
--ll
--lla
--lle
--lli
--llo
--llu
--lm
--lo
--logi
--los
--lph
--lq
--ls
--lu
--ly
--m
--ma
--marka
--mayu
--mba
--mbo
--me
--mente
--mi
--miento
--min
--mo
--mon
--mond
--mos
--mp
--mpa
--mpi
--mpiw
--mu
--my
--n
--na
--nak
--naka
--nakan
--nakana
--nakar
--nakasti
--nakaw
--nakawa
--nakax
--naks
--nal
--nan
--nard
--nas
--nc
--nca
--nce
--nco
--nd
--nda
--ndi
--ndini
--ndo
--ne
--ner
--nes
--ng
--nga
--ngs
--nho
--ni
--nia
--nin
--nio
--nista
--niw
--niwa
--nizacio
--nk
--nki
--nkiwa
--nku
--nna
--nne
--no
--nqu
--ns
--nsis
--nt
--nta
--ntan
--ntapxi
--nte
--ntes
--nti
--nto
--ntos
--nts
--nu
--nx
--nxa
--ny
--nza
--o
--ocida
--oi
--om
--oma
--omi
--on
--ona
--ons
--or
--os
--osa
--ot
--ou
--ov
--ow
--oy
--p
--pa
--pach
--pamp
--pan
--parjam
--pas
--pasti
--pata
--pax
--paxa
--pe
--phy
--pi
--po
--pt
--pu
--pun
--puniw
--puniwa
--pxa
--pxan
--pxana
--pxaraki
--pxi
--q
--qa
--qan
--qat
--qay
--qha
--qi
--qir
--qiri
--qt
--qtan
--qu
--qui
--r
--ra
--rak
--raki
--rakiw
--rakiwa
--ral
--ran
--ras
--rd
--re
--res
--ri
--ria
--rial
--rio
--ris
--ritayna
--riwa
--rjamaw
--rka
--rn
--rna
--rno
--ro
--ron
--ros
--rpana
--rre
--rri
--rril
--rs
--rt
--rta
--rte
--rto
--ru
--rus
--ruw
--rux
--ry
--rya
--rzo
--s
--sa
--sas
--sax
--se
--sh
--si
--sin
--sio
--sion
--sipxi
--sk
--ski
--smo
--sn
--so
--son
--spa
--spawa
--sqa
--ss
--ssa
--st
--sti
--sto
--stra
--stu
--su
--syun
--t
--ta
--tad
--tas
--tasa
--tat
--tawa
--te
--tea
--ted
--tek
--ter
--tero
--teros
--tes
--th
--tha
--ti
--tia
--tin
--tina
--tion
--tis
--tische
--tiva
--tivo
--tivos
--to
--ton
--tos
--tpach
--tra
--tro
--ts
--tt
--tta
--tte
--tti
--tu
--tun
--tura
--txa
--ty
--tz
--u
--ucida
--uco
--ud
--ue
--ui
--uie
--ula
--un
--ung
--upi
--uqit
--ur
--ura
--us
--uw
--ux
--v
--va
--van
--ve
--veli
--vemos
--ves
--vi
--vo
--vos
--w
--wa
--wax
--way
--wi
--wixa
--wn
--wt
--x
--xa
--xi
--xio
--xt
--xu
--y
--ya
--yaku
--yan
--yd
--yi
--yiri
--yk
--yn
--yna
--ynax
--yo
--ys
--yu
--yuq
--z
--za
--zaga
--zana
--zas
--ze
--zo
--zu
--zuela
--ı
--ıs
