!
"
#
##0
##1
##10
##11
##12
##13
##14
##15
##16
##17
##18
##19
##2
##20
##21
##22
##23
##24
##25
##26
##27
##28
##29
##3
##30
##31
##32
##33
##34
##35
##36
##37
##38
##39
##4
##40
##41
##42
##43
##44
##45
##46
##47
##48
##49
##5
##50
##51
##52
##53
##54
##55
##56
##57
##58
##59
##6
##60
##61
##62
##63
##64
##65
##66
##67
##68
##69
##7
##70
##71
##72
##73
##74
##75
##76
##77
##78
##79
##8
##80
##81
##82
##83
##84
##85
##86
##87
##88
##89
##9
##90
##91
##92
##93
##94
##95
##96
##97
##98
##99
$
%
&
'
(
)
*
+
,
-
.
/
0
00
000
001
003
01
017
0195504526
02
03
0368
04
05
06
07
0708115748
0731802020
077
08
09
1
10
100
1000
1007
101
102
103
104
105
106
107
108
1080
109
11
110
1100
111
112
113
114
115
116
117
118
119
12
120
121
122
1227
123
124
125
126
127
128
129
1291
13
130
1300
131
132
133
134
135
136
137
138
139
14
140
1400
141
1418
142
143
144
145
1452
1453
146
147
1471
1475
148
1483
1489
149
1492
1493
15
150
1500
1501
1502
1503
1504
1505
1506
1507
151
1510
1511
1512
1513
1514
1515
1516
1517
1518
1519
152
1520
1521
1525
1528
153
154
1542
1547
155
1556
156
1564
1569
157
1577
158
1588
159
1599
16
160
1600
1605
1606
161
1616
162
1627
163
1632
164
1640
1643
1644
165
166
1660
1669
167
168
169
1694
17
170
171
172
1727
173
1732
174
1743
1746
175
1750
176
1760
1769
177
1774
1776
1778
178
1783
1788
1789
179
1790
1792
1795
1799
18
180
1800
1805
1806
1807
1808
1809
1810
1812
1813
1814
1815
1816
1817
1818
1819
182
1820
1821
1822
1824
1826
1828
183
1830
1831
1833
1834
1835
1836
1837
1838
1839
184
1840
1841
1842
1843
1844
1845
1847
1848
1849
185
1850
1851
1853
1855
1856
1857
1858
1859
186
1860
1861
1862
1863
1864
1865
1866
1867
1868
1869
187
1870
1871
1872
1873
1874
1875
1876
1877
1878
1879
188
1880
1881
1882
1883
1884
1885
1886
1887
1888
1889
189
1890
1891
1892
1893
1894
1895
1896
1897
1898
1899
19
190
1900
1901
1902
1903
1904
1905
1906
1907
1908
1909
191
1910
1911
1912
1913
1914
1915
1916
1917
1918
1919
192
1920
1921
1922
1923
1924
1925
1926
1927
1928
1929
193
1930
1931
1932
1933
1934
1935
1936
1937
1938
1939
194
1940
1941
1942
1943
1944
1945
1946
1947
1948
1949
195
1950
1951
1952
1953
1954
1955
19550
1956
1957
1958
1959
196
1960
1961
1962
1963
1964
1965
1966
1967
1968
1969
197
1970
1971
1972
1973
1974
1975
1976
1977
1978
1979
198
1980
1981
1982
1983
1984
1985
1986
1987
1988
1989
199
1990
1991
1992
1993
1994
1995
1996
1997
1998
1999
2
20
200
2000
2001
2002
2003
2004
2005
2006
2007
2008
2009
201
2010
2011
2012
2013
2014
2015
2016
2017
2018
2019
202
2020
2021
2022
203
204
205
206
207
208
209
21
210
211
212
213
214
215
216
217
218
219
22
220
221
222
223
224
225
226
227
228
229
23
230
231
232
233
234
235
237
238
239
24
240
241
243
244
245
246
247
248
249
25
250
251
252
253
254
255
256
257
259
26
260
261
262
263
264
265
266
267
268
269
27
270
271
272
273
274
276
278
279
28
280
281
282
283
285
286
289
29
290
291
292
293
294
295
297
299
3
30
300
3000
302
304
305
306
307
308
309
31
310
311
312
313
314
315
316
317
318
319
32
320
321
322
323
324
325
326
327
328
329
33
330
331
332
333
334
335
336
337
338
339
34
340
341
342
343
344
345
346
347
348
349
35
350
352
353
354
355
356
357
358
359
36
360
361
362
363
364
365
366
37
378
379
38
380
381
382
384
385
388
39
393
395
4
40
400
403
41
411
414
415
42
424
425
43
439
44
447
45
450
45021
452
458
46
462
463
464
467
468
47
475
476
479
48
480
486
487
49
490
491
494
495
496
497
5
50
500
5000
51
511
52
520
521
523
525
527
53
537
539
54
541
549
55
550
550452
553
554
56
563
567
568
57
570
572
573
575
58
580
585
588
59
590
595
6
60
600
61
615
618
62
625
63
631
634
639
64
642
65
650
653
66
667
67
670
674
677
679
68
686
69
691
7
70
700
7081
71
717
72
73
74
745
75
750
7538
759
76
763
77
7748
777
78
79
790
8
80
800
801
81
82
8248
825
827
83
834
84
840
85
85174
86
863
865
87
88
89
9
90
900
905617
908573
91
917
92
926
93
94
95
950
96
960
965
97
973
978
98
982
988
99
998
:
;
<
=
>
?
@
[
\
]
^
_
`
a
aa
aabaadee
aachaary
aadar
aadat
aadesh
aadha
aadhaar
aadhaarit
aadhi
aadhikaarik
aadhunik
aadhyaatmik
aadi
aadivaasee
aadivaasiyon
aadmi
aae
aaee
aaeen
aag
aagamana
aage
aagi
aagrah
aahvaan
aai
aaia
aailaindar
aain
aais
aaj
aaja
aaji
aajkal
aakarshit
aakhir
aakhri
aakraman
aalochana
aam
aamantrit
aamataur
aamir
aan
aandolan
aandolanon
aane
aankhi
aantarik
aao
aap
aapan
aaparaadhik
aapas
aapn
aapul
aar
aaron
aarop
aaropon
aart
aarthik
aarts
aary
aas
aasaan
aasapaas
aasis
aasmaan
aastreliyaee
aata
aatankavaad
aatankavaadee
aate
aath
aatma
aatmaa
aaur
aavaaj
aavaas
aavaaseey
aavaaz
aavashyakata
aawe
aay
aaya
aayaat
aayaralaind
aayarish
aayars
aaye
aayog
aayojak
aayojan
aayojit
aayu
ab
aba
abaadi
ababa
abba
abbas
abbott
abc
abd
abduction
abdul
abdullah
abel
aberdeen
abhee
abhi
abhinay
abhineta
abhinetree
abhinetri
abhishek
abhivyakti
abhiyaan
abhiyaanon
abhiyantriki
abhyaas
abi
abkhaz
abkhazia
able
abolition
aboriginal
about
above
abraham
abroad
abroginal
abs
abstract
abu
abuja
ac
academia
academic
academy
access
accessdate
accessed
accha
accident
according
account
accounting
accounts
accra
accused
ace
aceh
acehnese
achaanak
achaar
acharya
achchaa
achchha
achchhaa
achchhee
acheevament
achham
achievement
achievements
acid
acquired
acre
acrobate
across
act
acting
actinoids
action
active
activism
activist
activists
activities
activity
actor
actress
ad
ada
adaalat
adam
adams
adan
adana
adas
adb
add
added
addiction
addis
addition
address
adelaide
aden
adheen
adhi
adhik
adhika
adhikaansh
adhikaar
adhikaaree
adhikaariyon
adhikaaron
adhikar
adhikarik
adhiniyam
adhisochit
adhivakta
adhyaksh
adhyayan
adi
adjective
adler
admi
admii
administration
administrative
administrator
adolf
adopted
adrian
adrien
advance
advanced
adventure
adventures
advice
advisor
advisory
adzuba
aerial
aeroplane
aesaa
aewa
aewahoecamqag
aewb
af
afc
affair
affairs
afghan
afghanistan
afpat
africa
african
afrikaans
afshin
after
aftermath
afzal
ag
again
against
agale
agar
agartala
agast
age
aged
agency
agent
ages
agle
agnes
agni
agnihotri
ago
agra
agranee
agree
agreement
agricultural
agriculture
agua
agyaat
ah
ahaa
ahamad
ahara
ahe
ahead
ahmad
ahmadiyya
ahmed
ahmedabad
ahukewi
ahukewj
ai
aiatsis
aida
aids
aik
aim
air
aircraft
aires
airlines
airport
airports
airways
ais
aisa
aisan
aise
aisea
aisee
aitihaasik
aj
ajaad
ajaadi
ajamgarh
ajay
ajedrez
ajesh
ak
aka
akaadamik
akariva
akbal
akbar
akc
akchhar
akele
akhabaar
akhchhar
akhil
akhri
akhtar
akira
akra
aksar
akshay
aktoobar
al
ala
alaava
alag
alaga
alam
alan
alaska
alawa
alba
albania
albanian
albert
alberto
albion
albrecht
album
alcohol
aldrine
alee
alejandro
alekjendar
alessandro
alex
alexa
alexander
alexandra
alexandre
alexandria
alfonso
alfred
algebra
algeria
algiers
ali
alia
alice
alicia
alien
aliens
alighieri
align
alison
alive
aliya
alkali
alkimiya
all
allah
allahabad
allan
allegory
allen
alleviation
allgemeine
alliance
allison
allmusic
allow
allowed
almost
alofa
alone
along
alonso
alpha
alphabet
alpine
alps
also
altar
altarpiece
alternative
although
alto
aluminium
alvin
always
alzheimer
am
amal
aman
amanda
amaranth
amateur
amazing
amazon
ambassador
ambedkar
amber
ambika
ambox
amdani
ame
ameer
america
american
americans
americas
amerika
amerikaa
amerikan
amerikee
amezain
ami
amin
amir
amit
amitabh
amjad
amma
ammi
amnesty
among
amore
amores
ampurdan
amrish
amritsar
amsterdam
amundsen
amy
an
ana
anagan
anais
analysis
anand
anastasia
anatomy
anchal
anchalka
anchalko
anchalon
ancient
and
andaman
andar
andersen
anderson
andes
andhra
andorra
andrade
andre
andrea
andrew
andrews
andy
ane
anek
ang
angel
angela
angeles
angels
angelus
anger
anglican
anglo
angola
angrejee
angreji
anguilla
anil
animal
animals
animated
animation
anirudh
aniston
anita
anjuman
ankara
ann
anna
anne
annie
anniversary
announce
announced
announces
annual
anonymous
another
answers
ant
antar
antararaashtreey
antarctic
antarctica
antargat
antarim
antarraashtreey
antartica
antatah
anthem
anthony
anthropomorphic
anti
antigua
antilles
antim
antimony
anto
anton
antoni
antonia
antonio
antony
antrobus
antwerp
anu
anubandh
anubhav
anudaan
anumaan
anumati
anup
anupam
anurodh
anusaar
anusandhaan
anusar
anusaran
anuvaad
any
anz
aomic
aor
ap
apaharan
apan
apana
apanaa
apane
apanee
apani
aparaadh
aparaadhon
aparajito
apart
apartheid
apartment
apeel
apendix
aphagaanistaan
aphreeka
aphreekee
apia
apisai
apisalome
apna
apne
apni
apocalypse
apokpa
app
appan
apparition
appeal
appearance
appears
appendix
apple
application
applications
applied
appoint
appointed
appointment
approximately
apr
aprail
apre
april
apt
apu
apur
ar
ara
arab
arabi
arabia
arabian
arabic
arabs
aragon
aral
aramaic
araria
arazi
arbii
arc
arch
archie
archipelago
architect
architects
architectural
architecture
archive
archived
archives
arctic
are
area
areas
arena
aretha
argentina
argentine
argus
ari
ariel
aristotle
arizona
arjenteena
arjit
arjun
arjuna
arki
arlequin
armed
armenia
armenian
armeniyaee
arms
armstrong
army
arno
arnold
around
arquette
arrest
arrested
arrival
ars
arsenal
arsenic
art
arth
arthaat
arthashaastr
arthavyavastha
arthur
article
articles
artist
artistic
artists
arts
aruba
arun
aruna
arunachal
arvindra
arya
aryan
as
asa
asam
asantusht
asar
asean
asha
ashaaninka
ashani
ashe
ashgabat
ashish
ashley
ashneel
ashok
ashram
asia
asian
asiatic
asli
aslii
asmara
asp
aspataal
aspataalon
aspects
aspx
assam
assamese
assembly
assis
assise
assistant
associate
associated
association
associations
asthaayee
astitv
aston
astrolabe
astronaut
astronomer
astronomy
asuncio
asveekaar
aswan
at
ata
atatu
ath
athaarah
atheism
athens
athlete
athletes
athletics
atingkok
atithi
atlanta
atlantic
atlas
atma
atmospheric
atoll
atom
atomic
atomica
attack
attacking
attorney
attractions
atyaachaar
atyant
au
auckland
audio
audrey
aug
august
augustine
augustinian
augustus
aujaar
aunt
aupachaarik
aur
aura
aurangabad
aurat
auraten
aus
austin
australasia
australia
australian
austria
austrian
aut
autar
author
authority
authors
auto
autobiography
automatic
automobile
autonomous
autoportrait
autumn
aux
avaard
avadhi
avaidh
available
avar
avaruddh
avasar
avashesh
avasthaa
avasthit
avatar
avec
average
aviation
avicenna
avignon
avila
avinesh
avinyo
avon
awa
awaaj
awadhi
awaj
awami
award
awarded
awards
away
awe
aya
ayala
ayangba
ayo
ayodhya
ayrshire
ayub
az
azad
azadi
azam
azerbaijan
azerbaijani
azharuddin
aziz
azmat
azmi
azzudin
b
ba
baaaamaaj
baabi
baad
baadal
baadha
baahar
baaki
baal
baalamuth
baan
baandh
baap
baar
baarabor
baarah
baaravik
baardasle
baare
baaro
baarr
baat
baata
baavajood
baba
babba
babbar
babbi
babi
babla
babu
baby
babylon
babylonian
bacchanale
bach
bacha
bachaa
bachae
bachao
bachapan
bachchan
bachche
bachchon
bache
bachelor
bachpan
back
backdrop
background
bacon
bacteria
bad
bada
badaavee
badal
badala
badalaav
badale
badalte
bade
badee
badh
badhaana
badhaane
badhaava
badhe
badhee
badhshah
badi
badla
badlao
badle
badminton
badri
badshah
bael
baez
bafta
bag
bagal
bageshwar
bagha
baghdad
baghoi
bagmati
baha
bahaar
bahaari
bahadur
bahamas
bahan
bahanon
bahar
bahas
bahasa
bahe
bahini
bahis
bahrain
bahu
bahumati
bahut
bahuta
bai
baig
baigani
bailey
bain
baindalar
baineemaaraama
bainimarama
baink
bait
baith
baithak
baithe
baitho
bajaar
bajaay
bajae
bajawa
baje
bak
baker
bakhurst
bal
bala
balaatkaar
balance
balasingham
balata
balavu
balawa
balbuk
bale
bali
balkan
balki
ball
ballet
ballon
balochi
balochistan
balon
baltasar
balti
baltic
baltimore
baluchi
balwant
bam
bambar
bambara
bamber
ban
bana
banaa
banaae
banaane
banaawa
banaaya
banae
banaee
banai
banain
banais
banana
banane
banao
banaras
banawa
banawat
banaya
banaye
banayi
band
bandar
bandaranaike
bandler
banduuk
bane
banee
baneen
banerjee
bang
bangaal
bangalore
bangkok
bangla
bangladesh
bangui
bani
banin
banis
banjul
bank
banking
banks
bantu
banu
banyard
bappa
baptie
baptist
baptiste
bar
bara
baraa
baraabar
barabar
barah
barak
barbaad
barbados
barbara
barbeau
barbuda
barcelona
bardaha
bardot
bare
bari
bariarpur
barker
barnes
baro
baroda
baron
baroque
barque
barr
barra
barraa
barracks
barrancos
barre
barrha
barrhaa
barrhae
barrhawa
barrhe
barri
barrier
barrister
barrraa
barrse
barry
barse
bartleby
barton
barycenter
bas
basa
basane
basawaiya
basdeo
base
based
bashar
basho
basic
basil
basilica
basin
basis
basketball
bass
basta
basti
basu
bat
bata
bataaya
batae
batain
batais
batakovic
batawa
bates
bath
batidegei
batman
bator
batsman
battan
batting
battle
bau
bauddhik
baulevu
bauna
bavadra
bawajuut
bay
bayaan
bayani
bayard
bayefsky
baysal
bb
bbc
bc
bce
be
beach
bean
bear
beast
beat
beatles
beats
beatty
beautiful
beauty
bec
became
because
bech
becha
bechat
beche
becker
become
becoming
bed
bedi
bedside
bee
beebeesee
beech
beee
beef
beejing
beeman
been
beer
beethoven
before
began
begg
begin
beginners
begum
behatar
behind
beijing
being
beirut
bej
bekaar
belarus
belarusian
belgian
belgium
belgrade
belhabib
beliefs
beliyar
belize
bell
bella
belle
bellear
bello
belmopan
belo
belongs
below
bemaar
bemaari
bemana
bemari
ben
benaminio
benedicta
benelux
benet
bengal
bengali
beni
benin
benito
benjaamin
benjamin
bennett
benny
benson
bentale
berar
berber
berg
bergman
berkeley
berlin
berlinale
bermuda
bern
bernard
berners
bernhardt
berry
beryllium
best
bet
beta
bete
betee
beth
bette
better
betty
between
beyond
bf
bh
bha
bhaag
bhaagane
bhaageedaaree
bhaai
bhaajapa
bhaal
bhaap
bhaarat
bhaarateey
bhaaratiy
bhaari
bhaasaa
bhaasha
bhaashaa
bhaashan
bhaashee
bhae
bhaee
bhaen
bhaes
bhaeya
bhag
bhagal
bhagavaan
bhagwaan
bhagwan
bhai
bhain
bhais
bhaiya
bhaiyon
bhakti
bhamji
bhandaar
bhang
bhar
bharaa
bharat
bharatiya
bhare
bhari
bharrat
bhartee
bharti
bhartiya
bhas
bhasa
bhasan
bhasha
bhatia
bhatnagar
bhatt
bhaus
bhautik
bhavan
bhavishy
bhawan
bhawani
bhed
bhedabhaav
bhee
bheetar
bhej
bheja
bhejane
bheje
bhejis
bheri
bhi
bhias
bhindi
bhinna
bhitar
bhittar
bhoj
bhojan
bhojpur
bhojpuri
bhookhi
bhoomi
bhoomika
bhopaal
bhopal
bhrashtaachaar
bhu
bhugataan
bhumi
bhushan
bhutan
bi
bibhajan
bibhajit
bibi
bible
bibliography
bich
bichar
bichhawa
bid
biden
bidesi
bidsar
bif
big
bigaha
bigger
biggest
bigha
bihar
bihari
biich
biis
bijalee
bijli
bilingual
bill
billie
billion
billy
bimal
biman
bin
bina
binaa
bindi
bindu
binesh
bing
bio
biographical
biography
biogs
biological
biologist
biology
bird
birds
birmingham
birth
birthday
biship
bishop
bismuth
bismutity
bissau
biswas
bitaaya
bitae
bitais
bite
bitiyeva
bitter
bjo
black
blackstock
blaik
blair
blake
blanc
blanchett
bless
blessed
blessing
bleu
blica
bligh
blind
blindness
bloch
block
blog
blogs
blogspot
blood
bloom
blooz
blue
blues
blunt
bo
boa
board
boat
bob
bobby
boccoli
bock
bodies
body
boe
boer
bog
bogota
boil
bois
bok
bokini
bol
bola
bolaa
bolaitoga
bolane
bolat
bolate
bold
bole
boleeviya
boli
bolis
bolivia
boll
bollywood
bolo
bolshevik
bolt
bolu
bolywood
bomb
bombay
bonaparte
bonar
bond
bondita
bone
bones
bonn
bonnie
book
booker
books
boot
booth
bora
bord
border
borges
borgo
boris
borja
born
boron
bose
bosnia
bosnian
boss
boston
botal
botanical
botany
both
botswana
bottle
bottom
boubale
bougainvillea
boundary
bounty
bouquet
bournemouth
bowa
bowl
bowler
bowling
box
boxer
boxing
boy
boya
boycott
boyne
boys
br
braand
braayant
brad
bradley
brady
brahaspati
brahma
brahman
brahmaputra
brahmin
brahui
braidee
brain
branch
branches
brand
brandon
bras
bratislava
braun
brave
brazil
brazzaville
bread
break
breakdown
bred
brenan
brendan
breton
brett
brewer
brian
brick
bridge
bridges
bridgetown
brief
brien
bright
brigitte
brij
brill
bringing
brisbane
bristol
britain
britannia
britannica
briten
british
brittain
brittany
brny
broadcast
broadcasting
broadway
broderick
broken
bromehead
bromwich
bronze
brooke
brooklyn
brooks
brother
brothers
brown
bru
bruce
brunei
bruno
brunswick
brush
brussels
bryan
bryant
bu
bua
bubble
buck
buckhurst
bud
budapest
buddha
buddhi
buddhism
buddhist
budget
budh
buenos
builder
building
buildings
built
bujumbura
bujurg
buk
bukalidi
bukar
buksh
bukuru
bula
bulaaya
bulabula
bulbul
bulgaria
bulgarian
bulileka
bulk
bull
bullock
bulu
bune
buniyaadee
bureau
bureaucrat
burj
burkina
burma
burmese
burn
burning
burnley
burns
burra
burt
burton
burundi
bus
bush
business
businessman
businesswoman
bust
buste
but
butler
butterfly
button
buy
buzz
by
byne
byoonas
byrne
byron
byzantine
byzantines
byzantium
c
ca
cabinet
cadaque
caddy
caesar
cafe
cain
cairo
cakaudrove
cake
cakobau
cal
cala
calculus
calcutta
caldero
caledonia
calendar
calia
california
call
called
calligraphy
calling
calvin
cambodia
cambridge
came
camel
camera
cameron
cameroon
camo
camoens
campaign
campaigner
campbell
campus
can
cana
canada
canadian
canal
canberra
cancer
candidate
candidates
cane
cannibalism
cannon
cannot
canterbury
cantonese
canvas
cao
cape
capital
capitalism
capitals
captain
capture
car
carbohydrates
carbon
card
cardiff
cardinal
cards
care
career
carell
carey
cargo
cargoe
caribbean
carl
carling
carlo
carlos
carlotto
carlson
carmel
carmen
carmine
carnival
carol
carolina
caroline
carolyn
carpenter
carr
carrie
carroll
carrying
carson
carter
cartier
cartoon
casa
casagemas
casals
casanova
casco
case
casey
caspian
cast
caste
castillo
castle
castro
cat
catala
catalan
catalogue
catalonia
cate
category
categorytemplate
cathedral
catherine
catholic
cattle
caucasus
cause
cava
cb
cbc
cc
cd
ce
cebuano
cecilia
cede
cedric
ceiling
celebrate
celebrating
celebrations
celestial
cell
cellini
cello
cells
celtic
cem
census
cent
centenary
center
centerbury
centers
central
centre
cents
centuries
century
ceo
ceremony
cerium
certain
certificate
cervantes
cession
ceylon
cf
ch
cha
chaacha
chaad
chaadiyan
chaahane
chaahat
chaahate
chaahatee
chaahe
chaahi
chaahie
chaahiye
chaak
chaakon
chaal
chaalis
chaand
chaar
chaarls
chaaro
chaaron
chad
chaddha
chaerman
chahe
chai
chaild
chaimbar
chaimpiyan
chaina
chainal
chair
chairitee
chairman
chaitanya
chak
chakla
chakraborty
chakravartee
chal
chala
chalaa
chalaane
chalaaya
chalae
chalais
chalane
chalat
chalate
chalawat
chalawe
chale
chalee
challenge
chalmers
chalo
chamber
chamcha
chamke
champion
champions
championship
chamrraa
chan
chance
chancellor
chand
chandan
chandarma
chandigarh
chandler
chandra
chandragupta
chandrayaan
chang
change
changed
changes
changing
channel
channels
channing
chants
chapa
chapeau
chapel
chaplin
chapman
chapter
chapters
char
character
characters
charan
charch
charcha
charge
charity
charles
charlie
charlotte
charr
charter
charulata
chase
chattan
chatterjee
chattur
chatu
chau
chauaa
chaucer
chaudah
chaudhry
chaurra
chaurraa
chaurrai
chautha
chavez
chawla
che
chechan
chechanya
check
cheddi
cheen
cheenee
chef
chekhov
chelsea
chemical
chemist
chemistry
chen
chenab
chennai
chess
chestnut
cheung
cheval
chh
chhaatr
chhaatra
chhaatravrtti
chhaatron
chhah
chhapa
chhapas
chhattisgarh
chhe
chhed
chhetri
chhod
chhodane
chhor
chhorr
chhorra
chhorraa
chhorre
chhota
chhotaa
chhote
chhotee
chhoti
chhurri
chhuttee
chhutti
chi
chiang
chiara
chicago
chicaje
chief
chiefly
chiefs
chij
chikitsa
child
childe
childran
children
chile
chili
chillia
chin
china
chinese
chinh
chini
chinta
chipko
chipmunks
chirriya
chis
chit
chitr
chitra
chitral
chitrali
chitrit
chitrkaar
chitthi
chloride
chlorine
cho
chocolate
chocue
choi
choice
cholera
chomsky
choonki
choose
chop
chopra
chor
chorr
chorus
chot
chota
choti
choudhary
chris
christ
christian
christianity
christians
christina
christmas
christopher
chromity
chromium
chronology
chuke
chun
chuna
chunaav
chunautee
chune
chunee
chunis
chuppe
church
churchill
chutti
ci
cia
cicia
cigarette
cindy
cinema
cinq
circle
circus
citation
cite
cities
citizen
citizens
citizenship
citron
city
ciuta
civic
civil
civilian
civilisation
civilization
clague
claim
claims
clair
claire
clare
clark
clarke
clash
class
classes
classic
classical
classification
claude
claudia
claudio
clay
cle
clear
clemens
cleopatra
clerk
clima
climate
clint
clive
clock
clooney
close
cloth
clothing
cloud
clouds
club
clubs
clyde
cm
cn
cnn
co
coach
coal
coalition
coast
coastal
coastline
coat
cobalt
cocbaaaamaaj
cocos
code
codro
coffee
cognuck
cohen
coin
coins
cold
cole
coleman
colin
collected
collection
collections
college
colleges
collette
collins
colman
colo
cologne
colombia
colombian
colombo
colonel
colonial
colonies
colony
color
colour
columbia
columbus
column
com
combine
combined
come
comedy
comes
comic
coming
commander
commentary
comments
commerce
commercial
commission
commissioner
committee
common
commonly
commons
commonwealth
communal
communication
communications
communism
communist
communists
community
comoros
companies
companion
company
comparative
compare
comparison
compass
competition
compiled
complain
complete
completed
complex
component
compose
composer
composition
compotier
compound
comprehensive
computer
con
conakry
concept
concert
concise
conde
condemn
condition
conditions
conduct
confederacy
confederation
conference
conflict
confucius
congo
congress
connected
connection
connell
connor
conqueror
conrad
consecutive
consequences
conservation
conservative
considered
consituency
constance
constantine
constantinople
constitency
constituencies
constituency
constitution
constitutional
construction
consul
contact
container
containing
contains
contemporary
content
contents
contest
context
continent
continental
continents
continue
continued
contituencies
contract
contrast
control
convention
convert
cook
coolie
cooper
coordinates
coordinator
cop
copa
copenhagen
copernicus
copper
coprotagonista
copy
copyright
coral
corbett
corbin
corbusier
core
corey
cornell
corner
corporation
corps
corpus
corridor
corruption
corsica
cosmic
cost
costa
costello
coster
costume
costumes
cote
cottingham
cotton
couche
could
council
councillor
count
counter
countries
country
county
coup
couple
coups
courage
courier
course
courses
court
courtney
courts
courtyard
cousin
cover
covers
covid
cow
cox
cr
cradle
craig
crayola
create
created
creation
credit
creek
creole
crescent
crested
creus
crew
cricinfo
cricket
cricketer
crime
crimes
crimson
crisis
cristiano
cristina
critic
critical
criticism
critics
croatia
croatian
cromwell
crops
cross
crossing
crown
crucifixion
crusades
cruz
cry
crystal
crystals
cs
csr
ctor
cu
cuba
cubic
cubist
cultural
culture
cultures
cunningham
cup
cure
curie
curitiba
currency
current
currently
curtain
curtis
customs
cut
cuvu
cvc
cycle
cycling
cyclone
cyclopedia
cyprus
cyrillic
cyrus
czech
czechia
d
da
daada
daadee
daadi
daag
daagistaan
daakhila
daal
daala
daam
daan
daant
daarshanik
daaru
daas
daava
daayar
dabal
dabao
dabba
dada
dafe
dag
dah
dahej
dai
dailekh
daily
daisy
dakar
dakcchin
dakota
daks
dakshin
dakshinee
daku
dakua
dal
dala
dale
dali
dalit
dallas
daly
dam
damaad
damage
daman
damascus
dame
damian
damon
dampati
dan
dana
dance
dand
dane
danger
dangra
daniel
daniels
danish
danny
dans
dante
danube
dar
dara
darha
dari
darj
darjan
dark
darkness
daro
darren
darshan
darshanashaastr
dartmouth
darwin
das
dasa
dashak
dashakon
dass
dastaavejeekaran
data
database
date
dates
dating
datt
dau
daudnagar
daughter
daughters
dauniseka
daura
dauraan
dav
dave
davendra
david
davies
davis
davuilevu
dawa
dawai
dawat
dawn
day
daya
dayaanand
dayal
dayanand
days
ddc
de
dead
deaf
dean
death
deaths
debate
deborah
debout
debut
dec
decade
december
decide
decided
decision
declaration
declare
declared
decline
decree
dedi
dedicated
dee
deen
deep
deepak
deerghakaalik
default
defence
defend
defender
defenders
defending
defense
defined
definition
definitions
degree
degrees
dehin
dehri
deities
deity
dekh
dekha
dekhabhaal
dekhae
dekhaes
dekhais
dekhakar
dekhane
dekhate
dekhawa
dekhawe
dekhe
dekhin
dekhis
dekho
del
delft
delgado
delhi
deliver
dell
della
delphine
delta
demand
demee
demerara
democracy
democratic
demografi
demographics
demoiselles
demokretik
den
dena
denavar
dene
denis
denmark
dennis
denny
density
deo
deoki
deol
department
departments
deport
depot
depp
dept
depth
deputy
der
derby
derek
deri
deriyan
derrick
des
desai
descartes
descendants
descendents
descent
describe
described
description
desert
desh
desho
deshon
design
desire
destination
destiny
destroy
deta
detail
detailed
details
dete
detee
detroit
deuba
deutsche
deutschland
deux
dev
devalapament
devana
devanagari
devata
devataaon
devee
develop
developed
development
devi
devid
devil
devis
devon
dewa
dewais
dewan
dewata
dewatawong
dewe
dewi
dey
dh
dha
dhaan
dhaaraapravaah
dhaarmik
dhaatu
dhaka
dhakka
dhamakee
dhamakiyon
dhan
dhang
dhani
dhanyavaad
dharam
dharm
dharma
dharmendra
dharmic
dharmik
dhaualagiri
dheere
dher
dhi
dhika
dhire
dhoe
dholak
dhyaan
dhyan
di
dia
diagram
dialect
dialects
diameter
diamond
diamonds
diana
diane
diary
diaspora
dice
dickens
dickson
dictator
dictionaries
dictionary
did
die
died
diego
dies
dietrich
difference
differences
different
difficult
digest
digital
digitised
digree
diin
diis
dikhaaya
dikhaee
dil
dildar
dilip
dilkusha
dillee
dilli
dillon
dimaag
dimag
dimple
din
dina
dinesh
dinger
dinner
dinon
dinosaur
dinosaurs
dioxide
diploma
diplomacy
diplomat
diplomatic
dir
direct
directed
directing
direction
director
directorate
directory
dirty
dis
disambar
disambiguation
disaster
discharge
disciplinary
discourse
discover
discoveries
discovery
discrimination
discussion
disease
dish
disha
dismiss
disney
displaystyle
disputed
distance
distinguished
district
districts
disturbing
diva
divas
divide
divided
divine
division
divisions
divorce
diwaal
diwali
dixit
dixton
diya
diyaa
diye
dj
djamena
djibouti
djiraibe
dk
do
doc
dock
docs
doctor
documentary
documents
does
dog
dogs
doha
doi
doidoi
doktar
doktaret
dolar
doli
dollar
dom
domain
dome
domestic
dominance
domingo
dominica
dominican
dominion
don
donald
donatello
donda
done
dones
dong
donnelly
dono
donon
donovan
door
doosare
doosaree
doosaron
doosre
dora
doris
dorsami
dos
doshee
dost
doston
double
doubt
doug
douglas
douran
dove
dover
down
downey
download
downloadable
doxford
dq
dr
dragon
drama
dramatist
draperie
drasa
draw
drawers
drawing
drawings
dre
dream
dreams
dreketi
dress
drew
dried
drink
drive
driver
driving
dromaibau
drop
drshti
drshtikon
drug
drum
drums
dry
du
dual
dubai
dublin
dubois
due
duggi
dugna
dugucagi
duguid
dui
duka
dukaan
duke
dukh
dum
duman
dumas
dumbarton
dunadamu
duncan
dundee
dunia
duniya
duniyaa
duno
dunwoody
dunya
dur
dura
durer
durg
durga
duri
during
durvyavahaar
dus
dusari
dushman
dusic
dusman
dusra
dusre
dust
dustin
dutch
dutt
dutton
duub
duudh
duuno
duur
duusar
duusra
duusre
dva
dvaara
dvaaraa
dvara
dvd
dveep
dviteey
dvor
dwara
dwight
dyer
dyhia
dylan
dynamics
dynasty
e
each
eagle
ear
earl
earlier
earliest
early
ears
earth
earthchild
earthquake
easily
east
easter
eastern
eastwood
easy
eb
eborijinal
eborijins
ec
ece
echo
eco
ecology
economic
economics
economist
economy
ecuador
ecuadorian
ed
edavaansament
edavards
eddie
eden
edgar
ediled
edinabarg
edinburgh
edirne
edison
edit
edith
edition
editions
editor
editorial
editors
edmond
edmund
edo
eds
edu
education
educational
educator
edward
edwards
edwin
ee
eenayoo
eeraan
eeraanee
eesaee
eeseetee
eeshvar
eestaden
eetok
eeyar
effect
effects
eg
egg
eggs
egypt
egyptian
ehir
ei
eiffel
eight
einstein
eisenberg
ejensee
ejensiyon
ek
ekal
ekamaatr
ekatr
ekdam
ekeekrt
ekka
ekke
ekko
eko
ekshan
el
ela
elaayans
elbe
elcastellano
elction
elder
elect
elected
election
elections
electoral
electors
electric
electrical
electricity
electromagnetic
electron
electronic
element
elements
elena
elephant
elevation
eli
elias
elijaabeth
eliki
elimination
elisiya
elizabeth
ellen
ellice
ellington
elliott
ellis
elman
elpais
eluard
elvis
em
emanestee
embassy
eme
emi
emic
emigration
emil
emily
emirates
emma
emmanuel
emmanuelle
emoinu
emotion
emperor
empire
employees
employment
empress
empty
ems
en
ena
enajeeo
encarta
enciclope
encounter
encourage
encyclopaedia
encyclopedia
encyclopædia
end
endarasan
ended
endrayooj
endred
ends
enee
enemy
energy
enfant
eng
engels
engine
engineer
engineering
england
english
engraver
engraving
enigma
enigmas
enjils
enlightenment
enough
enric
enter
entertainer
entertainment
entire
entrance
entrepreneur
entry
environment
environmental
environmentalist
enzymes
epeli
epenisa
ephajeeem
epic
episode
epsubpageextractor
equal
equality
equation
equations
equator
equatorial
equestrian
equipment
er
era
erenio
eric
erik
erika
erin
eritrea
eritrean
ernest
ernst
erotic
error
erwin
es
esala
esava
escobar
escorial
ese
eshiya
eshiyaee
esid
esosieshan
espan
esperanto
espn
espncricinfo
esquivel
essay
essays
essential
est
establish
established
estate
estela
estemirova
estimate
estimated
estimates
estonia
estonian
et
etc
ethan
ethics
ethiopia
ethnic
ethnicity
ethnologue
etna
etwaar
etwar
eu
euge
eurasia
euro
eurobarometer
europa
europe
european
europeans
eva
evan
evangelista
evans
eve
even
evening
event
events
ever
everest
everton
every
everything
evidence
evil
evolution
ewam
ewan
ewe
ex
exact
exam
examination
example
examples
excel
excellent
except
exception
exchange
executive
exhibition
exile
exist
expansion
expedition
expeditionary
expensive
experience
experiment
expert
explanation
exploding
exploration
explorer
export
express
extensive
external
extra
extraordinary
extreme
eye
eyes
ez
ezra
f
fa
face
facebook
faced
faces
facilities
facsimile
fact
factbook
faction
factory
facts
faculty
faeda
fael
faesla
faila
faile
failure
fair
fairy
faith
fake
fal
falkland
fall
falling
falls
false
fame
familiar
families
famille
family
famous
fan
fanny
fans
fantastic
fap
far
farebrother
farm
farmers
farming
faroe
farouk
farrow
farsi
farsii
farwari
fas
fashion
faso
fassee
fast
fat
fatehpur
father
fauj
faust
fauteuil
fazilka
fbc
fc
fe
fear
feather
feature
features
featuring
feb
february
fed
federal
federated
federation
federico
feel
feeling
feet
felix
fellow
fem
female
feminine
feminism
femme
femmes
ferdinand
ferguson
ferna
fernande
fernando
ferociously
feroz
ferrer
festival
festivals
fever
few
feynman
ff
ffa
fgm
fi
fiction
ficus
fide
fidel
field
fields
fifa
fifteenth
fifth
fifty
fight
fighter
fighting
figueras
figueres
figure
figures
fij
fiji
fijian
fijians
fijifirst
fijilive
fijitimes
fijivillage
fikile
filam
file
files
filipino
fille
film
films
final
finalist
finally
finals
finance
financial
finau
find
finding
fine
finger
finished
finland
finnish
fiona
fir
fire
firenze
firm
first
firth
fischer
fish
fisher
fisheries
fishermen
fishing
fit
five
fix
fiziyan
fj
flag
flame
flames
flash
flat
fleece
fleischer
fleming
flemish
fletcher
fleurs
flick
flight
flights
flood
flora
florence
florida
flossie
flow
flower
flowers
floyd
flp
fluorid
fly
flying
flynn
focus
folk
folklore
follow
following
follows
font
food
foot
football
footballer
for
forbes
force
forces
forche
ford
forecast
foreign
forest
forever
form
formal
format
formation
formed
former
formerly
forms
forrest
fort
fortress
forty
forum
forward
foster
fought
found
foundation
founded
founder
founding
four
fourth
fox
fp
fr
fragment
franc
france
frances
francesca
francesco
franchise
francia
francis
francisca
francisco
franco
frank
frankenstein
frankfurt
franklin
franz
fraser
fre
fred
frederick
free
freed
freedom
freehold
freeman
french
frequency
fresco
fresh
freud
frida
friday
frideric
fried
friedrich
friend
friendly
friends
friendship
frisian
from
front
frontispiece
frontlinedefenders
fruit
fruits
frut
fry
fsc
ft
ftu
fu
fuel
fulaga
full
fully
fultala
fun
function
fund
fundamentalism
funeral
fungi
funnel
furniture
fuster
futuna
future
fuul
fuus
fuut
g
ga
gaadur
gaana
gaane
gaanv
gaari
gaarjiyan
gaarri
gaarsiya
gaayab
gaayak
gabon
gaborone
gabriel
gachh
gad
gadaadhar
gae
gaee
gaeen
gaelic
gaffar
gahana
gahiarai
gahira
gai
gailaaghar
gain
gair
gais
gaiya
gal
gala
galatea
galaxies
galaxy
gale
galee
gali
galib
galician
galileo
gallagher
galleria
gallery
gallia
galoa
galti
gambheer
gambia
game
games
gamma
gan
gana
ganaraajy
ganda
gandaki
gandhi
gandhinagar
ganesh
ganga
gangadhar
ganges
ganilau
ganna
gannushakina
gantlos
ganv
gao
gaon
gap
gara
garage
garam
garbhapaat
garbhavatee
garc
garci
garcia
garden
gardens
gareeb
gareebee
garhwal
gari
garib
garibi
garland
garls
garm
garments
garmi
garnu
garrhu
garvey
gary
gas
gate
gates
gateway
gathabandhan
gathan
gathering
gati
gatividhi
gatividhiyon
gau
gauge
gaul
gaunavou
gaura
gaurav
gautam
gautama
gavarnar
gavidi
gavin
gawaiya
gay
gaya
gayaa
gaye
gayi
gaza
gazal
gazette
gazetteer
gb
ge
gear
geet
geeta
geeton
gem
gena
gender
gene
genealogy
general
generation
generations
genes
genesis
geneva
geng
genghis
genius
genus
geo
geoff
geoffrey
geographic
geographical
geography
geological
geology
geometry
georg
george
georges
georgetown
georgia
georgian
ger
gerald
geraldine
gerede
gerhard
german
germanic
germans
germany
get
gets
getting
gh
gha
ghaana
ghaat
ghaayal
ghai
ghais
ghalib
ghana
ghanishth
ghanta
ghante
ghar
ghara
ghare
ghareloo
gharon
ghasi
ghat
ghatana
ghatanaon
ghatna
ghazal
ghimire
ghorra
ghosh
ghoshana
ghoshit
ghost
ghp
ghulam
ghumis
ghus
gi
giacomo
giant
giants
gias
gibraltar
gibson
giki
gilaas
gilbert
gilgamesh
gill
gilles
gillion
gimitya
gina
ginti
giordano
giorgio
giovanni
gir
giraas
giraffe
giraphtaar
giraphtaaree
gire
giri
girija
girl
girls
girmit
girmitya
girmityas
gis
gita
giuseppe
give
given
gives
giza
gl
glaasago
glacier
gladys
glasgow
glass
gledis
gleeson
glenn
glob
global
globalization
globe
gloria
glorious
glory
glossary
glover
glowing
glucose
go
goa
goal
goals
goalscorer
gobardhanpur
god
godavari
goddess
gods
goes
gogh
going
gokhale
gola
golaa
gold
goldamain
goldan
goldberg
golden
goldman
golee
golf
golfer
goli
golian
golzar
gomez
good
goodman
google
goola
goopy
gopal
gopalan
gopalapuriya
gopalganj
gopi
gora
goraa
gordiha
gordon
gore
gorr
gos
gosling
gospel
goswami
got
goundar
gounder
gourd
gov
governing
government
governmental
governor
govind
govinda
govindpark
govpubs
goya
gp
gr
graameen
grace
graces
grade
gradiva
graduate
graduates
grah
graha
graham
gram
grammar
gran
grand
grande
grandfather
grandmaster
grandmother
grandson
grant
grape
grass
grasslands
grave
gravity
gray
gre
great
greater
greatest
greece
greek
green
greenland
greenwood
greg
gregory
grenada
grenadines
grenedains
gres
gret
greta
gretta
grey
grh
grhayuddh
griffin
griffith
ground
grounds
group
groups
grove
growers
growing
growth
grup
gu
guaalinga
guadeloupe
gualinga
guam
guarani
guardian
guatemala
guevara
guez
guiana
guide
guides
guido
guillermo
guilty
guinea
guitar
guitarist
gujarat
gujarati
gujerati
gulaabi
gulaam
gulam
gulami
gulf
gulu
gulzar
gun
gupt
gupta
guru
gurudev
gurukul
gustav
gut
gutenberg
guy
guyana
gvaatemaala
gwalior
gwent
gya
gyaan
gyaarah
gyan
gyanendra
gyaneshwar
gyne
h
ha
haal
haalaanki
haali
haan
haangakaang
haanth
haanthi
haar
haare
haaris
haarvard
haasil
haath
had
hadataal
haddi
hae
haee
haen
hafez
hafta
hai
haidara
haifa
haim
hain
hair
haiti
haitian
hajaar
haji
hajj
hakka
hale
half
hall
ham
hamaar
hamaara
hamaare
hamala
hamale
hamalon
hamesha
hamilton
hamla
hamlet
hammer
hampshire
hampton
han
hana
hanan
hanba
hand
handbook
handel
handle
hands
hank
hanks
hannah
hannibal
hans
hansen
hanta
happiness
happy
haq
har
hara
harae
harais
harald
harassment
harbour
hard
hardy
hare
hari
haris
harish
hariyar
harlin
harmandir
harmony
harnam
harold
harp
harper
harpercollins
harppaa
harrelson
harris
harrison
harrtaal
harry
hart
harvard
harvey
harvnb
haryana
haryanvi
has
hasan
hassan
hassanali
hastakshep
hat
hata
hataane
hataawa
hatae
hatawa
hate
hathaway
hatya
hau
haus
hausa
havaee
have
haven
having
hawa
hawaa
hawai
hawaii
hawaiian
hawke
hawthorns
hay
haydn
hazara
he
head
headquarter
headquarters
heads
health
hear
heard
heart
heat
heath
heather
heaven
heavy
hebrew
hebrides
hed
hee
hegel
hei
hein
heinrich
hekari
held
helen
helena
helia
helium
hellenic
helloi
heloi
help
helped
helps
helsinki
helth
hema
hemisphere
hemsworth
hendrix
henjunaha
henley
henri
henrik
henry
her
herae
herald
herbert
here
hereford
heritage
hermann
hermitage
herna
hero
heroes
herrera
herzegovina
het
hex
hey
hi
hian
hibiscus
hidden
high
highest
highway
hil
hiligaynon
hill
hills
him
himachal
himalaya
himalayan
himalayas
himself
hindi
hindistani
hindko
hindu
hinduism
hindustan
hindustani
hinsa
hippo
hiraasat
his
hispainik
hispanic
hispanics
hispaniola
hissa
hisse
historia
historian
historians
historic
historical
history
hit
hitchcock
hitler
hiv
hl
hms
ho
hoa
hobart
hockey
hodge
hoe
hoffman
hoga
hogaa
hoi
hokar
hokusai
hol
hold
holding
holds
hole
holes
holiday
holidays
holland
hollywood
holmes
holmhurst
holocaust
holy
hom
homage
home
homecentres
homepage
homer
homme
homo
hon
hona
honduras
hone
hong
honiara
honolulu
honour
honoured
honours
hood
hooghly
hoon
hoover
hope
hopkins
hor
horace
hormone
hormones
horn
horse
horses
horta
hospital
hospitals
host
hostage
hostages
hosts
hot
hota
hotaa
hote
hotee
hotel
hotels
hoti
hotspur
houghton
hoult
hour
hours
house
houses
housing
how
howard
howat
howe
however
howrah
hoy
hr
hrithik
hrw
htm
html
http
https
hu
hua
huaa
huan
huang
hudson
hue
huee
hueen
hugh
hughes
hugo
hui
hukum
hum
human
humanist
humanities
humboldt
humphrey
hundred
hungama
hungarian
hungary
hunt
hunter
huron
hurricane
hurt
husain
husband
hussain
hussein
huston
huwa
huxley
huye
huyi
hyderabad
hydrabad
hydrogen
hyooman
i
ian
iata
ibibio
ibn
ibrahim
ic
icao
icc
ice
iceland
icelandic
icon
id
idah
idc
idea
ideas
identified
identity
idiot
idle
ie
ies
if
ifrah
ignored
igri
iguana
ih
iho
ii
iii
iiit
iiitd
ijaajat
ijajat
ijaraayal
ijaraayalee
ik
ika
ikattha
ike
ikk
ikonomiks
iks
ikvaador
ikya
il
ila
ilaaj
ilaka
ilam
ile
ili
ilimotama
ilisoni
illegal
illinois
illustrated
illustration
illustrations
iloilo
ilokano
iloko
ilyich
im
image
images
imaginary
imdb
immigrant
immigrants
immigration
immune
impact
imperial
imperialism
imphal
import
importance
important
impressionist
imung
in
ina
inake
inc
inca
include
included
includes
including
incubator
indaur
indenture
indentured
independence
independent
index
indi
india
indian
indiana
indians
indies
indigenous
indijinas
indira
indo
indoneshiya
indoneshiyaee
indonesia
indonesian
indore
indus
industrial
industries
industry
ine
influence
influential
info
infobox
information
ingin
inglaind
inhabitants
inia
inis
initials
initiative
injeeniyar
inkaar
inkar
inke
inoke
inosi
input
inquiry
insaan
insee
inside
inspiration
inspired
instagram
instead
insteetyoot
institut
institute
institutions
instituto
instrument
instruments
insurance
int
intaraneshanal
intellectual
intelligence
inter
interactive
interdistrict
interest
interesting
interim
interior
internal
international
internet
interpretation
interview
interviews
into
inton
introduce
introduction
invade
invalid
invasion
invent
invention
inventor
investment
invisible
involved
ioana
iodine
ion
iowa
ipa
ipch
iphara
iprage
ipsavich
iqbal
ir
iraak
irai
iran
irani
iranian
iranica
iraq
iraqi
ireima
ireland
irene
irish
iron
irrfan
irwin
is
isa
isaabel
isaac
isabel
isabelle
isai
isaka
isakaa
isake
isakee
isalie
isamen
isane
isase
isbn
ise
isee
ishaat
ishaq
ishvar
isi
isikeli
isimeli
isireli
iska
iske
iski
isla
islaamik
islam
islamabad
islami
islamia
islamic
island
islanders
islands
isle
isles
isme
isne
iso
isoa
isotopic
ispe
israel
israeli
iss
isse
issn
issue
issues
ist
istanbul
isteepha
istemaal
it
ita
italee
italian
italy
itan
item
itgo
itiha
itihaas
itihaasakaar
itihas
itimi
its
itself
ity
iuniverce
iuniverse
iupac
iv
ivan
ivanov
ivoire
ivory
iwgia
iya
iyintk
iyo
izarail
j
ja
jaa
jaaae
jaada
jaadaa
jaae
jaagarook
jaagarookata
jaai
jaan
jaana
jaanakaaree
jaanat
jaanate
jaanavaron
jaanch
jaane
jaanee
jaankari
jaanwar
jaaree
jaari
jaat
jaata
jaataa
jaate
jaatee
jaati
jaawa
jaawat
jaawe
jaaya
jab
jabaki
jabaran
jabarjasti
jack
jacket
jackie
jackman
jackson
jacob
jacqueline
jacques
jada
jadha
jae
jag
jagah
jagan
jagannath
jagdeo
jagha
jaha
jahaaj
jahaan
jahan
jahangir
jahar
jahel
jaheli
jai
jail
jaime
jain
jaina
jaipur
jaisa
jaise
jaisee
jaisi
jaiv
jaiye
jakarta
jake
jal
jala
jalal
jalandhar
jalavaayu
jald
jalsaghar
jam
jama
jamaana
jamaica
jamana
jameen
jameenee
james
jamhaur
jamie
jamiin
jamin
jammu
jamp
jan
jana
janagananita
janakpur
janam
janamat
jananaang
janaral
janasan
janat
janata
janavaree
jane
janeiro
janeman
janet
jang
jangal
jangalon
jangle
jankari
janm
janma
janme
jannif
janta
january
janwar
japan
japanese
jar
jarae
jardin
jariye
jarman
jarmanee
jarnal
jarr
jarsee
jarurat
jaruri
jason
jasper
jast
jastis
jata
jate
jati
jau
java
javaab
javanese
javans
javed
javier
jawa
jawaharlal
jawan
jawani
jawat
jawe
jay
jaya
jayanti
jaye
jazz
jd
je
jean
jeanne
jeanneret
jeen
jeet
jeeta
jeete
jeetendra
jeevan
jeevit
jeff
jeffrey
jel
jelks
jems
jen
jenkins
jennifer
jenny
jeong
jeremy
jerome
jerry
jersey
jerusalem
jese
jesoni
jesse
jessica
jesus
jet
jetna
jeune
jew
jewish
jews
jh
jha
jhamak
jhan
jhanda
jhapa
jharkhand
jhund
jhuura
ji
jiit
jiite
jiitis
jila
jile
jill
jilla
jilon
jim
jime
jimi
jimmedaar
jimmy
jin
jinaka
jinake
jinakee
jinamen
jinase
jinda
jindagi
jineva
jinhen
jinhonne
jinke
jinnah
jiraibe
jis
jisaka
jisakaa
jisake
jisame
jisamen
jisane
jisase
jise
jiska
jiske
jisko
jism
jisme
jispe
jisse
jisske
jita
jitae
jitis
jiu
jivan
jiwan
jjawe
jnr
jo
joan
joanna
joannah
jodaro
jodie
joe
joel
joeli
joey
johan
johann
johannes
johannesburg
johar
john
johnny
johnson
joia
join
joining
joins
joint
joker
jokhan
jokhim
joki
jon
jonah
jonas
jonathan
jone
jones
joon
jooniyar
jope
jor
jorahaat
jordan
jordi
jorge
jorj
jorr
jorraa
jorre
jos
josaia
josateki
jose
josef
josefa
josefata
josep
joseph
josh
joshi
joshua
jotis
journal
journalist
journals
journey
joy
joyce
jp
jpg
jpl
jr
ju
juaan
juaarez
juan
juda
judaism
jude
judge
judgement
judy
juhi
jul
julaee
julai
jules
julia
julian
julie
julien
juliet
julius
july
jumna
jumne
jun
june
jung
jungle
junior
junta
jupiter
jurra
jurraa
jury
just
justice
justin
jutiyaapa
juun
jwala
jya
jyada
jyotish
k
ka
kaa
kaaba
kaacho
kaafi
kaagaj
kaahe
kaaheki
kaaka
kaakal
kaakeshas
kaal
kaale
kaam
kaan
kaango
kaangres
kaanoon
kaanoonee
kaanoonon
kaaphee
kaar
kaaraavaas
kaarakhaane
kaaran
kaaranon
kaarban
kaarlasan
kaarravaee
kaartar
kaary
kaaryaalay
kaaryakaal
kaaryakaaree
kaaryakarta
kaaryakartaon
kaaryakram
kaaryakramon
kaaryarat
kaaryashaalaon
kaaryon
kaat
kaate
kab
kabar
kabhee
kabhi
kabir
kabjaa
kabje
kabul
kabutar
kacal
kadam
kadavu
kae
kaee
kafi
kagaj
kaha
kahaa
kahaan
kahaanee
kahae
kahani
kahate
kahe
kaheen
kahi
kahlo
kai
kaid
kaidee
kaidiyon
kaiindianz
kailiphorniya
kaimp
kain
kainabara
kainahewe
kairebiyan
kais
kaise
kaistilo
kaitholik
kaiviti
kajan
kaksha
kal
kala
kalaa
kalaakaar
kalaakaaron
kalakar
kalan
kali
kalidasa
kalki
kalou
kalyaan
kam
kama
kamal
kamar
kamare
kamarupa
kamat
kamee
kameeshan
kametee
kamil
kamini
kamisese
kamjor
kamlesh
kamodor
kampanee
kampanii
kampaniyon
kamrupi
kamti
kamtii
kamyunist
kamyunitee
kanaada
kanaadaee
kanap
kane
kangla
kangleipak
kanhai
kanji
kannada
kanpur
kans
kant
kantaap
kanun
kanuni
kanuri
kanuun
kanvenshan
kanwal
kanya
kao
kapadia
kaplan
kapok
kapoor
kaprra
kaprraa
kar
kara
karaa
karaane
karaaya
karachi
karake
karam
karamchand
karan
karana
karanaa
karane
karat
karata
karate
karatee
karati
karawa
kare
kareeb
kareena
kareja
karen
kari
karia
karin
karis
karisma
kariyar
karjaa
karke
karl
karma
karman
karna
karnali
karnataka
karne
karo
karra
karraa
kars
karta
karte
karti
karwae
kasami
kashmir
kashmiri
kat
katai
kate
katha
katherine
kathin
kathit
kathleen
kathmandu
kathryn
kathy
katie
katika
katsushika
kattar
kattarapanthee
kaunsil
kauntee
kaur
kaushal
kaushik
kautoga
kavar
kavi
kavita
kaviti
kay
kaya
kayi
kazakh
kazakhstan
kbe
ke
kee
keeling
keep
kehkashan
kei
keira
keith
keithel
kela
kelepi
kella
keller
kelly
ken
kendr
kendreey
kendrick
kendrit
keni
kennedy
kenneth
kenny
kentakee
kentucky
kenya
kep
kepler
keraa
kerala
kes
ketna
keval
kevin
kevueli
key
keyar
keyboard
keyboards
keynes
kg
kh
kha
khaady
khaae
khaaki
khaali
khaalu
khaan
khaana
khaara
khaas
khaatir
khaawe
khabar
khada
khadaan
khadee
khadeeja
khae
khaira
khait
khaiyum
khajuri
khalaas
khalas
khali
khalifa
khalil
khalkas
khalsa
khamlangba
khan
khana
khanan
khand
khanh
khanna
khap
khara
kharaa
kharaab
kharab
khareed
khari
kharid
kharida
kharide
kharidis
kharra
kharraa
khartoum
khas
khatam
khatare
khati
khatia
khatir
khatis
khatm
khawa
khaya
khel
khela
khelaa
khelat
khelauna
khelawan
khele
kheli
khelin
khelis
khelo
khels
kher
khet
kheti
khetra
khilaaph
khilaari
khilaarri
khiladi
khilarri
khissa
khmer
kho
khoj
khojane
khoje
khojee
khol
khola
kholis
khoon
khoriphaba
khote
khowar
khud
khuda
khula
khule
khuman
khunthok
khurd
khus
khush
khusi
khuun
khya
ki
kia
kiambu
kichava
kick
kicks
kid
kidman
kids
kie
kigali
kii
kijiner
kila
kill
killed
killer
killing
kilo
kilometer
kilometers
kilometre
kilometres
kilua
kim
kimbundu
kimee
kimi
kina
kinaare
kinare
kind
king
kingadam
kingdom
kings
kingsley
kingston
kingstown
kiniviliame
kinshasa
kintu
kinyarwanda
kiran
kiribati
kirsten
kirundi
kirwa
kisaan
kisaanon
kisan
kisee
kishan
kishor
kishore
kisi
kiss
kista
kitaab
kitaaben
kitione
kitts
kiya
kiyaa
kiye
klab
klaimet
klerens
kleyar
km
knight
knightley
knights
knn
knots
know
knowledge
known
ko
koch
koee
kofee
kofi
kohli
koi
koila
koiren
kol
kolambiya
kolambiyaee
kolej
kolins
kolkata
koloraado
kon
konchij
kong
konkani
konthoujam
kor
korbet
korea
korean
koro
koronivia
koronubu
koroqaqa
korotari
korouhanba
korovou
korovuto
kort
kosh
koshi
koshish
kosis
kosovo
kosta
kot
kota
koubru
koumbo
koya
koyala
kr
kraanti
kramnik
krishan
krishchiyan
krishi
krishna
krishneel
kristen
kriti
krshi
krypton
ks
kshamata
kshetr
kshetra
kshetreey
kshetro
kshetron
kt
ku
kuala
kuar
kuch
kucha
kuchh
kuk
kul
kula
kulambar
kulthum
kumar
kumari
kunal
kundan
kundru
kunis
kuppuswami
kuppuswamy
kurd
kurdish
kuro
kurosawa
kurta
kush
kushal
kusti
kutta
kuttaa
kutuba
kuud
kuver
kuwait
kveensalaind
kvich
ky
kya
kyle
kyo
kyonki
kyooba
kyrgyz
kyrgyzstan
kıbrıscık
l
la
laabh
laabhakaaree
laad
laae
laain
laais
laal
laane
laawa
laawe
labasa
label
labeouf
labor
labour
lacemaker
lachhmipur
lad
ladaee
ladakee
ladakiyon
ladane
laden
lady
lae
lag
laga
lagaa
lagaane
lagaataar
lagaaya
lagabhag
lagae
lagais
lagao
lagawa
lagbhag
lage
lagin
lagis
lagoon
lagos
laguna
lahore
lai
laiberiya
laikhurembi
lailai
lain
laingik
lairembi
lais
laisenia
laitin
lajpat
lakabe
lakadahaare
lake
lakeba
lakes
lakrri
lakshman
lakshmee
lakshy
lakun
lal
lala
lalita
lam
lamba
lambaa
lambai
lambe
lami
lamont
lamp
lan
land
landan
landlocked
landmark
lands
landscape
landscapes
lane
lang
language
languages
lanka
lankan
lanthanide
lao
laos
lar
lara
larai
large
largest
larka
larkaa
larkan
larraa
larrai
larre
larrin
larris
larrka
larrkaa
larrkan
larrki
larrkii
larry
las
lascar
last
lata
latchan
late
lateef
later
latest
lati
latianara
latin
latitude
latter
latvia
latvian
lau
laucala
launch
launches
laura
laureates
laurel
lauren
laurence
laurent
laurie
laut
lautane
laute
lautoka
lavalette
lave
law
lawa
lawaqa
lawe
lawn
lawrence
laws
lawyer
laxmi
laxon
lay
laya
layer
layla
le
lead
leader
leaders
leadership
leading
leads
leaf
league
leap
learn
learned
learning
lease
leave
leaves
lebanaan
lebanese
lebanon
lebar
lecture
lecturer
lectures
led
leda
lee
leeg
leela
leema
lef
left
leg
legacy
legal
legend
legislative
legs
leibniz
leicester
leiden
leigh
leila
leima
leimarel
leimaren
leinaotabi
lekar
lekh
lekhak
lekhan
lekhika
lekin
lemita
lena
lene
length
lengua
lenin
leninagraad
leo
leon
leonard
leonardo
leone
leonidas
les
leslie
lesotho
less
lesser
lesson
lessons
leste
lester
let
lete
letter
letters
level
lever
levi
levin
levine
levu
levuka
levy
lewa
lewe
lewenivanua
lewis
li
lia
liam
lib
libaral
libartee
liberal
liberation
liberia
liberty
libraries
library
libreville
libya
licence
lida
lie
liechtenstein
lieutenant
life
lifestyle
lifetime
liga
light
lii
liin
liis
lika
like
likh
likha
likhana
likhat
likhe
likhee
likhi
likhis
likis
liliana
lilongwe
lily
lima
limit
limited
limits
lin
linares
lincoln
linda
lindsay
line
linear
liner
lines
linetsky
ling
lingua
linguistic
linguistics
link
links
linnaeus
linz
lion
lionel
lions
lipi
liquid
lis
lisa
lisala
lisbon
list
listed
listen
lists
lit
litanar
literacy
literary
literature
lithium
lithuania
lithuanian
litil
little
liu
live
lived
liver
liverpool
lives
living
liya
liye
liz
ljubljana
ll
lla
llane
lletra
lligat
lloyd
llull
lo
loag
loagn
local
located
location
locke
locomotive
lodhia
lofft
log
logaivou
logan
logbaat
logic
loging
logo
logon
loha
lok
lokapriy
lokataantrik
lokatantr
loki
loktak
lola
lolita
lomaiviti
lomawai
lomu
london
lonely
long
longitude
look
looks
lope
lopez
lorca
lord
loren
lorenzo
lorima
los
lose
loss
lost
lot
lou
louis
louise
louvre
love
lovely
lovo
lovu
low
lower
loyalakpa
loyarakpa
lpg
lpu
lt
ltd
ltte
lu
luanda
lubbock
luci
lucia
luciano
lucknow
lucy
ludwig
luffa
luganda
lugu
lui
luis
luisa
luisavile
luka
luke
lumbini
lumpur
luna
lusaka
lusiads
luther
luxembourg
lying
lynch
lynn
lyon
lyrics
lyricstaal
m
ma
maa
maach
maadhyam
maaf
maai
maalik
maaloo
maama
maamala
maamale
maamalon
maami
maan
maana
maanaa
maanad
maanasik
maanat
maanate
maanav
maanavaadhikaar
maanavaadhikaaron
maanaveey
maane
maang
maangat
maange
maanyata
maar
maara
maarakar
maarane
maarch
maare
maariya
maaro
maarshal
maasko
maastar
maata
maataon
maatr
mabel
macau
macdonald
macedonia
macedonian
machhalee
machhri
machine
maciu
mackenzie
macmillan
macquarie
macuata
mad
madad
madagascar
madame
madan
madar
madarsa
madat
made
madeleine
mademoiselle
madhavan
madhmakkhi
madhubala
madhubani
madhy
madhya
madhyam
madhyamanchal
madigi
madison
madonna
madras
madre
madrid
mads
mae
maee
magahi
magar
magazine
magdalena
maggie
magic
magistral
magistrate
magnesium
magnetic
magnets
magnificent
mago
magodro
mah
maha
mahaan
mahaasaagar
mahaasachiv
mahabharata
mahakali
mahal
mahalla
mahanagar
maharaj
maharashtra
maharishi
mahasoos
mahatma
mahatv
mahatvapoorn
mahatvapurn
maheene
mahendra
mahesh
mahfouz
mahila
mahilaen
mahilaon
mahina
mahotsav
mai
maida
maidaan
maids
maika
maikagil
maikal
maikali
maikaliyod
maiksikan
mail
maim
main
maina
mainitoba
mainland
mainly
mainne
mains
maint
mainz
mairee
maisons
maithili
maiya
majaboor
majaboot
majdur
majduur
majesty
major
majority
majuro
majuur
makaan
make
makes
making
makkah
makoi
mala
malaavee
malabo
malagasy
malakai
malaria
malawi
malay
malayalam
malaysia
malcolm
maldives
male
maleshiya
maleshiyaee
mali
malik
malika
malini
malo
malolo
malomalo
malta
maltese
malvinas
mamanuca
man
mana
manaa
manage
management
manager
manasa
manch
manchester
mandal
mandarin
mandela
mandir
mandira
mandoline
mandy
mane
manekshaw
mangalgrah
manganaty
manganese
mangar
mangat
mange
mangeshkar
mangis
mango
mangrove
mani
manila
manilal
maninka
manipur
manipuri
manjil
manna
mano
manoa
manochikitsak
manoj
manonit
manorog
manta
mantraalay
mantree
mantri
manu
manual
manuca
manuel
manueli
manukau
manuscripts
many
mao
maori
map
maps
maqam
mar
mara
maraa
maratha
marathi
marc
marcel
march
marco
marcus
mard
mare
margaret
marginal
margoth
mari
maria
mariana
marie
marika
marilyn
marin
marina
marine
marino
mario
maris
marist
maritime
marjing
mark
market
markup
marlene
maro
maroon
marquez
marquis
marriage
married
mars
marseilles
marshall
martha
martial
martin
martinique
marx
marxism
marxist
mary
maryam
mas
masculine
mashrafe
mashuur
masi
masih
masjid
mason
mass
massachusetts
massacre
mast
master
masters
masts
masturbator
mat
mata
matalab
matar
matbhed
match
matches
mate
mateinaqara
material
materials
maternal
math
mathematical
mathematician
mathematics
mati
matisse
matlab
matra
matsuo
matt
matter
matthew
matti
matuku
mauka
maureen
maurice
mauritania
mauritius
maurizio
maurya
mausam
mausi
maut
maveliko
max
maximum
maxwell
may
maya
maynard
mayor
mb
mbabane
mbe
mccarthy
mcgill
mcgregor
mckay
mckenna
md
me
meal
meaning
meanings
means
measure
measures
meat
mecca
mechanics
mechi
medal
medals
medea
media
medical
medici
medicine
medieval
medikal
meditation
mediterranean
medium
mee
meediya
meet
meeting
megan
meghalaya
meh
mehar
mei
meiji
mein
meitei
mejabaanee
mekong
meksiko
mel
mela
melabarn
melanesia
melawa
melbourne
meli
melissa
melo
melody
melon
member
members
membership
memeber
memoirs
memorial
memories
memoriyal
memory
men
mendel
mendoza
meninas
mental
mer
mera
merce
mercedes
merchant
mercury
mere
mereke
merged
merit
merono
mersey
mesopotamia
message
messenger
messi
met
metal
metamorphoses
metamorphosis
meteorological
meteorology
meter
meters
method
methodist
methods
metre
metres
metro
metropolitan
mexican
mexico
mey
meyar
meyer
meyo
mg
mgm
mgogwana
mi
mia
michael
michel
michelangelo
michele
micheli
michelle
michigan
micronesia
microsoft
mid
middle
mifflin
migrant
migrants
migration
miguel
mik
mike
mil
mila
milaa
milaan
milae
milan
milane
milat
milate
mile
milee
mileen
miles
mili
milik
military
miliyan
milk
milky
mill
millennium
miller
millet
million
millionaire
milo
mimar
min
minat
mind
mindaanao
mine
mineral
mines
ming
mining
minister
ministers
ministry
minnesota
minogue
minor
minorities
minority
minsk
minute
minutes
mir
mira
miracle
miro
mirror
mirza
mis
mishan
mishanaree
mishigan
mishra
misir
misr
miss
missing
mission
missionary
missions
mississippi
missouri
mit
mitar
mitchell
mithun
mitra
mixed
mixture
miyaamee
mizoram
mm
mn
mo
moag
moala
mobile
moce
modal
modaling
model
models
modern
modi
mogaadishu
mogadishu
mohali
mohamed
mohammad
mohammed
mohan
mohandas
mohit
mohsam
moira
moja
moldova
molecular
molecule
molecules
molie
molinero
molly
moment
mon
mona
monaco
monarch
monarchy
monday
monde
monetary
money
mongabay
mongba
mongol
mongolia
mongolian
monica
monika
monitor
monk
monmouth
monmouthshire
monroe
monsoro
monster
monsters
mont
monte
montenegro
montevideo
montgomery
month
monthly
montserrat
montsoreau
monturiol
monument
mool
moon
moonlight
moor
moore
moovament
morarji
more
morgan
morning
morocco
morris
mort
morte
morton
moscow
moses
mosfilm
moshin
mosko
mosque
most
mostly
mota
motar
mother
moti
motilal
motion
moto
motor
motto
mount
mountain
mountains
mouth
move
moved
movement
moves
movie
movies
moving
moy
mozambique
mozart
mozilla
mp
mr
mrityu
mrs
mrtyu
ms
msn
msu
mtr
mu
much
mudaliar
mudde
muddon
mudliar
mudurnu
muft
mughal
muh
muhammad
muhammed
mujer
mujeres
mujhe
mukaabala
mukabla
mukadama
mukadame
mukadma
mukerji
mukesh
mukhar
mukherjee
mukhi
mukhy
mukhya
mukhyaalay
mukt
mukti
mul
mulaakaat
mulk
mullet
multi
multiple
multitree
muluk
mumbai
mun
mundo
munger
muni
munich
municipal
municipality
muniswamy
munshiraam
murad
mural
murder
murgi
murphy
murray
murti
mus
musa
muse
museo
museum
museums
mushkil
music
musical
musician
musicians
muskil
muslim
muslima
muslims
must
mustafa
mutabik
mutlah
mx
my
myanmar
mystical
myth
mythology
mɑ
n
na
naa
naagarik
naagarikon
naakaate
naam
naamaankit
naamak
naamit
naana
naani
naareevaadee
naasa
naatak
naati
nabbe
nabbu
nabinagar
nabu
nachdik
nacio
nacional
naddi
naddii
nadee
nadera
nadi
nadii
nadira
nadiyon
nadogo
nadroga
nadu
nae
naee
nafesha
naga
nagaland
nagar
nagara
nagaro
nagpur
naguib
nahi
nahii
nahin
nahuatl
nai
naicker
naidu
naika
nail
nailatikau
nair
nairobi
nait
naitasari
naitasiri
naka
nakaaraatmak
nakama
nakasi
nakate
nalawa
nalovo
nam
nama
namak
namaka
namalata
namaqa
name
named
namely
names
namibia
namibian
namosau
namosi
nan
nana
nanak
nancy
nand
nandan
nang
nangi
nangich
nanuku
naomi
napf
napoleon
naqeleca
narain
naram
narasanhaar
narasimha
narayan
narayani
narendr
narendra
narere
naresia
nargis
nariyal
narrow
nars
narsey
narsing
nasa
nasara
nasau
naseeruddin
nasema
nasht
nasilai
nasinu
naskh
naslavaad
nasleey
nasoni
nassau
nat
natabua
natal
natasha
nath
nathan
natija
nation
national
nationalist
nations
native
nato
natural
nature
naty
nau
naukar
naukaree
naura
nauru
nausena
nausori
nav
nava
naval
navambar
navami
navigation
navin
navoli
navosa
navua
navy
nawa
nawaa
nawaka
nawatu
nay
naya
nayak
nayau
nayi
nazan
nazanin
nazi
nazionale
nazir
nc
nchez
ncipe
nd
ndez
ndhra
ndra
ne
neapolitan
near
nearest
nee
neeche
need
needaralaind
needed
needs
neela
neeson
neeti
neetiyon
neetu
negotiate
nehru
neil
neill
nelson
nemani
nemonte
nenquimo
neo
neolithic
neon
nepa
nepal
nepalese
nepali
nepalski
neptune
nero
nerve
neshanal
neshans
net
neta
netani
netaon
netavark
netherlands
netrtv
network
neupane
neurologist
neutral
neutron
never
nevis
new
newcastle
newfoundland
newman
news
newspaper
newspapers
newton
newworld
next
nf
nfp
ng
ngaleima
ngareima
ngu
nh
nhp
ni
nia
nibhaee
nic
nicaragua
niccolo
nice
niche
nicholas
nick
nickname
nicobar
nicola
nicolas
nicole
nicosia
nideshak
nidhan
nieto
nigam
nigama
nigaraanee
niger
nigeria
night
nights
nija
nijee
nikaal
nikaaraagua
nikal
nikala
nikalane
nikat
nike
nikla
nikle
nikola
nile
nima
nimak
nimariau
nin
nina
ninda
nine
nineteenth
ningthou
ninka
ninth
niobium
nipatane
nirbhar
nirdeshak
nirdeshan
nirdeshit
nirmaan
nirmaata
nirmaataon
nirmata
nirmit
nirnay
niro
nirvaasan
nishaan
nishpaksh
nitan
niti
nitrogen
niue
niumaia
nivaasee
nivedita
niyamit
niyantran
niyantrit
niyukt
niza
nkrumah
nla
nnu
no
noa
noam
nobel
nobelprize
noble
noda
node
noel
noemi
nominate
nominated
nomination
nominee
nominees
non
nongpok
nongthang
noongar
noor
nora
norma
normal
norman
north
northeast
northern
northwest
northwestern
norton
norway
norwegian
norwich
nos
nose
not
note
notes
nothing
noticias
notre
nouakchott
noume
noun
nourse
nov
novel
novelist
novels
november
now
nrty
nsl
nsw
ntgen
nti
ntshangase
nu
nuclear
nucleus
nude
nue
nueva
nukasaan
nuku
nukulau
number
numbers
numerical
nun
nurcan
nuremberg
nurse
nursing
nut
nutrition
nuwas
ny
nyaay
nyaayaadheesh
nyaayaalay
nyoo
nyooj
nyoojeelaind
nyooyork
nytimes
nz
o
obama
obe
obituaries
obituary
object
obliqua
obra
observatory
observer
occupy
ocean
oceania
oceans
oclc
oct
octavian
october
od
odi
odin
odisha
oedipus
of
ofc
off
offer
office
officer
officers
offices
official
officially
officials
often
og
ogron
oh
ohio
oil
ois
oklahoma
oksaphord
ol
ola
old
older
oldest
ole
olga
oliba
oliver
olivia
olivier
olovnaty
olympians
olympic
olympics
om
oman
omar
ombudsman
omniglot
on
onalain
onar
one
onepage
online
only
ono
ontario
oocities
oorja
op
opareshan
open
opening
opera
operation
operator
oph
opinion
opp
opposite
opposition
optical
or
oral
orange
orchestra
ordar
order
ordinance
ordinary
ore
org
organ
organic
organisation
organise
organization
organizations
organizer
ori
oriental
origin
original
originally
origins
orisi
orissa
oriya
orthodox
orthography
ortiz
os
osborne
oscar
osceola
osea
ostreliya
ostreliyaee
ostreliyan
osturiyas
other
others
otna
otto
ottoman
ou
ouagadougou
our
out
outer
outline
outside
ovalau
over
overall
overs
overseas
overview
ovid
owen
own
owned
owner
owners
oxford
oxid
oxide
oxygen
oz
p
pa
paae
paain
paais
paal
paalan
paan
paanch
paanchwa
paanee
paani
paap
paar
paaramparik
paaristhitik
paaristhitikee
paarit
paarivaarik
paark
paarshad
paartee
paas
paathyakram
paawa
paawe
paaya
pablik
pablo
pachaas
pachchhim
pacific
pad
pada
padaarthon
padak
padarath
padhaaya
padhaee
padma
pados
padri
padta
page
pages
paha
pahaarr
pahachaan
pahachaana
pahal
pahala
pahale
pahalee
pahar
pahari
paharr
pahila
pahile
pahine
pahle
pahuch
pahucha
pahuche
pahuchis
pahunch
pahuncha
pahunchane
pahunche
pahunchis
paichl
paid
paida
paile
paimaane
pain
painal
paint
painter
painting
paintings
pair
paira
paisa
paise
paisiphik
paitrk
pak
pakadane
pakarr
pakhangba
pakistan
pakistani
pakka
pakki
pakrre
pal
pala
palace
palast
palat
palau
palazzo
pale
palee
paleolithic
palestine
palestinian
palestrina
palgrave
palika
palm
palmer
palmiers
palwaar
palwar
pamela
pan
pana
panafrican
panam
panama
panchali
panchayat
panchkula
pandemic
pandey
pandit
panditji
pandrah
pandu
panel
pani
panjab
panjabi
panjeekrt
panna
pannu
panorama
panthoibi
panu
pao
paola
paolo
papeete
paper
paperback
papers
papua
par
para
paraaguaayan
paraagve
paraamarsh
parade
paradise
paraguay
paramaanu
paramahans
parameter
parampara
paranoiac
parantu
paravarish
pardhaan
pardhan
pare
parekh
parents
parhai
pari
parichit
parinaamasvaroop
parinaamon
paripakv
paris
parisar
parish
parishad
paristhitiyon
parivaar
parivaaron
parivar
parivartan
pariyojana
pariyojanaon
park
parker
parks
parl
parliament
parliamentarian
parliamentarians
parliamentary
parmaanu
parmanand
parmanandam
parr
parra
parraa
parrat
parre
parrha
parrhae
parrhaes
parrhai
parrhais
parrhat
parrhe
parrhis
parrho
parrosi
parsa
parsi
part
parta
parth
particle
particles
parties
partition
partner
parts
party
parvat
parveen
paryaavaran
paryaavaranavid
paryaavaraneey
paryatan
pas
pasand
paschim
pashchim
pashchimanchal
pashchimee
pashto
pashtun
pashu
pass
passage
passed
passenger
passengers
passes
passion
past
pat
pata
pataa
pataal
patel
patent
paternal
path
pather
pathik
pathshala
pati
patiala
patio
patna
patnee
patni
patr
patra
patraa
patrakaar
patrakaarita
patricia
patrick
patrika
patron
patta
patthar
patti
pau
paudha
paul
paula
pauliasi
paulo
pauni
pavitr
pawa
pawar
paya
payne
pays
paysage
pb
pbs
pdf
pdflink
pe
peace
pearl
pearson
pecl
ped
pedon
pedro
peechha
peechhe
peeda
peedhi
peedit
peediton
peeechadee
peepal
peepals
peer
pees
peet
peeta
peetar
peggy
pehla
pehle
pek
pen
pena
penaia
penality
penalty
penang
pence
pene
penguin
penh
peni
peninsula
penn
pennsylvania
people
peoples
pepper
per
percent
percussion
percy
pere
perez
perform
performance
pericles
period
periodic
peris
perkins
permanent
peron
peronist
peroo
perr
perry
perseus
persia
persian
person
personal
personality
perspective
perspectives
perth
peru
pesh
peshakash
peshawar
peshevar
peshevaron
pesident
peso
pet
peter
petero
petersburg
petition
petreesiya
petroleum
pez
pg
ph
pha
phaila
phailoship
phaisala
phal
phala
phand
phanee
pharavaree
pharsh
pharst
phasalon
phase
phases
phaundeshan
phd
phe
pheeld
phelo
pheloship
pheth
phethaphul
phi
phijee
phiji
phil
phila
philadelphia
phileepeens
philip
philippine
philippines
philisteen
phillip
phillips
philm
philmen
philosopher
philosophical
philosophy
phir
phle
phlik
phlorida
phnom
pho
phoenix
phoks
phonology
phor
phosphate
phosphorus
photo
photographs
photography
photos
phouningthou
phouoibi
php
phraans
phraanseesee
phraink
phrant
phrase
phrasebook
phree
phu
physical
physician
physicist
physics
physiology
pi
pia
piano
picasso
pichchhe
piche
pichhe
pichhle
picture
pictures
pie
piece
pieces
piedmontese
pierce
pierre
pierrot
pieta
pietro
pigeon
pile
pilgrimage
pilla
pillai
pillay
pin
pinacoteca
pine
pink
pinyin
pioneer
pipe
pipra
pips
pirthu
pita
pitaa
pitaji
pitti
pittsburgh
piyar
piye
pk
pl
pla
plaaja
plaastik
place
places
plain
plains
plan
planation
planck
plane
planet
planeta
planets
planning
plant
plantation
planter
plants
plaque
plasma
plastic
plate
plateau
plato
play
playback
played
player
players
playing
playoff
plays
plaza
please
plot
plural
plus
pluto
plutonium
pm
png
po
podcast
poem
poems
poet
poetry
poets
point
points
poireiton
poison
poke
pokemon
pokpa
pol
polaind
poland
polar
pole
poli
police
policy
polish
politakovaskaaya
political
politician
politics
politikal
poll
polls
polo
polynesia
polynesian
pomegranate
pomelo
poochhataachh
pooja
pool
poonah
poor
poora
poore
pooree
poorv
poorvee
pop
pope
popular
population
por
port
portal
porter
portfolio
porto
portrait
portraits
portugal
portuguese
poshan
poshit
posiano
position
positive
possible
post
poster
posthumously
postponed
pot
potaa
potassium
potato
pote
pottery
potwari
pound
pounds
pour
pouranik
poverty
power
powerful
pp
pr
pra
praachin
praakrtik
praant
praapt
praarambhik
praathamik
prabandhak
prabandhan
prabhaav
prabhaavashaalee
prabhaavee
prabhaavit
prabhaavon
prabhakar
prabhas
prabhat
prabhu
prachaar
prachaarak
prachalit
prachin
practice
prada
pradaan
pradarshan
pradarshanakaariyon
pradarshanon
pradarshit
prade
pradesh
pradhaan
pradhan
prado
pradooshan
prague
praia
praise
prajaatiyon
prakaar
prakaash
prakaashan
prakaashanon
prakaashit
prakash
prakriya
prakrti
pramaan
pramod
pramukh
pramukha
pran
pranaalee
pranay
pranil
prapt
prasaar
prasaaran
prasad
prashaant
prashaasan
prashikshan
prashikshit
prasid
prasiddh
prasooti
prastaav
prastaavit
prastao
prasthao
prastithi
prastut
prat
prataadit
pratap
pratham
prathao
prati
pratibaddhata
pratibandh
pratibha
pratidwandi
pratiik
pratinidhi
pratinidhitv
pratinidhiyon
pratishthit
pratiyogita
pratyek
praudyo
pravaasee
pravakta
pravesh
pravin
prayaas
prayaason
prayer
prayog
pre
preceding
precise
preity
prem
premier
premierleague
premio
prepared
prerana
prerit
pres
present
presentation
presented
preservation
preserve
presidency
president
presidential
presley
press
presso
pressure
pretoria
previous
previously
pri
price
pride
priest
primary
prime
primer
prince
princely
princess
princeton
principal
print
printed
printer
printing
prior
priscilla
prison
prisoner
prisoners
private
prix
priyanka
prize
prizes
prk
pro
probe
problem
problems
proceedings
process
produce
produced
producer
product
production
products
professional
professor
profil
profile
profiles
profit
prograam
program
programme
programs
progress
project
projects
projekt
promise
promote
promotion
pronounced
pronunciation
proper
properties
property
prophesar
prophet
prose
prosecutions
prostituta
protagonista
protected
protection
protein
proteins
protest
protestant
proton
protons
protsaahit
proud
proust
proverbs
provide
provided
providence
provides
province
provinces
provincial
provisional
prudential
prussia
psephos
psychiatry
psychologist
pt
pta
pu
pub
public
publication
publications
publish
published
publisher
publishers
publishing
pubol
puducherry
puerto
puja
pul
pulis
pulisa
punargathan
pune
punja
punjab
punjabi
punt
puntata
pur
pura
puraan
puraana
puraane
puraani
puraanon
purab
purana
purane
puraska
puraskaar
puraskaaron
pure
pureiromba
puri
purnia
purple
purush
purushon
purv
purvanchal
purvi
pushkin
pusi
pustak
pustakon
put
putnam
putr
putra
putri
puura
py
pyaar
pyar
pyotr
pyramid
pyramids
q
qaem
qanoon
qaqa
qarase
qatar
quaid
qualification
qualify
qualifying
quantum
quarantine
quarter
quarters
que
quebec
quechua
queen
queensland
quest
question
questions
qui
quick
quinn
quito
quixote
quiz
quo
quotations
quote
quotes
quran
r
ra
raaj
raaja
raajadhaanee
raajadoot
raajaneeti
raajaneetigy
raajaneetik
raajaneta
raaji
raajy
raakhee
raamakrishn
raamirez
raashtr
raashtrapati
raashtreey
raaste
raat
raatoo
raay
rabi
rabindranath
rabuka
race
races
rachel
racial
racine
racism
radiation
radio
radioactive
rae
rafael
rafi
rafiganj
raftaar
ragazzi
ragho
raghubar
raghunath
raghwan
rah
raha
rahaa
rahaaa
rahan
rahane
rahat
rahata
rahate
rahatee
rahe
rahee
raheen
rahha
rahi
rahii
rahiis
rahin
rahis
rahiss
rahman
rahmat
rahte
rai
rail
railway
railways
rain
rainforest
rains
raipur
raits
raj
raja
rajan
rajaram
rajaratnam
rajasthan
rajdhani
rajendra
rajesh
rajiv
rajneel
rajneesh
rajput
raju
rajya
rakam
rakesh
rakh
rakha
rakhaa
rakhane
rakhate
rakhatee
rakhe
rakhee
rakhis
rakiraki
rakkha
rakkhaa
rakkhe
rakkhis
rakm
rakova
raksha
rakshak
rakshakon
ralph
ralulu
ram
rama
ramachandran
ramakrishna
raman
ramayana
rambha
ramchandar
ramgoolam
rami
ramon
rampur
ramrakha
ramzan
ran
rana
rananeeti
ranbanka
ranchi
rand
randy
rang
rangabhed
range
rani
raniga
ranitu
ranjit
rank
ranked
rao
rapa
rape
raphael
rapid
rapids
rapti
rarawai
rare
rarotonga
ras
rashid
raspberry
rassee
rast
rasta
rastaa
rat
rata
rate
rated
rati
rating
ratna
ratu
ratuva
ravaanda
ravi
ravikesh
ravindra
raviravi
ravosai
rawadamu
rawal
ray
raymond
rays
razafimanahaka
razia
rd
re
reach
reached
react
reaction
reactive
read
reader
reading
ready
reagan
real
reali
reality
really
reason
rebecca
rebel
rebellion
rec
received
receives
receiving
recent
recognition
recognized
record
recorded
recordings
records
red
reddy
rediff
redikal
rediyo
reed
reef
reese
reeves
ref
referee
reference
references
refers
refining
reform
reformation
refree
refs
refugee
reg
regia
regime
region
regional
regions
register
registrar
registration
regular
rehman
rehmat
rehne
rehte
reich
reid
reilly
reintegrationist
reject
rekha
related
relations
relationship
relativity
release
released
releases
relegation
religion
religious
remain
remains
rembrandt
remember
remembrance
ren
renaissance
renamed
renata
rene
renee
rep
replaced
report
reports
repository
represent
representation
representative
representatives
representing
repu
republic
republican
republika
required
requires
requisition
rer
res
rescue
research
reserve
reserved
resident
resign
resigned
resilience
resistance
resolution
resort
resource
resources
respect
responsibility
responsible
rest
restaurant
result
results
resurrection
retains
retire
retrieved
return
returned
reunion
reuters
rev
review
reviews
revised
revolution
revolutionary
revolutionibus
rewa
rex
reynolds
rez
reza
rfmf
rga
rgb
rha
rhaa
rhe
rhead
rhine
rhinoceros
rhinocerotic
rhone
rhythm
ri
riachy
riba
ric
rica
ricardo
rice
rich
richard
richards
richardson
rick
ricky
rico
ride
rie
rifle
right
rights
riha
rihaee
rijarv
rika
rikord
rin
rinal
ring
rio
ripablik
ripe
riport
risarch
rise
risheel
rishi
rishikul
rishtedaaron
rising
risk
rita
rite
ritendra
riven
river
rivera
rivers
rk
rn
rnu
ro
road
rob
robart
robb
robbins
robert
roberto
roberts
robertson
robin
robinson
robot
robotics
robots
rocher
rock
rocket
rocks
rocky
rod
rodney
rodoreda
rodri
rodrigo
rodriguez
rodu
rog
rogen
roger
rogers
rohingya
rohit
roj
rok
roka
rokane
roke
roko
rokotakala
roland
role
roll
rolling
roma
roman
romance
romani
romania
romanian
romans
romantic
rome
romeo
ron
ronald
ronaldo
ronan
ronil
rookh
room
rooms
rooney
roop
roos
roosee
roosevelt
root
rooth
roots
rop
rosa
rosario
rose
rosetta
roshan
ross
rossi
roth
rotuma
rotuman
rouge
round
rounds
routledge
row
roxy
roy
royal
roz
rquez
rr
rte
ru
rubens
rubinstein
ruchi
rudrananda
rudy
ruffalo
rugby
ruins
ruiz
rukawat
rukh
rule
ruled
ruler
rules
rum
run
runner
running
runs
ruolo
rup
rural
rush
rusiate
russel
russell
russia
russian
ruth
rutherford
ruup
rwanda
rya
ryan
ryder
s
sa
saabit
saadi
saahas
saahity
saait
saajha
saajhedaaree
saakshaatkaar
saal
saala
saamaajik
saamaany
saamagree
saamana
saamane
saamne
saamoohik
saamp
saamudaayik
saanskrtik
saantaakrooj
saaph
saar
saare
saarvajanik
saat
saatc
saath
saathe
saathee
saathi
sab
sabak
sabase
sabd
sabere
sabeto
sabha
sabhee
sabhi
sabhyata
sabs
sabse
sabur
sacchi
sach
sachin
sachiv
sachivaalay
sacos
sacred
sad
sadak
sadasy
sadasya
sadasyon
sadharan
sadhu
sadi
sadie
sadiq
safaa
safal
safalta
safe
safeed
sagar
sagarmatha
sah
sahaayak
sahaayata
sahaj
sahamati
sahan
sahar
sahara
sahayog
sahib
sahit
sahitya
sahu
sai
said
saif
saikadon
sail
sailing
sailor
sailors
sailosi
saimoni
sain
sainikon
sains
saint
saints
sainy
saira
sairusi
sait
saja
sajaa
saka
sakaa
sakaaraatmak
sakat
sakata
sakate
sakatee
sakati
sake
sakhaarov
sakis
sakriy
sakriyata
saksham
sakta
sakutaro
sal
sala
salaah
salaahakaar
salah
salailen
saldana
salem
salesh
salim
sally
salman
salmon
salt
saltanat
saltimbanques
salvador
salzburg
sam
sama
samaachaar
samaadhaan
samaaj
samaajashaastr
samaan
samaanata
samaapt
samaaroh
samabula
samadon
samaj
samajh
samajhaute
samakaaleen
samaksh
samantha
samanvay
samanvayak
samar
samarpit
samarthak
samarthan
samasya
samasyaon
samay
samaya
sambandh
sambandha
sambandhee
sambandhit
sambandhon
sambhaalane
sambhav
sambodhit
same
sameeksha
sami
samir
samiti
samitiyon
samjhauta
samjhe
sammaan
sammaanit
sammelan
samoa
samoan
samooh
samoohon
sampaadak
sampaadit
sampark
sample
samrajya
samthar
samudaay
samudaayon
samudr
samudree
samuel
samuela
samundar
san
sana
sanadhya
sanaila
sanamahi
sanamahism
sanatan
sanchaalan
sanchaalit
sanchaar
sand
sandalwood
sandarbh
sandeep
sandesh
sandhi
sandra
sang
sangam
sangathan
sangathanon
sangathit
sangeet
sangh
sangharsh
sanghe
sangheey
sangola
sangrah
sangrahaalay
sani
sanichar
sanjay
sanjeev
sanjha
sankaay
sankat
sanket
sankhya
sankhyaa
sankshipt
sankulan
sanmarga
sanrakshak
sanrakshan
sanrakshanavaadee
sanrakshit
sansaadhan
sansaadhanon
sansaar
sansad
sansar
sanskaar
sanskr
sanskrit
sanskriti
sanskrti
sanstha
sansthaan
sansthaapak
sansthan
sant
santa
santaan
santamouris
santhia
santi
santiago
santos
sanvaidhaanik
sanvidhaan
sanyukt
sao
saoodee
saphal
saphalata
saphalataapoorvak
saphed
saptambar
sar
sara
sarah
saraiki
sarajevo
saraka
sarakaar
sarakaaree
sarakaaron
saral
saram
saramago
sarasvati
saraswati
sarayaakoo
sardar
sardou
sare
sarkar
sarkari
sarojini
sartre
sarvashreshth
sarvis
sarvochch
sasha
sashakt
sashastr
sashi
sat
satat
satellite
satendra
sath
sathe
sathi
satish
satrah
satta
sattar
saturday
saturn
saty
satya
sau
saudi
saukuru
saunders
saur
sautela
sauteli
sauth
sautini
savage
save
savenaca
saves
savusavu
sawaal
saweni
say
sayed
saying
says
sc
scale
scandinavia
scar
scene
scheme
schmidt
schneider
scholar
scholars
scholarship
school
schools
schro
schubert
schuster
schwarzenegger
science
sciences
scientific
scientist
scientists
score
scoreboard
scored
scorer
scorsese
scotland
scott
scottish
scrap
scrapped
screen
screenplay
screw
script
scriptures
sculptor
sculpture
scuola
sdl
se
sea
seal
sean
seapro
seaqaqa
search
searchable
searching
searchwithinvolume
seas
season
seasons
seat
seated
seats
sebastia
sebastian
seben
secade
second
secondary
secret
secretariat
secretary
secrets
section
sections
sector
security
see
seed
seeds
seekha
seema
seen
seenet
seenetar
seewoosagur
seimata
seks
select
selected
selection
self
selia
semesa
semi
semifinal
semifinals
sen
sena
senate
senator
senators
senegal
senior
sensat
sent
sentar
sentence
sentences
sentral
seoul
sep
separate
september
ser
serbia
serbian
serial
series
serpent
seru
serua
servant
served
serves
service
services
sesotho
set
seth
seti
settlement
settlements
settler
settlers
seva
sevaa
sevaon
seveci
seven
seventh
several
seville
sewa
sewak
sewing
sex
sexual
seychelles
seymour
sha
shaadee
shaakha
shaamil
shaanti
shaareerik
shaasan
shaayad
shabana
shabd
shabdakosh
shabdkosh
shadow
shah
shahar
shaharee
shahari
shaheed
shahr
shaikshik
shakespeare
shakib
shakti
shakuntala
shalen
shalesh
shamal
shameem
shamil
shamiti
shamshad
shamshud
shan
shanghae
shanghai
shankar
shanti
shape
shapes
shapiro
sharam
sharan
sharanaarthee
sharanaarthiyon
share
shareer
sharif
sharm
sharma
sharon
sharp
shashi
shastri
shatrughan
shaukat
shaw
shawn
she
sheep
sheersh
sheershak
sheet
shehr
sheik
sheikh
shelf
sher
sherkot
sherman
shesh
shetra
shi
shia
shield
shikaago
shikaar
shikaayat
shikhar
shiksha
shikshaa
shikshak
shikshika
shikshit
shilling
shillong
shimla
shine
ship
shipping
ships
shirley
shirt
shiu
shiv
shivir
shiviron
shlokon
sho
shodh
shodhakarta
shoe
shoot
shooting
shop
shore
short
shorts
shoshan
shot
should
show
showing
shown
shows
shraddhaanand
shraddhanand
shram
shramikon
shree
shrenee
shrey
shri
shriraamakrishn
shroff
shrrnkhala
shtml
shuddhikaran
shunli
shuroo
shuru
shuruaat
si
siam
siberia
sibil
sicilian
sicily
sick
sidabi
sidanee
siddiq
side
siege
siegel
siera
sierra
sig
siga
sigatoka
sigmund
sign
signal
signals
signature
significant
sikandara
sikar
sikchha
sikchhaa
sikchhak
sikh
sikhe
sikhis
sikhism
sikkim
sil
silence
silent
silesian
siletee
silicon
silva
silver
sima
simana
simione
simla
simmons
simo
simon
simone
simple
simplified
sin
sina
sinan
since
sind
sindh
sindhi
sindhu
sing
singa
singapore
singer
singh
single
singular
sinha
sinhala
sio
sipahi
sir
sirimavo
sister
sisters
sistine
sit
sitamarhi
sitambar
site
sitee
sites
sitiveni
sitting
situated
situation
sivil
six
sixth
sixty
size
sk
sketch
skin
skiping
skm
skool
skoolee
skoolon
skopje
skotalaind
skotish
skull
sky
skysports
slate
slave
slavery
slaves
slavic
sleep
sleeping
slovak
slovakia
slovenia
slovenian
slow
slumdog
small
smalltemplate
smh
smith
smoke
smriti
snaatak
snaatakottar
snow
so
sobon
soccer
soccerway
soch
socha
sochat
soche
sochis
social
socialist
socie
society
socrates
sodium
sodny
sofia
soft
software
soina
sol
solah
solar
soldier
soldiers
sole
solid
solitude
solomon
solomoni
somaalee
somaaliya
somali
somalia
sombaar
sombar
some
someone
something
son
sona
sonar
sone
song
songs
sonia
sono
sons
sony
soo
soochana
soochee
soochit
sophia
sophie
soqosoqo
sorah
sosaitee
soshal
sotho
soul
sound
sounds
source
sources
south
southampton
southeast
southeastern
southern
southwest
southwestern
soviet
soviyat
space
spain
spanish
spasht
speak
speaker
speakers
speaking
speaks
special
species
specific
specifically
specimens
spectrum
speech
speed
speight
spellbound
spelling
spen
spencer
spenish
spheres
sphinx
spider
spielberg
spike
spirit
split
spoken
sponsor
spoon
sport
sporting
sports
spot
spotlight
spring
springer
sq
squad
square
sr
src
sreenivasan
sri
sridevi
srinagar
srinivasa
srot
sruu
ssathe
st
staalin
staaph
staart
stable
stacey
stadeej
stadium
stadiums
staff
stage
stalemate
stalin
stamford
stamp
stan
stand
standard
standing
stanford
stanlake
stanley
star
stars
start
started
state
statement
states
statesman
station
stationery
stations
statistical
statistics
stats
statue
status
stay
ste
steam
steamship
steel
steering
stefan
stefano
stella
step
stephanie
stephen
stereoscopic
sterling
steshan
steshanon
stet
steve
steven
stevens
stewart
stha
sthaan
sthaanaantarit
sthaaneey
sthaanon
sthaapana
sthaapanaa
sthaapit
sthaayee
sthal
sthalon
sthan
sthit
sthita
sthiti
sthitiyon
still
stiller
stm
stock
stockholm
stoke
stone
stop
store
stories
storm
story
str
stra
strait
strange
stream
stree
street
strength
stret
stri
strike
string
strip
striped
strong
stronghold
strontium
structure
structures
struggle
stuart
stub
student
students
studies
studio
study
stutchbury
stuttgart
style
su
sub
subah
subcontinent
subdivision
subedar
subhas
subhash
subject
subjects
submarine
subrail
subramani
suburban
suburbs
succeeded
success
successful
such
suchi
sucre
sudan
sudh
sudhaar
sudhakar
sudharak
sudhare
sudur
suez
sugar
suggested
suibuka
suicide
suk
sukhi
sukhna
sukuna
suleiman
suleyman
sullivan
sultan
sultana
sultanate
sulu
sumeet
summary
summer
sun
suna
sunaaya
sunaee
sundar
sunday
sunderland
sune
sung
sunil
sunis
sunni
sunny
suno
sunset
super
superintendent
supply
support
supporter
supporters
supreem
supreme
sur
suraj
suraksha
surakshit
surat
surendra
suresh
surface
surgeon
surgery
suriname
surprise
surrealist
surrender
surrounding
suru
suruj
suruu
suruwaat
survey
surya
susan
susana
sushil
suspend
suspended
sustainable
sutherland
sutlej
suva
suvidha
suzanne
sv
sva
svaagat
svaami
svaasthy
svachchh
svadeshee
svatantr
svatantra
svatantrata
svayan
svayansevak
svechchha
sveekaar
svetlana
svg
svt
swadesh
swagat
swahili
swami
swamy
swan
swanberg
swansea
swarag
swaziland
sweden
swedish
sweeney
sweet
swimming
swiss
switzerland
sworn
sy
sydney
syed
syllable
sylvia
symbol
symbols
symphony
syntax
syoodaad
syracuse
syria
system
systems
t
ta
taagat
taagatwar
taaki
taanaashaahee
taapu
taara
taarik
tab
taba
tabale
tabia
table
tables
tablet
tadu
tag
tagalog
tagat
tagatwar
tagi
tagitagi
tagore
tagrraa
tah
tahat
tahir
tahiti
tahitian
tail
tailevi
tailevu
taim
taims
taiwan
taiyaar
taiyar
taj
tajikistan
tak
taka
takala
takaneekon
take
taken
takes
takhtaapalat
taki
taking
takkar
tal
tala
talaak
talaash
talab
talak
talao
tale
tales
talk
talking
talks
tama
tamanisau
tamanua
tamavua
tamazight
tamil
tan
tang
tanganyika
taniela
tanjaaniya
tanjong
tank
tanni
tanoa
tanoli
tantr
tanzania
tao
taoroinai
tara
taraf
tarah
taraha
taraka
tarawa
tareeke
tarik
tark
tarkari
tas
task
taskaree
tasman
tasmania
tat
tatar
tatha
tathaa
tatkaal
tatkaaleen
tatum
tau
taught
taukei
tauli
taun
taur
tava
tavale
tavarau
taveuni
tavua
tawake
tax
taxobox
taylor
tbilisi
tc
tchaikovsky
te
tea
teach
teacher
teachers
teaching
teachings
teal
team
teams
teatro
teau
tech
technetium
technical
technology
tecna
ted
tee
teem
teen
teesra
teevee
teharaan
tehran
teksaas
tel
telangana
teleevijan
telegraph
telemotor
telephone
television
tell
telling
telugu
tempera
temperature
temperatures
template
temple
temples
ten
tendua
tendulkar
tennis
terah
terence
teresa
term
terms
terra
terrestrial
territories
territory
terrorist
terry
tesla
tessa
test
testament
tetuan
tevita
texas
text
textbooks
textiles
texts
tfl
th
tha
thaa
thaee
thaeelaind
thaeland
thaharaaya
thai
thailand
thakur
thames
than
thana
thanda
thanga
thangjing
that
thayer
the
theatre
thee
theen
theesis
theguardian
their
them
then
theodor
theoretical
theories
theory
there
theresa
these
theses
thesis
they
thi
thietar
thiik
thik
thimphu
thin
thing
things
think
thinker
third
thirty
this
thoman
thomas
thompson
thomson
thongalel
thongarel
thongaren
thor
thora
thornton
thorra
those
thou
though
thought
thousand
threat
threats
three
through
throughout
thumb
thumleima
thunberg
thunder
thursday
thurston
thus
thy
ti
tia
tibet
tibetan
tibymmbwqgsc
tica
ticket
tierra
tiger
tigers
tiggi
tigrigna
tigrinya
tigris
tiin
tiino
tiis
tiisra
tika
tikaram
tikina
tilak
till
tim
timber
time
timeline
times
timmy
timoci
timor
timothy
timro
timur
tin
tina
tini
tirana
tisi
title
titles
titus
tiwa
tiwari
to
tobacco
tobago
today
todd
together
togo
tok
tokelau
tokyo
tola
told
tole
tom
toma
tomasi
tomb
tome
tommy
tomo
tomorrow
ton
tonga
tongan
tongue
toni
tony
too
took
tool
tools
toorak
top
topalov
topics
tor
toranto
toreador
tores
torneo
torre
torres
total
totaram
totori
tottenham
touch
tough
tour
tourism
tourist
tourists
tournament
tournaments
towards
tower
towers
town
towns
township
toy
tr
tra
tracker
tracks
trade
trades
trading
tradition
traditional
tragedy
trail
trailer
train
training
trans
transfer
transition
translate
translated
translation
translations
transliteratinon
transliteration
transport
transported
trastee
travel
travis
treasurer
treatment
treaty
tred
tree
trial
tribe
tribes
tribhuvan
tribune
tribute
trick
trinidaad
trinidad
trinity
trip
triple
tripura
trisha
tristan
triumph
trois
trokosee
troops
trophy
tropical
trove
troy
true
trump
trust
truth
tsar
tsonga
tsui
tth
tu
tuba
tube
tuberculosis
tubuna
tucci
tucker
tude
tuesday
tui
tuilau
tuimasi
tukai
tukrra
tulana
tularam
tulsi
tum
tuna
tunisia
tupeni
tupou
tuqalu
turant
turing
turk
turkee
turkey
turkic
turkish
turkmen
turkmenistan
turks
turn
turner
turup
turuva
tuurre
tuut
tuva
tuvalu
tuvaluan
tuvuca
tv
twahir
twain
twelve
twentieth
twenty
twilight
twitter
two
tyler
type
types
u
ua
uae
ubc
ucb
uchch
uchchaaran
uchit
uciwai
ucla
ud
udaaharan
udaipur
uday
uddeshy
udghaatan
udyo
udyog
uefa
uffizi
uganda
ugc
uhlic
ujaagar
ujagar
ujjar
uk
ukraine
ukrainian
ul
uli
ullanghan
ulta
uluigalau
uma
umang
umar
umbrella
umesh
umm
ummeedavaar
umr
un
una
unaka
unakaa
unake
unakee
unaki
unamen
unase
uncited
uncle
und
under
understanding
une
unesco
unfinished
ungri
unhe
unhen
unhone
unhonne
unicode
uniform
union
unionist
unit
unite
united
units
unity
universal
universe
university
unka
unke
unkee
unki
unknown
unlawful
unmoolan
unnat
unnati
unofficial
unopposed
unown
until
untitled
unu
unvanquished
up
upaadhi
upakaran
upalabdh
upanyaas
upanyaasakaar
upar
upasthiti
upayog
update
updated
uploads
upon
uppar
upper
uq
uraia
uranium
urban
urbino
urdu
url
ursula
uruguay
us
usa
usaia
usaka
usake
usakee
usaki
usane
usase
use
used
usee
uses
usey
usha
usi
using
uska
uske
uski
usme
usne
usp
usse
usually
ut
utar
utc
uthaaya
uthaee
utpaadan
utpeedan
utris
utsarjan
uttar
uttara
uttarakhand
uttaree
utu
uu
uucha
uunch
uuncha
uunchai
uyghur
uzbek
uzbekistan
v
va
vaah
vaala
vaale
vaalee
vaalon
vaapas
vaarshik
vaarta
vaashingatan
vaayu
vaedik
vah
vaha
vahaan
vaigyaanik
vaigyaanikon
vaikalpik
vaileka
vaishvik
vakaalat
vakatalai
vakatalesau
vakavulewa
vakeel
vakeelon
vakta
vale
valencian
valentin
valentine
valerio
vallabhbhai
valley
value
values
vam
van
vancouver
vanessa
vansh
vanua
vanuatu
vanyajeev
var
vara
varadoli
varanasi
varavu
varg
varies
varieties
variety
various
varishth
varjeeniya
varld
varnan
varnana
varnit
varsh
varsheey
varshon
vartamaan
varun
vary
vase
vashist
vassar
vastu
vatican
vaticana
vatoa
vatu
vatukoula
vatulaulau
vayask
vayeshnoi
ve
vebasait
ved
veda
vedaant
vedic
vee
veediyo
veemen
veen
vegetable
veh
vehicle
veisaru
vela
velazquez
velenteena
vella
vels
ven
venejuela
venezuela
venice
ventura
venus
veps
vera
verata
verb
verde
verdi
vereti
verlag
verma
vermeer
veronica
verre
versailles
verses
version
versions
versus
very
veshyaavrtti
vesikula
vest
vetan
vetaukula
veterans
vi
via
vibha
vibhaag
vibhag
vibhajit
vibhinn
vic
vice
vicente
vichaar
victims
victor
victoria
victorian
victory
vid
vida
vidal
video
videos
videsh
videshee
vidroh
vidvaan
vidvaanon
vidya
vidyaalay
vidyarthi
vie
vienna
vietnam
vietnamese
view
views
vigyaan
vigyan
vii
vijay
vijaya
vijeta
vika
vikaas
vikalaang
vikalp
vikas
vikash
vikasit
viking
vikram
vikrti
viktoriya
viktoriyan
vila
viliame
viliyam
villa
village
villages
vilnius
vilupt
vin
vinaash
vinay
vincent
vinci
vinnie
vinod
vinsent
violence
violin
viphal
viraasat
virat
virawa
virgil
virgin
virginia
viria
virod
virodh
virodhee
virodhi
virodi
virtual
virus
viruses
vis
visage
visama
vishaal
vishal
vishay
vishayon
vishesh
visheshagy
visheshagyata
vishisht
vishnu
vishv
vishvaas
vishvavidyaalay
vishwa
visible
vision
visit
visitors
vistaar
visual
viswa
viswanathan
vita
vitarit
viti
vitogo
vitt
vitteey
vivaad
vivaah
vivaldi
vivaran
vivekaanand
vivekanand
vivekananda
vives
vivian
vividhata
viyana
viyatanaam
vladimir
vo
vocab
vocabulary
vocal
voch
vodafone
vogue
voice
voices
voikhanskaya
vol
volavola
volcanic
volcano
volga
vols
volta
voltaire
volume
volumes
von
vono
voomen
voraanee
vot
vote
voter
voters
votes
voting
votualevu
vowel
voyas
vriddhi
vrttachitr
vs
vuci
vuda
vuibau
vula
vuman
vuna
vunidawa
vunikavikaloa
vunimoli
vunimono
vunivalu
vurukania
vya
vyaakhyaan
vyaakhyaana
vyaapaar
vyaapak
vyaavasaayik
vyaayaam
vyakti
vyaktigat
vyaktiyon
vyan
vyasa
vysotsky
w
wa
waada
waala
waalaa
waale
wadan
wagner
waha
waheeda
wahi
wahii
wahlberg
wai
wailevu
wainikoro
wairuku
waisea
wait
waitakere
waiting
waja
wajan
wakiil
wakiili
wala
wale
wales
wali
walid
walk
walker
walking
wall
wallace
wallis
walls
walt
walter
wang
wangbren
want
wanted
wants
waqa
war
waray
ward
wardha
warfare
warhol
warhola
warm
warming
warning
warren
warrior
warriors
wars
warsaw
was
wash
washington
wasikowska
wasim
waste
watch
water
waterfall
watershed
waterston
watford
watkins
watson
watts
wave
wavelength
waves
wax
way
wayne
wbd
we
weak
wealth
weapons
weather
weaver
web
webb
webcitation
webcite
weber
webpage
website
webster
wedding
wednesday
weed
week
weekend
weekly
weight
weights
weisz
weitz
welcome
welfare
well
wellington
wells
welsh
wendy
went
were
werner
wesley
west
western
westpac
wet
wharf
what
wheat
wheel
when
where
whether
which
while
whip
white
who
whole
whom
whose
why
wicket
wickets
wide
widely
width
wien
wife
wijk
wiki
wikibooks
wikimapia
wikimedia
wikinews
wikipedia
wikiquote
wikisource
wikivoyage
wikt
wiktionary
wild
wilder
wiley
wilfred
wilhelm
wilkins
will
william
williams
willis
wilson
win
wind
windhoek
window
windows
wine
wing
winged
wings
winner
winners
winning
wins
winston
winter
winx
wire
wisconsin
wisdom
wise
wish
with
within
without
wittgenstein
wle
wo
woh
wolf
wolff
wolfgang
wolof
woman
women
womenaustralia
womens
won
wonderland
wong
wood
woods
woody
word
wordpress
words
work
worked
worker
workers
working
works
worksheet
workshop
world
worldflicks
worlds
worldwide
worship
worth
would
wounded
wp
wrestling
wright
write
writer
writers
writing
writings
written
wrong
wrote
wto
wu
ww
www
wye
x
xa
xavier
xhosa
xi
xii
xiv
xls
y
ya
yaa
yaachika
yaad
yaani
yaatana
yaatra
yaatraa
yadi
yadua
yaguas
yah
yaha
yahaan
yahan
yahee
yahi
yahii
yahoodee
yahya
yalalevu
yale
yamuna
yan
yang
yangtze
yanuca
yards
yasawa
yasi
yati
yatra
yaun
ye
yea
year
years
yeh
yellow
yemen
yen
yeong
yes
yesterday
yet
yi
yiddish
ynu
yo
yogadaan
yogdaan
yogi
yojana
yola
yolanda
yoo
yooesesaar
yooke
yookrenee
yoonaited
yooniseph
yoonivarsidaid
yoonivarsitee
yooniyan
yoonus
yoorop
yooropeey
yooth
york
yoru
yoruba
you
young
younger
your
youth
youtube
yu
yuddh
yudh
yug
yugoslavia
yumjao
yuva
yuvaon
z
za
zach
zachary
zack
zagreb
zaire
zambia
zealand
zedong
zee
zero
zh
zhang
zheng
zhuang
zi
zila
zimbabwe
zinc
zindagi
zinec
zinta
zoe
zone
zoo
zoroastrian
zquez
zu
zubaan
zuban
zulu
zur
{
|
}
~
£
©
«
°
²
·
º
»
¿
×
ı
ın
ɑ
ɔ
ə
ɦə
ɾ
ʈ
ʊ
ʒu
ʰ
ʱ
ʲ
ʷ
ʹ
ʻ
ʼ
ʿ
ˈ
ː
ˤ
̀
́
̂
̃
̄
̆
̇
̈
̉
̊
̌
̐
̓
̛
̣
̥
̧
̨
̩
̪
̯
̱
̳
α
β
γ
θ
ο
ς
в
е
и
м
на
непал
о
у
ь
я
ַ
ּ
א
،
ا
باد
بن
ة
ت
د
ر
س
م
محمد
و
ي
َ
ُ
ِ
ّ
ْ
ٓ
ٔ
ٕ
ँ
ं
ः
अ
अग
अच
अज
अध
अन
अपन
अम
अर
आ
आग
आज
आत
आध
आम
आय
आर
इ
इत
इल
इस
ई
उ
उत
उन
ऊ
ए
एक
ओ
औ
और
क
कई
कड
कन
कप
कम
कर
कल
कस
कह
ख
खर
ग
गद
गन
गय
गर
गल
घ
ङ
च
चन
छ
ज
जन
जर
जल
जह
झ
ञ
ट
टर
ठ
ड
ढ
ण
त
तक
तम
तर
तव
थ
द
दन
दर
ध
धन
न
नद
नन
नव
नह
प
पक
पत
पन
पर
पह
फ
फल
ब
बच
बड
बदल
बन
बर
बह
भ
म
मत
मन
मह
य
यक
यत
यद
यन
यह
र
रक
रण
रत
रन
रब
रभ
रम
रव
रश
रस
रह
ल
लह
ळ
व
वन
वर
श
शन
शर
ष
स
सकत
सङ
सत
सद
सन
सब
सबस
सम
सर
सल
ह
हज
हन
हर
हल
़
ा
ि
ी
ु
ू
ृ
े
ै
ॉ
ो
ौ
्
।
१
२
३
४
५
६
७
८
९
॰
ং
ক
খ
গ
ঘ
চ
জ
ট
ঠ
ত
থ
দ
ন
প
ফ
ব
ভ
ম
য
র
ল
শ
ষ
স
হ
়
া
ি
ী
ু
ৃ
ে
ৈ
্
ਨ
ਪ
ਬ
ਰ
ਲ
ਸ
ਹ
ਾ
ਿ
ੀ
ੇ
ੰ
ં
ન
પ
ળ
ા
ી
ે
ନ
ପ
ଳ
ା
େ
க
கம
ங
ச
ட
ண
த
ந
ன
ப
ம
ய
ர
ற
ல
ள
ழ
வ
ா
ி
ீ
ு
ூ
ெ
ே
ை
்
గ
త
ద
న
ప
ల
ా
ు
ె
ే
ನ
ಪ
ಳ
ಾ
ೆ
ೕ
ക
ന
പ
ാ
േ
്
ක
ට
න
ප
ර
්
ා
ි
ු
ෙ
ุ
་
ཐ
ོ
န
ပ
မ
ါ
ီ
ေ
်
​
‌
‎
–
—
‘
’
“
”
†
•
…
′
″
‹
›
€
₹
↔
↷
−
③
④
⑦
☉
⯓
ⴰ
ⵜ
ⵣ
⺀
⺄
⺆
⺈
⺊
⺌
⺕
⺝
⺸
⺼
⿰
⿱
⿲
⿳
⿴
⿵
⿶
⿷
⿸
⿹
⿺
⿻
《
》
〢
い
う
お
か
こ
さ
し
す
た
と
な
は
ひ
へ
み
ら
ん
゙
゚
イ
ウ
カ
ケ
コ
シ
タ
ト
ナ
ニ
ネ
ノ
ハ
ユ
ル
ン
ー
㇁
㇂
㇄
㇇
㇈
㇉
㇓
㐁
㐄
㐅
㐌
㐫
㐬
㐭
㐮
㐱
㑒
㒵
㒸
㒼
㓁
㓞
㔾
㕛
㕣
㖾
㘝
㚅
㚇
㚔
㚘
㝉
㝡
㝴
㝵
㞋
㞢
㞷
㠩
㠭
㠯
㡀
㡭
㡿
㢲
㢴
㣇
㣺
㥯
㪅
㫄
㫐
㫒
㫺
㬅
㬎
㬥
㬰
㲋
㳄
㷠
㸒
㸚
㸦
㼌
㼲
㽞
㿟
䀠
䂞
䍃
䏍
䒑
䖍
䖒
䖝
䖵
䙴
䚻
䜌
䝿
䡛
䧹
䪞
一
丁
丂
七
丄
丅
丆
万
丈
三
上
下
丌
不
与
丏
丐
丑
专
且
丕
世
丘
丙
业
丛
东
丞
丢
丣
两
严
並
丨
丩
个
丫
丬
中
丮
丰
丱
串
丵
丶
丷
丸
丹
为
主
丽
丿
乀
乂
乃
久
乆
乇
么
义
之
乌
乍
乎
乏
乐
乑
乔
乖
乗
乘
乙
乚
乛
乜
九
乞
也
习
乡
乳
乾
亀
亅
了
亇
予
争
事
二
亍
于
亏
亐
云
互
亓
五
井
亘
亚
亜
亞
亟
亠
亡
亢
交
亥
亦
产
亨
亩
享
京
亭
亮
亯
亰
亲
亳
亶
亷
人
亻
亼
亾
仁
今
介
仌
从
仐
仑
仒
仓
仕
他
付
仝
代
令
以
任
企
伊
伏
伐
休
会
伯
但
位
何
佘
余
作
佥
使
來
侈
侌
侖
侯
侵
便
保
俞
信
修
倉
倍
候
倠
備
僉
僕
儿
兀
允
兂
元
兄
充
兆
兇
先
光
兊
克
兌
免
兑
兒
兓
兔
党
兜
兟
入
全
兩
兪
八
公
六
兮
兰
共
关
兵
其
具
典
兹
兼
冀
冂
冃
冄
内
冈
冉
冊
冋
册
再
冎
冏
冐
冒
冓
冖
冗
冘
军
农
冝
冡
冥
冫
冬
冷
准
几
凡
凢
凵
凶
凷
凸
凹
出
函
凾
刀
刁
刂
刃
刄
刅
分
切
刍
刑
刕
刖
列
刘
则
初
別
利
别
到
制
刺
則
削
剌
前
剡
剽
劉
力
功
加
劦
助
劫
劳
劵
勃
勇
勉
勒
動
務
勞
勤
勹
勺
勻
勾
勿
匀
匂
包
匆
匈
匊
匋
匍
匕
化
北
匚
匝
匡
匪
匱
匸
匹
区
医
匽
匿
區
十
卂
千
卄
卅
卆
升
午
卉
半
卌
华
卑
卒
卓
单
卖
南
卜
卝
卞
占
卡
卢
卣
卤
卦
卩
卪
卬
卯
印
危
即
却
卵
卷
卸
卻
厂
厃
厄
历
厈
厉
厌
厓
厘
厚
原
厤
厥
厨
厭
厲
厶
厷
厸
去
厼
厽
叀
参
參
叅
又
叉
及
友
双
反
叐
发
叒
叔
叕
取
受
叚
叜
叟
口
古
句
另
叩
只
召
可
台
叱
史
右
叵
号
司
叹
吂
各
吅
合
吉
吊
吋
同
名
后
吏
向
吕
君
吝
吞
否
含
启
吳
吴
吹
吾
呂
呆
呈
告
员
呙
周
命
咅
和
咎
咠
咢
咨
咸
咼
哀
品
哉
員
哥
哲
唐
商
啇
問
啚
啬
啻
善
喜
喬
單
喿
嗇
噩
嚴
囊
囗
囘
囙
囚
四
回
囟
因
囧
囬
困
囱
囷
固
国
圂
圅
國
圍
圓
土
圡
圣
圥
在
圭
地
圶
圼
坐
坒
坚
坴
垂
垔
垚
埀
埋
埶
執
基
堂
堅
堆
堇
堯
塞
墨
壘
士
壬
壯
声
壳
壴
壹
壺
壽
夂
处
夅
夆
备
夊
夋
夌
复
夏
夒
夕
外
夗
夘
多
夜
夢
大
夨
天
太
夫
夬
夭
央
失
夲
头
夷
夸
夹
夻
夾
奂
奄
奇
奈
奉
奎
奏
奐
契
奓
奔
奚
奞
奠
奢
奥
奭
女
奴
奻
好
如
妄
妙
妟
妥
妻
妾
姑
委
姜
威
娄
婁
婴
嬰
嬴
子
孑
孔
孕
孖
字
存
孚
孛
孝
孟
季
孤
学
孫
孱
學
宀
宁
宂
它
宅
宇
守
安
宋
完
宏
宓
宗
官
定
宛
宜
宝
客
宣
室
宮
宰
害
家
容
宾
宿
寄
寅
密
富
寒
察
寧
審
寫
寬
寮
寸
对
寺
寻
寽
対
寿
封
尃
射
将
將
專
尉
尊
尋
尌
對
小
少
尒
尓
尔
尖
尗
尚
尞
尢
尣
尤
尧
尨
尭
就
尸
尹
尺
尻
尼
尽
尾
尿
局
居
屈
屋
屎
屏
屑
展
屖
屚
属
屠
屡
屬
屮
屯
屰
山
屵
屾
岁
岂
岑
岡
岩
岳
岸
峯
島
崇
崑
崔
崖
崙
崩
嵬
嶲
巂
巛
川
州
巟
巠
巢
巤
工
左
巧
巨
巩
巫
差
己
已
巳
巴
巷
巸
巽
巾
巿
帀
市
布
希
帚
帛
帝
带
師
席
帶
常
干
平
年
幵
并
幷
幸
幺
幻
幼
幽
幾
广
広
庄
床
底
店
庚
府
度
庫
庭
庶
康
庸
廉
廌
廛
廣
廩
廴
延
廷
建
廾
廿
开
弁
弃
弄
弇
弋
式
弓
弔
引
弗
弘
弜
弟
弥
弦
弱
張
強
强
彊
彌
彎
彐
彑
当
彔
录
彖
彗
彡
形
彥
彦
彧
彭
彳
役
彼
往
待
律
徒
得
徙
從
復
微
徵
德
心
忄
必
忌
忍
志
忝
忠
忩
快
念
忽
忿
思
怠
急
怱
恆
恒
恩
恭
息
悉
患
悤
悲
悶
惠
惡
惢
愁
愈
意
愛
感
慈
慧
慮
憂
憲
應
戀
戈
戉
戊
戋
戌
戍
戎
成
我
戒
戔
或
戚
戠
戢
截
戲
戶
户
戹
戼
戾
房
所
扁
扇
手
扌
才
打
托
执
承
折
拉
拜
拿
掌
推
提
摩
支
攴
攵
收
攸
改
放
政
敄
故
敏
敕
敖
敗
敝
敞
敢
散
敦
敫
敬
数
敷
數
斂
文
斉
斊
斗
斤
斥
斩
斬
斯
新
方
於
施
斿
旁
旋
族
无
旡
既
旣
日
旦
旧
旨
早
旬
旱
旲
时
旾
昆
昇
昌
昍
明
昏
易
昔
昗
昜
星
春
昬
是
昱
昴
昷
時
晃
晋
晏
普
景
晶
智
暑
暴
曇
曩
曰
曲
曳
更
曷
書
曹
曼
曾
替
最
朁
會
月
有
朋
服
朔
朕
朗
望
朝
木
朩
未
末
本
札
朮
术
朱
朵
朶
朿
杀
李
杏
杜
束
条
来
東
杲
杳
松
析
林
枚
果
枝
枲
枼
某
柔
查
柬
柰
柴
栗
桀
桑
桼
梁
條
梟
梨
棘
棠
棥
森
楚
業
楽
榮
樂
樊
欠
次
欣
欮
欲
欶
欽
款
歆
歇
歛
止
正
此
步
武
歨
歪
歮
歯
歰
歲
歴
歷
歸
歹
歺
死
殳
段
殷
殸
殹
殺
殻
殿
毋
毌
母
每
毒
比
毕
毚
毛
毳
氏
氐
民
气
氣
水
氵
氶
氷
永
氺
氾
求
汝
汞
江
決
沃
沓
沙
沝
治
泉
泊
法
波
泣
泥
泰
洛
洪
活
派
流
浦
浪
浮
淡
淮
清
渚
渠
湯
滿
漸
澤
火
灬
灭
灰
灵
灷
炅
炎
炏
炗
炙
炭
為
烈
烏
烝
焉
無
焦
焱
然
煞
熊
熏
燕
營
燮
爪
爫
爭
爯
爰
爱
爲
爵
父
爻
爽
爾
爿
片
版
牙
牚
牛
牜
牟
牢
牧
牪
特
牽
犀
犬
犭
犮
狂
狄
狊
独
狺
猋
猒
猪
献
獻
玄
率
玉
王
玟
玨
珎
班
琴
瑟
瑩
瓜
瓦
甘
甚
生
産
用
甫
甬
田
由
甲
申
电
甶
男
甸
甹
画
甾
畀
界
畏
畐
留
畜
畟
畢
畧
畨
番
畫
異
畱
當
畺
畾
疊
疋
疌
疑
疒
疾
癶
癸
癹
登
發
白
百
皀
皃
的
皆
皇
皋
皐
皕
皮
皷
皿
盃
盆
盇
盈
益
盍
盎
监
盒
盖
盛
盡
監
盤
盧
目
直
相
盾
省
眇
眉
看
眔
眞
真
眷
眼
眾
着
睘
睪
睿
瞏
瞢
瞿
矍
矛
矞
矢
矣
知
矦
短
石
破
碎
磊
磨
示
礻
礼
祟
票
祭
禀
禁
禸
禹
禺
离
禽
禾
禿
秀
私
秃
秉
秋
科
秝
秦
移
稟
穀
穌
穴
究
穹
空
穿
突
窄
窒
立
竒
竜
竝
竟
章
童
竹
笑
笠
筆
等
答
箕
算
箴
節
篤
篭
米
粉
粛
粟
粤
粦
粲
糞
糸
糹
系
約
納
素
索
紫
累
細
絜
絫
絲
經
維
綿
縣
繇
纍
纟
缶
网
罒
罔
罕
罗
罙
罡
罢
罪
署
罷
羅
羊
羌
羍
美
羔
羕
羗
羞
羡
羣
群
義
羲
羸
羽
翁
翏
習
翕
翟
翠
翼
老
耂
考
者
耆
而
耎
耑
耒
耳
耴
耶
耷
聂
聊
聖
聚
聶
聿
肀
肃
肅
肉
肖
肙
肥
肩
肯
育
肴
胃
背
胡
胥
能
脊
脩
膚
臣
臤
臧
自
臬
臭
臯
臱
至
致
臺
臼
臽
臾
臿
舀
舂
舄
與
興
舉
舌
舍
舛
舜
舞
舟
般
艮
良
色
艸
艹
艾
芒
芔
芬
芮
花
芳
芺
芻
苔
苗
苟
若
苦
英
茶
茸
荅
草
荒
荣
荼
莆
莧
莫
莽
菆
菊
菐
華
萬
落
葉
著
葛
董
葵
蒙
蒦
蒼
蓋
蓬
蓺
蔑
蔡
蕉
蕭
薄
薛
薦
薰
藍
藏
藥
蘭
虍
虎
虐
虒
虔
處
虖
虗
虘
虚
虛
虜
虞
虫
虽
蚤
蚩
蜀
蜜
蟲
蠡
血
行
衍
衛
衣
衤
表
衮
衰
袁
袞
褭
褱
襄
襾
西
覀
要
覃
見
規
覓
覧
親
覽
见
角
解
言
訁
訇
計
詹
語
誩
諸
讠
访
语
谈
谷
豆
豈
豊
豐
豕
豖
豙
象
豦
豩
豪
豸
貇
貝
貞
貟
負
貢
貧
貪
貫
責
貳
貴
買
費
賁
資
賈
賏
賓
賔
賛
賞
賢
賣
質
賴
贊
贝
贡
责
贯
贲
贵
赖
赞
赤
赦
走
越
足
路
蹇
身
躬
車
軍
軎
軟
輦
车
辑
辛
辜
辟
辥
辰
辱
農
辵
辶
边
达
过
近
连
迷
追
退
送
逆
逐
通
速
造
逢
連
逮
進
遀
遂
過
道
達
遣
適
遷
遺
邊
邑
邕
那
邦
邪
郎
部
郭
都
鄉
酉
酋
配
酓
釆
采
里
重
野
量
金
釒
錢
钅
長
镸
长
門
閃
閉
開
閏
閑
閒
間
閔
閵
閻
闌
门
间
闷
阑
阜
阝
阿
降
陳
隆
隊
隋
隡
隨
隱
隶
隹
隺
隻
隼
隽
难
雀
雁
集
雈
雋
雍
雐
雔
雙
雚
雜
雝
離
難
雨
雩
雪
雲
零
雷
需
霍
霜
霝
霞
霸
靈
靑
青
非
靡
面
靣
革
韋
韦
韭
韯
韱
音
頁
頃
項
須
頗
頡
頻
顛
页
風
风
飛
飞
食
飠
養
饣
首
香
馬
馮
駦
马
骨
高
髟
鬥
鬯
鬲
鬼
魚
魯
鮮
鱼
鲁
鳥
鳳
鸟
鹵
鹿
麃
麗
麥
麦
麻
黃
黄
黍
黎
黑
黒
黨
黹
黽
黾
鼎
鼓
鼠
鼻
齊
齋
齐
齒
齿
龍
龙
龜
龟
龠
龰
龱
龴
龵
龶
龷
龸
龹
ꯅ
ꯈ
ꯤ
ꯨ
ꯩ
者
艹
﻿
（
）
：
？
～
🜨
𠀁
𠀃
𠀆
𠀉
𠀎
𠀐
𠁁
𠁣
𠂆
𠂇
𠂈
𠂉
𠂊
𠂋
𠂎
𠂒
𠂔
𠂛
𠂡
𠂢
𠂤
𠂬
𠂭
𠂹
𠃊
𠃋
𠃌
𠃍
𠃎
𠃑
𠃓
𠃔
𠃜
𠄌
𠄎
𠄠
𠄢
𠆢
𠆥
𠇍
𠈌
𠌵
𠓜
𠔉
𠔥
𠔼
𠔽
𠔿
𠕀
𠕁
𠕋
𠘧
𠘨
𠙻
𠙼
𠚏
𠚒
𠚤
𠚪
𠣏
𠤎
𠤕
𠥓
𠦄
𠦑
𠦝
𠧒
𠧗
𠧪
𠩺
𠪚
𠫓
𠫔
𠫤
𠬛
𠬝
𠬞
𠬢
𠬤
𠬶
𠮛
𠮦
𠮷
𠯑
𠱠
𠳮
𠷎
𡈼
𡉀
𡉵
𡌥
𡍮
𡏳
𡕒
𡕩
𡕰
𡖅
𡗗
𡗜
𡘆
𡘤
𡧱
𡨄
𡩧
𡬠
𡭽
𡰣
𡰥
𡰪
𡰯
𡰱
𡷈
𡸁
𡿨
𡿩
𡿪
𡿺
𢀖
𢀛
𢀩
𢁙
𢆉
𢆰
𢆶
𢇁
𢇇
𢉖
𢌬
𢌿
𢏚
𢑑
𢑚
𢖻
𢙣
𢛳
𢦏
𢦒
𢧵
𢼄
𢾕
𣁋
𣄼
𣅀
𣅽
𣍘
𣎳
𣎵
𣏋
𣏼
𣗥
𣥂
𣥖
𣦵
𣦼
𣧄
𣪊
𣪠
𣬉
𣳾
𣶒
𤇾
𤊽
𤐫
𤓰
𤔔
𤕨
𤣩
𤰇
𤰔
𤰞
𤴓
𤴔
𤽄
𥁑
𥁕
𥃦
𥃩
𥃭
𥇡
𥑟
𥘅
𥘈
𥝢
𥫗
𥱡
𦈢
𦉪
𦉬
𦉼
𦍌
𦍒
𦎧
𦐇
𦓔
𦔮
𦘒
𦙃
𦚏
𦣝
𦣞
𦣻
𦥑
𦥔
𦥯
𦨉
𦭝
𦰩
𧆞
𧈧
𧘇
𧰨
𧴪
𧴮
𧵩
𧾷
𨸏
𨾴
𩙿
𩠐
𩫏
𩵋
𪉷
𪜀
𪟽
𪠲
𪩲
𫇦
𫔭
𫜸
𫝀
𫠣
𫠩
𫢉
𫥞
𫩏
𫩠
𫪡
𫲽
𫶧
𬀷
𬐘
𬗌
𬙙
𬛸
𬜯
𬟩
𬯁
𬴘
𬺻
𬼉
𬼖
𭀰
𭁈
𭁨
𭅰
𭑈
𭕄
𭗼
𭤨
𭥫
𭻾
𮅕
𮊿
𮍌
𮍏
𮓗
𮥼
𮧮
廾
𰀁
𰀄
𰀈
𰀉
𰀕
𰀠
𰀡
𰀢
𰀪
𰁜
𰃮
𰆊
𰆘
𰋙
𰕎
𰢴
𰧭
𰯲
00--
06--
07--
59--
71--
78--
79--
80--
81--
82--
84--
88--
89--
90--
91--
93--
95--
a--
aa--
aai--
aam--
aan--
aar--
aarak--
aas--
aatma--
ab--
ac--
ach--
ad--
af--
ag--
ah--
ai--
air--
aj--
ak--
aka--
al--
ala--
alee--
alek--
ali--
all--
alte--
alu--
am--
an--
ana--
anar--
ance--
and--
ang--
ant--
anti--
anu--
ap--
aphr--
app--
ar--
ara--
arch--
art--
as--
asa--
ash--
asp--
assas--
at--
atala--
atten--
atya--
au--
aus--
av--
ava--
ax--
ay--
az--
b--
ba--
baangl--
bad--
bag--
bah--
bai--
bal--
ban--
bank--
bapt--
bar--
bas--
bat--
bay--
bb--
be--
bee--
bel--
ben--
bene--
ber--
bes--
bet--
bh--
bha--
bhoo--
bhu--
bi--
bil--
bis--
bit--
bo--
bog--
bor--
bos--
bou--
br--
bre--
bren--
bres--
brow--
bu--
bud--
bur--
c--
ca--
can--
car--
cas--
cat--
catastr--
cau--
ce--
cen--
ch--
cha--
che--
chh--
chi--
cho--
chronic--
chu--
ci--
cir--
cle--
cli--
co--
coll--
collec--
com--
con--
contri--
conver--
cop--
cor--
cord--
corn--
corres--
cot--
cr--
cre--
cro--
cru--
crus--
crusa--
cu--
d--
da--
daa--
dak--
dal--
dapha--
dar--
de--
defe--
defi--
del--
demo--
den--
deo--
depen--
depo--
der--
des--
deter--
dev--
dh--
dha--
dhi--
dho--
di--
dia--
dil--
dis--
discipl--
do--
docu--
dog--
dom--
dor--
dr--
dro--
du--
duk--
dun--
dur--
durg--
dush--
dy--
e--
eat--
eb--
ec--
eco--
ed--
ee--
ei--
eisen--
ek--
el--
ela--
ele--
eli--
em--
emb--
emi--
en--
end--
eng--
ep--
er--
es--
et--
ex--
exclu--
expl--
exten--
eyhl--
f--
fa--
fal--
fan--
far--
fe--
fem--
fer--
ferr--
fi--
fiji--
fili--
firoz--
fitz--
flo--
flu--
fon--
foot--
for--
foun--
fr--
frag--
fred--
free--
fu--
full--
g--
ga--
gal--
gan--
gar--
gau--
gaz--
ge--
gen--
geno--
geo--
gh--
ghu--
gi--
gil--
gl--
go--
god--
gor--
gr--
grand--
green--
grh--
gu--
gul--
gur--
gurd--
h--
ha--
habi--
hacı--
haf--
hai--
haju--
hal--
ham--
har--
harr--
hay--
he--
head--
hee--
hend--
her--
herce--
hi--
high--
hil--
his--
ho--
hol--
homo--
hoo--
hr--
hu--
hy--
hydr--
i--
ic--
id--
ig--
ij--
ika--
il--
ill--
illu--
im--
imag--
in--
ina--
indi--
inst--
int--
inter--
investi--
ir--
is--
ish--
iso--
it--
iv--
iz--
j--
ja--
jaa--
jaamb--
jam--
jan--
jana--
jas--
jay--
je--
jed--
jen--
jet--
jh--
ji--
jo--
joa--
jor--
jp--
ju--
jya--
k--
ka--
kaa--
kaali--
kab--
kai--
kairo--
kal--
kala--
kam--
kan--
kand--
kap--
kar--
kas--
kat--
kauf--
ke--
kel--
ken--
ker--
kh--
kha--
khar--
ki--
kilo--
kin--
kir--
ko--
kol--
kor--
kot--
kr--
kro--
ku--
kul--
kun--
kur--
kut--
kwa--
ky--
l--
la--
lad--
lag--
lai--
lan--
land--
lar--
law--
lax--
le--
lea--
leg--
lek--
len--
leo--
les--
lexi--
ley--
li--
lib--
lig--
light--
lin--
lit--
liyo--
ll--
lo--
lok--
lt--
lu--
ly--
m--
ma--
maa--
mac--
macr--
mad--
madu--
mag--
mah--
maha--
mai--
maj--
maja--
mal--
man--
mano--
manu--
map--
mar--
mas--
mave--
maz--
mb--
mc--
mca--
mcd--
me--
mer--
meso--
mi--
min--
mir--
mis--
mit--
mm--
mo--
momo--
mon--
mor--
moro--
morpho--
mou--
movi--
mu--
muan--
mul--
multi--
mun--
mur--
mus--
mut--
my--
n--
na--
naa--
nagi--
nai--
nar--
narr--
nas--
nau--
nd--
ne--
neu--
new--
news--
ng--
ni--
nic--
nir--
nird--
nirvaac--
no--
nong--
nor--
not--
now--
nu--
ny--
o--
ob--
obta--
occ--
occas--
od--
off--
ol--
om--
on--
op--
open--
or--
os--
ou--
out--
over--
p--
pa--
pad--
pai--
pal--
pan--
par--
para--
pari--
pas--
pe--
pet--
ph--
pha--
phe--
phi--
phy--
pi--
pic--
pier--
pil--
pl--
pla--
plu--
po--
poc--
poli--
poly--
poo--
post--
pra--
prava--
pre--
pro--
psycho--
pu--
pun--
punar--
pur--
push--
q--
qaa--
qua--
quali--
r--
ra--
raaj--
radio--
rai--
raj--
ram--
ras--
re--
rec--
reci--
recom--
recon--
red--
ref--
reg--
reh--
ren--
rep--
rev--
rho--
ri--
rid--
rit--
ro--
roh--
ru--
s--
sa--
saad--
saam--
sab--
sad--
sah--
sai--
sal--
sam--
sama--
san--
sanra--
sar--
sarva--
sarı--
sat--
sava--
sc--
sch--
se--
sea--
secu--
see--
sele--
semi--
ser--
set--
sh--
sha--
shams--
she--
shi--
shl--
shu--
si--
sid--
sil--
sir--
sk--
sky--
so--
sol--
solut--
son--
sou--
spe--
spec--
spi--
sr--
st--
stan--
stap--
ste--
sto--
stor--
su--
sub--
suff--
suk--
sul--
sun--
sur--
survi--
sv--
sva--
svee--
sw--
swa--
sy--
t--
ta--
tab--
tai--
tal--
tan--
tar--
tas--
te--
tee--
teh--
temp--
ten--
terr--
th--
the--
thi--
thri--
ti--
til--
to--
tol--
top--
tr--
trans--
tre--
treat--
tri--
tro--
tu--
tung--
tur--
tuu--
tv--
tw--
ty--
tyo--
u--
ud--
uk--
ul--
ulu--
un--
under--
univ--
up--
ur--
us--
usa--
ut--
uu--
v--
va--
vaata--
val--
van--
var--
vau--
ve--
ven--
ver--
ves--
vete--
vi--
vic--
vid--
view--
vigya--
vin--
vir--
vis--
vo--
vul--
vun--
vya--
vyava--
w--
wa--
wafa--
wai--
waini--
war--
we--
web--
wei--
west--
wit--
with--
wo--
won--
wor--
wy--
x--
xi--
y--
ya--
yan--
yazı--
ye--
yi--
yo--
yu--
z--
za--
zh--
zi--
zon--
zoo--
ı--
м--
п--
язык--
شا--
ل--
نیپ--
अ--
आ--
इ--
उ--
क--
ग--
च--
ज--
ट--
ड--
त--
द--
न--
प--
ब--
भ--
म--
य--
र--
ल--
व--
श--
ष--
स--
ह--
१--
র--
க--
த--
ப--
--0
--1
--2
--3
--33
--4
--5
--6
--7
--8
--84
--9
--94
--a
--aa
--aaj
--aalay
--aan
--aar
--ab
--abad
--aca
--ad
--adee
--ado
--ae
--aee
--agat
--age
--ah
--aha
--ai
--aia
--ain
--ais
--aj
--aji
--ak
--akaar
--akar
--akarta
--ake
--ako
--al
--ala
--ale
--als
--am
--ama
--amat
--amu
--an
--ana
--ane
--ang
--ani
--ans
--ao
--aon
--ap
--ape
--apis
--ar
--ard
--ardo
--are
--aree
--ars
--ary
--as
--asabha
--asi
--asit
--at
--ata
--ataa
--atam
--atan
--atar
--ate
--ation
--atmak
--au
--aud
--av
--ava
--awa
--ay
--az
--b
--ba
--baddh
--be
--berg
--bes
--bi
--bo
--bs
--bu
--burg
--by
--c
--ca
--cal
--cci
--ce
--ch
--cha
--chaa
--chi
--ci
--cia
--cik
--cil
--cing
--cium
--ck
--co
--cs
--ct
--ction
--ctive
--cy
--cık
--d
--da
--daa
--das
--dd
--de
--ded
--dee
--dh
--di
--die
--dih
--diha
--din
--do
--dog
--dpur
--dra
--ds
--du
--dy
--e
--ea
--eas
--ed
--ee
--eek
--eel
--een
--eena
--eer
--eey
--eh
--ei
--ej
--el
--ell
--ella
--em
--eman
--en
--ence
--endra
--eni
--eno
--ens
--ensis
--ent
--ento
--ents
--eo
--ep
--er
--ern
--ero
--ers
--ert
--eru
--ery
--es
--esa
--ese
--esh
--eshan
--est
--et
--ete
--eth
--ett
--eus
--ev
--evu
--ey
--ez
--f
--ful
--g
--ga
--gar
--garh
--ge
--gen
--gh
--ght
--gi
--ging
--gio
--go
--gong
--gri
--gs
--gue
--gues
--gy
--h
--ha
--haa
--hak
--hal
--han
--har
--he
--hel
--hi
--hie
--hing
--hir
--hmi
--hn
--hna
--ho
--hold
--hri
--ht
--hu
--hya
--i
--ia
--ial
--ian
--ib
--ible
--ic
--ica
--ical
--ice
--ich
--ick
--id
--ide
--ids
--ie
--ied
--ier
--ified
--iga
--ii
--ij
--ik
--ika
--iko
--il
--im
--ima
--imo
--in
--ina
--ine
--ing
--ings
--ington
--ini
--ins
--io
--ion
--ions
--ior
--ir
--ira
--iro
--is
--ish
--ism
--ist
--istic
--it
--ities
--ity
--ium
--iv
--ivalu
--ive
--ivity
--ix
--iy
--iya
--iyan
--iye
--iyon
--iz
--ization
--ized
--j
--ja
--jan
--jee
--ji
--jit
--jn
--jo
--juk
--k
--ka
--kan
--kar
--katta
--ke
--ker
--ket
--kh
--ki
--kin
--ko
--kon
--kos
--kot
--kpur
--ks
--kt
--ku
--kur
--l
--la
--laa
--lal
--land
--lar
--ld
--le
--led
--lee
--ler
--let
--ley
--lf
--li
--lifting
--line
--lis
--ll
--lle
--lly
--lm
--lo
--loa
--lov
--lp
--ls
--lu
--ly
--lyn
--m
--ma
--mal
--man
--mba
--me
--med
--ment
--mi
--mond
--mp
--ms
--mu
--mukh
--my
--n
--na
--nal
--nand
--nath
--nce
--ncia
--nd
--nda
--ndon
--ne
--ner
--nes
--nese
--nesh
--ness
--net
--ney
--ng
--nga
--ni
--nia
--nie
--ning
--niya
--nn
--nne
--no
--non
--ns
--nt
--nta
--nte
--ntly
--nto
--nts
--nu
--ny
--nya
--o
--oa
--od
--oe
--of
--ogy
--oi
--ok
--ol
--oli
--ological
--ology
--om
--on
--ona
--one
--oni
--ons
--oo
--ook
--oon
--oot
--or
--ora
--ors
--os
--ot
--ota
--oto
--ots
--ous
--ov
--ova
--ovo
--ow
--oy
--p
--pa
--pat
--pe
--pee
--pf
--ph
--pi
--pit
--pite
--polis
--post
--ps
--pt
--pur
--q
--qa
--r
--ra
--raa
--rad
--rak
--ram
--ran
--rd
--re
--ree
--reez
--rel
--rf
--rg
--ri
--ria
--ric
--rie
--ries
--rik
--rina
--rine
--riya
--rl
--rm
--rn
--ro
--ror
--ros
--rov
--rr
--rra
--rro
--rs
--rse
--rst
--rt
--rth
--ru
--ry
--rya
--s
--sa
--san
--sar
--sch
--scious
--se
--sed
--see
--sel
--sen
--sh
--sha
--ship
--shire
--shy
--si
--sia
--ska
--sl
--sm
--so
--son
--ss
--ssus
--st
--stan
--sth
--ston
--sv
--swar
--sy
--t
--ta
--taa
--tan
--tar
--te
--ted
--tee
--ter
--tes
--th
--ti
--tic
--ties
--tik
--times
--ting
--tion
--tit
--tium
--tive
--tle
--tner
--to
--ton
--tory
--town
--tre
--tri
--ts
--tt
--tta
--tte
--tto
--tty
--tu
--tur
--ture
--tus
--tv
--ty
--tya
--tz
--u
--ua
--ual
--ually
--uch
--uck
--uction
--udhury
--ue
--ui
--uit
--uk
--ul
--ula
--ulated
--um
--un
--una
--ur
--ura
--ure
--us
--uss
--ut
--uto
--ux
--uya
--v
--va
--vaad
--var
--vati
--vations
--ve
--ved
--vee
--vel
--ver
--vi
--vile
--vu
--vy
--w
--wa
--wal
--wan
--war
--wat
--way
--we
--well
--wich
--wick
--x
--y
--ya
--yaan
--yaksh
--yan
--yar
--yat
--ye
--yer
--yeva
--yo
--yon
--ys
--yu
--z
--za
--zan
--ze
--zi
--ı
--ık
--го
--и
--ка
--क
--ग
--ज
--ड
--त
--न
--ब
--म
--य
--ल
--स
--ह
