!
"
##0
##1
##10
##11
##12
##13
##14
##15
##16
##17
##18
##19
##2
##20
##21
##22
##23
##24
##25
##26
##27
##28
##29
##3
##30
##31
##32
##33
##34
##35
##36
##37
##38
##39
##4
##40
##41
##42
##43
##44
##45
##46
##47
##48
##49
##5
##50
##51
##52
##53
##54
##55
##56
##57
##58
##59
##6
##60
##61
##62
##63
##64
##65
##66
##67
##68
##69
##7
##70
##71
##72
##73
##74
##75
##76
##77
##78
##79
##8
##80
##81
##82
##83
##84
##85
##86
##87
##88
##89
##9
##90
##91
##92
##93
##94
##95
##96
##97
##98
##99
$
%
&
'
(
)
*
+
,
-
.
/
0
000
1
10
100
1000
1030
1033
1040
1053
1054
1055
1057
1058
1059
1060
1069
1072
1073
1095
11
1100
1108
1112
1122
1125
113
1132
1142
1145
1152
1154
1157
1174
1175
1180
1181
1185
1186
12
120
1213
1217
1224
1225
1227
1246
1256
1258
1263
1266
1270
1273
1274
1279
1280
1283
1285
1289
1290
1291
13
130
1300
1304
1305
1307
1309
1311
1316
1317
1318
1320
1325
1328
1332
1333
1336
1347
1350
1353
1354
1358
1359
1364
1365
1370
1373
1375
1377
1378
1382
1387
1389
1390
1392
1393
1394
14
1400
1403
1407
1410
1412
1413
1415
1417
1422
1424
1428
1433
1434
1435
1438
1441
1443
1449
1451
1453
1457
1464
1465
1467
1468
1469
1472
1473
1476
1480
1481
1487
1488
1489
1490
1492
1493
1494
1495
1498
1499
15
150
1500
1502
1503
1504
1507
1509
1510
1515
1516
1517
1520
1521
1526
1530
1531
1533
1536
1538
1539
1541
1542
1544
1545
1546
1547
1552
1556
1557
1561
1562
1564
1565
1566
1567
1568
1571
1572
1573
1582
1587
1589
1596
1597
1598
16
160
1600
1603
1604
1605
1606
1607
1610
1614
1616
1618
1620
1622
1623
1636
1643
1644
1648
1649
1651
1652
1653
1654
1659
1660
1661
1662
1666
1667
1681
1682
1685
1686
1688
1689
1690
1696
1697
1699
17
1702
1703
1705
1706
1707
1709
1710
1711
1713
1715
1717
1720
1721
1722
1723
1727
1729
1730
1731
1733
1736
1738
1739
1740
1743
1745
1747
1750
1755
1757
1760
1761
1762
1764
1765
1766
1767
1768
1769
1770
1771
1772
1773
1774
1775
1776
1777
1779
1781
1783
1784
1785
1786
1789
1792
1793
1794
1795
1796
1797
1798
1799
18
180
1800
1802
1803
1804
1806
1807
1809
1810
1811
1813
1814
1817
1818
1821
1822
1825
1828
1833
1837
1840
1847
1848
1849
1850
1853
1855
1856
1861
1863
1865
1867
1868
1871
1876
1879
1880
1881
1882
1885
1892
19
190
1900
1901
1903
1904
1910
1911
1913
1914
1917
1918
1920
1922
1923
1924
1925
1930
1932
1933
1939
1940
1943
1945
1946
1947
1948
1949
1950
1953
1954
1956
1957
1958
1960
1961
1962
1964
1965
1966
1967
1968
1969
1970
1971
1973
1975
1976
1977
1978
1980
1982
1983
1988
1989
1990
1991
1992
1993
1994
1995
1997
1998
1999
2
20
200
2000
2001
2002
2003
2004
2005
2006
2007
2008
2009
2010
2011
2012
2013
2014
2015
2016
2017
2018
2019
21
22
23
24
25
250
26
27
28
29
3
30
300
31
3166
32
33
34
35
36
38
4
40
400
406
41
42
43
44
45
450
46
47
48
5
50
500
51
52
53
54
55
56
6
60
600
65
7
70
700
730
74
75
76
77
79
8
80
800
82
83
848
850
9
90
900
92
95
:
;
=
>
?
[
\
]
_
`
a
ab
abandone
abandonnen
abaqa
abbas
abbassid
abbay
abbe
abd
abdallah
abdikasyon
abdike
abe
abi
abitchwe
abite
abitid
abo
aboli
abondan
abondant
abou
abouti
abraham
abre
abrite
absans
abso
absoli
abstre
abu
ac
acha
ache
achte
acre
act
ad
adal
adam
adan
adapte
ade
adiksyon
adil
adisyon
adje
adjwen
adme
administrasyon
administratif
administrativ
administrativman
administrato
administre
adn
ado
adolphe
adorno
adre
adve
ae
afdhal
afe
afen
afgan
afghan
afghanistan
afirmasyon
afirme
afirmen
afliyan
afonso
afranchi
afrik
afriken
afro
afronte
afrontman
ag
agha
aglome
agne
agra
agrandi
agre
agrikiltir
agrikilto
agriko
agse
agtivite
ahmad
ahmed
ahmet
ai
aires
aix
aj
ajan
ajans
aje
aji
ajitasyon
ajmer
ajoute
ak
akade
akbar
ake
akimile
akiz
akize
akizisyon
ako
akonpagne
akonpli
akoz
aks
akse
aksoum
aksyon
aktiv
aktivite
akto
akwatik
al
ala
alain
alam
alaouit
alaungpaya
albert
album
albuquerque
ale
alep
alexandre
alexandrie
alexis
alfonso
alfred
alghu
ali
alimaj
aliman
alimantasyon
alimante
alix
alje
alla
allah
almagn
almagro
alman
almeida
almohad
almoravid
alo
alonso
alp
alpha
alphonse
altan
alte
altitid
aluminium
alyaj
alyans
alye
amaru
amato
amaury
amda
ame
america
amerigo
ammad
amo
amou
amoursana
ampir
amsterdam
an
analitik
analiz
anarchi
anatoli
anatomi
anba
anbarke
anbasad
anbasado
anbiskad
anbriyon
and
andan
ande
andre
andronic
andrwa
ane
anfe
anfen
anfwi
ang
angaje
ange
angelovic
angile
angkor
angle
anglo
anglobe
angola
ani
anjandre
anjen
anjou
ankadre
anke
anklave
ankouraje
anlman
anlve
anmanzonnyen
anme
anmo
annam
annan
anne
anngle
anniye
annonse
anonse
anpare
anpe
anpir
anplwa
anplwaye
anpo
anprann
anpren
anprente
anprizonnen
anpro
anpwazonnen
anre
anrichi
ans
ansanm
anse
ansent
answit
ansyen
ansyenn
ansyennman
ant
antan
antann
antargtik
antarktik
antche
ante
anthony
anti
antigua
antik
antikite
antioche
antipap
antite
antiye
antoine
antonio
antoure
antr
antre
antrennen
antrot
antrouprann
antroupriz
anv
anvan
anvayi
anve
anvers
anviron
anvironnman
anvironnmantal
anvizaje
anyen
ao
ap
aparante
apare
aparisyon
apartnans
apartni
apatou
ape
api
apiye
aple
aplikasyon
aplike
apo
apoje
apostolik
apre
apro
aproche
aproksimasyon
aq
aquitaine
ar
arab
arabi
arabik
aragon
arawak
arbitre
arc
arche
archipe
archipel
archite
are
ares
argentina
arghoun
arghun
argtik
arguin
ariane
arid
ariq
aristote
aritme
arjantin
ark
arke
arktik
arm
armato
arme
arn
arouktai
arslan
arte
arthur
artifisye
artik
artikile
artis
artistik
artizan
artois
aruba
arudj
arye
as
asanblaj
asanble
asasen
asasina
asasine
asasinen
ascalon
ase
ashanti
asheton
ashikaga
ashraf
asid
asimile
asire
asiste
asiz
askia
aso
asosyasyon
asosye
asou
aste
astrakhan
astrono
astronomi
astronomik
asye
at
atabeg
atabek
atahualpa
atak
atake
atansyon
atchwe
ate
atenn
atent
athe
atire
atitid
atlantik
atlas
atle
atmosfe
ato
atoll
atom
atomik
atrave
atribiye
atsiz
au
audiencia
auguste
augustin
aurangzeb
aux
av
ava
avantaj
avantirye
ave
avennman
aversa
avignon
avo
avril
avwar
avwe
avyon
awala
away
ayo
aysyen
ayti
ayutthaya
ayyoub
ayyoubid
az
azerbai
azi
azo
azte
azyatik
b
ba
baba
bac
badis
badr
bagaj
bagdad
baha
bahadur
bahamas
bahia
bahmani
bai
baji
bak
bakte
bakufu
bal
balak
bale
balkh
baltik
bamberg
ban
banda
bande
bangladesh
bangn
bangna
bann
banten
banu
baptiste
bar
baraj
barbad
barbare
barberousse
barcelone
barke
barkyaruq
baro
baron
barthe
barye
bas
basa
basen
basileus
bask
bastien
batavia
batay
batenm
bati
batiman
batize
bato
battuta
baudouin
bavarwe
bavie
bavye
bay
bayazid
baybars
baz
baze
be
beaufort
bec
beg
bel
ben
bengal
benjamin
benoi
benyen
benzwen
ber
bernard
bertrand
bey
beylerbey
beyrouth
bha
bhonsla
bi
bibliyote
bidim
bilbeis
bilgar
bilgari
bill
billah
bilyon
bio
birman
birmani
birmanni
biro
bise
bisekstil
bisikle
biso
bitasyon
biten
biye
bizans
bizanten
bizantin
bje
blanch
blanng
blazon
ble
bli
blica
blije
bliye
blo
blocus
blois
bloke
blues
bman
bo
bogota
bohe
bokou
bol
boleslas
boli
bolivi
bombay
bon
bonaparte
bonbarde
bonbardman
bondje
boniface
bonmanten
bonne
bonni
bonno
borde
bordeaux
boris
bornou
boson
boston
botanik
botswana
bou
bouche
bouchinennge
bouchou
bouddhik
bouddhis
bouddhism
boue
bougie
bouji
bouk
boukhara
boul
boule
boulour
boulye
bour
bourbon
bourgignon
bourgo
bourgogn
bouri
bouvet
boven
bowenm
bra
bral
branch
bras
brasil
brayik
bre
brescia
breu
brienne
briga
brik
britangn
britanik
britannik
british
briyan
briye
brize
bronz
bruges
bruno
bse
bte
bu
buenos
bur
burjit
but
bwa
bwaze
bwe
bye
byen
byento
byochimik
byodive
byofizik
byoloji
byolojik
byosfe
c
ca
cabo
cabot
cabral
cadix
cai
calcutta
calicut
calixte
campo
canton
cantorbe
capoue
car
carl
carnaval
carthage
casimir
catherine
cavelier
ce
ceuta
ceylan
ch
cha
chah
chak
chaken
chal
chalo
champa
champagne
champlain
chan
chandernagor
changamire
chanj
chanje
chanjman
chanm
chanpignon
chans
chanse
chante
chanto
chao
chape
chapelle
chapit
char
charbon
charj
charje
charles
chart
chase
chaso
chato
chaybanid
che
cheikh
chenn
chi
chif
chili
chimen
chimi
chimik
chimis
chin
chinwa
chinwaz
chinwe
chip
chiraz
chire
chit
chitor
cho
choa
chofman
chola
choso
chouval
chouvalye
chre
christian
christmas
christophe
chwa
chwe
chyen
cio
city
cl
claude
cle
clive
club
cluny
co
cochin
colomb
columbia
com
commonwealth
comne
company
confucius
connecticut
conrad
constance
constantin
cook
copenhague
cordoue
cornelius
corso
corte
corvin
costa
country
cre
cruz
cuba
cunha
curac
cuzco
cœur
d
da
dabo
dahomey
dai
daigo
daimyo
daksyon
dalai
dalay
dali
damas
damasce
dame
dampier
dan
danbwa
daniel
danje
dannmark
dannwa
dannye
dans
danse
dansite
dant
dante
danwa
dapre
daria
darie
das
dat
data
date
dauphin
david
davis
dawit
dawla
dawlat
day
dayo
de
debre
dec
deccan
dei
dekkan
del
delaware
delhi
delta
dengel
denis
der
derbent
des
desse
deva
devana
dey
di
dias
dicis
die
diego
dieppe
dife
difikilte
difis
difisil
difisilman
difize
difizyon
difye
dig
dignite
dije
dikal
dikaman
dikasyon
dikatif
dike
diktatir
dile
dilo
dimanch
dimanche
dimansyon
dimante
dimi
diminwe
din
dinamik
dinanmik
dinasti
dinastik
diogo
dipen
dipi
diplonmatik
dir
dire
dirijan
dirije
dis
disan
disansyon
dise
disip
disiplin
disipline
diskisyon
diskou
diskour
disnati
dispare
disparisyon
dispe
dispite
dispoze
dispozisyon
dispozitif
distans
distenge
distenk
distenksyon
distribisyon
distrik
disyon
disyonne
dit
dite
diu
divan
dive
diven
divin
divini
divinite
divize
divizyon
dize
dizenn
dizyenm
dj
dja
djab
djabe
djaghatai
djakritik
djale
djame
djan
djanman
djaspora
djasyon
djat
djatman
dje
djebe
djebel
djerba
djo
djojenn
djopopo
djose
djouder
dju
djwi
dla
do
dofen
doj
dokiman
dolar
dollar
dom
domain
dome
domenn
domenng
dominasyon
domine
don
done
dongola
donk
donmenn
donmenng
donminasyon
donminen
donminiken
donni
doria
dos
dote
dou
douard
doub
double
douche
douk
doulo
doumande
doumann
doume
doumo
dourab
douran
doure
douri
dous
dout
douwa
douz
drake
dral
dramatirj
dranm
drapo
dre
drwe
dsen
dsin
du
dupleix
durazzo
dvg
dwa
dwann
dwe
dzoungar
dzoungari
e
east
ec
eccle
ed
edo
edward
einstein
el
elektwonik
emmanuel
en
end
ende
endijenn
endike
endire
endistri
endistriye
endividi
endividjwe
endjen
endjwi
endo
endochinwe
endone
endonne
endou
endouism
enfe
enfini
enfinite
enflije
enfliyan
enfliyans
enfliyanse
enfo
enformasyon
enformatik
enfrastriktir
enje
enka
enkapab
enkirsyon
enkli
enko
enkonne
enkye
enn
ennmi
enpe
enplante
enplike
enpo
enposib
enpoze
enpre
ensandi
ensandje
ense
ensi
ensile
ensire
ensirje
enskri
enskripsyon
enspire
enstab
enstalasyon
enstale
enstigasyon
enstitchwe
enstitisyon
enstitisyone
enstore
enstriksyon
enstriman
enstrouman
entans
entansyon
ente
enternasyonal
entitile
entrodiksyon
entrodjwi
entronize
entronnize
envansyon
envante
envanto
envazyon
enve
envite
envizib
epi
er
eriksson
erzurum
es
esen
espagnol
espan
essequibo
est
estime
estre
et
etap
etc
eudes
euge
euler
eunuque
ev
ez
f
fa
fabrikasyon
fabrike
facto
fakilte
faksyon
fakto
fal
falls
famin
fan
fanm
fanme
fanmi
fanmilyal
fann
fans
fanso
faraday
farin
faris
farrukhsiya
fars
fas
fasad
fasil
fasilite
fasilman
fason
fatimid
favo
favorab
favori
favorize
faz
fe
fen
fenlann
fer
ferdinand
ferna
fernand
fernando
fi
fide
fidji
figi
figir
figire
figs
figse
fij
fijye
fika
fikas
fikasite
fiks
fikse
fiksyon
fil
file
filipin
film
filoje
filozo
filozofi
filozofik
fime
fimen
fin
final
finalman
finans
finanse
finansye
fine
fini
finisman
finisyon
finitiv
finitivman
firuz
fis
fiskal
fisyans
fisye
fitir
fize
fizik
fizisyen
fizyolojik
fizyon
flandre
flanm
fle
flivyal
flo
florans
floranten
florence
florid
flux
flwid
fo
fon
fondamantal
fondasyon
fondato
fonde
fongsyon
fonik
fonksyon
fonksyone
fonksyonnen
fonksyonnman
fonn
fonne
fonnman
fore
form
forme
fort
fosil
fot
fotografi
foton
fotosente
fou
foulques
fourir
fourni
foutbo
fouy
fouye
fr
fra
fragman
fraksyon
fraktir
fran
franc
france
francfort
franchi
francis
francisco
frank
franklin
franko
frankofonn
frans
franse
fransik
fransisken
frape
fre
frison
fron
fronmen
fronmitir
frontalye
frontche
frwi
fu
fujian
fujiwara
fwa
fwaye
fwe
fwi
fwit
fye
g
ga
gabe
gade
gaje
gal
galaksi
galdan
gale
galile
galite
galman
gama
game
ganbi
gand
gangan
gange
gangnen
gansu
ganyen
gao
gar
gara
garanti
gard
garde
gari
garnizon
gaston
gastronnonmi
gasyon
gat
gatif
gaz
gaze
ge
gen
gengis
geoffroy
george
georges
gerais
ges
ghana
ghazan
ghazi
ghazne
ghazni
ghurid
gi
gibelins
gid
gide
gil
gile
gilles
gilye
gim
gine
giovanni
gita
glasye
gle
gliz
glo
global
gman
gn
gne
gnman
gno
gnon
go
goa
goch
goire
golconde
golf
golwa
gon
gonc
gonde
gonn
gonzalo
gore
gori
goryen
gosyasyon
gosye
gotik
gou
gour
gouve
gra
gradasyon
grade
grafi
grafik
gragne
gran
grand
grande
grando
granme
granmoun
grann
granth
gras
grasyon
grav
grave
gravir
gravitasyon
gravite
gre
great
grek
gren
grenn
gro
group
groupman
growennlann
gs
gse
gsidan
gsidantal
gsik
gsikal
gsiken
gsiko
gstansyon
gste
gstil
gstre
gstrenm
gsyon
gta
gtchwe
gte
gtif
gtir
gtivite
gtivman
gto
gtoral
gtrwaye
gtwe
gu
guaimar
guam
gue
guelfes
guesclin
guillaume
guine
guiscard
guizhou
gujarat
gujerat
guo
guru
gus
guy
guyanais
guyane
gwadloup
gwaranni
gwate
gwiyane
gwiyann
gwiyannan
gwiyannen
gwo
gyatso
gzak
gzakman
gzaksyon
gzanp
gzanpte
gzas
gze
gzije
gzil
gzile
gzistans
gziste
gzo
gzostif
h
ha
haakon
habsbourg
hafsid
hai
hakim
hamadan
hammadid
han
hangzhou
hanse
haqq
harar
hardi
harihara
harold
hasan
hassan
havane
he
henri
henry
herat
herna
hernando
hi
hideyoshi
himalaya
hindi
hip
hispaniola
ho
holstein
homo
homs
hong
hongwu
hop
horde
horn
houlagou
houtmann
http
hu
huang
hudson
huguenots
hugues
huizong
hunyadi
husayn
hussit
hyderabad
i
ibe
ibelin
iberville
ibn
ibrahim
idantifye
idantite
ide
idrografik
idrojenn
idrolik
ie
ier
ieyasu
ifat
ifriqiya
iggy
ii
iie
iii
iiie
il
ile
ili
ilistre
ilkhan
iltrape
iltutmish
im
imaj
imajine
ime
imid
imigran
iminite
in
inabite
inca
india
indus
ine
ini
inifye
inik
inikman
inini
inise
inisyal
inisyalman
inisye
inite
inive
innocent
ino
inogirasyon
inogire
inondasyon
insee
inyon
ion
ipe
ipote
irak
iran
irben
irbenn
ire
irigasyon
irlande
irlann
iroquois
irss
irtych
is
isaac
isabelle
ishak
isi
iskandar
islam
islamik
island
islands
islann
isle
ismae
ismai
ismail
iso
isou
ispahan
israye
istanbul
istorik
istorikman
istoryen
istwe
itali
italyen
itil
itilizab
itilizan
itilizasyon
itilizato
itilize
itou
iv
ivan
ive
ivwar
ix
ixe
iyasou
izaj
izaje
iziaslav
izin
izole
izoto
izwe
j
ja
jacob
jacques
jaffa
jagellon
jaha
jahan
jahangir
jakri
jalal
jamayik
james
jamestown
jan
janeiro
janmayk
janmen
jann
jannise
janr
jans
jant
janvier
janvye
japon
japone
japonnen
jarden
jari
java
javouhey
jazz
je
jean
jeanne
jen
jenn
jersey
jeune
ji
jiang
jim
jiman
jin
jina
jip
jipsyen
jipsyenn
jis
jislativ
jisman
jistifye
jistre
jite
jitim
jman
jo
joa
jocelin
jodla
johann
john
jorge
jose
joseph
jou
joudayism
jouje
joujman
jouk
jounen
jour
jourdain
jouridik
journal
journalis
jouwe
jouwo
juan
juin
jules
julyen
jumhu
jupiter
jurchen
jwe
jwenn
jwi
jwif
jwiv
jwiye
jye
jyen
jyon
jyonal
jyonnal
k
ka
kabe
kaboul
kache
kad
kade
kadjar
kafe
kaifeng
kairouan
kaje
kakao
kal
kalandriye
kale
kalif
kalifo
kalifye
kalinya
kalite
kalke
kalkil
kalkile
kalmouk
kamakura
kaman
kamel
kamtchatka
kan
kanada
kanari
kanbo
kandahar
kanem
kangxi
kanik
kanism
kanmopi
kann
kannal
kannanda
kannandjen
kannanri
kannaval
kannon
kanpagn
kanpangn
kans
kanse
kant
kante
kantik
kantite
kanton
kap
kapab
kapasite
kapital
kapitalism
kapitchoulasyon
kapitchoule
kapite
kapitenn
kapte
kaptenn
kaptif
kaptir
kaptire
kaptivite
kar
kara
karagte
karakorum
karakte
karant
karantenn
karayb
karayib
karayibe
karbe
karbonn
kardinal
kardjak
kare
kari
karnatik
karolin
kart
kartche
karte
kartograf
karye
kaspyenn
kasti
kastiyan
kat
katalan
katalo
kate
katib
katibaj
kato
katolik
katolisism
katriyenm
kavalye
kavite
kay
kayenn
kaz
kazgan
kazi
ke
kebek
kei
ken
kenya
kenz
kerguelen
kfwe
kg
kha
khaldji
khalji
khalkha
khan
khanat
khayr
khitai
khitan
khiva
khmer
khorasan
khorassan
khwa
khwarezm
ki
kiba
kichoz
kidonk
kil
kilasyon
kile
kilib
kilibre
kiline
kilitch
kilminan
kilminen
kilome
kilonme
kilt
kiltir
kiltire
kiltive
king
kingdom
kip
kipaj
kipe
kipman
kiptchak
kird
kirghiz
kiribati
kirite
kirst
kistan
kisyon
kite
kitif
kivalan
kiyomori
klame
klan
klanche
klande
klanmen
klarasyon
klare
klas
klase
klasifikasyon
klasik
klasman
klate
klavye
kle
klen
klidjenn
klima
klimatik
kliyan
klo
km
kman
knik
knoloji
knut
ko
koalisyon
kod
kode
koe
kokaz
kole
kolektivite
kolin
koloji
kolojik
kolon
kolonbi
kolonbyen
koloni
kolonizasyon
kolonn
kolonni
kolonnizasyon
kolonnize
kolonnyal
kolonyal
kome
komen
komin
komine
kominikasyon
kominis
kominote
kompoze
kon
konba
konbatan
konbine
konbisyon
kondane
kondannen
kondikto
kondisyon
kondjwi
kondjwit
kone
konfann
konfe
konfen
konfirmasyon
konfirme
konfisyanism
konfizyon
konfli
konfo
konfondou
konfonn
konfronte
konfye
kong
kongo
kongre
konjige
konjwentman
konke
konkirans
konkli
konklizyon
konko
konkour
konkre
konmin
konn
konne
konnik
konnonmi
konnonmik
konomi
konomik
konomis
konpa
konpagni
konpagnon
konpangni
konparab
konpare
konpe
konple
konplo
konpo
konpozan
konpozant
konpoze
konpozisyon
konpozito
konprann
konpre
konpriz
konran
konsakre
konsanswe
konsantrasyon
konsantre
konse
konserne
konside
konsil
konsiste
konsolide
konsomasyon
konsome
konsonn
konsouvwe
konspirasyon
konstant
konstantino
konstate
konstitchwan
konstitchwe
konstitisyon
konstitisyone
konstitisyonne
konstititiv
konstri
konstrigsyon
konstriksyon
konstrwi
konsyan
konsyans
kont
kontak
kontan
kontanporen
kontanporenn
konte
kontinan
kontinantal
kontini
kontinwe
kontinwite
kontni
kontparti
kontra
kontraksyon
kontre
kontren
kontrenn
kontrent
kontribisyon
kontribiye
kontrol
kontrole
kontrove
kontwe
konvansyon
konvansyone
konve
konvenk
konvoke
koo
koope
kopt
koran
koray
kore
koripsyon
kose
kosistenm
kosmoloji
kosovo
kot
kotche
kote
kotidjen
kotidjenn
koton
kou
koubilai
kouch
koule
koulo
koumandan
koumande
koumannman
koumanse
koumansman
koume
koumen
koumin
kouminal
koumine
kouminikasyon
kouminote
koumisyon
koup
koupe
kour
koura
kouraman
kouran
kourant
kourb
kouri
kouril
kouronn
kouronnen
kouronnman
kourou
kours
kourt
kourye
koute
koutim
koutimye
kouto
kouvan
kouve
kouvri
kouzen
kowalisyon
kowe
koyunlu
koz
koze
krasyon
kraze
kre
kri
krik
krim
kriptografi
kris
krishna
kristal
kristchanism
kristchannism
kristo
krit
krite
kritik
kritir
kriyo
kriz
kronik
kroniko
kronolojik
krout
krwa
krwasan
krwasans
krwasant
krwayan
krwayans
krwazad
krwaze
krwe
ks
kse
ksid
ksijenn
ksik
ksite
kskominye
ksponansye
kste
kstil
kswalite
kswe
ksyon
ksyone
kt
ktak
ktche
ktchwe
kte
ktif
ktir
ktiv
ktivite
ktivman
kto
ktonik
ktora
ktrik
ktrikman
ktrin
ktrisite
ktromagne
ktron
ktronik
ku
kubilai
kwaki
kwasyon
kwato
kwatoryal
kwiv
kye
kyo
kyoto
kyu
kz
l
la
laba
labank
labib
labita
labolisyon
labore
labsans
labye
lachas
lachin
ladislas
ladje
ladministrasyon
ladonminik
lae
lafe
lafize
lafo
lafrans
lafrik
lafwa
lafye
lage
lagine
laglas
lagol
lagre
lagrikiltir
lagro
lagsan
lagse
lagtivite
lagwadloup
lagwiya
lagwiyann
lahore
laj
lajan
lajantin
laje
lajistis
lajo
lajounen
lak
lakadi
lake
lakiltir
laklas
lako
lakolonbi
lakot
lakou
lakour
lakrik
lakse
lakte
lalaska
lalfabe
lalin
lalit
lalje
lally
lalmagn
laltitid
lalwa
lalwe
lalwizyann
lam
lama
lamas
lamizik
lan
lanatir
lanbasad
lancastre
lande
landimen
lando
lane
langaj
langle
langola
lanj
lanje
lank
lanka
lanlmangn
lanm
lanmanch
lanmanpa
lanmantinik
lanmanzonn
lanmanzonni
lanme
lanmen
lanmiral
lanmizik
lanmo
lanmonnen
lanmotche
lanmou
lann
lannarchi
lannatoli
lanne
lannen
lanng
lannwit
lanpir
lanplasman
lanpren
lanpro
lans
lansanm
lanse
lansman
lanso
lantargtik
lanti
lantman
lanvironnman
lao
laos
laparisyon
lape
lapentir
lapis
laplace
laplaj
laplas
lapli
laplipa
lapo
lapoje
lapolis
lapoud
lapousye
lapre
lapriye
laprouwag
lar
larabi
larche
larchipe
larchite
lare
largtik
lari
larisi
lariv
larivye
larj
larjantin
larji
larjman
larjo
lark
larke
larme
laro
larout
lartiri
las
lasal
lasanble
lasante
lase
lasenn
lasime
laso
laspe
laswis
laswit
lasyon
late
laten
latif
latin
latino
latitid
lativ
lativite
lativman
latlantik
latlas
latmo
lato
laurent
lave
lavi
lavil
lavyon
law
laze
lazi
lda
le
legu
lemy
lende
lendi
lendonne
lenflasyon
lenfliyans
lenfo
lengwistik
lenkizisyon
lenn
lenpilsyon
lenpo
lenskripsyon
lenstalasyon
lenstiti
lenstitisyon
lente
lentrodigsyon
lenvansyon
lenvazyon
leo
les
leste
level
leyman
lez
lf
lhassa
li
liao
lib
liban
libe
libi
libman
lidantite
lide
lie
liechtenstein
lig
lign
ligne
ligsanbou
lijans
lijye
lijyon
lik
likid
liko
liksanbour
lil
lile
lim
lima
limatrikilasyon
lime
limenm
limigrasyon
limine
limit
limitasyon
limite
limitro
limye
lincoln
line
linik
linini
linite
linive
linyon
lion
lipe
liran
lirik
lirlann
lirwe
lis
lisabeth
lisbonn
lise
lisende
lislam
lislanm
lislann
lism
listwe
lit
litali
litchwani
lite
litirjik
litoral
liv
live
livre
liz
lizaj
lizasyon
lize
lj
ljik
lk
lkan
lkannik
lkonk
lman
lmantal
lne
lno
lo
lodi
lofansiv
logaritm
logmantasyon
logos
lojik
lokal
lokalize
lokazyon
lokipasyon
lokito
lolann
lombard
lon
londjo
long
longo
lonje
lonjitid
lonm
lonmaj
lonn
lonng
lonni
lonnizasyon
lonnyal
lontan
lope
lopital
lopozisyon
loran
lord
lore
lorijin
lorraine
loryan
los
lose
lospitalye
lostitilite
lostrali
lot
lotaj
lote
loto
lotonm
lotorite
lotorizasyon
lotrich
lotus
lou
louis
loukrenn
lourougwe
lout
louvri
louvriti
lowazis
loyapo
loyola
lren
lri
lrinaj
lt
lta
lte
ltik
lu
luanda
lucie
luis
lukya
lune
lusignan
lvaj
lvares
lve
lwa
lwagne
lwayalis
lwe
lwen
lwenten
lwil
lwit
lwitchenm
ly
lyannaj
lyannen
lye
lyen
lyon
lyorasyon
m
ma
maarten
maastricht
mac
mache
machin
madagaskar
made
madras
madrid
magellan
maghreb
magne
magnifique
magnus
magsimal
maha
mahe
mahmoud
mahmu
mahmud
mahomet
mai
main
maine
majapahit
maje
majiskil
majo
majorite
majorque
makao
makapa
makourya
makouya
maksimal
mal
mala
malabar
malacca
malad
maladi
maldiv
male
malgre
mali
malik
malindi
malo
malt
malta
mamelouk
man
manch
mandchou
mandchouri
mangro
maniake
manife
manikongo
manille
manje
mank
manke
manm
manman
manmife
mannan
mannik
mannye
mannyo
manot
mans
mansa
manse
mansourah
mansur
mansyon
mansyonnen
mantal
mante
mantik
manuel
manyen
mao
mar
marabout
maracaibo
maranha
marat
marathe
marathes
march
marchan
marchandiz
marche
marco
mardi
mare
maren
marguerite
mari
maria
marianne
marie
marin
marinid
maripa
maripasoula
maritim
mark
markaj
marke
marki
marley
maro
marok
maroken
maronni
marrakech
mars
marse
marshall
marsyal
martin
maryaj
maryam
marye
mas
masak
masakre
mase
masif
masiv
maskarengn
maskilen
massachusetts
massoud
masu
masulipatam
mataram
matche
mate
mathias
mathilde
mathura
matik
matikman
matinik
matisyen
matouri
matye
maures
maurice
max
may
maya
mayence
mayo
mayouri
me
mecque
mehmed
mehmet
melilla
men
mendoza
menm
mennen
ment
mentchen
mentni
mer
merje
mgr
mi
miao
michel
mieszko
migrasyon
miguel
mik
mikro
mikrone
mikroskopi
mil
milan
mile
milis
milite
miltip
miltiplikasyon
miltipliye
milyar
milye
milyon
mimisouk
min
minamoto
minas
mine
minen
ming
mini
minimal
minis
minisipal
minisipalite
ministe
mino
minorite
minout
minre
minye
miquelon
mir
mirat
miray
mirza
mise
misfe
misisipi
miskile
mississippi
miste
misyon
misyonne
mit
mitan
mitasyon
mite
mitik
mitinri
mitoloji
miyo
miz
mize
mizik
mizikal
mizisyen
mizou
mizour
mizoure
mm
mo
mobil
modalite
mode
modern
modifikasyon
modifye
moghol
mogholistan
mografik
mohammad
mohammed
mokrasi
mokratik
moldavi
mole
moloji
moluques
moman
mombasa
mon
monarchi
monaste
mond
mondjal
mondyal
mone
mongo
mongol
mongoli
moni
moniman
monjoli
monn
monnarchi
monnark
monnaste
monne
monng
monnonpo
monnouman
monomotapa
monote
mont
montangn
montangne
monte
montferrat
montfort
montpellier
montre
moral
moravi
moris
mossi
mossoul
mosyon
motche
moto
mou
moulay
moulen
moun
mounite
mouri
mousine
mousk
moussa
mouvman
mouzoulman
move
mozanbik
mu
muh
muhammad
muhammed
mulay
mulk
mur
murad
murat
mustafa
mustansir
musulman
muzaffar
mwa
mwagnaj
mwagne
mwann
mwayen
mwayenn
mwe
mwen
mwenn
mye
mysore
n
na
nabab
nad
naje
najman
nam
nan
nankin
nanmibi
nap
napole
nara
nare
nas
nase
nasir
nassau
nasyon
nasyonal
nasyonnal
nasyonzini
natal
natif
natir
natiralis
natire
nativ
nauru
naval
navarre
navigasyon
navigateur
navigato
navige
navir
nazareth
nazi
ndez
ndongo
ne
negro
nen
nenjit
nenn
nensil
nerji
nes
new
newton
newtonyenn
ng
ngke
ngola
nh
ni
nia
nice
nichapur
nichiren
nicolas
nie
nigsberg
nije
nik
nikaragwa
nikle
nikotin
nil
nime
nin
nis
nisyen
nisyenn
nitansye
nive
nivo
niyaj
niz
niza
nizam
nman
no
nobel
noble
nobunaga
nofraj
nois
nom
nomanklatir
nome
nomenn
non
nonbre
nonm
nonmen
nonse
nor
norman
normand
normandi
norve
nos
nosyon
notab
notaman
notanman
note
notip
notre
nou
noubi
nouri
nouritir
nous
noutriman
noutrisyon
nouve
novanm
novgorod
ns
nu
nuno
nur
nus
nwaye
nwayo
nwe
nya
nye
nyen
nyenn
nyo
nzinga
o
oaci
obe
oben
obligasyon
obligatwar
obte
oda
ode
of
ofansiv
ofisye
ofon
ofri
oghuz
ogmantasyon
ogmante
oi
oiapoque
ois
oke
okipan
okipasyon
okipe
oksidantal
olande
oldjeite
ole
olenpik
oman
omar
ome
oms
omwen
on
ong
ongri
ongrwa
onn
onore
onu
onz
oparanvan
ope
opozan
opoze
opozisyon
opre
or
oral
orange
ordinato
ores
orghana
orhan
orife
orijin
orijinal
orijine
orissa
orle
ormuz
oro
oryan
oryantal
oryantasyon
oryante
ose
osen
osi
osman
ostral
ostrali
ostralyen
otan
otchigin
oto
otogtonn
otoman
otomatik
otomobil
otonnonm
otonom
otorite
otorizasyon
otorize
otour
otri
otrich
ottokar
ottoman
ou
oui
oukre
oun
ounlo
ourdou
out
outaouais
outre
ouve
ouvraj
ouvri
ouzbe
ouzbek
p
pa
pac
pacha
pafwe
pagan
pai
paj
pak
pakistan
pal
palaos
pale
pali
palikou
palman
palmante
palo
pan
panama
panchen
pandaman
pandan
pandans
pandant
pandantis
pandou
pandoul
pane
pann
pannan
pannanman
panse
panso
pante
pantkot
pap
papa
papaychton
papote
papouazi
papye
par
para
parad
paragwe
parale
parame
paran
parasyon
pare
parfe
pargne
pari
paris
parizyen
park
parkouri
parlman
parmi
pars
parsye
partaj
partaje
parti
partikil
partikilarite
partikilye
partir
partisipasyon
partisipe
partisyon
partizan
partman
partmantalizasyon
parvini
parwas
pas
pasaj
pasan
pascal
pase
pasifik
pasifye
pasyan
pasyon
pataje
patant
patche
pati
patrimwann
patrimwenn
patriyarch
paul
paulo
pe
pedro
pen
pendjab
penh
penn
pennsylvanie
pent
pereira
perme
persan
peshwa
peter
petit
phe
philadelphie
philippe
phnom
phore
pi
pib
piblik
piblikasyon
pibliken
pibliye
pide
pidjinng
pie
pierre
pik
pilye
pinitiv
pinyin
pir
pirat
piratri
pirman
piro
pis
pise
piskopal
piste
pite
piti
pitit
piton
piyaj
piye
pizarro
pla
plad
plak
plan
plane
plann
planne
plannisfe
plant
plantagene
plantasyon
plas
plase
plasman
plastik
plat
plata
plato
platon
ple
plen
plenn
pli
plirise
plirye
plis
plita
plito
plizoumwen
plizyo
plonje
plymouth
pman
pne
po
poincy
poitiers
pol
pole
poligonn
poline
polinom
polis
poliswe
polite
politik
polo
pologn
polone
pome
pon
poncet
ponde
pondiche
ponktchwe
ponm
ponn
ponnim
pons
pontifika
pontifikal
pop
pope
popilasyon
popile
pore
port
porte
portigal
porto
pose
posib
posibilite
poson
posthume
potab
potansye
pote
potidjal
potidje
potosi
potri
pou
poumon
pour
poursantaj
pourswiv
pouse
pouve
pouvwar
pouvwe
pouz
pouze
pov
povte
powe
powenm
poze
pozisyon
pozitif
pozitiv
prag
pran
prann
pratik
pratikan
pratike
pratikman
pre
prens
prense
prensip
prensipal
prensipalman
prensipote
prentan
prezante
pri
prime
primo
pris
prive
privile
priz
prizon
prizonnye
pro
probab
probabilite
probabman
problenm
processus
prodigsyon
prodiksyon
prodikto
prodjwi
prodjwit
profe
profi
profite
profon
profondo
progranm
progre
proje
prokire
proklame
proklanmen
proksimite
prolonje
prome
promilgasyon
promouvwe
pronme
pronmye
propagasyon
propaje
propo
propoze
propozisyon
propriye
prose
prospe
prote
proton
prounon
prounonse
prounonsyasyon
provence
provens
provini
provizwarman
provnans
provni
provoke
pru
psg
psichik
psikoloji
psikolojik
psyon
psyone
pt
ptanm
ptantriyonnal
pte
ptib
ptik
ptil
pto
puerto
pur
pwa
pwav
pwe
pwen
pwent
pwisan
pwisans
pwisant
pwize
pyas
pye
q
qa
qai
qala
qan
qara
qarakhanid
qazvin
qid
qides
qin
qing
qoyunlu
qu
quark
que
quechua
ques
quint
quito
quo
quriltay
r
ra
rab
radikal
radjo
rai
raid
raigarh
raire
raja
raji
rajput
rak
rakaba
raksyon
ral
raleigh
ralism
ralize
ralman
ralojik
ralye
raman
ran
rande
randonm
rane
ranfo
rani
ranie
ranje
rankontre
ranmnen
rann
ranne
rannen
ranplase
ranpli
ranpo
rans
ranson
ransye
rant
rantre
ranve
rao
rapatriye
rapid
rapidman
raple
rapo
raproche
rar
rarman
ras
rasanble
rasyon
rasyone
rat
rata
ratache
ratif
ratifye
ratir
ratisbonne
rativ
rato
ratris
ravaje
ravardie
ravenne
ravitayman
ray
raymond
raze
razi
razyen
rb
rbe
rbi
rbit
rbital
rchet
rd
rde
rdi
rdiksyon
rdinato
rdine
rdiye
rdjal
rdonans
rdone
rdonnans
rdonnen
re
real
recife
reims
ren
renaud
rendjen
rene
renger
renk
renn
repu
republic
republik
republika
res
retrieved
rey
rezm
rf
rfe
rfisi
rfolojik
rfre
rfwe
rganik
rganism
rganizasyon
rganize
rgann
rgannizasyon
rgannize
rgle
rhe
rhin
rhode
ri
rib
ric
rica
rich
richard
riche
richelieu
richemont
rico
ridjen
ridjonal
ridjonnal
ridwan
rif
rife
rigoure
rije
rik
riken
rikenn
rikonne
rimantal
ring
rinid
rio
ripsyon
riptir
riral
ris
risaj
risi
risk
risouvwe
ristik
rit
ritab
ritaj
ritche
ritchwe
rite
ritm
ritoryal
ritre
ritwar
ritwe
riv
rival
rive
river
rivie
riye
rize
rj
rjans
rje
rji
rjyen
rk
rke
rkle
rkontinan
rkre
rlande
rlann
rlo
rm
rmal
rmalize
rmalman
rman
rmanan
rmanik
rmannan
rmannik
rmasyon
rmatik
rmato
rme
rmen
rmik
rmil
rmilasyon
rminasyon
rmine
rminen
rmodinamik
rn
rnasyonal
rnasyonnal
rne
rnen
rni
rnism
rnite
rnman
ro
roanoke
robert
roche
rochelle
rock
rodolphe
rodronm
roe
roger
rois
rol
rom
roman
romansye
rome
romen
romenn
ron
rone
ronm
ronman
ronmen
ronn
ronne
ronp
rope
ropo
ros
rot
rotasyon
roto
rou
roubatize
roubrouse
roude
rouen
roufi
roufize
roufle
roufre
rouganyen
rougroupe
rougroupman
rouj
rouje
roujwenn
roukone
roukonke
roukonne
roukouvri
roulasyon
roule
roulman
roumarkab
roumarke
roume
roumen
roumonte
roun
roune
rounlo
rouno
rounonse
rounouvab
rounouve
rounouvle
rounso
roupase
roupati
roupe
roupliye
roupouse
roupoze
roupran
roupre
roupriz
rouprodiksyon
rouprodjwi
roura
rousanse
rousansman
rousanti
rouse
rousours
rousouve
rousouvri
rousouvwe
rout
routche
routire
routounen
routour
routranche
routrouve
rouvandikasyon
rouvandike
rouvini
rouvoye
royal
royid
rozyon
rpe
rpolasyon
rpore
rpre
rre
rs
rsan
rse
rsib
rsifye
rsik
rsika
rsis
rsite
rsman
rsone
rsonnaj
rsonne
rsouvwe
rspe
rsyal
rsyon
rt
rtalite
rtan
rtans
rtant
rtasyon
rte
rten
rtenn
rti
rtif
rtifye
rtik
rtikal
rtil
rtir
rtire
rtisman
rtitid
rtman
rto
rtodo
rtograf
rtriye
ru
rukh
rum
rusalem
rv
rval
rvansyon
rvasyon
rvato
rve
rvi
rvini
rvis
rvitid
rvo
rwa
rwayal
rwayalte
rwayom
rwayonm
rwe
rwiso
ry
rya
ryal
ryalism
ryans
rye
ryen
ryenn
ryo
ryod
ryodik
ryorite
rz
s
sa
saadjen
sab
sage
sagson
sahara
sahib
sai
saint
sainte
saj
saje
sajri
sak
sakaje
sakre
sala
saladin
salah
sale
salem
salerne
sali
salih
salik
salju
salle
salomon
salpe
salvador
sam
saman
samarkand
samoa
samuel
san
sanblab
sanble
sanche
sandan
sandwich
sangen
sangui
sanite
sanjar
sanjo
sanlu
sanm
sanmdi
sann
sans
sansasyon
sanse
sansib
sansibilite
sansibman
sanskrit
sansye
sant
santa
sante
santenn
santi
santiago
santiman
santo
santral
santralizasyon
sao
sapiens
sar
saranmanka
sare
sase
saso
sate
satisfe
savan
savann
save
savo
savoie
savwar
sayil
se
seg
seldjoukid
semaine
sen
senbo
senbolik
senbolize
sengapou
senjo
senk
senkant
senkyenm
senloran
senn
sennar
sennmari
senp
senplifye
senpman
senptom
sent
sente
sentir
serb
sertenn
sevre
seyon
sfe
sha
shah
shahs
shahu
shakespeare
shams
shan
shawar
shen
sher
shirakawa
shirkuh
shiva
shivaji
sho
shogun
shu
shunzhi
si
siam
sib
sibatomik
sibdivize
sibdivizyon
sibe
sibi
sibkontinan
sibmaren
sibme
sibsid
sibstans
sibstantif
sibziste
sichuan
sicile
sid
sidanme
side
sidon
sie
sierra
sif
sifik
sifizaman
sifizan
sigare
sigismond
sigje
sign
signal
signale
signatir
signe
signen
signifikasyon
signifikativ
signifye
sigre
sigse
sije
sik
sikh
sikhism
siklonn
sikse
silicium
simal
sime
simenn
simi
simon
simye
sind
sine
singh
sino
sinonim
sint
sipe
siperfisi
sipitasyon
siplante
sipo
sipoze
siprimen
sir
sirfas
siri
sirilik
sirinanm
sirinanmen
sirkilasyon
sirkile
sirkonskripsyon
sirkonstans
sirkwi
sirnonmen
sirprann
sirpriz
sirtou
sirve
sirvini
sirviv
sirvivan
sis
sise
sisil
sisili
sispann
siste
sistenm
sit
sitade
sitchwasyon
sitchwe
site
sitwayen
siv
sivik
sivil
sivilizasyon
sivman
siyen
siz
size
siziv
sizrennte
sizyenm
sizyon
sk
skad
skal
ske
skiltir
skilto
sklav
sklavaj
skli
skliziv
sklizivman
sko
skou
skripsyon
skriptiv
slove
smode
smyrne
sn
so
society
socrate
soda
sof
soko
solane
sole
solid
soliman
solisyon
some
son
sonbre
song
songhai
sonm
sonmali
sonme
sonn
sonne
sonni
sonno
soso
sosso
sosyal
sosyalis
sosyalism
sosye
sosyo
sosyolo
sosyoloji
sosyolojik
soti
soto
sou
souabe
soudan
souf
soufrans
soufri
souk
soukour
soukousite
soukriye
soule
soulon
soultan
soultanat
soultannat
soulve
soumaren
soume
soumisyon
soupannan
soupre
souprenm
souprime
soupsonnen
sourinanm
sours
sousid
souside
sousite
soustraksyon
soutchen
south
soutni
soutou
souvan
souvren
souvrennte
sovaj
sove
sovye
soyouz
sp
space
spagn
spagno
spangn
spangno
spansyon
spas
spasyal
spe
spilke
spilse
spilsyon
spinola
spirasyon
spiratwar
spiritchwe
splikasyon
splike
splisitman
splorasyon
splorato
splore
splozif
splozyon
splwatasyon
splwate
spo
spondans
sponn
sponsab
spoze
spozisyon
spre
spri
sprime
sre
sri
stab
stabilite
stad
staman
stan
standar
stasyon
states
stati
statik
statistik
stche
stchwe
ste
stefan
sten
stenksyon
sti
stib
stif
stij
stik
stikasyon
stil
stimasyon
stime
stimen
stin
stinasyon
stinate
stine
stinen
stir
stitchwe
stitir
stitisyon
stooges
storan
storasyon
store
strapolasyon
strate
stre
stren
strenm
strenmite
strenmman
strigtir
strik
strikman
striksyon
striktir
striktire
stuart
su
suffren
sukhothai
suleyman
sumatra
sun
sunnit
supernova
sur
surat
surate
swa
swahili
swasant
swe
swis
swit
swiv
swivan
swivant
swivi
syal
syalis
syalize
syalman
syans
syantifik
sye
syo
syon
syone
syracuse
t
ta
tab
tabak
tabli
tablisman
tablo
tabolism
tabriz
tafilalet
tafizik
tagn
tahmasp
tai
taiji
taira
taj
takeda
takla
taks
takson
tal
talik
talirji
tamerlan
tamoul
tan
tanbou
tancre
tandan
tandans
tande
tandi
tandou
tanger
tangn
tann
tanp
tanpe
tanpliye
tanpore
tans
tansyon
tantan
tantativ
tante
tanzani
taoyism
tap
tardiv
tarente
tasman
tasyon
tatar
taungu
tay
taylann
tayti
taywan
taywann
tazini
tchad
tche
tchen
tchenbe
tchenm
tchenn
tchi
tchipe
tcho
tchopi
tchopyen
tchoule
tchwe
tchwizin
te
teau
tekrour
tell
temu
ten
tenm
tenn
tenno
tenochtitlan
term
termine
ternate
terra
tersbourg
tfwe
th
tha
thai
the
thomas
ti
tibe
tibet
tiboug
tid
tidjal
tidjan
tidje
tien
tienne
tifi
tifon
tig
tigre
tij
tik
tikman
tillon
timo
timolojikman
timor
timoun
timourid
timur
tinis
tinizi
tinizyen
tip
tipik
tir
tire
tirk
tirki
tirkme
tis
tise
tism
tisou
tisyon
tit
tite
tito
tize
tizile
tld
tlemcen
tman
tnan
tnanmyen
tni
tnik
to
tobago
toghan
toghril
toghrul
tokugawa
tokyo
tole
tome
ton
tonbe
tonbouktou
tonga
tonik
tonn
tonne
tonton
top
topografik
tordesillas
toscane
total
totalite
totalman
toti
tou
touareg
touche
toujou
toule
touloulou
toulouz
tounen
touni
toupi
tour
touraine
toure
touris
tourism
touristik
tourne
tours
tousa
tout
toutfwe
toyotomi
tr
tra
track
tradisyon
tradisyone
tradisyonne
tradjwi
trafik
traje
tranche
trangle
tranje
tranmman
transandan
transfe
transfo
transilvanni
transisto
transkontinantal
transkripsyon
transme
transmisyon
transoxiane
transpo
trant
tranzisyon
tras
trase
trastamare
travay
travaye
trave
trayizon
tre
tren
tri
tribal
tribi
tribinal
tribite
trigonome
trik
triman
trinidad
trinite
tripoli
trista
tristan
triyang
triyonfalman
triz
trize
tro
trois
trol
tron
trone
tronn
tropik
tropikal
tropo
tropolit
tropoliten
trou
troub
troup
trouve
troyes
trwa
trwatman
trwazye
trwazyenm
trwe
trwi
trwit
tsar
tseu
tsounanmi
tu
tughlu
turkestan
turkme
tutuch
tuvalu
tver
twe
tye
tyenn
tyr
u
ud
ul
un
unesco
united
urbain
us
usa
usd
utrecht
uzun
v
va
vag
vakiye
val
valachi
valdemar
valdivia
vale
valence
valladolid
valo
valois
van
vanch
vande
vandre
vanje
vann
vanse
vantchwe
vanuatu
vape
vaping
vapo
var
varyab
varyasyon
varye
varyo
vas
vasal
vasco
vassili
vaste
vatikan
ve
veda
vega
vela
ven
venk
venki
venko
vennman
vense
ventenn
ver
versailles
vespucci
vi
via
vicente
victor
victoria
vid
vidans
vide
vie
vienne
vigo
vigtim
vigtwe
vii
viie
viii
viiie
vijayana
vijayanagar
viktim
viktorye
viktwe
vil
vila
vilaj
vilge
ville
vincent
vini
vire
virjini
virus
vis
visconti
vise
vit
vital
vite
viv
vivan
vivant
viz
vizavi
vize
vizib
vizir
vizit
vizite
vizito
vizwe
vizyon
vladimir
vlope
vlopman
vman
vo
voc
vokabile
voke
volga
volim
volisyon
volisyone
voliye
volonte
volousyon
volte
von
vote
voye
vre
vrier
vriye
vwa
vwar
vwayaj
vwayaje
vwayajo
vwaye
vwe
vya
vyasyon
vye
vyenn
vyolan
vyolans
vyole
w
wa
wade
wako
wallis
walter
wannari
war
washington
wattassid
wayanmpi
we
web
welser
wessex
westminster
wikipe
wilhelm
willem
william
wonm
world
wu
www
x
xang
xavier
xe
xi
xia
xie
xii
xiie
xiii
xiiie
xiv
xive
xixe
xixia
xve
xvie
xviie
xviiie
xxe
xxie
y
ya
yab
yacoub
yahia
yahya
yaji
yakoubo
yaksyon
yal
yalimapo
yalite
yalizasyon
yalize
yan
yang
yangzi
yani
yanik
yanmwen
yannen
yanni
yans
yansyon
yasyon
yat
yatenga
yatral
ye
yelu
yen
yenn
yi
yik
yikil
yinal
yini
yinifikasyon
yinifye
yinyon
yis
yisi
yism
yizan
yman
yni
ynyon
yo
yodal
yograf
yografi
yografik
yokipe
yokrasi
yolitik
yolo
yolog
yoloji
yolojik
yome
yon
yongle
yongli
yonik
yonm
yonnman
yopolitik
yori
yorik
yorisyen
yoritomo
york
yoroloji
yorolojik
yoshimasa
yoshimitsu
yostasyonne
youssef
yu
yuan
yucata
yunnan
yusuf
yzaj
z
za
zabitan
zafar
zafe
zaj
zak
zakariya
zalg
zamorin
zan
zand
zanki
zanmi
zanmo
zann
zannimo
zans
zant
zantan
zantasyon
zante
zanti
zantiy
zar
zarm
zas
zay
ze
zen
zente
zheng
zho
zhu
zi
zidan
zidans
zidansye
zide
zignasyon
zigne
zignen
zil
zile
zilta
zilte
zilyen
zimbabwe
zime
zin
zir
zire
zirid
zistans
ziste
zite
ziyen
zman
zo
zolisyon
zoliv
zon
zonn
zonnman
zooloji
zopotami
zoranj
zoud
zours
zouti
zozo
zquez
zwe
zwit
zye
zyen
zyenm
zyon
{
|
}
£
«
°
²
³
·
¹
º
»
×
ß
ð
÷
đa
ɐ
ɑ
ə
ɛ
ɪ
ɾ
ʲ
ʻ
ʼ
ʾ
ʿ
ˈ
ˌ
ː
ˑ
˥
˧
̀
́
̂
̃
̄
̆
̇
̈
̉
̊
̋
̌
̓
̔
̛
̣
̥
̦
̧
̨
̩
̪
̯
͂
ͅ
͡
α
β
γ
ε
η
ι
μ
ν
ο
π
ς
ω
и
республика
с
у
ְ
ִ
ֵ
ַ
ָ
ֹ
ּ
ׁ
ׂ
א
ב
ד
ה
ו
י
ך
ל
ם
מ
ר
ש
ת
ا
الا
بن
ة
جمهورية
د
دولة
ر
م
ن
َ
ُ
ِ
ّ
ْ
ٔ
ٕ
ހ
ރ
އ
ޖ
ާ
ި
ެ
ް
ं
क
ज
त
द
न
प
फ
भ
म
य
र
ल
व
श
ष
स
ह
़
ा
ि
ी
ु
ू
े
्
ং
দ
ব
ল
শ
া
ে
্
ં
ા
ங
ச
ப
ர
ி
ு
ூ
்
་
ག
མ
ུ
ོ
မ
ာ
ជ
ព
រ
ស
ា
ុ
្
‑
–
—
‘
’
“
”
†
…
′
⁴
€
ℚ
←
→
↔
↷
⇒
−
√
③
④
⑦
ⴰ
ⴱ
ⴳ
ⴷ
ⴻ
ⵉ
ⵍ
ⵎ
ⵏ
ⵓ
ⵔ
ⵖ
ⵙ
ⵜ
ⵟ
ⵢ
ⵣ
⺀
⺄
⺆
⺈
⺊
⺌
⺕
⺝
⺸
⺼
⿰
⿱
⿲
⿳
⿴
⿵
⿶
⿷
⿸
⿹
⿺
⿻
〢
コ
ユ
㇁
㇂
㇄
㇇
㇈
㇉
㇓
㐁
㐄
㐅
㐌
㐫
㐬
㐭
㐮
㐱
㑒
㒵
㒸
㒼
㓁
㓞
㔾
㕛
㕣
㖾
㘝
㚅
㚇
㚔
㚘
㝉
㝡
㝴
㝵
㞋
㞢
㞷
㠩
㠭
㠯
㡀
㡭
㡿
㢲
㢴
㣇
㣺
㥯
㪅
㫄
㫐
㫒
㫺
㬅
㬎
㬥
㬰
㲋
㳄
㷠
㸒
㸚
㸦
㼌
㼲
㽞
㿟
䀠
䂞
䍃
䏍
䒑
䖍
䖒
䖝
䖵
䙴
䚻
䜌
䝿
䡛
䧹
䪞
一
丁
丂
七
丄
丅
丆
万
丈
三
上
下
丌
不
与
丏
丐
丑
专
且
丕
世
丘
丙
业
东
丞
丢
丣
两
严
並
丨
丩
个
丫
丬
中
丮
丰
丱
串
丵
丶
丷
丸
丹
为
主
丽
丿
乀
乂
乃
久
乆
乇
么
义
之
乌
乍
乎
乏
乐
乑
乔
乖
乗
乘
乙
乚
乛
乜
九
乞
也
习
乡
乳
乾
亀
亅
了
亇
予
争
事
二
亍
于
亏
亐
云
互
亓
五
井
亘
亚
亜
亞
亟
亠
亡
亢
交
亥
亦
产
亨
亩
享
京
亭
亮
亯
亰
亲
亳
亶
亷
人
亻
亼
亾
仁
今
介
仌
从
仐
仑
仒
仓
仕
他
付
仝
代
令
以
任
企
伊
伏
伐
休
会
伯
但
位
何
佘
余
作
佥
使
來
侈
侌
侖
侯
侵
便
保
俞
信
修
倉
倍
候
倠
備
僉
僕
儒
儿
兀
允
兂
元
兄
充
兆
兇
先
光
兊
克
兌
免
兑
兒
兓
兔
党
兜
兟
入
全
兩
兪
八
公
六
兮
兰
共
关
兵
其
具
典
兹
兼
冀
冂
冃
冄
内
冈
冉
冊
冋
册
再
冎
冏
冐
冒
冓
冖
冗
冘
军
农
冝
冡
冥
冫
冬
冷
几
凡
凢
凵
凶
凷
凸
凹
出
函
凾
刀
刁
刂
刃
刄
刅
分
切
刍
刑
刕
刖
列
刘
则
初
別
利
别
到
制
刺
則
削
剌
前
剡
剽
劉
力
功
加
劦
助
劫
劳
劵
勃
勇
勉
勒
動
務
勞
勤
勹
勺
勻
勾
勿
匀
匂
包
匆
匈
匊
匋
匍
匕
化
北
匚
匝
匡
匪
匱
匸
匹
区
医
匽
匿
區
十
卂
千
卄
卅
卆
升
午
卉
半
卌
华
卑
卒
卓
单
卖
南
卜
卝
卞
占
卡
卢
卣
卤
卦
卩
卪
卬
卯
印
危
即
却
卵
卷
卸
卻
厂
厃
厄
历
厈
厉
厌
厓
厘
厚
原
厤
厥
厨
厭
厲
厶
厷
厸
去
厼
厽
叀
参
參
叅
又
叉
及
友
双
反
叐
发
叒
叔
叕
取
受
叚
叜
叟
口
古
句
另
叩
只
召
可
台
叱
史
右
叵
号
司
叹
吂
各
吅
合
吉
吊
吋
同
名
后
吏
向
吕
君
吝
吞
否
含
启
吳
吴
吹
吾
呂
呆
呈
告
员
呙
周
命
咅
和
咎
咠
咢
咨
咸
咼
哀
品
哉
員
哥
哲
唐
商
啇
問
啚
啬
啻
善
喜
喬
單
喿
嗇
噩
嚴
囊
囗
囘
囙
囚
四
回
囟
因
囧
囬
困
囱
囷
固
国
圂
圅
國
圍
圓
土
圡
圣
圥
在
圭
地
圶
圼
坐
坒
坚
坡
坴
垂
垔
垚
埀
埋
城
埶
執
基
堂
堅
堆
堇
堯
塞
墨
壘
士
壬
壯
声
壳
壴
壹
壺
壽
夂
处
夅
夆
备
夊
夋
夌
复
夏
夒
夕
外
夗
夘
多
夜
夢
大
夨
天
太
夫
夬
夭
央
失
夲
头
夷
夸
夹
夻
夾
奂
奄
奇
奈
奉
奎
奏
奐
契
奓
奔
奚
奞
奠
奢
奥
奭
女
奴
奻
好
如
妄
妙
妟
妥
妻
妾
姑
委
姜
威
娄
婁
婴
嬰
嬴
子
孑
孔
孕
孖
字
存
孚
孛
孝
孟
季
孤
学
孫
孱
學
宀
宁
宂
它
宅
宇
守
安
宋
完
宏
宓
宗
官
定
宛
宜
宝
客
宣
室
宮
宰
害
家
容
宾
宿
寄
寅
密
富
寒
察
寧
審
寫
寬
寮
寸
对
寺
寻
寽
対
寿
封
尃
射
将
將
專
尉
尊
尋
尌
對
小
少
尒
尓
尔
尖
尗
尚
尞
尢
尣
尤
尧
尨
尭
就
尸
尹
尺
尻
尼
尽
尾
尿
局
居
屈
屋
屎
屏
屑
展
屖
屚
属
屠
屡
屬
屮
屯
屰
山
屵
屾
岁
岂
岑
岡
岩
岳
岸
峯
島
崇
崑
崔
崖
崙
崩
嵬
嶲
巂
巛
川
州
巟
巠
巢
巤
工
左
巧
巨
巩
巫
差
己
已
巳
巴
巷
巸
巽
巾
巿
帀
市
布
希
帚
帛
帝
带
師
席
帶
常
干
平
年
幵
并
幷
幸
幺
幻
幼
幽
幾
广
広
庄
床
底
店
庚
府
度
庫
庭
庶
康
庸
廉
廌
廛
廣
廩
廴
延
廷
建
廾
廿
开
弁
弃
弄
弇
弋
式
弓
弔
引
弗
弘
弜
弟
弥
弦
弱
張
強
强
彊
彌
彎
彐
彑
当
彔
录
彖
彗
彡
形
彥
彦
彧
彭
彳
役
彼
往
待
律
徒
得
徙
從
復
微
徵
德
心
忄
必
忌
忍
志
忝
忠
忩
快
念
忽
忿
思
怠
急
怱
恆
恒
恩
恭
息
悉
患
悤
悲
悶
惠
惡
惢
愁
愈
意
愛
感
慈
慧
慮
憂
憲
應
戀
戈
戉
戊
戋
戌
戍
戎
成
我
戒
戔
或
戚
戠
戢
截
戲
戶
户
戹
戼
戾
房
所
扁
扇
手
扌
才
打
托
执
承
折
拉
拜
拿
掌
推
提
摩
支
攴
攵
收
攸
改
放
政
敄
敏
敕
敖
敗
敝
敞
敢
散
敦
敫
敬
数
敷
數
斂
文
斉
斊
斎
斗
斤
斥
斩
斬
斯
新
方
於
施
斿
旁
旋
族
无
旡
既
旣
日
旦
旧
旨
早
旬
旱
旲
时
旾
昆
昇
昌
昍
明
昏
易
昔
昗
昜
星
春
昬
是
昱
昴
昷
時
晃
晋
晏
普
景
晶
智
暑
暴
曇
曩
曰
曲
曳
更
曷
書
曹
曼
曾
替
最
朁
會
月
有
朋
服
朔
朕
朗
望
朝
木
朩
未
末
本
札
朮
术
朱
朵
朶
朿
杀
李
杏
杜
束
条
来
東
杲
杳
松
析
林
枚
果
枝
枲
枼
某
柔
查
柬
柰
柴
栗
桀
桑
桼
梁
條
梟
梨
棘
棠
棥
森
楚
業
楽
榮
樂
樊
欠
次
欣
欮
欲
欶
欽
款
歆
歇
歛
止
正
此
步
武
歨
歪
歮
歯
歰
歲
歴
歷
歸
歹
歺
死
殳
段
殷
殸
殹
殺
殻
殿
毋
毌
母
每
毒
比
毕
毚
毛
毳
氏
氐
民
气
氣
水
氵
氶
氷
永
氺
氾
求
汉
汝
汞
江
沃
沓
沙
沝
泉
法
波
泣
泥
泰
洛
洪
活
派
流
浦
浪
浮
淡
淮
清
渚
渠
湯
滿
漸
澳
火
灬
灭
灰
灵
灷
炅
炎
炏
炗
炙
炭
為
烈
烏
烝
焉
無
焦
焱
然
煞
熊
熏
燕
營
燮
爪
爫
爭
爯
爰
爱
爲
爵
父
爻
爽
爾
爿
片
牙
牚
牛
牜
牟
牢
牧
牪
牽
犀
犬
犭
犮
狂
狄
狊
独
狺
猋
猒
猪
献
獻
玄
率
玉
王
玟
玨
珎
班
琴
瑟
瑩
瓜
瓦
甘
甚
生
産
用
甫
甬
田
由
甲
申
电
甶
男
甸
甹
画
甾
畀
界
畏
畐
留
畜
畟
畢
畧
畨
番
畫
異
畱
當
畺
畾
疊
疋
疌
疑
疒
疾
癶
癸
癹
登
發
白
百
皀
皃
的
皆
皇
皋
皐
皕
皮
皷
皿
盃
盆
盇
盈
益
盍
盎
监
盒
盖
盛
盡
監
盤
盧
目
直
相
盾
省
眇
眉
看
眔
眞
真
眷
眼
眾
着
睘
睪
睿
瞏
瞢
瞿
矍
矛
矞
矢
矣
知
矦
短
石
破
碎
磊
磨
示
礻
礼
祟
票
祭
禀
禁
禸
禹
禺
离
禽
禾
禿
秀
秃
秉
秋
科
秝
秦
移
稟
穀
穌
穴
究
穹
空
穿
突
窄
窒
立
竒
竜
竝
竟
章
童
竹
笑
笠
筆
等
答
箕
算
箴
節
篤
篭
米
粉
粛
粟
粤
粦
粲
糞
糸
糹
系
約
納
素
索
紫
累
細
絜
絫
絲
維
綿
縣
繇
纍
纟
缶
网
罒
罔
罕
罗
罙
罡
罢
罪
署
罷
羅
羊
羌
羍
美
羔
羕
羗
羞
羡
羣
群
義
羲
羸
羽
翁
翏
習
翕
翟
翠
翼
老
耂
考
者
耆
而
耎
耑
耒
耳
耴
耶
耷
聂
聊
聖
聚
聶
聿
肀
肃
肅
肉
肖
肙
肥
肩
肯
育
肴
胃
背
胡
胥
能
脊
脩
膚
臣
臤
臧
自
臬
臭
臯
臱
至
致
臺
臼
臽
臾
臿
舀
舂
舄
與
興
舉
舌
舍
舛
舜
舞
舟
般
艮
良
色
艸
艹
艾
芒
芔
芬
芮
花
芳
芺
芻
苔
苗
苟
若
苦
英
茶
茸
荅
草
荒
荣
荼
莆
莧
莫
莽
菆
菊
菐
華
萬
落
葉
著
葛
董
葵
蒙
蒦
蒼
蓋
蓬
蓺
蔑
蔡
蕉
蕭
薄
薛
薦
薰
藍
藏
藥
蘭
虍
虎
虐
虒
虔
處
虖
虗
虘
虚
虛
虜
虞
虫
虽
蚤
蚩
蜀
蜜
蟲
蠡
血
行
衍
衛
衣
衤
表
衮
衰
袁
袞
褭
褱
襄
襾
西
覀
要
覃
見
規
覓
覧
親
覽
见
角
解
言
訁
訇
計
詹
語
誩
諸
讠
语
谷
豆
豈
豊
豐
豕
豖
豙
象
豦
豩
豪
豸
貇
貝
貞
貟
負
貢
貧
貪
貫
責
貳
貴
買
費
賁
資
賈
賏
賓
賔
賛
賞
賢
賣
質
賴
贊
贝
贡
责
贯
贲
贵
赖
赞
赤
赦
走
越
足
路
蹇
身
躬
車
軍
軎
軟
輦
车
辛
辜
辟
辥
辰
辱
農
辵
辶
边
达
过
近
连
迷
追
退
送
逆
逐
通
速
造
逢
連
逮
進
遀
遂
過
道
達
遣
適
遷
遺
邊
邑
邕
那
邦
邪
郎
部
郭
都
鄉
酉
酋
配
酓
釆
采
里
重
野
量
金
釒
錢
钅
長
镸
长
門
閃
閉
開
閏
閑
閒
間
閔
閵
閻
闌
门
间
闷
阑
阜
阝
阿
降
陳
隆
隊
隋
隡
隨
隱
隶
隹
隺
隻
隼
隽
难
雀
雁
集
雈
雋
雍
雐
雔
雙
雚
雜
雝
離
難
雨
雩
雪
雲
零
雷
需
霍
霜
霝
霞
霸
靈
靑
青
非
靡
面
靣
革
韋
韦
韭
韯
韱
音
頁
頃
項
須
頗
頡
頻
顛
页
風
风
飛
飞
食
飠
養
饣
首
香
馬
馮
駦
马
骨
高
髟
鬥
鬯
鬲
鬼
魚
魯
鮮
鱼
鲁
鳥
鳳
鸟
鹵
鹿
麃
麗
麥
麦
麻
黃
黄
黍
黎
黑
黒
黨
黹
黽
黾
鼎
鼓
鼠
鼻
齊
齋
齐
齒
齿
龍
龙
龜
龟
龠
龰
龱
龴
龵
龶
龷
龸
龹
者
艹
？
𠀁
𠀃
𠀆
𠀉
𠀎
𠀐
𠁁
𠁣
𠂆
𠂇
𠂈
𠂉
𠂊
𠂋
𠂎
𠂒
𠂔
𠂛
𠂡
𠂢
𠂤
𠂬
𠂭
𠂹
𠃊
𠃋
𠃌
𠃍
𠃎
𠃑
𠃓
𠃔
𠃜
𠄌
𠄎
𠄠
𠄢
𠆢
𠆥
𠇍
𠈌
𠌵
𠓜
𠔉
𠔥
𠔼
𠔽
𠔿
𠕀
𠕁
𠕋
𠘧
𠘨
𠙻
𠙼
𠚏
𠚒
𠚤
𠚪
𠣏
𠤎
𠤕
𠥓
𠦄
𠦑
𠦝
𠧒
𠧗
𠧪
𠩺
𠪚
𠫓
𠫔
𠫤
𠬛
𠬝
𠬞
𠬢
𠬤
𠬶
𠮛
𠮦
𠮷
𠯑
𠱠
𠳮
𠷎
𡈼
𡉀
𡉵
𡌥
𡍮
𡏳
𡕒
𡕩
𡕰
𡖅
𡗗
𡗜
𡘆
𡘤
𡧱
𡨄
𡩧
𡬠
𡭽
𡰣
𡰥
𡰪
𡰯
𡰱
𡷈
𡸁
𡿨
𡿩
𡿪
𡿺
𢀖
𢀛
𢀩
𢁙
𢆉
𢆰
𢆶
𢇁
𢇇
𢉖
𢌬
𢌿
𢏚
𢑑
𢑚
𢖻
𢙣
𢛳
𢦏
𢦒
𢧵
𢼄
𢾕
𣁋
𣄼
𣅀
𣅽
𣍘
𣎳
𣎵
𣏋
𣏼
𣗥
𣥂
𣥖
𣦵
𣦼
𣧄
𣪊
𣪠
𣬉
𣳾
𣶒
𤇾
𤊽
𤐫
𤓰
𤔔
𤕨
𤣩
𤰇
𤰔
𤰞
𤴓
𤴔
𤽄
𥁑
𥁕
𥃦
𥃩
𥃭
𥇡
𥑟
𥘅
𥘈
𥝢
𥫗
𥱡
𦈢
𦉪
𦉬
𦉼
𦍌
𦍒
𦎧
𦐇
𦓔
𦔮
𦘒
𦙃
𦚏
𦣝
𦣞
𦣻
𦥑
𦥔
𦥯
𦨉
𦭝
𦰩
𧆞
𧈧
𧘇
𧰨
𧴪
𧴮
𧵩
𧾷
𨸏
𨾴
𩙿
𩠐
𩫏
𩵋
𪉷
𪜀
𪟽
𪠲
𪩲
𫇦
𫔭
𫜸
𫝀
𫠣
𫠩
𫢉
𫥞
𫩏
𫩠
𫪡
𫲽
𫶧
𬀷
𬐘
𬗌
𬙙
𬛸
𬜯
𬟩
𬯁
𬴘
𬺻
𬼉
𬼖
𭀰
𭁈
𭁨
𭅰
𭑈
𭕄
𭗼
𭤨
𭥫
𭻾
𮅕
𮊿
𮍌
𮍏
𮓗
𮥼
𮧮
廾
𰀁
𰀄
𰀈
𰀉
𰀕
𰀠
𰀡
𰀢
𰀪
𰁜
𰃮
𰆊
𰆘
𰋙
𰕎
𰢴
𰧭
𰯲
0--
10--
11--
12--
13--
14--
15--
16--
17--
18--
19--
3--
4--
5--
6--
7--
8--
9--
a--
ab--
abd--
abi--
abo--
ac--
ad--
ado--
af--
afi--
ag--
ai--
ak--
aksi--
al--
alex--
ali--
am--
ama--
ami--
an--
anbi--
and--
anti--
antro--
ap--
apar--
ar--
argim--
as--
asi--
asun--
at--
au--
ay--
az--
b--
ba--
bah--
bal--
bam--
ban--
bar--
bas--
be--
beau--
bi--
bo--
bou--
br--
bra--
bre--
bri--
bru--
bu--
byo--
c--
ca--
cal--
can--
cas--
cau--
ce--
ch--
cha--
cher--
chi--
cho--
chu--
co--
com--
cons--
cou--
d--
da--
de--
des--
di--
dip--
dis--
dja--
dji--
do--
dom--
domin--
don--
dou--
dra--
du--
e--
ed--
en--
endi--
enf--
enfi--
eng--
ensifi--
er--
es--
eu--
eusta--
f--
fa--
fe--
fer--
fi--
fil--
fila--
fis--
fla--
fo--
fon--
fra--
fu--
g--
ga--
gab--
gal--
gam--
gas--
ge--
ghi--
gi--
gli--
go--
gra--
gran--
gs--
gsi--
gu--
gza--
gzi--
gzo--
ha--
han--
har--
he--
hei--
hi--
hin--
ho--
hok--
hu--
hus--
i--
ice--
id--
ie--
ik--
il--
iltra--
im--
in--
ini--
ino--
inte--
irb--
is--
j--
ja--
jan--
je--
ji--
jis--
jo--
k--
ka--
kach--
kal--
kan--
kap--
kar--
kat--
kay--
ke--
kha--
khi--
khus--
ki--
klo--
ko--
kon--
kondi--
kou--
kout--
kri--
kro--
ks--
kt--
ktro--
l--
la--
labo--
lak--
lan--
lar--
larti--
las--
lau--
le--
len--
lens--
li--
lis--
liz--
lo--
lon--
los--
lu--
lwa--
m--
ma--
mag--
man--
mar--
mas--
mat--
mau--
me--
men--
mer--
mi--
mil--
mo--
mon--
mos--
mou--
mu--
mus--
n--
na--
nap--
ne--
neder--
neu--
ng--
ni--
nis--
no--
nu--
o--
odo--
omo--
on--
or--
oto--
ou--
p--
pa--
pal--
pale--
par--
para--
pato--
pe--
pen--
ph--
pha--
phi--
pi--
pin--
pir--
pli--
po--
populat--
pri--
pro--
pron--
pt--
pu--
q--
qa--
qu--
r--
ra--
rab--
ram--
ran--
rar--
raz--
rb--
re--
res--
respu--
rf--
ri--
rif--
rk--
rm--
rn--
ro--
rod--
rou--
rout--
rpa--
rs--
rt--
rti--
ru--
rv--
rw--
s--
sa--
sak--
san--
sar--
se--
sen--
shi--
si--
sib--
sing--
sir--
siz--
sk--
slo--
so--
sop--
sou--
sp--
spon--
sta--
sti--
su--
sun--
swa--
sy--
t--
ta--
tach--
tan--
tash--
te--
th--
thi--
ti--
to--
topo--
tou--
tra--
tran--
trans--
tri--
tu--
u--
ul--
v--
va--
val--
van--
var--
ver--
vi--
vil--
vo--
vos--
w--
wa--
war--
wu--
x--
xho--
y--
ya--
yan--
ye--
yi--
yo--
yoshi--
yu--
z--
za--
zhe--
zi--
zo--
ɪ--
γ--
λ--
μ--
ν--
الع--
--0
--00
--01
--02
--04
--05
--08
--1
--2
--3
--37
--39
--4
--49
--5
--57
--58
--59
--6
--61
--62
--63
--64
--66
--67
--68
--69
--7
--71
--72
--73
--78
--8
--81
--84
--85
--86
--87
--88
--89
--9
--91
--93
--94
--96
--97
--98
--99
--a
--ab
--ad
--ah
--ai
--ain
--aj
--ak
--akh
--akil
--al
--alite
--an
--ann
--ans
--ant
--ar
--ara
--ard
--aro
--as
--asyon
--at
--ata
--ay
--b
--ba
--be
--bi
--bir
--bo
--by
--c
--ce
--ch
--ci
--cia
--cie
--ck
--co
--cy
--d
--da
--dar
--de
--di
--dik
--dj
--do
--dor
--dwi
--e
--el
--en
--enm
--enn
--er
--es
--ez
--f
--fe
--g
--ga
--gan
--ge
--gh
--gin
--gn
--go
--gos
--gs
--gye
--h
--ha
--hah
--hi
--ho
--hu
--i
--ia
--ibi
--id
--ie
--ien
--if
--ifye
--ige
--ik
--ikasyon
--ike
--il
--ile
--ilite
--im
--imi
--in
--ina
--inal
--inasyon
--ios
--ir
--ira
--is
--ism
--istan
--it
--ite
--iv
--iye
--iz
--izasyon
--ize
--j
--ja
--je
--ji
--jik
--jwa
--k
--ka
--ke
--ki
--kin
--l
--la
--land
--le
--len
--li
--lin
--lisite
--ll
--lle
--lo
--loji
--m
--ma
--maj
--man
--masyon
--mat
--me
--mi
--mo
--ms
--n
--na
--nd
--nda
--nde
--ne
--nen
--ng
--nga
--ni
--nm
--nman
--nn
--nne
--no
--ns
--nt
--nte
--nye
--o
--olo
--oloji
--on
--or
--ore
--os
--ot
--ote
--ou
--oule
--our
--ov
--p
--pa
--pe
--pin
--po
--ppe
--ps
--q
--r
--ra
--ram
--rd
--rda
--re
--ri
--rid
--rme
--rn
--ro
--rs
--rt
--ry
--s
--sa
--san
--sco
--se
--shi
--si
--sia
--sk
--ska
--ski
--skri
--sm
--sman
--sne
--so
--ssa
--sse
--st
--sti
--syon
--t
--ta
--tan
--te
--tes
--th
--ti
--tif
--tik
--tir
--tisite
--tism
--tle
--to
--toloji
--ts
--tt
--tte
--tus
--twe
--u
--ua
--ud
--ue
--uka
--ul
--um
--ur
--ure
--us
--ut
--uve
--ux
--v
--va
--ve
--vi
--vni
--w
--wa
--we
--wi
--wick
--wn
--x
--xi
--y
--ya
--yal
--yan
--ye
--yen
--yo
--yon
--yot
--z
--za
--zan
--ze
--zo
--ς
--тан
--ن
