!
"
#
##0
##1
##10
##11
##12
##13
##14
##15
##16
##17
##18
##19
##2
##20
##21
##22
##23
##24
##25
##26
##27
##28
##29
##3
##30
##31
##32
##33
##34
##35
##36
##37
##38
##39
##4
##40
##41
##42
##43
##44
##45
##46
##47
##48
##49
##5
##50
##51
##52
##53
##54
##55
##56
##57
##58
##59
##6
##60
##61
##62
##63
##64
##65
##66
##67
##68
##69
##7
##70
##71
##72
##73
##74
##75
##76
##77
##78
##79
##8
##80
##81
##82
##83
##84
##85
##86
##87
##88
##89
##9
##90
##91
##92
##93
##94
##95
##96
##97
##98
##99
$
%
&
'
(
)
*
+
,
-
.
/
0
00
000
00027
01
0162
02
020
028
03
030
04
0440
05
051
0554
06
0617
0682
07
09
1
10
100
1000
101
102
103
104
105
106
107
108
109
11
110
111
112
113
114
115
116
117
118
119
12
120
121
122
123
124
125
126
127
128
129
13
130
1300
132
133
134
135
136
137
138
139
14
140
141
142
143
144
145
146
147
148
149
15
150
1500
151
152
153
154
155
156
157
1579
158
159
16
160
1600
161
1623
163
165
166
167
17
170
171
172
173
174
175
1753
1758
176
177
1775
178
1781
1785
179
1798
1799
18
180
1800
1805
1807
1808
1809
181
1810
1812
1815
1816
1817
182
1820
1821
1822
1823
1824
1825
1826
1827
1828
1829
183
1830
1831
1832
1833
1834
1835
1836
1837
1838
1839
1840
1841
1842
1843
1844
1845
1846
1847
1848
1849
185
1850
1851
1852
1853
1854
1855
1856
1857
1858
1859
186
1860
1861
1862
1863
1864
1865
1866
1867
1868
1869
187
1870
1871
1872
1873
1874
1876
1877
1878
1879
188
1880
1881
1882
1883
1884
1885
1886
1887
1888
1889
189
1890
1891
1892
1893
1894
1895
1896
1897
1898
1899
19
190
1900
1901
1902
1903
1904
1905
1906
1907
1908
1909
191
1910
1911
1912
1913
1914
1915
1916
1917
1918
1919
192
1920
1921
1922
1923
1924
1925
1926
1927
1928
1929
193
1930
1931
1932
1933
1934
1935
1936
1937
1938
1939
194
1940
1941
1942
1943
1944
1945
1946
1947
1948
1949
195
1950
1951
1952
1953
1954
1955
1956
1957
1958
1959
196
1960
1961
1962
1963
1964
1965
1966
1967
1968
1969
197
1970
1971
1972
1973
1974
1975
1976
1977
1978
1979
1980
1981
1982
1983
1984
1985
1986
1987
1988
1989
199
1990
1991
1992
1993
1994
1995
1996
1997
1998
1999
2
20
200
2000
2001
2002
2003
2004
2005
2006
2007
2008
2009
201
2010
2011
2012
2013
2014
2015
2016
2017
2018
2019
2020
2021
204
205
206
207
208
209
21
210
212
213
214
215
216
217
22
220
224
225
226
227
228
23
230
231
235
237
237227
24
240
241
242
243
244
245
246
247
248
25
250
2500
251
253
254
255
256
257
258
2586178
259
26
260
262
264
265
266
267
268
27
270
273
275
277
278
28
280
281
282
283
284
287
288
289
29
290
291
292
294
295
296
297
298
299
3
30
300
3000
301
302
303
304
305
306
307
308
309
31
310
311
315
316
317
318
32
320
321
322
323
324
325
328
329
33
331
332
334
335
336
337
338
34
340
341
342
34260
34293
343
345
346
348
349
35
350
351
352
353
354
355
356
357
359
36
360
365
366
368
37
370
38
380
385
386
387
39
394
399
4
40
400
401
403
41
415
416
418
42
421
426
429
43
430
433
434
435
44
449
45
450
453
46
460
463
464
464633
47
475
48
480
488
49
492
5
50
500
503
51
52
521
53
54
55
550
56
57
570
58
59
6
60
600
608
61
614
619544
62
63
634
64
65
66
67
68
69
7
70
700
71
72
729
73
74
742
75
7555
76
7625
77
78
79
8
80
800
81
82
83
834246
84
85
85218
86
87
87901
88
88009
89
9
90
900
900894
91
92
93
93683
94
95
951
952
957
96
963
97
978
98
9876
98799
99
:
;
<
=
>
?
[
]
^
_
a
aa
aaronsohnia
abbreviata
abbreviatum
aberrans
abies
ac
acacallis
acacia
acad
acampe
acanthephippium
acaulis
accepted
acianthera
acianthus
acicularis
acineta
ackermania
aconitoides
acostaea
acriopsis
acrolophia
acta
actinostrobus
aculeata
aculeaticarpa
acuminata
acuminatum
acuminatus
ada
adams
adansonia
adenoncos
adrianae
aegean
aemula
aerangis
aeranthes
aerides
affinis
aframomum
africa
africana
ag
aganisia
agathis
aglossorrhyncha
agric
agricola
agricolan
agrostophyllum
aiello
ailanthus
ailuropoda
ajania
akarere
akc
al
alaska
alata
alba
albertiana
albida
albiflora
albopurpurea
alcoquiana
algeria
alibertia
allen
allenii
alnifolia
alnus
alopex
alp
alphabet
alpina
alpinia
alpinus
alps
alstroemeria
alta
altensteinia
alticola
altissima
alvaradoa
amabilis
amazonica
amboinensis
ambon
ame
amer
america
americana
americanus
ames
amesiella
amitostigma
amoena
amparoana
amsterdam
an
anacamptis
anadolu
anathallis
anatolica
anceps
ancipitia
ancistrorhynchus
and
anderson
andreetta
andreettae
androcorys
angela
angraecopsis
anguloa
angustifolia
angustilabia
ankara
ann
annamensis
annona
anoectochilus
anomala
antennifera
anthoceros
anthropophora
antilla
aphelandra
aphrodite
aphylla
apiculata
apifera
apoda
apostasia
appendicula
appendiculata
applanata
arabian
arachnis
arachnites
arachnitiformis
arachnitis
aralia
araneola
araucaria
arbor
arch
archive
archives
arctic
arctos
arctotherium
arcuata
are
arenaria
arenas
arenosa
arfakensis
argentina
argolica
aria
aristata
arizonica
ark
arkisto
armandii
armeniaca
arn
arnold
aromatica
arq
article
articulata
arundinacea
as
ascendens
ascocentrum
ascoglossum
asia
asiat
aspasia
asperata
aspidogyne
assam
aster
asteriscus
astronium
athrotaxis
atlantica
atropurpurea
atrorubens
attenuata
atwood
aubl
auct
aucuparia
aulosepalum
aurantiaca
aurantiacum
aurea
aurelia
auriculata
aurita
aurorae
austral
australis
auxopus
aver
averrhoa
averyanova
avicennia
avis
aymoninii
b
ba
bailey
baill
baker
bal
balanops
balansae
baleares
balsamorhiza
bangii
banks
barb
barbata
barbosella
barkeria
barlia
barneby
barros
bartl
bas
basiphyllaea
baskervilla
bat
bateman
batemannia
bates
baumann
bb
bbc
bc
bd
be
bear
beccarii
beih
belde
bella
bellied
beloglottis
bengal
benn
bennettii
benth
benthamia
bergia
berlin
bertolonii
betula
bf
bianch
bibliographisches
bicallosa
bicarinata
bicolor
bicornis
bifida
biflora
bifolia
bifrenaria
bijdr
biloba
bimucronata
biol
bipinnula
biscutella
bjo
bl
black
blatt
bletia
bletilla
blume
bo
bogor
bojer
bol
bolivia
boliviana
boliviensis
bolus
bolusiana
bombyliflora
bonnet
bonpl
bonplandia
borbonica
borhidi
borneensis
borneo
bosna
bosnia
bosser
bot
bouvardia
br
brachiata
brachionidium
brachychiton
brachypeza
brachystele
bracteata
bracteosa
brade
bradea
bradei
brand
brandegee
bras
brasil
brasiliensis
brassavola
brassia
bremek
brenesia
brenneri
brevifolia
brevipes
brit
britton
brockhaus
bromheadia
broughtonia
brown
browne
brownii
brownleea
brunnescens
brutia
bryceana
bucak
buch
buchtienia
buchtienii
budapest
buitenzorg
bulbosa
bull
burkart
burns
burundi
butcheri
by
byrne
c
ca
cabassous
cadetia
caesarea
caespitosa
caladenia
calanthe
calcarata
calceolaris
californica
callitris
calocedrus
calophylla
calopogon
caluromys
calypso
calypsus
cameroon
campacci
campbellii
campylocentrum
camus
canaliculata
candica
candida
candidum
canis
canna
canthium
cape
capensis
caribaea
caribbean
carica
caricifolia
carinata
carnea
carnevali
carpathians
carr
carrii
caryocar
casasia
castro
casuarina
catalpa
catasetum
catling
cattleya
caucaea
caucasus
caudata
caularthron
caulescens
cav
cd
cedrus
celebica
cenisia
central
centralbl
centroame
cephalanthera
cephalantheropsis
cephalanthus
cephalotes
ceratandra
ceratostylis
cernua
cham
chamaecostus
chamaegastrodia
chamaemespilus
chase
chaubardia
cheilocostus
cheirostylis
chen
cheng
chiapas
chiloglottis
chilopogon
chiloschista
china
chinensis
chiron
chlorantha
chondrorhyncha
christenson
chron
chrysantha
chrysanthemum
chrysobalanus
chrysocycnis
chrysoglossum
chto
chysis
chytroglossa
ciliaris
ciliata
ciliolata
cinnabarina
cirrhaea
citharexylum
citrina
citrus
city
ckbr
clade
clandestina
clareae
clausa
clavata
clavicornis
clavigera
cleisocentron
cleistogama
clem
clowesia
coccinea
coccineorchis
coccineum
cochinchinensis
cochleanthes
cochlearis
cochleata
cochlioda
codonorchis
coelia
coerulea
cogn
coilostylis
collina
colombiana
colon
colorata
colubrina
com
comber
comm
comosa
compacta
companion
comparettia
compressa
concinna
concolor
condorensis
conferta
confusa
congesta
congo
congressus
conopsea
cons
contorta
contr
cooperi
corallorhiza
cordata
cordem
cordifolia
cordigera
coriacea
corneliana
cornuta
correa
correll
corse
corsia
coryanthes
corybas
corycium
corymborkis
cosmos
costaricensis
costus
craib
crassicaule
crassifolia
crassilabia
cremastra
crete
cretica
cribb
crimea
crinita
crispa
cristata
croatia
crocodeilanthe
croix
cryptantha
cryptarrhena
cryptocentrum
cryptonanus
cryptostylis
ctenolophon
cuatrec
cuba
cubensis
cucullata
cumi
cuneata
cunninghamii
cupania
curcuma
curranii
cuspidata
cusset
cyanea
cyclopogon
cycnoches
cylindrica
cymbidiella
cymbidium
cynorkis
cypripedium
cyrillic
cyrtopodium
cyrtostylis
d
da
dacrydium
dactylorhiza
dahlia
dalessandroi
dalstro
dalstroemii
danesch
dansk
dasypus
dc
de
dea
debilis
decidua
decipiens
decora
delavayi
delforge
delile
den
dendrobium
dendrochilum
dendrophylax
densa
densiflora
dentata
denticulata
der
desf
devillers
dichaea
dichromanthus
dictionary
didactylus
didelphis
didymoplexis
dietr
dilatata
dimocarpus
diodia
diplocaulobium
dipodium
dipterocarpus
disa
discolor
disperis
distans
diuris
divaricata
do
dockrill
dockrillia
dod
dodson
dodsonii
dog
dombeya
domingensis
domingoa
dominican
don
donn
doritis
downie
dracontia
dracula
drakaea
drakensberg
dressler
dresslerella
dressleri
dressleria
drumana
drummondii
dryadum
drymoda
dsee
du
ducampopinus
ducke
duckeella
dunst
dunstervillei
dunstervilleorum
duque
durand
durangensis
duranta
durio
dusenii
dutra
e
eared
earina
east
eastern
eburnea
ec
echinacea
echinata
econ
ecornuta
ecuadorensis
ed
edinburgh
eds
edulis
edwards
eesti
effusa
ehir
ekmanii
el
ela
elata
elatine
elatum
elegans
elegantula
elettaria
elina
elliptica
elmeri
elongata
elongatia
elongatum
emarginata
embreei
en
endara
endl
endres
engelmannii
engl
engler
ephippium
epiblastus
epidendrum
epigeneium
epipactis
epipogium
equestris
equinum
equus
erecta
eria
ericales
eriochilus
erl
erosa
erubescens
escobar
escobariana
escobarii
esmeralda
especie
espejo
estado
esto
et
etela
ethiopia
ethnologue
eugenii
eulophia
eulophiella
eupomatia
europe
euterpe
ex
exaltata
excelsa
exigua
exilis
eximia
eyed
f
fabri
facts
fagaceae
falcata
falcatifolium
family
familya
fan
fargesii
farinosa
fasciata
fasciculata
fat
fawc
felis
fenno
ferr
ferruginea
ferrum
fi
file
filifolia
filiformis
fimbriata
fimbriatum
finet
finland
finno
firma
firmiana
fitzg
fl
flabellata
flaccida
flava
flavescens
flavum
fleischm
flexuosa
flickingeria
flora
floribunda
florida
floridanus
focke
foldats
foliosa
for
forbes
formerly
formosa
formosana
formosanus
forrestii
forst
fortunella
fosteri
fouquieria
four
fowlie
fractiflexa
fragrans
france
franch
frapp
from
fruticosa
fuchsii
fuciflora
fukuy
fulgens
fulva
funk
funkiella
fusca
g
gaertn
gagnep
galanga
galeandra
galearis
galeata
galeola
galeotti
gamble
garay
garayi
gard
gardneri
garganica
gastrochilus
gaudich
gawl
gay
ge
gen
gentryi
genus
genyorchis
geophyte
george
georgii
gerais
gerlach
ghillanyi
gi
gibbosa
gibbs
gibbsiae
gigantea
gigas
gilli
glabra
glandulosa
glauca
glider
globosa
glomera
glumacea
glutinosa
gmelinii
go
gomphichis
gongora
gonza
goodyera
gordonia
govenia
gracile
gracilinanus
gracilipes
gracilis
gracillima
graminea
graminifolia
graminoides
grammatophyllum
grande
grandiflora
grandiflorum
grandiflorus
grandifolia
grandis
graveolens
gray
greenw
greggii
griff
griffithii
griseb
ground
gsater
gu
guarianthe
guatemala
guatemalensis
guettarda
guianensis
guihaia
guilandinae
guillaumin
guinea
gulo
guttata
guyana
gymnadenia
h
ha
habenaria
hagsateri
hainan
hainanensis
haiti
halconensis
halesia
halle
ham
hamburg
hamelia
hamer
hand
hannover
hapalorchis
har
hartwegii
harv
harveyana
hashim
hasta
hatschbachii
hawkes
hayata
he
hedychium
heldreichii
heliconia
helleborine
heller
helleri
helsinki
hemipilia
hemsl
henriquezia
henryi
herb
heringeri
hermans
herminium
herrerae
hertel
herzegovina
herzogii
hespenh
heterophylla
hexalectris
hexandra
hexisea
hickelii
higgins
hills
himalaya
himalayas
himantoglossum
hirsuta
hirsutissima
hirta
hirth
hirtz
hirtzii
hispaniola
hispida
hist
history
ho
hochr
hochst
hoehne
hoehnea
hoehnei
hoeijeri
holcoglossum
holoserica
holosericea
holothrix
holttum
hook
hooker
hookeri
hookeriana
hopper
houlletia
href
hrsg
htm
html
http
https
hu
humb
humbertii
humilis
hung
hunt
huntleya
hupehensis
i
ia
icon
ig
ii
iii
il
ilc
ili
ill
imagename
imbricata
imirenge
imitans
in
inaequalis
incana
incarnata
incertae
incubacea
ind
indarctos
indes
index
india
indica
indo
ined
inen
inflata
inform
insectifera
insignis
inst
institut
insularis
intara
integra
intermedia
intermedium
international
internationalis
interwiki
invisa
io
iprage
ipsea
iran
iricolor
is
isabelia
isbn
island
islands
iso
isochilus
ispol
israel
issn
italica
italy
iv
iva
ix
ixora
iz
j
ja
jack
jacq
jacquinia
jahrb
jamaica
jamaicensis
janeiro
japonica
jard
java
javanica
jeanes
jenny
jezoensis
jimdo
joensuu
johanss
johnsonii
jones
jorullensis
jost
journal
jpg
jumellea
juss
juva
k
ka
kaempferia
kak
kale
kaniensis
karst
kartano
kartanon
katangensis
katiorum
kaupungin
kaupunginosien
kaupunki
kautskyi
keay
kec
kegeliella
kegelii
ker
keski
keteleeria
kew
ki
kigali
kinabaluensis
king
kingii
kinyarwanda
kirjaviite
kirkko
kirkonkyla
kittr
klotzsch
kmeria
knowles
ko
koch
koellensteinia
komi
komikyv
kores
korth
koski
koti
kotisivut
kraenzl
kraenzlinella
krameri
krause
kreodanthus
kreutz
ku
kuhlhasseltia
kunta
kunth
kuntze
kustannus
kwazulu
kyla
l
la
labill
lacaena
laciniata
laevis
lagerstroemia
lagopus
lam
lamb
lamellata
lanceolata
lancifolia
lancilabris
lang
language
languages
lankesteri
lantz
lar
larix
larsen
lasiocarpa
latifolia
latifolium
latilabris
latipetala
laubenfels
lauterbach
laxa
laxiflora
le
leafl
lecanorchis
ledermannii
lehm
lehmannii
lehtiviite
leiophylla
leochilus
leopardus
lepanthes
lepanthopsis
leptotes
lepus
leroy
lesser
leucantha
lewis
lex
leyte
lez
lge
lgesi
li
libani
libocedrus
licania
ligulata
liitto
lilacina
liliiflora
limba
limbata
limprichtii
lin
linden
lindenii
lindl
lindley
lindleyalis
lindleyana
linearifolia
linearis
linguistic
linguistica
link
links
linn
linnaea
linnaeus
liparis
liquidambar
liriodendron
listera
lithocarpus
liu
livida
lo
lobata
lockhartia
lodd
loddigesii
loefgr
london
longa
longibracteata
longicauda
longicaulis
longicornu
longiflora
longifolia
longifolium
longilabris
longipes
longissima
lontra
lour
lowiana
lowii
lu
lucida
lucksom
lueddemannia
lueddemanniana
luer
luisia
lupus
lutea
luteola
lutra
luzon
lycalopex
lycaste
lycomormium
lynx
m
ma
maanmittauslaitos
maas
maboroensis
macodes
macra
macrantha
macrophylla
maculata
maculatum
maculosa
madagascar
madagascariensis
maek
mag
magnifica
magnolia
magnoliopsida
maguire
maingayi
majalis
major
makino
mala
malabarica
malawi
malaxis
malay
malayan
malesherbia
maluku
mammea
mammosa
manis
mannii
mansf
map
maranta
marcantonio
marginata
maritima
maritimus
marmosa
marmosops
marseille
marshallia
mart
martes
martinezii
martius
marttilan
masam
mascula
mast
mastersiana
maxillaria
maxim
maxima
maximowiczii
mazz
me
media
medinae
medit
mediterranean
meen
meiracyllium
melanoleuca
meles
melogale
mem
mendozae
menezes
merkezi
merr
merrill
merrillii
mesadenella
mesadenus
mesua
metasequoia
mexicana
mexico
mey
mez
michelia
michx
micrantha
micranthum
microchilus
microglossa
microphylla
microphyta
microtis
mikael
miltonia
miltoniopsis
mimosa
minahassae
minas
mindanao
minima
minor
minutiflora
miq
mirabilis
miranda
mirongo
misc
missouri
mit
mitragyna
miut
mo
modesta
mollis
molloy
monodelphis
monogr
monomeria
monophylla
monosepalum
montana
montanum
monticola
montis
moore
moorei
morinda
morio
morisii
mormodes
mormolyca
moscosoa
mountains
mouse
mozambique
mpumalanga
mu
mucronata
muell
muelleri
mugo
multiflora
muricata
mus
muscicola
museum
mustela
myanmar
myoxanthus
myrmechila
myrmechis
myrmecodia
myrmecophila
myrtifolia
mystacidium
myths
mytnik
n
na
nachtr
nagam
nakai
name
nana
nat
natal
natl
nauclea
nb
nc
ne
ned
nees
neglecta
nelson
nelsonii
nematoceras
nemorosa
nen
neofinetia
neottia
neottianthe
nephelaphyllum
nervilia
nervosa
nes
neudecker
neuwiedia
new
news
nfelder
nfra
nicholls
nigeria
nigra
nigrescens
nigritella
nis
nitida
nivalis
nivea
nkele
no
nobilis
nom
nord
nordmanniana
noroeste
norte
north
northern
northwest
notes
nothofagus
nothosubsp
notul
notylia
nov
nova
now
nu
nuda
nutans
nutt
nw
o
oaxaca
oberonia
oblanceolata
oblonga
oblongifolia
obovata
obscura
obtusa
occidentalis
ochracea
ochreata
octomeria
odontoglossum
odontorrhynchus
odorata
odoratissima
oeste
oestrifera
of
officinalis
ohwi
oja
ol
oli
oligantha
oliv
oliver
omegaifera
on
oncidium
opera
ophiopogonoides
ophrys
opossum
oppositifolia
or
orbicularis
orch
orchid
orchidaceae
orchidee
orchids
orchis
oreophila
org
orientalis
orleanesia
ormerod
ornata
ornithocephalus
ornithochilus
orqui
orquideologia
ortiz
osteospermum
otava
otia
otostylis
ouest
ova
ovalifolia
ovalis
ovata
ovis
oy
p
pa
pabst
pabstii
pachyglossa
pachyphylla
pachyphyllum
pachypodium
pachystachys
pacific
page
palawensis
pallens
pallida
pallidiflavens
paludosa
palustris
panama
panamensis
pandurata
panero
paniculata
panisea
panthera
pantl
paphinia
papilio
papilionacea
papilionanthe
papillosa
pappila
papuana
papuanum
paradoxa
paraguay
parana
paranaensis
paraphalaenopsis
paris
parish
parishii
parl
parva
parviflora
parviflorum
parvifolia
parvilabris
parvula
passionis
patens
patula
pauciflora
pauciflorus
paulo
paulownia
paulus
pav
pave
pavetta
paxton
pdf
pectinata
pedersen
pedilochilus
pedunculata
pen
pendens
pendula
penicillata
peninsula
pentapetes
pentas
peristeria
perpusilla
perrier
perrieri
pers
peru
peruviana
peruvianum
peter
petiolata
pez
pfavii
pfitzer
phaius
phalaenopsis
philander
philipp
philippinense
philippinensis
philippines
pholidota
php
phragmipedium
phreatia
phyllocladus
phytologia
phytotax
picea
picta
pierre
pilifera
pilosa
pinea
pinsapo
pinus
piperia
pit
pityphyllum
pl
planch
plantaginea
platanthera
platyphylla
platystele
pleione
pleurothallis
plicata
plocoglottis
plumosa
png
po
podocarpus
podochilus
poepp
pogonia
pohjanmaan
pohjois
poir
polyantha
polycycnis
polygonoides
polystachya
pomatocalpa
ponderosa
ponerorchis
ponthieva
popayanensis
popul
porroglossum
portilla
portillae
porto
powellii
pp
praecox
praemorsa
praetermissa
prasophyllum
presl
press
pridgeon
pringlei
prionailurus
proc
procera
prodr
profile
prolifera
promontorii
pronolagus
prorepentia
prosthechea
prostrata
protea
prov
provincialis
pru
prunus
pseuderia
pseudobertolonii
pseudolaelia
pseudovanilla
psychilis
psychopsis
pt
pteroglossa
pterostylis
puberula
pubescens
publ
pudel
pudelya
pulchella
pulchellus
pulcherrima
pulchra
pulchrum
pullei
pumila
pumilum
punctata
punctulata
pungens
pupulin
purpurascens
purpurata
purpurea
purpurella
purpureum
pusilla
px
pygmaea
pyha
pyramidalis
pyrenees
q
qia
qian
quadriloba
quadrivalvis
queensland
quekettia
quisqueya
quisumb
r
ra
racemosa
radiata
raf
raision
rami
ramosa
ramosii
ramulosa
ranta
rao
rchb
re
recurva
recurvata
red
ref
reflexa
reg
regel
reginae
regis
regni
reichenbach
reichenbachiana
reinholdii
reinw
reipubl
remota
ren
renanthera
rendle
renz
rep
repens
repert
reptans
republic
res
restrepia
reticulata
retroflexa
retusa
rev
revoluta
rez
rhellicani
rhipogonum
rhizanthella
rhynchophreatia
rhynchostylis
rhytionanthos
ri
rica
rich
ricii
ridl
ridsdale
rigida
ringens
rio
risto
rk
rma
rn
ro
rob
robinsonii
robiquetia
robusta
robyns
rodr
rodrigoi
rodriguezia
rogers
rolfe
roma
romero
roscoe
roscoea
rosea
roseum
rosillo
rostellata
rostrata
rotundifolia
rouse
roxb
roy
royen
rr
rsa
ru
ruan
rubens
rubra
rudolfiella
rufescens
ruiz
rupestris
rupicola
rupp
rusby
rutk
rvi
rwanda
ry
s
sa
sabal
sabu
saccata
saccoglossum
saccolabium
sakai
salazar
salicifolia
salisb
salpistele
salzmannii
sanderiana
sanguinea
sapindus
sarcochilus
sarcoglottis
sarcophylla
sarcostoma
sardegna
sargentiana
satyrium
sauleda
sauroglossum
savukeidas
saxicola
sc
scandens
scaphosepalum
scaphyglottis
schedul
schelpe
schiedeana
schiedeella
schilleriana
schinopsis
schlechter
schlechteriana
schlimii
schltdl
schltr
scho
schomburgkia
schott
schrankia
schrenkiana
schuit
schult
schultzei
schum
schumann
schutzgeb
schweinf
sci
scolopax
scopulorum
scriptum
scuticaria
se
sect
section
secunda
sedis
seem
seidenf
selbyana
senghas
seppa
ser
serapias
serotina
serrulata
sertifera
sessiliflora
sessilis
setosa
sherff
sheviak
short
sia
siamensis
siberia
sibirica
sicilia
sicula
sided
sieboldii
sievekingia
sigmoidea
sijm
sijmii
silvae
silvana
silverstonei
simarouba
simia
similis
simon
simplex
sin
sinensis
singapore
skeptrostachys
skinneri
slender
sloth
sloths
sm
smaragdina
smithii
so
sobralia
soc
sol
solano
sond
soo
sophora
sophronitis
sorbus
soto
south
southeast
southern
southwest
sp
spaeth
spain
sparsiflora
spathoglottis
spathulata
spec
species
speciosa
specklinia
spectabilis
sphegodes
spicata
spicatum
spilotantha
spiralis
spiranthes
spitzelii
splendens
splendida
spondias
spreng
spruce
sprucei
spruneri
squamata
squamosa
squez
ssa
ssp
st
standl
stanhopea
stapf
states
statistics
stelis
stellaris
stellata
stellilabium
stenia
stenopetala
stenophylla
stenoptera
stenorrhynchos
stereosandra
stevensonii
steyerm
steyermarkii
stimson
strelitzia
streptopetala
striata
stricta
striped
strix
strobus
stylobasium
su
sua
subfamily
subgenus
subsection
subsp
subtribe
subtribus
subulata
suc
sud
sudan
sudeste
sul
sulawesi
sulcata
sulphurea
sumatra
sumatrana
summerh
sunda
suomen
superba
superbiens
sur
surame
sw
sweet
swingle
syktnet
syktyvdincbs
sylvatica
sylvestris
sylvilagus
symplocos
syn
synonym
sysbibl
syst
szechuanica
szlach
t
ta
tabuliformis
tailed
tainia
taiwan
takım
tallgren
talpinaria
tanaka
tang
tanzania
tartu
tarvasjoki
tate
taxodium
taxon
teaguei
teerijoki
tenella
tentaculata
tenthredinifera
tenuiflora
tenuifolia
tenuis
teres
terrestris
tersch
testacea
tetragona
tetramicra
teuscheria
thailand
thailandica
the
thecostele
thelymitra
thibetanus
thiele
thomas
thouars
three
thrixspermum
thunb
thunbergia
thunia
thwaites
thylamys
tibet
tigrina
times
tipo
tipularia
tirveng
to
tod
toed
tolumnia
tomentosa
tong
torminalis
torr
torricellensis
toscano
toxicodendron
track
trans
transvaal
traunsteineri
trevoria
triandra
trias
tribe
tribus
tricephala
trichocentrum
trichoglottis
trichosalpinx
trichotosia
tricolor
tridens
tridentata
trifida
trigonidium
triloba
trilobata
trimen
trinidad
triphora
trisetella
trop
tropical
tropidia
trulla
trullifera
truncata
truncicola
tsi
tsubotae
tu
tuber
tuerckheimii
tul
turcz
turku
turun
tuyama
u
ugric
ugristarum
uliginosa
umbellata
umbilicata
umurenge
uncatum
unciferia
uncinata
und
undulata
unguiculata
uniflora
unifolia
union
united
university
upiaq
uralic
urb
urban
ursavus
ursus
urvilleana
utel
utriculata
uturere
uvaria
v
va
vaginata
valeton
valida
van
vanda
vandopsis
vangueria
vanilla
vanoverberghii
var
vares
variabilis
variegata
variegatum
varsinais
vasquezii
ve
veg
veitchii
vell
velutina
venez
venezuela
venezuelana
venosa
venusta
veracruz
verdc
verlag
verm
vernixia
vernonia
verrucosa
versicolor
version
verticillata
verticordia
vestita
vi
vietnam
vietnamensis
vii
viii
viitattu
villosa
vinacea
violacea
virescens
virginalis
virginiana
viridiflora
viridis
vittata
vo
vogel
von
vulpes
vuonna
w
wa
wageneri
wall
wallichii
wallisii
walpers
wang
wardii
wariana
warm
warmingia
warsz
warszewiczii
watson
wc
web
weber
wedd
weekly
welw
welwitschii
wendl
wenzelii
werneri
wernham
west
westc
western
white
widdringtonia
wight
wiki
wikidata
wild
will
willd
williams
williamsii
wilsonii
wissen
with
wo
wong
wood
woolly
world
writers
wu
www
x
xi
xii
xiii
xiv
xix
xls
xn
xv
xvi
xvii
xviii
xx
xxi
xylobium
y
yauaperyensis
yes
yle
yliopisto
yliopiston
ympa
yoania
york
yu
yulania
yunnan
yunnanensis
z
zambia
zelenkoa
zeuxine
zimbabwe
zinnia
zollingeri
zootrophion
zu
zucc
zygopetalum
zygostates
{
|
}
~
§
«
°
²
³
·
»
½
×
ı
ł
ə
ʼ
ˈ
ː
ˮ
̀
́
̂
̃
̄
̆
̇
̈
̉
̊
̋
̌
̓
̔
̣
̦
̧
̩
͂
ͅ
α
ε
η
και
μω
ν
ο
ς
ω
а
абсолют
абу
абуо
абхазияын
абхазму
август
авра
аврае
австралия
австралияын
австрия
авто
автобус
автобуссэз
автономия
автономно
автономного
автономныи
автореф
автотуи
агатис
агентство
адзз
адззало
адззам
адззан
адззисо
адззо
адззыл
адззыны
адрес
адресыс
адыг
адыгму
азбука
азербаи
азия
азияись
азияло
азиясянь
азияын
азияыс
азияя
аи
акант
акилов
аксе
акте
актуальные
акьюрт
аланму
але
алевтина
александр
александрович
александровна
александровчи
алексеевич
алексеевна
алексеи
алеут
алмаззэз
алнаш
алтаи
алтындаг
алфавит
альберт
альбом
альпиния
альпинияыс
альстре
аляска
аляскаись
амбулатория
америка
америкаись
америкаын
амон
амстел
амстердам
амур
ан
ана
анадолу
анань
анастасия
анатолии
анатольевна
анбур
анбурись
ангел
ангеллэз
англии
ангола
андалусия
андорра
андреевич
андреевна
андреи
андров
андронов
анкара
анна
аннона
аннонаыс
ансамбль
антипинск
антонина
анча
аныб
анькытш
ао
апостол
апрель
апреля
аптека
ар
араб
араббез
арабия
аразаи
арал
аралия
аралияыс
араукария
аргентина
аргентинаын
арестуи
аркм
аркмис
аркмисо
аркмо
аркмыны
армияын
армяна
арнас
арт
артамон
артикль
артип
артипо
артм
артмо
архангельск
археологгез
археология
архив
архивируи
архипелаг
архипов
архитектор
архитектура
арцах
ас
асалан
асвесько
асвына
аси
аскодьо
аскодя
асладор
аслам
асланым
асланыс
аслас
аслыныс
асмознаныс
аспект
аспекты
аспектын
аспиранталіс
аспирантураын
аспондасис
ассиныс
ассис
асср
ассяма
асторья
астра
астрахань
асъюралан
асъюрало
асыв
асыввыв
асыввывлань
асыввывся
асыввывсянь
асыввыл
асыввылас
асыввыло
асыввылын
асывланьо
асывланяс
ась
асьныс
асьнысо
асьс
асьсо
атлантика
атлас
атласісь
атс
афанасьев
афанасьева
афганистан
афин
африка
африкаись
африкаын
аффикссэз
ачым
ачыс
аэ
аэропорт
аястан
аяш
б
баб
бабин
бабина
багрова
баддюв
бадье
бадьо
баж
бажин
бажина
бажинаын
бажинск
бажо
база
базар
баи
баит
баитан
баитны
баито
баитіссез
баитісь
баландин
баландина
балкан
балкарму
балкач
балл
балтика
балты
баля
баляэз
банан
бангладеш
баран
бас
басни
басо
бассеи
баталова
батин
батуев
бахреи
бачев
бачман
бачмано
башкыр
башкырму
баяндин
бдін
бе
бевград
безносиков
безносов
беи
беларуссэз
беларусь
белгия
белгород
беленько
белицер
белоборск
белое
белых
бельде
белько
бергало
берго
берд
бердо
бердын
бердісь
бере
берегшордын
березовка
беринг
берлин
берн
берся
берсясо
берсятор
берсяыс
берто
бертчис
бесерман
би
библиотека
библия
билингвов
бисерова
благоев
блокланд
бо
боголюб
боевик
бои
бокситтэз
боливи
боливия
болка
больнича
большая
бондюг
бор
борина
борис
борисович
борисовчи
бормотовчи
бормотовчисянь
борнео
босна
босьт
босьтны
босьто
босьтіс
босьтісо
боталов
боталова
ботаника
боярско
бражкин
бразив
бразивын
брамовка
братислава
бритму
бритмуын
брокгауз
брунеи
брюссел
брюшнина
брянско
бу
бубдор
будапешт
будапештын
буджак
будым
буждо
букварь
букурешть
булач
бур
бура
буражык
буракодь
бурво
бурдо
буржык
буржыка
буркывья
буров
буря
бурят
бурятму
бус
буслаева
бутан
бутанын
бы
быд
быдкодь
быдлаын
быдм
быдмас
быдмассэз
быдмассэзл
быдмассэзло
быдмис
быдмо
быдмыны
быдне
быдныс
быдо
быдс
быдса
быдсо
быдт
быдто
быдыс
был
былись
быльно
быт
бытшо
бытьто
в
ва
вавидзан
вавилин
вагановчи
вад
ваддяму
вадо
вадорын
вадуц
вадыб
вадывел
важ
важгорт
важся
важъю
важын
важынся
важынсянь
важысянь
вазиристан
ваи
ваись
валеи
валентина
валерии
валлетта
вальд
вальков
ван
ванеев
ванеева
ванись
вань
ваньын
вао
вап
вар
варавва
вариант
варианттэз
вариссуо
варсинаи
варт
варшава
варыш
вас
васе
василе
василии
васильевич
васильевна
васо
вассало
вась
васька
васькин
васькина
васькингар
васюк
ватикан
вачкись
вачкисьо
вачо
ваыс
ваысло
ваэз
ваэзло
ваэзо
вв
введение
ввез
ввезо
вгтрк
ве
вевд
вевдо
вевто
вевтть
вевттьо
ведомости
веж
вежа
вежаи
вежалун
вежалуннэз
вежись
вежлась
вежласьо
вежны
вежо
вежсь
вежсьо
вежсьыл
везо
век
века
веке
веккез
веккезо
векло
векнит
веко
веков
векся
вексянь
векын
вел
велал
велало
велва
велвало
велико
великополье
вело
велпом
вельвичия
веля
венесуэла
вень
веньдін
вепс
вепсяму
вепт
вепто
вера
верд
верданін
верм
вермам
вермас
вермасьо
вермис
вермо
вермы
версия
вертюсва
вертюсваись
вертюсвасянь
вертюсваын
веруи
верх
верхнего
верховн
вершинин
весляна
весо
вестник
весым
веськ
веськал
весько
веськыт
веськыта
веськытвыв
веськытланьсянь
весьт
весьто
весьтын
вет
ветеринар
ветл
ветло
ветлыны
ветліс
ветын
вехма
веч
вешто
веществоэз
взаимодеи
ви
вид
виджо
видз
видза
видзаи
видзан
видзантор
видзанторрез
видзанін
видззез
видзис
видзисо
видзиссез
видзны
видзо
видзсьо
видлал
видын
виж
вижаи
виззез
виззя
визин
визиндор
визир
визиррез
визирыс
визывтан
визывто
визь
визьыс
вии
википедия
виктор
викторович
вилесов
вились
виль
вильгорт
вильнюс
вильса
вин
вина
винчи
вио
вир
виргинияись
вис
висер
вистина
вись
висьт
висьтавны
висьтал
висьталас
висьтало
висьтас
висьтасьо
висьттэз
висьтъяс
вит
вита
виталии
вито
вич
вичкося
вичку
вичкуись
вичкуся
вичкуын
вишера
вк
вка
вко
вкп
вл
владимир
владимирович
вланьын
власов
власти
влась
вло
внас
вня
во
воас
вовл
вовло
вовлісь
вовпа
вог
вогин
вож
вожжез
вожжес
вожыс
вожьясянгыжаэз
вои
воиннэз
вол
волга
волгадор
волгоград
волегов
волеи
волим
воло
волок
волось
волосьын
волся
воль
волькыт
волькытін
волькытінын
вомын
вомынбо
вон
воо
вопадор
вопатин
вопросу
вопросы
воробье
воронеж
воронов
восток
восточных
вося
восянь
вот
вотка
вото
вотяк
воч
воын
воыс
воысло
воэз
воэзо
воэзсянь
вояс
впом
враггез
врам
времени
время
вс
вса
всероссии
всин
вск
вско
всо
вступ
вся
всянь
всяняс
вт
вто
втюя
ву
вудж
вуджан
вуджис
вуджо
вуж
вужжез
вужжезісь
вужись
вужкыв
вужпас
вузал
вузало
вузась
вузасьо
вузасян
вузасянін
вуктыл
вулкан
вум
вун
вундало
вуно
вурд
вуровчи
вцик
вчи
вчиыс
вш
вшо
выв
вывлань
вывся
вывсянь
выл
вылас
выло
вылын
вылына
вылынао
вылынаыс
вылынаэз
вылынжык
вылынін
вылыс
выль
выльгорт
выльгортын
выльтыдор
выльыб
вылісь
вын
вына
вынва
выннэз
вынсьо
вып
выпуск
выражение
выражения
выру
выруму
выс
вье
вьетнам
вьетнамын
вятка
вяхяе
вяхяхеи
вячеслав
г
га
габов
гаврив
гаврилова
гаврук
гагарин
гагшор
гаж
гажа
гажамыс
гаждор
газ
газет
газета
газетаын
гаи
гаинчи
гаити
галин
галина
галю
галюк
галясо
гамора
гане
ганин
гантман
гари
гарри
гаръя
гва
гватемала
гватемалаын
гвиана
гвинея
гвинеяын
гг
ггез
ггесо
гда
где
гдін
ге
геббез
гедихиум
геликония
геликонияыс
генеалогия
генерал
геннадии
геннадьевна
географические
география
геология
геометрия
георгии
герман
героес
герои
герскан
герцеговина
герцена
ги
гиж
гижис
гижисо
гижиссез
гижись
гижны
гижо
гижсь
гижсьо
гималаи
гималаись
гись
гич
гишш
гишшаннэз
гл
главно
глагол
глаз
глазов
гласных
гло
го
говк
говск
год
года
годдэз
годдэзо
годо
годов
годся
годсянь
году
гожум
гожумнас
гожумся
гожумыс
гозъя
голев
голубков
гондурас
гор
гора
горадзуль
горки
горо
горов
город
городище
городско
городского
горт
гортас
гортвидзан
гортвидзаннэз
гортлу
гортлуд
гортлудын
горто
гортся
горттэз
гортын
горчаков
горькии
горько
гос
господин
государственн
государственного
государственнои
государственности
государственныи
государство
гр
гра
грабежова
гракар
грало
грамматика
грамматики
грамота
граму
графика
грезд
грездас
грезддэз
грезддэзын
грезддэзісь
грездл
грездс
грездсянь
грездын
грездыс
грездісь
гремячо
грива
григории
григорьевич
григорьевна
гризли
гришинчи
гришунь
гро
грузияын
группа
группаись
группао
грут
грэс
гсо
гу
губаха
губернатор
губернияись
губернские
губерняись
гуляев
гумагаэз
гумагэз
гурин
гурина
гуринын
гущин
гым
гын
гыр
гырись
гырисьм
гыс
гэс
д
да
дав
давпом
дагестан
даись
дак
дал
дало
дан
данмарк
данног
данным
даньшин
данямитьдор
дар
дас
даскык
дасо
дача
даын
двор
двуязычия
ддельно
ддь
ддьо
ддэс
де
девин
дедеруи
декаб
декабрь
дело
делоэз
демидовка
демин
демоскоп
деньга
департамент
депо
депутат
депутаттэз
депутаттэзл
дереванно
деревенькинаын
деревня
деревняас
деревняись
деревняс
деревняын
деревняэз
дж
джан
джанса
джеи
дженыт
дженыта
дженьыд
джепт
джиян
джо
джпом
джуджытін
джуджытіннэз
джын
джынви
джынся
джыншарын
джынын
дз
дза
дзеб
дзебо
дзебсь
дзеско
дзир
дзирдаммо
дзирыт
дзл
дзлун
дзо
дзоль
дзольгорт
дзольпальник
дзув
дзульган
дзулэя
дзыс
дзыт
дзыттэз
ди
диалект
диалекта
диалектах
диалекто
диалектов
диалектологии
диалектология
диалекттэз
диалекттэзын
диалекттэзісь
диалекттэсо
диалекты
диалектын
диалектісь
диаметрын
диахронии
дизель
дин
динчи
диплом
дипломо
диптерокарп
директор
дис
диспансер
диссертация
дит
дкоста
длап
длапо
длаын
для
дмд
дмитриевич
дмитриевна
дмитрии
дн
дна
днаись
днал
днало
днаын
дне
дно
дны
дныс
дныск
дныско
дня
до
добрянка
дод
додз
додоновчи
доз
доззэз
дозмо
дои
докл
докладов
доктор
документах
долг
долже
дом
доминикан
домовище
дон
дона
доп
дор
дорас
дори
дорись
доро
доров
доровиков
дорович
дорся
дорсянь
дорын
дорьян
доцент
доценто
дпырся
др
дракс
драма
драматург
дрофа
друг
другими
дружба
дса
дсао
дсо
дто
дтыдін
дублин
дугд
дудинка
дук
дум
дума
думаи
дурангоись
дуро
духовная
дч
дчан
дчана
дчанкыв
дчанним
дчанниммез
дчаннимыс
дчо
дъю
дъяс
дын
дынас
дыно
дынсянь
дынын
дынісь
дыр
дыра
дыржык
дыри
дырн
дырна
дырни
дыс
дысь
дысьлы
дыш
дь
ді
діасе
дік
діккез
ділаын
дін
діс
дісо
дісь
діэз
дія
е
евангелле
евгении
евдокимова
евразия
евразияын
евреи
европа
европаись
европао
европаын
египет
егор
егорович
егоровна
ее
ежаа
ез
езл
езло
екатерина
екатеринбург
елена
елизавета
елин
ема
емаэз
емва
емваль
емдін
емдінын
емен
ен
енвевт
енимахалле
енисеи
енл
ено
епанов
еремушкин
ермак
ерчи
ершова
ес
етш
етша
етшажык
етшажыко
ж
жа
жаго
жакключ
жалан
жанров
жар
жва
жваыс
ждановчи
жеребцов
живе
живые
жизни
жизнь
жо
жук
жуков
жуо
журнал
жык
жын
жыс
з
за
забган
завод
заводас
заводдэз
заводын
заводыс
загреб
заи
заказник
закаров
закаровчи
законник
законодательство
зал
занимаи
зао
заозерье
зап
записки
заполле
запольчо
запт
запто
заречье
зарни
заря
затон
заэз
звезда
зе
зеланд
зеландия
зеландын
зеленеч
земли
земство
зепта
зи
зиль
зимин
зимстан
зия
зияын
зко
зколасісь
зло
знамя
зо
зобга
зов
зовка
зон
зонка
зор
зорало
зорамис
зораммо
зорамо
зоро
зоя
зт
зто
зуа
зубов
зуи
зуло
зъя
зым
зынпом
зыряна
зырянал
зырянало
зырянао
зырянаыс
зыряне
зыряно
зыс
зысло
зэв
зэлыд
зэр
зэррез
зю
зюзьдын
зюзьдынісь
зюзьдін
зюзьдінса
зяи
и
иа
ивадор
иван
иванкова
иванов
иванович
ивановна
ивановчи
иванчина
ивашков
ивр
иврит
ивучовчи
игорь
игушев
ид
иерусалим
ижевск
ижкар
ижкарын
ижора
ижораму
из
извесь
изд
издательство
иззэз
изкар
изо
изов
израиль
изучение
изучении
изучению
изучения
изъюров
изъя
изьва
изьватас
иисус
ил
илам
или
иллича
илля
илляын
иль
ильин
ильинична
ильиных
ильич
ильче
илья
им
имбирь
именне
императив
империя
ин
инвожо
инга
ингл
инглиш
ингушму
инд
инда
индия
индияын
индокитаи
индонезия
индонезияын
индустрия
индустрияын
инжир
иннэз
ино
инско
институт
института
институтын
инта
интернат
инуит
инфинитив
информационно
инь
иньва
иньваи
иньваланьын
иньвало
иньвао
иньвенса
иньвенско
иньд
иньдо
инька
инькаэз
иньпо
инюпиак
инюпиаккез
инюпиатун
иоан
иона
ип
ипать
ир
ирак
иран
иранын
ирвел
ириссез
иркут
ирму
ирод
ирыстан
ирыштон
ис
исаев
исаков
искусство
исланд
исо
исохеи
испани
испр
исраэль
иссез
исследования
ист
истанбул
истер
истердор
истомин
истории
историко
историческая
история
историяо
исыв
исывло
ись
ит
итали
италия
италья
итальян
итальяын
итан
итас
итель
ито
итсьо
итчо
итяранта
иуда
иудеи
их
ичо
июль
июля
июнь
июня
ияли
к
ка
кабарда
кавказ
кавказісь
кага
кагыргын
кад
кадакыв
кадас
кадколас
кадо
кадров
кадсо
кадся
кадсянь
кадын
кадісь
кажым
каз
казан
казанцев
казань
казаринов
казаринчи
казах
казахстан
казе
казуарина
казьм
казьмо
казьтывсь
казьтывсьо
казьтыл
казьтыланін
казьтыло
казьтышт
казьтыштны
каи
каиафа
как
какаду
какадуэз
какскерта
кале
каледжик
каледония
каледонияын
калимантан
калинин
калинина
калининград
калиновка
калитчис
калифорния
калифорнияись
калмык
калмыкия
калмыкму
кало
калсаи
калуга
каляты
кама
камаи
камакатыт
камало
камао
камашор
камбарка
каменка
кампучия
камск
камчатка
кан
канава
канада
канадаись
канадаын
канал
каналан
канамовчи
канд
кандидат
канева
канкар
канкаррез
канкарын
канкарыс
канл
канло
канму
канмуко
канмуло
канмуо
канмуын
канмуыс
канмуэз
канна
каннаыс
кань
канюков
као
капилина
кар
кара
карагаи
карас
карасовчи
караулит
карачаево
карачаи
карбас
карбасын
каргорт
кардор
карел
карелия
кариб
карина
каринов
каринск
кариокар
карись
каркытш
каркытшло
каркытшо
каркытшшезісь
каркытшын
карл
карло
карманова
карму
кармуись
кармул
каро
карок
карокын
карп
карпина
карпов
карпом
карпоммез
карпомыс
карпунь
каррез
каррезын
карс
карск
карсянь
карта
картавыл
картасикт
картвелму
картов
карторрез
карты
карч
карчи
карчо
карчои
карчояс
карш
каршо
карын
карыс
карысло
карьяла
каспи
кассяна
касту
каталоге
катар
катыд
катыдпом
катыла
катыт
катытас
катытын
катытынжык
кафедра
кафедрао
кафедраын
качества
каын
каыс
каэз
каян
кв
квадрат
кваловчи
квать
кватьпель
квилл
квинсленд
квиррез
кг
ке
кебраты
кеж
кежо
кеи
кекур
кельмаков
кельт
кемеров
кемие
кер
керал
керан
керис
керисо
керись
керку
керкуись
керкуын
керкуэз
керкуэзын
керкуэс
керкуэсо
керло
керны
керо
кескуста
кетелеерия
кечиэрен
кечы
кжыка
кз
ки
кигиж
киев
километр
километра
киминск
кимна
кин
кинко
кио
кипарис
кипас
кипасныс
кипод
кипонісь
кипр
киров
кирпич
киршин
киссьо
кит
китаи
кишин
киын
киэз
кияса
ккез
ккиля
кл
класс
классификация
класслы
классо
классув
классын
классісь
клеи
климат
климатыс
климов
клуб
клузия
ключ
ключи
ключмыс
км
кмыс
кн
книга
книгаэз
книжн
книжное
кнц
князь
ко
кобот
ков
кова
коваль
ковсис
ковыляи
коддьо
кодзув
кодь
кодьо
кодя
кожва
кожин
кожуун
козань
козвовчи
козлов
кои
кок
кока
коккез
кокнита
кокомус
кокорина
кокушка
кол
кола
колана
колас
коласо
коласын
коласісь
колва
колис
коллектив
колна
коло
колумби
колумбия
колумбияын
колхоз
колхоззэз
колхозо
колхозын
колхозыс
коль
колье
кольо
кольть
кольчурин
кольчч
кольччас
кольччис
кольччисо
кольччо
коліс
ком
комбинат
коми
комиму
коминас
комио
комиэз
комиэзк
комиэзло
комиэзо
комиэзісь
комиэс
комиэсо
коммуна
коммунаын
коммунаэз
коммунизм
компания
комплекс
композитор
комсомол
комын
кона
конан
конго
конгресса
кондо
константин
константинович
конституция
континент
континентвывся
континентісь
контора
конф
конференции
конференция
конца
коньчи
коньшин
конюхов
коп
копса
копск
кор
кора
кореи
корея
кореяись
кореяын
корис
корись
корко
корнелиус
корны
коро
корои
короле
корпполаи
корпус
корче
корчовня
корья
коса
косинса
косинско
косинского
коски
кослан
косма
косов
косогор
коста
костарика
кострома
костус
кось
косьва
коськ
косясян
косясянын
кот
кото
котыр
котырвыв
котырись
котырло
котыро
котырув
котырын
коть
коча
кочасянь
кочаын
коче
кочевскии
кочевского
коштан
кошшо
кошшыны
коҥго
кпом
краи
краси
красиньк
красинько
красн
красно
краснобаи
красногорье
краснодар
красное
краснокамск
краснояр
красныи
краткии
края
крессяна
кривоще
кривощекова
кристос
критик
критика
крут
крутоборка
крыкале
ксан
ксу
ксян
ксяннэз
ксянын
кт
ктан
кто
кты
ктіс
ктіссез
ктіссезло
ку
куба
кубаын
кубень
кува
куваланьын
кувало
кувао
кувеи
куделька
кудым
кудымкар
кудымкарас
кудымкарись
кудымкаро
кудымкарсянь
кудымкарын
кудымов
кудяк
куж
кужо
кузакова
кузивансикт
кузнецов
кузовок
кузь
кузьва
кузьжык
кузьжыко
кузьмин
кузьминчи
кузьмо
кузьныра
кузя
кузянас
кузяныс
кузяс
кузяыс
куи
куим
куима
куимдас
куимись
куимо
кукань
кукушка
кукшун
кул
куло
культур
культура
культураын
культураэз
культуре
культурного
культурныи
культуры
куліс
кунгур
куниб
купальна
купр
купро
кур
куратов
курган
курдистан
курдюк
куркума
куро
курс
курско
курык
курья
курьяэз
кус
кустави
кут
кутш
кучев
кучева
кучик
кучикборддэз
куш
кушб
кушман
кфх
кчимдін
кыв
кываркмо
кывб
кывбо
кывбур
кывбуррез
кывбуррес
кывбуръяс
кыввез
кыввезло
кыввезлісь
кыввезо
кыввезын
кыввезісь
кывз
кывзыны
кыви
кывко
кывкуд
кывкуддэз
кывл
кывлад
кывладын
кывло
кывлісь
кывнас
кывнысо
кывс
кывсо
кывсянь
кывт
кывто
кывтуялісь
кывтыт
кывтытас
кывтытын
кывтэчас
кывтэчасын
кывчуко
кывъяс
кыдз
кыдзза
кыдззакар
кыдзи
кыдзо
кыдзпу
кыдзыс
кыз
кыза
кыи
кык
кыка
кыкдас
кыкись
кыкнан
кыкнанныс
кыко
кыксюраэз
кыкьямыс
кыл
кыло
кылын
кылыс
кылісь
кым
кымо
кын
кынмо
кыным
кынымк
кынымко
кыр
кырас
кырассэз
кыргызстан
кырныша
кыро
кырув
кыско
кыссьо
кыссян
кысъяліс
кысянь
кыт
кыта
кыто
кытч
кытчо
кытш
кытшас
кытшись
кытшко
кытшл
кытшло
кытшо
кытшшез
кытшын
кытшыс
кытшыско
кытшысло
кытшыслісь
кытісь
кыш
кышасьо
кышка
кьявик
кярсямяки
кярсямякиын
л
ла
лавка
лавкаэз
лавсте
лад
ладо
ладор
ладорас
ладорись
ладорко
ладорло
ладоро
ладоррез
ладорсо
ладорсянь
ладорын
ладорыс
лажмало
лажмыт
лажмытін
лажмытіннэз
лазарь
лаи
лан
лана
ландшафт
ландшафттэз
ланись
ланка
лань
ланьын
ланьынжык
ланяс
лаос
лап
лапо
лапсыррез
лариса
лас
лат
латвия
латин
латынь
латышева
лауреат
лб
лвел
лгария
ле
левинчи
леи
лексика
лексики
лексико
лексикология
леман
ленин
ленингр
ленинград
ленинск
лента
леонид
леспромкоз
лет
летию
летува
лецебург
ли
либо
лидия
лието
лижбон
лилия
лимерова
лингвист
лингвистика
лингвокультурологическии
липецко
лирика
лириодендрон
лисвень
лисвеньыс
листбок
лись
лит
литература
литературало
литературалы
литератураын
литературе
литературно
литературного
литературы
лихаче
лихтенштаи
лицеи
лков
ло
лоан
лоас
лоасо
лобанова
лобоз
лов
ловзь
лович
ловна
ловпу
ловпуыс
ловья
лог
лои
лоис
лоисо
лок
локас
локкез
локны
локт
локтан
локто
локтіс
локтіссез
локын
локыс
лоло
лондон
лоны
лоо
лопва
лорд
лочсаи
лудыкова
лужиков
луз
луза
луздор
лук
лукои
лун
лунвыв
лунвывся
лунвывсянь
лунвыл
лунвылас
лунвыло
лунвылын
лунвылынжык
лунланьо
лунлыддян
луннас
луннэз
луно
лунся
лунсянь
луныс
луп
лупьинса
лупья
луяввр
лы
лыа
лыаэз
лыд
лыддико
лыддисо
лыддиссьо
лыддись
лыддисьо
лыддь
лыддьо
лыддьыны
лыддян
лыддяна
лыдним
лыдниммез
лыдын
лыдыс
лыи
лым
лымо
лымыс
лын
лыны
лыс
лыса
лысиныс
лысъя
лысь
лытва
лыткин
лыткина
ль
льбаза
льбашы
льге
льгым
льдас
льдін
лькуп
лькупму
льник
льо
льсин
льто
льын
льыс
лэбо
лэбт
лэбто
лэбтыны
лэбтісьо
лэдз
лэдзан
лэдзис
лэдзисо
лэдзись
лэдзны
лэдзо
лэдзчан
лэдзчисьо
лэдзчыны
лэт
лэтка
любимов
любит
любляна
любнан
любовь
людмила
ля
лягаи
лямпаэз
лямпин
лянсикескус
ляпин
ляпинчи
лі
ліс
лісо
лісь
лісьо
м
ма
маакунта
мавак
маваков
маг
магадан
магазин
магазиннэз
магнолия
магнолияыс
мадагаскар
мадагаскарын
мадеи
маджа
мадрид
мадьяр
мадьярму
мадьярмуко
мадьярмуын
мазунина
маи
макамлыкл
макарья
македония
максаковка
максим
максимович
максимум
малаи
малакка
малая
мале
малешор
мало
мальва
мальо
мальпигия
мальта
мальцев
мальцева
мальцевгрезд
мальчов
мам
мамак
маммез
мамыс
манасты
манастыр
мандач
манси
мансии
маньси
маньсиэз
мао
мар
маранта
марапальник
мараты
марена
мари
мариа
марии
мариму
марина
марино
мариэз
мария
марокко
март
марта
мартин
мартсянь
мартти
марттила
мартын
мартынов
мартя
марфа
маршрут
маскаль
маску
масленича
маслов
массив
массиввез
мастер
мась
мат
математика
материал
материалам
материале
материаллэз
материалов
материалы
материк
мато
матын
матынжык
матісь
машень
машина
машинаэз
маэз
мая
мвыв
мд
мдоу
мдін
ме
мед
медб
медбо
медбур
медбура
медбы
медваж
медводдза
медвылын
медвылісь
медгырись
медджуджыт
медицина
медко
медкузь
медкузьо
медматын
медматісь
медодз
медодзза
медпаськыт
медпункт
медся
медт
медто
медуна
медучо
медш
медшо
медыджыт
медыджыто
медыджытыс
медылісь
межаасьо
межадор
междунар
международн
международная
международного
международнои
международным
межрегион
межрегиональнои
мезм
мезмо
мезмыт
мезозои
меи
мексика
мексикаись
мексикаын
мелекин
мелия
мельниковчи
мельнича
мелюкинск
мелюкинчи
мелюкинчиын
мелюхин
мен
менам
менчим
меным
меридиан
мерия
месопотамия
месопотамияын
места
местаын
местаыс
место
местоименне
металл
метдін
методика
методики
методист
методическ
методическое
метра
метрао
метсямяки
метшк
метшко
мехоношин
мешо
мз
ми
мидз
мижуе
мижуи
мии
миков
микола
микрораи
микув
микунь
микушев
микушева
миллион
миллионся
мин
мина
минерал
минин
министерство
министр
минск
минут
минута
минядын
мио
мионъе
мир
миронова
мирт
мирын
мис
мись
миськассьо
митровчи
митрок
митроксянь
мить
митюшсикт
митя
митяын
михаи
михаил
мича
мичм
миш
мишарин
мишпиян
мия
миян
миянл
мк
мко
млн
мм
ммез
ммес
ммесо
ммэз
мно
мо
мобильник
мобильниккез
мов
могильник
могись
модзга
можга
моз
мозын
мои
мокша
молдова
молодцов
мом
монако
монастыр
монголму
монография
мордва
мордін
море
морозов
морос
морт
мортл
морто
мортс
мортся
морттэз
мортыс
мортін
морфология
мосин
москва
москви
москвина
москвинао
москвинаын
моу
мошов
мошшез
мпика
мс
мсо
мсянь
мт
мтс
му
муас
мувевд
мувевдо
мувывтор
мувывторрез
мувывторсис
мувывторыс
мудреччез
мужик
музеи
музыка
муись
мук
муко
муло
мумераи
мун
муна
мунам
мунан
муниципал
муниципалитетл
мунны
муно
муніс
муо
мупон
мупытшся
мурм
мурман
мурмар
мурмо
муро
мусиннэз
мусир
мусо
мусюр
мусюррез
муткыльтан
муторись
мутшак
муш
мушар
мушо
муын
муыс
муысло
муэз
муэзо
муэзын
муэзісь
муэс
муэсо
мъяр
мы
мыг
мыго
мыи
мылдін
мыльк
мыля
мымда
мымдако
мын
мыр
мыртыю
мыс
мыса
мыссэз
мыссэза
мыт
мыччал
мыччалам
мыччалан
мыччало
мью
мьянма
мьянмаын
мюнямяки
мянтюмяки
н
на
над
надежда
названия
налимов
нало
нам
нантали
напалков
наречие
народ
народа
народного
народов
нарьянамар
нас
населе
населения
наследие
настоящее
насянь
нато
натьт
натьто
наук
наука
наукаын
наукаясса
науки
науч
научно
научнои
научныи
научных
национальн
национальная
национально
национальные
национальныи
национальных
нация
нач
начала
наын
наыс
наэз
ндриан
не
неб
небзьо
небо
небыд
небыт
неважын
невна
нед
недель
недерланд
недыр
нежели
нежык
некин
неко
некоторые
некоторых
некрасова
некрут
нельки
нем
немеч
немечму
немеччез
нен
нео
непал
непалын
нердва
несо
несте
нето
нефедьев
нефть
нечаев
нешоча
неыджыт
неылын
нжык
нжыка
ни
нига
ник
ника
никарагуа
никитин
никкез
николаев
николаевич
николаевна
николаи
николичи
никосия
нил
ним
нима
нимао
нимвежлас
нимкодял
ниммез
ниммезісь
ниммес
нимо
нимс
нимсо
нимсянь
нимт
нимто
нимыс
нин
нина
нинпу
нипан
ниппон
ниппонын
ниппоныс
ниппонісь
ниструсаи
ния
нко
нн
нная
нные
нныс
ння
нняс
нняся
но
нов
нова
новгорт
нови
нович
новна
новожилов
новосе
новости
новск
новчи
новыи
номинацияын
ноосе
норвег
нормируи
носим
носков
нояб
ноября
нск
нтипинск
нтипинчи
ну
нуков
нумми
нуо
нц
нчи
ны
ныв
нывка
ныись
нык
ныл
ныло
нылісь
ным
нын
ныс
нысся
нытва
нь
ньковск
ньо
ньыв
ньывпу
ньывпуыс
нью
нэм
нюжал
нюжало
нюжо
нюр
нюррез
нюрсяло
нюрьяин
нянь
няньп
няргв
няргванда
нята
ні
ніи
нісь
нія
о
оао
об
обва
обваись
обдор
обл
области
облась
обновление
образ
образование
образования
ов
оваджык
овл
овло
овм
овмо
овны
овто
ог
одань
одз
одзжык
одзза
одззася
одзись
одзлань
одзланься
одзо
одзын
одзынпукалісь
одиссеи
одыб
оз
озе
озо
озыр
ои
ок
ока
оката
океан
океаниияын
океания
океанияын
океансянь
окрисполком
окрисполкомын
округ
округа
округись
окружкомын
октасшор
октыльсорд
октяб
октября
октябся
ол
ола
олан
олано
оланін
оланінннэз
оланіннэз
оланіннэс
оле
оллез
оллезын
оло
олык
оль
ольга
ольпась
оліс
олісо
оліссез
оліссезл
оліссезло
оліссезісь
оліссес
олісь
оман
омва
омо
он
она
онас
онк
онко
онл
онлаи
онло
онлісь
оннэз
оннэзко
оннэзо
оннэзын
оннэзісь
оно
оноков
онолва
ономастика
онсис
онсо
онсянь
онтон
онтроп
оныл
онын
оныс
оньков
онісь
ооо
определения
опыт
ор
орбита
органов
орд
орджоникидзе
ордч
ордча
ордчо
ордым
оре
оренбург
орикето
орипя
орк
оро
орсан
орсаннэз
орсо
орфографическо
орфография
орхидея
оса
осе
осиповчи
основные
основоположниках
основы
особенности
особенностях
оссис
оссьо
остапова
остров
островвез
островско
осьт
осьто
осьтіс
от
отаин
отв
отва
отделения
отделенне
оте
отир
отирись
отирл
отирло
отирлісь
отиро
отиррез
отирс
отирсо
отирт
отирто
отирын
отирыс
отирысло
отс
отсавны
отсало
отсасян
отсо
отын
официал
официальн
официально
официальныи
оханн
оча
очакыв
очерк
очерки
ош
ошвидз
ошкар
ошмарин
ошшез
ошшор
ошыб
ошыбын
ошыс
п
па
павел
павк
павко
павлович
павловна
падеи
паджга
паи
пакистан
палаззя
пале
палестина
паль
палькояг
пальма
пальник
памилле
памяти
памятники
панама
панамаын
панда
панин
пання
панняшор
пансио
пантась
пантасьло
пантасьо
паныт
папуа
параи
параллель
париж
парк
парма
пармаи
партия
партиял
пару
парч
парчим
парчо
паршак
парья
пас
паси
пассэз
пасха
паськ
паськало
пасько
паськыт
паськыта
паськытаэзын
пасьта
патрук
паттинен
пахорукова
пашня
пгпу
пе
пед
педагог
педагогика
педо
педуниверситетын
пезмо
пезник
пекла
пеклаыб
пеклаыбчи
пеклаыбын
пелым
пелымтуи
пель
пельняняыб
пельо
пельш
пеля
пелідз
пелідзыс
пемыт
пенза
пенсия
пенхавн
перв
первая
перво
первоисточник
первомаи
первосвященник
первуись
перевод
перем
перемись
перемо
перемсянь
перемын
переписи
перков
перм
пермистика
пермск
пермские
пермскии
пермских
пермско
пермского
пермскои
пермь
пермяк
пермяки
пермяккез
пермяккезо
пермяков
пермяцк
пермяцкая
пермяцкие
пермяцкии
пермяцких
пермяцко
пермяцкого
пермяцкои
пермяцком
перна
перспективы
перу
перуын
перша
першин
перым
перыта
перытаыс
песне
песня
песо
пессьо
пет
петан
петас
петбор
петербург
петербургского
петк
петко
петны
пето
петр
петра
петракар
петракарын
петров
петрович
петровна
петроско
петрушин
петрыне
петук
петуко
петыковчи
петіс
петісо
печатаи
печора
пешло
пешнигорт
пешнигортын
пешнигортісь
пидаи
пижма
пикан
пикановчи
пиктовка
пилат
пилипин
пилипиннэз
пилипинын
пилипшин
пим
пин
пионер
пипу
пирканма
писатели
пистик
писто
письменности
питер
питю
пиян
пияннэз
пк
пка
план
планета
плато
пле
плешковчи
плотникова
площадка
площадь
по
повести
повесть
повесь
повзис
повзь
поволжья
погоддя
погост
под
пода
подаок
подаэз
подаэзло
подволошно
подгора
подгорица
поддя
поддяч
поддячо
подз
поди
подокарп
подразделенне
подув
подыс
подяновчи
пое
пож
пожва
пожваись
пожваын
пожваыс
пожвинск
пожо
пожовка
пожум
пожума
пожумыс
пожым
поз
позагорт
поздісь
позтыкеро
позь
позьо
позяло
пои
показателеи
покаттэз
покатын
покча
покшал
пол
полва
поликлиника
политик
политика
политикаын
полициял
положенне
получит
польска
полюс
полюты
пом
помал
помало
помаліс
помасьо
поми
помо
помсянь
помын
пон
понд
понда
пондас
пондасо
пондо
пондіс
пондісо
поннэз
пономаре
пономарева
поносов
поп
попов
попова
попугаи
пора
пори
породаэз
порошволь
порошвольо
порошвольын
порссез
порсь
порськок
порсьшыррез
порт
портал
портр
портса
португал
пос
посад
посадас
посаддэз
посаддэзын
посадму
посадмуас
посадмуись
посадмул
посадмуло
посадмулон
посадмуо
посадмуын
посадмуысл
посадмуэз
посадо
посадсянь
посадсяняс
посадын
посадыс
посадісь
посвященнои
посе
поселенне
поселок
послелог
поснит
поснитжык
пособие
поссовет
поссоветтэз
пост
потапов
поттер
похье
похьянма
поче
починок
почкина
почта
почтал
поэзии
поэзия
поэма
поэт
правленне
прага
празьник
практ
практическои
предложение
предложении
предложения
предприятие
президент
президента
президиум
премьер
преподавания
префикс
при
придаш
прие
прикамья
прилагательно
прилагательного
прилагательное
прилагательных
приложение
примере
про
проблема
проблемы
провинция
провинцияэз
прогласо
программа
программаэз
продукция
проза
прозаик
произведении
произведениях
происхождения
прокод
промзона
промысе
промышленн
проне
пронин
пронина
проньдор
проньчи
пророк
просвещение
просто
пространстве
протея
проф
профессор
процент
процесс
прошин
прошкинь
прошлое
пруд
пруддор
пруддэз
псков
пу
публикуи
пугыр
пудель
пуделя
пузым
пуись
пукал
пукало
пукаліс
пуксипи
пуксис
пуксь
пуксьо
пукт
пукто
пукты
пуктыны
пуктысь
пуктысьяс
пунегова
пункт
пункты
пуо
пуов
пуово
пурсаклар
пусто
пути
путои
путь
пушка
пуэз
пыд
пыдди
пыдо
пыдын
пыдына
пызан
пыр
пыран
пырас
пыри
пырис
пырло
пыро
пырся
пырт
пыртан
пыртны
пырто
пыртісо
пысто
пыстогова
пытшкас
пытшко
пытшкын
пычим
пышшо
пьеса
пяи
пятигор
пятина
р
ра
работе
работник
работы
равнистула
радеи
радио
радиош
радостев
раевсикт
раевскии
развитие
развития
разгорт
разин
разь
разьсис
разьсь
раи
раин
раиса
ракета
ракин
ракшина
рал
рало
ран
рапас
рас
рассыхаев
расчои
ратегова
рбия
рбияын
рва
рват
рватска
рвидзан
рд
рдеи
рдин
рдкурья
рдсе
ре
реализации
революция
регион
региональныи
регионас
регионл
регионнэз
регионын
регионісь
ред
редактор
режиссе
реи
ректан
религия
рен
реп
республик
республика
республикаись
республикако
республикало
республикао
республикаын
республикаыс
республикаэз
республике
республики
рец
речи
рзавод
ри
рига
рик
рика
рим
рин
риннэз
рино
ринсянь
риныс
рисуи
рись
рисьжык
рк
рка
ркань
рко
ркодь
ркодя
ркодяс
ркута
рлань
рланьын
рло
рлун
рлэдзо
рмо
рна
рнагора
рнас
рни
рникузя
рникузяын
рникузяэз
рникузяэзын
рнитан
рнитаннэз
рнитано
рнитор
рниторрез
рниын
рниыс
ро
ров
рогов
родановса
родановсало
роде
родина
родства
рождения
роза
рок
роль
роман
романова
ромбандеева
ромыния
рон
ронан
россии
россия
ростов
роч
рочев
рочись
рочму
рочмуас
рочмуись
рочмуын
рочо
рочов
рочсял
рочсяло
роччез
роччезк
роччезлісь
рпилитан
рпромхоз
рпункт
ррез
ррезо
ррезын
ррес
рса
рсо
рсфср
рсьо
рся
рсял
рсяло
рсянь
рсяняс
рт
ртал
рталан
ртан
ртана
ртас
ртаса
ртасын
ртасыс
ртасян
рткеран
рткеро
ртны
рто
ртпаськ
рттуи
ртч
ртышто
ртя
рті
ртісь
ртіыс
руанда
руандаись
руандаын
рубеже
рув
рувт
руд
руда
рудак
рудаэз
рудзо
руи
румынскии
руносмяки
русская
русские
русскии
русских
русско
русского
русскои
русском
рута
руч
руысло
рф
рхозл
ршор
ръя
ръяг
рын
рыс
рыссянь
рыт
рытвыв
рытвывлань
рытвывся
рытвывсянь
рытвыл
рытвылас
рытвыло
рытвылын
рытвылісь
рытнас
рытся
рья
рьяин
рьяись
рязань
рянтямяки
с
са
саам
саамму
савапиян
савво
савин
савина
савук
сад
саддэз
саи
сало
сальвадор
сальник
сам
самара
самков
само
самодии
самои
сан
санкт
санюкова
сапиндус
сапота
сар
сараево
сараи
сарамяки
саран
саранин
саранск
сарапул
саратов
саридз
саридздын
саридззез
саридзо
саридзсянь
саридзыс
саристо
саро
саров
сарчик
сас
сауд
саха
сахалин
саяс
сб
сбербанкл
сборник
сва
свадьба
свало
сваль
свао
сведения
свел
свердлов
свердловск
светлана
светлича
сво
свят
сгу
сдін
се
север
севера
севере
северно
северного
северо
сеи
сек
секвои
секов
секретар
секторрез
селения
селиш
сель
сельпо
сельпол
сельск
сельско
сельсовет
сельсоветл
сельсоветло
сельсовето
сельсоветс
сельсоветсо
сельсоветтэз
сельсоветтэзісь
сельсоветын
сельсоветісь
семановчи
семе
семен
семушин
сенинов
сентяб
сенькашор
сеня
сер
сера
серва
сергее
сергеи
сергина
серия
серкыв
серпас
серпасал
серпасало
серпаскывъяс
серти
сет
сетас
сетны
сето
сетіс
сетісо
сеши
си
сибир
сибирись
сибирын
сибо
сива
сиг
сид
сидо
сидоров
сизим
сизимо
сизов
сизь
сизьо
сикт
силаи
сили
силин
симаруба
симбир
симо
симпозиума
син
сингапур
синджан
синнэз
синтаксис
синхронии
сио
сип
сири
система
системе
сия
ск
сказуемое
скандинав
скансси
ская
сква
скваись
сквао
скваын
ские
скии
ско
ского
скои
ском
скопье
славян
сладор
сланеччез
слепо
сло
слов
слова
словак
словарь
словаря
словения
словенско
слово
слог
слугаэз
слуда
слудинчи
службаэз
случаи
см
смоленско
смолянка
смяки
снагорт
снит
сны
со
соавт
соавторстве
собрание
сов
совдор
совет
советск
советская
советско
советское
советтэз
советтэза
советтэзын
советын
совкар
современная
современного
современное
современном
современность
современные
современныи
совхоз
совхозл
согласных
сод
содо
содт
содтас
содтассэз
содто
сои
сок
соломон
солым
сомеро
сопонко
сопрон
сора
сорась
сорасьо
сорд
сордва
сорди
сорма
сосновка
сост
состав
составитель
состояние
сот
сотч
сотчан
сотчо
софия
социально
сочи
сочинении
союз
союзл
союзын
спасит
спасов
спб
специалист
спк
спорова
спорт
справочник
справочнике
справочно
ссез
сск
ссо
ссср
ссэз
ссэза
ссэзо
ссэзсянь
ссэзын
ссэс
ссянь
ст
ставрополь
стадион
сталь
стан
стандарт
станция
старича
староста
старцев
статеи
статистика
статистическии
статистических
статкомитет
статус
статуса
статья
статьяяс
ствии
ство
ствоын
ствоэз
сте
степан
степанович
степановна
степановчи
степись
стиль
стихотворения
сто
стрелитция
стречалун
стро
строганов
строгановвез
строгановых
строит
строито
строитчан
структура
структурн
су
суббота
субботин
субвид
субкотыр
субкотырись
субувтырын
субчуко
субъект
субэтнос
сувда
сувт
сувто
сувтчан
сувтчанін
суго
суд
судан
судз
судноэз
сук
сулал
сулалан
сулало
сулаліс
суматра
сумах
суоми
суомиын
сургут
суриана
суринам
сурия
суспу
суспуыс
суффикс
существительно
сфера
сферасо
сфераын
сциадопитис
сы
сыб
сыбо
сыввож
сыись
сык
сыко
сыктгу
сыктыв
сыктывд
сыктывдін
сыктывкар
сыктывкарись
сыктывкаро
сыктывкарса
сыктывкарскии
сыктывкарского
сыктывкарсянь
сыктывкарын
сыл
сылан
сылва
сыло
сылісь
сым
сын
сыо
сыс
сысольск
сыспу
сысся
сыстеровчи
сысянь
сычуань
сыын
сь
ська
сьо
сьтин
сьыл
сьыланкыв
сьыло
сьылісь
сэ
сэк
сэкся
сэксянь
сэп
сэпо
сэсся
сэт
сэто
сэтч
сэтчин
сэтчо
сэтш
сэтшо
сэтісь
сю
сюзь
сюзьпозъя
сюлько
сюра
сюраныр
сюрс
сюрсво
сюрсвоын
ся
сяло
сянь
сяняс
сяо
сідз
сідзж
сідзжо
сідзк
сідзко
сідзту
сіи
сісь
сія
т
та
таблича
таджикистан
таи
таиланд
таксофоннэз
талант
таллинн
талун
талуння
там
тамара
тамбов
тамил
тамо
тан
танзания
таннэз
танін
тар
тарабаи
тараканов
тарас
тарасовчи
тарвасъе
таров
тас
таскаи
тасманияын
тасо
тат
тато
татч
татчо
татшо
татьяна
таті
татіссез
татісь
ташка
тверь
творчество
твоя
те
театр
тебень
тезисы
текст
тексттэз
тел
телевизор
телефоннэз
тенденции
тентюков
теория
тепло
теплоухов
термин
терминнэз
терминология
термины
территория
территорияыс
террор
техника
техникум
теш
тжык
тжыко
ти
тибет
тибетын
тик
тико
тила
тима
тиман
тимин
тимина
тимор
тимофеевич
тимушев
тимшор
типа
типруш
тирана
тичок
тка
ткодь
ткодьо
ткодьыс
ткоста
тл
тла
тлаасьо
тлан
тланл
тланло
тланын
тланысло
тлао
тласа
тлаын
тло
тлыны
тліс
тлісо
тліссез
тлісь
тлісьо
тмо
тмоза
тнас
тны
то
тов
товчи
тодиль
тодильн
тодильно
ток
токо
только
том
томах
томва
томжык
томмез
топ
топиноя
топонимии
топонимическии
топонимия
топыт
топыта
топытаыс
тор
тори
торись
торлопов
торо
торок
торокан
торопов
торрез
торсо
торф
торъя
торын
торыс
торья
торьясьо
тотара
тотарму
тпо
тпыр
тпырись
тр
традиции
традиционная
традиционнои
традиция
трак
тракт
трактор
транспорт
третте
тро
тропик
трошов
трошовчи
трудов
труды
тсо
тсьо
тсянь
тт
ттамо
ттинген
ттэз
ттэзо
ттэзын
ттэс
ттэсо
ттяс
ту
тубыз
тувтор
тувтчо
туе
тузим
туи
тукаче
тукачов
тукачовск
тула
тулан
туланыс
тулыс
тулыснас
тулысодз
тулысся
тулысш
тундра
тундраын
тупицын
туримоль
туркин
турку
туркуас
туркуись
туркуын
турун
туруна
туруннэз
турунсял
турунъю
турцияын
тусяпу
тут
туялан
туяло
туяліс
туяліссез
туялісь
тч
тчан
тчанін
тчас
тчик
тчико
тчис
тчисо
тчиссез
тчиссезк
тчиссезл
тчись
тчо
тчыны
тш
тшак
тшакыле
тшакьял
тшко
тшо
тшуп
тшупо
тшыг
тъю
ты
тыашор
тыбо
тыва
тыдал
тыдалана
тыдало
тыдор
тыла
тылавыл
тымсер
тын
тыр
тыргора
тыро
тырто
тыртчо
тыс
тыш
тышкасян
тыыс
тыэз
тыэзо
ть
тэ
тэлля
тэн
тэнат
тэнчит
тэныт
тэч
тэчас
тэчо
тюмень
тюрк
тюрки
тюркия
тюркияись
тюркиял
тюркияын
тюркменистан
тюрьмаын
тянь
тяпорсикт
ті
тік
тіко
тікыс
тіс
тісо
тіссез
тісь
тісьо
у
увд
увдо
увт
увтас
увто
увтын
увтыр
увтырвыв
увтырись
увтыро
увтыррез
увтырын
увтырыс
увтісь
увья
угодде
угор
угорские
угорскии
угорских
угорского
угорское
угорскои
угроведение
угроведения
угроведов
ударник
удгу
удж
уджавны
уджаин
уджаиннэз
уджаиныс
уджал
уджалан
уджало
уджаліс
уджалісо
уджаліссез
уджалісь
уджжез
уджкерись
уджъяс
удм
удму
удмурт
удмуртму
удмуртмуын
удмуртск
удмуртскии
удмуртского
удмурттэз
удмурттэзл
удмурттэзло
удора
уезд
уездын
уездісь
ужга
узбекистан
уи
указ
уква
украина
украинса
ул
уличпом
улын
улынжык
улынін
улыс
ульянов
уляшев
улісь
ум
умо
ун
уна
унавося
унажык
унажыкс
унажыксо
унажыкыс
унаи
унаись
унакодь
унао
унапо
университет
университета
университетл
университетын
ур
урал
урала
уралистика
урало
уралісь
урасьо
урд
урдун
уржа
урман
уро
уроккез
урусвуори
урью
урьюгорт
урядник
усва
усикавпунки
усима
усис
ускар
условиях
уссе
уссури
устав
усть
усь
усько
усьо
усян
усянін
утев
уткавидз
уто
утробин
ухта
уч
участием
уче
учеб
учебно
учебное
учен
училище
учителю
учкись
учо
учхоз
ушло
уэльс
уяло
ф
фабрика
фаи
факс
факсыс
факультет
факультета
фамилле
фап
фе
февраль
февральын
февраля
федерал
федеральн
федерации
федерация
федерацияись
федерацияын
федина
федосеева
федюне
ферма
фестиваль
фестивальын
физалис
физика
филаева
филезия
филиал
филиппин
филиппова
филол
филологии
филологического
филология
фильм
фин
финанссэз
финму
финмуын
финн
финно
флагман
флорида
фольклор
фонетика
фонология
форма
формаа
формаын
формаэз
форум
фр
франс
франсузму
франсузмуын
франция
француз
функции
функционер
функционирование
функционирования
х
хабаров
хаи
хакас
хакасму
халинен
халиненын
хан
ханты
хеи
хельсинки
хем
химия
химияись
хирвенсало
хо
хозяи
хозяшев
хоккаи
хонсю
хорошев
хрестоматия
хризобаланус
христианизация
христос
христоса
христосл
художественно
хх
хяме
хіх
ц
царму
центр
цех
цивилизация
цо
цыпанов
ч
ча
чаверина
чагин
чадз
чадзо
чаи
чанкая
чаняыб
чао
час
часовенка
часовня
часть
че
чебоксары
челяба
челяде
челядь
челядьло
челядьсад
челядьыс
чердын
чердынсянь
чери
чериал
черкесму
черных
черо
ческо
чечня
чеччис
чи
чибьян
чивизгин
чигас
чикманов
чили
чилимдін
чин
чино
чинын
чирзыны
численность
числительно
чистале
чись
чит
чиуауаись
чкар
чладор
чо
чов
човъю
чодзыв
чодзыввез
чожа
чои
чомо
чомор
чоморыс
чорм
чорыт
чочком
чтения
что
чубук
чуваш
чуваши
чувашии
чувашму
чувашского
чувашскои
чувашшез
чугаев
чугаи
чудо
чудь
чуж
чужан
чужанвуж
чужис
чужмо
чужо
чук
чукачои
чукаыб
чукло
чуко
чукотка
чукыле
чукыль
чукыльшор
чукыля
чул
чулал
чулало
чуло
чунь
чурак
чусва
чут
чутоккез
чутыс
чуть
чучк
чучко
чуша
ччез
ччои
чын
чышыв
ш
шаблон
шабур
шаги
шадрин
шаи
шань
шаньшор
шапка
шар
шарволь
шаргунао
шать
шахов
шв
шваи
швед
шведму
швеи
шев
шед
шедас
шедны
шедо
шедов
шедт
шедтассэз
шедто
шедтыны
шедіс
шипичинчи
шис
шка
шкар
шкатуи
шкаэз
школ
школа
школаись
школал
школаын
школаэз
школаэзын
школьн
школьника
шлян
шляпинчи
шляпкин
шляховои
шо
шог
шогал
шогді
шогманін
шогманіннэз
шогмис
шогмо
шогья
шои
шом
шонд
шонді
шондіыс
шонто
шоныт
шоныткодь
шор
шори
шоррез
шорсаи
шорша
шорыб
шоутъярв
шоча
шочыника
шри
шт
штаттэз
штаттэзын
штиприя
што
шу
шуам
шуан
шуаннэз
шуаннэзлісь
шуас
шубашкар
шуис
шуисо
шулаи
шулак
шульга
шульгавыв
шульгаланьсянь
шума
шумилов
шуны
шуо
шусис
шусисо
шусь
шусьо
шусьыны
шуте
шучи
шы
шыладор
шыо
шыпас
шыпассэз
шыпичи
шыр
шырсьыны
шыыс
шыэз
шь
щ
ъ
ы
ыа
ыб
ыббез
ыбпом
ыв
ыввез
ыввезын
ыгыперя
ыджыд
ыджыдвидз
ыджыт
ыджытжык
ыджыткодь
ыджытшор
ыдпел
ыж
ыжда
ыждаыс
ыждо
ык
ыко
ыл
ыла
ылас
ыло
ылсіь
ылчи
ылын
ылына
ылынаын
ылынжык
ылынкодь
ылыс
ылысь
ыліпом
ылісь
ын
ыны
ыо
ырго
ыс
ысл
ысло
ыст
ысто
ысь
ысяло
ыт
ь
э
эвпоматия
эг
эгеида
эд
эжва
эжваланьын
эжвало
эжвао
эз
эзо
эи
эквадор
эквадорын
экваторсянь
экологического
экономика
экономического
эл
эллада
элладаын
эллин
элмадаг
эм
эманим
эмбур
эмо
эн
эна
эно
энциклопедия
энциклопедияын
энія
эпос
эра
эрася
эрзя
эско
эсп
эспанне
эспання
эспанняын
эст
эстму
эсто
эт
эта
этадз
этася
этасянь
этеля
этимесгут
этимология
этна
этническая
этнограф
этнографии
этнографическии
этнография
этнокультурное
этнокультурные
этнос
это
этои
эттшо
этіи
этія
эфиопия
эш
эшо
ю
юал
юан
юбилеи
юва
юг
юго
югослав
югра
югыд
югыдъяг
югыт
юдор
южно
южо
юк
юко
юковчи
юксь
юксьо
юл
юло
юль
юм
юманьсикт
юннань
юнь
юньга
юньнань
юо
юок
юоккез
юпик
юр
юра
юракыв
юрал
юралан
юрало
юраліс
юраліссез
юралісь
юралісьо
юралісьыс
юрбит
юрбитны
юрбытны
юри
юрии
юркин
юрккяля
юрла
юсаи
юсьва
юсьвадор
юсьваись
юсьваын
юсьвинск
юсьвинскии
юсьвинско
юсянь
юхнин
юшков
юыс
юысло
юэз
юэзло
юэзо
юэзісь
юэс
я
ябыр
ябыровчи
ябыровчиын
ява
яг
ягдор
яго
ягыб
ядьва
язык
языка
языкам
языками
языках
языке
языки
языков
языкознание
языкознания
язьва
язьвин
язьвинса
язьвинских
язьвинско
язье
яи
якина
яков
яковлевич
якунь
якут
якутму
якутск
якушев
якшин
якярля
ямаи
ямал
ян
январ
январын
января
янл
янс
янсало
янсо
янчер
япония
японияын
яр
яран
яране
яраннэзло
яраш
ярашъю
ярков
ярославль
ясли
ясн
ясно
ятка
і
іі
ііі
һ
ӈ
әты
ԋ
ְ
ִ
ַ
ָ
ֹ
ּ
ב
ה
י
ע
ר
ا
ٔ
ั
ิ
ี
ุ
์
‎
–
—
―
‘
’
“
”
†
•
…
‰
′
№
→
↔
↷
−
③
④
⑦
♀
♂
ⲁ
ⲣ
⺀
⺄
⺆
⺈
⺊
⺌
⺕
⺝
⺸
⺼
⿰
⿱
⿲
⿳
⿴
⿵
⿶
⿷
⿸
⿹
⿺
⿻
〢
コ
ユ
㇁
㇂
㇄
㇇
㇈
㇉
㇓
㐁
㐄
㐅
㐌
㐫
㐬
㐭
㐮
㐱
㑒
㒵
㒸
㒼
㓁
㓞
㔾
㕛
㕣
㖾
㘝
㚅
㚇
㚔
㚘
㝉
㝡
㝴
㝵
㞋
㞢
㞷
㠩
㠭
㠯
㡀
㡭
㡿
㢲
㢴
㣇
㣺
㥯
㪅
㫄
㫐
㫒
㫺
㬅
㬎
㬥
㬰
㲋
㳄
㷠
㸒
㸚
㸦
㼌
㼲
㽞
㿟
䀠
䂞
䍃
䏍
䒑
䖍
䖒
䖝
䖵
䙴
䚻
䜌
䝿
䡛
䧹
䪞
一
丁
丂
七
丄
丅
丆
万
丈
三
上
下
丌
不
与
丏
丐
丑
专
且
丕
世
丘
丙
业
东
丞
丢
丣
两
严
並
丨
丩
个
丫
丬
中
丮
丰
丱
串
丵
丶
丷
丸
丹
为
主
丽
丿
乀
乂
乃
久
乆
乇
么
义
之
乌
乍
乎
乏
乐
乑
乔
乖
乗
乘
乙
乚
乛
乜
九
乞
也
习
乡
乳
乾
亀
亅
了
亇
予
争
事
二
亍
于
亏
亐
云
互
亓
五
井
亘
亚
亜
亞
亟
亠
亡
亢
交
亥
亦
产
亨
亩
享
京
亭
亮
亯
亰
亲
亳
亶
亷
人
亻
亼
亾
仁
今
介
仌
从
仐
仑
仒
仓
仕
他
付
仝
代
令
以
任
企
伊
伏
伐
休
会
伯
但
位
何
佘
余
作
佥
使
來
侈
侌
侖
侯
侵
便
保
俞
信
修
倉
倍
候
倠
備
僉
僕
儿
兀
允
兂
元
兄
充
兆
兇
先
光
兊
克
兌
免
兑
兒
兓
兔
党
兜
兟
入
全
兩
兪
八
公
六
兮
兰
共
关
兵
其
具
典
兹
兼
冀
冂
冃
冄
内
冈
冉
冊
冋
册
再
冎
冏
冐
冒
冓
冖
冗
冘
军
农
冝
冡
冥
冫
冬
冷
几
凡
凢
凵
凶
凷
凸
凹
出
函
凾
刀
刁
刂
刃
刄
刅
分
切
刍
刑
刕
刖
列
刘
则
初
別
利
别
到
制
刺
則
削
剌
前
剡
剽
劉
力
功
加
劦
助
劫
劳
劵
勃
勇
勉
勒
動
務
勞
勤
勹
勺
勻
勾
勿
匀
匂
包
匆
匈
匊
匋
匍
匕
化
北
匚
匝
匡
匪
匱
匸
匹
区
医
匽
匿
區
十
卂
千
卄
卅
卆
升
午
卉
半
卌
华
卑
卒
卓
单
卖
南
卜
卝
卞
占
卡
卢
卣
卤
卦
卩
卪
卬
卯
印
危
即
却
卵
卷
卸
卻
厂
厃
厄
历
厈
厉
厌
厓
厘
厚
原
厤
厥
厨
厭
厲
厶
厷
厸
去
厼
厽
叀
参
參
叅
又
叉
及
友
双
反
叐
发
叒
叔
叕
取
受
叚
叜
叟
口
古
句
另
叩
只
召
可
台
叱
史
右
叵
号
司
叹
吂
各
吅
合
吉
吊
吋
同
名
后
吏
向
吕
君
吝
吞
否
含
启
吳
吴
吹
吾
呂
呆
呈
告
员
呙
周
命
咅
和
咎
咠
咢
咨
咸
咼
哀
品
哉
員
哥
哲
唐
商
啇
問
啚
啬
啻
善
喜
喬
單
喿
嗇
噩
嚴
囊
囗
囘
囙
囚
四
回
囟
因
囧
囬
困
囱
囷
固
国
圂
圅
國
圍
圓
土
圡
圣
圥
在
圭
地
圶
圼
坐
坒
坚
坴
垂
垔
垚
埀
埋
埶
執
基
堂
堅
堆
堇
堯
塞
墨
壘
士
壬
壯
声
壳
壴
壹
壺
壽
夂
处
夅
夆
备
夊
夋
夌
复
夏
夒
夕
外
夗
夘
多
夜
夢
大
夨
天
太
夫
夬
夭
央
失
夲
头
夷
夸
夹
夻
夾
奂
奄
奇
奈
奉
奎
奏
奐
契
奓
奔
奚
奞
奠
奢
奥
奭
女
奴
奻
好
如
妄
妙
妟
妥
妻
妾
姑
委
姜
威
娄
婁
婴
嬰
嬴
子
孑
孔
孕
孖
字
存
孚
孛
孝
孟
季
孤
学
孫
孱
學
宀
宁
宂
它
宅
宇
守
安
宋
完
宏
宓
宗
官
定
宛
宜
宝
客
宣
室
宮
宰
害
家
容
宾
宿
寄
寅
密
富
寒
察
寧
審
寫
寬
寮
寸
对
寺
寻
寽
対
寿
封
尃
射
将
將
專
尉
尊
尋
尌
對
小
少
尒
尓
尔
尖
尗
尚
尞
尢
尣
尤
尧
尨
尭
就
尸
尹
尺
尻
尼
尽
尾
尿
局
居
屈
屋
屎
屏
屑
展
屖
屚
属
屠
屡
屬
屮
屯
屰
山
屵
屾
岁
岂
岑
岡
岩
岳
岸
峯
島
崇
崑
崔
崖
崙
崩
嵬
嶲
巂
巛
川
州
巟
巠
巢
巤
工
左
巧
巨
巩
巫
差
己
已
巳
巴
巷
巸
巽
巾
巿
帀
市
布
希
帚
帛
帝
带
師
席
帶
常
干
平
年
幵
并
幷
幸
幺
幻
幼
幽
幾
广
広
庄
床
底
店
庚
府
度
庫
庭
庶
康
庸
廉
廌
廛
廣
廩
廴
延
廷
建
廾
廿
开
弁
弃
弄
弇
弋
式
弓
弔
引
弗
弘
弜
弟
弥
弦
弱
張
強
强
彊
彌
彎
彐
彑
当
彔
录
彖
彗
彡
形
彥
彦
彧
彭
彳
役
彼
往
待
律
徒
得
徙
從
復
微
徵
心
忄
必
忌
忍
志
忝
忠
忩
快
念
忽
忿
思
怠
急
怱
恆
恒
恩
恭
息
悉
患
悤
悲
悶
惠
惡
惢
愁
愈
意
愛
感
慈
慧
慮
憂
憲
應
戀
戈
戉
戊
戋
戌
戍
戎
成
我
戒
戔
或
戚
戠
戢
截
戲
戶
户
戹
戼
戾
房
所
扁
扇
手
扌
才
打
托
执
承
折
拉
拜
拿
掌
推
提
摩
支
攴
攵
收
攸
改
放
政
敄
敏
敕
敖
敗
敝
敞
敢
散
敦
敫
敬
数
敷
數
斂
文
斉
斊
斗
斤
斥
斩
斬
斯
新
方
於
施
斿
旁
旋
族
无
旡
既
旣
日
旦
旧
旨
早
旬
旱
旲
时
旾
昆
昇
昌
昍
明
昏
易
昔
昗
昜
星
春
昬
是
昱
昴
昷
時
晃
晋
晏
普
景
晶
智
暑
暴
曇
曩
曰
曲
曳
更
曷
書
曹
曼
曾
替
最
朁
會
月
有
朋
服
朔
朕
朗
望
朝
木
朩
未
末
本
札
朮
术
朱
朵
朶
朿
杀
杏
杜
束
条
来
東
杲
杳
松
析
林
枚
果
枝
枲
枼
某
柔
查
柬
柰
柴
栗
桀
桑
桼
梁
條
梟
梨
棘
棠
棥
森
楚
業
楽
榮
樂
樊
橋
欠
次
欣
欮
欲
欶
欽
款
歆
歇
歛
止
正
此
步
武
歨
歪
歮
歯
歰
歲
歴
歷
歸
歹
歺
死
殳
段
殷
殸
殹
殺
殻
殿
毋
毌
母
每
毒
比
毕
毚
毛
毳
氏
氐
民
气
氣
水
氵
氶
氷
永
氺
氾
求
汝
汞
江
沃
沓
沙
沝
泉
法
波
泣
泥
泰
洛
洪
活
派
流
浦
浪
浮
海
淡
淮
清
渚
渠
湯
滿
漸
火
灬
灭
灰
灵
灷
炅
炎
炏
炗
炙
炭
為
烈
烏
烝
焉
無
焦
焱
然
煞
熊
熏
燕
營
燮
爪
爫
爭
爯
爰
爱
爲
爵
父
爻
爽
爾
爿
片
牙
牚
牛
牜
牟
牢
牧
牪
牽
犀
犬
犭
犮
狂
狄
狊
独
狺
猋
猒
猪
献
獻
玄
率
玉
王
玟
玨
珎
班
琴
瑟
瑩
瓜
瓦
甘
甚
生
産
用
甫
甬
田
由
甲
申
电
甶
男
甸
甹
画
甾
畀
界
畏
畐
留
畜
畟
畢
畧
畨
番
畫
異
畱
當
畺
畾
疊
疋
疌
疑
疒
疾
癶
癸
癹
登
發
白
百
皀
皃
的
皆
皇
皋
皐
皕
皮
皷
皿
盃
盆
盇
盈
益
盍
盎
监
盒
盖
盛
盡
監
盤
盧
目
直
相
盾
省
眇
眉
看
眔
眞
真
眷
眼
眾
着
睘
睪
睿
瞏
瞢
瞿
矍
矛
矞
矢
矣
知
矦
短
石
破
碎
磊
磨
示
礻
礼
祟
票
祭
禀
禁
禸
禹
禺
离
禽
禾
禿
秀
秃
秉
秋
科
秝
秦
移
稟
穀
穌
穴
究
穹
空
穿
突
窄
窒
立
竒
竜
竝
竟
章
童
竹
笑
笠
筆
等
答
箕
算
箴
節
篤
篭
米
粉
粛
粟
粤
粦
粲
糞
糸
糹
系
約
納
素
索
紫
累
細
絜
絫
絲
維
綿
縣
繇
纍
纟
缶
网
罒
罔
罕
罗
罙
罡
罢
罪
署
罷
羅
羊
羌
羍
美
羔
羕
羗
羞
羡
羣
群
義
羲
羸
羽
翁
翏
習
翕
翟
翠
翼
老
耂
考
者
耆
而
耎
耑
耒
耳
耴
耶
耷
聂
聊
聖
聚
聶
聿
肀
肃
肅
肉
肖
肙
肥
肩
肯
育
肴
胃
背
胡
胥
能
脊
脩
膚
臣
臤
臧
自
臬
臭
臯
臱
至
致
臺
臼
臽
臾
臿
舀
舂
舄
與
興
舉
舌
舍
舛
舜
舞
舟
般
艮
良
色
艸
艹
艾
芒
芔
芬
芮
花
芳
芺
芻
苔
苗
苟
若
苦
英
茶
茸
荅
草
荒
荣
荼
莆
莧
莫
莽
菆
菊
菐
華
萬
落
葉
著
葛
董
葵
蒙
蒦
蒼
蓋
蓬
蓺
蔑
蔡
蕉
蕭
薄
薛
薦
薰
藍
藏
藥
蘭
虍
虎
虐
虒
虔
處
虖
虗
虘
虚
虛
虜
虞
虫
虽
蚤
蚩
蜀
蜜
蟲
蠡
血
行
衍
衛
衣
衤
表
衮
衰
袁
袞
褭
褱
襄
襾
西
覀
要
覃
見
規
覓
覧
親
覽
见
角
解
言
訁
訇
計
詹
誩
諸
讠
谷
豆
豈
豊
豐
豕
豖
豙
象
豦
豩
豪
豸
貇
貝
貞
貟
負
貢
貧
貪
貫
責
貳
貴
買
費
賁
資
賈
賏
賓
賔
賛
賞
賢
賣
質
賴
贊
贝
贡
责
贯
贲
贵
赖
赞
赤
赦
走
越
足
路
蹇
身
躬
車
軍
軎
軟
輦
车
辛
辜
辟
辥
辰
辱
農
辵
辶
边
达
过
近
连
迷
追
退
送
逆
逐
通
速
造
逢
連
逮
進
遀
遂
過
道
達
遣
適
遷
遺
邊
邑
邕
那
邦
邪
郎
部
郭
都
鄉
酉
酋
配
酓
釆
采
里
重
野
量
金
釒
錢
钅
長
镸
长
門
閃
閉
開
閏
閑
閒
間
閔
閵
閻
闌
门
间
闷
阑
阜
阝
阿
降
陳
隆
隊
隋
隡
隨
隱
隶
隹
隺
隻
隼
隽
难
雀
雁
集
雈
雋
雍
雐
雔
雙
雚
雜
雝
離
難
雨
雩
雪
雲
零
雷
需
霍
霜
霝
霞
霸
靈
靑
青
非
靡
面
靣
革
韋
韦
韭
韯
韱
音
頁
頃
項
須
頗
頡
頻
顛
页
風
风
飛
飞
食
飠
養
饣
首
香
馬
馮
駦
马
骨
高
髟
鬥
鬯
鬲
鬼
魚
魯
鮮
鱼
鲁
鳥
鳳
鸟
鹵
鹿
麃
麗
麥
麦
麻
黃
黄
黍
黎
黑
黒
黨
黹
黽
黾
鼎
鼓
鼠
鼻
齊
齋
齐
齒
齿
龍
龙
龜
龟
龠
龰
龱
龴
龵
龶
龷
龸
龹
ꚏ
者
艹
？
𠀁
𠀃
𠀆
𠀉
𠀎
𠀐
𠁁
𠁣
𠂆
𠂇
𠂈
𠂉
𠂊
𠂋
𠂎
𠂒
𠂔
𠂛
𠂡
𠂢
𠂤
𠂬
𠂭
𠂹
𠃊
𠃋
𠃌
𠃍
𠃎
𠃑
𠃓
𠃔
𠃜
𠄌
𠄎
𠄠
𠄢
𠆢
𠆥
𠇍
𠈌
𠌵
𠓜
𠔉
𠔥
𠔼
𠔽
𠔿
𠕀
𠕁
𠕋
𠘧
𠘨
𠙻
𠙼
𠚏
𠚒
𠚤
𠚪
𠣏
𠤎
𠤕
𠥓
𠦄
𠦑
𠦝
𠧒
𠧗
𠧪
𠩺
𠪚
𠫓
𠫔
𠫤
𠬛
𠬝
𠬞
𠬢
𠬤
𠬶
𠮛
𠮦
𠮷
𠯑
𠱠
𠳮
𠷎
𡈼
𡉀
𡉵
𡌥
𡍮
𡏳
𡕒
𡕩
𡕰
𡖅
𡗗
𡗜
𡘆
𡘤
𡧱
𡨄
𡩧
𡬠
𡭽
𡰣
𡰥
𡰪
𡰯
𡰱
𡷈
𡸁
𡿨
𡿩
𡿪
𡿺
𢀖
𢀛
𢀩
𢁙
𢆉
𢆰
𢆶
𢇁
𢇇
𢉖
𢌬
𢌿
𢏚
𢑑
𢑚
𢖻
𢙣
𢛳
𢦏
𢦒
𢧵
𢼄
𢾕
𣁋
𣄼
𣅀
𣅽
𣍘
𣎳
𣎵
𣏋
𣏼
𣗥
𣥂
𣥖
𣦵
𣦼
𣧄
𣪊
𣪠
𣬉
𣳾
𣶒
𤇾
𤊽
𤐫
𤓰
𤔔
𤕨
𤣩
𤰇
𤰔
𤰞
𤴓
𤴔
𤽄
𥁑
𥁕
𥃦
𥃩
𥃭
𥇡
𥑟
𥘅
𥘈
𥝢
𥫗
𥱡
𦈢
𦉪
𦉬
𦉼
𦍌
𦍒
𦎧
𦐇
𦓔
𦔮
𦘒
𦙃
𦚏
𦣝
𦣞
𦣻
𦥑
𦥔
𦥯
𦨉
𦭝
𦰩
𧆞
𧈧
𧘇
𧰨
𧴪
𧴮
𧵩
𧾷
𨸏
𨾴
𩙿
𩠐
𩫏
𩵋
𪉷
𪜀
𪟽
𪠲
𪩲
𫇦
𫔭
𫜸
𫝀
𫠣
𫠩
𫢉
𫥞
𫩏
𫩠
𫪡
𫲽
𫶧
𬀷
𬐘
𬗌
𬙙
𬛸
𬜯
𬟩
𬯁
𬴘
𬺻
𬼉
𬼖
𭀰
𭁈
𭁨
𭅰
𭑈
𭕄
𭗼
𭤨
𭥫
𭻾
𮅕
𮊿
𮍌
𮍏
𮓗
𮥼
𮧮
廾
𰀁
𰀄
𰀈
𰀉
𰀕
𰀠
𰀡
𰀢
𰀪
𰁜
𰃮
𰆊
𰆘
𰋙
𰕎
𰢴
𰧭
𰯲
16--
61--
83--
a--
ac--
acu--
acut--
acuti--
ai--
ailu--
ak--
al--
ala--
alek--
alex--
alt--
alue--
ama--
ambr--
an--
anf--
ang--
angu--
angustif--
ant--
anth--
ar--
arc--
arto--
as--
ascoch--
atra--
au--
aust--
ay--
b--
ba--
be--
benz--
ber--
bhu--
bi--
bical--
bis--
bl--
bo--
br--
brac--
brach--
brachy--
braz--
bre--
brevi--
brie--
bu--
bulbophyl--
c--
ca--
cae--
cal--
calce--
cali--
calli--
calypt--
cam--
campa--
can--
cana--
cap--
capa--
car--
card--
caro--
cata--
cath--
cau--
ceri--
ch--
chaco--
chapa--
chlo--
chry--
cinna--
cle--
co--
col--
cole--
con--
cor--
cornicu--
cornu--
crassi--
cre--
cri--
cruci--
cu--
cucume--
d--
da--
de--
decu--
dem--
di--
dich--
digi--
dis--
discho--
distic--
do--
dolic--
dom--
du--
e--
ecal--
ecuado--
el--
ele--
em--
en--
ensif--
eri--
et--
euphron--
ex--
f--
fal--
fau--
fe--
ferdin--
fern--
fi--
fin--
fl--
fla--
flam--
fo--
fra--
g--
ga--
ge--
gem--
glandu--
glo--
glos--
go--
goup--
gra--
grac--
gram--
gre--
gu--
h--
ha--
hal--
has--
he--
hel--
hen--
hi--
ho--
hol--
hon--
hu--
hy--
hyd--
i--
ig--
il--
im--
in--
inc--
int--
inte--
io--
is--
j--
ja--
je--
jesup--
jo--
johan--
john--
ju--
k--
ka--
kar--
kartta--
kau--
kaŋ--
kes--
ki--
kle--
ko--
kot--
ku--
kun--
l--
la--
lance--
las--
lat--
lau--
law--
le--
len--
lepi--
li--
linearif--
lit--
lo--
longi--
longip--
lu--
luzu--
m--
ma--
maa--
mac--
macro--
magni--
mal--
man--
marsup--
mat--
me--
mel--
mela--
men--
merid--
micro--
microch--
minu--
mo--
mono--
mont--
mu--
mut--
n--
na--
ne--
necta--
neo--
nig--
no--
ny--
o--
odo--
on--
or--
osm--
p--
pa--
pachy--
pal--
pandu--
pap--
papu--
pau--
pe--
per--
perpl--
pet--
pfl--
pilea--
pin--
platy--
pleurot--
po--
pol--
poly--
por--
porphy--
pos--
pra--
pri--
pro--
pseudo--
psittac--
pu--
punc--
pus--
py--
quadri--
quii--
r--
ra--
rad--
rau--
re--
rec--
reh--
rest--
rhodo--
rhom--
rhyncho--
ri--
ro--
rost--
ru--
rubi--
rus--
s--
sa--
sac--
san--
sc--
sca--
sch--
schmidt--
scopu--
se--
see--
sel--
ser--
seu--
si--
sil--
silve--
sk--
slo--
so--
sp--
spat--
spathu--
spi--
st--
ste--
steno--
stipu--
su--
sub--
subc--
suo--
surin--
sw--
sy--
t--
ta--
tar--
tau--
tay--
te--
ten--
tenui--
tho--
ti--
to--
tor--
tri--
triangu--
tru--
tu--
u--
ugri--
un--
ur--
va--
vasc--
ve--
vent--
vi--
vic--
vil--
vo--
w--
wa--
wi--
wol--
xantho--
y--
ya--
ye--
z--
τ--
а--
аб--
абра--
авс--
агро--
ад--
адз--
ал--
алжир--
али--
аль--
аме--
ан--
андр--
анто--
антро--
анц--
апенн--
ар--
ара--
арах--
арт--
ас--
аса--
аско--
асп--
асфа--
асыв--
ась--
атмо--
ах--
ациан--
аш--
б--
ба--
бал--
баль--
бар--
бара--
бас--
бе--
без--
бен--
би--
биобиб--
бо--
бра--
бу--
бул--
бур--
бы--
быд--
в--
ва--
важ--
ван--
вас--
вач--
ваш--
вая--
вв--
ве--
веж--
вен--
виз--
вит--
виф--
вл--
во--
все--
ву--
вур--
вы--
выв--
г--
га--
гал--
галакти--
гале--
ге--
геор--
гер--
ги--
гин--
го--
гон--
гор--
гос--
гр--
грамматиче--
греш--
гри--
гу--
гы--
д--
да--
дас--
дд--
де--
деле--
дж--
дз--
дзель--
ди--
до--
дор--
др--
древ--
дрес--
дуб--
дур--
ді--
е--
евге--
евро--
ед--
ель--
ен--
епис--
ж--
жа--
жи--
жу--
жуг--
з--
за--
заимство--
заслуж--
зах--
зи--
зко--
зо--
зыр--
и--
иа--
из--
ил--
им--
ин--
инте--
ину--
ио--
ир--
ис--
ит--
ита--
к--
ка--
када--
кал--
кали--
кам--
кан--
кар--
каст--
ката--
каш--
кв--
ке--
кеб--
ки--
кис--
кл--
ко--
кое--
кок--
ком--
кон--
кор--
кот--
кох--
кр--
краеве--
кри--
крип--
крох--
кт--
ку--
кула--
кыв--
кык--
кыс--
кю--
л--
ла--
лабора--
ле--
лек--
лес--
ли--
ликв--
ло--
лог--
лон--
лу--
лун--
лупь--
лы--
лыд--
лым--
ль--
лэп--
лю--
ля--
лі--
м--
ма--
мам--
ман--
мар--
ме--
мед--
меж--
мер--
ми--
мик--
микро--
мил--
мо--
мон--
моно--
моше--
мс--
мт--
му--
мыр--
мысов--
мыч--
н--
на--
наимено--
нар--
нач--
не--
нео--
ни--
ниж--
ник--
ним--
нн--
но--
нов--
нор--
ну--
ны--
нь--
ню--
нюр--
ня--
о--
об--
общ--
оз--
ок--
окруж--
ол--
оп--
опера--
ор--
орга--
ос--
осм--
ось--
от--
ох--
охот--
ош--
п--
па--
пал--
памят--
пан--
панта--
пар--
парла--
пас--
пах--
пе--
пед--
пель--
пер--
пеш--
пи--
пир--
писа--
пихла--
плат--
по--
пого--
под--
пол--
поро--
пос--
правоп--
праз--
пре--
при--
про--
пси--
пу--
пыр--
пыш--
пят--
р--
ра--
рав--
раз--
рас--
рд--
ре--
рест--
реч--
ри--
рни--
ро--
рт--
рто--
ру--
руд--
с--
са--
саж--
сар--
сарко--
се--
сек--
семантиче--
си--
сик--
сим--
син--
синтаксиче--
ск--
сказ--
сказуе--
скульп--
см--
сме--
со--
соб--
соба--
совре--
согл--
сол--
соли--
сор--
сора--
софр--
сп--
спец--
спут--
ст--
ста--
стра--
сту--
студен--
су--
суб--
сыс--
сь--
сю--
сюр--
ся--
січи--
т--
та--
так--
тар--
татар--
те--
теа--
теле--
тер--
терри--
тех--
ти--
тла--
то--
том--
тр--
традици--
тре--
триго--
триф--
тт--
ту--
тун--
тур--
тч--
ты--
тэч--
ті--
у--
удж--
ули--
уна--
уни--
упраж--
уч--
участ--
уя--
ф--
фа--
фал--
фе--
федо--
фило--
фин--
фир--
фоне--
фонети--
фор--
фото--
фр--
х--
ха--
хали--
хар--
хас--
хо--
хрисо--
худ--
художест--
ц--
це--
цера--
цефа--
ч--
ча--
че--
чер--
чи--
чле--
чу--
ш--
ша--
шама--
шан--
шар--
шен--
шом--
шор--
шоч--
шу--
ще--
щерба--
ы--
ыб--
ыв--
ыс--
ытш--
э--
эв--
эд--
эз--
эква--
эл--
эле--
элект--
эм--
энци--
эри--
эск--
этно--
ю--
юас--
юг--
юк--
юр--
юсва--
я--
явл--
яг--
яки--
ян--
і--
--0
--1
--2
--3
--4
--5
--6
--7
--8
--9
--a
--abia
--acea
--aceae
--achya
--ae
--ag
--ala
--alum
--am
--an
--ana
--anaceae
--anica
--anii
--ans
--anum
--apa
--ar
--ara
--aris
--at
--ata
--atum
--atus
--ax
--b
--ba
--bia
--bula
--bum
--c
--ca
--can
--capa
--cc
--ce
--cea
--ceae
--ceps
--ceras
--ceum
--ch
--chii
--chila
--chilus
--ci
--cina
--ck
--co
--cosa
--cosum
--cta
--cts
--ctum
--ctus
--ctyla
--culata
--culatum
--cık
--d
--da
--dae
--data
--dia
--dii
--ds
--dum
--e
--ea
--eae
--eana
--ed
--ei
--ele
--en
--ena
--enii
--enopsis
--ens
--ense
--ensii
--ensis
--epala
--er
--era
--eri
--es
--esii
--estris
--et
--eum
--ey
--eyi
--ez
--f
--fera
--florus
--g
--ge
--gera
--gii
--go
--gus
--h
--he
--hi
--hii
--hiza
--hl
--i
--ia
--iae
--iana
--ianum
--ic
--ica
--ich
--ick
--icola
--icum
--ides
--iella
--iensis
--ifera
--ii
--ima
--imum
--in
--ina
--inosa
--inum
--io
--ioides
--is
--isen
--ita
--ium
--iz
--j
--ja
--k
--ka
--ke
--l
--la
--lan
--lata
--le
--lea
--lg
--li
--lia
--lii
--lis
--lla
--llia
--lm
--lo
--lum
--lus
--ly
--m
--ma
--mae
--man
--mbi
--me
--mi
--mis
--ms
--n
--na
--naceae
--nae
--nalis
--nd
--nda
--ndr
--ne
--nea
--ner
--ng
--ni
--nia
--nica
--niceps
--nicola
--nicum
--nicus
--nii
--nn
--ns
--nsa
--nsis
--nt
--nta
--ntha
--nthum
--nthus
--num
--nus
--nyx
--o
--oba
--obum
--ochila
--ochilus
--oi
--oides
--ola
--omi
--on
--ophila
--ophora
--opsis
--or
--orii
--orum
--os
--osa
--osum
--otii
--p
--pa
--pala
--pe
--pes
--petala
--phila
--phora
--phylla
--phyllum
--pii
--pis
--ps
--psis
--r
--ra
--rae
--rata
--rchis
--rctos
--re
--rea
--ri
--ria
--rii
--rina
--ris
--ro
--roi
--rpa
--rs
--rt
--rum
--rus
--ry
--s
--sa
--se
--sh
--si
--siana
--siensis
--sii
--sima
--sis
--sma
--ssk
--ssum
--stum
--sum
--sus
--t
--ta
--tae
--tan
--tans
--te
--tea
--ten
--tensis
--ter
--tes
--tha
--thus
--ti
--tia
--tii
--to
--tor
--trum
--tti
--tum
--tus
--tzii
--uata
--uca
--udata
--ue
--uensis
--ulata
--ulis
--ulum
--um
--us
--usa
--v
--w
--x
--xa
--y
--ya
--yi
--ylis
--yx
--z
--za
--zi
--zii
--ι
--υ
--а
--ав
--авл
--авны
--ад
--аи
--аин
--аись
--ал
--ало
--алум
--аль
--аліс
--ам
--ан
--ана
--анне
--аннез
--антера
--аныс
--аньын
--ао
--ар
--ас
--асо
--ат
--ах
--аш
--аын
--аэз
--ая
--б
--ба
--башы
--бус
--в
--ва
--ве
--вез
--веи
--вич
--вл
--вны
--во
--вья
--г
--га
--ге
--ген
--гер
--герия
--ги
--гия
--го
--гов
--гон
--д
--да
--ддэз
--деев
--дес
--джык
--дз
--дия
--дра
--дрия
--ды
--дэз
--е
--еа
--ев
--ева
--евна
--егов
--еев
--еелла
--езия
--еи
--ек
--еле
--елла
--ель
--ем
--ен
--ение
--ения
--енне
--ент
--ер
--ере
--ерия
--ес
--есия
--ескии
--етия
--еч
--ея
--ж
--жаи
--жд
--жез
--жес
--жжез
--жи
--жн
--жно
--жык
--з
--за
--зе
--зи
--зь
--и
--иб
--ив
--ие
--иелла
--иеми
--изация
--изируи
--ии
--ик
--ика
--ико
--им
--ин
--ина
--ируи
--ис
--ист
--ись
--ит
--иум
--ица
--иция
--ич
--ическ
--ическии
--ия
--ияын
--к
--ка
--ке
--кез
--керан
--ки
--кина
--ко
--ков
--кодь
--кс
--ксис
--кция
--л
--ла
--лань
--лао
--ле
--лев
--лея
--ли
--лис
--лия
--лла
--ллез
--ллия
--ло
--лу
--лум
--лун
--ль
--льн
--лья
--лэз
--ля
--лісь
--м
--ма
--мби
--мез
--мес
--ми
--мит
--мо
--му
--мы
--мяки
--н
--на
--нал
--нас
--ная
--нгис
--ндрон
--не
--нез
--ние
--нии
--ник
--ния
--нне
--ннэз
--но
--ное
--нои
--ном
--ность
--нск
--нт
--нта
--нте
--нтес
--ны
--ные
--ныи
--ныс
--нысо
--ныт
--ных
--нь
--нэз
--нэс
--нэсо
--ня
--о
--ов
--ова
--ование
--ович
--овка
--овна
--ого
--ода
--ое
--ои
--ок
--ом
--ома
--он
--онимика
--оп
--опсис
--орхис
--ос
--ота
--п
--па
--палум
--пез
--пи
--по
--пов
--ппез
--псис
--р
--ра
--рафии
--ре
--рева
--рез
--рес
--рис
--рия
--ро
--ропсис
--рохилус
--рт
--рхис
--ры
--рыс
--ря
--с
--са
--се
--сес
--сис
--ск
--ские
--скии
--ских
--ско
--со
--сс
--сса
--ссум
--ст
--ства
--сти
--сть
--сун
--сы
--сь
--сьо
--сэз
--сэзо
--ся
--сян
--сянь
--сянін
--т
--та
--те
--теи
--тес
--ти
--тив
--тика
--тис
--тиум
--тия
--то
--ттис
--ттия
--ту
--тум
--тус
--ты
--ть
--тьев
--тэз
--тэс
--тэсо
--ті
--у
--уи
--ул
--ула
--ум
--ур
--ус
--ф
--филлум
--фия
--х
--ха
--хилус
--хин
--хис
--хья
--ц
--ца
--цедрус
--ции
--ционные
--ция
--цов
--ч
--ча
--чез
--чи
--чис
--чн
--чно
--чных
--чо
--чч
--ш
--ша
--шин
--шк
--шо
--шор
--ще
--ъе
--ъя
--ъяс
--ы
--ыб
--ывл
--ыд
--ые
--ыи
--ык
--ыл
--ым
--ын
--ыны
--ыс
--ысло
--ысь
--ыт
--ых
--ь
--ьл
--ьные
--ьо
--ьт
--ью
--ья
--эа
--эз
--эзло
--эзын
--эс
--эсо
--ю
--юр
--я
--яи
--яись
--ял
--яло
--ян
--яна
--янь
--яс
--яын
--і
--ік
--іко
--ін
--іннэз
--іс
--ісо
--ісь
