!
"
#
##0
##1
##10
##11
##12
##13
##14
##15
##16
##17
##18
##19
##2
##20
##21
##22
##23
##24
##25
##26
##27
##28
##29
##3
##30
##31
##32
##33
##34
##35
##36
##37
##38
##39
##4
##40
##41
##42
##43
##44
##45
##46
##47
##48
##49
##5
##50
##51
##52
##53
##54
##55
##56
##57
##58
##59
##6
##60
##61
##62
##63
##64
##65
##66
##67
##68
##69
##7
##70
##71
##72
##73
##74
##75
##76
##77
##78
##79
##8
##80
##81
##82
##83
##84
##85
##86
##87
##88
##89
##9
##90
##91
##92
##93
##94
##95
##96
##97
##98
##99
$
%
&
'
(
)
*
+
,
-
.
/
0
00
000
001
003
004
005
006
007
008
009
01
010
011
012
013
014
015
016
017
018
019
02
020
021
022
023
024
025
026
028
029
03
030
031
032
033
034
035
036
037
038
039
04
040
041
042
045
046
047
048
049
05
050
054
055
06
060
061
064
065
066
067
069
07
070
072
073
074
075
076
079
08
080
081
083
084
085
087
088
09
090
091
094
095
096
097
098
099
0992
1
10
100
1000
1001
1007
101
1016
1018
102
1024
1025
103
1038
104
10407
1045
105
1054
106
1064
107
108
1086
1087
109
1093
11
110
1100
111
1111
112
1120
1124
113
1130
114
1145
1148
115
1150
1154
1156
1158
116
1160
1162
1168
117
1173
1175
1176
1179
118
1180
1184
1185
119
12
120
1200
1204
121
122
1228
123
1230
124
1240
1241
12411
1248
125
1250
1257
126
1264
127
1270
1274
1275
1277
128
1280
1288
129
1290
1295
13
130
1300
1302
1304
1305
131
1310
1311
1313
132
1320
1322
133
1335
1339
134
1340
1346
135
1350
1354
136
1360
137
1370
1378
138
1380
1382
1385
1389
139
1390
1395
14
140
1400
1402
141
1410
1412
142
1420
1422
1426
1428
143
1435
144
1440
1444
1447
1449
145
1450
1452
1453
1454
1455
146
1460
1466
1468
147
1470
1471
1476
1477
148
1480
1481
1483
1484
149
1492
1493
1494
1497
1499
15
150
1500
1503
1509
151
1512
1513
1515
152
1520
1521
1522
1524
1525
153
1530
1532
1535
1538
154
155
1550
1553
1555
1559
156
1560
1564
157
1576
1578
158
1580
1584
159
1590
16
160
1600
1601
1605
1606
161
1610
1615
1616
162
1620
1621
1622
1623
1624
1625
1627
1629
163
1630
1631
1632
1634
164
1640
1644
165
1650
1656
166
1660
1664
1665
1666
1667
167
168
1680
1685
1686
1688
1689
169
1697
1699
17
170
1700
1701
1704
1706
1707
171
1712
1713
1714
1715
1717
1719
172
1720
1721
1723
1724
1727
1728
1729
173
1730
1731
1732
1733
1734
1735
1736
1738
174
1740
1741
1742
1743
1745
1746
1749
175
1750
1751
1752
1753
1754
1755
1757
1758
1759
176
1760
1761
1762
1763
1764
1765
1766
1767
1768
177
1770
1771
1772
1773
1774
1775
1776
1777
1778
1779
178
1780
1781
1782
1783
1784
1785
1786
1787
1788
1789
179
1790
1791
1792
1793
1794
1795
1796
1797
1798
1799
18
180
1800
1801
1802
1803
1804
1805
1806
1807
1808
1809
181
1810
1811
1812
1813
1814
1815
1816
1817
1818
1819
182
1820
1821
1822
1823
1824
1825
1826
1827
1828
1829
183
1830
1831
1832
1833
1834
1835
1836
1837
1838
1839
184
1840
1841
1842
1843
1844
1845
1846
1847
1848
1849
185
1850
1851
1852
1853
1854
1855
1856
1857
1858
1859
186
1860
1861
1862
1863
1864
1865
1866
1867
1868
1869
187
1870
1871
1872
1873
1874
1875
1876
1877
1878
1879
188
1880
1881
1882
1883
1884
1885
1886
1887
1888
1889
189
1890
1891
1892
1893
1894
1895
1896
1897
1898
1899
19
190
1900
1901
1902
1903
1904
1905
1906
1907
1908
1909
191
1910
1911
1912
1913
1914
1915
1916
1917
1918
1919
192
1920
1921
1922
1923
1924
1925
1926
1927
1928
1929
193
1930
1931
1932
1933
1934
1935
1936
1937
1938
1939
194
1940
1941
1942
1943
1944
1945
1946
1947
1948
1949
195
1950
1951
1952
1953
1954
1955
1956
1957
1958
1959
196
1960
1961
1962
1963
1964
1965
1966
1967
1968
1969
197
1970
1971
1972
1973
1974
1975
1976
1977
1978
1979
198
1980
1981
1982
1983
1984
1985
1986
1987
1988
1989
199
1990
1991
1992
1993
1994
1995
1996
1997
1998
1999
2
20
200
2000
2001
2002
2003
2004
2005
2006
2007
2008
2009
201
2010
2011
2012
2013
2014
2015
2016
2017
2018
2019
202
2020
2021
2022
2023
203
204
205
206
207
208
209
21
210
211
212
213
214
215
216
217
218
219
22
220
221
222
223
224
225
226
227
228
229
23
230
231
232
233
234
235
236
237
238
239
24
240
241
242
243
244
245
246
247
248
249
25
250
2500
251
252
253
254
255
256
257
258
259
26
260
2600
261
262
263
264
265
266
267
268
269
27
270
271
272
273
274
275
276
277
278
279
28
280
281
282
283
284
285
286
287
288
289
29
290
291
292
293
294
295
296
297
298
299
3
30
300
3000
301
302
303
304
305
306
307
308
309
31
310
311
312
313
314
315
316
317
318
3189
319
32
320
321
322
323
324
325
326
327
328
329
33
330
331
332
333
334
335
336
337
338
339
34
340
341
342
343
344
345
346
347
348
349
35
350
351
352
353
354
355
356
357
358
359
36
360
361
362
363
364
365
366
367
368
369
37
370
371
372
373
374
375
376
377
378
379
38
380
381
382
383
384
385
386
387
388
389
39
390
391
392
393
394
395
396
397
398
399
4
40
400
4000
401
402
403
404
405
406
407
408
409
41
410
411
412
413
414
415
416
417
418
419
42
420
421
422
423
424
425
426
427
428
429
43
430
431
432
433
434
435
436
437
438
439
44
440
441
442
443
444
445
446
447
448
449
45
450
451
452
453
454
455
456
457
458
459
46
460
461
462
463
464
465
466
467
468
469
47
470
471
472
473
474
475
476
477
478
479
48
480
481
482
483
484
485
486
487
488
489
49
490
491
492
493
494
495
496
497
498
499
5
50
500
5000
501
502
503
504
505
506
507
508
509
51
510
511
512
513
514
515
516
517
518
519
52
520
521
5215
522
523
524
525
526
527
528
529
53
530
531
532
533
534
535
536
537
538
539
54
540
541
542
543
5438
544
545
546
547
548
549
55
550
551
552
553
554
555
556
557
558
559
56
560
561
562
563
564
565
566
567
568
569
57
570
571
572
573
574
575
576
577
578
579
58
580
581
582
583
584
585
586
587
588
589
59
590
591
592
593
594
595
596
597
598
599
6
60
600
601
602
603
604
605
606
607
608
609
61
610
611
612
613
614
615
616
617
618
619
62
620
6203
621
622
623
624
625
626
627
628
629
63
630
631
632
633
634
635
636
637
638
639
64
640
641
642
643
644
645
646
647
648
649
65
650
651
652
653
654
655
656
657
658
659
66
660
661
662
663
664
665
666
667
668
669
67
670
671
672
673
674
675
676
677
678
679
68
680
681
682
683
684
685
686
687
688
689
69
690
691
692
693
694
695
696
697
698
6987
699
7
70
700
7000
701
702
703
704
705
706
707
708
709
71
710
711
712
713
714
715
716
717
718
719
72
720
721
722
723
724
725
726
727
728
729
73
730
731
732
733
734
735
736
737
738
739
74
740
741
742
743
744
745
746
747
748
749
75
750
751
752
753
754
755
756
757
758
759
76
760
761
762
763
764
765
766
767
768
769
77
770
771
772
773
774
775
776
777
778
7785
779
78
780
781
782
783
784
785
786
787
788
789
79
790
791
792
793
794
795
7955
796
797
798
799
8
80
800
801
802
803
804
805
806
807
808
809
81
810
811
812
813
814
815
816
817
818
819
82
820
8207
821
822
823
824
825
826
827
828
829
83
830
831
832
833
834
835
836
837
838
839
84
840
841
842
843
844
845
846
847
848
849
85
850
851
852
853
854
855
856
857
858
859
86
860
861
862
863
864
865
866
867
868
87
870
871
872
874
875
876
877
878
879
88
880
881
882
883
884
885
886
887
888
889
8896096502
89
890
891
892
893
894
895
896
897
898
899
9
90
900
901
902
902714
903
904
905
906
907
908
909
91
910
911
912
913
914
915
916
917
918
919
92
920
921
922
923
924
925
926
927
928
929
93
930
931
932
933
934
935
936
937
938
939
94
940
941
942
943
944
945
946
947
948
949
95
950
951
952
953
954
955
956
957
958
959
96
960
961
962
963
964
965
966
967
968
969
97
970
971
972
973
974
975
976
977
978
979
98
980
981
982
983
984
985
987
988
989
99
990
991
992
993
994
995
996
997
998
999
:
;
<
=
>
?
@
[
\
]
^
_
`
a
aa
aarau
aarberg
aare
ab
aba
abaa
abanduna
abasi
abate
abbadia
abbia
abc
abcasia
abd
abe
abecee
abel
abelard
aber
abgerufen
abi
abia
abie
abies
abilita
abita
abitaa
abitad
abitada
abitanc
abitancc
abitant
abitants
abitazion
abitazzion
abitu
abitudin
aboli
abolii
abolizion
abonament
abort
about
abraham
abramo
abruzzi
abruzzo
abu
ac
aca
acade
academia
academic
academy
acaulis
acc
accademia
accelerazion
accent
access
accessed
accessibila
accessibilita
accesso
accessori
accetta
accettaa
acco
accord
accordi
accusaa
ace
acent
acerra
acess
aceta
acetaa
ach
ache
achille
aci
acid
acidita
aco
acord
acordi
acqua
acquaviva
acque
acqui
acronim
acse
acsi
act
acu
acusa
acustica
acustich
acustico
ad
ada
adam
adamm
adasi
adat
adata
adatta
adattaa
adda
addio
addirittura
ade
adelaide
adelchi
ades
adesion
adess
adiabatega
adiabategh
adige
adiritu
administration
ado
adognimo
adolf
adoma
adoss
adota
adotta
adottaa
adre
adree
adress
adressa
adresse
adria
adrian
adriano
adriatica
adriatich
adriatico
adromischus
adu
adura
advance
advanced
advezion
ae
aegilops
aeonium
aerea
aerofon
aeropo
aeroport
aeroporto
aesch
aeschi
af
afa
afar
afari
affar
affari
affer
affluent
affoltern
affori
afghanistan
aflu
afluent
afre
afresch
africa
african
africana
afro
after
ag
again
agata
age
agency
agent
agenzia
ageti
agetiv
agetival
aggettiv
agh
agher
agi
agiss
agiurna
agli
agn
agnesa
ago
agogna
agola
agordino
agost
agostin
agostini
agostino
agosto
agra
agraa
agraria
agrega
agri
agricol
agricola
agricoltura
agricultu
agriculture
agrigento
agro
agu
agua
agust
ah
ai
aichach
aidia
aiello
aigle
aigues
ain
air
aires
airoeu
airport
ais
aisch
aise
aisebe
aisne
aiutt
aiva
aix
aizoaceae
aj
ajaccio
ajut
ajuta
ajutt
ak
aka
akira
al
ala
alabama
alagna
alaigne
alain
alan
alarico
alaska
alb
alba
albairaa
alban
albane
albanes
albanese
albania
albano
albe
albenga
alber
albera
albere
albergh
albergo
albero
albert
alberta
alberto
albertville
albes
albi
albin
albini
albino
albis
albom
albor
albrechtice
albu
albula
album
alcali
alcalin
alcalinita
alcc
alcide
alcol
alcuni
aldo
ale
alea
alegar
alegher
alegri
alegria
aleksandr
alema
aleman
alemann
alenador
alenadors
aleph
ales
alesani
alessandria
alessandro
alessio
alex
alexander
alexis
alfa
alfabet
alfieri
alfio
alfons
alfonso
alfred
alfredo
algebra
algeria
alghero
algoritm
algovia
ali
alice
alie
aliena
alife
alimenta
alimentar
alimentasiu
alimentazion
alisa
alive
all
alla
allah
alle
alleanza
allee
allen
alles
allga
allo
allora
alma
almanc
almanca
almanch
alme
almen
almeno
aln
alo
aloe
aloinopsis
alora
alp
alpago
alpes
alpha
alpi
alpin
alpina
als
alsazia
alsazian
also
alstom
alt
alta
altar
altavilla
altdorf
alte
altendorf
alter
alterna
alternada
alternanza
alternativ
alternativa
alternative
altezza
altipia
altipian
altitalia
altitu
altituden
alto
altocumul
altocumulus
altostratus
altra
altre
altri
altro
altsta
alu
alumini
alura
alvisti
alza
alzaa
am
ama
amalastant
amant
amantea
amar
amare
amaro
amato
amb
ambassador
ambe
amberg
ambia
ambie
ambient
ambienta
ambientaa
ambiental
ambiente
ambienti
ambit
ambra
ambro
ambroeus
ambrogio
ambroix
ambrosian
ambrosiana
amburgh
ame
amedee
amen
amerega
america
american
americana
amerigana
amet
ami
amici
amicizia
amico
amiens
amiga
aministra
aministrasiu
aministrati
aministrativ
aministrativa
aministrazion
aministraziun
aministrazzion
aminuacid
amira
amis
amisa
amiss
amix
amministrativ
amministrativa
amministrazion
ammo
amo
amor
amore
ampezzo
ampi
ampia
ampugnani
amsterdam
amt
amtliches
amu
amur
an
ana
anali
analisi
analista
analiza
analizza
analogia
analogich
analysis
anas
anast
anastasia
anatolia
anatomia
anc
anca
ancabe
ancaben
ancamo
ancasi
ance
anch
anche
ancia
ancient
anco
ancona
ancora
and
anda
andaa
andacc
andad
andada
andagh
andai
andamane
andame
andament
andana
andand
andar
andara
andare
andaro
andata
andava
andaven
ande
andeghee
andelfingen
ando
andora
andorra
andre
andrea
andreas
andreja
andreotti
andrew
andria
androce
android
andy
ane
anei
anel
anell
anema
anemm
anemone
angel
angela
angeles
angeli
angelis
angelo
anger
angera
angiol
angiolini
angiospe
angiospermae
angiul
anglo
angol
angola
angolar
anguilla
anhalt
ani
anidride
anim
anima
animada
animai
animaj
animal
animali
anime
ankara
anmo
ann
anna
anne
annecy
annession
annett
anni
annibal
anniversari
anno
annone
annual
annunzia
annunziata
annunzio
ano
anonim
anovice
ans
ansa
ansaldobreda
ansbach
anschaffenburg
anse
anselmo
ansi
ansia
ant
antartid
ante
antecedent
antena
anterior
anteriu
anthems
anthony
anti
antibioteg
antica
antich
antiche
antichi
antichita
anticiclon
antico
antig
antiga
antigament
antigh
antigua
antil
antiochia
antirrhinum
antivirus
anto
antogn
antoine
antologia
anton
antoni
antoniana
antonin
antonina
antonini
antonino
antonio
anu
anversa
any
anzasca
anzi
anzian
anziann
ao
aosta
ap
aparad
apare
aparecc
aparte
ape
apena
apendice
apeni
apenzel
apg
apica
apis
aplica
aplicada
aplicazio
aplicazion
aplicaziun
aplicazzion
aplicazziu
apo
apofonia
apollo
apont
apos
aposta
apostuj
apostul
app
appare
appena
appennino
appenzell
appian
apple
applicazion
applied
appo
apposta
approvaa
approvada
approx
apre
apress
apri
april
aprile
aprilia
apro
aproeuv
aprovad
apt
apu
apucaliss
apurtazziun
apus
aq
aqua
aquarossa
aque
aqui
aquila
aquilegia
aquileia
aquisgrana
aquitania
ar
ara
arab
araba
arabia
arabo
aragona
aragones
aragorn
aral
araldega
araldica
aran
aranci
arbe
arbed
arbo
arbon
arbor
arboricoltura
arbresle
arbu
arbust
arc
arca
arcade
arcangelo
arcc
arce
arch
archeolo
archeologia
archi
archite
architet
architett
architettura
architetu
architetura
archive
archived
archivi
archiviato
archivio
arcidiocesi
arcipe
arcipelagh
arcisaa
arcive
arcivesc
arcivescov
arcivescuv
arco
arcor
arctan
arda
arde
ardenn
ardenne
ardez
are
area
aree
arei
arena
arent
arenta
arente
ares
aress
arezzo
arge
argent
argenta
argenti
argentina
argo
argome
argoment
argovia
argu
ari
aria
ariano
aribert
arie
ariis
arios
ariston
aritmetega
ariva
arivada
arizona
arjent
arkansas
arles
arlesheim
arlun
arm
arma
armaa
armad
armada
armade
armando
arme
armen
armenia
armi
armistizzi
armo
armonia
armstrong
arnaldo
arne
arnes
arni
arno
aro
aroma
arona
arosa
arpa
arpino
arpitan
arpitania
arqiviad
arqua
arquata
array
arre
arrest
arrighi
arriva
arrondissement
arrondissements
arroscia
ars
arsagh
arsgent
arsizio
art
arte
arteria
artesan
arth
arthur
arti
article
articoi
articol
articolaa
articolo
articul
artificia
artificiai
artificial
artikel
artist
artista
artistega
artistegh
artisti
artistica
artistich
artists
arts
arturo
arve
arze
arzenta
as
asa
asan
asborgh
asbu
asburgh
asc
asca
ascendent
ascendenta
ascensoeur
ascia
ascoli
ase
asee
asegna
asen
asi
asia
asiago
asiana
asiatich
asiu
aso
asola
asp
aspe
aspet
aspett
asphodelus
aspromonte
aspx
asquas
ass
assa
assada
assagh
assalt
asse
assede
assedi
assee
assegna
assegnaa
assegnad
assemblea
assembly
assemini
assenza
assessor
assessora
assia
assio
assioma
assisi
assistent
assistenza
assiuma
asso
associa
associada
association
associazion
associazione
associazzion
assoluda
assoluta
assorbe
assorbime
assorbiment
assose
assosenn
asst
assu
assulu
assunta
ast
asta
asteraceae
astero
asteroide
asti
astr
astro
astrono
astronomi
astronomia
astu
asturian
at
ata
atac
ataca
atacch
atach
atalanta
atar
atari
ataru
ate
atella
atene
ateneo
atent
atenta
atentaa
atenzion
atera
atessa
ati
atila
ativ
ativa
ativista
ativita
ativitaa
atla
atlanta
atlante
atlantegh
atlantic
atlantich
atlantigh
atlas
atm
atmosfe
atmosfera
atmosferega
atmosferegh
atmospheric
ato
atom
ator
atr
atri
atribu
atris
atropurpurea
att
atta
attacca
attacch
attach
attack
attentaa
attenzio
attenzion
attesa
atti
attilio
attiv
attiva
attivaa
attivita
attivitaa
atto
attor
attrazion
attris
attriss
attrito
atu
atual
atum
atur
au
aube
aubin
aude
audio
auf
augu
august
augusta
augusto
aulla
aume
aument
aumenta
aura
aurea
aureli
aurelian
auri
aurora
aus
auschwitz
ausiliari
austin
australia
australian
australiana
austri
austria
austriaca
austriach
austriega
austriegh
austro
autari
author
auto
autobahn
autobus
autodeterminazion
autogoverno
automa
automatega
automategh
automatica
automatich
automotris
autonom
autonoma
autonomi
autonomia
autonomie
autonomij
autonomista
autonomo
autopista
autor
autore
autorita
autoritaa
autorizzaa
autorizzazion
autoroute
autostrad
autostrada
autostradal
autostradale
autostrade
autotreno
autovia
autu
autun
autunn
autur
auturitaa
aux
av
ava
avant
avanti
avanzaa
avanzada
avar
avara
avari
avaria
avarien
avariss
ave
avea
avec
avegh
avegn
avella
avellino
avena
avenches
avend
avendugh
avenimeent
aveniment
aver
averb
averbi
averbial
avere
avers
aversa
aversari
avert
averta
avertura
aves
avess
avesse
aveva
aveven
avevi
avezzano
avi
avia
avigliano
avignon
avii
avio
avion
aviv
aviva
avo
avocat
avocatt
avogadro
avon
avori
avost
avra
avre
avri
avril
avu
avuu
avvenime
avveniment
avvenire
avversari
award
awards
ax
ayas
ayrton
az
azeglio
azera
azerbaigian
azie
aziend
azienda
aziende
azion
azione
aziun
azo
azur
azzal
azzano
azzion
b
ba
baa
baar
bab
babice
baby
bac
bach
back
backslash
bad
badaluch
badee
baden
badia
badil
badoglio
baga
bagai
bagaj
bagg
baggins
baggio
baghe
bagn
bagna
bagnaa
bagnada
bagnen
bagnes
bagni
bagno
bagnoli
bagnolo
bagnols
baguli
bahamas
bahn
bahnhof
bai
baia
baiano
bailey
bains
baita
baja
baker
bakerloo
baku
bal
bala
balauster
balcan
baldini
baldissero
bale
balia
balilla
ball
balla
ballata
balle
ballerin
ballon
ballottagg
balo
balon
balord
baloss
balsa
balsamita
balsom
baltea
baltegh
baltich
balu
bam
bamberga
ban
banana
banca
bancari
banch
banchina
band
banda
bande
bandera
bandere
bandi
bandiera
bandona
bandonaa
bandonad
bandonada
banduna
banfi
bangladesh
banska
bap
baptiste
bar
bara
baraca
barack
barba
barbar
barbara
barbaro
barbarossa
barbi
barbis
barbuda
barca
barcellona
barcelona
barcelonnette
barch
bard
bardi
bare
bargaja
bargen
bari
barlassina
barletta
barnaba
baro
barocch
baroch
baron
baronia
baronnies
barr
barra
barre
barry
barthe
bartolome
bartolomee
bartolomeo
barz
bas
basa
basaa
basad
basada
bascape
basch
base
baseball
based
basi
basian
basic
basich
basile
basilea
basilega
basileja
basilica
basilicada
basilicata
basin
bass
bassa
bassano
bassi
bassista
bassitalia
basso
basta
bastia
bastian
bastiment
bastion
baston
bastu
bat
bata
bataia
bataja
batalia
bataria
batasg
bate
bater
bateri
bateria
batesim
bateza
batezaa
bati
batista
batt
battaglia
battaja
battali
battalia
batteri
batteria
battipaglia
battista
battle
battuu
batu
batud
batuda
bautzen
bavare
bavares
bavie
baviera
bavona
bay
bayer
bayerisches
bayern
bayreuth
baza
bazi
bb
bba
bbc
bcungjuunt
be
bea
beaa
beach
beat
beata
beatles
beatrice
beatris
beaujeu
beaulieu
beaumont
beaurepaire
beauvoisin
bec
becca
beccaria
becch
bech
becher
beck
becker
beckett
beder
bedie
bee
beer
bega
begin
begn
begriffskla
bei
bein
being
beinwil
bej
bel
bela
belas
belbo
belcaire
bele
belga
belgi
belgio
belgiojos
belgiojoso
belgode
belgrad
belinzona
belize
bell
bella
belle
bellee
bellegarde
bellerive
bellevue
belley
bellezza
bellini
bellinzona
bellis
bello
belluno
belmont
belmonte
belo
belpasso
belsito
belvedere
ben
bene
benede
benedet
benedett
benedetto
benedictus
beneficenza
benefizzi
benes
benevento
bengala
beni
benin
benito
benjamin
benken
bentivoglio
beo
bepi
beppe
ber
bera
berbenn
berberis
berchtesgadener
beretta
berg
bergama
bergamasc
bergamasca
bergamasch
bergamaschi
bergamasco
bergamo
bergem
bergen
berger
berghem
bergoglio
bergom
bergu
bergum
beri
berkeley
berli
berlin
berlino
berluscon
berlusconi
bern
berna
bernaa
bernabo
bernard
bernardi
bernardin
bernardino
bernardo
bernaregg
bernes
bernina
beroun
bersani
berta
berthel
bes
besana
besasc
besnaa
beso
besogn
besogna
besozz
besse
best
besti
bestia
bestiam
bestie
bet
beta
beth
betola
bettola
between
bev
bevanda
bevande
bever
beveridge
bevo
beyond
bezde
bezirk
bg
bi
bia
biaa
biaggi
biagio
bianc
bianca
bianch
bianche
bianchi
bianco
bias
biasca
bibbia
bibbiano
biberach
bibia
bibiana
bibite
bibliografia
bibliote
biblioteca
bibliotega
bibliuteca
bica
bicameralism
bicer
bici
bicocca
bidens
bidirezional
bidree
bie
biegrass
biel
biela
biella
bielles
biellese
bieloruss
bielorussia
bieluru
bien
bienne
big
bigol
bii
bil
bila
bilanc
bilbo
bile
biliett
biliettaria
bill
billboard
billy
biloba
bin
bina
binari
binasch
bindei
bindel
bindell
binga
bingen
bio
bioeugg
biografia
biografico
biography
biolo
bionda
biondelli
bioraria
biot
bip
bir
bira
birmania
birmensdorf
birra
bis
bisaccia
bisceglie
bisch
bisia
bisio
bislo
bismarck
biso
bisogn
bisogna
biss
bissa
bissau
bisson
bit
bitcoin
bitonto
biu
biugrafia
bivio
bizanti
bizantin
bizantina
bizo
bja
bl
bla
black
blair
blaise
blanc
blanca
blansko
ble
blega
bleggio
bli
blica
blicaa
blicasiu
blich
bliga
blingen
blo
bloca
blocca
bloccaa
blocch
bloch
bloeu
blog
blood
blu
bludenz
blue
blues
bn
bo
boa
board
bob
boba
bobbi
bobby
bobi
bobo
boca
bocca
boccaccio
bocchetta
boccoli
bocconi
bodensee
bodenseekreis
body
boe
boemia
boeu
boeugg
boeugna
boeuv
bofa
boffa
bogen
boi
bois
boiss
bol
boleslav
boll
bolla
bollaa
bolle
bolo
bologna
bolognes
bolognese
bolus
bolzan
bolzano
bomb
bomba
bombardament
bombardier
bombe
bombon
bompiani
bon
bona
bonapart
bond
bonda
bondanza
bondeno
bone
boni
bonifacio
bonino
bonn
bonnet
bonneville
bono
bonomi
bonus
bonvesin
bonvexin
book
books
boom
boot
bor
bora
borbanee
borbon
bord
bordeaux
bordega
bordell
bordelleri
bordo
bore
borek
borg
borgh
borghetto
borghi
borgo
borgogna
borineri
boris
borla
borlaa
borlad
borlada
borlen
borli
borlin
borlo
borlon
bormi
bormida
born
bornagh
boromee
borromee
borromeo
borsa
bos
bosca
bosch
boschi
bosco
boscon
bosin
bosnia
boss
bossi
boston
bot
bota
botanic
botanica
botanical
botanich
botany
bote
botega
botnet
boton
botswana
bott
botte
botton
bouches
boudry
boulogne
bourg
bourgoin
bovis
bovisa
bow
box
boy
boys
boz
br
bra
bracchi
bradley
braga
bram
brambilla
bran
branca
brancaa
branch
brand
brandebu
brani
brano
bras
brasc
brasca
brasil
brasileira
brasilia
brasilian
brasiliana
brass
brassens
brassica
bratislava
brau
bravo
bravuogn
brazi
bre
brebbia
breda
bregaja
bregenz
bregh
bregn
breil
breisgau
brema
bremba
brembana
bremgarten
bren
brencia
brenner
brennero
brent
brenta
brera
bresa
brescia
bresciano
bress
bressa
bressan
bressana
bresse
brest
bretagna
breton
bretun
breuleux
brev
breva
breve
breviaa
breviad
breweries
brewery
bri
bria
brian
brianc
brianza
brianzo
brianzoeu
brianzoeula
brica
bricch
brich
bridge
brienz
brig
briga
brignoles
bril
brina
brindisi
brio
brion
bris
brisa
brisbane
brissagh
bristol
brit
brita
britain
britanich
britannega
britannegh
britannia
britannica
britannich
british
brivi
brn
brna
brno
brnz
bro
brocch
broch
brod
broeud
brolo
bronz
brooklyn
bros
brot
brothers
brovet
brown
browser
broye
bru
bruce
brugg
brughee
brun
bruna
brunate
brunei
bruno
brunswick
brunta
brus
brusa
brusaa
brusada
brusca
brut
bruta
brutt
bruxelles
bruzzan
bs
bst
bu
buba
buca
bucarest
buccinasch
buch
bucheggberg
buchs
budapest
buddha
buddhesim
buddhism
buddhista
bude
bue
buenos
bufa
buffer
bufo
bug
bugey
buglion
buglione
bui
buidura
building
buis
buj
bujon
bul
bulgaria
bulgher
bulgheria
bulivia
bull
bulletin
bulogna
bulsan
bulugnes
bun
buna
bundesautobahn
bundesland
bundesstraße
buon
buona
buono
buonvicino
bur
bureau
burg
burgdorf
burgh
burkina
burla
burlaa
burlotti
burns
burundi
bus
busa
busch
buscion
bush
business
busnagh
busser
bussero
bussy
bust
bustanico
busti
busto
bustocch
but
buta
buter
buti
butta
butter
bux
buzzi
bw
by
bystr
bystrica
byte
bz
c
ca
caa
caamp
caas
cabarde
cabaret
cacao
caccia
cachi
cacia
cada
cade
cadena
cadenazz
cadene
cadenn
cadenza
cadenzaa
cadenzament
cado
cadore
cadorna
cadrega
cae
cafe
caffe
caga
cagheta
cagion
cagliari
cagno
cai
cairaa
cairo
cairoli
cal
cala
calabria
calabro
calais
calanca
calca
calcar
calch
calcina
calcio
calcistica
calcol
calcola
calcolada
calcolator
calcolatris
calcula
cald
calda
caldera
calderoli
cale
calenda
calendari
calice
california
caligola
caliz
call
calma
calmon
calo
calor
calore
calosci
calsina
caltagirone
caltanissetta
calu
calvi
calvisio
calw
cam
cama
camaenidae
camaiore
camastra
camber
cambi
cambia
cambiaa
cambiad
cambiada
cambiame
cambiament
cambien
cambio
cambogia
cambra
cambridge
camden
came
camer
camera
cameron
camerun
cami
camillo
camin
camina
camion
camisa
cammin
camnagh
camo
camonega
camp
campa
campagn
campagna
campagne
campagnola
campana
campane
campani
campania
campanil
campanin
campanula
campbell
campi
campidano
campiglia
campion
campiona
campionaa
campionad
campione
campiu
campiun
campiuna
campiunaa
campo
campobasso
campolongo
campora
camposampiero
campus
can
cana
canada
canade
canadensis
canades
canadesa
canai
canal
canale
canaves
canavese
cancello
cancher
candela
candia
candida
candidaa
candidad
candidada
candidato
candidatura
candido
cane
canegraa
canis
canna
cannes
cannon
cano
canoeubi
canon
canonegh
canonica
canosa
canossa
canso
canson
cansu
cansun
cant
canta
cantaa
cantada
cantalupo
cantant
cantanta
cantar
cantare
cantautor
cantautur
cantava
cante
cantell
canten
canti
cantina
canto
canton
cantonal
cantone
cantor
cantu
cantun
cantuu
canu
canz
canzo
canzon
canzone
canzoni
canzu
canzun
cao
caosa
caosada
cap
capa
capacita
capaz
capazz
cape
capel
capela
capell
capella
capello
capendu
capeta
capi
capiagh
capid
capii
capiss
capita
capitaa
capitaal
capitad
capitaj
capital
capitala
capitalism
capitan
capitani
capitano
capitel
capitol
caplo
caploeugh
capo
capoligna
capolinia
capolo
capopiev
capp
cappell
cappella
cappello
capploeugh
capra
capranica
caprio
caprizzi
capu
capua
capuli
car
cara
caraa
caracas
caragna
caraib
carass
carater
carateri
carateristega
carateristegh
carateristeghe
carateristica
carateristich
carateristiche
carateristigh
carateriza
caraterizad
caraterizada
caratter
caratteri
caratteristega
caratteristegh
caratteristica
caratteristich
caratteristiche
caratteristigh
caratterizza
caratterizzaa
caratterizzada
caravaggio
carbo
carbon
carbonaa
carbonara
carbone
carbonera
carboni
carbonia
carcano
carcassonne
card
cardan
cardenal
cardina
cardinaal
cardinai
cardinal
cardinale
cardinalita
carducci
care
carea
carega
caregh
carensgia
carera
carestia
carevasg
carga
cargo
cari
carica
carie
cariera
carimaa
carin
cario
carita
carl
carla
carles
carlo
carloman
carlos
carlu
carmagnola
carmelo
carmen
carmignano
carn
carna
carnaa
carnagh
carnea
carneval
carnico
carnu
caro
carolina
carona
caronn
caronte
carpe
carpentras
carpi
carpian
carpineto
carr
carrara
carrej
carrell
carrera
carriera
carro
carrozz
carrozza
carrozze
carsi
cart
carta
cartasgin
cartasgines
carte
cartej
cartell
carter
cartocc
cartoccia
cartolina
carugaa
carvalho
cas
casa
casaa
casal
casale
casalecchio
casalett
casaletto
casali
casalin
casalnuovo
casano
casanova
casarsa
cascada
cascia
casciaa
casciad
casciano
cascina
case
casell
caselle
casera
caserta
cases
casi
casino
caso
casole
cason
casoraa
casot
cass
cassa
cassagh
cassan
cassano
casse
cassin
cassina
cassine
cassinn
cassino
casso
cast
castagnole
castan
caste
castegn
castegna
castei
casteja
castel
castelao
castelfranco
castell
castellammare
castellamonte
castellana
castellane
castellanus
castellanza
castellazzo
castellett
castelletto
castelli
castellino
castello
castelluccio
castelnaudary
castelno
castelnoeuv
castelnovo
castelnuovo
castelvecchio
casti
castiga
castiglion
castiglione
castillon
castion
castiu
castiun
castle
casto
castoldi
castor
castries
castro
castrum
casual
cat
cata
cataa
catad
catala
catalan
catalana
catalo
catalogna
catalogue
catalunya
catania
catanzaro
catarina
catedra
catedral
categori
categoria
categorie
category
categuri
categuria
caterina
catherine
catholic
cati
catio
cativ
cativa
cato
catolega
catolegh
catolica
catolicesim
catolich
catoliga
catta
cattaa
cattaneo
cattedral
cattedrale
cattiv
catto
cattolega
cattolegh
cattolica
catu
cau
caus
causa
cause
cauza
cav
cava
cavaa
cavagna
cavai
cavaj
caval
cavaler
cavalie
cavalier
cavall
cavallasca
cavalleria
cavallermaggiore
cavallo
cavargna
cavarzere
cave
cavei
cavenagh
caver
cavii
cavita
cavour
cavra
cavre
cavria
cavriasca
cazis
cazz
cazzo
cazzoeula
cazzuu
cb
cbs
cc
cca
cch
cchin
ccia
ccol
ccre
cd
cdot
cdots
ce
cea
ceca
cecch
cecenia
cech
cechia
cecilia
cecina
cecoslovacch
cecoslovacchia
ced
cedu
ceduu
cee
cei
cel
cele
celebra
celebraa
celentano
celenza
celer
celerina
celest
cell
cella
celle
cellul
cellula
cellular
cellulara
cellule
celosia
cels
celsius
celta
celtega
celtegh
celtic
celtich
celu
cen
cena
cenni
cens
censi
censiment
censu
census
cent
cente
center
centimeter
cento
centovalli
centra
centrada
centrai
central
centrala
centrale
centre
centri
centrista
centro
centrodestra
centru
centu
century
ceo
cepa
ceppa
ceppaa
cer
cera
ceraa
ceravall
cerca
cercaa
cerchio
cerea
cereai
ceres
ceresi
cerignola
cerimonia
cermenaa
cernusch
cerr
cerreto
cerro
cert
certa
certaldo
certe
certi
certo
certosa
certu
cerusia
cerv
cervell
cervi
cervia
cervo
ces
cesa
cesan
cesar
cesare
cesarea
cesareo
cesena
ceser
ceserani
cesi
cess
cession
cet
ceti
ceva
cevi
cezi
cf
cfc
cfr
cgd
ch
cha
chalaronne
challant
cham
chambe
chambre
champagne
champions
champsaur
champvent
chamues
chan
chanf
chang
change
channel
chapel
chapelle
chapter
chardonney
charente
charkiv
charles
charlie
charlieu
charlotte
charopidae
chat
chaux
chavannes
chavornay
che
cheb
checklist
cheest
chef
cheghei
cheghela
chei
chel
chela
chell
chella
chelsea
chemical
chemnitz
chen
chenopodium
cher
cherson
cherubin
cherubini
ches
chess
chesschi
chest
chesta
cheste
chesto
chi
chia
chiana
chianti
chiara
chiaravalle
chiavari
chiavenna
chiavennaschi
chicago
chichinsci
chico
chie
chiel
chieri
chiesa
chiese
chieti
chigno
chignoeu
chii
chiist
chij
chil
children
chile
chili
chilo
chilometer
chilometri
chim
chimega
chimegh
chimica
chimich
chimiga
chimigh
china
chine
chines
chinese
chinsci
chio
chioggia
chip
chitarra
chiunque
chiusa
chiusi
chivasso
chlum
cho
chod
chomutov
chote
chov
chra
chris
christian
christiane
christmas
christophe
christopher
chrudim
chrysanthemum
chstadt
chstetten
church
chy
ci
cia
ciaa
ciad
ciada
ciaf
ciama
ciamaa
ciamad
ciamada
ciamade
ciamads
ciamava
ciamaven
ciame
ciamen
ciamo
ciampi
cian
ciano
ciao
ciapa
ciapaa
ciapad
ciapada
ciapar
ciapara
ciape
ciapen
ciappa
ciappaa
ciappada
ciappen
ciar
ciara
ciarament
ciare
ciarella
ciari
ciaschedu
ciaschedun
ciascheduna
ciass
ciav
ciava
ciavena
ciavenna
ciavennasch
ciavin
cica
cicca
ciciara
cicin
cicinin
cicli
ciclo
ciclon
cid
cida
cidi
cie
ciel
cielo
ciet
ciexa
cifer
cifra
cifrari
cifras
cii
cil
cile
cilento
cili
cilinder
cilindrich
cim
cima
cime
ciment
cimiteri
cin
cina
cincent
cinch
cine
cinelli
cinema
cines
cinesa
cinisell
cinq
cinqu
cinquant
cinquanta
cinque
cinto
cintura
cio
cioca
ciocch
cioch
ciod
ciods
cioe
ciolla
ciop
ciopa
cioppa
cioppada
cios
ciove
ciozz
ciper
cipri
cipro
cipru
cir
circ
circa
circar
circol
circola
circolanta
circolar
circolara
circolazion
circolo
circonda
circondare
circondari
circondaria
circondario
circoscrizion
circu
circui
circuit
circuitt
circul
circumsalernitana
circumvesuviana
circuncisiu
circuscrisiu
cirillegh
ciro
cirri
cirro
cirrocumulus
cirrostrato
cirrostratus
cirrus
cis
cisalpina
cislagh
cisterna
cit
cita
citaa
citada
citadi
citadin
citadina
citadinanza
citazion
citazzion
cities
cito
citrus
citta
cittaa
cittadella
cittadin
cittadinanza
city
ciu
ciue
cius
civ
civaa
civega
civi
civica
civich
cividale
civij
civil
civila
civilization
civilta
civita
civitanova
civitella
cizuli
cja
cjamaa
ck
cke
cken
cl
cla
clara
clarinet
clark
clarke
clas
clash
clasifica
clasificasiu
class
classa
classe
classega
classegh
classic
classica
classich
classici
classifcazzion
classifega
classifegaa
classifegad
classifegada
classifegazzion
classifica
classificaa
classificad
classificada
classification
classificazion
classificazzion
claude
claudi
claudia
claudio
clav
clay
cle
clea
clematis
clemens
clement
clemente
cleo
clermont
cles
cletto
cli
client
clima
climate
climatich
climatizzazione
climatology
clinica
clinton
clivia
clo
clon
cloud
clouds
clu
club
cm
cme
cn
cnica
cnich
co
coa
coalizion
coalizzion
coast
cobbi
cobbia
cobia
cobie
coburg
coca
coco
cod
code
codera
codes
codex
codigoro
codogn
coe
coeffice
coefficent
coefficient
coeugh
coeur
coeus
coeuser
coffrane
cogne
cogno
cognomm
cognoss
cognossen
cognossenza
cognosser
cognossid
cognossu
cognossud
cognossuda
cognossuu
cognosuu
cognu
cognusi
coi
coincidenza
coira
coj
cojon
col
cola
colaborasiu
cold
colda
cole
colega
colegh
colesiu
coli
colich
coll
colla
collabora
collaborazion
collaborazzion
collana
colle
collection
collega
collegada
college
collegi
collegio
colli
collina
collo
collonges
colo
coloca
cologn
cologna
colomban
colombano
colombe
colombia
colombier
colombo
colon
colone
colonia
colonial
colonie
colonn
colonna
color
colorada
colorado
colp
colpa
colpi
colpid
colpii
colpiss
colpo
coltiva
coltivada
coltivazio
coltivazion
coltur
coltura
colturai
coltural
colture
columbia
columbus
colzon
com
coma
comacchio
comand
comanda
comandaa
comandada
comandant
comarca
comasca
comasch
comasina
comba
combat
combater
combati
combatime
combatiment
combatt
combattiment
combattuda
combattuu
combe
combina
combinazion
combremont
combustion
come
comedia
comegh
comenc
comenza
comenzaa
comerc
comercia
comerciai
comercial
comes
cometa
comich
comincia
cominciaa
comission
comitaa
comitad
comitato
comm
comme
commedia
comment
commercc
commercia
commercial
commesti
commissari
commissario
commission
committee
commodore
common
commons
commonwealth
commune
communes
community
como
comod
comoda
comp
compa
compagn
compagna
compagnaa
compagne
compagnia
compagnie
company
compar
compari
compariss
comparsa
compass
compassion
compati
compatibel
compatibil
competenz
competenza
competenze
competizion
competizzion
compi
compit
compiuter
comple
complement
compless
complessita
complessiva
complet
completa
completaa
completada
completament
complett
complex
complicada
compo
compone
component
componid
componiment
componnuda
componud
comporta
comportame
comportament
composada
composidor
compositae
compositor
composizion
composizzion
compost
composta
compra
compraa
compre
comprend
comprendeva
comprension
compres
compresa
compression
compton
compu
computer
comte
comu
comun
comuna
comunai
comunal
comunala
comunale
comune
comuni
comunica
comunicazion
comunicazzion
comunism
comunismo
comunista
comunita
comunitaa
comunque
con
cona
conca
conce
concentra
concentrazion
concept
concert
concerto
concerts
concession
concet
concett
concezion
concili
concise
concluder
conclusion
conco
concordia
concorrent
concorrenza
concors
cond
condana
condanaa
condanad
condanna
conde
conden
condena
condensa
condiment
condizio
condizion
condizionada
condizional
condizzion
condizzional
condo
condutor
conduttivita
conduttor
conduzion
conegliano
confederasiu
confederazion
confederazzion
conference
conferenza
conferma
confermaa
confermada
confession
confi
configurazion
confin
confina
confinava
conflit
conflitt
conflu
confluenza
confo
conforma
confort
confro
confront
confronta
confusion
cong
congiuntiv
congiura
congo
congregazion
congress
coni
coniuga
coniugazion
coniugazzion
conliga
conligaa
conligad
conligada
conligament
conligava
conlighen
connecticut
connession
cono
conoscenza
conoss
conosser
conossu
conossud
conossuda
conossuu
conquista
conquistaa
conquistad
conquistada
consacrada
conscia
conse
consegna
consegnaa
consegue
conseguenz
conseguenza
conseguenze
consej
consejer
consens
conserva
conservaa
conservad
conservada
conservativ
conservator
conservatori
conservatorism
conservazion
conservazzion
conserven
consgiuntiv
consi
considera
consideraa
considerad
considerada
considerade
considerazion
consiglio
consijee
consili
consilia
consiliee
consist
consistenza
conso
consol
consola
consolazion
console
consona
consonant
consorzi
constantine
consu
consulta
consultad
consultato
consultazion
consultiv
consuma
consumm
cont
conta
contad
contadin
contat
contatt
conte
contea
contegn
contegni
contegnu
contegnud
contegnuu
contemporanea
content
contenta
contentezza
contes
contessa
contest
conthey
conti
continent
continental
contini
continoa
continov
continua
continuazion
continuita
conto
contorna
contr
contra
contrad
contrada
contrade
contrari
contraria
contrarieta
contrast
contrasta
contrat
contratt
contribui
contro
control
controla
controlaa
controll
controlla
controllada
controller
conve
convent
convenzion
convergenza
conversion
converti
convertii
convettiv
convettiva
convezion
convint
convoeuj
conza
coo
cook
cooper
cooperi
coordinad
coordinate
cop
copa
copad
cope
copenaghen
copenhagen
copi
copia
copp
coppa
coppaa
cor
cora
coragg
coram
corbetta
corbie
corcelles
cord
corda
corde
cordialmente
core
corea
corean
coreana
coreglia
corespo
corespond
coresponde
cori
coridu
corigliano
coriolis
corleto
corman
corn
corna
cornaa
corneli
cornelia
cornell
corni
cornis
corno
cornolo
cornus
coro
corona
coronavirus
corp
corpo
corporation
corps
corpus
corr
corrado
corre
correla
corren
corrent
correnta
correr
correspond
correzion
corridor
corrier
corriere
corrispondenza
corrud
corruzion
cors
corsa
corse
corsega
corsia
corsica
corsie
corsier
corso
cort
corte
cortell
corti
cortina
cortona
corun
corv
cos
cosa
coscenza
cosci
coscienza
cose
cosenza
cosi
cosma
coss
cossa
cosse
cossi
cossiga
cossin
cost
costa
costansa
costant
costanta
costantin
costantino
costantinopel
costanz
costanza
costanzo
costava
coste
costellazion
costeto
costituida
costituiss
costituzion
costituzionai
costituzional
costituzionala
costituzione
costituzzion
costo
costos
costringiuu
costru
costrui
costruid
costruida
costruii
costruzio
costruzion
costruzzion
costu
cota
coton
cottens
cottura
cotyledon
couiza
council
country
county
courmayeur
court
cov
cova
cover
covertura
covid
cpu
cr
cra
cracovia
craina
crapa
crash
crassulaceae
craxi
crazy
cre
crea
creaa
cread
creada
creator
creatur
creazion
creazzion
cred
crede
creden
credenza
creder
credeva
credi
credit
credu
cree
crema
cremaliera
cremano
cremasch
cremasco
cremo
cremona
cremones
cremonese
cremu
cremuna
cremune
creo
crepa
crescenzagh
crescita
crespi
cress
cressen
cresser
cressier
cressu
cressuda
cressuu
crest
cresta
creta
creul
cri
cria
crimea
crimeja
crimen
criminal
crisi
crispi
crist
crista
cristall
cristia
cristian
cristiana
cristiane
cristianesim
cristiano
cristina
cristo
cristofen
cristoforo
cristos
critega
critegh
criteri
critica
criticaa
critich
crittografia
crixus
cro
croa
croatt
croazia
croce
crocus
croda
crodada
croix
crompa
crompaa
crompada
cronaca
cronega
cronquist
cros
cross
crosta
crotone
crox
croxada
cru
cruat
cruazia
crucis
crud
crumpa
crus
cruz
cs
csc
csi
ct
cthulhu
ctor
cu
cua
cuarcia
cuba
cuca
cucina
cudo
cudrefin
cue
cuerenza
cugnuss
cugnusse
cugnussii
cugnussu
cugnusu
cui
cuj
cul
cula
cule
culega
culegada
culessio
culi
culina
culo
culonia
culp
cult
cultia
cultivar
culto
cultu
cultura
cultural
culturali
culture
culu
culumbia
culur
cum
cuma
cumana
cumand
cumanda
cumandaa
cumandame
cumasch
cumbu
cume
cumedia
cumencia
cumi
cumincia
cuminciaa
cumpa
cumpagn
cumpagna
cumpagnia
cumparii
cumpii
cumpiu
cumple
cumpless
cumplessa
cumpletament
cumpo
cumpost
cumprenda
cumpuni
cumpuzisiu
cumu
cumul
cumulonemb
cumulus
cumun
cumunicasiu
cumunita
cun
cuna
cunce
cuncert
cuncili
cundana
cundanaa
cundisiu
cundiziunal
cuneo
cunferensa
cunfi
cunfide
cunfin
cunfina
cunflu
cungiu
cungjuunt
cuni
cuniu
cunqui
cunquista
cunquistaa
cunsacra
cunsegnaa
cunsegui
cunsej
cunserva
cunservaa
cunsi
cunsidera
cunsideraa
cunsiderada
cunsili
cunsu
cunsula
cunsunant
cunsunanta
cunt
cunta
cuntaa
cuntada
cuntava
cunte
cuntea
cuntegn
cuntegnu
cunten
cuntent
cunter
cuntest
cunti
cuntine
cuntinent
cuntinuazziun
cuntra
cuntrari
cuntribu
cunusi
cunuss
cunussu
cunusu
cuore
cup
cupa
cupaa
cupola
cur
cura
curaa
curad
curada
cure
curea
curent
curi
curia
curinz
curona
curs
cursa
curt
curta
curte
curti
curtis
curu
curuna
curv
curva
cus
cusagh
cusan
cusano
cusi
cusin
cusina
cussi
cust
custaa
custanta
custitu
custru
custrusiu
custrutur
custu
cut
cutra
cuu
cuurdina
cuventa
cve
cz
czech
cœubli
d
da
daa
dacc
dachau
dacia
dad
dada
dafrica
daga
dagh
dagli
dagn
dai
dairagh
dait
daj
dakota
dal
dala
dale
dalila
dall
dalla
dalle
dalmazia
dam
dama
damasch
dame
damian
damiano
damm
damned
dan
dance
dand
dane
danee
daner
danes
danesa
daniel
daniela
daniele
danimarca
dann
danny
dans
dant
dante
danu
danubi
danubio
danza
dapress
dar
dara
dare
daree
darer
darera
darf
dari
dario
dark
darmstadt
darrera
darwin
das
daspo
dass
dat
data
database
date
dateo
dati
dato
datu
datura
dau
dava
davant
davanti
dave
daven
david
davide
davis
davos
day
days
dazzi
db
dc
dd
ddr
de
dea
dead
death
debit
debol
debon
debora
debu
debussy
dec
deca
decadenza
decanad
decebal
december
dech
deci
deciara
deciaraa
deciarad
deciarada
deciarazion
deciarazzion
decibel
decid
deciden
decider
decidi
decidu
decidud
deciduu
decima
decimal
decio
decis
decision
declin
deco
decoraa
decorazion
decre
decret
decreto
decrett
dedent
dedenter
dedes
dedesnoeuv
dedica
dedicaa
dedicad
dedicada
dedre
dedree
dedu
dee
deejay
deent
deenta
deentara
deep
deerf
defa
defat
defatt
default
defend
defensa
defensor
defesa
defini
definid
definida
definii
definisiu
definiss
definitiv
definitiva
definitivament
definizion
definiziun
definizzion
definizziu
defoeura
dega
degaa
deggendorf
degh
degia
degli
degn
dei
dej
deja
dek
del
dela
delaware
dele
delebi
delega
delegaa
delimita
delizia
dell
della
delle
dellino
dello
delo
delongg
delonsg
delosperma
dels
delta
dem
deme
demo
democra
democratega
democrategh
democratich
democratico
democrazia
democrazzia
demogra
demografegh
demografia
demografic
demucratica
demustra
den
dena
denanz
denial
denis
denn
dennis
denominasiu
denominazion
denominazzion
dens
densa
densita
densitaa
dent
denta
denter
dentro
denuncia
denver
deo
departament
departiment
department
depend
dependent
deperlee
deperlo
deperlor
deperlu
depo
depos
deposit
deposizion
depression
depretis
depu
deputa
deputaa
deputad
der
dera
dere
derghen
deri
deria
deriva
derivaa
derivad
derivada
derivazion
deriven
deron
derset
dersett
derv
derva
dervi
dervid
dervida
dervii
des
desa
desambiguazion
descac
descanta
descarega
descompari
descor
descovert
descoverta
descovri
descovriss
descovrissen
descri
descrisiu
descriv
descriver
descrivu
descrivud
descrivuda
descrizion
descrizzion
desdo
desdot
desdott
dese
desember
desena
desenni
desert
desfa
desfescia
desgia
desi
deside
desidera
desideri
desiderio
design
designa
desinenza
desktop
deslengua
desliga
desligaa
desmentega
desmeter
desmettuu
desmetu
desnoeuv
despe
despera
desperada
desperlu
despess
despo
despoeu
despos
despœ
dess
desseda
dessoravia
dessous
dest
desta
destaca
destacca
destaccaa
destender
destin
destina
destinaa
destinad
destinada
destinazion
destra
destru
destruga
destrugaa
desturba
desu
desuta
desutta
desvilu
desvilup
desvilupa
desvilupaa
desvilupad
desvilupada
desvilupp
desviluppa
desviluppaa
desviluppada
desvot
det
detali
dete
detective
determina
determinaa
determinad
determinada
determinant
determinativ
detroit
detto
deus
deutsche
deutschland
deux
dev
deva
deve
devegn
devegni
devegnu
devegnuda
devegnuu
development
deven
deventa
deventaa
deventad
deventada
deventen
devera
devers
dex
dez
deza
deze
dezember
dezidud
dharma
di
dia
diaa
diacon
diagona
diagonal
diagrama
diagramma
diale
dialet
dialetal
dialett
dialettal
dialettale
dialettando
dialetti
dialetto
dialettologia
diameter
diametro
diana
diano
diari
diavol
diaz
dic
dica
dicc
dice
dicember
dicembre
dich
dicidi
dictionary
dictionnaire
did
dida
didier
didinco
die
diego
dielsdorf
dienta
dies
diesel
dieser
dieta
dietikon
dietro
difa
difati
dife
difend
difensor
difere
difereent
diferensia
diferent
diferenta
diferente
diferents
diferenz
diferenza
diferenze
diferenzia
difesa
difet
different
differenta
differenz
differenza
difficil
difficolta
diffrazion
diffusion
difi
dificil
dificolta
difundi
diga
digh
dighe
digita
digital
digne
dignita
digo
digue
dii
diis
diit
dij
dillingen
dimension
dimensiu
dimensiun
dimett
diminu
diminui
diminutiv
dimission
dimostra
dimustra
din
dina
dinamica
dinastia
dine
dingolfing
dini
dino
dins
dint
dio
diocesi
dioclezian
diod
dioecesis
diois
dipartime
dipartiment
dipe
dipend
dipenden
dipendent
dipendenza
diplo
diploma
diplomaa
diplomatega
diplomategh
dir
dira
diramazion
dire
directory
diresio
diresiu
diret
direta
diretame
diretament
diretor
dirett
diretta
direttame
direttament
direttor
diretu
diretur
direzio
direzion
direziun
direzzion
diri
dirigent
dirigi
dirit
diritt
diritti
diritto
dirizz
diro
dis
disa
disambiguazio
disaster
disc
discanta
discendent
discendenta
disch
dischett
dischi
disciplina
disco
discors
discrii
discu
discussion
dise
disease
diseases
disegn
disegna
disen
disend
disentis
diseva
diseven
disi
disk
disliga
disna
dispari
dispe
dispera
dispersion
dispet
dispiase
displaystyle
dispo
disponi
disponibel
disponibil
disponibilita
dispositi
dispositiv
disposizion
dispost
dispressi
dispuni
dispuzisiu
diss
disse
dissegn
dissegna
dissident
dista
distansa
distant
distanza
distanze
disti
distinsiu
distint
distinzion
distre
distrecc
distret
distrett
distretto
distribu
distribui
distribuzion
district
distro
distru
distruzion
dit
dita
ditions
dito
ditt
ditta
ditto
diu
dius
div
dive
divegnu
diventa
diventaa
diventad
diventada
diventen
divergenza
divers
diversa
diversame
diversament
diverse
diversi
diverti
divi
divid
dividi
dividu
dividuda
dividuu
divin
divina
divinita
divinitaa
divis
divisa
divisio
division
divisiu
divisiun
diviziu
dix
dixe
diz
diza
dize
dizi
dizionari
dizionario
diziunari
dizzionari
dj
dky
dl
dla
dle
dlouha
dna
dnipro
dnipropetrovs
dns
do
doa
dobbi
dobbia
dobi
dobia
doblies
dobr
dobra
doc
doca
doce
docent
docklands
docu
document
documenti
documents
dodes
doe
dog
doi
dol
dolany
dolc
dolce
dollar
dolly
dolni
dolo
dolor
dolz
dolza
dom
doma
domanda
domandaa
domandad
domande
domanden
domani
domas
domat
domaz
dome
domenega
domenegh
domenica
domenico
domina
dominazion
domini
dominicana
domizian
domm
dommartin
domodossola
dompierre
domus
don
dona
donaa
donald
donat
donato
donatz
donau
donazion
donbass
donca
done
donec
doneck
dong
dongh
doni
donn
donna
donne
dop
dope
dopera
doperaa
doperabel
doperad
doperada
doperade
doperava
doperaven
doperen
dopo
doppi
doppia
dopra
dopraa
doprad
doprada
dopu
dor
dora
dore
dorf
dori
doria
dorma
dormi
dorneck
dortmund
dos
dosi
doss
dot
dota
dotaa
dotor
dotrina
dottor
dottrina
double
douglas
dov
dova
dovana
dove
dover
doveva
dovra
dovraa
dovrad
dovrada
dovrar
dovud
dovuda
dovuu
down
dr
dra
dragh
draghi
draguignan
drama
draz
dre
dream
dree
drena
drent
dresda
drezz
dri
dricc
drit
drita
dritta
drive
driver
driza
drizz
drizza
dro
droeuva
droga
dromi
drova
drovaa
drovad
drovada
drovads
dru
drua
druaa
druada
druva
druvaa
druvada
dryopteris
ds
dss
dt
dte
dtirol
dtiroler
dtirules
du
dua
duari
dub
dubbi
dubi
dublin
dubstep
duca
ducaa
ducad
ducal
ducato
ducatodipiazzapontida
duce
duchessa
ducu
ducument
dudes
due
duegi
duet
dugnan
dui
duke
dul
dulu
dulza
dum
duma
duman
dumanda
dumandaa
dume
dumi
dumina
dumini
dun
dunca
dunque
duomo
dupe
dupera
duperaa
dupi
dupra
dupraa
dupren
dur
dura
duraa
durada
durant
duranta
durban
durium
durmi
durmire
dus
dusent
dutch
dutrina
dutu
dutur
duu
duve
duzi
dvd
dvory
dx
dy
dylan
dyra
dz
dɒ
də
dʒa
dʒe
dʒi
dʒu
dʒy
e
ea
ealing
early
earth
east
eau
eav
ebbasta
ebersberg
ebi
ebra
ebraica
ebraich
ebrei
ec
ecc
ecce
eccezion
ecco
ece
ecetera
ecezzion
ech
echallens
echo
eclav
ecli
eco
ecolo
ecologia
econo
economega
economegh
economi
economia
economic
economica
economich
economista
ecuador
ecublens
ecunomiga
ecunumia
ed
eda
edagricole
eddie
ede
edgar
edicio
edifici
edifizzi
edil
edilizia
edisio
edisiu
edison
edit
edition
edito
editor
editore
editori
editorial
editoriale
editrice
editu
editur
edizio
edizion
edizione
edizioni
edizzion
edmond
edmund
edoard
edoardo
edol
edolo
eds
edu
eduard
education
educazion
educazzion
edward
ee
ef
efe
efet
efetiva
efett
effe
effects
effett
effettiva
efficienza
egee
egg
egi
egidio
egit
egitt
egn
egni
egua
egual
eh
ei
eichsta
ein
einaudi
eine
einer
einsiedeln
einstein
eis
eiva
ejov
ek
el
ela
elabora
elba
elbasan
ele
electric
electro
electronic
elefant
elegant
elegg
eleggiuu
elegiu
elegiud
elegiuda
elegiuu
eleme
elemeent
element
elementa
elementar
elements
elena
elenca
elench
elesgiud
elesiu
eletrega
eletrica
eletrich
eletricita
eletriga
eletrigh
eletro
eletronega
eletronegh
eletroniga
eletru
elettor
elettoral
elettorala
elettrica
elettrich
elettricita
elettrificaa
elettrificada
elettrificazion
elettriga
elettrigh
elettro
elettromotris
elettron
elettronega
elettronegh
elettronica
elettronich
elettrotreni
elettrotreno
eletur
eletura
eletural
eleva
elevaa
elevada
elezion
elezioni
eleziun
elezzion
elf
elgg
eli
elia
elice
elicita
elii
elimina
elio
elisa
elisabetta
elizabeth
ell
ella
elle
elm
elo
els
elsa
elvis
em
emagna
email
emanuel
emanuele
eme
emendament
emergenza
emeter
emi
emigrazion
emilia
emilian
emiliana
emiliano
emilio
emiraa
emisfe
emisfero
emission
emm
emma
emmanuel
emmendingen
emmental
emoji
emozzion
emparenta
emperadu
empire
emporta
emptyset
ems
en
ena
enca
enciclopedia
enco
encyclopedia
end
ende
endei
endel
endela
enden
endena
endepende
endi
endo
endoche
endre
ene
enego
energe
energi
energia
energie
enerjia
enero
enfants
enfi
enfiuresce
engadina
engel
engelberg
engineering
engl
england
english
enhaut
eni
enice
enko
enn
enna
eno
enov
enrich
enrico
enrigh
ense
enseri
ensi
enso
ent
enta
ente
enter
entertainment
entita
entitaa
entlebuch
entra
entraa
entrad
entrada
entre
entremont
entren
entu
enve
envers
environment
environmental
enz
enza
enzi
enzima
enzkreis
enzo
ep
ependes
epi
epide
epidemia
epidemic
episcupa
episo
episodi
epoca
epuca
equator
equatorial
equazio
equazion
equazziu
equilibri
equivalent
equivalenta
equivalenza
er
era
eran
erba
erbadega
erbe
erc
ercolano
erding
ere
ered
erede
eredi
eredita
ereditaa
eren
erfurt
ergo
eri
eric
erik
eriophorum
eritrea
erlangen
erlenbach
erlinsbach
ermafrudi
ermanno
ermentini
ermna
erna
ernesto
erni
ernihiv
ernst
ero
eroe
eror
erov
erro
error
ers
ersilia
ert
eru
erun
erzegovina
es
esa
esam
esch
eschenbach
esclamazzion
esclu
ese
esecutiv
esecuzion
esecuzzion
esegui
eseguii
esempe
esempi
esemplar
esensia
esercet
esercit
esercita
esercitaa
esercizzi
esi
esibizion
esiist
esili
esiliaa
esin
esist
esista
esiste
esisten
esistenza
esisteva
eska
eske
esky
eso
espan
espansio
espansion
espansiu
espe
esperanto
esperie
esperienza
esperime
esperiment
espert
esplora
esplosiv
espo
esponent
esposito
esposizio
esposizion
espre
espress
espression
espressiu
espressiun
espri
esprimer
esprimm
esprit
espulsion
esquerra
ess
essa
esse
essen
essend
essenzial
esser
essere
essertines
essi
esslingen
est
esta
estaa
estad
estadi
estat
estate
este
estend
estension
estensiu
estensiunalitaa
ester
estern
esterna
esterni
esterno
estes
estesa
esti
estimo
estint
estinzion
estiv
estiva
eston
estonia
estrazion
estre
estrem
estrema
estremament
estremita
eswatini
et
eta
etaa
etc
ete
eterna
ethnologue
eti
etica
etice
eticheta
etimologia
etimologico
etiopia
etnea
etneo
etnia
etnici
etnografia
eto
etr
etru
etrusch
ettore
eu
euclide
eufemia
eufonica
euge
eugenio
eule
euler
eup
eupen
eurasia
eure
euro
eurocity
europa
europaea
europaeus
europe
europea
european
europee
europei
europeista
europeo
eurostar
eurupea
ev
eva
evan
evangelista
evans
eve
even
event
ever
everything
eves
evi
evic
evide
evidence
evident
evidenza
evita
evo
evolution
evoluzion
evoluzione
evoluzzion
evskij
evulu
evulusiu
ex
exclave
exists
exp
exploit
expo
express
extra
extraurbana
extraurbane
eyes
ez
eze
ezempla
ezi
ezina
ezio
eziste
ezova
f
fa
faa
fabbrica
faber
fabio
fabiso
fabrega
fabri
fabriano
fabrica
fabricasiu
fabrizio
fac
facc
faccia
facciada
face
facebook
faceva
facia
faciada
facil
facilita
facilme
facilment
facolta
fact
factfinder
facto
factor
fad
fada
fade
fadi
fadiga
faentina
faenza
faga
fagh
fagnan
fagnano
fagot
fai
faia
faid
fait
faita
faite
faits
faj
fal
fala
falconara
falcone
fall
falla
falliment
falo
fals
falsa
fam
fama
fame
famegli
fameglia
fameia
famej
fameja
fami
famicom
famigli
famiglia
famiglie
famija
famili
familia
familiar
familie
families
family
famm
famo
famos
famosa
famu
famus
famusa
fan
fanfani
fann
fano
fans
fant
fantasia
fantasma
fantasy
fanteria
fao
far
fara
faramir
fare
farghe
fari
faria
farina
farini
farmacia
farmer
faro
faroe
farra
faruu
fas
fasa
fasc
fascia
fasciata
fascismo
fascista
fase
fasend
faseva
faseven
fasi
faso
fasoeu
fass
fassa
fasse
fassism
fassista
fast
fastidi
fat
fata
fate
fati
fatiga
fato
fatt
fatta
fatti
fatto
fattor
fatu
fau
faure
fausto
fava
favan
favo
favola
favor
favore
favorevol
favori
favorid
favorida
favorii
favu
favur
fazil
fazion
fc
fdi
fdp
fe
feat
febbraio
febra
febrar
febre
february
fech
fed
fede
fedee
fedel
fedelta
federa
federai
federaj
federal
federala
federale
federalism
federalismo
federalista
federazion
federazione
federazzion
federich
federico
federigh
fee
feiez
feldkirch
feli
felice
felicita
felis
felix
feliz
feltre
femena
femina
femini
feminil
feminin
femm
femminil
femna
fen
fene
fenestra
feni
fenitiva
feno
fenomen
fenouillet
fer
fera
ferara
ferares
ferdinand
ferdinando
feri
ferid
ferida
ferii
ferm
ferma
fermaa
fermad
fermada
fermade
fermate
fermen
fermentasiu
fermi
fermo
fern
ferna
fernando
ferovi
ferovia
ferr
ferra
ferrara
ferrari
ferrea
ferree
ferrer
ferrera
ferret
ferri
ferrie
ferro
ferrotramviaria
ferrovia
ferroviari
ferroviaria
ferroviario
ferrovie
ferrovienord
ferrovij
fers
fertil
fertilita
feruvia
fes
fescia
fess
fest
festa
feste
festegia
festival
feud
feudatari
feurs
feva
fever
fevre
fevree
fevrer
ff
ffikon
ffs
fg
fi
fia
fiaa
fiach
fiad
fianch
fiander
fiat
fiber
fibra
fic
fica
ficaria
ficc
fich
fiche
ficia
ficial
fico
fiction
fida
fidaa
fidegh
fidenza
fidu
fiducia
fie
field
fiera
fiesch
fiesso
fieui
fieul
fifa
fig
figa
figh
figi
figin
figli
figline
figlio
figliœu
fign
figu
figur
figura
figure
fii
fil
fila
filame
file
files
filet
filg
fili
filip
filipinn
filipp
filippo
filisur
film
filo
filobus
filologico
filon
filosof
filosofe
filosofia
fils
filter
filusufia
fin
fina
finai
final
finala
finale
finalment
finanz
finanza
finanziament
finanziari
fine
finestra
fini
finid
finida
finii
finira
finiss
finissa
finissen
finiva
finlandes
finlandesa
finlandia
finn
finna
fino
fint
finta
fio
fioca
fioeu
fioeui
fioeul
fioeula
fiol
fiolin
fiolina
fiolit
fiolitt
fior
fiora
fiorano
fiore
fiorentin
fiorentina
fiorentino
fiorenza
fiorenzo
fiori
fir
fire
firefox
firense
firenz
firenze
firewall
firm
firma
firmaa
firmad
firmada
first
fis
fisarmonega
fisc
fiscal
fischbach
fisega
fisegh
fisica
fisicament
fisich
fiss
fissa
fissaa
fit
fita
fite
fiu
fiuli
fium
fiumalto
fiume
fiumicino
fiumm
fiur
fiura
fiure
fiuridu
fiœl
fiœu
fl
fla
flag
flags
flash
flat
flaut
flavio
fle
flexity
fli
flirt
flo
floccus
floppy
flora
florac
flores
florian
florida
flota
flotta
flow
flowering
flu
fluid
fluss
fly
fm
fn
fnestra
fnm
fo
fodom
foeniculum
foeu
foeugh
foeuj
foeuja
foeuje
foeura
foeurmen
foggia
foi
foie
fol
fola
folbal
folball
folber
folclore
foligno
folk
folla
fomna
fomne
fon
fond
fonda
fondaa
fondad
fondada
fondador
fondadu
fondame
fondament
fondamenta
fondamentai
fondamentaj
fondamental
fondasiu
fondator
fondazion
fondazione
fondazzion
fondi
fondo
fonds
fone
fonetega
fonetegh
fonsg
font
fontaines
fontana
fontane
fonte
fonti
fonzio
fonzion
fonziona
fonzionament
fonzionari
fonzionava
fonzionen
foo
food
football
foppon
for
fora
forall
forbes
forca
forcalquier
force
forchheim
forcola
ford
fore
forel
forest
foresta
foreste
forestee
forester
forever
forlan
forlanini
forli
form
forma
formaa
formad
formada
formagg
formai
formal
formalment
formar
formasiu
formation
formazio
formazion
formazione
formazza
formazzion
forme
formen
forment
formentini
formenton
formi
formia
formola
formula
forn
forna
fornas
fornero
forni
fornid
fornida
fornidura
fornii
forniss
forno
foro
fors
forsa
forse
forsi
forst
forsythia
fort
forta
forte
fortement
fortezza
fortificazion
fortore
fortschreibung
fortuna
fortunella
forum
forz
forza
forze
fosch
fosfolipids
foss
fossa
fossalta
fosse
fossi
fossil
fota
foto
fotogra
fotografia
foton
fotosintesi
found
foundation
four
fox
fpo
fr
fra
fraa
frabosa
frac
fraca
fracch
frach
frad
frade
fradei
fradej
fradel
fradelanza
fradell
frame
fran
franc
franca
francavilla
france
francees
frances
francesa
francesc
francesca
francesch
francesco
francese
francesism
franch
franche
franches
franchi
francia
franciacu
francis
francisco
franco
franconia
frank
franklin
fransa
franse
franz
franza
franze
franzes
franzesa
franzesch
franzo
fras
frasal
frasch
frasio
frasiu
frasso
frat
frate
fratelli
fratello
frati
fratta
fratte
frattemp
frauenfeld
frazio
frazion
fraziu
fraziun
frazzion
frazziun
fre
freca
frecass
frecc
frecce
frecciabianca
frecciargento
frecciarossa
fred
frede
fredej
fredell
free
freedom
frega
fregg
freggia
fregia
fregue
freguenz
freguenza
freising
frejus
french
freque
frequent
frequenta
frequentaa
frequentada
frequenza
fresca
fresch
freudenstadt
freyung
fri
fribu
friburgh
friburgo
frica
friedberg
friedman
friedrich
friedrichstraße
frigna
frignano
frison
fritt
friul
friuli
fro
frodo
from
front
fronta
frontal
fronte
frontera
frosinone
fru
frusta
frut
fruta
frutigen
frutt
fry
fs
ftan
fu
fude
fudess
fudessen
fuga
fugu
fuiuli
ful
fulcheria
full
fulmen
fulmin
fulvio
fum
fuma
fumbi
fun
funa
fund
funda
fundaa
fundada
fundadur
fundi
fundiss
funema
funeral
funetica
funk
funsg
funsiu
funt
funtana
funzion
funziona
funziu
funziun
fuoco
fuori
fur
furestee
furia
furka
furla
furlan
furm
furma
furmaa
furmada
furmai
furmaziun
furme
furmen
furmintu
furmula
furnegaziu
fus
fusil
fusilaa
fusion
fusions
fuss
fussa
fusse
fussen
fussi
fust
fut
futu
futur
futura
future
futuro
fuu
fy
fœra
fœura
g
ga
gaa
gaba
gaber
gabi
gabia
gabian
gabina
gabine
gabola
gabon
gabriel
gabriele
gada
gadu
gae
gaetano
gaggian
gaggiava
gaggio
gagliano
gai
gaia
gaina
gais
gaitan
gajaa
gal
gala
galant
galanthus
galaraa
galbiaa
gale
galeaz
galeazz
galera
galeri
galeria
gales
gali
galia
galilei
galileo
galizian
galizzia
galizzian
gall
galla
gallaraa
galleria
gallery
galles
galli
gallia
gallien
gallo
galu
gam
gama
gamb
gamba
gambara
gambaro
gambe
gamber
gambi
gambia
game
gamecube
games
gamma
gamp
gan
ganassa
gandalf
gandi
gandolla
ganga
ganna
gap
gar
gara
garage
garanti
garantii
garantiss
garbagna
garbagnaa
garci
gard
garda
garde
garden
gardena
gardens
gardeza
gardu
gare
garfagnana
gargna
garibaldi
garlaa
garlasch
garmisch
gary
garzanti
garzon
gas
gasg
gasgian
gaso
gasperi
gass
gassiu
gaster
gasteria
gat
gata
gate
gates
gatt
gauss
gavaria
gave
gavesse
gaveva
gavi
gaviraa
gay
gaza
gazetteer
gaziun
gazzetta
gazzo
gb
ge
gebietsstand
gel
gela
gemeinde
gemeinden
gemeindeverzeichnis
gemelaa
gemelada
gemini
gemma
gemo
gen
gena
genar
gendarmeria
gender
gene
gener
genera
generaa
generaal
generai
general
generala
generale
generalitat
generalme
generalment
generasiu
generation
generator
generazion
generich
genetica
geneveys
genevois
geni
genitor
genitu
gennaio
geno
genoa
genova
genoves
gent
gente
gentil
gentile
gentiloni
genua
genus
geo
geoffrey
geogra
geografega
geografegh
geografia
geografica
geoirs
geome
geometri
geometria
georg
george
georges
georgetown
georgia
georgian
ger
gera
gerard
gerg
gergh
gerhard
geri
germ
germa
germain
german
germanega
germanegh
germania
germanica
germanich
germanigh
germano
germanofona
germany
gerra
gersau
geru
gerundi
gerusalemm
gerusalemme
gervais
ges
gesa
geschichte
geschlecht
gese
gesetta
gesioeu
gess
gessaa
gest
gesti
gestida
gestii
gestion
gestione
gestiss
gestor
gesu
gesundbrunnen
get
gex
gezu
gfs
gg
ggh
ggia
gh
gha
ghana
ghe
gheddafi
ghei
ghel
ghela
ghell
ghem
ghen
gher
ghesslar
ghi
ghia
ghielm
ghigna
ghil
ghisa
ghitara
ghitarista
ghitarra
gi
gia
giaa
giaca
giacom
giacomo
giacum
giagum
giald
gialda
giallo
giamo
gian
giancarlo
giand
gianda
giande
giandi
gianfranco
gianluca
gianni
giano
gianturco
giapon
giapones
giappo
giappon
giappone
giappones
giapponesa
giapu
giapun
giapunes
giardi
giardin
giardini
gias
giazz
giazzee
gibbaeum
gibilterra
gica
gich
giche
gie
gier
giffoni
gigant
gigi
gigli
gignac
gil
gilbert
gilberto
gili
gimli
gimnospe
gin
gina
gine
ginece
ginee
ginevra
ginnasi
gino
gins
gio
gioa
gioann
gioco
gioeugh
gioia
gioiosa
giolitti
gion
gionta
giontaa
giontada
gionten
giordania
giordano
giorg
giorgg
giorgia
giorgio
giorna
giornad
giornada
giornai
giornal
giornale
giornalista
giorni
giorno
giov
giovan
giovani
giovann
giovanna
giovanni
giove
giovedi
gioven
gioventu
giovin
giovina
giovo
gir
gira
giraa
girada
girament
giren
girl
girls
giro
girolamo
giron
girona
git
giu
giua
giuan
giuann
giubiana
giubilee
giudea
giudee
giudes
giudizzi
giuen
giuffre
giuga
giugaa
giugador
giugliano
giugn
giugno
giuin
giuli
giulia
giuliacci
giulian
giuliano
giulio
giunta
giuntaa
giur
giura
giurament
giurdania
giurisdizion
giurisprudenza
giurista
giurna
giurnal
giurnalista
gius
giusepp
giuseppe
giussan
giust
giusta
giusti
giustina
giustisia
giustissia
giustizia
giustizzia
giusto
giuvan
give
gj
gja
gju
gjuunt
gl
gla
glacial
gladiatur
glarona
glaruna
glasgow
glass
glechoma
gli
glia
glie
glio
glis
glo
global
gloria
glossary
glu
glucosa
gn
gna
gnach
gnaga
gnamo
gnan
gnanc
gnanca
gnanch
gnasch
gne
gnemo
gnen
gnent
gnente
gner
gni
gniva
gno
gnocchi
gnoeu
gnu
gnuu
go
god
goda
gode
goe
goerna
goes
goeub
goeubba
goffred
goffredo
gofre
gofred
gofredo
goga
gol
gola
gold
golden
gole
golf
golfo
gollum
golp
gomma
goms
gon
gondor
gonza
gonzaga
good
goodbye
google
gora
gorbac
gorbaciov
gordon
gordona
gorgonzoeula
gori
gorisia
gorizia
gorla
gornaa
goss
gossau
got
gotard
gotegh
goti
gotifre
gott
gotta
gottard
gotthard
gotti
gottifre
goumoens
gov
gove
govern
governa
governaa
governad
governada
governador
governativ
governator
governi
government
governo
gp
gr
gra
graant
grabfeld
grace
grad
gradi
gradient
grado
graf
grafe
grafega
grafegh
grafenau
grafi
grafia
grafica
grafich
grafiche
grafie
grafill
grafo
graham
gram
grama
gramatega
grame
gramm
grammatica
gran
grana
granada
grancc
grand
granda
grande
grandeza
grandezza
grandi
grandson
grane
granges
grani
granii
grant
grapa
grappa
gras
grasie
grass
grassa
grasse
grassie
grasso
grata
gratis
grav
grave
gravedona
gravidanza
gravina
gravita
gray
grazi
grazia
grazie
grazzia
grazzie
gre
great
greatest
grec
greca
grech
greci
grecia
greco
green
greene
greenwich
greg
grega
gregh
grego
gregori
gregoria
gregorio
grengiols
grenoble
gressoney
grev
gri
grierson
grigioni
grigna
grigno
grigoeu
grillo
grimaldi
grin
gris
grisa
grischun
grison
grisones
grisun
gro
groenlandia
gron
grondezza
groove
grop
gropp
gros
gross
grossa
grosse
grosseto
grossi
grosso
grossolan
grotte
ground
group
grove
gru
grugn
grumo
grup
grupp
gruppo
gruye
grœp
gt
gtt
gu
gua
guadagn
guadagna
guadalajara
guai
gualdo
gualtieri
guant
guar
guard
guarda
guardia
guardian
guardij
guari
guarna
guasco
guascogna
guasta
guastalla
guatemala
gucci
gud
gue
guelf
guer
guera
guern
guerna
guerr
guerra
guerre
guerrer
guez
gufi
gugia
guglielmo
gui
guida
guidaa
guidad
guidada
guide
guido
guinea
guit
gula
gulf
gun
gunzenhausen
gur
gure
guru
guss
gust
gustav
guvernu
guy
guzz
guzza
guzzi
gwa
gwar
gy
gyeongsang
gymnadenia
gɛt
h
ha
haa
habia
habitat
hack
hacker
had
hai
haiti
hall
hamas
hamburger
hamilton
hamlets
hammersmith
hamry
han
hand
handbook
handel
handicappaa
hane
hangul
hanja
hann
hanno
hannover
hans
hape
happy
hara
haraldson
hard
hardcore
hardware
hare
harrow
harry
harvard
has
hash
hasle
hat
hauptbahnhof
hausen
haut
haute
hauterive
hautes
hauteville
havara
havaria
havariss
have
havegh
havel
haver
haveva
haveven
haviva
havli
havress
havud
haw
hawaii
haworthia
hayashi
haßberge
hco
he
health
heart
heat
heavy
heck
hed
hee
heer
heet
heidelberg
heidenheim
heilbronn
heinrich
heinz
hel
helleborus
helsinki
hem
hemm
hen
henn
henri
henry
her
hera
herbert
here
hergiswil
heritage
hermann
hermitage
hers
het
heu
heva
hey
hi
hiern
high
highway
hii
hilaire
hill
hillary
himalaya
hin
hinn
hinterland
hinterrhein
hinwil
hip
his
hispania
hispaniga
histoire
historia
historical
history
hit
hitachi
hitler
hits
hiv
hiva
hl
hldorf
hle
hledorf
hlhausen
hli
ho
hobbit
hobby
hochdorf
hochrhein
hochschwarzwald
hodoni
hoepli
hof
hofer
hofstetten
holderbank
holding
hollywood
holmes
holstein
home
homepage
homme
honda
honduras
hong
hoo
hook
hop
hor
hora
horgen
horizonte
horn
horni
horw
hory
hos
hospital
host
hot
hotel
house
houston
how
howard
hp
hpa
hr
hra
hradec
hradis
hrer
hrus
htm
html
http
https
hu
hugo
hukapan
hull
human
hume
humilis
humus
huu
huygens
hy
hydrangea
hypochaeris
hz
i
ia
iai
ibe
ibidem
ibm
ibn
ibrid
ic
ica
icc
ice
ich
iche
ichiro
ichov
ichovice
ichu
id
ida
ide
idea
ideal
idee
idei
idej
ideja
identifica
identificaa
identificati
identification
identita
identitaa
ideologia
idevv
idi
idioma
idraulica
idrich
idro
idrogen
idrografia
ie
iec
iefp
ier
iera
ieri
if
iga
iglesias
ignazio
igni
igor
iguaal
iguaj
iguala
igualtaa
ii
iii
ij
il
ilanz
ilario
ilg
iliad
iligi
ilina
ill
illegal
illinois
ilo
ils
ilu
im
ima
image
imagen
images
imagin
imaginari
imagna
imboden
imbro
imbroja
imdb
ime
imita
imma
immagin
immanuel
immigraa
immigrazion
immunita
imola
imov
impa
impara
imparaa
imparand
imparando
impast
impastato
impe
impedi
impedii
impegn
impegna
impegnaa
imper
imperador
imperadris
imperadu
imperadur
imperaduur
imperativ
imperator
imperfet
imperfett
imperi
imperia
imperiai
imperial
imperiala
impero
impia
impiant
impianti
impiegaa
impieni
impienida
impienii
implica
implunemanc
impo
importa
important
importanta
importante
importants
importanza
impossibel
impossibil
impost
imposta
impre
imprend
imprender
imprenditor
impres
impresa
impresari
imprese
impression
impronta
improvis
improvista
impu
impunemanch
impurta
impurtaant
impurtant
impurtanta
impurtanza
imst
in
ina
inans
inants
inanz
inaugu
inaugura
inauguraa
inaugurada
inc
inca
incaregh
incarich
incarico
incasi
incav
ince
incendi
incentrada
incide
incident
incidenta
incidenza
incio
incircuncisiu
incisa
incision
inclu
inclus
inco
incoativ
incoeu
inconter
incontra
incontraa
incontrari
incontren
incoronazion
incorrect
incros
incrosa
incu
incudin
incuntra
incœ
incœu
ind
inda
indaga
indagaa
indagin
indal
indala
indar
inde
indel
indela
inden
independent
independentism
independentista
independenza
indeperlee
indeperlor
indeperlu
indes
index
indi
india
indian
indiana
indica
indicaa
indicad
indicada
indicativ
indicazion
indipende
indipendent
indipendenta
indipendentism
indipendentista
indipendenza
individov
individuaj
indo
indoa
indoe
indoeuropea
indonesia
indov
indova
indove
indovina
indre
indree
indrio
indro
indu
indua
indue
indul
indun
indunesia
industri
industria
industriai
industrial
industriale
induve
ine
inedit
inediti
inf
infa
infanzia
infatt
infectious
inferior
inferiora
inferiore
inferiu
infern
infetta
infettaa
infezion
infezzion
infi
infilera
infin
infina
infinid
infinida
infinii
infinita
influ
influenz
influenza
influenzaa
info
informa
informasiu
informassiu
informatega
informategh
informatich
information
informazion
informazzion
infra
infraross
infrastruttur
infrastruttura
infrastrutture
infty
infurmaziun
ing
ingana
ingann
ingegnee
ingegner
ingegneria
ingenera
ingeneren
ingenov
ingetiva
inghilte
inghiltera
inghilterra
ingiu
ingiuria
ingle
inglees
ingles
inglesa
inglese
ingolstadt
ingra
ingrass
ingrassa
ingrassadura
ingredie
ingredient
ingress
inguaa
inguai
ini
inibizion
inizi
inizia
inizial
iniziativa
inizzi
inizzial
inluminazion
inluminism
inn
inna
innamora
innanz
inno
innsbruck
ino
inoltra
inondazion
inpreza
input
inquand
inquinament
inrabi
ins
inscambe
inscambi
insce
insci
inse
insediament
insee
insegna
insegnaa
insegname
insegnament
insegnant
insegne
insegni
insem
insema
insemm
insemma
inseri
inset
insett
insi
insieme
inskij
instabil
instabilita
installa
institu
institut
institute
instituto
insu
insubid
insubida
insubiss
insubria
insula
insult
insulta
int
inta
intal
intant
intanta
inte
integher
integra
integraa
integrada
integral
integralment
integrativa
integrazion
integrita
intel
intela
inteligenza
intelvi
intend
intenden
intender
intendom
intensita
intent
intenzion
inter
interazion
interchange
intercity
intere
interess
interessa
interessaa
interessad
interessant
interessanta
interfaccia
interferenza
interim
interlaken
intermedi
intermedia
intern
interna
internasiuna
international
internazionai
internazional
internazionala
internazionale
internaziunal
internazzional
internazzionalizzad
interne
internet
interni
interno
interogative
interpreta
interpretaa
interpretada
interpretazion
interregio
interscambi
intersezziu
interstatal
interstate
interurban
interurbana
interva
intervall
interve
intervent
intervista
intervocalega
intestin
intimian
into
intoren
intorn
intorna
intorno
intra
intragna
intransitiv
intratant
intrattant
intrave
intraversa
intre
intreegh
intreg
intrega
intregament
intregh
intres
intro
introdo
introdu
introduction
introduzion
introduzione
introduzzion
intu
inturen
inturn
inturna
inu
inultra
inutil
invaduu
invasion
inve
invece
inveci
inventa
inventaa
inventad
inventada
inventario
inventor
invenzion
inverigh
invern
inverna
invernai
invernal
inverno
invers
inversa
inversadura
investiment
invia
inviaa
inviada
invida
invidia
invo
inziga
io
ioannes
ion
ionica
ionio
ios
iowa
ip
ipa
iphone
ipo
ipotesi
ir
ira
iragna
irak
iran
iraq
irccs
irchel
ire
iregolar
iregolarita
ireland
irigazio
irigazion
irlanda
irlande
irlandes
irlandesa
iron
ironia
irpina
irpino
irradiazion
irregolar
irrigazione
is
isa
isaac
isabella
isaia
isargh
isbn
ischia
isci
iscri
iscritt
iscriv
iscrizion
iscrizzion
ise
isee
isella
isen
iseo
isep
isepp
isernia
isis
isla
islam
islamega
islamegh
island
islanda
islandes
islands
isle
iso
isol
isola
isolaa
isolada
isolame
isolament
isole
isonzo
isote
ispagnoeu
ispira
ispiraa
ispirad
ispirada
ispirazion
ispirazzion
israel
israelian
israell
iss
issa
isse
isser
issera
issime
issn
isso
issue
ist
ista
istanbul
istat
iste
istess
istessa
isti
istitu
istituida
istituii
istitusiu
istitut
istituto
istituzion
istituzional
istituzzion
isto
istorega
istoregh
istoria
istres
istria
istrian
istriota
istru
istrume
istrument
istruzion
istruzzion
isul
isula
isvizzera
it
ita
itaglia
italegh
italia
italian
italiana
italiane
italiani
italianism
italiann
italiano
italica
italich
italici
italo
italy
ite
itinerari
ito
its
itt
iu
iucn
iupac
ius
iv
iva
ivan
ivano
ive
ivrea
ix
iz
ize
izo
izola
j
ja
jaarsv
jablonec
jack
jackson
jacom
jacopo
jacques
jahre
jahresbeginn
jakob
jallieu
james
jamo
jan
janaci
jane
janeiro
jannacci
janov
janovice
january
japonica
jara
jarawa
jarnot
java
javascript
jay
jazz
je
jean
jeans
jeff
jefferson
jenar
jener
jeneral
jeni
jens
jent
jeolla
jer
jera
jeremy
jermania
jersey
jeru
jeseni
jesi
jessica
jestr
jesu
jesus
jet
jeune
jezd
jezdec
ji
jic
jih
jihlava
jim
jimmy
jindr
jir
jizerou
jo
joa
joan
joann
jobs
joe
jogadors
johan
johann
johannes
john
johnny
johnson
jon
jona
jonathan
jones
jong
jonica
jonico
jonta
jorat
jordan
jordi
jorge
jose
josef
josep
joseph
joule
journal
jov
jovice
joyeuse
jpg
jpl
jr
ju
juan
julia
julien
julius
july
june
juno
junts
jura
just
justice
justin
jut
juta
jutt
jutta
juttaa
juventus
juwoi
k
ka
kai
kaiser
kaiserstuhl
kal
kaliningrad
kallnach
kam
kamenice
kamenny
kan
kanji
kansas
kappel
kar
kara
kare
karl
karlovy
karlsruhe
kart
karvina
kas
kassel
kate
katowice
kazakistan
kb
kd
ke
keen
kelheim
kelvin
ken
kennedy
kenneth
kent
kentucky
kenya
kernel
kerzers
kevin
kew
key
kg
khz
ki
kiev
kilchberg
killer
kilometer
kim
king
kingdom
kini
kirchberg
kirchdorf
kirghizistan
kis
kiss
kissingen
kit
kitzbu
kitzingen
kla
kladno
kladruby
klatovy
klaus
klein
klosters
klotz
km
kne
kni
know
ko
koch
koda
koechlin
koine
kol
koli
koma
komi
kon
kong
kor
kora
korea
korean
kos
kosovo
kostelec
kov
kova
kovice
koz
kp
kpa
kr
kra
kraj
krasnodar
kreis
kreise
kreisfreie
kriens
kro
kronach
kru
krumlov
ks
kt
ku
kudrinskij
kudrinsky
kufstein
kuiper
kulm
kulmbach
kumquat
kuntze
kupfer
kur
kurosawa
kurt
kutna
kuwait
kv
kwa
ky
kyburg
kyiv
kyj
l
la
laa
laar
laba
labem
labor
laborato
laboratori
laboratory
lac
lacc
lach
lader
ladi
ladin
ladina
ladra
lady
lag
laga
lager
lagh
laghee
laghett
lagna
lago
lagrasse
lai
lainaa
lainsci
lake
lam
lama
lambda
lamber
lambert
lambraa
lambro
lame
lamenta
lamezia
lamina
lamon
lampada
lampo
lampugnan
lamu
lan
lana
lancaster
lanceola
lancia
lanciano
land
landau
landeck
lander
landesamt
landi
landkreis
landolf
landquart
landrian
landsberg
landshut
landtag
lane
lang
langhe
langnau
langobardorum
language
languages
langue
languedoc
langwies
lanka
lans
lanz
lanza
lanzada
lanzian
lanzo
lao
laon
laora
laos
lapa
lapis
lar
lara
lare
larga
largentie
largh
larghe
larghezza
lari
larian
lario
las
lasa
lascia
laser
laserdisc
lassa
lassaa
lassad
lassada
lassava
lassen
last
lastra
lat
latera
laterai
lateral
laterza
lati
latin
latina
latino
latitu
latitudin
lato
latt
latte
lau
laufen
laufenburg
laur
laura
lauraa
laurea
laureaa
lauread
laureada
laurent
lauro
lausanne
lausannois
lava
lavagna
laval
lavaux
lave
laven
lavena
laver
lavis
lavizzara
lavo
lavor
lavora
lavoraa
lavorad
lavorador
lavorant
lavorar
lavorator
lavorava
lavorazion
lavorazzion
lavoren
lavorent
lavoreri
lavori
lavoro
lavranos
lavura
law
lawrence
lay
laz
laziale
laziali
lazio
lazion
lazz
lazza
lazzaa
lazzaro
lazzi
lber
lc
lca
lcc
lch
lche
lcol
lcro
ld
lda
lde
ldi
le
lea
leaa
leader
league
learning
leben
lebern
lec
leca
lecc
lecce
lecch
lecches
lecchesa
lecco
lech
led
lee
leet
left
leftrightarrow
leg
lega
legaa
legaj
legal
lege
legend
legenda
leger
legg
legge
leggenda
leggera
legh
leghista
legi
legion
legisladura
legislativ
legislativa
legislatura
legittim
legn
legna
legnamee
legnamer
legnan
legnanes
legnano
legno
legria
lei
leibniz
lej
lem
lema
lemene
lemeza
lemy
len
lenga
lengnau
lengov
lengove
lengu
lengua
lenguagg
lengue
lenguf
lenguista
lenguistega
lenguistegh
lenguistigh
lenguv
lenin
lenn
lens
lensg
lensger
lent
lenta
lentaa
lenzburg
leo
leocci
leon
leonard
leonardo
leone
leoni
leopold
leopoli
leough
lepontinn
leq
ler
lera
les
lesa
lescen
lesg
lesi
lesna
less
lessegh
lessico
lessiviazion
let
leta
leter
letera
leteradu
leteradura
leteralame
leteralment
leterari
leteraria
letere
letizia
leton
letonia
letor
lett
letta
letter
lettera
letteraa
letteradura
letterari
letteraria
letteratura
lettere
letton
lettonia
lettor
lettura
letu
letzten
leu
leucemia
leuk
leva
levaa
levad
levada
levant
levante
level
leventina
leventines
levi
lewis
lex
lez
lezione
lezioni
lf
lfo
lga
lgaria
lgbt
lgher
lgn
lhota
lhotka
li
lia
liaa
liad
lian
lianza
liban
libe
liber
libera
liberaa
liberada
liberai
liberaj
liberal
liberala
liberale
liberalism
liberament
liberazion
liberazzion
liberec
liberi
liberia
liberism
liberista
libero
liberta
libertaa
libertari
libertarian
liberty
libia
libor
library
libre
libreria
libri
libro
lic
lica
lice
licee
licenza
liceo
lich
lichtenberg
lichterfelde
licini
lid
lida
lido
lie
liechtenstein
liegi
lienz
lierna
liestal
lieu
life
liga
ligaa
ligad
ligada
ligade
ligam
ligamm
ligera
light
lign
ligna
lignu
ligny
ligu
ligur
ligure
liguria
ligustrum
like
lili
lilinsci
lilium
lilla
lim
lima
limbiaa
limit
limita
limitaa
limitad
limitada
limitazion
limitazzion
limiti
limits
limmat
limon
limoux
limu
lin
lina
linaa
lincoln
linda
lindau
lindl
line
linea
linear
lineara
linee
linej
linger
lingera
lingoa
lingua
linguaggi
lingue
lingui
linguista
linguistega
linguistic
linguistica
linguistich
linia
linie
link
linke
linnaeus
linne
lino
linosa
linthal
linus
linux
lio
lion
lione
lipsia
liqued
liquid
liquida
liquor
lir
lira
lire
liri
lis
lisa
lisander
lisbona
lisca
liscia
lisi
lissa
lissander
lissandria
lissandrin
lisson
list
lista
liste
lit
lita
lite
liter
literadu
literadura
literno
lithops
liti
litome
litta
litteradura
little
litu
litua
lituan
lituania
liu
liutprand
live
livel
livell
livenza
livign
living
livorno
livre
livrea
liz
lizi
lkerung
lkerungsstandes
ll
lla
lle
ller
lli
llikon
llit
lln
llo
llobregat
llui
llul
llula
lma
lmen
lmo
ln
lni
lo
loca
locaa
locai
locaj
local
locala
locali
localisaa
localisat
localita
localitaa
localment
locarn
locarna
locarno
locau
locke
lockhart
locle
loco
locomotiv
locomotiva
locri
locuzzion
lod
loda
lode
lodesan
lodesana
lodi
lodigiano
lodovigh
loe
loeugh
log
loga
logaritm
loggia
logh
logica
logich
logo
logos
lohn
loi
loira
loire
loja
lom
lomazz
lomazzo
lomba
lombarcc
lombard
lombarda
lombarde
lombardi
lombardia
lombardiabeniculturali
lombardo
lombards
lomellina
lon
lona
lonaa
london
londra
londres
long
longa
longh
longhe
longhezza
longo
longoba
longobard
longobarda
longobardi
lonicera
lonigo
lons
lonta
lontan
lontana
lontra
loo
look
lor
lora
lord
lore
lorena
lorentegg
lorenz
lorenzo
loreto
lorett
lori
loria
loro
los
losanna
lost
lot
lota
loton
lott
lotta
lou
louc
louis
louisan
louisiana
louisville
louny
lour
lov
lova
love
lovecraft
lover
lovice
low
loze
loð
lp
lpe
lpi
ls
lsa
lsi
lt
lta
ltaa
ltar
ltd
lte
ltem
ltema
lter
lti
ltim
ltima
ltimm
ltor
ltra
ltre
ltu
lu
lua
luc
luca
lucal
lucalita
lucania
lucano
lucca
luce
lucens
lucerna
lucerne
luchin
lucia
luciani
luciano
lucida
lucido
lucille
lucio
lucro
ludesa
ludesan
ludesana
ludovico
ludria
ludwig
ludwigsburg
luf
luga
lugan
luganega
luganes
lugano
lugansk
luglio
lugo
luhans
lui
luigi
luin
luis
luisa
luj
luja
luka
lula
lule
lully
lum
lumba
lumbaart
lumbard
lumbarda
lumbarde
lumbardi
lumbardia
lumin
luna
lunari
lunch
lundra
lune
lunedi
lung
lunga
lungern
lungh
lunghe
lunghezza
lungo
lunigiana
lunta
luntan
luoghi
luogo
lur
lura
luragh
lurati
lure
lus
lusana
luserna
lussana
lussemborgh
lussemburgh
lusso
luster
lustra
lutra
luu
luur
luv
luz
lv
lver
ly
lyon
lyons
lys
lyssach
lyssavirus
lz
lœg
lɛ
lɛt
m
ma
maa
maanch
mac
macagn
macaron
macc
maccagn
macchia
macchin
macchina
macchine
macchinista
macedo
macedon
macedonia
macerata
mach
machee
machina
machine
macia
macintosh
macmillan
macomer
macra
macrian
macro
madagascar
madale
madame
maddalena
maddaloni
made
mader
maderlengua
maderno
madison
mado
madona
madonna
madre
madrid
madu
madur
madura
maduranza
mae
maesta
maester
maestra
maestro
mafia
mag
maga
magadin
magara
magazzin
magenta
magg
maggi
maggia
maggio
maggioli
maggior
maggiora
maggioranza
maggiore
magher
magia
magic
magich
magio
magior
magiora
magioranza
magistraa
magistretti
magiu
magiur
magiura
magiuranza
magliano
maglie
magn
magna
magnagh
magnago
magnan
magne
magnesio
magnetica
magnetich
magni
magno
mago
magoga
magon
magra
magu
magunza
mai
maia
maida
maienfeld
mail
main
maine
maio
maira
maire
mais
maister
maj
maja
majaa
major
maka
make
making
makino
mal
mala
malaa
malad
malagn
malann
malatesta
malati
malatia
malatie
malatti
malattia
malawi
malaysia
malcanton
male
malench
malesch
malesia
malfa
malgraa
mali
malign
malinconia
malinconich
malnaa
malo
malora
malpensa
mals
malta
maltrata
malva
malvaja
malware
mama
mamert
mami
mamifer
mamma
man
mana
management
manager
manara
manc
manca
mancanza
manch
manchen
manchester
mancina
manda
mandaa
mandad
mandada
mandament
mandela
mandell
manden
mane
manega
manegh
manema
maneman
maner
manera
manere
manesgia
maneta
manfredi
manga
mangane
mange
mangen
mangi
mangia
mangiaa
mangiad
mangiada
mangiar
mangiava
mangio
mango
mangoni
mani
manice
manich
manie
maniera
manife
manifest
manifesta
manifestazion
manifestazzion
manita
mann
manna
mannelli
mannheim
manning
mano
manoscrit
manoscritto
mans
mansell
mansi
mansina
manta
mante
mantegn
mantegni
mantegnu
mantegnuu
mantigni
mantoa
mantoan
mantova
mantovan
mantovano
mantua
manu
manuai
manual
manuale
manuel
manutenzion
many
manz
manzina
manzon
manzonad
manzonada
manzoni
mao
maomet
map
mapa
mape
mappa
mappe
maps
maqina
mar
mara
maran
marano
marbach
marc
marca
marcaa
marcada
marcador
marcall
marcel
marcellin
marcello
march
marche
marches
marchesa
marchi
marchigian
marchio
marcia
marco
marconi
marcus
mare
marea
maresciall
margaret
margarita
margherita
margin
mari
maria
marian
mariana
marianna
mariano
marid
marida
maridaa
maridad
maridada
marie
marii
marin
marina
marine
marino
mario
maritime
marittima
marittimo
mark
market
markt
marktgemeinde
marmi
marmor
marmora
marna
marnand
marne
maro
maroch
maron
marone
maroni
maross
marradi
marron
mars
marseiler
marseja
marshall
marsi
marta
marte
martel
martell
martello
marter
martesana
marti
martigny
martin
martina
martine
martini
martino
martir
maru
marx
mary
maryland
marz
marzano
marzi
marzo
mas
masa
mascc
maschera
mascherpa
maschi
maschil
masciagh
masculin
mase
masen
masera
masg
masi
masna
masnaga
mason
mass
massa
massacher
massachusetts
massaja
masse
massera
massi
massim
massima
massimilian
massimiliano
massimo
massin
massiv
massizz
master
mat
mata
matai
mate
matee
matema
matematega
matemategh
matematica
matematich
mater
matera
materia
materiai
materiaj
material
materie
matese
mathbb
mathbf
mathcal
mathrm
mati
matin
matina
matri
matrimo
matrimoni
matris
matrix
matt
mattarella
mattee
matteo
matterhorn
mattia
mattina
matu
maturita
maur
maurice
maurienne
mauritania
mauritius
maurizi
maurizio
maurizzi
mauro
max
maxim
maxwell
may
maza
mazaa
mazz
mazza
mazzaa
mazzad
mazzament
mazze
mazzini
mb
mba
mbe
mber
mbia
mbo
mbol
mbox
mbra
mbre
mbro
mbul
mc
mccoy
mcgraw
mclaren
mdve
me
mea
meazza
mec
meca
mecanega
mecanica
mecanich
mecanism
mecc
mecca
meccanica
meccanich
meccanism
meccanismi
meccanismo
mech
meclembu
med
meda
medaja
mede
medega
medegh
medem
medema
medemm
medesim
medesima
medesina
medi
media
mediana
mediaset
medical
medici
medicina
medicine
medie
medieva
medieval
medievala
medievale
medio
medioe
medioev
medioevo
mediolani
mediolanum
meditera
mediterani
mediterranea
mediterraneo
mediterrani
medley
mee
mega
megh
meglio
megn
mei
meilen
meina
meiringen
mej
mejor
mel
mela
melan
melbourne
melchiori
mele
melegnano
melga
melissa
melito
melodia
meloni
melz
member
membrana
membrane
memo
memoria
memorie
memory
memphis
men
mena
menaa
menad
menada
menas
menassad
menava
mencc
mende
mendo
mendris
mendrisiott
mene
meneghin
meneghina
menema
menen
meni
menima
meno
menor
mensiuna
ment
menta
mental
mente
menter
menti
mento
mentre
menu
menut
menzion
menzionaa
menziunaa
mer
mera
meraa
meran
merano
meravilia
merca
mercaa
mercad
mercant
mercanzia
mercato
merci
mercu
mercurio
merda
meregnan
meri
meridian
meridiona
meridionai
meridional
meridionala
meridionale
meridiuna
meridiunal
meridiunala
merit
merla
merli
merlin
merlo
merry
meru
mes
mesa
mesde
mese
mesia
mesina
mesolcina
mess
messa
messagg
messe
messeda
messedaa
messedad
messedada
messen
messer
messi
messicana
messich
messina
messo
meste
mestee
mester
mestre
mesu
mesur
mesura
met
meta
metaa
metadaten
metai
metal
metall
metallica
metan
metano
metar
mete
metegh
meten
meteo
meteorolo
meteorologia
meteorological
meteorologich
meteorology
meter
metes
meteva
meti
metid
metide
metod
metodo
metri
metrich
metro
metropolitan
metropolitana
metropolitane
metrotranvia
metrupulitana
mett
mette
metten
mettere
metternich
mettes
metteva
mettuda
mettuu
metu
metud
metuda
metude
metuu
metz
mexico
meyer
mez
meza
mezdi
meze
mezz
mezza
mezzaa
mezzana
mezzano
mezzdi
mezzegra
mezzo
mezzocorona
mezzoeula
mezzola
mg
mhz
mi
mia
miami
mic
mica
micca
micella
micelle
mich
michael
michail
miche
michee
michel
michelangelo
michele
micheli
michelle
michigan
micro
microcomputer
micronesia
microprocessor
microsoft
mid
middle
midem
midema
midemm
midemma
midi
midizi
mie
miee
miei
mier
mies
miesbach
mieu
miga
migli
miglia
miglio
miglior
migliora
migliu
migliur
migliura
migna
miguel
mij
mijora
mike
mikhail
mil
mila
milan
milane
milanes
milanesa
milanese
milanesi
milanin
milano
mile
miles
mili
milia
miliard
milio
milion
milita
militar
militara
militare
militello
miliu
miliun
milizia
milizzia
mill
milla
mille
miller
millimeter
million
milo
miltenberg
milton
min
mina
minacia
minas
mincio
mincion
mind
mine
minee
minen
minera
minerai
mineral
minervois
minestra
ming
minga
mini
minim
minima
miniserie
ministe
minister
ministeri
ministero
ministra
ministrador
ministrativ
ministrativa
ministrativament
ministrative
ministrazion
ministrazzion
ministro
minnesota
mino
minor
minora
minoranza
minoranze
minore
minoritari
mint
minu
minuartia
minur
minuranza
minuscol
minut
mio
mir
mira
mirabella
mirabello
mirabilis
miracol
miracolo
miranda
mirandola
mis
misa
misc
mise
miseria
misericordia
mises
misiu
misiuna
miss
missa
missil
mission
mississippi
missolta
missouri
mist
mistar
miste
mister
misteri
misu
misur
misura
misurada
misure
mit
mita
mitaa
miti
mito
mitologia
mittelland
mittuda
mittuu
mitud
mituda
mituu
mizu
mizuki
mlada
mlade
mle
mm
mma
mme
mn
mna
mne
mo
mobel
mobil
mobile
mobilita
moca
moch
mod
moda
modalita
mode
modei
modej
model
modell
modella
modem
modena
modene
moderatament
modern
moderna
moderne
moderni
modernizzaa
modernizzazion
moderno
modesta
modifega
modifegaa
modifegada
modo
modugno
modul
modular
module
modulo
moe
moehringia
moesa
moeud
moeur
moeuren
moeuv
moeuven
moeuver
moeuves
moeuvess
mogliano
mohamed
moi
moiano
moines
moka
mol
mola
molar
moldavia
mole
molecol
molecola
molecolar
molecole
molgora
molin
molina
molini
molino
molise
moll
molla
mollens
molo
molt
molta
molten
molti
moltiplica
moltiplicazion
molto
mom
mombell
mombello
mome
moment
momento
mon
monaa
monaco
monarca
monarchia
monarchich
monaste
monastee
monaster
monastero
moncalieri
mond
mondadori
monde
mondia
mondiai
mondial
mondiala
mondiale
mondo
mondovi
mone
moned
moneda
monede
monega
monegasch
monegh
monestee
monestier
money
monferrato
monforte
monitor
mono
monopoli
monreale
mons
monscender
monscia
monsciasch
monselice
mont
monta
montagn
montagna
montagnac
montagne
montagnes
montagnosa
montagny
montalbano
montaldo
montalto
montan
montana
montanelli
montaner
montano
montanum
montbrison
monte
montebello
montecatini
montecchio
montechiaro
montecorvino
montefalcone
montefiore
monteforte
montegrosso
monteleone
montello
montenero
montenotte
monterosso
monterotondo
montesano
montfaucon
monthey
monti
monticello
montnegher
monton
montopoli
montorio
montpellier
montre
montrevel
montserrat
monu
monument
monumental
monza
moon
moore
mor
mora
morai
moral
morandi
moratti
moravia
moravske
morbegn
mordor
more
moresin
morestel
morgan
morges
mori
moritz
mornagh
moro
moroboshi
moroder
moron
moroni
moros
morosa
morrone
mors
mort
morta
mortal
mortalita
mortality
mortara
morte
morto
mos
mosa
mosca
moscada
mosche
moss
mossa
mosso
mossos
most
mostarda
moster
mostra
mostraa
mostrad
mostren
mot
mota
mother
moti
motion
motiv
motivazion
moto
motociclistich
motor
motorway
motris
mott
motta
motte
motto
motu
mou
moudon
mountain
mouse
mouthoumet
moviment
movimento
mozart
mozzaa
mp
mpa
mpara
mparenta
mpe
mper
mpi
mpia
mpo
mporta
mr
ms
msa
mt
mter
mtv
mu
mua
mucc
muccia
muda
mudaa
mudad
mude
mudel
mudela
muden
mudern
muderna
mudifica
muenchen
mufa
muffa
mugg
muggia
muggian
muggio
muhammad
muiment
muja
mul
muldavia
mule
mulecul
mulecula
mulino
multi
multipla
multipli
multiplo
multitasking
multu
mulzi
mume
mument
mun
mund
mundial
mundiala
muneda
munici
municipal
municipali
municipalita
municipalitaa
municipality
municipi
munscia
munt
muntagn
muntagna
muntu
munu
muotathal
mur
mura
murcia
mure
muri
murigio
muro
murphy
murr
murray
mursia
murten
muru
mus
musa
musca
muse
musee
musega
musegai
musegal
musegala
museo
museum
music
musica
musicai
musical
musicale
musicista
muso
muson
muss
mussolini
muste
mustra
mustraa
mustrat
musulman
mut
muta
mutur
muviment
muzambich
muze
muzio
mv
mx
my
mybook
myeon
mykolai
mylius
myosotis
myspace
myswitzerland
mø
n
na
naa
nabla
nacc
nach
nacional
naco
nad
nada
nadal
naf
nago
nagot
nagott
nai
nakai
nal
naltri
name
namibia
nan
nana
nananmo
nanca
nancy
nanni
nano
nantes
nantua
napoleo
napoleon
napoleonegh
napoleonich
napoleonigh
napoletan
napoletana
napoli
napolitano
napuleoon
napuliu
nar
nara
naranz
narbonne
nare
nari
naro
nas
nasa
nasal
nasce
nascita
nasi
nasiu
nasiuna
naso
nass
nassen
nasser
nassi
nassid
nassida
nassita
nassu
nassud
nassuda
nassuu
naster
nasu
nasuu
nat
nata
natal
natale
nati
nation
national
nationale
nationalita
nations
natisone
nativ
nativa
native
nato
natu
natura
naturai
naturaj
natural
naturala
nature
nau
nav
nava
navada
naval
nave
naviga
navigais
naviglio
navili
navy
naz
nazaire
nazar
nazgu
nazi
nazion
nazionai
nazionaj
nazional
nazionala
nazionale
nazionalism
nazionalista
nazionalita
nazista
naziu
naziun
naziunal
naziunala
nazzion
nazzionai
nazzional
nazzionala
nazzionalista
nc
nca
ncamo
ncc
nce
nch
nche
nchen
nchenbuchsee
nchez
nchwilen
ncia
ncio
ncipe
nco
ncol
ncontra
ncora
nd
nda
ndaa
ndacc
ndada
ndai
ndard
nde
ndech
ndei
ndel
nden
ndepende
nder
ndes
ndez
ndi
ndia
ndica
ndige
ndo
ndoche
ndoe
ndra
ndre
ndree
ndria
ndu
ndum
ne
nea
nebia
nec
necessari
necessaria
necessita
nech
neckar
neda
nedal
nee
need
nega
negaa
negar
negati
negativ
negativa
neger
negh
neghe
negher
negli
nego
negot
negott
negozzi
negra
negri
negro
nei
neil
nej
nek
nel
nell
nella
nelle
nello
nelson
nem
nema
nemi
nemis
nemix
nen
nenberg
neo
neolatin
neolatinn
nepal
nepunemanch
ner
nera
nere
neri
nero
neron
nervadu
nervian
nervos
nes
neso
ness
nessun
nessuno
net
neta
neto
nett
netta
nettuno
netu
netuno
network
neu
neuburg
neucha
neuendorf
neukirchen
neuko
neumann
neumarkt
neunkirchen
neustadt
neuter
neutral
neutron
neuville
nev
nevada
neve
never
nevis
nevod
nevoda
new
newcastle
neweide
newham
news
newton
next
ney
nez
nfi
nfina
nfiuresce
nflu
ng
nga
ngb
nge
ngel
ngh
nghe
ngheres
ngheria
ngi
ngia
ngiul
ngle
ngoi
ngol
ngua
ngue
ngul
nh
ni
nia
nibia
nibionn
nic
nica
nicaragua
nicaziun
nicc
niccolo
nice
nich
niche
nicht
nichtsta
nici
nicipalita
nick
nico
nicola
nicolao
nicolas
nicolo
nid
nida
nie
niederbipp
niederglatt
niedero
niederried
niedersimmental
niederwil
nien
nient
niente
niersita
nig
niga
nigen
niger
nigeria
nigh
night
nigra
nigu
nii
nij
niklaus
nil
nim
nima
nimo
nin
nina
ninguarda
nino
nintendo
nio
niocci
nioltri
nis
nisia
niso
nisou
nissa
nissu
nissun
nissuna
nista
nisu
nit
nita
nitaa
nitida
nitra
niu
niun
nivalis
nive
nivei
nivel
nivell
niversa
niversita
niversitaa
nivol
nivola
nivole
nivul
nivula
niz
nizza
nj
nka
nky
nm
nn
nna
no
noa
noaa
noaltri
noara
noares
nobel
nobil
nobile
nobiliar
nobilis
nobilta
nobiltaa
noble
nobres
nocc
nocera
noch
nod
noda
nodar
noe
noemi
noeud
noeugn
noeuv
noeuva
noeuvcent
noeuve
noi
noialtri
noio
noise
noisola
nol
nola
noli
nom
noma
nome
nomena
nomenaa
nomenad
nomencladu
nomi
nomina
nominaa
nominad
nominada
nominal
nomm
nomnad
nomo
non
nona
none
nones
nono
nonostant
nonzia
nonziaa
nonziad
nonziada
nor
norbert
nord
norde
nordest
nordo
nore
norimbe
norimberga
norma
normai
normal
normala
normalment
norman
normandia
normann
normanna
norme
nort
north
northern
norveges
norvegia
nos
nost
nosta
nostar
noster
nostra
nostran
nostre
nostri
nostro
not
nota
note
notes
notitiae
notizia
notizie
notizzi
notizzia
notizzie
notre
nott
notte
notturn
nou
nous
nouvelle
nov
nova
novaa
novanta
novara
novares
novarese
novate
nove
novella
november
novembre
noventa
novgorod
novi
novice
novita
novo
novy
now
np
npsh
nr
ns
nsa
nsberg
nse
nsegna
nsere
nseri
nsi
nsia
nske
nso
nsome
nsomea
nster
nt
nta
ntaa
ntal
ntar
nte
nten
nter
ntere
nteresa
ntezi
nti
ntich
ntitula
ntiv
nto
ntoa
ntra
ntre
ntro
ntu
nu
nua
nualtri
nuara
nuclear
nucli
nuda
nue
nuember
nui
nulla
num
number
numbers
numer
numeri
numerian
numero
numeros
numina
numinaa
numm
nun
nunch
nuoro
nuova
nuove
nuovi
nuovo
nur
nurveges
nurvegia
nus
nuta
nutazziu
nuti
nutrie
nuvanta
nuvara
nuvares
nuvember
nuzziu
nve
nventa
nvers
nw
ny
nyj
nymburk
nyon
nyons
nz
nza
nzburg
nze
nzemela
nœuv
nœv
nœva
nɒ
nɛi
nɛl
nɛt
o
oak
oav
ob
obama
oberaargau
oberallga
oberalp
oberdiessbach
oberdorf
oberhasli
oberland
oberpfalz
oberriet
oberwil
obieti
obietiv
obietti
obiettiv
oblast
oblegh
obliga
obligad
oboe
observations
oc
oca
ocasion
ocaziu
occ
occasion
occhi
occhio
occident
occidenta
occidentai
occidentaj
occidental
occidentala
occidentale
occitan
occorrenza
occupa
occupaa
occupada
oce
ocean
oceani
oceania
oceano
ocident
ocidenta
ocidentai
ocidental
ocidentala
ocio
ocita
ocitan
oco
october
ocu
ocupa
ocupad
od
ode
oden
odenwald
oder
odessa
odi
odia
odo
odoacre
odor
oe
oest
oetwil
oeu
oeucc
oeugg
oeuli
oeuna
oeus
oeuv
oeuver
oeuvera
oeuvere
oeuvra
of
ofe
ofender
oferta
ofesa
ofese
off
office
officia
official
officiels
officina
officinale
offizi
offiziai
offizial
offiziala
offizialment
offri
ofic
oficial
oficiales
oficialment
ofizial
ofizzi
ofizziai
ofizzial
ofizzialment
ofri
ofriss
oge
oget
ogett
ogge
oggett
oggi
oggiada
ogionn
ogliastra
oglio
ogna
ogne
ogni
ognidu
ognidun
ogno
ognu
ognun
oh
ohio
ohr
oi
oingt
ois
oisans
ojet
ok
oklahoma
oko
okres
okrug
ol
ola
olanda
olande
olandes
olandesa
olbia
old
oldr
oldwikisource
ole
oles
olga
olgiaa
olginaa
oli
oliv
olive
oliver
oliveto
olivetti
olmi
olmo
olo
olomouc
olona
olonta
ols
olt
olta
olte
olten
olter
oltr
oltra
oltre
oltrepo
oltri
om
oma
oman
omar
ombra
ombre
ombri
ombria
ome
omega
omegna
omen
omer
omicidi
omm
omo
omonem
omonema
omonim
omonima
omosessual
on
ona
ond
onda
onde
one
oneto
ongares
ongaria
oni
online
only
ono
onor
onora
onorari
onorio
ons
onsernon
ontario
onu
op
opava
open
oper
opera
operaa
operador
operari
operasiu
operativ
operator
operatorname
operazion
operazzion
opere
opinion
opo
opposizion
oppu
oppur
opra
opur
opura
opzion
opzzion
or
ora
oral
orama
oramai
orange
orari
oraria
orato
oratori
orazzion
orb
orba
orbe
orbita
orbiter
orch
orchestra
orco
orden
ordena
ordenaa
ordenament
ordin
ordina
ordinaa
ordinal
ordinare
ordinari
ordine
ore
oregia
oregon
orelogg
orenburg
oreste
orezza
org
orga
organ
organi
organica
organism
organismi
organismo
organiza
organizad
organizasiu
organization
organizazzion
organizza
organizzaa
organizzada
organizzazion
orgen
orghen
orgoeuj
ori
oria
orie
orient
orienta
orientai
oriental
orientala
orientales
orientalis
orientament
origen
origin
origina
originai
original
originale
originari
originaria
originariament
origine
origini
orijen
oriolo
oristano
orizontal
orizzonta
orizzontal
orlando
orle
orleans
orlici
ormai
ormea
ormont
orname
ornament
ornamenta
ornella
ornithogalum
oro
orobi
orografica
orografich
oron
orp
orqestra
ors
orsie
ort
orta
orte
ortenaukreis
orthohantavirus
ortiga
ortodossa
ortografea
ortografi
ortografia
ortona
orvieto
orz
os
osa
oscar
oscillazion
osek
oserva
oservasiu
osi
oslo
osogna
ospeda
ospedaa
ospedal
ospedale
ospedaler
ospedaletto
ospit
ospita
oss
osserva
osservazion
osservazzion
ossi
ossia
ossigen
ossola
ossolan
ossula
ost
osta
ostacol
ostalbkreis
ostallga
ostellato
ostia
ostkreuz
ostrava
ostrogo
ostrov
ot
ota
otava
ote
otegn
otegni
otegnud
otegnuda
otegnuu
oten
other
otober
otoman
otomobil
oton
otover
otra
otranto
otre
ottaviano
ottavio
otte
ottegni
ottegnu
ottegnuu
ottich
otto
ottober
ottobre
otton
otu
ou
ouest
our
ourense
out
output
ov
ova
ove
over
overa
overflow
overground
overline
ovest
ovice
ow
oxalis
oxford
oze
ozieri
ozo
ozone
ozzano
p
pa
paa
paart
pablo
pac
pacchett
pace
pachet
paci
pacifegh
pacific
pacifich
package
pad
pada
padan
padana
padania
padar
pade
pader
paderna
paderno
padmasambha
padoa
padova
padovana
padr
padre
padri
padro
padron
padru
padrun
pae
paees
paes
paesagg
paese
paesi
paesidivaltellina
paesin
pag
paga
pagaa
pagad
pagament
pagan
pagani
pagar
page
pages
pagg
paghe
pagina
pagine
paginn
pagn
pagu
pagura
pai
paire
pais
paisan
paizi
paj
paja
pajes
pakistan
pal
pala
palasa
palatina
palatinato
palau
palaz
palazz
palazzi
palazzo
palazzolo
palch
pale
palermo
palestina
palestines
pali
palma
palme
palo
palpee
palper
palta
palu
palud
pan
panama
panaro
pancrazio
pandemi
pandemia
pandemic
pane
panera
pankow
panlombard
pann
panne
pano
panora
panorama
pansa
panscia
panthera
pantograf
panurama
paol
paola
paoli
paolo
papa
papaa
papanti
paper
papers
papua
par
para
parabiagh
parabola
parade
paradis
paradiso
paradoss
paragon
paraguay
parale
parallel
parallela
parameter
parc
parcc
parch
parche
parchegg
parco
pardubice
pare
pared
paredi
paregia
paren
parent
parentela
pareva
pari
parigi
pariji
parin
parini
paris
parish
parisi
pariss
park
parla
parlaa
parlad
parlada
parlade
parlame
parlament
parlamentar
parlamentari
parlant
parlar
parlari
parlava
parlaven
parlen
parliament
parma
parmense
parmesan
parnonzia
parnonziaa
parnonziada
parnunzia
parnunziaa
paro
parocchia
parochia
parochie
parodi
parodia
parol
parola
parole
paroll
parolla
parolle
parpognuu
parrocchia
part
parte
partecipa
partecipaa
partecipazion
partegn
partegnen
partegniva
parten
partenkirchen
partenza
parteze
parti
partial
participi
particippi
particola
particolar
particolara
particolarita
particolarment
particu
particula
particular
partid
partida
partide
partido
partigian
partigiana
partii
partio
partir
partise
partiss
partissen
partit
partito
partizzion
partizziu
partner
parton
parts
party
parzial
parzialment
pas
pasa
pascal
pascali
pase
pasiensa
pasiu
pasma
pasqua
pass
passa
passaa
passad
passada
passagg
passaj
passant
passanta
passante
passaport
passaporto
passar
passau
passava
passegee
passeggee
passegger
passen
passi
passiensa
passion
passiria
passiu
passiva
passo
passport
password
past
pasta
pasteur
pastizz
pastor
pastoral
pastu
pastur
pastura
pat
pata
pate
paterno
path
pati
patii
patois
patremo
patria
patriarca
patrick
patrimo
patrimoni
patriota
patrizio
patro
patron
patrona
patronn
patruno
patt
patta
patti
pau
paul
paulo
paura
pausa
pausania
pav
paves
pavesa
pavese
pavi
pavia
pavime
paviment
pavlovice
pax
payerne
payload
pays
paz
pazie
pazienza
pc
pce
pd
pdf
pdl
pe
pec
peca
pecaa
peccaa
pechin
peda
pedagg
peder
pederburgh
pedrioeu
pedro
pedu
pee
peer
pei
pel
pela
pele
pelegri
pelegrina
pelegrinagg
pelegrinagio
pelhr
peli
peligna
pell
pelle
pellegrin
pellegrino
pellice
pellicola
pelu
peluze
pen
pena
penal
pendenza
pendolament
pendolino
pene
peni
penin
penisola
penisula
penna
pennacchio
penne
pennsylvania
pensa
pensaa
pensad
pensada
pensava
pensaven
pense
pensee
pensen
penser
pensi
pensiero
pension
penso
penta
people
peppino
per
pera
percentua
percentual
percepi
perche
perco
percorrenza
percors
percorso
percu
perd
perden
perder
perdere
perdes
perdi
perdida
perdita
perdona
perdu
perdud
perduda
perduu
pere
perea
peregh
perego
perfe
perfet
perfett
perfi
perfiis
perfis
perfiss
performance
pergine
peri
pericol
pericolos
pericul
perife
perifere
periferia
periferica
perio
period
periodo
periu
periud
perled
perlopio
permanent
permanenta
perme
permess
permet
permeten
permeter
permeteva
permett
permetten
permetteva
permittuu
pero
perosa
perotto
perpendicola
perpendicolar
perpignan
perqe
perrier
pers
persa
persecutor
persecuzion
persegh
persegu
perseveranza
persia
persian
persiana
persistent
perso
person
persona
personagg
personai
personaj
personal
personala
personalita
persone
personi
personn
personna
personne
persu
persuna
persunagg
persune
perth
pertusella
peru
perugia
pes
pesa
pesadura
pesant
pesanta
pesaro
pesca
pescador
pescara
pesce
peschera
peschiera
pescia
pesciada
pesco
pese
pesg
pess
pessan
pest
pesta
peste
pet
peta
petali
pete
peter
petit
petr
petrarca
petro
petroli
petrov
petrovice
peu
pever
peyriac
pez
peza
pezz
pezzali
pfa
pfaffenhofen
pg
ph
phaseolus
phi
phil
philadelphia
philip
philippe
phone
photos
php
phylogeny
physics
pi
pia
piace
piacentino
piacenza
piadena
pian
piana
pianal
piane
pianell
pianeta
pianeti
pianificazzion
pianista
piano
pianofort
pianoforte
piant
pianta
piante
pianti
pianu
pianura
pianze
pianzendo
pias
piasa
piase
piasensa
piasentin
piasentina
piasenza
piaseva
piassa
piastra
piat
piateda
piatt
piattaforma
piatto
piave
piaza
piazza
piazzal
pic
pica
picard
picardie
piccadilly
piccard
picch
piccol
piccola
piccolo
pice
picea
picena
piceno
pich
piche
picini
picinin
picinina
pico
picol
picola
pictures
picul
pid
pie
piedi
piedimonte
piega
piemme
piemo
piemont
piemonte
piemontes
piemontesa
piemontese
piemunt
piemunte
piemuntes
piemuntesa
pien
piena
piene
pienta
pier
pierluigi
piero
pierre
pies
pieta
pietaa
pietra
pietrasanta
pietrelcina
pietro
pieu
piev
pieve
pigher
pigna
pignataro
pignatti
pil
pila
pilaster
pilo
pilota
piloti
pilu
pin
pine
pinerolo
pinin
pink
pino
pinocchio
pinochet
pinso
pio
pioeu
pioeugg
pioeuv
pioeuva
pioltell
piomb
piombino
pioneer
piova
piove
piper
pipi
pipin
pipino
pippo
pira
pirata
pirdi
pirelli
pirene
pirenee
pirla
pirmiti
pis
pisa
pisani
pisano
pisapia
piscina
piscini
piscinin
piscinina
piscinine
piscininn
piscininna
piscinit
piscinitt
piskare
piskarev
pissa
pisse
pist
pista
pistoia
pistoiese
pistola
pit
pita
pitor
pits
pittor
pittura
pitu
pitur
pitura
piu
pius
piva
pixel
piz
pizz
pizza
pizzo
pja
pju
pl
pla
place
plan
plana
planck
planet
planetari
plant
plantarum
plantas
plantlist
plants
plastega
plastica
plata
platin
platz
play
player
playstation
ple
plessur
pli
plo
plu
plui
plum
plural
plus
plusiva
plussee
pluto
plutone
plzen
plœ
pm
pmid
pmod
pms
pn
png
po
poa
poaceae
poblacio
poblacional
poc
poca
pocch
poch
poche
pochi
poco
pod
poda
podara
podari
podaria
pode
podea
poden
poder
poderse
podess
podesse
podesta
podeva
podeven
podi
podlech
podo
podom
podud
podum
poduu
poe
poelln
poema
poesia
poesie
poesii
poesij
poeta
poeti
poetta
poeu
poeuden
poeudom
poeul
poezi
poggio
poggiomarino
pogia
poi
point
poitiers
poke
pol
pola
polac
polaca
polacca
polacch
polach
polar
pole
polee
polenta
polesine
poli
police
policlinich
policy
poliez
polinesia
polistena
polit
politecnegh
politega
politegh
politeghe
politica
political
politich
politico
politiga
politigh
polito
polizia
poliziott
polizzia
pollaster
polmon
polmonita
polo
polonia
polpa
pols
poltava
poltron
polver
polverinna
pom
poma
pomera
pomerania
pomigliano
pomm
pompa
pompei
pon
ponda
pons
pont
ponta
pontada
ponte
pontevedra
ponti
pontida
pontiroeu
ponto
pontresina
ponts
ponzano
poo
pop
popa
popoi
popol
popola
popolada
popolar
popolara
popolare
popolari
popolarita
popolarment
popolasiu
popolazio
popolazion
popolaziun
popolazzion
popoli
popolism
popolista
popolo
popu
popul
popular
population
populazion
populus
por
pora
porch
pordenon
pordenone
porlezza
porno
poro
porrentruy
porrettana
porscei
porscell
port
porta
portaa
portad
portada
portal
portame
portar
portatil
portava
porte
portegh
porten
porter
portici
porto
portogal
portogall
portoghe
portoghes
portogruaro
portomaggiore
porzion
pos
posedime
positi
position
positiv
positiva
posizio
posizion
posizzion
poss
possa
posse
possediment
possess
possessiv
possi
possibel
possibil
possibile
possibilita
possibilitaa
post
posta
postal
posti
posto
postum
pota
potassi
pote
potent
potenta
potentilla
potenza
potenzia
potenzial
potere
potito
potsdam
pou
pour
pover
povera
poverta
povertaa
power
poznan
pozz
pozzo
pozzoeu
pozzuoli
pp
ppa
ppi
ppia
ppingen
ppm
pr
pra
praa
pracc
prachatice
prada
prade
prades
praga
praha
prat
prata
pratega
prategh
pratensis
pratica
praticame
praticament
prato
pratola
pre
prea
prealp
precedent
precedenta
precedenza
preci
precipitazion
precis
precisa
precisament
precision
preco
precott
preda
predecessor
predega
predica
predicaa
predicad
predile
predosa
prefazione
prefere
preferenz
preferi
preferii
preferiss
prefett
prefettura
prefetu
prefiss
prega
pregaa
pregh
preghe
preghi
preghiera
pregnana
prego
preisto
preistoria
preja
preje
prelad
prem
premi
premia
premier
premio
prencepe
prendere
prense
prenzip
prenzipaa
prenzipessa
prenzipi
prenzippi
prepara
preparaa
preparada
preparazion
preparazzion
preposizzion
pres
presa
presapo
prese
presempe
presempi
presensa
present
presenta
presentaa
presentad
presentada
presentazion
presente
presenten
presenza
preside
president
presidenta
presidente
presidenza
presidenziai
presidenziaj
presidenzial
presidi
presiu
presolana
preson
presonee
press
pressa
pressapoch
pressappo
pressio
pression
presso
prest
prestit
preston
presu
presun
presunee
pret
prete
prevalenza
preved
prevede
prevet
previameent
prevision
previst
prevost
prexempe
prez
preze
prezenta
prezzi
pri
pria
price
pride
priest
prim
prima
primae
primari
primaria
primarie
primavera
prime
primi
primm
primma
primo
primula
prince
princeton
princi
princip
principa
principaa
principad
principai
principaj
principal
principala
principale
principalment
principato
principe
principessa
principi
principia
princippi
prinzipi
priva
privaa
privacy
privad
privada
privas
privat
private
prizune
pro
proa
probabel
probabil
probabilita
probabilment
proble
problem
problema
problemi
proce
procediment
procedura
proceedings
process
procession
processo
processor
proclama
proclamaa
proclamada
proclamazion
procura
procurator
prodi
prodo
prodot
prodott
produ
producid
production
produss
produtor
produttor
produzio
produzion
produzione
produzzion
proe
proeuv
proeuva
proeuve
prof
profession
professionai
professional
professionale
professionista
professor
profesu
profeta
profil
profile
profilo
profita
profo
profond
profonda
profondita
profuma
proge
proget
progeta
progett
progetta
progettaa
progettada
progettazione
progetti
progettista
progetto
progra
program
programa
programabel
programazzion
programma
programmazion
progress
progressista
progressiv
proibi
proibii
project
projet
projets
prome
promessa
promessi
promo
promoeuv
promonto
promozion
prono
pronom
pronominal
pronomm
prononzi
prononzia
pront
pronta
pronto
pronuncia
pronunciaa
propaga
propaganda
propagazio
prope
propi
propia
propieta
propo
proporzional
proposet
proposissiu
proposit
propost
proposta
proposte
proppi
proppieta
propri
propria
proprieta
proprietaa
proprietari
proprio
propulsion
prosa
prost
proste
protagonista
protas
prote
protegg
protegiuu
proteina
proteine
protesiu
protest
protesta
protestant
protestanta
protezion
protezzion
proto
protocol
protocoll
proton
prototip
prova
provaa
provad
prove
provence
provenza
proverbi
providence
provinc
provincc
province
provincia
provinciai
provincial
provinz
provoca
provocad
provocada
provvisori
pru
prua
pruaa
prubabilment
prublema
prucess
pruclama
pruclamaa
prudot
prudu
prudusiu
prufe
prufesu
prufeta
prufezi
prufi
pruge
prugrama
prui
pruincia
pruinsa
prum
pruma
prume
prunom
prunt
prunu
prununcia
prunus
prupieta
prupietaa
pruposit
pruprieta
prussia
prussian
prutagunista
prutagunisti
prutestant
prutestanta
prutu
prutun
pruverbi
pruvi
pruvinc
pruvincc
pruvincia
ps
pseudo
pseudonim
psi
psicologia
psula
pt
pu
pub
pubblica
pubblicaa
pubblicazio
pubblich
pubblicita
pubblico
publega
publegaa
publegad
publegada
publegh
public
publica
publicaa
publicad
publicada
publications
publich
publique
published
publishers
publishing
pucikwar
pudding
pude
pudeva
pudi
pudu
pue
puema
puerto
puesia
puesii
pueta
puglia
pugn
puigdemont
puja
pul
pulach
pule
puli
pulimer
pulitega
pulitegh
pulitich
pulo
pulonia
pum
punk
punt
punta
punti
punto
puo
pup
pupa
pupart
pupula
pupulada
pupular
pupulara
pupulasiun
pupulaziun
pupulazziun
pupulu
pur
pura
pure
pursiu
purta
purtaa
purtada
purtugal
purtughes
pus
pusc
puse
pusee
pusi
pusibilita
pusiziun
pusse
pussediment
pussee
pussi
pussibil
pusterla
put
pute
puter
putin
puto
putost
putto
puttost
puu
puunt
puy
puzisiu
pv
px
py
pyongyang
pyre
python
pz
pœ
pœden
pœl
pœu
q
qatar
qe
qei
qel
qell
qella
qelle
qest
qesta
qeste
qests
qi
qimega
qquad
qu
qua
quaa
quaal
quac
quach
quad
quader
quaderni
quadra
quadraa
quadrad
quadrada
quadradi
quadrei
quadrila
quai
quaich
quaicoss
quaidun
quaivoeuna
quaivun
quaj
quajcoss
quajcossa
quajdu
quajsevoeur
quajvun
qual
quala
qualc
qualch
qualche
qualchedun
quale
quali
qualita
qualitaa
qualsessi
qualsessia
qualunque
quan
quancc
quand
quando
quant
quanta
quante
quanti
quantistega
quantita
quantitaa
quanto
quarant
quaranta
quarcia
quaresma
quark
quarna
quart
quarta
quarte
quartee
quarter
quartet
quartier
quarto
quas
quase
quasi
quat
quata
quatad
quatada
quater
quato
quatordes
quatr
quatre
quatta
quattaa
quatter
quattercent
quattro
que
queen
queensland
quei
quej
quel
quela
quele
quell
quella
quelle
quello
quentin
quer
quercia
quercus
quest
questa
queste
questi
question
questo
qui
quia
quid
quie
quier
quiet
quii
quij
quillan
quindes
quindi
quint
quinta
quinto
quirico
quissac
quist
quista
quistion
quistiu
quit
quo
quota
quotidian
quotidiano
r
ra
raa
raal
rabbia
rabi
rabia
rac
racc
racco
raccolta
raccord
racing
raco
racolta
racord
racuma
rada
radar
rade
radetzky
radi
radia
radiatus
radiazio
radiazion
radiazzion
radical
radio
radioati
radis
radu
raf
rafael
raffaele
raffreddame
raffreddament
ragazza
ragazzi
ragazzo
ragg
raggio
raggiu
ragnar
ragno
ragru
ragu
ragusa
rai
rail
railway
railways
raimondo
rain
raion
raj
rajon
rajoy
rakovni
ral
rala
rale
rali
ram
rama
rambert
rame
ramifica
ramina
ramm
ramones
rampega
rampin
ran
rana
ranch
rane
rangh
rango
ransomware
rant
ranta
ranunculaceae
ranunculus
ranza
rap
rapa
rapid
rapida
rapii
rapo
raport
raporta
rapper
rapperswil
rappo
rapport
rappresenta
rappresenten
rapresenta
rapresentant
rapresentazion
rapresentazzion
rar
rara
rarame
rarament
rard
rare
rari
raron
ras
rasa
rasiu
raso
rason
raspa
rassa
rassegna
rastatt
rat
rata
rate
ratella
rathaus
rati
ratisbona
ratt
raul
rault
rava
rave
ravena
ravenna
ravensburg
ray
rayleigh
raz
raza
raze
razz
razza
razzi
razziala
rb
rba
rbe
rber
rbes
rbi
rbita
rbite
rc
rca
rcc
rch
rche
rchi
rchia
rcia
rcio
rcit
rcoi
rcol
rcul
rd
rda
rde
rdegn
rden
rdes
rdi
rdia
rdin
rdit
rdita
rdo
rdoba
re
rea
read
reagi
reai
reaj
real
reala
reale
reality
realiza
realizza
realta
realtaa
reazio
reazion
reaziun
reazzion
rebassaa
rebellot
rebu
rec
recanati
recco
rece
recensament
recent
recenta
rech
recipient
recita
recito
recla
reclam
reclama
recognoss
recognossen
recognossiment
recognossud
recognossuda
recognossuu
recono
reconossu
reconquista
record
recordings
records
recostruida
recu
recugnussu
recumpe
recunusi
recupera
recuveraa
red
reddit
redo
redond
redonda
redox
redu
redundaa
redutt
reduzion
ree
ref
refere
reference
referendum
reffre
reform
reforma
refu
refud
refuda
refudaa
refurma
refurmada
reg
rega
regal
regala
regall
regen
regg
reggent
reggenza
reggio
regh
regi
regia
regierungsbezirk
regim
regimm
regina
regio
regioexpress
region
regionai
regionaj
regional
regionala
regionale
regionali
regione
regionn
regista
register
registra
registraa
registrad
registrada
registrazion
registrazzion
regiu
regiun
regiuna
regiunal
regiunala
regn
regna
regnaa
regno
rego
regoeuj
regoeujer
regol
regola
regolar
regolarment
regole
regoll
regolla
regolle
regolt
regolta
regorda
regordaa
regordad
regordada
regordom
regu
regula
regurda
rei
reich
reichenau
reichenbach
reina
reinach
rej
rejia
rejon
rel
relaa
relasiu
relassaa
relassad
relati
relativ
relativa
relativament
relazio
relazion
relazzion
relazziu
religion
religios
religiosa
religiose
religiu
religiun
relijon
rem
remix
remo
remorcc
remote
rems
ren
rena
renaa
renania
renassiment
renato
renaud
renault
rend
rende
rendena
render
rendime
rendiment
rene
renens
reno
renoeuva
renonzia
rens
renu
renze
renzi
renzo
reo
reoplan
reoport
reorganizasiu
repart
repe
repert
reperto
repertori
repertorio
repoeublega
report
reppresenta
reppresentaa
reppresentant
representa
representaa
representad
representada
representant
representanta
representen
repression
repreze
reprezenta
repu
repubblica
repubbliga
republega
republegan
republegana
republegh
republeghe
republic
republica
republicana
republika
requia
rer
res
resa
rescaldina
rese
research
resega
resenta
reserva
reservaa
reseta
resg
resgio
reshe
resi
resia
resident
residente
residenza
residenzial
resist
resiste
resisten
resistent
resistenza
reso
resoeulv
reson
resorgiment
resors
resort
resources
respe
respet
respeta
respett
respetta
respira
respiratori
respirazion
respo
respond
responduu
responsa
responsabil
responsabilita
resposta
respundu
rest
resta
restaa
restad
restada
restara
restava
restaver
restavor
restell
resten
restorant
restorazion
resu
resulta
resultaa
resultad
resultantes
resun
ret
reta
retangolar
rete
retegh
retegnud
retegnuda
retegnuu
retica
retiga
retigh
retira
retiraa
retirada
reto
retorn
retrieved
retro
retrovirus
reu
reuport
reutlingen
reutte
rev
revamping
revarda
revarden
revelaa
review
revisio
revision
revista
revo
revolta
revolution
revoluzion
revoluzzion
revulu
rex
rey
reynolds
rez
reza
rezia
reziste
reziu
rezu
rf
rfi
rg
rga
rge
rgen
rgh
rghe
rghegn
rghem
rghen
rglen
rgna
rgo
rgovia
rh
rha
rhb
rhe
rhein
rheineck
rheinfelden
rheintal
rho
rhodesia
rhodiola
rhs
ri
ria
riaa
rial
riara
riat
riatt
ribell
ric
rica
ricca
riccardo
ricch
ricci
riccione
ricco
rice
ricerca
ricerch
ricerche
riceta
ricetta
ricev
riceven
ricever
ricevu
ricevud
ricevuu
rich
richard
riche
richiesta
rick
rickenbach
rico
ricorda
ricordi
rid
rida
ride
rider
ridere
rido
ridu
riduzio
riduzion
rie
ried
rieden
riemann
rien
ries
riess
riessen
riessi
riessida
riessii
rieti
rifa
riferi
riferime
riferiment
riferiss
rifle
riflessio
riflession
riflessiv
riflessiva
riflettu
riflettuda
riforma
rifrazion
rifu
rifugio
riga
rigen
righ
right
rightarrow
rigid
rignano
riguarda
rii
rijkswaterstaat
rijksweg
rilev
rileva
rilevament
rilevant
riliev
rima
rime
rimini
rin
rina
rindi
rinforz
rinforza
ring
ringia
rino
rio
rion
rionero
ripa
ripamonti
ripara
ripe
riporta
ris
risc
riscaldament
rise
riserva
risii
riso
risoluzio
risoluzion
risonado
risonanza
risorse
risott
risparmi
risparmia
rispe
rispet
rispeta
rispett
rispo
risposta
rissen
risset
rissuf
rissum
rist
rista
ristampa
risu
risulta
risultad
rit
rita
ritard
ritegn
ritegnuu
riti
ritira
ritiraa
ritm
rito
ritorna
ritorno
ritra
riu
rium
riv
riva
rivaa
rivad
rivada
rivads
rivalita
rivar
rivara
rivarolo
rivava
rivaven
rive
riven
river
rivera
rives
rivestime
rivestiment
rivi
rivie
riviera
rivignano
rivista
rivo
rivoeulta
rivoli
rivolta
rivoluzion
rivoluzione
rivoluzzion
rivulu
rizetta
rizo
rizu
rizzo
rizzoli
rk
rl
rla
rle
rli
rlo
rm
rma
rme
rmen
rmi
rmica
rmich
rmin
rmo
rmol
rmola
rmor
rmu
rmula
rn
rna
rnberger
rne
rnech
rni
rnida
rno
rnu
ro
roa
road
roanne
rob
roba
robalizzi
robb
robba
robe
robecch
robert
roberta
roberto
roberts
robi
robin
robinson
robot
roca
rocca
roccaforte
roccasecca
roccella
rocch
rocchetta
rocco
roch
roche
rochefort
rochette
rocia
rock
rodaia
rodalies
rodano
rode
roden
rodi
rodovia
rodoviaria
rodovie
rodri
roe
roero
roeu
roeud
roeuda
roeul
roeull
roeusa
roger
roggwil
rogliano
rogna
rogored
rohan
rohr
rokycany
roll
rolle
rolling
rom
roma
romagna
romain
roman
romana
romanc
romancc
romance
romane
romani
romania
romano
romans
romanz
romanza
romanze
rome
romen
romeo
romma
romont
romp
rompa
romper
ron
rona
ronald
ronch
ronchett
ronchi
ronco
ronda
rondo
ronsg
ronsgia
room
root
rore
rorschach
ros
rosa
rosaa
rosaceae
rosada
rosario
rosarno
rosc
rose
rosenheim
roseto
rosignano
ross
rossa
rossano
rossby
rossi
rosso
rost
rostand
rostock
rostov
rot
rota
rotabil
rotaie
rotasiu
roth
roto
rotonda
rotondi
rotondo
rottal
rotterdam
rottweil
rouen
rouge
roussillon
router
routing
routledge
rouy
rov
rovaa
rovagnaa
rover
rovere
roveredo
rovereto
rovigh
rovigo
royal
royans
roz
rozzan
rp
rpa
rpe
rr
rra
rrach
rrethi
rs
rsa
rschwil
rse
rsen
rsi
rsica
rsich
rso
rst
rstenfeldbruck
rstetten
rt
rta
rte
rtega
rten
rter
rtes
rth
rti
rtil
rto
rttemberg
ru
ruanda
ruba
rubbettino
rubicone
rubus
ruby
ruciu
ruda
rudini
rudolf
rue
ruf
rugby
ruggeri
ruhr
rui
ruiz
rule
rum
ruma
rumagna
rumagno
ruman
rumana
rumanc
rumancc
rumancia
rumania
rumantsch
rumanz
rumanza
rumen
rumilly
rumo
rumor
rump
run
runa
runch
rungshinweis
ruolo
rus
rusa
rusca
rusconi
ruscus
rusgin
russ
russa
russell
russia
russian
russo
rust
rustega
rustegh
ruvina
ruz
ruza
rv
rva
rve
ry
ryan
rybni
rychnov
rz
rza
rzburg
rø
rœda
rɒ
rɛm
s
sa
saa
saale
saane
saanen
saarland
saas
sabbia
sabet
sabia
sabina
sabino
sac
sacch
sacco
sacerdot
sacerdott
sach
sachegia
sacher
sacile
sacocia
sacra
sacrament
sacrifizi
sacrifizzi
sacro
sad
sada
sae
safety
safien
sagg
saggio
sagra
sahara
sai
saillagouse
saint
sainte
saj
sal
sala
salada
salandra
salari
sald
salda
sale
salem
salenti
salentino
salento
salerno
sales
sali
salida
saline
salinita
salisb
salisburgh
salle
salles
salm
salo
salomon
salon
salsa
salt
salta
salu
salud
salut
salute
saluzzo
salv
salva
salvaa
salvad
salvador
salvadu
salvan
salvatore
salve
salvini
salvo
salza
sam
samara
samba
samedan
sami
samo
samoa
samson
samuel
san
sana
sancc
sanctorum
sanctus
sand
sandra
sandro
sang
sangh
sangro
sangu
sangue
sanita
sanitari
sanitaria
sankt
sann
sannio
sannita
sannitico
sanrem
sanremm
sanremo
sans
sansavini
sanscret
sant
santa
sante
santi
santiago
santifica
santo
santos
santu
santuare
santuari
santuario
sanza
sanzion
sao
sapere
sapie
sapienza
sar
sara
saraa
sarad
sarada
saradura
sarah
sarajevo
sarann
sarcococca
sarda
sardegna
sardegnoeu
sardo
sare
saress
sargans
sari
saria
sarien
sarii
sarine
sariss
sarissen
sarnen
sarno
saro
saronn
sarra
sarrad
sars
sarte
saruman
sarzana
sas
saso
sasonia
sass
sassari
sasso
sasson
sassonia
sassuolo
satana
sate
satellit
satellite
satira
satriano
satur
satura
saturazion
saturday
saturno
sau
saudita
saul
sauron
sauveur
sava
save
savend
saveva
savi
savia
savie
savigliano
savignano
savii
savo
savoia
savoja
savon
savona
savor
savu
savuu
saxifraga
say
sb
sba
sbaglia
sbar
sbara
sbarca
sbassa
sbassaa
sbassada
sbater
sbati
sbatud
sbb
sberlu
sberlusent
sbn
sbo
sbu
sc
sca
scafati
scagn
scal
scala
scalda
scale
scalo
scambi
scambia
scampa
scancella
scandinavia
scandol
scapa
scapaa
scappa
scappaa
scapu
scar
scara
scarica
scarich
scarliga
scarp
scarpa
scarpe
scars
scarsa
scart
scartament
scascia
scasciaa
scassa
scav
scava
scc
sce
scelta
scena
scenari
scender
scendiroeu
scene
scensia
scenti
scentifega
scentifegh
scentifica
scenza
scenze
scerna
scerni
scernid
scernida
scernii
scerniss
scernud
scernuu
scerr
sces
sch
scha
schaan
sche
sched
scheda
schede
schellenberg
schema
schenen
schermo
scherz
scherza
schi
schia
schignan
schinz
schinznach
schio
schiscia
schiva
schivi
schlatt
schleswig
schmitten
scho
schongau
school
schrobenhausen
schu
schult
schumacher
schwa
schwanden
schwandorf
schwantes
schwarzenberg
schwarzwald
schwaz
schweinfurt
schweiz
schweizer
schwyz
sci
scia
sciafu
sciampa
sciampe
scian
sciat
sciatt
science
sciences
scientifega
scientifegh
scientifica
scientifich
scienz
scienza
scienze
scienziaa
scighera
scigolla
scila
scilla
scima
scimm
scin
scio
scior
sciora
sciori
scipio
sciscia
scisma
scita
sciu
sciur
sciura
sco
scoeuder
scoeul
scoeula
scoeule
scoeur
scoeura
scof
scol
scola
scolastegh
scolda
scolta
scomenzaa
scomincen
scomincia
scominciaa
scominciad
scominciada
scond
sconder
scondon
scondud
sconduu
sconfiggiuu
sconfitt
sconfitta
sconter
scop
scope
scoperta
scopri
scormagna
scorr
scorriment
scorta
scorza
scorze
scoss
scossa
scots
scott
scov
scozia
scozzes
scre
scri
scricc
scrif
scrii
script
scriptura
scrit
scrita
scritor
scritt
scritta
scritti
scrittor
scrittura
scritu
scritur
scritura
scriu
scriv
scriver
scriveva
scrivi
scrivia
scrivu
scrivud
scrivuda
scrivude
scrivuu
scu
scud
scudaria
sculta
scultor
scultura
scumenza
scumincia
scuminciaa
scunda
scundu
scunfi
scuol
scuola
scupri
scur
scura
scurmagna
scurta
scurtament
scusa
sd
se
sea
search
sebastia
sebastian
sebastiano
sec
seca
secch
secchia
secession
sech
seco
secoi
secol
secoli
secolo
second
seconda
secondari
secondaria
secondo
secret
secretari
secretariat
secrett
secu
secul
secund
secunda
security
sed
seda
sede
sedeno
sedes
sedlec
sedum
see
seedorf
seefeld
seeland
seet
sega
segal
segesta
segg
segh
seghel
segme
segmeent
segment
segn
segna
segnaa
segnad
segnai
segnal
segnala
segnalament
segni
segno
sego
segond
segonda
segondari
segondaria
segont
segraa
segre
segret
segreta
segretari
segrett
segu
seguent
segui
seguida
seguii
seguit
seguita
segund
segunda
segur
segura
seguta
segutaa
seguunt
sei
seine
sek
sel
sela
selected
selezzion
self
sella
seller
selva
selvadegh
sem
sema
semafer
semai
semi
semily
semina
seminari
semiorari
semioraria
semipilota
semm
semo
sempar
semper
sempervivum
sempion
semplicement
semplifica
semplis
sempliz
sempre
sempri
sempro
sempru
sen
sena
senaa
senad
senagh
senato
senator
senatora
senavra
senegal
senna
sens
sensa
sensazzion
sense
sensi
sensibil
sensibilita
senso
sent
senta
sente
sentee
senten
sentend
sentene
sentenza
senter
senti
sentii
sentime
sentiment
sentindo
sentinel
sentiss
sentiva
sento
sentra
sentu
sentuu
senz
senza
seoul
sep
sepa
separa
separaa
separada
separazion
separen
sepo
sepolcher
sepolcr
sepolcro
sepp
september
sequenza
ser
sera
seraa
serada
serb
serbato
serbia
serc
serca
sere
seregn
seren
serena
serenissima
sergio
seri
seria
seriana
serie
series
serina
serino
serio
sermon
serpent
serra
serrad
serravalle
serre
serres
serrie
serum
serv
serva
serve
serven
server
servi
service
servid
servida
servii
servil
serviss
servissen
servissi
servito
servitor
servitu
servitur
serviva
servizi
servizio
servizzi
ses
sesia
sesiu
sess
sessa
sessanta
session
sesso
sessual
sessuala
sest
sesta
sester
sestieri
sesto
set
seta
setaa
setanta
setara
sete
setema
setembar
setember
setentrional
setentrionala
setentriuna
setentriunal
setentriunala
setima
setimana
setor
sett
setta
settanta
settcent
sette
settember
settembre
settentrional
settim
settimana
settimo
setto
settor
setu
seu
seven
sever
severe
severi
severino
severo
seves
sevi
sex
sexual
seychelles
seyssel
sezio
sezion
sezzion
sfe
sfera
sferich
sfi
sfida
sfila
sfm
sfo
sfoga
sfogava
sfond
sforo
sforz
sforza
sforzada
sforzesch
sfr
sfro
sfroos
sfros
sfrutta
sfu
sfuga
sg
sga
sgar
sge
sgen
sgenee
sgener
sgeneral
sgent
sgentil
sgerg
sgi
sgia
sgiald
sgiamo
sginee
sginer
sgio
sgioeugh
sgionta
sgiontad
sgiontadura
sgionten
sgiornada
sgiornal
sgiornalista
sgioven
sgiovin
sgiovina
sgir
sgira
sgiu
sgiudee
sgiuga
sgiugador
sgiugn
sgnor
sgnora
sgrandi
sgresg
sgresgia
sgrif
sgu
sgui
sh
shakespeare
shanghai
shanks
sharp
she
sheet
shell
shinobu
short
show
shutaro
si
sia
siamo
siben
siberia
siberian
sibia
sic
sica
sical
sich
siche
sicignano
sicilia
sicilian
siciliana
sicista
sico
sicu
siculo
sicur
sicura
sicurezza
sida
side
sie
siemens
sien
siena
sierra
sierre
sies
siet
sieu
sigi
sigill
sigla
sigma
sigmaringen
sign
signa
signifega
signifegad
significa
significaa
significad
signo
signor
signora
signore
signoria
signu
signur
sigu
sigur
sigura
sigurezza
siguta
sii
sil
sila
silaba
sile
silene
silenzi
sili
siliqua
sillaba
sillabazzion
sils
silva
silvana
silvi
silvia
silviero
silvio
silvius
sim
sima
simbo
simboi
simbol
simbolo
simbul
sime
simetri
simil
simmental
simon
simone
simonetta
simu
simun
sin
sina
sinagoga
sinai
sinclair
sindacaa
sindaco
sindech
sindegh
sindich
sindigh
sindrome
sinense
sinfonia
sinfonie
sing
singen
singine
single
singoi
singol
singola
singolar
singolo
singu
singul
singular
sini
sinistra
sino
sinod
sinonem
sinonim
sint
sintassi
sinte
sintesi
sinti
sintom
sio
sion
sior
siora
sipri
sipro
sir
sira
siracusa
sirca
sirena
siri
siria
siro
sis
sisches
sissach
siste
sistema
sistemi
sit
sita
sitat
site
siti
sito
sitt
situ
situaa
situad
situada
situasiu
situazio
situazion
situazzion
siu
siun
siuv
six
sja
sju
sk
ska
skalice
ske
ski
skij
sko
sku
sky
sl
sla
slanz
slanza
slarga
slargaa
slargad
slargada
slatina
slav
slava
slave
slesia
slo
slonga
slongada
slongament
slontana
slovacca
slovacch
slovacchia
slovach
slovachia
slove
sloven
slovenia
sluachia
sluenia
slunga
sm
sma
smagg
smagia
small
smartphone
smi
smith
smo
smolensk
smorza
smorzada
sn
sna
sne
snes
snft
so
soa
soazza
sobe
sobre
soc
soceta
soci
socia
sociaa
sociad
sociai
social
sociala
sociale
socialism
socialismo
socialista
sociazion
sociazzion
socie
societa
societaa
society
socio
socors
soddisfa
sodisfa
sodisfazion
sodisfazzion
soe
soeu
soeuja
soeul
sof
sofia
sofri
sofrir
software
soge
soget
sogge
soggett
sogn
sogno
soi
soil
sojet
sokolov
sol
sola
solament
solar
solari
solaro
solbiaa
sold
solda
soldaa
soldad
soldi
sole
solet
soleta
solfa
solfer
solfo
soli
solid
solida
soligo
solista
solit
solita
soll
solleva
solo
solta
solu
solud
soluzio
soluzion
soluzzion
solvent
som
soma
some
someja
somenza
somma
sommariva
sommie
son
sona
sonaa
sonada
sonar
sonata
soncin
sonda
sondagg
sondel
sondri
sone
sonett
song
songs
sonic
sonnino
sono
sonora
sons
sont
sony
soo
sopo
soporta
soportar
soportava
sopporta
soppressa
sopra
sopress
sopressa
sor
sora
sorano
soranomm
sorapu
soratu
soratut
soratutt
soratœt
soravia
sorbo
sore
soree
sorell
sorella
sorengh
sorge
sorgent
sori
sornomenada
sorpresa
sorrento
sort
sorta
sorte
sorti
sortid
sortida
sortide
sortii
sortiss
sortissen
sos
sospenduda
sospenduu
sospension
sossen
sossenn
sosta
sostanz
sostanza
sostanze
soste
sostegn
sostegnen
sostegni
sostegnidor
sostegnud
sostegnuu
sostenitor
sostitui
sostituid
sostituida
sostituii
sostituiss
sostituzion
sot
sota
sotafami
sotaspe
sotopost
sotra
sott
sotta
sottana
sotto
sottopo
soul
sound
source
sous
south
southern
sova
soveria
sovie
soviet
sovietega
sovietegh
sovietica
sovietich
sovra
sovran
sovrana
sovranita
sp
spa
space
spada
spagna
spagno
spagnoeu
spagnoeui
spagnoeul
spagnoeula
spain
spale
spall
spalla
spandau
spanduda
spanish
spantega
spantegaa
spantegad
spantegada
spanteghen
spar
spara
spare
spari
sparmi
sparnega
spartacus
sparti
spartid
spartida
spartii
spartiss
spartizion
spasia
spass
spazi
spazza
spazzeta
spazzi
spe
spec
speccia
spece
speci
specia
speciai
special
speciala
speciale
specializa
specialme
specialment
specie
species
specifega
specifegh
specifica
specifich
spectre
spedisiu
spedizion
spedizzion
spegg
spencer
spender
sper
spera
speransa
speranza
speri
sperimenta
sperimental
sperling
spes
spesa
spese
spesia
spess
spessa
spessart
spesso
spessor
speta
spetacoi
spetacol
spetta
spettacol
spezia
spezzano
spi
spia
spie
spiega
spiegazion
spiegazzion
spiez
spiga
spighe
spin
spina
spinola
spinta
spinu
spira
spiret
spirit
spirito
spiritu
spiritual
spju
spl
splendor
splu
spluga
spo
spoleto
spond
sponda
sponta
spontani
sporca
sporch
spore
sport
sportell
sportiv
sportiva
sports
spos
sposa
sposaa
sposad
sposada
sposadi
sposi
sposta
spostaa
spostad
spostada
spostament
sprez
springer
springfield
springs
spu
spund
spunda
spus
spusa
spuza
sq
sql
sqrt
squa
squader
squadra
square
squas
squasi
sr
sre
sri
srl
srotonda
ss
ssa
ssan
sscoss
sse
ssee
ssegh
ssel
ssela
sseldorf
ssemburgh
ssen
sser
ssi
ssia
ssich
ssid
ssif
ssim
ssima
ssio
ssiu
ssiun
ssnacht
sso
ssola
ssp
ssu
st
sta
staa
staat
stabel
stabele
stabil
stabili
stabilii
stabiliment
stabiliss
stabilita
stabio
stacc
stacia
stack
stad
stada
stade
stadi
stadio
stadler
stadt
stadtbahn
staff
stafura
staga
stagh
stagio
stagion
stagionadura
stagiu
stagiun
stagn
stagniweb
stai
staia
stair
stait
staita
staite
staits
staja
stajon
stala
stalin
stam
stamp
stampa
stampaa
stampant
stampanta
stamperia
stan
stand
standard
stanford
stanga
stanley
stann
stans
stanza
star
stara
stare
starnberg
stars
stary
stasgion
stasiu
stat
stata
statai
statal
statale
state
states
stati
station
statistega
statistegh
statisteghe
statistica
statistical
statistics
statistik
statistikinstitut
stato
statoa
statov
stats
statt
statu
statua
statunitens
statunitensa
status
statut
stava
staven
stazion
stazionari
stazione
stazioni
stazzion
stcoss
ste
stech
stee
stefan
stefano
stega
stegh
stein
steinach
stek
stel
stela
stell
stella
stelle
stelvio
stema
stemma
sten
step
stephen
ster
sterreich
stess
stessa
stesso
stetten
steve
steven
stevens
stewart
sti
stia
stica
stich
stiche
stichtage
stiil
stil
stile
stilo
stima
stimaa
stin
stiria
stisia
stizia
sto
stoca
stocarda
stoccarda
stofa
stoici
stokes
stomegh
stone
stones
stop
stor
storeg
storega
storegament
storegh
stori
storia
storica
storich
storiche
storici
storico
storie
storiga
storigh
storm
stort
storta
story
str
stra
straa
strach
strad
strada
stradal
strade
stradella
strage
strakonice
strana
strani
strapo
straport
stras
strasc
strat
strategia
strategica
strategich
strati
strato
stratocumul
stratocumulus
stratosfera
stratosferich
straubing
strausberg
straße
stre
strecc
streccia
stree
streersa
street
stregg
streit
strengiuu
strepa
stresa
stret
stri
stria
strial
stringa
striscia
stro
strol
strona
stropod
stru
strument
struments
strusa
struttu
struttur
struttura
strutu
strutura
struture
stu
stuart
stub
stude
student
studi
studia
studiaa
studiad
studies
studio
studios
study
stupid
stura
su
sua
sub
subet
subi
subit
subset
subseteq
subsp
suburban
succ
succe
succed
succeden
succeduu
success
succession
successor
suced
suceder
sucedio
sucedud
suceduu
sucess
sucession
sucessor
sucial
sucieta
sucule
sud
suda
sudafrica
sudan
sude
sudest
sudo
sudtirol
sue
suent
suerno
suernomina
suez
sufiss
sufri
sufrir
suga
suget
suggeri
sui
suisse
suite
sul
sula
sulbiaa
sulda
suldaa
suleta
sull
sulla
sulle
sullo
sulmona
sulpice
sultan
sulu
sulzbach
sum
suma
sumalia
sume
sumeja
sumiragh
summer
sumy
sun
suna
sunaa
sundri
sung
suni
sunora
sunt
suo
suoi
suono
sup
super
supera
superaa
supercoppa
superfi
superfice
superfici
superficia
superficial
superficie
superfis
superfiss
superfix
superior
superiora
superiore
superiorita
superiu
superstrada
suport
suppo
support
supporta
supportaa
suprem
suprema
supurta
sur
sura
suradeto
surato
suratu
surbi
surbida
surda
sure
surela
surface
suriname
sursee
surselva
sursilvan
surti
surtii
survey
sus
susa
sustanza
sustitu
sut
suta
sutame
sutera
sutil
sutta
sutti
suttil
suttilie
suu
suva
suvent
suzzara
sv
svampa
svapo
svapora
svaporament
svate
svaty
sve
svede
svedes
svedesa
svelo
svelt
svelta
sveltame
svesina
svevia
svezia
svi
svilu
svilup
svilupa
svilupp
sviluppa
sviluppada
sviluppen
svit
svitavou
svitavy
svizer
svizera
svizra
svizzer
svizzera
svizzero
svo
svolg
svolger
svolta
svp
sweet
swiss
switch
switzerland
sy
sydney
symphorien
syn
system
systems
sz
szeged
szu
sø
sœ
sœl
sœu
sœuglia
t
ta
taa
taal
taant
tab
tabach
tabe
tabela
tabella
tabelle
table
taca
tacaa
tacad
tacada
tacc
tacca
taccaa
taccada
tacchen
tace
tachen
tachov
tacit
tada
tae
taggia
tagikistan
tagliamento
tagliavini
taglio
tai
taia
tain
taipei
taiwan
taj
taja
tajaa
tajad
tajada
take
tal
tala
tale
talegg
talent
tali
talian
taliana
talk
tam
tamburelli
tamins
tampere
tampon
tan
tana
tanacetum
tanaro
tanc
tancc
tangenzial
tango
tanica
tant
tanta
tante
tanti
tanto
tants
tantu
tanzania
tapa
tar
tara
taranto
tarasp
taraxacum
tard
tarda
tarde
tardi
tare
targa
tari
tariffa
tariffaria
taro
taron
tas
tase
tasmania
tasono
tass
tassa
tasse
tast
tastadura
taster
tastera
tat
tata
tate
tatra
tau
tauber
taula
taule
taverna
tavo
tavol
tavola
tax
taxi
taxon
taylor
tc
tcoss
td
te
tea
team
teater
teatral
teatro
teau
teauneuf
teborg
tec
tecc
tech
techno
technology
tecn
tecnega
tecnegh
tecnica
tecnich
tecnologi
tecnologia
ted
tee
teemp
tega
tegh
teghe
tegn
tegna
tegnen
tegni
tegnii
tegniva
tegnu
tegnud
tegnuda
tegnuu
tei
tej
tejn
tel
tela
telar
telard
tele
telecomunicazion
telefilm
telefon
telenovela
telescopi
telesino
televisio
television
televisiu
televisiv
televisiva
tell
telve
tem
tema
temp
tempe
tempera
temperadu
temperadur
temperadura
temperatura
temperature
tempesta
tempi
tempio
temple
templi
tempo
tempora
temporaj
temporal
temporali
temporanea
temps
temu
ten
tend
tenda
tende
tenden
tendenza
tendenzialment
tenent
tenerife
tenna
tennessee
tennis
tenor
tensioativ
tension
tenta
tentaa
tentad
tentativ
tentazion
teo
teodolinda
teodorico
teodoro
teologia
teor
teore
teorema
teori
teoria
teorica
teorij
teplice
ter
tera
teramo
terapia
terasanta
tere
teremo
teren
teresa
tereto
terito
teritori
terme
termen
termica
termich
termici
termin
termina
terminal
termini
termodinamica
terni
terontola
terr
terra
terragni
terranova
terre
terren
terrester
terrestra
territo
territoire
territore
territori
territoriai
territorial
territoriali
territorio
terror
terrorism
terrorista
ters
tersa
terz
terza
terzo
tes
tese
tesi
tesin
tesines
tesinesa
tesino
tesla
tesor
tessidura
tessil
tessu
tessud
tessuu
test
testa
testament
testemogna
testi
testimon
testimoni
testimonia
testimonianz
testimonianza
testimonianze
testimunianza
testo
tet
teta
tetum
tetun
teufen
teurema
teuri
teuria
teverina
texas
text
textrm
tez
tezi
teɲa
tfl
tg
th
thailandia
thal
thalheim
thameslink
than
that
thatcher
the
their
themes
thenbach
theory
therapy
there
theta
they
thierry
thierstein
third
this
tho
thomas
thompson
thomson
thonon
threatened
three
through
thu
thuir
thuja
thumb
thun
thunb
thunbergii
thur
thusis
ti
tia
tiberi
tibet
tibetan
tibett
tic
tica
tice
tich
tiche
ticines
ticinesi
ticino
tidone
tie
tiefencastel
tienne
tier
tierra
tiers
tieu
tif
tiga
tigni
tigre
tigris
til
tila
tillon
tilo
tim
timber
time
times
timor
timotee
tin
tina
tine
tinella
tino
tio
tion
tip
tipega
tipegh
tipi
tipica
tipicament
tipich
tipigh
tipo
tipografia
tipolojie
tipu
tir
tira
tiraa
tirad
tirada
tiran
tirana
tirar
tirava
tire
tiren
tiro
tirol
tirrenica
tirschenreuth
tis
tisi
tisin
tisines
tit
tito
titoi
titol
titolar
titul
titus
tiva
tive
tky
tla
tn
to
toa
toalett
tobago
tobimaro
toc
toca
tocca
tocch
tocco
toch
toche
tochei
tochell
tod
today
tode
todesc
todesca
todesch
todi
todo
toeu
toeuss
toeuven
toggenburg
toi
tokyo
tol
tole
toledo
tolentino
tolkien
tolosa
tolt
tolta
tom
toma
tomas
tomassini
tomates
tomba
tome
tommaso
tomo
tomobiki
ton
tone
tonega
tonga
toni
tonight
tony
tool
top
topi
topo
topografico
toponem
toponimi
toponomastica
toponomastico
toquinho
tor
tora
torba
tore
tori
torinese
torino
torna
tornaa
tornad
tornada
tornado
tornand
tornando
tornar
tornava
tornee
tornen
torno
toro
toronto
torr
torrazzo
torre
torrent
torres
torri
torrian
torricella
torron
tort
torta
tortona
tos
tosa
tosann
tosca
toscan
toscana
toso
toss
tost
tot
tota
total
totala
totalment
toto
touch
toulon
tour
touring
tourism
tourne
tournon
tours
tous
tout
tov
tower
town
tper
tr
tra
traa
tracc
traccia
tracciato
tracia
track
trad
trada
tradaa
trade
tradescantia
tradii
tradiment
tradisiu
tradisiuna
tradizio
tradizion
tradizionai
tradizional
tradizionala
tradizionalment
tradizione
tradizioni
tradiziun
tradizzion
tradizzionai
tradizzional
tradu
traduzion
traduzzion
trady
trae
trafegh
traffegh
traffich
traffigh
tragedia
tragi
tragit
tragopogon
trai
train
trains
traj
tram
trama
tramelan
tramlink
tramonti
tramvie
tran
trance
trani
trans
transazion
transfer
transistor
transit
transitiv
transizion
transiziun
transizzion
translitteraa
translucidus
transnistria
transport
tranvia
tranviari
tranviaria
tranvie
trapani
trape
tras
trasa
trascura
trasferi
trasferida
trasferii
trasferiment
trasferiss
trasforma
trasformaa
trasformada
trasformazion
trasformazzion
trasfurma
trasgressiu
trasimeno
trasme
trasmeter
trasmisiu
trasmissio
trasmission
trasmissione
traspare
trasparent
traspirazio
traspirazion
traspo
trasport
trasporta
trasporti
trasporto
trasversal
trat
trata
trataa
tratad
tratament
trate
tratt
tratta
trattaa
trattament
traunstein
trav
trava
trave
travel
travelcard
travers
traversa
traversaa
traversada
trazion
tre
trebia
trebonian
trecaa
treccani
tredes
tree
tregua
trei
tremu
tren
trenc
treni
treniebinari
trenitalia
trenn
treno
trenord
trent
trenta
trenti
trentin
trentino
trento
tres
tresa
trescu
treves
trevi
trevij
trevir
trevis
treviso
trezz
trezzan
tri
tria
triangol
tribu
tribulaziu
tribunal
trica
trich
tricolor
trides
trie
triesenberg
triest
trieste
triestin
trigonome
trii
trimmis
trin
trinca
trinidad
trinita
trio
trionfera
triora
trip
tris
trist
trista
triste
triticum
trivier
trivolz
trivulzio
triz
trnava
tro
troa
troeuva
troeuven
troeuvom
troia
trois
trojan
tromb
tromba
trombe
trompia
tron
tronch
trono
tronto
tronu
trop
tropa
tropica
tropicaj
tropical
tropicos
troposfera
tropp
trova
trovaa
trovad
trovada
trovar
trovava
trovaven
trove
tru
trua
truaa
truccazzan
true
trufa
trump
trun
trupe
trupp
truscia
trutnov
truva
truvaa
trœva
ts
tschwil
tsjone
tsjoni
tt
tta
ttcent
tte
ttegh
tten
tter
tterkinden
ttica
ttich
ttigau
ttikon
ttim
tting
ttingen
tto
ttrica
ttrich
ttro
tu
tua
tubi
tubo
tuc
tuca
tucc
tud
tude
tudesca
tudesch
tudor
tujetsch
tul
tula
tum
tumor
tuni
tunisia
tunnel
tuo
tur
tura
turbigh
turborent
turborenza
turc
turca
turch
turchia
ture
turent
turgidum
turi
turin
turing
turism
turismo
turista
turistegh
turisteghe
turistich
turkmenistan
turku
turn
turna
turnaa
turnada
turnand
turner
turno
turtona
turtunes
turu
tus
tusa
tusann
tuscana
tuscoss
tusscoss
tut
tuta
tutavia
tute
tutela
tuti
tuto
tuts
tutt
tutta
tuttama
tuttamanch
tutte
tutti
tuttlingen
tutto
tuvalu
tux
tv
twitter
two
ty
tyt
tz
tzvelev
tœt
tœte
tœts
tœu
tɒ
tʃ
tʃa
tʃe
tʃi
tʃu
u
ua
ubliga
ubuntu
uc
ucciso
ucean
ucide
ucident
ucidenta
ucidental
ucidentala
ucitan
ucrain
ucraina
ucu
ud
udc
udin
udine
udinese
udu
ue
uefa
ufa
ufe
ufficiale
ufficio
ufi
uficia
uficial
uficialme
ufiziaj
ufizial
ufiziala
ufizialment
uga
uganda
uget
ugett
ugo
ugual
ui
uic
uk
ul
ula
ulanda
ulandes
uli
uliva
ulma
ultem
ultema
ultim
ultima
ultimo
ultra
ultraso
ultrasound
ultraviole
ultrepo
ulumorfa
um
uma
uman
umana
umane
umanista
umanita
umbert
umberto
umbra
umbria
umidita
umonim
umperk
un
una
und
unda
under
underground
undulatus
une
uneg
unega
unegh
unesco
ungheres
ungheria
uni
unica
unich
unid
unida
uniform
uniforma
unigh
unii
unio
union
unione
uniss
unit
unita
unitaa
unitari
united
uniti
univers
universal
universala
universita
universitaa
universitari
universitaria
university
universo
unix
unn
uno
uns
unter
unterallga
unu
unur
uomini
uomo
up
uperazziu
upon
upu
ur
ura
uragan
ural
urano
urban
urbana
urbani
urbano
urbanrail
urbino
urden
urdin
urdina
urdinaa
ure
urganizaziun
uri
uria
urient
urienta
uriental
urientala
urigin
urigina
uriginal
uriginari
url
urna
uro
urs
urss
urtugrafia
uruguay
us
usa
usad
usagg
usaj
usanza
usb
usda
use
usei
usell
user
usi
uso
uspeda
uss
ussulan
ust
uster
usurpador
ut
uta
utah
utc
ute
utegn
utegni
utegnu
utent
utenza
uter
utet
utigni
util
utilita
utilizazzion
utilizzazio
utilizzazion
uto
utrecht
utri
utu
utubar
utuber
utzenstorf
uv
uva
uz
uzbekistan
uze
v
va
vaca
vacanza
vacca
vacch
vache
vacin
vada
vado
vaduz
vaga
vagon
vai
vairano
vaj
val
valada
valassina
valcuvia
valdarno
valdi
valdostan
vale
valence
valencia
valentia
valentin
valentina
valentino
valenza
valerian
valerio
vales
valeyres
valfortore
valid
vall
vallad
vallada
vallader
vallardi
valle
vallecamonica
valles
valley
valli
vallier
vallo
vallon
vallonia
valmadrera
valmorea
valo
valois
valor
valore
valpelline
vals
valsasna
valsassina
valsavarenche
valsesia
valsesian
valsolda
valsugana
valtelin
valtelina
valtellina
valtellinese
valtellinesi
valtolin
valtolina
valtournenche
valtravaja
valtri
valu
valun
valur
valuta
valuur
valverde
valvola
van
vange
vangel
vann
vanoni
vant
vanta
vantagg
vanuatu
vanza
vapo
vapor
var
vara
varal
varall
varano
varda
vardaa
vardad
varde
vardee
varden
vare
vared
varen
varenna
varepsilon
vares
varese
vareso
varesott
vargot
vargott
vargu
vargun
vari
varia
variabel
variabil
variant
varianta
variazio
variazion
variazzion
varie
varien
varieta
varietaa
varna
varon
varphi
varron
varsavia
vartheta
vary
varz
vas
vasca
vasco
vascular
vasta
vasto
vatican
vaucluse
vaud
vaudois
vaux
vaver
vaz
vb
vc
vd
ve
vec
vecc
vecchia
vecchio
ved
veda
vedan
vedara
vedasca
veddasca
vede
vedel
veden
veder
vedere
vedet
vedeva
vedi
vedom
vedova
vedretta
vedu
veduda
veduu
vee
vegeta
vegetal
vegetati
vegg
vegge
veggia
vegh
vegia
vegl
vegn
vegna
vegnara
vegne
vegnen
vegneva
vegneven
vegni
vegnii
vegniva
vegniven
vegno
vegnu
vegnud
vegnuda
vegnuu
vei
veicoi
veicol
vel
vela
velaa
velen
velino
velka
velke
velky
vella
velletri
velluu
velo
velocita
velocitaa
velos
velucita
ven
vena
venceslaa
vend
vende
vender
vendeta
vendetta
vendi
vendica
vendicar
vendiche
vendita
venditor
venditora
vendu
vendud
venduda
venduu
vene
venego
venegon
venera
veneraa
venerad
venerde
venerdi
venere
venesia
venet
veneta
veneti
veneto
venezia
venezian
veneziana
venezuela
venezzia
venezzian
veng
vengeance
vengiu
vengiud
vengiuu
vengo
veni
venkov
venosta
vensg
vensgiud
vent
venter
ventila
ventimiglia
vento
ventura
ver
vera
verb
verbai
verbal
verban
verbanes
verbania
vercei
vercej
vercors
verd
verda
verde
verdee
verdi
verdura
vere
verge
vergiaa
vergin
vergo
vergogna
vergot
vergott
vergu
vergun
veri
verifica
verita
veritaa
verlag
vermen
vermezz
verna
vernaa
vero
verona
verones
veronese
verri
vers
versa
versailles
versant
versio
version
versione
versiu
versiun
verso
vert
verta
vertemaa
verteze
vertezz
vertica
verticaj
vertical
vertura
veru
very
verzasca
verzee
ves
vesc
vesch
vescont
vescov
vescovo
vescuf
vescuv
veseli
vesi
vesin
vesina
vesinanza
vesinen
vess
vesse
vessegh
vesser
vesses
vest
vesta
vesti
vestid
vestii
vet
veta
vetere
vetor
vettor
vettorial
vettur
vettura
vetu
veturiaal
veva
vevey
veveyse
veyle
vez
vezzano
veɲa
vhs
vi
via
viabilita
viadana
viadott
viagg
viaggen
viaggia
viaggiator
viaggiatori
viaggio
vial
viale
vialtar
vialter
vian
viareggio
vibo
viboldon
vibra
vibrazio
vibrazion
vica
vicari
vicariaa
vice
vicenda
vicentina
vicentino
vicenza
vicepresident
vich
vichingh
vicinanz
vicino
vico
viconagh
victor
victoria
vid
vida
vide
videl
videll
video
videoclip
videogioeugh
videosgioeugh
videosorveliada
vidi
vidor
vie
vien
viena
viene
vienna
vienne
vietnam
vieux
view
vif
vigan
vigano
vigentin
vigevan
vigeven
vigezz
vigezzina
vigna
vignaa
vigni
vignola
vigo
vigor
vigu
vii
viii
viking
viktor
vil
vila
vilagg
vilan
vilanament
vilano
vile
vill
villa
villafranca
village
villagg
villanova
villapizzon
villar
villard
villarini
villars
ville
villefranche
villeneuve
villette
villoresi
vilnius
vilta
vimercaa
vimercati
vin
vina
vinc
vinca
vincc
vince
vincent
vincenz
vincenzo
vincer
vinci
vincitor
vinciu
vinciud
vinciuu
vincol
vingiu
vingiuu
vini
vinjud
vinnycja
vino
vinschgerbahn
vint
vinti
vintott
vintu
vio
vioeula
viola
violaceae
violazion
viole
violent
violenta
violenza
violin
violoncell
violtar
violter
violtri
viotri
vira
virgin
virginia
virgola
virieu
virtu
virtual
virus
vis
visco
viscont
viscontee
visconteo
visconti
viscor
viscunt
visentin
visi
visibel
visibil
visibilita
visin
visina
vision
visit
visita
visitaa
visp
vist
vista
visti
visto
vistu
visual
vit
vita
vitale
vitamina
vitamine
vite
vitello
viterbo
vito
vitor
vitori
vitoria
vitta
vittima
vitto
vittor
vittore
vittori
vittoria
vittorio
vittur
vitu
viu
viulin
viulun
viv
viva
vivalto
vivaro
vive
viven
vivend
vivent
viver
vivere
viveva
viveven
vivi
vivisbach
vivo
vivu
vivuu
vixin
vizi
vizigo
vizille
vizita
vizzi
vka
vky
vlad
vladimir
vlc
vle
vltavou
vnu
vo
voaltri
voca
vocabolari
vocabolario
vocai
vocal
voce
voda
voeud
voeui
voeuja
voeul
voeulet
voeult
voeulta
voeulte
voeun
voeuna
voeur
voeuren
voeuret
voeureva
voeuri
voga
voghera
voglio
voi
voialtri
voice
voio
voivodaa
voivodal
voja
vol
vola
volant
volcan
vole
voler
voleva
volg
volga
volgar
volgograd
volo
volonta
volontari
volontaria
volontera
volp
volt
volta
voltaa
voltada
voltaire
volte
volterra
voltra
volturno
volu
volum
volume
volumm
volza
volzaa
vom
von
voo
vor
voramai
vorarlberg
vore
voreva
voreven
vori
vorsu
vorsud
vorticita
voruda
voruu
vos
vosa
voss
vost
voster
vostra
vot
vota
votaa
votazion
votcent
voti
voto
vott
vottanta
vottcent
vou
voucher
vous
vox
voyager
voz
vr
vra
vranov
vrbice
vre
vrera
vres
vs
vsi
vt
vtel
vu
vua
vucai
vucal
vucala
vufflens
vughera
vui
vuiocci
vul
vulcan
vulgare
vulgaris
vuli
vully
vulnerabilita
vulo
vultada
vulu
vulunta
vuluntaa
vulva
vum
vun
vuna
vundes
vunna
vuole
vura
vure
vureva
vuri
vurii
vuriif
vursu
vuru
vus
vuta
vuu
vv
vy
vys
vysoc
vysoka
vysoke
vø
vœl
vœlta
vœlte
vœna
vœulta
vœur
w
wa
wade
wagner
wahlkreis
wald
waldenburg
waldnaab
waldshut
wales
wall
walser
walter
waltz
wang
wangen
want
war
warner
warren
was
washington
wasseramt
watch
water
waterloo
watson
watt
wave
way
we
weather
web
webb
website
webster
wedge
weil
weilheim
weißenburg
welfare
wellington
wenn
werner
west
western
westfalia
westminster
westraltrachia
what
when
where
white
whitney
who
why
wi
wide
wie
wien
wiesbaden
wiesen
wii
wiki
wikibooks
wikimedia
wikinotizie
wikipedia
wikipediis
wikiquote
wikisource
wikispecies
wikiversita
wikivoyage
wil
wild
wiley
wilhelm
will
willd
william
williams
willisau
wilson
wind
windows
windsheim
windsor
winter
winterthur
wisconsin
with
without
wittelsbach
wo
wohlen
wohnbevo
wolf
wolfgang
wolfratshausen
wollemi
woltjer
woman
women
wood
word
wordpress
work
works
world
worm
worms
wright
wu
wunsiedel
wurde
www
wyoming
x
xa
xanthorrhoeaceae
xavier
xbox
xe
xi
xii
xiii
xiloyannis
xirbi
xiv
xix
xl
xmpr
xp
xss
xv
xvi
xvii
xviii
xx
xxi
xxii
xxiii
xxvii
y
ya
yale
yamaha
yanez
ye
year
years
yemen
yens
yo
york
you
young
your
youtube
youtuber
ytomyr
yu
yunus
yuzu
yverdon
z
za
zabe
zaccaria
zafferana
zafran
zagabria
zalt
zambia
zamo
zan
zanardelli
zane
zanetti
zanichelli
zaporiz
zar
zara
zavou
zberg
ze
zel
zelanda
zell
zem
zen
zena
zene
zeno
zenon
zenone
zentildona
zentralbahn
zer
zeri
zermatt
zermelo
zerna
zernez
zero
zeru
zeta
zeus
zfs
zg
zh
zhor
zi
zia
zibid
zica
zicch
zich
zie
ziers
zignan
zimbabwe
zinasch
zinch
zingaretti
zio
zion
ziper
zipri
zipro
zita
zittadin
ziu
ziun
ziunal
zli
zne
znojmo
zo
zodiac
zofingen
zola
zoldo
zole
zollernalbkreis
zon
zona
zone
zonn
zonna
zonta
zoo
zool
zorn
zorna
zu
zucchelli
zuccher
zucher
zuckermann
zug
zula
zum
zuoz
zur
zuri
zurich
zurigh
zurzach
zuzwil
zvu
zz
zza
zze
zzera
zzi
zzia
zzio
zziu
zziun
zzo
zœqer
{
|
}
~

¢
£
§
©
ª
«
­
®
¯
°
±
²
³
´
µ
·
¹
º
»
½
¿
×
ß
æ
ð
ðe
÷
ø
ı
ł
ła
łe
ło
łu
ŋ
œ
œvra
œvre
ɐ
ɑ
ɒ
ɔ
ɕ
ə
ɛ
ɪ
ɲ
ɲa
ɲi
ɲø
ɶ
ɹ
ʃ
ʃa
ʃe
ʃi
ʃu
ʊ
ʒ
ʒa
ʤ
ʧ
ʰ
ʲ
ʷ
ʻ
ʼ
ʾ
ʿ
ˈ
ˌ
ː
ːˈ
˔
˩
̀
́
̂
̃
̄
̆
̇
̈
̉
̊
̋
̌
̓
̔
̛
̠
̣
̥
̦
̧
̨
̩
̯
̸
̺
͂
ͅ
͡
α
β
γ
δ
ε
ει
ζ
η
θ
ι
κ
κα
και
κει
λ
μ
μα
ν
να
νη
ντα
ξ
ο
ου
π
που
ρ
ς
σ
τ
τα
τη
τι
το
του
υ
φ
χ
ψ
ω
ϑ
ϕ
ϱ
ϵ
а
б
бласть
в
г
д
е
и
к
л
м
н
о
область
с
т
у
ч
ш
ы
я
ְ
ִ
ֶ
ַ
ָ
א
ב
ר
ؚ
ا
ة
ر
ع
ل
ي
ٌ
َ
ُ
ِ
ّ
ْ
ٓ
ٔ
ٕ
ٙ
ރ
ޭ
ं
क
ज
त
द
ध
न
ब
म
य
र
व
स
ा
ि
ी
ु
े
्
।
া
ி
்
ง
ผ
ิ
ู
้
་
ག
ང
ཆ
ད
ན
པ
བ
མ
ཡ
ར
ལ
ཤ
ས
ི
ུ
ེ
ོ
ྒ
ྡ
ྱ
ྲ
ာ
동
면
읍
​
‎
–
—
‖
‘
’
‚
“
”
„
†
•
…
‪
‬
′
″
⁡
€
ℓ
№
ℜ
ℵ
←
→
↓
↔
↦
↷
⇌
⇒
⇔
∀
∂
∃
∅
∆
∇
∈
∏
∑
−
∖
∗
∘
∞
∧
∨
∩
∪
∫
∬
∭
∼
≃
≅
≈
≡
≤
≥
⊂
⊆
⋂
⋃
⋅
⋯
⌊
⌋
③
④
⑦
━
►
♭
♯
⟨
⟩
⟶
⺀
⺄
⺆
⺈
⺊
⺌
⺕
⺝
⺸
⺼
⿰
⿱
⿲
⿳
⿴
⿵
⿶
⿷
⿸
⿹
⿺
⿻
〢
あ
い
う
か
く
し
た
っ
て
の
は
ま
み
ら
る
わ
゙
゚
ァ
ア
イ
キ
ク
ケ
コ
シ
ス
ソ
タ
ッ
ツ
テ
ト
ニ
ノ
ハ
ヒ
フ
ヘ
ホ
マ
ム
モ
ユ
ラ
リ
ル
ロ
ワ
ン
・
ー
㇁
㇂
㇄
㇇
㇈
㇉
㇓
㏈
㐁
㐄
㐅
㐌
㐫
㐬
㐭
㐮
㐱
㑒
㒵
㒸
㒼
㓁
㓞
㔾
㕛
㕣
㖾
㘝
㚅
㚇
㚔
㚘
㝉
㝡
㝴
㝵
㞋
㞢
㞷
㠩
㠭
㠯
㡀
㡭
㡿
㢲
㢴
㣇
㣺
㥯
㪅
㫄
㫐
㫒
㫺
㬅
㬎
㬥
㬰
㲋
㳄
㷠
㸒
㸚
㸦
㼌
㼲
㽞
㿟
䀠
䂞
䍃
䏍
䒑
䖍
䖒
䖝
䖵
䙴
䚻
䜌
䝿
䡛
䧹
䪞
一
丁
丂
七
丄
丅
丆
万
丈
三
上
下
丌
不
与
丏
丐
丑
专
且
丕
世
丘
丙
业
东
丞
丢
丣
两
严
並
丨
丩
个
丫
丬
中
丮
丰
丱
串
丵
丶
丷
丸
丹
为
主
丽
丿
乀
乂
乃
久
乆
乇
么
义
之
乌
乍
乎
乏
乐
乑
乔
乖
乗
乘
乙
乚
乛
乜
九
乞
也
习
乡
乳
乾
亀
亅
了
亇
予
争
事
二
亍
于
亏
亐
云
互
亓
五
井
亘
亚
亜
亞
亟
亠
亡
亢
交
亥
亦
产
亨
亩
享
京
亭
亮
亯
亰
亲
亳
亶
亷
人
亻
亼
亾
仁
今
介
仌
从
仐
仑
仒
仓
仕
他
付
仝
代
令
以
任
企
伊
伏
伐
休
会
伯
但
位
何
佘
余
作
佥
使
來
侈
侌
侖
侯
侵
便
保
俞
信
修
倉
倍
候
倠
備
僉
僕
儿
兀
允
兂
元
兄
充
兆
兇
先
光
兊
克
兌
免
兑
兒
兓
兔
党
兜
兟
入
全
兩
兪
八
公
六
兮
兰
共
关
兵
其
具
典
兹
兼
冀
冂
冃
冄
内
冈
冉
冊
冋
册
再
冎
冏
冐
冒
冓
冖
冗
冘
军
农
冝
冡
冥
冫
冬
冷
几
凡
凢
凵
凶
凷
凸
凹
出
函
凾
刀
刁
刂
刃
刄
刅
分
切
刍
刑
刕
刖
列
刘
则
初
別
利
别
到
制
刺
則
削
剌
前
剡
剪
剽
劉
力
功
加
劦
助
劫
劳
劵
勃
勇
勉
勒
動
務
勞
勤
勹
勺
勻
勾
勿
匀
匂
包
匆
匈
匊
匋
匍
匕
化
北
匚
匝
匡
匪
匱
匸
匹
区
医
匽
匿
區
十
卂
千
卄
卅
卆
升
午
卉
半
卌
华
卑
卒
卓
单
卖
南
卜
卝
卞
占
卡
卢
卣
卤
卦
卩
卪
卬
卯
印
危
即
却
卵
卷
卸
卻
厂
厃
厄
历
厈
厉
厌
厓
厘
厚
原
厤
厥
厨
厭
厲
厶
厷
厸
去
厼
厽
叀
参
參
叅
又
叉
及
友
双
反
叐
发
叒
叔
叕
取
受
叚
叜
叟
口
古
句
另
叩
只
召
可
台
叱
史
右
叵
号
司
叹
吂
各
吅
合
吉
吊
吋
同
名
后
吏
向
吕
君
吝
吞
否
含
启
吳
吴
吹
吾
呂
呆
呈
告
员
呙
周
命
咅
和
咎
咠
咢
咨
咸
咼
哀
品
哉
員
哥
哲
唐
商
啇
問
啚
啬
啻
善
喜
喬
單
喿
嗇
噩
嚴
囊
囗
囘
囙
囚
四
回
囟
因
囧
囬
困
囱
囷
固
国
圂
圅
國
圍
圓
土
圡
圣
圥
在
圭
地
圶
圼
坐
坒
坚
坴
垂
垔
垚
埀
埋
城
埶
執
基
堂
堅
堆
堇
堯
塞
墨
壘
士
壬
壯
声
壳
壴
壹
壺
壽
夂
处
夅
夆
备
夊
夋
夌
复
夏
夒
夕
外
夗
夘
多
夜
夢
大
夨
天
太
夫
夬
夭
央
失
夲
头
夷
夸
夹
夻
夾
奂
奄
奇
奈
奉
奎
奏
奐
契
奓
奔
奚
奞
奠
奢
奥
奭
女
奴
奻
好
如
妄
妙
妟
妥
妻
妾
姑
委
姜
威
娄
婁
婴
嬰
嬴
子
孑
孔
孕
孖
字
存
孚
孛
孝
孟
季
孤
学
孫
孱
學
宀
宁
宂
它
宅
宇
守
安
宋
完
宏
宓
宗
官
定
宛
宜
宝
客
宣
室
宮
宰
害
家
容
宾
宿
寄
寅
密
富
寒
察
寧
審
寫
寬
寮
寸
对
寺
寻
寽
対
寿
封
尃
射
将
將
專
尉
尊
尋
尌
對
小
少
尒
尓
尔
尖
尗
尚
尞
尢
尣
尤
尧
尨
尭
就
尸
尹
尺
尻
尼
尽
尾
尿
局
居
屈
屋
屎
屏
屑
展
屖
屚
属
屠
屡
屬
屮
屯
屰
山
屵
屾
岁
岂
岑
岡
岩
岳
岸
峯
島
崇
崑
崔
崖
崙
崩
嵬
嶲
巂
巛
川
州
巟
巠
巢
巤
工
左
巧
巨
巩
巫
差
己
已
巳
巴
巷
巸
巽
巾
巿
帀
市
布
希
帚
帛
帝
带
師
席
帶
常
干
平
年
幵
并
幷
幸
幺
幻
幼
幽
幾
广
広
庄
床
底
店
庚
府
度
庫
庭
庶
康
庸
廉
廌
廛
廣
廩
廴
延
廷
建
廾
廿
开
弁
弃
弄
弇
弋
式
弓
弔
引
弗
弘
弜
弟
弥
弦
弱
張
強
强
彊
彌
彎
彐
彑
当
彔
录
彖
彗
彡
形
彥
彦
彧
彭
彳
役
彼
往
待
律
徒
得
徙
從
復
微
徵
心
忄
必
忌
忍
志
忝
忠
忩
快
念
忽
忿
思
怠
急
怱
恆
恒
恩
恭
息
悉
患
悤
悲
悶
惠
惡
惢
愁
愈
意
愛
感
慈
慧
慮
慶
憂
憲
應
戀
戈
戉
戊
戋
戌
戍
戎
成
我
戒
戔
或
戚
戠
戢
截
戲
戶
户
戹
戼
戾
房
所
扁
扇
手
扌
才
打
托
执
承
折
拉
拜
拿
掌
推
提
摩
支
攴
攵
收
攸
改
放
政
敄
敏
敕
敖
敗
敝
敞
敢
散
敦
敫
敬
数
敷
數
斂
文
斉
斊
斗
斤
斥
斩
斬
斯
新
方
於
施
斿
旁
旋
族
无
旡
既
旣
日
旦
旧
旨
早
旬
旱
旲
时
旾
昆
昇
昌
昍
明
昏
易
昔
昗
昜
星
春
昬
是
昱
昴
昷
時
晃
晋
晏
普
景
晶
智
暑
暴
曇
曩
曰
曲
曳
更
曷
書
曹
曼
曾
替
最
朁
會
月
有
朋
服
朔
朕
朗
望
朝
木
朩
未
末
本
札
朮
术
朱
朵
朶
朿
杀
杏
村
杜
束
条
来
東
杲
杳
松
析
林
枚
果
枝
枲
枼
某
柔
柚
查
柬
柰
柴
栗
桀
桑
桼
梁
條
梟
梨
棘
棠
棥
森
楚
業
楽
榮
樂
樊
欠
次
欣
欮
欲
欶
欽
款
歆
歇
歛
止
正
此
步
武
歨
歪
歮
歯
歰
歲
歴
歷
歸
歹
歺
死
殳
段
殷
殸
殹
殺
殻
殿
毋
毌
母
每
毒
比
毕
毚
毛
毳
氏
氐
民
气
氣
水
氵
氶
氷
永
氺
氾
求
汝
汞
江
沃
沓
沙
沝
河
泉
法
波
泣
泥
泰
洛
洞
洪
活
派
流
浦
浪
浮
海
淡
淮
清
渚
渠
湯
滿
漢
漸
火
灬
灭
灰
灵
灷
炅
炎
炏
炗
炙
炭
為
烈
烏
烝
焉
無
焦
焱
然
煞
熊
熏
燕
營
燮
爪
爫
爭
爯
爰
爱
爲
爵
父
爻
爽
爾
爿
片
牙
牚
牛
牜
牟
牢
牧
牪
牽
犀
犬
犭
犮
狂
狄
狊
独
狺
猋
猒
猪
献
獻
玄
率
玉
王
玟
玨
珎
班
琴
瑟
瑩
瓜
瓦
甘
甚
生
産
用
甫
甬
田
由
甲
申
电
甶
男
甸
甹
画
甾
畀
界
畏
畐
留
畜
畟
畢
畧
畨
番
畫
異
畱
當
畺
畾
疊
疋
疌
疑
疒
疾
癶
癸
癹
登
發
白
百
皀
皃
的
皆
皇
皋
皐
皕
皮
皷
皿
盃
盆
盇
盈
益
盍
盎
监
盒
盖
盛
盡
監
盤
盧
目
直
相
盾
省
眇
眉
看
眔
眞
真
眷
眼
眾
着
睘
睪
睿
瞏
瞢
瞿
矍
矛
矞
矢
矣
知
矦
短
石
破
碎
磊
磨
示
礻
礼
祟
票
祭
禀
禁
禸
禹
禺
离
禽
禾
禿
秀
秃
秉
秋
科
秝
秦
移
稟
穀
穌
穴
究
穹
空
穿
突
窄
窒
立
竒
竜
竝
竟
章
童
竹
笑
笠
筆
等
答
箕
算
箴
節
篤
篭
米
粉
粛
粟
粤
粦
粲
糞
糸
糹
系
約
納
素
索
紫
累
細
絜
絫
絲
維
綿
縣
繇
纍
纟
缶
网
罒
罔
罕
罗
罙
罡
罢
罪
署
罷
羅
羊
羌
羍
美
羔
羕
羗
羞
羡
羣
群
義
羲
羸
羽
翁
翏
習
翕
翟
翠
翼
老
耂
考
者
耆
而
耎
耑
耒
耳
耴
耶
耷
聂
聊
聖
聚
聶
聿
肀
肃
肅
肉
肖
肙
肥
肩
肯
育
肴
胃
背
胡
胥
能
脊
脩
膚
臣
臤
臧
自
臬
臭
臯
臱
至
致
臺
臼
臽
臾
臿
舀
舂
舄
與
興
舉
舌
舍
舛
舜
舞
舟
般
艮
良
色
艸
艹
艾
芒
芔
芬
芮
花
芳
芺
芻
苔
苗
苟
若
苦
英
茶
茸
荅
草
荒
荣
荼
莆
莧
莫
莽
菆
菊
菐
華
萬
落
葉
著
葛
董
葵
蒙
蒦
蒼
蓋
蓬
蓺
蔑
蔡
蕉
蕭
薄
薛
薦
薰
藍
藏
藥
蘭
虍
虎
虐
虒
虔
處
虖
虗
虘
虚
虛
虜
虞
虫
虽
蚤
蚩
蜀
蜜
蟲
蠡
血
行
衍
衛
衣
衤
表
衮
衰
袁
袞
褭
褱
襄
襾
西
覀
要
覃
見
規
覓
覧
親
覽
见
角
解
言
訁
訇
計
詹
誩
諸
讠
谷
豆
豈
豊
豐
豕
豖
豙
象
豦
豩
豪
豸
貇
貝
貞
貟
負
貢
貧
貪
貫
責
貳
貴
買
費
賁
資
賈
賏
賓
賔
賛
賞
賢
賣
質
賴
贊
贝
贡
责
贯
贲
贵
赖
赞
赤
赦
走
越
足
路
蹇
身
躬
車
軍
軎
軟
輦
车
辛
辜
辟
辥
辰
辱
農
辵
辶
边
达
过
近
连
迷
追
退
送
逆
逐
通
速
造
逢
連
逮
進
遀
遂
過
道
達
遣
適
遷
遺
邊
邑
邕
那
邦
邪
郎
部
郭
都
鄉
酉
酋
配
酓
釆
采
里
重
野
量
金
釒
錢
钅
長
镸
长
門
閃
閉
開
閏
閑
閒
間
閔
閵
閻
闌
门
间
闷
阑
阜
阝
阿
降
陳
陽
隆
隊
隋
隡
隨
隱
隶
隹
隺
隻
隼
隽
难
雀
雁
集
雈
雋
雍
雐
雔
雙
雚
雜
雝
離
難
雨
雩
雪
雲
零
雷
需
霍
霜
霝
霞
霸
靈
靑
青
非
靡
面
靣
革
韋
韦
韭
韯
韱
音
頁
頃
項
順
須
頗
頡
頻
顛
页
風
风
飛
飞
食
飠
養
饣
首
香
馬
馮
駦
马
骨
高
髟
髮
鬥
鬯
鬲
鬼
魚
魯
鮮
鱼
鲁
鳥
鳳
鸟
鹵
鹿
麃
麗
麥
麦
麻
黃
黄
黍
黎
黑
黒
黨
黹
黽
黾
鼎
鼓
鼠
鼻
齊
齋
齐
齒
齿
龍
龙
龜
龟
龠
龰
龱
龴
龵
龶
龷
龸
龹
者
艹
ﺍ
ﻠ
﻿
，
？
ｏ
🇦
🇧
🇨
🇩
🇪
🇫
🇬
🇭
🇮
🇯
🇰
🇱
🇲
🇳
🇴
🇵
🇷
🇸
🇹
🇺
🇻
🇼
🇾
🇿
𠀁
𠀃
𠀆
𠀉
𠀎
𠀐
𠁁
𠁣
𠂆
𠂇
𠂈
𠂉
𠂊
𠂋
𠂎
𠂒
𠂔
𠂛
𠂡
𠂢
𠂤
𠂬
𠂭
𠂹
𠃊
𠃋
𠃌
𠃍
𠃎
𠃑
𠃓
𠃔
𠃜
𠄌
𠄎
𠄠
𠄢
𠆢
𠆥
𠇍
𠈌
𠌵
𠓜
𠔉
𠔥
𠔼
𠔽
𠔿
𠕀
𠕁
𠕋
𠘧
𠘨
𠙻
𠙼
𠚏
𠚒
𠚤
𠚪
𠣏
𠤎
𠤕
𠥓
𠦄
𠦑
𠦝
𠧒
𠧗
𠧪
𠩺
𠪚
𠫓
𠫔
𠫤
𠬛
𠬝
𠬞
𠬢
𠬤
𠬶
𠮛
𠮦
𠮷
𠯑
𠱠
𠳮
𠷎
𡈼
𡉀
𡉵
𡌥
𡍮
𡏳
𡕒
𡕩
𡕰
𡖅
𡗗
𡗜
𡘆
𡘤
𡧱
𡨄
𡩧
𡬠
𡭽
𡰣
𡰥
𡰪
𡰯
𡰱
𡷈
𡸁
𡿨
𡿩
𡿪
𡿺
𢀖
𢀛
𢀩
𢁙
𢆉
𢆰
𢆶
𢇁
𢇇
𢉖
𢌬
𢌿
𢏚
𢑑
𢑚
𢖻
𢙣
𢛳
𢦏
𢦒
𢧵
𢼄
𢾕
𣁋
𣄼
𣅀
𣅽
𣍘
𣎳
𣎵
𣏋
𣏼
𣗥
𣥂
𣥖
𣦵
𣦼
𣧄
𣪊
𣪠
𣬉
𣳾
𣶒
𤇾
𤊽
𤐫
𤓰
𤔔
𤕨
𤣩
𤰇
𤰔
𤰞
𤴓
𤴔
𤽄
𥁑
𥁕
𥃦
𥃩
𥃭
𥇡
𥑟
𥘅
𥘈
𥝢
𥫗
𥱡
𦈢
𦉪
𦉬
𦉼
𦍌
𦍒
𦎧
𦐇
𦓔
𦔮
𦘒
𦙃
𦚏
𦣝
𦣞
𦣻
𦥑
𦥔
𦥯
𦨉
𦭝
𦰩
𧆞
𧈧
𧘇
𧰨
𧴪
𧴮
𧵩
𧾷
𨸏
𨾴
𩙿
𩠐
𩫏
𩵋
𪉷
𪜀
𪟽
𪠲
𪩲
𫇦
𫔭
𫜸
𫝀
𫠣
𫠩
𫢉
𫥞
𫩏
𫩠
𫪡
𫲽
𫶧
𬀷
𬐘
𬗌
𬙙
𬛸
𬜯
𬟩
𬯁
𬴘
𬺻
𬼉
𬼖
𭀰
𭁈
𭁨
𭅰
𭑈
𭕄
𭗼
𭤨
𭥫
𭻾
𮅕
𮊿
𮍌
𮍏
𮓗
𮥼
𮧮
廾
𰀁
𰀄
𰀈
𰀉
𰀕
𰀠
𰀡
𰀢
𰀪
𰁜
𰃮
𰆊
𰆘
𰋙
𰕎
𰢴
𰧭
𰯲
a--
aa--
ab--
aba--
abd--
abe--
abi--
abu--
ac--
aca--
acc--
accum--
ace--
acelera--
ach--
aci--
aco--
acqua--
acred--
act--
acu--
ad--
ada--
ade--
ado--
adrit--
adu--
ae--
aero--
af--
afer--
ag--
age--
agn--
ago--
agro--
agu--
ah--
ai--
aigui--
air--
aj--
ak--
aksa--
al--
ala--
alb--
alba--
albi--
albu--
ale--
ales--
alex--
ali--
all--
alle--
allum--
alma--
alo--
alp--
alpi--
als--
alt--
alter--
alto--
alve--
alver--
am--
ama--
amb--
ambi--
ambiz--
ame--
ami--
ammer--
amo--
ampli--
an--
ana--
anc--
and--
ande--
ane--
angli--
ani--
anna--
annun--
ano--
ant--
ante--
anti--
antro--
anu--
ao--
ap--
apari--
ape--
apo--
app--
applica--
apri--
apro--
apu--
aqua--
aqui--
ar--
ara--
arbit--
arc--
arcim--
arcip--
arco--
are--
ari--
armo--
aro--
ars--
art--
arti--
as--
asc--
asi--
asia--
aso--
asp--
ass--
ast--
astro--
at--
ate--
ati--
atmosph--
atmus--
ato--
atr--
att--
atta--
atti--
attri--
au--
aug--
auri--
aus--
auten--
autentica--
auto--
av--
ava--
ave--
avi--
ax--
ay--
az--
b--
ba--
bab--
bac--
back--
bad--
bai--
bal--
bale--
bam--
ban--
bar--
bara--
bari--
barna--
barr--
bas--
basi--
bata--
bati--
batt--
bb--
be--
bea--
beauc--
bec--
bee--
bel--
bell--
belle--
ben--
bene--
ber--
berg--
bern--
bes--
bese--
bet--
bev--
bez--
bhu--
bi--
bia--
bias--
bicch--
big--
bil--
bin--
bio--
bip--
bir--
bis--
bit--
biu--
bla--
ble--
bli--
blu--
bo--
bohu--
bol--
bon--
bona--
boni--
bor--
borde--
borgo--
bos--
bot--
bota--
bou--
boul--
bour--
box--
boz--
br--
bra--
bram--
brasi--
bre--
break--
brega--
brevia--
bri--
bro--
broad--
bru--
brus--
bs--
bu--
buch--
bud--
budd--
buff--
bug--
bukov--
bul--
bun--
bundes--
bur--
burg--
bus--
but--
by--
bɛ--
c--
ca--
cada--
cadre--
cae--
cafe--
cai--
cal--
cala--
cale--
call--
cam--
campo--
can--
candi--
cane--
cao--
cap--
cape--
capi--
capo--
capri--
car--
cara--
cari--
carl--
caro--
caryophy--
cas--
casa--
casal--
cast--
castel--
castro--
cat--
cata--
cau--
cav--
cava--
cavi--
cc--
ce--
ced--
cel--
cele--
cen--
cent--
cer--
cera--
cere--
cerim--
cerv--
ces--
cess--
cet--
cey--
ch--
cha--
cham--
chan--
che--
cher--
chey--
chi--
chia--
cho--
chry--
chur--
ci--
cia--
cian--
cie--
cil--
cili--
cim--
cin--
cine--
cinemato--
cio--
cir--
circ--
circonvall--
cirro--
cis--
cit--
cita--
citta--
city--
ciu--
civ--
ck--
cla--
clandes--
cle--
cli--
clo--
cloro--
clu--
cm--
cn--
co--
coa--
cocc--
cod--
code--
coe--
cogni--
coi--
coin--
col--
cola--
cole--
colle--
com--
coma--
comm--
comp--
con--
cong--
coo--
coordin--
cop--
cor--
cori--
coro--
cort--
corte--
cory--
cos--
coti--
coun--
cour--
cov--
cra--
cre--
crea--
cri--
cro--
cru--
cu--
cua--
cue--
cugg--
cui--
cul--
cule--
cum--
cume--
cumi--
cumpu--
cun--
cunsegu--
cup--
cur--
cure--
curi--
cus--
cusi--
cust--
cy--
cœ--
d--
da--
dac--
dad--
dai--
dal--
dam--
dan--
dar--
das--
day--
dd--
de--
dec--
deco--
dei--
del--
dem--
deme--
demo--
demuc--
den--
denom--
denon--
dent--
denum--
deper--
der--
des--
descu--
dese--
desfer--
desga--
det--
dete--
dev--
deva--
devia--
di--
dia--
diagno--
dic--
dicia--
did--
dida--
die--
diff--
din--
dina--
dio--
dipin--
dire--
dis--
disa--
disc--
disco--
discri--
discu--
dissip--
diu--
div--
dive--
dj--
dl--
do--
doc--
dog--
dol--
dolo--
dom--
dome--
don--
dop--
dopo--
dor--
dot--
dou--
dov--
dr--
dra--
dre--
dri--
dro--
dru--
dryopterida--
ds--
du--
dua--
dub--
due--
dui--
dum--
dume--
dun--
dur--
dus--
dy--
dyna--
dz--
dɔ--
dɛ--
dʒ--
dʒa--
e--
ea--
eber--
ebn--
ebo--
ec--
ecc--
ecclesi--
ece--
ech--
eclesi--
eco--
ecuno--
ecuva--
ed--
edu--
ee--
ef--
egg--
egi--
egn--
eh--
ei--
eich--
eis--
eisen--
ej--
ek--
el--
ela--
ele--
elett--
elettro--
eli--
ell--
elo--
els--
elvet--
em--
eme--
emi--
emm--
emo--
emot--
empi--
emula--
en--
enga--
eno--
ent--
ep--
epi--
equa--
equi--
er--
era--
erc--
ere--
ero--
eru--
es--
esa--
escre--
ese--
esi--
eso--
est--
este--
et--
ete--
eti--
etno--
eu--
euro--
eurosce--
ev--
eva--
every--
evo--
ex--
execut--
exp--
extra--
ey--
ez--
eze--
f--
fa--
fabb--
fac--
fai--
fal--
fan--
fant--
far--
fara--
fari--
fau--
faye--
fe--
fecond--
feld--
felt--
fen--
fene--
fer--
ff--
fi--
fia--
fie--
fil--
fila--
fili--
filo--
fin--
fina--
fine--
fio--
fis--
fit--
fla--
fle--
fli--
flo--
flu--
fly--
fo--
foi--
fol--
folk--
fon--
fone--
for--
fore--
foto--
fra--
fras--
fre--
fri--
fro--
fru--
fu--
ful--
fun--
funct--
funda--
funic--
fur--
fus--
fut--
fy--
fæ--
fœ--
g--
ga--
gae--
gai--
gal--
gala--
gali--
gam--
gan--
gar--
gare--
gari--
garza--
gas--
gat--
gaud--
gavas--
gaze--
ge--
gel--
gemel--
gen--
gene--
geo--
ger--
gera--
geru--
ges--
get--
geu--
gg--
gh--
ghe--
ghi--
gi--
gia--
giaco--
gian--
giff--
gil--
gin--
gine--
gio--
gir--
giro--
git--
giu--
gl--
gla--
gli--
glo--
glu--
gna--
gni--
gno--
go--
god--
gol--
gon--
got--
gra--
graf--
gran--
gre--
gri--
gro--
gros--
grotta--
groß--
gru--
gu--
gua--
guar--
gue--
gui--
gun--
gur--
guz--
gy--
gɔ--
h--
ha--
hai--
hart--
has--
hay--
he--
hed--
heiligen--
heim--
heine--
hel--
hem--
hen--
her--
herzogen--
het--
heu--
hey--
hi--
high--
hilde--
hin--
his--
hl--
hle--
hli--
hlu--
ho--
hoffm--
hohen--
hor--
horticul--
hos--
hr--
hra--
hu--
hunting--
hy--
i--
ia--
ibe--
ic--
id--
ide--
idro--
ie--
igno--
ignu--
il--
ill--
illum--
illumina--
illust--
ilu--
im--
ima--
ime--
imi--
immen--
impa--
imple--
impu--
in--
ina--
inc--
inca--
ince--
inclina--
inco--
incomp--
incro--
incu--
inde--
indi--
indo--
indu--
ine--
inf--
infa--
infer--
infes--
infi--
infra--
ing--
ingar--
ingor--
ingui--
ini--
inn--
inno--
ino--
inqui--
ins--
instru--
insu--
int--
inte--
inter--
intit--
into--
inu--
inva--
invo--
io--
ip--
ipo--
ir--
ira--
ire--
iriga--
is--
isa--
ise--
isen--
iso--
ist--
it--
ita--
iu--
iv--
iz--
ize--
j--
ja--
jan--
je--
jer--
jeru--
ji--
jo--
joa--
jon--
ju--
jugo--
k--
ka--
kai--
kal--
kam--
kan--
kar--
karl--
kas--
ke--
ken--
key--
kha--
ki--
kirch--
kiri--
kit--
kla--
klo--
ko--
kol--
kon--
kor--
kos--
koz--
kr--
kra--
kro--
kru--
kry--
ku--
kur--
kv--
ky--
kɔ--
l--
la--
labur--
lac--
lag--
lago--
lai--
lam--
lan--
lang--
lao--
lar--
las--
lat--
lati--
lau--
lauter--
lava--
laz--
lc--
le--
lea--
lec--
leg--
legisla--
lei--
lej--
lem--
len--
leo--
leon--
ler--
les--
let--
leu--
lex--
ley--
lez--
li--
lib--
libra--
lic--
lie--
lim--
lin--
lina--
lipo--
lis--
lit--
liu--
liz--
ll--
lle--
lli--
lo--
loca--
lod--
loe--
loi--
lom--
lon--
long--
longit--
lor--
los--
lou--
loß--
ls--
lti--
lu--
luc--
lud--
ludov--
lug--
luga--
lum--
lungu--
lus--
luz--
lv--
ly--
lø--
lɔ--
lɛ--
m--
ma--
maa--
mac--
macro--
madi--
mae--
mag--
magist--
mai--
main--
maj--
make--
mal--
mala--
male--
mamm--
man--
mana--
mane--
mani--
manu--
mar--
mara--
mare--
mari--
maria--
maro--
mars--
mas--
masa--
mat--
mata--
mate--
math--
matt--
mau--
may--
mb--
mc--
me--
mea--
meca--
med--
medi--
mei--
mej--
mel--
men--
mena--
mene--
menzi--
mer--
meres--
mes--
mesos--
met--
meta--
metro--
mexi--
mey--
mezzo--
mi--
mia--
mic--
micro--
mid--
mie--
mij--
miku--
mil--
milo--
min--
mina--
mine--
mini--
minu--
mio--
mir--
mira--
mis--
mit--
mittel--
mn--
mo--
mod--
mode--
modif--
moe--
moha--
moi--
mol--
mole--
mom--
mon--
mone--
mono--
mont--
monte--
mor--
mori--
mos--
mot--
moto--
mou--
move--
movi--
mozza--
mp--
mr--
mu--
muda--
mul--
multi--
mun--
munt--
mur--
mura--
mus--
mut--
my--
mysl--
mɔ--
mɛ--
n--
na--
nar--
nari--
nas--
nat--
nau--
nava--
naz--
nc--
nch--
nd--
ndi--
ndra--
ne--
nec--
nega--
nem--
nen--
neo--
ner--
nes--
net--
neu--
neuen--
nev--
new--
news--
ney--
ng--
nh--
ni--
nia--
nico--
nid--
nie--
nieder--
nig--
nin--
nis--
nn--
no--
noa--
noe--
nol--
non--
nor--
nord--
nos--
not--
nota--
nova--
nove--
ns--
nt--
nter--
nu--
nua--
num--
nun--
nur--
nve--
ny--
nz--
nɔ--
nɛ--
o--
ob--
ober--
obers--
oc--
oca--
occ--
ocu--
od--
odi--
oe--
of--
ofe--
off--
offen--
offiz--
oh--
oi--
ok--
ol--
ole--
oli--
oliv--
olo--
om--
ome--
omo--
on--
one--
oni--
op--
opo--
oposi--
opport--
or--
ora--
ore--
ori--
oriji--
ornit--
oro--
orp--
ors--
ort--
orto--
os--
oscil--
oss--
ossi--
ost--
ot--
ota--
otto--
ou--
out--
ov--
over--
ovvia--
ow--
p--
pa--
pac--
paci--
pad--
pag--
pai--
paj--
pal--
pala--
pale--
paleoc--
pan--
panti--
papa--
par--
para--
pare--
pari--
parmi--
pas--
pat--
patri--
patrio--
patus--
pau--
pav--
paz--
pc--
pe--
pec--
pedia--
pei--
pel--
pell--
pen--
pene--
per--
peri--
pers--
perspec--
pertur--
pes--
pesco--
pet--
peu--
pey--
ph--
phy--
pi--
pia--
pian--
pic--
pid--
pie--
pier--
pil--
pili--
pin--
pio--
pis--
pit--
pitts--
piu--
pla--
ple--
pli--
pllbumptt--
plo--
plu--
po--
poa--
pod--
poe--
poi--
pol--
pole--
poli--
poly--
pom--
pon--
pont--
ponte--
pop--
por--
porto--
pos--
pou--
pozz--
pozzo--
pp--
pr--
pra--
pract--
prat--
pre--
prest--
pret--
pri--
prinz--
pro--
proie--
prota--
pru--
ps--
pseudo--
psi--
psy--
pt--
pu--
pub--
pucc--
pue--
pul--
puli--
pum--
pup--
pur--
pus--
pusi--
put--
py--
pɔ--
pɛ--
q--
qi--
qua--
que--
qui--
quo--
r--
ra--
rac--
racco--
raco--
rad--
radd--
radio--
raf--
raffa--
rai--
raj--
ral--
ram--
ran--
rangia--
rap--
ras--
ray--
rb--
re--
rea--
real--
rec--
recon--
recu--
red--
ref--
referi--
regi--
rego--
regu--
rei--
rej--
rel--
reli--
rem--
remo--
ren--
rena--
reo--
repu--
repubb--
requi--
res--
respu--
ret--
reto--
retro--
retur--
reu--
rev--
rey--
rez--
rf--
rg--
rge--
rh--
rha--
rho--
ri--
ria--
ric--
rica--
rich--
rico--
ricon--
rie--
rigo--
rima--
rin--
rinasci--
ring--
rio--
ripa--
ripeti--
ripri--
ris--
riscal--
rit--
riu--
rk--
rn--
ro--
roa--
rob--
rocca--
rod--
rohr--
rom--
roma--
ron--
roque--
ros--
rot--
rota--
roth--
rothen--
rou--
rouss--
rov--
row--
roy--
roz--
rp--
rr--
rs--
rst--
rt--
ru--
ruf--
rugg--
rui--
rum--
run--
rus--
rv--
ry--
rz--
rœ--
rɔ--
rɛ--
s--
sa--
sabb--
sac--
sai--
sal--
salu--
sam--
samari--
samo--
san--
sao--
sar--
sara--
sas--
sau--
sb--
sba--
sc--
sca--
scal--
scar--
sce--
sch--
scha--
sche--
scho--
schu--
schwe--
sci--
scia--
scio--
sco--
scola--
scon--
scrus--
scu--
scur--
scœ--
se--
sea--
sec--
sed--
see--
sei--
sel--
sem--
semi--
sempli--
sen--
sep--
sepul--
seque--
ser--
sera--
serra--
sey--
sfe--
sfendi--
sfi--
sfo--
sfr--
sfu--
sg--
sga--
sge--
sgen--
sghi--
sgi--
sgiu--
sgu--
sgui--
sh--
she--
sho--
si--
sia--
sic--
sie--
sil--
sim--
simu--
sin--
sir--
sis--
sk--
ska--
sko--
sl--
sla--
slo--
sm--
sma--
smi--
smo--
sn--
so--
soc--
social--
soeu--
sof--
soja--
sol--
soley--
som--
some--
son--
sor--
sora--
sos--
sot--
sota--
sotta--
sou--
sp--
spa--
spar--
spe--
spi--
spia--
spie--
spl--
spo--
sponsgi--
spors--
spu--
spy--
sq--
squi--
sr--
ss--
st--
sta--
stadt--
stan--
star--
ste--
ster--
sti--
stil--
sto--
storio--
stra--
stras--
stre--
stri--
stru--
stu--
sty--
su--
sub--
sud--
sudis--
sue--
suff--
sui--
sul--
sula--
sum--
sun--
sup--
super--
sur--
sura--
sus--
sussi--
sut--
suta--
suvie--
sv--
sve--
svi--
swa--
swi--
sy--
syn--
sz--
sœ--
sɔ--
sɛ--
t--
ta--
tab--
tai--
tal--
tam--
tan--
tana--
tar--
tas--
tat--
tau--
taver--
tc--
te--
tea--
teau--
tech--
ted--
tel--
tele--
ten--
teo--
ter--
tere--
termodina--
terra--
tes--
tessalu--
tet--
tg--
th--
the--
tho--
thun--
thy--
ti--
tic--
tie--
tif--
til--
tim--
tin--
tipo--
tir--
tira--
tis--
tit--
to--
tol--
tom--
ton--
topo--
tor--
torre--
tos--
tot--
tov--
tr--
tra--
tram--
trans--
trapp--
tras--
trascen--
trascri--
tre--
tres--
trey--
tri--
tria--
tris--
tro--
tru--
trun--
trœ--
ts--
tt--
ttro--
tu--
tuc--
tul--
tur--
turi--
tus--
tv--
twa--
twe--
ty--
tz--
tɔ--
tɛ--
u--
uc--
ud--
ue--
ufe--
uff--
ufi--
uk--
ul--
uli--
um--
uman--
un--
uni--
unifica--
unter--
up--
upera--
ur--
ura--
urgan--
urs--
us--
use--
uss--
ust--
ut--
ute--
uto--
utu--
uvia--
uz--
v--
va--
vacc--
vai--
vaj--
val--
valle--
vals--
van--
var--
vas--
vau--
ve--
vec--
ved--
vel--
ven--
vene--
ver--
vera--
vero--
vert--
ves--
vet--
vey--
vi--
via--
vice--
vico--
vid--
video--
vie--
vighi--
vil--
vila--
vill--
villa--
vin--
vini--
vint--
vio--
virg--
vis--
vit--
vita--
vl--
vo--
voca--
voi--
voj--
vol--
volks--
vom--
von--
vor--
vos--
vou--
vr--
vra--
vs--
vu--
vui--
vul--
vœ--
vɛ--
w--
wa--
wal--
wald--
wall--
war--
was--
wat--
we--
web--
west--
whi--
whit--
wi--
wie--
wiki--
wil--
wild--
witt--
witten--
wo--
wu--
wy--
x--
xe--
xi--
xx--
y--
ya--
ye--
yo--
you--
yu--
z--
za--
zan--
zar--
ze--
zel--
zen--
zer--
zg--
zh--
zi--
zie--
zo--
zu--
zwi--
zɛ--
ð--
ło--
œ--
ɔ--
ɛ--
ɲ--
ɲa--
ʃ--
ʃa--
ʃi--
ʃu--
ʎ--
ʒ--
ʤ--
ʤɛ--
ʧ--
ʧɛ--
α--
γ--
δ--
ζ--
κ--
λ--
μ--
ν--
π--
ρ--
σ--
τ--
н--
респуб--
у--
ا--
--0
--00
--1
--2
--3
--4
--5
--6
--7
--8
--9
--94
--a
--aa
--aal
--abil
--ac
--ace
--aceae
--ach
--ad
--ada
--ade
--ado
--ador
--ads
--adt
--adu
--ae
--aea
--aga
--age
--agg
--agh
--agi
--ago
--ai
--aia
--aine
--aj
--aja
--ak
--al
--ala
--alda
--ale
--alment
--aluna
--am
--ame
--ameent
--ament
--an
--ana
--and
--ane
--ani
--ann
--ano
--ant
--anta
--anz
--anza
--ao
--ar
--ara
--ard
--ardo
--are
--ari
--aria
--ario
--aro
--ary
--as
--asc
--asch
--asco
--asiu
--assiu
--at
--ata
--ate
--ati
--ation
--ativa
--ative
--ato
--att
--au
--aux
--ava
--ay
--az
--azion
--azz
--azza
--azzi
--azzion
--azzo
--b
--ba
--bach
--ban
--bar
--bba
--bbe
--bbi
--bbia
--bc
--be
--bed
--bel
--bello
--ben
--ber
--berg
--bi
--bia
--bida
--bii
--bij
--bil
--bili
--bilita
--ble
--bo
--boli
--bon
--bra
--bre
--bs
--bu
--buk
--bus
--by
--c
--ca
--caa
--cad
--caj
--cal
--can
--cano
--cat
--cc
--cca
--cch
--cchi
--cchia
--cchio
--cci
--ccio
--cco
--ce
--cea
--ceae
--ced
--cei
--celli
--cent
--ceto
--ch
--che
--chi
--cht
--chu
--ci
--cia
--cio
--cion
--cipa
--cipaa
--cipazion
--ck
--cky
--cle
--co
--coi
--coj
--col
--con
--cot
--cott
--craft
--cs
--ct
--cta
--ction
--ctive
--cts
--cture
--cu
--cul
--cum
--cus
--cy
--d
--da
--daa
--dad
--dan
--dana
--das
--de
--dea
--deg
--dega
--degh
--del
--den
--denza
--der
--dera
--deren
--des
--di
--dia
--die
--dietwil
--dii
--din
--dingen
--dio
--do
--dola
--domo
--don
--dona
--dor
--dora
--doro
--dos
--dr
--dro
--ds
--dt
--du
--dun
--dur
--dura
--dure
--duu
--duur
--dy
--dʒa
--e
--ea
--eae
--ean
--eb
--ec
--eca
--ech
--eck
--ed
--eda
--edo
--ee
--eent
--ef
--eg
--ega
--ege
--egg
--eggia
--egh
--eghe
--egia
--ego
--ei
--eim
--ej
--ek
--el
--ela
--ell
--ella
--elli
--ello
--eln
--els
--em
--ema
--ement
--emm
--emo
--en
--ena
--enbu
--enburg
--ence
--end
--enda
--enga
--engh
--ens
--ensa
--ent
--enta
--ento
--enz
--enza
--eo
--er
--era
--erberg
--ere
--eri
--eria
--ern
--ero
--erre
--ers
--ersee
--erswil
--ert
--ertal
--erva
--es
--esa
--esc
--esca
--esco
--ese
--esi
--esia
--esim
--ess
--essa
--est
--et
--eta
--ete
--eto
--etro
--ets
--ett
--etta
--ette
--etti
--etto
--eu
--eubi
--eugh
--eui
--euj
--eul
--eula
--eum
--eur
--eus
--euv
--euva
--eux
--ev
--eva
--even
--evol
--ex
--ey
--ez
--eza
--ezia
--ezz
--ezza
--f
--fa
--fe
--feg
--fega
--fegad
--feld
--fer
--fere
--ff
--ffa
--ffi
--fi
--fica
--ficad
--fii
--fo
--folium
--fon
--fort
--fra
--fredda
--freddo
--fro
--ft
--fu
--fun
--furt
--g
--ga
--gaa
--gari
--gau
--ge
--gega
--gel
--gen
--ger
--gg
--gge
--ggi
--ggia
--ggio
--ggiore
--gh
--ghe
--ghi
--ght
--gi
--gia
--giada
--gica
--gical
--gich
--gico
--gie
--gine
--gio
--giu
--giuda
--giuu
--gl
--gli
--glia
--gliano
--glie
--glio
--glione
--gma
--gn
--gna
--gnaa
--gnan
--gnana
--gnano
--gne
--gnes
--gni
--gnin
--gno
--gnon
--gnu
--gny
--go
--gon
--gor
--got
--gozz
--gp
--gra
--grad
--gro
--gs
--gton
--gu
--gua
--gue
--gues
--gus
--gy
--h
--ha
--hac
--hal
--ham
--han
--haus
--he
--heim
--her
--hetti
--hew
--hi
--hia
--hie
--hio
--hler
--hn
--ho
--hod
--hof
--hofen
--holz
--hon
--hs
--ht
--hu
--hy
--i
--ia
--iaa
--iaceae
--iad
--iada
--iai
--iaj
--ial
--ian
--iana
--iano
--ianza
--iara
--iari
--iat
--ibel
--ibil
--ic
--ica
--ice
--ich
--iche
--ici
--icia
--ico
--icol
--ics
--icum
--icus
--id
--ida
--idaa
--ide
--ido
--idor
--idu
--idura
--ie
--iee
--ien
--ient
--ier
--iera
--iere
--iero
--iers
--ies
--ieu
--ieux
--iez
--if
--ifega
--ifica
--ifo
--ifolia
--ifolium
--ig
--iga
--ige
--igen
--igh
--ign
--igna
--igno
--igo
--igu
--ii
--ij
--ija
--ijan
--ik
--ika
--iko
--ikon
--il
--ila
--ile
--ili
--ilia
--ilian
--iliar
--ill
--ille
--im
--ima
--ime
--iment
--imo
--in
--ina
--ine
--ines
--inetto
--ing
--ingen
--ini
--inn
--ino
--ins
--int
--iny
--io
--iola
--iolo
--ion
--ional
--ione
--ioni
--ior
--ios
--iosa
--iot
--ipe
--ir
--ira
--ire
--iri
--iro
--iroeul
--is
--isc
--isch
--ische
--ise
--ish
--isi
--ism
--ismo
--iss
--issi
--issim
--issima
--issimo
--issiu
--ist
--ista
--istega
--istegh
--isti
--istica
--istich
--it
--ita
--itaa
--itari
--itaria
--itas
--ite
--ith
--ito
--itt
--itta
--itu
--itui
--ituii
--itur
--ity
--iu
--iuda
--ium
--iun
--iur
--iura
--ius
--iv
--iva
--ivament
--ive
--ivi
--ivia
--ivita
--ivo
--ix
--iza
--izaa
--izad
--izada
--izasiu
--izi
--izia
--izion
--iziu
--izza
--izzaa
--izzada
--izzazion
--izzi
--izzia
--j
--ja
--jaa
--jad
--jada
--jan
--je
--jen
--jer
--jet
--ji
--jin
--jo
--ju
--k
--ka
--ke
--ken
--ker
--ket
--ki
--kij
--ko
--kon
--kov
--ks
--ku
--ky
--l
--la
--laa
--lad
--lada
--lade
--lan
--land
--lano
--lar
--las
--lata
--lation
--lav
--lba
--ld
--lda
--lden
--ldi
--ldo
--le
--len
--ler
--les
--lese
--let
--ley
--lfi
--li
--lia
--lice
--lico
--lie
--lier
--ligh
--lii
--lin
--ling
--lini
--lino
--lio
--lis
--lita
--ll
--lla
--lle
--lles
--lli
--llia
--llo
--llon
--lly
--lm
--lment
--lo
--load
--logia
--logico
--lojia
--ls
--lt
--lta
--lto
--lu
--lud
--lupo
--lus
--lv
--lx
--ly
--lyn
--lz
--lza
--m
--ma
--mad
--mada
--man
--mann
--mar
--mare
--mazion
--mb
--mba
--mbi
--mbie
--mble
--me
--meent
--meg
--mega
--men
--ment
--mente
--mento
--mer
--mi
--mia
--mida
--mie
--mii
--mm
--mma
--mo
--mot
--mov
--mp
--mps
--ms
--mu
--mum
--mus
--my
--n
--na
--naa
--nagh
--nai
--naj
--nal
--naldo
--nam
--nari
--nas
--nau
--nay
--nc
--nca
--ncc
--nce
--nch
--nco
--nd
--nda
--ndari
--nde
--nder
--ndi
--ndina
--ndo
--ndro
--ndu
--ne
--nea
--nee
--neg
--nega
--nege
--negh
--nego
--nei
--nen
--nent
--ner
--nes
--nesa
--nesi
--net
--neto
--ney
--nf
--nfa
--nfo
--ng
--nga
--nge
--ngen
--nges
--ngg
--ngh
--ngo
--ngs
--ngu
--nho
--ni
--nia
--nic
--nica
--nich
--nico
--nidor
--nie
--nienza
--nik
--nin
--ning
--nio
--nion
--nis
--nise
--nius
--nk
--nn
--nna
--nne
--nner
--nnes
--nni
--nno
--no
--non
--nov
--nova
--novo
--nque
--nried
--ns
--nsa
--nse
--nsger
--nsi
--nsis
--nsiu
--nsiva
--nso
--nt
--nta
--nte
--nti
--ntin
--ntina
--ntini
--ntino
--nto
--nts
--ntu
--nu
--num
--nus
--nuu
--nwald
--nwil
--nx
--ny
--nz
--nza
--nzaa
--nzan
--nzana
--nzano
--nze
--nzi
--nzia
--nziaa
--nzie
--nzio
--nzios
--nziu
--nziun
--nzo
--o
--och
--ock
--od
--oeu
--oeul
--oeula
--ogia
--ogn
--oi
--oin
--oj
--ok
--ol
--ola
--olas
--ole
--oli
--olia
--olla
--olo
--ols
--om
--oma
--on
--ona
--ond
--one
--ones
--ong
--oni
--onia
--onne
--onnex
--ono
--ons
--ont
--oo
--ope
--or
--ora
--ore
--orf
--ori
--oro
--orum
--os
--osa
--osch
--ose
--osi
--osita
--oso
--ossa
--ot
--ota
--oti
--oto
--ott
--otta
--otti
--ou
--oun
--ous
--oux
--ov
--ova
--ovic
--ow
--oz
--ozz
--p
--pa
--panter
--pcio
--pe
--pee
--peo
--per
--pf
--phy
--pi
--pia
--pir
--platz
--po
--pol
--poli
--polis
--pot
--pp
--ppe
--ppi
--ppo
--pr
--ps
--pta
--pu
--puni
--py
--q
--que
--ques
--r
--ra
--raa
--rad
--ragh
--ral
--ran
--rance
--rano
--ras
--rat
--razion
--rbe
--rc
--rca
--rci
--rco
--rd
--rda
--rde
--rdi
--rdo
--re
--reale
--red
--ree
--reet
--rell
--rella
--ren
--rent
--rer
--res
--ress
--ret
--rett
--retto
--rey
--rezz
--rf
--rg
--rge
--rgh
--rgues
--ri
--ria
--rica
--rich
--rie
--rieu
--rigo
--rii
--rij
--rin
--rina
--rini
--rino
--rio
--ris
--rism
--riss
--rit
--riz
--rizz
--rle
--rly
--rm
--rma
--rme
--rmi
--rn
--rna
--rne
--rni
--rno
--ro
--roeu
--rola
--rolo
--ron
--rone
--roni
--roo
--rop
--ror
--rosa
--rot
--roy
--rp
--rr
--rra
--rre
--rri
--rs
--rsa
--rse
--rsi
--rsion
--rso
--rt
--rta
--rtaa
--rte
--rti
--rto
--rtu
--ru
--rum
--run
--rus
--ruu
--rva
--rve
--ry
--rz
--rzo
--s
--sa
--san
--sana
--sano
--sat
--sbach
--sberg
--sburg
--sc
--sca
--sce
--sch
--schwil
--sci
--scia
--sco
--sdorf
--se
--see
--sell
--sem
--sen
--ses
--set
--sey
--sg
--sger
--sh
--shafen
--shausen
--sheim
--ship
--si
--sia
--sian
--sim
--simo
--sin
--sine
--sio
--sion
--sis
--sition
--siu
--siuna
--siv
--siva
--sk
--ska
--sky
--sm
--smo
--sna
--sno
--so
--son
--ss
--ssa
--sse
--ssen
--ssi
--ssim
--ssio
--ssion
--ssita
--ssiu
--ssiun
--sso
--sson
--ssu
--ssum
--ssur
--st
--sta
--ste
--steg
--stege
--ster
--sthal
--sti
--stica
--stiga
--sto
--ston
--stra
--stry
--su
--sus
--swil
--sy
--t
--ta
--taa
--tad
--tadt
--tagg
--tal
--tament
--tan
--tano
--tari
--tch
--te
--tea
--teca
--tech
--ted
--teg
--tega
--tege
--tegh
--tein
--tel
--tello
--ten
--ter
--tes
--th
--tha
--ti
--tia
--tic
--tica
--tich
--tico
--tid
--tida
--tif
--tiga
--tigh
--tigny
--tii
--tiif
--timent
--tin
--tina
--ting
--tino
--tion
--tions
--tis
--tism
--tista
--tium
--tiv
--tiva
--tive
--tle
--tnau
--to
--toi
--tol
--tola
--tolo
--ton
--tona
--tor
--tore
--tori
--toria
--tory
--tov
--tr
--tra
--tram
--tri
--trice
--tris
--tro
--try
--ts
--tsch
--tt
--tta
--tte
--ttega
--tti
--ttiv
--ttiva
--tto
--tton
--ttor
--ttu
--ttuda
--ttuu
--tu
--tud
--tum
--tur
--tura
--ture
--tus
--ty
--tz
--tzen
--u
--ua
--uada
--uai
--ual
--uc
--uca
--ucci
--uccio
--uce
--uch
--ud
--uda
--ude
--uden
--udi
--ue
--uen
--uer
--ues
--uf
--ug
--uga
--uge
--ugg
--ugh
--ugi
--ui
--uj
--uja
--ul
--ula
--ule
--ules
--uli
--ullo
--ulo
--ulugi
--um
--uma
--ume
--umes
--umm
--un
--una
--unal
--ung
--uno
--unt
--uo
--uolo
--up
--ur
--ura
--uraa
--ure
--ures
--urg
--uri
--urn
--urno
--uro
--urs
--us
--usa
--usc
--usch
--use
--ut
--uti
--uu
--uur
--uv
--uve
--uvio
--ux
--uzzo
--v
--va
--vaa
--vai
--val
--van
--vana
--vata
--vativ
--vaux
--ve
--ven
--ver
--ves
--vet
--vi
--via
--vic
--vie
--vigh
--vij
--vija
--ville
--vin
--visor
--vita
--vn
--vo
--vol
--von
--vra
--vu
--vy
--w
--wa
--way
--well
--wich
--wil
--wiler
--wing
--wis
--witz
--wn
--wo
--wood
--x
--xa
--xe
--xia
--xo
--xy
--y
--ya
--yd
--ye
--yer
--yn
--yne
--ys
--yte
--z
--za
--zaa
--zach
--zada
--zagh
--zano
--zazzion
--ze
--zei
--zel
--zer
--zes
--zet
--zi
--zia
--ziai
--zin
--zina
--zine
--zing
--zini
--zio
--zion
--ziona
--zione
--zisiu
--ziu
--ziun
--zo
--zoeu
--zt
--zu
--zy
--zz
--zza
--zzaa
--zzada
--zzan
--zzano
--zzazion
--zze
--zzi
--zzia
--zzin
--zzion
--zzionai
--zziu
--zziun
--zzo
--zzola
--zzon
--ß
--ße
--æ
--ø
--ła
--łe
--ŋ
--œm
--œt
--ɒ
--ɔ
--ɲ
--ʃ
--ʃa
--ʎ
--ʒ
--ʧe
--ʧi
--α
--ε
--ι
--ο
--ς
--а
--и
--ика
