!
"
#
##0
##1
##10
##11
##12
##13
##14
##15
##16
##17
##18
##19
##2
##20
##21
##22
##23
##24
##25
##26
##27
##28
##29
##3
##30
##31
##32
##33
##34
##35
##36
##37
##38
##39
##4
##40
##41
##42
##43
##44
##45
##46
##47
##48
##49
##5
##50
##51
##52
##53
##54
##55
##56
##57
##58
##59
##6
##60
##61
##62
##63
##64
##65
##66
##67
##68
##69
##7
##70
##71
##72
##73
##74
##75
##76
##77
##78
##79
##8
##80
##81
##82
##83
##84
##85
##86
##87
##88
##89
##9
##90
##91
##92
##93
##94
##95
##96
##97
##98
##99
$
%
&
'
(
)
*
+
,
-
.
/
0
00
000
0004
0006
001
002
004
005
006
007
008
009
01
0116498
017
018
0195665236
02
020
021
022
024
027
029
03
030
0305
0362
04
0486
05
050
06
060
07
074
08
0892
09
093
094
0971
098
1
10
100
1000
1001
1002
1006
1007
101
1010
1011
1012
1013
1014
1015
1016
1017
102
1021
1027
1029
103
1038
104
105
106
1066
107
1073
108
1080
1086
1088
109
1090
1093
1098
11
110
1100
1103
1109
111
1111
112
1126
113
113104
114
115
116
117
1175
1177
118
1186
119
1194
12
120
1200
121
122
123
124
125
126
127
128
129
13
130
1300
131
132
133
134
135
136
137
1371
138
139
14
140
1400
141
142
143
144
145
146
147
1474
148
149
1492
15
150
1500
1501
151
1515
152
1526
153
1535
154
1540
155
1556
156
157
1572
1574
158
1580
1582
159
16
160
1600
1607
161
162
163
1631
1633
164
1642
1644
165
1650
166
1665
1666
167
1675
168
169
1699
17
170
1700
1704
1707
171
172
173
1731
1739
174
175
1750
1758
1759
176
1764
1765
1769
177
1770
1772
1774
1776
1778
178
1787
1789
179
1790
1791
1792
1793
1795
1799
18
180
1800
1801
1807
1809
181
1812
1814
1817
1818
1819
182
1821
1822
1825
1826
1827
1829
183
1830
1831
1833
1834
1835
1837
184
1840
1845
1846
1847
1848
1849
185
1850
1851
1853
1854
1855
1856
1857
1858
1859
186
1860
1861
1862
1863
1864
1865
1866
1867
1868
1869
187
1870
1871
1872
1873
1874
1875
1876
1877
1878
1879
188
1880
1881
1882
1883
1884
1885
1886
1887
1888
1889
189
1890
1891
1892
1893
1894
1895
1896
1897
1898
1899
19
190
1900
1901
1902
1903
1904
1905
1906
1907
1908
1909
191
1910
1911
1912
1913
1914
1915
1916
1917
1918
1919
192
1920
1921
1922
1923
1924
1925
1926
1927
1928
1929
193
1930
1931
1932
1933
1934
1935
1936
1937
1938
1939
194
1940
1941
1942
1943
1944
1945
1946
1947
1948
1949
195
1950
1951
1952
1953
1954
1955
1956
1957
1958
1959
196
1960
1961
1962
1963
1964
1965
1966
1967
1968
1969
197
1970
1971
1972
1973
1974
1975
1976
1977
1978
1979
198
1980
1981
1982
1983
1984
1985
1986
1987
1988
1989
199
1990
1991
1992
1993
1994
1995
1996
1997
1998
1999
2
20
200
2000
2001
2002
2003
2004
2005
2006
2007
2008
2009
201
2010
2011
2012
2013
2014
2015
2016
2017
2018
2019
202
2020
2021
2022
203
204
205
206
2068
207
208
209
21
210
211
212
213
214
215
216
217
218
219
22
220
221
222
223
224
225
226
227
228
229
23
230
2305
2307
231
232
233
234
235
236
237
238
239
24
240
241
242
243
244
245
246
247
248
249
25
250
2500
251
252
253
254
255
256
257
258
259
26
260
261
262
263
264
265
266
267
268
269
27
270
271
272
273
274
275
2758
276
277
278
279
28
280
281
282
283
284
285
286
287
288
289
29
290
291
292
293
294
295
296
297
298
299
3
30
300
3000
301
302
303
304
305
306
307
308
309
31
310
3104
311
312
313
314
315
316
317
318
319
32
320
3201
321
3218
322
323
324
325
326
327
328
329
33
330
3300
331
332
333
334
335
336
337
338
339
34
340
341
342
343
344
345
346
347
348
349
35
350
351
352
353
354
355
3555
356
357
358
359
36
360
361
362
363
364
365
366
368
369
37
370
371
372
374
375
377
378
379
38
380
381
382
383
384
385
386
387
388
389
39
390
391
392
393
394
395
398
399
4
40
400
4000
401
4020
403
404
406
408
41
410
411
412
413
414
415
417
418
419
42
420
421
422
423
424
425
426
427
429
43
430
431
432
433
4331
435
436
438
439
44
440
4414
444
445
447
449
45
450
451
452
455
456
457
458
459
46
460
461
462
463
465
467
468
469
47
470
471
472
473
474
475
476
477
479
48
480
481
482
483
488
489
49
490
491
492
495
496
497
499
5
50
500
5000
501
502
503
504
5048
505
507
508
509
51
512
513
515
516
517
519
5194
52
520
521
5229
525
528
53
530
533
534
535
539
54
540
541
543
545
547
55
550
551
553
555
558
56
560
562
565
569
57
570
572
573
574
575
57607
579
58
580
581
582
583
586
589
59
592
594
595
596
598
59884
599
6
60
600
602
61
610
615
617
62
620
622
628
63
630
631
632
634
637
639
64
640
642
643
646
647
649
65
650
66
660
663
667
67
671
673
674
676
679
68
680
684
69
690
691
692
697
698
7
70
700
7000
7022
7028
7055
707
709
71
711
7119
717
72
720
722
723
724
727
73
730
731
7315
737
7387
74
741
742
744
747
75
750
751
753
76
760
7619
763
765
767
77
777
78
780
7835
785
79
7914
794
796
799
8
80
800
8000
801
803
8031
81
810
811
8120821343
8143
8160
817
8189422820
82
820
822
83
830
833
839
84
846
848
849
8493
85
850
852
855
857
86
860
863
864
865
868
87
870
874
877
879
88
880
883
884
885
886
887
888
89
891
892
894
895
896
899
9
90
900
902
903
905
906
907
908
91
910
912
913
914
915
916
917
919
92
920
921
922
925
928
93
930
933
935
937
938
94
940
943
947
949
95
950
955
959
96
960
962
965
966
969
97
970
971
973
978
9780195665239
979
98
980
981
984
985
987
989
99
990
991
992
995
996
997
999
:
;
<
=
>
?
@
[
\
]
^
_
`
a
aa
aajtak
aap
ab
abc
abe
abhinav
abkhazia
able
about
above
abraham
abroad
abstract
abu
abundances
ac
academic
academy
accepted
access
accessdate
accessed
accordance
according
account
accounts
acharya
acquired
acres
acridotheres
across
act
acting
actinide
action
actions
active
activist
activities
activity
actor
actors
actress
acts
actually
ad
adam
adams
adani
add
added
adding
addition
additional
address
addresses
adds
adelaide
adityanath
adjacent
adjusted
admin
administered
administration
administrative
admission
admitted
adopted
adrian
adult
advanced
advani
adventure
ae
aeneid
aerial
aerosol
aethopyga
af
afc
affairs
affect
afghanistan
afp
africa
african
after
ag
again
against
agarwal
age
ageing
agencies
agency
agenda
ages
agglomerations
agra
agrawal
agreed
agreement
agricultural
agriculture
ahead
ahimsa
ahmad
ahmed
ahmedabad
aims
air
aircraft
airline
airlines
airport
airways
aj
ajay
ajit
aka
akademi
akbar
akhilesh
akira
akshay
al
alan
alaska
albert
alberta
album
alex
alexa
alexander
alexandra
alfred
algae
algeria
ali
alia
alive
all
allaby
allah
allahabad
allen
alliance
allied
allmovie
allowed
allows
allu
alluvial
alluvium
almanac
almost
alone
along
alpha
alphabet
alphabetical
alphonse
alpine
alps
alptransit
als
also
although
always
am
amandava
amar
amartya
amarujala
amaurornis
amazon
amended
amendment
america
american
americas
ametsoc
amit
ammad
amnesty
among
amounts
amsterdam
amy
an
ana
analysis
anand
anantapur
anatomy
ancient
and
andaman
anderson
andhra
andorra
andre
andrea
andreas
andrew
android
andy
angeles
angels
angiosperm
anil
animal
animals
animation
anita
anna
annals
anne
annex
anniversary
announced
announces
annual
another
antarctic
antarctica
anthem
anthology
anthony
anthropology
anthus
antiquity
antonio
any
anything
aoraki
ap
apart
apes
aph
apj
app
appeared
appendix
apple
application
applications
applied
apply
appointed
approach
approval
approves
approximately
april
aqueduct
aqueducts
ar
ara
arab
arabia
arabian
arabic
aral
aravali
arc
archaeological
archaeology
archer
archipelago
architecture
archive
archived
archives
arctic
ardea
ardeola
are
area
areas
arena
argentina
argentine
arid
arizona
arjun
arkive
arm
armenia
armenian
arms
armstrong
army
arnold
around
arrangement
arrive
ars
art
arthur
article
articles
articleshow
artist
artists
arts
arun
arunachal
arvind
arxiv
arya
aryan
as
asean
ashok
ashoka
ashutosh
asia
asian
asiatic
asin
asked
aspects
aspx
assam
assembly
assessment
assigned
associated
associates
association
aston
astro
astrology
astronomers
astronomical
astronomy
astrophysical
astrophysics
at
atlantic
atlas
atmosphere
atmospheric
atomic
attack
attempt
au
audio
audiobooks
audit
aug
august
aur
aura
australia
australian
austria
author
authorities
authority
authors
autobiography
automatically
autonomous
autonomy
available
average
aviation
avibase
award
awarded
awards
away
ayurveda
az
azad
azerbaijan
azov
b
ba
baahubali
babu
bacchus
bach
bachchan
back
backed
background
bad
badeshi
badminton
bags
bahadur
bahubali
bahuguna
baikal
baker
bakhira
bal
bala
balance
ballia
baltimore
baltistan
ban
banaras
banarsidass
banerjee
bang
bangalore
bangkok
bangladesh
banglapedia
bank
banks
banned
bar
barabar
barbara
barnekow
barrier
base
based
basic
basin
basins
basis
bath
bats
battle
battlegrounds
battles
bay
bbc
bc
bce
bd
be
bear
bears
beat
beating
beautiful
beauty
became
because
become
becomes
becoming
bed
bee
beekeeping
been
bees
before
began
begin
beginning
begins
behavior
behind
beijing
being
belarus
belgium
beliefs
believe
believed
bell
bellied
below
belt
ben
bengal
bengali
benin
benjamin
benke
bennett
ber
berg
berger
berkeley
berlin
bernard
bernath
best
beta
better
between
beyond
bf
bfb
bgmi
bh
bha
bhagat
bhagiratha
bharat
bharatiya
bhartiya
bhaskar
bhatia
bhatt
bhattacharya
bhattacherje
bhojapuri
bhojpur
bhojpuri
bhutan
bibcode
bible
bibliographic
bibliographies
bibliography
bid
big
bigg
biggest
bih
bihar
bihari
bihta
bill
billed
billion
billionaire
bio
biodiversity
biogeographic
biogeography
biographical
biography
biological
biology
biome
biosphere
biratnagar
bird
birdlife
birds
birth
birthday
birthplace
bit
bitcoin
bittern
bjp
bk
black
blackswan
blackwell
blair
blake
blasco
blica
block
blocks
blog
blogs
blood
bloomberg
bloomsbury
blue
blunt
bmj
bn
bnhs
board
boca
bodies
body
bohra
bold
bolivia
bollywood
bollywoodmdb
bombay
bombey
bonfire
book
bookmyshow
books
boost
border
borders
born
bose
bosnia
boss
boston
botanic
botanical
botany
both
boundaries
boundary
bournemouth
bowen
bowker
box
boyd
br
bradley
brahma
brahmaputra
branch
brassica
brazil
brazilian
break
breaking
breaks
breasted
breeding
breeze
brexit
brian
bridge
bridges
brief
bright
brill
bring
brings
brisbane
britain
britannica
british
broadcast
broadcasting
broadleaf
brookings
brothers
brought
brown
browser
bruce
brunei
brussels
bryant
buck
buddha
buddhism
buddhist
budget
building
buildings
built
bulbul
bull
bulletin
bureau
burke
burkhard
burki
burma
burundi
bus
bush
business
but
buys
by
bysshe
c
ca
cabinet
cable
cache
cade
cage
calculated
calculation
calculations
calcutta
caldera
calendar
calendars
california
call
called
calling
calls
cambodia
cambridge
came
camera
cameroon
campaign
campus
can
canada
canadian
canal
canals
canary
canberra
cancer
candidate
candidates
candolle
cane
cannot
canon
canto
capacity
cape
capita
capital
capture
car
carbo
carbon
card
cardiff
care
career
cargo
caribbean
carl
carlos
carol
carolina
carried
carry
carter
cartography
case
cases
caspian
cast
caste
cat
catalog
catalogue
catchment
category
catharanthus
cathedral
catherine
catholic
caucasus
cause
caused
causes
caves
cbs
cd
cdc
ce
ceballos
celebrate
celebrated
celebrates
celebrating
celebration
celebrations
celebs
cells
cengage
census
censusindia
cent
center
centers
central
centre
centuries
century
ceo
ceres
certain
certificate
cervantes
cf
ch
chaco
chairman
chaitanya
chakraborty
challenge
challenges
chambal
chameleons
champion
championship
chand
chandigarh
chandra
chandrayaan
chang
change
changed
changes
changing
channel
channels
chapman
chapter
chapterurl
character
characteristics
characters
charan
charles
chart
charter
charts
chatterjee
check
checklist
chelsea
chemical
chemistry
chen
chenab
chennai
chess
chhath
chhattisgarh
chhillar
chhota
chicago
chief
child
children
chile
china
chinensis
chinese
chip
chipko
chiranjeevi
choice
choosing
chopra
chota
chris
christian
christianity
christie
christine
christmas
christopher
chronicle
chronology
chuppi
church
cia
ciconia
cid
cinema
cinerea
cinii
circle
circuit
circulation
circulations
citation
cite
cited
citeref
citerefbenkecushing
citerefdikshit
citerefeck
citerefkulkerothermund
citerefmarino
citerefsharma
citerefsingh
citerefstein
cites
cities
citing
citizens
citizenship
city
citypopulation
civil
civilization
claim
claimed
claims
clarendon
clark
clarke
class
classical
classics
classification
classified
claude
clean
cleartrip
climate
climatological
climatology
climbing
clinical
clio
clive
clock
close
cloud
clouds
club
clubs
clusters
cm
cms
cn
cnet
cnn
co
coal
coast
coastal
coastline
coauthors
code
codes
coefficient
cold
cole
collaboration
collapse
collected
collection
collections
college
collider
collins
colombia
colonial
color
colorado
colour
columbia
columbus
column
com
combination
combined
comcast
come
comedy
comes
coming
commentary
commerce
commercial
commission
commissioner
committee
common
commonly
commons
commonwealth
communal
communication
communications
communities
community
compact
companies
companion
company
comparative
comparison
compassion
complete
completes
complex
components
composed
composition
compound
compounds
comprehensive
compromise
computer
computers
computing
concept
concepts
concerning
concise
condemns
conditions
conducted
conference
confirmed
confirms
conflict
conflicts
congo
congress
connect
connected
connection
connor
conservation
consider
considered
consist
consists
constant
constants
constituencies
constituent
constitute
constitution
constitutional
constructed
construction
consumer
contact
contain
containing
contains
contemporary
content
context
continent
continental
continents
continue
continued
continues
control
controlled
controversial
controversy
convention
conventional
conventions
convergence
conversion
conveyor
cook
cooperation
coordinates
cop
coplen
copy
copyright
core
cormorant
cornell
coronavirus
corporate
corporation
corrected
corresponding
corruption
cos
cosmic
cost
costa
coturnix
could
council
councillors
councils
counter
countries
country
countrymeters
county
course
courses
court
courts
cover
coverage
covered
covering
covers
covid
cowper
cp
cpu
cr
craig
crake
crane
cranes
crater
craton
crc
create
created
creates
cremation
crested
crew
crex
cricket
crime
crimea
criminal
crisis
criteria
critical
croatia
crops
crore
cross
crossing
crown
cruise
crystal
cs
cu
cuba
cube
cubic
cucumber
cultivated
cultural
culture
cultures
cunningham
cup
cups
curfew
curious
curlie
currency
current
currently
currents
curzon
cushing
custom
customs
cut
cwa
cwb
cyber
cycle
cyprus
cz
czech
d
da
dactylopterus
daily
dainik
dalal
dalit
dam
dams
dan
dance
dancer
dancing
danger
dangerous
daniel
danny
dante
dark
darleane
darwin
das
dasgupta
dassault
data
database
databases
date
dated
dates
dating
datta
datum
daughter
dave
david
davies
davis
dawn
day
days
db
dblive
dc
dchb
de
dead
deadline
deadurl
deal
death
deaths
debate
deborah
debut
dec
decades
deccan
december
decided
decision
declaration
declarative
declared
declares
decline
dedicated
deep
deepika
deer
defeating
defence
defense
define
defined
defining
definition
definitions
degree
del
delhi
della
delta
demand
democracy
democrat
democratic
demographic
demographics
demonetisation
den
dengue
denmark
dennis
density
department
deposits
dept
depth
deputy
der
derived
des
desai
descartes
describe
described
describes
description
descriptions
desert
design
designated
designations
designed
desk
despite
detail
detailed
details
detection
determination
determine
dev
devanagari
develop
developed
developer
developing
development
developments
devi
device
devices
dhadingpost
dhakal
dharma
dhawan
di
diabetes
dialect
dialects
diamond
diana
diaspora
dictionaries
dictionary
did
die
died
diego
dies
diesel
diet
difference
differences
different
digital
dikshit
dilip
dimensions
dinerstein
dioxide
diplomacy
diplomatic
direct
directly
director
directorate
directors
directory
disaster
disasters
disc
discharge
discover
discovered
discovery
discussion
disease
diseases
disk
display
displayauthors
displaystyle
disposable
dispute
disputed
dissolution
dissolved
dist
distance
distances
distinct
distinguished
distribution
distributors
district
districts
diversity
divide
divided
divine
division
divisions
divorce
diwali
dixit
dj
dmoz
dna
dnaindia
do
dobrev
doc
doctor
document
documentary
documentation
documents
does
doesn
dog
doi
doing
dolphin
domain
dome
domestic
domino
don
dona
donald
done
donne
dordrecht
dos
double
douglas
doval
down
download
dpbs
dq
dr
draft
drainage
drama
drawing
dre
dream
drexel
dreze
drinking
drive
driven
drives
dry
dryden
ds
dt
du
dual
duck
ducks
dudhwa
due
duncan
durga
during
duronto
dust
dutch
duties
dutt
dutta
dw
dwarf
dwayne
dynamic
dynamics
dynasty
e
each
eared
earlier
earliest
early
earth
earthquake
east
easter
eastern
easy
eat
eb
ebay
ec
eci
eck
eclipse
ecological
ecology
economic
economics
economictimes
economist
economy
ecoregion
ecoregions
ecosystem
ecosystems
ecuador
ed
edelstein
edinburgh
edited
edition
editions
editor
editorial
editors
eds
edu
education
educational
edward
edwin
ee
effect
effective
effects
eggs
egret
egretta
egypt
egyptian
eid
eight
eighteenth
eighth
either
ek
ekantipur
el
elected
election
elections
electoral
electric
electrification
electronic
element
elements
elephant
elevation
elevations
elizabeth
ellen
ellis
elon
elsevier
elt
emergency
emerging
emily
emirates
emission
emoticon
emotion
emotional
emperor
emphasis
empire
empty
en
encyclopaedia
encyclopedia
encyclopædia
end
endangered
ended
ends
energy
engine
engineering
engineers
england
english
enter
entered
enterprise
enters
entertainment
entire
entities
entity
entries
entry
environment
environmental
epa
epic
episode
equal
equator
equatorial
equipment
equivalised
er
era
eric
ernest
ernst
erosion
error
erythropitta
es
esa
esha
eso
espan
especially
espn
espncricinfo
essays
essential
essentials
established
establishment
estadi
estimate
estimated
estimates
estonia
estuaries
et
etc
eternal
ethics
ethiopia
ethnic
ethnicity
ethnologue
etymology
eu
eugene
eurasian
europa
europe
european
eurostat
eva
evaluation
evam
eve
even
evening
event
events
ever
everest
everton
every
everyone
everything
evidence
evil
evm
evolution
evolutionary
ex
exact
exactly
example
examples
excellence
except
exceptional
excerpt
exchange
exclude
excludes
excluding
exclusive
executive
exist
exit
expanded
expansion
expected
expelled
expenditure
experience
experiences
experimental
explained
explanation
exploration
explorer
express
extended
extensive
extent
external
extinct
extra
extreme
extremely
extremes
eye
eyes
f
face
facebook
fact
factbook
facto
factor
factors
facts
factsheet
faculty
fai
fair
faith
falco
falcon
falkland
fall
falling
falls
false
fame
families
family
famine
famous
fan
fans
fao
faq
far
farmers
faroe
fascism
fast
fate
father
fauna
fbi
fc
fe
fears
feature
features
feb
february
federal
federation
feed
feet
fellows
female
feminism
fenech
ferguson
fernando
festival
festivals
few
ff
fi
fiction
field
fields
fifa
fifteen
fifth
fifty
fight
fighting
figure
figures
fiji
file
files
filled
film
filmfare
filmibeat
films
final
finally
finals
finance
financial
find
finds
fine
finland
fire
first
firstpost
fish
fisheries
five
fl
flag
flash
flat
fletcher
flickr
flight
flipkart
flood
floods
flora
florida
flour
flow
flower
flowing
flows
fly
flying
fo
focus
foehn
folk
folklore
following
follows
food
foot
football
footnote
for
forbes
force
forces
forecast
foreign
forest
forestry
forests
forkel
form
formal
format
formation
formed
former
formerly
forming
forms
fort
forum
forward
fossil
foster
found
foundation
founded
founder
founding
four
fourier
fourth
fox
fr
frac
framework
france
frances
francis
francisco
francolinus
frank
franklin
fred
frederic
frederick
free
freedom
freida
french
frequently
fresh
freshwater
fricke
friday
friedrich
friends
from
front
frontline
fruit
ft
fu
fuger
full
fully
fun
function
functions
fund
fundamental
fungi
further
future
fy
g
ga
gaeilge
gaelic
gained
galaxies
galaxy
gallery
gallus
game
games
gandhi
ganesan
ganga
ganges
gangetic
gap
gard
garden
gardens
gardner
garg
gary
gas
gateway
gaupalika
gautam
gave
gayle
gaza
gazette
gazetteer
gazetteers
gb
gc
gdp
ge
gen
gender
gene
general
generally
generation
generic
genetic
genus
geo
geodetic
geographers
geographic
geographical
geography
geohive
geologic
geological
geology
geomorphology
geophysical
geophysics
geopolitics
george
georgia
geoscience
geospatial
gerald
gerd
german
germany
germplasm
get
gets
getting
geyser
ggkey
ghats
ghosh
gi
gift
giles
gilgit
ginginianus
gini
girl
girls
give
given
gives
gl
glacial
glacier
glaciers
glance
glasgow
glass
global
globe
glory
glossary
glottolog
gmmtv
gnd
gnis
go
goa
gobind
god
godavari
goddess
goddesses
gods
goes
goethe
gogh
going
gold
golden
good
google
gopal
gorakhpur
gordon
gore
gorges
gorkha
gotthard
gov
governance
government
governments
governor
governors
govt
gps
grace
gracula
graf
graham
gram
grammar
grand
grande
grant
granted
granth
graphical
graphics
gravitational
gravity
gray
great
greater
greatest
grebe
greece
greek
green
greenland
greenwich
greenwood
gregorian
gregory
greta
grewal
grey
grin
gross
ground
groundwater
group
groups
grove
growing
grown
grows
growth
grus
gruyter
gslv
gu
guardian
guest
guide
guides
guinea
guinness
gujarat
gulf
guntur
gupta
gurgaon
guru
gutenberg
guwahati
guy
gyan
gyps
h
ha
haasan
habitat
haboob
had
hai
hajipur
half
hall
hambantota
hamilton
hammarstro
hand
handbook
hands
hanuman
happy
harald
hard
hardware
harold
harper
harris
harry
hartmann
hartmut
harv
harvard
harvey
harvtxt
haryana
has
haspelmath
hat
have
having
hawaii
hawking
haynes
hd
hdi
hdl
he
head
headed
headlines
headquarters
heads
health
healthy
heart
heat
heaven
heavy
height
heinemann
heinze
held
helen
helium
helm
help
helped
helsinki
hemant
hemisphere
hence
henry
her
herald
here
heritage
hero
heroes
heron
herons
herzegovina
hess
hi
hichki
hide
high
higher
highest
highland
highlands
highlights
hijab
hilary
hill
hills
him
himachal
himalaya
himalayan
himalayas
hindi
hindu
hinduism
hindus
hindustan
hindustani
hindustantimes
hindutva
his
historic
historical
history
hit
hits
hitya
hive
hl
ho
hoffman
hold
hole
holes
holi
holidays
holland
hollywood
holy
home
honey
hong
hopkins
horizons
hornbill
horse
hospital
host
hosting
hot
hotel
hotspots
hotstar
houghton
hour
hours
house
household
households
housing
how
however
howrah
hqt
ht
htm
html
http
https
hub
hubble
hudson
huffington
huge
hugh
hum
human
humanities
humans
humid
hundred
hungama
hungary
hunger
hunter
hurricane
husband
hyderabad
hydrographic
hydrological
hydrology
hydrornis
i
ian
ians
ias
iau
ibge
ibis
ibn
icar
icarus
icc
ice
iceland
icn
icon
ictv
id
idea
ideas
identification
identified
identifier
identity
ie
ieee
if
ignored
ii
iii
iiit
iit
il
illegal
illinois
illustrated
im
image
imagery
images
imdb
imf
immigration
impact
imperial
implementation
implications
importance
important
impossible
improve
impulse
in
inc
include
included
includes
including
inclusion
inclusive
income
incorporated
increase
increased
increasing
indentured
independence
independent
index
india
indian
indiana
indianexpress
indians
indiatimes
indiatoday
indica
indicators
indicus
indigenous
indigo
indira
individual
individuals
indo
indonesia
indonesian
indori
indus
industrial
industries
industry
inequality
infectious
influence
influenced
info
infobase
informatics
information
informed
infrastructure
ini
initiative
inland
inna
inner
innovation
inorganic
input
ins
inscriptions
insects
insee
inside
insider
instead
institut
institute
institution
institutional
institutions
instituto
instruction
instructions
int
integrated
integration
intellectual
intelligence
inter
interaction
interactions
interactive
interest
interesting
interface
interior
internal
international
internationale
internet
interpretation
interview
into
intoday
introduced
introduction
invalid
invasion
invented
invention
inventory
invitation
involved
ionization
ios
ipa
ipcc
iphone
ir
iran
iranian
iraq
ireland
irfan
irfca
irish
irma
irrfan
irrigation
is
isbn
islam
islamic
island
islands
isle
isles
iso
isotopes
isotopic
israel
isro
iss
issn
issue
issued
issues
ist
istanbul
it
italian
italic
italy
item
itihas
its
itself
iucn
iupac
iv
ixobrychus
j
ja
jack
jackson
jacob
jagran
jahangir
jain
jaina
jaipur
jakarta
jamal
james
jammu
jan
janata
jane
jansatta
january
japan
japanese
jason
java
javier
jd
je
jean
jeffrey
jenkins
jennifer
jens
jeremy
jersey
jerusalem
jesus
jet
jha
jhansi
jharkhand
ji
jill
jim
jitendra
jm
jo
job
joe
johann
john
johns
johnson
johnston
join
joined
joins
joint
jon
jonathan
jones
jong
jordan
jose
joseph
joshi
joshua
journal
journalism
journals
journey
joyce
jp
jpl
jr
js
jstor
judiciary
julia
julian
july
jun
june
jungle
jure
jurisdiction
just
justice
justin
k
ka
kabab
kailash
kaiser
kaithi
kamal
kamala
kammerer
kangana
kannada
kanpur
kantipur
kapil
kapoor
karabakh
karakoram
karan
karanvir
karl
karnataka
kashi
kashmir
kashmiri
kathmandu
kathmandupost
katju
katrina
kaur
kaveri
kavya
kazakhstan
kaziranga
ke
keay
kenneth
kenya
kerala
kevin
kew
key
kg
khabar
khan
khanna
khasi
ki
kidambi
kids
kill
killed
killing
kilometer
kim
king
kingdom
kingfisher
kinsley
kipling
kiribati
kishan
kissebaaz
km
knight
know
knowledge
known
ko
kohli
kolkata
konark
kong
korea
korean
kosciuszko
kosovo
kovind
kr
krishna
kriti
kulke
kumar
kumbh
kushinagar
kutch
kuwait
kyiv
kyrgyz
kyrgyzstan
københavns
l
la
lab
labor
laboratory
labour
lack
ladakh
lahore
laid
lake
lakes
lakh
lakshadweep
lakshmi
lal
lalit
laloo
lalu
land
lands
landscape
landskab
lane
lang
language
languages
lanjouw
lanka
large
larger
largest
larson
las
last
lastauthoramp
late
later
latest
latin
latitude
latvia
launch
launched
launches
laura
law
lawrence
laws
layer
lccn
le
lead
leader
leaders
leading
league
learning
least
leave
leaves
lebanon
lecture
lectures
led
lee
leela
lees
left
leg
legacy
legal
legends
legislation
legislative
legislature
legitimate
leibniz
leicester
leiden
leighton
leipzig
length
lengths
lenovo
leo
leone
les
less
lesser
lessons
let
letter
letters
level
levels
lewis
lexicon
li
liberty
libraries
library
libris
librivox
libya
liddell
lide
lie
lies
life
light
lightning
like
likely
lila
lillesø
lim
limbuwan
limited
limits
lin
linda
line
lines
linguistic
linguistics
link
linked
linkedin
links
linnaeus
liquid
lisa
list
listed
listen
listing
lists
lit
literacy
literary
literature
little
littlefield
liu
live
lived
livehindustan
livemint
liverpool
lives
living
llc
lo
loc
local
localities
located
location
locations
lochtefeld
logo
lok
lokendra
lonchura
london
lonely
long
longer
longest
longman
look
looks
lord
los
loss
lost
lotus
louis
louise
louisiana
love
low
lower
lowland
ltd
lu
lucknow
luka
lunar
lutgendorf
lying
lynching
m
ma
macau
macedonia
machine
macmillan
madagascar
madan
made
madeira
madhubani
madhuri
madhya
magazine
magnetic
maha
mahabharata
mahal
mahanadi
maharashtra
mahesh
mail
main
maine
mainland
mainly
maint
maintained
maithili
majesty
major
majority
make
maker
makes
making
malampuzha
malawi
malayalam
malaysia
maldives
male
malik
malta
malware
man
management
manchester
mandair
mandarin
mangalam
mangifera
mango
mangoes
mangrove
mani
manipur
manmohan
manohar
manoj
manorama
manu
manual
manuel
manushi
many
map
mapping
maps
mapsofindia
mar
marathi
marble
marc
march
marcos
marginal
maria
marie
marine
marino
mark
markandey
market
markets
markle
marks
markup
marriage
married
mars
marsh
marshall
martin
marvel
mary
maryam
mason
mass
massachusetts
masses
massey
massive
master
match
material
materials
math
mathbf
mathematical
mathematics
matter
matters
matthew
mau
mauritius
max
may
mayor
mb
mc
mcgraw
mcleod
md
me
mea
meacommunity
mean
meaning
means
measure
measurement
measurements
mechanics
medal
medallion
media
median
medical
medicinal
medicine
medieval
mediterranean
medium
meet
meeting
meets
meghan
mehta
meija
mein
mela
melbourne
melting
melton
member
members
membership
memoirs
memorial
memories
memory
men
mentioned
mercury
merged
merger
merging
merriam
messages
met
metacritic
metals
meteorological
meteorology
meter
methane
method
methods
metoo
metre
metres
metro
metropolitan
mexico
mha
mi
michael
michel
michigan
microbiology
microformats
microsoft
mid
middle
middleton
mifflin
might
migrants
migration
miguel
mikael
mike
mile
miles
military
milk
milky
miller
million
millionaire
millions
mills
milton
min
mind
mineral
minister
ministers
ministry
minnesota
minor
minorities
minority
minto
minute
minutes
miral
mirror
mirza
mirzakhani
mishra
mismatch
misra
miss
missing
mission
missions
mississippi
missouri
mit
mitchell
mithila
mitra
mittal
mixed
mizoram
mk
mla
mm
mob
mobile
model
models
modern
modi
module
mofald
mohan
mojo
moldova
molecular
molybdenum
moment
monaco
monarchy
monday
monetary
money
mongolia
monier
monitoring
monkey
monsoon
montenegro
montevideo
month
monthly
months
montifringilla
montreal
monument
monuments
mookerji
moon
moons
moore
more
morning
morocco
morphology
morss
moscow
most
mostly
motacilla
mother
motilal
motion
moto
motorola
motto
mount
mountain
mountaineers
mountainous
mountains
mouth
move
moved
movement
movements
moves
movie
movies
moving
mp
mr
ms
msn
mt
mu
much
mughal
mughals
muhammad
mukerji
mukesh
mukherjee
multi
multilingual
multiple
mumbai
mundi
munia
municipal
municipalities
municipality
murray
murree
museum
museums
music
musical
musk
muslim
muslims
must
my
mya
myanmar
myna
myth
mythology
n
na
nabokov
nacional
nadu
nagaland
nagar
nagorno
nagpur
nair
naja
name
named
names
naming
nancy
narayan
narendra
naresh
narmada
narrative
narrow
nasa
natasha
nath
nation
national
nationale
nationalencyklopedin
nationalgeographic
nationalism
nations
native
nato
natur
natural
nature
naval
navbharat
navbharattimes
navy
nayaju
nayak
nb
ncid
nclm
ncr
nd
nda
ndtv
ndwrs
ne
near
nearest
nearly
nebula
necessary
necked
nectar
need
needs
neha
nehru
neil
nelson
neophron
nepal
nepali
nest
net
netflix
netherlands
network
networks
never
new
newly
newman
news
newsletter
newspaper
newspapers
newton
next
ng
ngc
ngs
nh
ni
nic
nicholas
nicobar
nidhi
nietzsche
night
nigricollis
nile
nina
nine
nineteenth
ninth
nipah
nit
nitish
niue
nm
no
noaa
nobel
nobelprize
noble
nokia
nomenclature
nomination
nominations
non
nor
nordhoff
normals
norman
north
northeast
northern
northwest
norton
norway
norwegian
not
note
noted
notes
nothing
notices
notion
nottingham
nov
novel
novels
november
now
np
nps
nther
nuclear
number
numbers
numeric
numerous
nurses
ny
nz
o
oath
obituary
objects
observations
observatory
observed
observer
occupation
occupied
occur
occurs
ocean
oceania
oceanic
oceanography
oceans
oclc
oct
october
odisha
oecd
oed
of
off
offers
office
officer
offices
official
officially
often
og
ohio
oil
ojha
old
older
oldest
olga
oliver
olson
olympic
om
oman
on
once
one
oneindia
onepage
online
onlinekhabar
only
open
opening
opens
opera
operation
operations
opinion
oppo
optical
or
orange
orbit
orbiter
order
orders
ore
oregon
org
organic
organisation
organisms
organization
organizations
orient
oriental
origin
original
originally
origins
orissa
ornithology
os
osprey
ossetia
other
others
otherwise
oup
our
out
outbreak
outdoor
outgrowth
outlook
outlookindia
outside
over
overseas
overview
owen
own
oxford
oxforddictionaries
oxygen
ozone
p
pa
pac
pacific
padma
padmavati
padukone
page
pages
pain
paine
painting
pak
pakistan
pakistani
pal
palace
palanpur
pale
paleoclimatology
palestine
palestinian
palgrave
pali
palm
pan
panama
panchang
panchayat
panchayati
panchayats
pandey
pandit
panel
pangshura
pankaj
pant
papaya
paper
papers
par
paradise
parakeet
parallel
parameter
parameters
paramount
paris
parish
parishad
park
parker
parks
parkvall
parliament
parliamentary
part
parthenon
participate
participation
particular
parties
partition
partner
partnership
partridge
parts
party
parva
parvati
pashaura
pass
passage
passed
passer
passes
past
patel
patent
path
pathak
patiala
patkai
patna
patrick
patrika
pattern
patterns
paul
paytm
pc
pdf
pe
peace
peak
peakbagger
peaklist
peaks
pearson
pedro
pelecanus
pen
penguin
peninsula
pennsylvania
people
peoples
per
percent
percnopterus
perdicula
peregrine
peregrinus
perfect
perform
performance
performed
period
periodic
permanent
perseus
pershina
persian
person
personal
persons
perspective
perspectives
perth
peru
peter
peters
petl
petronia
pg
ph
phalacrocorax
phase
phd
phil
philadelphia
philip
philippine
philippines
phillips
philosophical
philosophy
phone
photo
photographs
photography
photos
php
phrvb
phylogeny
phylum
physical
physics
physrevb
piaget
pianka
pib
picasso
pichon
pics
picture
pictures
pidwirny
pied
pierre
pilgrimage
pilibhit
pillai
pinto
pioneer
pitta
pizza
pk
place
places
plain
plains
plan
planck
plane
planet
planetary
planets
planlægning
planned
planning
plans
plant
plants
plastic
plate
plateau
plates
platform
play
player
playerunknown
playing
plays
please
pletcher
plo
ploceus
plos
plus
pm
pmc
pmid
pnas
poblacio
pocket
podiceps
poem
poems
poet
poetry
point
points
poland
polar
police
policies
policy
polish
political
politician
politics
poll
polls
pollutants
pollution
pond
pont
pooja
poor
pope
popocate
popular
population
populations
porn
port
portal
portion
portrait
portugal
portuguese
position
possible
possibly
post
postscript
potential
pour
poverty
power
powered
powerful
powers
pp
ppen
ppp
pr
prabha
prabhas
prabhat
prabhatkhabar
practical
practice
practices
pradesh
prado
praka
prakash
prakashan
prasad
prayaga
prc
pre
precise
predation
prediction
prehistoric
preliminary
prem
premier
premierleague
prentice
present
preservation
presidency
president
presidential
press
pressure
prevention
preview
previous
previously
price
prices
primarily
primary
prime
prince
princeton
principal
principle
principles
print
printed
printing
prior
private
prix
priyanka
prize
prizes
probably
probe
problem
problems
proceedings
process
processes
processing
processor
produce
produced
producer
product
production
products
prof
professional
professor
profile
profiles
program
programme
programming
programs
progress
project
projection
projections
projects
prominence
promise
promotion
pronounce
pronounced
pronouncing
pronunciation
proper
properties
property
prophet
proposal
proposals
proposed
propulsion
prospects
protect
protected
protection
protocol
provide
provided
provides
province
provinces
provincial
provisional
provisions
psittacula
psychology
pterocarpus
pti
pu
pub
pubg
publ
public
publication
publications
publishe
published
publisher
publishers
publishing
puducherry
puerto
puja
punctuation
pune
punjab
punjabi
purana
pure
puri
purposes
purvanchal
pushpendra
put
putin
pvt
px
python
q
quadrangle
quail
quality
quantities
quarter
quarterly
quaternary
queen
quest
question
questions
quick
quickfacts
quint
quote
quoted
r
ra
rabin
race
radhakrishna
radiation
radical
radio
radius
rafale
rahat
rahul
rai
rail
railway
railways
rain
rainfall
rainforest
rains
raj
raja
rajapatra
rajasthan
rajendra
rajesh
rajinikanth
rajkamal
rajput
rajya
rakesh
rallina
rallus
ralph
ram
rama
ramayana
ramesh
ramsar
rana
ranaut
ranchi
random
range
ranges
ranging
rani
ranked
ranking
ranks
ransomware
rao
raptor
raptors
rare
rata
rate
rates
rather
rati
rating
ratio
ration
ratna
raton
ravi
ray
raymond
rbi
rd
re
reach
reached
reaches
read
reader
readership
reading
ready
real
reality
really
realm
realms
reason
rebellion
receives
recent
recently
recipe
recognise
recognised
recognition
recognize
recognized
recommended
record
recorded
recordings
records
recreation
red
rediff
redir
reduced
reef
ref
refer
reference
references
referendum
referred
refers
refs
refugees
regarded
regarding
regeneration
region
regional
regions
register
registered
registrar
registration
rejected
related
relating
relations
relationship
relative
relatively
release
released
releases
relevant
religion
religions
religious
remain
remained
remains
remote
removed
renamed
replace
report
reported
reporter
reports
representation
representative
representatives
reprint
reprinted
reptile
repu
republic
republica
republican
republics
request
required
requires
res
research
reserve
reserves
reservoir
reservoirs
resident
resigns
resolution
resort
resource
resources
respectively
response
responses
rest
restoration
result
resulted
results
retreat
retrieved
return
returns
reuters
rev
revealed
reveals
review
reviews
revised
revision
revolution
reza
rg
rhine
ri
rice
rich
richa
richard
richest
richmond
rico
ride
rift
right
rights
rio
ripley
rise
rises
rishi
rising
risk
rita
rites
ritual
river
rivers
rldens
rlts
rna
road
roads
robert
roberto
roberts
robin
robinson
roc
rock
rocks
roger
rogers
rohingya
role
roles
roli
rom
roman
romance
romanian
romantic
rome
romila
ronald
room
roots
rose
rosen
roseus
ross
rotation
rothermund
rotten
round
route
routes
routledge
rovio
row
rowman
roy
royal
rs
rsta
rt
ru
rudyard
rufous
rule
rules
rumped
run
running
runs
rupee
rural
russell
russia
russian
ruth
ryan
s
sa
saarc
sabha
sachin
sacred
safe
safety
saffron
sagara
sage
sahara
sahay
sahib
sahitya
said
saint
saints
sales
salman
salt
sam
samaj
samantha
same
sample
samsung
samuel
san
sanatorium
sanctions
sanctuaries
sanctuary
sandy
sanjay
sanon
sanskrit
sanskriti
santa
sar
sarah
saran
sarasvati
saraswati
sarkar
sas
satellite
satellites
satpura
saturn
saudi
savanna
savannas
save
saving
saxena
say
says
sbpd
sc
scale
schedule
scheme
schmidt
scholar
scholarly
scholars
scholarship
school
schools
schuster
schwartzberg
sci
science
sciencedirect
sciences
scientific
scientist
scientists
scotland
scott
scottish
screen
screens
script
scripts
scroll
se
sea
seal
search
seas
season
seasonal
seat
seats
sebastian
second
secondary
secret
secretariat
secretary
section
sector
security
sediment
see
seeds
seen
selected
selection
self
semi
semrajpur
sen
senate
senior
sense
sensing
separate
separated
separately
separator
september
sequence
serbia
serial
series
serve
server
service
services
session
set
sethupathi
sets
settlement
settlements
seven
seventh
several
severe
severn
sewage
sex
sexing
sexual
sexuality
sfn
sfnp
sh
sha
shackle
shah
shakespeare
shakti
shall
shama
shami
shan
shankar
shape
sharad
share
shared
shares
sharing
sharma
sharpener
she
sheet
sheets
shekhar
shelf
shelley
shepard
sher
shift
shimla
shin
shinzo
ship
shiv
shiva
shoot
shooting
short
shot
should
show
showing
shown
shows
shrestha
shri
si
siberia
siberian
side
sidney
sify
sign
signal
signed
significant
signs
sikh
sikhism
sikhs
sikkim
sil
silc
silent
silva
similar
simon
simone
simons
simple
simply
simpson
sin
since
sindhi
singapore
singh
singing
single
singles
sinha
sir
sirajul
site
sites
situated
situation
siwan
six
sixth
sixty
size
sketch
skin
skov
skr
sky
slightly
slopes
slovak
slovenia
slumdog
small
smaller
smart
smartphone
smith
smithsonian
smoke
snake
snow
snowfinch
so
soccerway
social
socialist
societies
society
socio
sociology
software
soil
soils
solar
sold
sole
soltis
somaliland
some
something
sometimes
son
song
songs
sonia
sons
sony
soon
soul
sound
sounds
soundtrack
source
sourcebook
sources
south
southeast
southern
southwest
sovereign
sovereignty
soviet
sp
space
spacecraft
spain
span
spanish
sparrow
speak
speaker
speakers
speaking
special
specialized
species
specific
spectroscopy
spectrum
speech
speed
spelling
sphere
spiritual
split
spoken
sport
sports
spot
spotted
spra
spread
spring
springer
springs
sq
square
sri
srikanth
srilankan
srinagar
srivastava
srtm
ss
st
stability
stadium
staff
stage
stand
standard
standardization
standards
stands
stanford
stanley
star
starling
starrer
stars
start
started
starting
starts
stat
state
stated
statehood
statement
statements
states
station
stations
statistical
statistics
statistique
statoids
stats
statue
status
statute
stay
stein
stellar
stem
step
stephen
steppe
sterling
stern
steve
steven
sthash
stica
still
stlin
sto
stock
stockholm
stone
stop
storage
store
stored
stories
stork
storm
story
straight
strait
straits
strategic
strategy
stream
streams
street
strength
stress
strike
stromboli
strong
structural
structure
structures
student
students
studies
studio
studios
study
sturnus
style
su
sub
subarctic
subcontinent
subfamily
subject
subjects
submission
subodh
subramanian
subscription
substances
subtropical
success
successor
such
sudan
sugar
sugarcane
suggested
suicide
sulawesi
sum
summary
summer
summit
summitpost
sun
sunbird
sundarbans
sunday
sunderlal
sunderland
sunil
sunita
sunny
suny
super
superheavy
supermoon
supplement
supplementary
supply
support
supported
supporting
supports
supremacy
supreme
surface
suriname
survey
surya
susan
susceptibility
suspended
suspense
sustainability
sustainable
swami
swansea
sweden
swedish
sweet
sweets
swift
swiss
switzerland
sworn
sydney
syed
syllable
symbol
symbols
symposium
synthesis
syria
system
systematic
systems
t
ta
table
tables
tag
tags
tailed
taiwan
taj
tajikistan
take
taken
takes
taking
tal
tale
tales
talks
tall
tallest
tamil
tana
tanganyika
tanzania
tapti
target
targets
tasman
tata
tate
tauris
taxon
taxonomic
taxonomy
taylor
tb
te
teaching
teachings
team
teams
tech
techcrunch
technical
techniques
technology
tectonic
tegh
tejashwi
telangana
telegraph
telegraphindia
telescope
television
tell
tella
telugu
temperate
temperature
temperatures
temple
temples
ten
tencent
tender
tennessee
tennis
tenth
tentoria
terai
term
terminology
terms
terrain
terrestrial
territorial
territories
territory
test
texas
text
textbook
texts
th
thai
thailand
thakur
thames
than
thank
thapar
thar
that
the
theatre
thehimalayantimes
thehindu
their
them
theme
themselves
then
theory
therava
there
therefore
thermal
thesaurus
these
thesis
thewirehindi
they
things
think
third
this
thomas
thompson
thomson
those
thou
though
thought
thousand
threat
threatened
three
throated
through
throughout
thunberg
thus
thy
tibet
tibetan
tiger
tigers
tika
tiktok
till
tim
time
timeanddate
timeline
times
timesnownews
timesofindia
timor
timothy
tirtha
title
titles
tiwari
tnn
to
toad
tobago
today
todd
together
tokyo
tolstoy
tom
tomatoes
tomb
tomorrow
tongues
tonnes
tony
too
took
top
topographic
topography
tops
toronto
total
totals
tour
tourism
tourist
tours
toward
towards
tower
town
towns
tr
trade
tradition
traditional
traditions
traffic
trail
trailer
train
training
trains
trans
transactinide
transactinides
transactions
transcribed
transcript
transfer
transform
transformers
transition
translated
translation
translations
transnational
transnistria
transport
travel
travels
treaties
treatment
treaty
tree
trees
trends
tribes
tribune
tributaries
tribute
trinidad
trinity
trip
tripathi
tripura
trisha
trishna
troops
tropical
trough
true
trump
trust
truth
ts
tsunami
tulsidas
tumblr
tunisia
tunnel
turing
turkey
turkish
turkmenistan
turn
turned
turner
turning
turns
tv
twelve
twenty
twitter
two
tyohar
type
types
typical
typically
u
ua
uidai
ujala
uk
ukraine
ukrainian
ul
ulan
ultimate
ultra
uma
un
und
under
underground
understanding
undp
unece
unep
unesco
uni
unicode
union
unique
unit
unitconversion
united
units
unity
universal
universe
universitet
universities
university
unknown
unless
unrecognized
until
unveils
up
upcoming
update
updated
updates
upinder
upkar
upon
upper
uptourism
uq
urban
urdu
uri
url
ursa
uruguay
us
usa
usage
use
used
useful
user
users
uses
usgs
using
ussr
usually
utah
utc
uttar
uttarakhand
uzbekistan
v
va
vaccine
vaccines
vadra
vaishali
valeria
valley
valleys
value
values
van
vani
vapor
varanasi
variability
variation
variations
varies
varieties
variety
various
vary
vatican
ve
ved
veda
vedic
vegetation
venezuela
verde
verge
verlag
verma
verse
version
versions
vertical
very
veteran
vi
via
viaf
vice
victor
victoria
victory
video
videos
vidya
vietnam
view
views
vii
vijay
vikas
villa
village
villages
vin
vincent
vindhya
violence
viral
vireo
virgil
virginia
virology
virtual
virus
viruses
vishnu
visible
vision
visit
visitors
visual
vital
vitamin
vitos
vitt
vladimir
voice
vol
volcanism
volcano
volga
volitans
volume
volumes
von
vote
voted
votes
vowel
vowels
vs
vulture
vultures
w
wa
wagtail
wales
walker
wall
walter
wang
want
wanted
wants
wap
war
ward
wards
warm
warming
warner
warrior
wars
was
washington
waste
watch
water
waterfall
waterfalls
waters
watershed
waterways
watford
waves
way
wayback
ways
we
wealth
weapons
weather
weatheronline
weaver
web
website
websites
webster
wechat
wedding
week
weekly
weight
weights
welcome
welfare
well
wells
welsh
went
were
west
western
westjet
wetland
wetlands
wg
what
whatsapp
whc
when
where
whether
which
while
white
who
whois
whole
whose
why
wide
widely
width
wife
wiki
wikimapia
wikimedia
wikipedia
wikispecies
wikivoyage
wild
wildlife
wiley
wilhelm
will
william
williams
willis
wilson
win
wind
winds
wing
winner
winners
winning
wins
winter
winters
wired
wisconsin
wise
wish
wishes
with
within
without
witzel
wolfgang
wolpert
woman
women
won
woods
word
wordpress
words
work
working
works
workshop
world
worldatlas
worlds
worldwaterfalldatabase
worldwide
worship
worst
worth
would
wp
wrestling
write
writer
writers
writes
writing
written
wrong
wrote
wu
wwf
www
x
xander
xeno
xii
xiii
xls
xxx
y
ya
yadav
yahoo
yale
yamuna
yang
yangtze
year
yearbook
years
yellow
yellowstone
yemen
yerevan
yet
ynp
yoga
yogi
york
yorker
yosemite
you
young
your
youth
youtube
yu
yuan
yugoslavia
z
za
zapornia
zar
ze
zealand
zee
zhang
zone
zones
zoological
zoology
zu
zumeta
{
|
}
~
£
¤
¥
§
¨
©
ª
«
®
¯
°
±
²
³
´
µ
·
¸
»
½
¾
¿
×
æ
÷
ı
ŋ
ȷ
ɑ
ɒ
ɔ
ə
ɛ
ɡ
ɨ
ɪ
ɹ
ʊ
ʒ
ʲ
ʷ
ʻ
ʼ
ʾ
ʿ
ˈ
ˌ
ː
˙
˛
ˠ
̀
́
̂
̃
̄
̆
̇
̈
̊
̌
̐
̓
̔
̣
̥
̦
̧
̨
̪
̱
̲
͂
͡
α
γ
δ
ε
θ
μ
ν
π
ρ
ς
в
г
и
мая
н
на
населения
о
река
россии
с
скои
федерации
ا
ب
ة
د
ل
م
و
َ
ُ
ِ
ّ
ٓ
ٔ
ٕ
ँ
ं
ः
अ
अइल
अइलन
अइस
अइसन
अइसह
अईल
अईसन
अउर
अऊर
अक
अकबर
अकसर
अकसरह
अख
अखण
अखब
अग
अगर
अगल
अगस
अगहन
अच
अचल
अछ
अज
अजम
अजय
अञ
अट
अटल
अठ
अड
अढ
अण
अत
अतन
अतर
अतव
अथ
अथर
अथव
अद
अदम
अदरक
अदल
अध
अधस
अन
अनघ
अनच
अनज
अनट
अनत
अनन
अनवर
अप
अपड
अपन
अपनवल
अपनह
अपभ
अपम
अपर
अपरदन
अपल
अपव
अपहरण
अफ
अफग
अफसर
अब
अबतक
अबर
अबल
अबस
अबह
अभ
अभय
अम
अमर
अमरक
अमल
अय
अर
अरघ
अरथ
अरब
अरल
अरव
अरवल
अरस
अल
अलक
अलकन
अलग
अलफ
अलर
अव
अवक
अवकलन
अवत
अवतरण
अवध
अवर
अवल
अवश
अवस
अवसर
अश
अष
अस
असफल
असम
असर
असल
असह
असहय
अह
अहम
अहमद
अहमदनगर
अहर
आ
आइ
आइआइट
आइए
आइएस
आइएसओ
आइएसब
आइओएस
आइज
आइजक
आइट
आइटम
आइड
आइप
आइब
आइय
आइल
आइस
आइसक
आइसल
आई
आईआईआईट
आईएस
आईएसब
आईप
आईफ
आईस
आउट
आउटप
आउटल
आउर
आऊर
आक
आकर
आख
आग
आगम
आगमन
आगर
आच
आचरण
आज
आजक
आजकल
आजमगढ
आट
आठ
आठव
आड
आडव
आत
आद
आदत
आदम
आदर
आध
आन
आनन
आप
आपक
आपन
आपर
आपस
आफ
आफत
आब
आभ
आम
आमत
आमदन
आय
आयत
आयतन
आयन
आयनम
आयर
आयरन
आयरल
आर
आरएल
आरएसएस
आरक
आरण
आरत
आरम
आरस
आल
आलम
आव
आवत
आवर
आवल
आवश
आश
आस
आसन
आसप
आसम
आह
इ
इऑक
इक
इकट
इकल
इग
इगर
इच
इज
इजर
इट
इटन
इटर
इटल
इड
इडन
इडर
इण
इत
इतन
इतर
इथ
इथन
इद
इदर
इन
इनक
इनकम
इनकर
इनप
इनफ
इनर
इनल
इनवर
इनस
इनह
इनहन
इप
इपर
इपरट
इपरल
इफ
इब
इबर
इभ
इम
इमर
इमरज
इमस
इय
इयन
इयर
इर
इरफ
इरल
इरस
इल
इलम
इव
इवर
इवल
इश
इस
इसक
इसज
इसम
इसर
इह
इहव
इऽ
ई
ईअड
ईऑक
ईओ
ईक
ईग
ईच
ईज
ईजह
ईट
ईड
ईद
ईन
ईप
ईफ
ईब
ईम
ईय
ईर
ईल
ईव
ईश
ईस
ईसव
ईह
उ
उक
उख
उग
उगल
उच
उछ
उज
उजर
उट
उठ
उठल
उड
उडर
उत
उतपत
उतर
उतरल
उथ
उथल
उथह
उद
उदगम
उदय
उदयप
उध
उन
उनईसव
उनक
उनकर
उनल
उनस
उनह
उनहन
उप
उपक
उपकरण
उपग
उपच
उपज
उपजल
उपत
उपद
उपध
उपन
उपनगर
उपप
उपपर
उपब
उपभ
उपम
उपमह
उपय
उपर
उपलक
उपलब
उपव
उपश
उपशहर
उपस
उपह
उब
उभ
उम
उमर
उर
उल
उलट
उष
उस
उसक
उह
उहव
ऊ
ऊख
ऊट
ऊन
ऊपर
ऊर
ऊह
ऋ
ऋग
ऋच
ऋत
ऋष
ऌ
ऍक
ऍच
ऍन
ऍफ
ऍम
ऍस
ऎ
ए
एइज
एइसन
एई
एईज
एक
एकट
एकठ
एकड
एकत
एकद
एकदम
एकन
एकम
एकमत
एकर
एकल
एकस
एकह
एख
एग
एच
एचट
एचड
एचप
एचब
एचय
एज
एट
एटम
एटर
एटलस
एड
एडम
एडल
एडव
एडवर
एत
एतन
एथ
एथन
एद
एन
एनआईट
एनए
एनएच
एनएन
एनक
एनज
एनड
एनय
एनर
एनव
एनस
एप
एफ
एब
एम
एमए
एमएल
एमज
एमट
एमन
एमप
एमस
एयर
एयरक
एयरप
एयरबस
एयरल
एयरव
एर
एल
एलन
एलबम
एलर
एव
एवर
एश
एशन
एस
एसआई
एसए
एसएलव
एसट
एसड
एसप
एसब
एसस
एह
एहम
एहर
एहस
ऐ
ऐक
ऐकर
ऐत
ऐन
ऐल
ऐश
ऐस
ऐसन
ऑक
ऑकल
ऑगस
ऑट
ऑड
ऑन
ऑनल
ऑप
ऑपर
ऑफ
ऑब
ऑर
ऑल
ऑस
ओ
ओइज
ओइस
ओइसन
ओक
ओकर
ओख
ओखर
ओखल
ओखलढ
ओग
ओज
ओट
ओठ
ओड
ओतन
ओन
ओप
ओपन
ओब
ओभर
ओभरल
ओम
ओय
ओर
ओल
ओव
ओवर
ओश
ओशन
ओस
ओह
ओहप
ओहम
ओहर
औ
औज
औद
औपच
औपन
और
औरत
औरतन
औरह
औषध
औसत
औसतन
क
कइ
कइन
कइयन
कइल
कइलन
कइलस
कइस
कइसन
कई
कईग
कईन
कईयन
कईल
कईलन
कईलस
कउन
कए
कक
ककथ
कग
कगण
कच
कचड
कचर
कचहर
कछ
कज
कजर
कट
कटक
कटतम
कटन
कटर
कटल
कठ
कड
कढ
कण
कत
कतन
कतम
कतर
कतरन
कतवर
कथ
कथन
कद
कदम
कन
कप
कपड
कफ
कब
कबड
कभ
कभर
कम
कमज
कमतर
कमर
कमल
कय
कयल
कर
करक
करण
करत
करद
करन
करम
करल
करव
करवल
करववल
करस
करऽत
कल
कलकत
कलत
कलन
कलम
कलर
कलल
कव
कवदन
कवन
कवर
कश
कष
कस
कसब
कसभ
कसय
कसरत
कसल
कह
कहत
कहन
कहल
कहलन
कहलस
कहव
कऽ
ख
खईल
खक
खग
खगड
खज
खट
खड
खण
खत
खतम
खतर
खतरन
खद
खन
खनन
खप
खपत
खबर
खभ
खम
खमस
खर
खरच
खरण
खरब
खल
खलन
खव
खवल
खस
खसकत
खसर
खऽत
ग
गइन
गइल
गइलन
गई
गईन
गईल
गए
गक
गकर
गङ
गच
गज
गजब
गजल
गट
गटन
गठ
गठन
गठब
गड
गडम
गढ
गण
गणक
गणत
गणतन
गणन
गणर
गत
गद
गदर
गध
गन
गप
गपत
गब
गभद
गम
गमत
गमन
गमरमर
गय
गयल
गर
गरइल
गरक
गरज
गरण
गरब
गरभ
गरम
गरह
गरहन
गल
गलई
गलक
गलत
गलप
गलय
गलस
गलसर
गव
गवइआ
गवत
गवन
गवर
गवल
गश
गस
गह
गहन
गहर
गहल
घ
घट
घटक
घटत
घटन
घटल
घड
घत
घन
घनत
घम
घर
घव
घस
घसक
ङ
ङक
च
चइत
चउथ
चउब
चक
चकत
चग
चच
चट
चटक
चटन
चटर
चड
चढ
चत
चतर
चथर
चन
चनज
चनरगरहन
चनरम
चप
चब
चम
चमक
चमकत
चमकद
चमग
चमड
चमत
चय
चर
चरक
चरण
चरन
चरम
चरल
चरव
चल
चलच
चलत
चलन
चलनस
चलर
चलल
चलवल
चव
चश
चस
चह
छ
छक
छखपड
छठ
छठई
छठव
छड
छत
छतरप
छन
छप
छपर
छपल
छपववल
छमत
छर
छल
छलक
छव
छह
ज
जइस
जइसन
जइह
जई
जईस
जईसन
जउन
जक
जकत
जकमल
जग
जगज
जगढ
जगण
जगत
जगद
जगन
जगरहन
जगह
जगहन
जघ
जघर
जच
जचग
जज
जञन
जट
जड
जत
जतन
जतर
जद
जदय
जध
जन
जनक
जनकप
जनगणन
जनज
जनत
जनद
जनन
जनपद
जनम
जनमद
जनमभ
जनमल
जनरल
जनल
जनव
जनवर
जनशक
जनस
जनसत
जप
जफ
जब
जबक
जबतक
जबर
जबरदस
जबल
जबलप
जबस
जभ
जभर
जम
जमन
जमल
जमश
जमहल
जय
जयत
जयन
जयनगर
जयप
जयव
जयश
जयस
जर
जरक
जरत
जरल
जरव
जल
जलक
जलग
जलज
जलध
जलन
जलप
जलब
जलबह
जलभ
जलम
जलव
जलस
जव
जवन
जश
जस
जह
जहर
जहव
झ
झउवल
झक
झगड
झटक
झन
झर
झरन
झरह
झल
झलक
ञ
ट
टक
टकक
टकन
टकर
टग
टच
टचर
टज
टड
टत
टद
टन
टनगर
टनम
टनर
टनहम
टप
टफ
टब
टम
टय
टर
टरग
टरट
टरड
टरन
टरनल
टरप
टरब
टरबर
टरभ
टरम
टरल
टरव
टरश
टरस
टल
टलग
टलम
टव
टवर
टवल
टश
टस
टह
टहन
ठ
ठक
ठन
ठप
ठभ
ठम
ठल
ठहर
ड
डइन
डक
डकइत
डकर
डग
डगलस
डच
डट
डन
डप
डफ
डब
डबल
डम
डमर
डर
डरग
डरल
डरस
डल
डलर
डव
डश
डस
डह
डहर
ढ
ढक
ढल
ढह
ण
णक
णकट
णज
णत
णद
णन
णप
णभट
णम
णय
णव
णवत
णस
णह
त
तइय
तई
तक
तकन
तकर
तकल
तख
तग
तच
तज
तट
तड
तत
तथ
तन
तनख
तनत
तनध
तनह
तप
तपस
तब
तबक
तबल
तबस
तभ
तम
तमन
तय
तर
तरक
तरण
तरन
तरप
तरफ
तरब
तरम
तरर
तरल
तरसरक
तरह
तरहव
तल
तलछट
तलव
तलस
तलहट
तलहर
तव
तवन
तवल
तश
तशत
तस
तसर
तह
तहत
तहस
तहहर
तऽ
थ
थक
थड
थत
थन
थनगर
थनबर
थप
थब
थम
थय
थर
थरन
थरस
थल
थलज
थलभ
थलम
थलर
थव
थश
थस
द
दक
दख
दग
दज
दजल
दण
दत
दद
दध
दन
दनगढ
दनश
दप
दफ
दफन
दब
दभ
दम
दमन
दय
दर
दरग
दरज
दरत
दरद
दरप
दरब
दरबन
दरभ
दरल
दरव
दल
दलदल
दव
दश
दशक
दशर
दशरथ
दशहर
दस
दसक
दसखत
दसम
दसर
दसल
दसव
दसहर
दह
दहन
दहव
ध
धइल
धक
धगय
धड
धत
धन
धनक
धनगढ
धनत
धनब
धप
धब
धम
धमक
धर
धरण
धरत
धरन
धरम
धल
धव
धवन
धश
धशतक
धस
धऽ
न
नअग
नइख
नइखन
नइहर
नई
नईख
नउम
नउव
नए
नक
नकद
नकर
नकल
नख
नग
नगढ
नगर
नगरन
नगरप
नच
नचन
नछ
नज
नजद
नजर
नट
नड
नत
नतम
नद
नदय
नदर
नन
ननगर
ननद
नप
नफ
नब
नबर
नभ
नभद
नम
नमक
नमन
नमभ
नमर
नय
नयक
नर
नरकट
नरम
नरस
नरह
नल
नलग
नलस
नव
नवक
नवज
नवत
नवन
नवभ
नवम
नवर
नवरन
नवल
नश
नष
नस
नसन
नसभ
नसमव
नसर
नह
नहट
नहन
नहर
प
पइस
पक
पकड
पकव
पख
पग
पगढ
पघ
पच
पछ
पज
पजल
पञ
पट
पटक
पटकथ
पटन
पटर
पटल
पटव
पठ
पड
पडर
पडल
पढ
पण
पत
पतई
पतझड
पतन
पतर
पतल
पथ
पथर
पथल
पद
पदक
पदम
पदर
पदव
पन
पनकउआ
पनड
पनब
पनरह
पप
पब
पबज
पम
पय
पर
परक
परगन
परच
परज
परत
परतद
परतन
परद
परदर
परध
परन
परफ
परब
परबत
परभ
परम
परमह
परय
परल
परव
परश
परस
परह
पल
पलक
पव
पवन
पवल
पवलस
पश
पष
पस
पसन
पसम
पह
पहच
पहर
पहल
पहलव
पऽ
फ
फइल
फइलल
फग
फज
फड
फत
फन
फब
फर
फरक
फरनगर
फरप
फरवर
फल
फलद
फलन
फस
फसल
फहर
ब
बइठ
बइठल
बइस
बई
बक
बकत
बकर
बकल
बख
बखर
बग
बगइच
बगल
बगसर
बगह
बघ
बच
बचत
बचन
बचपन
बचल
बछर
बज
बजट
बजर
बझ
बट
बड
बडहन
बढ
बत
बतवल
बतवलस
बद
बदर
बदल
बदलत
बदलल
बध
बन
बनइल
बनगर
बनज
बनट
बनड
बनत
बनर
बनल
बनलन
बनव
बनवल
बनवलन
बनवलस
बनववल
बनस
बफ
बफर
बब
बबल
बम
बय
बर
बरक
बरकर
बरख
बरगद
बरज
बरण
बरत
बरतन
बरद
बरन
बरनन
बरफ
बरब
बरम
बरल
बरव
बरस
बरहज
बल
बलद
बलप
बलब
बलम
बलर
बलव
बव
बशर
बस
बसत
बसन
बसल
बह
बहत
बहर
बहल
बहस
भ
भइय
भइल
भइलन
भइस
भईल
भउज
भउर
भक
भग
भगत
भगव
भगवत
भजन
भट
भटन
भड
भण
भत
भद
भन
भब
भभ
भय
भयल
भर
भरत
भरतन
भरतप
भरप
भरम
भरल
भरव
भल
भव
भवत
भवन
भवल
भवव
भश
म
मइय
मई
मउअत
मऊ
मक
मकड
मकथ
मकबर
मकर
मकरण
मकव
मकसद
मख
मग
मगढ
मगध
मगर
मगह
मघ
मच
मचक
मचर
मचल
मछ
मछर
मछल
मज
मजद
मजब
मझ
मट
मटन
मटर
मठ
मड
मढ
मण
मत
मतद
मतभ
मतलब
मथ
मद
मदद
मददग
मदन
मदर
मदरश
मदरस
मध
मन
मनई
मनउम
मनगर
मनद
मनम
मनल
मनव
मनह
मप
मफ
मब
मभ
मम
ममत
मय
मर
मरण
मरद
मरन
मरम
मरल
मल
मलय
मव
मवर
मश
मशल
मशह
मस
मसनव
मसर
मह
महक
महज
महत
महन
महब
महम
महर
महल
महस
य
यक
यकत
यकर
यकश
यग
यच
यज
यट
यटक
यटन
यड
यण
यत
यतन
यथ
यद
यन
यनमन
यनश
यप
यफ
यब
यबर
यभ
यभट
यम
यमन
यय
ययन
यर
यरट
यरत
यरन
यरम
यरल
यरस
यल
यलट
यलप
यलर
यव
यवन
यवर
यवल
यवस
यवह
यश
यस
यसभ
यह
र
रआन
रइन
रइय
रई
रउआ
रउव
रक
रकट
रकप
रकब
रकम
रकर
रकल
रख
रखण
रखत
रखन
रखप
रखरख
रखल
रखलस
रग
रगट
रगड
रगढ
रगत
रगर
रघ
रच
रचन
रचय
रचल
रचलन
रछ
रज
रजन
रजनन
रजभ
रजव
रठ
रड
रण
रणज
रणन
रणब
रणव
रत
रतट
रतन
रतम
रतल
रथ
रथम
रद
रदर
रध
रधन
रधर
रन
रनक
रनगर
रनप
रप
रपट
रपत
रफ
रफल
रब
रबड
रबत
रबन
रबर
रबल
रभ
रम
रमज
रमण
रमणक
रमन
रमबनन
रमल
रमश
रय
रर
रल
रव
रवक
रवण
रवन
रवर
रवल
रश
रशर
रशस
रष
रस
रसग
रसड
रसद
रसन
रसम
रसमल
रसर
रह
रहण
रहत
रहन
रहब
रहम
रहर
रहल
रहलन
रहव
रहस
रहऽसन
ल
लइक
लइकन
लई
लईक
लईकन
लउक
लउकत
लउकल
लउर
लक
लकड
लकन
लकर
लख
लखण
लखन
लखनऊ
लग
लगत
लगन
लगभग
लगल
लगलन
लगव
लगवल
लगह
लघ
लघर
लच
लचक
लचकद
लचर
लछ
लज
लझ
लट
लटक
लटकल
लड
लढ
लत
लद
लध
लन
लप
लपक
लपट
लपत
लपम
लफ
लब
लबज
लबर
लभ
लभर
लम
लमछर
लमड
लमसम
लमहर
लय
लयक
लयन
लयम
लर
लरन
लल
ललछ
लव
लवट
लवटल
लवन
लवल
लवस
लश
लस
लह
लहज
लहन
लहर
लहरद
लहव
लहस
लऽ
लऽसन
ळ
व
वई
वक
वकप
वकर
वग
वगन
वघर
वच
वचन
वज
वजन
वजव
वजह
वट
वड
वडर
वण
वत
वतन
वद
वध
वन
वनक
वनगर
वनड
वनवर
वनस
वप
वफ
वब
वभ
वम
वय
वयस
वर
वरण
वरणव
वरत
वरतन
वरद
वरन
वरप
वरफ
वरम
वरव
वरस
वल
वलप
वलपम
वलस
वव
वश
वस
वसन
वह
वहन
वहर
श
शक
शकर
शग
शज
शट
शत
शतक
शतर
शद
शन
शनग
शनन
शनप
शनर
शनल
शनश
शप
शपथ
शफ
शब
शबर
शम
शय
शर
शरण
शरत
शरद
शल
शलत
शव
शवत
शवन
शश
शस
शह
शहन
शहर
शहरन
ष
षक
षचर
षड
षण
षत
षद
षन
षम
षमत
षय
षर
षरत
षवर
षश
षस
स
सइय
सई
सईद
सउद
सऊद
सएप
सक
सकट
सकत
सकन
सकर
सकल
सख
सग
सगढ
सगर
सगरम
सङ
सच
सचर
सज
सजल
सझ
सट
सटन
सटल
सड
सडक
सत
सतन
सतप
सतरहव
सतलज
सतह
सथ
सद
सदन
सदर
सदरम
सदस
सन
सनक
सनल
सप
सपन
सपर
सफ
सफर
सफल
सफलत
सब
सबक
सबड
सबद
सबर
सबल
सबस
सभ
सभक
सभन
सभस
सम
समक
समकक
समग
समझ
समझल
समत
समतल
समथर
समन
समब
समय
समर
समल
समश
समस
सय
सर
सरक
सरग
सरज
सरण
सरद
सरन
सरफ
सरय
सरल
सरवत
सरस
सरह
सल
सलम
सलर
सव
सवन
सवर
सवस
सशक
सस
सह
सहक
सहज
सहन
सहभ
सहमत
सहय
सहर
सहरस
सहस
सऽ
ह
हई
हउअ
हउए
हउव
हउवन
हक
हकल
हग
हगढ
हज
हजह
हट
हड
हडसन
हण
हत
हतक
हतर
हथ
हद
हन
हनत
हनद
हप
हफ
हब
हबर
हबल
हभ
हम
हमक
हमन
हमर
हमल
हय
हर
हरग
हरण
हरद
हरन
हरप
हरम
हरल
हरस
हल
हलक
हलचल
हलन
हलस
हव
हवन
हवलद
हस
हसन
हऽ
हऽत
़
ऽ
ऽल
ऽसन
ा
ि
ी
ु
ू
ृ
ॅ
ॆ
े
ै
ॉ
ॊ
ो
ौ
्
ॐ
॑
॒
ॠ
।
॥
०
१
१०
११
१२
१३
१४
१५
१६
१७
२
२०
२०११
२०१४
२०१५
२०१८
२१
२५
३
३०
४
५
६
७
८
९
॰
ং
ক
ঙ
জ
ঞ
ত
দ
ন
প
ব
ম
র
ল
শ
ষ
স
হ
়
া
ি
ী
ু
ে
্
ਗ
ਤ
ਪ
ਬ
ਰ
ਾ
ਿ
ੀ
ੇ
੍
ੰ
ି
க
த
ந
ன
ப
ம
ய
ர
ல
வ
ா
ி
ீ
ு
ெ
ை
்
ం
క
గ
చ
జ
ఞ
త
ద
ధ
న
ప
భ
మ
య
ర
ల
వ
శ
స
హ
ా
ి
ీ
ు
ూ
ృ
ె
ే
ో
్
ౖ
ದ
ರ
ಾ
ಿ
್
ം
ക
ച
ട
പ
യ
ാ
ി
ു
്
ൽ
ස
්
ි
ු
ง
ซ
ด
ต
น
ร
ว
ส
อ
ั
า
ิ
ี
ื
ุ
่
้
์
ိ
ု
្
ᵊ
​
‌
‍
‎
‐
‑
–
—
‖
‘
’
‚
“
”
†
‡
•
…
′
″
‹
›
⁡
₂
€
₹
№
→
↔
↷
∆
−
⋅
⋯
③
④
⑦
☉
♠
♦
⟨
⟩
⺀
⺄
⺆
⺈
⺊
⺌
⺕
⺝
⺸
⺼
⿰
⿱
⿲
⿳
⿴
⿵
⿶
⿷
⿸
⿹
⿺
⿻
、
《
》
「
【
】
〢
い
え
お
か
さ
し
た
ち
て
と
な
の
ま
ゃ
を
ん
゙
イ
ク
コ
ッ
フ
ム
ャ
ユ
ヨ
ラ
レ
ン
・
ー
㇁
㇂
㇄
㇇
㇈
㇉
㇓
㐁
㐄
㐅
㐌
㐫
㐬
㐭
㐮
㐱
㑒
㒵
㒸
㒼
㓁
㓞
㔾
㕛
㕣
㖾
㘝
㚅
㚇
㚔
㚘
㝉
㝡
㝴
㝵
㞋
㞢
㞷
㠩
㠭
㠯
㡀
㡭
㡿
㢲
㢴
㣇
㣺
㥯
㪅
㫄
㫐
㫒
㫺
㬅
㬎
㬥
㬰
㲋
㳄
㷠
㸒
㸚
㸦
㼌
㼲
㽞
㿟
䀠
䂞
䍃
䏍
䒑
䖍
䖒
䖝
䖵
䙴
䚻
䜌
䝿
䡛
䧹
䪞
一
丁
丂
七
丄
丅
丆
万
丈
三
上
下
丌
不
与
丏
丐
丑
专
且
丕
世
丘
丙
业
东
丞
丢
丣
两
严
並
丨
丩
个
丫
丬
中
丮
丰
丱
串
丵
丶
丷
丸
丹
为
主
丽
丿
乀
乂
乃
久
乆
乇
么
义
之
乌
乍
乎
乏
乐
乑
乔
乖
乗
乘
乙
乚
乛
乜
九
乞
也
习
乡
乳
乾
亀
亅
了
亇
予
争
事
二
亍
于
亏
亐
云
互
亓
五
井
亘
亚
亜
亞
亟
亠
亡
亢
交
亥
亦
产
亨
亩
享
京
亭
亮
亯
亰
亲
亳
亶
亷
人
亻
亼
亾
仁
今
介
仌
从
仐
仑
仒
仓
仕
他
付
仝
代
令
以
任
企
伊
伏
伐
休
会
伯
但
位
何
佘
余
佛
作
佥
使
來
侈
侌
侖
侯
侵
便
保
俞
信
修
倉
倍
候
倠
備
僉
僕
儿
兀
允
兂
元
兄
充
兆
兇
先
光
兊
克
兌
免
兑
兒
兓
兔
党
兜
兟
入
全
兩
兪
八
公
六
兮
兰
共
关
兵
其
具
典
兹
兼
冀
冂
冃
冄
内
冈
冉
冊
冋
册
再
冎
冏
冐
冒
冓
冖
冗
冘
军
农
冝
冡
冥
冫
冬
冷
几
凡
凢
凵
凶
凷
凸
凹
出
函
凾
刀
刁
刂
刃
刄
刅
分
切
刍
刑
划
刕
刖
列
刘
则
初
別
利
别
到
制
刺
則
削
剌
前
剡
剽
劉
力
功
加
劦
助
劫
劳
劵
勃
勇
勉
勒
動
務
勞
勤
勹
勺
勻
勾
勿
匀
匂
包
匆
匈
匊
匋
匍
匕
化
北
匚
匝
匡
匪
匱
匸
匹
区
医
匽
匿
區
十
卂
千
卄
卅
卆
升
午
卉
半
卌
华
卑
卒
卓
单
卖
南
卜
卝
卞
占
卡
卢
卣
卤
卦
卩
卪
卬
卯
印
危
即
却
卵
卷
卸
卻
厂
厃
厄
历
厈
厉
厌
厓
厘
厚
原
厤
厥
厨
厭
厲
厶
厷
厸
去
厼
厽
叀
参
參
叅
又
叉
及
友
双
反
叐
发
叒
叔
叕
取
受
叚
叜
叟
口
古
句
另
叩
只
召
可
台
叱
史
右
叵
号
司
叹
吂
各
吅
合
吉
吊
吋
同
名
后
吏
向
吕
君
吝
吞
否
含
启
吳
吴
吹
吾
呂
呆
呈
告
员
呙
周
命
咅
和
咎
咠
咢
咨
咸
咼
哀
品
哉
員
哥
哲
唐
商
啇
問
啚
啬
啻
善
喜
喬
單
喿
嗇
噩
嚴
囊
囗
囘
囙
囚
四
回
囟
因
囧
囬
困
囱
囷
固
国
圂
圅
國
圍
圏
圓
土
圡
圣
圥
在
圭
地
圶
圼
坐
坒
坚
坴
垂
垔
垚
埀
埋
埶
執
基
堂
堅
堆
堇
堯
報
塞
墨
壘
士
壬
壯
声
壳
壴
壹
壺
壽
夂
处
夅
夆
备
夊
夋
夌
复
夏
夒
夕
外
夗
夘
多
夜
夢
大
夨
天
太
夫
夬
夭
央
失
夲
头
夷
夸
夹
夻
夾
奂
奄
奇
奈
奉
奎
奏
奐
契
奓
奔
奚
奞
奠
奢
奥
奭
女
奴
奻
好
如
妄
妙
妟
妥
妻
妾
姑
委
姜
威
娄
婁
婴
嬰
嬴
子
孑
孔
孕
孖
字
存
孚
孛
孝
孟
季
孤
学
孫
孱
學
宀
宁
宂
它
宅
宇
守
安
宋
完
宏
宓
宗
官
定
宛
宜
宝
客
宣
室
宮
宰
害
家
容
宾
宿
寄
寅
密
富
寒
察
寧
審
寫
寬
寮
寸
对
寺
寻
寽
対
寿
封
尃
射
将
將
專
尉
尊
尋
尌
對
小
少
尒
尓
尔
尖
尗
尚
尞
尢
尣
尤
尧
尨
尭
就
尸
尹
尺
尻
尼
尽
尾
尿
局
居
屈
屋
屎
屏
屑
展
屖
屚
属
屠
屡
屬
屮
屯
屰
山
屵
屾
岁
岂
岑
岡
岩
岳
岸
峯
島
崇
崑
崔
崖
崙
崩
嵬
嶲
巂
巛
川
州
巟
巠
巢
巤
工
左
巧
巨
巩
巫
差
己
已
巳
巴
巷
巸
巽
巾
巿
帀
市
布
希
帚
帛
帝
带
師
席
帶
常
干
平
年
幵
并
幷
幸
幺
幻
幼
幽
幾
广
広
庄
床
底
店
庚
府
度
庫
庭
庶
康
庸
廉
廌
廛
廣
廩
廴
延
廷
建
廾
廿
开
弁
弃
弄
弇
弋
式
弓
弔
引
弗
弘
弜
弟
弥
弦
弱
張
強
强
彊
彌
彎
彐
彑
当
彔
录
彖
彗
彡
形
彥
彦
彧
彭
彳
役
彼
往
待
律
徒
得
徙
從
復
微
徵
心
忄
必
忌
忍
志
忝
忠
忩
快
念
忽
忿
思
怠
急
怱
恆
恒
恩
恭
息
悉
患
悤
悲
悶
情
惠
惡
惢
愁
愈
意
愛
感
慈
慧
慮
憂
憲
應
戀
戈
戉
戊
戋
戌
戍
戎
成
我
戒
戔
或
戚
戠
戢
截
戲
戶
户
戹
戼
戾
房
所
扁
扇
手
扌
才
打
托
执
承
折
报
拉
拜
拿
掌
推
提
摩
支
攴
攵
收
攸
改
放
政
敄
敏
敕
敖
敗
教
敝
敞
敢
散
敦
敫
敬
数
敷
數
斂
文
斉
斊
斗
斤
斥
斩
斬
斯
新
方
於
施
斿
旁
旋
族
无
旡
既
旣
日
旦
旧
旨
早
旬
旱
旲
时
旾
昆
昇
昌
昍
明
昏
易
昔
昗
昜
星
春
昬
是
昱
昴
昷
時
晃
晋
晏
普
景
晶
智
暑
暴
曇
曩
曰
曲
曳
更
曷
書
曹
曼
曾
替
最
朁
會
月
有
朋
服
朔
朕
朗
望
朝
木
朩
未
末
本
札
朮
术
朱
朵
朶
朿
杀
杏
村
杜
束
条
来
東
杲
杳
松
析
林
枚
果
枝
枲
枼
某
柔
查
柬
柰
柴
栗
桀
桑
桼
梁
條
梟
梨
棘
棠
棥
森
楚
業
楽
榮
樂
樊
欠
次
欣
欮
欲
欶
欽
款
歆
歇
歌
歛
止
正
此
步
武
歨
歪
歮
歯
歰
歲
歴
歷
歸
歹
歺
死
殳
段
殷
殸
殹
殺
殻
殿
毋
毌
母
每
毒
比
毕
毚
毛
毳
氏
氐
民
气
気
氣
水
氵
氶
氷
永
氺
氾
求
汝
汞
江
沃
沓
沙
沝
泉
法
波
泣
泥
泰
洛
洪
活
派
流
浦
浪
浮
淡
淮
清
渚
渠
湯
源
滿
漸
澤
火
灬
灭
灰
灵
灷
炅
炎
炏
炗
炙
炭
為
烈
烏
烝
焉
無
焦
焱
然
煞
熊
熏
燕
營
燮
爪
爫
爭
爯
爰
爱
爲
爵
父
爻
爽
爾
爿
片
牙
牚
牛
牜
牟
牢
牧
牪
牽
犀
犬
犭
犮
状
狂
狄
狊
独
狺
猋
猒
猪
献
獻
玄
率
玉
王
玟
玨
珎
珠
班
琴
瑟
瑩
瓜
瓦
甘
甚
生
産
用
甫
甬
田
由
甲
申
电
甶
男
甸
甹
画
甾
畀
界
畏
畐
留
畜
畟
畢
畧
畨
番
畫
異
畱
當
畺
畾
疊
疋
疌
疑
疒
疾
癶
癸
癹
登
發
白
百
皀
皃
的
皆
皇
皋
皐
皕
皮
皷
皿
盃
盆
盇
盈
益
盍
盎
监
盒
盖
盛
盡
監
盤
盧
目
直
相
盾
省
眇
眉
看
眔
眞
真
眷
眼
眾
着
睘
睪
睿
瞏
瞢
瞿
矍
矛
矞
矢
矣
知
矦
短
石
研
破
碎
碩
磊
磨
示
礻
礼
社
祟
票
祭
禀
禁
禸
禹
禺
离
禽
禾
禿
秀
秃
秉
秋
科
秝
秦
称
移
稟
穀
穌
穴
究
穹
空
穿
突
窄
窒
立
竒
竜
竝
竟
章
童
竹
笑
笠
筆
等
答
箕
算
箴
節
篤
篭
米
类
粉
粛
粟
粤
粦
粲
糞
糸
糹
系
約
納
素
索
紫
累
細
絜
絫
絲
維
綿
縣
繇
纍
纟
缶
网
罒
罔
罕
罗
罙
罡
罢
罪
署
罷
羅
羊
羌
羍
美
羔
羕
羗
羞
羡
羣
群
義
羲
羸
羽
翁
翏
習
翕
翟
翠
翼
老
耂
考
者
耆
而
耎
耑
耒
耳
耴
耶
耷
聂
聊
聖
聚
聶
聿
肀
肃
肅
肉
肖
肙
肥
肩
肯
育
肴
胃
背
胡
胥
能
脊
脩
膚
臣
臤
臧
自
臬
臭
臯
臱
至
致
臺
臼
臽
臾
臿
舀
舂
舄
與
興
舉
舌
舍
舛
舜
舞
舟
般
艮
良
色
艸
艹
艾
芒
芔
芬
芮
花
芳
芺
芻
苔
苗
苟
若
苦
英
茶
茸
荅
草
荒
荣
荼
莆
莧
莫
莽
菆
菊
菐
華
萬
落
葉
著
葛
董
葵
蒙
蒦
蒼
蓋
蓬
蓺
蔑
蔡
蕉
蕭
薄
薛
薦
薰
藍
藏
藥
蘭
虍
虎
虐
虒
虔
處
虖
虗
虘
虚
虛
虜
虞
虫
虽
蚤
蚩
蜀
蜜
蟲
蠡
血
行
衍
術
衛
衣
衤
表
衮
衰
袁
袞
褭
褱
襄
襾
西
覀
要
覃
見
規
覓
覧
親
覽
见
角
解
言
訁
訇
計
話
詹
語
誩
諸
讠
话
谷
豆
豈
豊
豐
豕
豖
豙
象
豦
豩
豪
豸
貇
貝
貞
貟
負
貢
貧
貪
貫
責
貳
貴
買
費
賁
資
賈
賏
賓
賔
賛
賞
賢
賣
質
賴
贊
贝
贡
责
贯
贲
贵
资
赖
赞
赤
赦
走
越
足
路
蹇
身
躬
車
軍
軎
軟
輝
輦
车
辛
辜
辟
辥
辰
辱
農
辵
辶
边
达
过
近
连
迷
追
退
送
逆
逐
通
速
造
逢
連
逮
進
遀
遂
過
道
達
遣
適
遷
遺
邊
邑
邕
那
邦
邪
郎
部
郭
都
鄉
酉
酋
配
酓
釆
采
里
重
野
量
金
釒
錢
钅
長
镸
长
門
閃
閉
開
閏
閑
閒
間
閔
閵
閻
闌
门
间
闷
阑
阜
阝
阿
降
陳
隆
隊
隋
隡
隨
隱
隶
隹
隺
隻
隼
隽
难
雀
雁
集
雈
雋
雍
雐
雔
雙
雚
雜
雝
離
難
雨
雩
雪
雲
零
雷
電
需
霍
霜
霝
霞
霸
靈
靑
青
非
靡
面
靣
革
韋
韦
韭
韯
韱
音
頁
頃
項
須
頗
頡
頻
顛
页
風
风
飛
飞
食
飠
養
饣
首
香
馬
馮
駦
马
骨
高
髟
鬥
鬯
鬲
鬼
魚
魯
鮮
鱼
鲁
鳥
鳳
鴛
鴦
鸟
鸯
鸳
鹵
鹿
麃
麗
麥
麦
麻
黃
黄
黍
黎
黑
黒
黨
黹
黽
黾
鼎
鼓
鼠
鼻
齊
齋
齐
齒
齿
龍
龙
龜
龟
龠
龰
龱
龴
龵
龶
龷
龸
龹
者
艹
﻿
（
）
：
？
𑂀
𑂁
𑂃
𑂄
𑂅
𑂆
𑂇
𑂈
𑂉
𑂋
𑂍
𑂎
𑂏
𑂑
𑂒
𑂓
𑂔
𑂕
𑂖
𑂗
𑂘
𑂙
𑂝
𑂞
𑂟
𑂠
𑂡
𑂢
𑂣
𑂥
𑂦
𑂧
𑂨
𑂩
𑂪
𑂬
𑂭
𑂮
𑂯
𑂰
𑂱
𑂲
𑂳
𑂴
𑂵
𑂶
𑂷
𑂸
𑂹
𑂺
𑃀
𑃁
𠀁
𠀃
𠀆
𠀉
𠀎
𠀐
𠁁
𠁣
𠂆
𠂇
𠂈
𠂉
𠂊
𠂋
𠂎
𠂒
𠂔
𠂛
𠂡
𠂢
𠂤
𠂬
𠂭
𠂹
𠃊
𠃋
𠃌
𠃍
𠃎
𠃑
𠃓
𠃔
𠃜
𠄌
𠄎
𠄠
𠄢
𠆢
𠆥
𠇍
𠈌
𠌵
𠓜
𠔉
𠔥
𠔼
𠔽
𠔿
𠕀
𠕁
𠕋
𠘧
𠘨
𠙻
𠙼
𠚏
𠚒
𠚤
𠚪
𠣏
𠤎
𠤕
𠥓
𠦄
𠦑
𠦝
𠧒
𠧗
𠧪
𠩺
𠪚
𠫓
𠫔
𠫤
𠬛
𠬝
𠬞
𠬢
𠬤
𠬶
𠮛
𠮦
𠮷
𠯑
𠱠
𠳮
𠷎
𡈼
𡉀
𡉵
𡌥
𡍮
𡏳
𡕒
𡕩
𡕰
𡖅
𡗗
𡗜
𡘆
𡘤
𡧱
𡨄
𡩧
𡬠
𡭽
𡰣
𡰥
𡰪
𡰯
𡰱
𡷈
𡸁
𡿨
𡿩
𡿪
𡿺
𢀖
𢀛
𢀩
𢁙
𢆉
𢆰
𢆶
𢇁
𢇇
𢉖
𢌬
𢌿
𢏚
𢑑
𢑚
𢖻
𢙣
𢛳
𢦏
𢦒
𢧵
𢼄
𢾕
𣁋
𣄼
𣅀
𣅽
𣍘
𣎳
𣎵
𣏋
𣏼
𣗥
𣥂
𣥖
𣦵
𣦼
𣧄
𣪊
𣪠
𣬉
𣳾
𣶒
𤇾
𤊽
𤐫
𤓰
𤔔
𤕨
𤣩
𤰇
𤰔
𤰞
𤴓
𤴔
𤽄
𥁑
𥁕
𥃦
𥃩
𥃭
𥇡
𥑟
𥘅
𥘈
𥝢
𥫗
𥱡
𦈢
𦉪
𦉬
𦉼
𦍌
𦍒
𦎧
𦐇
𦓔
𦔮
𦘒
𦙃
𦚏
𦣝
𦣞
𦣻
𦥑
𦥔
𦥯
𦨉
𦭝
𦰩
𧆞
𧈧
𧘇
𧰨
𧴪
𧴮
𧵩
𧾷
𨸏
𨾴
𩙿
𩠐
𩫏
𩵋
𪉷
𪜀
𪟽
𪠲
𪩲
𫇦
𫔭
𫜸
𫝀
𫠣
𫠩
𫢉
𫥞
𫩏
𫩠
𫪡
𫲽
𫶧
𬀷
𬐘
𬗌
𬙙
𬛸
𬜯
𬟩
𬯁
𬴘
𬺻
𬼉
𬼖
𭀰
𭁈
𭁨
𭅰
𭑈
𭕄
𭗼
𭤨
𭥫
𭻾
𮅕
𮊿
𮍌
𮍏
𮓗
𮥼
𮧮
廾
𰀁
𰀄
𰀈
𰀉
𰀕
𰀠
𰀡
𰀢
𰀪
𰁜
𰃮
𰆊
𰆘
𰋙
𰕎
𰢴
𰧭
𰯲
00--
000--
01--
02--
03--
04--
05--
06--
07--
08--
09--
111--
118--
121--
126--
137--
143--
145--
169--
22695--
227--
40--
44--
51--
52--
55--
56--
60--
70--
71--
72--
74--
75--
76--
77--
78--
79--
80--
81--
81208--
82--
84--
85--
86--
87--
89--
95--
a--
aa--
ab--
ac--
accep--
acqu--
acu--
ad--
ado--
ae--
af--
affi--
ag--
aggre--
air--
al--
allo--
alte--
am--
an--
ana--
ans--
anthropo--
anti--
anu--
any--
ap--
app--
appe--
aqua--
aquati--
ar--
arc--
as--
ash--
at--
atta--
attr--
au--
ava--
avi--
ax--
az--
b--
ba--
bah--
bal--
bar--
be--
bel--
ben--
bh--
bha--
bi--
bib--
biblio--
bin--
bio--
bis--
blan--
blu--
bo--
bon--
bor--
bos--
boy--
br--
bra--
brac--
bro--
broc--
bu--
buff--
c--
ca--
cap--
capab--
ce--
cen--
ch--
cha--
cham--
char--
chat--
che--
chit--
cim--
circu--
cit--
citeref--
cla--
cle--
co--
col--
colo--
com--
con--
concent--
conclu--
confu--
conser--
const--
cont--
contr--
contri--
conve--
coo--
cor--
corres--
cot--
cr--
cru--
cu--
cyclo--
d--
da--
dan--
dar--
data--
day--
de--
defe--
defi--
dem--
demog--
depen--
deu--
deutsch--
dev--
dh--
dha--
di--
diff--
diss--
dit--
do--
dol--
dr--
dra--
dro--
ds--
du--
duck--
e--
eag--
eas--
ed--
eff--
ek--
el--
ele--
emb--
eme--
emi--
emp--
en--
enc--
er--
ero--
es--
essel--
et--
eti--
eu--
ex--
exam--
exhi--
exp--
expe--
f--
fav--
fe--
feat--
fen--
fi--
fix--
fl--
flo--
flu--
fol--
foot--
for--
fr--
frequ--
fu--
g--
ga--
gal--
gali--
gar--
gau--
ge--
geo--
gha--
ghazi--
gi--
gil--
gl--
go--
gott--
gra--
grass--
green--
gri--
gu--
gur--
gymne--
h--
ha--
har--
has--
hay--
he--
helle--
hen--
her--
hi--
hin--
ho--
hodg--
home--
hoo--
hor--
hu--
hum--
hy--
hydro--
i--
id--
ident--
ig--
il--
illust--
im--
immor--
immu--
imp--
in--
influ--
inha--
ins--
inscri--
inter--
inva--
inve--
io--
ir--
is--
iso--
it--
iv--
j--
ja--
jag--
jagan--
jas--
je--
ji--
jm--
jo--
ju--
jud--
judi--
k--
ka--
kal--
kan--
kar--
ke--
kel--
kha--
khal--
kho--
ki--
kind--
kla--
kle--
ko--
kol--
kon--
kr--
ku--
kul--
kun--
kut--
l--
la--
land--
lau--
le--
leg--
leuco--
lexi--
li--
life--
lingu--
lit--
lo--
lu--
ly--
m--
ma--
mag--
mal--
mala--
man--
manu--
map--
mar--
mat--
mau--
mc--
me--
mech--
medi--
mega--
mel--
mess--
met--
mi--
micro--
mil--
mo--
moha--
mon--
mor--
mos--
mr--
mu--
multi--
my--
myst--
n--
na--
ne--
neighb--
neu--
new--
news--
ni--
nig--
no--
not--
nuc--
nup--
ny--
o--
ob--
obser--
obta--
od--
om--
on--
opport--
or--
orio--
os--
ot--
out--
oxid--
p--
pa--
par--
pat--
pay--
pe--
perce--
periph--
ph--
phy--
pi--
pie--
pir--
pla--
plat--
ple--
plu--
po--
popu--
pos--
pr--
pra--
pray--
pre--
pro--
pu--
pur--
purp--
puru--
q--
qu--
qua--
r--
ra--
rad--
rah--
rai--
raj--
rak--
ram--
rama--
ran--
rap--
ras--
re--
rece--
recom--
ref--
regu--
rein--
reli--
ri--
rid--
ridd--
ro--
rob--
rol--
ros--
ru--
s--
sa--
sal--
san--
sat--
satu--
sc--
sch--
scin--
sco--
se--
seg--
sel--
semi--
sen--
ser--
sh--
shu--
si--
sidd--
sie--
ska--
skate--
so--
soc--
sp--
speci--
spir--
ss--
st--
ste--
stra--
stu--
su--
sub--
sud--
sul--
super--
sur--
sut--
swa--
swim--
swit--
sy--
t--
ta--
tan--
te--
teac--
temp--
ter--
terr--
terror--
th--
the--
ti--
tid--
tit--
to--
tr--
trans--
tre--
tri--
triu--
tro--
tru--
turt--
ty--
u--
ul--
un--
under--
uni--
up--
upanis--
urg--
us--
v--
va--
val--
valu--
ve--
ven--
verg--
vi--
vic--
vio--
vo--
vol--
w--
wa--
wal--
wan--
way--
we--
web--
west--
whe--
whit--
wi--
wie--
wiki--
wo--
won--
x--
xx--
y--
ya--
yu--
z--
za--
ze--
zim--
zu--
ɪ--
н--
п--
ا--
अ--
अज--
अन--
अर--
अल--
आ--
आइ--
आई--
आर--
इ--
ई--
उ--
उद--
उप--
उभ--
ऊ--
ऍ--
ए--
एड--
एन--
एम--
एल--
ऐ--
ऑ--
ओ--
औ--
क--
कन--
कर--
ख--
ग--
गव--
घ--
ङ--
च--
चउद--
छ--
जन--
जय--
जल--
झ--
ञ--
ट--
ठ--
ड--
ण--
त--
थ--
द--
दर--
ध--
धन--
न--
नई--
प--
पन--
पल--
फ--
ब--
भ--
म--
य--
यम--
यर--
र--
ल--
व--
श--
ष--
स--
सत--
सर--
ह--
हर--
ऽ--
१--
१९--
२--
२०--
३--
७--
ন--
อ--
เ--
--0
--00
--04
--1
--11
--13
--2
--20
--23
--25
--27
--3
--33
--34
--39
--4
--43
--44
--5
--50
--55
--56
--59
--6
--67
--7
--77
--78
--8
--9
--a
--able
--ad
--ade
--ae
--age
--aging
--ai
--ain
--ak
--al
--ally
--am
--ama
--an
--ance
--ang
--ani
--ans
--ant
--ants
--ar
--ard
--arum
--ary
--as
--asa
--at
--ata
--ate
--ated
--ates
--ath
--atic
--ation
--ations
--ative
--au
--ay
--b
--ba
--bd
--bi
--ble
--bo
--bs
--bul
--burg
--burgh
--by
--c
--ca
--cal
--ce
--ces
--ch
--cher
--chi
--cies
--cing
--cit
--ck
--cky
--ct
--cted
--ction
--cts
--cy
--d
--da
--das
--day
--de
--ded
--dh
--dhu
--di
--dia
--ding
--dix
--do
--dra
--ds
--dy
--e
--eal
--ed
--edi
--eep
--ees
--eg
--ei
--ek
--el
--ell
--em
--emia
--en
--ence
--enic
--ensis
--ent
--ep
--er
--ere
--ern
--ers
--ert
--ery
--es
--ese
--est
--et
--ete
--ett
--ev
--ew
--ex
--ey
--ez
--f
--fa
--fied
--ful
--fy
--g
--ga
--garh
--ge
--geet
--ger
--gers
--gh
--gical
--gir
--gma
--gn
--go
--gs
--gy
--h
--ha
--ham
--han
--har
--hen
--hera
--hi
--hing
--hip
--ho
--hood
--ht
--hu
--i
--ia
--ian
--ible
--ic
--ica
--ical
--ick
--ics
--ict
--id
--ie
--ied
--ier
--iers
--ies
--ification
--ight
--ii
--ik
--ikh
--il
--ile
--ility
--im
--ima
--imum
--in
--ina
--india
--ine
--ing
--ings
--inism
--io
--ion
--ions
--ior
--ious
--ique
--ir
--ire
--is
--ise
--ises
--ish
--ism
--ist
--it
--ite
--ith
--ities
--ito
--ity
--ium
--ius
--ive
--ix
--iya
--ization
--ized
--j
--ji
--k
--ka
--kar
--kard
--ke
--ked
--ker
--kh
--ki
--ko
--ks
--l
--la
--lai
--lal
--land
--lar
--ld
--le
--ler
--ley
--lf
--li
--lia
--line
--ling
--list
--ll
--lla
--lle
--llis
--lly
--lm
--logists
--logy
--lot
--ls
--lt
--lu
--lus
--ly
--m
--ma
--man
--me
--ment
--mi
--mo
--ms
--mus
--n
--na
--nar
--nce
--nd
--ne
--ned
--ner
--nes
--ness
--ng
--ni
--nia
--nie
--nk
--nks
--nn
--nne
--no
--ns
--nt
--nta
--nts
--nu
--ny
--o
--ock
--od
--oe
--oi
--ol
--ola
--oll
--ology
--on
--ons
--oo
--ook
--op
--ops
--or
--ora
--ories
--os
--osa
--ose
--oso
--ot
--ott
--ough
--ous
--ow
--p
--pa
--ped
--pf
--ph
--phy
--piration
--po
--pot
--ps
--pt
--pur
--q
--que
--r
--ra
--rage
--ram
--raphy
--rax
--rd
--re
--red
--ree
--ress
--ri
--ria
--ridge
--rie
--ring
--ris
--rk
--rl
--rm
--rn
--ro
--ron
--ros
--rp
--rry
--rs
--rt
--rti
--ry
--s
--sal
--se
--sed
--ses
--sh
--shi
--si
--sian
--sion
--sk
--sm
--son
--ss
--st
--star
--stry
--t
--ta
--tar
--tary
--tation
--te
--ted
--teenth
--ter
--tes
--th
--tha
--ti
--tial
--tic
--tical
--tics
--ties
--ting
--tion
--tions
--tive
--tives
--tl
--tle
--to
--ton
--tor
--tory
--tos
--tra
--ts
--tt
--ty
--tz
--u
--ual
--ub
--ud
--ue
--ugh
--ula
--um
--une
--up
--ur
--ure
--urs
--us
--ut
--ux
--v
--va
--val
--vat
--ve
--vi
--w
--wa
--wich
--wise
--wood
--world
--x
--xa
--y
--ya
--yake
--yan
--ying
--ym
--yms
--ys
--z
--zing
--zon
--и
--т
--я
--د
--आ
--इल
--ई
--ए
--ओ
--क
--ख
--ग
--गढ
--घ
--च
--ज
--ञ
--ट
--ठ
--ड
--ढ
--ण
--त
--थ
--द
--ध
--न
--प
--पर
--फ
--ब
--भ
--म
--य
--र
--ल
--व
--वल
--श
--स
--ह
--ऽ
--ऽत
--ऽन
--०
--२
--३
--४
--६
--८
--९
