!
"
#
##0
##1
##10
##11
##12
##13
##14
##15
##16
##17
##18
##19
##2
##20
##21
##22
##23
##24
##25
##26
##27
##28
##29
##3
##30
##31
##32
##33
##34
##35
##36
##37
##38
##39
##4
##40
##41
##42
##43
##44
##45
##46
##47
##48
##49
##5
##50
##51
##52
##53
##54
##55
##56
##57
##58
##59
##6
##60
##61
##62
##63
##64
##65
##66
##67
##68
##69
##7
##70
##71
##72
##73
##74
##75
##76
##77
##78
##79
##8
##80
##81
##82
##83
##84
##85
##86
##87
##88
##89
##9
##90
##91
##92
##93
##94
##95
##96
##97
##98
##99
%
&
'
(
)
*
+
,
-
.
/
0
00
0028
01
012
02
03
04
05
1
10
100
1000
1004
11
114
12
13
14
15
16
168
17
18
1879
19
1980
1991
1997
1998
1999
2
20
2005
2006
2007
2009
2010
2011
2013
2014
20150228
2018
2019
21
22
221
224
23
231
24
25
26
27
28
29
3
30
31
32
33
34
35
36
360
37
370
38
39
4
40
41
43
4434
45
450
46
468
47
49
5
50
510
53
54
55
56
57
59
6
60
62
63
64
65
69
7
72
74
8
80
81
8394
84
85
894
9
90
91
93
96
962
962231578
97
978
98
988
99
992
99941
:
;
<
=
>
?
[
\
]
_
`
a
aa
aai
aan
aau
ab
abandon
abandoned
abide
about
ac
action
ad
adarjut
add
adj
adv
aen
aeu
after
agan
ago
agu
agula
ahn
ai
aih
air
ais
aj
ak
al
all
alle
allez
alto
always
am
ama
american
an
and
ang
anh
ans
anti
anunneri
ap
apple
ar
are
armenian
arrive
as
at
attempt
attribute
au
aussi
avez
avoir
away
ay
b
ba
baa
baahk
baai
baak
baan
baang
baat
baau
bad
baenz
bag
bai
bak
bal
ball
ban
bang
bar
barsełyan
bat
bau
bayin
bb
be
beau
because
bed
bedrossian
been
before
bei
being
bek
bel
belle
beng
bi
bid
bie
bien
big
bin
bing
bit
biu
bo
bog
bok
bong
book
bou
boy
bring
bu
bui
buk
bulan
bun
but
by
bɑ
bɔ
bə
c
ca
caa
caai
caak
caam
caan
caang
caau
cag
cai
cam
can
canada
cang
canto
cantodict
canton
cantonese
cantonia
cao
cap
card
cat
cau
cb
cc
ce
ceng
centenarian
ceoi
ceon
ceot
cgi
ch
cha
chaak
char
character
chat
che
chho
chi
china
chinese
cho
chu
ci
cik
cim
cin
cing
ciu
class
cnt
co
coach
code
coeng
coi
com
come
comment
compass
complain
complex
con
cong
cou
cu
cuk
cung
cuo
cut
cyun
d
da
daa
daai
daaih
daam
daan
daap
dab
dad
dai
daibuun
dak
dam
dan
dang
dans
dap
das
dat
dau
dauh
de
deb
deg
dei
dek
del
den
deng
deo
deoi
der
des
di
dia
dict
dictionary
die
dik
dim
din
ding
dip
dit
diu
do
doek
dog
doi
doing
dok
don
dong
dor
dou
douh
down
dra
du
dui
duk
dung
dyun
dyut
dza
dzaa
dzai
dzam
dzan
dzau
dze
dzek
dzeng
dzi
dzim
dzin
dzing
dzit
dziu
dzo
dzoey
dzok
dzong
dzou
dzu
dzuk
dzung
dzy
dzœ
dzœk
dzœng
dœ
dɔ
e
each
eat
eb
ec
edu
ei
ein
el
elle
em
en
ene
english
eo
er
error
es
esse
est
este
et
ex
example
exist
f
fa
faa
faahn
faai
faan
faat
fai
fan
fat
fb
fe
fed
fei
fen
fi
field
fing
fire
flower
fo
fok
fong
for
fre
from
fu
fuck
fuh
fuk
fun
fung
fut
fɐn
fɐt
fɔ
g
ga
gaa
gaai
gaan
gaang
gaap
gaau
gai
gak
gam
gan
gang
gao
gap
gat
gau
ge
gei
gem
gen
geng
geo
geoi
ger
get
geuk
gh
gi
gia
giles
gim
gin
ging
gio
giu
go
goe
goek
goi
gok
gon
gong
good
got
gou
gsr
gu
gua
guan
guangdong
guangzhou
guei
guk
gun
gung
guo
guok
guong
gwa
gwaa
gwaai
gwaan
gwaang
gwai
gwan
gwang
gwat
gwe
gwn
gwo
gwok
gwong
gwoyeu
gyun
gœ
gœk
h
ha
haa
haai
haak
haam
haan
haang
haau
habe
had
haguc
hai
hak
hakka
ham
han
hand
hang
hap
hard
has
hat
hau
have
hay
hayeren
he
hea
head
heg
hei
hek
hen
heo
heoi
her
here
heu
heures
hi
hier
him
hin
hing
his
hit
hiɪŋ
hk
hm
hn
hng
ho
hoa
hoeng
hoi
hoj
hok
hokkien
home
homo
hon
hong
hou
house
hovhannes
how
html
http
https
hu
hua
hugo
hui
hung
hwa
hœ
hœng
hɐi
hɐk
hɐu
hɔ
hʊŋ
i
ich
if
ih
ii
ik
il
ils
im
in
index
initial
ion
ipa
is
isbn
issn
ist
it
j
ja
jaa
jai
jam
jan
jap
jat
jau
je
jeng
ji
jia
jih
jik
jim
jin
jing
jip
jit
jiu
jo
job
joek
joeng
ju
juk
jung
just
jy
jyn
jyu
jyuh
jyun
jyut
jyutping
jœ
jɐm
jɐn
jɐp
jɐt
jɐu
jɑ
jəŋ
jɛ
jʊŋ
k
ka
kai
kak
kaku
kam
kan
kang
kanton
kap
kau
ke
kei
kem
ken
keoi
kha
kho
ki
kia
kim
kin
kina
kind
king
kiu
ko
koi
kok
koku
kom
kon
kong
ku
kua
kuk
kuu
kwa
kwai
kwan
kwi
kwong
ky
kyo
kœ
kɐi
kɐm
kɐn
kɐu
kɑ
kɔ
kə
kən
kɛ
kɪŋ
kɯ
kʊŋ
l
la
laa
laai
laam
laan
laang
laap
laau
lai
lak
lam
lan
lang
lap
lat
lau
le
learn
lei
lek
leng
leo
leoi
leon
les
let
letter
leu
li
lie
life
lik
like
lin
line
ling
lip
lit
liu
livre
livres
lo
loe
loek
loeng
log
lohk
lok
long
look
lou
love
lu
lua
lug
luk
luna
lung
ly
lyn
lyu
lyun
lyut
lœ
lœk
lœng
lɐi
lɔ
lɛ
lʊk
lʊŋ
m
ma
maa
maai
maan
maang
maau
machen
magazine
mai
mais
mak
mal
man
mang
many
mao
mark
masin
mat
mathias
matter
mau
me
med
meh
mei
mein
men
meng
meo
mes
mi
mia
mie
mihn
min
ming
minus
minute
miu
mo
moe
moi
mok
mon
mong
more
mou
mu
mui
muk
mun
mung
must
my
mɐn
mɐt
mɐu
mɐŋ
mɑ
mɔ
mə
mɛ
mɯ
mʊŋ
n
na
naa
naam
naau
nai
naj
nam
nan
nap
narin
nau
nay
ne
need
nei
nem
nen
neoi
ner
neriən
never
new
news
next
neəriən
ng
nga
ngaa
ngaam
ngaan
ngaang
ngaap
ngaau
ngai
ngam
ngan
ngang
ngap
ngat
ngau
ngeb
ngeo
nghe
nghi
ngid
ngit
ngo
ngoi
ngon
ngu
nh
nha
nhie
nhk
nho
nhu
ni
nicht
nige
nil
nimgen
nin
ning
niu
no
noi
non
not
note
nothing
nou
nous
now
ns
nu
number
nung
nvs
ny
næ
nɐm
nɑ
nɔ
nɪ
o
of
often
oi
ok
on
one
ont
or
ore
oroi
oros
ot
other
ou
out
p
pa
paa
paai
paau
pai
pan
papa
paper
parle
parti
pas
pau
pays
pe
pei
pek
pen
people
per
pfs
pha
phah
pho
phofsit
pi
pin
ping
pinyin
pit
piu
please
plus
po
pok
pos
pou
pour
premier
printer
pro
pu
pui
puk
pung
pɐŋ
pɑ
pɔ
pə
pɛ
q
qi
qing
qu
qua
quanzhou
que
qui
quo
quote
qvi
r
ra
raeuz
raw
rbt
rd
re
really
reason
rgen
ri
ro
romatzyh
rox
rp
ru
rɪ
s
sa
saa
saai
saam
saan
saang
saap
saat
sahp
sai
sak
sam
san
sang
sap
sar
sat
sau
sayin
sb
school
se
seb
second
sed
see
seg
sei
sein
sek
sem
sen
seng
seo
seoi
seon
seot
sha
she
shi
sho
shu
si
sihk
sik
sin
sing
sip
sir
sit
siu
six
sjo
sju
slide
small
so
soeng
soey
soi
some
son
song
sonin
sono
sont
sou
species
st
sta
standard
sth
stone
su
sug
suk
sum
sung
super
sy
syu
syun
syut
sæ
sœ
sœng
sœur
sɐi
sɐk
sɐm
sɐn
sɐp
sɐt
sɐu
sɔ
sə
səb
sɛ
sɨ
sɪk
sɪŋ
sɵy
sʊk
sʊŋ
t
ta
taai
taam
taan
tai
taicheng
taishan
taishanese
tam
tan
tang
tar
tat
tau
te
tei
tek
template
ten
teng
teo
teoi
ter
tes
tha
than
that
the
their
them
there
these
they
thi
this
tho
three
thu
thuo
ti
tia
tie
tim
time
times
tin
ting
tip
tiu
to
toa
toi
toj
tok
ton
tong
tongyong
tou
tra
translation
tre
tres
tri
tro
trong
tru
trung
tsa
tsaai
tsaak
tsaau
tsai
tsak
tsam
tsan
tsang
tsat
tsau
tse
tseng
tsi
tsin
tsing
tsiu
tso
tsong
tsou
tsu
tsœ
tsœng
tu
tung
tw
two
ty
tɐi
tɐk
tɐu
tɑ
tɔ
tə
tɛ
tɛst
tɪŋ
tʂuŋ
tʃɑ
u
ua
udagan
ug
ugum
uh
uhng
ui
uih
uj
uk
um
un
una
une
ung
unicode
unihan
uno
up
us
ut
uu
v
va
vado
vais
value
variants
ve
venus
very
vi
vie
vingt
vo
vola
volant
volo
vous
vt
vu
w
wa
waa
waak
waan
waat
wade
wah
wai
wan
want
was
wat
water
we
wei
were
what
when
why
wi
wikipedia
wiktionary
will
wir
with
wo
wong
word
would
wu
wui
wun
wut
www
wɐi
wɔ
x
xa
xarhagrakan
xatagu
xe
xen
xi
xia
xiamen
xie
xig
xin
xing
xiu
xo
xu
xue
xun
y
ya
yan
ye
years
yeb
yed
yem
yen
yeo
yi
yih
yim
yin
yiu
yo
yoi
you
your
yu
yue
yun
yung
yœk
yœng
z
za
zaa
zaak
zaau
zai
zam
zan
zang
zap
zat
zau
ze
zei
zek
zen
zeng
zeo
zeoi
zeon
zh
zha
zhe
zhi
zhu
zhuyin
zi
zik
zim
zin
zing
zit
ziu
zo
zoek
zoeng
zoi
zok
zong
zou
zu
zug
zuk
zung
zyu
zyun
{
|
}
~
¡
«
°
²
²²
²¹
²¹⁴
²⁴
³
³³
³¹
³⁵
´
·
¹
¹³
¹¹
¹⁵
»
¿
×
æ
ðað
đa
đe
đi
đo
đu
ŋ
ŋa
ŋɐp
ŋɐu
ŋɑ
ŋɒ
ŋɔ
œ
ɐ
ɐi
ɐm
ɐn
ɐp
ɐt
ɐu
ɐŋ
ɑ
ɑn
ɒ
ɓ
ɓa
ɔ
ɕ
ɕi
ɕiɪŋ
ɕu
ɕuŋ
ɗ
ɗa
ɗo
ɗəj
ə
ən
əwŋ
ɛ
ɜ
ɟ
ɡ
ɡən
ɢɑ
ɤ
ɪ
ɪn
ɪŋ
ɮ
ɯ
ɰ
ɲ
ɲit
ɲək
ɲɨ
ɳ
ɴ
ɵy
ɹ
ɾ
ɾa
ɾe
ɾɯ
ʂ
ʃ
ʃe
ʃi
ʃy
ʃœ
ʃɵy
ʈ
ʊ
ʊk
ʊŋ
ʎ
ʑ
ʒ
ʔ
ʰ
ʲ
ʷ
ʷʰ
ʿ
ˀ
ˇ
ˈ
ˊ
ˋ
ˌ
ː
ːˈ
ˑ
˘
˙
˞
ˠ
˥
˦
˧
˨
˩
̀
́
̂
̃
̄
̆
̇
̈
̉
̊
̌
̍
̓
̙
̚
̛
̞
̟
̠
̣
̤
̥
̧
̨
̩
̪
̯
̰
̱
̻
̽
͂
͡
α
β
ε
θ
ς
χ
аи
в
д
е
и
кантон
м
н
р
у
ч
ъ
ь
я
՝
է
ս
։
ֶ
ָ
ׁ
ש
ا
ب
ة
ج
د
ر
س
ع
ف
م
ن
ه
و
ي
َ
ُ
ِ
ّ
ْ
ٔ
ٕ
ं
ग
च
ज
ण
त
न
प
म
य
र
व
स
ा
ि
ी
ू
्
প
ব
ম
র
স
া
ি
ু
ূ
্
க
ி
்
ം
ക
ി
്
ก
กระผม
ค
ฉ
ช
ณ
ด
ท
ธ
น
บ
ป
ผม
ม
ย
ร
ว
ศ
ษ
ห
หน
อ
ะ
ั
า
าน
ิ
ี
ึ
ื
ุ
ู
เ
เขาเป
เธอ
เป
เรา
แ
ใ
ใช
ไ
็
่
้
์
ນ
ີ
་
།
ག
པ
བ
ཟ
ར
ཤ
ི
ོ
ྱ
ླ
တ
ာ
ေ
း
်
ွ
ှ
은
이
하다
ក
ន
ម
ួ
᠂
᠃
᠎
ᠠ
ᠠᠭᠤᠯᠠ
ᠡ
ᠡᠴᠡ
ᠢ
ᠣᠷᠣᠢ
ᠤ
ᠤᠨ
ᠤᠳᠠᠭᠠᠨ
ᠦ
ᠦᠨ
ᠦᠬᠢ
ᠦᠭᠢ
ᠨᠠᠷᠢᠨ
ᠨᠢ
ᠨᠢᠭᠡ
ᠨᠢᠮᠭᠡᠨ
ᠪᠠᠶᠢᠨ
ᠪᠠᠷ
ᠪᠤᠢ
ᠬᠠᠭᠤᠴᠢᠨ
ᠬᠠᠲᠠᠭᠤ
ᠬᠥᠮᠦᠨ
ᠰᠠᠶᠢᠨ
ᠱᠤᠭᠤᠮ
ᠲᠠ
ᠴᠠᠢ
ᠵᠠᠭᠤ
ᠵᠤᠵᠠᠭᠠᠨ
ᠵᠦᠭᠡᠷ
ᠶᠠᠭᠤᠮ
ᠶᠢ
ᠶᠢᠨ
ᴀ
ᴬ
ᵝ
ᶜ
​
‌
‍
‎
–
—
―
’
“
”
•
…
‧
※
‿
⁴
⁴⁴
⁵
⁵³
⁵¹
⁵⁵
⁶
⁻
ⁿ
₂
₃
ⅱ
→
↔
↗
↘
↷
∅
∙
≤
⋯
③
④
⑦
─
▢
▼
○
☉
☽
☾
♀
♁
♂
♅
♆
♇
⛢
⯉
⯓
⯕
⯰
⯱
⺀
⺄
⺆
⺈
⺊
⺌
⺕
⺝
⺸
⺼
⽁
⿅
⿰
⿱
⿲
⿳
⿴
⿵
⿶
⿷
⿸
⿹
⿺
⿻
、
。
々
〈
〉
《
》
「
」
『
』
【
】
〢
あ
い
う
え
お
か
き
く
け
こ
さ
し
す
せ
そ
た
ち
っ
つ
て
と
な
に
ぬ
ね
の
は
ひ
ふ
へ
ほ
ま
み
む
め
も
ゃ
や
ゅ
ゆ
ょ
よ
ら
り
る
れ
ろ
わ
を
ん
゙
゚
ァ
ア
ィ
イ
ウ
ェ
エ
ォ
カ
キ
ク
ケ
コ
サ
シ
ス
セ
ソ
タ
チ
ッ
テ
ト
ナ
ニ
ネ
ノ
ハ
ヒ
フ
ヘ
ホ
マ
ミ
ム
メ
モ
ャ
ュ
ユ
ョ
ラ
リ
ル
レ
ロ
ン
・
ー
ㄅ
ㄇ
ㄈ
ㄉ
ㄊ
ㄋ
ㄌ
ㄍ
ㄎ
ㄏ
ㄐ
ㄑ
ㄒ
ㄓ
ㄔ
ㄕ
ㄖ
ㄗ
ㄘ
ㄙ
ㄚ
ㄛ
ㄜ
ㄝ
ㄞ
ㄟ
ㄠ
ㄡ
ㄢ
ㄣ
ㄤ
ㄥ
ㄦ
ㄧ
ㄨ
ㄩ
ㄹ
㇁
㇂
㇄
㇇
㇈
㇉
㇓
㐁
㐄
㐅
㐌
㐫
㐬
㐭
㐮
㐱
㑒
㒵
㒸
㒼
㓁
㓞
㓢
㓤
㔷
㔹
㔾
㕛
㕣
㖞
㖡
㖾
㗂
㗎
㘝
㚅
㚇
㚔
㚘
㚻
㛪
㝉
㝡
㝴
㝵
㞋
㞗
㞘
㞢
㞷
㠩
㠭
㠯
㡀
㡭
㡿
㢲
㢴
㣇
㣺
㤿
㥜
㥯
㧀
㧻
㧾
㨃
㨴
㩧
㩿
㪅
㪐
㪪
㫄
㫐
㫒
㫺
㬅
㬎
㬥
㬰
㲋
㲺
㳄
㴜
㷠
㷫
㸒
㸚
㸦
㹃
㺒
㼌
㼲
㽞
㿟
㿭
㿺
䀂
䀃
䀠
䁓
䂞
䂻
䃕
䊆
䍃
䎺
䏍
䐁
䒑
䕢
䖍
䖒
䖝
䖵
䘒
䙴
䚗
䚻
䜌
䝿
䟴
䡛
䧹
䪏
䪞
䭔
䯊
䰧
一
丁
丂
七
丄
丅
丆
万
丈
三
上
下
丌
不
与
丏
丐
丑
专
且
丕
世
丘
丙
业
东
丝
丞
丟
丢
丣
两
严
並
丨
丩
个
丫
丬
中
丮
丰
丱
串
临
丵
丶
丷
丸
丹
为
主
丼
丽
举
丿
乀
乂
乃
久
乆
乇
么
义
之
乌
乍
乎
乏
乐
乑
乓
乔
乖
乗
乘
乙
乚
乛
乜
九
乞
也
习
乡
书
买
乳
乸
乾
亀
亂
亅
了
亇
予
争
事
二
亍
于
亏
亐
云
互
亓
五
井
亘
亙
亚
些
亜
亞
亟
亠
亡
亢
交
亥
亦
产
亨
亩
享
京
亭
亮
亯
亰
亲
亳
亶
亷
人
亻
亼
亾
什
仁
仆
仇
仉
今
介
仌
仍
从
仐
仑
仒
仓
仔
仕
他
仗
付
仙
仝
代
令
以
仰
仲
仵
件
价
任
份
仿
企
伊
伍
伎
伏
伐
休
众
伙
会
传
伮
伯
估
伴
伸
似
但
佈
位
低
住
佐
体
佔
何
佗
佘
余
佚
佛
作
你
佢
佣
佥
佩
佬
佰
佲
佳
併
使
侄
侅
來
侈
例
侌
侍
侑
侖
供
依
侧
侮
侯
侲
侵
侶
便
係
促
俄
俊
俌
俎
俗
俚
保
俞
俟
俠
信
修
俯
俱
俹
俺
俾
倉
個
倍
們
倒
候
倚
倞
借
倠
倦
倫
值
假
偈
偉
偏
做
停
健
偨
側
偵
偶
偷
傅
傑
傘
備
傢
傣
催
傲
傳
債
傷
傻
傾
僂
僆
僉
像
僕
僖
僚
僧
僱
僵
價
僻
儀
儂
億
儆
儉
儒
儘
償
優
儲
儿
兀
允
兂
元
兄
充
兆
兇
先
光
兊
克
兌
免
兑
兒
兓
兔
兕
党
兜
兟
入
內
全
兩
兪
八
公
六
兮
兰
共
关
兵
其
具
典
兹
兼
冀
冂
冃
冄
内
冇
冈
冉
冊
冋
册
再
冎
冏
冐
冒
冓
冖
冗
冘
写
冚
军
农
冝
冠
冡
冤
冥
冧
冫
冬
冰
冲
冶
冷
冻
冼
准
凈
凉
凌
凍
减
凝
几
凡
凢
処
凱
凳
凴
凵
凶
凷
凸
凹
出
函
凾
刀
刁
刂
刃
刄
刅
分
切
刊
刋
刍
刑
刕
刖
列
刘
则
初
判
別
利
别
刮
到
制
刷
刺
刻
剃
則
削
剌
前
剎
剔
剛
剝
剡
剢
剩
剪
剫
副
割
創
剷
剽
劃
劇
劈
劉
劍
劏
劑
力
功
加
务
劣
劦
动
助
努
劫
劳
劵
劸
势
勁
勃
勇
勉
勒
動
務
勝
勞
勢
勤
勵
勸
勹
勺
勻
勼
勾
勿
匀
匂
包
匆
匈
匊
匋
匍
匕
化
北
匙
匚
匝
匠
匡
匪
匯
匱
匸
匹
区
医
匽
匿
區
十
卂
千
卄
卅
卆
升
午
卉
半
卌
华
卑
卒
卓
協
单
卖
南
卙
博
卜
卝
卞
占
卡
卢
卣
卤
卦
卩
卪
卫
卬
卯
印
危
即
却
卵
卷
卸
卻
卽
卿
厂
厃
厄
历
厈
厉
厌
厓
厕
厘
厚
原
厤
厥
厨
厭
厲
厶
厷
厸
去
厼
厽
叀
叁
参
參
叅
又
叉
及
友
双
反
叐
发
叒
叔
叕
取
受
变
叚
叛
叜
叟
叠
口
古
句
另
叨
叩
只
叫
召
叭
叮
可
台
叱
史
右
叵
叶
号
司
叹
叻
叼
吂
吃
各
吅
合
吉
吊
吋
同
名
后
吏
吐
向
吓
吕
吖
吗
君
吝
吞
吟
吠
否
吧
含
听
启
吳
吴
吵
吶
吸
吹
吽
吾
呀
呂
呃
呆
呈
告
呎
呑
呔
员
呙
呢
周
味
呵
呼
命
咁
咄
咅
咋
和
咍
咎
咒
咓
咕
咖
咗
咠
咢
咦
咨
咩
咪
咬
咭
咯
咱
咳
咸
咼
哀
品
哂
哇
哈
哉
哋
响
哎
員
哣
哥
哦
哩
哲
哴
哺
哿
唆
唇
唉
唐
唔
唞
唥
唧
唪
售
唯
唱
唵
唾
啄
商
啇
啊
啋
問
啖
啚
啞
啟
啡
啤
啥
啦
啩
啪
啫
啬
啰
啱
啲
啵
啻
啽
喀
喂
喃
善
喇
喉
喊
喎
喐
喚
喜
喝
喪
喫
喬
單
喱
喺
喻
喿
嗄
嗇
嗌
嗍
嗎
嗒
嗟
嗣
嗤
嗦
嗮
嗯
嗰
嗱
嗲
嘅
嘆
嘈
嘉
嘍
嘔
嘗
嘛
嘜
嘞
嘟
嘢
嘥
嘩
嘰
嘲
嘴
噃
噆
噉
噍
噎
噏
噓
器
噩
噪
噫
噬
噴
噹
嚇
嚕
嚟
嚤
嚥
嚨
嚫
嚮
嚴
嚼
嚿
囂
囈
囉
囊
囖
囗
囘
囙
囚
四
回
囟
因
囡
囧
囬
困
囱
囷
固
国
圂
圃
圅
圆
圈
國
圍
園
圓
圖
團
土
圡
圣
圥
在
圭
地
圶
场
圻
圼
圾
址
均
坊
坐
坑
坒
坚
坡
坤
坦
坴
坺
垂
垃
型
垔
垚
垢
垣
埀
埃
埋
城
埔
埞
域
埭
埶
執
培
基
堂
堅
堆
堇
堕
堡
堤
堯
報
場
塊
塌
塑
塔
塗
塘
塞
塢
填
塵
境
墊
墓
墙
墜
增
墟
墨
墩
墮
墳
墻
壁
壇
壓
壘
壞
壩
士
壬
壯
声
壳
壴
壹
壺
壽
夂
处
夅
夆
备
夊
夋
夌
复
夏
夒
夕
外
夗
夘
多
夜
够
夠
夢
夥
大
夨
天
太
夫
夬
夭
央
失
夲
头
夷
夸
夹
夻
夾
奀
奂
奄
奅
奇
奈
奉
奎
奏
奐
契
奓
奔
套
奚
奞
奠
奢
奥
奧
奪
奭
奮
奲
女
奴
奶
奸
她
奻
好
如
妄
妈
妒
妓
妖
妗
妙
妝
妟
妥
妳
妸
妹
妻
妾
姆
姉
姊
始
姐
姑
姓
委
姖
姜
姣
姦
姨
姬
姻
姿
威
娃
娄
娘
娛
娜
娥
娶
娿
婁
婆
婉
婚
婢
婦
婴
婿
媄
媒
媽
媾
嫁
嫂
嫌
嫩
嫪
嫲
嬉
嬌
嬰
嬲
嬴
子
孑
孔
孕
孖
字
存
孚
孛
孝
孟
季
孤
学
孩
孫
孭
孱
孲
學
孻
宀
宁
宂
它
宄
宅
宇
守
安
宋
完
宏
宓
宗
官
宙
定
宛
宜
宝
实
客
宣
室
宦
宨
宮
宰
害
宴
宵
家
容
宾
宿
寄
寅
密
富
寒
寓
寝
察
寢
寣
寥
實
寧
寨
審
寫
寬
寮
寵
寶
寸
对
寺
寻
寽
対
寿
封
尃
射
将
將
專
尉
尊
尋
尌
對
導
小
尐
少
尒
尓
尔
尖
尗
尚
尞
尢
尣
尤
尧
尨
尬
尭
就
尷
尸
尹
尺
尻
尼
尽
尾
尿
局
屁
层
屃
屄
居
屆
屈
屋
屌
屍
屎
屏
屐
屑
展
屖
屘
屙
屚
属
屠
屡
屢
層
屨
屬
屭
屮
屯
屰
山
屵
屾
岁
岂
岐
岑
岡
岩
岱
岳
岸
峭
峯
峰
島
峻
峽
崇
崑
崔
崖
崙
崩
嵩
嵬
嶄
嶨
嶲
嶷
嶺
巂
巉
巛
川
州
巟
巠
巡
巢
巤
工
左
巧
巨
巩
巫
差
己
已
巳
巴
巷
巸
巽
巾
巿
帀
市
布
帆
师
希
帕
帖
帚
帛
帝
带
師
席
帮
帶
常
帽
幅
幌
幕
幟
幣
幫
干
平
年
幵
并
幷
幸
幹
幺
幻
幼
幽
幾
广
広
庄
床
序
应
底
庖
店
庚
府
废
度
座
庫
庭
庶
康
庸
廁
廂
廈
廉
廊
廌
廓
廚
廛
廟
廠
廢
廣
廩
廳
廴
延
廷
建
廾
廿
开
弁
弃
弄
弇
弊
弋
式
弓
弔
引
弗
弘
弜
弟
张
弥
弦
弧
弯
弱
張
強
弸
弹
强
彈
彊
彌
彎
彐
彑
归
当
彔
录
彖
彗
彙
彝
彡
形
彥
彦
彧
彩
彭
彰
影
彳
彷
役
彼
往
征
徂
待
很
律
後
徐
徑
徒
得
徙
從
御
徨
復
循
微
徵
德
徹
徽
心
忄
必
忌
忍
志
忘
忙
忝
忠
忩
快
念
忽
忿
怎
怐
怒
怕
怖
思
怠
急
性
怨
怪
怫
怱
恁
恆
恐
恒
恙
恣
恥
恨
恩
恪
恭
息
恰
悅
悉
悌
悒
悔
悟
患
悤
您
悪
悲
悶
悼
情
惊
惑
惗
惜
惟
惠
惡
惢
惱
想
惹
愁
愈
愉
意
愕
愗
愚
愛
感
愿
慄
慆
慈
態
慌
慎
慕
慘
慢
慣
慧
慨
慪
慮
慰
慳
慶
慾
憂
憎
憐
憑
憚
憤
憲
憶
憸
懂
應
懒
懞
懟
懦
懲
懵
懶
懷
懸
懼
戀
戆
戇
戈
戉
戊
戋
戌
戍
戎
戏
成
我
戒
戔
或
戙
戚
戠
戢
截
戰
戲
戴
戶
户
戹
戼
戽
戾
房
所
扁
扇
手
扌
才
扑
扒
打
托
扣
扤
执
扭
扮
扯
扱
扳
扶
批
扼
扽
找
承
技
抄
把
抌
抑
抓
投
抗
折
报
抨
抬
抱
抵
抹
押
抽
拃
担
拆
拉
拋
拌
拍
拎
拒
拓
拔
拖
拗
拘
招
拜
拣
括
拱
拳
拶
拼
拽
拾
拿
持
指
挈
按
挐
挑
挖
挛
挞
挨
挪
挫
振
捃
捆
捉
捌
捏
捐
捕
捞
捧
捨
捱
捲
捷
捹
掂
掃
掅
授
掉
掌
排
掕
掗
掘
掛
掟
掠
採
探
掣
接
控
推
掩
措
掰
掱
掷
掹
揀
揄
揆
揇
揈
描
提
插
揗
揚
換
揜
揞
握
揦
揩
揪
揭
揮
援
揸
揼
揾
搂
搋
損
搏
搖
搗
搜
搞
搣
搦
搬
搭
搵
搶
搽
摇
摘
摟
摤
摩
摯
摸
摺
撇
撈
撍
撐
撑
撒
撓
撚
撞
撤
撥
撩
撬
播
撮
撲
撳
撻
撾
擁
擅
擇
擊
擋
操
擒
擔
擗
擘
據
擠
擦
擬
擰
擲
擳
擴
擸
擺
擾
攈
攊
攋
攔
攗
攜
攝
攞
攟
攢
攣
攤
攪
攬
支
攰
攴
攵
收
攸
改
攻
放
政
敄
故
效
敎
敏
救
敕
敖
敗
敘
教
敝
敞
敢
散
敦
敫
敬
数
敲
整
敵
敷
數
斁
斂
文
斉
斊
斐
斑
斗
料
斜
斟
斤
斥
斧
斩
斫
斬
斯
新
斷
方
於
施
斿
旁
旅
旋
旌
族
旗
无
旡
既
旣
日
旦
旧
旨
早
旬
旮
旯
旱
旲
时
旺
旾
昂
昆
昇
昌
昍
明
昏
易
昔
昗
昜
星
映
春
昧
昨
昬
昭
是
昱
昴
昵
昷
時
晃
晉
晋
晏
晒
晚
晝
晡
晨
晩
普
景
晰
晴
晶
智
暄
暈
暉
暑
暖
暗
暢
暫
暱
暴
曆
曇
曉
曖
曠
曩
曬
曰
曱
曲
曳
更
曷
書
曹
曼
曾
替
最
朁
會
月
有
朋
服
朒
朔
朕
朗
朘
望
朝
期
木
朩
未
末
本
札
朮
术
朱
朵
朶
机
朽
朿
杀
杆
杉
李
杏
材
村
杕
杜
束
杠
条
来
杭
杯
東
杲
杳
杼
松
板
枉
析
枕
林
枚
果
枝
枱
枲
枳
架
枷
枼
柄
柏
某
柑
柒
染
柔
柚
柜
柝
查
柬
柯
柰
柱
柳
柴
树
栗
校
栩
株
样
核
根
格
桀
桂
桃
案
桌
桑
桓
桥
桶
桼
桿
梁
梅
梗
梘
條
梟
梧
梨
梯
械
梳
梵
棄
棉
棋
棍
棒
棕
棗
棘
棚
棟
棠
棣
棥
森
棵
棹
棺
植
椎
椓
楊
楔
楚
楞
業
極
楷
楽
概
榃
榔
榕
榜
榨
榫
榮
構
槍
槓
様
槷
樂
樊
樓
樖
標
樞
樟
模
樣
樸
樹
樽
橋
橘
橙
機
橡
橢
橫
檔
檢
檬
檯
檳
檸
櫃
櫈
櫚
櫻
櫼
欄
權
欠
次
欣
欬
欮
欲
欶
欸
欺
欽
款
歆
歇
歉
歌
歎
歐
歛
歡
止
正
此
步
武
歧
歨
歪
歮
歯
歰
歲
歳
歴
歷
歸
歹
歺
死
殃
殊
殖
殘
殯
殳
段
殷
殸
殹
殺
殻
殼
殿
毀
毅
毆
毋
毌
母
每
毒
比
毕
毚
毛
毫
毳
毷
氈
氉
氊
氏
氐
民
氓
气
気
氘
氙
氚
氛
氣
氦
氧
氨
氩
氪
氫
氬
氯
水
氵
氶
氷
永
氹
氺
氾
汀
汁
求
汉
汕
汗
汝
汞
江
池
污
汤
汰
汲
決
汽
沃
沉
沒
沓
沖
沙
沛
沝
沟
沮
河
沸
油
治
沽
沿
況
泄
泉
泊
泌
法
泛
泡
波
泣
泥
注
泰
泳
泵
泶
洋
洗
洛
洞
津
洩
洪
洲
活
洽
派
流
浙
浦
浩
浪
浮
浴
海
浸
涂
消
涉
涌
涓
涕
涫
涯
液
涼
涿
淆
淋
淑
淘
淙
淚
淞
淡
淥
淨
淪
淫
淬
淮
深
淵
混
淺
添
渃
清
渔
渚
減
渠
渡
渣
渦
渧
測
港
渴
游
湊
湎
湖
湘
湧
湯
湿
溇
源
準
溜
溝
溥
溪
溫
溶
滄
滅
滋
滌
滑
滕
滯
滴
滾
滿
漁
漂
漆
漏
演
漢
漦
漫
漬
漲
漳
漸
漿
潔
潘
潛
潤
潦
潮
潲
潺
澀
澄
澈
澌
澤
澩
澳
激
濁
濃
濕
濟
濫
瀄
瀉
瀍
瀟
瀡
瀧
瀨
灌
灑
灘
灣
火
灬
灭
灯
灰
灵
灶
灷
災
炅
炉
炎
炏
炒
炖
炗
炙
炭
炮
炳
炸
点
為
烂
烈
烏
烘
烚
烛
烝
烟
烤
烦
烧
热
烹
焉
焗
焚
無
焦
焰
焱
然
煇
煉
煎
煑
煙
煞
煢
煤
照
煩
煮
煲
熄
熊
熏
熙
熝
熟
熱
燂
燃
燈
燉
燒
燕
燙
燜
營
燥
燦
燭
燮
燶
爆
爐
爛
爧
爪
爫
爬
爭
爯
爰
爱
爲
爵
父
爸
爹
爺
爻
爽
爾
爿
牀
牆
片
版
牌
牙
牚
牛
牜
牟
牢
牧
物
牪
牲
牴
特
牽
犀
犖
犬
犭
犮
犯
狀
狂
狃
狄
狊
狐
狗
狘
狙
狠
狡
狩
独
狹
狺
狼
猋
猒
猛
猜
猩
猪
猫
献
猴
猶
猾
猿
獄
獅
獎
獨
獲
獵
獸
獻
玄
率
玉
王
玖
玟
玨
玩
玫
玳
玻
珀
珂
珍
珎
珠
班
現
球
理
琛
琥
琦
琴
琶
瑞
瑟
瑣
瑤
瑩
瑪
瑰
璃
璧
環
璺
瓊
瓏
瓜
瓣
瓦
瓶
瓷
瓹
甂
甄
甘
甚
甜
生
產
産
甥
甦
用
甩
甫
甬
田
由
甲
申
甴
电
甶
男
甸
甹
画
甾
畀
界
畏
畐
畔
留
畜
畟
畢
略
畧
畨
番
畫
異
畱
當
畺
畾
疆
疇
疊
疋
疌
疏
疑
疒
疕
疜
疝
疨
疫
疲
疴
疾
病
症
痎
痕
痛
痰
瘀
瘋
瘟
瘡
瘦
瘾
療
癡
癮
癱
癲
癶
癸
癹
発
登
發
白
百
皀
皃
的
皆
皇
皋
皐
皕
皮
皷
皺
皿
盃
盅
盆
盇
盈
益
盍
盎
盐
监
盒
盖
盛
盜
盞
盟
盡
監
盤
盧
目
盲
直
相
盼
盾
省
眇
眉
眊
看
眔
眞
真
眠
眨
眯
眷
眺
眼
眾
着
睇
睘
睛
睡
督
睦
睩
睪
睼
睿
瞀
瞏
瞓
瞞
瞢
瞭
瞻
瞿
矂
矍
矛
矞
矢
矣
知
矦
矩
短
矮
石
砂
砌
砍
研
砲
破
砸
硞
硬
确
碌
碎
碑
碗
碘
碟
碰
碳
確
碼
磁
磅
磊
磚
磨
磬
礎
礙
礜
礦
礫
礭
示
礻
礼
社
祀
祇
祈
祐
祕
祖
祝
神
祟
祠
祥
票
祭
祲
祿
禀
禁
禍
福
禡
禦
禪
禮
禱
禸
禹
禺
离
禽
禾
禿
秀
私
秃
秅
秉
秋
种
科
秒
秘
秝
租
秤
秦
秧
秩
积
移
稀
稈
程
稍
稗
稚
稟
稠
種
稱
稲
稻
稿
穀
穆
穌
積
穎
穗
穩
穫
穭
穮
穴
究
穹
空
穿
突
窄
窎
窒
窗
窟
窦
窩
窮
窳
窵
窿
竇
竊
立
竒
站
竜
竝
竟
章
童
端
競
竹
竺
竽
竿
笆
笈
笑
笛
笠
符
笨
笪
第
笼
筆
等
筋
筍
筒
答
策
筲
筵
筷
简
箋
箍
箏
箕
算
管
箩
箭
箱
箴
箸
節
範
篇
築
篋
篙
篤
篩
篭
篷
簁
簡
簧
簽
簿
籃
籌
籍
籠
籤
籬
籮
米
籽
粉
粒
粓
粗
粘
粛
粜
粟
粤
粥
粦
粲
粵
粹
精
糇
糊
糕
糖
糙
糞
糟
糠
糧
糴
糶
糸
糹
系
紀
約
紅
紈
紊
紋
納
紐
純
紗
紙
級
紛
素
紡
索
紧
紫
紮
累
細
紹
終
組
絆
結
絕
絜
絞
絡
給
絨
絫
統
絲
綁
綏
經
綠
綢
綫
維
綱
網
綴
綸
綿
緊
緒
緙
線
緣
編
緩
緬
緯
練
緻
縝
縣
縫
縮
縱
總
績
繁
繃
繇
繑
織
繞
繡
繩
繫
繹
繼
續
纍
纏
纖
纙
纜
纟
红
级
纸
线
练
细
终
经
结
缶
缹
缺
罅
罉
罌
罐
网
罒
罔
罕
罗
罙
罡
罢
罨
罩
罪
置
罯
罰
署
罵
罷
羅
羊
羌
羍
美
羔
羕
羗
羚
羞
羡
羣
群
羨
義
羲
羸
羹
羽
翁
翅
翌
翏
習
翔
翕
翟
翠
翡
翳
翻
翼
老
耂
考
者
耆
而
耍
耎
耐
耑
耒
耕
耗
耳
耴
耶
耷
聂
聄
聆
聊
聋
联
聖
聚
聞
聯
聰
聲
聳
聶
職
聽
聾
聿
肀
肃
肅
肆
肇
肉
肋
肌
肔
肖
肙
肚
肛
肝
股
肢
肥
肨
肩
肫
肯
育
肴
肺
胃
胆
背
胎
胐
胚
胡
胣
胤
胥
胱
胳
胵
胶
胸
胺
能
脂
脆
脈
脊
脏
脚
脣
脩
脫
脷
脹
脾
腌
腍
腎
腐
腑
腔
腦
腫
腮
腯
腰
腳
腸
腹
腿
膀
膉
膊
膍
膏
膚
膝
膠
膥
膨
膮
膱
膳
膶
膼
膽
臀
臂
臃
臍
臘
臟
臢
臣
臤
臥
臧
臨
自
臬
臭
臯
臱
至
致
臺
臼
臽
臾
臿
舀
舂
舄
舅
與
興
舉
舊
舌
舍
舐
舒
舖
舛
舜
舞
舟
舦
航
般
舵
船
艇
艚
艮
良
艱
色
艸
艹
艾
节
芒
芔
芙
芛
芝
芡
芬
芭
芮
芯
花
芳
芺
芻
芽
苏
苔
苗
苛
苟
若
苦
英
苴
茂
范
茄
茅
茨
茲
茴
茶
茸
荀
荅
草
荒
荔
荣
荷
荼
莅
莆
莉
莊
莎
莖
莞
莧
莪
莫
莽
菁
菂
菆
菇
菊
菌
菐
菓
菜
菠
菢
華
菱
菲
萄
萊
萌
萝
萬
落
葉
著
葛
葡
董
葦
葫
葬
葳
葵
葺
葾
蒔
蒙
蒞
蒦
蒲
蒴
蒸
蒼
蓄
蓆
蓈
蓉
蓋
蓬
蓮
蓺
蓻
蔃
蔑
蔔
蔞
蔡
蔥
蔫
蔬
蔴
蕉
蕤
蕩
蕭
薂
薄
薏
薑
薛
薦
薩
薪
薯
薰
藉
藍
藏
藐
藕
藝
藞
藤
藥
藹
藺
蘅
蘆
蘇
蘋
蘭
蘿
虍
虎
虐
虒
虓
虔
處
虖
虗
虘
虚
虛
虜
虞
號
虢
虧
虫
虱
虹
虽
虾
蚅
蚊
蚌
蚤
蚩
蛇
蛊
蛋
蛙
蛛
蜀
蜂
蜘
蜜
蜢
蜥
蜴
蝕
蝦
蝨
蝪
螆
融
螠
螯
螺
蟧
蟲
蟹
蠄
蠅
蠟
蠡
蠢
蠱
蠻
血
衆
行
衍
術
街
衙
衛
衝
衞
衡
衣
衤
表
衫
衬
衮
衰
衷
袁
袋
袍
袒
袖
袞
袤
被
裁
裂
装
裏
裒
裔
裕
補
裝
裡
裤
裶
裸
製
裾
複
褒
褦
褪
褭
褱
褲
褸
襄
襟
襪
襯
襲
襶
襾
西
覀
要
覃
覆
見
規
覓
視
覧
親
覺
覽
觀
见
视
觉
角
解
觥
觸
言
訁
訂
訇
計
訊
討
訓
託
記
訛
訝
訟
訣
訥
訪
設
許
訴
訶
註
詀
詈
詏
詐
詔
評
詞
詢
試
詩
詰
話
該
詳
詹
誇
誌
認
誓
誕
誘
語
誠
誣
誤
誦
誩
說
説
誰
課
誺
誼
調
談
請
諒
論
諗
諦
諧
諫
諱
諷
諸
諺
諼
諾
謀
謂
謎
謙
講
謝
謠
謦
謨
謴
謹
證
譖
識
譚
譜
警
譬
譯
議
護
譺
譽
讀
變
讒
讓
讚
讠
认
记
讲
许
识
词
试
话
该
语
说
请
谁
谂
谢
谱
谷
豆
豈
豉
豊
豎
豐
豕
豖
豙
豚
象
豦
豩
豪
豬
豸
豹
貇
貌
貓
貝
貞
貟
負
財
貢
貧
貨
販
貪
貫
責
貰
貳
貴
貶
買
貸
費
貼
賀
賁
賄
資
賈
賊
賏
賒
賓
賔
賛
賜
賞
賠
賢
賣
賤
賦
質
賭
賴
賺
購
賽
贅
贈
贊
贏
贔
贖
贝
贡
财
责
质
贪
贫
贯
贲
贴
贵
赑
赖
赞
赤
赦
赧
赫
走
赴
起
趁
超
越
趌
趕
趙
趣
趨
趯
足
趴
趷
趾
跌
跑
跛
距
跟
跡
跣
跨
跪
路
跳
踎
踏
踐
踢
踩
踶
踹
蹄
蹅
蹇
蹤
蹸
蹺
躀
躁
躂
躉
躍
躝
身
躬
車
軌
軍
軎
軑
軒
軚
軟
軬
軲
軸
軾
較
輆
載
輔
輕
輘
輝
輦
輩
輪
輯
輷
輸
輿
轄
轆
轉
轍
车
轩
转
轮
软
较
输
辘
辛
辜
辞
辟
辣
辥
辦
辨
辭
辮
辯
辰
辱
農
辵
辶
边
达
迂
迅
迆
过
迍
迎
近
返
这
远
连
迟
迤
迪
迫
迭
述
迴
迷
追
迾
退
送
逃
逆
透
逐
途
逗
這
通
速
造
逢
連
逮
週
進
逳
逸
逼
遀
遁
遂
遇
遊
運
過
道
達
違
遙
遜
遠
遢
遣
適
遭
遮
遲
遵
遷
選
遺
遼
避
邀
邁
還
邊
邋
邏
邑
邕
邙
那
邦
邪
邯
郁
郇
郊
郎
郡
部
郭
郵
都
鄉
鄙
鄧
鄭
鄰
酉
酋
酌
配
酒
酓
酬
酰
酵
酷
酸
醃
醇
醉
醋
醒
醜
醫
醬
醮
釆
采
释
釋
里
重
野
量
金
釒
釘
針
釣
鈉
鈍
鈔
鈴
鉗
鉛
鉤
鉸
銀
銃
銅
銖
銘
銜
銳
銷
銹
鋁
鋒
鋤
鋪
鋸
鋹
鋼
錄
錏
錐
錒
錔
錙
錢
錫
錬
錯
録
錶
鍊
鍋
鍍
鍪
鍵
鍾
鎖
鎚
鎮
鏈
鏟
鏡
鏰
鏾
鐘
鐮
鐵
鑄
鑊
鑑
鑒
鑲
鑼
鑽
鑿
钅
针
钉
钟
钱
铢
银
锋
错
镚
镬
長
镸
长
門
閂
閃
閉
開
閏
閑
閒
間
閔
閘
閞
閣
閥
閩
閪
閭
閱
閵
閹
閻
闊
闌
闔
闗
關
门
闩
问
闲
间
闷
阑
阜
阝
队
阪
阮
防
阳
阴
阵
阻
阿
陀
附
陋
陌
降
限
陛
陟
陡
院
陣
除
陪
陰
陳
陵
陶
陷
陸
陽
隆
隊
隋
階
随
隐
隔
隘
隙
際
障
隡
隧
隨
險
隱
隶
隸
隹
隺
隻
隼
隽
难
雀
雁
雄
雅
集
雈
雉
雋
雌
雍
雐
雔
雕
雖
雙
雚
雜
雝
雞
離
難
雨
雩
雪
雲
零
雷
電
需
霅
震
霉
霍
霎
霓
霜
霝
霞
霧
露
霸
靈
靑
青
靓
靚
靜
非
靠
靡
面
靣
革
靴
靼
鞋
鞏
韃
韋
韌
韓
韜
韦
韩
韭
韯
韱
音
韵
韻
響
頁
頂
頃
項
順
須
預
頑
頒
頓
頗
領
頡
頭
頸
頹
頻
顆
題
額
顎
顏
顔
願
顛
類
顧
顯
页
顶
须
颈
频
题
風
颱
颳
飄
飆
飇
风
飛
飞
食
飠
飢
飣
飩
飪
飯
飲
飼
飽
飾
餃
餅
養
餐
餒
餓
餖
餘
餡
館
餲
餵
餸
餼
饂
饌
饐
饒
饣
饭
饮
饱
饼
饿
馆
馔
首
香
馬
馭
馮
馳
馴
駁
駐
駕
駛
駝
駦
駭
駱
騎
騙
騭
騮
騰
騷
騸
驅
驕
驗
驚
驛
驢
驪
马
驶
验
骑
骘
骨
骰
骸
骹
髀
髓
體
高
髟
髧
髮
髹
鬆
鬚
鬥
鬧
鬩
鬯
鬱
鬲
鬼
魁
魂
魄
魏
魔
魚
魯
魷
鮑
鮓
鮮
鯊
鯨
鯭
鱗
鱲
鱼
鲁
鳥
鳳
鳴
鴉
鴛
鴦
鴨
鴻
鴿
鵝
鵪
鶉
鶯
鶴
鶻
鷂
鷄
鷙
鷸
鷹
鸚
鸟
鸡
鸭
鸯
鸽
鹬
鹵
鹹
鹽
鹿
麃
麒
麗
麝
麟
麥
麦
麪
麵
麺
麻
麼
黃
黄
黍
黎
黐
黑
黒
默
黚
黛
點
黢
黧
黨
黹
黽
黾
鼆
鼎
鼓
鼠
鼻
齃
齊
齋
齐
齒
齕
齡
齣
齦
齮
齿
龁
龍
龐
龔
龖
龗
龘
龙
龜
龟
龠
龰
龱
龴
龵
龶
龷
龸
龹
ꜜ

﨤
者
艹
︖
︰
！
（
）
＋
，
－
．
／
：
；
＜
＝
？
［
］
～
￼
𐌰
𐌲
𐌹
𐌻
𐌽
𐌿
𐬌
𐬙
𐬭
🜨
𠀁
𠀃
𠀆
𠀉
𠀎
𠀐
𠀧
𠁁
𠁣
𠂆
𠂇
𠂈
𠂉
𠂊
𠂋
𠂎
𠂒
𠂔
𠂛
𠂡
𠂢
𠂤
𠂬
𠂭
𠂹
𠃊
𠃋
𠃌
𠃍
𠃎
𠃑
𠃓
𠃔
𠃜
𠄌
𠄎
𠄠
𠄢
𠄧
𠄩
𠅎
𠆢
𠆥
𠇍
𠈌
𠉞
𠊛
𠌵
𠍁
𠓜
𠓨
𠔉
𠔥
𠔼
𠔽
𠔿
𠕀
𠕁
𠕋
𠖫
𠘧
𠘨
𠙻
𠙼
𠚏
𠚐
𠚒
𠚢
𠚤
𠚪
𠣏
𠤎
𠤕
𠥓
𠦄
𠦑
𠦝
𠦳
𠧒
𠧗
𠧪
𠩺
𠪚
𠫓
𠫔
𠫤
𠫾
𠬛
𠬝
𠬞
𠬠
𠬢
𠬤
𠬶
𠮛
𠮦
𠮩
𠮶
𠮷
𠯑
𠰚
𠰺
𠱊
𠱠
𠳮
𠵼
𠵿
𠷎
𠸉
𠸛
𠸜
𠸼
𠹌
𠼰
𠽌
𡃁
𡄰
𡄽
𡈼
𡉀
𡉵
𡌥
𡍮
𡏳
𡐙
𡕒
𡕩
𡕰
𡖅
𡗉
𡗋
𡗗
𡗜
𡘆
𡘤
𡘯
𡚢
𡤔
𡥙
𡥧
𡥵
𡧱
𡧲
𡨄
𡨸
𡩧
𡬠
𡭽
𡰣
𡰥
𡰪
𡰯
𡰱
𡲫
𡳞
𡶀
𡷈
𡸁
𡽫
𡿨
𡿩
𡿪
𡿺
𢀖
𢀛
𢀩
𢁙
𢂞
𢃇
𢄌
𢄩
𢅭
𢆉
𢆥
𢆰
𢆶
𢇁
𢇇
𢉖
𢌬
𢌿
𢏚
𢑑
𢑚
𢖕
𢖖
𢖥
𢖵
𢖻
𢙣
𢙱
𢛳
𢜝
𢞂
𢞅
𢦏
𢦒
𢧚
𢧲
𢧵
𢪎
𢫕
𢬿
𢭃
𢭲
𢯓
𢲵
𢳂
𢶷
𢷮
𢹲
𢼄
𢽴
𢾕
𣁋
𣄼
𣅀
𣅽
𣈜
𣋚
𣍘
𣎃
𣎏
𣎳
𣎵
𣏋
𣏼
𣗥
𣘃
𣚺
𣛠
𣡝
𣣻
𣥂
𣥖
𣦵
𣦼
𣧄
𣩙
𣪊
𣪠
𣫒
𣬉
𣮈
𣱆
𣲷
𣳾
𣵵
𣶒
𤁘
𤇾
𤊽
𤏬
𤐫
𤑟
𤓰
𤔔
𤕨
𤘅
𤣩
𤯆
𤯨
𤯩
𤰇
𤰔
𤰞
𤲌
𤴓
𤴔
𤵊
𤷪
𤺊
𤺧
𤽄
𤾓
𥁑
𥁕
𥃦
𥃩
𥃭
𥄎
𥄫
𥄭
𥇡
𥏌
𥑟
𥘅
𥘈
𥘷
𥚯
𥝢
𥪝
𥫗
𥬮
𥮊
𥯉
𥰊
𥱡
𥹉
𥽌
𥿗
𦁹
𦁺
𦈢
𦉪
𦉬
𦉼
𦍌
𦍒
𦎡
𦎧
𦐇
𦓔
𦓡
𦔮
𦖑
𦘒
𦙃
𦚏
𦟌
𦠆
𦢳
𦣝
𦣞
𦣻
𦤾
𦥑
𦥔
𦥯
𦧲
𦨉
𦭝
𦰩
𦹵
𧁷
𧆄
𧆞
𧇣
𧈧
𧗱
𧘇
𧬪
𧮪
𧰨
𧰵
𧴪
𧴮
𧵑
𧵟
𧵩
𧽻
𧽽
𧾷
𨂾
𨅬
𨋢
𨑻
𨒒
𨖲
𨢇
𨳊
𨳍
𨵆
𨸏
𨾴
𩅹
𩈘
𩏼
𩖊
𩙿
𩛖
𩜠
𩠌
𩠐
𩥇
𩩖
𩫏
𩯊
𩵋
𪉷
𪏙
𪒬
𪘲
𪙛
𪜀
𪟤
𪟽
𪠲
𪥀
𪦆
𪧻
𪩲
𪪀
𪬫
𪯝
𪱆
𫅜
𫅠
𫇦
𫍧
𫏄
𫔭
𫗒
𫗰
𫜸
𫝀
𫠣
𫠩
𫢉
𫥞
𫩏
𫩠
𫩥
𫪡
𫭔
𫲽
𫶧
𬀷
𬐘
𬗌
𬙙
𬛸
𬜯
𬟩
𬯁
𬴘
𬺚
𬺻
𬼉
𬼖
𭀰
𭁈
𭁨
𭅰
𭑈
𭕄
𭗼
𭤨
𭥫
𭻾
𮀊
𮅕
𮊿
𮍌
𮍏
𮓗
𮥼
𮧮
廾
𰀁
𰀄
𰀈
𰀉
𰀕
𰀠
𰀡
𰀢
𰀪
𰁜
𰃮
𰆊
𰆘
𰋙
𰕎
𰢴
𰧭
𰯲
󳕄
󳕅
󳕐
󳕑
󳕚
󳕜
󳕞
󳕡
󳕭
󳕱
󳕷
󳘩
󳘳
󳢰
󳪑
󴁫
󴆦
󴋣
󴞾
󴯺
󴵥
󵜙
󵲔
󵸓
󶂑
󶅿
󶐦
󶐭
󶐳
󶒟
󶒯
󶙪
󶷙
󶺶
10--
11--
12--
13--
14--
19--
20--
21--
4--
5--
6--
7--
8--
9--
a--
ab--
abi--
abo--
abra--
ac--
ack--
ad--
adul--
af--
aff--
ag--
ai--
ak--
al--
ald--
ali--
all--
alt--
am--
ama--
amb--
an--
ang--
ank--
anna--
ap--
apo--
ar--
argu--
ari--
as--
ash--
at--
au--
aust--
ave--
avi--
ay--
az--
b--
ba--
back--
bag--
bal--
bam--
ban--
bar--
bart--
bas--
bat--
bau--
bay--
be--
bea--
bec--
beck--
beh--
bel--
ben--
bi--
bo--
bu--
c--
ca--
car--
ch--
ci--
co--
com--
cor--
d--
da--
de--
di--
do--
e--
en--
f--
fa--
fe--
fo--
g--
ge--
gi--
go--
gu--
h--
ha--
ho--
hong--
hor--
i--
impor--
in--
is--
j--
ja--
je--
k--
ka--
ko--
ku--
l--
la--
le--
li--
lu--
m--
ma--
mar--
me--
mi--
mo--
mos--
mu--
n--
na--
ng--
ni--
no--
o--
oi--
on--
or--
ori--
p--
pa--
per--
pi--
pla--
po--
pre--
pri--
q--
quest--
r--
ra--
re--
ref--
ri--
ro--
s--
sa--
se--
so--
st--
stu--
su--
sup--
sʌ--
t--
ta--
tai--
tal--
te--
to--
tʂ--
tʃ--
u--
un--
v--
va--
ve--
vi--
vo--
w--
wi--
xa--
xo--
ya--
yo--
yu--
z--
æ--
ł--
ŋ--
œ--
ɑ--
ɓ--
ɔ--
ɕ--
ɗ--
ə--
ɛ--
ɡ--
ɣ--
ɪ--
ɲ--
ɵ--
ɾ--
ʂ--
ʃ--
ʊ--
ʒ--
ʔ--
ʨ--
б--
м--
ก--
น--
ᠬ--
ᠬᠠ--
ᠳ--
ᠴ--
--0
--1
--2
--3
--4
--5
--6
--7
--70
--8
--9
--a
--ach
--ad
--ado
--aga
--ah
--al
--am
--an
--ar
--arian
--at
--ate
--b
--berry
--bus
--c
--ce
--ch
--cio
--ck
--co
--d
--da
--dal
--de
--dge
--di
--do
--e
--ead
--ed
--ek
--en
--eng
--ent
--er
--era
--es
--ess
--et
--ey
--ez
--f
--ft
--g
--ga
--ge
--gh
--ght
--h
--hart
--he
--hn
--hp
--ht
--i
--ia
--ian
--id
--ie
--in
--ine
--ing
--ir
--is
--j
--jo
--k
--ke
--ker
--ko
--ku
--l
--la
--land
--lar
--ld
--ldua
--le
--ler
--ley
--lk
--ll
--lla
--lle
--llo
--lo
--lon
--lt
--ly
--m
--ma
--man
--n
--na
--nce
--nd
--ndt
--ne
--ness
--ng
--no
--nt
--nte
--o
--od
--ok
--ol
--on
--ow
--p
--pe
--po
--q
--r
--ra
--ran
--rd
--re
--ress
--ri
--rk
--rn
--ro
--rs
--rt
--ru
--rus
--ry
--s
--se
--ser
--sh
--ss
--st
--t
--ta
--tal
--te
--tel
--th
--tle
--ts
--tt
--tte
--tus
--ty
--tz
--u
--ue
--ur
--us
--use
--ux
--v
--virus
--w
--wk
--wŋ
--x
--xt
--y
--yss
--z
--za
--zar
--ze
--zer
--ŋ
--ə
--ək
--əŋ
--ɪ
--ɪt
--ɾ
--ʃ
--ʊ
--а
--ᠡᠨ
--ᠨ
--ᠭ
--ᠯ
--ᠷ
