!
"
#
##0
##1
##10
##11
##12
##13
##14
##15
##16
##17
##18
##19
##2
##20
##21
##22
##23
##24
##25
##26
##27
##28
##29
##3
##30
##31
##32
##33
##34
##35
##36
##37
##38
##39
##4
##40
##41
##42
##43
##44
##45
##46
##47
##48
##49
##5
##50
##51
##52
##53
##54
##55
##56
##57
##58
##59
##6
##60
##61
##62
##63
##64
##65
##66
##67
##68
##69
##7
##70
##71
##72
##73
##74
##75
##76
##77
##78
##79
##8
##80
##81
##82
##83
##84
##85
##86
##87
##88
##89
##9
##90
##91
##92
##93
##94
##95
##96
##97
##98
##99
$
%
&
'
(
)
*
+
,
-
.
/
0
00
000
01
03
04
06
08
1
10
100
1000
1002
1004
1005
101
1013
1014
1015
1016
1018
1019
102
1022
1027
103
1030
1031
1032
104
1045
1048
1049
105
1050
1052
1054
1056
106
1060
1065
1066
1067
1068
1069
107
1072
1073
1076
1077
1078
108
1080
1087
1089
109
1093
1099
11
110
1100
111
1110
1112
1113
1118
112
1120
1125
113
1132
1136
1137
1139
114
1146
115
1150
1155
1156
1157
116
1160
1161
1167
1169
117
1170
1171
1173
1174
1175
1176
118
1181
1184
1189
119
1199
12
120
1207
121
1212
1213
1214
1216
122
1223
123
1238
124
1240
1243
1246
1248
1249
125
126
1263
127
128
1283
129
13
130
1300
131
1318
132
1325
133
134
1340
135
1353
1359
136
1360
1363
1367
137
1371
138
1385
1389
139
1396
14
140
1400
1408
141
1412
1414
142
1425
1428
143
1431
1433
1434
1435
1436
1438
1439
144
1440
1445
1446
1447
1448
145
1452
1454
1457
146
1462
1464
1465
1467
147
1470
1474
1475
148
1484
1485
149
1490
1494
1497
15
150
1500
1501
1503
1504
1505
1508
151
1510
1511
1512
1519
152
1520
1522
1523
1524
153
1533
1534
154
1540
1543
1546
1547
1549
155
1550
1555
1557
1558
156
1560
1561
1564
1565
1568
157
1571
1575
1576
1578
158
1580
1584
159
1592
1598
1599
16
160
1600
1604
1605
1606
161
1610
1611
1612
1613
1615
1616
1619
162
1620
1621
163
1630
1632
1633
1634
1636
1637
1639
164
1640
1644
1645
165
1654
1657
1658
166
1660
1664
1665
1666
1669
167
1672
1676
168
1680
1681
1682
1685
1689
169
1692
1696
1697
17
170
1700
1706
1707
171
1712
1718
1719
172
1720
1721
1722
1725
1727
1728
173
1730
1732
1735
1737
174
1740
1741
1747
1749
175
1750
1751
1752
1753
1756
1757
1759
176
1760
1761
1762
1768
1769
177
1770
1771
1772
1773
1775
1778
1779
178
1780
1784
1789
179
1791
1792
1793
1794
1796
1797
1799
18
180
1800
1801
1802
1804
1806
1807
1808
1809
181
1810
1813
1814
1815
1817
1818
182
1821
1822
1825
1826
1827
1829
183
1830
1832
1833
1834
1835
1837
1839
184
1840
1841
1844
1845
1846
1847
1848
1849
185
1850
1851
1852
1853
1855
1857
1859
186
1860
1861
1862
1863
1864
1866
1867
1868
1869
187
1870
1871
1872
1873
1874
1875
1876
1877
1878
1879
188
1880
1881
1882
1883
1884
1885
1886
1887
1888
1889
189
1890
1891
1892
1893
1894
1895
1896
1897
1898
1899
19
190
1900
1901
1902
1903
1904
1905
1906
1907
1908
1909
191
1910
1911
1912
1913
1914
1915
1916
1917
1918
1919
192
1920
1921
1922
1923
1924
1925
1926
1927
1928
1929
193
1930
1931
1932
1933
1934
1935
1936
1937
1938
1939
194
1940
1941
1942
1943
1944
1945
1946
1947
1948
1949
195
1950
1951
1952
1953
1954
1955
1956
1957
1958
1959
196
1960
1961
1962
1963
1964
1965
1966
1967
1968
1969
197
1970
1971
1972
1973
1974
1975
1976
1977
1978
1979
198
1980
1981
1982
1983
1984
1985
1986
1987
1988
1989
199
1990
1991
1992
1993
1994
1995
1996
1997
1998
1999
2
20
200
2000
2001
2002
2003
2004
2005
2006
2007
2008
2009
201
2010
2011
2012
2013
2014
2015
2016
2017
2018
2019
202
2020
2021
2022
203
204
205
206
207
208
209
21
210
211
212
213
214
215
216
217
218
219
22
220
221
222
223
224
225
226
227
228
229
23
230
231
232
233
234
235
236
237
238
239
24
240
241
242
243
244
245
246
247
248
249
25
250
251
252
253
254
255
256
257
258
259
26
260
261
262
263
264
265
266
267
268
269
27
270
271
272
273
274
275
276
277
278
279
28
280
281
282
283
284
285
286
287
288
289
29
290
291
292
293
294
295
296
297
298
299
3
30
300
3000
301
302
303
304
305
306
307
308
309
31
310
311
312
313
314
315
316
317
318
319
32
320
321
322
323
324
325
326
327
328
329
33
330
331
332
333
334
335
336
337
338
339
34
340
341
342
343
344
345
346
347
348
349
35
350
351
352
353
354
355
356
357
358
359
36
360
361
362
363
364
365
366
367
368
37
370
372
373
377
378
38
380
381
382
384
385
387
388
389
39
391
392
394
395
396
398
4
40
400
401
403
404
408
41
410
412
415
416
42
420
422
423
426
429
43
430
431
432
433
434
436
437
438
44
440
443
4438
446
447
448
449
45
450
453
458
46
460
463
464
465
466
467
468
469
47
472
475
476
48
480
481
482
483
487
49
490
492
493
494
497
499
5
50
500
501
502
503
504
506
51
510
511
512
514
516
518
519
52
520
524
526
527
528
53
531
532
533
534
536
538
539
54
540
541
542
543
544
546
547
548
549
55
550
551
552
553
555
556
558
56
562
563
565
569
57
571
573
574
575
576
577
578
579
58
581
583
584
586
589
59
590
591
594
596
6
60
600
601
603
6047056
605
606
607
61
613
615
618
62
621
622
624
628
629
63
632
635
636
639
64
640
642
643
644
65
650
652
654
656
66
660
664
665
666
667
668
67
671
677
678
68
680
682
684
685
686
687
69
691
692
696
698
699
7
70
700
703
71
710
716
717
72
724
725
73
730
731
733
735
736
738
74
740
742
743
744
745
747
748
75
753
755
756
757
758
76
760
761
765
768
77
772
777
78
781
782
783
786
788
79
790
792
793
797
8
80
800
806
809
81
82
823
825
827
828
83
834
837
838
839
84
841
843
844
846
847
85
852
853
854
856
857
859
86
861
862
865
866
868
869
87
872
873
874
877
879
88
880
882
89
891
893
894
898
9
90
900
901
902
903
904
905
906
907
908
909
91
910
911
912
913
914
915
916
917
918
919
92
920
921
922
923
924
925
926
927
928
929
93
930
931
932
933
934
935
936
937
938
939
94
940
941
942
943
944
945
95
950
953
957
959
96
960
964
967
97
970
971
972
973
975
978
979
98
980
981
982
985
986
99
993
994
995
998
999
:
;
<
=
>
?
[
]
^
_
a
aa
abaza
abkhazia
according
ai
all
amants
amour
an
and
archive
article
articles
as
at
australia
b
bankzakonov
barcelona
bd
be
beatles
biography
blica
bob
books
bosnia
bwv
by
c
calendar
census
chanson
city
club
co
com
comme
communes
composition
congo
corruption
covid
cœur
d
da
dans
de
debs
del
democratic
des
district
do
du
dylan
e
elvis
en
enc
english
epos
es
est
et
ethnic
europe
f
facebook
fait
fanon
football
for
from
fund
g
ge
georgia
georgian
gions
gov
graphemica
great
green
greenpeace
gregorian
guine
guinea
h
heart
herzegovina
history
hiver
ho
homme
how
html
http
https
i
ii
iii
il
in
index
info
information
international
ipa
isbn
iso
it
iv
ix
j
jamhuri
je
jeux
ji
john
julian
k
ka
kenya
kiu
korrupciya
krugosvet
l
la
lang
latest
le
lepus
les
life
m
ma
madonna
manchester
manutd
map
marie
me
metro
moi
mon
monsieur
my
n
na
nations
ne
net
new
news
nija
no
nus
o
of
official
olympics
olympiques
on
online
org
organization
other
p
pages
paris
pas
pdf
peace
php
places
po
politics
population
pour
power
presley
press
prezidentskaya
projections
pronolagus
pru
publique
q
qu
que
queen
qui
r
railway
re
regional
regions
repu
republic
republika
respublika
results
ru
rue
rwanda
s
sa
se
security
seniu
si
so
south
sputnik
statistics
studies
sudan
summer
sylvilagus
t
tanzania
te
the
this
ti
time
times
to
tu
u
ua
uk
un
une
unicef
united
university
v
vi
vie
vii
viii
vol
w
wa
war
web
website
william
winter
with
world
www
x
xi
xii
xiii
xiv
xix
xn
xv
xvi
xvii
xviii
xx
y
ya
year
you
youtube
z
za
|
}
~
«
²
»
æ
ı
œ
ə
ɥ
ɵ
ʒ
ʕ
ʧ
ʷ
ʼ
ˈ
ː
̀
́
̂
̃
̄
̆
̇
̈
̉
̊
̋
̌
̏
̑
̓
̔
̛
̞
̣
̧
̨
͂
α
β
γ
δ
ε
ζ
η
θ
ι
κ
λ
μ
ν
ξ
ο
π
ρ
ς
σ
τ
υ
φ
χ
ψ
ω
а
аа
ааба
аагара
ааглых
ааглыхра
аагоуп
аадырԥшит
аалыҵ
аалӡга
аамсҭа
аамсҭеи
аамҭа
аамҭаз
аамҭазы
аамҭак
аамҭала
аамҭалатәи
аамҭақәа
аамҭеи
аан
аангыларҭак
аанкылан
аанкылара
аанкыларазы
ааныжьра
аартра
аарыхра
аарҩара
аарԥшра
аарԥшуп
аарԥшын
аасҭа
ааха
аахыс
аахыҵ
аацы
аашәи
ааҟ
ааԥхьара
ааԥын
ааԥынра
ааԥынтәи
абаа
абааш
абаашқәа
абаза
абазгаа
абазилика
абаклажан
абактериақәа
абанк
абанктә
абанкқәа
абарҭ
абарҭқәа
абас
абасала
абахҭа
абаҟа
абаҟақәа
абаҟәқәа
абаҳча
абаӷәаза
абдалла
абел
абер
аберҭыԥ
абжа
абжьагаҩс
абжьаратә
абжьаратәи
абжьарашәышықәсақәа
абжьаҟазаратә
абжьаҟазаҩцәа
абжьгарақәа
абжьы
абжьыҭирақәа
абжьқәа
абзазаратә
абзиабара
абзиабареи
абзоурала
абизнес
абиографиа
абиологиатә
абираҟ
абираҟдырга
абираҟқәа
абиуџьет
абнатә
аболгар
абольшевикцәа
аботаника
абра
абраҟа
абри
абхазии
абхазия
абхазо
абхазов
абхазоу
абхазскии
абхазских
абхазского
абхазскои
абызшәа
абызшәатә
абызшәақәа
абызшәеи
абырз
абырзен
абырзенцәа
абџьар
абҵара
абҵарамза
август
августа
авидзба
авикипедиа
авирус
австралиа
австралиатәи
австриа
австро
автономтә
автор
авторс
авторцәа
агазет
агазеҭ
аган
аганахь
аганахьала
аганқәа
агаҟны
агежьбжататә
агер
агерб
агерман
агимн
аглобалтә
аграждантә
агрба
агриппа
агырны
агыруа
агәаанагара
агәабзиара
агәабзиарахьчара
агәабзиарахьчареи
агәра
агәы
агәыҳалалратә
агәыԥ
агәҭабжьаратәи
агәҭаны
агәҭатәи
ад
ада
адагьы
адамра
адашьма
адаҟьа
адгылара
адгыларазы
адгылаҩцәа
адгьыл
адгьылбжьаха
адгьылбжьахабжа
адгьылбжьахатә
адгьылбжьахақәа
адгьылқәа
адгьылҵакыра
адгәыр
адемократиа
адемократиатә
адемонстрантцәа
адемонстрациа
адепартамент
адепо
адепутат
адепутатцәа
адиалект
адиаспора
адиаспорақәа
адикәан
адинхаҵара
адинхаҵаратә
адинхаҵарақәа
адипломатиатә
адиректор
адкылара
адлеиба
административно
административныи
административтә
администрациа
адоктор
адольменқәа
адоуҳатә
адраматург
адунеи
адунеиаҿ
адунеизегьтәи
адунеитә
адыга
адыгаа
адыгских
адырра
адыррақәа
адҩыла
адҩылақәа
адҩылаҿы
адҵа
адәахьала
адәныҟатәи
адәы
адәыӷбақәа
аедыгаа
аекологиа
аекологиатә
аекономика
аекономикатә
аекономикатәи
аекономикеи
аекспертцәа
аелементқәа
аепархиа
аепископ
аепископцәа
аепос
аерм
аерманцәа
аетап
аетика
аетникатә
аетнографиеи
аетнос
аетноси
аетносқәа
аеҵәа
аеҵәақәа
ажурнал
ажурналист
ажурналистика
ажурналистцәа
ажьа
ажьырны
ажьырныҳәа
ажьырныҳәамза
ажәа
ажәабжь
ажәабжьқәа
ажәалагала
ажәахә
ажәақәа
ажәеинраалақәа
ажәеинраалақәеи
ажәла
ажәлар
ажәларқәа
ажәлақәа
ажәылара
ажәытә
ажәытәтәи
ажәытәӡатәи
азааигәара
азакәан
азакәанқәа
азакәанқәеи
азакәанӡбатә
азакәанԥҵаратә
азал
азалтә
азанааҭ
азанааҭеидгылақәа
азауад
азбжа
азбжазы
азгәарҭоит
азгәаҭаны
азгәаҭоуп
азеипш
азеиԥш
азер
азербаи
азербаиџьан
азербаиџьанцәа
азиа
азиатәи
азиаҟны
азиеи
азиз
азин
азиндырратә
азини
азинмчхарақәа
азинмчы
азинтә
азинқәа
азиуан
азиуеит
азнеишьа
азура
азхаҵара
азы
азын
азыркьаҿра
азырҳәоит
азыҳәан
азқьышықәса
азҵаара
азҵаарақәа
азҵаатәқәа
аи
аиааира
аиадертә
аиашахаҵаратә
аиаҵәақәа
аиба
аибашьра
аибашьратә
аибашьрақәа
аибашьцәа
аибыслара
аидгыла
аидгылара
аидеиа
аидеиақәа
аидеологиа
аидыслара
аидысларақәа
аиеҵәа
аизара
аизга
аизыҟазаашьақәа
аилазаара
аилазаарақәа
аилазаараҿы
аилак
аиларшьышьи
аилатәара
аилахәыра
аилкаара
аилкааразы
аилкаарақәа
аилыркаара
аимадара
аимак
аимара
аимператор
аимпериа
аимҳәаду
аиндекс
аинрал
аинститут
аинститутқәа
аинтерес
аинтересқәа
аинформациа
аинформациатә
аисп
аиспан
аитал
аиудаизм
аиуит
аиура
аиуразы
аиуристтә
аихамҩа
аихамҩақәа
аихьӡарақәа
аишьцәа
аиқәшаҳаҭра
аиқәышаҳаҭра
аиқәышаҳаҭрақәа
аиҟарамра
аиҭагаҩ
аиҭаира
аиҭакрақәа
аиҭашьақәыргыларатә
аиҭоит
аиҭон
аиҳабы
аиҳабыра
аиҳабыреи
аиҳабыс
аиҳарак
аиҿагыларақәа
аиҿкаара
аиҿкааратә
аиҿкаарақәа
аиҿкаареи
аиҿцәажәара
аиҿцәажәарақәа
аиӷьтәразы
аиԥшымзаара
ак
акаба
акагьы
академиа
академик
акакәны
акандидат
акантон
акапиталисттә
акартош
акартошхы
акаталикос
акатегориа
акафедра
акафедралтә
акафедраҿ
акгьы
акзаара
акит
акласс
аклуб
акны
аколлективтә
аколониалтә
аколонизаторцәа
акоманда
акомиссиа
акомитет
акоммерциатә
акоммунисттә
акомпаниа
акомплекс
акомпозитор
аконгресс
аконсервациа
аконституциа
аконституциатә
аконституциеи
аконсул
аконтинент
аконференциа
аконфликт
аконфликтқәа
аконцепциа
акоординациа
акоррупциа
акоуп
акраамҭа
акрал
акралра
акритика
акролик
акрызҵазкуа
акт
активла
актиор
актәи
акультура
акультуратә
акультуратәи
акультуреи
акурс
акциа
акы
акыр
акыршықәса
акырынтә
акырӡа
акыҭа
акьыԥхь
акәа
акәакьҭаиаша
акәзар
акәзаргьы
акәны
акәхеит
акәхоит
акәша
акәыкәбаақәа
акәымкәа
акәын
акәӡам
ала
алагамҭаз
алагамҭазы
алагамҭеи
алагара
алагарҭатә
алагьы
алада
аладатәи
алаз
алакыз
аламиа
аланхо
аларҵәара
аларҵәаразы
алахәцәа
алахәыла
алахәылас
алахәылацәа
алахәылацәеи
алашара
алашараҿ
алаҟәра
алаҭ
алаҭын
алаҳаӡы
алгара
алгаразы
алгоритм
александр
алексеи
алекциақәа
алеқсандр
алеқсеи
алжир
алжиртәи
али
алиев
алиса
алит
алитература
алитературатә
алитературеи
алкаара
алоуп
алфавит
алхас
алхра
алхратә
алхрақәа
алхыҩцәа
алшара
алшарақәа
алшоит
алықсандр
алықьса
алыҵшәа
аль
альберт
альва
альманах
алҵшәақәа
ам
амагистр
амазаара
амазара
амак
амал
амам
амамзаара
аман
аманы
амассатә
аматериалтә
аматериалқәа
амаҭәа
амаҭәар
амаҭәарқәа
амаҵзура
амаҵзуратә
амаҵура
амаҵурауааи
амаӡаныҟәгарҭа
амаӡаныҟәгаҩ
амегаполис
амедицинатә
аменеџьмент
аменшевикцәа
америка
америкатәи
америкаҟны
америкеи
аметодқәа
аметрополитен
амеханизмқәа
амзар
амзара
амзызқәа
амигрантцәа
амилаҭ
амилаҭбжьаратә
амилаҭтә
амилаҭтәи
амилаҭқәа
амилициа
аминералтә
аминистр
аминистрра
аминистрс
аминистрцәа
амиран
амиссиа
амиссионер
амитинг
амитрополит
амла
амлакра
амодель
амонета
аморалтә
амоуп
ампыҵахалара
амра
амрагыларахь
амраҭашәаратә
амраҭашәаратәи
амраҭашәарахь
амсылманратә
амузеи
амузыка
амузыкатә
амуниципалитет
амуниципалтә
амца
амцабз
амцахара
амч
амчра
амчратә
амчрақәа
амчреи
амчыбжь
амш
амшала
амшра
амшын
амшынду
амшыни
амшыноуп
амшынтә
амшқәа
амҩа
амҩақәа
амҩаԥгара
амҳаџьырра
амҷба
ан
анагӡара
анагӡаратә
анализ
анапахьы
анапаҵаҟа
анапсаргәыҵа
анапхгара
анапхгаратә
анапхгараҭара
анапхгараҭаратә
анапхгаҩцәа
анапхгаҩы
анапы
анапылаҩыра
анатоли
анатолии
анатуралтә
анаука
анаукатә
анаукақәа
анашьан
анашьоуп
анаҩс
анаҩсангьы
анаҩсгьы
анаҩстәи
анаҭоит
анбан
англ
англиа
англыз
андреи
андриа
анеилга
анемец
анемеццәа
анеҩс
анзор
анид
анихыҵуаз
анкара
анкваб
анкь
анкьа
анкьатәи
анна
аннексиа
анормақәа
анри
антикатәи
антиохиатәи
антисемитизм
антологиа
антологиаҿ
антон
ануп
анхара
анхарҭа
анхацәа
анхаҩцәа
анхаҩцәеи
анхәа
анцәа
анцәадзыхшаз
анырра
аныхабаа
аныхачаԥақәа
анышә
аныҳәа
аныҳәарҭа
аныҳәарҭеи
анџьелес
анқәаб
анҵәамҭазы
анҵәамҭанӡа
анҵәамҭеи
аобиектқәа
аобласт
аокеан
аоккупациа
аокруг
аоперациа
аоперациақәа
аоппозициа
аорганизация
аорден
аофициалтә
аочеркқәеи
апап
апарламент
апарламенттә
апартиа
апартиақәа
апатриарх
апатырџьан
апедагогтә
апериод
аплан
апоема
апоемақәеи
апоет
апозициа
апол
аполитик
аполитика
аполитикатә
аполитикатәи
аполитикеи
аполициа
аполициатә
аполициеи
аполковник
апорт
апотенциал
аппарат
апрактика
апре
апрезидент
апрезиденттә
апрезидиум
апрель
апреля
апремиа
апринцип
апринципқәа
апроблема
апроблемақәа
апровинциақәа
апрограмма
апрограммақәа
апрогресс
апроект
апроектқәа
апрозаик
апрокурор
апрофессионалтә
апрофессор
апроцесс
апсида
апсны
апублицист
ар
ара
араб
арабтә
арабтәи
арабцәа
арадикалтә
араион
араиона
араионного
араионов
араионқәа
араионқәеи
араса
арасатә
арасаӡыхь
арассатә
арахь
араҟа
араӡны
арбага
арбагақәа
арвелод
аргентина
аргун
аргыламҭа
аргылара
аргыларатә
ардзинба
ареалистцәа
аревком
ареволиуциа
ареволиуцианерцәа
ареволиуциатә
арегент
арегион
арегионалтә
арегионқәа
аред
аредактор
аредакциаҿ
арежиссиор
арезолиуциа
ареспублика
ареспубликатә
ареспубликақәа
аресурсқәа
ареферендум
ари
арк
армарахьтәи
арн
ароль
ароман
арра
аррамаҵзура
арратә
артист
аруаа
архаикатә
археологиатә
археологиеи
архив
архиереи
архипелаг
архитектура
архитектуратә
архитравтә
архәҭақәа
аршба
арыцхә
арыцхәқәа
арҭ
арҭеит
арҭоит
арҭқәа
арҵага
арҵаҩратә
арҵаҩцәа
арҵаҩы
арҿиара
арҿиаратә
арӡынба
арӷәӷәара
ас
асаит
асаркьалсырҭа
асахьа
асахьаркыратә
асахьақәа
асахьаҭыхҩы
асаԥар
асенатор
асерб
асербцәа
асериаҿ
асимвол
асистема
аскрипториум
аславиан
аслан
асовет
асоветтә
асом
асомҭаврули
асоциал
асоциалисттә
асоциалтә
асоциалтәи
аспециалистцәа
аспирантура
аспорт
аспорти
ассамблеиа
асср
аст
астатиа
астатиақәа
астатиақәеи
астатус
астерилизациа
астудентцәа
асуах
асубтропикатә
асҭамыр
ат
атауарқәа
атаџь
атеатр
атеатри
атеатртә
атеатрқәа
атекст
атеориа
атермин
атерриториа
атерриториаҿы
атиурк
атлантикатә
атом
атомтә
атопонимика
атрадициақәа
атрамваи
атрибунал
атәы
атәыла
атәылауаа
атәылауаҩ
атәылауаҩра
атәылауаҩратә
атәылахьчара
атәылақәа
атәылақәеи
атәылаҟны
атәылаҿ
атәылаҿацә
атәылаҿы
атәылоуп
атәым
ау
ауаа
ауаажәлар
ауаажәларра
ауаажәларратә
ауаажәларратәи
ауаарацәа
ауаатәыҩса
ауааԥсыра
ауадаҩрақәа
ауал
ауар
ауахәама
ауахәаматә
ауахәамақәа
ауахәамаҿы
ауахәамеи
ауаҩ
ауаҩи
ауаҩы
ауаҩытәыҩса
ауаԥ
ауаԥс
аубла
аублаа
ауеит
аукраинцәа
ауниверситет
ауп
аур
аура
ауралатәи
ауриа
ауриацәа
аурыс
аурысцәа
аурысқәа
аус
аусбарҭа
аусбарҭақәа
аусеицура
аусеицуразы
аусеицуреи
аусзуҩцәа
аусзуҩы
аусумҭа
аусумҭақәа
аусура
аусурҭа
аусуцәа
аусуцәеи
аусхк
аусқәа
аучастка
афакт
афакультет
афасад
афатә
афауна
афедералтә
афедеративтә
афедерациа
афеида
афеномен
афеодалтә
афилологиатә
афилософ
афилософиа
афилософиеи
афильмқәа
афинанстә
афинансқәа
афон
афонд
аформа
аформақәа
афорум
афр
афранцыз
африка
африкатәи
африкаҟны
африкеи
афронт
афундаментализм
афундаменталисттә
афымцатрамваи
афырхацәа
афырхаҵа
аха
ахаан
ахада
ахадара
ахадас
ахадацәа
ахадеи
ахаланапхгара
ахалшени
ахамелеон
ахамелеонқәа
ахан
аханатә
ахантәаҩи
ахантәаҩы
ахантәаҩыс
аханы
ахара
ахархәагақәа
ахархәара
ахархәаразы
ахатә
ахатәы
ахашәала
ахақәиҭра
ахаҭа
ахаҭарнак
ахаҭарнакцәа
ахаҳә
ахаҳәтә
ахаҳәқәа
ахаҳәҟьаԥс
ахаҵа
ахеилак
ахкы
ахкқәа
ахорв
ахорватцәеи
ахра
ахшара
ахшыҩ
ахшыҩрҵара
ахшыҩрҵаратә
ахы
ахыб
ахыбра
ахыжәжәарақәа
ахылаԥшра
ахымҩаԥгашьа
ахыргьагьатә
ахыркәшаратә
ахырхарҭа
ахырхарҭақәа
ахырхарҭаҟны
ахықәкы
ахыҵхырҭақәа
ахыԥхьаӡара
ахь
ахьаа
ахьрымоу
ахьтәаҿа
ахьтәы
ахьчара
ахьчаразы
ахьчареи
ахьынхо
ахьыҟоу
ахьыӡ
ахьыԥшымра
ахьӡ
ахьӡала
ахьӡқәа
ахҭысқәа
ахҵәацәа
ахәаахәҭратә
ахәаԥшра
ахәбатәи
ахәрақәа
ахәри
ахәшьара
ахәы
ахәыҷтәы
ахәыҷы
ахәыҷқәа
ахәыҷқәеи
ахәҭа
ахәҭак
ахәҭақәа
ахәҭаҷ
ахәҭаҷқәа
ахәҭаҿы
ахԥа
ахԥатәи
ацентр
ацентртә
ацивилизациақәа
ацуҭа
ацхыраара
ацқьа
ацҳа
ацҳаражәҳәаҩ
ацҳаражәҳәаҩцәа
ацәа
ацәаҳәа
ацәеижь
ацәеижьқәа
ацәырҵра
ацәырҵрақәа
ачба
ачемпион
ачех
ачечен
ачымазара
ачымазарақәа
ачҳара
ашаблон
ашвед
ашкол
ашколқәа
аштаб
аштат
аштатқәа
аштатқәеи
ашықәс
ашықәсан
ашықәсқәа
ашьапы
ашьапылампыл
ашьапылампылтә
ашьауӷатә
ашьақәгылара
ашьақәыргылара
ашьақәыргыларазы
ашьаҭа
ашьаҭаркҩы
ашьаҭақәа
ашьха
ашьхараҿ
ашьхаруаа
ашьхарыуаа
ашьхақәа
ашьхаҿ
ашьыжь
ашьҭахь
ашьҭахьтәи
ашьҭра
ашьҭреиҵа
ашьҭыхра
ашҟа
ашә
ашәа
ашәага
ашәарҭадара
ашәарҭадаратә
ашәарҭадареи
ашәарҭара
ашәаҳәаҩ
ашәба
ашәыр
ашәырҵла
ашәышықәса
ашәышықәсазы
ашәышықәсақәа
ашәышықәсқәа
ашәҟәы
ашәҟәыҩҩцәа
ашәҟәыҩҩцәеи
ашәҟәыҩҩы
ашәҟәқәа
ашәҟәҭыжьырҭа
ашәҭқәа
аџь
аџьа
аџьаз
аџьар
аџьари
аџьармыкьатә
аџьатә
аџьба
аџьынџьтәылатә
аџьынџьтәылатәи
ақ
ақалақь
ақалақьтә
ақалақьқәа
ақалақьқәеи
ақарҭвел
ақыртуа
ақырҭ
ақырҭуа
ақырҭуаа
ақырҭуеи
ақырҭқәа
ақыҭа
ақыҭан
ақыҭанхамҩа
ақыҭанхамҩатә
ақыҭақәа
ақьырсианра
ақьырсианратә
ақьырсианреи
ақьырсиантә
ақьырсианцәа
ақәа
ақәгылара
ақәгыларақәа
ақәранҵыра
ақәымчра
ақәымчымра
ақәҩыра
ақәҵара
ақәҵарақәа
ақәӡара
ақәԥара
аҟабарда
аҟаз
аҟазаара
аҟазара
аҟалара
аҟамзаара
аҟара
аҟаҵара
аҟаҵаразы
аҟны
аҟнытә
аҟуа
аҟынтә
аҟынтәи
аҟынӡа
аҟәа
аҟәатәи
аҟәаҟа
аҟәша
аҟәшақәа
аҟәырӷ
аҧсны
аҩ
аҩада
аҩадатәи
аҩажәатәи
аҩаӡара
аҩбатәи
аҩналарҭа
аҩнуҵҟа
аҩнуҵҟала
аҩнуҵҟатәи
аҩны
аҩныҵҟа
аҩныҵҟатәи
аҩхаа
аҩыза
аҩымҭақәа
аҩыра
аҩыратә
аҩырацқьа
аҩырақәа
аҩӡба
аҩӡԥҳа
аҭаацәара
аҭаацәаратә
аҭаацәарақәа
аҭагылазаашьа
аҭагылазаашьақәа
аҭагылазаашьеи
аҭак
аҭакзыԥхықәу
аҭакԥхықәра
аҭаны
аҭара
аҭаразы
аҭахны
аҭахуп
аҭоурых
аҭоурыхдырҩы
аҭоурыхи
аҭоурыхтә
аҭоурыхқәа
аҭоурыхҭҵааҩ
аҭоурыхҭҵааҩцәа
аҭыжьра
аҭынхара
аҭынч
аҭынчра
аҭынчратә
аҭыр
аҭырқәа
аҭырқәцәа
аҭыԥ
аҭыԥан
аҭыԥантәи
аҭыԥаҿы
аҭыԥқәа
аҭҵаара
аҭҵаарадырратә
аҭҵаарадыррақәа
аҭҵааратә
аҭҵаарақәа
аҭҵаараҿы
аҭҵааҩцәа
аҭӡамц
аҭӡамцқәа
аҳ
аҳабла
аҳаракыра
аҳасаб
аҳасабала
аҳауа
аҳаш
аҳашба
аҳаши
аҳаштә
аҳаҭыр
аҳаҭыртә
аҳмаҭбеи
аҳра
аҳцәа
аҳҭны
аҳҭнықалақь
аҳҭнықалақьқәа
аҳҭынра
аҳәаа
аҳәаанырцә
аҳәаанырцәтәи
аҳәаақәа
аҳәамҭа
аҳәара
аҳәса
аҳәсеи
аҳәынҭқар
аҳәынҭқарра
аҳәынҭқаррабжьаратә
аҳәынҭқарратә
аҳәынҭқарратәи
аҳәынҭқаррақәа
аҳәынҭқаррақәеи
аҳәынҭқарраҿы
аҳәынҭқарреи
аҳәынҭҟарратә
аҵак
аҵакы
аҵакырадгьыл
аҵакырадгьылтә
аҵакырадгьылқәа
аҵанакоит
аҵанакра
аҵанакы
аҵара
аҵарадырра
аҵарадырратә
аҵарадырреи
аҵаратә
аҵарауаа
аҵарауаҩ
аҵареи
аҵарҩит
аҵарҭышагара
аҵаулара
аҵаҟа
аҵиаа
аҵиаақәа
аҵиаақәеи
аҵла
аҵх
аҵысра
аҵысрақәа
аҵыхәтәан
аҵыхәтәантәи
аҵыхәтәаны
аҵәахырҭатә
аҷандара
аҷкәын
аҷыдарақәа
аҽазнык
аҽаҩра
аҽны
аҽы
аҿа
аҿагылара
аҿагыларазы
аҿар
аҿари
аҿаԥхьа
аҿгьы
аҿиара
аҿиараҿы
аҿиареи
аҿы
аҿырԥштәқәа
аҿҳәара
аӡбамҭа
аӡбамҭақәа
аӡбара
аӡбаратә
аӡбахә
аӡбаҩцәа
аӡиа
аӡиас
аӡиасқәа
аӡы
аӡын
аӡынтәи
аӡқәа
аӡҩыбжьа
аӡә
аӡәгьы
аӡәы
аӡәырҩы
аӷарра
аӷарцәа
аԥа
аԥааимбар
аԥара
аԥарақәа
аԥенџьыр
аԥенџьырқәа
аԥиҵеит
аԥра
аԥс
аԥсабара
аԥсабаратә
аԥсадгьыл
аԥсахра
аԥсахразы
аԥсни
аԥсны
аԥсныжәлар
аԥснытәи
аԥсныҟа
аԥстәқәа
аԥстәқәеи
аԥсуа
аԥсуаа
аԥсуара
аԥсуаҭҵааратә
аԥсуеи
аԥсха
аԥсшәа
аԥсы
аԥсылманцәа
аԥсышәала
аԥсыӡқуа
аԥсҭазаара
аԥсҭазааразы
аԥсҭазаареи
аԥхын
аԥхынтәи
аԥхьа
аԥхьатәи
аԥхьаҟа
аԥша
аԥшаара
аԥшаҳәа
аԥшра
аԥштәы
аԥшшәы
аԥшьбатәи
аԥыжәара
аԥыз
аԥыза
аԥыхра
аԥыхын
аԥышәа
аԥҟарақәа
аԥҟаԥҵәа
аԥҳәыс
аԥҵан
аԥҵара
аԥҵаразы
аԥҵареи
аԥҵаҩы
б
ба
бааԥс
багаԥшь
баграт
баирам
балкантәи
бангладеш
банк
банкқәа
барселона
барцыц
басла
баслатәи
баслахә
бахреин
баша
баҟа
баҟақәа
баҭым
баҭымтәи
баҳреин
баҳча
бгажба
бганба
бебиа
бедиа
бедиатәи
беи
беигәаа
беларусь
белла
белоруссиа
бельгиа
бен
бениа
берлин
беслан
бжаниа
бжь
бжьаратә
бжьба
бжьоуп
бжьы
бжьыҭирала
бзи
бзиа
бзианы
бзыб
бзыԥ
бзыԥтәи
би
библиотека
бигуаа
бизнес
биография
биологиа
боливиа
большая
борис
босниа
босниатәи
босниеи
бр
бразилиа
британиа
британиаду
британиатәи
брунеи
буркина
бутан
бутба
быжь
быжьба
быжьшәи
быжьшәы
бызшәа
бызшәала
бызшәас
бызшәақәа
бызшәеи
был
была
было
бырз
бырзентәи
бырзентәыла
быҭәба
бџьар
бџьарла
бҵ
бӷажәба
в
ва
вадим
валентин
валери
валерии
ван
вануату
васили
васильевич
ватикан
вахтанг
вашингтон
вгуст
век
века
великобритании
вена
венатәи
венгриа
венесуела
венециа
верде
верховного
весна
вестник
виачеслав
виетнам
византиатәи
виктор
виссарион
витали
виталии
вице
владение
владимир
владимирович
владислав
внешняя
во
вои
володимир
вольфганг
вопросы
восемь
воспоминания
время
всеволод
входит
выбор
вып
г
га
гагра
гагратәи
гагәылиа
газета
гаи
гал
галатозҭухуцеси
гамбиа
гампер
ган
гана
ганахьала
ганди
ганкахьала
ганы
ганҭиади
гватемала
гвинеиа
гг
гевара
геннади
географиатә
георгиевич
георгии
герб
герзмава
герман
германиа
германиатәи
германиеи
германии
герцеговинеи
гимн
гипперт
гкое
гл
главныи
го
гог
гогәуа
год
года
году
голль
голосовали
гондурас
гонконг
горбаче
горки
города
городов
городская
городских
городского
городскои
государств
государственнои
гр
григол
григори
григориани
григориантәи
гринпис
грозныи
грузии
группа
гудава
гудаватәи
гулиа
гургениӡе
густав
гыл
гылоуп
гыртәыла
гыцба
гь
гьаргь
гьы
гә
гәаанагарак
гәабзиарахьчара
гәакьа
гәакьаҿ
гәар
гәдоуҭа
гәдоуҭатәи
гәлиа
гәмба
гәылрыԥшь
гәылрыԥшьтәи
гәымсҭа
гәында
гәыргәлиа
гәыԥ
гәыԥк
гәыԥкны
гәыԥқәа
гәыԥҩык
д
да
даанахәоит
даара
даараӡа
давид
дадиани
дал
далагеит
далагоит
далалеит
далалоит
далан
далахәын
далгеит
далгоит
далхын
далырхуеит
далҵаанӡа
далҵит
далҵуеит
даман
дамоуп
даналга
даналҵ
даниа
даниил
даныҟаз
дара
дарбанзаалак
даргьы
даредактор
дареи
даур
дахантәаҩуп
дахысуан
дацхраауеит
дашьҭан
даҭааит
даҽа
даҽазныкгьы
даҽакала
дгьыл
де
дебс
девид
деи
деиҳабын
дека
декабря
дели
демократиа
демократиатә
демократического
денис
день
депутатс
дж
джапуа
джонуа
джопуа
джуп
дзидзария
ди
диаган
диал
диалект
диаспора
диасуеит
диграф
диит
дин
диоген
директор
директорс
дихазургатәи
для
дмитри
дмитрии
днеит
до
доллар
дорога
достоевски
досу
дравторуп
драматә
дранда
драндатәи
дреиуан
дреиуоуп
дрылахәын
дрыцхраауан
дрыԥхьон
ду
дуи
дук
дунеи
дуны
дуу
дуун
дууп
дуқәа
дуӡӡа
дуӡӡоуп
дхынҳәуеит
дцеит
дцоит
дцәырҵит
дыи
дынхон
дыргылеит
дыркандидатуп
дырмит
дырр
дырра
дыррақәа
дыруаӡәкуп
дыруаӡәкын
дырҭаауан
дыҟ
дыҟан
дыҟоуп
дыԥсит
дыԥхьаӡоуп
дҟ
дҟалеит
дҟалоит
дҟарҵеит
дҟаҵан
дҭаацәароуп
дҭалеит
дҭалоит
дҭан
дҭахеит
дәрыԥшь
дәы
е
еаа
евдокиа
евроеидгыла
европ
европа
европатәи
европаҟны
европаҿы
европеи
европеитә
египет
его
егры
егь
егьа
егьи
егьырҭ
егьырҭгьы
единицу
едуард
еи
еибашьра
еибашьраан
еибашьраҿы
еидгыла
еиднакылоит
еиду
еидуп
еидызкыло
еизара
еизга
еизенхауер
еизыҟазаашьақәа
еил
еилазаара
еилазаарақәа
еилакы
еиуеиԥшым
еицырдыруа
еицырдыруаз
еицырзеиԥшу
еиқәа
еиқәаҵәа
еиҟарамра
еиҟароу
еиҭа
еиҭакрақәа
еиҭах
еиҳа
еиҳабыс
еиҳагьы
еиҳарак
еиҳаракгьы
еиҳараӡак
еиҳау
еиҳауп
еиҳаӡоу
еиҵыху
еиҿкаан
еиҿкаара
еиҿкаарақәа
еиҿкаарақәеи
еиҿкаароуп
еиԥш
еиԥшым
екатерина
економика
економикатә
елена
елыр
ель
енд
еныкь
епос
ерик
ермантәыла
ес
есааира
есватини
еснагь
еснагьтәи
есть
есышықәса
есышықәсатәи
етникатә
ефиопиа
ефрем
ешыра
ж
жан
жанна
жв
же
железная
женева
жизни
жизнь
жуанисӡе
журналист
жьа
жьырныҳәамза
жьҭаара
жьҭаарамза
жә
жәа
жәаа
жәаба
жәабра
жәабран
жәабранмза
жәандрыԥшь
жәар
жәаф
жәаха
жәашықәса
жәаҩа
жәаҳәарада
жәба
жәе
жәеиза
жәи
жәибжь
жәиԥшь
жәл
жәлар
жәларбжьаратә
жәларбжьаратәи
жәларык
жәларқәа
жәо
жәохә
жәпакы
жәшәи
жәшәы
жәыргьыҭ
з
за
заа
заатәи
закрыта
закәан
закәанла
зал
залшом
заморская
заморскии
заморское
зантария
занҭариа
запланировано
зауз
заур
захьӡу
захьӡыз
заҵәык
згә
згәы
зда
зе
зегь
зегьы
зеижә
зеиԥшроу
зеленськии
земля
ззырхаз
ззырҳәо
зин
зинтә
зку
злахәу
злахәыз
злоу
змаз
змам
змамыз
змоу
знапы
зну
зны
зныз
знык
зныкгьы
зуа
зуаз
зур
зураб
зхала
зху
зхы
зхыу
зхыҵуа
зхыҵуаз
зшәу
зы
зыда
зызу
зылшо
зымҽхак
зынла
зынӡа
зынӡагьы
зыхьӡ
зыхҟьаз
зыхҟьо
зыхәба
зықьҩыла
зыӡбахә
зыӡбахәы
зыԥсы
зыԥшра
зқьы
зҭаху
зҵазкуа
зҽаԥсазтәыз
и
иа
иаагозар
иаагоу
иаагоуп
иааз
иаазыркьаҿны
иааизакны
иааит
иаанаго
иаанагоз
иаанагоит
иаанагон
иаанханы
иаанхеит
иаанхоит
иааргеит
иааркьаҿны
иаарласны
иаартны
иаарту
иаарԥшу
иаарԥшуп
иаауеит
иаб
иабзоураны
иагеит
иагәылоуп
иадгылоз
иаднакылоит
иадырхәо
иадырхәоит
иадырхәон
иадҳәалаз
иадҳәалоу
иадҳәалоуп
иажәақәа
иажәеинраала
иажәеинраалақәа
иажәхьоу
иазгәарҭоит
иазгәарҭон
иазгәаҭан
иазгәаҭатәуп
иазгәаҭоуп
иазгәеиҭеит
иазкны
иазку
иазкуп
иазкыз
иазхаҵам
иазхаҵоу
иазырхаз
иаков
иаку
иакымкәа
иакәзар
иалагеит
иалагоит
иалагӡаны
иалаз
иалалеит
иаланхо
иалахәу
иалахәуп
иалахәыз
иалахәын
иалкаау
иалоу
иалоуп
иалхра
иалхрақәа
иалху
иалхуп
иалшоит
иалыркаауеит
иамаз
иаман
иамоу
иамоуп
иан
ианалага
ианашьан
ианашьоуп
ианва
иану
иануп
ианыԥшуеит
иап
иапониа
иапонтә
иара
иаразнак
иарбан
иарбанзаалак
иарбанызаалак
иарбоу
иарбоуп
иареи
иарослав
иархәаны
иаса
иатәу
иауакуп
иахагылаз
иахь
иахьа
иахьагьы
иахьазы
иахьанӡа
иахьанӡагьы
иахьатәи
иахьаҵанакуа
иахьынхо
иахьыҟоу
иахьӡуп
иахҟьаны
иахәаԥшуеит
иахәҭоу
иацхраауеит
иацәыхараны
иашара
иашьа
иашьцәа
иашьҭан
иашьҭоуп
иақәиҭу
иаҭаны
иаҭәашьоуп
иаҳа
иаҳасаб
иаҳасабала
иаҳҭнықалақьуп
иаҳҭнықалақьыуп
иаҳҳәап
иаҳҳәозар
иаҵанакуа
иаҵанакуаз
иаҵанакуан
иаҵанакуеит
иаҵанакәа
иаҵанакәеит
иаҵоит
иаҵәа
иаҿагыланы
иаҿагылоз
иаҿын
иаӡбоит
иаԥиҵаз
иаԥиҵеит
иаԥҵан
ибаҩхатәра
ибеит
ибзианы
ибзоурала
ибон
ибрагим
ив
иван
иванович
игор
игоу
игылан
игылоуп
игәаанагара
игәаанагарала
игәабзиара
игәы
идеи
идеиақәа
идея
идуу
идыррақәа
идыру
идҵа
иеицырдыруа
иеиҭамҵуа
иеиҭеигеит
иеиҳәеит
иеиԥш
иеиԥшуп
иемен
иерусалим
ижә
ижәлар
ижәытәӡоу
из
иза
изанааҭ
избанзар
избо
избран
изд
издательство
изиаслав
изин
изинмчхарақәа
изинқәа
изинқәеи
изку
изларҳәо
измаз
измоу
изначально
изну
изныкымкәа
израиль
израильтәи
изы
изызҳауа
изышьҭаз
изышьҭоу
изыҟалом
ииасуеит
ииашаны
ииашоу
ииаҵәоу
икандидатура
икьасоу
икьыԥхьу
илагала
или
илиа
илшеит
илшоит
илшон
имаз
имам
иман
иманы
имаҵура
имаҷу
имгакәа
имени
имереҭи
имеющих
имлашьуа
имоуп
империи
имчра
имҩаԥгаз
имҩаԥган
имҩаԥигон
имҩаԥнагоз
имҩаԥнагоит
имҩаԥыргоз
имҩаԥыргон
имҩаԥысит
имҩаԥысуа
имҩаԥысуаз
имҩаԥысуан
имҩаԥысыз
ин
инадыркны
инал
иналаҵаны
иналукааша
инамаданы
инапаҵаҟа
инапаҿы
инапхгарала
инапы
инареиҳаны
инарзынаԥшуа
инаркны
инаркы
инарываргыланы
инарықәыршәаны
инарҭбаау
инарҵауланы
инаукатә
инақәыршәаны
инаӡоит
индиа
индиаа
индиатәи
индо
индонезиа
инеиԥынкыланы
инк
инрықәыршәаны
институт
интервью
интересқәа
интернет
информациа
информациатә
инхаз
инхо
инхоз
инхоит
инхон
иоанн
ион
иорданиа
иорк
иосиф
иост
иоуеит
иоуз
иоуит
иоуп
ипоезиатә
ипремиа
ир
иракли
иран
ирацәаны
ирацәоуп
иргылан
иргыланы
иргылеит
иргылоуп
ирдыруеит
иреиоуп
иреиуан
иреиуоуп
иреиҳазоу
иреиҳаны
иреиҳау
иреиҳауп
иреиҳаӡоу
иреиҵоу
иреиӷьу
иреиӷьыз
ирзеиԥшу
ирландиа
ирлас
ирласны
ирну
ирод
иртәу
ируакуп
ирыбзоураны
ирыдыркылаз
ирыдыркылеит
ирыдҳәалоу
ирызкны
ирызку
ирызкыз
ирызҳауеит
ирылагеит
ирылагӡаны
ирылаҳәан
ирылоу
ирылхны
ирылшоит
ирымаз
ирыман
ирымоу
ирымоуп
ирыхҟьаны
ирышьҭоуп
ирықәгылоуп
ирыҵанакуа
ирыҵанакәа
ирыҵанакәеит
ирыҵаркуа
ирыԥхьаӡоит
ирыԥхьаӡон
ирҭагӡаны
ирҳәоит
ирҿагыланы
ирҿыцны
исахьа
искандер
искусство
испаниа
испаниатәи
исследовании
истории
история
ит
италиа
италиатәи
итеориа
иу
иуа
иуадаҩу
иуадаҩыз
иуан
иубарҭоуп
иугославиа
иугославиатәи
иудофобиа
иуеит
иузаҟәымҭхо
иулиа
иулиани
иулиантәи
иулии
иунаитед
иунеско
иунисеф
иури
иусумҭа
иусумҭақәа
иусура
иусқәа
иуџьин
иуҳәозар
иуԥыло
иуԥылоит
их
ихаан
ихадароу
ихадоу
ихала
ихалхно
ихатә
ихаҭа
ихаҭыԥуаҩ
ихаҭыԥуаҩс
ихаҭыԥуаҩыс
ихигеит
ихы
ихыбуп
ихыу
ихьз
ихьчеит
ихьшәаны
ихьыԥшу
ихьыԥшым
ихьӡ
ихьӡала
ихҵан
ицеит
ицоз
ицоит
ицон
ицәажәо
ицәажәоит
ицәырҵит
ицәырҵуа
ицәырҵуеит
ицәырҵыз
ичын
ишазгәарҭо
ишаҳәо
ишиашоу
ишоит
ишоуп
ишубарҭоу
ишыҟаз
ишыҟоу
ишь
ишьақәгылаз
ишьақәгылеит
ишьақәгылоу
ишьақәгылоуп
ишьақәнаргылеит
ишьақәнаргылоит
ишьақәнарӷәӷәоит
ишьақәыргылан
ишьақәыргылоу
ишьақәырӷәӷәан
ишьра
ишьҭан
ишьҭоуп
ишәҟәы
июля
июня
иџьабаа
иқыҭа
иқыҭаҿтәи
иқәгылара
иқәгылоуп
иқәынхо
иқәырҵоит
иҟ
иҟаз
иҟазаара
иҟазшьа
иҟаиҵаз
иҟаиҵеит
иҟалаз
иҟалеит
иҟалоит
иҟам
иҟан
иҟанаҵаз
иҟаҵаз
иҟаҵаны
иҟаҵоу
иҟаҵоуп
иҟны
иҟоу
иҟоуп
иҩит
иҩны
иҩуан
иҩыз
иҩыза
иҩымҭа
иҩымҭақәа
иҭаацәа
иҭахеит
иҭахын
иҭоу
иҭоуп
иҭышәынтәалоу
иҭыҵуаз
иҭыҵыз
иҭыԥ
иҳараку
иҳәан
иҳәатәуп
иҳәеи
иҳәеит
иҳәоит
иҳәса
иҵ
иҵара
иҵоит
иҵон
иҷкәын
иҷыдоу
иҿаԥхьа
иҿы
иҿыцу
иӡбахә
иӡбахәы
иӡбеит
иӷару
иӷәӷәаз
иӷәӷәоу
иԥа
иԥеиԥа
иԥсабаратәу
иԥсабаратәым
иԥсадгьыл
иԥсра
иԥсы
иԥсҭазаара
иԥхьаӡан
иԥхьаӡон
иԥхьаӡоуп
иԥшьоу
иԥшқоу
иԥҳа
иԥҳәыс
к
кабо
кавказ
кавказаа
кавказскии
кавказтәи
каддафи
каи
как
калдахәара
камшьышь
канада
канадеи
кандидатом
кандидатс
кант
капба
карибтәи
карл
касланӡиа
категории
кафка
кв
квициния
кембриџь
киев
килограмм
кипр
кириллтәи
китаи
китаиаа
китаитәи
киут
класск
клуб
км
кн
кны
когда
колея
колумбиа
комиссиа
комитет
компаниа
комплекс
конго
конная
конныи
константин
константинович
кореиа
кос
косово
коста
кот
коӷониа
краснодар
кризис
кристина
кролик
крызҵазкәа
кувеит
культет
культура
культуратә
культуреи
культуры
куправа
курсқәа
кындыӷ
кыр
кьалашәыр
кьаҿк
кьыршьал
кә
кәарҷиа
кәаӷәаниа
кәтол
кәтолтәи
кәыдры
кәыдрытәи
кәыҵниа
л
ла
лабахәуа
лагалақәа
лазар
лакоба
лакрба
ламшьаҵә
ланка
лара
лариса
лас
лассы
ласуриа
латинтәи
лаша
лашә
лашәриа
лаҵара
лаҵарамза
лаҵарамзазы
лгеит
ле
лев
леван
леик
леит
ленин
леннон
леон
леонардо
леоне
леонид
лесото
лет
летию
леуарса
ли
либериа
ливиа
лига
линии
линия
лирика
литература
литературы
лка
лович
ломиа
ломоносов
лондан
лондон
лос
лоуп
лрт
луан
луахәама
лука
луции
лымкаала
лыхны
лыхнытәи
лыхьӡала
лыԥсҭазаара
ль
лӡаа
м
ма
мааҭ
мавританиа
мадонна
маи
македониа
макьана
малави
мали
мамзаргьы
манча
манчестер
мап
мари
марина
марк
маркәыла
марокко
март
марта
мартиника
маршрут
маршрутқәа
маршьан
материалы
мацара
мацароуп
мая
маҵзура
маҵзурақәа
маҷ
маҷқәа
маӡа
маӡала
мгәыӡырхәа
ме
медведев
международные
международныи
мент
мераб
метр
метрак
метро
метрополитен
метрополитена
метротрам
мз
мза
мзазы
мзақәа
мзызқәа
милаҭ
милаҭла
милаҭтә
миллиард
миллион
миллионк
миллионҩык
министр
министров
министрс
минск
мир
мира
мире
митра
миунхен
миурдаль
михаи
михаил
млакра
млн
мм
молдова
монако
монастырь
море
моря
москва
москватәи
москваҟа
мохаммед
моцарт
мрагылара
мрагыларатә
мрагыларатәи
мрагыларахьала
мрагылараҿы
мраҭашәара
мраҭашәарантә
мраҭашәаратә
мраҭашәаратәи
мраҭашәараҿы
мстислав
мсыгәхәа
музеи
мушни
мушьни
мцхеҭа
мчра
мчрақәа
мчы
мчыла
мчылатәи
мчқәа
мшаԥы
мшаԥымза
мшы
мшын
мы
мыкәша
мысра
мысратәи
мықә
мықәтәи
мюрдаль
мя
мҩа
мҩаԥигеит
мҩаԥигон
мҩаԥыргоит
мҩаԥысит
мҩаԥысуан
мҩаԥысуеит
мҭ
н
на
название
наземныи
наигӡоит
налаҵаны
намибиа
нанҳәа
нанҳәамза
наполеон
напхгара
напхгараҭара
народа
нарҭ
нарҭаа
нас
насгьы
населения
нато
наука
наукақәа
нахыс
национальныи
ная
наҟ
наԥхгара
наԥшыҩцәа
нбан
нг
не
недерланд
нелли
неприсоедине
неру
нестор
ни
нигериа
никита
николаи
николоз
никәала
нино
ниу
нк
нная
но
нобель
нобельтәи
новгород
ноиа
норвегиа
нормақәа
ноября
нтә
нтәи
ну
нугзар
нури
нхамҩа
нхара
нхыҵ
нцә
ны
нызықьҩык
нызқь
нызқьҩык
ныне
ных
ныҟәг
нью
нҳәа
нӡ
нӡа
о
об
областного
обсе
обслуживает
общии
объединении
одышь
одышьтәи
озган
округ
округи
округқәа
округқәеи
октавиан
октябрь
октября
олег
олимпиадатә
оман
омар
он
онлаин
оон
операциақәа
орган
оркестр
осло
османтәи
остров
острова
островов
от
открыт
открыта
открытие
открыть
отнесении
оу
оуп
официалла
официалтә
официальное
официальныи
очамчыра
очамчыратәи
очерки
оқтиа
оҭҳара
оӷлы
п
павел
пакистан
палата
памяти
папасқьыр
париж
паровая
партиа
партиақәа
пату
паулу
педагогтә
пер
первыи
переписи
период
перу
петербург
пиаф
пиленково
пиотр
пиплмувер
пицунда
пицундатәи
планировалось
планируется
платон
по
погосов
под
подземная
подземные
подземныи
подчинения
поезиа
поет
политик
политика
политикатә
политикеи
полностью
полша
поль
польша
пор
портал
порту
посе
после
последнии
постановление
правит
правовои
прага
президент
президента
президентов
президентс
президенты
премиа
премьер
при
принципқәа
прицкер
проверено
провинциақәа
проект
проектируется
проектқәа
процент
процентк
процесс
процессы
процессқәа
путеводитель
путин
пхг
пя
р
ра
раан
раанкылара
раасҭа
раахыс
раи
ракадемиа
ракзаара
ракәзар
ракәын
рамзар
ран
ранее
рартист
ратә
ратәамбара
рауль
рахь
рахьтә
рацәа
рацәак
рацәала
рацәаны
рацәоуп
рашид
рашәара
рашәарамза
раҟара
раҳ
раҳасаб
раҳра
раԥхьа
раԥхьатәи
раԥхьаӡа
раԥхьаӡатәи
раԥҵара
раԥҵаразы
рбага
рбагоуп
рбиологиа
рбызшәа
рганахь
ргеографиатә
ргоит
ргыламҭоуп
ргь
ргәаанагара
ргәаанагарала
ргәабзиара
ргәы
ргәыԥ
рдепартамент
рдиаспора
рдоктор
рдунеихәаԥшышьа
револиуциатә
революции
регион
регионқәа
ред
реи
реидгыла
реидыслара
реизара
реизарахь
реизараҿы
реизареи
реизга
реизыҟазаашьақәа
реилазаара
реиқәыршәара
реиҳа
реиҳабы
реиҳарак
реиҳараҩык
реиҿагылара
реиҿкаара
реиԥш
река
рекологиа
репос
република
республика
республикақәа
республики
реформақәа
ржәар
рзеиԥш
рзинқәа
рзтәи
рзура
рзутәуп
рзы
рзын
ри
рика
рим
римтәи
ринститут
рио
риурик
ркандидат
ркны
ркультура
ркультуратә
рл
рмаҵура
рмилаҭ
рмилаҭтә
рминистр
рминистрра
рминистрраҿы
рминистрс
рнапаҿы
рнапы
рнаҩс
рнаҭоит
рного
роберт
рок
ролл
роман
романов
россии
россия
ростислав
роуит
роуп
рпантеон
рпартиа
рпоезиа
рпоет
рполитикатә
рпрезидент
рпрезидентс
рр
рреспублика
рсериа
рсиа
рсистема
рсфср
рт
рти
ртә
ртәарҭа
ртәы
ртәыла
руак
руакы
руан
руеит
рус
русбарҭа
русскои
русура
русқәа
русҭавели
рфакультет
рфорум
рфрагментқәа
рхада
рхадацәа
рхала
рхан
рхархәара
рхархәаразы
рхатә
рхатәы
рхаҭарнакцәа
рхаҭақәа
рхеилак
рхи
рхы
рхымҩаԥгашьа
рхыԥхьаӡара
ршоит
рыбжьара
рыбжьы
рыбзоурала
рыгәҭа
рыдагьы
рыдкылара
рыдыркылеит
рыдыркылоит
рыжәла
рыжәлар
рызҵаарақәа
рыла
рылшеит
рымазар
рыман
рыманы
рымаҵ
рымоуп
рымч
рымҩаԥгара
рымҩаԥгаразы
рынагӡара
рынхоит
рыр
рырҭон
рыхшыҩрҵаратә
рыхьчара
рыхьӡынҵа
рыхә
рыхәҭак
рыцнауеит
рышкол
рышьақәыргылара
рышьақәыргыларазы
рышьҭахь
рышьҭра
рышәҟәы
рықәгылара
рыҟазаара
рыҟаҵара
рыҟны
рыҟәша
рыҩнуҵҟа
рыҩныҵҟа
рыҩхәҭак
рыҭара
рыҿиара
рыӡбара
рыӡбахә
рыԥсҭазаара
рыԥхьаӡоит
рыԥхьаӡон
рқәӡааит
рҟны
рҟынгьы
рҟынтә
рҟынтәи
рҟынӡа
рҭ
рҭаацәара
рҭагылазаашьа
рҭоурых
рҭоурыхтә
рҳәаа
рҳәаақәа
рҳәамҭақәа
рҳәоит
рҵакырадгьылқәа
рҵара
рҵаҩыс
рҿаԥхьа
рҿаԥыц
рҿгьы
рҿиамҭа
рҿиамҭақәа
рҿы
рԥа
с
саба
саи
саид
саида
саит
сам
самоучитель
самсон
самырзаҟан
самҭавро
сан
сангәлиа
сандро
санкт
сара
сарион
сасрыҟәа
саудтәи
сахара
сахьаҭыхҩы
сачхере
саҭанеи
сбсе
свиатослав
сгәы
севастополь
северо
сектор
сент
сентиа
сентябрь
сентября
сербиа
сергеи
си
сиднеи
сиерра
символика
симон
симонян
систем
система
системы
сих
ская
ские
скии
скои
скоростнои
славиан
словарь
словениа
службы
см
смыр
со
совет
совета
советская
советтә
современная
соломин
сомали
сост
социалисттә
социалтә
сочи
спб
список
спутник
сср
ссср
ст
стандартную
станции
станция
статус
стокгольм
стр
стран
строится
судан
султан
сухум
сухуми
сша
сҭампыл
т
таи
таиф
так
также
тамшь
тамшьтәи
тарба
тб
тбилиси
те
театр
текстк
теориа
термин
терре
территориальную
территория
тетраграф
техникатә
техникум
технологиақәа
тиберии
тили
тит
тифлис
того
токио
том
томкны
торнау
традициақәа
трамваи
трамвая
транспорт
три
триграф
триполи
тунис
тяга
тҟәарчал
тҟәарчалтәи
тә
тәи
тәии
тәыла
тәылак
тәылақәа
тәылақәак
у
уа
уаа
уаанӡа
уаанӡатәи
уадаҩуп
уажәазы
уажәраанӡа
уажәраанӡагьы
уажәтәи
уажәы
уара
уасил
уатаԥ
уахь
уахәама
уахәамақәа
уахәамоуп
уахәаԥш
уахәаԥшуазар
уаҟа
уаҳа
уаҳәаԥш
уаԥстәыла
уб
убарҭ
убас
убасгьы
убасҟан
убри
убриаан
уганда
уи
уигьы
уильиам
указ
укр
украина
университет
уп
уппсала
уругваи
урыс
урыстәыла
урыстәылатәи
урыстәылеи
урысшәала
урҭ
ус
усбарҭа
усбарҭақәа
усбарҭақәеи
усзуҩ
усзуҩцәа
усзуҩцәеи
усзуҩы
усумҭақәа
усура
усурақәа
усқәа
усҟак
усҟан
усҟантәи
участок
училишьче
уҳәа
уҳәар
уԥылоит
ф
факультет
фанон
фба
фе
февра
февраль
февраля
федерации
феодор
феодосии
философ
фильм
фин
финлиандиа
фольклор
фонд
форма
фото
франц
франциа
франциатәи
франциеи
франции
францыз
фундаментализм
фуникуле
функциақәа
фымца
фымцазы
фышә
фышәи
х
ха
хада
хаданы
хадара
хадас
хадақәа
хадеи
хадоуп
хаз
хазы
хамелеон
хантәаҩыс
хара
хархәагақәа
хатәгәаԥхарала
хашба
хақәиҭра
хақәиҭратә
хаҭала
хаҿқәа
хдырра
хеил
хеилак
хеит
хельсинки
хибла
хкы
хкык
хкқәа
хокерба
хорватиа
хот
хра
хх
хшыҩрҵара
хыбрақәа
хыгә
хылаԥшра
хылҵшьҭра
хымԥада
хынҩажәа
хынҩажәи
хырхарҭак
хырхарҭақәа
хыс
хыхь
хыхьтәи
хышықәса
хышәи
хықәкыла
хықәкыс
хыҵхырҭақәа
хыԥхьаӡара
хь
хьтәы
хьыӡқәа
хьӡы
хьӡыс
хҩык
хҭысқәа
хә
хәа
хәажәкы
хәажәкыра
хәажәкырамза
хәаԥ
хәаԥтәи
хәба
хәмарра
хәмаррақәа
хәшә
хәшәи
хәы
хәыл
хәынтә
хәыр
хәыҷы
хәыҷқәа
хәҭакала
хәҭакны
хԥа
ц
цандрыԥшь
царство
цацыԥхьаӡа
цвижба
цезар
центр
ци
цк
цхыраара
цыганков
цыгәба
цқь
цқьа
цә
цәа
цәаҳәа
цәаҳәак
цәгьоуп
цәыббра
цәыббрамза
цәырҵит
цәырҵрақәа
цәырҵуеит
ч
чад
часов
часть
чачба
чачхалиа
че
чехов
чили
чкадуа
чрыгба
что
чымазара
ш
шавров
шагиров
шакәу
шакәызгьы
шалва
шамба
шамил
шамиль
шамоу
шарлеруа
шарль
шаҟа
швеицариа
швециа
швециатәи
шекспир
шервашиӡе
шиқәсазы
школ
школқәа
шкәакәа
шоҭа
шри
штатқәа
шш
шыкәсазы
шықәс
шықәса
шықәсазтәи
шықәсазы
шықәсанӡа
шықәсатәи
шықәсақәа
шықәсык
шықәсқә
шықәсқәа
шь
шьалуа
шьамтәыла
шьақәгылоуп
шьақәзыргыло
шьақәнаргылоит
шьақәыргылан
шьаҭа
шьаҭас
шьоукы
шьынқәба
шьҭа
шьҭоуп
шә
шәантәыла
шәаны
шәарҭадара
шәача
шәи
шәкы
шәышықәса
шәҟәны
шәҟәы
шәҟәыҩҩы
шәҟәқәа
щ
щықәса
щықәсазы
ъ
ы
ыҟам
ыҟан
ыҟоуп
ь
э
эдит
экз
эксмо
электрификация
электрическая
электричка
энциклопедическии
энциклопедия
эрнесто
ю
южнои
юрии
я
является
язык
языка
языков
января
ђ
є
ѕ
і
ј
љ
њ
ћ
џ
џь
џьавахарлал
џьавахьишвили
џьапуа
џьар
џьара
џьаргьы
џьвари
џьгьарда
џьениа
џьибути
џьон
џьонуа
џьопуа
џьорџь
џьота
џьоукы
ѡ
ѣ
ѥ
ѧ
ѩ
ѫ
ѭ
ѯ
ѱ
ѳ
ѵ
ѻ
ѽ
ѿ
ҁ
ҋ
ҍ
ҏ
ґ
ғ
ҕ
җ
ҙ
қ
қалақь
қалақьқәа
қапба
қардаа
қарҭ
қарҭли
қарҭтәи
қырҭтәыл
қырҭтәыла
қырҭтәылатәи
қырҭтәылаҟны
қырҭтәылеи
қырҭу
қь
қьалышь
қьач
қьырса
қә
қәа
қәеи
қәҭешь
қәҿиарала
қәԥара
ҝ
ҟ
ҟа
ҟазара
ҟазахсҭан
ҟазшьа
ҟазҵаз
ҟазҵо
ҟаиҵеит
ҟалаанӡа
ҟалап
ҟалоит
ҟалом
ҟалон
ҟамҵакәа
ҟанаҵеит
ҟанаҵоит
ҟарҵеит
ҟаҵоуп
ҟаԥшь
ҟны
ҟрым
ҟә
ҟәланырхәа
ҟәша
ҡ
ң
ҥ
ҧ
ҩ
ҩа
ҩадатәи
ҩажәа
ҩажәи
ҩажәижәаба
ҩаԥхьа
ҩба
ҩбеи
ҩнызқь
ҩцә
ҩы
ҩык
ҩынтә
ҩынҩажәа
ҩынҩажәи
ҩыс
ҩышықәса
ҩышә
ҩышәи
ҩыџьа
ҫ
ҭ
ҭагалан
ҭагылазаашьа
ҭагылазаашьеи
ҭакԥхықәра
ҭарба
ҭауади
ҭеикит
ҭоу
ҭоурыхтә
ҭхьына
ҭызҵаауа
ҭынха
ҭынч
ҭырқтәыла
ҭырқәтәыла
ҭырқәтәылатәи
ҭырқәтәылеи
ҭыԥ
ҭыԥқәа
ҭҟәарчал
ҭҵ
ҭҵаарадыррақәа
ҭҵааратә
ҭҵаарақәа
ү
ұ
ҳ
ҳаамҭазтәи
ҳаамҭазы
ҳажәлар
ҳаньтәи
ҳара
ҳаразиа
ҳараку
ҳасаб
ҳасан
ҳашԥсы
ҳаџьымба
ҳаҭыр
ҳера
ҳр
ҳҭнықалақь
ҳә
ҳәа
ҳәарада
ҳәоу
ҳәоуп
ҳәынҭқ
ҳәынҭқарра
ҳәынҭқаррак
ҳәынҭқарран
ҳәынҭқарратә
ҳәынҭқаррақәа
ҳәынҭқарроуп
ҵ
ҵабал
ҵабалтәи
ҵакы
ҵакырадгьылк
ҵара
ҵарадырра
ҵарауаҩ
ҵаҟатәи
ҵиаа
ҵысра
ҵысрақәа
ҵәыџьба
ҷ
ҷанба
ҷкадуа
ҷлоу
ҷыда
ҷыдала
ҷыдалатәи
ҷыдарақәа
ҷыдақәа
ҷыҭанаа
ҹ
һ
ҽ
ҿ
ҿиара
ҿиареи
ҿкы
ҿы
ҿырԥштәыс
ҿыц
ҿыцқәа
ҿҳәарас
ӄ
ӆ
ӈ
ӊ
ӌ
ӎ
ӏ
ӕ
ә
ӡ
ӡа
ӡны
ӡы
ө
ӷ
ӷәада
ӷәӷәа
ӻ
ӽ
ӿ
ԁ
ԃ
ԅ
ԇ
ԉ
ԋ
ԍ
ԏ
ԑ
ԓ
ԕ
ԗ
ԙ
ԛ
ԝ
ԟ
ԡ
ԣ
ԥ
ԥаса
ԥасатәи
ԥақәашь
ԥс
ԥсахара
ԥсоу
ԥсыхәа
ԥсҭазаара
ԥсҳәы
ԥха
ԥхынгәы
ԥхынгәымза
ԥхынҷкәы
ԥхынҷкәын
ԥхынҷкәынмза
ԥхь
ԥхьатәара
ԥшр
ԥшь
ԥшьба
ԥшьынҩажәа
ԥшьынҩажәи
ԥшьышықәса
ԥшьышә
ԥшьышәи
ԥшьҩык
ԥышәа
ԥыҭраамҭак
ԥҳа
ԥҳәысс
ԧ
ԩ
ԫ
ԭ
ԯ
։
ְ
ִ
ֵ
ָ
ׂ
א
י
ל
ר
ש
ا
الجمهورية
العربية
ة
ج
جمهورية
د
ر
ع
م
ن
ه
ي
َ
ُ
ِ
ّ
ْ
ٔ
ٕ
भ
ा
ং
দ
ব
ল
শ
া
ে
্
ર
ા
க
ா
ி
ு
ை
்
ං
ක
ත
ර
ල
ශ
්
ා
ී
་
ག
ལ
ུ
ྲ
აფხაზეთი
აფხაზეთის
აფხაზეთში
აღწერა
ახალი
ახალშენის
ბ
ბაღმარანის
ბედიის
ბესლეთის
ბრძანებულება
გ
გაგრის
განთიადის
გვ
გიორგი
გიორგის
და
დრანდის
ე
ეკლესია
ეროვნული
ვ
ზემო
ზოგიერთი
თ
თბ
თბილისი
ი
კატეგორიის
კომპლექსი
კოშკი
კრ
კულტურის
კულტურული
ლ
მემკვიდრეობა
მემკვიდრეობის
მინიჭების
მნიშვნელობის
მოსახლეობის
მხარე
ნანგრევები
ნოემბერი
პრეზიდენტის
ს
საისტორიო
საკითხები
სამსახური
საქართველო
საქართველოს
საყოველთაო
სს
სტატისტიკის
ტ
უძრავი
ქ
ქართლის
ქართული
შესახებ
ციხე
ციხესიმაგრე
ძე
ძეგლისათვის
წ
წლის
წმინდა
ხორავა
‍
‎
–
—
‘
’
“
”
„
†
•
…
№
←
→
↔
↷
③
④
⑦
ⴰ
ⴱ
ⴳ
ⴷ
ⴻ
ⵉ
ⵍ
ⵎ
ⵏ
ⵔ
ⵖ
ⵜ
ⵢ
ⵣ
⺀
⺄
⺆
⺈
⺊
⺌
⺕
⺝
⺸
⺼
⿰
⿱
⿲
⿳
⿴
⿵
⿶
⿷
⿸
⿹
⿺
⿻
〢
コ
ユ
㇁
㇂
㇄
㇇
㇈
㇉
㇓
㐁
㐄
㐅
㐌
㐫
㐬
㐭
㐮
㐱
㑒
㒵
㒸
㒼
㓁
㓞
㔾
㕛
㕣
㖾
㘝
㚅
㚇
㚔
㚘
㝉
㝡
㝴
㝵
㞋
㞢
㞷
㠩
㠭
㠯
㡀
㡭
㡿
㢲
㢴
㣇
㣺
㥯
㪅
㫄
㫐
㫒
㫺
㬅
㬎
㬥
㬰
㲋
㳄
㷠
㸒
㸚
㸦
㼌
㼲
㽞
㿟
䀠
䂞
䍃
䏍
䒑
䖍
䖒
䖝
䖵
䙴
䚻
䜌
䝿
䡛
䧹
䪞
一
丁
丂
七
丄
丅
丆
万
丈
三
上
下
丌
不
与
丏
丐
丑
专
且
丕
世
丘
丙
业
东
丞
丢
丣
两
严
並
丨
丩
个
丫
丬
中
丮
丰
丱
串
丵
丶
丷
丸
丹
为
主
丽
丿
乀
乂
乃
久
乆
乇
么
义
之
乌
乍
乎
乏
乐
乑
乔
乖
乗
乘
乙
乚
乛
乜
九
乞
也
习
乡
乳
乾
亀
亅
了
亇
予
争
事
二
亍
于
亏
亐
云
互
亓
五
井
亘
亚
亜
亞
亟
亠
亡
亢
交
亥
亦
产
亨
亩
享
京
亭
亮
亯
亰
亲
亳
亶
亷
人
亻
亼
亾
仁
今
介
仌
从
仐
仑
仒
仓
仕
他
付
仝
代
令
以
任
企
伊
伏
伐
休
会
伯
但
位
何
佘
余
作
佥
使
來
侈
侌
侖
侯
侵
便
保
俞
信
修
倉
倍
候
倠
備
僉
僕
儿
兀
允
兂
元
兄
充
兆
兇
先
光
兊
克
兌
免
兑
兒
兓
兔
党
兜
兟
入
全
兩
兪
八
公
六
兮
兰
共
关
兵
其
具
典
兹
兼
冀
冂
冃
冄
内
冈
冉
冊
冋
册
再
冎
冏
冐
冒
冓
冖
冗
冘
军
农
冝
冡
冥
冫
冬
冷
几
凡
凢
凵
凶
凷
凸
凹
出
函
凾
刀
刁
刂
刃
刄
刅
分
切
刍
刑
刕
刖
列
刘
则
初
別
利
别
到
制
刺
則
削
剌
前
剡
剽
劉
力
功
加
劦
助
劫
劳
劵
勃
勇
勉
勒
動
務
勞
勤
勹
勺
勻
勾
勿
匀
匂
包
匆
匈
匊
匋
匍
匕
化
北
匚
匝
匡
匪
匱
匸
匹
区
医
匽
匿
區
十
卂
千
卄
卅
卆
升
午
卉
半
卌
华
卑
卒
卓
单
卖
南
卜
卝
卞
占
卡
卢
卣
卤
卦
卩
卪
卬
卯
印
危
即
却
卵
卷
卸
卻
厂
厃
厄
历
厈
厉
厌
厓
厘
厚
原
厤
厥
厨
厭
厲
厶
厷
厸
去
厼
厽
叀
参
參
叅
又
叉
及
友
双
反
叐
发
叒
叔
叕
取
受
叚
叜
叟
口
古
句
另
叩
只
召
可
台
叱
史
右
叵
号
司
叹
吂
各
吅
合
吉
吊
吋
同
名
后
吏
向
吕
君
吝
吞
否
含
启
吳
吴
吹
吾
呂
呆
呈
告
员
呙
周
命
咅
和
咎
咠
咢
咨
咸
咼
哀
品
哉
員
哥
哲
唐
商
啇
問
啚
啬
啻
善
喜
喬
單
喿
嗇
噩
嚴
囊
囗
囘
囙
囚
四
回
囟
因
囧
囬
困
囱
囷
固
国
圂
圅
國
圍
圓
土
圡
圣
圥
在
圭
地
圶
圼
坐
坒
坚
坴
垂
垔
垚
埀
埋
埶
執
基
堂
堅
堆
堇
堯
塞
墨
壘
士
壬
壯
声
壳
壴
壹
壺
壽
夂
处
夅
夆
备
夊
夋
夌
复
夏
夒
夕
外
夗
夘
多
夜
夢
大
夨
天
太
夫
夬
夭
央
失
夲
头
夷
夸
夹
夻
夾
奂
奄
奇
奈
奉
奎
奏
奐
契
奓
奔
奚
奞
奠
奢
奥
奭
女
奴
奻
好
如
妄
妙
妟
妥
妻
妾
姑
委
姜
威
娄
婁
婴
嬰
嬴
子
孑
孔
孕
孖
字
存
孚
孛
孝
孟
季
孤
学
孫
孱
學
宀
宁
宂
它
宅
宇
守
安
宋
完
宏
宓
宗
官
定
宛
宜
宝
客
宣
室
宮
宰
害
家
容
宾
宿
寄
寅
密
富
寒
察
寧
審
寫
寬
寮
寸
对
寺
寻
寽
対
寿
封
尃
射
将
將
專
尉
尊
尋
尌
對
小
少
尒
尓
尔
尖
尗
尚
尞
尢
尣
尤
尧
尨
尭
就
尸
尹
尺
尻
尼
尽
尾
尿
局
居
屈
屋
屎
屏
屑
展
屖
屚
属
屠
屡
屬
屮
屯
屰
山
屵
屾
岁
岂
岑
岡
岩
岳
岸
峯
島
崇
崑
崔
崖
崙
崩
嵬
嶲
巂
巛
川
州
巟
巠
巢
巤
工
左
巧
巨
巩
巫
差
己
已
巳
巴
巷
巸
巽
巾
巿
帀
市
布
希
帚
帛
帝
带
師
席
帶
常
干
平
年
幵
并
幷
幸
幺
幻
幼
幽
幾
广
広
庄
床
底
店
庚
府
度
庫
庭
庶
康
庸
廉
廌
廛
廣
廩
廴
延
廷
建
廾
廿
开
弁
弃
弄
弇
弋
式
弓
弔
引
弗
弘
弜
弟
弥
弦
弱
張
強
强
彊
彌
彎
彐
彑
当
彔
录
彖
彗
彡
形
彥
彦
彧
彭
彳
役
彼
往
待
律
徒
得
徙
從
復
微
徵
心
忄
必
忌
忍
志
忝
忠
忩
快
念
忽
忿
思
怠
急
怱
恆
恒
恩
恭
息
悉
患
悤
悲
悶
惠
惡
惢
愁
愈
意
愛
感
慈
慧
慮
憂
憲
應
戀
戈
戉
戊
戋
戌
戍
戎
成
我
戒
戔
或
戚
戠
戢
截
戲
戶
户
戹
戼
戾
房
所
扁
扇
手
扌
才
打
托
执
承
折
拉
拜
拿
掌
推
提
摩
支
攴
攵
收
攸
改
放
政
敄
敏
敕
敖
敗
敝
敞
敢
散
敦
敫
敬
数
敷
數
斂
文
斉
斊
斗
斤
斥
斩
斬
斯
新
方
於
施
斿
旁
旋
族
无
旡
既
旣
日
旦
旧
旨
早
旬
旱
旲
时
旾
昆
昇
昌
昍
明
昏
易
昔
昗
昜
星
春
昬
是
昱
昴
昷
時
晃
晋
晏
普
景
晶
智
暑
暴
曇
曩
曰
曲
曳
更
曷
書
曹
曼
曾
替
最
朁
會
月
有
朋
服
朔
朕
朗
望
朝
木
朩
未
末
本
札
朮
术
朱
朵
朶
朿
杀
杏
村
杜
束
条
来
東
杲
杳
松
析
林
枚
果
枝
枲
枼
某
柔
查
柬
柰
柴
栗
桀
桑
桼
梁
條
梟
梨
棘
棠
棥
森
楚
業
楽
榮
樂
樊
欠
次
欣
欮
欲
欶
欽
款
歆
歇
歛
止
正
此
步
武
歨
歪
歮
歯
歰
歲
歴
歷
歸
歹
歺
死
殳
段
殷
殸
殹
殺
殻
殿
毋
毌
母
每
毒
比
毕
毚
毛
毳
氏
氐
民
气
氣
水
氵
氶
氷
永
氺
氾
求
汝
汞
江
沃
沓
沙
沝
泉
法
波
泣
泥
泰
洛
洪
活
派
流
浦
浪
浮
淡
淮
清
渚
渠
湯
滿
漸
火
灬
灭
灰
灵
灷
炅
炎
炏
炗
炙
炭
為
烈
烏
烝
焉
無
焦
焱
然
煞
熊
熏
燕
營
燮
爪
爫
爭
爯
爰
爱
爲
爵
父
爻
爽
爾
爿
片
牙
牚
牛
牜
牟
牢
牧
牪
牽
犀
犬
犭
犮
狂
狄
狊
独
狺
猋
猒
猪
献
獻
玄
率
玉
王
玟
玨
珎
班
琴
瑟
瑩
璠
瓜
瓦
甘
甚
生
産
用
甫
甬
田
由
甲
申
电
甶
男
甸
甹
画
甾
畀
界
畏
畐
留
畜
畟
畢
畧
畨
番
畫
異
畱
當
畺
畾
疊
疋
疌
疑
疒
疾
癶
癸
癹
登
發
白
百
皀
皃
的
皆
皇
皋
皐
皕
皮
皷
皿
盃
盆
盇
盈
益
盍
盎
监
盒
盖
盛
盡
監
盤
盧
目
直
相
盾
省
眇
眉
看
眔
眞
真
眷
眼
眾
着
睘
睪
睿
瞏
瞢
瞿
矍
矛
矞
矢
矣
知
矦
短
石
破
碎
磊
磨
示
礻
礼
祟
票
祭
禀
禁
禸
禹
禺
离
禽
禾
禿
秀
秃
秉
秋
科
秝
秦
移
稟
穀
穌
穴
究
穹
空
穿
突
窄
窒
立
竒
竜
竝
竟
章
童
竹
笑
笠
筆
等
答
箕
算
箴
節
篤
篭
米
粉
粛
粟
粤
粦
粲
糞
糸
糹
系
約
納
素
索
紫
累
細
絜
絫
絲
維
綿
縣
繇
纍
纟
缶
网
罒
罔
罕
罗
罙
罡
罢
罪
署
罷
羅
羊
羌
羍
美
羔
羕
羗
羞
羡
羣
群
義
羲
羸
羽
翁
翏
習
翕
翟
翠
翼
老
耂
考
者
耆
而
耎
耑
耒
耳
耴
耶
耷
聂
聊
聖
聚
聶
聿
肀
肃
肅
肉
肖
肙
肥
肩
肯
育
肴
胃
背
胡
胥
能
脊
脩
膚
臣
臤
臧
自
臬
臭
臯
臱
至
致
臺
臼
臽
臾
臿
舀
舂
舄
與
興
舉
舌
舍
舛
舜
舞
舟
般
艮
良
色
艸
艹
艾
芒
芔
芬
芮
花
芳
芺
芻
苔
苗
苟
若
苦
英
茶
茸
荅
草
荒
荣
荼
莆
莧
莫
莽
菆
菊
菐
華
萬
落
葉
著
葛
董
葵
蒙
蒦
蒼
蓋
蓬
蓺
蔑
蔡
蕉
蕭
薄
薛
薦
薰
藍
藏
藥
蘭
虍
虎
虐
虒
虔
處
虖
虗
虘
虚
虛
虜
虞
虫
虽
蚤
蚩
蜀
蜜
蟲
蠡
血
行
衍
衛
衣
衤
表
衮
衰
袁
袞
褭
褱
襄
襾
西
覀
要
覃
見
規
覓
覧
親
覽
见
角
解
言
訁
訇
計
詹
語
誩
諸
讠
谷
豆
豈
豊
豐
豕
豖
豙
象
豦
豩
豪
豸
貇
貝
貞
貟
負
貢
貧
貪
貫
責
貳
貴
買
費
賁
資
賈
賏
賓
賔
賛
賞
賢
賣
質
賴
贊
贝
贡
责
贯
贲
贵
赖
赞
赤
赦
走
越
足
路
蹇
身
躬
車
軍
軎
軟
輦
车
辛
辜
辟
辥
辰
辱
農
辵
辶
边
达
过
近
连
迷
追
退
送
逆
逐
通
速
造
逢
連
逮
進
遀
遂
過
道
達
遣
適
遷
遺
邊
邑
邕
那
邦
邪
郎
部
郭
都
鄉
酉
酋
配
酓
釆
采
里
重
野
量
金
釒
錢
钅
長
镸
长
門
閃
閉
開
閏
閑
閒
間
閔
閵
閻
闌
门
间
闷
阑
阜
阝
阿
降
陳
隆
隊
隋
隡
隨
隱
隶
隹
隺
隻
隼
隽
难
雀
雁
集
雈
雋
雍
雐
雔
雙
雚
雜
雝
離
難
雨
雩
雪
雲
零
雷
需
霍
霜
霝
霞
霸
靈
靑
青
非
靡
面
靣
革
韋
韦
韭
韯
韱
音
頁
頃
項
須
頗
頡
頻
顛
页
風
风
飛
飞
食
飠
養
饣
首
香
馬
馮
駦
马
骨
高
髟
鬥
鬯
鬲
鬼
魚
魯
鮮
鱼
鲁
鳥
鳳
鸟
鹵
鹿
麃
麗
麥
麦
麻
黃
黄
黍
黎
黑
黒
黨
黹
黽
黾
鼎
鼓
鼠
鼻
齊
齋
齐
齒
齿
龍
龙
龜
龟
龠
龰
龱
龴
龵
龶
龷
龸
龹
ꙁ
ꙃ
ꙅ
ꙇ
ꙉ
ꙋ
ꙍ
ꙏ
ꙑ
ꙓ
ꙕ
ꙗ
ꙙ
ꙛ
ꙝ
ꙟ
ꙡ
ꙣ
ꙥ
ꙧ
ꙩ
ꙫ
ꙭ
ꙮ
ꚁ
ꚃ
ꚅ
ꚇ
ꚉ
ꚋ
ꚍ
ꚏ
ꚑ
ꚓ
ꚕ
ꚗ
ꚙ
者
艹
？
𞤢
𞤣
𞤤
𞤧
𞤫
𞤭
𞤲
𞤺
𞥄
𠀁
𠀃
𠀆
𠀉
𠀎
𠀐
𠁁
𠁣
𠂆
𠂇
𠂈
𠂉
𠂊
𠂋
𠂎
𠂒
𠂔
𠂛
𠂡
𠂢
𠂤
𠂬
𠂭
𠂹
𠃊
𠃋
𠃌
𠃍
𠃎
𠃑
𠃓
𠃔
𠃜
𠄌
𠄎
𠄠
𠄢
𠆢
𠆥
𠇍
𠈌
𠌵
𠓜
𠔉
𠔥
𠔼
𠔽
𠔿
𠕀
𠕁
𠕋
𠘧
𠘨
𠙻
𠙼
𠚏
𠚒
𠚤
𠚪
𠣏
𠤎
𠤕
𠥓
𠦄
𠦑
𠦝
𠧒
𠧗
𠧪
𠩺
𠪚
𠫓
𠫔
𠫤
𠬛
𠬝
𠬞
𠬢
𠬤
𠬶
𠮛
𠮦
𠮷
𠯑
𠱠
𠳮
𠷎
𡈼
𡉀
𡉵
𡌥
𡍮
𡏳
𡕒
𡕩
𡕰
𡖅
𡗗
𡗜
𡘆
𡘤
𡧱
𡨄
𡩧
𡬠
𡭽
𡰣
𡰥
𡰪
𡰯
𡰱
𡷈
𡸁
𡿨
𡿩
𡿪
𡿺
𢀖
𢀛
𢀩
𢁙
𢆉
𢆰
𢆶
𢇁
𢇇
𢉖
𢌬
𢌿
𢏚
𢑑
𢑚
𢖻
𢙣
𢛳
𢦏
𢦒
𢧵
𢼄
𢾕
𣁋
𣄼
𣅀
𣅽
𣍘
𣎳
𣎵
𣏋
𣏼
𣗥
𣥂
𣥖
𣦵
𣦼
𣧄
𣪊
𣪠
𣬉
𣳾
𣶒
𤇾
𤊽
𤐫
𤓰
𤔔
𤕨
𤣩
𤰇
𤰔
𤰞
𤴓
𤴔
𤽄
𥁑
𥁕
𥃦
𥃩
𥃭
𥇡
𥑟
𥘅
𥘈
𥝢
𥫗
𥱡
𦈢
𦉪
𦉬
𦉼
𦍌
𦍒
𦎧
𦐇
𦓔
𦔮
𦘒
𦙃
𦚏
𦣝
𦣞
𦣻
𦥑
𦥔
𦥯
𦨉
𦭝
𦰩
𧆞
𧈧
𧘇
𧰨
𧴪
𧴮
𧵩
𧾷
𨸏
𨾴
𩙿
𩠐
𩫏
𩵋
𪉷
𪜀
𪟽
𪠲
𪩲
𫇦
𫔭
𫜸
𫝀
𫠣
𫠩
𫢉
𫥞
𫩏
𫩠
𫪡
𫲽
𫶧
𬀷
𬐘
𬗌
𬙙
𬛸
𬜯
𬟩
𬯁
𬴘
𬺻
𬼉
𬼖
𭀰
𭁈
𭁨
𭅰
𭑈
𭕄
𭗼
𭤨
𭥫
𭻾
𮅕
𮊿
𮍌
𮍏
𮓗
𮥼
𮧮
廾
𰀁
𰀄
𰀈
𰀉
𰀕
𰀠
𰀡
𰀢
𰀪
𰁜
𰃮
𰆊
𰆘
𰋙
𰕎
𰢴
𰧭
𰯲
0--
a--
ab--
ai--
al--
an--
av--
b--
ba--
bl--
bos--
bu--
c--
ca--
camero--
ch--
child--
d--
de--
e--
f--
fr--
g--
ge--
gr--
h--
herce--
i--
itali--
j--
ja--
jo--
k--
korrupt--
l--
li--
liter--
m--
ma--
mar--
maur--
mic--
n--
na--
nc--
ni--
no--
o--
p--
pa--
pe--
pi--
pr--
pro--
r--
re--
ri--
ro--
rus--
s--
sa--
si--
so--
st--
t--
th--
to--
u--
v--
ver--
w--
ə--
а--
аа--
ааи--
аан--
аб--
аба--
абак--
абжь--
абольшевик--
абхаз--
ав--
ава--
австр--
автоб--
автоном--
аг--
ага--
агене--
агр--
агрипп--
агу--
агубер--
агә--
ад--
адж--
аду--
адыр--
ае--
аекс--
аетно--
аж--
ажь--
ажә--
аз--
азанааҭ--
азин--
азы--
аи--
аиаш--
аилацәа--
аин--
аинстру--
аис--
аиу--
аиқәыршә--
аиҭ--
аиҭа--
аиԥы--
ак--
акап--
аквит--
ако--
акол--
аколон--
акомҿ--
акорон--
акыр--
акә--
ал--
ала--
аламырҵә--
алба--
алек--
али--
ам--
ама--
амар--
аме--
амеди--
амраҭ--
амха--
амч--
ан--
анап--
анаԥх--
анха--
аны--
анҭыҵ--
анҵамҭ--
анҵә--
ао--
ап--
апеда--
ар--
ара--
арб--
аре--
ару--
арыц--
ас--
асемин--
асп--
асубиект--
асҭ--
ат--
ате--
атех--
ату--
атә--
ау--
аус--
аф--
афан--
афраг--
ах--
аха--
ахар--
ахшыҩы--
ахы--
ахь--
ахьы--
ахә--
ахәынҭқ--
ац--
ацив--
ацә--
ацәа--
ацәгь--
ацәик--
ач--
аш--
ашь--
ашьацԥ--
ашә--
ақь--
ақьабз--
ақә--
аҟ--
аҟазшь--
аҩ--
аҭ--
аҭышәынтә--
аҭыӡ--
аҳ--
аҵ--
аҵаҩ--
аҽ--
аҽазыҟа--
аҿ--
аҿа--
аә--
аӡ--
аӡа--
аӡба--
аӡы--
аӷ--
аԥшь--
аԥшьаҩы--
аԥҵ--
б--
ба--
бар--
бе--
бер--
би--
блок--
бо--
бор--
бу--
в--
ва--
вар--
ве--
венч--
во--
вор--
вячес--
г--
га--
гал--
гену--
герц--
ги--
гонг--
гр--
гре--
гу--
гун--
гә--
гәа--
гәаҟ--
гәы--
д--
да--
дазааҭ--
дал--
далы--
дан--
дана--
даха--
де--
дж--
ди--
динха--
диоску--
дипло--
до--
доку--
дом--
древ--
дры--
дрызҿлымҳ--
ду--
ды--
дыз--
дызха--
дыр--
дыш--
дықә--
дҟ--
е--
евге--
еи--
еиба--
еил--
еима--
еиқә--
еиқәы--
еиҟа--
еиҭа--
еиҭашьақә--
еиҿа--
еиҿик--
еиҿк--
ере--
ес--
еш--
ж--
жо--
жәеинра--
з--
за--
заверше--
зак--
зе--
зеиԥш--
зем--
зи--
зин--
зо--
золот--
зха--
зы--
зҵ--
и--
иа--
иаалырҟь--
иаан--
иаары--
иад--
иадыр--
иаир--
иал--
иала--
иалҵ--
иан--
иаш--
иаҵан--
иаҿа--
иаԥҵ--
ив--
идеолог--
иды--
идыр--
иеиҿк--
из--
ии--
ииа--
ииаш--
ик--
икьы--
ила--
иль--
им--
ин--
ина--
инаӡ--
ины--
ио--
ир--
иры--
ирыд--
ирыла--
ирылацәа--
ирыле--
ирҭ--
ирҿа--
ис--
иу--
иуа--
их--
ихир--
ихьысҳ--
ихҟь--
иц--
ицхыра--
иш--
ишь--
ишьақә--
ишә--
ию--
иџь--
иқә--
иқәҵ--
иҟ--
иҟаҵ--
иҩ--
иҩыч--
иҭ--
иҭба--
иҭыҵ--
иҵ--
иҿ--
иӡ--
иԥ--
иԥс--
иԥшә--
к--
ка--
как--
кат--
като--
кв--
ке--
ко--
композ--
кон--
конст--
конт--
копе--
кор--
корне--
кри--
ку--
кь--
кә--
кәы--
л--
ла--
лакер--
ле--
ли--
лу--
лы--
лыгә--
ль--
м--
ма--
мад--
мак--
мар--
маҭә--
маҵу--
маӡа--
ме--
мек--
мес--
ми--
мисси--
миқ--
мо--
мон--
мос--
мрҭашәа--
му--
мыру--
н--
на--
народ--
нач--
не--
нико--
но--
ны--
ных--
о--
об--
област--
од--
ок--
ол--
ор--
от--
п--
пав--
памят--
пер--
пит--
пла--
по--
пр--
прето--
проблема--
прогр--
пу--
пуб--
р--
ра--
раа--
раларҵә--
рдинха--
ре--
ред--
реиқәы--
реиԥы--
ресурс--
рзы--
риҭ--
рнап--
ро--
рос--
роу--
рс--
рсемин--
рус--
руш--
рушь--
рфизиолог--
рц--
ры--
рыбжь--
рыдгыл--
рыдҵ--
рыр--
рыц--
рыш--
рықә--
рықәныҟә--
рыҩ--
рыԥс--
рҟы--
рҽ--
с--
са--
сак--
сап--
сар--
сахь--
священ--
се--
сер--
си--
сим--
сме--
со--
ст--
стан--
т--
те--
тех--
ти--
тон--
тр--
трам--
ту--
у--
уа--
уаа--
уажә--
уб--
ус--
усу--
ф--
фе--
феде--
фу--
х--
ха--
хаз--
хар--
хы--
хырха--
хыҵхырҭ--
хь--
хәы--
хәҭ--
ц--
цив--
цә--
ч--
чан--
че--
чит--
чхе--
чӏ--
ш--
шт--
шы--
шь--
шьақә--
шьақәнар--
шьақәыр--
шә--
шәан--
шәы--
ы--
ыҟа--
э--
эт--
юж--
я--
џь--
џьу--
џьумҳу--
қ--
қы--
қь--
қьы--
қә--
ҟ--
ҟа--
ҩ--
ҩы--
ҭ--
ҭа--
ҭам--
ҭар--
ҭба--
ҭе--
ҭо--
ҳ--
ҳә--
ҳәа--
ҵ--
ҵа--
ҽ--
ҿ--
ӡ--
ӡы--
ӷ--
ԥ--
ԥс--
ԥш--
ԥыҭ--
ال--
ა--
ს--
ხიდ--
--0
--1
--2
--3
--4
--5
--6
--7
--8
--9
--a
--an
--ar
--ard
--c
--ca
--ce
--d
--ds
--e
--g
--gus
--h
--i
--ia
--ica
--ie
--in
--ion
--is
--k
--l
--la
--li
--lo
--m
--n
--nd
--ndi
--ng
--ns
--nt
--nts
--o
--ons
--or
--p
--pe
--r
--ra
--ral
--ria
--rt
--s
--ss
--t
--th
--u
--us
--ut
--ux
--va
--vo
--w
--x
--y
--z
--а
--аа
--агаҩ
--ад
--аз
--азы
--аи
--ак
--ал
--ала
--алтә
--алтәу
--ам
--ан
--ана
--ани
--аны
--ар
--ара
--ареи
--ас
--ат
--ативтә
--атә
--атәи
--аф
--ах
--ахоит
--ахуеит
--ациа
--аша
--ақәеи
--аҩ
--аҩын
--аҭ
--аҵ
--аҵан
--аҵы
--аҿ
--аҿы
--аӡо
--б
--ба
--бан
--бацәа
--беи
--бр
--быра
--в
--ва
--вич
--во
--вь
--г
--га
--гара
--гарала
--ге
--гер
--ги
--го
--гтон
--гылаҩцәа
--гьы
--д
--да
--ду
--ды
--дырреи
--е
--еб
--ев
--евич
--ево
--ежим
--еи
--еит
--еиҭон
--ел
--ем
--ен
--енант
--ер
--ет
--жь
--з
--зар
--зациа
--зегьтәи
--зи
--зм
--зми
--зт
--зы
--и
--иа
--иан
--ивтә
--ие
--ием
--из
--изм
--ии
--ик
--ика
--икатә
--ики
--ил
--ин
--ира
--иршәоит
--ист
--истан
--ит
--итартә
--ич
--ия
--иҭны
--иԥшыз
--к
--ка
--каара
--кас
--катә
--катәи
--кеи
--ки
--кны
--ко
--ков
--ком
--кс
--кт
--ку
--куп
--кы
--кыз
--кыло
--кәа
--л
--ла
--лаз
--ланд
--леи
--лк
--ло
--лог
--логиа
--лоит
--лон
--лоу
--лтә
--лҵыз
--м
--ма
--ми
--мкәа
--му
--н
--на
--ндиа
--ниа
--ние
--ния
--но
--нов
--нои
--ности
--нра
--нтәи
--ну
--ны
--ныи
--ныр
--нь
--нӡа
--о
--ов
--ович
--овна
--овые
--оз
--ои
--оит
--ок
--ол
--ом
--он
--оп
--ор
--ори
--ос
--оу
--оуп
--п
--птор
--пы
--пыл
--р
--ра
--раз
--разы
--рак
--ратә
--рақәа
--раҿы
--ре
--реи
--ри
--риа
--рнат
--ро
--род
--роу
--рра
--ру
--рхоу
--рц
--ры
--рых
--рҭа
--рҵо
--с
--са
--си
--ск
--скии
--ского
--ср
--ст
--ство
--сттә
--сть
--сь
--сҭа
--т
--та
--теи
--ти
--тиа
--тивтә
--тика
--то
--тович
--ттә
--ть
--тә
--тәи
--тәу
--тәы
--тәҩса
--у
--уа
--уаа
--уааи
--уаз
--уан
--уеит
--ук
--ул
--ум
--уп
--ур
--ус
--ут
--уциатә
--ф
--х
--хиа
--хоит
--хуа
--хь
--хьала
--хьтәи
--хә
--хәаԥшышьа
--хәы
--хәқәа
--ц
--ца
--циа
--циатә
--циеи
--цә
--цәа
--цәеи
--ч
--ча
--чи
--чы
--ш
--ша
--шоит
--шуа
--шь
--шьа
--шьақәеи
--шәо
--шәтәырҭа
--ы
--ыг
--ыз
--ызкыло
--ызт
--ык
--ыл
--ыла
--ым
--ын
--ыр
--ыруа
--ырԥшны
--ыс
--ыц
--ыша
--ыҟаз
--ыӡ
--ь
--ье
--ьыз
--я
--ян
--қ
--қь
--қә
--қәа
--қәеи
--ҟ
--ҟа
--ҟны
--ҩ
--ҩы
--ҩҩ
--ҭ
--ҭа
--ҭаз
--ҭаху
--ҭи
--ҭын
--ҭҵааҩ
--ҭә
--ҳ
--ҳа
--ҵа
--ҵаз
--ҵан
--ҵаны
--ҵеит
--ҵо
--ҵоит
--ҵәҟьа
--ҿ
--ҿа
--ҿу
--ҿы
--ӏ
--ә
--әеи
--әи
--әу
--әы
--әыршаны
--ӡ
--ӡа
--ӡам
--ӡаны
--ӡе
--ӡоу
--ӷра
--ӷь
--ԥ
--ԥу
--ԥшит
--ԥшуеит
--ԥыргеит
--ԥҳәыс
--ة
--ن
--ა
--ას
--ი
--ის
--ლის
--რის
--ს
