!
"
#
##0
##1
##10
##11
##12
##13
##14
##15
##16
##17
##18
##19
##2
##20
##21
##22
##23
##24
##25
##26
##27
##28
##29
##3
##30
##31
##32
##33
##34
##35
##36
##37
##38
##39
##4
##40
##41
##42
##43
##44
##45
##46
##47
##48
##49
##5
##50
##51
##52
##53
##54
##55
##56
##57
##58
##59
##6
##60
##61
##62
##63
##64
##65
##66
##67
##68
##69
##7
##70
##71
##72
##73
##74
##75
##76
##77
##78
##79
##8
##80
##81
##82
##83
##84
##85
##86
##87
##88
##89
##9
##90
##91
##92
##93
##94
##95
##96
##97
##98
##99
$
%
&
'
(
)
*
+
,
-
.
/
0
00
000
0000
00000005
0006
001
002
0021
003
004
005
006
007
008388
009
01
010
011
013
015
016
017
018
019
02
020
022
023
027
028
028020
0283043
029
03
031400000
0315
033
0333
034
039
04
041
042
043
044
045
046
047
048
05
050
051
052
055
056
058
06
060
061
064
066
067
07
070
071
073
074
075
077
08
080
082
083
085
088
089
09
090
091
092
093
094
096
097
098300000
1
10
100
1000
1001
1002
101
101300000
1016
1017
102
1023
103
1038
104
1040
105
1056131
106
107
108
1080
109
1098
11
110
111
1111
112
1126
113
114
115
116
1167
117
118
119
11917
12
120
1200
12000
121
12148
1215
122
123
1234
1234567
124
125
126
127
128
1280
129
13
130
1301
131
132
133
134
135
1356
136
137
138
139
1395645
14
140
1400
140100000
141
141100000
1412
142
143
1431
144
145
146
147
148
149
1492
15
150
1500
1502
151
1513315
152
1520
1521
1524
153
1538
1539
154
1543
1547
155
156
1560
1562
1564
1565
1568
157
1571
1572
1573
1575
1576
1577
158
1582
1584
159
1590
1591
1593
1595
1596
1599
16
160
1600
1602
160200000
160300000
1605
1606
1607
1608
1609
161
1610
1611
1616
162
1620
1621
1622
163
164
1642
1643
1649
165
1656
166
1660
1665
1667
167
168
1684
1688
1689
169
1694
17
170
1700
1701
1704
1707
1709
171
1715
1717
1719
172
1728
1729
173
1732
1733
174
1740
1745
1749
175
1750
1753
1754
1756
1758
1759
176
1760
1761
1762
1763
1764
1765
177
1770
1773
1775
1776
1777
1778
1779
178
1780
1781
1782
1785
1787
1788
1789
179
1790
1791
1792
1793
1794
1795
1796
1797
1798
1799
18
180
1800
1802
1803
1804
1805
1806
1808
181
1811
1812
1814
1815
1816
1817
182
1820
1821
1822
1823
1824
1825
1826
1827
1828
1829
183
1830
1831
1832
1833
1834
1835
1836
1837
1838
1839
184
1840
1841
1842
1843
1844
1845
1846
1847
1848
1849
185
1850
1851
1852
1853
1854
1855
1856
1857
1858
1859
186
1860
1861
1862
1863
1864
1865
1866
1867
1868
1869
187
1870
1871
1872
1873
1874
1875
1876
1877
1878
1879
188
1880
1881
1882
1883
1884
1885
1886
1887
1888
1889
189
1890
1891
1892
1893
1894
1895
1896
1897
1898
1899
19
190
1900
1901
1902
1903
19032007
1904
1905
1906
1907
1908
1909
191
1910
1911
1912
1913
1914
1915
1916
1917
1918
1919
192
1920
1921
1922
1923
1924
1925
1926
1927
1928
1929
193
1930
1931
1932
1933
1934
1935
1936
1937
1938
1939
194
1940
1941
1942
1943
1944
1945
1946
1947
1948
1949
195
1950
1951
1952
1953
1954
1955
1956
1957
1958
1959
196
1960
1961
1962
1963
1964
1965
1966
1967
1968
1969
197
1970
1971
1972
1973
1974
1975
1976
1977
1978
1979
198
1980
1981
1982
1983
1984
1985
1986
1987
1988
1989
199
1990
1991
1992
1993
1994
1995
1996
1997
1998
1999
2
20
200
2000
2001
2002
2003
2004
2005
2006
2007
2008
2009
201
2010
2011
2012
2013
2014
2015
2016
2017
2018
2019
201903
202
2020
202007
2021
2022
2025
203
204
205
206
207
2073
208
209
21
210
211
212
213
214
215
216
217
218
219
22
220
221
222
223
224
225
226
227
228
229
23
230
2307
231
232
233
234
235
236
237
238
2386
239
2397
24
240
241
242
243
244
245
246
247
248
249
25
250
2500
251
2510
252
253
254
255
256
257
258
259
26
260
261
262
263
264
265
266
267
268
269
27
270
271
272
273
274
275
276
277
278
279
28
280
281
282
283
28386528
284
285
286
287
288
289
29
290
291
292
293
294
295
296
297
298
299
3
30
300
3000
301
302
303
304
305
306
307
308
309
31
310
311
312
313
314
315
316
3166
317
318
319
32
320
321
322
323
324
325
326
327
328
329
33
330
331
332
333
3333
334
335
336
337
338
339
34
340
341
342
343
344
345
346
347
348
349
35
350
351
352
353
354
355
356
357
358
359
36
360
361
362
363
364
365
366
3667
367
368
37
370
371
372
373
374
375
376
377
379
38
380
381
382
383
384
385
386
387
388
389
39
390
391
393
394
395
396
397
398
399
4
40
400
4000
401
402
403
404
405
406
407
408
409
41
410
411
412
413
414
415
416
417
418
419
42
420
421
422
423
424
425
426
427
428
429
43
430
431
432
433
4333
434
435
436
437
438
439
44
440
441
443
444
445
446
447
448
449
45
450
451
452
453
454
455
456
457
458
459
46
460
461
462
463
464
465
466
4667
467
468
469
47
470
471
472
473
474
475
476
477
478
479
48
480
481
482
483
484
485
486
488
489
49
490
491
492
493
494
495
496
497
498
499
5
50
500
501
502
503
504
505
506
507
508
51
510
511
512
513
514
515
516
517
518
519
52
520
521
522
523
524
525
526
527
528
529
53
530
531
532
533
5333
534
535
536
537
538
539
54
540
542
544
545
546
547
548
549
55
550
551
552
553
554
555
556
557
558
559
56
560
561
562
564
565
566
5667
567
569
57
570
571
573
574
576
577
578
579
58
580
581
582
583
5833
584
585
586
587
588
589
59
591
592
593
594
595
596
597
598
599
5994
5996
6
60
600
601
603
604
605
606
607
608
609
61
610
611
612
613
613628
614
615
616
617
618
619
62
620
621
622
623
624
625
626
627
628
629
63
630
631
632
633
6333
634
635
636
637
638
639
64
640
641
642
644
645
646
647
648
649
65
650
651
652
653
654
655
656
657
658
659
66
660
661
662
663
664
665
666
667
668
669
67
670
671
672
673
674
675
676
677
678
679
68
680
681
682
683
684
685
686
687
688
689
69
690
691
692
693
694
695
696
697
698
699
7
70
700
701
703
704
705
706
707
708
709
71
711
7119
712
713
714
715
716
7167
717
718
719
72
720
721
722
723
724
725
727
728
729
73
730
731
732
733
735
736
737
738
739
74
740
741
743
7432
744
745
747
748
749
75
750
751
752
753
7535
755
756
757
758
759
76
760
761
762
763
764
767
768
769
77
770
771
773
774
776
778
779
78
780
781
783
7833
784
785
786
7864
787
788
789
79
790
791
7914
792
793
794
795
796
798
799
8
80
800
8006
801
8014
802
803
804
8047
805
8050
8057
8061
807
808
809
81
810
811
812
813
814
8143
816
817
818
819
82
820
8204
822
8223
823
8230
824
826
8264
828
829
83
830
831
832
833
835
836
837
838
839
84
840
841
842
843
844
845
846
847
8478
848
849
8493
85
850
851
852
853
855
856
857
858
859
86
860
861
862
863
864
865
866
867
868
869
87
871
87135
872
873
874
875
876
877
878
879
88
880
881
882
883
884
885
886
887
888
889
89
890
891
892
89281
893
894
895
896
897
898
899
9
90
900
901
902
906
907
908
909
91
910
911
912
915
917
918
919
92
920
924
925
926
927
928
929
93
930
931
932
933
934
935
936
937
94
940
941
942
943
944
948
949
95
950
952
9528153
953
954
955
956
957
958
96
960
961
962
963
964
965
9667
967
968
969
97
970
971
973
974
975
977
978
979
98
980
981
983
984
985
987
988
989
99
990
991
992
993
995
996
998
:
;
<
=
>
?
@
[
\
]
^
_
`
a
aa
aac
aalen
aaral
aarau
aaron
ab
aba
ababalu
abaca
abacus
abad
abak
abakanowicz
abalu
abayan
abb
abba
abbe
abbey
abbott
abbr
abbreviate
abbreviated
abbreviates
abbreviation
abc
abdelaziz
abdomen
abdominal
abdul
abdullah
abe
abel
abellana
abeng
abias
abkhazia
ablas
able
abo
aboga
abogado
abogadu
abogasya
abortion
about
above
abra
abraham
abrams
abramson
abramyan
abril
abrilcalendariu
abroad
abrus
abruzzo
abs
abstract
abu
abucay
abugadu
abugasya
abung
aburi
abuse
ac
acacia
acad
academia
academic
academics
academies
academy
acadian
acalypha
acanthaceae
accent
accents
accept
accepted
access
accessdate
accessed
accessory
accommodation
according
account
accountancy
accountant
accountants
accounting
accounts
accra
accreditation
accreditations
accredited
accrediting
accuracy
accurate
ace
aceh
ach
achebe
achievement
achievements
achiever
acid
acids
acidu
acidung
acker
acosta
acoustic
acq
acquired
acre
acres
acronym
across
act
acta
acting
action
actions
active
activestats
actividad
activist
activities
activity
acton
actor
actors
actress
acts
actual
actually
acute
ad
ada
adam
adams
adamson
adan
adaptation
adaptive
add
added
adding
addison
addition
additional
addonizio
address
addresses
adds
adelaide
adelanto
adele
adelson
adige
adilabad
adios
adj
adjacent
adjara
adjectival
adjectivals
adjectives
adle
adler
admin
administered
administrador
administrasyun
administratibu
administratibung
administration
administrative
administrator
administrators
admiral
admiralty
admission
adobe
adolf
adrenal
adrenergic
adrian
adua
aduan
aduang
adult
adults
advaita
advance
advanced
advancement
advances
advancing
advantage
advent
adventist
adventure
adventurer
adventures
advertising
advice
advisor
advisory
advocacy
advocate
adwa
adwang
adygea
ae
aerial
aerobic
aerobie
aeronautical
aeronautics
aerospace
aeta
affair
affairs
affected
affiliate
affiliates
afghan
afghanistan
afi
afp
afraid
africa
african
afrikaans
afro
after
aftermath
afternoon
ag
aga
agad
agagawa
again
against
agama
agamit
agan
agana
agapito
agartala
agatha
agawa
age
aged
agen
agencies
agency
agent
agents
ageratum
ages
agglomeration
agglomerations
aggression
agham
agiang
agila
agiu
agiung
agkas
aglipay
agnan
ago
agoncillo
agosto
agostu
agostucalendariu
agoura
agpang
agra
agrarian
agreement
agri
agricultura
agricultural
agriculture
agrigento
agrikultura
agroforestry
agta
aguak
aguas
aguiang
aguila
aguilar
aguiluz
aguinaldo
aguinaldu
aguman
agumang
agus
agusan
agustin
agya
agyang
agyu
agyung
ah
ahead
ahensyang
ahim
ahmad
ahmed
ahmedabad
ai
aia
aichi
aid
aida
aids
aiko
aimed
aimer
aims
ain
aini
aintindian
ainu
air
aircraft
aired
aires
airline
airlines
airplay
airport
airports
airways
ais
aisaku
aise
aisip
aisne
aita
aitn
aitu
aix
ajaccio
ajaria
ajmer
ajuntament
ak
aka
akademiang
akademiko
akademiku
akademya
akademyang
akakit
akalaban
akamtan
akbar
akbung
akbungan
aki
akilala
akin
aking
akit
akita
aklan
aklasan
aklat
aklatan
aklis
akmulan
ako
akola
akron
akrotiri
aksidenti
aktibidad
aktibista
aktibistang
aktibu
aktibung
aktor
aktres
aku
akua
akung
akwa
al
ala
alabama
alabang
alabat
alabel
alaga
alagang
alain
alak
alal
alalan
alalang
alam
alamat
alameda
alaminos
alamos
alan
alang
alangalang
alanis
alapan
alapap
alas
alaska
alata
alaya
alba
albacete
albania
albano
albany
albay
alben
albert
alberta
alberto
albi
albrecht
albu
albugan
albugang
album
albums
albuquerque
alburquerque
alcala
alcalde
alcaldes
alcaldi
alcantara
alcaraz
alcasid
alcohol
alcoy
alcudia
aldo
aldong
aldrin
alds
ale
alegre
alegria
alejandro
aleman
alemania
alemanya
alenc
alessandria
alessandro
alex
alexander
alexandre
alexandria
alexis
alfonso
alfoz
alfred
alfredo
algae
algeria
algorithm
ali
alicante
alice
alicia
aligarh
alighieri
align
aligned
alikabuk
alilan
alimba
alimbawa
alimbawang
alimodian
alino
alipan
alison
alit
aliua
aliuang
alive
aliwa
aliwang
alkaldi
alkaline
alkus
all
allah
allahabad
allamericancity
allan
allele
allen
allergy
alley
alliance
allied
allier
allium
allmovie
allmusic
allowed
allows
alloy
allrovi
alma
almanac
almansa
almario
almaty
almeri
almeria
almond
almost
aloha
alone
along
alongside
alonzo
aloysius
alpabetu
alpabetung
alpes
alpha
alphabet
alphabetical
alpine
alps
already
alsa
alsace
alsatian
also
alsos
alt
alta
altai
altay
alternate
alternative
alternatives
although
altitude
altkirch
alto
altos
alua
aluka
aluminium
alumni
alun
aluntian
aluntiang
aluntyan
alus
alva
alvarez
alvaro
alveolar
alveoli
alvin
alwa
alwang
alwar
always
alwp
alzado
alzadon
am
ama
amacc
amado
amador
amamana
amana
amanda
amanu
amanuan
amanung
amanwan
amapola
amaravati
amas
amateur
amazing
amazon
ambag
ambala
ambassador
amber
ambrosia
ambrosius
ambulong
ame
amel
amen
amendi
amendment
america
american
americana
americanang
americano
americans
americanu
americanung
americas
amerika
amerikanu
amerikanung
amerkanu
amerkanung
ames
amg
amianan
amiens
amieva
amiga
amine
amino
amir
amlat
amlo
amnesty
amo
among
amor
amoy
ampang
ampatuan
amphibian
ampng
ampo
ampon
ampong
amprofon
ampulla
amputee
amr
amravati
amreli
amritsar
amsterdam
amundsen
amur
amusement
amy
amygdala
amylase
an
ana
anabas
anabu
anac
anacardium
anaconda
anahaw
anaheim
anak
analects
analysis
analyst
analytical
anam
anand
ananta
anao
anasi
anastasiades
anatomical
anatomy
anatta
anc
ancestral
ancestry
anchor
anchorage
ancient
ancona
and
anda
andaluci
andalusia
andaman
andamanese
andersen
anderson
andes
andhra
andorra
andrada
andrade
andre
andrea
andreas
andres
andrew
andrews
andy
aneurysm
ang
angan
angang
angara
angat
angel
angela
angeles
angeli
angelica
angelicum
angelina
angelo
angels
angelus
angers
angga
angganan
anggang
anggulu
anghel
angie
angin
angina
angkor
angle
anglican
anglo
angola
angono
angoule
anguilla
angus
angustifolia
anhalt
anhui
ani
ania
aniang
aniban
anilao
animal
animalia
animals
animated
animation
anime
anita
ann
anna
annals
annapolis
annapurna
anne
annecy
annelida
annex
annie
anniversary
annona
annonaceae
annotated
annotations
announced
announcer
announcers
announces
announcing
annual
anodontostoma
anoia
anosmia
another
anqing
ans
ansar
anselmo
anshan
answer
answers
ant
antarctic
antarctica
antas
antbase
antelope
antenna
antequera
anterior
anthem
anthemis
anthology
anthony
anthropology
anti
antibes
antibody
antigua
antilles
antimo
antimong
antimony
antimurin
anting
antioch
antipolo
antiquarian
antique
antiquities
antiquity
anton
antonio
antonis
ants
antz
anuppur
anura
anvil
any
anya
anyang
anymore
anyone
anytime
anywhere
ao
aomori
aorta
aosta
ap
apa
apagumasdan
apalit
apang
apangan
apansinan
apapangan
apart
apartheid
apartment
apat
apayao
apelyidu
aphid
api
apin
apl
aplaya
apo
apocalypse
apocrine
apolinario
apollo
apon
apostol
apostolic
apostoliku
app
apparitions
appeal
appeals
appearances
appeared
appears
appendix
apple
appleton
application
applications
applied
appointed
appreciation
approach
approaches
approval
approved
approximately
apr
apricot
aprika
aprikanu
april
apruba
aptas
apu
apulia
apulu
apulung
apung
apusan
aquaculture
aquarium
aquatic
aque
aqueduct
aquila
aquinas
aquino
aquitaine
ar
ara
arab
arabia
arabian
arabic
arabo
arabu
arachnid
arago
aragon
aragonese
arakap
aral
aralan
aramayona
arana
aranda
araneta
arap
arapan
araullo
araw
arayat
arbor
arc
arcachon
arcade
arcadia
arch
archaea
archaeological
archaeology
archangelica
archbishop
archdiocesan
archdiocese
arche
archer
archie
archimedes
archipelago
architect
architects
architectural
architecture
archival
archive
archived
archivedate
archives
arco
arctic
arde
ardeche
ardenne
ardennes
are
area
areas
areca
arecaceae
arellano
arena
arenas
areni
arenys
arevalo
arezzo
argao
argele
argenc
argent
argentina
argentine
argon
argument
ari
aria
arian
ariana
arie
ariel
aring
aringay
arista
arizona
ark
arkansas
arkhangelsk
arkitektu
arkitektung
arkitektura
arle
arles
arlington
armada
armadung
armando
armas
armed
armenia
armenian
armenians
armm
armor
armour
arms
armstrong
army
arnel
arnold
arnoux
aron
around
arpitan
arquitectura
arrangement
arraya
arrest
arrhythmia
arrival
arromanches
arrondissement
arrondissements
arrow
arroyo
ars
arsenal
arsenic
arsobispu
art
arte
artemisia
arterial
arteries
arteriole
artery
artes
arthropod
arthropoda
arthur
arti
article
articles
articulu
articulung
artifacts
artificial
artikulu
artikulung
artillery
artist
artista
artistang
artistic
artists
artocarpus
arts
arturo
aruba
arunachal
arung
aruppukottai
arvind
aryan
arzobispo
as
asa
asabi
asahan
asahi
asahikawa
asaihl
asali
asam
asan
asang
asap
asaupan
asawa
asawang
asbuk
ascomycete
asean
aseru
asexual
asf
ash
ashley
ashok
ashoknagar
ashrama
ashton
asi
asia
asian
asiang
asianu
asias
asiatic
asidu
asikan
asin
asis
ask
aske
asked
askeng
aslag
aslagan
aslagang
aslam
aslgan
asnang
asneng
asociacio
asp
aspect
aspects
aspetu
aspetung
aspx
assad
assam
assamese
assange
assassination
assembly
assessment
assets
assisi
assistance
assistant
assisted
assoc
associate
associated
associates
association
associations
assumption
assyrian
asteraceae
asteroid
asthma
astrakhan
astro
astrology
astronaut
astronomer
astronomia
astronomical
astronomy
asturian
asturiana
asturias
asu
asugi
asuk
asul
asulat
asuncion
asung
asya
asystasia
at
ata
ataki
atandanan
atatandanan
atbu
atdu
ate
ateneo
athena
athens
athlete
athletic
athletics
ati
atian
atilu
atimonan
atin
ating
atiu
atiyu
atlanta
atlantic
atlantique
atlantiques
atlas
atleta
atletang
atlu
atlumpulu
atlung
atlwp
atm
atmosphere
atmospheric
atmu
ato
atoll
atom
atomic
atoms
atp
atrial
atricapilla
atrium
atsu
atta
attack
attacks
attempt
attendre
attention
attorney
attractions
atuklasan
atut
atyan
atyu
au
auban
aube
auburn
auch
aude
audenaerde
audience
audio
audiobook
auditory
auf
aug
auge
augsburg
august
augusta
augustine
augusto
augustus
auk
aun
aunor
aurangabad
aurangzeb
aurelio
aurillac
aurora
aus
ausan
ausang
auspop
austin
australasia
australia
australian
australis
austria
austrian
austriancharts
austro
austronesian
austronesiu
authentic
author
authored
authoring
authorities
authority
authorized
authors
auto
autobiography
autoimmune
automatic
automatically
automotive
autonomous
autonomy
autor
autoridad
autres
autumn
auvergne
aux
auxerre
auxiliary
av
available
avalon
avanc
avant
ave
avec
avengers
avenue
average
averrhoa
avery
aveyron
avi
avian
aviation
avignon
avila
avile
aviv
avn
avocado
avoid
awa
awak
awakan
awang
award
awarded
awardee
awards
awareness
away
awsan
awsang
axe
axillary
axis
axon
ay
aya
ayabut
ayahuasca
ayala
ayalkus
ayambag
ayan
ayari
ayasahan
ayasawa
aye
ayng
ayni
ayta
ayun
ayuntamiento
ayup
ayupan
ayurveda
ayus
az
azamgarh
azarenka
azawad
azerbaijan
azerbaijani
azeris
aztec
azul
azur
b
ba
baabda
baabdat
baalbek
baath
baba
babae
babag
babagwa
babai
babaing
babandian
babangalan
babanggitan
babasan
babawal
babayi
babaying
babel
babi
babie
babing
babo
babong
babuyan
baby
babye
bac
bachelet
bachelor
bachir
back
background
baclayon
bacolod
bacolor
bacon
bacong
bacoor
bacteria
bacterial
baculud
bad
badajoz
baden
badge
badiang
badiangan
badilla
baer
baerendorf
bag
baga
bagabag
bagac
bagacay
bage
bageng
bages
baghdad
bagia
baging
bago
bagong
bague
baguio
bagumbayan
bagya
bagyang
bagyu
baha
bahah
bahamas
bahamondi
bahasa
bahay
bahraich
bahrain
bai
baidbid
bailiwick
baing
bains
baintau
bais
bait
baix
baja
baka
bakal
bakas
bakasiunan
baker
bakersfield
baking
bakit
baku
bakung
bal
bala
balabac
balabag
balabagan
balaghat
balagtas
balak
balamu
balance
balang
balanga
balangiga
balangir
balangkas
balas
balasenas
balat
balaya
balayan
balbalan
balbiki
balbronn
bale
balearic
balearics
balen
baleng
baler
balete
bali
balibago
baligtad
balik
balikan
balimbing
balingasag
balita
balitang
balite
baliuag
ball
ballade
ballads
ballerini
ballesteros
ballet
ballon
baloch
balochistan
balogo
balong
balrampur
baltazar
baltic
baltimore
balu
baluat
balubad
balud
balugbug
balung
balut
baluyut
bam
bamban
bambang
bamboo
ban
bana
banaba
banahaw
banal
banana
bananas
banaras
banarsidass
banate
banaue
banaw
banban
bancal
band
banda
bandang
bandera
banderang
bandi
banding
bandit
bandwidth
baneng
bang
banga
bangalore
banganapalle
bangka
bangkanita
bangkok
bangku
bangladesh
bangsa
bangsamoro
bangsang
bangtan
bangued
bangus
bani
banilad
bank
bankanita
banking
banks
banku
banlik
banner
bansa
bansag
bansang
banswara
bantam
bantamweight
bantay
bantayan
bante
banteay
banten
banton
bantug
banua
banuang
banwa
banwahan
banwang
banyagang
banyoles
baoding
bapa
bapang
bapor
baptist
baptiste
bapu
bar
barack
baraku
barangay
barangays
baranggay
baras
barasan
barbados
barbara
barbell
barbera
barbie
barbra
barbuda
barcelona
bareilly
barena
barents
bari
baril
barira
bariu
barjac
bark
barletta
barmer
barmm
barnes
barnett
baroda
baron
barongis
baroque
barotac
barr
barramundi
barrett
barretto
barrio
barriu
barrow
barry
bart
bartini
bartoli
bartolome
barua
barwani
baryu
bas
basa
basak
basan
basco
base
baseball
based
basel
basella
bashar
bashir
bashkortostan
basho
basi
basic
basics
basil
basilan
basilar
basilica
basilicata
basin
basis
basketball
baskinta
basque
bass
basse
bassist
basta
bastia
basud
basultu
basura
bat
bata
bataan
batac
batad
batal
batan
batanes
batang
batangas
batas
batasan
batasang
batayan
batch
bates
batikan
batis
batman
bato
baton
batroun
bats
battambang
battery
battle
battlefield
battles
batu
batuan
batuin
batung
batwin
bau
bauan
bauang
bauer
bauhinia
baumgartner
bautista
bavaria
bawal
bawang
bawasan
bawat
baxter
bay
baya
bayabao
bayabas
bayad
bayag
bayan
bayang
bayani
bayanihan
bayaning
bayaran
bayat
bayawan
baybay
bayeux
bayog
bayombong
bayu
bayugan
bayung
bazaar
bbc
bbs
bc
bce
bd
be
beach
beaches
beacon
beaked
beam
bean
beans
bear
bearing
beast
beat
beating
beatles
beato
beats
beaucaire
beaulieu
beautiful
beauty
beauvais
bebe
bec
became
because
beck
beckham
become
becomes
becoming
bed
beda
bedigian
bee
beed
been
beer
beethoven
beetle
beetles
before
began
begin
beginning
beginnings
begins
behavior
behavioral
behaviour
behind
bei
beijing
being
beinti
beirut
beitan
beiteddine
bel
belarus
belarusian
belarusians
belen
belfort
belgaum
belgian
belgium
belgorod
belie
belief
believe
belinda
belize
belknap
bell
bella
bellary
belle
bells
belmont
belmonte
belong
beloved
below
belt
beltran
beltsville
beluan
belwan
ben
benares
benavente
benazir
benedetto
benedict
benedictine
benedicto
benefit
benefits
benerabling
benevento
bengal
bengalensis
bengali
bengbu
bengi
benging
bengu
benguet
benicia
benigembla
benigno
benissa
benitez
benito
benjamin
bennett
benny
benson
benz
beqaa
ber
berdi
bergamo
bergan
bergmann
beril
berkeley
berlin
berliner
bernadette
bernard
bernardino
bernardo
bernays
bernhardt
bernie
bernoulli
berries
berry
bersion
bersu
bersyong
bert
bertha
besanc
besao
beses
besis
best
bestseller
bet
beta
betamax
betawiki
beth
bethlehem
betis
better
betty
between
beverly
beware
beyonce
beyond
bezos
bgy
bha
bhadrachalam
bhagalpur
bharat
bharatpur
bhattiprolu
bhavnagar
bhikkhu
bhilai
bhob
bhopal
bhubaneswar
bhutan
bhutto
bhuyan
bi
biak
bianca
biasa
biasang
bibcode
bibi
bibie
bibili
bibilug
bibilugan
bible
biblia
biblical
bibliography
bibye
biceps
bicol
bicycle
bid
bida
bidang
bie
bieber
bien
bieng
bienvenido
biernis
big
biga
bigbugan
bigger
biggest
bighorn
bigla
biglang
bigsu
bihar
bihari
bikaner
bike
biklat
bikol
biktima
bilalag
bilang
bilaspur
bilateria
bilbao
bile
bili
bilimbi
bilingual
biliran
biliranisland
bilis
biliun
bill
billboard
billboardurlbyname
billiards
billion
billy
bilungan
bilyun
bilyung
bin
bina
binaba
binalbagan
binalik
binang
binangal
binary
binawal
binay
bing
bingut
binh
bini
binibining
binie
binili
bining
binomial
binondo
binotu
bint
binuangan
binutil
binye
bio
biochemical
biochemistry
biodiesel
biodiversity
bioenergy
biofuel
biogeography
biographical
biographies
biography
biol
biologia
biological
biologist
biology
biolohia
biopic
biorhythm
biorhythms
biotechnology
bird
birdlife
birds
birhen
biri
birmania
birmingham
birth
birthday
birthplace
biru
bisa
bisang
bisaya
biscay
bischoffsheim
bise
biseru
bishop
bishops
bislig
bismarck
bista
bistaman
bisturi
bit
bita
bitasa
bitasang
bitin
bitis
bitmap
bito
bitrate
bits
bitsuwelas
bitter
bittorrent
bituka
bitukang
bivona
biyabas
biye
biz
bjorke
bkerke
black
blackberries
blackberry
blackwell
bladder
blade
blah
blair
blaise
blake
blanc
blanca
blanchett
blanco
blank
blas
blaye
bleeker
blessed
bleu
blica
blige
bliss
bloch
block
blockading
blocker
blockers
blocks
blog
blogs
blogspot
blois
blood
bloom
bloomberg
bloomington
blp
blu
blue
blueberry
blues
bluetooth
blumentritt
bm
bmg
bmp
bn
bnf
bo
boa
boadella
board
boat
boats
bob
bobby
bobigny
bobon
boca
bocaue
bodies
body
bogtong
bohai
bohairic
bohe
bohemia
bohemian
bohol
bohr
bois
boise
bokalista
bokaro
bokma
boko
bokura
bola
bolan
bold
boleslav
boli
bolivarian
bolivia
bolivian
bollywood
bolo
bologna
bolt
bom
bomb
bomba
bombay
bombing
bomis
bon
bonaparte
bonbon
bond
bone
bones
bong
bonga
bongabong
bongo
bonifacio
bono
bontoc
bonus
book
booker
books
boola
boom
booth
boracay
bordeaux
border
borders
bordertown
borei
borges
borgnine
boris
born
borneo
borongan
borough
boroughs
borromeo
bosch
bosco
bosis
bosley
bosnia
bosnian
boston
bot
botanic
botanical
botanist
botany
both
bothe
botolan
bots
botswana
bottom
botu
bouazizi
bouches
bouchesrho
boulder
boulenger
boulevard
boundaries
boundary
bourg
bourges
bourgogne
bourj
bouteflika
bouyon
bouzid
bow
bowen
bowl
box
boxes
boxing
boxingeru
boxtemplate
boy
boyd
boys
bozhou
bpi
br
bra
brackets
brad
bradbury
bradley
bragg
brain
bram
branch
branches
brand
brandenburg
brandon
brands
brandy
brasi
brasil
brasilia
bratislava
braun
braves
bravo
brazil
brazilanang
brazilian
brazzaville
bre
bread
breadfruit
break
breakdown
breaking
breaks
breakthrough
breast
breathing
breed
breeding
breeds
bremen
bren
brenda
brennan
brent
brescia
bresse
bretagne
breton
brett
brgy
brian
bridge
bridges
bridget
brief
brien
brieuc
bright
brill
brillanne
brillante
bring
brisbane
bristol
britain
britania
britanico
britannica
british
britney
brittany
broadband
broadcast
broadcaster
broadcasting
broadcasts
broadway
broken
bronchi
bronchiole
bronson
bronze
brooklyn
brooks
bros
brother
brotherhood
brothers
brought
brown
browse
browser
browsetemplate
brubeck
bruce
bruche
bruegel
brueghel
brumath
brunei
bruno
brunswick
brush
brussels
brws
bryan
bryant
bs
bsba
bsce
bsee
bsharri
bsme
bsmie
bts
btva
bu
buak
buan
buaya
buayan
bubbling
bubong
bubonga
bubulus
bubungan
bubut
bubuu
bucandala
buchanan
bucharest
buchheit
buck
bud
buddha
buddhism
buddhist
bude
budget
budismu
buenavista
bueno
buenos
buffalo
bug
bugallon
bugey
bugs
bugsukan
bugtong
bugtung
buhangin
buhay
buhi
bui
build
builder
building
buildings
built
bukas
bukid
bukidnon
buklat
buklud
buku
bukud
bukul
bukungbukung
bula
bulaca
bulacan
bulaga
bulak
bulaklak
bulaklakan
bulalacao
bulan
bulandshahr
bulang
bulati
bulb
bulba
bulbul
buldit
buldon
bulgaria
bulgarian
bulig
bulkan
bulkang
bull
bulletin
bullock
bulod
bulsara
buluan
bulubundukin
bulugan
bulung
bulungs
bulutung
bumilug
bun
bundesland
bundesverband
bundle
bunduc
bunduk
bundukin
bung
bunga
bungang
bungo
bungsu
bungu
bunny
bunsen
buntuk
burak
buranji
bureau
burgess
burgos
burgundy
buri
burial
buring
burke
burma
burmese
burning
burns
burol
burr
burroughs
burton
buru
burundi
buryat
bus
busal
busan
busbus
bush
business
businesses
businessman
busta
busuanga
but
butch
butil
butler
buton
butte
butterflies
butterfly
butu
butuan
butul
buung
buy
buzz
bwak
by
byasang
bye
byeng
bypass
byte
byzantine
c
ca
cab
cabanatuan
cabang
cabaroan
cabarroguis
cabaruan
cabatuan
cabbage
cabecera
cabezo
cabiao
cabinet
cable
cabud
cabugao
cabunga
cabuyao
cacao
cache
cadaque
cadiz
caen
caesar
cafe
cag
cagayan
cagdianao
cagliari
cahors
cai
caibat
caicos
cain
caingin
cainta
cairo
caixa
cal
calabarzon
calabria
calais
calamba
calamondin
calan
calantas
calapan
calatagan
calatrava
calaveras
calbayog
calcium
calcula
calculated
calculates
calculations
calculator
calculators
calcutta
caldwell
caledonia
calendar
calendariu
calf
calicut
calidad
california
calintaan
call
called
calling
calls
calma
caloocan
calp
calumpang
calumpit
calupa
calvados
calvet
calvin
calvo
cam
camalig
camara
camargo
camarines
cambodia
cambodian
cambrian
cambridge
came
camel
camelina
camellia
cameo
camera
cameron
cameroon
camiguin
camiling
camille
camillus
camino
camp
campagne
campaign
campania
campbell
campin
campo
campobasso
campoo
campos
campus
campuses
can
canada
canadian
canal
canaria
canary
cancer
canciller
canda
candaba
candelaria
candidate
candidates
candon
candy
cane
canet
cang
cangas
cangzhou
canita
canitang
canlaon
cannes
cannon
cannot
canoe
canon
cansilayan
cansiz
canta
cantabria
cantabrian
cantal
cantante
canterbury
canton
cantonese
cantonment
cantons
cao
caoayan
cap
capablanca
capampangan
capas
cape
capillary
capita
capital
capitals
capitan
capitol
capitolio
capitoliu
capiz
capo
capra
capsicum
capsule
captain
caption
captor
capture
capul
car
carabao
caraga
carambola
carbohydrate
carbohydrates
carbon
carcar
carcassonne
carcinoma
card
cardiac
cardinal
cardinals
cardiovascular
cardona
cardoon
care
career
carelang
careng
carera
caretaker
caretang
carey
cari
caribbean
caricom
caridad
carin
caring
carl
carla
carlo
carlos
carlsbad
carlsen
carly
carmen
carmona
carnegie
carnival
carol
carolina
caroline
carolus
carpenter
carpenters
carr
carren
carrie
carried
carrier
carroll
carry
carson
carter
cartes
cartier
cartilage
cartoon
cartoons
carvajal
carver
cas
casa
casas
case
cases
cash
cashbox
cashew
casiguran
casilagan
casino
caso
caspian
cast
castan
castanea
castaneda
caste
castell
castello
castells
castellvi
castila
castilang
castile
castilelamancha
castilla
castillo
castillu
castle
castles
castor
castrillo
castro
casu
casuarina
cat
catalan
catalana
catalina
catalog
catalogue
catalonia
catalunya
catalyze
catanduanes
catanzaro
catarman
catbalogan
catch
cate
catechu
categoria
categories
category
categorytemplate
cathedral
catherine
catholic
catholicism
catholicu
catmon
cato
catolica
catolico
catolicong
catolicu
catolicung
cats
cattrack
catubig
catv
cauayan
caucasus
caulfield
cause
caused
causes
causing
cava
cavalry
cave
cavendish
caves
cavinti
cavite
cavity
cawayan
cayang
cayenne
cayman
cba
cbc
cbd
cbn
cbs
cc
ccffcc
cd
cdc
cdot
cds
ce
ceb
cebu
cebuano
cebuanu
cecil
cecilia
cecilio
cecum
cedar
cedars
celebes
celebrated
celebrates
celebrating
celebration
celebrities
celebrity
celia
celiac
celine
cell
cellphone
cells
cellular
cellulose
celso
celtic
celula
cemeteries
cemetery
cenest
cenon
census
censuses
censusindia
cent
centenary
centennial
center
centers
centipede
central
centre
centro
centru
centrung
centuries
century
ceo
cerca
cerdon
cereal
ceremony
ceres
cergy
certain
certificate
certification
certifications
certified
cervantes
cesa
cesar
cesena
ceuta
ceylon
cezanne
cf
cfm
cg
cgi
ch
cha
chacunda
chad
chadwick
chain
chair
chairman
chairperson
chairpersons
chalaronne
challenge
challenges
cham
chambe
chamber
champagne
champawat
champion
champions
championship
championships
chan
chance
chancellor
chances
chandigarh
chandler
chandra
chandragiri
chang
change
changed
changes
changing
changsha
changzhou
channel
channels
chanos
chante
chaohu
chaos
chaotic
chaozhou
chapel
chapelle
chapin
chapman
chapter
chapters
character
characteristic
characteristics
characters
charente
charentes
charge
charity
charles
charleston
charleville
charlie
charlotte
charo
chart
charter
chartres
charts
chase
chat
chatto
chau
chaumont
chavez
che
check
checklist
ched
cheese
cheetah
chef
chelan
chelsea
chelyabinsk
chem
chemical
chemicals
chemist
chemistry
chen
chennai
chenzhou
cher
chernobyl
cherries
cherry
chesapeake
chess
chest
chester
chestnut
cheung
chevalier
chey
chhatarpur
chhattisgarh
chhattisgarhi
chhindwara
chhnang
chi
chiang
chiariglione
chiaroscuro
chiba
chibi
chicago
chicken
chickens
chico
chief
chiefs
chien
chiesa
chiho
child
childhood
childish
children
chile
chilli
chimpanzee
chin
china
chinchwad
chinensis
chinese
chino
chinua
chip
chiroptera
chisholm
chitose
chitradurga
chittoor
chiu
chives
chizhou
chloe
chlorophyll
chloroplast
chlorurus
cho
chocolate
choi
choice
choices
choir
cholesterol
chongqing
choose
chopra
choral
chorale
choralwiki
chordata
chorus
chou
chris
christ
christi
christian
christianity
christians
christianu
christie
christina
christine
christmas
christoph
christopher
chromosome
chronic
chronicle
chronicles
chronology
chu
chua
chuck
chula
chum
chun
chung
church
churches
churchill
churruca
chuvash
chuvashia
chuzhou
cia
ciara
cibrao
cicero
cicm
cidob
ciencia
cienciang
cierva
cilantro
cincinnati
cinderella
cine
cinema
cio
ciotat
circa
circle
circulation
circulatory
circus
citadel
citation
citations
cite
cited
cites
cities
citizen
citizens
citizenship
citratus
citrofortunella
citronella
citrus
city
citymayors
cityscale
ciudad
civic
civil
civiles
civilisation
civilization
cj
cl
cladistics
claim
claimed
claims
clair
claire
clam
clamp
clan
clancy
clara
clarence
clarendon
clarin
clark
clarke
claro
clash
clasi
clasing
class
classes
classic
classical
classics
classifica
classification
classroom
claude
claudio
claudius
claus
claveria
clay
cle
clean
cleanup
clear
clearinghouse
clegg
clement
clemente
clerk
clermont
cleveland
click
client
cliffs
clima
climate
climates
climbing
clin
clinic
clinical
clinton
clio
clip
clips
clitoris
clive
clock
clockwise
clope
close
closed
closer
closest
closing
club
clubs
cluk
cm
cmd
cmt
cn
cnn
cntry
co
coach
coal
coalition
coan
coanda
coast
coastal
coat
coca
cochi
cochin
cochlea
coco
cocoa
coconut
cocos
cod
code
codec
codecs
codes
coding
cody
coe
coelho
cognitive
cogon
cohen
coho
coimbatore
coin
coins
cojuangco
col
cola
colbert
cold
cole
coleccion
colegio
colegiu
colegiung
coleman
coleoptera
colin
colindres
collaborate
collaboration
collaborative
collected
collection
collections
collectionscanada
collective
collectivity
collector
collectorate
college
colleges
collegiate
colleville
collier
collins
collision
colmar
cologne
colombia
colombie
colombo
colon
colonel
colonia
colonial
colonies
colonization
colony
color
colorado
colors
colour
colspan
colt
columban
columbia
columbian
columbus
column
columnist
columns
colusa
com
comaerca
comarca
comarcas
comarques
combat
combination
combined
come
comeback
comedian
comedy
comelec
comerciu
comes
comet
comic
comics
comillas
comin
coming
comma
command
commander
commelinaceae
commemorative
commencement
commencing
comment
commentaries
commentary
comments
commerce
commercial
commercials
commission
commissioner
committee
common
commonly
commons
commonwealth
communal
commune
communes
communication
communications
communidad
communion
communis
communism
communist
communities
community
como
comoros
compact
compania
companies
companion
company
comparable
comparative
compare
compared
comparing
comparison
compass
compendium
compete
competition
competitive
compilation
complete
completely
complex
complexity
complicadu
component
components
composed
composer
composers
composition
compositions
compostela
compound
compounds
comprehensive
compressed
compression
compton
computational
computed
computer
computers
computing
comte
comune
comuni
comunidad
con
concejos
concentration
concepcio
concepcion
concept
conception
concepts
concern
concerning
concert
concerts
concierto
concio
concise
conclusions
concord
concordances
concordia
conde
condition
conditioning
conditions
conducted
conducting
conduction
conductor
confederate
confederation
conference
conferences
confessions
confidential
conflent
conflict
conflicts
confucianism
confucius
confusion
cong
congbio
congestive
congo
congregation
congreso
congress
congressional
congressman
congresu
conjugation
conn
connect
connecticut
connecting
connection
connections
conner
connie
connor
conquest
conquistador
conrad
consciousness
consecutive
conseil
consejal
consensus
conservancy
conservation
conservative
conservatory
considered
considering
consistent
consisting
consolacion
consolidated
consonant
consonants
conspiracy
constable
constant
constantino
constantinople
constantly
constants
constellation
constituency
constituent
constitution
constitutional
constructed
construction
consuelo
consultant
consultation
consulting
consumer
contact
contain
container
containing
contains
contemporary
content
contents
contest
context
conti
continent
continental
continenti
continents
continue
continued
continues
continuing
continuum
contra
contract
contribute
contributed
contribution
contributions
contributor
control
controlled
controversial
controversy
convention
convergence
conversation
conversion
conversions
convert
converted
converting
converts
conyzoides
cook
cookbook
cooke
cooking
cool
coolest
coolidge
cooper
cooperation
cooperative
coord
coordinates
coordinating
coordination
coordinator
copa
copeland
copenhagen
copernican
copernicus
copia
copies
copper
copte
coptic
copy
copyright
coral
corazo
corazon
corbett
corbicula
corbin
cord
cordillera
cordilleran
cordilleras
cordoba
cordova
core
corella
corn
cornell
corner
cornish
cornwall
coron
corona
coronary
corp
corporate
corporation
corporations
corps
corpus
corpuz
corre
correct
corregidor
correspondence
corresponding
corridor
corruption
corse
corsica
corsican
corte
cortes
cortex
cortez
corti
corun
corvera
cory
cosme
cosmic
cosmopolitan
cosmos
cost
costa
costas
cotabato
cotton
could
council
counsel
count
counter
counties
countries
country
county
coup
couple
courage
courant
courier
course
courses
court
courtesy
courthouse
couvertoirade
cove
cover
coverage
covered
covering
covers
cowboy
cpa
cpt
cradle
craig
cranberry
crane
crash
crater
crazy
crc
cre
cream
create
created
creating
creation
creative
creator
creatures
credit
credits
creek
cremona
creole
crescent
creuse
crew
crick
cricket
cricketer
crickets
crime
crimen
crimes
criminal
criminology
crisis
crisostomo
crissot
crissotan
cristiano
cristianu
cristianung
cristina
cristo
criteria
critic
critical
criticism
critics
criticu
critique
croatia
croatian
cronin
crop
crops
crosby
cross
crossing
crossroads
crow
crown
crowned
crows
crowther
cruise
crusade
crusader
cruz
cry
crying
crystal
cs
csc
csj
css
csv
ct
cu
cuadradu
cuatro
cuba
cuban
cubay
cubs
cucamonga
cucumber
cuddalore
cuddapah
cudillero
cue
cuenca
cuisine
culasi
culion
cult
cultivar
cultivars
cultivated
cultivation
cultura
cultural
culturang
culture
cultures
cum
cumings
cummings
cummins
cumpania
cumpaniang
cumpara
cunanan
cuneta
cung
cup
cupertino
curac
curcas
cure
curie
curienti
curiosity
curitiba
curl
currants
currencies
currency
current
currently
curriculum
currimao
curry
cursu
cursung
curt
curtis
custer
customs
cut
cutcut
cuttack
cutting
cuyapo
cuyo
cv
cvt
cwt
cy
cyanobacteria
cyber
cycle
cycles
cycling
cylinder
cymbopogon
cynthia
cyperus
cypress
cyprus
cyrus
cyte
cytoplasm
cz
czech
czechia
d
da
daan
dacal
dacera
dadalan
dadalanan
dadayu
daddy
dadiangas
dadra
daga
dagat
dagdag
dagdagan
dagestan
dagis
dagisan
dagohoy
dagul
dagupan
dahil
dai
daily
daimler
daisy
daka
dakal
dakalpa
dakar
dake
dakeng
daklat
dakota
dakpan
dal
dala
dalaga
dalagang
dalai
dalan
dalandan
dalang
dalas
dalawa
dalawang
dalayap
dale
daleraya
dalerayan
dali
dalig
dalise
dalit
dalla
dallas
dalton
dalupan
daly
dam
daman
damascus
dame
damian
damla
damulag
dan
dana
danao
dance
dancing
dane
danes
dang
dangal
dangalan
danger
dangerous
danggut
daniel
danielle
danilo
danish
dannenberg
danny
dano
dans
dante
danum
danuman
danup
danville
danyang
dao
dapa
dapat
dapdap
dapitan
dapot
daptan
dapu
daqing
dar
dara
daraga
daragul
daragus
darakal
darake
darakpan
darala
daralan
daralanan
daramdaman
darapat
daraptan
daras
darasan
daratang
darbhanga
dare
dareng
daring
darjeeling
dark
darkness
darling
darna
darwin
das
dasan
dash
dasmarin
data
databank
database
databases
datang
date
dated
datenbank
dates
dati
datia
dating
datos
datu
datura
dau
daughter
daughters
dauis
daulah
daum
daung
daungan
dav
davao
dave
davenport
david
davidson
davies
davis
dawis
dawkins
dawn
dawson
day
daya
dayang
dayat
dayatmalat
dayrit
days
dayu
dayuan
dayung
db
dc
de
dead
deadline
deadly
deafness
deal
dean
dear
death
deaths
debate
debbie
debosyon
debussy
debut
debuts
dec
decada
decadang
decade
decades
decana
decanu
deccan
december
deciduous
decimal
decision
declaration
decreased
decree
dedicated
dee
deeb
deep
deepak
deer
def
default
defeat
defence
defending
defense
defensor
defined
defining
definition
definitions
definitive
degli
degree
degrees
degulan
dehradun
dei
deir
dekada
dekadang
dekap
del
dela
delanan
delaware
delegadu
deletion
delfin
delgado
delhi
delicious
delivered
delivery
dell
della
delta
deluxe
deming
demise
democracy
democrat
democratic
democrats
demographic
demographics
demokra
demokrasya
demokratikung
demonyms
demotemplate
den
denasan
deng
dengfeng
dengzhou
deni
dening
denis
denise
denmark
dennis
denominator
dense
density
dent
dental
dentistry
denver
deoghar
departamentu
departamentung
department
departmental
departments
depat
depatan
dependencies
dependency
dependent
dependi
depending
depensa
depicting
depositu
depot
deprecations
dept
depth
deputy
der
derby
derek
deretsu
derived
des
desai
descartes
descendants
descent
describe
described
describes
describing
description
descriptions
desert
desiertu
design
designated
designed
designer
designs
desirable
desire
desired
desisyun
desktop
destination
destinations
destiny
destroyed
destruction
deta
detail
detailed
details
detalle
detalye
detang
detected
detektib
determined
deti
deting
detroit
deuterostome
deutsche
deutschen
deutschland
deux
devagiri
develop
developed
developer
developers
developing
development
developmental
devi
device
devices
devil
devonian
devos
devoted
dewas
dhabi
dhanbad
dhar
dharamsala
dharwad
dhekelia
di
dia
diabetes
diabetic
diacritical
diagnosis
diagnostic
diagram
dialect
dialects
dialectu
dialektu
dialektung
dialogue
diamanti
diameter
diamond
diana
diane
diaphragm
diaries
diariu
diariung
diary
dias
diastole
diaz
dibati
dibision
dibrugarh
diccionario
diccionariu
dice
diciembre
dick
dictionaries
dictionary
did
didinan
didn
die
died
diego
dieppe
dies
diesel
diet
dietary
dieter
dietrich
difference
differences
different
differential
diffusion
dig
digdag
digestion
digestive
digit
digital
digitization
digitized
digits
digne
digos
dijon
dikil
dikut
dila
dilanua
dilanwa
dilanwang
dilg
dili
diliman
diling
dilo
dilong
dimaculangan
dimane
dimdam
dimension
dimensions
dimla
dimut
din
dina
dinagat
dinalan
dinalupihan
dinan
dinat
dinatang
dinayu
dindigul
dine
dineklara
ding
dingding
dingzhou
dinh
dininan
dining
diniseniu
dinner
dinosaur
dintang
dinugpa
dinukit
dio
diocese
dion
dionisio
dios
diosdado
diosesis
dioxide
dipl
diploid
diploma
diplomacy
diplomatic
diplomatically
diplomatiku
dipolog
dipper
diputacio
diputadu
dir
direct
directed
direction
directions
director
directorate
directors
directory
direksiun
direksyun
direktor
diretsu
diretsung
dirinan
dis
disambiguation
disan
disaster
disc
disco
discografie
discographie
discographies
discography
discogs
discos
discourse
discover
discovered
discoveries
discovery
discrete
discrimination
discs
discuss
discussed
discusses
discussion
discussions
disease
diseases
diseniu
diseniung
disenyu
dish
disiembri
disiembricalendariu
disk
diskriminasiong
disnan
disney
disorder
disorders
disp
dispatch
display
displayed
displaying
displays
displaystyle
dispute
disputed
disques
dissent
distal
distance
distiliador
distinct
distinction
distinguish
distinguishes
distributed
distribution
district
districts
districtu
distrito
distritu
distritung
disyembre
disyembri
ditak
dition
diu
diuretics
diva
divas
dive
diversity
divided
divine
diving
division
divisional
divisions
diwa
diwan
diwang
diwata
diwatang
dixon
diya
diyos
diz
dizon
dj
djibouti
djokovic
dl
dm
dmia
dmt
dna
do
dobli
dobling
doc
doctor
doctoral
doctorate
doctors
doctrine
document
documentary
documentation
documents
documentu
dodgers
does
doesn
dog
dogs
doherty
doi
doing
doktor
doktora
dollar
dolny
dolores
dolphy
domain
dombes
dombivli
dome
domestic
domestication
dominey
dominggu
domingo
domingu
dominic
dominica
dominican
dominicanu
dominion
dominique
don
donald
done
dong
dongguan
donna
door
doors
doping
dora
dorado
dordogne
dornier
dorongan
dorothy
dorsal
dortmund
dos
dot
dots
double
doubleday
doubles
doubs
doug
douglas
douglaspark
dover
down
download
downloadable
downloaded
downloads
downs
downtown
dp
dq
dr
drafting
dragon
dragons
drais
drake
drama
dramang
dramatic
dravidian
drawing
drawings
dream
dreams
dresden
dress
drew
dreyfuss
drift
drill
drink
drive
driven
driver
dro
drop
dropped
drops
drought
drug
drugs
drum
drummer
drums
druze
dry
dst
dtirol
dts
du
dua
dual
dub
dubai
dublin
duc
duchy
duck
ducks
duct
ducts
dudurut
dudurutan
due
duero
duet
duets
dugo
duhamel
dujali
duke
dula
dulaan
dulang
dulce
dulong
dulum
dumaguete
dumagus
dumalan
dumalneg
duminggu
dumurut
dune
dung
dungeon
dungon
dungus
dunhuang
dunn
duo
duodenal
duodenojejunal
duodenum
dupax
dupri
duran
durer
durg
durgapur
durham
durian
during
durun
durut
dusa
dutch
dutchcharts
duterte
duties
dutung
duval
duyan
dvd
dwaraka
dwarf
dwarka
dwight
dwivedi
dyahc
dylan
dynamic
dynamical
dynamics
dynastinae
dynasty
e
ea
eaaaambaj
each
eagle
ear
earl
earlier
earliest
early
earned
earth
earthquake
earthquakes
easier
east
easter
eastern
easy
eat
eaters
eating
eaton
eb
eban
ebert
ebolusion
ebolusyon
ebolusyun
ebun
ec
ecclesiastical
ecg
echague
ecija
eclipse
ecologia
ecological
ecology
economia
economic
economics
economist
economy
ecosystem
ecosystems
ecuador
ecumenical
ed
edad
eddie
edebe
eden
edgar
edgardo
edge
edible
edilberto
edinburgh
edirne
edison
edisyon
edit
edited
edith
editing
edition
editions
editor
editorial
editors
edits
edmund
edna
edo
edouard
eds
edsa
edu
eduardo
educacion
education
educational
educators
edukasiun
edward
edwards
edwin
ee
effect
effective
effects
efficiency
efficient
effort
efren
eganagana
eganaganang
egg
eggplant
ego
egret
egypt
egyptian
eh
ehemplu
ehime
ehiptu
ei
eight
eighth
eiji
ein
eine
eines
einstein
eisenhower
either
ejiptu
ek
eka
eke
ekonomia
ekonomista
ekonomiya
ekonomya
eksaktu
eksaktung
eksarkado
eksena
eksperimentu
ektarea
eku
el
ela
elaine
elbe
elbow
elder
eleanor
elect
elected
election
elections
electric
electrical
electricity
electron
electronic
electronics
eleksyon
elektrisidad
element
elementaria
elementary
elementarya
elements
elementu
elementung
elena
elephant
elevation
eleven
eleventh
elgu
elias
elie
elilan
elite
elites
elizabeth
ella
elliot
elliott
ellis
ellroy
ellwangen
elmore
elorza
elpidio
els
elsass
elsbett
else
elsevier
elvis
em
email
emanuel
embassy
emblem
embryo
eme
emedicinedictionary
emergence
emergency
emerging
emeritus
emerlinda
emeryville
emil
emile
emilia
emilio
eminem
emirates
emma
emmanuel
emmett
emmy
emosional
emotion
emotional
emotions
emperador
emperiu
emperor
empira
empire
empleadu
employment
emporda
emu
en
ena
enabled
encarta
enciclopedia
enclave
encode
encoding
encounter
encounters
encyclicals
encyclopaedia
encyclopedia
encyclopædia
end
endangered
ended
ending
endless
endocrine
endorser
ends
endspoiler
ene
energy
enerhia
enerhiya
enerhiyang
enero
eneru
enerucalendariu
eng
engine
engineer
engineering
engineers
engines
engl
england
englewood
english
enhanced
enigma
enjoy
enlightened
enlightenment
enough
enrico
enrile
enrique
ensemble
enshi
ensign
ent
entabladu
enter
entered
entering
enterprise
enterprises
enters
entertainer
entertainment
entire
entities
entity
entomological
entomology
entorhinal
entrance
entre
entrepreneur
entrepreneurship
entries
entry
enumerated
environment
environmental
environments
envoy
enzyme
enzymes
eo
eonavian
eosinophil
ep
epa
epektu
ephron
epic
epifania
episode
episodes
epithelial
epithelium
equality
equals
equation
equator
equatorial
equilibrium
equinox
equipment
equivalent
er
era
eran
ere
eric
erich
erickson
erik
eritrea
erlangen
erlewine
ermita
ernakulam
ernest
ernesto
ernie
ernst
ero
erode
error
eruplanu
eruption
erwin
erythrocyte
es
escalante
escape
escolar
escudero
escuela
escuelang
eska
eske
eskri
eskritu
eskuela
eskuelang
eskultor
eskwela
esky
esophagus
espan
espania
espaniol
espanola
espanya
espanyol
especially
esperanza
espesial
espesyal
espesyalista
espinosa
espiritu
espiritual
espn
esq
essay
essayist
essays
essen
essential
essentials
essonne
est
esta
established
estadi
estado
estados
estadu
estadung
estandardisasion
estasiong
estate
este
esteban
esti
estilung
estimate
estimated
estimates
estonia
estorne
estrada
estrella
estudianti
estudianting
et
eta
etc
eternal
etext
ethanol
ethics
ethiopia
ethiopian
ethnic
ethnicity
ethnologue
etiketa
etniku
etymology
eu
eubacteria
eugene
eugenio
euilly
eukaryote
eukaryotes
eukaryotic
eulogio
euphorbiaceae
eurasia
eurasian
eure
eureka
europa
europaea
europang
europe
european
europeo
euse
eusebio
euskal
eustaquio
eux
eva
evaluation
evangelical
evangelina
evangelista
evans
eve
even
evening
event
events
ever
everest
everett
evergreen
every
everybody
everyone
everything
everywhere
evidence
evil
evo
evolution
evolutionary
ex
exactly
exam
examination
example
examples
excavation
excellence
excellent
except
exception
excerpt
exchange
exclave
exclusive
excommunication
excretion
executive
exercise
exercises
exhibit
exhibition
exile
exist
existence
exit
exocrine
exoskeleton
exotic
expand
expanded
expanding
expansion
expatriate
expect
expected
expecting
expedition
expeditions
experience
experiences
experiencing
experiment
experimental
expert
experts
explain
explained
explains
explanation
explicit
exploration
explorations
explore
explorer
exploring
explosion
explosives
expo
exponential
export
exports
exposition
express
expressed
expressing
expression
expressions
extended
extension
extensions
extensive
external
extinct
extinction
extra
extracts
extraordinary
extremadura
extreme
ey
eya
eye
eyed
eyes
ez
f
fa
fabaceae
faber
fabian
fabrica
fabricante
face
facebook
faces
facilidad
facilities
facility
facsimile
fact
factbook
factfinder
facto
factor
factors
factory
facts
factsheet
faculty
fagaceae
fahrenheit
failure
fair
fairfax
fairfield
fairy
faith
faizabad
fajardo
fake
falkland
fall
fallen
falling
fallingrain
falls
false
famas
fame
familia
familiang
families
famille
family
famous
fan
fanclub
fans
fansite
fantastic
fantasy
fao
faq
far
farid
faridabad
farm
farmers
farming
farms
faroe
farrukhabad
fashion
fast
fastest
fat
fate
fatehpur
father
fatima
fats
fatty
fault
favorite
favreau
fayard
fb
fbi
fc
fcgi
fdr
fe
fear
feast
feat
feather
feati
feature
featured
features
featuring
feb
febrero
febreru
february
fecture
fed
federacio
federal
federalny
federated
federation
federazione
federer
federico
fee
feed
feeding
feel
feeling
feet
feliciano
feline
felipe
felix
fellow
fellowship
female
feminine
feminist
ferdinand
fergie
fermi
fern
ferna
fernandez
fernando
ferrand
ferrara
ferreira
ferrer
ferrol
ferrolterra
ferry
fertilization
fertilizer
fest
festival
festivals
fetus
feu
fever
few
feynman
ff
ffbf
fgc
fh
fi
fiat
fiber
fibra
fick
fiction
fictional
fide
fidel
fidelity
field
fields
fiesta
fifa
fifth
fifty
fight
fighting
figueres
figure
figures
fiji
file
filed
files
filesize
filipi
filipina
filipinang
filipinas
filipino
filipinong
filipinos
filipinu
filipinung
fillmore
film
filmfare
filmmaker
filmography
films
filosofo
filter
final
finale
finally
finals
finance
financial
find
finder
finding
finds
fine
finiste
finland
finnish
fire
firearms
firefly
firefox
firenze
firm
first
fiscal
fischer
fish
fishbase
fisher
fisheries
fishery
fishes
fishing
fission
fit
fitness
fitzgerald
five
fl
flag
flags
flame
flanders
flash
flat
flax
fleet
fleming
flemish
flesh
flexure
flickr
flight
flights
flintstones
flip
flixster
floating
flood
floor
flor
flora
florence
flores
florida
floridablanca
floss
flow
flower
flowering
flowers
fluid
fluminea
flv
fly
flyers
flying
fm
fnb
fo
focus
focused
focuses
fog
foix
foliage
folk
folklore
follen
follow
following
follows
fonda
font
fontana
fonts
fontvieille
foochow
food
foods
fool
foot
footage
football
footer
footnote
footnotes
footnotetemplate
for
forbes
force
forced
forces
ford
forearm
forecast
foreign
forest
forestry
forests
forever
foreword
forge
forget
forgotten
form
formal
format
formation
formats
formatted
formatting
formed
former
formerly
forms
formula
forsk
fort
fortich
fortress
fortuna
fortune
fortunes
forty
forum
forums
forward
foshan
fossil
foster
fouad
found
foundation
foundations
founded
founder
founders
founding
fountain
four
fourteen
fourth
fox
fr
frac
fractals
fraction
fractional
fractions
fragmentation
frame
framework
franc
franca
france
frances
francesco
franche
francia
francis
franciscan
francisci
francisco
franco
franconia
francophonie
frank
frankfurt
franklin
franks
franses
franz
fraser
fraternity
fraunhofer
fred
freddie
frederick
free
freedom
freely
freeman
freestyle
freeway
freguesia
freiburg
fremont
french
frequency
frequently
fresh
freshwater
fresno
freud
friar
friars
frida
friday
friedrich
friend
friendly
friends
friendship
friendster
fritz
friuli
froese
from
front
frontcover
frontier
frontline
froome
frs
fruit
fruiting
fruits
fry
ft
ftin
ftz
fu
fuad
fuel
fuentes
fuerza
fuerzang
fuji
fujian
fukui
fukuoka
fukushima
fulcrum
full
fuller
fulltext
fully
fun
function
fund
fundacio
fundador
fundamental
funeral
fungi
fungus
funny
further
fusion
futbolistang
futuna
future
fuyang
fuzhou
g
ga
gabaldon
gabay
gabineti
gabon
gabriel
gabun
gad
gaga
gagalang
gagalangan
gagalo
gagami
gagamit
gagamitan
gagana
gagato
gagawa
gagawan
gagawang
gail
gaindu
gainza
gajanan
gal
gala
galal
galame
galang
galanga
galapagos
galaxy
gale
galera
galicia
galician
galilei
galileo
galing
gall
gallardo
gallbladder
galleria
galleries
gallery
gallica
gallon
galo
galudgud
galugud
galumbang
galura
gama
gamat
gamboa
game
games
gamit
gamitan
gamma
gan
gana
ganap
ganda
gandhi
gang
ganga
ganges
gangetic
gangetica
gangnam
gangtok
gansu
gao
gaobeidian
gaoyou
gap
gapan
gaps
gara
garal
garalita
garalitang
garang
garci
garcia
garcinia
gard
garde
garden
gardening
gardens
gardiner
gardner
gareth
garfield
gari
garland
garlit
garonne
garrett
garrison
garry
gary
garzanti
gas
gascon
gases
gasgas
gaspar
gastrointestinal
gastus
gatas
gate
gates
gateway
gatos
gatpanapun
gauhati
gaurav
gauteng
gava
gave
gavin
gawa
gawad
gawan
gawang
gay
gaya
gaza
gazeteer
gazette
gazetteer
gazing
gazza
gb
gc
gdp
gdwdop
ge
geagea
gear
gees
gelb
gelingan
gem
gemayel
gen
genapan
gender
gene
genealogy
genera
general
generalitat
generally
generals
generate
generated
generation
generations
generic
genes
genesis
genetic
genetically
genetics
geneva
genga
genic
geniculate
genius
genoa
genocide
genome
genomics
genova
genre
gentle
gentlemen
genus
geo
geocities
geoff
geoffrey
geografia
geografiang
geographer
geographers
geographic
geographical
geography
geohive
geolinks
geologia
geological
geology
geometry
geophysical
georg
george
georges
georgetown
georgia
georgian
georgians
georgiaphysiology
ger
gera
gerald
gerang
gerardo
gerc
gerhard
germ
germain
germaine
german
germanic
germans
germany
germplasm
gernot
gerona
geronimo
gers
ges
geschichte
get
gets
getting
getty
gewa
gewang
gfk
ghana
ghats
ghost
ghulam
gi
gia
giang
giant
giants
giap
gibb
gibbs
gibraltar
gibran
gibson
gif
gift
gifu
giga
gigametre
gigli
gijo
gikan
gil
gilbert
giles
gilid
gill
gilles
gillespie
gilroy
gina
ginamit
ginawa
ginawang
gines
ging
ginger
gingoog
ginmaku
gino
gintu
gintung
ginu
ginulis
ginung
gioachino
gion
giovanni
giraffe
girl
girls
girona
gironde
gis
giulia
giuseppe
give
given
gives
giving
giya
gizzard
gkas
gl
glacier
gladwell
glan
glance
gland
glands
glass
glen
glendale
glenn
glise
glo
global
globe
glomerulus
gloria
glory
glossary
glucagon
glucose
glycemic
glycogen
glynne
gm
gma
gmanews
gmbh
gnis
gnu
go
goa
goal
goals
goat
gobernador
gobernadores
gobiernu
goby
gobyernu
god
godavari
goddess
godfrey
gods
godwin
goes
goethe
gogh
going
gokai
gokaiger
goku
gold
golden
goldman
goldstein
golf
golfer
golion
gomez
gondry
gone
gonna
gonza
gonzaga
gonzales
gonzalez
gonzalo
good
goodbye
goodwill
google
gorakhpur
gordon
gore
gosei
goseiger
gospel
gospels
goswami
got
gothic
gottlieb
gould
gourmet
gov
governance
governing
government
governmental
governments
governor
governorate
governors
govt
goya
gozo
gp
gpp
gprs
gps
gr
grabadu
grace
graceland
gracia
graciano
grade
grado
gradu
graduadu
graduate
graduation
graf
graff
graham
grain
grama
grammar
grammy
gramophone
gran
granada
grand
grande
grandmaster
granite
grant
granted
grants
granule
grapes
graphic
graphical
graphics
grass
grasya
grave
graves
gravitation
gravity
gray
grayson
grealis
great
greater
greatest
grebe
grecia
greece
greek
greeks
green
greene
greenhouse
greenland
greensboro
greenwood
greg
gregorian
gregorio
gregory
grein
grenada
grenadines
grenoble
grey
grief
griego
griegong
griegu
griegung
griffith
grin
grip
griyegu
gross
ground
group
grouping
groups
grove
grover
grow
growers
growing
grown
growth
gru
grupo
grupu
grupung
gruyter
gryllotalpa
gsilbi
gsm
gu
gua
guadalajara
guadalquivir
guadalupe
guadeloupe
guagua
guam
guangdong
guangxi
guangzhou
guanzon
guard
guardian
guatemala
guava
gubat
gubernador
gubiernu
gubiernung
gubyernu
gubyernung
gudivada
gue
guera
guerang
guerilla
guernsey
guerra
guerrang
guerrero
guest
guewa
guez
gui
guia
guiana
guiao
guidance
guide
guidelines
guides
guido
guild
guillaume
guillermo
guilty
guimaras
guin
guinea
guinness
guinobatan
guintu
guintung
guinu
guipu
guipuscoa
guitar
guitara
guitarist
guiuan
guiyang
guizhou
gujarat
gujarati
gulbarga
guld
gule
guleng
gulf
gulis
gulod
gulu
gulung
gulut
gumamit
gumana
gumbel
gun
guna
gunma
gunpowder
guns
gunting
guntur
gupta
gurgaon
guria
guru
gus
gusali
gusaling
gustav
gustave
gut
gutenberg
gutierrez
guwahati
guy
guyana
guzman
gwalior
h
ha
habang
habitat
habsburg
hacienda
had
hadji
hafta
haftanın
hagonoy
hague
hai
haikou
haiku
hail
haimen
hainan
hair
haiti
hakka
hakodate
hal
halalan
hale
half
hall
halley
hallux
halo
halsey
halus
hamburg
hamilton
hamlet
hammer
hammoud
hampshire
hampton
han
hancinema
hand
handbook
handheld
handle
handling
hands
haneke
hanford
hangang
hangul
hanja
hanna
hannah
hanoi
hans
hanson
haploid
hapon
hapones
happen
happened
happiness
happy
hara
haram
harbin
harbor
harbour
harcourt
hard
hardback
hardcover
hardin
harding
hardware
hardy
hare
hari
haridwar
hariri
harmony
harold
harper
harpercollins
harris
harrisburg
harrison
harry
hart
hartford
hartono
haruhi
harvard
harvest
harvey
haryana
has
hasbaya
hashemite
hassan
hastings
hat
hathras
haus
haut
haute
hautes
hauts
havana
have
haveli
haven
having
hawai
hawaii
hawaiian
hawi
hay
hayes
hayward
hazan
hbo
hc
hd
hdi
he
head
headed
header
headline
headquarters
heads
healing
health
healthcare
hear
heard
hearing
heart
heartbreak
hearts
heat
heatseeker
heatseekers
heaven
heavenly
heavy
hebei
hebrew
hectolitre
hector
hedgehog
hee
heel
hefei
heidelberg
heidi
height
heights
heihe
heilongjiang
heinemann
heinrich
heinz
hela
held
helen
helena
helicopter
helium
helix
hell
hello
helm
helmut
help
helper
helping
heme
hemiramphus
hemisphere
hemoglobin
hen
henan
henares
henderson
heneral
henerasiun
henerasyun
hengshui
hengyang
henri
henry
henson
hentschel
heograpia
hepatic
hepatitis
hepatopancreatic
her
herald
herb
herbal
herbert
herbs
herculaneum
hercules
here
heritage
herman
hermann
hermosa
herna
hernandez
hernando
hernani
hero
heroes
herpes
herpetology
herpy
herr
herria
herself
heryerdemuzik
herzegovina
hesse
hesus
het
heterozygote
hey
heyuan
hezbollah
hezuo
hi
hialeah
hibiscus
hidalgo
hidden
hide
hideo
hierarchy
high
higher
highest
highlands
highlight
highlights
highly
highsmith
highway
highways
hija
hiking
hilario
hiligaynon
hill
hillary
hillman
hills
hilongos
hilton
him
himachal
himalaya
himalayan
himalayas
himself
hindi
hindu
hinduism
hinduismu
hino
hinterland
hinunangan
hip
hippo
hiroshima
his
hispanic
hispaniola
hist
histoire
histology
historia
historian
historians
historic
historical
histories
history
hit
hita
hitchcock
hitler
hitparade
hits
hiv
hizbullah
hl
hlavni
hm
ho
hoa
hobby
hockey
hodder
hoe
hoffman
hoi
hokkaido
hoku
hokusai
holanda
holandes
hold
holden
holding
holdings
holds
hole
holiday
holidays
holland
hollande
hollow
holly
hollywood
holmes
holocaust
holstein
holt
holy
home
homecoming
homepage
homer
homes
hometown
hommage
hon
honduras
honey
hong
honghu
honolulu
honor
honorable
honorary
honored
honorio
honors
honshu
hontiveros
hoon
hooper
hoover
hop
hope
hopes
hopkins
horace
horacio
horizontal
hormone
hormones
horn
horror
horse
horses
horticultural
hoshi
hosni
hospital
hospitality
hospitals
host
hosted
hosting
hot
hotel
hotels
hotspot
houdas
hougan
houghton
hour
hours
house
household
housekeeping
houses
housing
houston
how
howard
however
howrah
hp
hr
hrsg
hs
hsu
htc
htm
html
http
https
hu
hua
huaibei
huainan
huang
huanggang
huangshan
hub
hubei
hubli
hudson
hue
huelva
huesca
huffington
huffpost
huge
hugh
hughes
hugo
huguenot
hui
huizhou
huk
hukbalahap
hukbu
hukum
huli
hulyo
human
humanidades
humanitarian
humanities
humans
humboldt
humerus
humor
hunan
hundred
hundreds
hung
hungama
hungarian
hungary
hunt
hunter
hunting
hunyu
hurricane
husain
husband
husk
hussain
hussein
huxley
huye
hwang
hybrid
hyderabad
hydra
hydrogen
hye
hymenoptera
hyo
hyperglycemia
hypertension
hyphae
hyphen
hyphenated
hyphens
hypothesis
hyun
i
ia
iaaf
iabt
ial
ian
iast
iata
iatin
iau
iay
iba
ibaba
ibadan
ibalik
ibaraki
ibat
iberian
ibidem
ibie
ibig
ibili
ibm
ibn
ibpa
ibpang
ibrahim
ibrahimpatnam
ibulus
ibye
ica
ical
icao
ice
iceland
ichiro
icon
icons
icua
icy
id
idad
idagdag
idaho
idala
idayu
idea
ideas
identification
identities
identity
ideology
ideyang
idol
idolator
idols
idurut
ie
iec
ieee
iest
if
ifas
ifpi
ifugao
ig
igang
igbaras
iglesia
iglesias
ign
ignacia
ignacio
igpa
igutan
ihekweazu
ii
iii
iing
iis
ik
ika
ikang
ikaw
ike
iki
iking
ikit
ikua
ikumpara
ikwa
il
ila
ilagan
ilako
ilang
ilapin
ilaping
ilarawan
ilawod
ilaya
ildefonso
ile
ileanu
ilera
ileum
iley
iliad
iligan
ilikas
ill
illas
ille
illinois
illness
illustrate
illustrated
illustration
illustrations
illustrator
ilocano
ilocanu
ilocos
ilog
iloilo
iloka
ilokano
ilokanu
iloko
ilonggo
ilonggu
ilug
ilya
ilyich
im
ima
image
imagery
images
imaging
imahen
imalan
imam
imang
imbentu
imbes
imdb
imelda
imereti
img
imgur
imi
immaculate
immediate
immigration
immortal
immune
immunity
immunology
imno
impact
impacts
impeach
impeachment
impeksiun
impeksyun
impennis
imperata
imperial
imperio
imperiu
imperiung
imperyu
implement
implementation
implications
impluwensiya
impluwensya
impormasiun
impormasyon
impormasyun
importance
important
impossible
imppt
impressionism
impressions
improve
improvement
impulse
imt
imus
in
ina
inabe
inagkat
inakmul
inalal
inalilan
inalis
inalkus
inampang
inampun
inari
inasawa
inaugural
inauguration
inaus
inawa
inc
inca
inch
incheon
inches
incident
include
included
includes
including
income
incorporated
incorporation
incorrect
increase
increased
incumbent
inda
indang
indat
independence
independensya
independent
independently
index
india
indian
indiana
indianapolis
indians
indibidual
indibidwal
indica
indicasyun
indicators
indicus
indies
indiewire
indigenous
indigo
indira
individual
individually
indo
indonesia
indonesian
indoor
indore
indre
indu
induced
indung
indus
industria
industrial
industrialisadu
industrialisadung
industrialist
industriang
industries
industriya
industry
indycar
ine
ines
inestabilidad
infamous
infant
infanta
infarction
infection
inferior
infinite
infinity
inflation
influence
influenced
influencia
influential
info
infobox
infoboxes
infodisc
informacio
informacion
informaciun
informatics
information
informations
informative
infrastructure
infrequently
ing
ingatan
inge
ingenieria
inggles
ingkung
inglaterra
ingles
inglis
ingyang
inhabitants
inheritance
inhinyeru
ini
inia
iniang
inieru
inimbentu
ining
initial
initiative
inland
inline
inn
inner
innovation
innovations
innovative
inpormasyun
input
inquirer
inquiry
insect
insects
insectu
insee
insektu
inside
insider
insight
insoll
inspirasiun
inspirasyun
inspiration
inspired
instagram
instance
instant
instead
institucion
institusion
institusiun
institut
institute
institutes
institution
institutional
institutions
instituto
instruction
instrument
instrumentation
instruments
instrumentu
instrumentung
insulin
int
integer
integrated
integumentary
intellectual
intelligence
inter
interaction
interactive
interchange
intercontinental
interes
interest
interesting
interface
intergovernmental
interim
interior
intermediate
internacional
internal
internasional
internasyonal
internasyunal
international
internationale
internet
interpreted
interpreting
interstate
interval
interview
interviewed
interviews
interwiki
intestine
intimate
into
intramuros
intro
introduced
introduction
introductory
inuman
inumpisan
inutus
invaders
invalid
invasion
invasive
inventing
invention
inventor
inventors
inventory
invertebrate
invertebrates
invest
investigation
investment
investors
invisible
invoke
involved
involvement
involving
inya
inyang
inyo
io
ion
iowa
ip
ipa
ipakit
ipalto
ipan
ipanalangin
ipc
ipcc
iphone
ipil
ipinanganak
iprage
ipt
ir
ira
iran
iranian
iraq
iraqi
ireland
irene
iriga
iris
irish
iro
iroko
iron
irri
irrintzi
iru
irving
is
isa
isaac
isabel
isabela
isabella
isabgol
isang
isbn
isbnt
ise
ishi
ishihara
ishikari
ishikawa
isic
isidro
isik
isip
isipan
iskolar
isla
islam
islamic
islamist
island
islanders
islands
islang
islas
isles
islets
isn
iso
isolated
isotope
ispiritual
isplika
isplikan
israel
israeli
issn
issue
issued
issues
istanbul
istasiun
istasyun
istasyung
istat
istatua
istilu
istilung
istituto
istorikung
istorya
istruktura
istrukturang
istung
isulat
isulung
isundu
it
ita
itaas
italia
italian
italiana
italiancharts
italiano
italianu
italianung
italy
italya
italyanu
itang
itas
itbayat
item
items
itf
ithaca
iti
iting
itis
ito
its
itself
itsura
itsurang
itu
itulid
itunes
itung
ituring
itzy
iucn
iupac
iv
ivan
ivatan
ivoire
ivory
iwate
ix
iya
iyabe
iyang
iyapin
iyas
iyo
j
ja
jabal
jabalpur
jacinto
jack
jackfruit
jackie
jackson
jacksonville
jacob
jacqueline
jacques
jade
jae
jaen
jaena
jahn
jaime
jain
jaipur
jaisalmer
jakarta
jake
jakob
jal
jala
jalandoni
jam
jamaica
jamaican
jamby
james
jamie
jammu
jamnagar
jamshedpur
jan
jane
janeiro
janet
janez
janipaan
januari
january
japan
japanese
japon
japonic
jar
jardin
jaro
jaroslav
jasaan
jasmine
jason
jat
jatropha
jaume
java
javakheti
javanese
javier
jay
jaya
jays
jazeera
jazz
jb
jbeil
jc
je
jean
jeane
jeanne
jeddah
jeff
jefferson
jeffrey
jeffries
jejomar
jejunum
jellyfish
jencks
jenkins
jenner
jennifer
jensen
jepsen
jepson
jeremy
jermaine
jerry
jersey
jerusalem
jervis
jerzy
jess
jesse
jessica
jesucristo
jesuit
jesuita
jesus
jet
jew
jewish
jews
jezzine
jhalawar
jhansi
jharkhand
jhene
jhunjhunu
ji
jia
jiamusi
jiangmen
jiangsu
jiangxi
jiangyin
jiaozuo
jibril
jieyang
jill
jim
jimenez
jimmy
jin
jingle
jingmen
jingzhou
jinjiang
jintan
jiuquan
jixi
jo
joa
joan
joanne
joaqui
joaquin
job
jobi
jobs
jocelyn
jodhpur
jodi
joe
joel
joey
johann
johannes
johannesburg
john
johnny
johns
johnson
johnston
join
joined
joins
joint
jojo
joker
jolie
jolo
jomalig
jon
jonas
jonathan
jones
jonquera
joo
jordan
jorge
jorhat
jornada
jose
josef
josefa
josefina
josep
joseph
josephine
josh
joshua
josie
jour
journal
journalism
journalist
journalists
journals
journey
journeys
jovellar
jovice
joy
joyce
joyeuse
joyeux
jp
jpeg
jpg
jr
jsp
jstor
ju
juan
juanico
juba
jubilee
judah
juday
judd
judge
judges
judgment
judicial
judio
judith
judy
juice
jul
jules
juli
julia
julian
julianne
julie
julien
juliet
julio
juliu
juliucalendariu
julius
july
jun
junagadh
junction
june
juneau
jung
juni
junio
junior
juniper
juniu
juniucalendariu
juniville
jupiter
jura
just
justice
justicia
justification
justin
juvenile
juventud
jyp
jyutping
k
ka
kaarian
kaba
kabait
kabalduga
kabaldugan
kabalen
kabalenan
kabaligtaran
kabalitan
kabaluan
kaban
kabanalan
kabang
kabayan
kabayancentral
kabayu
kabiasnan
kabiayan
kabilang
kabilian
kabilugan
kabilyan
kabisayan
kabisera
kabitisan
kabladugan
kabud
kabug
kabugao
kabuktut
kabulasan
kabundukan
kabundukang
kabunsuan
kabuntalan
kaburian
kaburyan
kabyasnan
kabyayan
kacung
kadala
kadalasan
kadane
kadaneng
kadapa
kadayatan
kadayatmalatan
kadingilan
kadisha
kadua
kaduang
kadwa
kadwang
kaev
kagawa
kagiwan
kagoshima
kagubatan
kaguluan
kagulutan
kagulwan
kahit
kahlil
kahn
kai
kaibat
kaifeng
kailangan
kaili
kailing
kaiping
kaisipan
kaizoku
kaka
kakaba
kakaluguran
kakaluluan
kakambal
kakampi
kakanan
kakataskatasan
kakatni
kakawani
kakawe
kakeuan
kakewan
kakheti
kakinada
kaku
kakulangan
kakung
kakuyug
kal
kala
kalaban
kalabas
kalabaw
kalabing
kalabingsiam
kalabingsyam
kaladua
kalagyu
kalahasti
kalakal
kalakalan
kalalangan
kalam
kalamidad
kalamnan
kalamunding
kalanse
kalat
kalaut
kalawakan
kalayaan
kalayan
kalbag
kaleldo
kalele
kalibo
kalibudatan
kalibudatang
kalibudtan
kalibudtang
kalibudtaran
kalibudtarang
kalibutarang
kalibutnan
kalidad
kaligtasan
kalihim
kalijim
kalikasan
kalima
kalimang
kalimantan
kalimpong
kalinangan
kalinga
kaliningrad
kalintaw
kaliskis
kaliu
kalma
kalu
kalugkug
kaluguran
kalugus
kalulu
kalupa
kalupang
kalyan
kamaganak
kamal
kamalapur
kamatayan
kamate
kamatis
kambal
kambe
kambing
kambubulag
kamen
kami
kaming
kaministilan
kampeon
kampeonato
kampong
kampot
kampung
kan
kanaan
kanagawa
kanaku
kanakung
kanam
kanan
kanchipuram
kandadung
kandadunggabun
kandal
kandidatu
kandila
kang
kangazha
kanian
kanini
kanita
kanitang
kaniti
kaniting
kanlaon
kanluran
kannada
kannur
kanpur
kansai
kansas
kanser
kanta
kantang
kanto
kanu
kanuan
kanung
kanwan
kanya
kanyakumari
kanyan
kanyang
kanye
kao
kaoh
kapad
kapagmasusian
kapagnasan
kapaintulutan
kapakayan
kapakibatan
kapal
kapaliarian
kapaligiran
kapamahalan
kapamahalang
kapami
kapamilata
kapamilatan
kapamilya
kapampa
kapampangan
kapampangang
kapamu
kapanakawanan
kapanalig
kapanamdaman
kapanaunan
kapangan
kapanibalan
kapaniwalan
kapansin
kapante
kapanualan
kapanumanan
kapanwalan
kapara
kaparalanan
kapareu
kapat
kapatad
kapatagan
kapatulugan
kapaya
kapayapan
kapigaganakan
kapilan
kapilinang
kapirasu
kapitan
kapitna
kapitnang
kapitolyu
kapitung
kapmilatan
kapoor
kappa
kapsa
kapuluan
kapulungan
kapulwan
kapunan
kara
karabakh
karagdagan
karagdagang
karagul
karaikal
karakal
karaklan
karakter
karamsad
karanasan
karaniwan
karaniwang
karapatan
karapatdapat
karas
karayu
karbon
kardashian
kare
karela
karelang
karen
kareng
kareni
karening
karera
karerang
karetang
kareti
kareting
kari
karibal
karimlan
karimnagar
karin
karinan
karing
karisma
karl
karlovy
karlsruhe
karma
karnataka
karni
kartli
karulun
karur
karwar
kas
kasakitan
kasal
kasalan
kasalanan
kasalesayan
kasalpantayanan
kasalpantyanan
kasalukuyan
kasalukuyang
kasalungsungan
kasalungsungang
kasama
kasanayan
kasangkanan
kasangkapan
kasangkapang
kasantingan
kasapni
kasarinlan
kasaup
kasebian
kasebyan
kaseng
kasepu
kashi
kashmir
kasi
kasiam
kasibul
kasikatan
kasindagul
kasing
kasiping
kasiran
kassel
kastila
kastilang
kasu
kasuglung
kasulatan
kasulatang
kasumangid
kasunduan
kasuyuan
kata
katabas
kataeb
katalan
katalaruan
katamtaman
katang
katangian
katapatan
katas
katatagan
katatalakaran
katataulian
katau
katawan
kataya
katayang
kate
katedral
kategoria
kategorya
kateri
katherine
kathmandu
kathryn
kathy
katibayan
katimawan
katipunan
katlu
katlung
katni
katning
katolika
katoliko
katoliku
katolikung
katua
katuki
katulid
katuliran
katulirang
katumbas
katunayan
katungkulan
katutu
katutuan
katutubu
katutubung
katutwan
katwa
katzer
kaufman
kaugalian
kaugnayan
kaugne
kauli
kauran
kaurian
kauryan
kauswagan
kautusan
kawa
kawad
kawal
kawalung
kawangis
kawani
kawata
kawatasan
kawayan
kawit
kay
kaya
kayabangan
kayabe
kayabeng
kayagnan
kayagum
kayalang
kayalili
kayamanan
kayanakan
kayang
kayanib
kayantabe
kayapan
kayarap
kayari
kayarian
kayaryan
kayatulan
kayawig
kaybat
kayi
kaylangan
kaylangang
kayli
kayling
kayu
kayung
kayuryan
kazakh
kazakhstan
kazimierz
kb
kbs
kc
kcrw
ke
keang
keazor
kebaitan
kebaluan
kebalwan
keeling
keen
keep
keeping
keeps
kegan
keiji
keith
keithley
keka
kekami
kekaming
kekang
kekatamu
kekatamung
kekatang
kekayu
kekayung
keller
kellman
kelly
kelsea
kelvins
kemal
kematayan
kematyan
kemikal
ken
keng
keni
kening
kennedy
kennel
kenneth
kenny
kent
kentucky
kenu
kenya
kept
keragu
keragulan
keragulang
keraklan
kerala
kern
kesa
ket
keta
ketang
ketapang
ketasan
ketauan
ketawan
ketchikan
keti
keting
kevin
kew
kewani
key
keya
keyang
keyboard
keynote
keys
kg
kh
kha
khalil
khammam
khan
khandwa
khanh
khargone
khayya
khayyam
kheda
khiev
khmer
khz
ki
kib
kidapawan
kidman
kidney
kids
kiev
kiing
kikilalanan
kikimut
kiko
kil
kila
kilala
kilalanan
kilalang
kile
kill
killed
killer
killing
killings
kilograms
kilometers
kilometres
kilometru
kilual
kilub
kilumetru
kilung
kilwal
kim
kimi
kimura
kimut
kimutan
kin
kinabie
kinangua
kinanwa
kinawani
kind
kindergarten
king
kingcomarca
kingdom
kingdoms
kingfisher
kings
kingston
kinilala
kinki
kinua
kinudta
kinuldas
kinwa
kiran
kiri
kiribati
kirov
kiss
kissinger
kit
kita
kitang
kitchen
kitts
kkpk
klasi
klasing
klasipikasiun
klaus
klima
klimang
klimt
klip
km
knesset
knew
kng
knife
knight
knights
knives
knockout
knopf
know
knowledge
knowles
known
knox
ko
koc
koch
kochi
koda
kodansha
kodiku
kodradu
koehler
koenigii
kofi
koh
kohima
kolehiu
kolehiyo
kolehiyu
koleksyon
kolhapur
kolkata
kollam
kolonya
kolonyal
kolonyang
komanggi
kombinasyun
komentaryu
kometa
kometang
komiks
komisyon
komite
komplikadu
komplikadung
komplikasyun
kompositor
komunidad
komunikasyun
komunista
kon
konark
kondadu
kondadung
kong
kongreso
kongresu
konkani
konsehal
konseptu
konstantinopla
kontinenti
kontra
kontrobersya
kontrobersyal
koontz
koop
koponan
kopya
korba
korea
korean
koreanu
koreanung
korona
koronadal
koronel
korpuskulos
korte
korupsyon
kosovo
kostroma
kota
kotsi
kottayam
koya
kozhikode
kpa
kr
kra
krai
kraj
kreise
kreisfreie
krimen
kris
krishna
krisis
kristin
kristine
kristu
kritiko
kritiku
kro
krus
ksh
ku
kuala
kuayan
kudarat
kudradu
kukulang
kukulate
kukwang
kulang
kuldas
kule
kuleng
kuliat
kulintang
kulinyawan
kulitan
kulkul
kulpahar
kultura
kulturang
kulul
kulumparit
kulung
kuma
kumabye
kumamoto
kumander
kumar
kumpania
kumpanya
kumpanyang
kumpara
kumpletu
kumpletung
kumpul
kumulang
kundilat
kundisyun
kune
kung
kunst
kunsthistorisches
kuomintang
kura
kurd
kurdish
kurdistan
kurds
kurienti
kurnool
kuro
kursk
kursu
kursung
kurt
kuryenti
kusa
kushinagar
kushiro
kuta
kutang
kutkutan
kutnan
kutsiliu
kutsiliung
kuwait
kuwento
kuwentung
kvemo
kw
kwadradu
kwan
kwayan
kwentu
kwf
ky
kyang
kyo
kyoto
kyrgyz
kyrgyzstan
kyu
kz
kɑ
l
la
labak
laban
labana
labanan
label
labem
labi
labing
labingaduang
labingatlung
labinglimang
labis
labor
laboratories
laboratoriu
laboratory
labour
labrador
labs
labuad
labute
labwad
lack
lacryma
lacson
lacy
ladakh
ladderized
ladenburg
ladies
lady
laen
laga
laganap
laganas
lagari
lagaring
lagayan
lage
lagerstroemia
lagi
lagiu
lagiung
lagman
lagonoy
lagoon
lagpas
laguna
lagyu
lagyung
lahar
lahat
lahi
lahing
lai
laka
lakabalen
lakad
lakan
lakanabalen
lakanablen
lakanbalen
lakanbaleng
lakandula
lakaran
lakas
lake
lakes
lakewood
laki
lakshadweep
laktong
lakuan
lakuas
lal
lala
lalaban
lalabas
lalabasan
lalage
lalagen
lalageng
lalakad
lalake
lalaki
lalaking
lalako
lalalwigan
lalam
lalang
lalapit
lalarawan
lalasawan
lalawi
lalawigan
lalawigang
lalbug
lalon
lalto
laltong
lalu
lalung
lam
lama
laman
lamang
lamao
lamas
lambak
lambatan
lamesa
lamiaceae
lamitan
lamp
lampung
lamu
lan
lanag
lanao
lanas
lance
land
landes
landing
landkreise
landmark
landmarks
lands
landscape
landscapes
lane
lang
langan
langerhans
langfang
langi
langis
langit
language
languages
languedoc
lanham
lani
lanka
lansing
lantern
lanzhou
lao
laoag
laoang
laon
laos
lap
lapad
lape
lapid
lapinig
lapit
laptop
lapu
lapus
lapuz
lara
larangan
larawan
laredo
large
largest
larry
larsen
laru
larung
larva
larvae
larynx
las
lasa
lasang
lasawan
laser
lasetas
lasip
lassen
last
lasting
lasun
lat
latan
late
later
lateral
lateran
latest
lati
latin
latina
lating
latinized
latino
latitude
latium
latter
latur
latvia
latvian
laude
lauen
laughter
launch
launches
laura
laureado
laureadu
laureate
laureates
laurel
lauren
laurence
laurent
laureus
laurus
laut
lauta
lava
laval
lavandula
lavender
law
lawaan
lawan
lawe
lawen
lawi
lawigan
lawrence
laws
lawu
lawyer
laxamana
lay
laya
layer
layout
layun
lazaro
lazio
lb
ldp
le
lea
lead
leader
leaders
leadership
leading
leads
leaf
league
leagues
leak
leandro
leap
learn
learned
learning
least
leather
leave
leaves
lebanan
lebanese
lebanon
lebel
lecco
lech
lecture
lectures
led
ledesma
lee
leedskalnin
lefebvre
left
leg
legacy
legal
legarda
legaspi
legazpi
legend
legendary
legends
legion
legislation
legislative
legislature
legitimate
leguan
legwan
leh
lehislatura
leiden
leif
leila
leiognathus
leipzig
leisure
lejos
leko
lelang
lelangan
lele
lemery
lemon
lemongrass
len
length
lengua
leningrad
lennon
lennox
lens
leo
leon
leona
leonard
leonardo
leparan
lepidoptera
lepitan
leptospirosis
lerner
leron
les
lesbian
lescharts
leslie
less
lesser
lesson
lessons
leste
lester
let
letra
letran
letrang
letratu
letratung
lets
letter
letters
leukemia
leukocyte
leung
leuven
level
levels
lever
levin
leviste
levy
lewis
lewisohn
lexington
leyi
leying
leyte
lez
lgn
lgu
lhasa
lhuyd
li
lia
lian
lianxin
liban
libangan
libas
libe
liberal
liberation
liberec
libertad
liberty
libingan
libis
libjo
libnan
libo
libon
libraries
library
libri
libring
libru
librung
libu
libudtad
libung
libungan
libut
libutad
libya
libyan
license
liceo
lie
liechtenstein
lies
lieutenant
life
lifestyle
lifetime
liga
ligament
ligao
ligaya
light
lightning
lights
ligligan
ligpusan
ligtas
liguria
ligurian
lihim
lijim
lika
likas
like
likely
likidu
likidung
likuan
likwan
lil
lila
lilikas
liling
lilipat
lille
liloan
lily
lim
lima
limampulu
limampulung
liman
limang
limasawa
limay
limbag
limbagan
limbs
limbug
limitadu
limited
limoges
limon
limousin
lin
lina
linaban
linabas
linage
linalang
linao
linawe
lincoln
linda
lindsay
line
lines
ling
lingap
lingayen
lingguistiku
lingua
linguist
linguistic
linguistics
linh
liniang
linikas
linimbag
linipat
link
linked
links
linn
linnaeus
linne
linnean
lino
linto
linual
linub
linukluk
linus
linux
linwal
linya
lion
lionel
lions
lip
lipa
lipase
lipat
lipay
lipetsk
lipi
lipid
lipids
lipunan
liquid
lira
liryo
lis
lisa
lisbon
lisian
list
lista
listaan
listahan
listed
listen
listesinde
listing
listings
lists
lisuban
lisyan
lit
litani
literacy
literal
literally
literary
literatura
literaturang
literature
lithuania
lithuanian
lito
litratu
litres
litte
little
liturgy
liu
live
lived
livelihood
liver
livermore
liverpool
lives
living
liwa
liwang
liwas
lix
liza
ll
llanera
llc
lleida
ller
llobregat
lloyd
lo
lobe
lobo
lobu
loc
local
locale
localisation
locally
locals
located
location
locations
lock
lodi
loffaoffdxsofft
log
logic
logo
loir
loire
loiret
lok
lokal
loma
lombardy
lombut
lon
lonchura
london
lonely
lonesome
long
longer
longest
longhai
longitude
longman
longos
longyan
lonoy
lons
looc
look
looking
looks
lookup
loop
lope
lopez
lord
lords
lore
loren
lorenzo
loreto
lorna
lorraine
los
loss
lossless
lossy
lost
lot
loting
lots
lotus
lou
louie
louis
louise
louisiana
louisville
lounge
lourdes
love
loved
lovell
lovely
lovers
loves
loving
low
lower
lowland
loyola
loze
lp
lpg
ls
lsa
lt
ltd
lu
lua
lual
lualas
lualhati
luat
lub
luban
lubao
lubas
lubbock
lubid
lublin
lubus
lubusan
lubusang
luc
luca
lucas
lucasfilm
lucban
lucena
lucia
luciano
lucius
lucknow
lucky
ludhiana
ludwig
lug
lugal
lugo
lugud
luid
luigi
luis
luisa
luka
luke
lukib
lukluk
luklukan
luksemburgu
lulanan
lulu
lulual
lulub
luluban
lulwal
luma
lumaban
lumang
lumapit
lumbaca
lumban
lumbug
lumpens
lumpur
lumual
lumwal
lun
luna
lunar
lunas
lundag
luneta
lung
lungib
lungs
lungsod
lungsud
lungub
lunsud
lunto
luntong
luo
luohe
luoyang
lupa
lupang
lupun
lupung
lusong
lutayan
luther
lutheran
lutu
lutung
luuk
luv
luxembourg
luz
luzon
lv
lyceum
lydia
lymph
lymphatic
lymphocyte
lynch
lyndon
lynn
lynne
lyon
lyons
lyric
lyrics
lzw
m
ma
maalaala
maamlat
maasin
mababa
mababang
mababanggit
mababawas
mabagal
mabalacat
mabalu
mabandi
mabanglu
mabanglung
mabasa
mabatung
mabawas
mabayat
mabibie
mabibieng
mabibilang
mabibye
mabibyeng
mabie
mabieng
mabilis
mabilug
mabini
mabisa
mabitac
mabolo
mabuhay
mabuktut
mabunduk
mabwak
mabye
mac
macabebe
macabulos
macao
macapagal
macaraeg
macario
macarthur
macau
macdonald
macedonia
machilipatnam
machine
machines
mackay
macmillan
macmillian
macrophage
mactan
mactutor
mad
madagascar
madalumdum
madame
madanapalle
madaya
made
madera
madhya
madinah
madison
madonna
madras
madre
madreng
madrid
madridejos
madrigal
madurai
mae
maestra
maestrat
maestro
mafia
mag
maga
magadan
magagamit
magagawa
magalang
magaling
magallanes
magalona
magamit
magamitan
magaral
magasin
magaspang
magazine
magba
magbabo
magbalik
magbante
magbotu
magbunga
magcalas
magdala
magdalang
magdalena
magdatun
magdependi
magdili
magdilidiling
magellan
magi
magic
magical
magigisan
maging
magisan
magkalub
magkanta
magkantang
magkasa
magkasakit
maglakad
maglakbe
maglalang
maglarawan
maglaso
maglualu
maglwat
magnetic
magnitude
magnus
magobra
magobrang
magpa
magpalakad
magpalual
magpalwal
magparakal
magparla
magsadya
magsalita
magsalitang
magsane
magsarili
magsariling
magsaysay
magsilbi
magsilbing
magsimpan
magtagumpe
magtuloy
maguindanao
maguing
magumasid
magumpisa
magumpisang
magwakas
maha
mahabaleshwar
mahabang
mahabharata
mahal
mahama
maharaj
maharaja
maharashtra
maharlika
mahayag
mahayahay
mahbubnagar
mahe
mahilig
mahinda
mahistradu
mahmoud
mahoba
mai
maibug
maid
maiggit
maigit
maigpit
mail
mailing
maimpis
main
maina
mainang
maine
mainit
mainland
mainly
mainstream
maintained
maintenance
maintun
mais
maissemy
maitum
maiz
maize
majapahit
majayjay
major
majorana
majorca
majority
majors
maka
makaaliwa
makaatsat
makaba
makababo
makabage
makabakud
makabaldugan
makabalen
makabalibul
makabaluktut
makabalut
makabang
makabasi
makabayu
makabayung
makabebe
makabili
makabuklat
makabukud
makabusni
makadake
makagawa
makagiu
makagyung
makaing
makakalat
makakawani
makakawaning
makakit
makakulung
makakuta
makakutkut
makalalam
makalapit
makalasun
makalaut
makalele
makaleleng
makalibutad
makalista
makalto
makalual
makalub
makalukluk
makalunus
makalupung
makalwal
makamate
makananu
makananung
makanian
makanyan
makapadurut
makapag
makapagmulala
makapagmulalang
makapaintulut
makapal
makapalual
makapalub
makaparikil
makapatungkul
makapun
makaragdag
makaramdam
makarok
makarov
makasa
makasadya
makasakdal
makasake
makasalamin
makasalanan
makasalesayan
makasalesayang
makasalikut
makasamasan
makasara
makasarili
makasariling
makasaup
makasentru
makasepu
makasiksik
makasimpan
makasiping
makasuglung
makasukul
makasulat
makasulud
makasusu
makata
makatadua
makatagan
makataid
makatakap
makatakut
makatala
makatalakad
makatanam
makatapat
makatas
makatayid
makati
makatikdo
makatipun
makatua
makatud
makatuglung
makatuki
makatuking
makatuklu
makatuknang
makatuldu
makatumpak
makaturu
makatutuk
makaugne
makayabe
makayagpang
makayaliwa
makayapektu
makayarap
makayatsat
make
makeba
makedonia
maker
makers
makes
maki
makiabe
makibandi
makibat
makikatni
makikilala
makikilalang
makilala
makiling
makina
makinang
making
makinis
makintab
makipag
makiramdam
makisabi
makitid
makiugnayan
makkah
mako
makudta
makudtang
makule
makuleng
makuyad
makyabe
mal
mala
malabar
malabon
malabung
malag
malagad
malagasang
malagu
malagua
malaguang
malagung
malagwa
malagwang
malakal
malaki
malalam
malalaso
malaman
malambat
malambut
malan
malangi
malanging
malapad
malaparan
malapatan
malapit
malare
malasin
malaso
malat
malate
malathi
malati
malating
malaut
malawak
malay
malaya
malayalam
malayan
malaybalay
malayo
malaysia
malbog
malcolm
malda
maldang
maldives
male
maleparan
mali
malia
maliap
maliari
maliaring
maliban
maligaya
malik
maliliari
malilyari
malinao
maling
malinis
malino
malinong
malis
malisangan
malita
malitbog
mall
mallari
mallorca
malolos
malta
maltese
malu
maluat
malugud
maluid
maluka
maluku
malulut
maluma
malunggay
malutu
malutung
malvar
malwa
malwat
malyap
malyari
malyaring
mama
mamagus
mamakbung
mamako
mamala
mamalis
mamaliwa
mamamate
mamangan
mamantinian
mamapektu
mamasa
mamayad
mamayun
mambajao
mambog
mamburao
mame
mamialung
mamie
mamilatan
mamili
mamintu
mamisaling
mammal
mammalia
mammals
mammary
mamnoon
mamuhunan
mamun
mamunga
mamuntukan
mamutut
mamyalung
mamye
man
mana
management
manager
managing
manakit
manalang
manalbe
manalig
manalili
manaliwa
manalkus
manalo
manambag
manamun
manansala
manasik
manatili
manatiling
manawa
manay
manaya
mancha
manche
manchester
mandagdag
mandal
mandals
mandaluyong
mandarin
mandatila
mandaue
mandela
mandir
mandsaur
mandy
mane
manfred
mang
manga
mangabaldugan
mangabaldugang
mangabilug
mangadi
mangailangan
mangailangangan
mangakaba
mangakabang
mangakuyad
mangalagiri
mangalakal
mangalalam
mangalap
mangalapad
mangalati
mangalatiktik
mangalating
mangalore
mangamanu
mangamanung
mangan
manganak
manganese
mangapaling
mangaragul
mangarayung
mangarimlang
mangasakit
mangasanting
mangasikan
mangasiwa
mangasyas
mangatas
mangatuang
mangawang
mangaylangan
mangaylangang
mangga
mangisnawa
mangisnawang
mangituglung
mango
mangostana
mangosteen
mangu
manhattan
mani
mania
maniabt
maniago
maniakup
maniaman
maniampagang
manibala
manibalang
manibat
manibatan
manifesto
manigaral
manigobra
manikwa
manikwang
manila
manilatimes
manimbentu
manimuna
manimunang
manimunu
manimunung
maningat
manintun
manipun
manipur
manitoba
maniwala
maniwalang
mankind
mann
mannheim
manning
manny
mano
manohar
manoharlal
manolo
manorama
mans
mansanas
mansfield
mansion
mantova
manual
manually
manuel
manufacturer
manufacturing
manuguru
manuk
manuknangan
manungkulan
manuscript
manuscripts
many
manyakup
manyalikut
manyaman
manyampaga
manyampagang
manyanga
manyira
manyu
manzano
mao
maoming
map
mapa
mapait
mapalad
mapali
mapaliaring
mapaling
mapalyari
mapalyaring
mapanganib
mapanyakup
mapapangan
mapia
mapiang
mapilan
mapilang
mapili
mapinu
mapinung
mapipitna
maplas
mapping
mapquest
maps
mapu
mapua
mapupus
mapusa
maputi
maputing
maputla
mapyang
mar
mara
maragul
marakal
maralas
maralumdum
maramag
maraming
maranao
maranat
marangle
marantao
maranun
maranup
marapat
mararapat
maras
marasbaras
maratha
marathi
marathon
maravilla
marawi
marayu
marayung
marayuput
marc
marcel
marcela
marcelino
marcella
marcelo
march
marche
marco
marcos
marcus
mardika
maresme
margao
margaret
margarita
margie
margin
marguerite
mari
maria
mariah
marian
mariana
mariang
mariano
maricel
marie
marikina
marilag
marilao
marilou
marilyn
marimla
marimlang
marin
marina
marinaut
marinduque
marine
mariner
mariners
marino
mario
marion
mariposa
marissa
maritime
maritimes
mariveles
marjeyoun
marjoram
mark
marka
markang
marked
market
marketing
markets
marks
marlas
marlene
marlon
marmara
marne
marok
maronite
marque
marquez
marriage
mars
marsan
marseille
marsha
marshal
marshall
marso
marsu
marsucalendariu
martha
marti
martial
martiliu
martiliung
martin
martina
martinez
martinique
martinis
martins
martir
martires
martorell
martyr
martzke
maru
marungay
marv
marvin
mary
maryknoll
maryland
marysville
marzo
marzu
mas
masa
masabal
masakit
masala
masalang
masalese
masaleseng
masaling
masampat
masanting
masantol
masasabi
masasalamin
masasali
masaya
masbate
maselan
masiadung
masias
masigasig
masikan
masikanan
masiksik
masilbi
masipag
masipit
masira
masisipsip
masisira
mask
maski
maslam
maslin
maslog
mason
maspak
mass
massachusetts
massacre
masses
massimo
massive
mast
master
masters
mastitis
mastura
masuksuk
masusing
masusukad
masyadu
masyadung
masyas
mat
mata
mataba
matabang
matagumpe
matagumpeng
matalab
matalas
matalik
matanda
matanog
matapang
matapat
mataram
matas
matatag
match
matches
mate
matematica
matematika
matematiku
matenakan
mateo
matera
material
materialis
materials
materyal
math
mathematical
mathematician
mathematics
mathematicu
mathison
mathura
matias
matibeng
matilus
matinding
mating
matn
matning
matris
matrix
matsue
matsuo
matsura
matt
matter
matters
matthew
mattingly
matua
matuang
matudtud
matula
matulid
matuling
matungao
matunud
matwa
matwang
mau
maulaga
maulagang
mauli
mauling
maulingalbugan
maulingalbugang
maulingaslagan
maulingaslagang
maulingaslgan
maureillas
maurice
mauritania
mauritius
mausang
maustang
mawala
mawawala
mawawalang
mawli
mawling
max
maxi
maximum
may
maya
mayakit
mayalaga
mayalagang
mayan
mayap
mayari
mayaya
mayayagkas
mayayakit
mayayari
mayayaus
mayen
mayenne
maygit
maynard
maynila
mayo
mayon
mayor
mayores
mayoria
mayors
mayotte
mays
mayu
mayucalendariu
mayumu
mayumung
mayupayang
mazes
mazinger
mazzarello
mb
mbc
mbeki
mbit
mbox
mc
mca
mccarthy
mccartney
mccarver
mcdonald
mcenroe
mcentire
mcfarland
mcgraw
mcintosh
mckay
mckinley
md
me
mea
meakua
mealkus
mean
meanchey
meangu
meanguabie
meangubie
meaning
meaningless
meanings
means
meanwhile
meas
measure
measurement
measurements
measures
mebalu
mebanggit
mebaril
mebating
mebawas
mebie
mebisa
mebite
mebuktut
mebulus
mecad
mecca
mechanical
mechanics
mechanism
mechanisms
mecklenburg
med
medak
medal
medalists
medalya
medalyang
medellin
media
medial
mediang
mediawiki
medical
medicina
medicinal
medicine
medicines
medicion
medien
medieval
medina
medisina
mediterranean
mediterraneo
medium
meerut
meet
meeting
meetings
meets
meg
mega
megachiroptera
megambul
megamit
meganap
megaral
megawa
megawang
meghalaya
megi
meging
megisan
megobra
meguing
megumpisa
megumpisang
mehta
meier
meilleures
meimbentu
meiosis
meizhou
mekad
mekaisip
mekapisali
mekapun
mekasaup
mekasulat
mekatanggap
mekatapilan
mekatatlu
mekatuklas
meki
mekiasawa
mekilala
mekilalang
mekintal
meko
mekong
mekopia
mekua
mekulkul
mekulung
mekwa
mel
melakuan
melalang
melambat
melancholy
melanesia
melanie
melaus
melbourne
meles
melilla
melimbag
melissa
mellitus
melon
melun
melyari
memakbung
memalen
member
members
membership
membrane
meme
memie
memoir
memoirs
memorable
memorandum
memoria
memorial
memorials
memories
memory
memphis
memuklat
memuntukan
memyalung
memye
men
menakit
menalili
menaliwa
menalkus
menambag
menasa
menatili
mende
mendel
mendez
mendiola
mendocino
mendoza
meng
mengalabas
mengalabasan
mengamate
mengan
mengari
mengasira
mengaturan
meni
menibala
menibat
menibatan
menigaral
menigobra
menikua
menikwa
menikwang
menila
menimbentu
menimuna
menimunu
menlo
mensahi
menstrual
mental
mentha
mention
mentioned
mentor
menuknangan
menungkulan
menyambut
mepatad
mepili
mepiling
mepilit
mepilitan
mepirma
mepitna
meputungan
meputut
mer
meragul
merakal
merakap
merapat
mercado
merced
mercedes
merchant
mercury
mere
merge
merida
meridian
merit
merriam
merrillii
merry
mes
mesa
mesabi
mesabing
mesakup
mesali
mesambitla
mesambitlang
mesambut
meshname
mesilab
mesintang
mesira
mesoplodon
message
messages
messenger
messi
mestizo
mesukul
met
meta
metabolic
metaboliku
metabolism
metabolismu
metacritic
metal
metals
metamorphosis
metanggap
metaphor
metaphors
mete
metel
meteng
meteorological
meteorology
meters
methane
method
methodist
methods
meto
metre
metres
metric
metro
metropolis
metropolitan
metru
mets
metta
metuklas
metung
metz
meurthe
meuse
meutng
mewala
mewalang
mexican
mexico
meyakit
meyakua
meyakwa
meyalal
meyalkus
meyandam
meyari
meyaring
meyatulan
meyaus
meycauayan
meyer
meyiku
mez
mfa
mg
mga
mgalating
mi
miabe
miagnan
mialal
mialilan
mialis
mialiwang
miami
miao
miayaliwa
miayaliwang
mibaba
mibabait
mibabalik
mibage
mibagsak
mibait
mibalik
mibayit
mibayu
mibayung
mibibili
mibie
mibili
mibubulalag
mibuklat
mibulalag
mibusni
mibye
mica
michael
michaels
michel
michelangelo
michelle
michigan
mick
mickael
mickelson
mickey
micro
microbat
microbiology
microchiroptera
microlepis
micronesia
microphone
micropolitan
microscope
microscopic
microsoft
mid
midadala
midake
midala
middle
middleton
midi
midinan
midnight
midsayap
midwestern
midwifery
mie
miembru
mifflin
mig
migbalik
migbunga
migdala
migdatun
migdimitir
migdisenyu
might
migising
migit
miglakbe
miglalang
miglayag
migluat
miglwat
migmula
migpalista
migpalual
migration
migretiru
migsalita
migsarili
migserbisyu
migsilbi
migsilbing
migtagumpe
migtagumpeng
miguel
miguit
migumpisa
migwakas
miha
mijares
mika
mikaka
mikakalat
mikakamaganak
mikakapatad
mikakasundu
mikakawani
mikakawaning
mikalat
mikanlapit
mikasala
mikasundu
mikatagun
mikawa
mikawani
mike
mikey
miki
mikiabe
mikibandi
mikit
mikrobius
mikutkut
mikyabe
mil
mila
milaban
milabas
milabasan
milagros
milagyuan
milako
milalako
milalang
milan
milano
milarawan
milayi
mile
miles
milia
miliari
miligtas
milikas
milimbag
milimetru
milipat
militar
military
militia
miliun
miliung
milk
milky
mill
millard
millennium
miller
millfy
milli
million
millions
mills
milos
milpitas
milton
milub
milukluk
milulupa
milun
milwaukee
milya
milyari
milyun
milyung
mimar
mimaropa
mime
miminum
mimiral
mimisip
mimosa
mimua
mimunikala
min
mina
minaj
minalili
minalin
minalis
minaliwa
minalkus
minambag
minang
minawa
mind
mindanao
mindano
mindoro
mindoru
minds
mine
minecraft
mineral
mines
ming
mingatbang
minh
mini
minie
mining
minister
ministerio
ministers
ministro
ministru
ministrung
ministry
minneapolis
minnesota
minnillo
minor
minorca
minority
minorya
minsan
mint
minta
minukiat
minuli
minum
minuna
minunang
minurung
minute
minutes
minutu
minutus
minuyan
minyad
minyambut
minye
mipaala
mipagiu
mipagyu
mipaintulutan
mipalage
mipalagiu
mipalagyu
mipalagyuan
mipalgyu
miparangalan
mipasar
mipatunayan
mipda
miputungan
mira
miracle
miracles
miragdag
miragdagan
miragsa
miranda
miraragdagan
miraras
miras
miriam
mirinan
mirror
mirzapur
misa
misabi
misalbag
misali
misamis
misan
misane
misangkanan
misanib
misanmetung
misara
misasagana
misasalungat
misasamut
misasanib
misasanmetung
miscellaneous
mise
mishima
mishra
misimpan
misiun
misl
mismatched
mismu
mismung
misna
misnang
miss
missing
mission
missionaries
missionary
missions
mississippi
missouri
mist
mister
misteryu
misubli
misulat
misundu
misusulat
misusumangid
misyon
misyun
mit
mita
mitabi
mitagan
mitakpan
mitala
mitalakad
mitanam
mitas
mitatag
mitatagan
mitatagkil
mitatak
mitatakpan
mitatanam
mitatas
mitch
mitchell
mitikdo
mitikdong
mitimawa
mitipun
mitis
mititikdo
mititipun
mitmu
mitmung
mitolohiya
mitosis
mitral
mitukian
mituknang
mituldu
mitulduan
mituldung
mitulid
mituran
mituring
mituru
mitutuglung
mitutukan
mitutuking
mitutuldu
mitutulid
mituturing
miugne
miwawangis
mix
mixed
miyabe
miyagi
miyalal
miyalilan
miyalis
miyaliwang
miyampang
miyanib
miyari
miyaring
miyatulan
miyayabe
miyayalal
miyayalilan
miyayaliwa
miyayaliwang
miyayalwang
miyayampang
miyayapektwan
miyazaki
miyembru
miyuyugne
mizoram
mizuki
mk
ml
mlb
mm
mmda
mmff
mmol
mn
mnb
mng
mnla
mo
mobile
mobula
mode
model
modelling
models
modelu
modelung
modem
modems
moderate
modern
modernung
modesto
module
mohamed
mohammad
mohan
moines
mojo
molave
mold
moldova
mole
molecular
molecule
molecules
molina
molino
molise
mom
moment
moments
mon
monaco
monarchies
monarchy
monasteries
monasterio
monasteriu
monasteriung
monastery
moncada
monday
monde
mondragon
monera
monetary
money
mong
monggol
mongol
mongolia
mongolian
monica
monico
monitor
monitoring
monk
mono
monocyte
monographs
monophyletic
monroe
monsoon
monster
mont
montalba
montan
montana
montauban
montclair
monte
montenegro
montenegru
monterey
montero
montes
montessori
montevista
montgomery
month
monthieux
monthly
months
montpellier
montre
montreal
monts
montserrat
monument
monuments
monumentu
monza
monzon
moon
moonlight
moore
moradabad
moral
morales
moran
morbihan
more
morena
moreno
morgan
moringa
morissette
mormon
morning
moro
moroccan
morocco
morong
morphology
morris
morrison
morrow
morsi
mortality
morton
mosaic
moscow
moselle
mosque
mosquito
mosquitoes
moss
most
mostly
moth
mother
moths
motilal
motion
motor
motors
motto
moulins
mount
mountain
mountains
mouse
mouth
move
movement
movements
moves
movie
movies
moving
mozambique
mozart
mozilla
mp
mpeg
mpgimp
mpgus
mr
mrc
mrs
ms
msa
msd
msgr
msn
msnbc
msu
mt
mtskheta
mtv
mu
mubarak
much
mucilage
mucosa
mud
mudanjiang
mugabe
mughal
mugwort
muhammad
muhlach
mukha
mukherjee
mula
mulajan
mulan
mulberry
mulhouse
muli
muling
multi
multicellular
multilingual
multimedia
multinational
multiple
multiples
multiplication
mumbai
mumuli
mumuna
mumunang
mumurung
mumusbung
mumutus
mun
muna
munaman
mundo
mung
munich
municipal
municipalidad
municipalities
municipality
municipios
munie
munikala
munikalang
munisipalidad
munshiram
munta
munting
muntingia
muntinlupa
munye
mupin
mura
muraoka
murcia
murder
muricata
murin
muring
murmansk
muroran
murphy
murray
murraya
murshidabad
murut
musa
muscle
muscles
muscular
muse
museo
museum
museums
mushroom
mushrooms
music
musica
musical
musicale
musicang
musicbrainz
musician
musicians
musicline
musictoptr
musika
musikang
musikeru
musikindustrie
musix
muslim
mussoorie
must
mustafa
mutation
mutations
mutiny
mutya
muzaffarnagar
muzaffarpur
mv
mvp
mx
mxt
my
myanmar
myayaliwa
myayaliwang
myayalwang
mycelium
mydukur
mye
myers
myocardial
myocardium
myrna
myself
mysore
myspace
mysterious
mystery
mystic
mytext
myth
mythology
myths
myung
n
na
naawan
nabatieh
nabatiyeh
nabunturan
nacional
nacionalista
nad
nadal
nadiad
nadine
nadu
nag
naga
nagaland
nagano
nagapattinam
nagar
nagaram
nagari
nagasaki
nagato
nagbukel
nagercoil
naging
nagorno
nagoya
nagpur
nagsasaad
naguilian
nahar
nai
naic
nail
nainital
najran
nak
naka
nakasubaybay
naked
nakhon
naku
nakung
nala
nalang
nalgonda
nam
naman
namang
name
named
names
namibia
naming
namo
namu
namuhay
namung
nan
nana
nanan
nancy
nanded
nandin
nang
nangalisan
nangan
nangka
nanjing
nanotechnology
nanping
nansei
nanterre
nantes
nanu
nanuman
nanung
nanupata
nanyang
nap
napa
napin
naples
napo
napoleon
napoli
napun
nara
narciso
narnia
narra
narrative
narrow
narsan
narsisismung
nas
nasa
nasaan
nasal
nash
nashik
nashville
nasl
nast
nasyonalista
nat
nath
nathan
nathaniel
natin
nation
national
nationale
nationalism
nationalist
nationality
nationally
nations
native
natividad
nativity
nato
natur
naturae
natural
naturalesa
naturalis
naturalist
naturally
nature
nauru
nava
naval
navantia
navarra
navarre
navarro
navassa
navbox
naver
navi
navigation
navigator
navotas
navy
nawaz
nay
nayon
nayun
nazaire
nazareth
nazi
nazionale
nazis
nb
nba
nbc
nbsp
nc
ncaa
ncbi
nchen
ncia
ncipe
ncr
nd
nder
ndez
ndo
nds
ndtv
ndu
ne
neal
near
nearby
nearest
nearly
nebraska
necessarily
neck
need
needed
needham
needles
needs
negative
neglected
negocianti
negociu
negosianti
negosianting
negosiu
negosiung
negosyanti
negosyanting
negosyu
negotiator
negrensi
negroponte
negros
neighborhood
neighborhoods
neighbourhood
neil
neither
nellore
nelson
neman
nemesio
nemuro
neneng
neng
neni
neo
neolithic
nepal
nepali
nephrology
nepomuceno
neptune
neri
nero
nerve
nerves
nervios
nerviosa
nervous
nest
nestor
net
netanyahu
netflix
netherlands
network
networking
networks
neu
neuf
neuflize
neuron
neuroscience
neutral
neutron
neutronic
neutrophil
nevada
never
nevers
nevis
new
newark
newest
newfoundland
newly
newman
newport
news
newscaster
newsletter
newspaper
newspapers
newton
next
nez
nfl
ng
nga
ngai
ngakung
ngan
ngana
nganang
ngang
nganing
ngara
ngayon
ngbarangay
ngche
ngel
ngeles
ngeni
ngening
nghi
ngilinan
ngjia
ngo
ngsha
ngu
ngungut
nguye
nguyen
ngya
ngzho
nh
nha
nhk
nhl
nho
ni
nia
niang
nias
nibaliw
nibat
nibel
nic
nica
nicanor
nicaragua
niccolo
nice
nicholas
nichols
nick
nickelodeon
nicki
nickname
nicky
nico
nicolas
nicolaus
nicole
nicolson
nicos
nidetz
nido
nie
niederentzen
niel
niels
nielsen
niemeyer
nieto
nieves
nig
niger
nigeria
nigerian
night
nights
nightshade
nign
nih
nikola
nil
nila
nile
nilgiri
nilgiris
nin
nine
nineteenth
ning
ningde
ninggermany
ninh
nini
nining
ninja
nino
ninoy
ninu
ninung
niog
niort
nippon
nis
nita
nitang
niti
niting
nito
nitrogen
nittele
niue
nixon
niya
niyang
nizamabad
nizhny
nj
njia
nl
nlc
nlm
nm
nme
nmhli
nmi
nn
nndb
nng
no
noaa
nobel
nobela
nobelang
nobelista
nobelistang
nobelprize
nobenta
nobiembri
nobiembricalendariu
nobilis
noble
nobody
nobyembre
nobyembri
node
noel
noida
noise
nokarin
nokia
nomenclature
nominasyun
nomination
nominations
nominees
non
none
nonfiction
nong
noni
nonlinear
noon
nor
nora
nord
nordic
norfolk
norm
norma
normal
norman
normananatomy
normandie
normandy
norodom
norte
north
northeast
northeastern
northern
northwest
northwestern
norti
norton
norway
norwegian
norzagaray
not
nota
notable
notation
note
notebook
noted
notelist
notes
nothing
notice
notre
noun
nouvelle
nov
nova
novak
novel
novela
novelang
novelist
novelists
novels
november
novgorod
noviembre
noviembri
novo
novosibirsk
now
noynoy
npa
npgs
npr
nrc
ns
nsf
nso
nstra
nsw
nt
nther
ntv
nu
nuan
nucifera
nuclear
nucleic
nucleotide
nucleus
nuestra
nueva
nuevo
nukarin
num
numang
number
numbered
numbers
numerical
numerous
nun
nunavut
nune
nung
nunge
nunu
nuremberg
nurse
nursing
nut
nutr
nutrient
nutrition
nutritional
nuts
nuwan
nuwas
nuya
nvpi
nwt
ny
nya
nyang
nyc
nytimes
nz
nzho
nə
o
oahu
oak
oakland
oakley
oaks
oar
oas
ob
obama
obando
obat
obe
obihiro
obispo
obispu
obituary
objects
oblast
oblation
obra
obrador
obrang
obrero
observation
observations
observatory
observer
obsessed
obstruction
obtained
oc
oca
ocalan
ocampo
occasion
occasionally
occidental
occidente
occitan
occupation
occupied
occur
occurrence
occurs
ocean
oceana
oceania
oceanographic
oceanography
ochs
ocimum
oclc
oct
octave
october
octopus
octubre
octubri
octubricalendariu
odd
ode
odeillo
odin
odiongan
odor
odorant
odyssey
oeste
of
off
offensive
offer
offered
offering
offers
office
officer
offices
official
officially
officials
offset
offshore
oficial
oficialis
ofisial
often
og
ogg
ogie
ographique
oh
ohanian
ohio
oil
oiler
oils
oini
ois
oise
oita
ok
okc
okinawa
oklahoma
okrug
oktober
oktubri
ol
ola
olandes
olango
old
older
oldest
oldstyledate
ole
oleifera
olfaction
olfactory
oliva
olivenc
oliver
olo
ologie
olomouc
olongapo
olympia
olympic
olympics
om
omaha
oman
omar
omits
omitted
omnibus
on
once
oncology
oncorhynchus
one
oneng
onepage
ones
onetemplate
ong
ongoing
oni
online
only
onor
ontario
ooo
ooty
op
open
opened
opening
opens
opera
operas
operate
operated
operating
operation
operations
operator
opinion
opisial
opisina
opisyal
opm
oposisyun
opportunities
opposed
opposite
opposition
oppus
optic
optical
option
options
opus
oquendo
or
ora
oral
orang
orange
orani
oras
orasan
oratorio
oratory
orbit
orchestra
orchid
orden
order
ordered
orders
ordinal
ordinance
ordinary
ore
oregano
oregon
orejas
oreni
oreta
org
organ
organelle
organic
organisa
organisasyun
organisation
organisations
organisms
organismu
organismung
organization
organizations
organized
organs
organu
organung
ori
oricon
orient
oriental
orientales
oriented
origanum
origin
original
originally
origins
orihinal
orion
orissa
oriya
orlando
orle
orleans
ormoc
ornamental
orne
oro
oroquieta
oroville
orphan
ort
ortega
ortelanu
orthodox
orthography
ortigas
ortodoksu
ortografi
ortograpiya
ortograpiyang
oryol
oryza
os
osa
osaka
osamu
osb
osborne
oscar
oshima
osias
osmen
ospital
ossetia
ossicle
ostalbkreis
ot
otaru
othe
other
otherpeople
others
otherwise
otoko
otonomiya
otsu
otto
ottoman
ou
ouest
oup
our
ourense
out
outcome
outdoor
outer
outline
outlook
outlying
output
outputs
outside
outstanding
ov
ova
ovadia
oval
ovary
ovata
over
overall
overseas
overview
overviews
owen
own
owned
owner
owners
ox
oxford
oxnard
oxygen
oxyurichthys
oya
oyan
oyni
oyonnax
oz
ozt
p
pa
paano
paascu
pababa
pabalat
pabalik
pabanua
pabanwa
pabayat
pabilug
pablasa
pablasang
pablo
pabor
pabrika
pabrikang
pabulan
paburen
pabustan
pacia
pacific
pacifico
pack
package
packard
paco
pacquiao
pacu
padding
pader
padilla
padova
padre
padua
padurut
padurutan
paete
paez
pag
pagadian
pagal
paganan
pagaralan
pagatin
pagbilao
pagbuo
page
pages
pagkamalian
paglalawe
paglalaweng
paglat
pagmaragul
pagmasusian
pagmasusyan
pagmayabang
pagnasan
pago
pagobra
pagoda
pagos
pagsanjan
pagsilebran
pagsubok
pagulut
pagumasdan
pahayagan
pahayagang
pahor
pai
paid
pain
painted
painter
painters
painting
paintings
paintulut
paintulutan
paintunan
paintungulan
pajo
pak
paka
pakabang
pakakalulu
pakala
pakamalan
pakanan
pakapun
pakatalakad
pakatuknang
pake
pakera
paki
pakibat
pakibatan
pakilawe
pakiramdaman
pakisabi
pakistan
pakistani
pakit
pakiyanti
pakpak
paksa
paksang
paku
pakwan
pal
pala
palace
palacio
palad
palage
palageng
palagyu
palakad
palakul
palalam
palalda
palamu
palanan
palanas
palanca
palancia
palang
palapag
palasingsingan
palasyu
palatandanan
palatinate
palau
palawan
palayan
palayo
palayong
paldas
pale
palencia
palengke
palengki
palermo
palestine
palestinian
palette
palgrave
pali
paligi
paligid
palikpik
palimpatan
palimpsest
palina
palm
palma
palmas
palmer
palms
palo
palsintan
palual
palub
palungpung
palwal
pam
pamag
pamaga
pamagalsa
pamagaral
pamagat
pamagbalik
pamagbawas
pamagbayu
pamagbayung
pamagdala
pamagdimitir
pamaghiganti
pamagkamali
pamagkanta
pamagkulang
pamagkumpara
pamaglaban
pamaglaganap
pamaglage
pamaglakad
pamaglakbe
pamaglako
pamaglalang
pamaglarawan
pamaglaso
pamaglayag
pamaglikas
pamaglinis
pamaglipat
pamaglitis
pamaglual
pamaglub
pamaglusub
pamaglutu
pamaglutung
pamaglwal
pamagmana
pamagmantini
pamagmasusi
pamagobra
pamagpalual
pamagpalya
pamagpatubu
pamagplanu
pamagpondu
pamagpursigi
pamagsalita
pamagsane
pamagsarili
pamagsiasat
pamagsilbi
pamagsimpan
pamagtaksil
pamagtas
pamagumasid
pamagumpisa
pamakamate
pamakiabe
pamakibage
pamakilaban
pamakiramdam
pamakiugnayan
pamakyabe
pamalak
pamalenan
pamamahala
pamamakbung
pamamalakad
pamamangan
pamamasa
pamamatyawan
pamamau
pamamayad
pamamie
pamamilang
pamamili
pamamiling
pamamingwa
pamamintura
pamamisali
pamamomba
pamamupul
pamamutut
pamamyalung
pamamye
paman
pamana
pamanagus
pamanakit
pamanaklas
pamanalakad
pamanalan
pamanalili
pamanalipit
pamanalis
pamanaliwa
pamanaliwang
pamanalkus
pamanalto
pamananam
pamananaman
pamanang
pamananggap
pamanasan
pamanasik
pamanatili
pamanaus
pamanayun
pamanayus
pamandagdag
pamandagul
pamandukit
pamandurut
pamangabyayan
pamangagli
pamangailangan
pamangalakal
pamangalap
pamangalbag
pamangaluku
pamangambul
pamangamit
pamangan
pamanganak
pamangawa
pamangawang
pamangaylangan
pamanggamit
pamangikwan
pamangilala
pamangimut
pamangisnawa
pamangisnawang
pamangulis
pamangulkul
pamangupit
pamaniakup
pamanialiksik
pamanialugsug
pamaniamasan
pamaniambut
pamanibala
pamanibalang
pamanigaral
pamanigobra
pamanigtig
pamanikdo
pamanimbentu
pamanimuna
pamaningat
pamanintindi
pamanintun
pamanisip
pamaniulat
pamaniuyu
pamanopera
pamansag
pamantasan
pamanubu
pamanuklas
pamanuknangan
pamanuldu
pamanulu
pamanulung
pamanungkulan
pamanuru
pamanurung
pamanyagip
pamanyakup
pamanyaliksik
pamanyalita
pamanyalugsug
pamanyambut
pamanyaup
pamanyiksik
pamanyilab
pamanyimpan
pamanyingut
pamanyinup
pamanyipsip
pamanyira
pamanyubuk
pamanyukad
pamanyulagpo
pamanyulat
pamanyulung
pamanyuri
pamanyuyu
pambabai
pambangsa
pambangsang
pambansa
pambansang
pami
pamiabe
pamialiwa
pamianib
pamibage
pamibalangkas
pamibiebie
pamibulalag
pamikakapatad
pamikakatawan
pamikalat
pamikasundu
pamikatagun
pamikatawan
pamikawani
pamikilala
pamikuyad
pamilaban
pamilarawan
pamilia
pamiliang
pamilibe
pamilupa
pamilya
pamilyang
pamimalemale
pamintuan
pamipagaral
pamipahayag
pamipalino
pamipalual
pamipalyari
pamipamuk
pamipante
pamiparakal
pamipate
pamipatune
pamipitna
pamipulayi
pamirake
pamirakeng
pamirungut
pamisabi
pamisamut
pamisanib
pamisanmetung
pamisaplala
pamisaup
pamisip
pamisuglung
pamisulung
pamisusug
pamita
pamitagun
pamitatag
pamitikdo
pamitinduk
pamitipun
pamituglung
pamituki
pamitukituki
pamituknang
pamituru
pamiturung
pamiugnayan
pamiugne
pamiyabe
pamiyaliwa
pamiyaliwang
pamiyanib
pamiyanti
pampang
pampanga
pampangan
pampango
pamplona
pampublico
pampulitica
pampulitika
pamu
pamuklat
pamung
pamuntuk
pamutut
pamyalita
pan
pana
panabo
panagiotis
panahon
panaji
panakit
panakitan
panalala
panalan
panama
panamdam
panamdaman
panangab
panapaan
panareda
panas
panatilyan
panaun
panaung
panay
panayan
panchayat
panchkula
pancreas
pancreatic
panda
pandag
pandagdag
pandan
pandayan
pandi
pandit
pandora
pane
panel
paneng
pang
panga
pangabagsak
pangabait
pangabalangkas
pangabawas
pangabili
pangabuktut
pangabulag
pangadake
pangadi
pangadua
pangaduang
pangaduangpulu
pangagawa
pangako
pangaku
pangalabas
pangalako
pangalimbag
pangalukluk
pangamate
pangan
panganam
pangane
panganib
panganiban
pangapalyaring
pangapat
pangarap
pangaras
pangasalbag
pangasambut
pangasikat
pangasiksik
pangasinan
pangasira
pangasukul
pangataid
pangatas
pangatatag
pangatau
pangatikdo
pangatimawa
pangatlu
pangatlung
pangatuklas
pangawala
pangayagkas
pangayari
pangbalen
pangbangsang
pangcultura
pangi
pangil
pangilinan
pangimut
panginternational
pangkabang
pangkabilugan
pangkabilugang
pangkabulasan
pangkalakal
pangkaleldo
pangkalinangan
pangkapamahalan
pangkapanibalan
pangkaraniwan
pangkasalesayan
pangkat
pangkilual
pangkilub
pangkilwal
pangkultura
panglaban
panglabuad
panglabwad
panglalawigan
panglao
panglima
panglimang
panglub
panglwal
pangmalda
pangmaldang
pangmaluatan
pangmarakal
pangmarakalan
pangmetung
pangnegosyu
pangngalan
pangpang
pangsimpanan
pangsira
pangtanaman
pangule
pangulu
pangulung
pangulungalbugan
pangulungaslagan
pangulungaslgan
pangunakan
pangyatu
pangyatung
paniatang
panibalan
panibatan
panig
panigaralan
panigobran
panimanman
panimunan
paninap
panintunan
panipat
paniqui
panistis
paniu
paniulat
paniulung
paniwala
paniwalan
paniwalang
panlaban
panlalawigan
panlasa
panlilio
panna
panorama
panoramas
panoramic
pansamantala
pansamantalang
pansarili
pansariling
pansin
pansinan
pansing
pantalan
pantas
pantau
pante
panteng
panthera
pantukan
panualan
panugali
panulu
panulung
panvel
panyambut
panyatang
panyipit
panyulat
panyulung
paoay
paolo
papa
papabor
papacy
papakit
papakuyad
papal
papalakad
papaliari
papalto
papalual
papaluan
papalyari
papang
paparla
papaten
papaya
papel
paper
paperback
paperbacks
papers
papil
papilla
papua
papulasyun
papunta
papuntang
papyrus
par
para
parade
paradise
paradoxplace
paraguay
paragulan
paraiso
parakalan
paralan
paralang
parallel
paraluman
paralympic
parameter
parameters
paran
paranaque
parang
parangal
paranum
paras
parasan
parasitiku
parati
pardo
pare
paredes
parent
parents
pareu
pareung
pari
paring
paris
parish
parisukad
park
parker
parkinson
parks
parlamento
parlamentu
parliament
parliamentary
parma
parnaso
parnasu
paro
parokia
parokya
parque
parry
part
partamentu
partement
parti
partially
participating
participatory
particle
particles
particular
particularly
partido
partidong
partidu
partidung
parties
partikular
parting
partner
partners
partnership
parts
party
parugang
parul
paruminggu
parusa
parusang
pas
pasalamat
pasalikut
pasantingan
pasay
pasbul
pascal
pascual
pasibayu
pasibayung
pasig
pasikanan
pasiknangan
pasil
pasilidad
pasipiku
paskil
pasku
paso
pasong
pass
passage
passed
passes
passi
passion
passive
past
pastor
pastoral
pastrana
pasyenti
pat
pata
patag
patakaran
pataksil
patan
patas
patch
patdan
pate
patel
paten
patent
patents
pateros
path
pathankot
pathe
pathogen
pathology
pathoschild
pati
patiala
patienti
patients
patigtig
patikdo
pating
patna
patnanungan
patong
patria
patriarca
patriarch
patriarka
patricia
patrick
patrol
patron
patrun
patse
pattern
patterns
patterson
patty
patugut
patune
patutuan
pau
paud
paul
paula
pauli
paulina
paulino
paulo
pauly
pavia
pavilion
pawa
pawas
pay
payapa
payat
pays
payung
payungan
payungpayungan
paz
pb
pba
pbs
pbt
pc
pccba
pd
pda
pdf
pe
pea
peace
peak
peaked
peaks
peanut
pearl
pearson
peas
peasant
peasants
pebrero
pebreru
pebrerucalendariu
peca
pectoris
pederal
pedro
peer
pegaralan
pegumpisan
pei
peka
pekabayu
pekabayung
pekadakal
pekakatawan
pekakilala
pekakilalang
pekalabuad
pekamababang
pekamabilis
pekamakabang
pekamakualtang
pekamalambat
pekamalapad
pekamalapit
pekamalati
pekamalating
pekamaleparan
pekamapyang
pekamaragul
pekamaragula
pekamarakal
pekamaritak
pekamasanting
pekamasikan
pekamatagumpeng
pekamatas
pekamatenakan
pekamatua
pekamatuang
pekamatwang
pekamaulaga
pekamaulagang
pekamauli
pekamauling
pekamumunang
pekapangulung
pekapun
pekaragul
pekasepu
pekasikat
pekasimpling
pekataniag
pekayanak
pekilagiu
pekilagyu
peking
pele
pelicula
peligru
pelikula
pelikulang
peliz
pen
penakitan
penandit
penang
pendatun
pendergrass
pengan
pengari
pengaring
penguin
penh
penibalan
penibatan
penigobran
penimunan
peninsula
peninsular
penn
pennsylvania
penske
penza
people
peoples
peopleschoice
pep
pepa
pepabalu
pepaintulutan
pepakilala
pepakit
pepakuyad
pepalage
pepalagyu
pepalual
pepalub
pepalwal
pepamunikala
peparagul
peparala
peparangalan
pepasiag
pepasikan
pepatunud
pepawaga
pepe
pepper
peppers
peptide
pequen
pequot
per
pera
peralta
perang
percent
perception
perch
perciformes
peregrina
peregrinasiun
perennial
perez
perfect
performance
performances
performing
perilymph
period
periodic
periodista
periods
peritoneum
perkins
perlas
permanent
permanenti
permanenting
pero
perpage
perpetual
perpignan
perry
persea
persia
persian
person
persona
personal
personalidad
personalities
personality
personang
personnel
persons
perspective
perspectives
peru
perugia
peruvian
peryodista
pesaro
pescadores
pest
pesus
pet
petaluma
pete
peter
petersburg
peterson
petra
petri
petrified
petroleum
petsa
petsang
pez
pf
pg
pga
ph
phagocytosis
phalange
phan
pharma
pharmacology
pharmacy
pharynx
phase
phases
phd
phelps
pheng
phenomenon
pheromone
phi
phil
philadelphia
philanthropist
philatlas
philemon
philip
philippe
philippine
philippines
philippinescensusofpopulationlgus
phillip
phillips
philosofia
philosopher
philosophers
philosophical
philosophy
philosopu
phils
phnom
phnum
pho
phoenician
phoenix
phone
phonetics
phong
phonographic
phonographique
phonology
phononet
photo
photogallery
photograph
photographed
photographic
photographs
photography
photos
photosynthesis
photosynthetic
php
phpsessid
phragmites
phrase
phu
phyla
phylogenetic
phylogenetics
phylogeny
phylum
physical
physician
physicians
physicist
physicists
physics
physiological
physiology
pi
pia
piabe
piaben
piabeng
piagapo
pialung
pianista
piano
pibandian
pibandyan
pic
picardie
picardy
picasso
pick
picks
pictorial
picture
pictures
pidung
pie
pieces
piedmont
piemonte
pier
pierce
piero
pierre
piesang
piesta
piestang
pieter
pietro
pig
pigaganakan
pigawan
pigeaud
pigkalub
pigkalubanan
pigmasusian
pigment
pigmulan
pigs
pikabaluan
pikabalwan
pikawani
piksyon
pikuanan
pikudta
pikudtang
pikukuanan
pikukwanan
pikwa
pikwanan
pila
pilak
pilan
pilang
pilapil
pilar
pilatan
pilgrim
pilgrimage
pili
pilidu
pilinan
pilipinas
pilipino
pilipinu
pilit
pilmihan
pilosopiya
pilot
pilotu
pilsen
piluban
pilubluban
piluluban
pimentel
pimpri
pin
pinag
pinagbuklod
pinak
pinal
pinamalayan
pinandit
pinatu
pinatubo
pinatubu
pinay
pinduan
pine
pineapple
pineapples
pineda
ping
pingdingshan
pinggan
pinguinus
pinili
pinintura
pinirma
pinitna
pink
pinna
pinnata
pinnate
pinneberg
pino
pinoy
pins
pinta
pintalan
pinter
pintor
pinu
pinunu
pinutut
pinyin
pio
pioneer
pioneers
pipa
pipagaralan
pipagaralang
pipanganan
pipapaten
pipe
pipeline
piper
pipilinan
pipilo
pipitnan
pipumpunan
pira
pirake
pirasu
pirasung
pirate
pirates
pirene
piriform
pirinan
pisabian
pisalapian
pisalapyan
pisali
pisamban
pisambang
pisamut
pisan
pisanmetung
pisasabian
pisasabyan
pisasabyang
pisasali
pisiag
pisical
pisikal
pisni
piso
pistol
pistorius
pisu
pisulagpon
pitaklan
pitatamnan
pitcairn
pitch
pithecellobium
pitig
pitna
pitnan
pitogo
pitpit
pitt
pittsburg
pittsburgh
pitu
pituknangan
pitumpulu
pitung
piu
pius
pivot
pixar
pixel
piyabe
piyalung
piyayabe
pk
pkk
pl
pla
place
placer
places
plain
plains
plais
plaka
plamondon
plan
plana
planck
plane
planet
planeta
planetang
planetary
planets
planned
planner
planning
plano
plans
plant
plantae
plantago
planted
plants
planu
planung
plaridel
plasma
plastic
plate
plateau
platelet
platform
platin
platina
platinum
play
played
player
players
playing
playmobil
playoff
playoffs
plays
playstation
playwright
plaza
plc
pldt
pleasant
please
plebiscite
pliers
pliny
plm
ploning
plot
plough
plug
plum
pluma
plumas
plumb
plume
plural
plus
pluto
plzen
pm
pmid
pmma
pna
pnas
png
po
poaceae
pob
poblacion
pocket
pod
podcast
poe
poem
poema
poems
poesia
poesiang
poesya
poet
poeta
poetang
poetic
poetics
poetry
poets
poinsettia
point
points
poisoning
poitiers
poitou
poker
pol
pola
polaco
poland
polandball
polar
polaris
pole
poles
poli
police
policies
policy
polish
polisiya
politica
political
politically
politician
politico
politics
politicu
politicung
politika
politikal
politiku
polk
poll
pollen
pollination
pollution
polo
polynesia
polynesian
polytechnic
ponce
ponda
pondicherry
pondu
pontevedra
pontifical
ponyfish
pook
pool
poona
poor
pop
pope
popes
popiełuszko
pops
populaciu
popular
popularly
populasiun
populasyon
populasyun
populated
population
populations
populaysun
populous
por
porac
porcientu
porma
pormal
pormang
poro
porsientu
porsyentu
port
portable
portal
portals
portfolio
portion
portland
porto
portrait
portraits
ports
portugal
portuges
portugue
portugues
portuguesa
portuguese
posibling
position
positionally
positioning
positions
positive
possession
possibilities
possibility
possible
possibly
post
postal
postcards
posterior
postgraduate
posts
postseason
pot
pota
potang
potato
potatoes
potd
potential
potenza
potomac
potsdam
potter
potus
pound
pour
pov
poverty
powder
powell
power
powered
powerful
powers
pp
ppp
pr
pra
practical
practice
practices
pradesh
prado
praeger
prague
praha
prairie
praise
prakash
prakashan
pramoedya
pranses
pransiya
pransya
prasad
prasat
prat
pratapgarh
prats
pratt
prayagraj
prayer
prc
prd
pre
preah
precatorius
precedence
preceding
precious
precise
precision
precisions
predefined
prediction
prefectural
prefecture
prefectures
preferred
prefix
prefixes
pregnancy
prehistoric
preliminary
premie
premier
premiere
premieres
premiers
premios
prentice
preparation
preparatory
prepares
prepektura
pres
presbyterian
preschool
presence
presensia
present
presentation
presented
presenter
presents
preservation
preserved
presidency
president
presidente
presidenti
presidential
presidents
presley
press
pressure
pretoria
preunit
prevention
previous
previously
prey
pri
priamus
pribadu
pribadung
price
prices
pride
priest
priests
prieta
prieto
prima
primarily
primary
primate
prime
primer
primera
primerang
primeru
primerung
primetime
primitive
prince
princely
princesa
princess
princeton
principal
principalidad
principality
principe
principia
principle
principles
prinsipe
print
printed
printers
printing
prints
printsec
prior
prison
prisoner
prisoners
prisyun
privadu
privadung
privas
private
privately
prix
prize
pro
probability
probably
probe
probinsiya
probinsya
problem
problema
problems
proc
procedures
proceedings
process
processes
processing
procesu
produce
produced
producer
producers
produces
product
production
productions
productivity
productores
products
productu
produksiun
produksyon
produktu
prodyuser
prof
profesion
profesional
profesor
professional
professionals
professor
profile
profiles
profit
program
programa
programang
programme
programmer
programming
programs
progreso
progress
progressive
project
projection
projections
projects
prokaryote
prometheus
prominent
promise
promo
promote
promoting
promotion
promotional
promusicae
pronounced
pronunciation
propaganda
propagandista
proper
properties
property
propesional
propesor
propesyonal
prophet
prophets
proposal
proposed
propranolol
proprietary
prose
prosesu
prosesung
prospects
prosperidad
prosperity
protabase
protect
protected
protection
protectorate
protein
proteina
protest
protesta
protestant
protestanti
protestanting
protests
protina
protinang
protista
protocol
proton
protostome
prototype
proud
provcode
provenc
provence
provide
provided
providence
provider
providers
provides
providing
province
provinces
provincia
provincial
provisional
proyectu
proyektu
proyektung
prublema
prunus
prussia
prussian
prutas
prypiat
ps
psa
psgc
psi
psikologuia
pskov
psy
psychiatric
psychological
psychology
psyllium
pt
pterocarpus
pty
pu
pub
puberty
publ
public
publication
publications
publika
publiku
publique
publish
published
publisher
publishers
publishing
pubmed
pudtol
puducherry
pueblo
puersa
puersang
puerto
puestu
pugad
pugo
puig
pukan
puki
pulayi
pulgada
puli
pulilan
pulis
pulitica
pulitika
pulitikal
pulitiku
pulitikung
pulmonary
pulo
pulong
pulot
pulse
pulu
pulung
pumpkin
pun
punbatas
punch
punctuation
pundasiun
pundasyun
pundutung
pune
pung
pungul
punjab
punjabi
puno
punsalan
punta
puntalan
puntu
puntus
pupa
puppet
pupul
pupulayan
pupulayi
pupunta
pupuntalan
pupurian
pupututan
puram
purdue
pure
pureme
purge
puri
purian
purisima
purmeru
purok
purple
purpose
purposes
pursuit
puru
puruk
purung
purus
pusa
pusad
pushkar
pusisiun
pusisyun
puso
pustak
pusu
pusung
put
puti
putian
putnam
putrajaya
puttur
pututan
puy
puyat
puławy
pvt
pwersa
pwersang
pwestu
pwestung
px
pyalung
pygmy
pyongyang
pyotr
pyramid
pyramids
pyre
pyrenees
pywikipedia
pywikipediabot
q
qamar
qanso
qatar
qi
qid
qin
qing
qingyuan
qinhuangdao
qld
qn
qng
qr
qrs
qu
qua
quadrangle
quadrillion
qual
quality
quang
quangbinh
quantity
quantum
quanzhou
quarry
quarter
quarterly
que
queang
quebec
queca
quecami
queen
queenarchives
queens
queensland
quen
queng
queni
quening
quentin
query
quest
question
questions
quetang
queti
queyang
quezon
qui
quiambao
quiapo
quiboloy
quibuloy
quick
quicktime
quid
quiet
quimper
quincy
quing
quinoa
quintin
quinto
quirino
quixote
quizon
quo
quotations
quote
quoted
quotes
quy
r
ra
rabbi
rabella
rabies
race
racer
races
rachel
racing
radiation
radical
radio
radioactive
radioactivity
radiologic
radiu
radyo
radyu
rae
raebareli
rafael
raffy
rafi
rafiq
rahman
rai
raichur
raid
raigarh
raiguer
rail
railroad
railway
railways
rain
rainbow
rainer
rainforest
raipur
raised
raisen
raj
raja
rajah
rajahmundry
rajapaksa
rajasthan
rajgarh
rajkot
rajput
rakal
rake
ral
ralan
raleigh
rally
ralph
ram
rama
ramachandrapuram
ramakrishna
ramanujan
rameswaram
ramirez
ramo
ramon
ramos
rampa
ramsay
rana
ranchi
rancho
randall
random
randy
rang
rangarajan
range
rangers
ranges
ranggu
ranggung
ranier
ranikhet
rank
ranked
ranking
rankings
ranks
ranku
rao
rap
rape
raphael
rapid
rapids
rapper
rappler
rapport
rapu
rare
rarest
ras
rashaya
rashid
rat
ratangarh
rate
rates
rather
rating
ratings
ration
ratlam
ratnagiri
ratner
raton
rau
raul
rault
raven
ravenna
ravi
raw
ray
raya
raymond
raymundo
rc
rcena
rcfpptn
rd
rdoba
re
reach
reached
reaches
reaction
reactor
read
reader
readers
reading
readings
reads
ready
reagan
real
realaudio
realism
realist
reality
really
realms
realnetworks
reang
reap
reason
reba
rebecca
rebel
rebelding
rebellion
rebels
rebirth
rebolusyon
receive
received
receiver
receives
recent
recently
reception
receptor
receptors
recherche
recipe
recipes
recipients
recognition
recognized
recoletos
recommendation
reconciliation
reconstruction
record
recordable
recorded
recording
recordings
records
recreation
recto
rector
red
redding
reddit
rediff
redirect
redirects
redlands
reds
reduced
reducing
redwood
reed
reef
reel
rees
ref
refer
reference
referenced
references
referendum
referred
refers
refineries
refinery
refining
reflections
reforested
reform
reforma
reformation
refs
refugees
regal
regarding
regardless
regency
regent
regents
reggio
regiment
regina
reginald
regine
regio
region
regional
regione
regions
regis
register
registrar
registration
registry
regla
regname
regordane
regular
rehabilitation
rehenti
rehimen
rehion
rehiyon
rei
reich
reid
reilly
reina
reincarnation
related
relating
relation
relations
relationship
relationships
relative
relatives
relay
release
released
releases
releasing
reliance
relief
religion
religions
religious
relihion
relihiun
relihyun
relo
remaining
remains
remarkable
rembrandt
remedios
remember
remembered
remembering
remembers
remigio
remittance
remix
remixes
remote
remove
rems
ren
renaissance
renal
renato
rendered
rene
renewal
reng
reni
renigunta
rening
rennes
reno
rental
repeat
replaced
replacement
replenishment
reply
reporma
report
reported
reporter
reporters
reporting
reports
representati
representative
representatives
reprint
reprinted
reproduction
reproductive
reptile
repu
republic
republica
republican
republics
republika
republikang
reputation
request
requests
required
requirements
requires
requiring
rer
res
rescue
research
researcher
researchers
reserve
residence
resident
residenti
residents
resignation
resistance
resistant
resmi
resolution
resort
resorts
resource
resources
respect
respective
respectively
respiration
respiratory
response
responses
responsible
respublika
rest
restaurant
restaurants
restoran
restoration
result
resulta
results
resurrection
ret
retang
reti
reticulata
retina
reting
retirement
retrieve
retrieved
retrospective
return
returns
reunion
reuter
reuters
rev
revealed
reveals
revenue
reverend
reverse
review
reviewed
reviews
revilla
revised
revision
revisited
revista
revitalization
revival
revolt
revolucion
revolution
revolutionary
revolutionibus
rewa
rex
rey
reyes
reyna
reynolds
rez
rfc
rhapsody
rhein
rhin
rhine
rhineland
rhinoceros
rhizome
rho
rhode
rhs
rhymes
rhythm
rhythms
ri
ria
riaa
riaj
rialto
riau
ribas
ric
rica
rican
ricardo
rice
rich
richard
richards
richardson
riches
richest
richmond
ricinus
rick
ricky
rico
ride
rider
riders
rides
ridge
rifle
right
rights
rigueux
rijn
rilis
rim
rima
rin
rinehart
ring
ringo
rings
rio
rioja
rios
riots
rip
ripken
rise
rishikesh
rising
risk
risks
rita
ritual
riu
riung
rivalry
river
rivera
riverfront
rivers
riverside
riviera
riyadh
rizal
rizzoli
rj
rk
rm
rn
rna
ro
road
roads
roald
rob
robby
robert
roberta
roberto
roberts
robertson
robin
robinson
robinsons
robles
robo
robocon
robot
robredo
robson
roc
roces
roche
rochelle
rochester
rock
rockapampangan
rockband
rockefeller
rocket
rocks
rocky
rod
rodent
rodeo
roderick
rodez
rodolfo
rodri
rodrigo
rodriguez
rody
rogationist
rogelio
roger
rogers
roi
rojas
roland
rolando
roldan
role
roles
roll
rolland
roller
rolling
rollingstone
rom
roma
romagna
romain
roman
romana
romance
romania
romanian
romanisation
romanization
romanized
romano
romans
romantic
romanticism
romanu
romanung
romblon
rome
romeo
romero
romualdez
romulo
ron
ronald
ronda
rong
ronnie
roof
room
rooms
roosevelt
root
roots
roque
rosa
rosales
rosalind
rosang
rosanna
rosario
rosary
rosas
rosberg
rose
rosen
rosenthal
roses
ross
rossi
rossini
rostov
rotary
roth
rotten
rotundus
rouen
rouge
rough
roughstock
rouhani
round
rounded
rounding
rounds
rourkela
roussillon
route
routes
routetemplate
routledge
rover
rovi
row
rowdies
rowing
rows
rowsize
rowspan
roxas
roxy
roy
royal
rp
rpm
rriyet
rs
rsnz
rss
rt
rttemberg
ru
rubber
ruben
rubens
rubio
ruby
rudolf
rudy
rufino
rugby
rugu
ruhr
ruins
ruiz
rule
rulers
rules
rulfo
ruling
ruminant
run
runner
running
runs
rupert
rural
rush
rushdie
rusia
russell
russia
russian
russians
rusu
rut
ruta
rutaceae
ruth
rutherford
rw
rwanda
ry
ryan
ryazan
ryu
ryukyu
s
sa
saad
saarland
saavedra
sabadu
sabah
sabang
sabat
sabha
sabi
sabian
sabla
sablang
sablayan
sabtang
sabungan
sabyan
sac
sacramento
sacred
sad
saddle
sadia
sadiang
sadie
sadsaran
sadya
sadyang
saen
safari
safety
safflower
saga
sagada
sagana
sagay
sage
sagin
sagisag
sagrada
sagu
saguan
saguli
sahara
saharan
saharanpur
sahidic
sahitya
sai
said
saida
saigon
sail
saint
sainte
saintes
saints
saitama
saiyang
saka
sakdal
sakdalan
sake
saken
sakhalin
sakit
saklo
saksi
saktu
saktung
saku
sakup
sakupan
sakura
sal
sala
salad
salamanca
salamat
salamin
salang
salapungan
salas
salay
salazar
salcedo
sale
salem
sales
salese
salesian
salesians
salesianu
salette
sali
salientia
salikut
salilung
salinas
salita
salitang
salivary
salle
sally
salma
salman
salmon
salon
salonga
salt
salu
salud
salukuyan
salukuyang
salungat
salusu
salvacion
salvador
sam
sama
samal
samantala
samantalanan
samantalang
samar
samara
samaras
samasan
samasnan
samastipur
samatha
samba
sambag
sambitan
same
samegrelo
samir
samoa
samoan
samonte
sampaga
sampagang
sampaguita
sampaloc
sampao
sample
samples
samraong
samson
samtskhe
samuel
samurai
samut
san
sana
sanang
sanayan
sanchez
sancti
sanctuary
sand
sandata
sanders
sandomir
sandra
sands
sandwich
sane
sang
sanga
sangang
sanger
sanggunian
sangguniang
sangkan
sangkap
sangli
sanitary
sanka
sanmenxia
sanming
sans
sanskrit
sanskritu
sant
santa
santana
santander
santiago
santing
santo
santol
santos
santu
santungan
sanu
sanuman
sanumang
sanung
sanya
sao
sap
sapa
sapad
sapak
sapang
sapangbato
saparadung
sapatus
sapin
sapindus
sapni
saponaria
sapporo
sar
sara
sarah
saran
sarandon
sarangani
saratov
sarawak
sardarapat
sardinia
saresa
sargsyan
sari
sariaya
sarili
sariling
sarimanok
sarrat
sarthe
sarul
sasabian
sasabing
sasabyan
sasaklo
sasakup
sasakupan
sasalpantaya
sasalungat
sasarian
sasaryan
sasaup
saskatchewan
saslag
sasmuan
satan
satara
satellite
sathyamangalam
satisfying
sativa
satna
saturday
saturn
satyajit
saudi
saudiarabia
saudis
saug
saul
saunders
saunier
saup
saupan
saurashtra
save
saverne
saving
savio
savoie
saw
sawang
saws
saxon
saxony
saxophonist
say
saya
sayaji
sayajirao
saying
says
sb
sbs
sc
scala
scale
scan
scandal
scanned
scanner
scar
scarecrow
scene
scenes
scenic
scent
schedule
scheduled
schlesinger
schleswig
schliewen
schmidt
schneider
scholar
scholarly
scholars
scholarship
scholastica
schon
school
schools
schumacher
schumann
schuster
schwartz
schweiz
sci
science
sciencedaily
sciences
scientific
scientist
scientists
scissors
score
scores
scotia
scotland
scott
scottish
scottsdale
scout
scouts
screen
screentalasulat
screenwriter
scribd
scribner
script
scripts
scrofa
scroll
scrolls
scrotum
sculptor
sculpture
sdb
se
sea
seafood
seal
sean
seaport
search
searchable
searches
seas
season
seasons
seat
seats
seattle
sebastia
sebastian
sebastinian
sebu
sebua
sec
second
secondary
seconds
secret
secretarial
secretariat
secretary
secrets
sect
secta
sectarian
section
secular
secundaria
security
secutor
seda
sede
see
seed
seeds
seek
seeking
seem
seemain
seems
seen
sees
segment
segovia
segundo
segundu
seine
sekta
sekundaria
sekundarya
sekupan
select
selected
selection
selections
selective
selena
self
seli
sellers
selling
selva
semaine
semasan
sementu
semi
seminary
sen
senado
senador
senadu
senaryo
senate
senator
senators
send
sendak
sendmail
senegal
senior
sense
senses
senshi
sensitive
sensory
sensus
sentai
sentimetru
sentral
sentru
sentrung
seok
seoul
sep
separate
separates
separator
separators
sept
september
septiembre
septiembri
septiembricalendariu
sepu
sepung
sequel
sequence
sequences
sequencing
serail
serbia
serbian
serbisiu
serbisyu
serbisyung
serena
serge
sergio
serial
serie
serieng
series
serna
serrano
servant
serve
served
server
service
services
serving
serye
seryeng
ses
sesame
sesamum
sescu
sese
sesen
sesepu
sesesen
session
sessions
set
setiembre
setiembri
sets
settimanale
setting
settle
settlement
setup
seu
seung
seven
seventh
several
severino
sevilla
seville
sex
sexual
sexy
seychelles
sez
sf
sfeir
sh
sha
shaanxi
shad
shadow
shadows
shah
shakespeare
shakira
shall
shaman
shamanism
shamdasani
shame
shandong
shanghai
shangqiu
shankar
shantou
shanwei
shanxi
shaoguan
shaoyang
shape
shaped
sharapova
sharbel
shard
share
shared
shares
sharia
sharif
shariff
sharing
shark
sharma
sharon
shas
shasta
shaw
she
shea
shears
sheep
sheet
sheffield
shell
shelter
shenzhen
shepherd
sheriff
shi
shia
shield
shift
shijiazhuang
shikoku
shillong
shima
shimla
shimoga
shin
shine
shinkenger
shinpei
shintaro
shinzo
ship
shipbuilding
shiva
sho
shock
shoemaker
shohoku
shooting
shop
shopping
shore
short
shorter
shorty
shot
should
shoulder
shounen
show
showbiz
showed
showing
shown
shows
showtimes
shree
shreveport
shri
shrimp
shrine
shrub
shrubs
shtml
shu
shut
si
siam
sibal
siberia
siberian
sibersitiu
sibil
sibugay
sibukan
sibul
sibuyan
sibuyas
sica
sicily
sickle
siclaud
sico
side
sidebar
sidi
sidon
siduan
siedar
siege
sieger
siem
siena
sienna
sienne
siensia
siensiang
sientipiku
sientista
sierra
sify
sig
sigasig
sige
sigfig
sight
sigi
siglo
siglu
siglung
sigma
sigmund
sign
signal
signals
signature
signed
significance
significant
signs
siguk
siguradu
siguradung
sihanouk
sikan
sikanan
sikar
sikat
sikatuna
sikh
sikkim
sikluban
sikoti
sikri
siksik
siku
sil
sila
silab
silaba
silaban
silang
silangan
silay
silchar
silence
silicon
silid
siliguri
silim
silk
silliman
silva
silver
silverman
silverstone
silvestre
simbulu
simbut
simeon
similar
simo
simon
simpan
simpanan
simple
simpli
simplified
simpling
simply
simpson
simpsons
simulation
simulations
sin
sina
sinabi
sinabing
sinag
sinaguli
sinakup
sinali
sinambut
sinan
sinaup
since
sindaroulyne
sindu
sine
sineng
sinensis
sing
singapore
singareni
singer
singers
singh
singing
singkanan
single
singles
sings
singsing
singular
sinhala
sinhalese
sinikat
siniora
sinira
sino
sinopan
sinsuat
sint
sinta
sintang
sintingan
sintomas
sinubli
sinuku
sinulat
sinumpa
sinuyu
sinyal
sioux
sip
siping
siquijor
sir
sirach
siraj
siran
sirohi
sisi
sisig
sisikan
sisilim
sisilyu
sisipsipan
sisiran
siskiyou
sison
sistema
sistemang
sister
sisters
sisuan
sitapur
sitas
sitcom
site
sites
situ
situated
situation
sityu
siuala
siudad
siwala
siwalang
six
sixteen
sixth
sixty
siya
siyam
siyentipiku
siyentipikung
size
sizes
sk
skeletal
skeleton
sketch
sketches
ski
skills
skin
skipped
skowola
skull
sky
skyscraper
skyscrapers
sl
slam
slash
slate
sleep
sleeping
slide
slideshow
slopes
slovak
slovakia
slovenia
slovenian
slower
slu
sm
small
smallpox
smartphone
sme
smith
smithdgrg
smithsonian
smnjn
smooth
sn
snake
snap
snep
snl
snoop
snow
snows
so
sobra
sobrang
sobre
soc
soccer
soccsksargen
social
socialism
socialist
socialite
socie
sociedad
societies
society
socio
sociology
sociopoilitkal
sockers
socorro
sodium
sofia
software
sogod
soil
soissons
sol
solana
solanaceae
solano
solanum
solapur
solar
sold
soldier
soledad
solid
solidu
soliman
solis
soliven
solo
solomon
solung
solusiun
solution
solutions
solve
somalia
somaliland
somatic
somatostatin
some
somebody
someday
somehow
someone
something
sometimes
somewhere
somme
son
sondrio
song
songbird
songs
songtalasulat
sonny
sonoma
sons
sony
soo
soon
sopan
sophie
sopoaga
sora
sorachi
soria
soriano
sorority
sorry
sorsogon
sort
sortable
sorted
sorting
sortkey
sos
sosial
sosiedad
sosyal
sosyalista
sosyedad
sotero
soto
sotto
soubirous
soul
sound
sounders
sounds
soundscan
soundtrack
source
sourcebook
sourced
sources
sous
south
southeast
southeastern
southern
southwest
southwestern
sovereign
sovereignty
soviet
sox
sp
spa
space
spacecraft
spaceflight
spaces
spade
spain
span
spanish
spanishcharts
sparrow
sparrows
spatial
speak
speaker
speakers
speaking
speaks
spears
special
specialist
specialization
specialized
speciation
specie
species
specific
specifically
specification
specified
specify
specimen
speciosa
spectator
spectral
spectrum
speculation
speculative
speech
speeches
speed
spell
spelled
spelling
spencer
spent
spezia
sphincter
spice
spider
spiegel
spielberg
spielvan
spike
spin
spinach
spinal
spine
spiral
spirit
spirits
spiritual
spleen
split
splits
spoken
sponge
sponsored
spontaneous
spore
sport
sports
sportsman
spot
spotify
spotlight
spots
spp
spratly
spring
springer
springfield
springs
sprint
sprotected
sq
sqbr
sqmi
squad
squamosa
square
sr
sra
src
sri
srikakulam
srikalahasti
srinagar
srok
ss
ssc
sseldorf
sspx
st
sta
stable
stade
stadium
staff
stage
stages
stall
stan
stand
standard
standards
standing
stanford
stanislaus
stanley
staples
star
stara
starch
starr
starring
stars
start
started
starting
starts
stasiun
state
statement
statements
states
statesman
station
stations
statistic
statistica
statistical
statistics
stats
statue
statues
status
statute
stay
ste
steam
stedman
steel
stefan
stein
stella
stem
step
stephen
sterling
steve
steven
stevens
stevenson
stevie
stewart
sti
stiassny
stica
stick
stico
still
sting
stm
sto
stock
stockholm
stockton
stoker
stokes
stone
stop
storage
store
stories
storm
story
storytelling
stotsenburg
stoughton
stout
stpi
straight
strait
strange
stranger
strangers
strasbourg
strategic
strategies
strategy
strauss
stream
streamed
streaming
street
streets
streisand
strength
stress
strike
strikes
string
strip
stroke
strong
stronger
structural
structure
structures
struggle
struggles
stuart
stub
stud
student
students
studi
studies
studio
studios
study
stueng
stuff
stung
stuttgart
style
styles
stylistics
su
sua
suan
suara
suarez
sub
suba
subali
subalit
subcontinent
subdivided
subdivision
subdivisions
subfamily
subic
subject
subjects
suborder
subportals
subprefecture
subscription
subspecies
substance
substances
subtropical
subukan
suburb
suburban
suburbs
subway
sucad
sucat
success
succession
such
suche
sud
sudan
sudanese
sudden
suez
suffering
suffisait
sugar
sugat
sugatan
suggestions
suggests
suging
suglung
sugod
suharto
sui
suicide
suihua
suitable
suite
suivi
suiza
suizhou
sukad
sukat
sukdan
suksuk
sukulan
sulat
sulatanan
sulawesi
suleiman
suli
suligi
suliman
suling
sulip
sultan
sultanate
sulu
suluk
sulung
sulzberger
sumambut
sumangid
sumatra
sumaup
summa
summaries
summary
summer
summit
sumpa
sumulat
sumuyu
sun
sundalus
sundance
sunday
sung
sungsung
sunis
sunni
sunny
sunnyvale
sunset
sunshine
sunstar
sunyanatomyfigs
sunyanatomyimage
sunyanatomylabs
super
superbrands
superfamily
superior
supermarket
superorder
superstar
supervision
supervisor
supling
suporta
suppl
supplement
supplied
supply
support
supporta
supporting
supports
supposed
suprema
supreme
suput
suputan
sur
surat
surface
surgery
surigao
suriname
surprising
surrounding
survey
survival
survive
suryya
sus
susan
sushi
susi
sustainability
sustainable
sustansia
sustansya
susu
susulat
susulud
susulung
susuporta
susuportan
sususu
susuyu
sutter
sutton
suyo
suyu
suzanne
suzhou
suzumiya
sv
svalbard
svaneti
svay
sverigetopplistan
svg
svn
sw
swabian
swami
swan
swap
swartz
sweat
sweden
swedish
swedishcharts
sweet
sweetheart
swift
swim
swimmer
swimming
swine
swing
swiss
swisscharts
switch
switchblade
switzerland
sword
sy
syam
sydney
syensya
sylvia
symbol
symbolic
symbols
symbulu
symmetry
sympathetic
symphony
symposium
syn
sync
syndicat
syndrome
synonyms
synopsis
synthesis
syr
syracuse
syria
syrian
system
systema
systematic
systematics
systemic
systems
systole
syudad
sze
t
ta
taal
tab
taba
tabaco
tabang
tabas
tabing
tabla
tablas
table
tablecen
tables
tabon
tabu
tabuan
tabuc
tabucan
tabuk
tabun
tacas
tachi
tacloban
tacurong
tae
taft
tag
taga
tagal
tagalog
tagalug
tagana
taganang
tagaytay
tagbilaran
tagbina
tagiang
tagiliran
tagimpan
tagkawayan
tagle
taglus
tagoloan
tags
taguig
taguimpan
tagulele
tagum
tagumpay
tagumpe
taguri
taguring
tagyang
tahanan
tai
taiko
tail
tailed
taipei
taisen
taishan
taiwan
taiwanese
taj
tajik
tajikistan
tajimik
tak
takagi
takap
takbang
takde
takdeng
take
taken
takes
taki
taking
takla
takut
tal
tala
talaan
talaba
talabaldugan
talacanta
talacantang
talacogon
taladalit
taladukit
talaga
talagamit
talagang
talagawang
talagulis
talahib
talaimbentu
talakad
talakanta
talakantang
talakudta
talalalang
talalikas
talalimbag
talambie
talambye
talan
talanan
talang
talangka
talapaganap
talapagaral
talapaglakbe
talapaglakbeng
talapagmana
talapagobra
talapagsalita
talapamingwa
talapamuntuk
talapamyalung
talapanibala
talapanulu
talapatuntun
talapinta
talapintang
talasakup
talasu
talasulat
talasuporta
talata
talatatag
talaterak
talatigtig
talatuki
talaturu
talaturung
talausuk
talavera
talayan
tale
talent
tales
talibatab
talibon
talibong
talimunduk
talindiking
talindo
talipampan
taliri
talisay
talitay
talk
talks
tall
tallahassee
tallest
talnan
talon
talubang
taluk
taluka
taluktuk
talusan
talwara
tam
tambing
tambo
tambul
tamil
tamilnadu
tampa
tamu
tamung
tan
tana
tanam
tanaman
tanamang
tanang
tanauan
tanay
tanda
tandag
tandanan
tandang
tandus
tane
tang
tangalan
tangan
tanggap
tanggapan
tanggapang
tanging
tangkang
tangke
tangkeng
tanglao
tangsu
tangub
taniag
tanjay
tank
tanke
tansu
tantia
tantingco
tantya
tanuku
tanza
tanzang
tanzania
tao
taoist
tapat
tape
tapes
tar
tara
taram
tarantula
tarbes
tarlac
tarn
taro
tarragona
taruc
tarzan
tas
taschen
task
tasmania
taste
tat
tata
tatabili
tatagkil
tataglus
tataid
tatak
tatakae
tatakap
tatakut
tatalab
tatalan
tatalnan
tatanam
tatang
tatanggap
tatanggapan
tatantian
tatantyan
tatars
tatayid
tatu
tau
tauan
tauli
tauling
taung
tauris
taurus
tawag
tawi
tawli
tawling
tax
taxi
taxobox
taxon
taxonbar
taxonomia
taxonomic
taxonomy
tay
taya
tayabas
tayang
taylor
tayong
taytay
tayum
tbilisi
tbn
tbs
tchaikovsky
tcm
tcp
tdfo
te
tea
teacher
teachers
teaching
team
teams
tear
tears
teatro
teatru
teau
teauroux
tech
technical
technically
technician
technique
techniques
technologia
technological
technologies
technology
tecnical
tecnologia
tecnologiang
ted
teddy
teen
teenage
teeth
tehama
tehsil
teil
tejano
tekakwitha
teknikal
teknolohiya
teknolohiyang
tel
tela
telakad
telakaran
telan
telangana
telapulu
telapulung
telavi
telebision
telebisyon
telebisyun
telecast
telecasts
telecom
telecommunications
telegram
telegraph
telepanu
telephone
telescope
televised
television
tell
teller
tells
telugu
tema
temang
temperate
temperatura
temperaturang
temperature
temperatures
template
templatedata
temple
temples
templu
templung
temporal
temporary
tempore
temps
ten
tenali
tenerife
tennessee
tennis
tension
tensou
tent
tenyente
teo
teodoro
teoria
teorya
teoryang
tepangan
terak
teresa
teresita
teritoriu
teritoryu
term
terminal
terminology
terminu
terminung
terms
terra
terrace
terre
terrestrial
terrible
terrier
territoire
territorial
territories
territoriu
territory
territoryu
territotryu
terror
terrorism
terrorist
terrorists
terry
tertiary
teruel
tes
tesla
tessie
test
testament
testing
tests
tetag
tetagan
tete
tetrapod
tetuan
tex
texas
text
textbook
textile
texts
tezpur
tezuka
tfc
th
tha
thabo
thai
thailand
thames
than
thane
thanh
thanjavur
thank
thanks
thann
thar
that
the
theater
theatre
their
them
theme
themes
themindanao
themselves
then
theobroma
theodor
theodore
theologian
theological
theology
theora
theoretical
theories
theory
theparisreview
therapeutic
therapy
theravada
there
therefore
theresa
therese
thermal
these
thesis
they
thi
thiazide
thie
thiel
thigh
thin
thing
things
think
thinking
third
thirteen
thirty
thiruvananthapuram
this
thma
tho
thom
thomas
thompson
thomson
thoothukudi
thoracic
thorax
those
though
thought
thoughts
thousand
thousands
thread
threat
threatened
three
thriller
thrissur
through
throughout
thu
thua
thumb
thumbnail
thunder
thuringia
thursday
thus
thuy
thy
thyroid
thys
ti
tia
tianjin
tianmen
tiaong
tibet
tibetan
tibeto
tibiao
tibuan
tica
tie
tiempo
tienne
tientsin
ties
tiff
tigbao
tigbauan
tiger
tigers
tigri
tigtig
tigtigan
tika
tikamgarh
tikdo
tikian
tiknang
tiknangan
tiku
tikung
tikyan
til
tilapia
tilduan
till
tillon
tim
tima
timan
timawa
timawang
timbang
timber
timbiriche
timbuctoo
timbuktu
time
timeline
times
timesonline
timor
timothy
timpano
tin
tina
tinabi
tinagal
tinago
tinagun
tinalan
tinanggap
tinape
tinas
tinatag
tinda
tindaan
tindragul
tinduk
ting
tinggap
tinh
tinikdo
tinio
tinipa
tinsukia
tinubu
tinud
tinuki
tinuknang
tinuru
tip
tipo
tipping
tips
tipun
tirol
tiru
tirumala
tirunelveli
tirupati
tirupattur
tirupur
tiruvarur
tissue
tissues
tita
titan
titik
titikdo
title
titled
titles
tito
titula
titulu
titulung
tiwi
tk
tlatelolco
tlc
tn
to
tobacco
tobago
tobias
toclong
today
todd
toe
toei
toer
toffler
together
toil
tokelau
tokyo
told
toledo
tolentino
tolosa
tolstoy
tom
toma
tomas
tomato
tomatoes
tomb
tombouctou
tome
tommy
tomo
tomokazu
tomorrow
ton
tondo
tonelada
tonette
tong
tonga
tongcheng
tongling
tongue
tongues
tonight
tonu
tony
too
took
tool
tools
tooth
toothed
top
topeka
topic
topics
tops
tor
torben
tornado
torniliu
toro
toronto
torre
torres
tortoise
torture
toru
toshiba
total
totally
totoy
touch
toulon
toulouse
tour
tourism
tourisme
tourist
touristic
tourists
tournament
tours
tout
toward
towards
tower
towers
towhee
town
towns
townsend
township
toxic
toyota
tr
tra
trach
trachea
track
tracking
tracks
tract
tracy
trade
trades
trading
tradisyon
tradisyunal
tradition
traditional
traditions
traffic
tragedy
traian
trail
trailer
trailers
trails
train
training
trains
trait
traits
traktora
tram
trang
trans
transactions
transatlantic
transcontinental
transcript
transcription
transduce
transfer
transformation
transit
transition
transitional
translate
translated
translation
translations
translator
translit
transliterated
transmission
transnistria
transparency
transplant
transport
transportation
transverse
transwiki
trap
travel
traveller
travelogue
travels
travers
tre
treasure
treasures
treasury
treat
treatment
treaty
trece
tree
trees
treinta
tren
trends
trentino
trento
trenton
tres
tri
trial
trials
triana
triangle
trias
tribal
tribe
tribes
tribu
tribune
tribung
tribute
trichy
trieste
trigu
trillion
trilogy
trimester
trinidad
trinity
trip
triple
tripod
tripoli
tripura
trisha
tristan
triumph
trivandrum
trivial
tronu
tropa
tropang
tropical
tropicos
tropics
tropole
trouble
troupe
troyes
tru
true
truman
trung
trunk
trust
trustees
truth
try
trying
ts
tsa
tsang
tsar
tseka
tsi
tsik
tsiki
tsina
tsinu
tsn
tsu
tsunami
tt
ttingen
tu
tuao
tuareg
tuason
tuazon
tuba
tubajon
tube
tuberculosis
tubig
tubigon
tublay
tubo
tubod
tubong
tubu
tubud
tubung
tubungan
tuburan
tucson
tud
tudela
tudtud
tuesday
tugak
tugas
tuglung
tuguegarao
tuka
tuki
tuking
tukituki
tukituking
tuknang
tuknangan
tuktuk
tukud
tukuran
tukyan
tula
tulare
tuldik
tulid
tulisan
tulle
tulsa
tulsi
tulu
tulungkaba
tulus
tum
tumbukan
tumor
tumpak
tumubu
tumud
tuna
tune
tuneng
tunes
tung
tunga
tungatung
tunggal
tungku
tungkul
tungkulan
tungkung
tunisia
tunisian
tunnel
tuntunan
tup
tupa
tupi
turan
turckheim
turin
turing
turismo
turismu
turista
turkey
turkic
turkish
turkmenistan
turks
turla
turn
turned
turner
turning
turns
turtle
turtledove
turu
tuscany
tusuk
tuticorin
tutorial
tutu
tutubu
tutubung
tutuki
tutukian
tutuking
tutuknang
tutuknangan
tutukyan
tutul
tutulak
tutulduan
tutung
tuturing
tuturu
tuturung
tuvalu
tuy
tuye
tv
twain
twayne
tweet
tweets
twelve
twenty
twin
twinned
twitter
two
twotemplate
tx
txt
ty
tyler
tympani
type
types
typical
typically
tyre
tzu
u
ua
uaap
ub
ubas
ubat
ubi
ubian
ubingan
ubud
uc
uchuu
uci
ucsb
ud
udaipur
udhampur
udupi
ue
uecker
ueda
uefa
uerm
uermmmc
uf
ug
ugali
uganda
ugnayan
ugnayang
ugne
ugtu
ujjain
uk
ukbu
ukbung
ukdu
ukiah
ukraine
ukrainian
ukrainians
ukulan
ukum
ukuman
ula
ulad
ulaga
ulagang
ulam
ulan
ulat
ulay
ulhasnagar
uli
ulina
uling
ulining
ulinita
ulit
ulrich
ultimate
ultimo
ultra
ultratop
ultraviolet
uluan
ulysses
um
uma
umbrella
umbria
ume
umibig
umich
umpisa
umpisan
un
una
unable
unauthorized
uncited
uncomma
uncompressed
und
under
undergraduate
underground
undersecretary
understanding
underwood
une
unesco
unexpected
unfinished
ung
ungar
ungkaya
unibersidad
unicellular
unicode
unicorn
unido
unidos
unification
unified
unincorporated
union
unique
unit
united
units
unity
univ
universal
universe
universidad
universidade
universita
universities
university
unix
unknown
unlimited
unnamed
unnao
uno
unofficial
unplugged
unpo
unrecognized
unrounded
unseen
unsourced
until
untold
unusual
unveiled
unveils
up
upaya
upayang
upcoming
update
updated
updepp
upi
upisina
upland
uplb
upon
upper
uppsala
ur
ural
uran
uranus
urban
urbana
urbanisadu
urbanisadung
urbanized
urbano
urbino
urdaneta
urdu
urduja
uri
urinary
uring
uris
url
ursula
uruguay
urvni
uryan
us
usa
usada
usage
usain
usb
usd
usda
usdempresnominees
use
used
useful
usefully
usenet
user
users
uses
usgs
using
uso
uson
usps
usrep
usreppresnominees
usrepsuccessionboxtemplate
usrsbtemplate
uss
ust
ustan
ustravelweather
ustu
ustung
usually
usuk
usvicepresidents
ut
uta
utah
utak
utang
utc
uterus
utilities
utility
uttar
uttarakhand
utus
uyab
uyat
uyugan
uzbek
uzbekistan
v
va
vaccination
vaccine
vaccinium
vadodara
vagina
val
valderrama
valdez
valence
valencia
valencian
valenciennes
valentine
valenzuela
valign
vall
valladolid
valle
vallejo
valley
valory
valsad
valuable
value
values
valve
vampire
van
vancouver
vandavasi
vanessa
vanishing
vannes
vanness
vanuatu
vao
var
varanasi
varese
vargas
variant
variation
variations
varieties
variety
various
varsitarian
vary
vasco
vascular
vasnetsov
vater
vatican
vaticano
vaucluse
vault
vbue
ve
veaeng
vecka
veckolista
vedanta
vedasto
vedic
veer
vega
vegas
vegetable
vegetables
vegetation
vehicle
vehicular
vein
veitchia
vela
velasco
velasquez
velay
velez
vella
vellore
velvet
vena
vende
vendus
venecia
veneto
venezia
venezuela
venice
ventes
ventricle
ventricular
ventura
venture
venus
ver
vera
verbenaceae
verbs
verde
verdi
vergel
veritas
verjuice
verlag
verma
vermes
vermiform
vermont
vernon
verona
veronica
versailles
versatile
verse
version
versions
versus
vertebral
vertebrate
vertebrates
vertical
very
vesoul
vessels
vestibular
vestibuli
vesuvius
veteran
veterans
veterinary
vevo
vez
vh
vhs
vi
via
viacom
vibe
vic
vice
vicente
vicenza
vicinity
victim
victims
victor
victoria
victorian
victoriano
victorias
victorville
victory
vicun
vida
vidal
video
videography
videos
vie
viejo
vienna
vienne
viet
vietnam
vietnamese
view
viewer
viewers
viewing
views
viewtopic
viga
vigan
vihear
vii
viii
vijayawada
viking
viktor
vila
vilaine
villa
villaba
village
villages
villahermosa
villanueva
villar
villareal
villasis
villaviciosa
ville
villefranche
villegas
villeneuve
villi
villon
villupuram
vilma
vimeo
vin
vince
vincent
vincenzo
vinci
vine
vineyards
vinh
vintage
vinyl
violence
violet
virac
virar
virgen
virgilio
virgin
virginia
virtual
virus
visakhapatnam
visalia
visayan
visayas
viscount
visible
vision
visionary
visions
visit
visited
visiting
visitor
visitors
vista
visual
viswanathan
vita
vital
viva
vivekananda
vives
vizcaya
vj
vladimir
vo
vocabulario
vocabulary
vocal
vocalist
vocational
vodafone
vogue
voice
voices
voivodeship
vol
volcanic
volcanism
volcano
volcanoes
volcanology
volga
vols
volta
volume
volumes
volunteers
vom
von
vorbis
vorpommern
vosges
vote
voted
votes
voting
vowel
vowels
vox
voyage
voyages
vp
vq
vre
vres
vreux
vry
vs
vsu
vt
vu
vulcan
vulgare
vulgaris
vulnerability
vulva
w
wa
wade
waga
wagas
wagner
wahlgren
wait
waiting
wakas
wake
wala
walang
wales
walesa
wali
walk
walker
walking
walks
wall
wallace
walled
wallis
walls
walnut
walsh
walt
walter
walther
walu
walung
wan
wanan
wanang
wang
wanna
want
wanted
wants
war
warangal
waray
ward
ware
warfare
warhol
wari
waring
warm
warmer
warming
warner
warning
warren
warriors
wars
warsaw
warships
warty
was
wash
washington
wasn
wasps
waste
wat
watas
watch
watching
water
watercolor
waters
watershed
waterways
watson
watt
wave
wavelength
waves
wawa
wawangis
way
wayback
wayne
ways
wałe
wbc
we
wealth
weapons
weather
weaver
web
webarchive
webb
webcam
webcams
webcitation
webelements
webpage
website
websites
webster
wedding
wednesday
weed
week
weekend
weekly
weeks
weibo
weidenfeld
weight
weimar
weiner
weinstein
weitz
welby
welcome
weldon
welfare
well
wellington
wells
welsh
wenn
went
were
werner
wernher
wesley
west
westafricanplants
western
westfall
westminster
westphalia
westport
westview
wetland
wg
wgn
whale
whales
what
whatever
wheat
wheel
wheeler
when
whenever
where
whereas
whether
which
whichever
while
white
whitney
who
whole
whom
whose
why
wi
wichita
wide
widely
width
wiesel
wife
wika
wikang
wiki
wikibookspar
wikidata
wikileaks
wikimapia
wikimedia
wikinewscat
wikipedia
wikipedias
wikiprojects
wikiquote
wikis
wikisatellite
wikisource
wikisourcepar
wikispecies
wikitable
wikivoyage
wiktionary
wild
wilde
wildlife
wiley
wilhelm
wilkins
wilkinson
will
willem
william
williams
williamson
willie
willy
wilson
wimax
wimbledon
win
winans
wind
window
windows
windsor
windus
wine
wing
wings
winkler
winner
winners
winning
wins
winslet
winter
wire
wired
wireless
wirsung
wisconsin
wisdom
wise
wish
witch
with
within
without
witness
wizard
wk
wma
wmv
wo
wolf
wolfe
wolfgang
wolfram
wolves
woman
women
won
wonder
wonderful
wood
woodland
woodrow
woods
woody
wool
word
wordpress
words
work
worked
worker
workers
working
works
workshop
world
worldcat
worlds
worldstatesmen
worldwide
worm
worms
worst
worth
would
wow
wright
wrist
write
writer
writers
writing
writings
written
wrong
wrote
wta
wu
wuhan
wuhu
wuwei
wwf
www
wyoming
x
xa
xavier
xd
xi
xia
xiamen
xiang
xiangtan
xiangyang
xianning
xiaogan
xico
xii
xiii
xingning
xingtai
xingyang
xinxiang
xinyang
xiph
xiv
xls
xlsx
xu
xua
xuancheng
xuchang
xun
xv
xvi
xvii
xx
xxiii
y
ya
yabe
yadin
yagkas
yahi
yahoo
yalang
yaldo
yale
yalis
yam
yamaguchi
yaman
yamanu
yampang
yamu
yamuna
yamut
yan
yang
yangjiang
yangtze
yangzhou
yankees
yap
yapa
yapin
yat
yata
yatu
yatung
yaus
yawsan
yd
ydftin
ye
yeah
year
yearbook
years
yearwood
yellen
yellow
yelu
yemen
yen
yeng
yeni
yerba
yerbang
yesterday
yet
yg
yi
yichang
yichun
yield
yigael
ying
yllana
yo
yohan
yokogawa
yolo
yon
yong
yonne
yoo
yoon
york
yorker
yosef
yoshida
you
young
younger
your
yourself
youth
youtube
yu
yuba
yue
yueyang
yugoslav
yui
yukio
yukon
yuku
yume
yumu
yung
yunnan
yup
yuta
yutang
yuzon
yvelines
yves
z
za
zach
zachary
zafo
zahle
zambales
zambia
zamboanga
zamora
zapanta
zapote
zaragoza
zardari
zarzuela
zcoa
ze
zea
zealampong
zealand
zeman
zemo
zenawi
zero
zeroes
zeylanica
zh
zha
zhangjiajie
zhangzhou
zhanjiang
zhao
zhaoqing
zhejiang
zhengzhou
zhenjiang
zhi
zho
zhongshan
zhoukou
zhuang
zhuhai
zhumadian
zi
zie
zilla
zimbabwe
zio
zip
zli
zobbel
zobel
zoilo
zona
zone
zones
zoo
zoological
zoology
zquez
zsa
zu
zuckerberg
zulu
zum
zuma
zunyi
zur
zurich
zygospore
zygote
zywietz
{
|
}
~
¡
§
©
ª
«
®
°
²
³
´
µ
·
¹
º
»
¼
¿
×
ð
ðe
ø
đa
đi
đie
đo
đu
ı
łobez
ŋ
ɑ
ə
ɛ
ɪ
ɽ
ɾ
ʃ
ʊ
ʌ
ʔ
ʧ
ʰ
ʱ
ʲ
ʻ
ʿ
ˁ
ˈ
ˌ
ː
ːˈ
ˤ
˥
˨
˩
̀
́
̂
̃
̄
̆
̇
̈
̉
̊
̌
̍
̓
̔
̛
̞
̣
̤
̥
̧
̨
̩
̪
̯
̱
̺
͂
α
β
θ
μ
ν
ο
ρ
ς
а
бласть
блика
дская
е
и
м
н
нская
о
округ
п
респу
с
федеральныи
я
ְ
ִ
ַ
ָ
ּ
א
ב
ד
י
ל
מ
נ
ר
ת
ا
الا
الدين
ب
باد
ر
س
ل
محمد
ٌ
َ
ِ
ّ
ْ
ٓ
ٔ
ٕ
پور
ँ
ं
आ
उत
क
ख
ग
ङ
च
ज
झ
ट
ड
ण
त
तर
थ
द
ध
न
नगर
प
फ
ब
भ
म
य
र
रद
ल
व
श
ष
स
ह
़
ा
ि
ी
ु
ू
ृ
े
ै
ो
ौ
्
ঁ
ং
ক
গ
ট
ত
দ
ন
প
ব
য
র
ল
শ
স
হ
়
া
ি
ী
ু
ে
্
ਂ
ਅ
ਜ
ਟ
ਦ
ਪ
ਬ
ਮ
ਰ
ਲ
ਸ
ਹ
਼
ਾ
ਿ
ੀ
ੁ
ੋ
੍
ੰ
ੱ
ં
ક
ગ
દ
ભ
ર
લ
વ
સ
ા
ી
ુ
ે
ો
્
ା
க
ங
ச
ட
ண
த
ந
ன
ப
ம
ர
ற
ல
வ
ா
ி
ு
ூ
ெ
ே
ை
்
௫
ం
క
గ
చ
జ
ట
డ
త
ద
న
ప
బ
మ
ర
ల
ళ
వ
శ
ా
ి
ీ
ు
ూ
ె
ే
్
ಂ
ಕ
ಗ
ಡ
ಧ
ಪ
ಬ
ಮ
ರ
ಲ
ಳ
ಶ
ಸ
ಹ
ಾ
ಿ
ು
ೂ
ೆ
್
ೕ
ೖ
ം
ക
ച
ട
ത
പ
ര
ല
ഴ
ശ
ാ
ി
ു
ൂ
െ
േ
്
ක
ත
ද
න
ර
්
ා
ි
ී
ก
น
ม
ั
ิ
ี
ุ
ู
็
้
์
་
ག
ད
ས
ོ
것들을
방탄소년단
시
위한
작은
ក
ខ
គ
ឃ
ង
ច
ឆ
ជ
ឈ
ញ
ដ
ណ
ត
ថ
ទ
ធ
ន
ប
ព
ពង
ភ
ម
យ
រ
ល
វ
ស
ឡ
អ
ា
ិ
ី
ឹ
ុ
ូ
ួ
ើ
ៀ
េ
ែ
ៃ
ោ
ៅ
ំ
ះ
៉
៊
់
័
្
​
‌
‍
‎
‏
‑
–
—
‘
’
“
”
„
†
•
…
′
″
‹
›
⁄
ⁿ
€
№
℟
℣
⅜
→
↔
↷
−
∙
≈
⋅
③
④
⑦
│
█
◌
★
♠
♦
⟨
⟩
ⲁ
ⲃ
ⲉ
ⲓ
ⲙ
ⲟ
ⲡ
ⲣ
ⲥ
ⴰ
ⴷ
ⵏ
ⵓ
ⵔ
ⵙ
ⵜ
ⵣ
⺀
⺄
⺆
⺈
⺊
⺌
⺕
⺝
⺸
⺼
⿰
⿱
⿲
⿳
⿴
⿵
⿶
⿷
⿸
⿹
⿺
⿻
、
。
《
》
「
」
『
』
〢
あ
い
う
え
お
か
き
く
け
こ
さ
し
す
せ
そ
た
ち
っ
つ
て
と
な
に
の
は
ひ
ふ
へ
ほ
ま
み
む
め
も
ゃ
や
ゆ
ょ
よ
ら
り
る
れ
ろ
わ
を
ん
゙
゚
ァ
ア
ィ
イ
ウ
ェ
エ
ォ
オ
カ
キ
ク
ケ
コ
サ
シ
ス
セ
ソ
タ
チ
ッ
ツ
テ
ト
ナ
ニ
ヌ
ネ
ノ
ハ
ヒ
フ
ヘ
ホ
マ
ミ
ム
メ
ャ
ヤ
ュ
ユ
ョ
ラ
リ
ル
レ
ロ
ワ
ン
・
ー
㇁
㇂
㇄
㇇
㇈
㇉
㇓
㐁
㐄
㐅
㐌
㐫
㐬
㐭
㐮
㐱
㑒
㒵
㒸
㒼
㓁
㓞
㔾
㕛
㕣
㖾
㘝
㚅
㚇
㚔
㚘
㝉
㝡
㝴
㝵
㞋
㞢
㞷
㠩
㠭
㠯
㡀
㡭
㡿
㢲
㢴
㣇
㣺
㥯
㪅
㫄
㫐
㫒
㫺
㬅
㬎
㬥
㬰
㲋
㳄
㷠
㸒
㸚
㸦
㼌
㼲
㽞
㿟
䀠
䂞
䍃
䏍
䒑
䖍
䖒
䖝
䖵
䙴
䚻
䜌
䝿
䡛
䧹
䪞
一
丁
丂
七
丄
丅
丆
万
丈
三
上
下
丌
不
与
丏
丐
丑
专
且
丕
世
丘
丙
业
东
丞
丢
丣
两
严
並
丨
丩
个
丫
丬
中
丮
丰
丱
串
临
丵
丶
丷
丸
丹
为
主
丽
丿
乀
乂
乃
久
乆
乇
么
义
之
乌
乍
乎
乏
乐
乑
乔
乖
乗
乘
乙
乚
乛
乜
九
乞
也
习
乡
书
乳
乾
亀
亅
了
亇
予
争
事
二
亍
于
亏
亐
云
互
亓
五
井
亘
亚
亜
亞
亟
亠
亡
亢
交
亥
亦
产
亨
亩
享
京
亭
亮
亯
亰
亲
亳
亶
亷
人
亻
亼
亾
仁
今
介
仌
从
仐
仑
仒
仓
仕
他
付
仝
代
令
以
仮
仲
任
企
伊
伏
伐
休
会
伝
伯
但
位
体
何
佘
余
佛
作
佥
佳
使
來
侈
侌
侖
侯
侵
便
俊
保
俞
信
修
俳
倉
倍
倖
候
倠
健
偵
備
僉
僕
儿
兀
允
兂
元
兄
充
兆
兇
先
光
兊
克
兌
免
児
兑
兒
兓
兔
党
兜
兟
入
全
兩
兪
八
公
六
兮
兰
共
关
兴
兵
其
具
典
兹
兼
冀
冂
冃
冄
内
冈
冉
冊
冋
册
再
冎
冏
冐
冒
冓
冖
冗
冘
写
军
农
冝
冡
冥
冫
冬
况
冷
凉
几
凡
凢
凵
凶
凷
凸
凹
出
函
凾
刀
刁
刂
刃
刄
刅
分
切
刍
刑
划
刕
刖
列
刘
则
初
別
利
别
到
制
刺
則
削
剌
前
剡
剽
劉
力
功
加
务
劦
助
劫
劳
劵
勃
勇
勉
勒
動
務
勝
勞
勤
勹
勺
勻
勾
勿
匀
匂
包
匆
匈
匊
匋
匍
匕
化
北
匚
匝
匡
匪
匱
匸
匹
区
医
匽
匿
區
十
卂
千
卄
卅
卆
升
午
卉
半
卌
华
卑
卒
卓
单
卖
南
博
卜
卝
卞
占
卡
卢
卣
卤
卦
卩
卪
卬
卯
印
危
即
却
卵
卷
卸
卻
厂
厃
厄
历
厈
厉
厌
厓
厘
厚
原
厤
厥
厨
厭
厲
厶
厷
厸
去
厼
厽
县
叀
参
參
叅
又
叉
及
友
双
反
叐
发
叒
叔
叕
取
受
叚
叜
叟
口
古
句
另
叩
只
召
可
台
叱
史
右
叵
号
司
叹
吂
各
吅
合
吉
吊
吋
同
名
后
吏
向
吕
君
吝
吞
吠
否
含
启
吳
吴
吹
吾
呂
呆
呈
告
员
呙
周
呼
命
咅
和
咎
咠
咢
咨
咸
咼
哀
品
哈
哉
員
哥
哲
唄
唐
唯
商
啇
問
啚
啬
啻
善
喜
喬
單
喿
嗇
嘉
噩
嚴
囊
囗
囘
囙
囚
四
回
囟
因
団
囧
囬
困
囱
囷
固
国
图
圂
圅
國
圍
圓
土
圡
圣
圥
在
圭
地
圳
圶
圼
坊
坐
坒
坚
坛
坴
垂
垔
垚
埀
埋
城
埠
埶
執
基
堂
堅
堆
堇
堯
堰
塞
墨
壁
壘
士
壬
壮
壯
声
売
壳
壴
壹
壺
壽
夂
处
夅
夆
备
夊
夋
夌
复
夏
夒
夕
外
夗
夘
多
夜
夢
大
夨
天
太
夫
夬
夭
央
失
夲
头
夷
夸
夹
夻
夾
奂
奄
奇
奈
奉
奎
奏
奐
契
奓
奔
奚
奞
奠
奢
奥
奭
女
奴
奻
好
如
妄
妙
妟
妥
妻
妾
始
姑
委
姜
威
娄
婁
婴
媛
嬰
嬴
子
孑
孔
孕
孖
字
存
孚
孛
孝
孟
季
孤
学
孫
孱
學
宀
宁
宂
它
宅
宇
守
安
宋
完
宏
宓
宗
官
定
宛
宜
宝
客
宣
室
宮
宰
害
家
容
宾
宿
寄
寅
密
富
寒
察
寧
審
寫
寬
寮
寸
对
寺
寻
寽
対
寿
封
尃
射
将
將
專
尉
尊
尋
尌
對
小
少
尒
尓
尔
尖
尗
尚
尞
尢
尣
尤
尧
尨
尭
就
尸
尹
尺
尻
尼
尽
尾
尿
局
居
屈
屋
屎
屏
屑
展
屖
屚
属
屠
屡
屬
屮
屯
屰
山
屵
屾
岁
岂
岑
岗
岛
岡
岩
岳
岸
峪
峯
島
崇
崎
崑
崔
崖
崙
崩
嵬
嶲
巂
巛
川
州
巟
巠
巢
巤
工
左
巧
巨
巩
巫
差
己
已
巳
巴
巷
巸
巽
巾
巿
帀
市
布
师
希
帚
帛
帝
带
師
席
帰
帶
常
干
平
年
幵
并
幷
幸
幺
幻
幼
幽
幾
广
広
庄
庆
床
底
店
庚
府
度
庫
庭
庶
康
庸
廉
廌
廛
廣
廩
廴
延
廷
建
廾
廿
开
弁
弃
弄
弇
弋
式
弓
弔
引
弗
弘
弜
弟
张
弥
弦
弱
張
強
强
弾
彊
彌
彎
彐
彑
当
彔
录
彖
彗
彡
形
彥
彦
彧
彭
彳
役
彼
往
待
律
徐
徒
得
徙
從
復
微
徵
德
心
忄
必
忌
忍
志
忝
忠
忩
快
念
忽
忿
怀
怒
思
怠
急
怱
恁
恆
恒
恩
恭
息
悉
患
悤
悲
悶
情
惠
惡
惢
愁
愈
意
愛
感
慈
慧
慮
慶
憂
憲
應
懐
戀
戈
戉
戊
戋
戌
戍
戎
成
我
戒
戔
或
戚
戠
戢
戦
截
戲
戶
户
戹
戼
戾
房
所
扁
扇
手
扌
才
打
托
执
扬
承
折
抜
报
拉
拜
拿
捜
据
掌
掖
探
推
提
摩
撤
播
擢
支
攴
攵
收
攸
改
放
政
敄
敏
敕
敖
敗
敝
敞
敢
散
敦
敫
敬
数
敵
敷
數
斂
文
斉
斊
斗
斤
斥
斩
斬
斯
新
方
於
施
斿
旁
旅
旋
族
无
旡
既
旣
日
旦
旧
旨
早
旬
旭
旱
旲
时
旾
昆
昇
昌
昍
明
昏
易
昔
昗
昜
星
春
昬
是
昱
昴
昷
時
晃
晉
晋
晏
普
景
晶
智
暑
暴
曇
曩
曰
曲
曳
更
曷
書
曹
曼
曾
替
最
朁
會
月
有
朋
服
朔
朕
朗
望
朝
木
朩
未
末
本
札
朮
术
朱
朴
朵
朶
朿
杀
李
杏
村
杜
束
条
来
東
杲
杳
松
析
林
枚
果
枝
枣
枲
枼
某
柔
查
柬
柰
柴
栗
根
桀
桃
桑
桼
梁
梅
條
梟
梨
棘
棠
棥
森
楚
業
楽
概
榮
様
樂
樊
模
欠
次
欣
欮
欲
欶
欽
款
歆
歇
歌
歛
止
正
此
步
武
歨
歪
歮
歯
歰
歲
歴
歷
歸
歹
歺
死
殳
段
殷
殸
殹
殺
殻
殿
毋
毌
母
每
毒
比
毕
毚
毛
毳
氏
氐
民
气
気
氣
水
氵
氶
氷
永
氺
氾
求
汉
汕
汝
汞
江
池
決
沁
沂
沃
沓
沙
沝
河
治
泉
泊
法
波
泣
泥
泰
泽
洋
洛
津
洪
洸
活
派
流
济
浦
浩
浪
浮
海
涼
涿
淡
淮
深
清
渚
渠
渡
港
湖
湘
湛
湯
源
滁
滨
滿
演
漢
漳
漸
潮
濟
灣
火
灬
灭
灰
灵
灷
炅
炎
炏
炗
炙
炭
為
烈
烏
烝
焉
無
焦
焱
然
煌
煞
熊
熏
熱
燃
燕
營
燮
爆
爪
爫
爭
爯
爰
爱
爲
爵
父
爻
爽
爾
爿
片
牙
牚
牛
牜
牟
牡
牢
牧
物
牪
特
牽
犀
犬
犭
犮
狂
狄
狊
独
狺
猋
猒
猪
献
獅
獣
獻
玄
率
玉
王
玟
玨
现
珍
珎
珠
班
理
琴
瑟
瑩
璠
瓜
瓦
甘
甚
生
産
用
甫
甬
田
由
甲
申
电
甶
男
甸
甹
画
甾
畀
界
畏
畐
留
畜
畟
畢
畧
畨
番
畫
異
畱
當
畺
畾
疊
疋
疌
疑
疒
疾
癶
癸
癹
発
登
發
白
百
皀
皃
的
皆
皇
皋
皐
皕
皮
皷
皿
盃
盆
盇
盈
益
盍
盎
监
盒
盖
盛
盡
監
盤
盧
目
直
相
盾
省
眇
眉
看
県
眔
眞
真
眷
眼
眾
着
睘
睪
睿
瞏
瞢
瞬
瞿
矍
矛
矞
矢
矣
知
矦
短
石
矿
码
破
碎
碧
磊
磨
示
礻
礼
社
神
祟
祥
票
祭
禀
禁
福
禸
禹
禺
离
禽
禾
禿
秀
秃
秉
秋
科
秝
秦
移
稟
穀
穌
穴
究
穹
空
穿
突
窄
窒
立
竒
竜
竝
竟
章
童
竹
笑
笠
第
筆
等
答
箕
算
管
箴
節
篤
篭
米
粉
粛
粟
粤
粦
粲
糞
糸
糹
系
紀
約
納
素
索
紫
累
細
結
絜
絫
絲
維
綿
線
編
縣
繇
纂
纍
纟
级
绍
经
统
绥
缶
网
罒
罔
罕
罗
罙
罡
罢
罪
署
罷
羅
羊
羌
羍
美
羔
羕
羗
羞
羡
羣
群
義
羲
羸
羽
翁
翏
習
翕
翟
翠
翼
老
耂
考
者
耆
而
耎
耑
耒
耳
耴
耶
耷
聂
聊
聖
聚
聶
聿
肀
肃
肅
肇
肉
肖
肙
肥
肩
肯
育
肴
胃
背
胡
胥
能
脊
脩
膚
臣
臤
臧
自
臬
臭
臯
臱
至
致
臺
臼
臽
臾
臿
舀
舂
舄
與
興
舉
舌
舍
舛
舜
舞
舟
般
艮
良
色
艸
艹
艾
芒
芔
芜
芬
芭
芮
花
芳
芺
芻
苔
苗
苟
若
苦
英
茂
茶
茸
荅
荆
草
荒
荣
药
荼
莆
莞
莧
莫
莽
菆
菊
菐
華
萬
落
葉
著
葛
董
葵
蒙
蒦
蒼
蓋
蓬
蓺
蔑
蔡
蕉
蕭
薄
薛
薦
薯
薰
藍
藏
藤
藥
蘭
虍
虎
虐
虒
虔
處
虖
虗
虘
虚
虛
虜
虞
虫
虽
蚌
蚤
蚩
蜀
蜜
蟲
蠡
血
行
衍
衛
衡
衣
衤
表
衮
衰
袁
袞
褭
褱
襄
襾
西
覀
要
覃
見
規
覓
覧
親
覽
见
角
解
言
訁
訇
計
記
詞
話
詹
語
誩
説
誰
諸
讃
讠
计
记
许
谷
豆
豈
豊
豐
豕
豖
豙
象
豦
豩
豪
豸
貇
貝
貞
貟
負
貢
貧
貪
貫
責
貳
貴
買
費
賀
賁
資
賈
賏
賓
賔
賛
賞
賢
賣
質
賴
贊
贝
贡
责
贯
贲
贵
赖
赞
赤
赦
走
起
超
越
趙
足
路
蹇
身
躬
車
軍
軎
軟
転
輝
輦
轉
轟
车
辉
辛
辜
辟
辥
辭
辰
辱
農
辵
辶
边
达
迁
迅
过
近
连
迷
追
退
送
逆
逐
通
速
造
逢
連
逮
週
進
遀
遂
運
過
道
達
遠
遣
適
遵
遷
遺
邊
邑
邓
邕
邢
那
邦
邪
邮
邯
邵
郎
郑
部
郭
郵
都
鄂
鄉
鄭
酉
酋
配
酒
酓
釆
采
里
重
野
量
金
釒
鉄
銀
銘
鋼
錢
鐘
钅
铜
银
销
镇
長
镸
长
門
閃
閉
開
閏
閑
閒
間
閔
関
閩
閵
閻
闌
關
门
间
闷
闻
闽
阑
阜
阝
防
阳
阴
阿
陆
降
限
院
陰
陳
陵
陸
険
陽
隆
隊
隋
随
隡
隨
隱
隶
隹
隺
隻
隼
隽
难
雀
雁
雄
集
雈
雋
雍
雐
雔
雙
雚
雜
雝
離
難
雨
雩
雪
雲
零
雷
需
霍
霜
霝
霞
霸
靈
靑
青
靖
非
靡
面
靣
革
鞍
韋
韦
韭
韯
韱
音
韶
頁
頂
頃
項
順
須
頗
頡
頭
頻
顛
页
風
风
飛
飞
食
飠
養
館
饣
首
香
馬
馮
駦
马
骨
高
髟
鬥
鬯
鬲
鬼
魂
魔
魚
魯
鮮
鰕
鱼
鲁
鳥
鳳
鸟
鸡
鸭
鹤
鹵
鹿
麃
麗
麥
麦
麻
黃
黄
黍
黎
黑
黒
黨
黹
黽
黾
鼎
鼓
鼠
鼻
齊
齋
齐
齒
齿
龍
龙
龜
龟
龠
龰
龱
龴
龵
龶
龷
龸
龹
者
艹
﻿
！
＆
（
）
，
／
：
？
｜
～
･
𠀁
𠀃
𠀆
𠀉
𠀎
𠀐
𠁁
𠁣
𠂆
𠂇
𠂈
𠂉
𠂊
𠂋
𠂎
𠂒
𠂔
𠂛
𠂡
𠂢
𠂤
𠂬
𠂭
𠂹
𠃊
𠃋
𠃌
𠃍
𠃎
𠃑
𠃓
𠃔
𠃜
𠄌
𠄎
𠄠
𠄢
𠆢
𠆥
𠇍
𠈌
𠌵
𠓜
𠔉
𠔥
𠔼
𠔽
𠔿
𠕀
𠕁
𠕋
𠘧
𠘨
𠙻
𠙼
𠚏
𠚒
𠚤
𠚪
𠣏
𠤎
𠤕
𠥓
𠦄
𠦑
𠦝
𠧒
𠧗
𠧪
𠩺
𠪚
𠫓
𠫔
𠫤
𠬛
𠬝
𠬞
𠬢
𠬤
𠬶
𠮛
𠮦
𠮷
𠯑
𠱠
𠳮
𠷎
𡈼
𡉀
𡉵
𡌥
𡍮
𡏳
𡕒
𡕩
𡕰
𡖅
𡗗
𡗜
𡘆
𡘤
𡧱
𡨄
𡩧
𡬠
𡭽
𡰣
𡰥
𡰪
𡰯
𡰱
𡷈
𡸁
𡿨
𡿩
𡿪
𡿺
𢀖
𢀛
𢀩
𢁙
𢆉
𢆰
𢆶
𢇁
𢇇
𢉖
𢌬
𢌿
𢏚
𢑑
𢑚
𢖻
𢙣
𢛳
𢦏
𢦒
𢧵
𢼄
𢾕
𣁋
𣄼
𣅀
𣅽
𣍘
𣎳
𣎵
𣏋
𣏼
𣗥
𣥂
𣥖
𣦵
𣦼
𣧄
𣪊
𣪠
𣬉
𣳾
𣶒
𤇾
𤊽
𤐫
𤓰
𤔔
𤕨
𤣩
𤰇
𤰔
𤰞
𤴓
𤴔
𤽄
𥁑
𥁕
𥃦
𥃩
𥃭
𥇡
𥑟
𥘅
𥘈
𥝢
𥫗
𥱡
𦈢
𦉪
𦉬
𦉼
𦍌
𦍒
𦎧
𦐇
𦓔
𦔮
𦘒
𦙃
𦚏
𦣝
𦣞
𦣻
𦥑
𦥔
𦥯
𦨉
𦭝
𦰩
𧆞
𧈧
𧘇
𧰨
𧴪
𧴮
𧵩
𧾷
𨸏
𨾴
𩙿
𩠐
𩫏
𩵋
𪉷
𪜀
𪟽
𪠲
𪩲
𫇦
𫔭
𫜸
𫝀
𫠣
𫠩
𫢉
𫥞
𫩏
𫩠
𫪡
𫲽
𫶧
𬀷
𬐘
𬗌
𬙙
𬛸
𬜯
𬟩
𬯁
𬴘
𬺻
𬼉
𬼖
𭀰
𭁈
𭁨
𭅰
𭑈
𭕄
𭗼
𭤨
𭥫
𭻾
𮅕
𮊿
𮍌
𮍏
𮓗
𮥼
𮧮
廾
𰀁
𰀄
𰀈
𰀉
𰀕
𰀠
𰀡
𰀢
𰀪
𰁜
𰃮
𰆊
𰆘
𰋙
𰕎
𰢴
𰧭
𰯲
03--
04--
105--
56--
76--
81--
877--
90--
91--
961--
978--
a--
aa--
aar--
ab--
aba--
abil--
abing--
abu--
ac--
accele--
ach--
act--
acti--
ad--
ae--
aero--
aff--
affil--
ag--
ago--
agres--
agu--
agus--
ah--
ai--
air--
ak--
aka--
akhal--
aku--
al--
ala--
ale--
ali--
all--
alter--
am--
an--
ana--
anc--
and--
ang--
ani--
ans--
ant--
anti--
anto--
any--
ao--
ap--
apa--
api--
apo--
app--
appro--
aqua--
ar--
ara--
are--
ari--
armon--
ars--
art--
as--
asa--
ash--
asi--
asp--
astro--
astu--
at--
ata--
atmos--
atten--
au--
aus--
auto--
av--
avi--
aw--
ay--
az--
b--
ba--
bab--
bac--
back--
bad--
bag--
bal--
bali--
balu--
bam--
ban--
bang--
bani--
bank--
bar--
barce--
bas--
bat--
batti--
bau--
be--
beau--
bed--
bel--
ben--
ber--
bet--
bha--
bhatt--
bhi--
bi--
bias--
bibli--
big--
bil--
bin--
bini--
bio--
bisch--
biz--
bla--
black--
blog--
blu--
blue--
bo--
bol--
bon--
book--
bor--
bot--
bou--
bouc--
br--
bra--
bre--
brig--
bro--
broc--
bs--
bu--
bud--
bug--
bugas--
buk--
bul--
bull--
bulub--
bun--
bur--
burung--
bus--
but--
by--
c--
ca--
cab--
cabad--
cag--
cal--
calao--
cam--
can--
cap--
car--
care--
cas--
cat--
ce--
celes--
cer--
certifica--
ch--
cha--
cham--
char--
che--
chi--
cho--
choreog--
chry--
cie--
cir--
circu--
cit--
cl--
clot--
co--
cog--
col--
com--
commun--
compl--
con--
const--
conve--
cor--
corc--
cosm--
cott--
cra--
craw--
cre--
cri--
cro--
cru--
cu--
cur--
cut--
cy--
cycl--
cylindr--
d--
da--
dag--
dai--
dam--
dan--
dar--
dau--
dav--
day--
de--
dec--
decla--
def--
dek--
del--
demonst--
der--
des--
descend--
di--
dia--
diffi--
dig--
din--
ding--
dio--
dir--
dis--
discip--
diu--
dj--
dl--
do--
dob--
doc--
doku--
dol--
don--
dor--
dos--
dp--
dr--
dra--
du--
dy--
dz--
e--
ea--
ear--
eb--
ebo--
ec--
ecdy--
ed--
edi--
edit--
edu--
eh--
ei--
ek--
ekspres--
el--
em--
eme--
emos--
empi--
emplo--
en--
ena--
ener--
eng--
ep--
equi--
er--
es--
escal--
et--
ethno--
etymo--
eu--
eupat--
euro--
eva--
ex--
exc--
excl--
expl--
extra--
ez--
f--
fa--
fal--
fan--
far--
fe--
fed--
fer--
fert--
fi--
file--
find--
fire--
fl--
flat--
flo--
fm--
fo--
fol--
foot--
for--
fr--
frag--
fram--
fred--
free--
frei--
frid--
frie--
fu--
g--
ga--
gab--
gad--
gal--
gan--
gao--
gar--
gas--
ge--
gen--
geo--
ger--
ges--
gha--
ghag--
gho--
gi--
gis--
gl--
glo--
gly--
go--
god--
good--
gr--
grand--
grap--
green--
grim--
gu--
gua--
gue--
gui--
guil--
gus--
gymn--
gyne--
h--
ha--
hai--
hal--
halluci--
han--
hang--
har--
hard--
hat--
hay--
he--
head--
hect--
hed--
heil--
her--
herce--
het--
heub--
hi--
higas--
high--
him--
hit--
hiz--
ho--
home--
homo--
hon--
hr--
hs--
hu--
hud--
hump--
hun--
hy--
hyd--
hydro--
hyper--
i--
iba--
ibu--
ice--
id--
ideo--
if--
ig--
ign--
igu--
iheart--
ii--
ik--
ika--
il--
ilig--
im--
ima--
in--
ina--
inc--
incor--
incre--
indo--
info--
ing--
inhi--
ini--
insp--
inst--
insur--
int--
inter--
io--
ip--
ipa--
ir--
iro--
irra--
is--
ita--
itu--
iv--
j--
ja--
jac--
jag--
jam--
jan--
java--
je--
ji--
jia--
jiang--
jin--
jo--
jp--
ju--
k--
ka--
kai--
kal--
kala--
kali--
kamp--
kan--
kang--
kapan--
kapi--
kar--
kara--
kas--
kata--
kath--
kay--
ke--
ken--
key--
kh--
kha--
ki--
kib--
kiki--
kil--
kim--
kin--
kirch--
kit--
kle--
ko--
komen--
komp--
komun--
kon--
kontr--
kotha--
kr--
kra--
ku--
kuku--
kump--
kun--
kund--
kuri--
kw--
ky--
l--
la--
labing--
lai--
lam--
lan--
land--
lanta--
lar--
laur--
le--
lea--
leg--
les--
let--
li--
libra--
lig--
lil--
lim--
lin--
lis--
lit--
liu--
live--
ll--
lo--
loc--
long--
lu--
lub--
luc--
luk--
lumb--
ly--
m--
ma--
mac--
mad--
mag--
maga--
magla--
magpa--
mahi--
mai--
maj--
mak--
maka--
maki--
mal--
mala--
mali--
mama--
mamb--
man--
mana--
mang--
manga--
mani--
mano--
manuf--
manuskr--
map--
mapa--
maqui--
mar--
mas--
masa--
masu--
mat--
mata--
matu--
mau--
max--
may--
maya--
mc--
mca--
me--
med--
meg--
mekapag--
mekata--
meki--
mel--
men--
meng--
mer--
mes--
met--
meta--
mi--
mibu--
micro--
mid--
mig--
mika--
mil--
mila--
milu--
mip--
mipag--
mira--
misa--
mit--
mita--
mitoc--
mituk--
miya--
miyaya--
mk--
ml--
mo--
modi--
mon--
monte--
ms--
mu--
mueb--
multi--
mumu--
mun--
my--
myrm--
n--
na--
nag--
nai--
nam--
nan--
nap--
nars--
nas--
nat--
navs--
nc--
nd--
ne--
neder--
neighbo--
neo--
neph--
neu--
neuro--
new--
news--
ng--
nh--
ni--
nik--
ning--
nis--
no--
non--
not--
ns--
nu--
num--
ny--
o--
ob--
obe--
oc--
oct--
og--
ok--
ol--
oliv--
om--
on--
op--
or--
ori--
ort--
os--
ot--
other--
out--
ov--
over--
ox--
oy--
oz--
p--
pa--
pag--
page--
pahi--
pai--
paka--
paki--
pakina--
pal--
pala--
pale--
pali--
pam--
pamag--
pamaki--
pamam--
paman--
pami--
pan--
pana--
pang--
panga--
panya--
papa--
par--
para--
pas--
pasu--
pat--
pata--
pay--
pe--
peace--
ped--
peka--
peki--
pemun--
pen--
pepa--
per--
percuss--
pet--
ph--
phi--
phy--
pi--
pia--
pig--
pil--
pin--
pinag--
pisa--
pl--
pla--
play--
po--
pod--
poly--
pontif--
pop--
por--
posi--
post--
pq--
pr--
pra--
prak--
pre--
preda--
pri--
pridnest--
princ--
pro--
pseu--
psy--
psycho--
pu--
pul--
pun--
put--
py--
pye--
q--
qi--
qu--
qui--
quick--
quo--
r--
ra--
rac--
rad--
rai--
rain--
ram--
rama--
rat--
raz--
rd--
re--
reak--
real--
rebo--
recip--
recog--
red--
ref--
reg--
regu--
rei--
relas--
reli--
ren--
res--
resis--
respons--
ret--
retro--
rev--
ri--
rid--
rim--
rn--
ro--
rob--
rom--
rose--
row--
ru--
run--
s--
sa--
sac--
sad--
sag--
sagi--
sai--
sal--
sam--
san--
sand--
sap--
sar--
sari--
sat--
saty--
saw--
sc--
scan--
sch--
schi--
se--
sec--
sed--
segun--
sek--
sel--
semes--
sen--
sep--
ser--
sere--
sh--
sha--
she--
sher--
shi--
show--
shu--
si--
sid--
sik--
sil--
sin--
sing--
sip--
sir--
sk--
sky--
sl--
slov--
sm--
sn--
so--
sober--
soc--
socio--
sol--
some--
son--
song--
sor--
sou--
sp--
spokes--
spon--
sports--
sr--
st--
sta--
star--
stati--
ste--
sti--
sto--
su--
sub--
sud--
sul--
sumu--
sun--
super--
sur--
sus--
sut--
sv--
sw--
sy--
symp--
syn--
t--
ta--
tab--
tag--
tai--
tail--
tak--
tal--
tala--
talapag--
tam--
tan--
tar--
tas--
tat--
tata--
tax--
tay--
te--
tekno--
temp--
ten--
teo--
ter--
th--
tha--
the--
tho--
ti--
tibu--
tic--
tid--
til--
tim--
tin--
tinim--
tip--
tiru--
tit--
to--
tol--
tom--
ton--
top--
topog--
tor--
tr--
tra--
trans--
tre--
tri--
triglyce--
tro--
tru--
tu--
tub--
tum--
turk--
tv--
twi--
ty--
u--
ua--
ub--
uc--
ud--
ug--
ul--
um--
un--
una--
under--
ung--
up--
ur--
us--
ut--
utili--
uyg--
v--
va--
val--
van--
var--
ve--
vent--
ver--
verte--
vi--
via--
vijaya--
villa--
vo--
vy--
w--
wa--
wal--
wan--
war--
we--
web--
wel--
west--
whit--
white--
wi--
wiki--
wil--
wind--
wo--
wood--
wu--
wy--
x--
xi--
xx--
y--
ya--
yam--
yan--
ye--
yi--
yo--
yu--
yug--
z--
za--
ze--
zhu--
zi--
zoo--
zu--
æ--
ə--
ا--
ال--
بي--
म--
ह--
க--
ន--
ម--
រ--
ស--
អ--
--0
--01
--02
--06
--1
--10
--11
--18
--2
--20
--3
--38
--4
--41
--42
--43
--44
--5
--52
--56
--6
--60
--7
--72
--79
--8
--83
--85
--88
--89
--9
--92
--94
--95
--98
--a
--abh
--abi
--ability
--able
--ac
--acan
--ad
--ada
--ado
--adu
--ae
--ag
--agan
--age
--agid
--ah
--ahan
--ai
--ail
--ain
--air
--aire
--ait
--ak
--ake
--al
--ala
--ali
--als
--am
--an
--ana
--ance
--anes
--ang
--ani
--ano
--ans
--ant
--anu
--ao
--ap
--aphy
--apur
--ar
--ara
--aral
--aran
--ard
--ario
--ariu
--arpur
--ars
--ary
--arya
--as
--asa
--aso
--ason
--asyun
--at
--ata
--atba
--ate
--ath
--ation
--ations
--ators
--atti
--au
--auan
--auri
--awa
--awan
--awe
--awi
--ay
--aya
--ayan
--ayo
--b
--ba
--bak
--bal
--balen
--bar
--bas
--bat
--bay
--be
--beat
--berg
--bi
--bia
--bial
--bilad
--bird
--bisita
--bit
--ble
--bo
--book
--bour
--boy
--bs
--bt
--bu
--buk
--bul
--bule
--burg
--burn
--bury
--busu
--but
--by
--bye
--c
--ca
--cal
--can
--cas
--ce
--cea
--ceae
--ces
--ch
--chill
--ci
--cia
--cies
--cillo
--cing
--cion
--ciu
--ck
--cker
--cks
--co
--cor
--cot
--crine
--cs
--ct
--cu
--cy
--d
--da
--dad
--dae
--dan
--dap
--day
--de
--ded
--den
--der
--des
--dh
--dhi
--di
--dia
--dic
--dle
--do
--dog
--dom
--dor
--dra
--dria
--ds
--dt
--du
--dug
--dur
--dwa
--dy
--dya
--e
--ea
--eal
--eau
--eb
--ec
--eca
--ed
--eda
--ee
--eed
--eg
--eh
--ei
--eim
--eira
--ek
--el
--ell
--emic
--en
--ena
--enburg
--encia
--enheim
--eno
--ens
--ensa
--ension
--ensya
--ent
--enting
--er
--era
--ere
--erg
--eri
--erine
--ern
--ero
--ers
--erson
--ert
--eru
--ery
--es
--esa
--ese
--esh
--esis
--ess
--est
--et
--ete
--eti
--etics
--ets
--ett
--ette
--eum
--eus
--ew
--ey
--ez
--f
--fan
--feld
--fer
--ff
--fort
--ft
--ful
--g
--ga
--gal
--gan
--gao
--gas
--gat
--gco
--ge
--ged
--gen
--ggy
--gh
--ght
--gi
--gical
--gie
--gin
--gising
--gist
--gitan
--giu
--gka
--gkil
--glag
--glung
--glus
--gn
--go
--gol
--gon
--gondon
--gresista
--gro
--gru
--gs
--gu
--gua
--gue
--gues
--gui
--gul
--gun
--gut
--gy
--h
--ha
--hal
--ham
--han
--har
--he
--head
--hed
--heim
--her
--hes
--hi
--hia
--hin
--hire
--hit
--hl
--hn
--hood
--hor
--hra
--ht
--hu
--hua
--hum
--hun
--hy
--i
--ia
--iag
--ial
--ian
--iana
--iang
--ias
--ib
--ibe
--ible
--ibu
--ic
--ica
--ice
--ich
--icide
--ick
--ico
--ics
--id
--ida
--idad
--idae
--ide
--ie
--ied
--ien
--ier
--ieri
--ies
--if
--ifera
--ified
--ify
--ig
--ii
--ik
--ikh
--iko
--iku
--il
--ilde
--ile
--ili
--ilis
--illa
--illo
--ilo
--im
--in
--ina
--inan
--ination
--indi
--ine
--info
--ing
--inggat
--ings
--ino
--ins
--inu
--io
--ion
--ional
--ions
--ious
--ipun
--iq
--ir
--iral
--iri
--is
--isa
--isasiun
--ise
--ised
--ish
--ism
--ismu
--ist
--ista
--istang
--isya
--isyun
--it
--ita
--ite
--ities
--ito
--itpur
--ity
--itz
--iu
--ium
--iun
--ius
--iv
--ive
--ivity
--ivo
--iw
--ix
--iz
--ization
--ize
--ized
--izing
--j
--ja
--ji
--jid
--jo
--k
--ka
--kad
--kadu
--kal
--kampi
--kan
--kap
--kar
--kas
--kdo
--ke
--kee
--ker
--ki
--kit
--kla
--ko
--kol
--kot
--ks
--kt
--ktik
--ku
--kua
--kul
--kulta
--kung
--kup
--kut
--kwa
--ky
--l
--la
--lad
--lae
--lag
--lam
--lamitam
--lan
--land
--lang
--lao
--lar
--las
--laso
--law
--lay
--lben
--lc
--ld
--ldo
--le
--lect
--lektu
--lem
--len
--ler
--les
--let
--ley
--lf
--li
--lid
--life
--lihan
--lik
--line
--ling
--list
--lita
--lk
--lkul
--ll
--lla
--lle
--lli
--llo
--lly
--lm
--lo
--load
--logist
--logy
--lom
--lon
--ls
--lt
--ltan
--lto
--lu
--luk
--luki
--lulan
--lum
--lur
--lut
--lwal
--ly
--lyu
--m
--ma
--mal
--man
--manu
--map
--mar
--mate
--mbag
--mban
--mbang
--mbe
--mbre
--mbut
--me
--men
--ment
--ments
--mi
--mia
--min
--mio
--mla
--mo
--mott
--mp
--mpan
--mpet
--mpulu
--mu
--mus
--mut
--my
--n
--na
--nab
--nah
--nak
--nal
--nan
--nao
--nap
--nas
--nburg
--nce
--nco
--ncy
--nd
--nda
--ndaan
--ndan
--ndang
--ndar
--ndu
--ne
--ned
--nell
--ner
--ners
--nes
--ness
--net
--news
--ney
--ng
--nga
--ngal
--ngan
--nger
--nggal
--ngon
--nheim
--ni
--nia
--nian
--nik
--nk
--nki
--nks
--nn
--nne
--nni
--no
--ns
--nsan
--nse
--nsi
--nsia
--nsis
--nt
--nta
--ntang
--nte
--nti
--nting
--ntly
--nto
--ntu
--nu
--num
--nus
--ny
--nza
--o
--oan
--obo
--oc
--od
--oe
--og
--oga
--ogist
--ogy
--oh
--oi
--ok
--ol
--oli
--ological
--ology
--om
--oma
--ome
--omi
--on
--ona
--onan
--one
--ong
--online
--ons
--ont
--oo
--oon
--oor
--op
--or
--ore
--ors
--ory
--os
--ose
--osu
--ot
--ota
--oto
--ou
--oun
--ous
--out
--ov
--ovo
--ow
--oy
--p
--pa
--pad
--padu
--pag
--pal
--pali
--palto
--palyari
--pan
--pas
--pasikan
--pe
--ped
--pes
--ph
--phyte
--pi
--piece
--pirma
--pit
--pitan
--plala
--plex
--pol
--pos
--pu
--pul
--pulu
--pur
--py
--q
--quit
--r
--ra
--rado
--rador
--radu
--ragul
--ral
--ram
--ramdam
--rampur
--ran
--rance
--rants
--rao
--rap
--ras
--rasan
--rb
--rce
--rd
--re
--ren
--res
--resista
--rf
--ri
--ria
--rie
--ries
--ril
--rin
--ring
--ris
--rium
--rix
--rley
--rm
--rn
--rno
--ro
--rol
--ros
--rp
--rra
--rre
--rri
--rs
--rse
--rta
--rte
--rto
--rtz
--ru
--rum
--ry
--s
--sa
--sag
--sak
--sal
--san
--sburg
--sch
--sco
--sdan
--se
--sed
--sell
--sensu
--ser
--sey
--sh
--shan
--shi
--si
--sia
--sian
--sias
--sic
--side
--sier
--sik
--sion
--sis
--sit
--sita
--siu
--siun
--siung
--sk
--ska
--sm
--smo
--so
--son
--sor
--ss
--ssa
--ssey
--ssi
--sson
--st
--sta
--stinu
--stone
--stu
--su
--subli
--sug
--suke
--sum
--sy
--sya
--syal
--syang
--syon
--syun
--t
--ta
--tad
--tag
--tak
--tal
--tan
--tang
--tary
--tas
--tasan
--tc
--tch
--te
--ted
--tely
--ter
--ters
--tery
--tes
--th
--the
--ti
--tic
--tide
--tik
--tin
--ting
--tion
--tions
--tis
--tist
--tive
--tl
--tla
--tle
--tly
--to
--toc
--tod
--toire
--ton
--tone
--top
--tor
--tors
--tra
--ts
--tsu
--tt
--tta
--tte
--tty
--tu
--tuk
--tul
--tun
--tura
--ture
--tus
--tusyon
--tut
--twal
--ty
--tz
--u
--ua
--uag
--ual
--uan
--uang
--ub
--ubuk
--uc
--ud
--ue
--ug
--ugo
--ui
--uin
--uk
--uki
--ul
--ula
--ulu
--um
--un
--ung
--ungan
--uo
--up
--upad
--upan
--ur
--ura
--ure
--uri
--uru
--us
--usan
--ut
--ute
--uth
--ux
--uya
--uyud
--uzo
--v
--va
--vain
--vas
--ve
--vent
--versity
--ves
--vi
--ville
--vity
--vy
--w
--wa
--wad
--wal
--wan
--was
--wasan
--way
--we
--wi
--willer
--win
--wit
--worm
--ws
--x
--xi
--xis
--y
--ya
--yabe
--yad
--yag
--yaga
--yah
--yan
--yao
--yari
--yas
--yaya
--ye
--yertu
--yi
--yl
--yn
--yo
--yon
--ys
--yte
--yu
--yuan
--yun
--yus
--z
--za
--ze
--zer
--zhou
--zia
--zing
--zo
--zon
--zzo
--æ
--ʊ
--я
--ن
