!
"
#
##0
##1
##10
##11
##12
##13
##14
##15
##16
##17
##18
##19
##2
##20
##21
##22
##23
##24
##25
##26
##27
##28
##29
##3
##30
##31
##32
##33
##34
##35
##36
##37
##38
##39
##4
##40
##41
##42
##43
##44
##45
##46
##47
##48
##49
##5
##50
##51
##52
##53
##54
##55
##56
##57
##58
##59
##6
##60
##61
##62
##63
##64
##65
##66
##67
##68
##69
##7
##70
##71
##72
##73
##74
##75
##76
##77
##78
##79
##8
##80
##81
##82
##83
##84
##85
##86
##87
##88
##89
##9
##90
##91
##92
##93
##94
##95
##96
##97
##98
##99
$
%
&
'
(
)
*
+
,
-
.
/
0
00
000
0000
01
02
03
04
040
05
06
067
07
08
09
1
10
100
1000
1001
1003
1004
101
1016
102
103
1031
1032
104
105
106
1066
107
108
1086
109
1093
11
110
1100
1103
111
112
113
1130
1135
1136
114
115
1154
116
117
1170
1176
118
119
12
120
1200
1202
121
122
1221
123
124
125
1250
1258
126
1269
127
128
1280
1284
1286
129
1291
1299
13
130
1300
1302
1307
131
1311
1312
132
1327
133
1337
134
1340
1342
135
1350
1352
136
1360
1364
1367
1368
1369
137
1370
1376
1377
138
1380
1386
1389
139
1399
14
140
1400
141
1412
142
1422
1428
143
1431
144
145
1453
1455
1457
1458
146
1461
147
1470
1479
148
1482
1483
1485
1488
149
1490
1491
1492
1494
1497
1498
1499
15
150
1500
1503
1504
1506
1509
151
1511
1513
1514
152
1520
1521
1524
1527
153
1530
1532
1533
1535
1536
154
1540
1541
1542
1545
1547
1548
1549
155
1552
1553
1557
1558
1559
156
1560
1564
1566
1569
157
1572
158
1580
1584
1587
1588
159
1597
1598
1599
16
160
1600
1601
1603
1605
1608
161
1611
1614
1616
1618
162
1620
1623
1625
163
1630
1632
1638
1639
164
1640
1641
1642
1644
1646
1649
165
1650
1651
1656
1658
166
1660
1662
1667
1668
167
1674
168
1680
1682
1683
1685
1687
1688
1689
169
1690
1694
1695
1697
1699
17
170
1700
1701
1702
1704
1706
1707
1708
1709
171
1710
1711
1712
1713
1714
1715
1716
172
1725
1727
173
1730
1732
1735
174
1741
1743
1745
1746
1749
175
1751
1752
1754
1755
1758
1759
176
1760
1761
1764
1766
1767
1768
1769
177
1770
1771
1772
1773
1774
1775
1776
1778
1779
178
1780
1781
1782
1783
1784
1786
1787
1788
1789
179
1790
1791
1792
1793
1795
1796
1797
1798
1799
18
180
1800
1801
1802
1803
1804
1805
1806
1807
1808
1809
181
1810
1811
1812
1813
1814
1815
1816
1817
1818
1819
182
1820
1821
1822
1823
1824
1825
1826
1827
1828
1829
183
1830
1831
1832
1833
1834
1835
1836
1837
1838
1839
184
1840
1841
1842
1843
1844
1845
1846
1847
1848
1849
185
1850
1851
1852
1853
1854
1855
1856
1857
1858
1859
186
1860
1861
1862
1863
1864
1865
1866
1867
1868
1869
187
1870
1871
1872
1873
1874
1875
1876
1877
1878
1879
188
1880
1881
1882
1883
1884
1885
1886
1887
1888
1889
189
1890
1891
1892
1893
1894
1895
1896
1897
1898
1899
19
190
1900
1901
1902
1903
1904
1905
1906
1907
1908
1909
191
1910
1911
1912
1913
1914
1915
1916
1917
1918
1919
192
1920
1921
1922
1923
1924
1925
1926
1927
1928
1929
193
1930
1931
1932
1933
1934
1935
1936
1937
1938
1939
194
1940
1941
1942
1943
1944
1945
1946
1947
1948
1949
195
1950
1951
1952
1953
1954
1955
1956
1957
1958
1959
196
1960
1961
1962
1963
1964
1965
1966
1967
1968
1969
197
1970
1971
1972
1973
1974
1975
1976
1977
1978
1979
198
1980
1981
1982
1983
1984
1985
1986
1987
1988
1989
199
1990
1991
1992
1993
1994
1995
1996
1997
1998
1999
2
20
200
2000
2001
2002
2003
2004
2005
2006
2007
2008
2009
201
2010
2011
2012
2013
2014
2015
2016
2017
2018
2019
202
2020
2021
2022
2023
203
204
205
206
207
208
209
21
210
211
212
213
214
215
216
217
218
219
22
220
221
222
223
224
225
226
227
228
229
23
230
231
232
233
235
237
238
239
24
240
241
242
243
244
246
247
248
249
25
250
2500
251
252
253
254
255
256
257
258
259
26
260
261
263
264
265
266
267
268
269
27
270
271
272
273
274
275
276
277
278
279
28
280
281
283
284
285
286
287
289
29
290
291
292
293
294
295
296
297
298
299
3
30
300
3000
301
302
303
304
305
306
307
31
310
311
312
313
314
315
316
317
318
319
32
320
321
322
323
325
326
328
329
33
330
331
332
333
334
335
336
337
338
339
34
340
341
342
343
344
346
347
348
349
35
350
352
353
354
355
359
36
360
361
362
364
365
366
37
370
371
374
375
38
380
381
382
383
384
386
387
39
390
394
395
4
40
400
404
41
410
413
415
42
420
423
429
43
430
433
435
44
440
441
444
447
448
45
450
46
460
465
467
47
470
476
478
48
483
485
488
49
492
494
497
5
50
500
5000
504
51
52
520
524
527
53
530
54
540
542
544
55
550
56
560
563
57
570
577
578
58
580
588
59
590
597
598
6
60
600
603
61
610
611
618
62
620
625
63
632
636
637
639
64
640
642
644
647
65
650
658
66
660
666
67
672
68
685
686
69
7
70
700
704
71
72
725
73
74
7448
747
75
750
76
762
768
769
77
775
78
785
786
79
797
8
80
800
801
81
813
82
828
83
838
84
841
847
848
85
850
85022
851
857
86
861
869
87
870
874
875
88
888
89
899
899342
9
90
900
901
901409
902917
904808
906720
907064
907566
91
914
92
924
929
93
930
933
934
937
94
940
944
95
9535975
96
962
97
970
978
98
980
984
987
99
:
;
<
=
>
?
@
[
\
]
^
_
a
aaron
ab
abatti
abbasid
abbey
abbott
abc
abd
abdel
abdul
abecedari
abel
aber
abercynon
aberdeen
aberfal
aberfala
aberhondhu
aberllefenni
aberplymm
abertawe
aberystwyth
ablasya
about
abraham
abrahamek
abrams
abransek
abu
ac
academy
accessed
account
acheson
achesonyow
achesonys
achilles
acre
ad
ada
adam
adamant
adams
adansonia
addyes
adelaide
adhves
adhvesi
adhysk
adhyskans
adhyskansek
adhyskansel
adhyski
adhyskys
adolf
adrian
adro
advanced
adventure
adventures
afganistan
afghanistan
afina
afinys
africa
afrika
afrikaans
afrikan
afrikanek
afrikek
afro
after
afx
ag
aga
again
against
agamemnon
agan
agas
agatha
age
agency
ages
agh
aghel
aghevran
agnes
agreement
agriotherium
agwedh
agynsow
ah
ahanan
ai
ailurarctos
ailuropoda
air
aires
ajon
ak
akademek
akademi
akbar
akira
akkad
akontow
akontys
akord
akordyans
akordyon
akt
aktiniom
aktivita
aktivydh
al
ala
alabama
aladdin
alain
alaksiow
alan
alargh
alaska
alba
alban
albanek
albani
albannek
albany
albanyon
albaynek
albert
alberta
alberto
albom
album
alchemy
aled
aleksander
alena
alenna
alex
alexander
alexandra
alexandria
alfred
algi
alhwedh
alhwedhel
alhwedhellow
ali
alice
alison
aljebra
aljeri
alkan
alkenyow
alkohol
all
alla
allah
allahabad
allan
allas
allen
alli
allin
allos
allsa
almayn
almaynek
alnus
alosa
alow
alowa
alowas
alpek
alpha
alpow
als
alsa
alsow
alston
alsyow
alternonn
altos
aluminiom
alys
am
amadeus
amal
amalek
amalrewlivans
amalrewlivel
amanda
amanyn
amarillo
amason
amazon
amber
ambos
ambosow
ambros
amelia
amen
amendyans
amendyansow
amendys
america
american
americanus
amerika
amerikan
amerikanek
amerikanyon
amerikaow
amerikiom
amethel
amharek
amino
amkan
amkanow
amm
ammad
ammeth
ammethek
ammonya
amontya
amothik
amovyans
amovyansow
amser
amseryow
amsterdam
amundsen
amy
amyttya
amyttyas
amyttys
an
ana
analogue
anatoli
ancient
and
andersen
anderson
andes
andesit
andorra
andre
andrea
andreas
andrew
andromeda
andy
anedha
anedhans
anedhi
anella
anellans
anethow
anformel
anfurvus
angel
angela
angeles
angkor
anglo
angola
anhalt
anhrefn
ani
anishinaabemowin
anjei
anjela
ankoth
ankredoryon
ankrydoryon
anlaghel
ann
anna
anne
annie
anniversary
anodho
anow
ans
anserghek
anserghogeth
anserhek
anserhogeth
ansoedhogel
antarktek
antarktik
antarktika
anthony
anthraks
anthropologieth
anti
antiga
antillys
antimoni
antlia
antoine
anton
antoni
antonio
antony
anusadow
anvateryel
anvlasus
anweladow
aotearoa
ap
apa
apartheid
apert
aphex
apollo
apoyntya
apoyntyans
apoyntys
appalachian
apperya
apple
appointed
apposyans
apposyansow
appoyntys
april
apskritis
apus
apys
aqsa
aquilegia
ar
ara
arab
arabek
arabi
arabyon
arader
aradow
arafat
aragon
aragonek
aral
arall
aran
aray
arbennek
arbennik
arbovji
arbrov
arbrovji
arbrovjiow
arbrovow
arc
archaea
archaeologia
architecture
archive
archived
archives
arctodus
arctos
arctotherium
are
arenebedh
arenebedhow
arenep
areth
arethor
arethow
argas
arge
argemynna
argemynnans
argeow
argerdh
argerdhow
arghadow
arghans
arghansek
arghantina
arghantinek
arghantti
arghasans
arghpedrevan
arghpedrevanes
argon
argyans
argyansow
arhans
arhwilellow
arisona
aristotle
arkansas
arktek
arktik
arleth
arlith
arlodh
arlodhes
arloedh
arlotteth
arluth
arlydhi
armeni
armeniek
armstrong
army
arnold
arnoweth
arnowydh
arnowyth
around
arpitanek
arrokoth
arrow
arsenik
art
arta
artemisia
arth
arthes
arthropoda
arthur
article
articles
artist
artists
arts
artydh
artydhes
artydhyon
artys
aruba
arundell
arv
arveth
arvethas
arvethys
arvil
arviles
arvor
arvordiryow
arvorek
arvorel
arvorow
arvoryow
arvow
arvreusyas
arvwisk
arwodh
arwodhow
arwodhyow
arwoedh
arwoedhya
arwoedhyow
as
asa
asas
asen
aserbayjan
asi
asia
asimov
askel
askell
askellek
askelva
askor
askorn
askornek
askorr
askorra
askorrans
askorransow
askorras
askorrasow
askorrer
askorrus
askorrys
asleys
asnodhow
aso
asow
asp
aspiansow
aspiansva
aspx
asran
asrann
asrannow
assay
assaya
assayas
assays
assembly
association
assoylya
asteroyd
asteroydys
asthenosfer
astronomy
asturya
asturyek
aswan
aswiwans
aswiwas
aswiwys
aswon
aswonas
aswonir
aswonn
aswonnas
aswonnir
aswonnis
aswonnvos
aswonnys
aswonvos
aswonys
at
atal
atar
atatu
athelstan
athens
atherton
athina
atlantek
atlantic
atlas
atom
atomek
atomow
attendya
attendyans
au
aubigny
aubrey
audrey
auensee
auer
augsburg
august
augusta
auguste
augustine
augusto
augustus
austel
austen
austin
austol
australia
australis
austrinus
auto
automatically
autumn
aval
avalow
avant
avebury
avel
avell
aventur
avenue
averages
avi
avon
avonow
avonsya
avonsyans
avonsyansow
avonsyas
avonsys
avonyow
avowans
avowys
avoydya
avrewlys
award
awards
awartha
awayl
awdry
awedhyans
awel
awelyow
awen
awenek
awenys
aweyl
aweylys
awgrym
awgrymek
awgrymer
awoles
awos
awosa
awrgrymor
awtomatek
awtorita
awtoritas
awtour
awtoures
awtours
ayns
ayr
ayrborth
ayrborthow
ayren
ayrgorf
ayrgylgh
ayrlu
az
azerbayjan
azerek
aztek
aztekys
b
ba
baban
baby
babylon
bach
bachelerieth
back
bad
badh
bagas
bagasow
baghdad
baghek
bagnall
baha
bahama
bahn
bahreyn
baikal
baker
bakteria
bakteriom
bal
bala
balaenoptera
balek
balestin
balestinek
ball
ballybunion
balores
baltek
baltimore
balweyth
balyers
balyes
balyow
bambou
ban
banaghow
banana
bananas
band
baner
bangladesh
bangor
bank
banks
bankskwattyes
bann
baper
bar
bara
barack
barbados
barbara
barbuda
barcelona
barclay
bardh
bardhek
bardhonegow
bardhonek
bardhonieth
bardhonogow
bargen
bargennyow
bariom
bark
barker
barner
barney
barnstaple
baron
baroness
baronet
baroque
barr
barrys
barth
barti
bartlett
bartley
barton
barv
bas
basalt
basbousa
basilica
bask
baskek
basnet
bason
bass
basset
bassya
bastel
baszler
batalya
batalyas
batalyow
bate
batel
bath
bathow
batri
batriow
battuta
bauhaus
bavaria
bawcock
bawl
bay
baya
bbc
bc
be
beach
beast
beatrix
beats
beauty
beaver
bec
becquerel
bed
beder
bedford
bedh
bedhow
bedwyr
beethoven
before
begel
begh
beghow
beginners
beginning
behind
beijing
beirdd
bejeth
bel
belarussek
belarussi
belfast
belg
belgek
belisa
bell
bella
bellder
bellwolok
ben
benen
benenes
benet
benfro
bengal
bengalek
bengali
benigas
benin
benito
benjamin
benn
benncita
benneglos
bennett
bennetto
bennfenten
bennfentynnyow
bennrynn
bennsans
bennserneth
bennsita
bennskol
bennskolyow
benny
benow
bentewyn
benyn
benynes
beograd
ber
beran
berdh
berdhys
bere
berformyas
berg
berghennow
bergman
beriodek
berkeley
berkeliom
berkshire
berlin
bermuda
bern
bernard
bernat
berr
berra
berresford
berrheans
berrhes
berry
berson
bert
berth
berthelsen
berthi
bertrand
bervedh
beryl
berylliom
beryllus
beryllys
berzelius
bes
besies
besontin
best
bestes
beswar
besya
besyas
besydhys
besyel
beta
bethesda
bethlehem
bethlem
bettel
betty
between
betws
beu
beudhi
beudhys
beunans
bew
bewa
bewgylgh
bewheans
bewin
bewnans
bewnansow
bewonieth
bewoniethel
bewskrif
bewva
bewvaow
beyond
bez
bheinn
bhoutan
bi
bia
bian
bibel
biblek
biden
big
biktyon
bilbao
bili
bill
billie
billy
bilvil
bilvilyow
bin
biographies
biography
bird
birds
birmingham
birzeit
biscoe
bismarck
bismuth
biw
biwmaris
bizarre
black
blackadder
blaenau
blair
blake
blanet
blanetik
blanettys
blans
blansow
blas
blasa
blasen
blasenn
blastek
blat
blatinom
blattys
blaze
ble
bledhen
bledhennek
bledhenyow
bledhynnyek
bledhynnyow
bledhynyow
blejen
blethys
bleujen
bleujennek
bleujennow
bleujyow
bleujyowa
bleus
blew
blewek
bleydh
bleydhes
bleydhyow
bleyn
bleynyow
blica
blockys
bloedh
blomm
blonek
bloodh
bloody
bloomington
blous
blouton
blue
blues
blutoniom
bluw
bly
blydhen
blydhynyow
bo
bob
bobans
bobel
boblans
boblek
bod
bodh
bodhar
bodhesik
bodhogyon
bodmin
boek
boes
boesek
bogalen
bogalenn
bogalennow
bogan
bogh
boghes
boghosek
boghosekka
boghosogneth
bohemia
bohortha
bohriom
boiling
boisbaudran
boksusi
bolgh
boli
bolitegieth
bolitek
bolivi
boll
bolla
bolonek
bolter
bomm
bon
bond
bondys
bone
bonn
bonner
bonni
bonniow
bonobo
bons
bonsfordh
bonsrys
bont
bonya
bonyas
book
books
boos
boosa
booth
bord
bordh
boreles
boris
borlase
borlewen
born
borneo
boron
borpos
borth
borthia
borthmadok
bos
bosek
boskarn
boslev
bosna
bosnek
bosni
bosnia
boson
bosow
bosskawen
bosti
boston
bosva
bosvena
bosvenegh
botel
boteller
botellow
boterel
bothek
botswana
bouddhisteth
bouddiek
bouddieth
boudica
boutle
bovidae
bow
bowyow
boy
boynt
br
bra
brad
bradley
brahe
brahma
brahmagupta
branch
bras
brasil
brasilek
brassa
braster
brastir
brastiryel
brastiryow
brath
brathow
braun
brave
bravo
bre
breanek
brecchia
bredennek
breder
brederas
bredereth
brederi
brederis
breed
breghow
breghys
breiz
breizh
brena
brenas
brenda
brenn
breow
bresel
breselek
breseli
breselyow
brest
bretagne
bretannek
breten
bretennek
breton
bretonek
bretonne
breus
breuslys
breusyas
breusydh
breusys
brevi
brevyans
brew
brexit
brezhoneg
bri
brian
briansen
bridge
bridges
brief
briek
brighton
brij
brinton
bris
brison
bristol
britain
britanniae
britannica
brith
british
brivedh
briweyth
bro
broadcasting
broas
broassa
broder
brof
brofyas
broken
bromin
bronn
bronna
bronnek
bronnow
bronnvil
bronnviles
brons
bros
brottel
brov
brovia
broweghereth
broweghysi
brown
broyow
bru
bruce
brunel
bruney
bruno
brunswick
brussel
brycheiniog
bryckys
brygh
bryghlin
bryjyon
bryn
bryntin
brys
brysel
bryskyn
bryskynn
brysonieth
brysoniethel
brysoniethoryon
brythonek
brythonyon
bryw
bu
bual
buales
bualgarow
bualgerwys
bub
bubblebath
bubonan
bubvledhynnyek
buchan
buckingham
bud
buddha
bude
budh
buenos
buffalo
bugh
bughes
buhez
building
bulgarek
bulgari
buller
buluk
bun
bunsen
burdhen
bureau
burjes
burjestra
burjysi
burkina
burlington
burm
burslem
burundi
bus
bush
business
buskes
but
butler
buz
bwindi
by
byghan
byghanna
byhan
byldya
byldyans
byldyansow
byldyes
bymp
bynn
bys
bysi
byskessa
bysow
bysowyer
byt
byth
bythkweth
bythlas
byttegyns
byw
bywa
bywhes
bywnans
bywonieth
c
ca
cabinet
cable
cabmas
cade
cadw
caer
caerdydd
caerffili
caernarfon
caesar
cairns
cairo
calans
california
callaghan
calling
callington
calstock
calvert
calvete
calvin
cam
camborne
cambria
cambridge
cambron
came
camelus
cameron
camlas
campaign
campbell
can
cana
canada
canal
canals
canberra
cancer
cancri
candy
canes
cannes
cannon
canolfan
cansbledhen
cansvledhen
cao
cape
caprea
capricornus
captain
car
caradar
caradon
carbon
cardona
carl
carlisle
carlo
carlos
carn
carne
carnivora
carnoack
carol
caroline
carpenter
carrek
carroll
carson
cartennow
carter
cas
case
cash
casnewydd
castanea
castel
castell
castle
castletown
cat
cath
catherine
cato
catus
caucasus
causley
cavendish
cbe
cccc
cd
ce
ceaster
cecil
cefn
celtic
celtique
census
center
centimeter
central
centre
century
cepelinai
ceredigion
ceres
ceriom
certan
cervantes
cesiom
cessya
ch
cha
chad
chamberlain
chambour
chandragupta
chanel
change
chanj
chanjya
chanjyes
chanjyow
chanjys
channel
chansler
chapel
chapman
chapter
chaptra
charles
charleston
charlie
charlotte
charlys
charon
charter
chartour
chartys
chas
chatel
chatelydhieth
chayn
che
checkya
chek
chekek
chernobyl
cherokee
cherokiek
cheshire
chester
chesterfield
chevisya
chevisyes
chevisys
chi
chiapas
chicago
chichester
chif
child
children
chile
chimanimani
china
chinek
chinese
ching
chiow
chirgwin
chisholm
cho
choice
choklet
chons
chordata
chris
christ
christi
christian
christie
christmas
christopher
chrysalis
chrysanthemum
chu
chubb
chuck
church
churchill
chy
chyf
chympansi
chytrak
chytrakes
ci
cider
cidi
cill
cincinnati
cinema
cinerea
cinnabar
circa
cirrus
cita
citation
citrus
citta
city
citys
civil
cl
cla
clade
clappya
clarice
clarion
clark
clarke
clarkson
claude
clay
cledh
clegg
clemo
cleopatra
cleveland
cliff
climat
climate
climo
clinton
clio
clive
club
clyde
cm
cn
cnidaria
cnn
co
coalition
coast
cocos
coed
coire
cok
col
cole
colin
collection
collectivite
collectors
college
colley
collie
collins
colm
colombo
color
colorado
colour
columb
columbia
columbus
com
coma
come
comes
coming
commission
common
commons
commonwealth
commune
community
company
compare
competitions
comprehendya
computer
con
conan
congress
connecticut
connochaetes
connor
consel
constituencies
constituency
conteth
contrevack
conwy
cook
coombe
cooper
coos
copernicus
cor
corbyn
corf
cornicum
cornish
cornishdictionary
cornu
cornubit
cornwall
corpus
corris
corsek
corsica
cortez
cosel
costa
coth
cotopaxi
couch
council
count
country
county
court
cove
covenanters
covid
cowethas
cowethys
cox
cr
crai
craig
crawford
creacon
cres
crib
cro
crocodylus
crocus
crofty
cromwell
croquet
cross
crosscountry
crowns
crows
crush
cs
ct
cu
cuba
cuiltheann
cuisine
cultural
culture
cum
cumberland
cumbria
cumulus
cuomo
cup
curie
curiosity
curnoack
cussel
cuthbert
cw
cwm
cy
cymer
cymru
cynon
cyril
cyrus
cyta
czek
d
da
dadhel
dadhla
dadhlow
dadn
daffar
dafydd
dagrow
daily
daklow
dakota
dal
dalgh
dalghedh
dalghenna
dalghennys
dalghow
dall
dallas
dallathas
dalleth
dallethvos
dallethys
dalvya
dama
damach
damask
damawynn
dame
dan
danaw
danbellen
dance
dancing
danek
daniel
danmark
dann
danno
dannvenys
danow
dans
dante
danvenys
danvon
danvonadow
danvonys
daphne
dar
daras
dardh
dardhas
dardhegyansel
dargana
darjeeling
dark
darlesa
darlesans
darlesor
darlesys
darmstadt
darn
darnow
daromres
dartmoor
darvos
darvosow
darwin
das
dasetholys
dasfurvyans
daskavos
daskevys
dasleys
dasoberi
dasoberor
dasoberoryon
dasoberus
dasoberyans
dasoberyansow
dasserghi
dasserghyans
dasserghys
dasserhyans
dasskrif
dastinytheans
dastinythians
dastinythyans
dastyllys
data
dava
davas
dave
daves
davey
david
davies
davis
davy
davydh
davyth
dawn
day
dayeh
days
daytona
db
dc
dd
ddinbych
ddu
de
dead
deal
dean
death
december
deco
dedh
dedhya
dedhyans
dedhyas
dedhyasow
dedhyek
dedhyes
dedhyow
dedhys
deep
defenders
defendya
defens
definition
defolyans
deg
dega
degadoryon
degea
degeans
degemeres
degemerys
deges
degeys
deghow
deghowbarth
degi
degol
degowek
degre
degves
degvledhen
degvledhynnyow
degyans
degys
dehen
dehow
dehweles
deiu
dek
deklarys
deklinyans
dekstow
dekter
del
delanwes
delaware
delen
delenwys
delergh
delhi
delinya
delinyans
delinyansow
delinys
dell
della
dellni
delow
delta
delyow
dem
demedhi
demedhyans
demedhyansow
demedhys
demmedhi
demmedhyans
democratic
democrats
demokrat
demokratek
dempredh
den
denali
denel
denewen
denis
denledhys
denmark
denn
denna
dennas
dens
densek
denses
department
der
derby
derdro
derek
derivador
derivadow
derivas
derivasow
derivys
dermyn
dernieth
derow
derowel
derr
derri
deryvadow
des
descartes
desedhans
desedhek
desedhys
desevys
desin
desiner
desinya
desinyes
desinys
deskrifa
deskrifans
deskrifys
despit
desten
destennow
destryppya
details
deth
deu
deudh
deudhi
deur
deutsche
devar
devas
devedhyans
devedhyansow
devedhys
deveryon
deves
devi
devil
devis
deviser
devisyow
devisys
devnydh
devnydhya
devnydhyes
devnydhyow
devnydhys
devnyth
devon
devosow
devyn
dew
dewblek
dewder
dewdhek
dewek
dewes
dewesva
dewheles
dewi
dewis
dewisyans
dewisyansow
dewisyow
dewisys
dewl
dewlagas
dewnans
dewnek
dewnens
dewoksid
dewweder
dewyn
dewynblustri
dewynnow
dewynnyans
dewys
dewysyans
dey
deylu
deyr
deythyek
dh
dha
dhadhel
dhalathas
dhallathas
dhallathsa
dhalleth
dhallethas
dhamach
dhamkanieth
dhana
dhanvon
dhanvonas
dharnow
dhasober
dhasserghi
dhasserghyans
dhe
dheber
dhedha
dhedhans
dhedhi
dhedhow
dhedhy
dhedhyow
dhefens
dheg
dhegea
dhegeas
dhegemeras
dhegemeres
dhegemmer
dhegemmeras
dheghow
dheghowbarth
dhehow
dhehwel
dhehwelas
dhehweles
dhehwelis
dheklaryas
dheklinyas
dhelanwes
dhelen
dhelenwis
dhelergh
dhelin
dhellos
dhemedhas
dhemedhi
dhemedhis
dhemedhyans
dhemmedhis
dhemokrat
dhemokratyon
dhen
dhenel
dhens
dherag
dheriv
dherivas
dherow
dhesempis
dhesinyas
dheskrif
dheskrifa
dheskrifas
dhespit
dheu
dheuth
dhevedhyans
dhevis
dhevisyas
dhevnydh
dhevnydhir
dhevnydhya
dhevnydhyas
dhevnydhyow
dhew
dhewblek
dhewdhek
dhewis
dhewisas
dhewisis
dhewlagas
dhewnans
dhewnens
dhewynnyans
dhia
dhibarthva
dhiberth
dhiberthas
dhidhan
dhien
dhifres
dhihaval
dhilea
dhillas
dhinyth
dhis
dhiskleryas
dhiskudha
dhiskudhas
dhiskwa
dhiskwedh
dhiskwedhas
dhiskwedhes
dhismygas
dhispleg
dhisplegya
dhisplegyans
dhisplegyas
dhistowgh
dhistruis
dhiw
dhiwarr
dhiwedh
dhiwedhas
dhiwedhes
dhiwelvennoges
dhiwes
dhiwettha
dhiworth
dhiwysyans
dhiwysyansek
dho
dhodho
dhominikanek
dhons
dhor
dhorn
dhornskrif
dhororiethel
dhort
dhos
dhosedh
dhov
dhown
dhownder
dhowr
dhowrgleudh
dhowrgleudhyow
dhowrgonna
dhragon
dhre
dhrehedh
dhrehedhas
dhrehedhes
dhrehev
dhrehevel
dhrehevis
dhrehevyans
dhrehevyansow
dhrog
dhrollow
dhros
dhu
dhugeth
dhur
dhurya
dhuryas
dhustuni
dhuw
dhuwes
dhy
dhybri
dhydh
dhydhyow
dhyffrans
dhyghow
dhyght
dhyghtya
dhyghtyans
dhyhow
dhyllans
dhyllas
dhyllo
dhymm
dhyn
dhysk
dhyskas
dhyski
dhyskoryon
dhyved
dhyw
dhywar
dhywgh
dhyworta
dhyworth
dhyworto
dhywow
di
diabetes
diabetigyon
diagnosans
dialect
diana
diank
dianne
diantel
dibarow
dibarth
dibarthva
diberth
diberthys
diblans
dick
dickens
dictionary
did
didhan
didhemedhi
didhemedhyans
didheurek
didhiwedh
didhiwedhter
didro
die
diego
diek
dielvenna
dielvennans
dien
dies
dieter
difennys
difeudha
difeudhans
difeudhek
difeudhys
difeyth
difeythtir
difeythtiryow
difres
difresyans
difresys
difresysi
difudhys
difyk
digital
digolm
digresennans
dihanow
dihaval
dihevelepter
dilea
dileys
diliw
dillas
din
dinam
dinas
dinbych
dine
dineyj
dineythyans
dinorwig
dinorwik
dintagell
dinythi
dinythians
dinythyans
dinythys
diod
diogeledh
dioksid
dipek
dir
director
diredh
diredhow
direwl
direwlieth
dirfurvow
dirwedh
diryow
disakord
disel
dises
disesys
diskar
diskargans
diskleryans
diskudha
diskudhans
diskudhansow
diskudhyans
diskudhys
diskwedhes
diskwedhyans
diskwedhyansow
diskwedhys
disliw
dismygi
dismygriv
dismygyans
dismygys
disney
displaystyle
displegya
displegyans
displegyansow
displegys
disputys
dissemination
district
distrui
distruys
diswar
diswrys
ditel
divaglys
divellkeynoges
divers
divotter
divroans
divroansek
diw
diwan
diwarr
diwaskedh
diwedh
diwedha
diwedhes
diwelvennoges
diwes
diwettha
diwla
diworth
diwosow
diwotti
diwros
diwrosa
diwroser
diwrosoryon
diwskovarn
diwvron
diwweyth
diwyethek
diwysyans
diwysyansek
diwysyansow
diyskynna
dj
dk
dmitri
dna
do
doble
doch
doctor
dog
dognow
doi
doktour
doktourieth
dol
doll
dolly
dolomit
domhwelans
domhweler
domini
dominic
dominika
domino
domm
dommhe
domwhelans
don
donald
donegal
dong
donn
donne
donnie
dons
donsya
donsyer
donyerth
doolish
doos
dopp
dor
dore
dorgrys
dorgrysow
dorkoth
dorles
dorlesow
dorn
dornlyver
dornskrif
dornyaseth
dornysi
doronieth
doroniethel
doronydh
doronydhyon
dororieth
dororiethel
dororydh
dororydhyon
dorothy
dorr
dorras
dorries
dorset
doryow
dos
dosedh
dostoevsky
douar
double
douglas
doulys
dour
dov
dove
dover
dovys
dowl
dowlen
dowlenn
down
downder
downna
downvor
dowr
dowrbons
dowrdresen
dowrek
dowrgeun
dowrgi
dowrgleudh
dowrgleudhyow
dowrgonna
dowrhyns
dowrlam
dowrlamm
dowrlammow
dowroniethel
dowrow
dowrvargh
dowryow
doyle
dr
dra
draffik
dragon
drakeford
drama
dramas
dramasek
dramasydh
dramatydh
draylya
dre
dream
dredan
dredha
dredho
drefen
drefenn
dreger
dregh
dreghi
drehedhes
drehedhys
drehevel
drehevyans
drehevyansow
drehevys
dremen
dremena
dremenas
dren
drenken
drenow
drentse
dres
dresden
dreth
dretha
drethysi
dreus
dreusfurvek
dreusi
dreuslinen
dreusperth
dreusperthi
dreusporth
dreusva
dreusvewa
dreusvewas
drev
dreveglos
dreven
drevesigas
drevesigeth
drevow
dreyl
dreylya
dreylyans
dreylyas
dri
drial
drig
driga
drigas
drigoryon
dro
droes
drog
droggys
droglam
droglamm
drogober
droklam
droklamm
drolla
drollow
dron
droos
droppys
dros
drovya
drovyas
droya
drudh
druru
dryft
dryghas
drynses
drynsys
dryv
dt
du
dubai
dublin
dubna
due
dug
dugeth
duk
duketh
dulyn
dumas
dunbartonshire
duncombe
duo
dur
durango
durham
during
durkheim
durya
duryadow
duryans
dus
dustini
dustuni
duval
duw
duwes
duwow
duwses
dwarf
dy
dyberthys
dybi
dybieth
dybis
dybradow
dybri
dybrys
dybyans
dybyansow
dydh
dydhlyver
dydhweyth
dydhyador
dydhyans
dydhyow
dyffrans
dyffransow
dyffryn
dyghow
dyghtya
dyghtyans
dyghtyansow
dyghtyer
dyghtyes
dyghtys
dyhow
dyjyn
dyke
dylan
dyllans
dyllansow
dyllas
dyller
dylleryow
dyllo
dyllys
dynamit
dynasty
dynnargh
dyskader
dyskador
dyskadores
dyskadoryon
dyskans
dyskansow
dyskas
dyskasow
dysker
dyski
dyskoryon
dyskys
dysprosiom
dyth
dyv
dyw
dywes
dyworth
dywses
dzhu
e
early
earth
earthsea
eas
east
eat
ebrel
ebren
ebrenn
ebron
ebrow
ebryl
eco
ed
eddie
eden
edgar
edge
edhen
edhom
edhomm
edinburgh
edison
edith
edition
editore
edmund
edu
eduard
eduardo
education
edvard
edward
edwards
edwin
edyvean
eelam
eev
ef
efan
efanas
efander
efani
efanvos
efanyans
effeyth
effeythadow
effeythus
effeythya
effeythyow
effeythys
eghen
eghenn
eghennow
eglos
eglosow
eglosyow
eglwys
egypt
ehen
ehennow
ei
eiger
eikiai
eikiu
eilish
ein
einstein
einsteiniom
eisteddfod
ejyp
ejypek
ek
ekologieth
ekosystem
eksist
eksistya
eksodus
eksoplanet
eksoplanettys
ekwador
ekwadorel
ekwadoriel
ekwal
el
election
elections
eledh
elektrolysans
elektron
elektronek
elektronieth
elektronow
elektronys
elektrotennvenek
elgeth
elgin
eligibility
elin
elisabeth
elizabeth
ell
ellesmere
ellis
ello
elven
elvennek
elvennow
elwis
em
emayl
emil
emile
emily
emlow
emma
emmanuel
emperes
emperor
emperour
emperouregek
emperouregieth
emperoureth
emperourethek
emperourethow
emperours
empir
empire
emu
en
ena
enc
encyclopaedia
encyclopedia
end
endemek
endokrin
enebi
enebieth
enebow
enep
enesek
enesik
enesow
enev
eneval
enevales
engine
england
english
enheduanna
eno
enor
enora
enorys
enowi
enrico
ens
ensampel
ensamplow
ensamplys
ensaym
ensaymow
ensompel
enter
entertainment
entra
entrans
entras
entry
environment
enwau
enys
enyshe
enyshes
enysow
enyval
enyvales
eo
eobmxvd
eolek
eoraptor
ep
epigrammow
epistemologieth
epscobeth
epskobeth
epskobow
epskop
epyk
epystyl
equisetum
er
era
erbin
erbiom
erbydn
erbyn
erbynn
erbys
erbysek
erbysiedh
erbysiek
erbysieth
erbysiethek
erebus
erel
erell
erens
eretons
ergh
erghis
erghlinen
erghtewedha
eric
erie
erik
erin
eris
eritrea
ermanek
erna
ernest
ernst
erotek
erow
error
ertach
ertachva
erthygel
erthyglow
erva
ervira
ervirans
erviras
ervirys
ervys
eryon
eryow
eryri
es
esa
esedh
esedha
esedhow
esedhvos
esel
eseleth
eseli
esens
esk
eskar
eskelli
esker
eskerens
eskern
eskisyow
eskni
esknians
esknias
eskniys
eskorrans
esons
espan
esperantek
esperthi
esplegya
esplegyans
esplegyas
esplegys
essa
essayist
essensek
essex
est
estemys
ester
esthetek
estimates
estonek
estoni
estoniek
estren
estrych
estyll
esya
et
eta
etc
etegves
etek
eth
ethanol
ethek
ethen
ethenn
ethenna
ethennans
ethgarrogyon
ethiopi
ethnek
ethnologue
etholans
etholansow
etholi
etholys
ethves
etruskek
eu
euclid
euge
eugene
eukaryotek
eukaryotes
eur
eurasi
eurasiek
eureka
euro
europ
europa
europe
european
europek
europiom
eurosenedh
eurovision
euryor
eus
eustice
euth
euthyk
ev
eva
evans
eve
evening
ever
everest
evertype
every
evgenia
evrek
evrok
ew
ewin
ewines
ewn
ewnder
ewngryjyk
ewnhe
ewnhes
ewnhynsegieth
ewnter
ewrop
exeter
exmoor
eyes
eyj
eyl
eylen
eylgylghys
eylradh
eylygeris
eynda
eyndek
eyndo
eyndogyon
eyndus
f
fa
faborden
face
facto
fagel
fagus
faithful
fal
fala
falkland
fall
falls
falmouth
fals
false
family
fan
fantasi
far
fara
faro
faroe
farow
faroyek
fas
faskorieth
faso
fast
fatah
fatel
fatell
father
fatima
fav
fawr
fay
fayette
fe
fear
february
federal
federation
federico
fedha
feinstein
felidae
felis
fell
fellini
felshyp
fenester
fenestri
feniks
fenn
fenncita
fennow
fennva
fenowgh
fenten
ferdinand
ferguson
fermi
fermiom
ferna
ferrer
ferwis
fest
festival
feth
fetha
fethans
fethas
fethow
fethys
feu
feur
few
ffestiniog
fflint
fi
fia
fias
fibonacci
fibrow
fife
fight
figur
fiji
file
filipinys
film
filmow
filosofek
filosofer
filosofers
filosofieth
fin
final
find
fine
finek
finn
finnek
fire
first
fischer
fisegel
fisegieth
fisegydh
fish
fitzgerald
five
fl
flamanek
flamank
flameges
flamm
flanet
fleghes
flehes
fler
flint
flogh
flogholeth
florence
florens
florida
floridanus
flou
flour
flower
flowers
flows
floyd
fluminense
fluorid
fluorin
fo
fobel
foblans
foenisek
fog
fogella
fogellas
fogellys
fol
folen
folenn
folennow
folk
fols
folsa
folsans
fondya
fondyans
fondyansow
fondyas
fondyer
fondyes
fondyoryon
fondys
fonetek
fong
fongow
fonologiek
fonologieth
fons
food
foos
foot
football
for
forbes
ford
fordh
fordhow
foreign
forest
forget
forks
form
formel
forms
formya
formyas
formyes
formys
forn
fornow
fors
forsakyes
fort
fortaleza
forth
fortun
fos
fosfat
fosforos
fosow
found
foundation
four
fow
fowen
fowesigyon
fowt
fowtow
fowy
fowydh
fowydhen
fowys
fox
foy
fr
framweyth
framyow
fran
franc
france
frances
francesc
francesco
francis
francisco
franco
frank
frankedh
frankleuv
franklin
fransis
franz
fraser
fred
frederick
fredrik
free
french
frenkek
fresk
freth
freud
freudh
freudhek
frida
friedrich
friends
frigad
frisek
fritz
friweyth
froeth
from
front
frooth
fros
frosa
frosedh
frosow
frothen
frothus
frs
fruit
fruktos
fry
frynk
frynkek
frynkyon
fsa
fss
fu
fug
fugieth
fugiethek
fugiethel
fuji
full
fumiko
fun
fundyes
fungi
funk
fur
furv
furvell
furvow
furvya
furvyans
furvyansow
furvyas
furvyes
furvyow
furvys
fusen
fusennow
future
fy
fybrow
fydh
fyll
fyllas
fyllel
fyllis
fylm
fylmow
fylmys
fylum
fynn
fynnek
fynni
fynnons
fynwy
fyodor
fyord
fyordow
fysegieth
fysegydh
fytt
fyw
g
ga
gabbro
gabon
gabriel
gadolin
gadoliniom
gadolinit
gadon
gaerfyrddin
gagarin
gahr
gal
gala
galaksi
galaksiow
galaksis
galan
galaxy
galciom
gales
galgh
galijek
galilei
galileo
galisi
galium
gall
galladow
gallek
gallery
gallinys
galliom
gallo
galloes
gallos
gallosek
gallowek
galow
galstok
galter
galwesik
gama
gambi
game
games
gamma
gammas
gammbronn
gampoll
gampollas
gan
gana
ganada
ganas
ganasedhoryon
gandhi
ganel
ganga
gangemi
ganister
ganker
gannas
ganores
ganow
gans
gansa
ganso
gansvledhen
gar
gara
garan
garci
garden
garesk
garibys
garland
garn
garow
garowder
garr
garrek
garrod
garrow
garrygi
gartennow
garth
gary
garya
garyas
gas
gasa
gasas
gaskyrgh
gass
gassys
gastel
gastell
gataloni
gate
gath
gatholik
gauss
gavas
gaver
gavia
gavoes
gavos
gavrewik
gaws
gawsas
gawsya
gawsyas
gay
gaza
gazey
ge
gedhlow
geffrysysi
gegin
gel
gell
gelli
gellow
gellrudh
gellys
geltek
geltya
geltyon
gelvin
gelwel
gelwir
gelwys
gelynen
gembra
gembrek
gembroyon
gemeneth
gemenethow
gemer
gemeras
gemeres
gemmer
gemmeras
gemmow
gemmweyth
gemmyn
gemmynieth
gemmynwlas
gemmynyon
gemper
gen
genas
gendall
genedhel
genedhlek
genedhlow
genen
genera
general
generated
genes
genesigeth
genesik
geneva
genji
gensa
gensi
gentrevek
genus
genver
genwerth
genwerthel
genynnek
genys
geoffrey
geoffroi
georg
george
georges
georgi
georgia
ger
geraint
gerald
gerdhas
gerdhes
gerens
gerensa
gerghynnedh
gerlyver
gerlyvrow
germanek
germaniom
germans
germany
germogh
gernewek
gernow
gernowek
gernowyon
gernsek
gernsi
gerri
gerva
geryes
geryow
gerys
gerysda
ges
geskeffrysyon
gesoberas
gesoberyans
gesstoffow
gesstrivya
gesun
gesunya
gesva
gesyer
gesys
gettep
gettesten
geum
geun
geuswask
gevellys
gever
geverang
gevrang
gevren
gevrenn
gevres
gevreyth
gevrohow
gevys
gewer
geworr
geworra
geworras
gewri
gews
gewsel
gewsi
gewsir
gewsoryon
geyj
geyn
ghiorso
gi
giant
gig
gil
gila
gilbert
giles
gilfach
gilgamesh
gill
gilva
gingen
giovanni
girl
girls
gis
gist
gisyow
gitar
gitarydh
giuseppe
giza
gladstone
glamour
glan
glanhe
glann
glannow
glas
glasgow
glasneth
glasrudh
glass
glassa
glassans
glastan
glaw
glawas
gleb
gledh
gledhbarth
gledhren
gledhrennow
glen
glenn
glerheans
gleves
glevesow
glew
glewes
glin
glo
global
glossary
gloucester
glow
glowbren
glowek
glukos
glus
gluth
gluthyans
gluwyan
glyb
glyn
glynn
gnas
gnasek
gnasow
gneus
go
gober
goch
gocha
god
godeylyow
godh
godha
godhalek
godhas
godhes
godhesa
godhesans
godhesow
godhesys
godhevel
godhoniador
godhonieth
godhoniethek
godhoniethel
godhonydh
godhonydhyon
godhosek
godhosow
godhvedhys
godhvewnans
godhvos
godhyan
gododdin
godolphin
godriga
godrigoryon
godrigys
godros
goedhelek
goel
goelyow
goen
goes
gof
gog
gogellow
gogh
gogledh
gogow
gogowyow
gogrenn
going
gol
golan
golanes
gold
golden
goldman
goldsworthy
goleder
golegi
golegydh
golegys
goles
golf
golgh
golghi
golghys
goli
goliadow
golinyans
goliow
golivow
goliys
golji
goll
gollas
golodhyonen
golok
golon
golonnen
goloven
golow
golowji
golowyans
golowys
golowysi
gols
golusek
golvan
golya
golyow
gomendya
gomendyas
gomm
gommon
gomolen
gompani
gomprehend
gomprehendas
gomprehendya
gomprehendyas
gonedhys
gonis
gonisogeth
gonisogethek
gonisogethel
gonisogethow
gonisyow
gonn
gonna
gonow
gonsel
gonsist
gonsolen
gonsyst
gonteth
gonvedhas
gonvedhes
gonyow
good
google
gool
goon
goonkoyntrel
goos
gooth
gopnik
gor
gora
gorden
gordeylu
gordhyans
gordhyes
gordhys
gordon
goredhom
gorenys
gores
gorf
gorfenna
gorfennys
gorhel
gorhemmyn
gorher
gorheri
gorherys
gorholeth
gorholya
gorholyon
gorhwithrans
gori
gorlost
gorlosten
gorm
gorour
gorow
gorowreydh
gorra
gorreydh
gorreydhow
gorrys
gors
gorsav
gorsavow
gorsedd
gorsedh
gorseth
gorta
gorth
gorthargyadow
gorthebi
gortheren
gorthsevel
gorthtro
gorthugherweyth
gorthyp
gortos
gorughel
gorvarghas
gorwelyek
gorylla
gorylles
goryskynnans
gosek
gosk
goslowes
goslowysi
gostek
goswik
goth
gothek
gott
gottfried
gottha
gour
gov
gove
govenek
gover
governans
governansow
government
governour
governys
goverow
govyn
govynn
govynnow
gowal
goweth
gowetha
gowethas
gowethasek
gowethasow
gowethyansow
gowfordh
gowlwrug
gows
gowsas
gowsir
gowsoryon
goyeyn
gozh
gradh
gradhya
gragen
graham
gramasek
grambla
gramm
grammar
granada
grand
grande
grant
grappa
grappys
gras
grass
gravedh
gravya
gravyans
gravyansow
gravyer
gre
great
greco
green
greene
greenland
greenwich
greg
gregor
gregorek
grek
greka
grenadinek
grenayd
grenville
greow
gres
gresel
gresen
greslu
grestennen
greta
greun
greunland
greunlandek
greuv
grev
grew
grewen
grey
grib
griffin
grimm
gristoneth
gristonyon
grog
groghen
grogys
grond
grondyes
grondys
gronek
gronnedh
grontyes
grontys
grosso
group
grouzi
grow
growan
grows
growven
gru
grug
grugys
gryj
gryjyans
gryjyansow
grys
grysi
grysis
gsi
gu
guadalajara
guangxi
guardian
gudhys
gudynnow
guide
guin
guinness
gul
gun
guntel
guntellas
guntelles
guntellesow
guntellyans
guntilow
gupta
gurion
gurun
gussul
gustav
gutenberg
guy
guz
gwadeloup
gwag
gwagren
gwagrennow
gwakter
gwalarn
gwandrans
gwandrus
gwaneth
gwann
gwannliwek
gwara
gwaragow
gwarak
gwaregow
gwari
gwariell
gwariellow
gwarier
gwarior
gwariores
gwarioryon
gwariow
gwariva
gwariys
gwarnyans
gwartha
gwarthevyek
gwarthevys
gwary
gwas
gwasg
gwask
gwaska
gwaskedh
gwaskys
gwastas
gwastasow
gwatemala
gwav
gwavas
gwavow
gwaya
gwayadow
gwayana
gwayans
gwayansow
gwayn
gwaynas
gwaynya
gwaynyas
gwaynyer
gwaynyoryon
gwaynys
gweder
gwedhan
gwedhegi
gwedhen
gwedhyn
gweel
gwel
gweladow
gwelen
gweles
gwelesek
gwelewgh
gweli
gweliow
gwell
gwella
gwellhe
gwellheansow
gwels
gwelsen
gwelstir
gwelstiryow
gwelva
gwelynni
gwelyow
gwelys
gwendron
gwenen
gwenenen
gwener
gwenno
gwenon
gwenonek
gwent
gwenton
gwer
gweres
gweresliv
gweresow
gweresys
gwerghes
gwerin
gwerinek
gwerinel
gwerinieth
gwern
gwers
gwersyon
gwersyow
gwertha
gwerthji
gwerthjiow
gwerthys
gwerz
gweskel
gweskys
gweth
gwettha
gweusek
gweyth
gweythoryon
gweythres
gweythresek
gweythresor
gweythresow
gweythva
gweythvaow
gweythyow
gwias
gwiasedh
gwiasva
gwig
gwigow
gwik
gwikor
gwilen
gwili
gwin
gwinbrennyer
gwir
gwirhaval
gwirvos
gwiryonedh
gwiryow
gwiska
gwiskas
gwiskasow
gwiskys
gwith
gwitha
gwithadorek
gwithans
gwithti
gwithtiow
gwithva
gwithyas
gwithyasel
gwithys
gwiver
gwiw
gwiwer
gwiweres
gwlan
gwlanek
gwlas
gwlasegeth
gwlasek
gwlaskor
gwlaskordhow
gwlasow
gwra
gwragh
gwraghes
gwreg
gwrek
gwres
gwreydh
gwreydhek
gwreydhel
gwreydhyel
gwrians
gwriansow
gwrier
gwrioryon
gwrug
gwruthyl
gwruthys
gwry
gwryans
gwrys
gwrysow
gwrysven
gwrythul
gwrythya
gwrythyans
gwydh
gwydhegi
gwydhelek
gwydhen
gwydhyow
gwylar
gwylgh
gwyls
gwylvos
gwynedd
gwynedh
gwyngala
gwynn
gwynngala
gwynnrudh
gwyns
gwynsow
gwyrdh
gybbon
gylgh
gyllas
gyllys
gymru
gymyk
gyni
gynnik
gyns
gynsa
gynsow
gyternyth
gyv
h
ha
haakon
haaland
had
hadrian
hafez
hafniom
hag
hagen
hager
haifa
haile
hal
hale
halfon
hall
halla
hallam
hallo
halsa
halt
hamas
hambly
hamburg
hamid
hamilton
hampshire
hamwee
han
hanaf
hand
handal
handbook
handel
hands
hanna
hanover
hanow
hans
hansel
hanter
hantergylgh
hanterkylgh
hanwek
happier
happyansow
harald
haraldsson
hardy
harer
harlow
harold
harper
harris
harrison
harrow
harry
hart
harvard
harvey
has
hasen
hasennow
hatshepsut
hav
haval
have
haven
havren
havysi
hawaii
hawkins
hay
hayl
hayti
hd
he
head
health
heart
heath
heb
hebask
hebleth
hebma
hebron
hector
hedh
hedha
hedhas
hedhes
hedhi
hedhyw
hedna
hedra
hedre
hefordh
hegar
hei
heidegger
heinrich
hel
helarctos
helen
helena
helergh
helerghi
helgh
helghi
helghya
heliom
hellys
help
helvellyn
helwir
helyk
hembrenkyas
hembrenkysi
hembronk
hembronkyas
hembronkyer
hemm
hemma
hemon
hen
henavogyon
hendas
hendasow
henderson
hendheskonydh
hendhyskonieth
hendhyskoniethel
hendhyskonydhyon
henedh
henedhel
hengerens
hengov
hengovek
hengovyow
henhwedhel
henhwedhlek
henhwedhlow
henn
henna
henri
henry
hens
hensi
hensyow
henwel
henwir
henwis
henwyn
henwys
hepburn
hepken
hepworth
her
herbert
hercegovina
herdhya
herdhys
here
herens
hergest
heritage
hermann
hern
herschel
herwydh
herwyth
herzegovina
heseltine
het
hevel
heveladow
hevelep
hevelepter
heveli
hevelius
hever
hevva
hewul
heyl
heylyn
hi
hidrojen
hidroksid
high
highland
hil
hilbert
hilda
hill
hillary
himalaya
himalayas
hin
hindi
hindik
hindou
hindoueth
hindouyon
hinyow
hip
hir
hiragana
hirder
hireth
hirgrennow
hirgylghek
hirohito
hirono
hiroshi
hirra
his
histoires
historia
historical
history
hitchcock
hitchhiker
hitler
hkn
hlsw
hm
ho
hoatzin
hobas
hobbit
hobhouse
hocking
hodge
hogen
hogh
hoghes
hoi
hokusai
hol
holan
holanek
holanow
hold
holly
hollywood
holmes
holmiom
holocaust
holstein
holya
holyans
holyas
holyer
holyes
holyoryon
home
homer
homm
homma
homo
homposyans
hon
honan
honanieth
hondouras
honen
hong
honna
honolulu
hooper
hop
hopcyn
hope
hopkins
hopper
hor
hordh
horf
horfow
hormon
hormonow
horn
hornek
hornven
hostelri
hotel
hour
house
houston
how
howard
howl
howldrehevel
howldrevel
howlek
howlsedhes
howlsplann
hownans
hrysir
htm
html
http
https
hu
huang
hubble
huda
hudel
hudson
hugh
hughes
hugo
hui
hujes
human
humboldt
humphrey
humus
hund
hungarek
hungari
huni
hunros
hunslet
hunt
hunter
huntilow
huntingdon
huny
hus
hutton
hwaffa
hwann
hwannen
hwans
hware
hwarheans
hwarheansow
hwarthus
hwarva
hwarvedhyans
hwarvedhyansow
hwarvo
hwarvos
hwarvosow
hwarvsa
hwath
hwb
hwedh
hwedhel
hwedhla
hwedhlow
hweg
hwegh
hweghes
hweghves
hwel
hweldro
hwelir
hwelji
hweljiow
hweller
hwelyow
hwer
hwerow
hwerydh
hwesigow
hwesker
hweskeren
hwetegves
hwetek
hwevrel
hwevrer
hwevror
hwi
hwila
hwilas
hwilen
hwiles
hwir
hwist
hwistel
hwistles
hwither
hwithra
hwithrans
hwithras
hwithrer
hwithroryon
hwithrys
hwoer
hwor
hwra
hwre
hwrello
hwrer
hwreydhek
hwrons
hwrug
hwyja
hwyris
hwytha
hwythennow
hwythys
hy
hyde
hykka
hyldreth
hyli
hyll
hyllas
hylli
hyllir
hyllons
hymna
hymnys
hyns
hynsa
hynwyn
hypatia
hypoglycemia
hys
høegh
hɐr
i
ia
iai
ian
iau
iauliai
iberi
ibn
ic
iceni
id
ida
idaho
identity
if
iggeva
igor
ii
iii
il
ile
ilewydh
ilewydhyon
iliad
illinois
ilow
ilowbib
ilowek
ilulissat
im
imach
images
imaj
imajys
imdb
immun
immunedh
impala
in
inanna
inc
incana
including
indarctos
independent
index
india
indian
indiana
indicator
indiom
indonesek
indonesi
indonesia
indus
industrial
info
information
ingmar
inka
inn
innu
instagram
institut
institute
institution
insulin
inter
international
internet
into
introduction
inuit
inuktitut
inwedh
io
iodid
iodin
iowa
ipa
ipad
iprage
ir
irak
iran
iranek
ireann
ireland
iridiom
irish
irokoiek
iron
is
isaac
isaskorr
isbn
isbrastir
isdeylu
iseghen
isehen
isel
iseldiryek
iseldiryow
iselhe
isella
iselweyth
isframweyth
isgenas
isklass
islam
islamek
island
islandek
islands
isle
islonkel
isolt
isotop
isotopow
ispoyntel
israel
israeli
israelyek
isrannow
isrudh
issn
istanbul
isteylu
istorek
istori
istorier
istorior
istorioryon
istory
isurdh
isvrastir
isweres
isyurl
it
italek
itali
italia
italian
italy
item
its
itv
iu
iucn
iv
ivan
ives
ivoire
ivor
iwerdhon
iwerdhonek
iwerydh
ix
j
ja
jaani
jack
jackson
jacob
jacques
jago
jagwar
jaipur
jakarta
jamaica
jamayka
james
jamys
jan
jane
janeiro
janj
janjya
janjyas
janjyow
janjys
jantar
january
japan
japanek
japonica
jason
jasper
jati
jaume
java
jay
jazz
jazzar
jazzu
je
jean
jeanne
jefferson
jeffrey
jeffri
jei
jenesis
jenkin
jenkins
jenner
jennifer
jentyl
jeorji
jeremy
jerome
jerry
jersey
jersi
jerusalem
jesu
jeva
jeves
jevo
jewell
ji
jibouti
jim
jimmy
jina
jinek
jini
jiraf
jirafes
jo
joan
jodrell
joe
johan
johann
johannes
john
johns
johnson
johnston
jon
jonas
jonathan
jones
jordan
jorge
jori
jorna
jornal
jornalyas
jornalydh
jory
jose
josef
josep
joseph
josselin
joule
journal
jowan
jowanet
jowann
jowl
joyce
jpg
jpl
jr
ju
juan
judith
judy
jules
julia
julian
julie
julius
july
julyan
jump
jun
junction
june
jung
jungfrau
junnya
juno
junya
junyans
junyas
junyes
junys
jurassek
jurga
just
justinian
justis
jy
jydh
jyf
jynn
jynnji
jynnow
jynnweyth
jynnweythek
jynnweythor
jynnys
jyutping
k
ka
kabinet
kablus
kablys
kabsa
kachya
kachyans
kaderyer
kadmiom
kadon
kadonow
kadonyow
kadys
kafka
kahlo
kai
kala
kalan
kalander
kalann
kalciom
kalcit
kalender
kales
kalessa
kaletter
kalettir
kalgh
kalghek
kalif
kaliforni
kalkor
kalligrafieth
kalstok
kalter
kamboji
kamera
kameroun
kamm
kammas
kammbronn
kammel
kammow
kampolla
kampollans
kampollys
kampya
kampyorieth
kan
kana
kanada
kanadek
kanadian
kanagawa
kanasedhoryon
kanasedhow
kanasow
kanda
kandinsky
kanel
kaner
kangarou
kanker
kankres
kanna
kannas
kannasow
kanndir
kannys
kanores
kanoryon
kanow
kanpur
kans
kansas
kansbledhen
kansblydhen
kansblydhynyow
kansow
kansran
kansrann
kansvledhen
kansvledhynnyow
kansvlydhen
kant
kappa
kapten
kar
kara
karabakh
karadon
karate
karbid
karbohydratow
karbon
karbonat
kardeva
kardhana
kardhorn
kardydh
karedin
karen
karer
karesk
karg
karga
kargedh
kargisi
kargront
kargrug
karib
karl
karliwelydh
karlow
karmel
karn
karnarvon
karnek
karnow
karnrosveur
karol
karolina
karoryon
karow
karr
karrek
karrygi
karsallek
karst
karten
kartennow
karthyon
karvyrdhin
karya
karyans
karyes
karyn
kas
kasa
kashmir
kashoubek
kashtin
kaskergh
kaskyrgh
kaslu
kasorek
kasow
kastel
kastell
kastil
kastylli
katalanek
kataloni
katalydh
katalydhyon
katalytek
katar
kate
kath
kathes
kathigen
kathigenow
kathik
kathleen
katholigieth
katholik
katrin
kattan
kaunas
kavadow
kavas
kavoes
kavos
kawgh
kawsya
kawsys
kay
kayman
kayow
kaysys
kayys
kazagh
kdl
ke
kebab
kebek
kebmyn
kedhlow
kedhor
kedhorieth
keffres
keffrys
keffrysek
keffrysyans
keffrysysi
kegin
kegina
keginieth
kegys
kehaval
keher
kehevelys
kehysedh
kehysnos
keigwin
keir
keith
kekesow
kelesoni
kelester
kell
keller
kelli
kelliwik
kellow
kelly
kellylli
kellys
kelmys
keltek
keltia
kelyon
kemal
kembra
kembrek
kembro
kembroyon
kemeneth
kemenethow
kemeras
kemeres
kemerys
kemmeres
kemmyn
kemmynegoreth
kemmynieth
kemmyniethow
kemmynyon
kemmys
kemmysk
kemper
kemptown
kemynegorek
kemynegoreth
kemysk
kemyska
kemyskans
kemyskys
ken
kenedhel
kenedhlek
kenedhlogeth
kenedhlogoryon
kenedhlow
keniver
kenja
kenn
kennedy
kennen
kennertha
kenneth
kens
kensa
kent
kentrevek
kentrevik
kentucky
kenwerth
kenwertha
kenwerthel
kenya
kenys
keow
kepar
kepardhu
kepler
ker
kerdh
kerdhes
kerdhoryon
kerdydh
kerens
kerensa
keresk
kergh
kerghyn
kerghynedhel
kerghynedhow
kerghynnedh
kerghynnys
kergront
kergynnedh
kern
kerneweger
kernewegoryon
kernewek
kernow
kernowek
kernowit
kernowyon
kernu
kernuack
kernuak
kerrek
kerri
kerrier
kerry
kerrygi
kert
kerth
kerthow
kertow
kertys
kerwys
keryer
kerys
kes
kesalkan
kesalkenyow
keschanj
keser
kesgwlasek
keskan
keskanow
keskar
keskelmys
keskeltek
keskerdh
kesknians
keskomunya
keskomunyans
keskowethyans
keskows
keskowsow
keskussulyans
keslinek
kesoberi
kesoberyans
kesordenogyon
kesparow
kesrann
kesrannow
kesrosweyth
kessedhek
kessenyans
kessonen
kessonenn
kessonennow
kesstoff
kesstoffow
kesstrif
kesstrifa
kesstrifer
kesstrifow
kesstrivya
kesstyr
kessydhyans
kesten
kesteudhi
kestevyn
kesunya
kesunyans
kesunyansow
kesunyas
kesunyes
kesunys
kesva
kesvroder
kesweyth
kesweythow
keswlasek
keth
kethneth
kethreydhel
kethsam
kethyon
kettep
kettermyn
kettesten
keun
keunegen
keunegennow
keunys
keur
keus
keuswask
kevambos
kevardhu
kevarwodha
kevarwodher
kevarwodhoryon
kever
keverang
keverangow
kevernyans
kevili
kevin
kevnis
kevos
kevradh
kevradhow
kevrang
kevranna
kevren
kevrenn
kevrenna
kevrennow
kevrennys
kevres
kevreyth
kevreythow
kevreythyow
kevri
kevrin
kevrinek
kevrohow
kevys
kewar
kewer
keweronieth
keweroniethel
kewni
keworra
keworrans
keworrys
kewsel
kewsir
kewsys
keyn
keynek
keynes
keynogow
keynow
keynskrif
keynvor
keynvorek
keynvoryek
kg
kh
khan
khatun
khayya
khayyam
khwa
ki
kig
kigdebroryon
kigdevoryer
kigdevoryoryon
kigdhebroryon
kigelia
kildenna
killigrew
kilogram
kilometer
kim
kinda
king
kingdom
kingsley
kingston
kint
kirchner
kiss
kist
kisya
kit
kitts
kitty
kiwis
kk
klaipe
klaproth
klas
klasek
klass
klassa
klassans
klassek
klasshes
klassys
klastow
klasyans
klav
klavji
klavjiow
klavor
kledh
kledha
kledhbarth
kledhren
kledhrennow
kler
klerheans
kleudh
kleudhya
kleudhyow
kleves
klevesans
klevesow
klevesys
klevyon
klewes
klock
klockow
klopen
klor
klorek
klorid
klorin
klos
klub
klunyow
klusva
km
kmaq
kn
knegh
kneus
knias
knight
knivil
kniviles
knmi
know
ko
kobalt
kober
kobros
koch
kocha
kochow
kochys
kod
kodh
kodha
kodhans
kodhys
koes
koesheyl
koffi
koffiji
kogh
kok
kokan
kokase
koktel
kolera
kolji
kolkata
koll
kolldhel
kollell
kollenwel
kollji
kolmow
kolom
kolombi
kolomm
kolon
kolonnen
kolorado
koloven
kolovennow
kolponomos
komedi
komendya
komendyans
komendyes
komendys
komik
komm
kommol
kommow
komol
komolen
komolennow
komorys
kompani
komparek
komparriv
komparya
kompes
komplek
kompleth
komplethteryow
komposter
komposyans
komposydh
komposydhes
komposys
komprehendya
komprehendyes
komprehendys
kon
konan
konaow
kong
kongo
konin
konines
konna
kons
konsel
konseler
konsidrys
konstentin
konter
konteth
kontethow
kontrari
kontrolya
kontrolys
konvedhes
konvedhys
koos
kopel
koperniciom
kopernikus
koplow
kor
koran
kordh
korea
koreek
korel
korev
korf
korfenna
korflan
korfonieth
korforeth
korfow
korinth
korn
korr
korrbryves
korrgalaksi
korrorganedhow
korrsteren
kors
korteks
kosel
kosk
koska
kosova
kost
kosta
kostek
kosten
kostentin
koswigow
koswik
kota
koth
kotheneb
koton
kott
kottha
kough
kov
kovadhow
kovskrif
kovskrifys
kowal
kowans
kowas
kowdoll
kowel
koweth
kowetha
kowethas
kowethasek
kowethasow
kowethyans
kowethyansow
kowethys
koweyt
kowfordh
kowl
kowlwriansow
kowlwrys
kowlwul
kownans
kowr
kowrdhowrgi
kowrek
kowrsteren
kowrvargh
kows
kowsel
kowser
kowsir
kowsoryon
kowsys
koynt
kr
krabbys
krag
kragen
krambla
krambler
krambloryon
kramer
kramviles
krann
kreffa
krefhe
kreft
krefter
kreftow
kreftus
kregi
kregyn
kregynnegyon
kregys
krena
krenn
krenna
krenvonni
kres
kresek
kresel
kresen
kresenn
kresennow
kreslu
kresosel
kresosow
krestennen
kresvorek
kreun
kreungylgh
kreuni
kreunyow
krev
krevass
krevder
krey
krib
kribow
krist
kristonedh
kristoneth
kristonyon
kristyon
kriv
kroadur
kroaduryon
kroatek
kroati
kroenek
krog
krogen
kroghen
krokodil
krokodiles
krom
kromiom
kromm
krommdo
krommen
kronek
kropyansow
krow
krowji
krows
krowsow
krug
krycket
kryjyans
kryjyansow
kryjyek
kryjyk
krymi
krypton
krys
krysi
krysir
krysys
ks
ksa
ksenon
ku
kua
kuba
kubek
kubrick
kudh
kudha
kudhlen
kudhys
kudyn
kudynnow
kudynnyow
kuhudhys
kuiper
kul
kulyek
kumbrek
kummyas
kumun
kun
kuntel
kuntell
kuntellek
kuntelles
kuntellesel
kuntellesow
kuntellow
kuntellyans
kuntellys
kuntilow
kuntilowyow
kur
kuro
kurosawa
kurs
kurt
kurun
kurunyans
kussul
kussulya
kussulyer
kw
kwantum
kwari
kwarter
kwarthevya
kwartron
kwaya
kwaynya
kweres
kwilkyn
kwilkynnyow
kwilkynyow
kwiska
kwitha
kwrello
kwreydhek
kwruthyl
kwyllennow
ky
kylgh
kylghek
kylghow
kyllas
kyllasen
kymygen
kymygennow
kymygieth
kymygow
kymygydh
kymyk
kyn
kynnik
kynnyav
kyns
kynsa
kynsistorek
kynsistori
kynth
kynver
kynyav
kyproes
kyrghynn
kyrghys
kyrgys
kyrillek
kyttrin
l
la
label
labolven
labour
labrador
lacaille
lackawanna
lader
ladh
ladha
ladhas
ladher
ladhva
ladhys
ladra
ladron
lady
lagas
lagasow
lagatta
lagh
lagha
laghel
laghyades
laghyas
laghys
lagos
laha
lake
lakghotek
lakota
laksaa
lallansek
lambeth
lamm
lamma
lan
lancashire
lancaster
land
landarzt
lang
langdon
language
languages
lanka
lann
lannaghevran
lannales
lannanta
lannanvenegh
lannberis
lanndreth
lannergh
lanngollen
lannhydrek
lannow
lannstefan
lannudhno
lannust
lannwedhenek
lanthanid
lanthanom
lanyon
lao
laos
laozi
laplace
lappa
lappyans
lappys
larry
lars
lartigue
las
lasek
laser
laserow
last
lat
laterit
lath
latin
latinek
latvi
launceston
laura
laurence
lava
lavar
lavarow
lavoisier
lavur
law
lawrence
le
leadkeyfigures
league
learner
lebanon
lebmyn
lebnon
lecoq
ledan
ledanna
leder
ledher
ledhys
ledrow
ledrys
ledya
ledyas
ledyer
ledyores
ledyoryon
ledys
lee
leeds
leel
lef
left
leg
legacy
legend
legh
leghen
leha
lehas
lehe
lehes
leibniz
leigh
leipzig
lel
lelder
lemmyn
lemon
len
lenin
lenow
lensow
lent
lenter
lentrus
lenwel
lenwys
leo
leon
leonard
leonardo
leone
leopold
leow
lergh
lerghow
leroy
les
lesa
lesans
lesas
lesbenigys
lesek
leshanow
lesk
leskargva
leskargvaow
leski
leskys
lesotho
lesow
lesrannans
lesruw
lester
lestri
lesys
let
leth
lethek
lether
lett
letter
lettya
lettyans
lettyas
lettyes
lettys
leugh
leun
leur
leuryow
leuv
leuvvedhegel
leuvvedhegneth
leuvvedhek
lev
levant
leven
lever
leverel
leverir
leveris
leveryans
leverys
levow
lew
lewen
lewennow
lewern
lewes
lewis
lewpard
lewpardes
lewya
lewyadoryon
lewydh
lewydhek
lewydhes
lewyer
lewyon
lewys
leyder
leys
leysven
leysveyn
leyth
lez
lhuyd
li
lia
liamm
liber
liberation
liberty
libi
library
lichfield
lien
lienek
liennek
lienyow
lies
liesdhuwieth
liesek
liesgweyth
lieskweyth
liesplek
life
liger
light
lights
ligurek
like
lili
lilian
lille
lim
limaval
limbourgek
limosa
lin
lincoln
lincolnshire
line
linen
linenn
linennow
linguistics
linnaeus
linyek
linyel
linyeth
linyow
lion
lipidow
lisa
liskeard
list
lister
listowel
listuguj
liter
literature
lithiom
lithosfer
lithouani
lithuani
lithywanek
lithywani
little
liu
liv
live
liver
livermore
liverpool
lives
living
livingstone
livow
livra
livrel
livrys
livwer
livyow
livys
liw
liwa
liwans
liwansow
liwles
liwus
liwyans
liwyow
liwys
liz
lkdt
ll
llan
llanbedr
llanfair
llanfihangel
lleoedd
ller
lloyd
llundain
llwyd
llyfr
llyn
lo
local
localarea
locale
loch
locke
lodrow
loeffler
loer
logh
loghlyn
logos
logosen
logsulyan
lojyk
lok
lokomotyv
lokomotyvyow
lolfa
lonchya
lonchyas
lonchys
london
lonethi
long
longya
lonk
looe
loor
loos
looth
lord
lorell
lorellow
loryow
los
loskaberth
loskvenydh
loskvenydhyek
loskvenydhyow
losni
losonieth
losoniethek
losonydh
losow
losowdhebroryon
losowedh
losowek
losowen
lost
lostek
losten
lostennow
lostledan
lostow
lostwydhyel
lothow
loughborough
louis
louise
louisiana
loundres
loup
louvre
lovan
love
lovelace
lovennan
lovennanes
low
lowarn
lowarth
lowartha
lowarther
lowarthow
lowen
lowena
lowender
lower
lown
lownyow
lowr
lows
lt
ltd
lu
lubbock
luca
lucas
luci
luck
lucy
ludwig
lugarn
lugern
lughes
lughwrians
luigi
luis
luk
luke
luksembourg
lulynn
lun
luna
lurkyer
lushaborg
lushaborgek
lusia
lusow
lust
lutetiom
luther
luxemburg
luyow
lycklod
lydn
lyenn
lyennek
lyesek
lyftyes
lyha
lyme
lymm
lymmaval
lymna
lymnans
lymnansow
lymnas
lymner
lymnoryon
lymnys
lynn
lynnyn
lyon
lyonesse
lyr
lys
lysardh
lyskanasedh
lyskannas
lyskerrys
lyther
lytheren
lytherenn
lytherennans
lytherennansow
lytherennegi
lytherennek
lytherennow
lytherennys
lytherow
lyver
lyverva
lyvervaow
lyvrow
lywydh
m
ma
maakond
mab
mabinogi
mac
macdonald
machiavelli
mackenzie
macmillan
macron
madagaskar
madame
maddrell
made
madison
madrid
mae
maga
magata
magazine
magellan
maghteth
magic
magid
magma
magna
magnesia
magnesiom
magnus
magnusson
magor
magoryon
magoryow
mahabharata
mahal
mahomm
mahunyes
mai
main
mainz
major
majoris
make
makedonek
makedoni
making
malaria
malayanus
malayek
malaysi
malcolm
malham
malik
malo
malta
maltek
malus
mamba
mamm
mammal
mammoth
mammskrif
mammvro
mammyeth
man
mana
managh
managhti
manakish
manawydan
mancha
manchester
mandat
mandela
maner
manerow
manga
manganes
manhattan
manitoba
mann
manow
manowek
mansi
mantar
mantel
mantell
manuel
manure
many
manylyon
manylys
mao
map
mappa
mappow
mappys
mar
mara
marathon
marbel
marble
marc
march
marchont
marco
marcus
marg
margaret
margh
marghas
marghasow
marghasyow
marghek
marghogeth
margven
marhek
mari
maria
marian
mariana
marianow
maricopa
marie
marillion
marin
marine
mario
marion
maritimus
mark
marksydh
marley
marnas
marner
marokk
marow
marquis
marriage
mars
marseille
marsha
marshall
mart
martesen
marth
marthus
marthys
martial
martin
martinik
martyn
marwel
marx
mary
marya
mas
maseth
masjid
mason
mass
massachusetts
massen
master
mater
matern
maters
materyow
mathemategydh
mathematgydh
matisse
mato
matriks
matrix
matt
matterhorn
matthew
matthews
matthi
mau
maupin
maurice
maurier
maw
mawr
max
may
maya
mayn
mayni
maynorieth
maynoryon
maynys
mayor
maystri
mayth
maz
mb
mc
mcdonald
me
mebel
mebyl
mebyon
medal
medalen
medh
medhegel
medhegieth
medhegneth
medhegnethow
medhek
medhel
medhoges
medhogyon
medi
media
medieval
medina
megyans
megys
meiji
meitner
mekka
meksikan
meksiko
mel
melanoleuca
melbourne
melhwes
melin
melinyow
mell
melldrosogyon
mellen
mellitus
mellkeyn
mellkeynek
mellkeynogyon
mellow
melursus
melville
melyn
melys
melyssand
melysugen
memorial
memories
memphis
men
mena
mendeleev
menedhyow
meneges
menegesydhel
menegesydhieth
menegh
menegyansow
menegys
menek
mengleudh
mengleudhyow
mengleudhys
menhes
menhesen
menhesennow
menowgh
menoyl
mentena
mentenys
menydh
menydhyek
menydhyow
menyon
menyster
menystra
menystrans
menystrek
menystrys
mer
mercer
merckx
mergh
mergher
merher
meriasek
merk
merkuri
merkya
merkys
merlin
mernans
mernansow
merth
merther
merthyr
merwel
merwys
meryasek
mes
mesa
mesokarp
mesopotami
messach
messajys
messier
mester
mestronieth
met
metaboledh
metabolek
metal
meter
methan
metheven
method
methodys
metol
metropolis
metya
meur
meurgerys
meurth
meus
meusva
mexica
mexico
meyn
mg
mi
mia
michael
michel
michelangelo
michelle
michigan
mickey
mid
middle
middleton
mifflin
mighal
migorn
mika
mike
mikhail
mikmakek
mil
milano
mildir
mildiryow
mile
miles
milieylen
mill
million
millionaire
mills
milva
milvil
milvilyow
milvledhen
milwaukee
milyon
milyow
min
mine
miner
mineral
mines
ming
mining
minister
minnesota
minor
minoryta
minvlew
miocene
miquel
mir
mires
mirji
miroryon
mirva
mis
mississippi
missouri
misyow
mitchell
mk
mm
mn
mo
model
modern
modrep
module
moen
mog
mogdoll
mogh
mogha
moghhe
mohawk
mohawkek
moir
moldova
moldoveanu
moldrans
moldrys
molekulen
molekulow
molie
molybdenom
mon
mona
monako
monazit
monde
mongol
mongoli
monow
monroe
mons
mont
montana
monte
montenegro
montgomery
montreal
montrose
montserrat
montsoreau
monyow
mool
moon
moor
moore
moos
mor
moral
moray
morblek
mordarow
morderewi
mordir
mordon
more
morek
morel
moren
morgan
morgannwg
morgowles
morhoghes
moritani
morlader
morlu
morlynn
morne
morow
morrep
morrew
morris
morrys
morton
morval
morviaj
morvil
morviles
morvugh
morvughes
moryow
mos
mosambik
mosander
moscow
moseley
mosk
moskva
moslem
moslemyon
mosow
mosque
most
mother
mothers
moulin
mount
mountain
mousehole
movie
movya
movyans
movyansow
movys
mowes
mowesi
mowysi
moy
moya
moyha
moyle
moyses
mozambik
mozart
mp
mps
mr
mrs
ms
mt
mtv
mu
mughal
muh
muhammad
mull
mumbai
munch
mundi
munich
munro
munys
mur
murdoch
murkowski
murray
muse
museum
music
muslim
muslimyon
mussolini
must
mustafa
mustelidae
musura
musurans
musurys
mutawakkil
muun
mwyn
my
myanmar
myghal
myghtern
myghternedh
myghternes
myghterneth
myghternses
mynnas
myns
mynsonieth
mynsow
mynydd
mynydhyow
mynysen
myr
myrgh
myrghes
mys
mysk
myski
mytern
mythologiek
mythologieth
myttin
n
na
nablus
nadelek
nadelik
nader
nadia
nadine
nag
nagha
naghas
nagonan
nagorno
name
names
nameur
namib
namibi
namoy
nan
nance
nancy
nanjing
nans
nansow
naomi
naoned
napoleon
naras
nas
nasa
nash
nasow
nasser
naswedhow
nasya
nasyas
nasyow
nasys
nat
nation
national
nations
native
natur
natural
nature
naturek
naturel
naturelles
naturor
naukluft
nauru
navaho
navahoek
navassa
navigation
naw
nawves
nazi
nazis
nchen
nd
ndez
ne
neb
nebes
nebonan
nebraska
nebreydh
nebula
ned
nedd
nedh
nee
need
negedhek
negro
negys
negysydh
negysyow
nehru
neighbourhood
neil
nell
nelson
nemotodes
nena
neo
neodymiom
neolithek
neon
nepal
nepprys
neppyth
neptuniom
nerija
nerth
nerthedh
nerthek
nerthow
nerven
nervennow
nervow
nervus
nes
neshe
neshevin
neskar
neskerens
nessa
net
netflix
network
neusennow
neuvya
nev
nevada
nevek
nevenoe
nevis
nevow
nevra
nevyon
new
newark
newcastle
newlyn
newman
newport
newronow
news
newton
neyj
neyja
neyth
ng
ngc
nh
nhadau
ni
nia
niagara
niall
nic
niccolo
nicholas
nicholson
nick
nicola
nicolas
nicolaus
nida
nigel
niger
night
nihon
nihonek
nihoniom
nijer
nijeri
nikaragwa
nikel
nil
nin
nina
nintendo
nintendos
niobiom
nipisat
nitrat
nitrojen
nivel
nivellin
nivelyow
niver
nivera
niverans
niverir
niveronieth
niverow
niveryans
niveryow
niverys
niwl
niwlen
nixon
nkrumah
nl
no
nobel
nobeliom
nobyl
noel
nolwenn
nomisweb
non
nor
nore
norfolk
norgagh
norgaghek
normal
normales
norman
normandi
normanek
normanyon
norsek
norsk
north
northam
northern
northfrisek
northumberland
norvys
norway
nos
nosow
nosweyth
noswolow
not
noten
notennow
notes
noth
nottingham
notys
nova
novel
novelow
novelydh
novelys
november
now
nowedga
noweth
nown
nownsegves
nowodhow
nowydh
nowyjya
nowyth
noy
ns
nu
nui
nuklerek
nuklesen
nukleyotid
number
nunavut
nutt
nuuk
nw
ny
nyn
nyns
nyver
nyveryans
nywtron
nywtrons
o
oak
obama
obaya
obe
ober
oberans
oberansow
oberas
oberen
oberennow
oberer
obereth
oberi
oberoryon
oberow
oberyans
oberyansow
oberyow
oberys
objeta
ocasio
occupied
octavian
october
odyssey
oer
oes
oesow
of
off
office
official
offis
ofis
og
ogam
oganessian
ogas
ogassa
ogasti
ogledh
ogwr
oh
ohio
ois
ojibwe
ok
oklahoma
oksid
oksidow
oksitanek
oksyjen
okupys
ol
olav
old
olegydh
oles
olew
olifans
olifanses
oligocen
oliver
oll
olldhebroryon
ollgemmyn
ollvys
ollvysel
ollvyselheans
olow
olympek
om
oman
omar
ombrofya
ombrofyer
ombrofyores
ombrofyoryon
omdenna
omdennans
omdennas
omdhalghow
omdhegyans
omdhiskwa
omdhiskwedh
omdhiskwedhas
omdhiskwedhes
omdhoon
omgemeryans
omgemeryansek
omglewans
omglewansow
omglewes
omjunnyas
omjunya
omjunyas
omladh
omladha
omladhans
omladhas
omlesans
omma
omoberi
omres
omrewl
omrewlys
omrians
oms
omsav
omsettya
omsettyans
omsettyansow
omsettyas
omsevel
omvyskys
on
onan
one
onen
online
only
onourek
ons
ontario
onyon
oor
oos
ope
opec
opera
ophiuchus
opie
optek
or
orange
orangutan
oratri
orchestra
ordenans
ordenas
ordenys
order
ordinale
ordinalia
ordnance
oregon
org
organ
organedh
organedhow
organek
organization
organow
orgraf
oriant
original
origo
orkestra
orleans
ornithischia
ors
orsedh
orses
orta
orth
orthodoks
orto
orwell
oryon
os
oscar
oslo
osmiom
osow
ossety
ossetyon
ossoff
ost
ostel
ostell
ostelyow
ostralasi
ostralek
ostrali
ostrek
ostri
ostya
ostyas
oswald
osweyth
other
ottawa
otto
ottoman
ottomma
ouganda
our
ouralek
ouran
ourdou
ouryow
ousbek
out
outlying
outre
ov
ova
over
ovid
ovis
ow
owain
owdav
owen
own
owr
owraval
owrek
owsyl
owth
oxbow
oxford
oy
oygel
oyl
oyow
ozon
p
pa
pab
pablo
padarn
paddick
paddington
padel
padellow
pader
paderow
pagan
paganieth
page
pages
pakistan
palace
paladiom
palas
palestayn
palestaynek
palestin
palestine
palestinek
palestinian
palestinysi
pallas
palmer
pals
palsi
palster
palys
pan
pana
panama
panda
pandr
pandra
panellow
pankreas
pans
pansow
pantanal
panthera
paol
paolozzi
paper
paperyow
papoua
papynjay
par
para
paradhis
paradise
paragway
parc
pareusi
pareusys
paris
parish
park
parkeisenbahn
parker
parkow
parkrun
parkya
parliament
parliamentary
parow
parson
part
partement
parth
parthenon
parthow
parti
partiow
parton
party
parya
parys
pas
pasadena
pascal
pascon
pasha
pask
passio
passya
passyes
passyon
passys
past
pastel
pastell
pastellow
pasteur
pasti
patagoni
patel
patrick
patron
patronyow
patronys
pau
paul
paula
paulo
pavilion
paw
pawl
payn
payne
paynt
paynter
pays
payton
pc
pd
pdf
pe
peace
pebys
peder
pedera
pederburg
pedn
pedrek
pedresyfes
pedrevanes
pedro
peel
pegasus
peggy
pegh
pel
pelder
pell
pella
pellder
pelldroes
pellenigow
pellgowser
pellheansow
pellweler
pellweller
pellwologow
pellwolok
pelyek
pelyow
pemp
pen
penarth
pence
pencyta
pengelly
pengilly
penn
pennaghel
pennbloodh
penncita
penneghlek
penneglos
pennfenten
pennfentenyow
pennfentynnyow
pennhembrenkyas
pennines
pennlegh
pennmarian
pennmenyster
pennmynyster
pennow
pennplas
pennrewl
pennrewlys
pennrynn
pennsans
pennser
pennseri
pennserneth
pennsevik
pennsita
pennskol
pennskolyow
pennskrifer
pennskrifys
pennsylvani
pennsylvania
pennternasedh
penntir
penntorr
pennvenyster
pennvro
pennwari
pennwydh
penny
penrhyn
penryn
pensans
pentewan
pentreath
penwith
penwyth
penzance
people
per
peran
percy
pere
performya
performyans
performys
perfydh
perghen
perghennek
perghennow
perghennys
perghenogeth
pergherinses
perhen
period
periodek
perou
persek
perseus
persi
persian
person
personal
personek
personel
personoleth
perth
perthi
perthyans
perthyer
perthyglow
perthynekter
pervedh
pervedhek
peryl
peryll
peryllus
peryllys
pes
pescador
pesk
peswar
peswara
peswardhegves
peswardhek
peswera
peswora
pesya
pet
peter
peth
petrok
petrol
petrus
peul
peulyow
peuns
peuri
peurva
pewa
pewas
pewasow
pg
ph
phd
phe
phil
philadelphia
philip
philippe
philosophy
phoenicopterus
phoenix
php
phu
phylologyl
phylum
pi
piano
pianydh
piben
pibennow
pibow
picasso
pictor
pie
pierce
pierre
pietro
pig
pigeon
pigornek
pik
pike
piktek
piktyon
ping
pinyin
pioneer
piper
pipettes
piran
pisa
pisces
piscis
pisko
pitons
pitt
pittsburgh
piw
piwek
pl
pla
place
plaid
plan
plancius
planck
planet
planetigow
planetik
planets
planettek
planettys
planetys
plankton
plans
plansa
plansow
plas
plasen
plasenn
plasennow
plastek
plastogow
plat
platinom
plato
platonek
platt
plattys
ple
pleasant
pleg
plegya
plegys
pleistocen
pleistocene
plen
plethys
pleustri
plew
pliny
plionarctos
plisk
plobm
plomm
plommwedhek
plontyans
plott
plottys
plouton
plutoniom
pluv
pluven
pluvennow
pluw
plymouth
plyw
pm
po
pobas
pobel
poblans
poblansow
poblek
poblow
pobys
podolsk
podsol
poe
poems
poesek
poetry
point
poken
pol
polaris
poldark
polici
policiow
policis
polio
polisi
politeger
politegieth
politegores
politegoryon
politek
politics
politiger
politigieth
polka
poll
pollard
pollow
polonek
poloni
poloniom
pols
polsya
polter
polynesek
polyp
polypow
pompey
pompya
ponn
pons
ponsfordh
ponsow
ponsrys
ponsyow
pont
ponya
pool
poos
poosa
pooth
pop
popular
population
populations
por
poran
porpos
porposys
porres
port
portal
porth
porthbud
porthenys
porthia
porthkragen
porthmadog
porthmadok
porthow
porthpyran
porthtreth
porthynys
portland
porto
portrayans
portrayansow
portyngal
portyngalek
pos
posek
posekka
poslev
posow
possybl
possybyl
post
poster
potassiom
potsdam
pott
potter
pow
powder
powdir
powek
power
powerys
powes
powl
pows
powyow
powys
poynt
poyntow
poyntys
pp
prag
praha
praktis
praktisyow
pras
praseodymiom
prasow
pratchett
pre
predennek
predennik
preder
prederi
prederir
prederys
pregoth
pregothow
pregowtha
pregowther
prena
prenas
prenn
prenys
presentyas
presep
president
presidential
press
preves
previ
prevyans
prevys
preydh
preydhoryon
preydhyer
pri
price
pride
prifysgol
prime
prince
princeton
pris
prishtina
prisner
prison
prisyow
priti
privedh
privedhyow
priweyth
priweythva
prix
prize
pro
problemys
process
prof
professor
profet
profil
profile
profoes
profya
profyans
profyes
profys
progress
project
projekt
prokaryotes
promethiom
promovya
pronter
pronteryon
propaganda
protaktiniom
protestans
protestant
protestya
protin
protinyow
proto
protolith
protonow
prov
provia
provians
proviys
provow
prow
prussi
pryce
pryderi
prydydh
prydydhes
prydydhieth
prymatys
pryns
prynses
prynseth
pryntya
pryntys
prys
prysk
pryv
ptolemy
pu
pub
pubdedhyek
puber
public
publications
publishers
publishing
pubonan
pubvledhynnyek
puerto
pumys
punk
pup
pupprys
puptra
pur
purhe
purpur
purt
purva
puskes
py
pyffyer
pyffyers
pygemmys
pygvoon
pymp
pympes
pympves
pymthegves
pymthek
pynag
pyramid
pyramidow
pyran
pys
pysadow
pysi
pysk
pyskador
pyskessa
pyth
pythagoras
pythow
pytt
pyxis
q
qaqortoq
qatayef
qin
qing
quarry
quds
que
quebec
queen
queensland
quercus
quetzaltenango
quiller
quimper
qur
qureshi
qwil
r
ra
raad
rabbit
race
rach
rachel
racine
radar
radcliffe
radel
radhva
radhyas
radio
radiom
radium
radius
radn
radon
radyo
radyoweythres
radyoweythresans
radyoweythresek
rafael
rag
ragavon
ragavonow
ragdha
ragdho
ragdres
ragdresow
raglev
raglevow
ragresek
ragresor
ragresoryon
ragresydh
ragrewlivel
rail
railway
railways
rak
rakhenna
raleigh
ralph
rama
ramadan
ramallah
ramasek
ramayana
rams
ramsay
ramsey
ran
randir
rang
rann
ranna
rannans
rannas
ranndir
ranndirow
ranndiryel
ranndiryow
rannel
ranneves
rannevesow
ranngylgh
rannow
rannvro
rannvroyow
rannyeth
rannyethow
ransome
ranvro
rapa
raphael
ras
rashid
rathes
rawe
ray
rayment
rd
rda
re
reagan
rebecca
rebel
rebellyans
rebellyansow
receva
recevas
recipes
record
records
red
reden
redones
redruth
redya
redyer
redys
rees
referendum
reggae
reginald
regio
region
regum
reich
reichsbahn
rek
reka
rekna
rekord
rekordya
rekordyas
rekordyes
rekordys
rekys
releases
relyjyon
relyjyons
remaynya
remenans
remenant
remova
removans
removas
removya
removyes
removys
renaissance
rene
reniom
renk
renkas
renkasow
renkys
rennes
rennys
repoblek
repoblikanek
report
reports
represent
representya
representys
repu
republic
republican
republik
republika
rer
res
research
resegow
resegva
resegvaow
resek
resekva
resigns
resin
reson
resrudh
rester
restra
restrans
restras
restren
restrys
results
reswynn
resyas
retallack
reticulum
retrieved
reun
revedh
review
revolution
revrond
revrons
revue
rew
rewenys
rewenysek
rewi
rewl
rewliv
rewlivans
rewlivek
rewlivel
rewlivow
rewlivys
rewloryon
rewlya
rewlyans
rewlyas
rewlyer
rewlys
rewtinyow
rewys
reydh
reydhek
reydhel
reydholeth
reydhyel
reykjavi
reyn
reynolds
reynya
reyth
reythyansel
reythyow
rg
rhea
rheilffordd
rheinland
rhiannon
rhode
rhondda
rhymes
rhys
rhythm
ri
ria
rica
rice
rich
richard
richards
richardson
richmond
richter
rick
rico
riek
riel
rielydhyon
rights
rika
rim
rimyow
ring
rings
rinsey
rio
ris
rise
rishi
river
riverside
riwaq
rizmi
rjuna
rk
rn
ro
road
roald
roas
roazhon
roazon
robbie
robert
roberto
roberts
robinson
robot
rock
rockefeller
rod
rodiom
roger
rokk
rol
roll
rolya
rolyow
rolys
rom
roma
romaji
roman
romana
romanas
romanek
romani
romans
romansek
romanser
romansik
romansores
romansow
romanyon
rome
romek
ronald
rond
ronnedh
roos
roosevelt
roparz
ros
rosa
rosaceae
rose
roseau
rosen
roskomik
rosow
ross
rostella
rostorrmoel
rosweyth
rosweythyow
roumanek
roumani
round
routh
routledge
rowan
rowe
rowedh
roy
royal
rr
rt
ru
rubidiom
rubin
rubio
rudh
rudhek
rudhlas
rudhvelyn
rudhwynn
rug
rugbi
rugby
run
runrig
rus
rusk
rusken
russek
russell
russi
russia
russy
ruth
rutheniom
rutherford
rutherfordiom
rutland
ruvaneth
ruw
ruwvaneth
rwanda
ry
ryal
ryb
ryccha
rych
rychys
rydh
rydhses
rydhsys
ryn
rynn
rynnys
ryskammel
ryslegh
rysoghen
rysrudh
ryu
rywvaneth
s
sa
saami
saboth
sachsen
sad
sadorn
sagh
saghow
sagittarius
sahara
saint
saints
sakrys
saksonek
sal
saladin
salamon
salicaceae
salisbury
salix
sall
sally
salmow
salow
salt
salvador
sam
samariom
samarkand
samarskit
sami
samoa
sampel
samplow
samson
samuel
san
sancte
sanctus
sand
sandercock
sanders
sands
sandwich
sandys
sans
sanses
sanskrit
sanskrytek
sant
santa
saoudek
sapiens
sappho
saqqaq
sarah
sardayn
sardou
sarf
sarfven
satnas
satyricon
saunders
sauropods
sav
savanna
saven
savla
savle
savon
savonek
savonel
saw
sawder
sawor
sawsnek
sawya
sc
scafell
scath
scawen
schatz
scheele
school
schools
schro
science
scilly
scol
scoren
scorpius
scotland
scots
scott
screenwriter
screfa
screfys
scrifys
script
sculptor
scutum
scyens
se
sea
seaborg
sean
search
seat
seattle
sebastian
sebon
second
secretary
section
sedh
sedher
sedhi
sedhoryon
see
segh
seghys
segi
sekiryo
sekond
sel
selassie
selected
seleniom
selevan
selkup
selreth
selsik
selvarian
selvenek
selvenel
selwys
selya
selyas
selyek
selyer
selyes
selyow
selys
semitek
semlant
sempel
sen
senate
senator
senedh
senedhek
senedhoryon
senegal
seneth
sengel
seni
sens
sensys
sentinel
seoul
september
ser
serbek
serbi
serby
serengeti
serf
sergei
serghek
series
serpens
serr
serrys
sertan
serth
serv
servadow
servet
servis
servisyow
servya
servyas
servyes
servys
seson
sesyans
sesyas
sesyes
sesys
set
seth
setha
sether
sett
settow
settya
settys
seul
seulabrys
sev
sevel
seven
sevi
sevis
sevur
sew
sewen
sewena
sewenas
seweni
sewenus
sewt
sewya
sewyans
sewyansow
sewyas
sewyes
sewys
seynt
seytek
seyth
seythen
seythennow
seythun
seythves
seythyn
sez
sfinks
sg
sgu
sh
sha
shaanxi
shad
shafta
shaftys
shah
shahnameh
shakespeare
shall
shan
shanghai
shap
shapya
shapys
sharon
sharp
shaw
she
sheet
sheffield
sheikh
shelley
shetland
shi
ship
shirley
shist
shistow
shiva
sho
shoppa
shoppys
shora
short
shorter
show
shri
shropshire
shuntya
shyndya
shyndys
si
sia
siberi
sichuan
sidi
sie
sierra
significance
sigurd
sigurdsson
silika
silikat
silikon
sim
sima
simes
simon
simone
sin
sina
sinai
sinans
sinas
since
sinell
sinellow
singapour
sinn
sinya
sinys
sio
siouek
sioux
sir
sisimiut
sisserow
sita
site
sites
sitys
sivil
six
sj
ska
skaffa
skandinavek
skandiom
skans
skantlyn
skath
skathow
skav
skavder
skavel
skaw
skenna
skennys
skentel
skentoleth
skesya
sketh
skeul
skeus
skeusek
skeusen
skeusennow
skevens
skewwyns
skia
skians
skiansek
skiens
skiensek
skiensel
skiensow
skiensydhyon
skifennyas
skila
skilys
skit
skityans
skodhyoryon
skoedhya
skol
skoler
skolheygyon
skolheyk
skoll
skollyon
skoloryon
skolyow
skon
skonna
skonyas
skoodh
skoodhya
skoodhyans
skoodhyas
skoodhyer
skoodhyes
skoodhyoryon
skoodhys
skoos
skorenn
skorennow
skorr
skorren
skorrennow
skorrow
skorya
skots
skovarn
skovarnogyon
skovarnow
skovva
skowl
skrappyes
skravinas
skrif
skrifa
skrifans
skrifas
skrifedhow
skrifen
skrifennow
skrifennyas
skrifenyades
skrifenyas
skrifer
skrifir
skrifor
skrifores
skriforyon
skrifow
skrifyas
skrifys
skrij
skrin
skrivedh
skwardya
skwattys
skwir
sky
skye
skyll
skyrmya
slate
slavek
slavonek
sleyneth
sligachan
slovakek
slovaki
slovenek
sloveni
slynkya
sm
smith
smithson
sn
snaefell
snell
snella
so
society
socrates
socyal
socyalydh
socyalydhek
socyologieth
soda
sodha
sodhas
sodhek
sodhogel
sodhogyon
sodhva
sodhvaow
sodiom
sodon
soedh
soedhogel
sofia
sojeta
sojetus
soled
soleil
solempnita
solempnitys
solempnya
solempnyans
solempnyansow
solempnys
solo
solomon
solpyter
somali
some
somerset
somm
sommen
son
song
sonskrifa
sonyow
soodh
sophia
sordyans
sordyas
sorr
sort
sortes
sortow
sosialistek
sosten
sosyalieth
sosyel
soth
sothwest
sou
soudan
souder
soudor
soudoryon
soul
sound
south
southampton
southwest
sovietek
sovran
sovyet
sovyetek
sows
sowsnegoryon
sowsnek
sowson
soya
space
sparql
spas
spayn
spaynek
species
spedya
spedys
spektrum
spen
spena
spenas
spencer
spis
spisys
spit
spitsbergen
splan
splann
splanna
splannder
splannvraster
spoken
spongow
sporow
sport
sportva
sportys
springfield
springs
sprusek
sprusen
spyrys
spyrysek
spyrysyon
spys
spysow
square
sri
ss
st
sta
stafford
staffordshire
stag
stakk
stalin
stamp
standard
stanley
star
stargate
starmer
starry
stars
stat
statbunker
state
states
station
statistics
statow
status
statydh
statys
statystek
statystygyon
steam
stedhyan
stefa
stefania
stein
sten
stenek
stephanie
stephen
stephens
ster
steren
sterenn
sterennow
stergylgh
sterlester
sterling
steronieth
steroniethek
steroniethel
steronydh
steronydhyon
sterorieth
stervarner
steus
steve
stevel
steven
stevenson
stewart
still
stivell
stock
stockholm
stockings
stockys
stoff
stoffow
stok
stoke
stokes
stokk
stone
stoppya
stoppyas
store
stories
storlok
storting
story
stowell
stradneth
strasnedh
strateji
stratoloskvenydh
stream
street
stret
strethur
strethurow
stretow
striding
strif
strifwerth
strokas
strontiom
strothys
strus
stuart
studh
studhla
studhoryon
studhya
studhyans
studhyansow
studhyas
studhyer
studhyes
studhyor
studhyores
studhyoryon
studhyow
studhys
studies
sturgeon
styl
style
styr
styry
styrya
styryans
styryansow
styryas
styryow
styrys
støre
su
sua
substans
such
suetonius
suez
suffolk
sugal
sugen
sugennow
sugna
sugra
suicide
sukros
sul
suleiman
sulfat
sulfid
sulfur
sulfurik
sullivan
sultan
sultana
sumatra
sume
sumer
sumerek
sumerian
sun
sunak
sunday
sunni
super
sur
surhe
surinam
surrealydh
surrey
surri
survey
sus
sussex
svalbard
sw
swahili
swati
swedek
sweden
swedherwyk
swinson
swis
swistir
swjr
sya
sydney
syed
syger
sylabennow
syllabenn
syllan
sylvester
symon
symons
symphony
syndrom
syns
synsas
synsi
synsys
synthetek
syr
syracuse
syri
syrr
syrra
system
systemow
systems
syth
syw
sywya
sywyas
t
ta
tabbouleh
tables
taboon
tabour
tabouryow
tabun
taf
taiwan
taj
tajik
tajikistan
taking
taklen
taklenn
taklennow
taklow
taksonomieth
tal
talbot
tale
talek
tales
tallathas
talleth
tallethas
tallinn
talvia
talvosogeth
talyllyn
talyow
tamar
tamer
tamil
tamilek
tamm
tan
tanbellen
tanbellennow
tanek
tang
tangi
tank
tanow
tantalom
tanvorel
tanweyth
tanzania
tao
taoieth
taran
tardh
tardha
tardhans
tardhansow
tardhow
tarn
tarosvan
tarosvannow
tarow
tartan
tas
tasek
tasow
tate
tau
taunton
taurus
tav
tava
tavas
tavaz
tavell
tavern
taves
tavistock
tavol
tavosow
tavy
taxi
tay
taylor
taywan
tcrf
tdn
te
tea
team
tears
tebel
technology
ted
teer
teg
tegid
tegys
tehwelas
tekka
teklinya
teknegel
teknegieth
teknegow
teknetiom
teknologieth
teksas
tekst
tekstow
tekter
tektonek
tektonieth
tel
telegraph
telescopii
television
telford
tell
tellek
teloriom
tels
temigow
temmigow
temmyn
tempel
template
temple
tempredh
tempredhow
temprek
ten
tender
tenessin
tenewen
tenn
tenna
tennant
tennessee
tennessi
tennis
tennva
tennvenek
tennveyn
tennvos
tennvosow
tennys
tenwennow
teodor
tepuis
terbiom
teresa
terivas
term
termen
termow
termyn
termynyow
termys
ternieth
terniethow
terosa
terowel
terras
terre
terri
territory
terrys
terthen
tes
tesel
tesen
tesla
testament
testen
testennow
teu
teudh
teudhans
teudhi
teudhys
teurek
teuth
teva
teves
tevesigyon
tevesik
tevi
tevnydh
tevnydhir
tevnydhya
tevnydhyr
tevo
tevri
tevyans
tevys
tew
tewdar
tewder
tewedh
tewedha
tewedhow
tewedhys
tewennow
tewes
tewesek
tewesva
tewl
tewlder
tewlel
tewlys
tewydh
tewyn
tewynblustri
tewynn
tewynnow
texas
text
teyl
teylu
teyluyow
teyr
teyrgweyth
teythi
teythyek
th
tha
thaliom
thames
than
thanh
thas
that
thatcher
the
theatre
their
thema
themow
themys
theologieth
theologydh
thera
there
theresa
thermyn
theropods
these
theylu
thibetanus
thiel
things
thir
this
tho
thomas
thompson
thor
thoraks
thoriom
thousand
thre
three
through
thu
thule
thuliom
thunnus
thutmose
thy
thyller
ti
tiberth
tibet
tiblans
tiek
tien
tiger
tigris
till
tim
time
times
timor
timothy
timur
tin
tiogow
tiogyon
tipek
tir
tira
tiredh
tiredhow
tireth
tirfurv
tirfurvow
tirnos
tirwedh
tirwedhow
tiryow
tiskwedha
tiskwedhes
tisplegya
tisplegyas
titan
titanic
titaniom
titel
titlys
tiverton
tiwedh
tiwettha
tlaib
to
tobago
tochya
today
togo
tohow
tokyn
tokyo
toledo
tolkien
toll
tollgorn
tollow
tolstoy
tom
tomas
tomder
tomm
tommas
tommder
tommen
tommhe
tommheans
tommhes
ton
tongsten
tonkin
tonn
tonnas
tonnow
tony
toos
tooth
tooting
top
topp
toppow
tor
torek
torfaen
torn
tornyas
tornyaseth
tornysi
torogen
toronto
torquay
torr
torras
torrasneth
torrek
torrow
torrva
torva
torvaow
tos
touch
toul
toulys
toun
tounes
tour
tourik
tourow
touryow
tower
towl
towlen
towlenn
towlenna
towlennow
towlow
towlys
town
towns
toy
tr
tra
trachurus
traditional
tradycyonal
traffik
trail
train
trakai
tram
tramm
tramor
traow
travers
travyth
traweythyow
tre
tredan
tredanek
tredanven
tredhek
tredhinas
tree
trefdraeth
treffry
tregarrek
tregear
tregh
tregher
treghi
treghow
treghys
trehedhas
trehedhes
trelawny
trelyes
tremarctos
tremayne
tremen
tremena
tremenyans
tremmliw
tren
trenk
trenken
trenkennow
trennow
trenow
trent
tresen
tresor
tressa
trest
treth
tretha
trethans
trethow
trethysi
treudhi
treus
treusfurvek
treusfurvyans
treusi
treuslinen
treuslytherennans
treusperthi
treusperthys
treusporth
treustir
treusva
treusvewa
treusworra
treusworrys
trev
trevaldwyn
trevanion
trevanta
trevas
trevasow
treveglos
trevek
treven
trevenen
trevesigeth
trevesigethow
trevesigoleth
trevesigoryon
trevithick
trevorah
trevow
trew
trewethyow
treweythus
treweythyow
treylya
treylyans
treylyansow
treylyas
treylyer
treylyes
treylys
treys
tri
trial
trianguli
triangulum
triassek
trick
trier
trig
triga
trigas
triger
trigordh
trigoryon
trigva
trigys
trihorn
trihornek
trilvil
trist
tristan
tro
trobel
trois
trolergh
trom
tron
trongornvil
troos
tros
trotsky
trovannel
trovannow
trovya
trovyes
trowyns
trowynsow
troyll
troyllek
troyllyek
tru
true
trump
truran
truro
truru
truss
trust
try
tryger
trygh
trygher
trygys
trynses
trystan
ts
tsar
tshei
tt
tu
tucana
tucker
tudful
tudur
tuedh
tundra
tunisi
tunnas
tunstall
turant
turantieth
turing
turkek
turkewich
turki
turkmen
turkmenistan
turks
turya
tus
tuvalu
tuyow
tv
twain
twarres
twenty
twickenham
twin
twist
twitter
two
tx
ty
tybel
tybi
tybieth
tybiethel
tybir
tyboniethow
tybri
tybyans
tybyansow
tybys
tycho
tydvil
tyffrans
tykkiow
tyler
tyli
tyllas
tyller
tylleryow
tynn
tynwald
tyskas
tyski
tzu
u
uci
udn
ue
uel
ugans
ugens
ugensves
ugh
ughder
ughdeylu
ughel
ughelboynt
ughelder
ugheldir
ugheldiryow
ughella
ughnova
ughviolet
ughvonni
ughweres
uhel
uhelder
uhella
ujy
uk
ukip
ukrayn
ukraynek
ulo
ulster
ulva
ulysses
umar
umm
un
und
under
une
unesco
ungureanu
unigyn
unigynnow
union
united
universal
universe
universita
university
unn
unnegves
unnek
unngledhren
unnik
unnkell
unnplek
unnsel
unnses
unnver
unnveredh
unnweyth
unnyk
unplek
unsel
unses
unsesow
untollogyon
unweyth
unwos
unya
unyans
unyas
unyes
unys
unyvers
up
upanija
update
uppsala
ur
uraniom
urbain
urdh
urdu
ursa
ursae
ursavus
ursidae
ursinus
urss
ursus
urugway
us
usadow
usd
usi
usir
usk
uskis
uskissa
usvil
usviles
usya
usyansow
usyas
usyes
usys
utah
utc
v
va
vab
vadern
vag
vagas
vagasow
vakteria
val
vale
valera
valle
valley
valweyth
valyow
vamm
van
vanadiom
vaner
vanessa
vann
vanow
vanylyon
vappa
var
varbel
vardhonek
vardhonieth
varghas
varia
varna
varow
varr
varra
varya
varyans
varyansek
varyansel
varyansow
vas
vasco
vason
vatalyas
vatel
vater
vatikan
vaystri
ve
vebyon
vedas
vedh
vedha
vedhegneth
vedhel
vegas
veksiko
vel
vela
velin
vellyon
velyn
ven
venatici
venen
venenes
venenreydh
veneswela
venetens
venezia
vengleudh
venhesen
venja
venow
venowgh
venta
ventewyn
ventoux
venus
venydh
venydhyow
venyn
venynreydh
venystrans
vera
verb
verbow
verdh
verdi
vergh
verk
verkuri
verkyas
vermont
vern
vernans
verne
verr
vers
versailles
vershyon
version
versyon
versyons
verwel
verwis
very
ves
vesta
vethodysi
vetyas
veu
veur
veurth
vew
vewa
vewas
vewnans
vewonieth
vewoniethel
vewvaow
veyn
veythrin
vi
via
viaj
viajadow
viajya
viajyas
viajyow
vian
victor
victoria
video
vienna
vietnam
vietnamek
view
vii
viii
viktoria
viktorya
vil
vildir
vili
village
villiers
vilnius
vilvil
vilyow
vince
vincent
vinci
vinsent
vinyl
viola
vir
vires
virginia
virginis
virgo
viridis
virjynni
viroryon
virtual
virus
virusow
virusys
virva
vis
vishnu
vision
vita
vitamyn
vladimir
vledhen
vledhynnyek
vledhynnyow
vleujen
vlew
vloodh
vlydhen
vn
vo
vocabularium
vodh
vog
vogalennow
voghes
voghhas
voghosek
voice
vol
volga
vols
voltaire
volume
volusia
von
vona
vonnegut
vonnow
vonow
vons
vonyow
voon
voos
vor
vordir
vorladron
vorrep
vos
vosen
vosges
vosva
vosvena
vosvenegh
vota
vote
votys
vovyas
vownder
vowysi
voy
voyager
voyha
vra
vras
vrasil
vrasilek
vrassa
vraster
vrastir
vrastiryel
vrath
vre
vreder
vredereth
vrek
vresel
vreselek
vreten
vretennek
vretonek
vri
vriansen
vrith
vro
vroder
vronn
vronnviles
vroweghereth
vrt
vrys
vrythonek
vrythonyon
vs
vu
vue
vulpecula
vulpes
vunys
vurjysi
vusur
vusura
vy
vyaj
vyajya
vydh
vyghan
vyghtern
vyghternedh
vyghternes
vyhan
vykken
vyldya
vyldyas
vynn
vynna
vynnas
vynnes
vynni
vynnsa
vyns
vynsow
vyrgh
vyrjynia
vys
vysyt
vysytoryon
vysytya
vysytyas
vysytys
vyth
vythlas
vytholl
vythologieth
vyw
vywnans
w
wa
wachowski
wade
wagonow
wagren
wales
walk
walker
walks
wall
wallace
walling
wallis
walt
walter
wandrans
wants
war
wara
warbarth
warbynn
ward
warhol
wari
waria
warias
warier
warioryon
wariow
wariva
warlergh
warlinen
warn
warnedha
warnedhi
warnock
warnodho
warren
wars
wartha
was
washington
wask
waskas
waskedh
wassily
wat
watch
water
waters
watkins
watson
watt
wav
way
waya
wayas
wayn
waynas
wayne
waynya
waynyas
we
wear
weather
weatherhill
web
webb
weder
wedgwood
wedh
wedhen
wedhwes
wel
welas
weles
weli
well
wella
wellhe
wellington
wells
wels
welsh
wen
wendron
wendy
wenep
wenneli
wenonek
wer
were
weres
weresas
weresow
werin
werinel
wertha
werthas
wessex
west
western
westminster
westport
wexton
weyth
weythres
weythresek
weythva
weythyow
wharfedhyans
wharvedhyansow
what
whath
wheel
whegh
whel
when
where
whethel
whethlow
whevrel
whevrer
which
white
whitley
whitman
who
why
wiasva
wien
wig
wiki
wikidata
wikimedia
wikipedi
wikipedia
wikipedya
wikisource
wild
wilde
wilfred
wilhelm
wilkinson
will
willem
william
williams
willy
wilson
wiltshire
win
wind
windsor
winner
wins
winston
winter
wir
wiryow
wisconsin
wisk
with
witha
withas
wivelshire
wizard
wlad
wlas
wlaskor
wlasow
wmffre
wo
wober
wodhalek
wodhes
wodhev
wodhevis
wodhir
wodhon
wodhonieth
wodhoniethek
wodhoniethow
wodhonydhyon
wodhosek
wodhva
wodhvedhys
wodhvos
wodhya
wodriga
wodrigas
woen
woer
woja
wolcot
woles
wolf
wolfgang
wollaston
wolow
woman
women
won
wonisogeth
wonisogethow
wood
woodhva
wool
woon
woos
wootton
wor
worcester
wordhen
wordhenek
wordhon
wordhonek
words
wordsworth
worfen
worfenna
worfennas
worhemmyn
worher
worheri
worholyon
work
works
world
worr
worra
worras
worsav
wort
worta
wortalleth
worth
worthing
worthsevel
wortiwedh
worwedh
woryskynnas
wosa
wosek
wostalleth
would
wovernans
wovernansow
wovyn
wovynnas
wra
wradheg
wragh
wre
wrecsam
wreg
wrek
wreksam
wrello
wrellons
wren
wrer
wreydhek
wreydhenn
wrians
wriansow
wright
wrons
wrug
wrussa
wrussons
wruthyl
wrys
wu
wul
www
wydh
wydhen
wylar
wyn
wynn
wynnyer
wyns
wyoming
wyrghes
x
xi
xii
xiii
xiv
y
ya
yagh
yaghhe
yaghus
yale
yamauchi
yangtze
yann
yantra
yar
yardangow
yasser
yat
ydhnigow
ydhyn
ye
year
years
yedhewon
yedhowek
yedhoweth
yedhowon
yeghes
yehovah
yellowstone
yemen
yesu
yet
yeth
yethador
yethek
yethonieth
yethoniethel
yethor
yethow
yettys
yetys
yey
yeyn
yeynder
yeynha
yeynhe
yeynna
yezh
ygam
yger
ygerans
ygeras
ygeri
ygeris
ygeryans
ygerys
ygor
ygoras
yl
yll
yllas
ylli
yllir
yllons
ym
yma
ymons
ympyansow
ympynnyon
yn
yndan
yndella
ynia
ynjynor
ynjynorieth
ynjynoryon
ynk
ynkleudhva
ynkleudhyans
ynkleudhys
ynkressya
ynkressyans
ynkressys
ynn
ynna
ynni
ynno
yns
ynsi
ynter
ynterweythresow
yntra
yntredha
ynwedh
ynworrans
ynys
ynysek
ynysow
yogort
yonk
yonker
yonkers
york
yorkshire
you
yougoslavi
young
your
youtube
yow
yowann
yowynk
yowynka
yowynkka
yowynkneth
yr
ys
ysay
yskyn
yskynna
yskynnys
ysrael
yssyns
yssynsas
yssynsi
yssynsys
ystorek
ystory
ystyn
ystynn
ystynna
ystynnans
ystynnansow
ystynnas
ystynnys
yterbiom
yth
ytho
ytriom
ytterby
yu
yuck
yuliek
yuri
yurl
yurlys
yusra
yvyn
yw
ywa
z
za
zadou
zambi
zamenhof
zebra
zedong
zhao
zho
zhu
zhuang
zi
zimbabwe
zirkoniom
zo
zola
zoulou
zuma
zynk
{
|
}
~
£
¥
§
ª
«
°
²
·
¹
»
¼
½
¾
×
æ
æðelsta
ð
þ
ł
ŋ
ɐ
ɑ
ɔ
ɕ
ə
ɛ
ɡ
ɣ
ɪ
ʁ
ʃ
ʍ
ʒ
ʰ
ʲ
ʷ
ʻ
ʼ
ʾ
ʿ
ˀ
ˈ
ˌ
ː
ˤ
̀
́
̂
̃
̄
̆
̇
̈
̊
̋
̌
̓
̔
̟
̣
̥
̦
̧
̨
̩
̪
̭
̯
̱
͂
ͅ
͡
α
β
γ
δ
ε
η
θ
ι
και
μ
μη
ν
ξ
ο
π
ρ
ς
σ
τ
χ
ψ
ω
а
в
д
для
е
евич
з
и
к
л
м
н
на
п
пропаганда
т
у
украі
ч
ю
я
і
ִ
ַ
ב
ג
ה
י
מ
ש
ת
ا
الا
ب
بن
ة
ت
ج
ح
د
ر
ط
ع
ق
م
محمد
مسجد
ن
و
ي
َ
ُ
ِ
ّ
ْ
ٓ
ٔ
ٕ
ހ
ރ
އ
ޖ
ި
ު
ެ
ް
ं
ः
ग
ज
ण
त
द
ध
प
भ
म
य
र
ल
व
ा
ि
ी
ु
ू
े
ो
्
ক
গ
ঠ
ড
ঢ
ত
থ
দ
ন
ম
য
র
়
া
ী
ু
্
ા
ன
ழ
ி
ை
்
ా
ุ
្
‎
‐
–
—
‘
’
“
”
„
†
•
…
‪
‬
′
″
⁄
→
↔
↷
−
∞
∫
③
④
⑦
●
☉
☾
♀
⟨
⟩
⯓
ⴳ
ⴽ
ⵯ
⺀
⺄
⺆
⺈
⺊
⺌
⺕
⺝
⺸
⺼
⿰
⿱
⿲
⿳
⿴
⿵
⿶
⿷
⿸
⿹
⿺
⿻
〢
あ
い
う
か
き
く
こ
す
つ
と
ひ
ほ
ま
み
め
や
ら
ん
゙
゚
イ
コ
タ
ヒ
ュ
ユ
ン
ー
ㄱ
ㄴ
ㄷ
ㄹ
ㅁ
ㅂ
㇁
㇂
㇄
㇇
㇈
㇉
㇓
㐁
㐄
㐅
㐌
㐫
㐬
㐭
㐮
㐱
㑒
㒵
㒸
㒼
㓁
㓞
㔾
㕛
㕣
㖾
㘝
㚅
㚇
㚔
㚘
㝉
㝡
㝴
㝵
㞋
㞢
㞷
㠩
㠭
㠯
㡀
㡭
㡿
㢲
㢴
㣇
㣺
㥯
㪅
㫄
㫐
㫒
㫺
㬅
㬎
㬥
㬰
㲋
㳄
㷠
㸒
㸚
㸦
㼌
㼲
㽞
㿟
䀠
䂞
䍃
䏍
䒑
䖍
䖒
䖝
䖵
䙴
䚻
䜌
䝿
䡛
䧹
䪞
一
丁
丂
七
丄
丅
丆
万
丈
三
上
下
丌
不
与
丏
丐
丑
专
且
丕
世
丘
丙
业
东
丞
丢
丣
两
严
並
丨
丩
个
丫
丬
中
丮
丰
丱
串
丵
丶
丷
丸
丹
为
主
丽
丿
乀
乂
乃
久
乆
乇
么
义
之
乌
乍
乎
乏
乐
乑
乔
乖
乗
乘
乙
乚
乛
乜
九
乞
也
习
乡
乳
乾
亀
亅
了
亇
予
争
事
二
亍
于
亏
亐
云
互
亓
五
井
亘
亚
亜
亞
亟
亠
亡
亢
交
亥
亦
产
亨
亩
享
京
亭
亮
亯
亰
亲
亳
亶
亷
人
亻
亼
亾
仁
今
介
仌
从
仐
仑
仒
仓
仕
他
付
仙
仝
代
令
以
仮
任
企
伊
伏
伐
休
会
伯
但
位
何
佘
余
作
佥
使
來
侈
侌
侖
侯
侵
便
保
俞
信
修
倉
倍
候
倠
倭
備
僉
僕
儿
兀
允
兂
元
兄
充
兆
兇
先
光
兊
克
兌
免
兑
兒
兓
兔
党
兜
兟
入
全
兩
兪
八
公
六
兮
兰
共
关
兵
其
具
典
兹
兼
冀
冂
冃
冄
内
円
冈
冉
冊
冋
册
再
冎
冏
冐
冒
冓
冖
冗
冘
军
农
冝
冡
冥
冫
冬
冷
几
凡
凢
凱
凵
凶
凷
凸
凹
出
函
凾
刀
刁
刂
刃
刄
刅
分
切
刍
刑
刕
刖
列
刘
则
初
別
利
别
到
制
刺
則
削
剌
前
剡
剽
劉
力
功
加
劦
助
劫
劳
劵
勃
勇
勉
勒
動
務
勞
勤
勹
勺
勻
勾
勿
匀
匂
包
匆
匈
匊
匋
匍
匕
化
北
匚
匝
匡
匪
匱
匸
匹
区
医
匽
匿
區
十
卂
千
卄
卅
卆
升
午
卉
半
卌
华
卑
卒
卓
单
卖
南
卜
卝
卞
占
卡
卢
卣
卤
卦
卩
卪
卬
卯
印
危
即
却
卵
卷
卸
卻
厂
厃
厄
历
厈
厉
厌
厓
厘
厚
原
厤
厥
厨
厭
厲
厶
厷
厸
去
厼
厽
叀
参
參
叅
又
叉
及
友
双
反
叐
发
叒
叔
叕
取
受
叚
叜
叟
口
古
句
另
叩
只
召
可
台
叱
史
右
叵
号
司
叹
吂
各
吅
合
吉
吊
吋
同
名
后
吏
向
吕
君
吝
吞
否
含
启
吳
吴
吹
吾
呂
呆
呈
告
员
呙
周
命
咅
和
咎
咠
咢
咨
咸
咼
哀
品
哉
員
哥
哲
唐
商
啇
問
啚
啬
啻
善
喜
喬
單
喿
嗇
噩
嚴
囊
囗
囘
囙
囚
四
回
囟
因
囧
囬
困
囱
囷
固
国
圂
圅
國
圍
圓
土
圡
圣
圥
在
圭
地
圶
圼
坐
坒
坚
坴
垂
垔
垚
埀
埋
埶
執
基
堂
堅
堆
堇
堯
塚
塞
墨
壘
士
壬
壯
声
壳
壴
壹
壺
壽
夂
处
夅
夆
备
夊
夋
夌
复
夏
夒
夕
外
夗
夘
多
夜
夢
大
夨
天
太
夫
夬
夭
央
失
夲
头
夷
夸
夹
夻
夾
奂
奄
奇
奈
奉
奎
奏
奐
契
奓
奔
奚
奞
奠
奢
奥
奭
女
奴
奻
好
如
妄
妙
妟
妥
妻
妾
姑
委
姜
威
娄
婁
婴
嬰
嬴
子
孑
孔
孕
孖
字
存
孚
孛
孝
孟
季
孤
学
孫
孱
學
宀
宁
宂
它
宅
宇
守
安
宋
完
宏
宓
宗
官
定
宛
宜
宝
客
宣
室
宮
宰
害
家
容
宾
宿
寄
寅
密
富
寒
察
寧
審
寫
寬
寮
寸
对
寺
寻
寽
対
寿
封
尃
射
将
將
專
尉
尊
尋
尌
對
小
少
尒
尓
尔
尖
尗
尚
尞
尢
尣
尤
尧
尨
尭
就
尸
尹
尺
尻
尼
尽
尾
尿
局
居
屈
屋
屎
屏
屑
展
屖
屚
属
屠
屡
屬
屮
屯
屰
山
屵
屾
岁
岂
岑
岡
岩
岳
岸
峯
島
崇
崑
崔
崖
崙
崩
嵬
嶲
巂
巛
川
州
巟
巠
巢
巤
工
左
巧
巨
巩
巫
差
己
已
巳
巴
巷
巸
巽
巾
巿
帀
市
布
希
帚
帛
帝
带
師
席
帶
常
干
平
年
幵
并
幷
幸
幺
幻
幼
幽
幾
广
広
庄
床
底
店
庚
府
度
庫
庭
庶
康
庸
廉
廌
廛
廣
廩
廴
延
廷
建
廾
廿
开
弁
弃
弄
弇
弋
式
弓
弔
引
弗
弘
弜
弟
弥
弦
弱
張
強
强
彊
彌
彎
彐
彑
当
彔
录
彖
彗
彡
形
彥
彦
彧
彭
彳
役
彼
往
待
律
徒
得
徙
從
復
微
徵
心
忄
必
忌
忍
志
忝
忠
忩
快
念
忽
忿
思
怠
急
怱
恆
恒
恩
恭
息
悉
患
悤
悲
悶
惠
惡
惢
愁
愈
意
愛
感
慈
慧
慮
憂
憲
應
戀
戈
戉
戊
戋
戌
戍
戎
成
我
戒
戔
或
戚
戠
戢
截
戲
戶
户
戹
戼
戾
房
所
扁
扇
手
扌
才
打
托
执
承
折
拉
拜
拿
掌
推
提
摩
支
攴
攵
收
攸
改
放
政
敄
敏
敕
敖
敗
敝
敞
敢
散
敦
敫
敬
数
敷
數
斂
文
斉
斊
斗
斤
斥
斩
斬
斯
新
方
於
施
斿
旁
旋
族
无
旡
既
旣
日
旦
旧
旨
早
旬
旱
旲
时
旾
昆
昇
昌
昍
明
昏
易
昔
昗
昜
星
春
昬
是
昱
昴
昷
時
晃
晋
晏
普
景
晴
晶
智
暑
暴
曇
曩
曰
曲
曳
更
曷
書
曹
曼
曾
替
最
朁
會
月
有
朋
服
朔
朕
朗
望
朝
木
朩
未
末
本
札
朮
术
朱
朵
朶
朿
杀
李
杏
杜
束
条
来
東
杲
杳
松
析
林
枚
果
枝
枲
枼
某
柔
查
柬
柰
柴
栗
桀
桑
桼
梁
條
梟
梨
棘
棠
棥
森
楚
業
楽
榮
樂
樊
欠
次
欣
欮
欲
欶
欽
款
歆
歇
歌
歛
止
正
此
步
武
歨
歪
歮
歯
歰
歲
歴
歷
歸
歹
歺
死
殳
段
殷
殸
殹
殺
殻
殿
毋
毌
母
每
毒
比
毕
毚
毛
毳
氏
氐
民
气
氣
水
氵
氶
氷
永
氺
氾
求
汉
汝
汞
江
沃
沓
沖
沙
沝
河
治
泉
法
波
泣
泥
泰
洛
津
洪
活
派
流
浦
浪
浮
海
淡
淮
清
渚
渠
湯
滿
漢
漸
瀬
灣
火
灬
灭
灰
灵
灷
炅
炎
炏
炗
炙
炭
為
烈
烏
烝
焉
無
焦
焱
然
煞
熊
熏
燕
營
燮
爪
爫
爭
爯
爰
爱
爲
爵
父
爻
爽
爾
爿
片
牙
牚
牛
牜
牟
牢
牧
物
牪
牽
犀
犬
犭
犮
狂
狄
狊
独
狺
猋
猒
猪
猫
献
獻
玄
率
玉
王
玟
玨
珎
班
琴
瑟
瑩
璠
瓜
瓦
甘
甚
生
産
用
甫
甬
田
由
甲
申
电
甶
男
甸
甹
画
甾
畀
界
畏
畐
留
畜
畟
畢
畧
畨
番
畫
異
畱
當
畺
畾
疊
疋
疌
疑
疒
疾
癶
癸
癹
登
發
白
百
皀
皃
的
皆
皇
皋
皐
皕
皮
皷
皿
盃
盆
盇
盈
益
盍
盎
监
盒
盖
盛
盡
監
盤
盧
目
直
相
盾
省
眇
眉
看
眔
眞
真
眷
眼
眾
着
睘
睪
睿
瞏
瞢
瞿
矍
矛
矞
矢
矣
知
矦
短
石
破
碎
磊
磨
示
礻
礼
神
祟
票
祭
禀
禁
禸
禹
禺
离
禽
禾
禿
秀
秃
秉
秋
科
秝
秦
移
稟
穀
穌
穴
究
穹
空
穿
突
窄
窒
立
竒
竜
竝
竟
章
童
竹
笑
笠
筆
等
答
箕
算
箴
節
篤
篭
米
粉
粛
粟
粤
粦
粲
糞
糸
糹
系
約
納
素
索
紫
累
細
絜
絫
絲
維
綿
縣
繇
纍
纟
缶
网
罒
罔
罕
罗
罙
罡
罢
罪
署
罷
羅
羊
羌
羍
美
羔
羕
羗
羞
羡
羣
群
義
羲
羸
羽
翁
翏
習
翕
翟
翠
翼
老
耂
考
者
耆
而
耎
耑
耒
耳
耴
耶
耷
聂
聊
聖
聚
聶
聿
肀
肃
肅
肉
肖
肙
肥
肩
肯
育
肴
胃
背
胡
胥
能
脊
脩
膚
臣
臤
臧
自
臬
臭
臯
臱
至
致
臺
臼
臽
臾
臿
舀
舂
舄
與
興
舉
舌
舍
舛
舜
舞
舟
般
艮
良
色
艸
艹
艾
芒
芔
芬
芮
花
芳
芺
芻
苔
苗
苟
若
苦
英
茶
茸
荅
草
荒
荣
荼
莆
莧
莫
莽
菆
菊
菐
華
萬
落
葉
著
葛
董
葵
蒙
蒦
蒼
蓋
蓬
蓺
蔑
蔡
蕉
蕭
薄
薛
薦
薰
藍
藏
藤
藥
蘭
虍
虎
虐
虒
虔
處
虖
虗
虘
虚
虛
虜
虞
虫
虽
蚤
蚩
蜀
蜜
蟲
蠡
血
行
衍
衛
衣
衤
表
衮
衰
袁
袞
裏
褭
褱
襄
襾
西
覀
要
覃
見
規
覓
覧
親
覽
见
角
解
言
訁
訇
計
詹
語
誩
諸
讠
语
谷
豆
豈
豊
豐
豕
豖
豙
象
豦
豩
豪
豸
貇
貝
貞
貟
負
貢
貧
貪
貫
責
貳
貴
買
費
賁
資
賈
賏
賓
賔
賛
賞
賢
賣
質
賴
贊
贝
贡
责
贯
贲
贵
赖
赞
赤
赦
走
越
足
路
蹇
身
躬
車
軍
軎
軟
輦
车
辛
辜
辟
辥
辰
辱
農
辵
辶
边
达
过
近
连
迷
追
退
送
逆
逐
通
速
造
逢
連
逮
進
遀
遂
過
道
達
遣
適
遷
遺
邊
邑
邕
那
邦
邪
郎
部
郭
都
鄉
鄭
酉
酋
配
酓
釆
采
里
重
野
量
金
釒
錢
钅
長
镸
长
門
閃
閉
開
閏
閑
閒
間
閔
閵
閻
闌
门
间
闷
阑
阜
阝
阿
降
陳
隆
隊
隋
隡
隨
隱
隶
隹
隺
隻
隼
隽
难
雀
雁
集
雈
雋
雍
雐
雔
雙
雚
雜
雝
離
難
雨
雩
雪
雲
零
雷
需
霍
霜
霝
霞
霸
靈
靑
青
非
靡
面
靣
革
韋
韦
韭
韯
韱
音
頁
頃
項
須
頗
頡
頭
頻
顛
页
風
风
飛
飞
食
飠
養
饣
首
香
馬
馮
駦
马
骨
高
髟
鬥
鬯
鬲
鬼
魚
魯
鮮
鱼
鲁
鳥
鳳
鸟
鹵
鹿
麃
麗
麥
麦
麻
黃
黄
黍
黎
黑
黒
黨
黹
黽
黾
鼎
鼓
鼠
鼻
齊
齋
齐
齒
齿
龍
龙
龜
龟
龠
龰
龱
龴
龵
龶
龷
龸
龹
ꜜ
ꭹ
ꭿ
ꮃ
ꮳ
者
艹
︎
﻿
：
？
🜨
𠀁
𠀃
𠀆
𠀉
𠀎
𠀐
𠁁
𠁣
𠂆
𠂇
𠂈
𠂉
𠂊
𠂋
𠂎
𠂒
𠂔
𠂛
𠂡
𠂢
𠂤
𠂬
𠂭
𠂹
𠃊
𠃋
𠃌
𠃍
𠃎
𠃑
𠃓
𠃔
𠃜
𠄌
𠄎
𠄠
𠄢
𠆢
𠆥
𠇍
𠈌
𠌵
𠓜
𠔉
𠔥
𠔼
𠔽
𠔿
𠕀
𠕁
𠕋
𠘧
𠘨
𠙻
𠙼
𠚏
𠚒
𠚤
𠚪
𠣏
𠤎
𠤕
𠥓
𠦄
𠦑
𠦝
𠧒
𠧗
𠧪
𠩺
𠪚
𠫓
𠫔
𠫤
𠬛
𠬝
𠬞
𠬢
𠬤
𠬶
𠮛
𠮦
𠮷
𠯑
𠱠
𠳮
𠷎
𡈼
𡉀
𡉵
𡌥
𡍮
𡏳
𡕒
𡕩
𡕰
𡖅
𡗗
𡗜
𡘆
𡘤
𡧱
𡨄
𡩧
𡬠
𡭽
𡰣
𡰥
𡰪
𡰯
𡰱
𡷈
𡸁
𡿨
𡿩
𡿪
𡿺
𢀖
𢀛
𢀩
𢁙
𢆉
𢆰
𢆶
𢇁
𢇇
𢉖
𢌬
𢌿
𢏚
𢑑
𢑚
𢖻
𢙣
𢛳
𢦏
𢦒
𢧵
𢼄
𢾕
𣁋
𣄼
𣅀
𣅽
𣍘
𣎳
𣎵
𣏋
𣏼
𣗥
𣥂
𣥖
𣦵
𣦼
𣧄
𣪊
𣪠
𣬉
𣳾
𣶒
𤇾
𤊽
𤐫
𤓰
𤔔
𤕨
𤣩
𤰇
𤰔
𤰞
𤴓
𤴔
𤽄
𥁑
𥁕
𥃦
𥃩
𥃭
𥇡
𥑟
𥘅
𥘈
𥝢
𥫗
𥱡
𦈢
𦉪
𦉬
𦉼
𦍌
𦍒
𦎧
𦐇
𦓔
𦔮
𦘒
𦙃
𦚏
𦣝
𦣞
𦣻
𦥑
𦥔
𦥯
𦨉
𦭝
𦰩
𧆞
𧈧
𧘇
𧰨
𧴪
𧴮
𧵩
𧾷
𨸏
𨾴
𩙿
𩠐
𩫏
𩵋
𪉷
𪜀
𪟽
𪠲
𪩲
𫇦
𫔭
𫜸
𫝀
𫠣
𫠩
𫢉
𫥞
𫩏
𫩠
𫪡
𫲽
𫶧
𬀷
𬐘
𬗌
𬙙
𬛸
𬜯
𬟩
𬯁
𬴘
𬺻
𬼉
𬼖
𭀰
𭁈
𭁨
𭅰
𭑈
𭕄
𭗼
𭤨
𭥫
𭻾
𮅕
𮊿
𮍌
𮍏
𮓗
𮥼
𮧮
廾
𰀁
𰀄
𰀈
𰀉
𰀕
𰀠
𰀡
𰀢
𰀪
𰁜
𰃮
𰆊
𰆘
𰋙
𰕎
𰢴
𰧭
𰯲
90--
a--
ab--
aber--
ac--
ad--
affa--
ag--
agri--
ah--
ai--
ak--
akad--
al--
ala--
all--
am--
amonty--
an--
ana--
aned--
ang--
ans--
anser--
anth--
anthro--
anti--
ap--
aqu--
ar--
are--
arg--
ari--
as--
aste--
asti--
astu--
aswi--
at--
ath--
au--
aust--
aw--
ayr--
ayyu--
az--
b--
ba--
bact--
bal--
bar--
bas--
be--
beat--
ben--
benn--
ber--
berg--
bew--
bi--
biby--
bil--
bio--
ble--
blo--
bo--
bol--
bon--
boo--
bor--
bore--
borth--
bortyn--
bos--
boudd--
bow--
br--
bre--
brey--
bri--
bro--
broad--
bru--
bry--
bu--
bul--
burr--
by--
bys--
byte--
byw--
c--
ca--
caf--
cal--
cam--
can--
car--
cas--
cat--
cau--
ce--
celebra--
cen--
cer--
ch--
cha--
che--
chic--
cho--
ci--
cl--
co--
col--
com--
con--
cor--
cr--
cre--
cris--
cru--
crys--
cu--
cum--
cun--
cy--
cyclo--
d--
da--
dal--
dan--
dar--
das--
de--
degem--
del--
dem--
den--
der--
des--
deseg--
deutsch--
dew--
dh--
dha--
dhalg--
dhann--
dhar--
dhe--
dhew--
dhi--
dhis--
dho--
dhom--
dhy--
di--
dif--
dige--
din--
direy--
dis--
disc--
dist--
diw--
do--
dog--
dol--
dom--
don--
dor--
dowr--
dr--
dre--
dreus--
dro--
du--
dun--
dur--
dy--
dysky--
dyvro--
e--
ed--
edou--
eg--
egi--
eglos--
ei--
el--
ele--
em--
empour--
en--
eo--
ep--
er--
es--
est--
et--
eu--
ev--
ew--
ewn--
ex--
eyl--
f--
fa--
fal--
fan--
far--
fe--
feat--
fenn--
fi--
fin--
finwe--
fl--
flor--
fly--
fo--
fr--
frag--
frei--
fri--
fros--
fu--
fur--
fy--
g--
ga--
gal--
gans--
gar--
gas--
gau--
ge--
gel--
gen--
ger--
ges--
gesstri--
gevarwo--
geyn--
gi--
gil--
glas--
glo--
gly--
go--
god--
gog--
gol--
gomp--
gon--
gor--
gorth--
gow--
gra--
gre--
grif--
gris--
gro--
gu--
guang--
gw--
gwa--
gwar--
gwav--
gwe--
gwre--
gwyn--
h--
ha--
hal--
happ--
har--
hart--
has--
hau--
haw--
he--
hea--
hel--
hely--
hemb--
hen--
hep--
her--
hes--
hey--
hi--
hidro--
hil--
hir--
his--
ho--
hol--
hon--
hor--
horn--
how--
howl--
hu--
hur--
hw--
hy--
i--
id--
if--
il--
im--
in--
io--
ir--
is--
it--
iv--
j--
ja--
jar--
jay--
je--
jen--
jer--
ji--
jo--
ju--
k--
ka--
kal--
kamm--
kamp--
kan--
kana--
kans--
kar--
kas--
ke--
kel--
kemu--
ken--
kenedh--
kent--
ker--
kes--
kess--
kett--
kevar--
kevo--
kewor--
kh--
ki--
kig--
kigde--
kil--
kir--
kla--
klam--
ko--
kol--
komp--
kon--
kop--
kor--
korr--
kow--
kowr--
kr--
krog--
kron--
krows--
kry--
ku--
kul--
kur--
kurun--
kw--
ky--
l--
la--
lak--
lakg--
lan--
lann--
las--
le--
leg--
len--
lepi--
les--
li--
lies--
lim--
lis--
liv--
ll--
llan--
lo--
log--
lok--
long--
losk--
lost--
low--
lu--
ly--
lye--
lym--
lyn--
lys--
lyv--
lyw--
m--
ma--
mac--
mag--
magh--
mai--
mal--
mam--
man--
map--
maq--
mar--
may--
mc--
me--
men--
menys--
mer--
mes--
meteo--
mha--
mi--
mid--
mil--
mis--
miya--
mo--
mog--
moha--
mol--
moll--
monu--
mor--
mou--
mu--
mur--
my--
myn--
n--
na--
nan--
ne--
neder--
nek--
neu--
new--
ng--
ni--
nic--
no--
nor--
nos--
nou--
ns--
nu--
ny--
o--
oak--
ob--
obi--
obje--
of--
og--
ok--
oksy--
ol--
oll--
om--
omdhe--
on--
opty--
or--
os--
ott--
ou--
owr--
p--
pa--
pal--
palo--
pan--
par--
para--
pe--
pedn--
pel--
peli--
pen--
penn--
pep--
per--
perg--
pet--
ph--
pi--
pic--
pie--
pit--
pl--
ple--
plu--
plus--
pluw--
po--
poc--
pol--
por--
porth--
pra--
pre--
pri--
prima--
princi--
pro--
pry--
pu--
pub--
publi--
pur--
py--
pyn--
q--
qu--
quin--
r--
ra--
rag--
ran--
rann--
ras--
ray--
re--
rek--
ren--
repo--
res--
reun--
rhy--
ri--
rn--
ro--
ros--
rou--
row--
ru--
run--
rus--
ry--
ryg--
s--
sa--
sacr--
sal--
samp--
sar--
sauris--
sauropodo--
sc--
sch--
schu--
se--
sea--
sel--
sen--
ser--
sex--
sey--
sha--
she--
shi--
si--
sig--
sil--
sin--
siw--
skr--
skryp--
sku--
skw--
skwy--
sm--
sn--
so--
soci--
sof--
sole--
son--
sopp--
sow--
spa--
spe--
spek--
spi--
spo--
st--
ste--
ster--
sto--
stra--
stro--
stu--
su--
sus--
sw--
syl--
sym--
syn--
t--
ta--
tal--
tan--
tar--
tas--
tau--
te--
tea--
ted--
temp--
ter--
th--
tha--
the--
theo--
tho--
thyby--
ti--
tim--
tin--
tis--
tit--
to--
tor--
tou--
tra--
tram--
trans--
tre--
treus--
tri--
tro--
try--
ts--
tu--
ty--
tyl--
u--
ugh--
uk--
ult--
un--
undhuwi--
unn--
up--
ur--
us--
v--
va--
val--
vamm--
van--
var--
ve--
veg--
vell--
ven--
vene--
ver--
ves--
vi--
vic--
vil--
vl--
vla--
vlo--
vo--
vol--
voleku--
vor--
voy--
vre--
vu--
vurje--
w--
wa--
wake--
wal--
war--
was--
we--
web--
wel--
wen--
wes--
west--
wh--
whi--
whit--
wil--
win--
wo--
wol--
won--
wor--
wri--
wry--
x--
xi--
y--
ya--
ye--
yll--
yn--
ynk--
ynkleu--
yns--
yos--
ys--
yu--
ywer--
z--
za--
ze--
zi--
zo--
ł--
ə--
ɡ--
ɪ--
μ--
σ--
τ--
и--
м--
جا--
ع--
--0
--1
--2
--3
--4
--5
--6
--7
--8
--9
--a
--ac
--ace
--ach
--ack
--ad
--adewder
--adh
--ador
--adow
--ae
--af
--ag
--ah
--ai
--aine
--ak
--akya
--al
--am
--an
--and
--anek
--ango
--ans
--ansow
--ant
--anus
--ar
--ard
--ari
--ary
--as
--ase
--asek
--ash
--at
--ata
--ate
--ates
--ath
--ation
--ations
--au
--aux
--av
--aw
--awa
--ay
--b
--ba
--balanus
--barth
--bb
--be
--bi
--ble
--bo
--bol
--bourne
--brek
--brus
--burg
--bury
--by
--c
--ca
--cat
--ce
--cea
--ceae
--cen
--ces
--ch
--chi
--cht
--chus
--cia
--ck
--co
--cor
--craft
--cs
--ct
--cus
--cy
--d
--da
--dae
--day
--dd
--de
--der
--des
--dge
--dh
--dhi
--dhow
--di
--dil
--dir
--dis
--dn
--do
--dom
--dor
--dow
--ds
--du
--dya
--dyl
--dys
--e
--ea
--eae
--ean
--eau
--ed
--edh
--edha
--edhek
--edhes
--edhyow
--edin
--ee
--ef
--eg
--eger
--egi
--egieth
--egorek
--egoryon
--egow
--egva
--egyans
--egys
--ek
--ekter
--el
--ela
--eld
--elek
--eli
--ell
--elli
--ellow
--em
--ement
--en
--enn
--ennow
--ens
--ensis
--ent
--enys
--eo
--ep
--er
--eri
--ern
--ers
--ert
--ery
--es
--ese
--esiga
--esigyon
--esik
--esow
--ess
--est
--et
--eth
--ethow
--eti
--ett
--ev
--ew
--ewgh
--ewi
--ey
--ez
--f
--fa
--fer
--ff
--field
--ft
--ful
--g
--ga
--ge
--geth
--gh
--ght
--gi
--gik
--gle
--go
--gos
--gow
--graf
--gs
--gua
--gyon
--gys
--h
--ha
--ham
--harde
--has
--he
--heans
--hek
--henge
--hes
--heyl
--heys
--hi
--him
--hl
--hna
--hr
--ht
--hya
--hys
--i
--ia
--ial
--ian
--iau
--ic
--ica
--ical
--ice
--ich
--ick
--ico
--ics
--icus
--id
--ie
--iek
--ien
--iensis
--ier
--ies
--ieth
--ifolia
--iformes
--ig
--igh
--ight
--igow
--igyon
--ii
--ik
--il
--ille
--im
--ima
--imo
--imus
--in
--ina
--ine
--ing
--ington
--ino
--inson
--io
--iom
--ion
--ions
--ious
--iow
--ir
--ire
--is
--ish
--ism
--ist
--it
--ita
--ite
--ites
--ito
--ium
--ius
--ive
--iz
--j
--ja
--je
--jen
--ji
--jiow
--jo
--jy
--jyas
--k
--ka
--kas
--ke
--kek
--ki
--kis
--ko
--krif
--krifa
--ks
--kys
--l
--la
--lah
--lan
--ld
--le
--lek
--len
--ler
--les
--ley
--lgh
--li
--lie
--liw
--ll
--lla
--lle
--llo
--llys
--lm
--ln
--lo
--logy
--low
--ls
--lt
--ltar
--lu
--lus
--ly
--lya
--lyn
--lys
--m
--ma
--man
--mata
--me
--mek
--mi
--min
--mow
--n
--na
--nal
--nan
--nans
--nas
--nce
--nd
--nde
--ne
--nea
--nek
--nel
--nen
--ner
--nes
--neth
--ney
--ng
--ni
--nieth
--ning
--nk
--nn
--nna
--nnek
--nnen
--no
--noryon
--now
--ns
--nsis
--nsow
--nt
--ntine
--nus
--ny
--nya
--nyow
--nys
--nze
--o
--oa
--ock
--od
--odi
--oges
--ogeth
--ogy
--ogydh
--ogyon
--oi
--ok
--ol
--ole
--om
--ome
--ometer
--on
--ona
--ond
--onek
--oni
--onieth
--ons
--onydh
--onydhyon
--op
--or
--ora
--orci
--ore
--ores
--ori
--orieth
--orum
--oryon
--os
--osa
--osis
--ot
--ou
--oud
--our
--out
--ovich
--oviom
--ow
--owek
--ows
--ox
--ozoek
--p
--ph
--phy
--pi
--pian
--pin
--polis
--pus
--r
--ra
--rad
--ral
--ram
--rat
--rd
--re
--rg
--ri
--ria
--rik
--rin
--rn
--ro
--ron
--rot
--row
--rs
--rt
--rth
--ry
--rya
--ryn
--ryon
--ryow
--rys
--s
--sa
--sas
--sby
--sco
--se
--sek
--ses
--sey
--sh
--shire
--si
--sia
--sis
--sk
--sley
--sm
--so
--son
--sos
--sow
--ss
--sson
--st
--ston
--sts
--sy
--sya
--syon
--sys
--t
--ta
--te
--tek
--tenogyon
--ter
--teth
--th
--thi
--thow
--ti
--tic
--tica
--tion
--tir
--tis
--tit
--to
--toire
--tol
--ton
--tow
--town
--trianeth
--ts
--tt
--ttae
--ty
--tya
--tyas
--tyes
--tyon
--tys
--u
--ua
--ual
--ub
--ud
--udh
--ui
--ul
--uld
--ult
--um
--un
--ur
--ure
--us
--ust
--ut
--v
--va
--vaow
--ve
--ven
--venieth
--ver
--ves
--veth
--vil
--viles
--ville
--vleydh
--vor
--vorek
--vos
--vus
--vya
--vyldyes
--w
--wa
--wan
--was
--way
--wek
--wel
--wes
--weus
--weyth
--wgh
--wi
--wis
--wn
--ws
--wyd
--wyn
--wys
--x
--xe
--y
--ya
--yades
--yan
--yans
--yansow
--yas
--yasek
--ydh
--ydhyon
--ye
--yek
--yel
--yer
--yes
--yeth
--yewgh
--ygel
--yi
--yk
--yl
--ylen
--yn
--ynek
--ynyans
--yon
--yor
--yow
--yr
--ys
--ysi
--yster
--ysy
--yt
--yta
--yth
--yttha
--yu
--z
--za
--ze
--zh
--zi
--zie
--ʊ
--ς
--υ
--а
--и
--ка
--н
--о
--р
--я
--ر
