!
"
#
##0
##1
##10
##11
##12
##13
##14
##15
##16
##17
##18
##19
##2
##20
##21
##22
##23
##24
##25
##26
##27
##28
##29
##3
##30
##31
##32
##33
##34
##35
##36
##37
##38
##39
##4
##40
##41
##42
##43
##44
##45
##46
##47
##48
##49
##5
##50
##51
##52
##53
##54
##55
##56
##57
##58
##59
##6
##60
##61
##62
##63
##64
##65
##66
##67
##68
##69
##7
##70
##71
##72
##73
##74
##75
##76
##77
##78
##79
##8
##80
##81
##82
##83
##84
##85
##86
##87
##88
##89
##9
##90
##91
##92
##93
##94
##95
##96
##97
##98
##99
$
%
&
'
(
)
*
+
,
-
.
/
0
00
000
01
0140
02
03
04
05
06
07
08
09
098
1
10
100
1002
101
1016
102
104
105
106
108
11
110
111
115
116
117
118
12
120
123
128
13
133
14
141
14651858
147
15
150
152
16
17
175
18
180
1815
183
1840
1868
1873
1876
1879
1889
1894
1895
1898
1899
19
1902
1904
1911
1918
1920
1921
1925
1927
1947
1948
1950
1951
1952
1953
1958
1960
1961
1962
1963
1964
1966
1967
1968
1969
1970
1971
1972
1973
1974
1975
1976
1977
1978
1979
1980
1981
1982
1983
1984
1985
1986
1987
1988
1989
1990
1991
1992
1993
1994
1995
1996
1997
1998
1999
2
20
200
2000
2001
2002
2003
2004
2005
2006
2007
2008
2009
2010
2011
2012
2013
2014
2015
2016
2017
2018
2019
2020
2021
2022
21
22
23
235
24
240
25
250
251
255
25530442
26
27
276
28
29
3
30
300
301
31
32
322
324
33
338
34
35
36
363
37
38
380
385
39
4
40
400
41
42
420
43
44
440
45
46
47
48
49
5
50
500
51
52
521
53
54
540
55
552
556
56
567
57
58
6
60
600
61
61682
63
639
64
65
67
6736
68
7
70
700
71
73
747
75
750
76
776
78
79
8
80
800
81
82
83
84
85
86
8601
88
9
90
900
92
93
94
95
96
969
978
98
9837
99
:
;
<
=
>
?
[
]
_
a
aba
abakwathwala
abe
abese
abo
abortion
about
abraham
abuye
ac
academy
access
accessed
act
action
ad
adolescent
af
afri
africa
african
afrika
afrikaans
afrikha
after
against
agasti
age
ahlala
ahmed
aids
air
akhe
akhona
al
albert
album
alchemy
alexander
alibheniya
all
almaza
also
am
america
american
amerika
amnesty
an
analysis
anc
and
aneminyaka
angeles
angola
anthem
anthibhayothiki
anthibhayothiksi
anthropology
anti
aphindze
april
ar
arabhu
archive
archived
are
area
art
article
artist
arts
as
ase
asemncane
aseningizimu
ashiya
asia
aspx
association
at
atalwe
atfola
atiwe
atsatse
atsi
au
august
avalon
award
awo
ayanda
aye
b
ba
baba
babe
babese
babhali
babo
babona
bacala
bachelor
bafana
bafati
bafundzi
bahlala
baholi
baka
bakhe
balo
banalesifo
bangu
bantfu
bantfwabenkhosi
bantfwana
bapedi
baphindze
barbara
bartlett
basa
base
basebentisa
based
baseningizimu
bassa
batfwa
batsi
bavamise
bay
bayo
bbc
bc
bcg
be
beijing
bekangumculi
bekangumholi
bekangusopolitiki
bekaphindze
bekatiwa
bekayindlovukati
bekayinkosi
bekucala
bekungu
bela
belive
belumbi
bema
bengiyephi
bese
beyond
bha
bhimbi
bhimbidvwane
bhu
big
bilady
bin
biography
birth
bizimungu
black
blatter
bless
blica
blyde
bmj
bo
bobabe
boksburg
bomake
bona
bonke
bonkhe
bonkosi
bonnie
book
bosnia
botswana
bovu
br
breinigerberg
britain
britannica
brithani
british
bubanti
buciko
budzala
budze
bufakazi
buhle
buhlungu
bukhosi
bukhulu
bulephelo
bungoti
bunye
bunyenti
burden
butjwa
by
c
ca
cahora
cairo
calculus
california
cambridge
can
cannibals
canyon
cape
car
care
carlos
category
cause
causes
cc
cd
cdc
center
central
cetjwayo
cetshwayo
ch
cha
chabane
chapter
charles
check
chiefs
children
china
chorus
choza
church
cia
citation
cite
citizen
city
clinical
co
coca
cochrane
collaborators
college
colour
com
commission
common
commons
community
company
congo
congress
connecticut
conservative
constitution
content
contraception
control
cost
cough
council
countries
country
county
court
covid
cs
cum
cup
current
cyril
d
da
daily
dam
daniel
data
database
date
david
day
de
death
dec
december
defined
degree
delhi
delivery
democratic
deokaran
department
des
development
di
dictionary
die
dingane
dingiswayo
disease
diseases
disemba
district
dj
djibouti
dlamini
do
doctor
doi
dolo
domanovic
dorothy
dr
drakensberg
drama
drug
du
duarte
dube
dunn
durban
dvu
dvwane
dzeliwe
e
eagle
early
east
eastern
ebantfu
ebantfwini
ebola
ebukhosini
ebuntfu
ebuseleni
eceleni
echweni
economic
ed
edirne
edition
edolobheni
eduardo
education
edward
egameni
egypt
ejele
ejozi
ekhatsi
ekhaya
ekhulwini
ekolishi
ekucaleni
ekugcineni
ekukhanyeni
ekulweni
ekupheleni
ekuseni
ekutseni
ekuvikeleni
ekwakheni
el
elands
elizabeth
elsevier
elukhetfweni
eluntfu
ema
emabhunu
emabito
emacala
emacandza
emacansini
emacembu
emadolo
emadosi
emadvodza
emafutsa
emagama
emahhovisi
emahlandla
emakhaya
emakhosi
emalanga
emalunga
emalungelo
emandla
emangisi
emanti
emantini
emaphesentini
emaphoyisa
emarabi
emashumi
emasiko
emasotja
emaswati
ematje
emave
emaveni
emaviki
emazinga
emazulu
embabane
embheka
embusweni
emculweni
emehlo
emelika
emergency
emfuleni
emgceni
emhlaba
emhlabeni
eminyakeni
emkhatsini
emlandvweni
emlonyeni
emma
emndenini
emnyakeni
emozambiki
emphakatsini
emphilweni
emphini
empini
empty
empumalanga
emsebentini
emtimbeni
emtini
emtsetfweni
emuva
emva
en
encyclopedia
end
endlini
endzaweni
enew
engilandi
england
english
enhloko
eningizimu
enkantolo
enshonalanga
enyakatfo
enyangeni
enyuvesi
ephalamende
ephreli
epidemiol
epidemiological
epidemiology
eritrea
error
es
escarpment
esifundzeni
esigabeni
esigodzini
esikhatsini
esikhundleni
esikhunjeni
esikolweni
esitfweni
esiveni
esoweto
essential
essentialmedicines
esuswini
eswatini
eswazini
et
ethiopia
ethnologue
etikhatsini
etindzaweni
etintsabeni
etulu
europe
eveni
event
evidence
evikini
ewn
expanding
eyam
ezulwini
f
fa
face
fact
falls
family
farm
faso
father
february
female
fernando
fever
fgm
fifa
file
first
fm
football
footballer
for
forest
found
fr
france
free
freedom
frelimo
from
front
fu
fulentji
futhi
futsi
g
gandhi
gauteng
gbd
ge
gege
general
geneva
genital
geographic
george
get
ginwala
gito
glayton
global
go
god
gogo
good
goodwill
google
gov
government
grant
great
green
group
guardian
guidance
guide
guinea
gundu
gynecology
h
ha
hamilton
hani
hansen
hanson
harris
has
hate
have
he
heading
health
help
hepatitis
herzegovina
hezegovi
hhayi
hhohho
high
hill
historical
history
hiv
hlane
home
homeland
hope
hosea
house
how
hrh
htm
html
http
https
hugh
hulumende
human
i
iba
ibariki
ibe
ibhayoloji
ibhelalasi
ibhelijiyamu
ibhola
ibholiviya
ibhosinya
ibhulgariya
ibhurazili
id
idashi
idenimakhi
ieb
ifaka
ifike
ifini
ifiva
ifulansi
igibhithe
iginiya
igrikhi
ihangareyi
ihepatitis
ihhafu
ii
iii
ijalimane
ijaphani
ikakhulukati
ikhambodiya
ikheniya
ikhoriya
ikhuroshiya
ilathiviya
ilawoso
ileshestani
im
image
imakhedoniya
imalawi
imali
imalitha
imayanima
imbali
imelika
imfundvo
imi
imibala
imibhalo
imifula
imijovo
imiklomelo
imindeni
iminyaka
imiphakatsi
imisebenti
imitamo
imitselela
imitsetfo
imitsi
imolidiva
imonakho
imonthenekho
impala
impela
imphala
imphi
imphilo
impi
impilo
in
inamibiya
incenye
inchazelo
includes
incoma
incwadzi
incwala
index
india
indicator
indiya
indlela
indlo
indlovana
indlovu
indlovukati
indlovukazi
indlu
indonesia
indvodza
indvodzana
indzaba
indzawo
indzima
inephali
infection
infectious
infobox
information
ingabe
ingani
ingati
ingci
ingongoni
ingonyama
ingwenya
ingwenyama
inhlaba
inhlangano
inhlanyelo
inhlatfu
inhloko
inhlokodolobha
inhlonipho
iningizimu
injabulo
inkantolo
inkapani
inkhomo
inkhosana
inkhosatana
inkhosi
inkhosikati
inkhululeko
inkhundla
inkondlo
inkosi
inkululeko
inombolo
inoweyi
institute
int
intaliyane
international
intfo
inthanethi
invalid
inyama
inyanga
inyoka
inyoni
iol
iphindze
ipholandi
iphuthukezi
iprage
irashiya
iriphabhulikhi
iriphablikhi
iriphabliki
iromaniya
is
isayensi
isbn
ishayina
isiriya
iso
israyeli
iswideni
it
itfolakala
ithanzaniya
ithekhi
itopiya
its
iv
ivathikhi
iwebhusayithi
iwestoniya
iyalendi
iyandola
iyosithiya
iyukhureni
izambiya
izimbabhwe
j
ja
jackson
jacob
jalima
jama
james
jan
janet
january
januwari
japan
jazz
jean
jespersen
jesu
jikelele
jo
johannesburg
john
johnson
jonas
jones
jordaan
joseph
journal
jozi
july
june
justice
juta
k
ka
kabanti
kabili
kabusha
kadzeni
kahle
kaizer
kakhulu
kallenbach
kamhlaba
kancane
kangwane
kantsi
kanye
kanyenti
kapa
kazulu
ke
kekana
kenwyn
kenya
kepha
kezi
khashane
kho
kholwane
khona
khristu
khu
khumalo
ki
king
kingdom
kings
kluwer
km
know
known
ko
kodvwa
kodwa
koloni
komati
komatipoti
konkhe
ku
kuba
kubamba
kubangele
kubantfu
kubantfwana
kube
kubeleka
kubese
kubhala
kubili
kubita
kubitwa
kubo
kubomake
kubonakala
kubulala
kubulawa
kubuta
kucala
kuchaza
kudla
kudlala
kudzimate
kufa
kufaka
kufana
kufanele
kufika
kugcina
kugoma
kugula
kuhamba
kuhlala
kuhlanta
kuhlasela
kuhlela
kuhlolwa
kuhulumende
kukhanya
kukhipha
kukhishwa
kukhomba
kukhona
kukhula
kukhulelwa
kukhwehlela
kulabo
kulamanye
kulandzela
kulandzelwa
kulapho
kulelive
kulendzawo
kulesigodzi
kuletinye
kulinganiselwa
kulo
kulomunye
kulungisa
kulunywa
kulwa
kuma
kumbe
kumele
kunatsa
kune
kunene
kungaba
kungabi
kungafaka
kungahle
kungenwa
kunjalo
kunye
kupheka
kuphela
kuphindze
kuphuma
kusebenta
kusebentisa
kusetjentiswa
kushisa
kushiwo
kusho
kushona
kusitfupha
kusuka
kusukela
kusuleleka
kute
kutepolitiki
kutfola
kutfolakala
kutfolakale
kuthi
kutigidzi
kuto
kutsatfu
kutsatsa
kutse
kutsi
kutsiwa
kutsiwe
kuvala
kuvamise
kuvela
kuvikela
kuvikelwa
kuwo
kuya
kuyanconywa
kuyaye
kuye
kuyo
kuze
kwa
kwaba
kwababe
kwabe
kwabese
kwabo
kwacala
kwakha
kwakhe
kwalesifo
kwalo
kwaloko
kwaloku
kwase
kwate
kwatiwa
kwato
kwatsi
kwawo
kwayo
kwaze
kwazulu
kwe
kwebantfu
kwebukhosi
kwehla
kwekubeleka
kwekucala
kwekufa
kwekuphotfula
kwekushona
kwekutsi
kwelashwa
kwelilanga
kwema
kwemalanga
kwemaviki
kwemhlaba
kweminyaka
kwemnyaka
kwenta
kwenteka
kwenteke
kwentela
kwentelwe
kwentiwa
kwesibili
kwesikhatsi
kwesikhumba
kwesimo
kwesisu
kwetidzakamiva
kwetigidzi
kwetisu
l
la
laba
lababili
labadvumile
labadzala
labafana
labagulako
labahlala
labakhuluma
labalinganiselwa
labamhlophe
labamnyama
labane
labanesifo
labangaphansi
labangetulu
labangu
labantfu
labanye
labanyenti
labasemkhatsini
labasengotini
labasha
labashadene
labasulelekile
labatigidzi
labatsandzana
labavumako
labo
labotsibeni
lafana
lahlobile
lakangwane
lake
lakhe
lalinganiselwa
lalishumi
lama
lamabili
lamagama
lamakhulu
lamane
lamanye
lamanyenti
lamatsatfu
lambalwa
lamgabhi
lami
lamuhla
lancet
land
landaba
langa
langalibalele
langanga
lange
langu
language
languages
lanka
lapha
laphakeme
laphelele
laphindze
lapho
lasatfutfuka
lase
laseningizimu
laseswatini
lasihlanu
lasikhombisa
lasiphohlongo
lasitfupha
lasungulwa
latiwa
latsi
laude
law
layo
le
league
learning
lebalulekile
lebantfu
lebeyatiwa
lebitwa
lebombo
lehambisana
lehepatitis
leishmaniasis
lekucala
lelatiwa
leli
lelibandla
lelicala
lelicembu
lelidzala
leligama
leligciwane
leligede
lelikhulu
lelincane
lelinye
leliphakeme
lelisemkhatsini
lelisemtsetfweni
lelisetulu
lelisha
lelishumi
lelitfolakala
lelitsi
lelitwi
lelive
lema
lembuso
lemi
lemibi
lemibili
lemikhulu
leminye
leminyenti
lemnyama
lempi
lena
lendlu
lendzawo
lengemashumi
lengu
lenkhulu
lenkulu
lensha
lenye
lephakeme
lephalamende
lephindze
leprosy
lese
lesemkhatsini
leseningizimu
lesenyakatfo
lesi
lesibangelwa
lesibili
lesibitwa
lesidze
lesifo
lesigaba
lesihlanu
lesikhatsi
lesikhombisa
lesikhulu
lesincane
lesinyenti
lesiphilako
lesiphindze
lesiphohlongo
lesiteshi
lesitfupha
lesitsatfu
lesitsatselanako
lesive
lesotho
letehlukahlukene
letehlukene
letembangave
letfolakala
leti
letibalulekile
letibukene
letifana
letihlukene
letikhona
letilishumi
letimbili
letincane
letindzawo
letine
letingu
letinkhulu
letintsatfu
letinyawo
letinye
letinyenti
letiphatselene
letisemtsetfweni
letisitfupha
letitfolakala
letive
letiyimfica
leto
letsi
letsite
letta
lewis
leyakhulunywa
leyasungulwa
leyatiwa
leyenta
li
libandla
libanga
libe
liberia
libhayibheli
libhontjisi
libhuku
libito
licala
licembu
license
lidada
lidamu
lidolo
lidolobha
life
ligama
ligciwane
lihubo
lijaha
likati
like
likhodi
lilanga
lilunga
limburgs
limpopo
linani
line
linye
linyenti
liphindze
lishumi
lisiko
lisontfo
list
lisuselwa
live
livi
lizinga
ll
lo
lobaluleke
lobamba
lobufanako
local
localako
lofuna
loholwa
loko
loku
lokufaka
lokufanele
lokukhulu
lokungapheli
lokungenani
lokunye
lokunyenti
lokuphekwako
lokusha
lokusho
lokwaholela
lokwenta
lolusisekelo
lomahasha
lomawa
lomdvuna
lomdzala
lomfula
lomjovo
lomkhulu
lomncane
lomncintiswano
lomnyama
lomudze
lomuntfu
lomunye
lomusha
lona
london
long
lonkhe
lophindze
los
losebenta
lotsite
love
lowatiwa
lowveld
ltd
lu
lua
lubombo
ludvonga
lugu
luhlelo
luhlobo
lukholo
lulwimi
luphawu
luphiko
lusembogu
lusu
lutfo
lutsandvo
lv
lwa
lwakhe
lwandle
lwati
lwe
lwemculo
lwemitsi
lwenhlangano
lweplanethi
lwesibili
lwetemphilo
lweti
lwi
m
ma
maakond
mabasa
mabhuku
mabuza
madikizela
mafutseni
magama
magazine
mahatma
mahlangu
mahlokohla
main
major
majuda
make
makhosetive
management
mananga
mandela
manga
mantfombi
manti
manual
manzini
map
maponya
maputo
march
maria
martin
mase
maseru
maseyisini
mashele
mashiloane
masiko
massacre
masuka
matsanjeni
max
may
mayelana
mazimhaka
mba
mbabane
mbamba
mbandzeni
mbeki
mbo
mbombela
mbulu
mcgraw
mdluli
mdr
me
measles
medical
medicine
melika
melt
mengameli
meningitis
meningococcal
mentor
metropolitan
mfati
mg
mgazini
mgomfelweni
mhla
mhlaba
mhlabawonkhe
mhlabuhlangene
mhlaka
mhlawumbe
mhlume
mi
michael
microbiology
million
mine
misuzulu
mk
mkabayi
mkhari
mkhonto
ml
mlindazwe
mm
model
module
mofolo
mohamed
molefi
molelekwa
mondlane
mongameli
monk
mopoku
morning
mortality
moses
most
mother
movement
moya
mozambike
mozambiki
mozambique
mp
mpandze
mphala
mpharanyana
mpumalanga
mrs
msogwaba
mswati
mthethwa
mtsambama
mu
mugabe
mungu
municipality
muntfu
munye
murder
music
must
mutilation
my
mzilikazi
mzwandile
n
na
nabo
nako
nakubili
nakufika
nakunye
nalabanye
nalabo
nalamanye
naletinye
name
named
namuhla
nandi
nangabe
nangetulu
nanobe
nase
naseningizimu
natal
natali
nation
national
nations
nato
nature
nawo
nawukhulelwe
naye
nayo
ncwadzi
ndlela
ndlovu
ndlovukati
ndvunankulu
ndwandwe
ne
nebaculi
nebantfu
nederlands
nekutsi
nekwenta
nelicembu
nelive
nelson
nelubandlululo
nema
nemalungelo
nemangisi
nemanti
nemfula
nemiphumela
nemjovo
nemndeni
nemuntfu
nencindzetelo
nendzawo
neningizimu
nenkhosi
neonatal
nesifo
nesihlanu
nesiphohlongo
nesitfupha
net
netimphawu
netindzaba
network
new
news
ng
nga
ngabani
ngabe
ngabo
ngako
ngalesento
ngalesifo
ngalesikhatsi
ngalesinye
ngaleso
ngalo
ngaloko
ngalokuphelele
ngalokusemtsetfweni
ngaphambi
ngaphandle
ngaphansi
ngaphasi
ngase
ngasenyakatfo
ngaso
ngawo
ngaye
ngayo
ngci
ngcukaitobi
nge
ngebudze
ngebulili
ngebunyenti
ngekhatsi
ngekuba
ngekuhamba
ngekuhlehletela
ngekusebentisa
ngekushesha
ngekusho
ngekutfola
ngekutitsandzela
ngekutsi
ngekuya
ngekwe
ngekwelisiko
ngekwemlandvo
ngeligama
ngelilanga
ngelizinga
ngema
ngemakhilomitha
ngemandla
ngemanti
ngemaphesenti
ngembi
ngeminyaka
ngemnyaka
ngemsebenti
ngemuva
ngenca
ngendlela
ngenkani
ngenyanga
ngephasi
ngesi
ngesifo
ngesikhatsi
ngesingisi
ngesipanishi
ngesiswati
ngetifo
ngetikhatsi
ngetindlela
ngetintfo
ngetulu
ngi
ngiko
ngilandi
ngiso
ngiyo
ngo
ngoba
ngobe
ngobeni
ngongo
ngu
ngudzeni
nguhulumende
ngulapha
ngulapho
ngulenye
ngulesifo
ngulomunye
ngumake
ngumbuso
ngumculi
ngumdlali
ngumengameli
ngumholi
ngumjovo
ngumongameli
ngumuntfu
nguni
ngusihlalo
nguye
ngwane
ngwenyama
ngwenyamas
nhlaba
nhlalabantfu
nhlangano
ni
nichd
nih
nine
ningizimu
ninh
njalo
njani
nje
njenga
njenge
njengoba
njengobe
nkambule
nkhosi
nkhotfotjeni
nkhwekhwe
nkosi
nkulunkulu
nkwene
no
nobe
nogwaza
noma
non
north
northern
norway
nos
not
nov
novemba
november
novial
now
np
npdp
nshonalanga
ntfombi
nu
nxumalo
nyaka
nyakatfo
nyalo
nyanga
nyoni
o
obstetrics
october
of
official
oliphant
on
onchocerciasis
one
onke
onkhe
online
or
org
organization
original
otto
owl
oxford
p
pa
page
paper
paris
park
part
party
patrick
paul
pdf
peace
peak
people
person
perspectives
pertussis
phakathi
phakatsi
phambili
phansi
pheceleti
phela
phenduka
phi
philadelphia
phindze
phiri
php
physical
pib
plan
planning
pmc
pmid
pocket
politics
pop
population
port
portugal
portuguese
position
pp
practice
pregnancy
president
press
pretoria
prevention
price
prinsloo
prior
program
programme
project
provided
province
pt
pub
public
publique
q
queen
r
rabies
radebe
radio
radoje
railway
ramaphosa
rand
rashi
ray
raymond
rd
rdp
re
rec
record
red
ref
references
refs
region
regional
report
reproductive
repu
republic
republika
research
reserve
retrieved
review
reviews
rhodes
ri
richard
rights
rio
river
rivers
robert
rock
royal
ru
ruth
ruto
rwanda
s
sa
sabcnews
sagawa
saharan
sahistory
saint
sakhe
sakhiwo
sam
samake
san
sandla
sandra
sangasese
sase
satiwe
saunders
sawubona
sayo
school
scotland
se
search
sebantfu
sebukhosi
second
see
sekhukhune
sekuba
sekucala
selibandlululo
semaswati
semazulu
semhlaba
semoya
semphilo
semtsetfweni
sento
senzangakhona
september
sesibili
sesifuba
sex
sezulu
shah
shaka
sheet
shela
shiselweni
si
sib
sibalo
sibe
sibhunu
sibonelo
sibongo
sibusiso
sicalo
sicelo
sichoza
sierra
sifo
sifuba
sifundza
sigaba
sigananda
sigcineni
sigodlo
sigwe
sihlenge
sikelel
sikhatsi
sikhumba
sikhundla
sikolo
sikolwa
silovakhi
siloveni
silwane
simakadze
simelane
simemetelo
simo
sindebele
singisi
sipanishi
sipedi
sipeyini
siphindze
sir
sisekelo
sishayamtsetfo
sisu
sisulu
siswati
site
siteki
sitfo
sitswana
sivamise
sive
sizulu
sizwe
slovo
smith
so
sobhuza
social
society
solomon
somalia
some
somhlolo
somntongo
sopolitiki
soshangane
sotho
south
southafrica
southern
sowetanlive
soweto
sp
spanish
species
specific
ss
st
state
states
statoids
steve
story
stub
studies
studio
study
su
sub
sudan
swatini
swazi
swaziland
swiss
switzerland
swizalendi
system
systematic
sz
t
ta
taba
tag
taiwa
takadzeni
takhe
takhiwo
takhona
taliya
talk
tananas
tandla
tanzania
tase
tavelonkhe
tawo
tayo
tb
te
tebantfu
tekucala
tekulapha
teluhlobo
temalangeni
temaswati
tembuso
temhlaba
template
temtimba
temtsetfo
tenkhosi
tepolitiki
text
tfu
tfwala
th
that
the
therapy
they
this
thomas
thwala
ti
tiba
tibalo
tibati
tibongo
tibuse
tifaka
tifo
tifundvo
tifundza
tigaba
tigidzi
tihlenge
tikhali
tikhundla
tilishumi
tilwane
tilwimi
tim
timali
timbuzulwane
times
timfundvo
timila
timphawu
tin
tinanatelo
tincenye
tindiza
tindlela
tindlu
tindzaba
tindzawo
tingafaka
tingemashumi
tingoma
tinhlelo
tinhlobo
tinkhanyeti
tinkhinga
tinkhomo
tinkondlo
tinsita
tintfo
tintfombi
tintsaba
tinyanga
tinyoni
tiphindze
title
tivamise
tive
tjc
to
tom
tonke
tonkhe
tony
topic
topics
torah
town
transmission
travel
treatment
tree
trinidad
trunz
trust
tsa
tshanda
tsine
tsite
tu
tuberculosis
tv
tz
u
uba
ube
ubese
ubita
ubitwa
udla
uetersen
uganda
uhuru
uk
um
uma
umbuso
umchamo
umculo
umengameli
umfati
umfula
umgwenya
umhlaba
umhlanga
umholi
umjovo
umkhonto
umklomelo
umlandvo
umndeni
umngani
umntfwana
umntfwanenkhosi
umnyaka
umphakatsi
umsebenti
umtfombo
umtimba
umtsetfo
umuntfu
umutsi
un
undp
unicef
union
unisa
unita
united
university
update
uphindze
us
usa
usd
use
usebenta
usebente
used
ushone
usmith
usuku
usuthu
utalwa
utfole
utsi
uyadzela
uyise
v
vaccine
vaccines
vaka
values
van
vana
velonkhe
virus
viruses
vusweni
w
wa
waba
wabamba
wabekwa
wabese
wabo
wabona
waboshwa
wabulawa
wacala
wachubeka
wadlala
wafa
wafaka
wafundza
wagcina
wahlangana
wahola
wajackoyah
wajoyina
wakha
wakhe
wakhetfwa
wakho
wakhona
wakhuluma
walibuka
walus
wamemetela
wanga
wangena
wango
waphindze
waphotfula
war
was
wase
wasebenta
wasekenya
wasemelika
waseningizimu
wasepoland
waseveni
washada
washiya
washona
watalelwa
watalwa
watch
water
waterford
watfola
watiwa
watsatsa
watsi
waya
wayiva
wayo
we
weafri
weashiya
web
webantfu
website
webukhosi
weekly
wehepatitis
weinstein
wekucala
welibandlululo
welicembu
welive
welubandlululo
wema
wemafilimu
wemamitha
wemasotja
wembuso
wemelika
wemuntfu
wena
weningizimu
wenkhosi
wenta
wesibili
wesikhashana
wesintfu
wesitsatfu
wesive
wesizwe
west
western
weswatini
wetfu
weyurophu
what
white
who
whooping
why
wikipedia
wikispecies
wiktionary
wilkins
will
william
williams
window
wirathu
with
witwatersrand
wkly
women
wona
wonke
wonkhe
woodard
world
worldwide
www
x
xh
y
ya
yaba
yabese
yabo
yacala
yakangwane
yakhe
yakhipha
yakho
yakhotsama
yalo
yanga
yangabo
yase
yaseningizimu
yaso
yasungulwa
yatfola
yatiwe
yato
yayo
ye
years
yebantfu
yebhimbi
yebukhosi
yedistrict
yehla
yei
yeimiphakatsi
yeiningizimu
yekubeleka
yekucala
yekutsi
yelinyenti
yelishumi
yelive
yelubombo
yema
yemangisi
yembuso
yemhlaba
yemnyaka
yena
yeningizimu
yenkosi
yenta
yentiwa
yenyoni
yesibili
yesive
yeswatini
yetemphilo
yetfu
yetinkhundla
yi
yimphumelelo
yindlela
yindvuna
yindzawo
yinkhosi
yintfo
yinye
yleseningizimu
yona
yonke
yonkhe
york
you
z
za
zambia
zar
zika
zimbabwe
zombodze
zondo
zu
zulu
zuma
zwelithini
{
|
}
~
§
«
°
²
·
º
»
ʾ
ʿ
ˈ
ː
̀
́
̂
̃
̄
̆
̇
̈
̉
̌
̛
̣
̦
̧
и
ִ
ַ
ָ
א
י
ל
ש
ا
الا
بلادي
بن
ة
د
ر
ل
م
ن
َ
ُ
ِ
ّ
ْ
ٓ
ٔ
ٕ
ހ
އ
މ
ދ
ަ
ާ
ި
ު
ެ
ް
प
भ
ा
े
्
দ
শ
া
ে
க
ச
ட
ன
ா
ி
ு
ெ
ே
ை
்
ක
ට
ද
න
ර
ල
ශ
ස
්
ා
ි
ී
ු
ෙ
ั
ิ
ุ
์
ນ
ບ
ັ
ົ
་
ག
ཕ
མ
ར
ལ
ི
ུ
ེ
ྱ
ជ
ន
ព
រ
ា
ុ
្
‎
–
—
‘
’
“
”
†
′
″
⁄
↔
↷
③
④
⑦
☉
♂
✖
⯓
⺀
⺄
⺆
⺈
⺊
⺌
⺕
⺝
⺸
⺼
⿰
⿱
⿲
⿳
⿴
⿵
⿶
⿷
⿸
⿹
⿺
⿻
〢
コ
ユ
㇁
㇂
㇄
㇇
㇈
㇉
㇓
㐁
㐄
㐅
㐌
㐫
㐬
㐭
㐮
㐱
㑒
㒵
㒸
㒼
㓁
㓞
㔾
㕛
㕣
㖾
㘝
㚅
㚇
㚔
㚘
㝉
㝡
㝴
㝵
㞋
㞢
㞷
㠩
㠭
㠯
㡀
㡭
㡿
㢲
㢴
㣇
㣺
㥯
㪅
㫄
㫐
㫒
㫺
㬅
㬎
㬥
㬰
㲋
㳄
㷠
㸒
㸚
㸦
㼌
㼲
㽞
㿟
䀠
䂞
䍃
䏍
䒑
䖍
䖒
䖝
䖵
䙴
䚻
䜌
䝿
䡛
䧹
䪞
一
丁
丂
七
丄
丅
丆
万
丈
三
上
下
丌
不
与
丏
丐
丑
专
且
丕
世
丘
丙
业
东
丞
丢
丣
两
严
並
丨
丩
个
丫
丬
中
丮
丰
丱
串
丵
丶
丷
丸
丹
为
主
丽
丿
乀
乂
乃
久
乆
乇
么
义
之
乌
乍
乎
乏
乐
乑
乔
乖
乗
乘
乙
乚
乛
乜
九
乞
也
习
乡
乳
乾
亀
亅
了
亇
予
争
事
二
亍
于
亏
亐
云
互
亓
五
井
亘
亚
亜
亞
亟
亠
亡
亢
交
亥
亦
产
亨
亩
享
京
亭
亮
亯
亰
亲
亳
亶
亷
人
亻
亼
亾
仁
今
介
仌
从
仐
仑
仒
仓
仕
他
付
仝
代
令
以
任
企
伊
伏
伐
休
会
伯
但
位
何
佘
余
作
佥
使
來
侈
侌
侖
侯
侵
便
保
俞
信
修
倉
倍
候
倠
備
僉
僕
儿
兀
允
兂
元
兄
充
兆
兇
先
光
兊
克
兌
免
兑
兒
兓
兔
党
兜
兟
入
全
兩
兪
八
公
六
兮
兰
共
关
兵
其
具
典
兹
兼
冀
冂
冃
冄
内
冈
冉
冊
冋
册
再
冎
冏
冐
冒
冓
冖
冗
冘
军
农
冝
冡
冥
冫
冬
冷
几
凡
凢
凵
凶
凷
凸
凹
出
函
凾
刀
刁
刂
刃
刄
刅
分
切
刍
刑
刕
刖
列
刘
则
初
別
利
别
到
制
刺
則
削
剌
前
剡
剽
劉
力
功
加
劦
助
劫
劳
劵
勃
勇
勉
勒
動
務
勞
勤
勹
勺
勻
勾
勿
匀
匂
包
匆
匈
匊
匋
匍
匕
化
北
匚
匝
匡
匪
匱
匸
匹
区
医
匽
匿
區
十
卂
千
卄
卅
卆
升
午
卉
半
卌
华
卑
卒
卓
单
卖
南
卜
卝
卞
占
卡
卢
卣
卤
卦
卩
卪
卬
卯
印
危
即
却
卵
卷
卸
卻
厂
厃
厄
历
厈
厉
厌
厓
厘
厚
原
厤
厥
厨
厭
厲
厶
厷
厸
去
厼
厽
叀
参
參
叅
又
叉
及
友
双
反
叐
发
叒
叔
叕
取
受
叚
叜
叟
口
古
句
另
叩
只
召
可
台
叱
史
右
叵
号
司
叹
吂
各
吅
合
吉
吊
吋
同
名
后
吏
向
吕
君
吝
吞
否
含
启
吳
吴
吹
吾
呂
呆
呈
告
员
呙
周
命
咅
和
咎
咠
咢
咨
咸
咼
哀
品
哉
員
哥
哲
唐
商
啇
問
啚
啬
啻
善
喜
喬
單
喿
嗇
噩
嚴
囊
囗
囘
囙
囚
四
回
囟
因
囧
囬
困
囱
囷
固
国
圂
圅
國
圍
圓
土
圡
圣
圥
在
圭
地
圶
圼
坐
坒
坚
坴
垂
垔
垚
埀
埋
埶
執
基
堂
堅
堆
堇
堯
塞
墨
壘
士
壬
壯
声
壳
壴
壹
壺
壽
夂
处
夅
夆
备
夊
夋
夌
复
夏
夒
夕
外
夗
夘
多
夜
夢
大
夨
天
太
夫
夬
夭
央
失
夲
头
夷
夸
夹
夻
夾
奂
奄
奇
奈
奉
奎
奏
奐
契
奓
奔
奚
奞
奠
奢
奥
奭
女
奴
奻
好
如
妄
妙
妟
妥
妻
妾
姑
委
姜
威
娄
婁
婴
嬰
嬴
子
孑
孔
孕
孖
字
存
孚
孛
孝
孟
季
孤
学
孫
孱
學
宀
宁
宂
它
宅
宇
守
安
宋
完
宏
宓
宗
官
定
宛
宜
宝
客
宣
室
宮
宰
害
家
容
宾
宿
寄
寅
密
富
寒
察
寧
審
寫
寬
寮
寸
对
寺
寻
寽
対
寿
封
尃
射
将
將
專
尉
尊
尋
尌
對
小
少
尒
尓
尔
尖
尗
尚
尞
尢
尣
尤
尧
尨
尭
就
尸
尹
尺
尻
尼
尽
尾
尿
局
居
屈
屋
屎
屏
屑
展
屖
屚
属
屠
屡
屬
屮
屯
屰
山
屵
屾
岁
岂
岑
岡
岩
岳
岸
峯
島
崇
崑
崔
崖
崙
崩
嵬
嶲
巂
巛
川
州
巟
巠
巢
巤
工
左
巧
巨
巩
巫
差
己
已
巳
巴
巷
巸
巽
巾
巿
帀
市
布
希
帚
帛
帝
带
師
席
帶
常
干
平
年
幵
并
幷
幸
幺
幻
幼
幽
幾
广
広
庄
床
底
店
庚
府
度
庫
庭
庶
康
庸
廉
廌
廛
廣
廩
廴
延
廷
建
廾
廿
开
弁
弃
弄
弇
弋
式
弓
弔
引
弗
弘
弜
弟
弥
弦
弱
張
強
强
彊
彌
彎
彐
彑
当
彔
录
彖
彗
彡
形
彥
彦
彧
彭
彳
役
彼
往
待
律
徒
得
徙
從
復
微
徵
心
忄
必
忌
忍
志
忝
忠
忩
快
念
忽
忿
思
怠
急
怱
恆
恒
恩
恭
息
悉
患
悤
悲
悶
惠
惡
惢
愁
愈
意
愛
感
慈
慧
慮
憂
憲
應
戀
戈
戉
戊
戋
戌
戍
戎
成
我
戒
戔
或
戚
戠
戢
截
戲
戶
户
戹
戼
戾
房
所
扁
扇
手
扌
才
打
托
执
承
折
拉
拜
拿
掌
推
提
摩
支
攴
攵
收
攸
改
放
政
敄
敏
敕
敖
敗
敝
敞
敢
散
敦
敫
敬
数
敷
數
斂
文
斉
斊
斗
斤
斥
斩
斬
斯
新
方
於
施
斿
旁
旋
族
无
旡
既
旣
日
旦
旧
旨
早
旬
旱
旲
时
旾
昆
昇
昌
昍
明
昏
易
昔
昗
昜
星
春
昬
是
昱
昴
昷
時
晃
晋
晏
普
景
晶
智
暑
暴
曇
曩
曰
曲
曳
更
曷
書
曹
曼
曾
替
最
朁
會
月
有
朋
服
朔
朕
朗
望
朝
木
朩
未
末
本
札
朮
术
朱
朵
朶
朿
杀
李
杏
杜
束
条
来
東
杲
杳
松
析
林
枚
果
枝
枲
枼
某
柔
查
柬
柰
柴
栗
桀
桑
桼
梁
條
梟
梨
棘
棠
棥
森
楚
業
楽
榮
樂
樊
欠
次
欣
欮
欲
欶
欽
款
歆
歇
歛
止
正
此
步
武
歨
歪
歮
歯
歰
歲
歴
歷
歸
歹
歺
死
殳
段
殷
殸
殹
殺
殻
殿
毋
毌
母
每
毒
比
毕
毚
毛
毳
氏
氐
民
气
氣
水
氵
氶
氷
永
氺
氾
求
汝
汞
江
沃
沓
沙
沝
泉
法
波
泣
泥
泰
洛
洪
活
派
流
浦
浪
浮
淡
淮
清
渚
渠
湯
滿
漸
火
灬
灭
灰
灵
灷
炅
炎
炏
炗
炙
炭
為
烈
烏
烝
焉
無
焦
焱
然
煞
熊
熏
燕
營
燮
爪
爫
爭
爯
爰
爱
爲
爵
父
爻
爽
爾
爿
片
牙
牚
牛
牜
牟
牢
牧
牪
牽
犀
犬
犭
犮
狂
狄
狊
独
狺
猋
猒
猪
献
獻
玄
率
玉
王
玟
玨
珎
班
琴
瑟
瑩
瓜
瓦
甘
甚
生
産
用
甫
甬
田
由
甲
申
电
甶
男
甸
甹
画
甾
畀
界
畏
畐
留
畜
畟
畢
畧
畨
番
畫
異
畱
當
畺
畾
疊
疋
疌
疑
疒
疾
癶
癸
癹
登
發
白
百
皀
皃
的
皆
皇
皋
皐
皕
皮
皷
皿
盃
盆
盇
盈
益
盍
盎
监
盒
盖
盛
盡
監
盤
盧
目
直
相
盾
省
眇
眉
看
眔
眞
真
眷
眼
眾
着
睘
睪
睿
瞏
瞢
瞿
矍
矛
矞
矢
矣
知
矦
短
石
破
碎
磊
磨
示
礻
礼
祟
票
祭
禀
禁
禸
禹
禺
离
禽
禾
禿
秀
秃
秉
秋
科
秝
秦
移
稟
穀
穌
穴
究
穹
空
穿
突
窄
窒
立
竒
竜
竝
竟
章
童
竹
笑
笠
筆
等
答
箕
算
箴
節
篤
篭
米
粉
粛
粟
粤
粦
粲
糞
糸
糹
系
約
納
素
索
紫
累
細
絜
絫
絲
維
綿
縣
繇
纍
纟
缶
网
罒
罔
罕
罗
罙
罡
罢
罪
署
罷
羅
羊
羌
羍
美
羔
羕
羗
羞
羡
羣
群
義
羲
羸
羽
翁
翏
習
翕
翟
翠
翼
老
耂
考
者
耆
而
耎
耑
耒
耳
耴
耶
耷
聂
聊
聖
聚
聶
聿
肀
肃
肅
肉
肖
肙
肥
肩
肯
育
肴
胃
背
胡
胥
能
脊
脩
膚
臣
臤
臧
自
臬
臭
臯
臱
至
致
臺
臼
臽
臾
臿
舀
舂
舄
與
興
舉
舌
舍
舛
舜
舞
舟
般
艮
良
色
艸
艹
艾
芒
芔
芬
芮
花
芳
芺
芻
苔
苗
苟
若
苦
英
茶
茸
荅
草
荒
荣
荼
莆
莧
莫
莽
菆
菊
菐
華
萬
落
葉
著
葛
董
葵
蒙
蒦
蒼
蓋
蓬
蓺
蔑
蔡
蕉
蕭
薄
薛
薦
薰
藍
藏
藥
蘭
虍
虎
虐
虒
虔
處
虖
虗
虘
虚
虛
虜
虞
虫
虽
蚤
蚩
蜀
蜜
蟲
蠡
血
行
衍
衛
衣
衤
表
衮
衰
袁
袞
褭
褱
襄
襾
西
覀
要
覃
見
規
覓
覧
親
覽
见
角
解
言
訁
訇
計
詹
誩
諸
讠
谷
豆
豈
豊
豐
豕
豖
豙
象
豦
豩
豪
豸
貇
貝
貞
貟
負
貢
貧
貪
貫
責
貳
貴
買
費
賁
資
賈
賏
賓
賔
賛
賞
賢
賣
質
賴
贊
贝
贡
责
贯
贲
贵
赖
赞
赤
赦
走
越
足
路
蹇
身
躬
車
軍
軎
軟
輦
车
辛
辜
辟
辥
辰
辱
農
辵
辶
边
达
过
近
连
迷
追
退
送
逆
逐
通
速
造
逢
連
逮
進
遀
遂
過
道
達
遣
適
遷
遺
邊
邑
邕
那
邦
邪
郎
部
郭
都
鄉
酉
酋
配
酓
釆
采
里
重
野
量
金
釒
錢
钅
長
镸
长
門
閃
閉
開
閏
閑
閒
間
閔
閵
閻
闌
门
间
闷
阑
阜
阝
阿
降
陳
隆
隊
隋
隡
隨
隱
隶
隹
隺
隻
隼
隽
难
雀
雁
集
雈
雋
雍
雐
雔
雙
雚
雜
雝
離
難
雨
雩
雪
雲
零
雷
需
霍
霜
霝
霞
霸
靈
靑
青
非
靡
面
靣
革
韋
韦
韭
韯
韱
音
頁
頃
項
須
頗
頡
頻
顛
页
風
风
飛
飞
食
飠
養
饣
首
香
馬
馮
駦
马
骨
高
髟
鬥
鬯
鬲
鬼
魚
魯
鮮
鱼
鲁
鳥
鳳
鸟
鹵
鹿
麃
麗
麥
麦
麻
黃
黄
黍
黎
黑
黒
黨
黹
黽
黾
鼎
鼓
鼠
鼻
齊
齋
齐
齒
齿
龍
龙
龜
龟
龠
龰
龱
龴
龵
龶
龷
龸
龹
者
艹
﻿
？
🜨
𠀁
𠀃
𠀆
𠀉
𠀎
𠀐
𠁁
𠁣
𠂆
𠂇
𠂈
𠂉
𠂊
𠂋
𠂎
𠂒
𠂔
𠂛
𠂡
𠂢
𠂤
𠂬
𠂭
𠂹
𠃊
𠃋
𠃌
𠃍
𠃎
𠃑
𠃓
𠃔
𠃜
𠄌
𠄎
𠄠
𠄢
𠆢
𠆥
𠇍
𠈌
𠌵
𠓜
𠔉
𠔥
𠔼
𠔽
𠔿
𠕀
𠕁
𠕋
𠘧
𠘨
𠙻
𠙼
𠚏
𠚒
𠚤
𠚪
𠣏
𠤎
𠤕
𠥓
𠦄
𠦑
𠦝
𠧒
𠧗
𠧪
𠩺
𠪚
𠫓
𠫔
𠫤
𠬛
𠬝
𠬞
𠬢
𠬤
𠬶
𠮛
𠮦
𠮷
𠯑
𠱠
𠳮
𠷎
𡈼
𡉀
𡉵
𡌥
𡍮
𡏳
𡕒
𡕩
𡕰
𡖅
𡗗
𡗜
𡘆
𡘤
𡧱
𡨄
𡩧
𡬠
𡭽
𡰣
𡰥
𡰪
𡰯
𡰱
𡷈
𡸁
𡿨
𡿩
𡿪
𡿺
𢀖
𢀛
𢀩
𢁙
𢆉
𢆰
𢆶
𢇁
𢇇
𢉖
𢌬
𢌿
𢏚
𢑑
𢑚
𢖻
𢙣
𢛳
𢦏
𢦒
𢧵
𢼄
𢾕
𣁋
𣄼
𣅀
𣅽
𣍘
𣎳
𣎵
𣏋
𣏼
𣗥
𣥂
𣥖
𣦵
𣦼
𣧄
𣪊
𣪠
𣬉
𣳾
𣶒
𤇾
𤊽
𤐫
𤓰
𤔔
𤕨
𤣩
𤰇
𤰔
𤰞
𤴓
𤴔
𤽄
𥁑
𥁕
𥃦
𥃩
𥃭
𥇡
𥑟
𥘅
𥘈
𥝢
𥫗
𥱡
𦈢
𦉪
𦉬
𦉼
𦍌
𦍒
𦎧
𦐇
𦓔
𦔮
𦘒
𦙃
𦚏
𦣝
𦣞
𦣻
𦥑
𦥔
𦥯
𦨉
𦭝
𦰩
𧆞
𧈧
𧘇
𧰨
𧴪
𧴮
𧵩
𧾷
𨸏
𨾴
𩙿
𩠐
𩫏
𩵋
𪉷
𪜀
𪟽
𪠲
𪩲
𫇦
𫔭
𫜸
𫝀
𫠣
𫠩
𫢉
𫥞
𫩏
𫩠
𫪡
𫲽
𫶧
𬀷
𬐘
𬗌
𬙙
𬛸
𬜯
𬟩
𬯁
𬴘
𬺻
𬼉
𬼖
𭀰
𭁈
𭁨
𭅰
𭑈
𭕄
𭗼
𭤨
𭥫
𭻾
𮅕
𮊿
𮍌
𮍏
𮓗
𮥼
𮧮
廾
𰀁
𰀄
𰀈
𰀉
𰀕
𰀠
𰀡
𰀢
𰀪
𰁜
𰃮
𰆊
𰆘
𰋙
𰕎
𰢴
𰧭
𰯲
00--
14--
15--
16--
17--
18--
19--
20--
5--
6--
7--
8--
9--
978--
a--
abe--
ac--
ad--
af--
afa--
afg--
air--
aku--
al--
alex--
am--
an--
ang--
angap--
aph--
ar--
as--
ash--
at--
au--
av--
b--
ba--
bab--
bah--
baka--
ban--
bap--
bar--
basu--
batfo--
be--
beba--
beka--
beku--
beli--
ben--
ber--
besi--
bet--
bi--
bo--
br--
bu--
bur--
bus--
c--
ca--
cap--
cen--
ch--
che--
chi--
cla--
co--
cr--
cri--
cro--
d--
de--
der--
di--
dis--
div--
do--
e--
eba--
ed--
eff--
el--
elec--
ema--
emi--
emp--
empha--
en--
eng--
es--
esi--
et--
eti--
etin--
etj--
ev--
ez--
ezin--
f--
fa--
feder--
fi--
fo--
fr--
fu--
g--
ge--
ger--
gi--
go--
gri--
gwa--
h--
ha--
hand--
he--
her--
hla--
hle--
hlo--
ho--
hon--
hu--
i--
ibhe--
ig--
ikha--
im--
imbu--
imi--
imo--
in--
inc--
ind--
ing--
inh--
int--
ip--
ir--
iru--
is--
ishi--
isi--
it--
iv--
iz--
j--
jes--
jo--
ju--
k--
ka--
kag--
kama--
kan--
ke--
ken--
kha--
ki--
ko--
ku--
kub--
kuch--
kuh--
kuhlu--
kulo--
kun--
kuni--
kuphum--
kus--
kusa--
kuse--
kuv--
kwa--
kwe--
kweku--
kwem--
l--
la--
lab--
laba--
lase--
le--
lebe--
lebeti--
lefa--
lehlu--
leli--
lelise--
len--
lend--
lesi--
leta--
leti--
lev--
li--
lig--
lih--
lik--
lin--
lis--
lit--
lithu--
lo--
lob--
lobe--
lobeka--
loku--
lolu--
lon--
los--
lou--
lu--
lub--
lud--
luh--
lusi--
lwa--
lwe--
m--
ma--
mad--
mah--
mak--
mal--
man--
mang--
mas--
me--
mem--
mi--
mkh--
mkhu--
mnya--
mo--
mon--
mos--
moun--
mp--
mu--
mul--
mus--
n--
na--
naku--
ne--
neku--
nemi--
nesi--
net--
nga--
ngalo--
nge--
ngema--
ngu--
ni--
njenge--
nka--
no--
num--
o--
or--
outb--
ov--
p--
pa--
pe--
pi--
pictu--
po--
preven--
pri--
pro--
profi--
pu--
r--
ra--
re--
rev--
ri--
ro--
ru--
s--
sa--
sakhi--
sase--
scre--
se--
seku--
sem--
sh--
sho--
si--
sig--
sih--
sin--
sitsa--
so--
sp--
st--
stat--
str--
struc--
su--
sugge--
t--
ta--
tase--
tax--
te--
teku--
tem--
tema--
ten--
th--
the--
ti--
tib--
tica--
tig--
tih--
tik--
tin--
tinh--
tinhla--
tiv--
to--
tshwa--
tu--
u--
uca--
uh--
uhlo--
uk--
uku--
um--
umg--
umh--
umk--
umo--
ump--
ums--
umtf--
umu--
un--
ung--
ungu--
uni--
us--
uv--
v--
vi--
vic--
w--
wa--
wab--
wabu--
wah--
wal--
wani--
wase--
we--
wem--
wen--
wesi--
wi--
x--
ya--
yase--
ye--
yeh--
yeku--
yekub--
yem--
yen--
yesi--
yete--
yi--
yin--
yindvod--
yinh--
z--
zi--
ا--
--0
--1
--2
--3
--4
--5
--59
--6
--7
--77
--8
--87
--9
--a
--ah
--ak
--al
--ala
--am
--an
--ana
--ane
--ary
--ate
--atfu
--aya
--azil
--b
--ba
--bane
--be
--beni
--benta
--benti
--benzi
--bha
--bhanya
--bhola
--bhuku
--bhunu
--bi
--bili
--bitwa
--bo
--bu
--butfo
--buye
--c
--ca
--ce
--cembu
--ch
--chaza
--cillary
--ciwi
--ck
--co
--ct
--cted
--cwadzi
--cy
--d
--da
--de
--di
--dlalo
--ds
--dvo
--dy
--dza
--dze
--dzi
--e
--ed
--eka
--el
--ela
--ele
--eli
--elo
--en
--ence
--ene
--eni
--ent
--er
--ers
--es
--ey
--f
--fa
--fe
--fika
--fo
--fu
--fundza
--g
--ga
--gama
--gciwane
--ge
--geli
--gi
--gical
--gidzi
--go
--graha
--gs
--gu
--gwenya
--gy
--h
--heid
--hela
--hi
--hilo
--hini
--hla
--hlakalo
--hle
--hlukana
--ho
--ht
--hu
--hwa
--i
--ia
--ic
--ie
--ief
--ies
--ifo
--in
--ina
--indzi
--ing
--ini
--ins
--ion
--ions
--ir
--is
--isa
--ise
--it
--ities
--ive
--iya
--ja
--ji
--juda
--jwa
--k
--ka
--kako
--kala
--kati
--katsi
--kazi
--ke
--kela
--kene
--kha
--khaya
--khi
--khilomitha
--khiwa
--khosi
--ki
--kile
--ko
--ks
--ku
--kuhlindvwa
--kwa
--l
--la
--lala
--le
--leka
--lela
--lelwa
--lem
--leni
--li
--lidosi
--linganiselwa
--liso
--lo
--logy
--lu
--lulo
--luma
--lumo
--lunga
--lungelo
--lunywa
--lwa
--lweni
--ly
--m
--ma
--makhaya
--man
--mandla
--mbalwa
--mbe
--mbi
--mbisa
--mbo
--mbu
--mbule
--me
--mele
--meni
--menta
--mfula
--mi
--mjovo
--mmeli
--mntfwana
--mo
--mphawu
--msebenti
--mtsetfo
--mu
--n
--na
--ncane
--nce
--nd
--nda
--ndla
--ndle
--ndleni
--ndlo
--nds
--ndvo
--ndvwa
--ndza
--ndzakanya
--ndze
--ndzeni
--ndzi
--ndzisa
--ne
--neni
--ng
--nga
--ngaba
--ngati
--ngcondvo
--nge
--ngela
--ngelwa
--ngeni
--ngisi
--ngu
--ngwini
--ni
--nia
--nisa
--nk
--nn
--no
--ns
--nt
--nta
--nte
--ntfo
--nti
--ntiwe
--nts
--nu
--ny
--nya
--nyane
--nye
--nyo
--nywa
--o
--od
--ok
--okha
--on
--ons
--or
--ors
--os
--ous
--p
--pha
--phe
--phesenti
--philako
--r
--ra
--rabi
--ration
--re
--ria
--rm
--rn
--ro
--rs
--rt
--rvey
--ry
--s
--sa
--se
--sebenta
--sh
--sha
--shi
--shisako
--sho
--shumi
--shwa
--si
--siko
--sk
--so
--solo
--ss
--st
--ster
--stry
--stu
--suleleka
--swa
--swati
--t
--ta
--tane
--te
--ted
--ter
--tfo
--tfolakala
--tfu
--tfwa
--tfwe
--tha
--thi
--ti
--timela
--tion
--tiswe
--tiwe
--tje
--tjentiswa
--tjwa
--to
--tor
--tory
--ts
--tsatfu
--tsatsa
--tse
--tseka
--tsela
--tsi
--tulu
--twa
--ty
--u
--ubo
--uce
--ue
--ul
--ula
--um
--ur
--ure
--us
--v
--va
--ve
--vi
--viki
--vo
--vu
--w
--wa
--we
--wele
--weni
--wo
--wu
--x
--y
--ya
--ye
--yi
--yn
--yo
--ys
--z
--za
--zane
--ze
--zela
--zelako
--zi
--zini
--zwa
