!
"
#
##0
##1
##10
##11
##12
##13
##14
##15
##16
##17
##18
##19
##2
##20
##21
##22
##23
##24
##25
##26
##27
##28
##29
##3
##30
##31
##32
##33
##34
##35
##36
##37
##38
##39
##4
##40
##41
##42
##43
##44
##45
##46
##47
##48
##49
##5
##50
##51
##52
##53
##54
##55
##56
##57
##58
##59
##6
##60
##61
##62
##63
##64
##65
##66
##67
##68
##69
##7
##70
##71
##72
##73
##74
##75
##76
##77
##78
##79
##8
##80
##81
##82
##83
##84
##85
##86
##87
##88
##89
##9
##90
##91
##92
##93
##94
##95
##96
##97
##98
##99
$
%
&
'
(
)
*
+
,
-
.
/
0
00
000
01
02
03
04
05
055
06
0666666667
07
08
0833333333
08333333333
09
1
10
100
1000
101
1012
1018
102
1024
103
104
1045
1049
105
1054
106
1061
107
1076
108
1085
109
11
110
1100
111
112
1127
113
114
115
116
1162
1166666667
117
118
119
1190
12
120
1200
1203
1204
121
1216
122
1223
123
1234
124
1244
1246
1248
125
1250
1253
1254
1256
126
127
1276
1279
128
1280
129
1296
1297
1299
13
130
1300
1301
1303
1304
131
1315
132
133
134
135
1350
1353
1356
136
137
1374
1375
138
139
14
140
1400
1401
1404
141
1417
142
143
144
145
1450
1458
146
147
1475
1477
1480
1483
1484
149
1490
1492
15
150
1500
1503
1506
1509
151
1510
1516
1517
1519
152
1522
153
1530
1532
154
1540
1541
1543
155
1550
1554
1555
1556
156
157
1572
1573
1574
1575
1576
1577
158
1584
1585
1586
159
1590
1599
16
160
1600
1602
1604
1609
161
1612
1613
1616
1619
162
1620
1621
1622
1623
1625
163
1632
164
1640
1643
1647
1648
1649
165
1650
1655
166
1660
1664
1667
1668
1669
167
1671
1672
1673
1675
1676
168
1682
1689
169
17
170
1700
1701
1709
171
172
1722
1727
173
1735
1737
1738
174
1740
1747
1748
175
1750
1753
1754
1755
1756
1758
176
1763
1767
1768
1769
177
1770
1774
1775
1776
1779
178
1781
1783
1787
1788
1789
179
1790
1791
1792
1794
1795
1796
1798
18
180
1800
1801
1803
1804
1805
1806
1807
1808
1809
181
1810
1811
1812
1813
1814
1815
1816
1817
1818
182
1820
1821
1822
1823
1824
1825
1827
1828
1829
183
1830
1831
1832
1833
1833333333
1834
1835
1836
1837
1838
1839
184
1840
1841
1842
1843
1844
1845
1846
1847
1848
1849
185
1850
1851
1852
1853
1854
1855
1856
1857
1858
1859
186
1860
1861
1862
1863
1864
1865
1866
1867
1868
1869
187
1870
1871
1872
1873
1874
1875
1876
1877
1878
1879
188
1880
1881
1882
1883
1884
1885
1886
1887
1888
1889
189
1890
1891
1892
1893
1894
1895
1896
1897
1898
1899
19
190
1900
1901
1902
1903
1904
1905
1906
1907
1908
1909
191
1910
1911
1912
1913
1914
1915
1916
1917
1918
1919
192
1920
1921
1922
1923
1924
1925
1926
1927
1928
1929
193
1930
1931
1932
1933
1934
1935
1936
1937
1938
1939
194
1940
1941
1942
1943
1944
1945
1946
1947
1948
1949
195
1950
1951
1952
1953
1954
1955
1956
1957
1958
1959
196
1960
1961
1962
1963
1964
1965
1966
1967
1968
1969
197
1970
1971
1972
1973
1974
1975
1976
1977
1978
1979
1980
1981
1982
1983
1984
1985
1986
1987
1988
1989
199
1990
1991
1992
1993
1994
1995
1996
1997
1998
1999
2
20
200
2000
2001
2002
2003
2004
2005
2006
2007
2008
2009
201
2010
2011
2012
2013
2014
2015
2016
2017
2018
2019
202
2020
2021
2022
2023
203
204
205
208
209
21
210
211
213
214
215
216
2166666667
217
218
2188888889
219
22
220
221
222
223
224
225
227
228
229
23
230
231
232
234
235
236
237
238
239
24
240
242
243
244
245
246
247
248
25
250
2500
251
252
253
254
255
256
257
258
259
26
260
261
263
264
265
266
267
268
269
27
270
271
272
273
274
275
277
278
279
28
280
282
283
285
286
287
288
289
29
290
291
292
293
294
295
296
298
299
3
30
300
3000
301
302
304
305
306
307
308
309
31
310
311
312
313
314
315
316
318
319
32
320
321
322
323
324
325
326
328
329
33
330
331
332
333
334
335
336
337
338
339
34
340
341
342
343
344
345
346
348
349
35
350
3500
351
352
353
354
356
357
358
359
36
360
361
362
363
364
365
366
36666666667
369
37
370
371
375
38
381
383
384
385
39
395
399
4
40
400
4000
402
404
405
41
411
412
417
418
42
420
422
427
43
430
439
44
440
442
443
45
450
4500
46
460
461
465
46666666667
468
47
472
474
475
48
48333333333
485
49
492
498
5
50
500
5000
504
509
51
510
514
518
52
520
523
528
53
530
531
532
53333333333
54
55
550
555
559
56
560
561
57
570
578
579
58
583
59
590
592
6
60
600
6000
605
61
610
61666666667
62
625
628
63
632
64
642
649
65
650
655
657
66
663
67
674
675
676
68
680
683
68333333333
685
686
69
690
696
7
70
700
705
708
709
71
715
71666666667
72
727
73
73333333333
74
740
741
75
750
76
760
76666666667
77
770
771
775
78
7833333333
7875
789
79
795
8
80
800
81
81666666667
82
83
8333333333
84
848
85
850
86
8666666667
87
88
882
8833333333
885
89
895
896
897
9
90
900
904
91
92
93
931
935
939
94
95
950
951
955
96
960
96666666667
9666666667
967
97
970
976
978
98
980
988
99
993
996
997
:
;
<
=
>
?
[
\
]
^
_
`
a
aa
aai
aaien
aak
aalsmee
aan
aangetroffen
aanslagen
aantal
aanval
aar
aari
ab
abadi
abaiang
abba
abbey
abd
abdel
abdie
abdij
abdoellah
abdul
abe
abee
abel
abergement
abraham
abtskerke
abu
academy
acanthiza
acht
achter
achtergrond
achterland
achteroek
achteruus
achteruut
achthuu
achtkarspelen
achtste
achttien
achttiende
act
acteur
actie
actief
actieve
activiteit
activiteiten
actrice
actuele
ad
ada
adam
adams
adar
ade
adel
adellijke
adema
admiraol
adolf
adriaan
adrianus
adriaotische
advies
ae
aeg
aegt
aegte
aehedissen
ael
aelbrecht
aelburg
aelde
aele
aelemille
aelen
aeln
aelst
aelt
aelten
aemeland
aemstie
aen
aene
aeolus
aepeldoorn
aer
aerd
aerdbevieng
aerdbeving
aerde
aerdig
aerdriekskundige
aerehel
aeren
aerenburg
aerial
aerlem
aerlen
aerm
aermen
aerpels
aerssen
aertsbisschop
aes
aesem
aest
aethia
aeve
aeven
aevend
aevens
af
afankelijk
afc
affijn
afgeleid
afghanistan
afkomstig
afrika
afrikaa
afrikaans
afrikaanse
afrikaners
afrikaons
afrikaonse
afro
afstand
afval
afzonderlijke
agatha
ageila
agriornis
agt
ahadith
ahasveros
ahc
ahmed
ahosveros
aikant
ailles
ain
air
aires
airlines
airport
ais
aisha
aisne
ajax
ajje
aka
aken
akira
akko
aksel
aksels
al
ala
alabama
alan
alarm
alas
alaska
alaslanden
alba
albanees
albanie
albert
alberto
albifrons
alblasserdam
alblasserwaerd
albrandswaerd
albrecht
album
albums
alcedo
aldaar
aleid
aleksandr
aleoetische
alex
alexander
alexandre
alexandrie
alf
alfons
alfonso
alfred
algemee
algemeen
algemene
alhemee
ali
alke
alken
alkmaar
alkmaer
all
allaen
alle
allebei
allecijfers
allee
alleen
alleine
allemaal
allemaele
allemaol
allemille
allen
allenig
aller
allerlei
alles
allie
allier
allin
allochtone
almaza
almelo
almere
alpen
alpes
alphen
als
alt
altena
altied
altijd
alto
altoos
alva
alve
alverwege
am
amadeus
amazone
ambacht
ambachten
ambachtsheer
ambachtsheeren
ambe
ambras
ambt
ameland
america
american
amerika
amerikaa
amerikaanse
amerikanen
amerikaonen
amerikaons
amerikaonse
amerikaonsen
amerindische
amersfoort
amerstreek
amfibiee
ammed
ammen
amniota
amon
amper
amphibia
amstel
amstelland
amstelveen
amsterdam
amsterdamsche
amsterdamse
amtenaeren
an
anatidae
anbesteed
anbod
anc
and
andacht
andamanse
andel
andelot
anden
ander
andere
anderen
anders
andes
andiek
andre
andrea
andreas
andreaskruus
andrew
andries
andriessen
andschrift
anee
aneleid
anepast
anesteld
ang
angaur
ange
angel
angela
angeleid
angeles
angels
angen
angenent
angepast
angespoelde
angeweze
angezien
angrenzende
angt
anhola
animalia
anjou
anjum
ankara
ankelek
ankelijk
ankeluk
ankommend
ankwamme
anleg
anlegsteiger
anleiding
anna
annajacobapolder
anne
annemer
annemers
annie
anno
annot
ans
anser
anslaegen
anslaehen
anslag
ansluuting
answest
ant
antal
antall
antarctica
antartica
antartische
antel
anthony
anti
antichrist
antieke
antigua
antiochie
anto
antoine
anton
antoni
antonio
antropologie
antwerpen
antwoord
anvaering
anval
anvallen
anvankelek
anvankelijk
anwezig
anwezige
anwezigeid
ao
aod
aodde
aode
aok
aol
aole
aolebei
aoles
aolle
aollebei
aollemaele
aollemille
aollerlei
aolles
aols
aolscholver
aoltie
aoltied
aolve
aomae
aome
aon
aondere
aor
aord
aore
aoren
aors
aost
ap
apache
apaloderma
apart
aparte
apostel
appel
appelsienen
april
apteryx
ar
ara
arab
arabie
arabieren
arabisch
arabische
arafat
arago
aragon
arakh
aranees
aranuka
araobie
araobieren
araobisch
araobische
arbeid
archeologische
archief
archiefleeuwardercourant
architect
architectuur
archive
arcy
ard
arde
ardlo
are
aren
arendskerke
argentinie
arhentinie
arie
ariel
arizona
arkansas
arkel
arm
armee
armeens
armeense
armen
armenie
arne
arneklanken
arnem
arnhem
arnold
arnulf
arp
arr
arrondissement
arrondissementen
ars
art
arte
arthur
artig
artikel
artikels
artillerie
arts
aruba
as
aschappelaers
asia
asities
asma
asof
aspect
asse
assen
assenede
association
ast
asten
astrapia
astronomie
astronoom
asturie
at
atatu
atelerix
athabaskische
athene
atjeh
atlantic
atlantische
atlantischen
atlas
atlete
atmosfee
atmosfeer
atollen
atoombomme
att
attack
atthis
au
aubenton
aubigny
aubin
auditie
auf
aug
august
auguste
augustus
augy
auhustus
australazie
australie
australis
australische
austronesische
auto
autobedrief
autonome
autoriteiten
autoverkeer
auvergne
aux
aves
avesnes
avicii
aviv
awast
axel
aymara
az
aziatische
azie
azur
azuur
b
ba
baan
baarle
baarsdorp
baas
babeldaob
babia
baby
bac
bach
bacterie
bad
baemisse
baen
baenen
baerland
baerle
baern
baes
baesdurp
bagdad
bagneux
bahama
bains
bak
bakel
bakken
bakker
bakkers
bakraoui
bakstee
bal
bali
balk
balkan
balken
balkenende
ballen
ballot
baltische
balts
ban
band
banden
bang
bange
bangladesh
bank
baoloek
baon
baosis
baptist
baptiste
baptists
barack
barbados
barbarossa
barbuda
barcelona
barcelonnette
barend
barendrecht
barenton
barm
barneveld
baron
baronie
bart
barzy
bas
basileuterus
basis
baskisch
basse
bastaerdhoniengveugels
bastion
bat
bataclan
bataofse
batavia
bath
battenoord
battista
battle
battles
baudet
bavel
bay
bbc
be
beatles
beatrix
beaufort
beaune
bebost
bebouwing
bed
bedde
bedekt
bedieken
bedieking
bediekt
bediend
bedocht
bedoeld
bedoeling
bedraeg
bedraegt
bedreigd
bedrief
bedrieven
bedrieventerrein
bedroe
bedroog
bee
beek
beekdaelen
beekman
beel
beeld
beelden
beemster
beer
beesd
beesel
beethoven
beetje
beg
begae
begin
beginne
beginnen
begint
begon
begonne
begonnen
begraefplekke
begraeve
begraeven
begraven
begrensd
begrepe
begriep
begriepe
begriept
begrip
begun
behalve
behin
behind
behon
behonne
behooren
behoort
behorende
behraeven
behrensd
behun
behunne
behunnen
behunt
bei
beide
beie
beieren
beiers
beijerland
beilen
beine
beite
bek
bekant
bekarde
beke
bekeerd
beken
bekend
bekende
bekendste
bekenste
bel
belang
belangen
belangriek
belangrieke
belangrieker
belangriekste
belangrijkste
belast
belastbaar
belastieng
beleg
beleid
belfast
belg
belge
belgen
belgie
belgique
belgisch
belgische
belgium
belgrado
belhen
belhie
belhisch
belhische
belize
belle
bellen
belo
beloofd
bels
belse
belzen
bemanniengsleden
ben
benaemieng
benauwd
benda
bende
benedicta
benedictus
benee
benevens
benin
benjamin
bennett
benoemd
benoi
beoo
bepaeld
bepaelde
bepaolde
beperkt
ber
berbice
bereikbaar
bereikbaer
bereiken
bereikt
bereikte
berengarius
berg
bergeijk
bergen
bergkeet
berhen
berichten
beriekbaer
berkelland
berlien
berlijn
berlijnse
berlin
bernard
bernardus
bernhard
bernheze
bernisse
beroemd
beroemde
beroemdste
beroep
berrehe
berrieux
berry
bert
bertha
besbre
beschaedigd
bescherm
beschermd
beschermen
beschermieng
bescherming
beschermt
beschik
beschikbaer
beschouwd
beschouwt
beschreve
beschreven
beschrieven
beschrijving
beslaat
beslaen
beslaet
beslag
besli
beslit
besloeg
besloo
besloot
beslote
besloten
besluut
besmet
bessen
best
bestaan
bestaat
bestae
bestaen
bestaende
bestaene
bestaet
bestand
bestaon
bestaonde
bestaot
beste
bestemd
besti
bestier
bestierd
bestin
bestit
besto
bestoat
bestoeng
beston
bestond
bestong
bestoo
bestoot
bestudee
bestuur
bestuurd
bestuurder
bet
betaeld
betaele
bete
betee
betekend
betekenis
betekenisse
betekent
beter
betere
betlehem
beto
betreffende
betreft
betrekkelik
betrekkieng
betrekking
betrof
betrokke
betrokken
betuwe
betwist
beuningen
beurs
beurt
beurte
beuter
beval
bevat
bevel
beveland
bevelands
bevelandse
beveren
beversluis
beverwiek
beverwijk
bevestigd
bevin
bevind
bevindelijk
bevindt
beving
bevobbee
bevobbeld
bevobbild
bevolkieng
bevolkienge
bevolkiengsdichteid
bevolkiengshroei
bevolking
bevolkte
bevoorbeeld
bevried
bevrijd
bevrijding
bewaerd
bewegen
beweging
bewehieng
beweund
beweunde
beweuners
beweunieng
bewies
bewieze
bewind
bewoners
bewoond
bewust
beynost
bezet
bezeten
bezette
bezetten
bezettieng
bezetting
bezienswaerdig
bezig
bezit
bezittiengen
bezittingen
bezocht
bezoek
bezoeken
bezoekers
bi
bibi
bibliotheek
bidde
bidden
biden
bie
biebel
biebelboek
biebelgordel
biebelvertaelgroep
biee
biegenaemd
biena
bienae
bienaem
bieneter
bieni
bier
biervliet
biesbosch
biesterveld
bievoegelijk
bievoegelijke
biezelehe
biezelinge
biezonder
biezondere
big
bigge
bii
bij
bijdrage
bijna
bijvoorbeeld
bijzonder
bijzondere
bildt
bilker
bill
billy
bilt
bilthoven
bin
binh
binn
binne
binnen
binnenland
binnenlandse
binnenstad
binomio
binst
biografie
biograofie
bioko
biologie
biotoop
bird
bis
bischop
bisdom
bisschop
bitje
bivak
bjirmen
blaauw
black
blad
bladel
bladveugels
blaeren
blaeuw
blaeuwe
blancefloer
blanke
blanken
blanzy
blaricum
blauw
blauwe
ble
blee
bleef
bleek
bleeve
blerk
bleve
bleven
blie
bliee
blieje
bliek
bliekt
blieschap
blijft
blijven
blikvanger
blin
blind
blinde
blo
bloed
bloedbad
bloedige
bloei
bloeie
bloeiende
bloemendael
bloemfontein
blok
blomen
blomme
blommen
bluuf
bluuft
bluuve
bluuven
bluve
bluven
blz
bløf
bmg
bnp
bo
boaz
bob
boccoli
bodegraeven
bodem
boedapest
boede
boek
boekel
boeken
boekje
boel
boer
boerderie
boerderiee
boerderieje
boerderiejen
boerderij
boeren
boerinne
boeyens
boheem
bohemen
bois
bok
boko
bolivia
bollen
bollenstreek
bolsward
bolus
bomans
bomb
bombardement
bommel
bommelerweerd
bommen
bommene
bommenee
bommenwe
bommenwerpers
bon
bonaire
bond
bonifatius
bonnet
bono
bonskanselier
bont
bonte
boo
boodschap
boog
book
books
boom
boomen
boord
booschap
boot
booven
bord
borger
boris
borne
borneo
borsato
borsele
borssele
borst
bos
bosgebied
bosklauwier
bosmont
bosnie
bosruter
bossele
bossen
bost
boston
botswana
bottienge
bouchoux
boudewijn
bouillon
boulevard
boulogne
bourbon
bourbonnais
bourg
bourgogne
bourgondie
bourguignon
bourhondie
bouterse
bouw
bouwden
bouwen
bouwende
bouwene
bouwwe
bouwwerk
bove
boven
bovendien
bovenkant
bovenop
bovenste
boxtel
brabant
braber
braebant
braebants
braebantse
braessem
braine
brak
brakman
bram
brancourt
brand
brandde
brandhanze
brandweer
branta
braobant
braobants
braobantse
braobantsen
braokman
braque
bras
braye
braziliaons
brazilie
brazzaville
bre
breda
bredevoort
bree
breedte
breekt
breie
breien
brein
brengen
brengt
bresjes
breskens
bresse
bressolles
brest
bretagne
breugel
breuil
brevirostris
breziliaense
brezilie
brian
bridge
brie
brief
briel
brieng
brienge
briengen
briengt
briepe
brieve
brieven
bril
brinkman
briord
britannica
brits
britse
brittanica
brittannie
britten
brixi
bro
brocht
brochte
brod
broec
broeders
broedtied
broei
broeien
broek
broekert
broer
broers
broertje
brom
bromsnor
bron
bronck
bronne
bronnen
brons
broo
brood
brothers
brouw
brouwers
brouwersdam
brouwes
brown
bru
brug
brugge
bruggen
bruhhe
bruinisse
brummen
bruna
brune
brunei
bruno
brunssum
brussel
brussels
brusselse
bruun
bruune
bruxelles
bruye
bu
bucy
budding
budeldassen
budelmollen
buenos
bugey
building
buiten
buitenland
bul
bulgarije
bulhaorse
bulharije
bund
bungalowpark
bunkers
bunnik
bunschoten
burcht
bureau
buren
burg
burgemee
burgemeester
burger
burgers
burgerzee
burgh
burhemee
burheroo
burhers
burkina
burte
bus
bush
bussum
bute
buten
butendien
butenland
butenlandse
butter
buuk
buur
buurlan
buurman
buurt
buurte
buurten
buurtschap
buurtschappe
buurtschappen
buurtwienkel
buurvrouwe
buut
buute
buuten
buutenlanse
buvobbeld
buys
buysse
bv
by
byzantijnse
byzantium
c
ca
cacatua
caesar
cafe
cai
caire
cairo
calamanthus
caledonie
calgary
calidris
california
californie
californische
calment
calvijn
calvinisme
calyptorhynchus
cambodja
cambridge
camille
campen
camping
campings
can
canada
canadese
canterbury
canus
capelle
caracas
cardiff
carel
caribisch
caribische
carillon
carl
carlo
carlos
carnaval
carnivora
carola
carolina
carolus
carondelet
carter
casembroot
castellet
castilie
castle
castricum
castro
casuariiformes
casuarius
catharina
cats
caumont
cayenne
cbs
cd
cda
cdu
ce
cees
cel
celestinus
celle
celles
celsius
cent
centen
center
centimeter
centra
centraa
centraal
central
centrale
centraol
centraole
centraolen
centre
centrum
cerny
ceuta
ceyze
ch
cha
chaem
chalaronne
champagne
champenois
champs
chansons
chantelle
chapelle
charadriiformes
charleroi
charles
charlie
charmes
charon
chaudardes
chavannes
chazey
che
chemical
chevresis
chi
chicago
chileense
chili
china
chinees
chinese
chinezen
chivres
chloropsis
chordabee
chordata
chr
chris
chrissendom
chrissenen
christelek
christeleke
christelijk
christelijke
christen
christendom
christenen
christian
christina
christmas
christoph
christophe
christopher
christophorus
christus
chu
church
churchill
cia
ciconiiformes
ciefers
cile
circa
cite
city
civiel
ck
claim
claode
clark
class
classificaotie
claude
clav
cle
clemens
clement
clermont
climacteris
clinton
clio
club
cm
co
coach
coaches
coalitie
coca
cochabamba
code
coevorden
cola
colijn
colius
collectie
collectief
college
colmars
colombia
colonne
colorado
colosseum
columbus
com
combinatie
comitaot
comite
commandant
commando
commisaorissen
commissaoris
commons
communistisch
communistische
compagnie
company
compleet
complete
complex
componissen
componist
componisten
compositie
comte
con
concepcio
concert
concilie
condamine
conde
condor
condors
conferentie
confetti
conflict
congo
congregations
conhres
conirostrum
connecticut
conservative
conservator
conservatorium
constantijn
constantinopel
constructies
consulaat
contact
contacten
continent
contopus
contract
coo
cook
copernicus
cor
coraciiformes
corcy
cornelia
cornelis
cornelius
cornwall
coronatus
corsica
cosmas
costa
coucy
country
county
cour
courant
court
courtes
cranendonck
crayertpolder
cre
creooltaele
creuzier
cricket
criminal
crisis
cristo
critici
croix
cromstriejen
crouttes
cruz
crypturellus
cu
cuba
cuijk
cuiry
culemborg
cultureel
culturele
cultuur
cum
curac
curie
cv
cvp
cy
cycloon
cyprus
d
da
daalen
daan
daar
daarna
daarom
daarop
daarvan
dad
daders
dae
daedeu
daegen
daehen
daemee
daenae
daenig
daer
daerachter
daerbie
daerin
daermee
daernae
daerom
daeronder
daerop
daervan
daevan
daevo
dag
dagblad
dagen
dai
dak
dakota
dal
dale
dalfsen
dam
dame
damme
dammen
dampierre
dan
danie
daniel
dank
dankt
dante
dantumadeel
dao
daogen
daor
daorom
daotum
dapper
das
dat
data
dateert
datzelfde
daverje
david
davidson
day
dbektiran
dc
dder
ddr
de
dean
dec
december
decennia
decken
deco
dee
deed
deee
deej
deeje
deel
deelnemers
deels
deelt
deens
deense
deer
deerdeur
deermee
deerna
deernae
deernaest
deerom
dees
defensie
definitie
definitief
deimos
dek
dekker
dekpannen
del
delano
delaware
delegaotie
delen
delfland
delft
delijke
delta
deltaplan
deltawe
deltawerken
democraot
democraotie
democraotische
democratie
democratische
den
dendroica
dene
denemarken
deneuille
denis
denk
dennis
dentocht
departement
departementen
der
derbie
derde
derden
deredactie
derhelijke
derin
dertien
dertiende
dertienden
dertig
dervan
des
dese
deslaurens
desondanks
destieds
deu
deudat
deur
deurda
deurdan
deurdat
deure
deuren
deurkomststad
deurne
deuterostomata
deventer
deze
dezelfde
dezelve
dezelven
dezen
dezer
di
dialect
dialecten
dialekt
diameter
dibie
dicaeum
dicht
dichtbevolkt
dichte
dichten
dichter
dichters
dick
dictaotor
dictator
dictatuur
dideur
didier
die
diederik
diego
diek
dieken
dieleman
diemen
dien
diende
dienen
dienende
dieng
diengen
dienk
dienke
dienken
dienkt
diens
dienst
diensten
diep
diepe
diepste
diepte
dier
dierbaar
dierde
diere
dieren
diersoo
diezelfde
dig
digd
digibron
dijk
dik
dikke
dikkelder
dikkels
dildo
dimee
din
dinae
ding
dingen
dinkelland
dinosaurussen
dinteloo
dippartement
dir
dire
direct
directe
direkt
dirin
dirk
dirksland
dirnae
dirom
dirop
dirrum
dis
disoek
distel
distr
district
dit
divan
divers
diverse
divisie
divoe
dizy
dizze
dji
djibouti
djo
djoero
dkantoor
dn
dna
do
doa
doch
docht
dochte
dochter
dochters
documenten
doden
dodental
doe
doee
doek
doel
doelwit
doen
doende
doene
doenker
doenkere
doesburg
doet
doetinchem
doeu
doewe
dokkum
dokkumer
dokter
dollar
dom
dombes
domburg
domenico
domenie
dominante
dominica
dominicaanse
dommel
dompierre
don
donald
donderdag
dong
dongemond
dongen
dongeradeel
donjon
donk
donker
doo
dood
dooie
dooien
door
doordat
doorn
doornik
doors
dorde
dordrecht
dordt
dorengt
doris
dorp
dorpelingen
dorpen
dorsvloer
dossier
douglas
douwe
dow
dpersoo
dplekke
dr
dracht
drachten
draegen
draegt
dragen
dramp
drank
draoien
draoit
dravidisch
dravidische
dream
drechterland
drechtsteden
dreef
drees
dreigt
dreister
drek
drenthe
drents
drie
drieje
drienk
drienke
drienken
dries
drievende
driewe
driewegen
drimmelen
dro
droeg
droehe
dromaius
dronten
droo
druk
drukke
drukker
drukte
drums
druten
dryoscopus
ds
dse
dstad
dstedelijk
dte
du
dubbel
dubbeldekkers
dubbeltje
duchte
dudelijk
dudelik
dudelike
dug
duit
duits
duitse
duitsland
duiveland
duiven
duizend
duken
dukers
dulven
dun
dunbevolkt
dunbevolkte
dunen
duo
dur
durende
durp
durpen
durpie
durpje
durpjes
durpsje
durpskerke
durpskern
durpskerreke
durpsraed
durpsraod
durre
dus
dust
dutch
duudelijk
duun
duur
duurn
duurstede
duurswold
duuster
duusternis
duusters
duuts
duutse
duutsen
duutsers
duutsland
duutstaelige
duuveland
duuzend
duuzenden
duvel
duveland
duvelands
duven
duvendieke
duzend
duzende
duzenden
dvd
dwars
dwergplanete
dwo
dy
dyn
dynastie
dz
dzaekelijk
działoszyce
dztwo
dæ
e
ean
eare
earg
east
eastern
ebaseerd
ebbe
ebben
eben
ebied
ebleve
ebleven
ebola
ebombardeerd
ebore
eboren
ebouwd
ebreid
ebrocht
ebroken
ebruukt
echt
echte
echter
economie
economisch
economische
ecser
ecuador
ed
edae
edaen
edaene
edam
ede
edel
edelen
eden
edicht
editie
edmund
edocht
edoo
edroohe
eduard
eduardo
edward
ee
eed
eeij
eeklo
eel
eele
eemland
eemnes
eemsdelta
een
eenden
eendracht
eene
eenen
eenheid
eenige
eenmaal
eens
eer
eerder
eere
eersel
eerst
eerste
eersten
eest
eeste
eet
eete
eetn
eeu
eeuw
eeuwe
eeuwen
eeuwenlang
eeuwig
effect
effen
eft
egbert
egeve
egeven
eggeric
egmond
ego
egretta
egroeid
egypte
eh
ehad
ehaeld
ehel
ehels
eheven
eho
ehouwe
ehouwen
ehud
ehypte
ehyptische
ei
eid
eie
eiers
eige
eigelek
eigen
eigenaer
eigendom
eigenlijk
eigenlik
eih
eihe
eiheluk
eihen
eihenlijk
eihenluk
eihlijk
eijsden
eil
eilan
eiland
eilanden
eilandengroep
eilandje
eilandjes
eile
eilige
eilihe
eilihen
ein
eind
einde
eindelijk
eindigt
eindklassement
eindpunt
einstein
eintjeszand
eirde
eisen
eist
eit
eitjes
ek
ekel
ekleurd
ekocht
ekoloniseerd
ekomm
ekomme
ekommen
ekoze
ekozen
ekrege
ekroo
eksterhanze
el
elaenia
elburg
elco
elder
elders
ele
elee
eleen
elegans
elegast
elege
elegen
eleid
eleje
elektriciteit
elemaele
elementen
elenia
eleonora
elevation
eleverd
elf
elfstedentocht
elfstee
elft
elftal
elisabeth
elisabethsvloed
elizabeth
elk
elkaar
elke
elken
elkerzee
ell
ella
ellef
ellemeet
ellende
ellesdiek
elo
eloape
elpen
els
elsevier
elspeet
elst
elt
elvis
elzas
em
emae
emaekt
emanuel
emel
emeten
emi
emikt
emil
emile
emir
emma
emmanuel
emmeloord
emmen
emmer
emoe
emoes
empidonax
empire
emtrok
en
enaemd
encyclopedie
end
ende
endege
endemisch
endemische
endrik
ene
enegouwe
energie
engel
engeland
engels
engelse
english
enige
enihe
enkel
enkele
enkelt
enkhuizen
ennemond
enoemd
enome
enomen
enoome
enorm
enorme
enrique
ens
enschede
ent
ente
entente
entjessand
enz
enzo
eopend
eopsaltria
epakt
epe
ephthianura
epimachus
eplaest
epleegt
eplekt
epolderd
eppes
equatoriaol
er
erd
erder
ere
ered
erekend
eren
erfgoed
erg
erger
ergest
eric
ericht
erik
erindee
erinneren
erinnert
eritrea
erkend
erkende
erkennen
erkent
erm
ermelo
ernest
ernst
ernstig
ernstige
erocht
errebeiers
erreburg
erremu
erremuje
errum
ers
ersteld
erte
erten
ertog
ertogdom
ervan
ervormde
ervormer
es
eschaft
escheien
eschoten
eschreve
eschreven
eskimo
eslogen
esloopt
eslote
esloten
esperanto
espiritu
esplitst
esproke
esproken
esprook
essen
essequibo
essigny
est
estaene
estart
este
esteld
esten
ester
esticht
estierd
estisch
estland
estoken
esturve
esturven
eswatini
et
etappe
etc
ete
etee
etekend
eteld
eten
ethiopie
etnische
etroffe
etroffen
etrokke
etrouwd
etten
eu
eudromia
eudyptes
euge
eugene
eupen
eur
euro
europa
europacup
europe
europeanen
europeaon
europeaonen
europees
europeese
europese
eustatius
euvelland
euvels
euwe
euws
evaeren
evallen
evange
evanhelie
evanhelisch
evans
evaolle
eve
even
evenaer
evenas
evenement
evenment
evenoevihen
everest
eversdiek
eversdijk
every
evestigd
evoed
evoegd
evoerd
evolgd
evolgt
evon
evonde
evonden
evurmd
eweest
ewerkt
eweze
ewezen
ewist
eworn
eworre
eworren
ex
expeditie
explodeert
exploderen
explosie
explosies
export
extensions
extra
eyak
eyck
ezeid
ezet
ezie
eziee
ezieje
ezien
eziene
ezuverd
f
fa
fabriek
factbook
factoorn
factor
faero
familie
fan
fang
farhud
fase
faso
faucon
fc
fdplaote
fe
feberwari
febriek
februari
federaol
fee
feest
feit
feite
feitelijk
feitelik
fel
felipe
felix
felixvloed
femielje
femieljes
femilie
femilies
ferdinand
fermielje
ferna
fernando
ferrie
ferte
ferwe
festival
feyenoord
fidel
fien
fier
fiets
fietse
fietsen
fietsers
figure
figuren
fiji
filain
filepijn
filip
filippijn
filips
film
filosofie
filosoof
fina
finale
financie
finland
fins
finse
firma
fiskaol
fitna
fjordane
fjorden
flak
flakkee
flakkees
flamingo
flaviventris
fle
flessingue
fleur
flevoland
flevopolder
flienk
flienke
flikken
flink
florence
florida
floris
flupland
fluplands
flupsdam
fm
fo
fokker
foley
folkestone
fontaine
fontenelle
for
ford
fore
formans
formeel
formosa
fort
fortuyn
forum
fosse
fossielen
foster
foto
four
fout
fraanje
fractievoozitter
franc
franca
france
francesco
franche
francheleins
francis
francisco
franciscus
franco
franeker
frank
franken
frankfurt
frankisch
franklin
frankriek
franqueville
frans
franse
fransen
fransje
franstaelige
frantis
franz
fre
fred
frederick
frederik
free
freedom
freedoms
freiheit
freiherr
fresnes
freud
friedrich
fries
friese
friesland
friezen
friso
fritz
from
front
frontalis
fruit
fryske
frysla
fstuk
ft
fu
functie
functies
fusie
futen
fuuftig
fuut
fvd
fveugels
fysische
g
ga
gaan
gaat
gabon
gabrie
gabriel
gadaffi
gae
gaen
gaende
gaepienge
gaesterland
gaet
gaeten
gaf
gajo
galilei
galileo
galle
gallinago
gallo
gallus
gambia
gang
gank
ganymedes
gao
gaon
gaot
garci
garde
garnizoen
gas
gasten
gat
gatdam
gaten
gaumais
gauw
gaven
gavia
gavve
gay
gazastrook
gd
gdan
ge
geaen
geallieerde
geallieerden
gebaseerd
gebeld
gebergte
gebeurd
gebeurde
gebeurden
gebeure
gebeurende
gebeurt
gebeurtenisse
gebeurtenissen
gebied
gebieden
gebleve
gebleven
gebod
geboden
gebombardeerd
geboo
geboorte
geboorteplekke
gebore
geboren
gebouw
gebouwd
gebouwen
gebracht
gebrek
gebrocht
gebroeders
gebruik
gebruikt
gebruke
gebruker
gebruuk
gebruukt
gebruukte
gebruukten
geconfederee
gedaan
gedachte
gedae
gedaen
gedaon
gedee
gedeelte
gedeeltelijk
gedeelten
gedeputeerde
gedicht
gedocht
gedoo
geduld
gedurende
gedwongen
gee
geef
geeft
geel
geen
geene
geenstijl
geert
geertruda
geertruida
geertruudenberg
geest
gegaan
gegaen
gegeve
gegeven
gegevens
gegroeid
geh
gehad
gehee
geheel
geheugen
gehouden
gehouwen
gehucht
gehuwd
gei
geijskes
geiten
gek
geklapt
gekocht
gekomen
gekomme
gekommen
gekoze
gekozen
gekregen
geland
gelande
geld
gelderland
geldermalsen
gelderse
geldrop
geldt
geleden
gelee
geleen
geleerd
gelege
gelegen
gelegenheid
geleid
geleje
geliefd
geliek
gelieke
gelieknaemige
gelijk
gelo
gelokkig
geloo
geloof
gelre
geluk
gelukkig
geluud
gem
gemaakt
gemaekt
gemak
gemaokt
geme
gemee
gemeenschap
gemeente
gemeentearchief
gemeentebelangen
gemeenten
gemenebest
gemert
gemeten
gemiddeld
gemiddelde
gemikt
gen
genaamd
genade
genaemd
gene
generaal
generaol
generaoties
generaties
genevie
genis
genitief
gennep
genocide
genoeg
genoegen
genoemd
genoemde
genog
genome
genomen
gent
gentse
geo
geografie
geopend
georg
george
georges
georgia
georhie
geothlypis
gepaerd
gepleegd
geplunderd
gepraet
gepraot
gepubliceerd
ger
gerald
gerard
gerdien
gere
geree
gereformeerde
geregeld
geregisseerd
gerekend
gerestaureerd
gergem
gerhard
gericht
germain
germaine
germaons
germaonse
geronimo
gerrit
gert
gerwen
gerygone
ges
gescheie
geschiedenis
geschiedenisse
geschiedt
geschikt
geschoten
geschreve
geschreven
gesetz
geslacht
geslachten
gesloopt
geslote
gesloten
gespeeld
gesproke
gesproken
gestart
gesteld
gesteund
gesticht
gestoken
gesturve
getal
geteld
getroffe
getroffen
getrokke
getrokken
getrouwd
getuge
getugenisse
geul
geule
geuzen
gevaer
gevaeren
geval
gevallen
gevangen
gevangenis
geve
gevechten
geveen
geven
gevestigd
gevierd
gevlucht
gevoegd
gevoel
gevolg
gevolgd
gevolge
gevolgen
gevonde
gevonden
gevormd
gevurmd
gewassen
gewe
geweest
geweld
gewend
gewest
geweun
gewicht
gewijd
gewist
gewond
gewonde
gewonden
gewone
gewonne
gewonnen
gewoon
gewoonlik
geworden
geworre
geworren
gex
gezag
gezeid
gezellig
gezet
gezicht
geziee
gezieje
gezien
gezin
gezocht
gezond
gezurgd
gg
ggin
ghana
gi
giacomo
gids
gieng
gienge
giengen
giessen
giessendam
gieten
gij
gilbert
gilberteilan
gillis
gilze
gin
ging
ginge
gingen
giorgi
giovanni
git
gitaor
gitarist
giuseppe
gl
glad
gland
glasgow
gliek
glieke
glise
global
glorie
gmina
go
goa
goan
goat
god
godfried
godin
gods
godsdienst
goed
goede
goeie
goeiendag
goeng
goenge
goeree
goerees
goerion
goes
goese
gogh
goirle
gold
golf
golleven
golven
gombert
gong
gongen
gonza
goo
google
gooi
gooide
gooie
gooischie
gooise
gorbatsjov
gordon
gorkem
gorkum
gos
gotische
gottfried
goud
gouda
goudelancourt
gouderak
goudswaerd
gouvernement
gouverneur
gouverneurs
gouwe
gouwen
gp
gpv
graaf
graag
graauw
grace
gracht
graef
graefschap
graefschappen
graeg
graen
graeven
graevinne
graf
grafiek
graham
gram
grammaotica
grand
graofschap
gratis
grauw
graven
gravenhage
gravenpolder
gravinne
gre
greep
gregoriaanse
gregoriaonse
gregorius
gregory
greid
grenada
grens
grenst
grenze
grenzen
greunienge
greuniengs
grevelienge
greveliengen
greveliengendam
grevelingen
griek
grieken
griekenland
grieks
griekse
grieps
grieze
griffermeerde
grifformee
grifformeerd
grifformeerde
grifformeerden
gro
groe
groei
groeide
groeien
groeiende
groeit
groen
groene
groenland
groep
groepe
groepen
groesbeek
grond
gronden
grondgebied
grondwet
groningen
groo
grooste
groot
groote
grootste
grot
grote
grotendeels
groter
grotere
group
gru
gruiformes
gsen
gste
gt
gte
gten
gtepunt
gu
guam
guatemala
gue
guevara
guillaume
guinea
guinee
guise
gul
gulden
guldensporenslag
gulik
gulpen
gunstige
gunter
gurion
gurneys
gustaaf
gut
guus
guust
guyana
gwijde
gwoud
gwynedd
h
ha
haag
haan
haar
haarlem
haarlemmerliede
haavoda
had
hadde
hadden
hae
haeg
haeglan
haegse
haeksberrehe
haen
haene
haer
haeriengvliet
haeriengvlietdam
haeringvliet
haerlem
haerlemmermee
haest
haeven
haevene
haevenstad
haf
hai
haifa
halderberge
half
halicie
halicisch
halikud
halle
halverwege
hama
haman
hamburg
hamont
hampshire
han
hand
hande
handel
handeliengen
handen
hang
hank
hanoi
hans
hanze
hanzen
hao
haon
harald
haram
harbor
hard
harde
hardenberg
harder
harderwiek
hardinxveld
hardrockband
hare
haren
harlingen
harmelen
harold
harpactes
harry
hart
harte
harwich
hasselt
hat
hatak
hattem
haute
hauterive
hauteville
hauts
hauw
have
haven
havre
hawaii
haydn
he
heart
heaven
heb
hebaer
hebben
hebbende
hebdo
hebeurtenis
hebeurtenissen
hebied
hebieden
heboo
heboorn
hebore
hebouw
hebree
hebreeuws
hebrek
hebriden
hebron
hebruuk
hebruukt
hebt
hectare
hedae
hedee
heden
hedrag
hedwigepolder
hee
heef
heeft
heel
heemkundige
heemskerk
heemstede
heen
heenvliet
heer
heerde
heere
heeren
heerenhoek
heerhugowaerd
heerl
heerlen
heerlijkheid
heerma
heerschap
heersdiek
heerser
heet
heeze
heheel
hei
heid
heijermans
heilig
heilige
heiloo
heinkenszand
heinrich
heist
heit
heite
hekleurd
hekleurde
hel
held
helder
hele
helegen
helehen
heleid
helemael
helena
helft
helieke
heliekende
helieknaemihe
hellendoorn
hellevoet
hells
helmond
help
helpen
helsinki
helt
heluud
hem
heme
hemee
hemel
hemelvaert
hemichordata
hemiddeld
hemiddelde
hemiechinus
hemitriccus
hen
henaemd
hendrik
hene
henegouwen
heneraol
henesis
hengelo
henk
henoeg
henoemd
henri
henricus
henry
her
herakleios
herberg
herbouwd
hercegovina
herders
here
heree
heren
hericht
herinnering
herinneringen
herken
herman
hermann
hersteld
hert
hertog
hertogin
herv
hervormde
herwaarts
hescheien
heschiedenis
heschiedenisse
heslachen
heslacht
heslachten
hesloten
hesproek
hesproken
hestreepte
het
hetwelk
hetzelfde
heumen
heur
heusden
heuvel
heuvelrik
heuvels
heval
heven
hevlekte
hevolg
hewest
hewist
hewone
hewoon
hezet
hezicht
hganger
hhk
hi
hie
hieere
hield
hielden
hieng
hienge
hier
hierbie
hierdeur
hierin
hiermee
hiernea
hieronger
hierop
hiet
hietende
high
highlanders
hij
hilaire
hildegard
hillegom
hilvarenbeek
hilversum
himalaya
hin
hindi
hindoe
hine
hing
hiroshima
his
histoire
historici
historie
historiek
historisch
historische
history
hit
hitler
hitparade
hits
hlad
hms
ho
hoa
hoagte
hobbema
hoch
hod
hoe
hoed
hoedekenskerke
hoeie
hoek
hoekse
hoeng
hoengen
hoes
hoessein
hoewel
hof
hofje
hoge
hoger
hoi
hol
holf
holland
hollands
hollandsche
hollans
hollanse
holten
holwerd
home
hond
honderd
honderden
honduras
hongaorse
hongarije
hongkong
honhaors
honharije
honiengveugel
honore
honorius
honte
hoo
hood
hoofd
hoofden
hoofdstad
hoog
hooge
hoogte
hoop
hoor
hoorde
hoorn
hoort
hore
horende
hornestreek
horst
hos
hosternokke
hot
hotel
houd
houden
houdsnippen
houdt
house
housset
houten
houverneur
houwe
how
howard
hr
hram
hrauwe
hrens
hrenst
hrenzen
hriek
hrieks
hriekse
hrieps
hries
hrieskee
hrieze
hro
hroei
hroene
hroenland
hroep
hroepen
hroepjes
hrond
hrondwet
hroo
hrossen
hroste
hrote
hrotter
hrutto
htm
html
http
https
hubert
hugo
huib
huibert
huijbergen
huis
huisgez
huizen
hulp
hulst
human
humsterland
hun
hunea
hunze
hur
hussiet
hut
huus
huusje
huuzen
huwelijk
huyana
huzen
hygge
hylomys
hypocoliidae
i
ibn
ibrahim
ibz
ic
ich
id
idaho
idee
identiteit
ido
ie
ieder
iedere
iederee
iedereen
ield
ieleke
ielk
ielke
iemand
iemend
iemond
ien
iene
ieng
ienge
iengel
iengeland
iengelen
iengels
iengelse
iengelsen
ienige
ienkel
ienkele
ieper
ier
ieran
ierbie
ierdeur
ierin
ierland
iermee
iermie
iernae
ieronder
ieronger
ierop
ierse
ieruut
iervan
iervo
iervoe
ies
iesderen
iese
iesje
iesland
iesplateau
iesplateaus
iessel
iesseldelta
iesselmonde
iesselstein
iesselstreek
iesselvallei
iestied
iesveugel
iesveugels
ieszee
iet
ietewat
iets
ietwat
ieuw
ieuwe
igna
ii
iii
ij
ijssel
ijsselmeerpolders
ik
il
illinois
im
imdb
immer
immers
immigranten
immigraotie
immigratie
import
in
ina
inauguratie
inca
inclusief
inde
indee
inderdaod
indernissen
index
india
indiana
indianen
indie
indigd
indisch
indische
indischen
indo
indonesie
indonesische
indruk
industrie
industrieterrein
ine
inedee
inee
ineens
inezia
infanterie
info
informaotica
informaotie
informatie
ing
ingang
ingedee
ingekort
ingenieur
ingenomen
ingepolderd
ingericht
ingevoerd
ingezet
initiatief
inkomsten
inmiddels
inne
innocentius
insect
insecten
insee
instantie
institute
instituut
instrumentalis
int
international
internationale
internationaol
internationaole
internet
interview
into
intocht
intussen
inundaotie
inval
invaosie
invasie
inverness
investigative
invloed
invloeden
inw
inweuner
inweuners
inweunersantal
inweunertal
inwo
inwoners
inzicht
inzittenden
io
iowa
ip
ir
iraekse
irak
iran
iraonse
iraq
irish
is
isaac
isbn
isis
islam
islamiah
islamitische
island
islands
isle
isolaot
israe
israel
ist
istanbul
iste
ister
istorische
it
ita
italiaa
italiaons
italiaonse
italie
iv
ivan
iviers
ivoo
ix
izenave
izendieke
j
ja
jaap
jaar
jaargang
jabron
jacht
jackson
jacob
jacoba
jacobapolder
jacobus
jacques
jae
jaehen
jaer
jaere
jaeren
jaerenlang
jaerige
jaerihe
jaerlijks
jaertal
jaertelling
jaffa
jagen
jager
jakarta
jakob
jakobsen
jakobus
jamaica
james
jan
janeiro
jannawari
jannewari
jannewarie
janse
jansen
jantje
januaori
januari
jao
jaop
jaor
jaoren
jaova
japan
japanners
japans
japanse
jaren
jarige
java
je
jeajn
jean
jeanne
jear
jef
jeltsin
jemaah
jen
jennings
jer
jersey
jeruzalem
jesu
jesus
jetske
jeugd
jewanna
jewannes
jewish
jews
jezus
jhr
ji
jie
jij
jimbaran
jimmy
jin
jir
jn
jo
joa
joachim
joan
joaqui
joar
job
joden
joe
joegoslaovie
joenge
joengeren
joenk
johan
johann
johanna
johannes
john
johnny
johnson
jona
jonathan
jong
jonge
jongen
jongere
jongers
jongste
jonk
joo
jood
joods
joodse
joop
joost
jordanie
jordaonie
joris
jos
jose
josef
joseph
josephus
joshua
jou
joure
journalist
jozef
jpg
jr
juan
juda
judder
judea
juffrouw
juicht
julder
juldere
jules
juli
julia
juliana
juliaona
julien
julius
juni
jupiter
jurchen
juridische
jurist
jus
juste
justin
justiniaonus
jutland
juun
juust
k
ka
kaap
kabinet
kabul
kachel
kadaster
kaeg
kaeken
kael
kaele
kaemer
kaemerlid
kaemerverkiezingen
kaemerzee
kaep
kaerel
kaern
kaerte
kaes
kagoe
kaketoe
kaketoes
kalender
kalf
kalief
kameleon
kamer
kameroen
kammeroen
kamp
kampen
kamperland
kampf
kampioen
kampong
kan
kanaa
kanaal
kanaol
kanaolen
kanaolstreek
kandidaot
kandidaoten
kandidaten
kans
kansas
kant
kante
kanten
kaoie
kaop
kap
kapel
kapelaan
kapelle
kapitein
kapot
kappe
kaptein
karakter
karakteristieke
karekiete
karel
karl
karla
kaspische
kasse
kaste
kastee
kasteel
kastilie
kasuarissen
kathedraol
katholicisme
katholiek
katholieke
katholieken
kats
katscheveer
katte
katteliek
kattelieke
kattendieke
kattendijke
katwiek
kaukasische
kaukasus
kazachstan
kazerne
kdam
ke
kee
keek
keel
keer
keerkriengveugels
keert
kees
keessie
keizer
keizerlijke
keizerriek
keizers
kelder
kele
kemal
kempen
ken
kend
kende
kenia
kenisse
kenmerk
kenmerken
kenne
kennedy
kennemerland
kenneth
kennis
kennisse
kens
kent
kentucky
kepler
keren
kering
kerk
kerkdurp
kerke
kerkegenoo
kerkelijk
kerkelijke
kerken
kerkeraad
kerkgebouw
kerkje
kerkrade
kerkrecht
kerktoren
kerkverband
kerkwaerve
kermis
kern
kerncentrale
kerncentraole
kernen
kernenergie
kerreke
kerreken
kers
kerst
kersten
kessel
kesteren
ketoen
keu
keuken
keul
keulen
keunienk
keuninge
keus
keuze
kever
kezand
kezands
kg
khan
kids
kiek
kieke
kieken
kiekers
kiekt
kies
kiesraad
kiev
kieze
kijken
kijkers
kikkers
kilemeter
kilo
kilometer
kilometers
kim
kind
kinder
kinderdiek
kinderen
kinders
king
kiribati
kit
kitts
kiwi
kke
klaar
klaas
klaeg
klaer
klaeswael
klank
klanken
klappe
klass
klasse
klassen
klassieke
klauwier
kle
klee
kleef
klei
klein
kleindere
kleine
kleiner
kleinere
kleinste
kleinzeune
kleistreek
kleren
kleur
kleure
kleuren
kleverlands
kleverskerke
klienke
klienker
klienkers
klienkt
kliffen
klimaet
klimaot
kling
klink
klinkt
klm
kloet
kloetehe
kloetehen
kloetinge
klok
klokke
klokken
klompen
kloo
klooster
kluten
kluut
km
knecht
knesset
knien
knipolegus
knokke
knoo
ko
kocht
koedoo
koeien
koeischorre
koejepitten
koeke
koekje
koekkoek
koekoek
koen
koesjitische
koet
koeto
koewacht
koeweit
koffie
kofje
koggenland
kok
kokkemee
kole
kolhanzen
kolle
kolonel
koloniaole
kolonie
kolonies
kolonisten
kom
komen
komm
komme
kommen
kommende
kommn
komst
komt
kon
konde
konden
konegin
koneginne
kongo
konieng
konienge
koniengin
konienginne
koniengspoorte
koniengstiran
konienk
konienklijk
konienklijke
konienkriek
konihinne
koning
koningin
koninklijk
koninklijke
koninkriek
koninkrijk
konne
konnen
kont
koo
koor
koos
kootwiek
kop
kopenhagen
koper
koperen
koraa
koran
korc
kore
korea
korendiek
korenmeule
koror
kort
kortbie
korte
korten
korter
kortjeen
kortriek
kortweg
kosovo
kossemisse
kost
koste
kosten
kostende
koster
kostte
kot
kotters
koud
koukerke
kouwe
kr
krabb
krabbendieke
krabbendijke
kracht
kraenveugels
kraj
krakau
krante
kranten
kre
kree
kreeg
kreeh
kreehe
kreeke
krege
kregen
krehen
kreke
krieg
kriege
kriegen
kriegt
kriehen
krijgen
krijgt
krim
krimpen
krimpenerwaerd
kring
kritiek
kro
kroaotie
kroatie
kroatisch
krom
kromme
kroo
kroon
kruiningen
kruis
krujenier
krujenierswaoren
krunehe
krunige
kruus
kruust
kruustocht
kruusvaerders
krzyz
ks
kse
kt
kton
ku
kuala
kubisme
kudde
kuipers
kun
kunn
kunne
kunnen
kunst
kunstenaer
kunstenaers
kunstschilder
kunsttaelen
kursk
kursplaete
kurt
kussen
kust
kuste
kusten
kustlijn
kut
kuta
kuuftinamoe
kuuroord
kuyper
kvp
kwaed
kwaeme
kwaliteit
kwall
kwam
kwamen
kwamm
kwamme
kwammen
kwamt
kwastvinnigen
kwe
kwedamme
kwestie
kwiem
kwiet
l
la
laan
laat
laatste
labour
lach
lacht
laden
lady
lae
laeding
laeg
laege
laegste
laehe
laeken
laerbeek
laet
laete
laeten
laeter
laetere
laetste
lag
lage
lagen
lagge
laguna
lagune
lake
lalecq
lam
lamaketta
lambert
lammen
lammeren
lan
land
landbouw
landbrugge
lande
landelijk
landelijke
landen
landgraef
landiengsmonument
landing
landoppervlak
landoppervlakte
landouzy
landschap
landse
landsmeer
lang
lange
langediek
langen
langer
langk
langs
langst
langste
langstraet
langstraete
language
langzaem
langzaeman
langzaemerand
laniarius
lank
lanka
lanks
lans
lanschap
lanse
lansingerland
laon
laonnois
laos
laot
laote
laoter
lapid
lapje
lappen
lapponica
lard
laren
laridae
larus
larven
las
last
lastig
lat
laten
later
latien
latiens
latiense
latijn
latijnse
laura
laurens
laurent
lauwers
lauwersmeer
lauwerszee
laval
lavoir
ld
lde
lden
le
leater
leave
ledematen
leden
lee
leed
leee
leef
leefde
leefhebied
leeft
leeftied
leeftijd
leeg
leek
leen
leende
leendert
leenwoo
leer
leeraarambt
leerlingen
leeuw
leeuwarden
leeuwen
leev
lege
legende
leger
legers
legge
leggen
legt
lehende
leher
lehers
lei
leid
leidde
leiden
leidende
leider
leiderdurp
leiders
leidieng
leiding
leidschendam
leie
leien
leier
leipzig
leit
lek
lekker
lekkere
lekkerland
lelystad
lemaele
lemmer
len
lena
lengte
lenin
lens
lente
leo
leonardo
leone
leopold
leptopogon
lere
lerven
les
lesotho
lessen
lest
leste
lesten
let
letland
lets
letter
lettergreep
letterlijk
letters
leudal
leuk
leur
leurden
leurders
leure
leursters
leusden
leuven
leuze
levant
leve
leven
levend
levende
leverde
levi
lewedurp
lex
lez
leze
lezen
li
lia
liao
libanon
liberia
liberte
libie
libreville
lichaem
licht
lid
lidwoord
lie
liechenstein
lied
liedjes
liee
lief
liefde
liefst
liege
liek
lieke
lieken
liekt
liemers
liene
lieng
lienge
liengen
liengte
lienk
lienkeroever
lienks
liep
liepe
liepen
liest
lieste
liesttrekker
liet
liete
lieten
lieve
lieven
liever
life
lig
liga
ligge
liggen
liggende
liggene
liggieng
liggienge
ligt
lihhen
lihhieng
lijk
lijn
lijnen
lijntje
lijst
lik
lima
limburg
limburgs
limburgse
limosa
lin
lincoln
linden
line
ling
lingewaerd
lingua
link
links
linnaeus
linters
lions
lisch
lische
lisse
list
lit
literatuur
litouw
litouwen
litouws
little
live
liverpool
liveshow
lix
liz
lkee
lle
llek
ller
lloyd
ln
lo
loape
loapt
lochem
locht
lode
lodewiek
lodewijk
lodijcke
lodijke
loeo
loesdrecht
lof
loi
loire
lokaal
lokale
lokaole
lon
londen
london
long
longen
loo
loods
looftiran
loon
loop
loopt
lop
lope
lopen
lopez
lophotriccus
lophotrochozoa
lopik
lopikerwaerd
lopt
lord
los
losse
losser
lot
lothaoriengen
lotharingen
lou
louis
louise
louisiana
louroux
louvre
love
loy
lp
lpf
lpoo
lriffen
ls
lse
lstaet
lt
lte
ltelijk
ltjes
lu
lubbers
lublin
luc
lucas
lucht
luchtaeven
luchtbombardement
lucia
lucy
ludwig
lui
luigi
luik
luis
luitenant
lukkende
lukte
lul
lumpur
luna
lurcy
lutgardis
luther
lutheranisme
lutherse
luuk
luukse
luusjfer
luuster
luustere
luusteren
luxe
luxemburg
luxemburgs
ly
lyon
lzanger
m
ma
maakt
maakte
maan
maanden
maansen
maar
maart
maarten
maas
maastricht
maatschappij
mac
macedonie
machinist
macht
machteld
machtig
machtige
machtigste
machu
maclean
madahaskar
made
madeira
madrid
mae
maek
maeke
maeken
maekende
maekene
maekn
maekt
maekte
maekten
mael
maeltied
maen
maend
maendag
maenden
maene
maenen
maer
maert
maerte
maerten
maes
maesdriel
maesgouw
maeshorst
maesland
maessluus
maestricht
maete
maetschap
mag
magnet
magnetisch
magnus
magny
mahal
mahalalel
maine
makaore
make
maken
makkelijk
makkeluk
malaconotus
malagasi
malawi
malaysia
malcolm
maldegem
maleis
maleise
maleisie
mali
mallan
malta
mammalia
man
manchester
mandaat
mandaot
mande
mandela
mandsjen
manfred
manhroo
manier
maniere
mann
manne
manneke
manneken
mannelijk
mannelijke
mannen
mans
manschappen
manserve
mantel
mantelmee
manucodia
manuel
mao
maoiers
maok
maoken
maor
maoriekerke
maos
maotschappij
mapai
maps
mar
marathon
marc
marcel
marcellus
marchais
marche
marcillat
marco
marcus
marcy
mard
margaretha
margival
margraten
margriet
marharetha
mari
maria
marianne
marie
mariekerke
marigny
marine
marinus
maritiem
maritime
marizy
mark
markiezaet
markiezaot
markiezaotsmeer
marknesse
markt
marle
marne
marokko
mars
marseille
marshalleilan
mart
marta
marti
martien
martigny
martin
martinus
marx
mary
maryland
maskerzanger
massa
massachusetts
massief
mast
matauenga
mathilde
matuku
mau
maurice
maurits
max
maxime
may
mayet
mboo
mckinley
md
mde
me
mea
meakt
meansen
mear
mearte
mechelen
mecky
mecocerculus
medalje
mede
medemblik
medestemming
media
mediacourant
medie
mee
meegedae
meej
meer
meerder
meerdere
meerdereid
meerminne
meerssen
meertens
meervoud
meest
meesta
meestal
meeste
meester
meestoof
meet
mega
mei
meid
meie
meierijstad
meijerij
mein
meindert
meisje
meisjes
mekaere
mekaor
mekaore
mekare
mekoare
melanocharis
melanopareia
meldde
melessant
melilla
melis
meljoen
melk
melodie
memory
men
mende
menee
menees
menheerse
menier
meniere
menig
menister
mens
mense
mensen
ment
menthon
menuut
meppel
mer
mercurius
mercy
meren
mergelland
merjaen
merk
merkel
mes
meschien
mesines
messele
mestricht
met
meteorologische
meter
meters
metz
meuge
meugelijk
meuheluk
meule
meulelan
meulen
meulenaer
meulens
meulewaerd
mexicaonse
mexico
meziek
mh
mi
miami
michael
michail
michel
michelle
michiel
michielsgestel
michigan
microeca
micronesia
micronesie
midd
middag
middeg
middel
middelaer
middelandse
middelbourg
middelburg
middelburgse
middelee
middeleeuwen
middeleeuwse
middelgroo
middelhroo
middellanse
midden
middenschouwen
middle
mie
mien
miene
mieng
miengen
mienstreek
mier
mierden
mierlo
miguel
mij
mijn
mijnen
mik
mikt
mikte
milaan
mile
milieu
militair
militaire
militairen
miljard
miljoen
millennium
millimeter
min
mina
minder
mindere
mindereid
mindereidstaelen
mines
ming
mingen
minh
minister
ministerie
ministers
minke
minnesota
minor
mins
minsen
minst
minste
minstens
minuten
mionectes
miranda
mis
mislukt
miss
misschien
misse
missen
mississippi
missouri
missy
mist
mistal
miste
mit
mix
mklever
mkorvisserie
mm
mo
moa
moar
mobilisaotie
mobiliseert
moch
mocht
mochte
mochten
modder
moddergat
mode
model
modern
moderne
moe
moed
moeder
moeders
moedertael
moedig
moefti
moeilijk
moeite
moer
moeras
moerassihe
moerbeke
moerdiek
moerdijk
moermond
moernerieng
moerstaele
moest
moeste
moesten
moet
moete
moeten
moewder
moffenschans
mog
mogelijk
mohamed
mohammed
mol
molen
moment
momenteel
monaco
monarchie
monceau
mond
mone
monholie
monhoo
monnik
mons
mont
montagne
montaigu
montana
montbavin
monte
montenehro
montesquieu
montevideo
montferland
montfoort
montfort
montigny
montluc
montre
montreuil
monument
monumenten
moo
mooi
mooie
mooier
mooiste
mook
moord
moore
mor
mordekai
more
morris
mos
moskou
moslim
moslimbroederschap
moslims
mosse
mossels
mossen
most
moste
mosten
mot
motetten
moto
motor
motte
motten
moulins
mount
mozambique
mozart
mr
mraedschap
ms
mse
mt
mu
muhammad
muiden
mulder
mun
munitie
munt
muntee
murat
mure
muren
muret
murray
muscisaxicola
museum
music
musse
mussolini
mustafa
muur
muus
muusveuhels
muziek
muzikant
my
myanmar
myiarchus
myioborus
myiodynastes
myiopagis
myiophobus
myiornis
myiotheretes
myiozetetes
mythe
mythen
mytholohie
mæ
mæk
n
na
naam
naar
nabie
nachs
nacht
nachts
nadat
nae
naebie
naeda
naedan
naedat
naedien
naegenoeg
naegeslacht
naelde
naem
naeme
naemelijk
naemelik
naemen
naemens
naemwoord
naemwoorden
naer
naerebout
naers
naest
naftali
nagasaki
nagedachtenis
nai
nakamura
nam
name
namen
namibie
namme
nandoes
nanteuil
nao
naom
naomen
naor
nap
napels
napoleon
narodowy
nasaol
nasjonale
nasjonaole
nassau
nasser
nat
naties
nationaal
national
nationale
nationaliteit
nationaol
nationaole
natte
natuur
natuurgebied
natuurhebied
natuurkunde
natuurkundige
natuurlijk
natuurlijke
natuurluk
nauw
nauwe
nauwelijks
naval
navo
naz
nazi
nbanke
nberrehe
nbv
nchen
ncis
nd
nde
ndelijk
nden
nder
ndewehe
ndez
ndieke
ne
nea
neam
near
nebest
nebraska
nectar
neder
nederduuts
nederduutse
nederlan
nederland
nederlanden
nederlander
nederlanders
nederlands
nederlandsche
nederlandse
nederlans
nederlanse
nedersaksen
nedersaksisch
nederweert
nederwetten
nederzetting
nee
neef
neem
neemt
neer
neergeschoten
neffen
neffens
negen
negende
negentiende
negentig
neger
nehels
nehen
neid
nek
nelson
nem
neme
nemen
nen
neognathae
nepal
neptunus
ners
nes
nesles
nessens
nest
net
netanyahu
netelbee
neters
netherlands
netjes
netuur
netuurlek
netuurlijk
neuf
neufcha
neuilly
neur
neuville
neuzen
nevada
neve
nevers
nevis
new
news
newton
nez
ng
nguema
nh
nha
nheid
nhk
nhroep
ni
nic
nicaragua
nice
nick
nicola
nicolaas
nicolaos
nicolas
nie
niejt
niels
niemand
nieng
nienge
niet
niets
nietzsche
nieuw
nieuwbouw
nieuwbouwwiek
nieuwe
nieuwedurp
nieuwegein
nieuwen
nieuwerkaarke
nieuwerkerk
nieuwkoo
nieuwland
nieuwlande
nieuwpoo
nieuws
nieuwvliet
nig
nigd
nigde
nige
niger
nigeria
night
nigieng
niging
nigingsgebouw
nigste
nihe
niheria
nihieng
nii
nijkerke
nijl
nijmeegse
nijmegen
nijntje
nikke
nikolaj
niks
nilo
ning
ninginne
nio
nir
nisse
nissewaerd
nist
nistpupe
niue
niutao
niveau
nixon
nizier
nk
nkomst
nl
nland
nloo
nlverkiezingen
nmaek
nmee
nne
no
noa
noame
noar
nobel
noch
nodig
noe
noek
noem
noemde
noemden
noeme
noemen
noemende
noemn
noemt
nog
noga
nogal
noh
nol
nommer
non
noo
nooit
noor
noord
noordeleke
noordelijk
noordelijke
noordelik
noorden
noordfries
noordgouwe
noordkante
noordoo
noordwaelle
noordwelle
noordwes
noordwest
noordwesten
noordzee
noormannen
noorse
noorwegen
nootdurp
normaal
norman
normandie
normaol
norte
north
norway
nos
not
noten
nothoprocta
nothura
notre
nou
nouvion
nova
novaehollandiae
november
now
noyant
nr
nrc
ns
nschap
nschappelijk
nschappen
nse
nsen
nstad
nster
nt
nte
ntehuus
ntelijke
ntelike
nten
nteraed
nteraod
ntes
ntje
nu
nuenen
nui
nul
numansdurp
numenius
nummer
nummers
nunspeet
nut
nv
nvissen
nvloed
nwiekerland
nws
ny
nyasaland
nze
nzee
næ
o
oa
oade
oage
oahe
oak
oal
oale
oalen
oalle
oalles
oaltied
oan
oans
oarden
oardt
oare
oaren
oat
ob
obama
object
obs
observations
occitaons
oceaan
oceaen
oceanie
oceaon
oceaonen
ochend
ochens
ochthoeca
octaaf
october
od
ode
odense
odoorn
odstad
oe
oed
oedjeskerke
oef
oefenaer
oegstgeest
oek
oekje
oekrai
oeks
oekse
oen
oender
oenderkoeten
oenders
oengeveer
oest
oesterdam
oesteriek
oesters
oeuvre
oeve
oevee
oeven
oewe
oewel
oezbekistan
of
ofezet
offensief
offerkiste
officie
officieel
officiele
officier
offisjee
offisjeel
offisjele
ofi
ofkomst
ofkomstig
ofsluuting
ofstand
ofte
oftewel
ofwe
ofwel
og
oge
ogen
oggin
ogooue
ohio
oirschot
ois
oise
oisterwiek
ok
oke
oklahoma
oktober
ol
olaf
oldambt
oldebroek
oldenzael
ole
olie
olivaceus
olland
ollander
ollanders
ollands
ollandse
ollandsen
ollans
ollanse
olle
olles
olmenof
olmert
olst
olympische
om
omar
omda
omdan
omdat
ome
omgeve
omgevienge
omgeving
omheven
omhevieng
omkomme
omliggende
omlihhende
omme
ommekomme
ommen
ommers
omoe
omoo
omriengd
omriengende
omringd
omroep
omschreve
omschrieft
omslit
omstree
omstreeks
omt
omtrek
omtrent
omvang
omvat
omwenteling
on
onaf
onafankelijk
onafankelijke
onafankelijkeid
onafankelijkeidspartij
onafhankelek
onafhankelijk
onafhankelijkheid
onafhankeluk
onbekend
onbekende
onbeslist
onbeweund
onbeweunde
ond
ondanks
ondekt
onden
onder
onderd
onderde
onderdee
onderdeel
onderden
onderfemielje
ondergang
onderkant
onderorde
onderriek
onderschei
onderscheid
onderscheidene
onderscheidt
onderscheien
ondersoo
onderstamme
ondertussen
onderverdee
onderweg
onderwerp
onderwerpen
onderwies
onderwijs
onderworpen
onderzoek
ondiep
ondiepe
ondimba
ondsrugge
one
ongelok
onger
ongerdee
ongerdeel
ongerdrukt
ongergang
ongernemer
ongerouwen
ongertekend
ongerust
ongerwies
ongerzoek
ongevee
ongeveer
onhevee
onheveer
online
onmiddellijk
onrust
onrustig
ons
onstaen
onsto
onstoeng
ont
ontdekking
ontdekt
ontdekte
onte
ontenisse
onthuld
ontploffing
ontploft
ontsnapt
ontstaan
ontstae
ontstaen
ontstaet
ontsti
ontstit
ontsto
ontstoeng
ontstoenge
ontstonden
ontstong
ontstoo
ontuld
ontvangen
ontvangt
ontwerp
ontwikkeld
ontwikkelde
ontwikkelieng
ontwikkeling
ontworpe
ontzag
onverschrokken
onze
onziedig
oo
oodstad
oof
oog
ooge
ooit
ook
oop
oor
oord
oorde
oordee
oore
oorkonde
oorlog
oorlogen
oorn
oorsprong
oorspronkeleke
oorspronkelijk
oorspronkelijke
oort
oorzaek
oost
oosten
oostenriek
oosterschelde
oostkerke
oov
oover
op
opa
opbouw
opdee
opdracht
ope
opebouwd
opedee
opel
open
openbaer
opene
openieng
openienge
opening
openingsact
opent
opera
operatie
opericht
opge
opgebouwd
opgedee
opgegaen
opgeheven
opgeleid
opgenomen
opgericht
opgeruumd
opgevolgd
opheusden
opkomst
opleiding
opmaet
opmars
opmeer
opnieuw
oporornis
opper
opperman
oppervlak
oppervlakte
oppositie
oprichter
oprichtieng
oprichtienge
oprichting
oproep
opsporing
opstand
opstandelingen
opsterland
opt
opvaerende
opvaerenden
opvall
opvallend
opvallende
opvolger
opvolhen
opzet
opzichte
or
oranje
oranjenikkekasuaris
oranjezon
ord
orde
orden
ore
oregon
oren
orende
org
organisatie
orgel
orhanisasie
ori
originele
origny
orle
orn
oro
orst
orthodox
orthodoxe
orxois
os
osama
oscar
oslo
osmaonse
oss
osse
ossendrecht
ossenpikkers
ost
ot
other
otto
ottokar
ottomaanse
ottomaon
ottomaonse
ou
oud
ouddorp
oude
ouden
ouder
oudheid
oudste
oudsten
oudt
ouen
oulchy
our
ourcq
ouste
out
outen
outsnip
ouw
ouwdurp
ouwe
ouwedurp
ouweland
ouwelande
ouwen
ouwendiek
ouwer
ouwere
ouwerkaarke
ouwerkerk
ouwerling
ouwers
ouwerwesse
ouwewaeter
ouwste
ouwt
ove
oven
over
overal
overaol
overbetuwe
overdag
overe
overee
overeid
overende
overflakkee
overgeave
overgebleve
overgenome
overheid
overiessel
overiesselsen
overige
overiges
overijssel
overkant
overkante
overkomme
overleden
overlee
overleed
overleefd
overleeft
overleeje
overleg
overleje
overleven
overliejd
overliejen
overmacht
overslag
overstro
overstroo
overval
overwegend
overwehend
overwinning
overwinter
overzee
overzicht
ovezande
own
oxford
p
pa
paal
paar
pablo
pachyramphus
pacifische
pad
padje
pael
paele
paelen
paeloo
paer
paerd
paerden
paeren
paese
pag
pagina
pagodinho
pairen
pak
pakistan
pakje
pakken
pakten
palais
palau
palauaa
paleis
palen
palende
paleognathae
palestijnen
palestijns
palestijnse
palestina
palm
palud
panama
panamakanaol
pand
paneve
paniek
panne
pannen
paol
paor
papa
papegaoiachtegen
papegaoien
papendrecht
papiaments
papoea
papoeataelen
paradiesveugel
paradisaea
paraguay
paramaribo
paray
parazoa
parazoe
parcy
pargny
paries
parijs
paris
park
parken
parkstad
parlement
parochie
parochies
parodie
parotia
part
particulier
particuliere
partie
partij
partijen
party
parula
pas
passagiers
passahiersschip
passen
passeriformes
passion
passy
pastoor
pastorie
patahonische
patrick
patriotten
patroo
pau
paul
paulo
paulowna
paulus
paus
pausen
pavel
pays
paz
pdf
pe
pearl
pedro
peee
peel
peijs
pekela
peking
pelle
pen
pende
peneothello
penguin
pennsylvania
per
perachtegen
percent
percies
perdamme
performance
periode
periodes
perkpolder
permanente
pers
perso
personele
personen
persoo
persoon
peru
perzen
perzie
perzisch
perzische
peso
petaoten
peter
petersburg
petit
petra
petroica
petronella
petrus
peugeot
pez
pg
phalacrocorax
pharomachrus
philadelphia
philip
philipp
philippe
philippine
philips
phobos
phoenix
phong
photos
phyllomyias
phylloscartes
pi
pianist
piano
picardie
picardisch
picasso
picchu
pie
piene
pienksterbewehieng
pienkstern
pier
pierre
pierrepont
piershil
piet
pieter
pietje
pietro
pietsjen
pig
pijnacker
pim
pin
pingui
pip
pit
pitta
pitten
pius
pkn
plaats
plaatsen
plaatsengids
plaatsnamen
plaes
plaete
plaetje
plaetjes
plaets
plaetselijke
plan
planeet
planete
planeten
plankedurp
planken
plankjes
plannen
plant
plantages
plantarum
plante
planten
plaots
plassen
plat
plateau
platte
platteland
platyrinchus
platyzoa
ple
pleas
plein
plek
plekje
plekk
plekke
plekken
plekkn
pleknaeme
pleknaemen
pleksje
pleviere
plezier
plicht
pliesie
ploegen
plompetoren
plus
pluto
pluumen
pluumpot
pn
po
podiceps
poe
poecilodryas
poeierdonsklauwier
poel
poetin
pogrom
polder
polders
polen
poliocephalus
politica
politicus
politie
politiek
politieke
polman
polo
polynesie
polynesische
pommer
pommers
poncin
pont
pontavert
pontische
poo
pool
pools
poolse
poorte
poorten
poosje
pop
popband
poppendamme
populair
populaire
populatie
population
port
portret
portugees
portugese
portuhal
portuhees
portuhese
portuhezen
positie
post
pot
potappel
poterie
potter
pouilly
pourc
power
powiat
pp
ppr
ppunt
praag
praat
prachtig
prachtige
praete
praeten
praot
praote
praoten
prate
pre
precies
predikant
predikanten
preekstoel
preken
premie
premier
pres
presbyterian
presentatrice
president
presles
press
pretoria
previncie
previnsie
pries
priest
priester
priesters
priezen
prikken
principe
prins
prinsbisdom
prinses
prionochilus
prive
pro
probeer
probeern
probeert
proberende
probleem
problemen
procent
proces
producer
product
producten
productie
proef
proefschrift
profeet
profeten
profiel
programma
prohramma
project
proo
protectoraot
protes
protessen
protest
protestant
protestante
protestanten
protestantisme
protestants
protestantse
protesten
prov
provence
provinciale
provinciaole
provincie
provincies
provinsie
psalmen
psd
psdnet
pse
pseudocolopteryx
pseudoniem
psv
psyholohie
pt
pterocles
ptiloris
publiceerde
publiek
publieke
puerto
puertoricaonse
punt
punten
puntje
purmerend
pusilla
put
putt
putte
putten
puun
puur
puut
puy
pvda
pveugels
pvv
pzc
q
qatar
qua
quack
quade
quang
queen
queensland
quentin
quincy
quo
r
ra
rache
rachel
rachels
racoon
radar
radio
radja
raed
raeduus
raeke
raeken
raekt
raekte
raelte
raemen
raepe
raeven
rafael
ral
rammekens
ramp
rampen
ramsbottom
rand
randstad
rang
rangi
raod
raok
raol
rapport
ras
rassen
rat
rault
ravenstein
ray
raymond
rboo
rboot
rd
rde
rdee
rdelek
rdelijk
rdelijke
rden
rdenveld
rder
rdere
rdereiland
rderkwartier
rderzielvest
rdienst
rdienste
rdig
rdinaot
rdoo
rdwessen
rdwest
rdwiek
rdzee
re
reactie
read
reagan
reake
recent
recente
rech
rechen
rechs
recht
rechtbank
rechte
rechten
rechter
rechts
rechtvaerdig
reconstructie
record
records
red
redde
redden
reddieng
rede
redelijk
reden
ree
reed
reeds
reee
reej
reeks
reestdal
reeuwiek
referendum
reformaotie
reformatie
reformatorisch
reformatorische
reformed
regel
regelmaetig
regels
regen
regent
regerieng
regerienge
regering
regie
regime
regio
region
regt
reguliere
rehee
reheern
rehels
rehen
rehenwoud
reherieng
reherienge
rehering
rehio
rehionaole
reiderland
reimerswaal
reimerswaol
reims
reinhoudt
reis
reize
rekanje
rekenen
rel
relatief
reld
religie
religieuze
relihie
reliwiki
rellen
remix
remuzen
ren
renaissance
renault
rene
renesse
renisse
renkum
renlan
renn
renoek
renon
renswoude
renveen
reptielen
reptilia
republic
republiek
republika
res
resolutie
resp
ressen
rest
restant
restaurant
reste
resten
reto
reusel
revest
revolutie
revoluties
rey
reykjavi
reynaerde
reynaert
reyssouze
rez
reze
rhead
rheden
rhenen
rho
rhode
rhodesie
rhoo
ri
riat
ribemont
ric
rica
rich
richard
richt
richten
richter
richtieng
richting
richtingen
richtte
rico
ridder
ridderkerke
ridders
rie
ried
riedt
riee
rieje
riek
riekdom
rieke
rieken
rieksmonument
rieksmonumenten
riekste
riekswaeterstaet
rieksweg
rien
rieng
rienge
riengen
rienk
rienkriee
rienlan
rienland
riep
ries
riesoo
riessen
rieswiek
riet
rieu
rieux
rif
riga
rignat
rij
rijen
rijk
rijn
rijnkanaol
rijnland
rijnstreek
rijsel
rijssen
rijtje
rik
rilland
ring
ringen
rinus
rio
rippebliek
rippeblikein
ripuarisch
ris
rishi
rite
rittem
rivaol
rivie
rivier
riviere
rivieren
rivierenland
riviertje
rk
rke
rken
rklaojs
rkt
rkte
rlien
rliengen
rlijk
rlog
rlohen
rm
rmde
rme
rmee
rmuzen
rn
rnklee
rnsnaevel
ro
rob
robaais
robben
robert
roberto
robrecht
rochefort
rocht
rock
rockband
rode
roeaan
roebel
roelofs
roem
roemeens
roemeense
roemenie
roemie
roend
roep
roepe
roepen
roept
roer
roerdaelen
roermond
roerstreek
roete
roger
roi
rol
rolle
rom
roma
roman
romans
romaons
romaonse
rome
romeinen
romeins
romeinse
romeinsen
rommel
ron
ronald
ronche
rond
ronde
rondom
roo
rood
roofdier
rooie
rooms
roos
roosendael
roosevelt
roozendael
rop
ross
rosse
rothanze
rotonde
rotsen
rotterdam
rouen
round
route
rouvroy
rouwe
rover
royal
roze
rozendael
rozoy
rpf
rr
rrehe
rrek
rreke
rreken
rs
rse
rser
rsproenkelijk
rsproenkelijke
rst
rste
rt
rte
rten
rtien
rtl
rttemberg
rtug
ru
rucphen
rudolf
ruficollis
rug
rui
ruim
rusland
russen
russisch
russische
rust
rustig
ruter
rutger
ruth
rutte
rutten
ruud
ruum
ruumte
ruus
ruut
ruyter
ruzie
rvan
rve
rvoud
rwiel
ry
s
sa
saartje
saba
sabbat
sabbinge
sabel
saeftinghe
saeme
saemen
saemenevoegd
saemengaen
saemengegaen
saemengevoegd
saemenstellieng
saemenstelling
saemenvoegieng
sage
sahara
saharaonse
sahel
saint
sainte
saksen
sal
salem
salland
sallemanders
salles
salomonseilan
salvador
sam
samaria
samen
samenleving
samoa
samuel
san
sandra
santa
santiago
santo
sao
saoedi
saomenstellieng
sap
sardinie
sart
sas
sasput
saterdach
saterfries
saturnus
sausses
savoye
sbs
scandinavie
schae
schael
schaele
schaeme
schaep
schaepen
schaerendieke
schaerpenisse
schagen
schandaal
schande
schaol
schaopenbout
schap
schattieng
schatting
schattingen
sche
schee
scheepsramp
scheepvaert
scheepvaertverkeer
schei
scheidieng
scheien
scheikunde
schelde
scheldestroo
schenge
schepen
scheppe
scheppieng
scherpe
scherpenisse
scherpenzeel
scheuring
scheveningen
schie
schiedam
schieland
schient
schiereiland
schiermonnikoo
schiet
schieten
schild
schilder
schilderieje
schilderiejen
schilpadd
schip
schipbreukeliengen
schipbreukelingen
schipper
schippers
schmidt
scho
schoddebozze
schoenen
schoere
schoeren
schokland
schole
scholen
schone
schoo
school
schoole
schoon
schoot
schore
schorren
schot
schoten
schotland
schots
schotse
schouten
schouwen
schouwse
schrabbekerke
schraevenpolder
schre
schree
schreef
schrief
schriefster
schrieft
schriev
schrieve
schrieven
schriever
schrievers
schrift
schrikkeljaer
schrikkeljear
schroevers
schubert
schuld
schuldigkeit
schutje
schuure
schwo
scolopax
scotland
scott
scytalopus
sdiek
se
sealand
sebastian
sec
second
seconde
secretaris
sector
sedert
see
seed
seine
seiurus
seizoen
seizoenen
seksualiteit
seltsjoeken
selve
semitische
sen
senegal
september
serenoek
sergy
sericornis
serie
serooskerke
serpophaga
serre
serrie
service
servie
servisch
servische
setalland
sgp
shah
sharm
sharon
show
si
siberie
siberische
sicilie
sie
siedurpe
siegfried
sierra
sieskerke
sigismund
sigmund
sil
silezie
silvicultrix
simon
simpang
simpel
simpelveld
sinai
sind
sinds
sindsdien
singapore
single
sinners
sino
sinoutskerke
sins
sinsdien
sint
sinte
sion
sir
sire
site
sitta
sittard
situaotie
situatie
six
sixtus
sjabloon
sjes
sk
skagerrak
skappel
skelet
skepi
skerke
ski
skie
skopje
skye
slaan
slacht
slachten
slachter
slachtoffers
slae
slaegen
slaepe
slaepen
slaeven
slaevernieje
slag
slager
sland
slang
slangen
slaoven
slaovisch
slaovische
slavernij
slechs
slecht
slechte
slechts
sleutel
sliedrecht
slik
slikken
slikplaote
slit
sloe
sloedam
sloeg
sloege
sloelijn
sloo
sloog
sloot
slot
sloten
slovenie
slowakije
slowaoks
sluis
slute
sluten
sluus
sluushaeven
sluuskille
sluut
sluuzen
sluzen
smal
smalle
smallegange
smallingerland
smalstad
sme
smerdiek
smid
smit
smith
smits
smyrna
smytegelt
smz
snaevel
snaevelbee
snaevels
snee
sneeuw
snel
snelle
sneuvelde
snieuwhanze
snip
snoep
sns
so
sociale
socialistische
sociaoldemocraotisch
sociaole
society
sociolohie
socrates
soeburg
soedan
soep
soest
soeverein
sofia
sogn
soissons
sokkel
soldaot
soldaoten
soldaten
soleerd
solitair
someren
somme
sommege
sommelsdijck
sommerdiek
sommige
sommihe
soms
somste
son
sondags
song
sons
soo
soort
soorte
soorten
sophie
sorbisch
soria
souburg
sous
souterliedekens
south
sovjet
sovjetunie
sp
spaa
spaans
spaanse
spaarnwoude
spaense
span
spanjaerden
spanje
spanjolen
spanwiedte
spaons
spaonse
spd
speciaol
spectrum
spee
speech
speel
speelde
speelt
spek
spel
spele
spelen
spelende
sperling
spiegel
spiehel
spiekenisse
spirit
spits
spitsberhen
spoo
spoor
spoorlijn
spoorweg
sporen
sport
spot
spraeke
sprak
spraoke
spreek
spreekt
spreektaele
spreke
spreken
spreker
sprekers
spriek
spriengen
sprong
spui
spul
spullen
squamata
sr
sraskerke
sreinskinders
sri
ss
sse
ssen
st
sta
staaij
staan
staande
staat
staats
stad
stadhuus
stadje
stads
stadsbrand
stadsfries
stadskanaol
stadsrech
stadsrechen
stadsrechten
stadswallen
stadt
staduus
stae
staen
staene
staerre
staert
staet
staete
staeten
staetsoo
staevenisse
staf
stak
stal
stalin
stalingrad
stalland
stam
stamm
stamme
stamt
stan
stand
standbee
standbeeld
standerdnederlands
standerdtaele
standpunt
stao
staon
staot
staoten
stap
staphorst
stapte
start
startte
stat
statbel
state
staten
station
stationsgebouw
statistiek
status
stavenisse
stavoren
stburg
stdag
ste
stede
stedelijke
steden
stee
steed
steedn
steeds
steee
steeg
steek
steekn
steekt
steen
steenblok
stefan
stefanus
stein
stekel
steken
stekene
stel
stelde
stelek
steleke
stelijk
stelijke
stelik
stelike
stell
stelle
stellen
stellendam
stellende
stelliengwerfs
stelliengwerven
stellingen
stelsel
stelt
steltloo
stem
stemm
stemme
stemmen
stemt
sten
stena
stenen
stenriek
stenriekse
stenrijk
stentied
stentieds
stephen
ster
sterft
sterhout
steriek
sterk
sterke
sterker
sterland
stern
sterre
sters
sterschelde
sterscheldekering
sterven
sterwolde
steun
steunde
steunt
steve
steven
stevig
stevihe
stflakkee
stfries
sti
stichen
stichter
stichtieng
stichting
stichtse
stichtte
stictse
stie
stieng
stienge
stierde
stiere
stierf
stigmatura
stijl
stik
stikje
stikk
stikke
stikken
stikkie
stil
stille
stillen
stische
stit
stkant
stkantons
stmael
sto
stoan
stoat
stockholm
stoel
stoeng
stoenge
stof
stoffen
stok
stond
stonden
stong
stonge
stoo
stoomschip
stoomvaart
stoot
store
storm
stort
stout
stpolder
straat
straelvinnigen
straet
straete
straeten
straetsburg
strand
strandloo
strange
strao
straot
straote
strauss
stree
streek
streekmuseum
streektaele
streektaelen
streep
street
strek
streken
strict
stried
striedkrachen
striejen
strijd
strijders
stro
stroo
structuur
struken
struuksluper
struusveugel
struusveugels
ststelliengwerf
stuart
studeerde
studeern
studie
studies
studio
stuitje
stuk
stukje
sturf
sturft
sturjalland
sturm
sturmen
sturmmee
sturmveugels
sturmvloed
sturmvloeden
sturmvloedkee
stuur
stuurman
stzaan
stzee
su
subklasse
substraot
subtropisch
subtropische
succes
sucre
sudan
suid
suiriri
sukerveugel
sultan
sultanaot
sumatra
sunak
sung
superciliaris
superfemielje
superklasse
supermart
superorde
superstamme
sur
suran
suriname
surinaome
surinaoms
surrender
surtout
susan
susteren
suukerveugels
svalbard
sven
svore
svores
swalmdal
swamp
swiebertje
swiep
sydney
symboo
symbool
symphony
symponie
synagoge
synode
synthliboramphus
syrie
syrische
syrrhaptes
systeem
t
ta
taal
tachentigjaerige
tachtig
tachtigjaerige
tachybaptus
taefel
taefelberg
taek
tael
taele
taelen
taelfemielje
taelfemieljes
taelgebied
taelkunde
taemelijk
tagalog
taipei
taiwan
taj
tak
takke
tal
talent
tamil
tan
tankenberg
tanks
tante
tanzania
taofel
tapaculo
tapuittiran
tarawa
tardenois
tartu
tasmanie
tatoee
taxon
taxonomie
tay
tbilisi
tchagra
tdiensten
te
tea
team
teau
teauneuf
techniek
tee
teegn
teehen
tege
tegeliekertied
tegen
tegenover
tegenstand
tegenstanders
tegenstellienge
tegenstelling
tegenwoordig
tehen
tehenover
tehenstellieng
tehenwoo
tehenwoordig
tehenwoordige
tehenwoordihe
teheran
teken
tekeningen
tekent
tekort
tekst
teksten
tel
telard
telde
telegraaf
tell
tellende
teln
telophorus
tels
telt
temissen
tempel
temperatuur
tempo
ten
tenay
tendee
tendeels
tenminste
tennessee
tennet
tenschap
tenslotte
teploeg
ter
tere
terecht
term
terneuzen
ternisse
terrein
terreurorganisatie
territorium
terror
ters
terschellienge
terschelling
terug
terve
terwiel
terwijl
tess
test
testamant
tetrapoda
tevee
tevens
tevree
texas
texel
textiel
teylingen
th
tha
thailand
thames
thans
that
the
thee
thema
theo
theodoor
theodor
theodore
theologische
theoloog
theorie
thie
thieme
thierry
this
thole
tholen
thomas
thorame
thuis
thuus
ti
tibet
tibetaonse
tie
tied
tiede
tieden
tiedens
tiedes
tiedje
tiedvak
tiee
tieje
tiejen
tiejens
tiejes
tiel
tielerweerd
tien
tiende
tiene
tiengemee
tienne
tientallen
tiet
tietjerksteradeel
tigerhai
tiid
tijd
tijde
tijden
tijdens
tijdschrift
tiki
tilburg
tillevisie
tillevisieprogramma
tillevisieserie
tillon
tim
time
timmerman
timor
tinamiformes
tinamoe
tinamoes
tinamus
tiran
tirana
tirann
tirol
tis
titanic
titel
titels
title
tityra
tjako
tje
tjes
tn
to
tobago
toch
tocht
todietiran
todirostrum
toe
toegang
toegeschreve
toegevoegd
toekomst
toekomstige
toen
toendra
toenmaelig
toenmaelige
toenmaelihe
toentertied
toer
toerisme
toerissen
toerist
toeristen
toeristisch
toeristische
toestand
toet
toeval
toi
tokio
tol
tole
tollebeek
tolmomyias
tom
tomb
tombe
tome
ton
tonee
toneelploeg
tong
tonga
tonge
tony
too
tools
toon
top
toren
tortel
tot
totaa
totaal
totael
totale
totaol
totaole
toulouse
tour
touter
touvelles
touw
touwe
tower
toxorhamphus
trace
trad
trade
traditie
traditionele
trainer
tram
tramways
trans
transport
trap
tre
tree
treed
treedt
treffen
treft
trein
treinongelok
treinramp
trek
trekke
trekken
trekpaerd
trekpleister
trekt
treur
trier
tringa
trinidad
triton
trivier
tro
troep
troepen
trof
trogon
trogonidae
trogons
trok
trokk
trokke
trokken
troo
tropisch
tropische
trouw
trouwde
trouwe
trouwen
trouwende
trouwens
trouwes
trouwt
trug
truman
trump
trung
truss
truzement
trynwouden
ts
tschaelige
tschap
tsjechie
tsjecho
tsjehhie
tsjehhisch
tsjehhoslowakije
tsjoektsjenzee
tste
tsunami
tsunaomi
tte
tu
tubberrehe
tuin
tuis
tun
tunesie
tunnel
tur
turf
turien
turijn
turken
turkije
turkish
turkmenistan
turks
turkse
tuss
tusse
tussen
tuun
tuunen
tuus
tuvalu
tv
twaolf
twaolfde
twe
twee
tweede
twelf
twente
twenterand
twi
twidde
twidden
twiderde
twint
twintegste
twintig
twintigste
twitter
ty
tybeert
tyd
tynaerlo
type
typisch
typische
tyrannus
tzebuergesch
tzelfde
u
ubaye
ubuntu
ucht
uchten
uddel
udder
udegen
udihe
uetersen
ui
uil
uis
uit
uitdrukking
uitg
uitgave
uitgeverij
uitmakende
uitslag
uk
ulder
uldere
ulen
ulp
ulpe
ulst
ulsters
ultimatum
um
umlaut
un
unconverted
und
under
unesco
unie
uniek
union
united
universal
universiteit
university
up
ur
uranus
urbanus
ure
uren
urgel
urk
urkers
uruguay
us
usdiek
usnis
ut
utah
uterlijk
uterste
utrecht
utrechts
utrechtse
uu
uud
uudige
uudihe
uur
uure
uus
uusje
uusjes
uut
uutbarsting
uutbraek
uutbreiding
uutbreken
uute
uutebreid
uutebroeid
uutee
uuteindelijk
uuteindeluk
uutendelienge
uutereikt
uuterste
uutesprook
uutesturven
uutevoerd
uutgaeve
uutgang
uutgebreid
uutgebreide
uutgebrocht
uutgee
uutgegeven
uutgegroeid
uutgeroeid
uutgeschreve
uutgesproke
uutgestrekte
uutgesturve
uutgever
uutgeverieje
uutgevoerd
uutgezonde
uutgezonden
uutkomm
uutkomme
uutleg
uutspraek
uutvinder
uutvoerende
uutzicht
uutzonderieng
uutzonderienge
uutzonderiengen
uutzondering
uuzen
uvcw
uw
uwe
uwelijk
uwen
uwig
uwige
uwigen
uws
uwse
uwsen
uyl
uze
uzen
v
va
vaa
vaak
vaart
vacueerd
vadder
vader
vadere
vaderland
vaeder
vaek
vaele
vaels
vaerde
vaerder
vaere
vaeren
vaert
vaerte
vaesjes
vaete
vak
vakantie
val
valkenburg
valkenisse
valkenswaerd
vall
valle
vallei
vallen
valn
valois
valse
valt
van
vanaf
vanaof
vandaag
vandaeg
vandaege
vandaen
vandaene
vandaer
vandeer
vaneihes
vang
vange
vangen
vanof
vanouds
vant
vanuatu
vanuut
vanwege
vanwehe
vanzelf
vaoder
vaok
vaolt
vaor
vapeur
var
varde
varder
varennes
variant
variante
varre
vars
vast
vaste
vasteland
vasteleid
vasten
vastesteld
vastgegroeid
vastgesteld
vasti
vaticaa
vault
vaux
ve
vecht
vechtdal
vechte
vechten
vechtstreek
vechtstroo
vedder
vedders
vee
veel
veelal
veele
veen
veendam
veenendaal
veenendael
veenkolonie
veenpolders
veenstreek
veer
veeraeven
veerboo
veerboot
veerdienst
veerdienste
veere
veerman
veerrecht
veerse
veertien
veertiende
veertienden
veertig
vees
veetee
vegas
veghel
veilig
veiligheid
vel
veld
velde
velden
vele
velen
velsen
veluwe
veluwezoo
veluws
velwachter
velzen
ven
venen
venetie
venezuela
venlo
venray
vent
venters
ventje
ventjes
venus
ver
verael
veranderd
veranderde
verandere
veranderen
veranderienge
verandert
verband
verbie
verbindieng
verbindiengen
verbinding
verbindt
verbluuf
verboden
verbon
verbond
verbonde
verbonden
verbouwd
verbrand
verde
verdediging
verdee
verdeeld
verdeelplan
verder
verdiende
verdon
verdrag
verdreven
verdrienke
verdroenke
verdronke
verdronken
verdun
verduren
verdwee
verdween
verdwene
verdwenen
verdwiene
verdwient
vere
veree
vereenigde
vereeniging
veren
verenigd
verenigde
vereniging
vergadering
vergae
vergao
vergaot
vergeet
vergete
vergeten
vergeve
vergeven
vergilius
verging
vergo
vergroo
verhaal
verhael
verhaelen
verhagen
verhalen
verhuusde
verjaerdag
verkamman
verke
verkee
verkeer
verkeersdoo
verkieziengen
verkiezinge
verkiezingen
verklaer
verklaerd
verklaeren
verklaerende
verklaering
verklaert
verklaring
verkleinwoorden
verko
verkocht
verkochten
verkoo
verkoze
verkozen
verlaete
verlaeten
verlaten
verleate
verleden
verlee
verleidieng
verliep
verlierst
verlierzen
verlies
verliet
verlieze
verliezen
verloo
verloor
verlore
verloren
verly
vermandere
vermandois
vermeld
vermivora
vermoedelijk
vermold
vermolde
vermont
vermoo
vermoord
vermue
vernet
verneuil
vernietigd
vernietigen
vernietiging
vernieuwd
vernoemd
veroo
veroordeeld
veroorzaekende
veroorzaekt
verouwerd
verover
veroverd
veroveren
verovern
verovert
verplicht
verre
verricht
vers
versailles
verscheen
verscheie
verschene
verschenen
verschiene
verschiensel
verschient
verschil
verschill
verschillen
verschillende
verschilt
verschrikkelijk
verseput
versie
versierd
verslaegen
verslag
versli
verslit
versloeg
versloge
verslohen
verspreid
verspreidiengshebied
verstae
verstaen
verstand
versterking
versterkt
verstrooid
vert
vertaeld
vertaeler
vertaelingen
verte
vertebrata
vertehenwoo
verteld
vertelde
vertelle
vertellen
vertelt
vertigo
vertoo
vertrek
vertrekke
vertrekt
vertrok
vertrokke
vertrokken
vertrouwe
vertrouweliengen
veruut
verval
vervange
vervangen
verve
vervins
vervloekt
vervoer
vervolgd
vervolgens
vervolges
verwacht
verwant
verwante
verwantschap
verwekte
verwiest
verwieze
verwiezen
verwijderd
verwijderen
verwoest
verwoeste
verzandde
verzet
verzocht
verzoek
verzoening
verzurgd
ves
vesles
vestihen
vesting
vet
vette
vetulicolia
veu
veugel
veugels
veugelsoo
veugelwjerde
veuhels
veul
veur
veural
veuren
veurne
veyle
vezanger
vi
via
vic
vice
vicente
vichy
vicq
victor
victoria
vidal
video
vie
viel
viele
vielen
vieln
vier
vierdaegse
vierde
viere
vieren
vierkant
vierkante
vierpoo
viertoren
vies
vietnam
vietnamees
vietnamese
vieu
vieux
vii
viii
vijan
vijand
vijandelijkheden
vijanden
vijandig
vijf
villa
villars
ville
villeneuve
villers
vilnius
vilvoorde
vin
vincent
vinci
vind
vinde
vinden
vindt
vinn
vinnen
vint
vintje
vinvis
vir
virginia
virieu
virus
vis
vismijn
visse
vissen
visser
visserie
visserieje
vissers
vissersmonument
vissersschip
vita
vitesse
vith
vlaams
vlaamse
vlaanderen
vladimir
vlaeke
vlaemingen
vlaems
vlaemse
vlaenderen
vlaerdienge
vlaerdingen
vlagge
vlak
vlakbie
vlake
vlakt
vlakte
vlaktes
vlaming
vlammen
vlams
vlaominge
vlaomingen
vlaoms
vlaomse
vlaonder
vlaondere
vlaonderen
vlee
vleis
vleugels
vleuhels
vlie
vliedberg
vliedbergen
vlieg
vliege
vliegend
vliegende
vliegt
vliegtuug
vliegtuugen
vliegveld
vliehen
vliehenpikker
vliehenvanger
vlieland
vlies
vliet
vlissienge
vlissiengers
vlissiengse
vlissingen
vlissingse
vloandern
vloed
vloer
vloo
vloot
vlucht
vluchteliengen
vluchtelingen
vluchten
vlug
vn
vo
voa
voader
voc
vocal
vocht
vochtig
voe
voebal
voebalclub
voeballer
voebaltrainer
voebee
voedsel
voekom
voekomm
voel
voen
voer
voerde
voere
voeren
voerendael
voern
voet
voetbal
voetballer
voeten
voetveer
vog
vogel
vogelaar
voggende
vogges
voh
voice
vol
volendam
volg
volgde
volgden
volge
volgende
volgenden
volgens
volges
volgt
volhen
volhende
volhens
volhorde
volk
volken
volkenbond
volkerak
volkslied
volksmond
volkspartij
volksverhael
volksverhalenbank
volle
volledig
volledige
volmae
volop
voltooid
voltooide
volume
volwassen
von
vond
vonde
vonden
vong
vonge
vonn
voo
voogd
vooheen
voor
voora
vooral
vooraol
voorbeeld
voorbeelden
voorbereid
voorburg
voordat
voorganger
voorgoed
voorhanger
voorheen
voorkomen
voorkommene
voorkomt
voorlopers
voormaelig
voormaelige
voormaelihe
voormalig
voormalihe
voorman
voornaemelek
voornaemelijk
voornaemste
voorne
voorop
voorschoten
voorst
voorstraete
voort
voorts
voorzieje
voorzien
voorzitter
vor
voral
voraol
vore
voren
vorige
vorm
vormt
vorst
vorsten
vos
vosmeer
vosse
vossemaer
vrachtschip
vraeg
vraege
vre
vrede
vree
vreed
vreemd
vreemde
vrees
vres
vresse
vreugde
vrie
vriedag
vriee
vriegemaekt
vrieheid
vrieje
vriend
vrienden
vriendschap
vries
vriewe
vriewel
vrij
vrije
vrijheid
vrijwel
vroeg
vroege
vroeger
vroegere
vroehe
vroeher
vroehere
vrom
vromme
vroog
vrou
vrouw
vrouwe
vrouwelijk
vrouwelijke
vrouwen
vrouwenlexicon
vrt
vruchen
vrucht
vruchte
vruchten
vs
vu
vught
vulkaon
vurm
vurmde
vurme
vurmen
vurmende
vurmt
vurnaemelijk
vurral
vuuf
vuufde
vuufden
vuufee
vuufonderd
vuuftien
vuuftiende
vuuftig
vuul
vuule
vuur
vuurtoren
vuurtorens
vv
vvd
vvs
w
wa
waa
waal
waar
waara
waarbie
waarbij
waare
waargenomen
waarin
waarmee
waarna
waarnemingen
waarom
waaronder
waaronger
waarop
waarschijnlijk
waaruit
waarvan
wacht
wachte
wachten
wachter
waddeneilanden
waddenhebied
waddenzee
waddinxveen
wae
waedhoeke
waefel
waegen
waegeningen
waelre
waels
waeltje
waenskinders
waepen
waepens
waepenstilstand
waer
waerd
waerde
waere
waereld
waereldoo
waereldoorlog
waerelds
waeren
waerin
waern
waernemiengen
waeronger
waerop
waes
waeter
waeterland
waeterloo
waeteroverlast
waeters
waeterschap
waeterschappen
waetersnoo
waetertoren
waeterveugels
waeterwegt
wageningen
wagner
wahieroa
wakker
wal
walchere
walcheren
walchern
walchers
walcherse
walchren
wales
wallace
wallen
wallonie
walso
walter
walvis
walvisbaai
walvissen
wan
wanneer
wannes
want
wao
waog
waol
waols
waolwiek
waor
waoren
waorn
waoronder
waos
waoter
wapen
wapens
war
ward
ware
waren
warn
warner
warren
warschau
warschijnlijk
was
waschappel
washington
wasschappel
wasschappels
wasschappelse
wassen
wassenaer
wast
waste
wat
water
waterstof
watvoe
waz
wazze
wazzen
we
weareld
weareldoo
weareldoorlog
web
weber
weblog
webplekke
website
webstek
wedstrijd
weduw
weduwe
wee
weegbrugge
week
weeke
weer
weera
weerbie
weerdeu
weerdeur
weerin
weerna
weernae
weeronger
weerop
weert
weervan
wees
weet
weete
weeze
weg
wegen
wegens
weges
wegt
wehen
wei
weie
weig
weilan
weinig
weinige
weinug
weke
weken
wekerom
wel
welk
welke
welkom
welle
wellicht
welvaert
welzijn
wen
wendy
wenen
wens
wense
wensen
wer
werd
werden
were
wereld
wereldkampioenschap
wereldoo
wereldoorlog
wereldwied
wereldwonders
werk
werke
werken
werkende
werkte
werkwoord
werkwoorden
werkzaamheden
werm
werme
wermte
werner
werp
werreke
werschienlek
wervers
wes
wesdurpe
weskappel
wessen
west
westelek
westeleke
westelijk
westelijke
westelik
westen
westerkwartier
westerlauwers
westerschelde
westerscheldetunnel
westerschouwen
westerse
westerveld
westervoort
westerwolde
westfaolen
westfries
westfront
westhoek
westkant
westkante
westkapelle
westkapellecultuurbehoud
westland
westschouwe
weststelliengwerf
westvoorn
wesvore
wet
wete
weten
wetenschap
wetenschappelijke
wetenschappers
wetgevende
wethevende
wethouder
wetten
weumelinge
weun
weunde
weunden
weune
weunen
weunende
weunhuus
weuningen
weunkern
weunn
weunplekke
weunsdag
weunt
weze
wezen
wezene
which
whig
white
who
wi
wibie
wic
wideur
wie
wiechen
wied
wiegerd
wiehe
wiek
wieken
wielrenner
wien
wienkel
wienkels
wier
wierd
wierde
wierden
wiere
wieren
wiern
wierre
wiert
wierum
wies
wiest
wieze
wiezen
wig
wij
wijk
wijze
wiki
wikipedia
wil
wild
wilde
wilders
wilhelm
wilhelmina
wilhelmus
will
wille
willeboordse
willem
willemina
willen
william
williams
willink
willy
wils
wilson
wilt
wim
wimee
win
winae
wind
windstoo
winkel
winkler
winnaer
winnen
winston
winsum
wint
winter
winterklee
winters
winterswiek
wir
wiran
wirin
wironder
wironger
wirop
wiruut
wisconsin
wiskunde
wiskundige
wiskundihen
wisse
wissekaerke
wissekerke
wist
wiste
wit
witbrauwliesterhaoie
with
witkee
witoo
witt
witte
wittem
witten
wivan
wizze
wo
woa
woar
woater
woe
woensdrecht
woerden
woestduyn
woeste
woestijn
woiwodschap
woiwodschapp
wojewo
wol
wolde
wolden
wolf
wolfersdiek
wolfert
wolfgang
wolken
wolle
won
wonder
wonen
woo
woon
woonde
woonden
woord
woorden
woordenboek
woordenschat
woordje
woore
woort
wor
word
worden
wordn
wordt
world
worn
worre
worren
wort
wortels
wos
wostburg
woste
wou
woud
wouden
woudenberg
woudrichem
woue
wouen
wouw
wouwe
wraak
wrak
wse
wu
wudder
wuk
wulder
wullem
wulleminadurp
wulleminapolder
wulpe
wult
wunnir
wurmen
wuuf
wuufje
wuufjes
www
wyoming
x
xang
xaver
xavier
xenoturbellida
xi
xii
xiii
xiv
xolmis
xvi
y
ya
ye
year
yitzhak
yn
york
you
young
your
youtube
ys
yvonne
z
za
zaak
zacht
zaed
zaeden
zaege
zaek
zaeken
zaenstreek
zaete
zaeterdag
zag
zagen
zagge
zaglossus
zak
zaken
zakke
zakken
zal
zaltbommel
zambia
zand
zanddiek
zandkree
zandkreek
zandoenders
zang
zanger
zangeres
zangers
zangveugels
zaok
zaoken
zaomslag
zaot
zat
zatte
zaventem
zdene
ze
zea
zeca
zee
zeee
zeeland
zeelandia
zeer
zeet
zeeu
zeeuw
zeeuwen
zeeuws
zeeuwsch
zeeuwsche
zeeuwse
zeg
zegelrienk
zegen
zegg
zegge
zeggen
zeggn
zegt
zehh
zehhe
zei
zeid
zeiden
zeie
zeil
zeilen
zeist
zeit
zeker
zekere
zekers
zel
zeldzaem
zelf
zelfbestuur
zelfde
zelfs
zelfstandig
zelfstandige
zelfstandihe
zelluf
zelzaote
zen
zendt
zerbeidzjan
zes
zesdaegse
zesde
zesse
zestien
zestiende
zestig
zet
zetel
zetels
zett
zette
zetten
zeumer
zeumers
zeun
zeune
zeunen
zeven
zevenaer
zevende
zevene
zeventien
zeventiende
zeventig
zich
zicht
zichtbaer
zichzelf
zie
ziede
ziee
zieje
ziejen
ziejene
ziek
zieke
zieken
ziekenhuus
ziekenuus
ziekte
ziel
ziele
zien
ziene
zienge
ziengen
ziengt
zienkt
ziepe
zierikzee
ziet
ziin
zij
zijdestaert
zijn
zijnde
zijne
zijnen
zijt
zilver
zilvere
zilveren
zilverreiher
zimbabwe
zimmerius
zin
zinne
zinnen
zinnige
zionistisch
zionistische
zit
zitplekken
zitt
zitte
zitten
zitting
zo
zoa
zoals
zoan
zoas
zochte
zoda
zodan
zodat
zodoende
zoe
zoek
zoeke
zoeken
zoektocht
zoet
zoete
zoetelande
zoetermeer
zoeterwoude
zogenaemde
zohenaemde
zoiets
zolder
zomer
zon
zondaers
zondag
zondags
zonde
zonden
zonder
zonen
zonger
zoo
zoogdieren
zoom
zoon
zorgen
zou
zouden
zoue
zout
zoute
zouw
zouwe
zovee
zowat
zowe
zowel
zu
zuch
zudelijk
zudelijke
zudelike
zuden
zudereiland
zuderzee
zuid
zuje
zujelijke
zujen
zujerzee
zukke
zulle
zullen
zulver
zulvere
zummer
zun
zundert
zunig
zunne
zunnestelsel
zur
zurg
zurgde
zurge
zurgen
zurgende
zurgt
zurhen
zurrikzee
zus
zuster
zusters
zutphen
zuud
zuudelijk
zuudelijke
zuuden
zuudhaevenpoorte
zuudkant
zuudkante
zuudland
zuudn
zuudof
zuudoo
zuudplas
zuudpoo
zuudwes
zuudwessen
zuudwest
zuudwesten
zuudwolde
zuudzieje
zuuj
zuujelek
zuujeleke
zuujen
zuujerzee
zuujn
zuurstof
zuuszande
zuuver
zuver
zuvere
zw
zwaar
zwaenen
zwaer
zwaerd
zwaere
zwaeren
zwaerste
zwak
zwakke
zwaor
zwart
zwarte
zwartewaeterland
zwartkee
zwe
zweden
zwee
zweeds
zweedse
zwemm
zwemmen
zwemvliezen
zwi
zwiendrecht
zwijndrecht
zwin
zwitserland
zwitserse
zwolle
zy
zyn
{
|
}
~
£
«
­
°
±
²
³
´
·
¹
»
½
¾
×
ło
ɦ
ˈ
ˌ
̀
́
̂
̃
̄
̆
̇
̈
̉
̊
̋
̌
̑
̓
̛
̣
̦
̧
̨
α
ο
ς
χ
в
н
ֹ
ׁ
ד
ש
ا
ة
َ
ّ
ْ
ٔ
ٕ
ज
त
न
य
र
ल
ा
्
া
ั
ิ
ี
ุ
์
‎
‏
‑
–
—
‘
’
“
”
„
‟
†
•
…
⁴
€
↔
↷
∑
−
∞
③
④
⑦
⺀
⺄
⺆
⺈
⺊
⺌
⺕
⺝
⺸
⺼
⿰
⿱
⿲
⿳
⿴
⿵
⿶
⿷
⿸
⿹
⿺
⿻
〢
コ
ユ
㇁
㇂
㇄
㇇
㇈
㇉
㇓
㐁
㐄
㐅
㐌
㐫
㐬
㐭
㐮
㐱
㑒
㒵
㒸
㒼
㓁
㓞
㔾
㕛
㕣
㖾
㘝
㚅
㚇
㚔
㚘
㝉
㝡
㝴
㝵
㞋
㞢
㞷
㠩
㠭
㠯
㡀
㡭
㡿
㢲
㢴
㣇
㣺
㥯
㪅
㫄
㫐
㫒
㫺
㬅
㬎
㬥
㬰
㲋
㳄
㷠
㸒
㸚
㸦
㼌
㼲
㽞
㿟
䀠
䂞
䍃
䏍
䒑
䖍
䖒
䖝
䖵
䙴
䚻
䜌
䝿
䡛
䧹
䪞
一
丁
丂
七
丄
丅
丆
万
丈
三
上
下
丌
不
与
丏
丐
丑
专
且
丕
世
丘
丙
业
东
丞
丢
丣
两
严
並
丨
丩
个
丫
丬
中
丮
丰
丱
串
丵
丶
丷
丸
丹
为
主
丽
丿
乀
乂
乃
久
乆
乇
么
义
之
乌
乍
乎
乏
乐
乑
乔
乖
乗
乘
乙
乚
乛
乜
九
乞
也
习
乡
乳
乾
亀
亅
了
亇
予
争
事
二
亍
于
亏
亐
云
互
亓
五
井
亘
亚
亜
亞
亟
亠
亡
亢
交
亥
亦
产
亨
亩
享
京
亭
亮
亯
亰
亲
亳
亶
亷
人
亻
亼
亾
仁
今
介
仌
从
仐
仑
仒
仓
仕
他
付
仝
代
令
以
任
企
伊
伏
伐
休
会
伯
但
位
何
佘
余
作
佥
使
來
侈
侌
侖
侯
侵
便
保
俞
信
修
倉
倍
候
倠
備
僉
僕
儿
兀
允
兂
元
兄
充
兆
兇
先
光
兊
克
兌
免
兑
兒
兓
兔
党
兜
兟
入
全
兩
兪
八
公
六
兮
兰
共
关
兵
其
具
典
兹
兼
冀
冂
冃
冄
内
冈
冉
冊
冋
册
再
冎
冏
冐
冒
冓
冖
冗
冘
军
农
冝
冡
冥
冫
冬
冷
几
凡
凢
凵
凶
凷
凸
凹
出
函
凾
刀
刁
刂
刃
刄
刅
分
切
刍
刑
刕
刖
列
刘
则
初
別
利
别
到
制
刺
則
削
剌
前
剡
剽
劉
力
功
加
劦
助
劫
劳
劵
勃
勇
勉
勒
動
務
勞
勤
勹
勺
勻
勾
勿
匀
匂
包
匆
匈
匊
匋
匍
匕
化
北
匚
匝
匡
匪
匱
匸
匹
区
医
匽
匿
區
十
卂
千
卄
卅
卆
升
午
卉
半
卌
华
卑
卒
卓
单
卖
南
卜
卝
卞
占
卡
卢
卣
卤
卦
卩
卪
卬
卯
印
危
即
却
卵
卷
卸
卻
厂
厃
厄
历
厈
厉
厌
厓
厘
厚
原
厤
厥
厨
厭
厲
厶
厷
厸
去
厼
厽
叀
参
參
叅
又
叉
及
友
双
反
叐
发
叒
叔
叕
取
受
叚
叜
叟
口
古
句
另
叩
只
召
可
台
叱
史
右
叵
号
司
叹
吂
各
吅
合
吉
吊
吋
同
名
后
吏
向
吕
君
吝
吞
否
含
启
吳
吴
吹
吾
呂
呆
呈
告
员
呙
周
命
咅
和
咎
咠
咢
咨
咸
咼
哀
品
哉
員
哥
哲
唐
商
啇
問
啚
啬
啻
善
喜
喬
單
喿
嗇
噩
嚴
囊
囗
囘
囙
囚
四
回
囟
因
囧
囬
困
囱
囷
固
国
圂
圅
國
圍
圓
土
圡
圣
圥
在
圭
地
圶
圼
坐
坒
坚
坴
垂
垔
垚
埀
埋
埶
執
基
堂
堅
堆
堇
堯
塞
墨
壘
士
壬
壯
声
壳
壴
壹
壺
壽
夂
处
夅
夆
备
夊
夋
夌
复
夏
夒
夕
外
夗
夘
多
夜
夢
大
夨
天
太
夫
夬
夭
央
失
夲
头
夷
夸
夹
夻
夾
奂
奄
奇
奈
奉
奎
奏
奐
契
奓
奔
奚
奞
奠
奢
奥
奭
女
奴
奻
好
如
妄
妙
妟
妥
妻
妾
姑
委
姜
威
娄
婁
婴
嬰
嬴
子
孑
孔
孕
孖
字
存
孚
孛
孝
孟
季
孤
学
孫
孱
學
宀
宁
宂
它
宅
宇
守
安
宋
完
宏
宓
宗
官
定
宛
宜
宝
客
宣
室
宮
宰
害
家
容
宾
宿
寄
寅
密
富
寒
察
寧
審
寫
寬
寮
寸
对
寺
寻
寽
対
寿
封
尃
射
将
將
專
尉
尊
尋
尌
對
小
少
尒
尓
尔
尖
尗
尚
尞
尢
尣
尤
尧
尨
尭
就
尸
尹
尺
尻
尼
尽
尾
尿
局
居
屈
屋
屎
屏
屑
展
屖
屚
属
屠
屡
屬
屮
屯
屰
山
屵
屾
岁
岂
岑
岡
岩
岳
岸
峯
島
崇
崑
崔
崖
崙
崩
嵬
嶲
巂
巛
川
州
巟
巠
巢
巤
工
左
巧
巨
巩
巫
差
己
已
巳
巴
巷
巸
巽
巾
巿
帀
市
布
希
帚
帛
帝
带
師
席
帶
常
干
平
年
幵
并
幷
幸
幺
幻
幼
幽
幾
广
広
庄
床
底
店
庚
府
度
庫
庭
庶
康
庸
廉
廌
廛
廣
廩
廴
延
廷
建
廾
廿
开
弁
弃
弄
弇
弋
式
弓
弔
引
弗
弘
弜
弟
弥
弦
弱
張
強
强
彊
彌
彎
彐
彑
当
彔
录
彖
彗
彡
形
彥
彦
彧
彭
彳
役
彼
往
待
律
徒
得
徙
從
復
微
徵
心
忄
必
忌
忍
志
忝
忠
忩
快
念
忽
忿
思
怠
急
怱
恆
恒
恩
恭
息
悉
患
悤
悲
悶
惠
惡
惢
愁
愈
意
愛
感
慈
慧
慮
憂
憲
應
戀
戈
戉
戊
戋
戌
戍
戎
成
我
戒
戔
或
戚
戠
戢
截
戲
戶
户
戹
戼
戾
房
所
扁
扇
手
扌
才
打
托
执
承
折
拉
拜
拿
掌
推
提
摩
支
攴
攵
收
攸
改
放
政
敄
敏
敕
敖
敗
敝
敞
敢
散
敦
敫
敬
数
敷
數
斂
文
斉
斊
斗
斤
斥
斩
斬
斯
新
方
於
施
斿
旁
旋
族
无
旡
既
旣
日
旦
旧
旨
早
旬
旱
旲
时
旾
昆
昇
昌
昍
明
昏
易
昔
昗
昜
星
春
昬
是
昱
昴
昷
時
晃
晋
晏
普
景
晶
智
暑
暴
曇
曩
曰
曲
曳
更
曷
書
曹
曼
曾
替
最
朁
會
月
有
朋
服
朔
朕
朗
望
朝
木
朩
未
末
本
札
朮
术
朱
朵
朶
朿
杀
杏
杜
束
条
来
東
杲
杳
松
析
林
枚
果
枝
枲
枼
某
柔
查
柬
柰
柴
栗
桀
桑
桼
梁
條
梟
梨
棘
棠
棥
森
楚
業
楽
榮
樂
樊
欠
次
欣
欮
欲
欶
欽
款
歆
歇
歛
止
正
此
步
武
歨
歪
歮
歯
歰
歲
歴
歷
歸
歹
歺
死
殳
段
殷
殸
殹
殺
殻
殿
毋
毌
母
每
毒
比
毕
毚
毛
毳
氏
氐
民
气
氣
水
氵
氶
氷
永
氺
氾
求
汝
汞
江
沃
沓
沙
沝
泉
法
波
泣
泥
泰
洛
洪
活
派
流
浦
浪
浮
淡
淮
清
渚
渠
湯
滿
漸
火
灬
灭
灰
灵
灷
炅
炎
炏
炗
炙
炭
為
烈
烏
烝
焉
無
焦
焱
然
煞
熊
熏
燕
營
燮
爪
爫
爭
爯
爰
爱
爲
爵
父
爻
爽
爾
爿
片
牙
牚
牛
牜
牟
牢
牧
牪
牽
犀
犬
犭
犮
狂
狄
狊
独
狺
猋
猒
猪
献
獻
玄
率
玉
王
玟
玨
珎
班
琴
瑟
瑩
瓜
瓦
甘
甚
生
産
用
甫
甬
田
由
甲
申
电
甶
男
甸
甹
画
甾
畀
界
畏
畐
留
畜
畟
畢
畧
畨
番
畫
異
畱
當
畺
畾
疊
疋
疌
疑
疒
疾
癶
癸
癹
登
發
白
百
皀
皃
的
皆
皇
皋
皐
皕
皮
皷
皿
盃
盆
盇
盈
益
盍
盎
监
盒
盖
盛
盡
監
盤
盧
目
直
相
盾
省
眇
眉
看
眔
眞
真
眷
眼
眾
着
睘
睪
睿
瞏
瞢
瞿
矍
矛
矞
矢
矣
知
矦
短
石
破
碎
磊
磨
示
礻
礼
祟
票
祭
禀
禁
禸
禹
禺
离
禽
禾
禿
秀
秃
秉
秋
科
秝
秦
移
稟
穀
穌
穴
究
穹
空
穿
突
窄
窒
立
竒
竜
竝
竟
章
童
竹
笑
笠
筆
等
答
箕
算
箴
節
篤
篭
米
粉
粛
粟
粤
粦
粲
糞
糸
糹
系
約
納
素
索
紫
累
細
絜
絫
絲
維
綿
縣
繇
纍
纟
缶
网
罒
罔
罕
罗
罙
罡
罢
罪
署
罷
羅
羊
羌
羍
美
羔
羕
羗
羞
羡
羣
群
義
羲
羸
羽
翁
翏
習
翕
翟
翠
翼
老
耂
考
者
耆
而
耎
耑
耒
耳
耴
耶
耷
聂
聊
聖
聚
聶
聿
肀
肃
肅
肉
肖
肙
肥
肩
肯
育
肴
胃
背
胡
胥
能
脊
脩
膚
臣
臤
臧
自
臬
臭
臯
臱
至
致
臺
臼
臽
臾
臿
舀
舂
舄
與
興
舉
舌
舍
舛
舜
舞
舟
般
艮
良
色
艸
艹
艾
芒
芔
芬
芮
花
芳
芺
芻
苔
苗
苟
若
苦
英
茶
茸
荅
草
荒
荣
荼
莆
莧
莫
莽
菆
菊
菐
華
萬
落
葉
著
葛
董
葵
蒙
蒦
蒼
蓋
蓬
蓺
蔑
蔡
蕉
蕭
薄
薛
薦
薰
藍
藏
藥
蘭
虍
虎
虐
虒
虔
處
虖
虗
虘
虚
虛
虜
虞
虫
虽
蚤
蚩
蜀
蜜
蟲
蠡
血
行
衍
衛
衣
衤
表
衮
衰
袁
袞
褭
褱
襄
襾
西
覀
要
覃
見
規
覓
覧
親
覽
见
角
解
言
訁
訇
計
詹
誩
諸
讠
谷
豆
豈
豊
豐
豕
豖
豙
象
豦
豩
豪
豸
貇
貝
貞
貟
負
貢
貧
貪
貫
責
貳
貴
買
費
賁
資
賈
賏
賓
賔
賛
賞
賢
賣
質
賴
贊
贝
贡
责
贯
贲
贵
赖
赞
赤
赦
走
越
足
路
蹇
身
躬
車
軍
軎
軟
輦
车
辛
辜
辟
辥
辰
辱
農
辵
辶
边
达
过
近
连
迷
追
退
送
逆
逐
通
速
造
逢
連
逮
進
遀
遂
過
道
達
遣
適
遷
遺
邊
邑
邕
那
邦
邪
郎
部
郭
都
鄉
酉
酋
配
酓
釆
采
里
重
野
量
金
釒
錢
钅
長
镸
长
門
閃
閉
開
閏
閑
閒
間
閔
閵
閻
闌
门
间
闷
阑
阜
阝
阿
降
陳
隆
隊
隋
隡
隨
隱
隶
隹
隺
隻
隼
隽
难
雀
雁
集
雈
雋
雍
雐
雔
雙
雚
雜
雝
離
難
雨
雩
雪
雲
零
雷
需
霍
霜
霝
霞
霸
靈
靑
青
非
靡
面
靣
革
韋
韦
韭
韯
韱
音
頁
頃
項
須
頗
頡
頻
顛
页
風
风
飛
飞
食
飠
養
饣
首
香
馬
馮
駦
马
骨
高
髟
鬥
鬯
鬲
鬼
魚
魯
鮮
鱼
鲁
鳥
鳳
鸟
鹵
鹿
麃
麗
麥
麦
麻
黃
黄
黍
黎
黑
黒
黨
黹
黽
黾
鼎
鼓
鼠
鼻
齊
齋
齐
齒
齿
龍
龙
龜
龟
龠
龰
龱
龴
龵
龶
龷
龸
龹
者
艹
﻿
？
𠀁
𠀃
𠀆
𠀉
𠀎
𠀐
𠁁
𠁣
𠂆
𠂇
𠂈
𠂉
𠂊
𠂋
𠂎
𠂒
𠂔
𠂛
𠂡
𠂢
𠂤
𠂬
𠂭
𠂹
𠃊
𠃋
𠃌
𠃍
𠃎
𠃑
𠃓
𠃔
𠃜
𠄌
𠄎
𠄠
𠄢
𠆢
𠆥
𠇍
𠈌
𠌵
𠓜
𠔉
𠔥
𠔼
𠔽
𠔿
𠕀
𠕁
𠕋
𠘧
𠘨
𠙻
𠙼
𠚏
𠚒
𠚤
𠚪
𠣏
𠤎
𠤕
𠥓
𠦄
𠦑
𠦝
𠧒
𠧗
𠧪
𠩺
𠪚
𠫓
𠫔
𠫤
𠬛
𠬝
𠬞
𠬢
𠬤
𠬶
𠮛
𠮦
𠮷
𠯑
𠱠
𠳮
𠷎
𡈼
𡉀
𡉵
𡌥
𡍮
𡏳
𡕒
𡕩
𡕰
𡖅
𡗗
𡗜
𡘆
𡘤
𡧱
𡨄
𡩧
𡬠
𡭽
𡰣
𡰥
𡰪
𡰯
𡰱
𡷈
𡸁
𡿨
𡿩
𡿪
𡿺
𢀖
𢀛
𢀩
𢁙
𢆉
𢆰
𢆶
𢇁
𢇇
𢉖
𢌬
𢌿
𢏚
𢑑
𢑚
𢖻
𢙣
𢛳
𢦏
𢦒
𢧵
𢼄
𢾕
𣁋
𣄼
𣅀
𣅽
𣍘
𣎳
𣎵
𣏋
𣏼
𣗥
𣥂
𣥖
𣦵
𣦼
𣧄
𣪊
𣪠
𣬉
𣳾
𣶒
𤇾
𤊽
𤐫
𤓰
𤔔
𤕨
𤣩
𤰇
𤰔
𤰞
𤴓
𤴔
𤽄
𥁑
𥁕
𥃦
𥃩
𥃭
𥇡
𥑟
𥘅
𥘈
𥝢
𥫗
𥱡
𦈢
𦉪
𦉬
𦉼
𦍌
𦍒
𦎧
𦐇
𦓔
𦔮
𦘒
𦙃
𦚏
𦣝
𦣞
𦣻
𦥑
𦥔
𦥯
𦨉
𦭝
𦰩
𧆞
𧈧
𧘇
𧰨
𧴪
𧴮
𧵩
𧾷
𨸏
𨾴
𩙿
𩠐
𩫏
𩵋
𪉷
𪜀
𪟽
𪠲
𪩲
𫇦
𫔭
𫜸
𫝀
𫠣
𫠩
𫢉
𫥞
𫩏
𫩠
𫪡
𫲽
𫶧
𬀷
𬐘
𬗌
𬙙
𬛸
𬜯
𬟩
𬯁
𬴘
𬺻
𬼉
𬼖
𭀰
𭁈
𭁨
𭅰
𭑈
𭕄
𭗼
𭤨
𭥫
𭻾
𮅕
𮊿
𮍌
𮍏
𮓗
𮥼
𮧮
廾
𰀁
𰀄
𰀈
𰀉
𰀕
𰀠
𰀡
𰀢
𰀪
𰁜
𰃮
𰆊
𰆘
𰋙
𰕎
𰢴
𰧭
𰯲
0166--
02--
03333--
07--
09--
133--
333--
39--
43--
54--
55--
57--
60--
62--
73--
9166--
93333--
96--
980--
98333--
a--
aa--
aan--
ab--
abbek--
ac--
ad--
ae--
aen--
aer--
aerd--
aerts--
af--
afge--
afges--
ag--
aga--
agra--
ah--
ai--
akker--
al--
alf--
all--
aller--
als--
alt--
am--
an--
anat--
and--
ang--
ange--
ans--
ant--
ao--
aol--
aord--
ap--
aquit--
ar--
ara--
arbeiders--
archi--
arm--
arr--
art--
as--
ast--
at--
atlan--
att--
au--
aust--
austrao--
auto--
av--
ay--
az--
b--
ba--
baan--
bad--
bak--
bal--
bam--
ban--
bar--
barr--
bas--
bat--
bau--
be--
beau--
bed--
bedrei--
bee--
beeld--
beg--
bek--
bel--
beleh--
belle--
bemann--
ben--
ber--
berg--
bes--
best--
bet--
bi--
bie--
bij--
birm--
bis--
ble--
blo--
blok--
blu--
bo--
boedd--
boeren--
bol--
bon--
bos--
bou--
bra--
brae--
bre--
bri--
bro--
broed--
bru--
bu--
budel--
bur--
burher--
bus--
buten--
buur--
by--
byza--
c--
ca--
cal--
calvin--
cam--
can--
capitu--
car--
carol--
cart--
cau--
ce--
cert--
ch--
cha--
char--
chau--
che--
chi--
cir--
cit--
cla--
clau--
cle--
clu--
co--
col--
com--
con--
concurr--
conta--
cor--
cou--
coup--
cour--
cra--
cru--
cu--
cult--
cur--
cy--
d--
da--
daar--
dae--
daer--
dal--
dam--
dan--
dao--
dar--
dat--
daup--
de--
deel--
del--
democ--
den--
der--
des--
deur--
dha--
di--
dialect--
die--
diek--
dig--
din--
dir--
dis--
do--
docum--
dom--
dou--
dr--
dra--
dres--
dro--
dru--
ds--
du--
dun--
dur--
durps--
duun--
dz--
e--
earr--
eco--
ed--
ede--
ee--
een--
eer--
eh--
ei--
ek--
el--
ele--
elect--
elekt--
em--
en--
enego--
entre--
eor--
er--
ere--
erf--
erken--
erm--
erre--
ers--
es--
est--
estu--
et--
eth--
eu--
euro--
even--
ex--
extre--
f--
fa--
face--
fail--
far--
fara--
fas--
fe--
fel--
fi--
fil--
fis--
fla--
flo--
flu--
fo--
foera--
fons--
foto--
fractie--
frao--
fri--
fu--
fundam--
fus--
g--
ga--
gae--
gan--
gas--
gau--
ge--
gedenk--
geers--
geh--
gek--
gem--
gen--
generaliteit--
geo--
ger--
ges--
gesneu--
gg--
gi--
gijs--
gl--
gloe--
go--
god--
gor--
gra--
graf--
grens--
gri--
gro--
groot--
gu--
guil--
h--
ha--
hae--
haema--
haeven--
hal--
halapahos--
hamm--
han--
hand--
hao--
har--
he--
heb--
hebru--
hei--
hel--
her--
hervor--
hes--
hi--
hin--
histo--
ho--
hoa--
hoe--
hoek--
hol--
hongers--
hoog--
hos--
hr--
hro--
hrond--
hu--
hui--
hum--
huu--
hy--
hypo--
i--
ic--
ie--
ier--
ies--
ij--
im--
in--
inde--
ine--
inf--
ing--
instruc--
int--
inter--
io--
ir--
is--
ist--
iv--
j--
ja--
jaar--
jacht--
jaer--
jan--
jao--
je--
jen--
jer--
jeugd--
jo--
jon--
ju--
jur--
jury--
k--
ka--
kaep--
kaert--
kali--
kamm--
kamp--
kan--
kap--
kar--
ke--
kee--
kelp--
ken--
kerk--
ket--
keu--
kies--
kinder--
kla--
klap--
klompe--
kno--
knop--
ko--
koe--
koen--
kol--
kom--
kon--
koo--
kop--
kouwe--
kr--
kra--
kre--
kro--
krus--
kruus--
ku--
kunst--
kust--
kwar--
l--
la--
lae--
lam--
lan--
land--
ld--
le--
lea--
lec--
lede--
leer--
lei--
les--
leu--
levens--
ley--
li--
liber--
licht--
lid--
lie--
lig--
lih--
lil--
lin--
lint--
lo--
lom--
long--
lt--
lu--
luch--
lucht--
lui--
ly--
m--
ma--
maas--
mac--
macu--
mae--
maes--
mag--
mah--
mail--
mais--
mak--
makke--
mal--
mala--
man--
mar--
mark--
mart--
massa--
mat--
mata--
mau--
maximili--
mazo--
me--
mede--
mee--
mei--
meil--
mel--
meld--
men--
menne--
mensen--
mer--
met--
mete--
meu--
meur--
mexi--
mey--
mi--
middel--
mien--
mik--
mil--
milit--
min--
mira--
mis--
mo--
moe--
mog--
mol--
mon--
mont--
moord--
mor--
mos--
mu--
muh--
muit--
mun--
muzik--
my--
n--
na--
nae--
naekomme--
naem--
name--
nao--
nar--
nat--
natuur--
nc--
nd--
ne--
neder--
neer--
ner--
net--
netuur--
neu--
ney--
ng--
ni--
nig--
nij--
nk--
no--
nobel--
nog--
noord--
nor--
not--
ns--
nt--
nte--
nu--
nv--
ny--
o--
ob--
oce--
och--
od--
oe--
oef--
oen--
oer--
of--
ofge--
og--
ol--
olym--
om--
on--
onder--
onderd--
onger--
ons--
ont--
onthul--
ontp--
ontwi--
oo--
oor--
oorspro--
oost--
ooster--
op--
ope--
open--
opge--
opleve--
opru--
or--
organis--
orhanis--
ori--
os--
ost--
ot--
ou--
oud--
oude--
over--
overee--
overgangs--
overwin--
p--
pa--
pad--
paer--
pant--
para--
paras--
pas--
pe--
pel--
pelekaon--
pen--
per--
pey--
pha--
phi--
phil--
phoe--
pi--
pie--
pil--
pira--
pla--
plan--
ple--
plek--
plu--
po--
pod--
pol--
poly--
poo--
pop--
port--
post--
pot--
pra--
pre--
pres--
pri--
pro--
promo--
pter--
pub--
publi--
publica--
pui--
pun--
py--
pyg--
q--
quet--
qui--
r--
ra--
raed--
ram--
ran--
rat--
rd--
re--
recurvir--
red--
regee--
rehen--
rei--
reizi--
reken--
ren--
rep--
resso--
revolutio--
ri--
rie--
rig--
rijks--
ril--
ring--
ris--
rit--
rk--
rm--
ro--
roche--
roesel--
rol--
rom--
ron--
rou--
rr--
rre--
rs--
rt--
ru--
rui--
s--
sa--
sae--
sal--
sam--
san--
sas--
sater--
sau--
saul--
sc--
sch--
scha--
schar--
school--
schu--
se--
sec--
semi--
sen--
sept--
ser--
sha--
shan--
sho--
si--
sig--
sil--
sla--
slao--
slo--
sme--
smie--
sno--
so--
sor--
sou--
sovjet--
sp--
span--
spe--
spel--
spui--
ss--
st--
sta--
stads--
staes--
staets--
stand--
standaerd--
ste--
stelling--
stich--
stil--
sto--
stra--
straf--
stre--
struc--
struuk--
stu--
sturm--
su--
sub--
sul--
sunne--
sur--
symbo--
syn--
t--
ta--
taczanow--
tael--
tal--
tam--
tan--
tart--
te--
tege--
tegen--
tehen--
temperat--
ten--
ter--
terug--
th--
the--
thene--
ti--
tien--
tig--
to--
toe--
toehe--
tol--
ton--
top--
tor--
tou--
tra--
tram--
trans--
tre--
tru--
trug--
ts--
tu--
tuis--
tur--
tuun--
twi--
ty--
tyran--
u--
uit--
uitg--
uitge--
un--
up--
ur--
uro--
us--
uus--
uut--
uute--
uw--
v--
va--
vaa--
val--
van--
ve--
veen--
veer--
veil--
veld--
ven--
ver--
verd--
verdr--
verge--
verkie--
verrinne--
vers--
vertael--
vervang--
verza--
verzaemel--
ves--
vesti--
vestieng--
veter--
vi--
vie--
vier--
vil--
vin--
viol--
vir--
vis--
vissers--
vit--
vlae--
vlaeke--
vle--
vleu--
vlo--
vo--
voe--
vol--
volk--
volks--
voo--
voor--
voort--
vor--
vos--
vra--
vracht--
vrie--
vrij--
vro--
vrouwe--
vu--
vul--
vuur--
w--
wa--
waar--
wad--
wae--
waer--
waereld--
waeter--
wag--
wal--
wan--
wao--
war--
water--
we--
wee--
week--
weer--
weg--
wei--
wel--
wer--
wereld--
werk--
west--
westf--
weun--
wi--
wie--
willibrord--
win--
wind--
wir--
wit--
wo--
woa--
wol--
wor--
wu--
x--
xi--
y--
ya--
ye--
z--
za--
zand--
ze--
zee--
zeg--
zel--
zelf--
zen--
zes--
zil--
zio--
zitt--
zo--
zon--
zoo--
zout--
zu--
zuid--
zuud--
zw--
zwe--
zwem--
zwits--
đ--
--0
--1
--11
--111
--1111
--11111
--2
--22
--222
--2222
--22222
--3
--33
--333
--3333
--33333
--3888889
--4
--4444
--44444
--4444444
--44444444
--5
--5555556
--55556
--5556
--556
--56
--6
--66666667
--6666667
--666667
--66667
--6667
--7
--77777778
--7777778
--777778
--77778
--7778
--8
--88888889
--8888889
--88889
--8889
--9
--9444444
--94444444
--a
--aa
--aal
--aar
--aat
--ach
--achtegen
--achtigen
--acidae
--ad
--ae
--aekt
--aele
--aeling
--aem
--aeme
--aer
--aers
--aet
--af
--ag
--age
--agnac
--ah
--ai
--ain
--aire
--ak
--al
--ale
--am
--ama
--amo
--an
--anche
--and
--ane
--ans
--ant
--antal
--aol
--aons
--aoris
--aot
--ap
--ar
--ard
--aria
--aris
--ary
--as
--ash
--asie
--at
--ata
--ate
--ater
--atie
--atieve
--ation
--atus
--au
--ax
--ay
--b
--ba
--baar
--baer
--be
--bee
--beek
--beke
--berg
--bes
--bi
--bie
--bij
--bo
--boge
--boo
--by
--c
--ca
--ce
--cens
--ces
--ch
--che
--chen
--cho
--cht
--chy
--cie
--cio
--ck
--cke
--co
--ctus
--cus
--cy
--d
--da
--dag
--dam
--dde
--de
--dee
--deel
--den
--der
--deu
--deur
--dia
--diek
--dig
--ding
--dion
--dn
--do
--dom
--dre
--ds
--dt
--durp
--dy
--e
--ea
--ed
--ee
--eg
--egd
--ege
--egen
--eid
--eilan
--eje
--ek
--eke
--ekte
--el
--eld
--elek
--elijk
--elijke
--elik
--elike
--eluk
--em
--eme
--en
--end
--ende
--ene
--enen
--eng
--enis
--enk
--ens
--ense
--ent
--eo
--eps
--er
--era
--erd
--erde
--erden
--eren
--ern
--ers
--ert
--erygii
--es
--ese
--et
--eu
--eux
--ey
--ez
--f
--fd
--fen
--fessionele
--foto
--ft
--ful
--g
--ga
--gan
--gat
--gd
--gde
--ge
--gele
--gelegd
--gen
--genoo
--genoten
--gh
--gie
--gny
--go
--gs
--gt
--gun
--h
--ha
--hal
--ham
--he
--heden
--hee
--heid
--henoo
--ho
--hof
--hol
--hout
--hoven
--ht
--hu
--hua
--huis
--hus
--hyta
--i
--ia
--ian
--ias
--iat
--ic
--ica
--ice
--ich
--ico
--id
--idae
--ide
--iden
--ie
--ief
--ieje
--iek
--ieke
--iel
--ien
--ieng
--ienge
--ier
--iers
--ies
--iet
--ieu
--ieux
--ieve
--iez
--iformes
--ig
--igd
--ige
--igny
--ihe
--ii
--ije
--ijk
--ijke
--ijn
--ijns
--ik
--ikt
--il
--ilan
--illes
--illy
--imum
--in
--ina
--ine
--ing
--ingen
--inne
--ino
--ins
--io
--ion
--ir
--ire
--iro
--irs
--is
--isatie
--isch
--ische
--ise
--isme
--isse
--issiat
--ist
--it
--iteit
--ites
--ium
--ius
--ix
--izy
--j
--ja
--je
--jen
--jes
--jf
--jk
--jn
--jnluk
--jo
--jt
--k
--ka
--kant
--ke
--kee
--kel
--ken
--ker
--kerke
--ki
--kie
--kil
--king
--klee
--kn
--ko
--koker
--koo
--ks
--kt
--kundig
--kundige
--kwam
--l
--la
--lah
--lan
--land
--lav
--ld
--le
--leg
--lek
--leke
--leks
--len
--ler
--les
--letjes
--ley
--lf
--li
--lien
--lijk
--lijke
--lik
--like
--ling
--lingen
--lis
--lk
--ll
--lla
--lle
--llen
--llis
--lly
--ln
--lo
--lon
--loo
--loog
--lor
--loze
--ls
--lt
--lte
--lui
--luk
--lus
--lust
--ly
--m
--ma
--maal
--man
--mans
--mart
--mata
--matig
--md
--me
--mee
--meer
--men
--mers
--mes
--meule
--mi
--min
--mmel
--mp
--mt
--mte
--mus
--my
--n
--na
--nam
--nard
--nas
--nat
--nay
--nc
--nce
--ncy
--nd
--nde
--ne
--neming
--nen
--ner
--nes
--neux
--ney
--ng
--nge
--nger
--ni
--nia
--nis
--nk
--nlijk
--no
--nome
--ns
--nt
--nte
--nus
--ny
--o
--odon
--oe
--oel
--of
--oi
--ol
--ola
--ole
--oloog
--om
--ome
--omen
--omische
--on
--onica
--ons
--onse
--ont
--oo
--ool
--oom
--oor
--op
--ops
--or
--ord
--ort
--os
--ot
--otie
--otis
--ou
--ourt
--ous
--oux
--ov
--oy
--p
--park
--pe
--pee
--pel
--pelen
--pelijk
--pen
--per
--perk
--phorus
--pij
--pikker
--pje
--polder
--pole
--ppes
--praek
--psis
--pt
--pte
--pteuil
--punt
--que
--r
--ra
--raal
--rad
--raed
--ramp
--ratie
--rd
--rde
--rds
--re
--rea
--ree
--rege
--rekt
--ren
--ret
--reus
--rfd
--ri
--ria
--rie
--rieke
--rijk
--ris
--rium
--rius
--rk
--rmo
--rn
--rno
--ro
--ron
--rre
--rs
--rson
--rt
--rte
--ru
--rus
--ry
--s
--sa
--sch
--schap
--sche
--sdag
--sdee
--se
--sel
--selen
--sels
--sen
--set
--sey
--sh
--shroep
--shu
--sie
--sin
--sing
--sis
--sje
--skerke
--skundige
--sleider
--sma
--sman
--snoy
--soo
--splein
--sreiziher
--ss
--st
--stad
--ste
--stelling
--suus
--sweg
--sy
--sz
--t
--ta
--tad
--tae
--taet
--tas
--tatus
--te
--tee
--ten
--ter
--tera
--ters
--tes
--th
--thon
--ti
--tia
--tie
--tied
--tig
--tige
--tin
--tingen
--tion
--tisch
--tische
--tius
--tje
--tjes
--tle
--tn
--to
--toe
--tok
--ton
--top
--tor
--tre
--ts
--tse
--tt
--tte
--tum
--tus
--tuur
--tuurd
--tz
--u
--ua
--ud
--ue
--ues
--ug
--ugel
--uhhe
--uig
--uin
--uk
--ul
--ula
--um
--un
--ur
--ura
--urd
--urs
--urt
--us
--use
--usses
--ut
--ution
--uus
--uw
--uwe
--ux
--uy
--v
--vaert
--val
--van
--ve
--vel
--ven
--veree
--vertaeling
--vo
--vol
--voud
--vy
--w
--we
--wee
--weg
--wezig
--wiek
--wo
--woo
--x
--y
--ya
--yn
--ys
--z
--za
--ze
--zee
--zen
--zer
--zet
--zi
--zig
--zijde
--zn
--zo
--zy
--ław
