!
"
#
##0
##1
##10
##11
##12
##13
##14
##15
##16
##17
##18
##19
##2
##20
##21
##22
##23
##24
##25
##26
##27
##28
##29
##3
##30
##31
##32
##33
##34
##35
##36
##37
##38
##39
##4
##40
##41
##42
##43
##44
##45
##46
##47
##48
##49
##5
##50
##51
##52
##53
##54
##55
##56
##57
##58
##59
##6
##60
##61
##62
##63
##64
##65
##66
##67
##68
##69
##7
##70
##71
##72
##73
##74
##75
##76
##77
##78
##79
##8
##80
##81
##82
##83
##84
##85
##86
##87
##88
##89
##9
##90
##91
##92
##93
##94
##95
##96
##97
##98
##99
$
%
&
'
(
)
*
+
,
-
.
/
0
00
000
01
02
03
04
05
06
07
08
09
0971
1
10
100
101
1016
108
11
12
126442
13
14
15
150
1556
16
17
18
19
1956
1971
1972
1976
1980
1983
1985
1987
1988
1989
1990
1991
1992
1993
1994
1995
1996
1997
1998
1999
2
20
200
2000
2001
2002
2003
2004
2005
2006
2007
2008
2009
2010
2011
2012
2013
2014
2015
2016
2017
2018
2019
2020
2021
2022
21
22
23
24
25
26
27
28
29
3
30
31
32
33
34
343
346
35
36
37
38
39
4
40
406
41
42
43
44
45
46
47
48
49
5
50
500
51
52
53
54
55
56
57
58
59
6
60
61
62
63
64
65
66
69
7
70
71
72
73
75
751
77
79
8
80
81
82
83
84
85
86
87
88
89
9
90
92
93
95
96
97
978
98
99
9937
99933
:
;
<
=
>
?
@
[
\
]
^
_
`
a
aa
ab
abc
about
above
ac
academy
access
accessdate
accessed
accessyear
according
account
accounts
acharya
acquires
act
action
actor
actors
actress
ad
adam
adj
administration
adult
adv
ae
afc
affairs
afghanistan
africa
african
after
again
against
age
agency
agreement
agriculture
ahead
ahmed
air
airlines
airport
aj
al
alba
album
alex
alexa
alexander
ali
all
allen
alliance
alpha
also
am
amazon
ambedkar
ame
america
american
amitabh
among
an
analysis
ancient
and
andrew
android
angeles
angels
ann
annapurnapost
anniversary
announced
announces
annual
another
anthony
anthropocene
anti
any
app
apple
appointed
apps
april
arab
arabia
archaeological
archive
archived
archives
are
area
areas
argentina
arjun
army
around
art
article
articles
artist
arts
as
asia
asian
asiatic
asp
aspx
assam
assembly
assessment
associated
association
associations
at
atlas
attack
au
audio
aug
august
australia
australian
author
authority
autocollapse
avn
award
awards
away
b
ba
baby
bachchan
back
bad
bahadur
ban
bangkok
bangla
bangladesh
banglapedia
bank
banks
bar
barcelona
based
basic
battle
bayley
bbc
bd
bdnews
be
bear
beat
beauty
became
becky
become
becomes
been
before
begins
behind
being
belgium
bella
ben
bengal
bengali
berlin
best
better
between
beyonce
beyond
bf
bhatt
bhutan
big
biggest
bihar
bill
billboard
billboardencode
billion
bio
biography
biology
bird
birdlife
birds
birth
birthday
bjp
black
blica
bliss
blog
blogspot
bloomberg
blue
board
body
bollywood
book
books
border
born
boss
both
box
boy
br
bra
bracket
brand
brazil
break
breaking
brian
brief
britain
britannica
british
britney
broadcasting
brock
brother
brown
bryan
buddha
buddhist
budget
building
bureau
business
but
buys
by
c
ca
cabinet
cagematch
calcutta
caldwell
calendar
california
call
called
calls
cambridge
campaign
campus
can
canada
canadian
canal
cancer
candidates
capital
captain
card
care
career
case
cases
cast
caste
cat
cause
cbs
cd
ce
celebrities
celebrity
cena
census
center
central
centre
century
ceo
ch
cha
chairman
challenge
champion
champions
championship
chandra
change
changed
changes
channel
chapter
character
charles
charlie
charlotte
chart
charts
check
checklist
chelsea
chennai
chicago
chief
child
children
china
chinese
choice
chopra
chris
christian
christopher
chronicle
cia
cinema
citation
cities
city
civil
claims
class
classic
classification
climate
clinical
club
cm
cms
cn
cnn
co
coauthors
code
collapsed
collection
college
colombia
color
com
come
comes
commerce
commission
commissioner
committee
committees
common
communications
communist
community
company
complete
con
concept
conference
confirmed
confirms
conflict
congo
congress
conservation
constitution
construction
contemporary
content
continues
contract
control
cook
copa
copy
coronavirus
corporation
corresponding
could
council
countries
country
court
cover
coverage
covid
cr
cricinfo
cricket
crisis
criss
cristiano
crore
cross
crowned
cuba
cultural
culture
cup
current
czech
d
da
daily
dalit
dan
dance
daniel
dark
darren
das
data
database
date
dates
daughter
dave
david
dawn
day
days
dc
ddcsarlahi
de
dead
deadline
deadurl
deal
death
debut
debuts
dec
deccan
december
decision
deepika
def
defence
defined
definition
del
delhi
democracy
democratic
department
der
des
design
detail
details
development
devi
dhaka
di
diacritical
diana
dictionary
did
die
dies
different
digital
direct
direction
director
directory
disease
diseases
disney
displaystyle
distribution
district
districts
divas
division
dna
do
documents
does
doi
don
dot
double
down
downloaded
dr
draft
drama
dream
du
during
dvd
dynasty
e
each
early
earth
earthquake
east
eastern
ec
eccleshall
economic
economics
economy
ed
edition
eds
edu
education
educational
edward
effect
egypt
eight
ekantipur
el
elected
election
elections
electricity
elizabeth
elon
emergency
empire
en
encyclopedia
encyclopædia
end
energy
engine
engineering
england
englefield
english
enrique
entertainment
entry
environment
environmental
episode
era
eric
error
es
espan
espn
espncricinfo
estimates
et
ethnic
ethnologue
eu
euro
europa
europe
european
eva
evans
even
event
events
ever
everest
every
everything
evolution
ex
exchange
exclusive
executive
exist
expanded
experience
explorer
express
eye
f
face
facebook
faces
fact
factbook
facts
fall
fame
family
famous
fans
far
fashion
fast
father
fc
fe
feat
feature
features
feb
february
federal
federation
female
festival
field
fifa
fight
figures
file
files
film
filmfare
films
final
finally
finals
finance
financial
fire
first
firstpost
five
flag
florida
fo
following
food
football
for
forbes
force
forces
foregoing
foreign
forest
forkel
form
former
fortune
forum
found
foundation
founder
four
fourth
fox
fr
frac
france
francis
frank
free
freedom
french
friday
friends
from
front
frontier
fruit
fu
full
function
fund
future
g
game
games
gandhi
gardner
gazette
gb
ge
gender
general
generation
geographic
geographical
geography
george
german
germany
get
gets
giant
gill
gini
girl
girls
given
gives
glee
global
glottolog
go
goal
goalnepal
goals
god
goes
gold
golden
good
google
gorkhapatra
got
gov
government
govt
grand
great
greater
greatest
green
greg
gretil
grey
grin
group
groups
growth
guardian
guide
guinea
gupta
gurung
h
ha
had
hai
half
hall
hammarstro
hamrokhelkud
handbook
happy
harald
hardy
harvard
has
haspelmath
hat
have
having
he
head
health
heart
height
held
help
henry
her
herald
here
heritage
hero
high
higher
highest
hill
him
himalaya
himalayan
hindi
hindu
hinduism
hindustan
hips
his
historic
historical
history
hit
hits
ho
hold
hollywood
home
hong
hospital
host
hot
house
household
housing
how
however
htm
html
http
https
human
hung
hungama
husband
i
iafd
icc
icon
id
identity
if
ifpi
iglesias
ii
iii
il
illustrated
image
images
imdb
imf
impact
imperial
in
inc
includes
including
income
independence
independent
index
india
indian
indiatimes
indo
indonesia
industry
info
infobox
information
initial
input
inside
insider
instagram
institute
int
intelligence
international
internationale
internet
interview
interviews
into
introduction
invalid
iphone
iran
ireland
iron
is
isbn
islam
island
islands
iso
isoc
israel
israeli
issue
issues
it
italian
italy
its
itunes
iucn
j
ja
jack
james
jan
jane
january
japan
japanese
jason
jazeera
jeff
jena
jennifer
jerusalem
jessica
joe
john
johnson
join
joins
jon
jonathan
jones
jordan
jose
joseph
joshi
journal
journey
jpg
jr
julia
july
jun
june
jungle
just
justice
justin
k
ka
kannada
kantipur
kapoor
kashmir
kathmandu
kathmandupost
ke
kevin
key
khabar
khan
ki
killed
kim
kind
king
kingdom
km
know
knowledge
known
ko
koirala
kolkata
kong
korea
krishna
kumar
kunis
l
la
labour
lacking
lake
land
language
languages
lanka
largest
larsson
last
late
latest
latin
launch
launches
law
le
lead
leader
leaders
league
learning
least
leaves
lee
left
legal
les
lesnar
level
li
library
license
life
light
like
limited
line
linguistic
link
links
lionel
lisa
list
listen
literacy
literature
little
live
liverpool
living
lo
local
location
london
long
look
los
louis
love
low
lower
ltd
luis
lynch
m
ma
macron
made
madrid
magazine
maharashtra
mahesh
mail
main
major
make
makes
making
malaysia
male
malik
mammal
man
management
manchester
many
map
maps
mar
marc
march
marie
mark
market
marketing
marks
marriage
mars
martin
marvel
mass
match
matches
mathematics
matt
matthew
max
may
mcdiarmid
me
meagerly
measurement
measurements
media
medical
medicine
meet
meeting
member
members
memory
men
merriam
messenger
messi
metropolitan
mi
michael
microsoft
mid
middle
mike
mila
military
miller
million
minister
ministers
ministry
minorities
minturn
mirror
miss
missing
mission
mobile
model
modern
modi
module
mojo
monetary
money
month
moon
more
morning
moscow
most
mother
mount
mountain
move
movement
movie
movies
mr
mtv
mu
much
multiple
mumbai
municipality
museum
music
musical
musk
muslim
must
my
myanmar
myrepublica
n
na
nacional
nagariknews
namako
name
named
names
narayan
nasa
nation
national
nationalism
nations
nato
natural
nature
nd
ndtv
ne
near
need
nepal
nepalese
nepali
nepalnews
net
netflix
netherlands
network
never
new
news
newsletter
newspaper
next
ng
nh
ni
nic
nick
night
nikki
no
nobel
nodc
nomenclature
nominations
nominees
non
north
northern
not
note
notes
nov
november
now
np
nuclear
num
number
numbers
nxt
o
observer
ocean
oct
october
odi
of
off
office
officer
official
officially
oil
old
oli
olympic
on
one
ones
ongoing
online
onlinekhabar
only
open
opens
opinion
or
order
org
organization
origin
original
other
others
our
out
outlook
over
overall
overview
own
oxford
p
pa
pacific
padma
page
pages
paid
pain
pakistan
palestine
panasonic
pandey
paper
para
parade
paris
park
parks
parliament
part
parties
party
passes
past
path
patrick
paul
pdf
peace
pen
penguin
people
per
performance
person
personal
perspective
peru
peter
pg
phil
philip
philosophy
photo
photos
php
physics
picture
pictures
pink
pk
place
places
plan
planck
planet
planning
plans
plant
plants
platform
play
player
players
plus
pm
point
police
policy
political
politics
pop
popular
population
porn
portal
portugal
portuguese
post
powell
power
powerful
powers
pp
ppv
practice
pradesh
pradhan
prasad
premier
present
presidency
president
presidential
press
price
pride
prime
prince
principal
private
prize
pro
production
profile
program
programme
project
properties
prospects
protection
provided
province
psg
public
publication
publications
published
publishers
publishing
punjab
put
putin
pvt
pwinsider
q
qatar
que
queen
questions
r
ra
race
radio
rai
rain
raises
raj
rajput
ram
rana
ranking
rao
rate
ration
raw
rd
re
ready
real
receives
recent
recommended
record
records
red
rediff
reeder
ref
reference
references
refs
region
regional
regions
registrar
regmi
related
relations
release
released
releases
religion
religious
report
reporter
reports
republic
republica
research
reserve
residence
resource
resources
restricted
result
results
retrieved
return
returns
reuters
revealed
reveals
review
reviews
revolution
rica
richard
right
rights
ring
ripper
rise
rising
river
road
robert
rock
roger
role
rolling
roman
ronaldo
ronda
rose
round
rousey
routledge
roy
royal
rs
rsssf
ru
rule
rules
rumble
run
runs
rural
russell
russia
russian
ryan
s
sa
saarc
sabha
sahitya
said
saint
salman
sam
same
san
sankaracharya
sanskrit
sarah
sasha
saudi
say
says
schedule
school
science
sciences
scientific
score
scorecard
scores
scotland
scott
screen
script
se
sea
search
season
seaton
second
secret
secretary
section
security
see
selected
self
sen
sep
september
series
service
services
set
seth
setopati
sets
seven
sex
sexual
shah
shake
shakib
share
shares
sharma
she
sheet
sherpa
shimmer
shine
shoe
shooting
short
should
show
shows
shrestha
si
side
sify
sign
signs
sikkim
simon
since
singapore
singer
singh
single
singles
sister
site
sites
six
size
sky
slam
smackdown
small
smith
so
soccer
social
society
software
some
son
song
songs
source
south
soviet
space
spain
spanish
spears
special
species
specimen
speech
spider
sport
sports
springer
squad
sri
st
stadium
staff
stage
standard
star
starrer
stars
start
startup
state
statement
states
statistical
statistics
stats
status
stephen
steve
still
stock
stone
store
stories
story
stranger
streaming
street
strong
stuart
students
studies
studio
study
style
styles
su
sub
success
such
sudan
sullivan
summary
summer
summit
sun
sunday
super
support
supreme
sur
survey
survivor
sushant
sweden
swift
switzerland
sworn
sydney
syria
system
systematic
systems
t
ta
table
tag
tags
take
takeover
takes
taking
taliban
talk
talks
tamil
target
taxonomic
taylor
tdh
te
team
teams
tech
technology
teen
telegraph
television
telugu
template
temple
ten
term
territories
territory
test
text
texts
th
thailand
than
thapa
that
the
thehimalayantimes
their
them
then
theory
there
these
they
things
third
this
thomas
thought
threatened
three
through
tibet
tibetan
tiger
tiktok
till
time
times
timesofindia
title
titles
titus
tna
to
today
together
tom
too
top
torch
total
tottenham
tour
tourism
tournament
town
track
trade
tradition
traffic
trailer
trans
transgender
translation
translations
travel
treatment
tree
tribune
trionfo
tropical
true
trust
tu
turkey
turns
tv
twenty
twitter
two
type
u
uae
uefa
uk
ukraine
un
und
under
unesco
union
united
units
universal
universe
university
until
up
upanis
upanishads
update
updated
updates
uploads
urban
url
uruguay
us
usa
use
used
users
uttarakhand
v
va
valley
value
van
variety
ve
vedanta
version
versus
vertebrates
very
viber
victoria
victory
video
videos
view
vijay
village
vimeo
violence
virtual
visit
voice
vol
volume
von
vote
vs
w
waist
wales
walker
wall
want
wants
war
warren
was
washington
watch
water
way
we
weather
web
webroot
website
webster
wedding
week
weekly
weight
welcome
well
were
west
western
what
whc
when
where
which
while
white
who
why
wife
wiki
wikipedia
wild
wildlife
will
william
williams
wilson
win
winner
winners
wins
wise
with
without
woman
women
won
word
work
working
works
world
worldwide
would
wp
wrestlemania
wrestleview
wrestling
wright
writing
wwe
www
x
xbiz
xi
xrco
y
yahoo
year
years
yellow
york
you
young
your
youth
youtube
z
zara
zayn
zealand
zee
zendaya
zoological
zoonomen
{
|
}
~
¡
£
¥
§
¨
«
­
®
°
±
²
´
¶
·
¸
º
»
¿
×
ß
÷
þ
ŋ
œ
ɑ
ə
ɨ
ʰ
ʲ
ʺ
ʻ
ʼ
ˆ
ˈ
ˌ
ː
̀
́
̂
̃
̄
̆
̇
̈
̉
̊
̌
̓
̔
̛
̣
̥
̦
̧
̨
̩
̪
̯
͡
α
β
δ
ε
η
θ
μ
π
ρ
ς
σ
в
и
к
н
на
о
россии
с
яндекс
ְ
ִ
ַ
ָ
ּ
ה
،
؟
ا
الا
ب
ة
ج
د
ر
سعد
في
ل
لمجرد
م
ن
و
ي
َ
ُ
ِ
ّ
ْ
ٓ
ٔ
ٕ
پاکستان
کی
ی
ے
ި
ް
ँ
ं
ः
अ
अक
अकबर
अकबरक
अकमक
अकर
अकल
अकस
अख
अखण
अखब
अग
अगष
अगस
अघ
अङ
अच
अचम
अचल
अछ
अज
अजम
अजय
अजरब
अझ
अञ
अट
अटल
अठ
अड
अढ
अण
अत
अथ
अथर
अथव
अद
अध
अधकल
अधम
अधर
अन
अनग
अनन
अनम
अनर
अनल
अनस
अप
अपक
अपदस
अपन
अपभ
अपम
अपर
अपल
अपव
अपस
अपह
अपहरण
अफ
अफग
अफल
अब
अबस
अभ
अभय
अम
अमर
अमरक
अमरस
अमल
अय
अर
अरण
अरन
अरब
अरबक
अरर
अरव
अल
अलक
अलग
अलङ
अलपत
अलम
अलमल
अव
अवक
अवगत
अवच
अवज
अवत
अवतरण
अवध
अवयव
अवर
अवल
अवलम
अवश
अवस
अवसर
अवसरम
अवसरव
अवसरहर
अवह
अश
अशक
अष
अस
असक
असङ
असज
असत
असन
असफल
असफलत
असभ
असम
असमर
असर
असल
असह
असहमत
असहय
अह
अहङ
अहम
अहमद
अहल
आ
आआफ
आइ
आइए
आइएक
आइएट
आइएसएसएन
आइएसब
आइओएस
आइक
आइज
आइट
आइड
आइडल
आइतब
आइतव
आइन
आइप
आइपर
आइफ
आइभ
आइम
आइय
आइर
आइरन
आइरह
आइल
आइस
आइसक
आइसल
आई
आईएल
आईज
आईप
आईस
आउ
आउछ
आउट
आउद
आउन
आऊ
आए
आएक
आएपछ
आएम
आएर
आक
आकर
आकस
आख
आग
आगजन
आगन
आगमन
आगर
आगल
आघ
आङ
आच
आचरण
आज
आजक
आजकल
आजभ
आजभन
आजसम
आट
आठ
आठब
आठवट
आड
आडम
आणव
आत
आतङ
आद
आदर
आध
आन
आनन
आप
आपत
आपतक
आपद
आपर
आपस
आपसम
आफ
आफन
आब
आबद
आभ
आम
आमन
आय
आयक
आयरल
आयस
आर
आरएल
आरक
आरण
आरत
आरम
आरस
आल
आलम
आलस
आलसक
आव
आवतज
आवद
आवध
आवर
आवरण
आवश
आवस
आश
आशय
आष
आस
आसक
आसन
आसप
आह
आहम
इ
इअक
इए
इएक
इएन
इएफए
इक
इकन
इकब
इकर
इकल
इख
इग
इगर
इगल
इङ
इच
इछ
इज
इजर
इजल
इञ
इट
इटक
इटम
इटर
इटल
इटहर
इड
इडक
इडर
इडल
इडहर
इण
इत
इतर
इथ
इद
इन
इनक
इनखबर
इनन
इनप
इनम
इनर
इनल
इनलक
इनलम
इनस
इप
इपर
इफ
इफल
इब
इबर
इबल
इभ
इभर
इम
इमन
इमर
इमल
इय
इयर
इर
इरफ
इरस
इरसक
इरह
इरहन
इल
इलक
इलट
इलम
इलल
इलहर
इव
इवट
इश
इष
इस
इसक
इसम
इसर
इसल
इह
इहर
ई
ईएक
ईएफ
ईक
ईकन
ईग
ईघ
ईच
ईज
ईजन
ईजह
ईट
ईड
ईत
ईद
ईन
ईप
ईपटक
ईफ
ईब
ईबस
ईभ
ईभन
ईम
ईय
ईर
ईरह
ईल
ईव
ईवट
ईवस
ईश
ईष
ईस
ईसम
ईहर
उ
उइ
उक
उख
उखट
उग
उघ
उच
उछ
उछन
उज
उजर
उझ
उट
उटर
उटल
उठ
उड
उडक
उडम
उडर
उण
उत
उतर
उथ
उद
उदय
उदयद
उदयप
उध
उन
उनक
उनन
उनम
उनल
उप
उपक
उपकरण
उपकरणक
उपकरणहर
उपग
उपच
उपज
उपत
उपद
उपध
उपन
उपप
उपभ
उपम
उपमन
उपमह
उपय
उपर
उपल
उपलक
उपलब
उपलव
उपव
उपश
उपस
उपसभ
उपसम
उपसर
उपह
उफ
उब
उभ
उम
उमर
उर
उल
उव
उष
उस
उसक
उसम
उसल
उह
उहर
ऊ
ऊन
ऊर
ऊष
ऋ
ऋग
ऋच
ऋण
ऋणक
ऋणम
ऋत
ऋष
ए
एउट
एएफस
एओएल
एक
एकअर
एकएक
एकक
एकच
एकछ
एकज
एकजन
एकड
एकत
एकद
एकदम
एकन
एकप
एकपछ
एकपटक
एकपल
एकभन
एकम
एकर
एकल
एकलक
एकस
एग
एघ
एङ
एच
एचक
एचट
एचड
एचब
एचल
एछ
एज
एजस
एझ
एट
एटर
एटल
एड
एडम
एडल
एडवर
एण
एत
एथ
एथल
एन
एनए
एनएक
एनएन
एनक
एनज
एनट
एनड
एनन
एनब
एनल
एनस
एप
एपछ
एपन
एफ
एफए
एफएम
एफक
एफस
एब
एबम
एभ
एभर
एम
एमआइड
एमए
एमएसक
एमज
एमट
एमब
एमस
एयर
एयरट
एयरप
एयरल
एर
एल
एलक
एलज
एलट
एलर
एलस
एव
एवम
एश
एशन
एस
एसए
एसएम
एसएल
एसएलस
एसक
एसट
एसन
एसप
एसम
एसस
ऐ
ऐक
ऐत
ऐन
ऐनक
ऐय
ऐर
ऐल
ऐश
ऐस
ऑफ
ओ
ओआई
ओआर
ओइर
ओइल
ओएफस
ओएस
ओक
ओकल
ओखत
ओखर
ओखल
ओखलढ
ओगट
ओछ
ओज
ओझ
ओट
ओठ
ओड
ओढ
ओत
ओथ
ओद
ओन
ओप
ओपन
ओब
ओभ
ओभर
ओम
ओर
ओल
ओलम
ओव
ओश
ओस
ओह
ओहद
औ
औच
औज
औट
औत
औद
औध
औपच
औपन
और
औल
औषत
औषध
औस
औसत
क
कइन
कक
ककथ
कख
कग
कङ
कच
कचकच
कचल
कछ
कज
कञ
कट
कटक
कटत
कटतम
कटम
कटर
कटल
कटहर
कठ
कड
कढ
कण
कणहर
कत
कतन
कतम
कतर
कथ
कथन
कद
कदम
कदर
कध
कन
कनक
कनम
कनल
कप
कपक
कपट
कपड
कपम
कपर
कफ
कब
कबड
कबह
कभ
कभन
कभर
कम
कमक
कमज
कमन
कमम
कमर
कमल
कमलक
कमलप
कय
कर
करक
करण
करणअन
करणक
करणब
करणम
करणल
करणहर
करत
करद
करन
करनगर
करप
करब
करम
करल
करव
करहर
कल
कलक
कलकत
कलङ
कलन
कलनक
कलम
कलर
कलश
कलह
कव
कवच
कवर
कश
कष
कस
कसक
कसभ
कसम
कसर
कसल
कह
कहन
कहर
कहल
ख
खक
खकक
खकल
खकहर
खग
खच
खज
खट
खड
खण
खत
खतम
खतर
खतरन
खथ
खद
खन
खनक
खनज
खनन
खनम
खप
खपट
खपत
खब
खबट
खबर
खबरपत
खभ
खम
खय
खर
खरक
खरब
खरम
खल
खलक
खलङ
खलन
खलबल
खव
खश
खस
खसखस
खसम
खसहर
खहर
ग
गअन
गइ
गइन
गइरह
गई
गए
गएक
गएपछ
गएम
गएर
गक
गकर
गग
गगन
गङ
गच
गज
गजक
गजम
गजर
गजल
गजलक
गञ
गट
गटन
गठ
गठन
गठनक
गठनम
गठनल
गठनहर
गठबन
गड
गडबड
गढ
गढव
गण
गणक
गणत
गणतन
गणन
गणपत
गणम
गणर
गत
गतक
गतपत
गतम
गथ
गद
गदर
गध
गन
गनक
गनम
गनल
गप
गपत
गफ
गब
गबन
गबह
गभ
गभर
गम
गमक
गमञ
गमत
गमध
गमन
गमम
गमल
गमस
गय
गर
गरक
गरण
गरद
गरम
गरल
गल
गलक
गलग
गलत
गलप
गलब
गलम
गलल
गलव
गलस
गलहर
गव
गवत
गवर
गश
गस
गसङ
गसम
गह
गहन
गहर
घ
घक
घच
घट
घटक
घटन
घटर
घड
घण
घत
घद
घन
घनत
घनश
घब
घम
घमण
घमन
घर
घरक
घरघर
घरध
घरप
घरपर
घरब
घरभ
घरम
घरल
घरहर
घल
घव
घस
घहर
ङ
ङक
ङख
ङग
ङट
ङद
ङन
ङब
ङम
ङर
ङल
ङस
ङह
ङहर
च
चक
चकक
चकचक
चकन
चकल
चकहर
चख
चग
चङ
चञ
चट
चटक
चटपट
चड
चढ
चण
चत
चतम
चतर
चथर
चद
चन
चनक
चनजङ
चनप
चनम
चनल
चप
चपर
चब
चम
चमक
चमत
चमर
चय
चयन
चर
चरक
चरण
चरणक
चरणब
चरणम
चरणहर
चरन
चरम
चरल
चल
चलअन
चलक
चलच
चलत
चलन
चलनचल
चलम
चलर
चलल
चव
चवट
चवर
चश
चस
चह
चहक
चहर
छ
छक
छट
छटपट
छठ
छड
छत
छद
छन
छप
छब
छम
छय
छर
छरक
छल
छलफल
छव
छवट
छस
छह
छहर
ज
जक
जकक
जकत
जकर
जकल
जकहर
जग
जगज
जगञ
जगण
जगत
जगतक
जगतम
जगद
जगदम
जगन
जघन
जङ
जज
जट
जड
जत
जतन
जतपत
जथ
जद
जदरब
जध
जन
जनआन
जनक
जनकक
जनकप
जनकल
जनगणन
जनघनत
जनच
जनज
जनत
जनन
जनप
जनब
जनम
जनमत
जनय
जनरल
जनल
जनव
जनवर
जनश
जनशक
जनस
जनसङ
जनसम
जनह
जनहर
जप
जपत
जपर
जफ
जफत
जब
जबक
जबर
जबरजस
जबसम
जभ
जम
जमदग
जमर
जय
जयक
जयद
जयन
जयप
जयर
जयल
जयस
जर
जरक
जरल
जल
जलक
जलग
जलद
जलन
जलप
जलम
जलव
जलस
जव
जश
जस
जसअन
जसक
जसद
जसब
जसभ
जसम
जसमध
जसर
जसल
जह
जहर
झ
झक
झगड
झट
झड
झण
झन
झप
झम
झर
झरन
झल
झलक
झस
ञ
ञक
ञत
ञप
ञम
ञल
ञव
ञवल
ञस
ञहर
ट
टक
टकक
टकटक
टकम
टकर
टकहर
टग
टघ
टङ
टच
टछ
टट
टड
टत
टद
टन
टनक
टनगर
टनगरम
टनम
टनर
टनल
टनह
टप
टपटक
टपर
टफ
टब
टबज
टबल
टबलक
टबलम
टबलर
टभ
टम
टमक
टमन
टय
टर
टरक
टरट
टरद
टरन
टरप
टरफ
टरब
टरम
टरल
टरस
टरसम
टरहर
टल
टलक
टलम
टलर
टव
टवर
टवल
टस
टसम
टसल
टह
टहर
टहल
ठ
ठक
ठकक
ठकम
ठकल
ठकहर
ठग
ठट
ठड
ठण
ठत
ठद
ठन
ठप
ठब
ठभ
ठम
ठमण
ठर
ठल
ठश
ठस
ठहर
ड
डक
डकडकग
डकप
डकपक
डकर
डकरक
डकरल
डग
डङ
डच
डट
डटकम
डटकमक
डटकमम
डटकमल
डटन
डटर
डड
डढ
डण
डत
डद
डन
डनक
डनम
डनल
डप
डपत
डपर
डफ
डब
डबल
डभ
डम
डमर
डय
डयन
डर
डरक
डरट
डरम
डरल
डल
डलक
डलम
डलर
डलरक
डलरम
डलल
डलहर
डव
डवक
डवहर
डश
डस
डसम
डह
डहर
ढ
ढक
ढकन
ढङ
ढड
ढत
ढल
ण
णअन
णक
णकट
णग
णचन
णत
णतय
णतर
णद
णध
णन
णप
णपक
णपत
णपन
णपश
णब
णबह
णभ
णम
णमध
णय
णयक
णयल
णर
णल
णव
णश
णस
णसम
णहर
त
तअन
तक
तकक
तकम
तकर
तकल
तकहर
तख
तग
तगत
तङ
तच
तचर
तछ
तज
तजन
तजनहर
तट
तटम
तटस
तड
तण
तत
तथ
तद
तदन
तध
तन
तनक
तनध
तनप
तनम
तनल
तनश
तनह
तनहर
तप
तपत
तपर
तपस
तफ
तब
तबल
तभ
तभर
तम
तमक
तमल
तमस
तय
तर
तरआध
तरक
तरगत
तरगतक
तरङ
तरण
तरणक
तरणम
तरत
तरतर
तरद
तरन
तरप
तरपश
तरब
तरम
तरमह
तरर
तरल
तरव
तरसम
तरह
तल
तलक
तलत
तलब
तलम
तव
तवट
तवन
तवनक
तवनम
तवम
तवर
तवरल
तश
तशत
तस
तसम
तसर
तह
तहक
तहट
तहत
तहतक
तहतम
तहब
तहम
तहर
तहल
तहस
तहसम
तहहर
थ
थक
थकत
थकहर
थग
थङ
थच
थत
थतन
थद
थन
थनक
थनम
थप
थपल
थब
थम
थमन
थय
थर
थरक
थरहर
थल
थलक
थलब
थलम
थलल
थलहर
थव
थवरस
थश
थस
थहर
द
दक
दकक
दकत
दकहर
दख
दग
दघ
दङ
दच
दछ
दछन
दण
दत
दतल
दथ
दद
दध
दन
दनक
दनम
दनल
दनश
दनहर
दप
दफ
दब
दबदब
दभ
दम
दमक
दमध
दमन
दमनक
दय
दयक
दयघ
दयन
दयम
दर
दरक
दरग
दरण
दरत
दरब
दरभ
दरम
दरल
दरव
दल
दलक
दलम
दलल
दलहर
दव
दवल
दश
दशक
दशकक
दशकद
दशकम
दशन
दशम
दशमलव
दशरथ
दशरथक
दशहर
दस
दसम
दह
दहन
दहर
ध
धक
धकक
धकर
धकल
धकहर
धग
धचन
धज
धड
धत
धद
धन
धनक
धनगढ
धनञ
धनब
धनम
धनर
धनल
धनव
धनस
धनसम
धनहर
धप
धपछ
धब
धभ
धम
धमन
धय
धर
धरक
धरण
धरत
धरल
धरहर
धल
धव
धवक
धवप
धवल
धश
धस
धसम
धहर
न
नअन
नआउन
नआएक
नई
नउग
नक
नकआउट
नकर
नकल
नख
नग
नगण
नगद
नगर
नगरक
नगरप
नगरम
नघ
नङ
नच
नचर
नचल
नछ
नज
नजन
नजनक
नजर
नजरबन
नजस
नझ
नट
नड
नढ
नत
नतम
नतर
नथ
नद
नध
नन
ननगर
नप
नपछ
नपत
नपर
नफ
नब
नबक
नबन
नबर
नबस
नबह
नभ
नभइ
नभई
नभए
नभएक
नभएर
नभएसम
नभन
नभर
नम
नमध
नमन
नमर
नमस
नय
नयक
नयन
नयनम
नर
नरक
नरद
नरन
नरम
नरल
नरस
नरह
नरहन
नरहर
नल
नलक
नलग
नलम
नलल
नलहर
नव
नवअध
नवक
नवज
नवट
नवत
नवद
नवन
नवम
नवय
नवर
नवल
नवलप
नवलपर
नवव
नवश
नवहर
नश
नष
नस
नसक
नसन
नसभ
नसम
नसर
नह
नहर
नहरहर
प
पक
पकक
पकड
पकर
पकल
पकहर
पख
पग
पगर
पङ
पच
पछ
पज
पञ
पट
पटक
पटकक
पटकथ
पटकपटक
पटकम
पटन
पठ
पठन
पठनप
पड
पढ
पण
पणक
पत
पतञ
पतन
पतल
पथ
पथर
पद
पदक
पदच
पदण
पदब
पदभ
पदम
पदय
पदल
पदव
पदहर
पध
पन
पनक
पनम
पनल
पनहर
पप
पब
पम
पय
पयल
पर
परक
परज
परत
परद
परन
परप
परब
परम
परर
परल
परव
परश
परस
परह
पल
पलक
पलग
पव
पवन
पश
पष
पस
पसक
पसङ
पसम
पसल
पसलहर
पसहर
पह
पहर
पहल
पहलम
फ
फक
फग
फगत
फज
फजल
फट
फड
फण
फत
फद
फन
फब
फम
फर
फरक
फरकफरक
फरवर
फल
फलक
फलत
फलफ
फलम
फलल
फलस
फलहर
फस
फहर
ब
बई
बईक
बईम
बक
बख
बखत
बखतम
बग
बगञ
बगर
बघ
बङ
बच
बचत
बछ
बज
बझ
बञ
बट
बड
बढ
बत
बतक
बतम
बतल
बतस
बथ
बद
बदन
बदम
बदर
बदल
बध
बन
बनक
बनम
बनस
बप
बपत
बफ
बब
बम
बमक
बमम
बमल
बमहर
बय
बर
बरक
बरद
बरफ
बरब
बरम
बरल
बरस
बल
बलक
बलत
बलप
बलभद
बलम
बलर
बलल
बलव
बव
बश
बस
बसन
बसम
बसहर
बह
बहन
बहर
बहल
बहस
भ
भइ
भइन
भइरह
भइरहन
भइसक
भई
भईन
भईरह
भए
भएअन
भएक
भएछ
भएत
भएद
भएन
भएनन
भएपछ
भएपन
भएभरक
भएम
भएर
भएस
भक
भकर
भग
भगव
भगवत
भगवद
भङ
भज
भजन
भञ
भट
भटम
भड
भण
भत
भद
भध
भन
भप
भपतन
भब
भम
भय
भयक
भयङ
भर
भरक
भरण
भरत
भरतप
भरप
भरपर
भरम
भल
भलपम
भव
भवक
भवत
भवन
भवनक
भवनम
भवनहर
भवम
भष
भस
भहर
म
मअन
मई
मक
मकत
मकथ
मकर
मकरण
मकव
मख
मग
मगञ
मगध
मगर
मगरक
मगरल
मगरहर
मघ
मङ
मच
मचन
मचर
मछ
मज
मजद
मजब
मजस
मझ
मञ
मट
मठ
मड
मढ
मण
मणक
मणल
मणहर
मत
मतक
मतगणन
मतद
मतभ
मतम
मतर
मतल
मतलब
मतहर
मथ
मथल
मद
मदत
मदन
मदनक
मदर
मदरस
मध
मन
मनक
मनगर
मनत
मनद
मनन
मनपर
मनब
मनम
मनमन
मनर
मनल
मनस
मनहर
मप
मपत
मपद
मपन
मफ
मब
मबर
मबह
मभ
मभक
मभन
मम
ममत
मय
मयक
मयमनस
मयल
मर
मरक
मरण
मरन
मरम
मरल
मल
मलक
मलत
मलद
मलप
मलम
मलय
मलल
मव
मवत
मवलम
मश
मष
मस
मसङ
मसत
मसम
मसमर
मसल
मह
महक
महत
महन
महम
महर
महल
महलक
महश
महस
य
यअन
यक
यकक
यकत
यकम
यकर
यकरण
यकल
यकव
यकश
यकहर
यग
यङ
यच
यज
यजन
यजनक
यजस
यञ
यट
यटक
यटकक
यटकहर
यटन
यटनक
यड
यण
यणक
यणम
यणल
यणह
यत
यतक
यतन
यतब
यतम
यतय
यतल
यथ
यद
यध
यन
यनक
यनम
यनल
यनश
यनस
यनहर
यप
यपङ
यपद
यपर
यपश
यब
यबस
यबह
यभ
यभन
यभय
यम
यमअन
यमक
यमण
यमद
यमन
यमनक
यमप
यमब
यमम
यमय
यमर
यमल
यमस
यमहर
यय
ययक
ययन
ययनक
ययनब
ययनम
ययनल
यर
यरक
यरत
यरद
यरधन
यरम
यरल
यरस
यरहर
यल
यलक
यलम
यलय
यलल
यव
यवत
यवध
यवर
यवस
यवह
यश
यष
यस
यसअघ
यसक
यसङ
यसञ
यसत
यसद
यसन
यसप
यसपछ
यसपश
यसब
यसभ
यसभन
यसम
यसमध
यसर
यसल
यसव
यसस
यह
यहर
र
रअन
रआम
रक
रकक
रकट
रकम
रकमक
रकर
रकरण
रकल
रकव
रकहर
रख
रखण
रखन
रखप
रखर
रग
रगञ
रगड
रगढ
रगत
रगतक
रगतम
रगन
रघ
रङ
रङक
रच
रचण
रचन
रचय
रचल
रचलन
रचलनम
रछ
रज
रजत
रजन
रजनन
रजव
रजस
रजह
रञ
रट
रठ
रड
रण
रणक
रणज
रणत
रणतय
रणन
रणब
रणबह
रणम
रणय
रणल
रणव
रणवश
रणहर
रत
रतक
रतत
रतन
रतब
रतबन
रतम
रतर
रतल
रतवर
रतस
रथ
रथक
रथम
रथय
रथल
रथहर
रद
रदर
रदल
रध
रन
रनक
रनगर
रनम
रनर
रनल
रप
रपङ
रपछ
रपट
रपत
रपद
रपन
रपर
रपश
रपस
रफ
रफल
रफलक
रफलम
रब
रबक
रबन
रबम
रबर
रबल
रबह
रभ
रभद
रभन
रभर
रम
रमक
रमज
रमण
रमणक
रमणब
रमणम
रमणल
रमणहर
रमध
रमन
रमप
रमब
रमबद
रमम
रमर
रमल
रमश
रमस
रमहर
रय
रयत
रर
ररह
रल
रलक
रलय
रव
रवक
रवचन
रवट
रवण
रवद
रवन
रवर
रवल
रवस
रवहर
रश
रशमश
रशस
रष
रस
रसक
रसङ
रसञ
रसन
रसब
रसम
रसर
रसरक
रसल
रसव
रसस
रसह
रह
रहक
रहण
रहणक
रहत
रहद
रहन
रहनसहन
रहम
रहय
रहर
रहल
रहव
रहस
रहहर
ल
लक
लकक
लकण
लकथ
लकम
लकर
लकल
लकहर
लख
लखण
लखन
लखनऊ
लखबर
लग
लगञ
लगढ
लगत
लगन
लगभग
लघ
लघर
लङ
लच
लचन
लचलन
लछ
लज
लजस
लझ
लट
लठ
लड
लढ
लण
लत
लतक
लतब
लतम
लतल
लतहर
लथ
लद
लध
लन
लनक
लनप
लनब
लनम
लनल
लनस
लनहर
लप
लपक
लपछ
लपत
लफ
लब
लबक
लबब
लबम
लबर
लबल
लबस
लबह
लबहर
लभ
लभन
लभर
लम
लमक
लमज
लमण
लमत
लमन
लय
लयक
लयद
लयन
लयब
लयम
लयल
लयस
लयहर
लर
लरक
लरल
लल
लव
लवस
लश
लस
लसक
लसम
लह
लहन
लहर
लहस
ळ
व
वक
वकक
वकप
वकपक
वकपम
वकर
वकल
वकहर
वग
वगञ
वगन
वघ
वङ
वच
वचन
वज
वजन
वजहर
वञ
वट
वटक
वड
वढ
वण
वणक
वणल
वत
वतक
वतन
वतम
वतर
वतल
वथ
वद
वदन
वध
वधर
वन
वनक
वनजङ
वनद
वनन
वनब
वनभर
वनम
वनय
वनल
वनव
वनश
वनस
वप
वपट
वब
वभ
वभर
वभरक
वभरण
वम
वमन
वय
वयन
वयनक
वयनम
वयम
वयस
वर
वरक
वरण
वरणक
वरणम
वरणल
वरणहर
वरत
वरद
वरन
वरप
वरपर
वरपरक
वरब
वरम
वरल
वरव
वरवर
वरस
वरहर
वल
वलक
वलन
वलप
वलम
वलहर
वव
ववत
ववर
वश
वशक
वशम
वष
वस
वसक
वसत
वसन
वसम
वह
वहन
वहर
श
शक
शकक
शकल
शकहर
शग
शङ
शचन
शज
शजक
शत
शतक
शतल
शद
शन
शनक
शनकर
शनद
शनब
शनम
शनल
शनश
शनहर
शप
शपथ
शफ
शब
शभ
शभक
शभर
शम
शमन
शमश
शय
शयक
शयन
शयम
शर
शरण
शरणम
शरद
शल
शलत
शव
शवर
शश
शस
शसभ
शसम
शह
शहर
शहरक
शहरम
शहरल
शहरहर
ष
षअघ
षक
षकक
षकम
षकल
षकहर
षगर
षज
षट
षड
षडयन
षण
षणक
षणब
षणम
षणल
षणहर
षत
षतय
षद
षदक
षदम
षदल
षदहर
षध
षन
षप
षपछ
षब
षभ
षभन
षभर
षम
षमत
षय
षयक
षयम
षयर
षयल
षयवस
षयस
षयहर
षर
षरक
षरत
षरम
षरहर
षल
षव
षश
षष
षस
षसक
षसम
षसहर
षहर
स
सआरस
सएक
सक
सकक
सकत
सकर
सकरब
सकरव
सकल
सकहर
सख
सखर
सखरखण
सग
सगढ
सगर
सगरम
सघ
सङ
सच
सज
सञ
सट
सठ
सड
सडक
सडकक
सडकम
सडकहर
सत
सतम
सतर
सतलज
सतह
सतहक
सतहद
सतहब
सतहम
सद
सदक
सदन
सदम
सदर
सदरम
सदल
सदस
सध
सन
सनक
सनद
सनप
सनब
सनम
सनर
सनल
सनव
सनस
सनहर
सप
सपथ
सपन
सपर
सफ
सफर
सफल
सफलत
सब
सबक
सबभन
सबर
सबल
सभ
सम
समक
समकक
समग
समझ
समझद
समत
समतल
समथर
समद
समन
समम
समय
समयक
समयद
समयपछ
समयम
समयल
समयसम
समर
समरस
समल
समव
समश
समष
समस
सय
सयपत
सयभन
सर
सरक
सरण
सरद
सरदर
सरब
सरभ
सरम
सरल
सरलत
सरस
सरसफ
सरह
सरहक
सल
सलक
सलभ
सलम
सलर
सलह
सव
सवक
सवम
सवर
सश
सशक
सशस
सस
ससम
सह
सहक
सहकर
सहज
सहद
सहन
सहप
सहभ
सहमत
सहय
सहर
सहरक
सहरब
सहरम
सहरल
सहरहर
सहव
सहस
ह
हक
हकक
हकद
हकम
हकल
हकहर
हग
हङ
हङकङ
हच
हज
हजह
हट
हठ
हठय
हड
हडत
हडप
हडबड
हण
हणक
हत
हथ
हद
हदरब
हदसम
हन
हनक
हनत
हप
हफ
हब
हभ
हम
हमद
हमन
हमल
हय
हर
हरक
हरण
हरणक
हरणहर
हरप
हरम
हरल
हरस
हल
हलक
हलचल
हलम
हव
हवन
हवस
हस
हसन
हहर
़
ऽ
ऽध
ऽन
ऽप
ऽस
ा
ि
ी
ु
ू
ृ
ॄ
ॅ
ॆ
े
ै
ॉ
ॊ
ो
ौ
्
ॐ
॑
॒
ॠ
।
॥
०
००
०००
०१
०२
०३
०४
०५
०६
०७
०८
०९
१
१०
१००
१०००
१०१
१०२
१०३
१०४
१०५
१०६
१०७
१०८
१०९
११
११०
१११
११२
११३
११५
१२
१२०
१२००
१२१
१२२
१२४
१२५
१३
१३०
१४
१४०
१४४
१४५
१५
१५०
१५००
१५३
१५५
१६
१६०
१६००
१६५
१६७
१६९
१७
१७०
१७५
१८
१८०
१८००
१८१४
१८४८
१८५७
१८५८
१८६०
१८६१
१८६३
१८६९
१८७१
१८७३
१८७५
१८८२
१८८५
१८८९
१८९०
१८९१
१८९३
१८९४
१८९५
१८९६
१८९७
१८९८
१८९९
१९
१९०
१९००
१९०१
१९०२
१९०३
१९०४
१९०५
१९०६
१९०७
१९०८
१९०९
१९१०
१९११
१९१२
१९१३
१९१४
१९१५
१९१६
१९१७
१९१८
१९१९
१९२०
१९२१
१९२२
१९२३
१९२४
१९२५
१९२६
१९२७
१९२८
१९२९
१९३
१९३०
१९३१
१९३२
१९३३
१९३४
१९३५
१९३६
१९३७
१९३८
१९३९
१९४०
१९४१
१९४२
१९४३
१९४४
१९४५
१९४६
१९४७
१९४८
१९४९
१९५०
१९५१
१९५२
१९५३
१९५४
१९५५
१९५६
१९५७
१९५८
१९५९
१९६०
१९६१
१९६२
१९६३
१९६४
१९६५
१९६६
१९६७
१९६८
१९६९
१९७०
१९७१
१९७२
१९७३
१९७४
१९७५
१९७६
१९७७
१९७८
१९७९
१९८०
१९८१
१९८२
१९८३
१९८४
१९८५
१९८६
१९८७
१९८८
१९८९
१९९०
१९९१
१९९२
१९९३
१९९४
१९९५
१९९६
१९९७
१९९८
१९९९
२
२०
२००
२०००
२००१
२००२
२००३
२००४
२००५
२००६
२००७
२००८
२००९
२०१
२०१०
२०११
२०१२
२०१३
२०१४
२०१५
२०१६
२०१७
२०१८
२०१९
२०२०
२०२१
२०२२
२०२३
२०२४
२०२५
२०२६
२०२७
२०२८
२०२९
२०३०
२०३१
२०३२
२०३३
२०३४
२०३५
२०३६
२०३७
२०३८
२०३९
२०४०
२०४१
२०४२
२०४३
२०४४
२०४५
२०४६
२०४७
२०४८
२०४९
२०५०
२०५१
२०५२
२०५३
२०५४
२०५५
२०५६
२०५७
२०५८
२०५९
२०६०
२०६१
२०६२
२०६३
२०६४
२०६५
२०६६
२०६७
२०६८
२०६९
२०७०
२०७१
२०७२
२०७३
२०७४
२०७५
२०७६
२०७७
२०७८
२०७९
२१
२२
२२०
२३
२४
२४०
२५
२५०
२५००
२६
२७
२८
२९
३
३०
३००
३०००
३१
३२
३३
३४
३५
३५०
३६
३६०
३६५
३७
३८
३९
४
४०
४००
४०००
४१
४२
४३
४४
४५
४५०
४६
४७
४८
४९
५
५०
५००
५०००
५१
५२
५३
५४
५५
५६
५७
५८
५९
६
६०
६००
६१
६२
६३
६४
६५
६६
६७
६८
६९
७
७०
७००
७१
७२
७३
७४
७४४
७५
७५०
७६
७७
७८
७९
८
८०
८००
८१
८२
८३
८४
८५
८६
८७
८८
८९
९
९०
९००
९१
९२
९३
९४
९५
९६
९७
९७७
९७८
९८
९९
॰
ঁ
ং
ঃ
অ
অধ
অন
অভ
আ
আক
আজ
আদমশ
আব
আম
আল
আহম
ই
ইক
ইট
ইত
ইন
ইল
ইসল
উ
উইক
উজ
উপ
উপজ
উল
এ
এক
এনস
এব
এশ
এস
ও
ওয
ক
কম
কর
খ
গ
গণপ
গবন
ঘ
ঙ
চ
চলচ
ছ
জ
জন
জনস
ঝ
ঞ
ট
ঠ
ড
ঢ
ণ
ত
তথ
তন
তর
থ
দ
দক
দন
ধ
ন
নজর
নত
প
পর
ফ
ব
বঙ
বন
বব
বর
ভ
ম
মন
য
র
রক
রজ
রণ
রত
রথম
রস
ল
লয
শ
শন
ষ
ষণ
স
সদর
সব
সম
সরক
হ
হয
়
া
ি
ী
ু
ূ
ৃ
ে
ৈ
্
ৎ
ৗ
১
২
২০১৪
২০১৫
৫
৬
৭
৯
ৰ
ৱ
৳
ਰ
ਲ
ਸ
ਾ
ਿ
ੀ
ੇ
ੰ
ક
ન
પ
મ
ર
સ
ા
િ
ી
ુ
ે
્
க
ச
ட
த
ந
ன
ப
ம
ய
ர
ல
ழ
வ
ஸ
ா
ி
ீ
ு
ெ
ே
ை
்
ం
క
ద
న
ర
ల
ా
ి
ు
ె
ే
ో
్
ಂ
ಕ
ಜ
ಟ
ಡ
ತ
ದ
ನ
ಪ
ಮ
ಯ
ರ
ಲ
ವ
ಶ
ಸ
ಾ
ಿ
ು
ೂ
ೆ
್
ೕ
ം
ക
ച
ട
ത
ന
പ
മ
യ
ര
ല
വ
സ
ാ
ി
ു
ൂ
െ
േ
്
ක
ර
ල
්
ා
ි
ෙ
ต
น
พ
ั
ิ
ี
ื
ุ
ู
่
้
์
་
།
ཀ
ཁ
ག
ང
ཆ
ཐ
ད
ན
པ
བ
མ
ཚ
འ
ཡ
ར
ལ
ཤ
ས
ཨ
ི
ུ
ེ
ོ
ྐ
ྒ
ྗ
ྙ
ྟ
ྡ
ྣ
ྱ
ྲ
ླ
ྷ
က
င
န
ပ
မ
ာ
ိ
ီ
ု
ေ
ံ
း
်
ြ
ា
្
​
‌
‍
‎
‐
–
—
―
‘
’
‚
“
”
„
†
•
…
′
″
⁡
₨
€
₹
™
→
↔
↷
∑
−
⋅
⋯
③
④
⑦
■
△
●
★
☼
⺀
⺄
⺆
⺈
⺊
⺌
⺕
⺝
⺸
⺼
⿰
⿱
⿲
⿳
⿴
⿵
⿶
⿷
⿸
⿹
⿺
⿻
、
《
》
「
」
【
】
〢
い
か
し
た
て
に
の
は
る
を
゙
゚
ア
ィ
イ
カ
キ
ク
コ
サ
シ
ス
タ
ッ
テ
ト
ハ
ヒ
フ
ム
メ
ユ
ラ
リ
ル
レ
ロ
ン
・
ー
㇁
㇂
㇄
㇇
㇈
㇉
㇓
㐁
㐄
㐅
㐌
㐫
㐬
㐭
㐮
㐱
㑒
㒵
㒸
㒼
㓁
㓞
㔾
㕛
㕣
㖾
㘝
㚅
㚇
㚔
㚘
㝉
㝡
㝴
㝵
㞋
㞢
㞷
㠩
㠭
㠯
㡀
㡭
㡿
㢲
㢴
㣇
㣺
㥯
㪅
㫄
㫐
㫒
㫺
㬅
㬎
㬥
㬰
㲋
㳄
㷠
㸒
㸚
㸦
㼌
㼲
㽞
㿟
䀠
䂞
䍃
䏍
䒑
䖍
䖒
䖝
䖵
䙴
䚻
䜌
䝿
䡛
䧹
䪞
一
丁
丂
七
丄
丅
丆
万
丈
三
上
下
丌
不
与
丏
丐
丑
专
且
丕
世
丘
丙
业
东
丞
丢
丣
两
严
並
丨
丩
个
丫
丬
中
丮
丰
丱
串
丵
丶
丷
丸
丹
为
主
丽
丿
乀
乂
乃
久
乆
乇
么
义
之
乌
乍
乎
乏
乐
乑
乔
乖
乗
乘
乙
乚
乛
乜
九
乞
也
习
乡
乳
乾
亀
亅
了
亇
予
争
事
二
亍
于
亏
亐
云
互
亓
五
井
亘
亚
亜
亞
亟
亠
亡
亢
交
亥
亦
产
亨
亩
享
京
亭
亮
亯
亰
亲
亳
亶
亷
人
亻
亼
亾
亿
仁
今
介
仌
从
仐
仑
仒
仓
仕
他
付
仝
代
令
以
件
任
企
伊
伏
伐
休
优
会
伯
但
位
体
何
佘
余
作
佥
使
來
侈
侌
侖
侯
侵
便
保
俞
信
修
倉
倍
候
倠
備
僉
僕
儿
兀
允
兂
元
兄
充
兆
兇
先
光
兊
克
兌
免
兑
兒
兓
兔
党
兜
兟
入
全
兩
兪
八
公
六
兮
兰
共
关
兵
其
具
典
兹
兼
冀
冂
冃
冄
内
冈
冉
冊
冋
册
再
冎
冏
冐
冒
冓
冖
冗
冘
军
农
冝
冡
冥
冫
冬
冷
几
凡
凢
凵
凶
凷
凸
凹
出
函
凾
刀
刁
刂
刃
刄
刅
分
切
刍
刑
刕
刖
列
刘
则
创
初
別
利
别
到
制
刺
則
削
剌
前
剡
剧
剽
劉
力
功
加
务
劦
动
助
劫
劳
劵
勃
勇
勉
勒
動
務
勞
勤
勹
勺
勻
勾
勿
匀
匂
包
匆
匈
匊
匋
匍
匕
化
北
匚
匝
匡
匪
匱
匸
匹
区
医
匽
匿
區
十
卂
千
卄
卅
卆
升
午
卉
半
卌
华
卑
卒
卓
单
卖
南
博
卜
卝
卞
占
卡
卢
卣
卤
卦
卩
卪
卬
卯
印
危
即
却
卵
卷
卸
卻
厂
厃
厄
历
厈
厉
厌
厓
厘
厚
原
厤
厥
厨
厭
厲
厶
厷
厸
去
厼
厽
叀
参
參
叅
又
叉
及
友
双
反
叐
发
叒
叔
叕
取
受
变
叚
叜
叟
口
古
句
另
叩
只
召
可
台
叱
史
右
叵
号
司
叹
吂
各
吅
合
吉
吊
吋
同
名
后
吏
向
吕
君
吝
吞
否
含
启
吳
吴
吹
吾
呂
呆
呈
告
员
呙
周
命
咅
和
咎
咠
咢
咨
咸
咼
哀
品
哉
員
哥
哲
唐
商
啇
問
啚
啬
啻
善
喜
喬
單
喿
嗇
噩
嚴
囊
囗
囘
囙
囚
四
回
囟
因
团
囧
囬
困
囱
囷
固
国
图
圂
圅
國
圍
圓
土
圡
圣
圥
在
圭
地
圶
场
圼
坐
坒
坚
坴
垂
垔
垚
埀
埋
城
埶
執
基
堂
堅
堆
堇
堯
報
塞
墨
壘
士
壬
壯
声
壳
壴
壹
壺
壽
夂
处
夅
夆
备
夊
夋
夌
复
夏
夒
夕
外
夗
夘
多
夜
夢
大
夨
天
太
夫
夬
夭
央
失
夲
头
夷
夸
夹
夻
夾
奂
奄
奇
奈
奉
奎
奏
奐
契
奓
奔
奚
奞
奠
奢
奥
奭
女
奴
奻
好
如
妄
妙
妟
妥
妻
妾
姑
委
姜
威
娄
婁
婴
媒
嬰
嬴
子
孑
孔
孕
孖
字
存
孚
孛
孝
孟
季
孤
学
孫
孱
學
宀
宁
宂
它
宅
宇
守
安
宋
完
宏
宓
宗
官
定
宛
宜
宝
客
宣
室
宮
宰
害
家
容
宾
宿
寄
寅
密
富
寒
察
寧
審
寫
寬
寮
寸
对
寺
寻
寽
対
寿
封
尃
射
将
將
專
尉
尊
尋
尌
對
小
少
尒
尓
尔
尖
尗
尚
尞
尢
尣
尤
尧
尨
尭
就
尸
尹
尺
尻
尼
尽
尾
尿
局
居
屈
屋
屎
屏
屑
展
屖
屚
属
屠
屡
屬
屮
屯
屰
山
屵
屾
岁
岂
岑
岡
岩
岳
岸
峯
島
崇
崑
崔
崖
崙
崩
嵬
嶲
巂
巛
川
州
巟
巠
巢
巤
工
左
巧
巨
巩
巫
差
己
已
巳
巴
巷
巸
巽
巾
巿
帀
市
布
希
帚
帛
帝
带
師
席
帶
常
干
平
年
幵
并
幷
幸
幺
幻
幼
幽
幾
广
広
庄
床
应
底
店
庚
府
度
庫
庭
庶
康
庸
廉
廌
廛
廣
廩
廴
延
廷
建
廾
廿
开
弁
弃
弄
弇
弋
式
弓
弔
引
弗
弘
弜
弟
弥
弦
弱
張
強
强
彊
彌
彎
彐
彑
当
彔
录
彖
彗
彡
形
彥
彦
彧
彭
影
彳
役
彼
往
待
律
徒
得
徙
從
復
微
徵
心
忄
必
忌
忍
志
忝
忠
忩
快
念
忽
忿
思
怠
急
怱
总
恆
恒
恩
恭
息
悉
患
悤
悲
悶
情
惠
惡
惢
愁
愈
意
愛
感
慈
慧
慮
憂
憲
應
戀
戈
戉
戊
戋
戌
戍
戎
戏
成
我
戒
戔
或
战
戚
戠
戢
截
戲
戶
户
戹
戼
戾
房
所
扁
扇
手
扌
才
打
托
执
承
技
投
抖
折
报
拉
拜
拿
据
掌
推
提
搜
摩
播
支
攴
攵
收
攸
改
放
政
敄
敏
敕
敖
敗
敝
敞
敢
散
敦
敫
敬
数
敷
數
斂
文
斉
斊
斗
斤
斥
斩
斬
斯
新
方
於
施
斿
旁
旋
族
无
旡
既
旣
日
旦
旧
旨
早
旬
旱
旲
时
旾
昆
昇
昌
昍
明
昏
易
昔
昗
昜
星
春
昬
是
昱
昴
昷
時
晃
晋
晏
普
景
晶
智
暑
暴
曇
曩
曰
曲
曳
更
曷
書
曹
曼
曾
替
最
朁
會
月
有
朋
服
朔
朕
朗
望
朝
木
朩
未
末
本
札
朮
术
朱
朵
朶
机
朿
杀
杏
杜
束
条
来
杨
東
杲
杳
松
析
林
枚
果
枝
枲
枼
某
柔
查
柬
柰
柴
栗
桀
桑
桼
梁
條
梟
梨
棘
棠
棥
森
楚
業
楽
榮
樂
樊
欠
次
欢
欣
欮
欲
欶
欽
款
歆
歇
歌
歛
止
正
此
步
武
歨
歪
歮
歯
歰
歲
歴
歷
歸
歹
歺
死
殳
段
殷
殸
殹
殺
殻
殿
毋
毌
母
每
毒
比
毕
毚
毛
毳
氏
氐
民
气
氣
水
氵
氶
氷
永
氺
氾
求
汝
汞
江
沃
沓
沙
沝
泉
法
波
泣
泥
泰
洛
洪
活
派
流
济
浦
浪
浮
海
淡
淮
清
渚
渠
港
湯
滿
演
漸
火
灬
灭
灰
灵
灷
炅
炎
炏
炗
炙
炭
為
烈
烏
烝
热
焉
無
焦
焱
然
煞
熊
熏
燕
營
燮
爪
爫
爭
爯
爰
爱
爲
爵
父
爻
爽
爾
爿
片
版
牙
牚
牛
牜
牟
牢
牧
物
牪
牽
犀
犬
犭
犮
狂
狄
狊
狐
独
狺
猋
猒
猪
献
獻
玄
率
玉
王
玟
玨
珎
班
球
理
琴
瑟
瑩
瓜
瓦
甘
甚
生
産
用
甫
甬
田
由
甲
申
电
甶
男
甸
甹
画
甾
畀
界
畏
畐
留
畜
畟
畢
略
畧
畨
番
畫
異
畱
當
畺
畾
疊
疋
疌
疑
疒
疾
癶
癸
癹
登
發
白
百
皀
皃
的
皆
皇
皋
皐
皕
皮
皷
皿
盃
盆
盇
盈
益
盍
盎
监
盒
盖
盛
盟
盡
監
盤
盧
目
直
相
盾
省
眇
眉
看
眔
眞
真
眷
眼
眾
着
睘
睪
睿
瞏
瞢
瞿
矍
矛
矞
矢
矣
知
矦
短
石
破
碎
磊
磨
示
礻
礼
社
祟
票
祭
禀
禁
禸
禹
禺
离
禽
禾
禿
秀
秃
秉
秋
科
秝
秦
移
程
稟
穀
穌
穴
究
穹
空
穿
突
窄
窒
立
竒
站
竜
竝
竟
章
童
竹
笑
笠
第
筆
等
答
箕
算
箴
節
篤
篭
米
粉
粛
粟
粤
粦
粲
糞
糸
糹
系
約
納
素
索
紫
累
細
絜
絫
絲
維
網
綿
線
縣
繇
纍
纟
线
经
统
缶
网
罒
罔
罕
罗
罙
罡
罢
罪
署
罷
羅
羊
羌
羍
美
羔
羕
羗
羞
羡
羣
群
義
羲
羸
羽
翁
翏
習
翕
翟
翠
翼
老
耂
考
者
耆
而
耎
耑
耒
耳
耴
耶
耷
聂
聊
联
聖
聚
聞
聶
聿
肀
肃
肅
肉
肖
肙
股
肥
肩
肯
育
肴
胃
背
胡
胥
能
脊
脩
腾
膚
臣
臤
臧
自
臬
臭
臯
臱
至
致
臺
臼
臽
臾
臿
舀
舂
舄
與
興
舉
舌
舍
舛
舜
舞
舟
般
艮
良
色
艸
艹
艺
艾
节
芒
芔
芬
芮
花
芳
芺
芻
苔
苗
苟
若
苦
英
茶
茸
荅
草
荒
荣
荼
莆
莧
莫
获
莽
菆
菊
菐
華
萬
落
葉
著
葛
董
葵
蒋
蒙
蒦
蒼
蓋
蓬
蓺
蔑
蔡
蕉
蕭
薄
薛
薦
薰
藍
藏
藥
蘭
虍
虎
虐
虒
虔
處
虖
虗
虘
虚
虛
虜
虞
虫
虽
蚤
蚩
蜀
蜜
蟲
蠡
血
行
衍
衛
衣
衤
表
衮
衰
袁
袞
被
褭
褱
襄
襾
西
覀
要
覃
見
規
覓
覧
親
覽
见
规
视
角
解
言
訁
訇
計
訊
詹
語
誩
諸
讠
计
讯
谷
豆
豈
豊
豐
豕
豖
豙
象
豦
豩
豪
豸
貇
貝
貞
貟
負
貢
貧
貪
貫
責
貳
貴
買
費
賁
資
賈
賏
賓
賔
賛
賞
賢
賣
質
賴
贊
贝
贡
财
责
购
贯
贲
贵
资
赖
赞
赤
赦
走
超
越
足
路
跳
蹇
身
躬
車
軍
軎
軟
輦
车
辛
辜
辟
辥
辰
辱
農
辵
辶
边
达
过
近
进
连
迷
追
退
送
逆
逐
通
速
造
逢
連
逮
進
遀
遂
過
道
達
遣
適
遷
遺
邊
邑
邕
那
邦
邪
郎
部
郭
都
鄉
酉
酋
配
酓
酷
釆
采
里
重
野
量
金
釒
錢
钅
長
镸
长
門
閃
閉
開
閏
閑
閒
間
閔
閵
閻
闌
门
问
间
闷
闻
阑
阜
阝
阿
陆
降
限
陳
隆
隊
隋
隡
隨
隱
隶
隹
隺
隻
隼
隽
难
雀
雁
集
雈
雋
雍
雐
雔
雙
雚
雜
雝
離
難
雨
雩
雪
雲
零
雷
電
需
霍
霜
霝
霞
霸
靈
靑
青
非
靡
面
靣
革
韋
韦
韭
韯
韱
音
頁
頃
項
須
頗
頡
頻
顛
页
频
風
风
飛
飞
食
飠
養
饣
首
香
馬
馮
駦
马
骨
高
髟
鬥
鬯
鬲
鬼
魚
魯
鮮
鱼
鲁
鳥
鳳
鸟
鹵
鹿
麃
麗
麥
麦
麻
黃
黄
黍
黎
黑
黒
黨
黹
黽
黾
鼎
鼓
鼠
鼻
齊
齋
齐
齒
齿
龍
龙
龜
龟
龠
龰
龱
龴
龵
龶
龷
龸
龹



者
艹
️
﻿
！
（
）
，
：
？
�
𑐰
𑐵
𑑂
𑑅
𠀁
𠀃
𠀆
𠀉
𠀎
𠀐
𠁁
𠁣
𠂆
𠂇
𠂈
𠂉
𠂊
𠂋
𠂎
𠂒
𠂔
𠂛
𠂡
𠂢
𠂤
𠂬
𠂭
𠂹
𠃊
𠃋
𠃌
𠃍
𠃎
𠃑
𠃓
𠃔
𠃜
𠄌
𠄎
𠄠
𠄢
𠆢
𠆥
𠇍
𠈌
𠌵
𠓜
𠔉
𠔥
𠔼
𠔽
𠔿
𠕀
𠕁
𠕋
𠘧
𠘨
𠙻
𠙼
𠚏
𠚒
𠚤
𠚪
𠣏
𠤎
𠤕
𠥓
𠦄
𠦑
𠦝
𠧒
𠧗
𠧪
𠩺
𠪚
𠫓
𠫔
𠫤
𠬛
𠬝
𠬞
𠬢
𠬤
𠬶
𠮛
𠮦
𠮷
𠯑
𠱠
𠳮
𠷎
𡈼
𡉀
𡉵
𡌥
𡍮
𡏳
𡕒
𡕩
𡕰
𡖅
𡗗
𡗜
𡘆
𡘤
𡧱
𡨄
𡩧
𡬠
𡭽
𡰣
𡰥
𡰪
𡰯
𡰱
𡷈
𡸁
𡿨
𡿩
𡿪
𡿺
𢀖
𢀛
𢀩
𢁙
𢆉
𢆰
𢆶
𢇁
𢇇
𢉖
𢌬
𢌿
𢏚
𢑑
𢑚
𢖻
𢙣
𢛳
𢦏
𢦒
𢧵
𢼄
𢾕
𣁋
𣄼
𣅀
𣅽
𣍘
𣎳
𣎵
𣏋
𣏼
𣗥
𣥂
𣥖
𣦵
𣦼
𣧄
𣪊
𣪠
𣬉
𣳾
𣶒
𤇾
𤊽
𤐫
𤓰
𤔔
𤕨
𤣩
𤰇
𤰔
𤰞
𤴓
𤴔
𤽄
𥁑
𥁕
𥃦
𥃩
𥃭
𥇡
𥑟
𥘅
𥘈
𥝢
𥫗
𥱡
𦈢
𦉪
𦉬
𦉼
𦍌
𦍒
𦎧
𦐇
𦓔
𦔮
𦘒
𦙃
𦚏
𦣝
𦣞
𦣻
𦥑
𦥔
𦥯
𦨉
𦭝
𦰩
𧆞
𧈧
𧘇
𧰨
𧴪
𧴮
𧵩
𧾷
𨸏
𨾴
𩙿
𩠐
𩫏
𩵋
𪉷
𪜀
𪟽
𪠲
𪩲
𫇦
𫔭
𫜸
𫝀
𫠣
𫠩
𫢉
𫥞
𫩏
𫩠
𫪡
𫲽
𫶧
𬀷
𬐘
𬗌
𬙙
𬛸
𬜯
𬟩
𬯁
𬴘
𬺻
𬼉
𬼖
𭀰
𭁈
𭁨
𭅰
𭑈
𭕄
𭗼
𭤨
𭥫
𭻾
𮅕
𮊿
𮍌
𮍏
𮓗
𮥼
𮧮
廾
𰀁
𰀄
𰀈
𰀉
𰀕
𰀠
𰀡
𰀢
𰀪
𰁜
𰃮
𰆊
𰆘
𰋙
𰕎
𰢴
𰧭
𰯲
00--
03--
10--
11--
12--
13--
14--
15--
16--
17--
18--
19--
20--
23--
43--
6--
7--
80--
9--
a--
aa--
ab--
ac--
acc--
ad--
admini--
afg--
ag--
ah--
air--
aks--
al--
all--
am--
amp--
an--
ang--
ani--
announce--
ans--
appli--
appo--
ar--
arri--
ars--
as--
ash--
astr--
at--
ath--
au--
ava--
avail--
ave--
b--
ba--
backg--
bal--
bar--
bas--
bat--
be--
beg--
ber--
bha--
bi--
bis--
bo--
bon--
boo--
bor--
br--
bre--
bro--
broad--
bu--
bur--
c--
ca--
cab--
can--
cap--
car--
ce--
cele--
cen--
ch--
che--
chit--
cho--
chur--
circ--
cit--
citiz--
cla--
cle--
co--
col--
com--
con--
contr--
contri--
coo--
cor--
corp--
cou--
cr--
cre--
cri--
cro--
cu--
cus--
cyclo--
d--
da--
de--
decla--
dee--
def--
demog--
den--
deuts--
deve--
di--
dip--
dis--
dist--
div--
do--
docu--
domi--
dr--
dra--
dri--
du--
dut--
dyna--
e--
ec--
eco--
econo--
ed--
el--
ele--
elep--
em--
emi--
en--
equ--
er--
es--
esti--
evid--
ex--
exp--
ext--
f--
fa--
fal--
fam--
fe--
fer--
fi--
fin--
fis--
flo--
fo--
foc--
fol--
for--
fr--
fri--
fu--
g--
ga--
gar--
gard--
gau--
ge--
gen--
geo--
ger--
gha--
gi--
go--
gr--
gra--
gre--
gro--
gu--
guja--
h--
ha--
han--
happ--
har--
harr--
he--
hea--
hel--
hi--
high--
ho--
hol--
home--
hu--
hy--
i--
im--
impor--
in--
indi--
indian--
influ--
inspi--
inst--
int--
integ--
inter--
inve--
invest--
ir--
is--
it--
j--
ja--
jag--
jay--
je--
jen--
jes--
ji--
jo--
ju--
k--
ka--
kar--
ke--
kel--
kha--
ki--
kic--
kil--
ko--
kr--
ku--
l--
la--
lan--
lar--
lau--
le--
leg--
let--
lew--
li--
life--
lo--
lu--
ly--
m--
ma--
mag--
mahab--
mal--
man--
mao--
mc--
me--
mem--
mer--
mero--
mes--
mi--
mid--
mig--
mil--
minu--
mit--
mo--
moham--
mon--
mor--
moti--
mu--
my--
n--
na--
ne--
nepal--
ni--
no--
nomi--
nor--
nu--
ny--
o--
obser--
oc--
on--
one--
oppo--
opti--
or--
ori--
os--
out--
p--
pa--
pac--
pal--
pan--
par--
pas--
pat--
pay--
pe--
per--
pho--
physi--
pi--
po--
pokha--
port--
positi--
pr--
pra--
pre--
pri--
pro--
psycho--
pu--
publi--
pus--
py--
q--
qu--
quo--
r--
ra--
ran--
rat--
re--
recog--
reg--
regu--
resp--
rev--
ri--
rl--
ro--
rob--
rol--
ru--
s--
sa--
sam--
san--
sar--
satel--
sce--
sch--
se--
secu--
sen--
ser--
sh--
sha--
shi--
sho--
si--
sil--
simp--
so--
sol--
sp--
spe--
spea--
spec--
spot--
squ--
st--
ste--
stri--
struc--
su--
sub--
super--
sur--
surp--
sus--
sveri--
sw--
swe--
sy--
sym--
t--
ta--
tal--
tax--
te--
tele--
terr--
tes--
th--
the--
tho--
thr--
ti--
to--
tor--
tr--
tra--
tre--
tri--
tro--
tru--
tu--
tur--
ty--
u--
uk--
ultima--
un--
uni--
up--
ur--
us--
ut--
v--
va--
vari--
ve--
ven--
ver--
vi--
vic--
viet--
vil--
visib--
vla--
vo--
w--
wa--
wal--
we--
weap--
wi--
wiki--
wis--
wo--
won--
wor--
wr--
writ--
wy--
x--
y--
yo--
z--
za--
ا--
ال--
ب--
س--
ع--
م--
ن--
و--
ک--
अ--
अग--
अज--
अड--
अन--
अप--
अब--
अल--
आ--
आइ--
आई--
आक--
आज--
आठ--
आम--
आय--
आर--
इ--
इए--
इन--
ई--
ईन--
उ--
उद--
उन--
उभ--
ऊ--
ऋ--
ए--
एक--
एच--
एन--
एफ--
एम--
एल--
एस--
ऐ--
ऑ--
ओ--
औ--
क--
कच--
कन--
कम--
ख--
खट--
खय--
खर--
ग--
गज--
गड--
गन--
गम--
गर--
गल--
गह--
घ--
घट--
घर--
ङ--
च--
चक--
चन--
चर--
चल--
छ--
छल--
ज--
जग--
जन--
जम--
जय--
जल--
झ--
झल--
ञ--
ट--
टर--
टल--
ठ--
ड--
डग--
डर--
ढ--
ण--
णन--
णय--
त--
तट--
तन--
तब--
तम--
तर--
तल--
थ--
थर--
थल--
द--
दन--
दय--
दर--
दल--
दस--
ध--
धन--
धर--
धश--
न--
नप--
नर--
नव--
प--
पक--
पच--
पट--
पत--
पन--
पर--
फ--
फत--
फन--
फर--
फस--
ब--
बड--
बन--
बर--
बल--
भ--
भई--
भए--
भर--
भव--
म--
मख--
मठ--
मत--
मन--
मप--
मर--
मल--
मश--
य--
यण--
यत--
यन--
यम--
यय--
यर--
यस--
र--
रग--
रण--
रत--
रब--
रम--
रह--
ल--
लक--
लग--
लट--
लन--
लय--
लर--
लव--
लस--
व--
वन--
वर--
श--
शत--
शन--
शर--
ष--
षण--
स--
सक--
सग--
सद--
सम--
सय--
सर--
सल--
सव--
सह--
ह--
हज--
हत--
हन--
हर--
हल--
ऽ--
ॠ--
११--
१२--
१३--
१४--
१५--
१६--
१७--
१८--
२०--
२१--
অ--
আ--
ই--
উ--
এ--
ক--
গ--
চ--
ছ--
জ--
ট--
ত--
দ--
ন--
প--
ফ--
ব--
ম--
য--
র--
ল--
শ--
ষ--
স--
হ--
১--
২--
২০--
ག--
ད--
བ--
--0
--1
--2
--3
--4
--5
--6
--67
--68
--7
--74
--78
--8
--9
--a
--abad
--able
--ad
--ah
--ai
--ak
--al
--ald
--am
--an
--ana
--ance
--ani
--ant
--ar
--ard
--ari
--ark
--ary
--as
--at
--ate
--ati
--ation
--ations
--atoes
--ats
--av
--ax
--ay
--b
--be
--berg
--bia
--ble
--bs
--bu
--c
--ca
--cal
--ce
--cent
--ces
--ch
--ci
--cing
--cio
--ck
--cks
--co
--cs
--ct
--cted
--ction
--ctions
--ctive
--cy
--d
--da
--day
--dd
--ddy
--de
--ded
--der
--di
--do
--dor
--dra
--ds
--dy
--e
--ea
--ed
--ef
--ek
--el
--ela
--ell
--em
--emic
--en
--ens
--ent
--ep
--eps
--er
--ern
--ers
--ery
--es
--ese
--esh
--ess
--est
--et
--ew
--ey
--ez
--f
--fa
--fer
--ff
--fi
--ft
--ful
--g
--ga
--gar
--ge
--ger
--ges
--gg
--ght
--gic
--gical
--ging
--go
--gs
--gue
--gy
--h
--ha
--ham
--hes
--hi
--hing
--hip
--hood
--how
--ht
--hu
--hub
--i
--ia
--ial
--ian
--ic
--ical
--ick
--ics
--id
--ie
--ied
--ier
--ies
--ik
--il
--im
--in
--ina
--india
--ine
--ing
--ings
--ins
--io
--ion
--ions
--ior
--ir
--is
--ised
--ish
--ism
--ist
--ists
--it
--ities
--ity
--ive
--ix
--ization
--j
--ji
--k
--ka
--kar
--kh
--ki
--ks
--ky
--l
--la
--lan
--ld
--le
--ler
--ley
--li
--lk
--ll
--lls
--lly
--lm
--logy
--ls
--lt
--ly
--m
--ma
--man
--mb
--me
--ming
--mir
--mo
--motion
--mp
--mps
--ms
--my
--n
--na
--nce
--nces
--ncy
--nd
--nda
--nds
--ne
--ned
--nepal
--ner
--ners
--nes
--ng
--ni
--nia
--ning
--nk
--ns
--nt
--nts
--ny
--nya
--o
--oa
--od
--ods
--oe
--ol
--ology
--om
--omy
--on
--one
--ons
--op
--ops
--or
--ors
--ory
--os
--ot
--ough
--ow
--p
--patra
--pe
--ping
--ps
--pt
--pu
--pur
--q
--r
--ra
--ral
--rary
--rd
--re
--res
--ri
--ria
--rial
--ries
--ris
--rity
--rk
--rl
--rm
--rn
--ro
--rry
--rs
--rt
--rty
--ry
--s
--sa
--scape
--se
--sed
--ses
--sh
--sha
--shi
--ship
--sia
--sing
--sion
--sis
--sm
--son
--ss
--st
--star
--ster
--stic
--stry
--sy
--t
--ta
--tal
--tary
--te
--ted
--ter
--tes
--th
--thing
--ti
--tial
--tic
--ties
--times
--ting
--tion
--tions
--tive
--to
--ton
--tor
--tra
--tro
--ts
--tt
--ty
--tz
--u
--ua
--ual
--ud
--ue
--uel
--ul
--ulty
--um
--un
--up
--ur
--ure
--us
--ut
--v
--ve
--vi
--via
--vier
--vo
--w
--wa
--way
--x
--y
--ya
--ys
--z
--za
--ze
--zo
--а
--и
--ا
--ب
--ة
--ت
--د
--ر
--م
--ن
--ي
--ية
--ی
--अन
--ई
--ए
--क
--ख
--ग
--गर
--घ
--ङ
--च
--चन
--छ
--ज
--झ
--ञ
--ट
--ठ
--ड
--ढ
--ण
--त
--थ
--द
--ध
--न
--प
--पछ
--पत
--पन
--फ
--फप
--ब
--भ
--भन
--म
--य
--र
--रत
--ल
--व
--श
--ष
--स
--सक
--सम
--ह
--हर
--हल
--०
--१
--२
--३
--४
--५
--६
--७
--८
--९
--ক
--ট
--ত
--দ
--ন
--ম
--য
--র
--ল
--স
--০
--১
