!
"
#
##0
##1
##10
##11
##12
##13
##14
##15
##16
##17
##18
##19
##2
##20
##21
##22
##23
##24
##25
##26
##27
##28
##29
##3
##30
##31
##32
##33
##34
##35
##36
##37
##38
##39
##4
##40
##41
##42
##43
##44
##45
##46
##47
##48
##49
##5
##50
##51
##52
##53
##54
##55
##56
##57
##58
##59
##6
##60
##61
##62
##63
##64
##65
##66
##67
##68
##69
##7
##70
##71
##72
##73
##74
##75
##76
##77
##78
##79
##8
##80
##81
##82
##83
##84
##85
##86
##87
##88
##89
##9
##90
##91
##92
##93
##94
##95
##96
##97
##98
##99
$
%
&
'
(
)
*
+
,
-
.
/
0
00
000
01
02
0261
03
0362
04
05
06
07
08
09
1
10
100
101
1016
103
108
11
1111
119
12
1200
13
133
14
15
1500
16
1600
1650
17
1795
18
1800
1820
1825
1835
1850
1861
1863
1884
1885
1897
19
190
1902
1905
1910
1911
1912
1918
1921
1922
1924
1926
1927
1930
1931
1932
1933
1934
1936
1938
1939
1940
1941
1942
1945
1947
1948
1949
1950
1951
1952
1953
1954
1955
1956
1957
1958
1959
1960
1963
1964
1966
1967
1968
1969
1970
1971
1972
1973
1974
1975
1976
1977
1978
1979
1980
1981
1982
1983
1984
1985
1986
1987
1988
1989
1990
1991
1992
1993
1994
1995
1996
1997
1998
1999
2
20
200
2000
2001
2002
2003
2004
2005
2006
2007
2008
2009
2010
2011
2012
2013
2014
2015
2016
2017
2018
2019
2020
2021
21
22
23
24
25
26
27
28
283
29
3
30
3077
309
31
32
33
34
36
37
370
38
380
4
40
400
41
42
43
4331
45
47
48
49
495
5
50
500
51
52
521
54
56
56751
59
6
60
61
620
631
64
65
67
68
69
7
70
71
72
73
74
75
76
77
78
79
8
80
81
82
83
84
85
86
87
88
89
9
90
91
92
93
94
95
96
97
978
978177009237
98
99
:
;
<
=
>
?
@
[
\
]
_
`
a
abc
about
abraham
abyi
academic
academies
accessed
according
achievement
acquired
act
action
activist
actor
actress
ad
adam
add
additional
administration
affairs
africa
african
africanist
afrika
afrikaans
after
against
age
aged
agency
ago
agriculture
ahi
ahmed
aid
aids
aka
akatiko
ake
akeke
aki
akile
akiwa
akiweke
aku
akuri
al
ala
alan
album
alchemy
alex
alexandre
algebra
ali
alibhamu
all
alla
allah
allen
alliance
allpages
almaza
alpha
also
always
am
ama
amabhungane
ambala
ambalo
america
american
amerika
amerikha
among
amukela
amukeriwa
an
ana
anadolu
anakanya
analysis
anama
aname
anase
anc
ancient
and
andrew
andzidyi
anga
angarhela
anger
ann
annual
anos
another
antakthika
anthem
anthony
anti
antonio
antswa
antswisa
antswisiwa
aos
apartheid
apo
appeal
applied
april
archaeology
archive
archived
archives
are
area
ari
armenia
art
article
articles
artist
arts
as
asia
asian
assembly
associated
association
asteroid
aswi
at
ata
athlela
athomu
atlantic
atlas
atteridgeville
attridgeville
au
august
australia
author
authority
ava
avanyisa
avanyisiwa
avelana
avenue
award
awards
away
awu
axiya
aya
ayi
azerbaijan
b
ba
baby
back
balekela
baloyi
bangladesh
bank
bantu
barnes
basa
based
basic
basile
battle
bava
bay
bbc
bc
be
beautiful
because
been
beer
before
beginning
beijing
being
ben
bengali
benny
berger
berlin
best
bet
betsa
between
bhibhele
bhutan
bibcode
bibele
bible
big
biha
biko
biliyoni
bill
billion
bin
bindzu
biography
biology
bishop
black
blackwell
bleu
block
blood
blue
blum
bo
board
bob
bodo
body
boha
bohiwa
book
books
booksellers
boston
both
botswana
boutique
br
braamfontein
braga
brain
branches
brazil
break
brian
britain
britannica
british
broadcasting
brown
bruce
brunei
bubble
buku
bumbula
burden
bureau
bush
bushbuckridge
business
but
buyisonto
bvuma
by
bya
byakwe
byala
byalwa
byanyi
byewu
byi
byin
byinga
byo
byona
byongo
c
ca
calendar
california
called
cambridge
cameron
can
canada
cancer
cape
capital
carl
carlos
case
cases
castile
catalan
catholic
cattle
causes
cdc
ce
ceara
cela
celela
celeriwa
census
center
centers
central
centre
century
ceriwa
cha
chairman
chamber
champion
champions
changamire
change
channel
chapter
charles
chart
charter
chase
chauke
chava
chavisa
chayimeti
chayina
check
chefu
chela
cheletela
chemistry
cheriwa
chicago
chief
chika
child
children
china
chinese
chris
christian
christianity
christians
christmas
chukele
chuluka
church
churches
cia
cina
cinca
cite
citizen
city
civilization
clan
class
claude
clear
climate
clinical
clothes
clothing
club
cnn
co
college
collins
colour
com
come
comela
commission
commissioner
committee
common
commons
communications
community
companion
company
competition
complications
composer
composers
con
concepts
conclusion
congo
congress
consciousness
constituency
constitution
constitutional
consulting
continents
contracting
control
cook
coordinates
copy
corona
coronavi
coronavirus
corruption
cosmoglotta
couleur
council
countries
country
court
cov
covid
crop
crops
cultural
culture
cuma
current
custom
cut
cyprus
czechoslovakia
d
da
daily
dan
dance
dancing
daniel
dark
data
database
date
david
davidson
day
days
dc
de
dead
death
deaths
dec
december
definition
definitions
degree
del
democracy
democratic
department
deputado
deputy
des
details
development
df
di
dialects
diamond
dictionaries
dictionary
did
die
died
dies
digital
digri
diploma
direct
director
diromu
discovery
discussion
disease
diseases
disemba
district
division
dj
djonga
dlaya
dlayeke
dlhamani
dludla
dna
do
doctor
doctors
doi
dokodela
donald
doroba
dorobha
dorobheni
dos
douglas
down
dr
drama
dreams
drug
drum
du
due
dulu
during
dutch
dya
dyambu
dyi
dyiwa
dyiwi
dyondza
dyondzela
dyondzisa
dyondzo
dzana
dzedzedze
dzivamisoko
dzivamusoko
dzonga
dzongeni
dzova
dzudza
e
eafrika
early
earth
east
ebola
ebushbuckridge
economic
economics
economist
economy
ed
edgar
edition
editor
edorobeni
eds
edu
education
educational
edward
edzongeni
effets
efransi
egauteng
egypt
ehandle
ehansi
ehenhla
ehleketa
ejarimani
ejoni
eka
ekaya
ekhuwanini
eku
ekule
ekusuhi
ekusunguleni
ekutsariweni
el
election
elim
elizabeth
elsevier
em
emahlweni
emakaya
emakumu
ematikweni
ematini
embiteni
emergency
emilinah
emirini
emisaveni
emotion
emotions
emozambiki
empire
empumalanga
emutini
en
encyclopedia
encyclopædia
end
endhawini
endhzaku
endla
endlaka
endle
endleka
endlekaka
endleke
endlela
endlelo
endleriwa
endlile
endliwa
endliwaka
endliwe
endliweke
endzaku
endzeni
endzhaku
endzhawini
energy
eng
engeta
engetela
engineers
england
english
enhlokweni
enhoveni
enta
entirhweni
environment
environmental
enyangweni
enyimpini
epidemic
epotweni
eric
erivaleni
error
es
esa
esidimeni
espan
esperanto
est
eswikolweni
eswitzerland
et
ethics
ethnic
ethnologue
etikweni
etindzhawini
etlela
etlhelo
etymology
eu
euniversity
europa
europe
european
eva
evening
everything
evhangeli
evolution
evolutionary
evupela
evuton
evuxeni
ex
example
executive
exikarhi
exikolweni
express
eyunivhesiti
ezigqwesileyo
ezimbabwe
f
fa
fact
factbook
facts
faith
fall
fallece
fallecio
famba
fambelana
fambile
fambisa
fambisana
fambisanaka
fambiselo
fambisiwa
family
famous
fana
fanaka
fananisa
fanela
fanele
faneleke
farewell
fear
february
februwari
federal
feke
fellow
festival
figure
fika
fike
fikeke
fikela
fikelela
fikile
file
filimi
filosofi
final
finance
financial
fire
first
five
fiziksi
fm
following
food
football
for
foreign
forestry
form
formal
formed
former
formerly
foroko
fortis
found
foundation
fr
franc
france
francesco
francisco
frank
free
freedom
french
frene
freud
from
fruits
fulela
fuleriwa
full
fuma
fumaka
fumeke
fumile
fumiwa
fund
funengeta
furhwa
furwa
g
ga
game
gandhi
gandzelo
gasa
gauteng
gaza
gazankulu
gb
ge
gender
general
geography
george
georges
german
get
gezi
gibhita
gibita
gidi
gini
ginwala
give
giyani
global
glossary
go
god
godide
gold
gome
good
google
gospel
gov
governador
government
governor
grant
great
greece
greek
green
griki
ground
group
groups
gu
guardian
guide
guinea
gungunhana
gunyule
guyu
h
ha
had
hafu
hakanyingi
hakasela
hakela
hakelo
hala
hall
hamba
hambana
hambanahambana
hambaneke
hambanile
hambanisa
hambanisiwa
hambi
hambileswi
hambiloko
hambiswiritano
handle
hangalaka
hangalake
hangalakile
hangalasiwa
hans
hansen
hansi
hanya
hanyaka
hanye
hanyisa
happiness
hari
harper
harrison
has
hava
have
havumbirhi
haxa
hayona
he
health
hefemula
hela
helela
helen
heller
help
henhla
henri
henry
her
heriki
herile
herisa
heritage
heta
hetelela
hetile
hetisa
hi
high
higher
hikokwalaho
hiku
hikutirhisa
hikuva
hikuya
hikwalaho
hilaha
hile
hilembe
hileswaku
hileswi
hill
him
hina
hindi
hindlela
hindu
hinkarhi
hinkwabyo
hinkwaro
hinkwaswo
hinkwato
hinkwavo
hinkwawo
hinkwayo
hinkwerhu
hirona
his
hisa
historian
historic
historical
history
hiswona
hiv
hivona
hiwona
hixikombiso
hixitalo
hiyona
hlahluva
hlakarherisa
hlakarherisiwa
hlamba
hlamula
hlamusela
hlamuselaka
hlamusele
hlamuseriwa
hlamuseriwe
hlangana
hlanganeke
hlanganela
hlanganile
hlanganisa
hlanganisaka
hlanganisiwa
hlantswa
hlawu
hlawula
hlawuleka
hlawulekeke
hlawulekisa
hlawulekisi
hlawuriwa
hlaya
hlayanyana
hlayisa
hlayisela
hlayisiwa
hlayiwa
hlayo
hleketo
hlela
hlengeleta
hlengeletiwa
hlohlotela
hlohlotele
hlohloteriwa
hlota
hlula
hluriwa
hluriwile
hluta
hluvukeke
hofisi
hola
hollywood
holobye
home
homo
homu
hopkins
horile
horisa
hosi
hosinkati
hosinkulu
hospital
hospitals
house
how
hoxa
hoxe
html
http
https
huku
hukuri
hulumendhe
huma
humaka
human
humanity
humelela
humesa
humesiwa
hundza
hundzeke
hundzisa
hundziseriwa
hundzuka
hundzuluxa
hungu
hunguta
hunguteka
huskisson
huvo
huvonkulu
hweti
i
iala
id
ideophone
idiom
if
ignored
ii
iii
iindawo
ikhonomi
iku
il
ill
illness
imf
impact
implications
in
inc
including
income
independent
indes
index
india
indian
indiya
indlela
industry
ine
infected
infection
infectious
influenza
info
information
inhambane
instead
institute
interlingua
interlingue
international
internet
inthaneti
into
introduction
invalid
iol
ipa
iran
iririmi
iris
irish
is
isbn
isbnisbn
islam
island
issn
it
italian
its
ivi
iyankoka
j
jacana
jacob
jacques
jae
jama
james
jan
january
japan
japani
jarimani
jason
jazz
jean
jehovah
jesus
jewish
jim
joa
joe
johannesburg
john
johns
jomela
jonathan
jones
joni
jose
joseph
journal
journalism
journalist
joyina
jr
jstor
juan
judaism
judge
julayi
julian
july
june
juni
junod
just
justice
k
ka
kagaza
kahle
kala
kallenbach
kama
kambe
kambela
kambirhi
kan
kanakana
kandza
kandziwa
kandziyisa
kandziyisiwa
kandziyisiweke
kanetana
kapa
karhi
kasi
katekisa
katsa
kavanyeta
kaya
kaye
kayivela
ken
kereke
key
kgoshi
khale
khaleni
khampani
khamphani
khensa
khilogiramu
khindlimuka
khisimusi
khohlola
khoma
khombo
khomile
khomiwa
khomiweke
khompuyuta
khorona
khosa
khotavuxika
khoto
khotsiwa
khoza
khumba
khumbaka
khume
khuvi
khuwana
khwati
khwiri
ki
killed
king
kingdom
km
know
knowledge
known
ko
kokwa
koma
komba
kombisa
komiti
kona
kondletela
kondlo
kondlotela
kondza
kongoma
kongomisa
kongomisiwa
korea
kota
kotaka
kotava
kotekaka
kotile
kova
koxa
kraal
kreste
kruger
ku
kuanama
kudya
kufana
kufika
kufikela
kufumeta
kuhambana
kuhava
kuhisa
kuhlamusela
kuhlanganisa
kuhluvuka
kula
kulandzela
kule
kuleha
kuleke
kuli
kulu
kulukumba
kuma
kumbe
kume
kumeka
kumekaka
kumeke
kumile
kun
kuna
kunavela
kunene
kunga
kungana
kungari
kungava
kunguhata
kunguhatiweke
kuni
kunye
kupfumaleka
kuphahla
kurhula
kuri
kuringana
kurisa
kuro
kusuhi
kusuka
kusukela
kusungula
kuta
kutani
kutirhisa
kutirhisana
kutirhisiwa
kutlula
kutsala
kutwisisa
kuva
kuve
kuvulavula
kuya
kwala
kwalaho
kwalano
kwale
kwalomu
kwazulu
kwe
kwetsima
kwihi
l
la
laden
laha
lahlekeriwa
lala
lama
lamahundzeke
lamakulu
lamula
lancet
land
landhani
landscape
landza
landzela
landzelaka
landzeleke
landzelela
landzeleriwa
landzeriwa
lang
langa
lange
langiwa
language
languages
languta
langutana
langutisa
large
las
last
late
latest
latin
lava
lavaka
lavakulu
lavekaka
lavisisa
lavisisaka
lavo
law
lawa
lawula
le
leader
leading
league
learning
leaves
lebowa
lebyi
lebyinene
lee
legacy
legal
legend
legendary
legislative
leha
leishmaniasis
lembe
lembeni
lenis
leo
leprosy
leri
lerikulu
lerinene
lerintshwa
lero
lesotho
leswaku
leswi
leswikulu
leswinga
leswinge
leswo
letela
leti
letintshwa
leto
level
lewis
lexi
lexikulu
leyi
leyikulu
leyinene
leyinga
leyintshwa
leyitsongo
li
library
life
lifetime
light
limited
limpopo
line
link
liquor
list
litara
literary
literature
live
living
liya
lo
loko
loku
lokukulu
loloka
lomu
london
lonene
long
longtime
lonkulu
look
los
lost
louis
lova
love
loveke
lovekiwa
lovile
lower
lowo
lowu
lowukulu
lowunene
lowveld
loyi
ltd
lu
lucia
luis
lukiwa
luma
lumiwa
lwa
lwandle
lwangu
lwela
lwisana
m
ma
maakelo
mabhunu
mabindzu
mabunda
mabunu
mabyalwa
machangana
machel
machi
machine
machudeni
macmillan
madagascar
made
madikizela
madjozi
madleke
madokodela
madoroba
madorobeni
madorobha
madrid
madyondza
madzana
madzolonga
madzovo
maendlele
maendlelo
maendli
maendzo
mafambisele
mafambiselo
mafi
mafu
mafurha
mafurhwa
magandlati
magazine
magazini
mageba
magidi
mahahu
mahala
mahanti
mahanyele
mahanyelo
mahatma
mahlanganisa
mahlangu
mahlayiselo
mahlo
mahlweni
mahungu
mail
main
majaha
majeje
majomela
major
makala
makamu
makanyi
makaya
make
makenya
makhele
makhosi
makhumbi
making
makume
makumeka
makumu
makungu
makwakwa
makwavo
malabela
malamule
malamulele
malandza
malaria
malariya
malawi
malembe
malenga
mali
maluleke
malwandle
mambirhi
man
mana
management
manana
mananga
mandela
mandla
manga
manghezi
manguva
manharhu
mani
mankweng
manukosi
many
manyala
map
mapa
mapapila
maphepha
maphorisa
maphutukezi
maputukezi
march
marha
marhambu
marhavi
mari
maria
maribye
marito
marivate
mark
market
martin
marungula
mary
masagwati
masangu
masiku
masipala
masocha
mass
master
masungula
masungulo
mathebula
mathematical
mathematics
mathicara
mathlarhi
mathulusi
mathyelo
mati
matihlo
matikhomele
matiko
matikweni
matimba
matimu
matirhele
matirhelo
matirhisele
matitwele
mativula
matluka
matsalelo
matsalwa
matsema
matshalatshala
matshamele
matsonga
matter
matthew
mavabyi
mavala
mavandla
mavele
mavhiki
mavito
mavoko
mavonele
mavulavulele
mavulavulelo
mavuthu
mawewe
mawuwani
max
maxaka
maxakadzi
maxele
maxelo
may
maya
mayelana
mayor
mayuda
mazulu
mbangi
mbangu
mbariwa
mbeki
mbeleko
mbewu
mbhandzu
mbilu
mbirhi
mbita
mboweni
mboyamelo
mbulavulo
mbuyelo
mcgraw
mdungazwe
me
mean
meaning
means
measures
mec
media
medical
medicine
meditera
meeting
member
memoriam
men
meno
merriam
meta
meyi
mfanelo
mfumo
mfumu
mfungo
mfuwo
mhaka
mhandzi
mhani
mhawuri
mhinga
mi
mianakanyo
michael
michel
michini
middle
miehleketo
miganga
migangeni
migingiriko
mihandzu
mihleketo
mihlovo
mikarhi
mike
mikhuva
mila
milala
milambu
milandzu
milawu
milenge
military
miliyoni
miller
million
milorho
mimfumo
mimfungo
mimiti
mimpimo
mina
minceka
minchumu
mind
mindhavuko
mindyangu
mindzavisiso
mindzhavuko
minhlangano
minhluvuko
minister
ministry
minkandziyiso
minkarhi
minkhuvo
minsinya
minthlaveko
mintirho
mintlangu
mintlawa
minxaka
mirhi
miri
miroho
misava
misaveni
miseve
misiha
misinya
misisi
mission
mitara
miti
mitirho
mitsakamiso
mitwa
mivala
mixaka
mixo
miyambo
modern
mokonyane
monde
mondzo
monetary
money
mopani
more
morning
morre
mort
mortality
morte
morto
moses
most
movha
moya
mozambhiki
mozambiki
mozambique
mp
mpa
mpahla
mpfhuka
mpfula
mpfumawulo
mpfumelelo
mpfuno
mphakelo
mphikizano
mpilele
mpimo
mpisana
mpumalanga
mtombeni
mu
muaki
muako
muavanyisi
muchini
mudyandzhaka
mudyaxihi
mudyondzisi
muendli
muere
mufana
mufumi
mufundhisi
muganga
mugavhenara
mugayo
muhandzu
muhaxi
muhleri
muhlovo
mujeko
mukapu
mukhubi
mukhuhlwana
mukhuva
mulamula
mundo
mundzuku
mune
munghana
munhu
munyu
muqambhi
muqombhoti
murhangeri
murhi
murhumiwa
muringa
murio
museum
music
must
musumbhunuku
musunguri
muswana
musweki
mutana
muti
mutirhi
mutivi
mutsari
mutshami
mutsonga
mutsundzuxi
muvabyi
muvala
muvulavuleri
muxaka
muyimeri
muzambhiki
muzila
my
mzila
mzilikazi
n
na
nakambe
naked
naku
nale
nambu
name
named
names
namibia
namunthla
namuntlha
nandziha
nandzu
naswin
naswona
natal
natala
nation
national
nations
nature
navela
nawini
nawu
ncayoni
ncelwa
nchuluko
nchumu
ncila
ncingwa
nd
ndhambi
ndhavuko
ndhawu
ndhuma
ndhuna
ndhzavuko
ndlala
ndlandlamuxa
ndlela
ndwandwe
ndyangu
ndzavisiso
ndzawulo
ndzendzeleko
ndzeni
ndzhaka
ndzhaku
ndzhati
ndzhavuko
ndzhawini
ndzhawu
ndzhawulo
ndzheko
ndzhenga
ndzhuti
ndzi
ndzilo
ndzisana
ne
nelson
nene
net
netherlands
network
new
news
newspaper
nga
ngana
ngati
ngava
nge
nghena
nghenela
nghenelela
nghilandi
nghohe
nghunghunyana
nghunghunyani
nghwevu
ngo
ngopfu
ngopfungopfu
nguva
nguvu
nharhu
nhlahluvo
nhlampfurha
nhlamuselo
nhlana
nhlangano
nhlangula
nhlawulo
nhlayo
nhlohlotelo
nhloko
nhlokomhaka
nhlokonho
nhlonge
nhlowa
nhluvuko
nhonga
nhova
nhundzu
nhungu
ni
nicolas
nigeria
night
nkahelo
nkandziyiso
nkanelo
nkanyi
nkarhi
nkarhinyana
nkaye
nkhuvo
nkoka
nkokelo
nkomati
nkombo
nkomponi
nkucetelo
nkulu
nkulukumba
nkuma
nkuwa
nm
no
nomboro
nomo
non
nongonoko
north
norton
not
noun
novel
november
novhele
now
nqambhi
nsati
nsimbhi
nsimbi
nsinya
nsirhelelo
nsuku
ntalo
nthlanu
nthlaveko
nthlavelo
ntikelo
ntila
ntima
ntirho
ntivo
ntivomarito
ntiyela
ntiyiso
ntlangu
ntlawa
ntlhanu
ntlhavelo
ntluleto
ntokoto
ntolovelo
ntoma
ntombhi
ntsako
ntsan
ntsena
ntsengo
ntsevu
ntshovelo
ntshuguri
ntshunxeko
ntshunxiwa
ntshuxeko
ntsikelelo
ntsindza
ntsombano
ntsongo
ntukulu
ntumbuluko
ntungu
nturuka
ntwanano
ntwela
nuha
nukeri
number
nuna
nusa
nuts
nwa
nwalungu
nwalungwini
nwana
nwe
nwheti
nwi
nwiwa
nxaxamelo
nxumalo
nyama
nyana
nyangwa
nyembane
nyembani
nyenyankulu
nyenyenyani
nyika
nyikeriwa
nyiketa
nyiketiwa
nyikiwa
nyikiwe
nyiko
nyimba
nyimpi
nyimpini
nyoxi
nyuziphepha
o
obituary
observer
occidental
ocean
oclc
october
oed
of
off
office
official
ofisi
ofisini
ois
old
olova
oma
omeke
omisiwa
on
onchocerciasis
one
onge
onha
online
only
onomasitiki
open
or
order
org
organization
origin
original
origins
orphanages
os
ostraliya
other
others
our
out
outbreak
outlook
over
overleden
own
oxford
oxiyeniya
p
paa
pac
page
pages
paid
pain
pakistan
palamende
palgrave
paluxa
pan
pandemic
pandza
papalata
papers
papila
parai
parameter
parasites
paris
park
part
party
pasile
passed
passes
past
pat
patients
patrick
patwini
paul
paulo
pdf
peace
pela
penguin
people
per
performance
period
person
perspectives
pessoa
peter
pew
pfala
pfhumba
pfuka
pfula
pfumala
pfumalaka
pfumba
pfumela
pfumelela
pfumelelana
pfumeleriwa
pfumeleriwi
pfumeriwa
pfuna
pfunaka
pfuneta
pfunile
pfuniwa
pfurha
phahla
phalaborwa
phaphama
phaphiwa
phasifiki
phepha
phephahungu
phikizana
philadelphia
philip
philippe
philosophy
phiri
phofula
pholisi
phosa
phurofesa
phyaphyarha
physics
pima
pimiwa
pitch
pitori
pl
place
pmc
pmid
pneumonia
poland
police
policy
political
politics
politiki
politikian
polokwane
popular
population
por
portal
portugal
portuguese
position
positive
post
poto
pp
practice
pre
presbethari
presbyterian
president
presidente
presidenti
press
pretoria
prevention
primary
prize
problem
professor
profile
program
programme
project
pronounced
pronunciation
prospects
provhinsi
provided
province
psychologie
psychology
pt
pty
public
publications
published
publishers
publishing
pulanete
pure
q
qedani
r
ra
rabies
rachel
radio
raku
rakwe
rale
rap
ravu
ray
raymond
rd
re
real
record
recording
records
red
ref
reference
refs
reginah
region
regional
related
religion
religions
religious
rem
renato
renowned
report
reporter
reports
repubblica
republic
rero
research
reserve
resource
resources
respect
results
retired
retrieved
return
reuters
review
revised
revision
rgb
rhandza
rhandzana
rhandziwa
rhanga
rhangela
rhangele
rhangeriwa
rharhanganeke
rhavi
rhaxiya
rhendzeleke
rhoma
rhumbula
rhumela
rhurha
rhurhela
rhurhele
rhwalela
ri
ribungu
ribuwa
ribuweni
ricece
rich
richard
riendli
riengeteri
rifetho
rifu
rifuva
rifuwo
right
rights
rihanyo
rihanyu
rihati
rihlanga
rihlawuri
rihlaza
rihuhu
rikhotso
riki
rima
rimbalelo
rimbewu
rin
rina
ring
ringa
ringana
ringanaka
ringanisa
ringanisiwa
ringeta
rio
ripfumelo
riphabliki
rirhandzu
riri
ririmi
risenga
risimu
risinda
risiva
risuka
rithlela
ritirhisiwa
rito
riva
rivaleni
river
riviti
rivoningo
rivulavuriwa
rixaka
ro
robert
roberts
rock
rona
rosungula
routledge
roy
royal
rp
ru
rus
russell
russia
russian
rustling
rutherford
s
sa
sabc
safety
saflii
sagwati
sala
saleke
sam
samora
samuel
san
santiago
sapiens
sappi
sarah
sars
sasavona
saseka
sasekisa
saunders
sayense
sayensi
says
school
schools
science
sciences
scientists
scotland
scott
script
se
sea
search
second
secretary
security
see
sefo
sekende
seketela
semi
senior
september
septembere
service
services
seshego
sex
sexual
shaka
shangaan
sheet
sho
short
shorter
should
show
si
siku
simbine
simeka
simekiwa
simekiwe
simekiweke
simekiwile
simon
since
singer
sirha
sirhelela
sisulu
site
sivela
siveriwa
siya
sizwe
skhukhuza
sleep
small
smith
so
sobre
sobukwe
social
society
sociological
sola
solar
somalia
some
someone
something
song
songwriter
soria
soshangana
soshangane
soshanghana
sound
south
southafrica
southern
sowetan
soweto
sp
spain
spanish
spaniya
special
speech
spoken
sport
sports
spotting
spread
springer
sq
square
sr
st
standard
stanford
star
state
statement
states
statistical
statistics
stephen
steve
stop
street
stuart
students
studies
study
sub
succumbs
such
suicide
suit
suka
sukaka
sukela
sukile
suleriweke
summary
summer
sun
sunday
sung
sungula
sungule
sunguleke
sunguleni
sungurile
sunguriwa
sunguti
supreme
survey
susa
susan
susiwa
sw
swa
swakudya
swakunwa
swarihanyo
swaziland
sweden
swedish
sweka
swekela
swekiwa
swekiwaka
swekiweka
swekiwile
sweswi
sweswinyana
sweswo
swi
swiaki
swiambalo
swiboho
swiendlakalo
swiendlo
swifaniso
swifundza
swifuwo
swigaririmi
swiharhi
swihari
swihlala
swihlanganisa
swihlawulekisi
swikambelo
swikolo
swikombiso
swikongomelo
swikota
swikwembu
swilaveko
swilo
swilondzo
swiluva
swimbirhi
swimilana
swin
swinawana
swinene
swinga
swinharhu
swintsongo
swinwana
swiphandzi
swiphemu
swiphiqo
swirho
swirhumbana
swiri
swiritano
swisi
swiss
switirhisiwa
switori
switshetshela
switsongwatsongwana
switsotswana
switwi
switzerland
swivangelo
swiviko
swivirisi
swivongo
swivumbeko
swivumbiwa
swivutiso
swiyenge
swiyimiso
swiyimo
swo
swona
swonghasi
swotala
syllable
symboliques
symbols
symptoms
system
systematic
systems
t
ta
table
tag
taka
take
takwe
tala
talaka
tale
talk
tamabindzu
tani
tanihi
tanihileswi
tano
tanzania
tarihanyo
tata
tatana
tavona
tb
te
teacher
team
technology
teka
teke
tekeriwa
tekile
tekiwa
tekiweke
tele
telegraph
teleni
template
ten
tenga
tengisiwa
terms
test
testing
text
textbook
th
thabo
than
that
the
their
thekinoloji
thelevixini
them
themba
themselves
then
theory
therapy
there
these
thesis
they
thicara
things
third
this
thlela
thlele
thleleke
thlelela
thlelo
thomas
thonga
thopa
thopo
those
thothotho
three
through
thuketana
thulamahashe
thya
thyaka
ti
tibiliyoni
tibuku
tidyondzo
tihanyisa
tihlanganisa
tihomu
tihosi
tihuku
tihulumendhe
tihunyi
tika
tikereke
tikhilomitara
tikhompuyuta
tiko
tikomba
tikweni
tilo
tima
timali
timanga
timangadyana
timbalelo
timbewu
timbhoni
timbirhi
timbyana
time
times
timfanelo
timfenhe
timhaka
timhandzi
timhangu
timhondzo
timiliyoni
timilliyoni
timintsu
timitara
timitsu
timongo
timula
tin
tindhawu
tindlela
tindleve
tindlopfu
tindlu
tindzawu
tindzawulo
tindzhawini
tindzhawu
tindzimi
tinfanelo
tinga
tingana
tinguva
tinguvu
tinharhu
tinhenha
tinhlampfurha
tinhlamuselo
tinhlanga
tinhlayo
tinhloko
tinhompfu
tinhundzu
tinkomponi
tinomboro
tinovhele
tinsimu
tinsuna
tintoma
tintshava
tintshuguri
tinxaka
tinyeleti
tinyimpi
tinyunge
tinyungu
tipala
tiphesente
tipolitiki
tirha
tirhaka
tirhe
tirheke
tirhela
tirhisa
tirhisaka
tirhisana
tirhisiwa
tirhisiwaka
tisa
tise
tithekinoloji
tithlela
titimela
titirhisiwa
title
tito
tiva
tivaka
tiveka
tivekaka
tivhoti
tivisa
tivise
tiviwa
tiviwaka
tiya
tiyindlu
tiyisa
tiyisisa
tlakuka
tlakusa
tlanga
tlangela
tlangeriwa
tlhela
tlhele
tlhelo
tlhuma
tluka
tlula
tlulela
tluleriwa
tluletiweke
to
today
together
tolovekeke
toloveleka
tolovelekeke
tom
tona
tonga
top
torha
total
tower
town
trade
transcribed
translation
transmission
transvaal
travel
treatment
tree
trees
tribe
tribune
tropical
truth
ts
tsakama
tsakela
tsakelaka
tsakile
tsakisa
tsala
tsale
tsaleke
tsalwa
tsandzeka
tsarile
tsariwa
tsariweke
tseleka
tsema
tsemiwa
tsevu
tshama
tshamaka
tshemba
tshika
tshikelela
tshivela
tshopi
tshuka
tshungula
tshwuka
tsindzihela
tsondzela
tsonga
tsongo
tsumbula
tsundzuka
tsundzuxa
tsutsuma
tswala
tswali
tswariwa
tumbuluxa
tumbuluxiwa
turkey
turkish
tv
twa
twala
twisisa
twisisiwa
two
tzaneen
u
uk
un
unaids
under
union
unisa
unit
united
units
universe
university
unknown
up
update
us
usa
use
used
usually
usungurile
uthlela
uthlele
uthoriwile
uve
uvile
v
va
vaaka
vaakatiko
vaaki
vabya
vabyaka
vacopi
vadutch
vadyondzi
vafana
vafumi
vafundhisi
vahlaleri
vahlavi
vaka
vakhalabye
vakhale
vakhandli
vakhegula
vakota
vakreste
vakwe
valala
valandzeri
valanga
valdezia
vale
valoyi
valozyi
value
valungu
vamanana
vamasipala
vambirhi
van
vana
vandla
vanga
vangaka
vange
vangeke
vangela
vangelaka
vangele
vanghezi
vangiwa
vangiwaka
vangoni
vanharhu
vanhu
vantima
vantshwa
vantukulu
vanwana
vanyayi
varhangeri
varhoma
varhonga
varhumiwa
vari
various
varisi
varona
vasati
vasco
vasungule
vata
vathlela
vatican
vatirhi
vatirhisa
vatirhisi
vativi
vatla
vatonga
vatsari
vatsonga
vatswa
vatswari
vava
vavabyi
vavanuna
vavasati
vaxisati
vaya
vayingiseri
ve
veka
veke
vekiwa
vekiwe
veleke
velekile
velekiwa
velekiwe
velekiwile
venga
verb
very
veteran
vhangazi
vhembe
vhiki
vhumba
vi
via
vice
victim
vienna
vietnam
vika
vikiwa
vila
vile
vilela
vincent
vinyi
virile
virus
viruses
vitamin
vitana
vitaniwa
vitiwa
vito
vo
voice
voko
vol
volume
vona
vonaka
vonakala
vonelo
voniwa
voniwaka
vosungula
votala
votes
vowel
vowels
vu
vuaki
vuavanyisi
vubhuda
vubihi
vubofu
vudyangwana
vudyondzisi
vudzonga
vuenti
vufumi
vufundhisi
vugandzeri
vuhanyanyi
vuhaxi
vuhindu
vuhlalu
vuhlangi
vuhleketi
vuhosi
vuhosinkulu
vuhundzuluxeri
vukanyi
vukarhi
vukati
vukhongeri
vukhume
vukolonyi
vukona
vukorhokeri
vukosi
vukreste
vukulu
vukwembu
vula
vulaka
vulavisisi
vulavula
vulavulaka
vulavurisana
vulavuriwa
vulavuriwaka
vulawuri
vule
vuleteri
vulongo
vululami
vumba
vumbhoni
vumbirhi
vumbiwa
vumoya
vumune
vumunhu
vun
vunanga
vundzhawu
vunene
vunghana
vungoma
vunharhu
vunjhiniyera
vunyingi
vupela
vupeladyambu
vupfa
vupfapfarhuti
vupfile
vupfumeri
vupimi
vuqambhi
vurhangeri
vurhongo
vurimi
vuriwa
vuriwaka
vusiku
vusiwana
vusocha
vusurumani
vuswa
vusweti
vuswikoti
vutengi
vuthlarhi
vuthlokovetseri
vuthu
vutihlamuleri
vutiko
vutivi
vutleketli
vutomi
vutsari
vutshila
vutshunguri
vuvabyi
vuwani
vuxa
vuxaka
vuxeni
vuxika
vuxokoxoko
vuxungu
vuya
vuyimbeleri
vuyuda
w
wa
wahl
wahuva
waka
waku
wakwe
wale
walk
walker
walter
walungu
walungwini
wamabindzu
wana
wanati
wani
wansati
wanuna
war
was
washington
wasi
watch
water
way
wayback
we
web
website
webster
weight
weights
wela
well
wena
wendzamhala
were
west
western
weti
what
when
wheti
which
white
who
why
wi
wihi
wiki
wikimedia
wikipedia
wikipediya
wiktionary
wiley
will
william
williams
wilson
wina
windhoek
wini
winner
winnie
wisi
with
witness
witnesses
witwatersrand
wo
wokarhi
wolowo
women
won
wona
woods
word
words
work
world
wosungula
wotshwuka
writer
writing
wu
wuhan
wuhlanganisa
wukumeka
wule
wun
wuna
wunga
wuri
wusungule
wuthlela
wutirhisiwa
wuva
www
x
xa
xai
xaka
xalamuka
xale
xana
xandla
xanisiwa
xava
xavisa
xaviselana
xavisiwa
xi
xiavo
xibedlele
xibelani
xibhakabhaka
xibhunu
xiboho
xicemba
xichayina
xidhachi
xidorobana
xidzana
xiesperanto
xifaniso
xifenukani
xifundza
xifundzeni
xifundzha
xifundzhankulu
xifurhwa
xifuva
xigriki
xihahlu
xihantla
xiharhi
xihatla
xihlaleni
xihlamusela
xihlawu
xihlawuhlawu
xihlawulekisi
xihlovo
xihundla
xijarimani
xik
xikan
xikarhi
xikaya
xikhale
xikhavi
xikhudya
xikolo
xikombiso
xikongomelo
xikoxo
xikundu
xikwembu
xilatini
xillenge
xilo
xilungu
xiluvelo
ximfumo
ximumu
ximun
ximunhu
ximutana
ximuwu
xin
xina
xinghezi
xinkadyana
xinkambana
xinkarhana
xintu
xipalatsa
xipaniya
xiphemu
xirhendzevutana
xirho
xirhonga
xiri
xisati
xisekelo
xitalo
xitendze
xitereka
xithopo
xitichi
xitonga
xitshopana
xitshungu
xitsonga
xitsongwatsongwana
xitswa
xitukulwana
xitulu
xivala
xivambu
xivandla
xivangelo
xivava
xiviko
xiviri
xivongo
xivulwa
xivumbeko
xivumbiwa
xivutiso
xixika
xixima
xiximeka
xiya
xiyenge
xiyimiso
xiyimo
xiyuda
xizulu
xo
xona
xungeto
y
ya
yaka
yakhale
yaku
yakwe
yale
yan
yanga
yavona
yavu
ye
year
years
yehovha
yeke
yelana
yelanaka
yelanisiwa
yelanisiwaka
yellow
yena
yesu
yexe
yi
yihlanganisa
yile
yimbelela
yimbirhi
yimela
yimisiwa
yin
yina
yindlu
yinga
yinharhu
yini
yinwana
yinwani
yiri
yisa
yisile
yisiwa
yithlela
yitirhisiwa
yiva
yo
yokarhi
yona
yonyango
york
yotala
you
young
your
youth
yuan
yunivhesithi
yuropa
z
za
zambia
zavazava
zealand
zika
zimbabwe
zokuthenga
zu
zulu
zuma
zwangendaba
zwelakhe
zwide
{
|
}
~
­
°
²
´
·
æ
ɔ
ə
ɚ
ɛ
ɝ
ɡ
ɵ
ɹ
ɾ
ʰ
ʾ
ˈ
ː
̀
́
̂
̃
̄
̆
̇
̈
̊
̌
̓
̣
̧
̩
̯
͂
α
ε
ο
ς
ا
ً
َ
ٔ
ٕ
ं
क
ग
च
त
द
न
प
म
य
र
व
श
स
ा
ि
ी
ु
ू
े
ो
्
ক
গ
চ
ছ
ত
ন
প
ভ
ম
য
র
ল
স
়
া
ি
ী
ু
ে
্
​
‎
‑
–
—
‘
’
“
”
†
•
…
′
″
↔
↷
③
④
⑦
─
□
○
☉
⯓
⺀
⺄
⺆
⺈
⺊
⺌
⺕
⺝
⺸
⺼
⿰
⿱
⿲
⿳
⿴
⿵
⿶
⿷
⿸
⿹
⿺
⿻
〢
の
゙
コ
ユ
㇁
㇂
㇄
㇇
㇈
㇉
㇓
㐁
㐄
㐅
㐌
㐫
㐬
㐭
㐮
㐱
㑒
㒵
㒸
㒼
㓁
㓞
㔾
㕛
㕣
㖾
㘝
㚅
㚇
㚔
㚘
㝉
㝡
㝴
㝵
㞋
㞢
㞷
㠩
㠭
㠯
㡀
㡭
㡿
㢲
㢴
㣇
㣺
㥯
㪅
㫄
㫐
㫒
㫺
㬅
㬎
㬥
㬰
㲋
㳄
㷠
㸒
㸚
㸦
㼌
㼲
㽞
㿟
䀠
䂞
䍃
䏍
䒑
䖍
䖒
䖝
䖵
䙴
䚻
䜌
䝿
䡛
䧹
䪞
一
丁
丂
七
丄
丅
丆
万
丈
三
上
下
丌
不
与
丏
丐
丑
专
且
丕
世
丘
丙
业
东
丞
丢
丣
两
严
並
丨
丩
个
丫
丬
中
丮
丰
丱
串
丵
丶
丷
丸
丹
为
主
丽
丿
乀
乂
乃
久
乆
乇
么
义
之
乌
乍
乎
乏
乐
乑
乔
乖
乗
乘
乙
乚
乛
乜
九
乞
也
习
乡
乳
乾
亀
亅
了
亇
予
争
事
二
亍
于
亏
亐
云
互
亓
五
井
亘
亚
亜
亞
亟
亠
亡
亢
交
亥
亦
产
亨
亩
享
京
亭
亮
亯
亰
亲
亳
亶
亷
人
亻
亼
亾
仁
今
介
仌
从
仐
仑
仒
仓
仕
他
付
仝
代
令
以
任
企
伊
伏
伐
休
会
伯
但
位
何
佘
余
作
佥
使
來
侈
侌
侖
侯
侵
便
保
俞
信
修
倉
倍
候
倠
備
僉
僕
儿
兀
允
兂
元
兄
充
兆
兇
先
光
兊
克
兌
免
兑
兒
兓
兔
党
兜
兟
入
全
兩
兪
八
公
六
兮
兰
共
关
兵
其
具
典
兹
兼
冀
冂
冃
冄
内
冈
冉
冊
冋
册
再
冎
冏
冐
冒
冓
冖
冗
冘
军
农
冝
冠
冡
冥
冫
冬
冷
几
凡
凢
凵
凶
凷
凸
凹
出
函
凾
刀
刁
刂
刃
刄
刅
分
切
刍
刑
刕
刖
列
刘
则
初
別
利
别
到
制
刺
則
削
剌
前
剡
剽
劉
力
功
加
劦
助
劫
劳
劵
勃
勇
勉
勒
動
務
勞
勤
勹
勺
勻
勾
勿
匀
匂
包
匆
匈
匊
匋
匍
匕
化
北
匚
匝
匡
匪
匱
匸
匹
区
医
匽
匿
區
十
卂
千
卄
卅
卆
升
午
卉
半
卌
华
卑
卒
卓
单
卖
南
卜
卝
卞
占
卡
卢
卣
卤
卦
卩
卪
卬
卯
印
危
即
却
卵
卷
卸
卻
厂
厃
厄
历
厈
厉
厌
厓
厘
厚
原
厤
厥
厨
厭
厲
厶
厷
厸
去
厼
厽
叀
参
參
叅
又
叉
及
友
双
反
叐
发
叒
叔
叕
取
受
叚
叜
叟
口
古
句
另
叩
只
召
可
台
叱
史
右
叵
号
司
叹
吂
各
吅
合
吉
吊
吋
同
名
后
吏
向
吕
君
吝
吞
否
含
启
吳
吴
吹
吾
呂
呆
呈
告
员
呙
周
命
咅
和
咎
咠
咢
咨
咸
咼
哀
品
哉
員
哥
哲
唐
商
啇
問
啚
啬
啻
善
喜
喬
單
喿
嗇
噩
嚴
囊
囗
囘
囙
囚
四
回
囟
因
囧
囬
困
囱
囷
固
国
圂
圅
國
圍
圓
土
圡
圣
圥
在
圭
地
圶
圼
坐
坒
坚
坴
垂
垔
垚
埀
埋
埶
執
基
堂
堅
堆
堇
堯
塞
墨
壘
士
壬
壯
声
壳
壴
壹
壺
壽
夂
处
夅
夆
备
夊
夋
夌
复
夏
夒
夕
外
夗
夘
多
夜
夢
大
夨
天
太
夫
夬
夭
央
失
夲
头
夷
夸
夹
夻
夾
奂
奄
奇
奈
奉
奎
奏
奐
契
奓
奔
奚
奞
奠
奢
奥
奭
女
奴
奻
好
如
妄
妙
妟
妥
妻
妾
姑
委
姜
威
娄
婁
婴
嬰
嬴
子
孑
孔
孕
孖
字
存
孚
孛
孝
孟
季
孤
学
孫
孱
學
宀
宁
宂
它
宅
宇
守
安
宋
完
宏
宓
宗
官
定
宛
宜
宝
客
宣
室
宮
宰
害
家
容
宾
宿
寄
寅
密
富
寒
察
寧
審
寫
寬
寮
寸
对
寺
寻
寽
対
寿
封
尃
射
将
將
專
尉
尊
尋
尌
對
小
少
尒
尓
尔
尖
尗
尚
尞
尢
尣
尤
尧
尨
尭
就
尸
尹
尺
尻
尼
尽
尾
尿
局
居
屈
屋
屎
屏
屑
展
屖
屚
属
屠
屡
屬
屮
屯
屰
山
屵
屾
岁
岂
岑
岡
岩
岳
岸
峯
島
崇
崑
崔
崖
崙
崩
嵬
嶲
巂
巛
川
州
巟
巠
巢
巤
工
左
巧
巨
巩
巫
差
己
已
巳
巴
巷
巸
巽
巾
巿
帀
市
布
希
帚
帛
帝
带
師
席
帶
常
干
平
年
幵
并
幷
幸
幺
幻
幼
幽
幾
广
広
庄
床
底
店
庚
府
度
庫
庭
庶
康
庸
廉
廌
廛
廣
廩
廴
延
廷
建
廾
廿
开
弁
弃
弄
弇
弋
式
弓
弔
引
弗
弘
弜
弟
弥
弦
弱
張
強
强
彊
彌
彎
彐
彑
当
彔
录
彖
彗
彡
形
彥
彦
彧
彭
彳
役
彼
往
待
律
徒
得
徙
從
復
微
徵
心
忄
必
忌
忍
志
忝
忠
忩
快
念
忽
忿
思
怠
急
怱
恆
恒
恩
恭
息
悉
患
悤
悲
悶
惠
惡
惢
愁
愈
意
愛
感
慈
慧
慮
憂
憲
應
戀
戈
戉
戊
戋
戌
戍
戎
成
我
戒
戔
或
戚
戠
戢
截
戲
戶
户
戹
戼
戾
房
所
扁
扇
手
扌
才
打
托
执
承
折
拉
拜
拿
掌
推
提
摩
支
攴
攵
收
攸
改
放
政
敄
敏
敕
敖
敗
敝
敞
敢
散
敦
敫
敬
数
敷
數
斂
文
斉
斊
斗
斤
斥
斩
斬
斯
新
方
於
施
斿
旁
旋
族
无
旡
既
旣
日
旦
旧
旨
早
旬
旱
旲
时
旾
昆
昇
昌
昍
明
昏
易
昔
昗
昜
星
春
昬
是
昱
昴
昷
時
晃
晋
晏
普
景
晶
智
暑
暴
曇
曩
曰
曲
曳
更
曷
書
曹
曼
曾
替
最
朁
會
月
有
朋
服
朔
朕
朗
望
朝
木
朩
未
末
本
札
朮
术
朱
朵
朶
朿
杀
李
杏
杜
束
条
来
東
杲
杳
松
析
林
枚
果
枝
枲
枼
某
柔
查
柬
柰
柴
栗
桀
桑
桼
梁
條
梟
梨
棘
棠
棥
森
楚
業
楽
榮
樂
樊
欠
次
欣
欮
欲
欶
欽
款
歆
歇
歛
止
正
此
步
武
歨
歪
歮
歯
歰
歲
歴
歷
歸
歹
歺
死
殳
段
殷
殸
殹
殺
殻
殿
毋
毌
母
每
毒
比
毕
毚
毛
毳
氏
氐
民
气
氣
水
氵
氶
氷
永
氺
氾
求
汝
汞
江
沃
沓
沙
沝
泉
法
波
泣
泥
泰
洛
洪
活
派
流
浦
浪
浮
淡
淮
清
渚
渠
湯
滿
漸
火
灬
灭
灰
灵
灷
炅
炎
炏
炗
炙
炭
為
烈
烏
烝
焉
無
焦
焱
然
煞
熊
熏
燕
營
燮
爪
爫
爭
爯
爰
爱
爲
爵
父
爻
爽
爾
爿
片
牙
牚
牛
牜
牟
牢
牧
牪
牽
犀
犬
犭
犮
狂
狄
狊
独
狺
猋
猒
猪
献
獻
玄
率
玉
王
玟
玨
珎
班
琴
瑟
瑩
瓜
瓦
甘
甚
生
産
用
甫
甬
田
由
甲
申
电
甶
男
甸
甹
画
甾
畀
界
畏
畐
留
畜
畟
畢
畧
畨
番
畫
異
畱
當
畺
畾
疊
疋
疌
疑
疒
疾
癶
癸
癹
登
發
白
百
皀
皃
的
皆
皇
皋
皐
皕
皮
皷
皿
盃
盆
盇
盈
益
盍
盎
监
盒
盖
盛
盡
監
盤
盧
目
直
相
盾
省
眇
眉
看
眔
眞
真
眷
眼
眾
着
睘
睪
睿
瞏
瞢
瞿
矍
矛
矞
矢
矣
知
矦
短
石
破
碎
磊
磨
示
礻
礼
祟
票
祭
禀
禁
禸
禹
禺
离
禽
禾
禿
秀
秃
秉
秋
科
秝
秦
移
稟
穀
穌
穴
究
穹
空
穿
突
窄
窒
立
竒
竜
竝
竟
章
童
竹
笑
笠
筆
等
答
箕
算
箴
節
篤
篭
米
粉
粛
粟
粤
粦
粲
糞
糸
糹
系
約
納
素
索
紫
累
細
絜
絫
絲
維
綿
縣
繇
纍
纟
缶
网
罒
罔
罕
罗
罙
罡
罢
罪
署
罷
羅
羊
羌
羍
美
羔
羕
羗
羞
羡
羣
群
義
羲
羸
羽
翁
翏
習
翕
翟
翠
翼
老
耂
考
者
耆
而
耎
耑
耒
耳
耴
耶
耷
聂
聊
聖
聚
聶
聿
肀
肃
肅
肉
肖
肙
肥
肩
肯
育
肴
胃
背
胡
胥
能
脊
脩
膚
臣
臤
臧
自
臬
臭
臯
臱
至
致
臺
臼
臽
臾
臿
舀
舂
舄
與
興
舉
舌
舍
舛
舜
舞
舟
般
艮
良
色
艸
艹
艾
芒
芔
芬
芮
花
芳
芺
芻
苔
苗
苟
若
苦
英
茶
茸
荅
草
荒
荣
荼
莆
莧
莫
莽
菆
菊
菐
華
萬
落
葉
著
葛
董
葵
蒙
蒦
蒼
蓋
蓬
蓺
蔑
蔡
蕉
蕭
薄
薛
薦
薰
藍
藏
藥
蘭
虍
虎
虐
虒
虔
處
虖
虗
虘
虚
虛
虜
虞
虫
虽
蚤
蚩
蜀
蜜
蟲
蠡
血
行
衍
衛
衣
衤
表
衮
衰
袁
袞
褭
褱
襄
襾
西
覀
要
覃
見
規
覓
覧
親
覽
见
角
解
言
訁
訇
計
詹
誩
諸
讠
谷
豆
豈
豊
豐
豕
豖
豙
象
豦
豩
豪
豸
貇
貝
貞
貟
負
貢
貧
貪
貫
責
貳
貴
買
費
賁
資
賈
賏
賓
賔
賛
賞
賢
賣
質
賴
贊
贝
贡
责
贯
贲
贵
赖
赞
赤
赦
走
越
足
路
蹇
身
躬
車
軍
軎
軟
輦
车
辛
辜
辟
辥
辰
辱
農
辵
辶
边
达
过
近
连
迷
追
退
送
逆
逐
通
逝
速
造
逢
連
逮
進
遀
遂
過
道
達
遣
適
遷
遺
邊
邑
邕
那
邦
邪
郎
部
郭
都
鄉
酉
酋
配
酓
釆
采
里
重
野
量
金
釒
錢
钅
長
镸
长
門
閃
閉
開
閏
閑
閒
間
閔
閵
閻
闌
门
间
闷
阑
阜
阝
阿
降
陳
隆
隊
隋
隡
隨
隱
隶
隹
隺
隻
隼
隽
难
雀
雁
集
雈
雋
雍
雐
雔
雙
雚
雜
雝
離
難
雨
雩
雪
雲
零
雷
需
霍
霜
霝
霞
霸
靈
靑
青
非
靡
面
靣
革
韋
韦
韭
韯
韱
音
頁
頃
項
須
頗
頡
頻
顛
页
風
风
飛
飞
食
飠
養
饣
首
香
馬
馮
駦
马
骨
高
髟
鬥
鬯
鬲
鬼
魚
魯
鮮
鱼
鲁
鳥
鳳
鸟
鹵
鹿
麃
麗
麥
麦
麻
黃
黄
黍
黎
黑
黒
黨
黹
黽
黾
鼎
鼓
鼠
鼻
齊
齋
齐
齒
齿
龍
龙
龜
龟
龠
龰
龱
龴
龵
龶
龷
龸
龹
者
艹
﻿
（
）
？
🜨
𠀁
𠀃
𠀆
𠀉
𠀎
𠀐
𠁁
𠁣
𠂆
𠂇
𠂈
𠂉
𠂊
𠂋
𠂎
𠂒
𠂔
𠂛
𠂡
𠂢
𠂤
𠂬
𠂭
𠂹
𠃊
𠃋
𠃌
𠃍
𠃎
𠃑
𠃓
𠃔
𠃜
𠄌
𠄎
𠄠
𠄢
𠆢
𠆥
𠇍
𠈌
𠌵
𠓜
𠔉
𠔥
𠔼
𠔽
𠔿
𠕀
𠕁
𠕋
𠘧
𠘨
𠙻
𠙼
𠚏
𠚒
𠚤
𠚪
𠣏
𠤎
𠤕
𠥓
𠦄
𠦑
𠦝
𠧒
𠧗
𠧪
𠩺
𠪚
𠫓
𠫔
𠫤
𠬛
𠬝
𠬞
𠬢
𠬤
𠬶
𠮛
𠮦
𠮷
𠯑
𠱠
𠳮
𠷎
𡈼
𡉀
𡉵
𡌥
𡍮
𡏳
𡕒
𡕩
𡕰
𡖅
𡗗
𡗜
𡘆
𡘤
𡧱
𡨄
𡩧
𡬠
𡭽
𡰣
𡰥
𡰪
𡰯
𡰱
𡷈
𡸁
𡿨
𡿩
𡿪
𡿺
𢀖
𢀛
𢀩
𢁙
𢆉
𢆰
𢆶
𢇁
𢇇
𢉖
𢌬
𢌿
𢏚
𢑑
𢑚
𢖻
𢙣
𢛳
𢦏
𢦒
𢧵
𢼄
𢾕
𣁋
𣄼
𣅀
𣅽
𣍘
𣎳
𣎵
𣏋
𣏼
𣗥
𣥂
𣥖
𣦵
𣦼
𣧄
𣪊
𣪠
𣬉
𣳾
𣶒
𤇾
𤊽
𤐫
𤓰
𤔔
𤕨
𤣩
𤰇
𤰔
𤰞
𤴓
𤴔
𤽄
𥁑
𥁕
𥃦
𥃩
𥃭
𥇡
𥑟
𥘅
𥘈
𥝢
𥫗
𥱡
𦈢
𦉪
𦉬
𦉼
𦍌
𦍒
𦎧
𦐇
𦓔
𦔮
𦘒
𦙃
𦚏
𦣝
𦣞
𦣻
𦥑
𦥔
𦥯
𦨉
𦭝
𦰩
𧆞
𧈧
𧘇
𧰨
𧴪
𧴮
𧵩
𧾷
𨸏
𨾴
𩙿
𩠐
𩫏
𩵋
𪉷
𪜀
𪟽
𪠲
𪩲
𫇦
𫔭
𫜸
𫝀
𫠣
𫠩
𫢉
𫥞
𫩏
𫩠
𫪡
𫲽
𫶧
𬀷
𬐘
𬗌
𬙙
𬛸
𬜯
𬟩
𬯁
𬴘
𬺻
𬼉
𬼖
𭀰
𭁈
𭁨
𭅰
𭑈
𭕄
𭗼
𭤨
𭥫
𭻾
𮅕
𮊿
𮍌
𮍏
𮓗
𮥼
𮧮
廾
𰀁
𰀄
𰀈
𰀉
𰀕
𰀠
𰀡
𰀢
𰀪
𰁜
𰃮
𰆊
𰆘
𰋙
𰕎
𰢴
𰧭
𰯲
10--
13--
14--
15--
16--
17--
18--
19--
20--
3--
4--
5--
6--
86--
a--
ab--
ad--
ado--
al--
am--
amuke--
an--
ani--
ants--
app--
ar--
ara--
archi--
at--
ath--
atlan--
au--
ave--
az--
b--
ba--
bal--
bar--
bas--
be--
ber--
bho--
bi--
bil--
bli--
bo--
br--
bre--
broad--
bu--
buil--
bulu--
bur--
burgers--
byo--
c--
ca--
cal--
cam--
car--
ce--
cele--
cha--
che--
chi--
chic--
cla--
clu--
co--
com--
con--
cor--
cou--
cre--
cri--
cyc--
d--
da--
de--
den--
depu--
di--
diffe--
diph--
dis--
disp--
dist--
dla--
do--
dre--
du--
dye--
dyo--
dza--
dzu--
e--
ed--
el--
elem--
em--
emo--
en--
epidem--
es--
esc--
et--
eti--
eu--
eva--
ex--
exif--
f--
fa--
fe--
featu--
fel--
fi--
fin--
fis--
flo--
fo--
fol--
fr--
fri--
fu--
fun--
fundam--
g--
ga--
gand--
ge--
geog--
ger--
gi--
glo--
go--
gon--
gra--
gram--
gro--
gu--
gwam--
h--
ha--
hake--
har--
hat--
he--
her--
hi--
hik--
hinga--
hla--
hlamu--
hlay--
hlayi--
hlo--
hlu--
ho--
hol--
hon--
hu--
hume--
hun--
hund--
hundz--
hus--
i--
in--
indo--
inst--
inter--
is--
it--
j--
ja--
je--
jo--
ju--
k--
ka--
kan--
kar--
karha--
ke--
kh--
kha--
khomi--
khotsi--
khumbe--
ko--
kok--
kom--
komb--
kondle--
ku--
kufu--
kuhla--
kun--
kuth--
kuti--
kuts--
kwamu--
l--
la--
lau--
lava--
le--
leswi--
leti--
lexi--
li--
lingu--
lo--
lu--
lula--
m--
ma--
maf--
mah--
mak--
makhu--
mal--
male--
mam--
mar--
marhum--
mas--
mats--
mba--
me--
medi--
mem--
mha--
mi--
min--
mint--
mit--
mo--
mon--
mor--
mp--
mu--
muh--
muk--
mul--
munic--
mus--
n--
na--
namar--
nan--
nc--
nd--
ndh--
ne--
ng--
ngh--
nghe--
nh--
nhla--
nhlanh--
nhle--
ni--
nka--
nko--
nku--
no--
nor--
nsi--
nst--
nta--
nts--
ntsu--
nwa--
nxa--
nxaxa--
nye--
nyik--
nyo--
o--
olo--
on--
or--
os--
p--
pa--
pas--
pen--
pf--
pfa--
pfap--
pfu--
pfume--
ph--
pha--
phi--
physi--
pl--
pla--
po--
pri--
pro--
profes--
pu--
q--
qu--
r--
ra--
ravu--
re--
rec--
rela--
rele--
requi--
resp--
rha--
rhekho--
rho--
rhu--
rhume--
rhur--
ri--
ro--
rob--
ru--
run--
s--
sa--
sc--
scien--
se--
sec--
ser--
she--
si--
sirhe--
so--
sp--
spe--
spi--
st--
ste--
su--
sub--
sup--
sur--
swa--
swi--
swivu--
swo--
t--
ta--
te--
ter--
th--
tho--
ti--
tifa--
tikhe--
tikho--
tim--
tin--
tip--
tir--
tivi--
tiyi--
tl--
tlu--
to--
tra--
tradi--
trans--
tre--
tri--
ts--
tsh--
tsha--
tshi--
tsho--
tsumbu--
tu--
tumbu--
tumbulu--
u--
uk--
uku--
un--
up--
v--
va--
vacc--
vah--
vala--
van--
vat--
vav--
vavi--
ve--
ver--
vi--
vic--
vo--
vu--
vum--
vun--
vusirhe--
vuyi--
w--
wa--
wam--
we--
wi--
wil--
win--
wo--
wu--
xa--
xi--
xib--
xih--
xihe--
xip--
xir--
xita--
xivi--
xixi--
xo--
xun--
y--
ya--
ye--
yi--
yo--
z--
--0
--1
--2
--3
--35
--4
--46
--5
--6
--7
--8
--9
--a
--ach
--al
--am
--an
--ani
--ans
--ary
--ate
--ating
--ation
--b
--ba
--berg
--bi
--ble
--bu
--bye
--c
--cal
--ce
--cer
--ch
--chi
--ci
--ck
--cle
--co
--cs
--ct
--cted
--cture
--d
--da
--dd
--de
--der
--dhzawu
--di
--dia
--do
--dor
--du
--dza
--dzawu
--dzeni
--dzi
--dzu
--e
--ed
--ein
--eke
--eki
--el
--ela
--ele
--elo
--en
--eni
--ent
--epe
--er
--ere
--eri
--eriwa
--ern
--ers
--erson
--es
--eta
--ete
--ew
--ezi
--fer
--fi
--frica
--ft
--fu
--fumo
--g
--ga
--ge
--ger
--ghana
--gi
--gns
--go
--gu
--h
--ha
--hi
--hic
--hla
--ho
--huri
--hwa
--i
--ia
--ian
--ic
--ics
--ien
--ies
--ight
--ika
--iki
--il
--ile
--in
--ina
--ing
--ini
--io
--ion
--ir
--irektara
--iro
--isa
--isi
--ism
--ist
--it
--ito
--ive
--iwa
--iwe
--iweke
--iwi
--iwile
--ix
--iya
--ization
--j
--k
--ka
--kazi
--ke
--keke
--ki
--kile
--ko
--ku
--kwa
--l
--la
--lala
--lamuka
--lana
--lani
--ld
--ldo
--le
--leka
--leke
--lekile
--lela
--lf
--li
--live
--lk
--ll
--lm
--lo
--ly
--m
--ma
--man
--mba
--mbe
--mbi
--mbia
--mbisi
--mbiwa
--mbo
--mbu
--me
--meke
--mele
--melo
--mi
--mo
--mpfi
--ms
--mu
--my
--n
--na
--nce
--nces
--nd
--nda
--ndi
--ndza
--ne
--ng
--nga
--nge
--ngi
--ngwe
--ni
--nia
--nile
--nisi
--nkulu
--no
--ns
--nt
--nte
--nti
--nto
--ntshwa
--ny
--nya
--nyana
--nyi
--o
--ogy
--om
--on
--onal
--ons
--opo
--or
--os
--ough
--ow
--p
--pa
--pi
--ple
--pu
--qo
--que
--r
--ra
--rd
--rdo
--re
--rg
--rha
--ri
--ria
--rile
--riwa
--riwe
--riweke
--riwile
--rm
--ro
--ron
--rp
--rry
--rs
--rsity
--rt
--rty
--ry
--s
--sa
--se
--seki
--sent
--sh
--ship
--si
--sian
--sing
--siwa
--siwe
--so
--son
--ss
--st
--ster
--t
--ta
--tch
--te
--ted
--tel
--tela
--ter
--teriwa
--th
--ti
--tial
--tic
--tion
--tla
--to
--tor
--ts
--tshwa
--tt
--ty
--tz
--u
--uel
--una
--ur
--us
--ut
--v
--va
--ve
--vela
--vi
--view
--vo
--vuri
--w
--wa
--wana
--we
--weke
--wi
--wile
--wn
--wo
--wu
--x
--xe
--y
--ya
--yana
--yela
--yi
--yiketela
--yiwa
--yo
--yoni
--z
--za
--ze
--zi
--zo
--zu
--zweni
