!
"
#
##0
##1
##10
##11
##12
##13
##14
##15
##16
##17
##18
##19
##2
##20
##21
##22
##23
##24
##25
##26
##27
##28
##29
##3
##30
##31
##32
##33
##34
##35
##36
##37
##38
##39
##4
##40
##41
##42
##43
##44
##45
##46
##47
##48
##49
##5
##50
##51
##52
##53
##54
##55
##56
##57
##58
##59
##6
##60
##61
##62
##63
##64
##65
##66
##67
##68
##69
##7
##70
##71
##72
##73
##74
##75
##76
##77
##78
##79
##8
##80
##81
##82
##83
##84
##85
##86
##87
##88
##89
##9
##90
##91
##92
##93
##94
##95
##96
##97
##98
##99
$
%
&
'
(
)
*
+
,
-
.
/
0
00
000
01
02
03
04
05
06
07
08
09
1
10
100
1000
101
1010
1011
1016
1017
102
1022
103
104
105
107
108
109
1090
11
110
111
1126
113
115
116
117
1183
1189
12
120
1200
1203
1214
1219
122
1228
123
1230
1233
1242
1247
125
1251
1252
1253
127
1289
13
130
1300
1303
1306
1308
1311
1312
1315
1316
1317
1318
1319
1320
1321
1323
1329
1333
1337
1345
1348
135
1351
1358
1360
1365
1369
137
1370
1378
14
140
1401
144
1443
145
1458
15
150
1500
1511
152
1521
1526
1527
1530
1535
154
1540
1542
1543
1565
1569
157
1580
16
160
1610
1613
1616
1655
166
1669
169
17
170
1709
1722
1742
1755
18
180
1809
1817
1826
1841
1852
1854
1855
1861
1864
1866
1876
1877
1880
1885
1886
1896
19
190
1900
1901
1903
1904
1905
1906
1908
1910
1911
1912
1914
1918
1919
1920
1922
1923
1924
1925
1926
1927
1928
1930
1931
1932
1933
1934
1935
1936
1937
1938
1939
1940
1941
1942
1944
1945
1946
1947
1948
1949
1950
1951
1952
1953
1954
1955
1956
1957
1958
1959
1960
1961
1962
1963
1964
1965
1966
1967
1968
1969
1970
1971
1972
1973
1974
1975
1976
1977
1978
1979
1980
1981
1982
1983
1984
1985
1986
1987
1988
1989
1990
1991
1992
1993
1994
1995
1996
1997
1998
1999
2
20
200
2000
2001
2002
2003
2004
2005
2006
2007
2008
2009
2010
2011
2012
2013
2014
2015
2016
2017
2018
2019
2020
2021
2022
2025
2029
21
210
2177
22
220
222
226
23
230
24
25
250
2500
26
264
266
27
2799
28
29
295
3
30
300
3000
31
32
33
34
340
35
350
3525
36
360
37
38
39
4
40
400
4000
41
42
43
4304
44
45
450
46
47
48
483
49
5
50
500
5000
51
52
521
53
531
54
55
550
56
560
57
58
588
59
6
60
600
6000
61
62
623
63
638
639
64
649
65
650
66
67
68
69
7
70
700
71
712
719
72
729
73
74
743
745
75
750
76
768
77
773
774
779
78
782
784
785
79
8
80
800
81
82
83
84
842
85
854
86
869
87
877
88
880
888
89
896
9
90
900
902
91
92
93
94
95
952
959
96
960
962
97
978
979
98
987
99
:
;
<
=
>
?
@
[
\
]
_
`
a
about
above
accent
accents
access
account
ace
act
acute
ad
add
adj
adjective
adjectives
administration
adv
adverb
affairs
africa
after
again
against
age
agency
ahom
ahoms
ai
aid
aids
air
airlines
airport
airways
aj
ak
al
align
all
also
am
amazon
ambassador
america
american
amid
among
an
ancient
and
android
ang
animal
annual
another
anthem
anti
any
ao
ap
apple
application
appointed
appointment
april
ar
archive
archived
are
area
areas
argument
arm
army
around
art
article
as
asean
asia
asian
assam
associated
association
at
ate
au
august
aun
aung
australia
australian
authority
aw
award
aŋ
aɪ
aɪə
aɰ
aʊ
b
ba
baby
back
bad
baked
balance
bald
ball
bangkok
bank
bar
bare
based
bbc
bc
be
been
beijing
being
below
best
between
bi
billboard
black
block
board
book
books
border
both
british
buddhism
buddhist
bureau
burma
burmese
business
but
by
bæk
bɑ
bɔ
bə
bəl
c
ca
cabin
cable
cafe
call
called
calls
cambridge
camp
campaign
can
canada
cap
capital
car
card
care
case
cases
caught
cdc
census
center
central
centre
century
cha
character
characters
charles
che
check
chi
chief
children
china
chinese
chu
church
cia
circle
cite
cities
city
civil
clause
climate
clusters
co
code
codes
coefficient
college
com
commission
committee
common
commons
community
company
comparable
comparative
computer
conference
confirmed
conj
conjunction
considered
constitution
control
copy
coronavirus
corporation
cot
council
countries
country
county
coup
cov
covid
cross
cultural
culture
current
cursor
d
da
dafif
dai
daily
dali
dam
data
database
date
david
day
days
de
dead
death
december
del
democracy
department
depend
des
development
dhammacariya
di
dialect
dialects
dictionary
diego
different
disease
disposable
district
division
divisions
do
doi
down
dr
drug
du
during
dynasty
dz
də
dʒ
e
earlier
early
earth
east
eastern
easy
eat
economic
economy
ed
edition
editor
education
effective
egg
ei
eight
ek
el
election
eleven
em
emergency
empire
empty
en
encyclopedia
end
ending
ends
eng
engineering
england
english
enpr
ep
epidemic
equal
equivalised
er
error
es
especially
established
estimate
estimates
et
ethnic
eu
europe
european
eurostat
even
ever
evil
ew
ex
example
ey
eye
eŋ
eɪ
eɪn
eɪt
eɪʃən
f
fa
face
facebook
faced
factbook
fag
fair
fall
falls
false
family
fan
far
farm
fashion
fast
father
fax
fe
feather
feb
february
feed
fellow
ferry
festival
feɪ
fi
field
fifth
figures
final
fire
first
five
flapping
fo
follow
food
football
for
forbes
force
foreign
form
found
foundation
four
fr
france
free
french
from
ft
fu
fund
further
fɑ
fɔ
fə
g
ga
gad
gam
gan
gates
gazetteer
gb
gdp
genam
general
german
gini
gla
gli
global
gmail
go
golden
good
google
googleearth
gov
government
gra
great
gri
group
groups
guardian
guest
guesthouse
guide
h
ha
had
haj
hak
half
ham
han
has
hat
have
haw
hawk
he
health
help
hen
hep
her
here
heritage
het
hew
heŋ
hi
high
hin
his
history
hit
hiŋ
hluttaw
ho
hoarse
hoj
hok
hom
home
homophone
hon
hong
horse
hot
hotel
house
housing
how
hoŋ
html
http
https
hu
huk
human
hun
huŋ
hway
hwy
hyphenation
hɔ
hɔj
hɔk
hɔm
hɔn
hɔt
hɔŋ
hɛ
hɛn
hɛŋ
hɤ
hɤn
hɯ
hɯn
hɯŋ
i
iata
id
ie
if
ignored
ii
ik
im
imf
immigration
imperial
in
inc
include
including
income
index
india
indicative
industry
infection
info
information
ing
inn
institute
int
intelligence
interjection
international
internet
into
ip
ipa
ireland
irrawaddy
is
isbn
island
islands
issn
it
its
iw
iŋ
j
ja
jack
jak
jam
james
jan
january
japan
japanese
jaw
jaŋ
jaɰ
je
jen
jep
jerusalem
jet
jew
ji
jin
jip
jiŋ
jo
jobs
john
joined
jok
jon
joshuaproject
jot
journal
joŋ
jpg
ju
juk
july
jum
june
jup
juŋ
jɔ
jɔj
jɔk
jɔm
jɔn
jɔp
jɔt
jɔŋ
jə
jɛ
jɛm
jɛp
jɛŋ
jɤ
jɯt
k
ka
kaj
kam
kan
kap
kat
kaw
kaŋ
kaɰ
ke
keng
kep
kew
key
keymagic
keŋ
keɪ
kha
khamti
khe
khi
kho
khu
khun
khwa
khya
ki
kim
kin
king
kingdom
kiw
kiŋ
kja
kju
kjɔk
kjɔŋ
km
know
known
ko
koj
kok
kom
kon
kone
kong
kot
koŋ
ks
kt
ku
kuj
kuk
kum
kun
kunming
kup
kut
kuŋ
kwa
kya
kyi
kæ
kæn
kɑ
kɔ
kɔj
kɔk
kɔm
kɔn
kɔp
kɔt
kɔŋ
kə
kəl
kən
kɛ
kɛm
kɛn
kɛp
kɛt
kɛw
kɛŋ
kɤ
kɯ
kɯk
kɯt
kɯŋ
l
la
labour
laj
lak
lake
lam
lan
land
lang
language
languages
lanka
lao
lap
largest
last
latest
law
laŋ
ld
le
league
left
lek
len
let
level
lew
leŋ
leɪ
li
lib
life
light
lik
like
lim
lin
line
link
lip
list
listed
lit
live
liŋ
ll
lo
local
loi
loj
lom
lon
london
long
lot
love
low
loŋ
lt
ltd
lu
luk
lum
lun
lup
lut
ly
lɑ
lɔ
lɔj
lɔk
lɔm
lɔn
lɔt
lɔŋ
lə
lɛ
lɛk
lɛm
lɛn
lɛp
lɛt
lɛw
lɛŋ
lɤ
lɤk
lɤm
lɤn
lɤt
lɤŋ
lɪŋ
lɯ
lɯk
lɯm
lɯn
lɯt
lɯŋ
m
ma
machine
made
magazine
magyikone
mai
maik
main
maj
major
mak
make
making
man
management
mandalay
many
map
maplandia
mapper
maps
mar
maradona
march
mark
market
marry
mary
mat
matic
maw
may
maŋ
maɰ
me
media
medical
medicine
members
men
merger
merriam
merry
met
mi
michael
microsoft
middle
military
million
mimu
min
ming
minister
ministers
ministry
mit
mm
mo
moj
mok
mom
mon
monetary
mong
more
most
mot
mountain
moŋ
mr
mu
much
muk
mun
music
must
muŋ
my
myanmar
mz
mɑ
mɔ
mɔj
mɔk
mɔn
mɔŋ
mə
mən
mənt
mɛ
mɛn
mɛp
mɛt
mɛw
mɛŋ
mɤ
mɤn
mɤŋ
mɯ
mɯn
n
na
naj
nak
nam
name
named
names
nan
nanzhao
nar
national
nations
nature
naw
nawng
naŋ
naɰ
ncov
nd
ne
neo
net
network
new
news
next
neŋ
ng
nga
nge
ngi
ngo
ngu
ni
nim
niw
nl
nld
no
nok
nom
non
north
northern
not
noun
nouns
novel
november
now
ns
nt
nu
num
number
nuŋ
nya
nyaungpinthar
nye
nz
nɑ
nɔ
nɔj
nɔk
nɔn
nɔŋ
nə
nɛ
nɤ
nɪ
nɯŋ
o
obsolete
oclc
october
of
off
office
official
oj
ok
old
om
on
one
online
only
op
open
opener
operation
or
order
org
organization
original
os
ot
other
out
outbreak
outlook
over
overall
overview
own
oxford
oŋ
oʊ
p
pa
pacific
page
paj
pak
pali
pan
pang
pannasiri
parameter
parliament
part
participle
party
past
pat
paul
paw
paŋ
pcodes
pdf
pe
peace
pen
people
per
permanent
person
pet
peŋ
ph
pha
phe
phi
pho
phonetic
phu
pi
pik
pin
pit
piŋ
pl
place
plan
plural
pm
pmid
pneumonia
po
pocket
point
poj
pok
police
political
pon
pong
pop
population
post
poverty
power
poŋ
pp
pr
pre
prep
preposition
present
president
press
prevention
profile
programme
programming
project
pron
pronoun
pronounced
pronunciation
pronunciations
prospects
protest
province
provisional
pt
pu
public
puk
pum
pun
put
putin
puŋ
pya
python
pɑ
pɔ
pɔj
pɔk
pɔm
pɔt
pɔŋ
pə
pɛ
pɛk
pɛn
pɛt
pɛŋ
pɤ
pɤn
pɤŋ
pɯk
pɯn
pɯŋ
q
queen
r
ra
radio
railway
rangoon
rare
rd
re
real
received
record
red
ref
region
regional
regions
release
religion
report
republic
required
requires
research
resort
resources
respiratory
restaurant
results
retrieved
reuters
review
revision
rhotic
rhyme
rhymes
ri
right
rights
river
ro
road
routledge
royal
rp
ru
rule
russia
russian
s
sa
sai
saint
saipon
same
san
sars
satellite
says
school
science
scotland
se
sea
second
section
security
see
selected
self
semi
september
service
services
set
several
sfn
sh
shall
shan
shang
shn
short
show
si
sichuan
silc
simple
sina
since
singapore
singular
site
situation
six
so
social
society
software
some
source
south
southeast
southern
spanish
speaking
special
species
specific
specify
spelling
spread
sri
ssa
st
staff
standard
star
state
statement
states
statistical
statistics
status
steve
street
stress
stressed
students
studies
study
stə
su
subjects
sublime
such
sun
superlative
superscript
surname
survey
suu
suuang
syllable
syllables
system
sə
t
ta
table
tai
taiwan
taj
tak
take
talk
tam
tan
tang
tap
target
tat
taw
taŋ
taɰ
te
team
technology
tek
tela
tem
ten
tense
territory
tet
text
teŋ
th
tha
thai
thailand
than
that
the
their
them
then
theory
there
therefore
these
they
thi
third
this
tho
three
through
thu
ti
time
times
tin
tion
tit
title
tiŋ
to
today
toj
tok
tom
ton
top
total
tourism
town
township
townships
toŋ
tra
trade
travel
true
trump
ts
tsa
tse
tsi
tso
tsu
tu
tuk
tum
tung
tut
tuŋ
tv
twa
twitter
two
tɔ
tɔj
tɔk
tɔm
tɔn
tɔp
tɔt
tɔŋ
tə
tɚ
tɛ
tɛk
tɛm
tɛn
tɛp
tɛt
tɛŋ
tɤ
tɤk
tɤŋ
tɪ
tɪd
tɪk
tɪv
tɯ
tɯk
tɯn
tɯt
tɯŋ
tɹi
u
ubuntu
ue
ui
uj
uk
um
un
under
ung
unicode
union
unit
united
university
unknown
up
update
updates
upper
url
us
use
used
using
ut
utc
uŋ
v
vaccine
van
varieties
variety
ven
verb
version
very
vi
viber
vietnam
view
virus
visa
vladimir
vol
volume
vowel
və
w
wa
waj
wales
walk
wan
wang
war
was
washington
wat
water
way
wayback
we
web
website
webster
week
weizhou
well
were
west
weŋ
what
when
where
whether
which
white
who
wi
width
wiki
wikimedia
wikipedia
will
william
win
wit
with
without
wo
women
won
word
words
work
world
woŋ
wu
wuhan
wuk
wut
www
wɑ
wɔk
wɔn
wɛn
x
xslx
xu
y
ya
yaa
yang
yangon
ye
year
years
yi
yo
york
you
your
yu
yuan
yunnan
ywarthit
z
zealand
zetaun
zewaeng
zh
zi
zone
{
|
}
~
§
®
°
²
´
·
»
½
×
æ
æb
æd
æf
æk
æl
æm
æn
æp
æs
æŋ
ð
ðə
ĳ
ŋ
ŋa
ŋaw
ŋi
ŋin
ŋoŋ
ŋu
ŋɔ
ŋɔk
ŋɛ
ŋɛm
ŋɯn
ɑ
ɑl
ɑɹ
ɒ
ɒn
ɔ
ɔj
ɔk
ɔl
ɔm
ɔn
ɔp
ɔt
ɔŋ
ɔɪ
ɕa
ɕak
ɕam
ɕan
ɕap
ɕaw
ɕaŋ
ɕaɰ
ɕe
ɕep
ɕeŋ
ɕi
ɕik
ɕip
ɕiŋ
ɕo
ɕok
ɕom
ɕoŋ
ɕu
ɕum
ɕun
ɕup
ɕut
ɕɔ
ɕɔj
ɕɔk
ɕɔm
ɕɔn
ɕɔp
ɕɔt
ɕɔŋ
ɕɛ
ɕɛk
ɕɤ
ɕɤk
ɕɤŋ
ɕɯ
ɕɯn
ɕɯŋ
ɘ
ə
əb
əd
ək
əl
əm
ən
əs
ət
əʊ
ɚ
ɛ
ɛd
ɛk
ɛks
ɛl
ɛm
ɛn
ɛnd
ɛp
ɛs
ɛt
ɛw
ɛŋ
ɛə
ɛɡ
ɛɹ
ɜ
ɝ
ɡ
ɤ
ɤk
ɤn
ɤŋ
ɨ
ɪ
ɪk
ɪks
ɪm
ɪn
ɪs
ɪŋ
ɪə
ɪɡ
ɫ
ɯ
ɯk
ɯn
ɯp
ɯt
ɯŋ
ɲa
ɹ
ɹi
ɹə
ɹɪ
ɹɪŋ
ʃ
ʃn
ʃə
ʃən
ʉ
ʊ
ʌ
ʒ
ʔ
ʔa
ʔam
ʔan
ʔaw
ʔe
ʔen
ʔi
ʔit
ʔiŋ
ʔo
ʔoj
ʔok
ʔon
ʔop
ʔoŋ
ʔu
ʔun
ʔup
ʔut
ʔɔ
ʔɔj
ʔɔk
ʔɔm
ʔɔn
ʔɔŋ
ʔɛw
ʔɛŋ
ʔɯn
ʰ
ʹ
ʼ
ˀ
ˈ
ˌ
ː
ːˈ
˥
˦
˧
˨
˩
̀
́
̂
̃
̄
̆
̇
̈
̊
̌
̒
̓
̚
̛
̟
̠
̣
̤
̧
̨
̩
̯
̰
͝
͞
͡
θ
в
о
ا
ٕ
क
र
स
ा
ि
ी
्
া
ก
กร
กระจ
กระด
กล
ข
ค
ง
จ
ช
ซ
ญ
ด
ต
ถ
ท
ธ
น
บ
ป
ผ
พ
ภ
ม
ย
ร
ล
ว
ศ
ส
ห
อ
อง
อน
ั
า
าง
ำ
ิ
ี
ึ
ื
ุ
ู
เป
เพ
เม
ๆ
็
่
้
๊
๋
์
ກ
ຂ
ງ
ຊ
ດ
ນ
ມ
ັ
າ
ິ
ີ
ື
ຸ
ູ
ົ
່
້
က
ကခ
ကင
ကစ
ကဋ
ကတ
ကန
ကနန
ကပ
ကဗ
ကမ
ကယ
ကရ
ကရက
ကရင
ကလ
ကသ
ခ
ခင
ခတ
ခဒ
ခန
ခမ
ခရ
ခရစ
ခလ
ဂ
ဂန
ဂရ
ဂလ
ဃ
င
ငင
ငတ
ငန
ငပ
ငပလ
ငမ
ငယ
ငရ
ငဝ
ငၵ
ငၸ
ငၼ
ငၽ
စ
စက
စင
စစ
စဉ
စည
စတ
စတင
စန
စနစ
စပ
စမ
စရ
စလ
စဝ
စသ
စသည
ဆ
ဆက
ဆင
ဆည
ဆန
ဆပ
ဆယ
ဆရ
ဇ
ဇင
ဇန
ဇဝင
ဈ
ဉ
ည
ဋ
ဌ
ဍ
ဏ
တ
တက
တခ
တဂ
တင
တစ
တည
တတ
တတၵ
တထ
တန
တပ
တပယ
တမ
တမၼ
တယ
တရ
တလ
တလတ
တဝ
တဝၼ
တသ
တဢ
တၵ
တၵတ
တၶ
တၶဝ
တၸ
တၺ
တၼ
တၼပ
တၼၼ
တၽ
တႁ
တႁတ
ထ
ထက
ထင
ထည
ထတ
ထန
ထပ
ထမ
ထယ
ထယဝ
ထရ
ထလ
ထဝ
ထသ
ထၵ
ထၵထ
ထၵယ
ထၸဝ
ထၼ
ထၽ
ဒ
ဒရ
ဓ
ဓမ
န
နက
နစ
နည
နတ
နန
နမ
နယ
နဝ
ပ
ပက
ပင
ပစ
ပည
ပတ
ပထ
ပထမ
ပဒ
ပန
ပပ
ပမ
ပယ
ပရ
ပရမ
ပရၼ
ပရႁ
ပလ
ပဝ
ပသ
ပဢ
ပၵ
ပၵတ
ပၶ
ပၸ
ပၺ
ပၻ
ပၼ
ပၿ
ပႁ
ဖ
ဖက
ဖတ
ဖန
ဖမ
ဖယ
ဖရ
ဖလ
ဗ
ဗန
ဗဟ
ဘ
ဘက
ဘဏ
မ
မက
မခ
မင
မစ
မဆ
မဇ
မည
မတ
မတယ
မတရ
မထ
မန
မပ
မမ
မယ
မယဝ
မရ
မလ
မဝ
မဝတ
မဝၼ
မသ
မသၵ
မဟ
မဢ
မၵ
မၵထ
မၶ
မၶဝ
မၷ
မၸ
မၸၵ
မၺ
မၻတ
မၼ
မၼၼ
မႁ
ယ
ယက
ယခ
ယင
ယဉ
ယတ
ယတၼ
ယထ
ယန
ယပ
ယမ
ယယဝ
ယလ
ယဝ
ယသ
ယၵ
ယၵလ
ယၶဝ
ယၼ
ယၼၼ
ယၽ
ရ
ရက
ရခ
ရင
ရစ
ရည
ရတ
ရတၼ
ရထ
ရန
ရပ
ရမ
ရမစ
ရမည
ရယ
ရရ
ရလ
ရဝ
ရဝတ
ရသ
ရသည
ရအဖ
ရၵ
ရၶ
ရၸ
ရၼ
ရၼသ
ရၼၼ
ရႁ
လ
လက
လင
လစ
လည
လတ
လန
လပ
လမ
လယ
လယဝ
လလ
လဝ
လဝတ
လသ
လၵ
လၶ
လၸ
လၼ
လၼၼ
လႁ
ဝ
ဝက
ဝင
ဝတ
ဝန
ဝပ
ဝမ
ဝမၼ
ဝယ
ဝယဝ
ဝရ
ဝလ
ဝဝ
ဝသ
ဝၵ
ဝၵၼ
ဝၷ
ဝၸ
ဝၻတ
ဝၼ
ဝၼၼ
သ
သက
သခင
သင
သစ
သည
သတ
သတင
သထ
သထရ
သန
သနပ
သပ
သဖ
သဘ
သမ
သမတ
သမၼ
သယ
သရ
သရက
သရၼၵ
သလ
သဝ
သသ
သၵ
သၵတ
သၸ
သၺ
သၻ
သၼ
သၼၼ
သၽ
သၿ
ဟ
ဟင
ဟန
ဠ
အ
အက
အခ
အင
အစ
အစဉ
အစည
အဆ
အဆင
အည
အတ
အထ
အထက
အဓ
အန
အနက
အနည
အပ
အဖ
အမ
အမည
အယ
အရ
အလ
အလက
အလယ
အဝ
အဝင
အသ
အသက
အသင
ဢ
ဢင
ဢတ
ဢထ
ဢထၵ
ဢပ
ဢမ
ဢမရပ
ဢမၵ
ဢယ
ဢရ
ဢရသ
ဢရႁတ
ဢရႁၼ
ဢလ
ဢလၵ
ဢဝ
ဢသ
ဢသင
ဢၵ
ဢၶ
ဢၷ
ဢၸ
ဢၺ
ဢၼ
ဢၼတ
ဢၼၼ
ဢၽ
ဢႁ
ဤ
ဥ
ဥက
ဥပဒ
ဥပမ
ဥယ
ဥရ
ဧ
ဧရ
ါ
ာ
ိ
ီ
ု
ူ
ေ
ဲ
ဵ
ံ
့
း
္
်
ျ
ြ
ွ
ှ
ဿ
၀
၁
၁၀
၁၁
၁၂
၁၃
၁၄
၁၅
၁၆
၁၇
၁၈
၁၉
၂
၂၀
၂၀၀၈
၂၀၁၃
၂၀၁၄
၂၀၁၅
၂၀၁၆
၂၀၁၇
၂၀၁၈
၂၀၂၀
၂၁
၂၃
၂၄
၂၅
၂၆
၂၇
၂၉
၃
၃၀
၃၁
၄
၄၉
၅
၅၀
၅၈
၆
၆၆
၇
၈
၉
၊
။
၌
၍
၎
၏
ၚ
ၞ
ၢ
ၣ
ၮ
ၵ
ၵင
ၵတ
ၵထ
ၵထမ
ၵပ
ၵမ
ၵမႁ
ၵယ
ၵယဝ
ၵရ
ၵရဝ
ၵရၸရ
ၵလ
ၵလတ
ၵဝ
ၵသ
ၵၵ
ၵၶဝ
ၵၸ
ၵၺ
ၵၻ
ၵၼ
ၵၼၼ
ၵၽ
ၵၾ
ၵႁ
ၶ
ၶင
ၶတ
ၶပ
ၶမ
ၶမႁ
ၶယ
ၶရ
ၶလ
ၶဝ
ၶသ
ၶၵ
ၶၶ
ၶၸ
ၶၸဝ
ၶၼ
ၷ
ၷတ
ၷမႁ
ၷလ
ၷၼ
ၸ
ၸင
ၸတ
ၸပ
ၸမ
ၸယ
ၸရ
ၸလ
ၸဝ
ၸသ
ၸၵ
ၸၶ
ၸၸ
ၸၺ
ၸၼ
ၸၼပ
ၹ
ၺ
ၻ
ၻသ
ၻၵ
ၻၼ
ၻၼၼ
ၼ
ၼင
ၼတ
ၼထ
ၼပ
ၼမ
ၼမၼ
ၼယ
ၼရ
ၼရပတ
ၼရသ
ၼလ
ၼဝ
ၼဝတ
ၼဝရ
ၼသ
ၼသမ
ၼၵ
ၼၶ
ၼၺ
ၼၼ
ၼၼၼ
ၼၽ
ၼႁ
ၽ
ၽင
ၽတ
ၽပ
ၽမ
ၽယ
ၽရ
ၽလ
ၽဝ
ၽဝၵ
ၽသ
ၽဢ
ၽၵ
ၽၼ
ၽၽ
ၾ
ၾင
ၾရ
ၾရင
ၾလ
ၾလမ
ၾၵ
ၾၼ
ၿ
ၿလ
ႀ
ႁ
ႁင
ႁတ
ႁပ
ႁပတ
ႁမ
ႁလ
ႁဝ
ႁၵ
ႁၼ
ႁႁ
ႂ
ႃ
ႄ
ႅ
ႆ
ႇ
ႈ
ႉ
ႊ
ႋ
႐
႑
႑႐
႑႑
႑႒
႑႔
႑႕
႑႙
႒
႒႐
႓
႓႒
႔
႕
႖
႗
႘
႙
႞
႟
ក
ខ
ង
ដ
ណ
ទ
ន
ប
រ
ស
ា
ិ
ុ
ំ
៉
៌
្
ᥪ
᧠
᧢
᧣
᧤
ᨠ
ᨡ
ᨣ
ᨦ
ᨩ
ᨶ
ᨾ
ᨿ
ᩁ
ᩃ
ᩅ
ᩈ
ᩉ
ᩖ
᩠
ᩢ
ᩣ
ᩥ
ᩦ
ᩨ
ᩪ
ᩫ
ᩬ
ᩮ
ᩴ
᩵
᩶
ᴬ
ᴮ
ᴰ
᷆
᷇
᷈
​
‌
‎
‒
–
—
‘
’
“
”
•
…
‧
′
″
⁄
⁠
←
→
↔
↷
−
③
④
⑦
☏
✉
✽
⟨
⟩
⺀
⺄
⺆
⺈
⺊
⺌
⺕
⺝
⺸
⺼
⿰
⿱
⿲
⿳
⿴
⿵
⿶
⿷
⿸
⿹
⿺
⿻
、
。
《
》
【
】
〢
の
コ
ユ
㇁
㇂
㇄
㇇
㇈
㇉
㇓
㐁
㐄
㐅
㐌
㐫
㐬
㐭
㐮
㐱
㑒
㒵
㒸
㒼
㓁
㓞
㔾
㕛
㕣
㖾
㘝
㚅
㚇
㚔
㚘
㝉
㝡
㝴
㝵
㞋
㞢
㞷
㠩
㠭
㠯
㡀
㡭
㡿
㢲
㢴
㣇
㣺
㥯
㪅
㫄
㫐
㫒
㫺
㬅
㬎
㬥
㬰
㲋
㳄
㷠
㸒
㸚
㸦
㼌
㼲
㽞
㿟
䀠
䂞
䍃
䏍
䒑
䖍
䖒
䖝
䖵
䙴
䚻
䜌
䝿
䡛
䧹
䪞
一
丁
丂
七
丄
丅
丆
万
丈
三
上
下
丌
不
与
丏
丐
丑
专
且
丕
世
丘
丙
业
东
丞
丢
丣
两
严
並
丨
丩
个
丫
丬
中
丮
丰
丱
串
丵
丶
丷
丸
丹
为
主
丽
丿
乀
乂
乃
久
乆
乇
么
义
之
乌
乍
乎
乏
乐
乑
乔
乖
乗
乘
乙
乚
乛
乜
九
乞
也
习
乡
乳
乾
亀
亅
了
亇
予
争
事
二
亍
于
亏
亐
云
互
亓
五
井
亘
亚
亜
亞
亟
亠
亡
亢
交
亥
亦
产
亨
亩
享
京
亭
亮
亯
亰
亲
亳
亶
亷
人
亻
亼
亾
仁
今
介
仌
从
仐
仑
仒
仓
仕
他
付
仝
代
令
以
们
任
企
伊
伏
伐
休
众
会
传
伯
但
位
何
佘
余
作
你
佥
使
來
侈
例
侌
侖
侯
侵
便
保
俞
信
修
倉
倍
候
倠
偶
備
傣
僉
像
僕
儿
兀
允
兂
元
兄
充
兆
兇
先
光
兊
克
兌
免
兑
兒
兓
兔
党
兜
兟
入
全
兩
兪
八
公
六
兮
兰
共
关
兵
其
具
典
兹
兼
冀
冂
冃
冄
内
冈
冉
冊
冋
册
再
冎
冏
冐
冒
冓
冖
冗
冘
军
农
冝
冠
冡
冥
冫
冬
冷
准
几
凡
凢
凯
凵
凶
凷
凸
凹
出
击
函
凾
刀
刁
刂
刃
刄
刅
分
切
刍
刑
刕
刖
列
刘
则
初
別
利
别
到
制
刺
則
削
剌
前
剡
剧
剽
劉
力
功
加
劦
动
助
劫
劳
劵
勃
勇
勉
勒
動
務
勞
勤
勹
勺
勻
勾
勿
匀
匂
包
匆
匈
匊
匋
匍
匕
化
北
匚
匝
匡
匪
匱
匸
匹
区
医
匽
匿
區
十
卂
千
卄
卅
卆
升
午
卉
半
卌
华
卑
卒
卓
单
卖
南
卜
卝
卞
占
卡
卢
卣
卤
卦
卩
卪
卫
卬
卯
印
危
即
却
卵
卷
卸
卻
厂
厃
厄
历
厈
厉
厌
厓
厘
厚
原
厤
厥
厨
厭
厲
厶
厷
厸
去
厼
厽
叀
参
參
叅
又
叉
及
友
双
反
叐
发
叒
叔
叕
取
受
变
叚
叜
叟
口
古
句
另
叩
只
召
可
台
叱
史
右
叵
号
司
叹
吂
各
吅
合
吉
吊
吋
同
名
后
吏
向
吕
君
吝
吞
否
含
启
吳
吴
吹
吾
呂
呆
呈
告
员
呙
周
命
咅
和
咎
咠
咢
咨
咸
咼
哀
品
哉
員
哥
哪
哲
唐
唱
商
啇
問
啚
啬
啻
善
喜
喬
單
喿
嗇
噩
嚴
囊
囗
囘
囙
囚
四
回
囟
因
团
囧
囬
困
囱
围
囷
固
国
圂
圅
國
圍
圓
土
圡
圣
圥
在
圭
地
圶
场
圼
坐
坒
坚
坴
垂
型
垔
垚
埀
埋
埶
執
基
堂
堅
堆
堇
堯
塞
境
墨
壘
士
壬
壮
壯
声
壳
壴
壹
壺
壽
夂
处
夅
夆
备
夊
夋
夌
复
夏
夒
夕
外
夗
夘
多
夜
夢
大
夨
天
太
夫
夬
夭
央
失
夲
头
夷
夸
夹
夻
夾
奂
奄
奇
奈
奉
奎
奏
奐
契
奓
奔
奖
奚
奞
奠
奢
奥
奭
女
奴
奻
好
如
妄
妙
妟
妥
妻
妾
姑
委
姜
威
娄
婁
婴
嬰
嬴
子
孑
孔
孕
孖
字
存
孚
孛
孝
孟
季
孤
学
孫
孱
學
宀
宁
宂
它
宅
宇
守
安
宋
完
宏
宓
宗
官
定
宛
宜
宝
实
客
宣
室
宮
宰
害
家
容
宾
宿
寄
寅
密
富
寒
察
寧
審
寫
寬
寮
寸
对
寺
寻
寽
対
寿
封
尃
射
将
將
專
尉
尊
尋
尌
對
小
少
尒
尓
尔
尖
尗
尚
尞
尢
尣
尤
尧
尨
尭
就
尸
尹
尺
尻
尼
尽
尾
尿
局
居
屈
届
屋
屎
屏
屑
展
屖
屚
属
屠
屡
屬
屮
屯
屰
山
屵
屾
岁
岂
岑
岡
岩
岳
岸
峯
島
崇
崑
崔
崖
崙
崩
嵬
嶲
巂
巛
川
州
巟
巠
巢
巤
工
左
巧
巨
巩
巫
差
己
已
巳
巴
巷
巸
巽
巾
巿
帀
市
布
希
帚
帛
帝
带
師
席
帶
常
干
平
年
幵
并
幷
幸
幺
幻
幼
幽
幾
广
広
庄
床
底
店
庚
府
度
庫
庭
庶
康
庸
廉
廌
廛
廣
廩
廴
延
廷
建
廾
廿
开
弁
弃
弄
弇
弋
式
弓
弔
引
弗
弘
弜
弟
张
弥
弦
弱
張
強
强
彊
彌
彎
彐
彑
当
彔
录
彖
彗
彡
形
彥
彦
彧
彭
影
彳
役
彼
往
待
律
徒
得
徙
從
復
微
徵
心
忄
必
忌
忍
志
忝
忠
忩
快
念
忽
忿
思
怠
急
怱
恆
恒
恩
恭
息
悉
患
悤
悲
悶
情
惠
惡
惢
愁
愈
意
愛
感
慈
慧
慮
憂
憲
應
戀
戈
戉
戊
戋
戌
戍
戎
成
我
戒
戔
或
战
戚
戠
戢
截
戲
戶
户
戹
戼
戾
房
所
扁
扇
手
扌
才
打
托
执
找
承
折
拉
拜
拿
掌
推
提
摩
支
攴
攵
收
攸
改
放
政
敄
敏
敕
敖
敗
敝
敞
敢
散
敦
敫
敬
数
敷
數
斂
文
斉
斊
斗
斤
斥
斩
斬
斯
新
方
於
施
斿
旁
旋
族
无
旡
既
旣
日
旦
旧
旨
早
旬
旱
旲
时
旾
昆
昇
昌
昍
明
昏
易
昔
昗
昜
星
春
昬
是
昱
昴
昷
時
晃
晋
晏
普
景
晶
智
暑
暴
曇
曝
曩
曰
曲
曳
更
曷
書
曹
曼
曾
替
最
朁
會
月
有
朋
服
朔
朕
朗
望
朝
期
木
朩
未
末
本
札
朮
术
朱
朵
朶
机
朿
杀
李
杏
杜
束
条
来
杨
東
杲
杳
松
析
林
枚
果
枝
枲
枼
某
染
柔
查
柬
柰
柴
标
栗
桀
桑
档
桼
梁
條
梟
梨
棘
棠
棥
森
楚
業
楽
榜
榮
樂
樊
欠
次
欣
欮
欲
欶
欽
款
歆
歇
歌
歛
止
正
此
步
武
歨
歪
歮
歯
歰
歲
歴
歷
歸
歹
歺
死
殳
段
殷
殸
殹
殺
殻
殿
毋
毌
母
每
毒
比
毕
毚
毛
毳
氏
氐
民
气
氣
水
氵
氶
氷
永
氺
氾
求
汝
汞
江
沃
沓
沙
沝
没
泉
法
波
泣
泥
泰
洛
洪
洲
活
派
流
浦
浪
浮
海
淡
淮
清
渚
渠
湖
湯
滿
演
漸
火
灬
灭
灰
灵
灷
炅
炎
炏
炗
炙
炭
為
烈
烏
烝
焉
無
焦
焱
然
煞
熊
熏
燕
營
燮
爪
爫
爭
爯
爰
爱
爲
爵
父
爻
爽
爾
爿
片
版
牌
牙
牚
牛
牜
牟
牢
牧
物
牪
牽
犀
犬
犭
犮
状
狂
狄
狊
独
狺
猋
猒
猪
献
獻
玄
率
玉
王
玟
玨
现
珎
班
琴
瑜
瑟
瑩
瓜
瓦
甘
甚
生
産
用
甫
甬
田
由
甲
申
电
甶
男
甸
甹
画
甾
畀
界
畏
畐
留
畜
畟
畢
畧
畨
番
畫
異
畱
當
畺
畾
疊
疋
疌
疑
疒
疯
疾
病
症
癶
癸
癹
登
發
白
百
皀
皃
的
皆
皇
皋
皐
皕
皮
皷
皿
盃
盆
盇
盈
益
盍
盎
监
盒
盖
盛
盟
盡
監
盤
盧
目
直
相
盾
省
眇
眉
看
眔
眞
真
眷
眼
眾
着
睘
睪
睿
瞏
瞢
瞿
矍
矛
矞
矢
矣
知
矦
短
石
破
碎
磊
磨
示
礻
礼
神
祟
票
祭
禀
禁
福
禸
禹
禺
离
禽
禾
禿
秀
秃
秉
秋
科
秝
秦
移
稟
穀
穌
穴
究
穹
空
穿
突
窄
窒
立
竒
竜
竝
竟
章
童
竹
笑
笠
第
筆
等
答
箕
算
箴
節
篤
篭
米
粉
粛
粟
粤
粦
粲
糞
糸
糹
系
約
納
素
索
紫
累
細
絜
絫
絲
維
綿
縣
繇
纍
纟
红
纪
线
组
绎
经
络
缶
网
罒
罔
罕
罗
罙
罡
罢
罪
署
罷
羅
羊
羌
羍
美
羔
羕
羗
羞
羡
羣
群
義
羲
羸
羽
翁
翏
習
翕
翟
翠
翼
老
耂
考
者
耆
而
耎
耑
耒
耳
耴
耶
耷
聂
聊
聖
聚
聶
聿
肀
肃
肅
肉
肖
肙
肥
肩
肯
育
肴
胃
背
胡
胥
能
脊
脩
膚
臣
臤
臧
自
臬
臭
臯
臱
至
致
臺
臼
臽
臾
臿
舀
舂
舄
與
興
舉
舌
舍
舛
舜
舞
舟
般
艮
良
色
艸
艹
艺
艾
节
芒
芔
芬
芮
花
芳
芺
芻
苔
苗
苟
若
苦
英
茶
茸
荅
草
荒
荣
荼
莆
莧
莫
获
莽
菆
菊
菐
華
营
萬
落
葉
著
葛
董
葵
蒙
蒦
蒼
蓋
蓬
蓺
蔑
蔡
蕉
蕭
薄
薛
薦
薰
藍
藏
藥
蘭
虍
虎
虐
虒
虔
處
虖
虗
虘
虚
虛
虜
虞
虫
虽
蚤
蚩
蜀
蜜
蟲
蠡
血
行
衍
衛
衣
衤
表
衮
衰
袁
袞
被
装
褭
褱
襄
襾
西
覀
要
覃
見
規
覓
覧
親
覽
见
视
角
解
言
訁
訇
計
詹
語
誩
諸
讠
许
话
语
谷
豆
豈
豊
豐
豕
豖
豙
象
豦
豩
豪
豸
貇
貝
貞
貟
負
貢
貧
貪
貫
責
貳
貴
買
費
賁
資
賈
賏
賓
賔
賛
賞
賢
賣
質
賴
贊
贝
贡
责
贯
贲
贵
赖
赞
赤
赦
走
起
越
足
路
蹇
身
躬
車
軍
軎
軟
輦
车
输
辛
辜
辟
辥
辰
辱
農
辵
辶
边
达
过
近
这
连
迷
追
退
送
逆
逐
通
速
造
逢
連
逮
進
遀
遂
過
道
達
遣
適
遷
遺
邊
邑
邕
那
邦
邪
郎
部
郭
都
鄉
酉
酋
配
酓
釆
采
里
重
野
量
金
釒
錢
钅
钟
長
镸
长
門
閃
閉
開
閏
閑
閒
間
閔
閵
閻
闌
门
间
闷
阑
阜
阝
阵
阿
陈
降
院
陳
隆
隊
隋
隡
隨
隱
隶
隹
隺
隻
隼
隽
难
雀
雁
集
雈
雋
雍
雐
雔
雙
雚
雜
雝
離
難
雨
雩
雪
雲
零
雷
需
霍
霜
霝
霞
霸
靈
靑
青
非
靡
面
靣
革
韋
韦
韭
韯
韱
音
頁
頃
項
須
頗
頡
頻
顛
页
频
風
风
飛
飞
食
飠
養
饣
首
香
馬
馮
駦
马
骨
高
髟
鬥
鬯
鬲
鬼
魅
魏
魚
魯
鮮
鱼
鲁
鳥
鳳
鸟
鹵
鹿
麃
麗
麥
麦
麻
黃
黄
黍
黎
黑
黒
黨
黹
黽
黾
鼎
鼓
鼠
鼻
齊
齋
齐
齒
齿
龍
龙
龜
龟
龠
龰
龱
龴
龵
龶
龷
龸
龹
ꟲ
ꧠ
ꧡ
ꧢ
ꧣ
ꧤ
ꧦ
ꨢ
ꩡ
ꩦ
ꩧ
ꩨ
ꩩ
ꩪ
ꩫ
ꩭ
ꩮ
者
艹
﻿
！
（
）
，
：
？
�
𑜀
𑜂
𑜃
𑜄
𑜈
𑜉
𑜋
𑜌
𑜎
𑜏
𑜒
𑜠
𑜡
𑜢
𑜤
𑜥
𑜧
𑜨
𑜩
𑜫
𠀁
𠀃
𠀆
𠀉
𠀎
𠀐
𠁁
𠁣
𠂆
𠂇
𠂈
𠂉
𠂊
𠂋
𠂎
𠂒
𠂔
𠂛
𠂡
𠂢
𠂤
𠂬
𠂭
𠂹
𠃊
𠃋
𠃌
𠃍
𠃎
𠃑
𠃓
𠃔
𠃜
𠄌
𠄎
𠄠
𠄢
𠆢
𠆥
𠇍
𠈌
𠌵
𠓜
𠔉
𠔥
𠔼
𠔽
𠔿
𠕀
𠕁
𠕋
𠘧
𠘨
𠙻
𠙼
𠚏
𠚒
𠚤
𠚪
𠣏
𠤎
𠤕
𠥓
𠦄
𠦑
𠦝
𠧒
𠧗
𠧪
𠩺
𠪚
𠫓
𠫔
𠫤
𠬛
𠬝
𠬞
𠬢
𠬤
𠬶
𠮛
𠮦
𠮷
𠯑
𠱠
𠳮
𠷎
𡈼
𡉀
𡉵
𡌥
𡍮
𡏳
𡕒
𡕩
𡕰
𡖅
𡗗
𡗜
𡘆
𡘤
𡧱
𡨄
𡩧
𡬠
𡭽
𡰣
𡰥
𡰪
𡰯
𡰱
𡷈
𡸁
𡿨
𡿩
𡿪
𡿺
𢀖
𢀛
𢀩
𢁙
𢆉
𢆰
𢆶
𢇁
𢇇
𢉖
𢌬
𢌿
𢏚
𢑑
𢑚
𢖻
𢙣
𢛳
𢦏
𢦒
𢧵
𢼄
𢾕
𣁋
𣄼
𣅀
𣅽
𣍘
𣎳
𣎵
𣏋
𣏼
𣗥
𣥂
𣥖
𣦵
𣦼
𣧄
𣪊
𣪠
𣬉
𣳾
𣶒
𤇾
𤊽
𤐫
𤓰
𤔔
𤕨
𤣩
𤰇
𤰔
𤰞
𤴓
𤴔
𤽄
𥁑
𥁕
𥃦
𥃩
𥃭
𥇡
𥑟
𥘅
𥘈
𥝢
𥫗
𥱡
𦈢
𦉪
𦉬
𦉼
𦍌
𦍒
𦎧
𦐇
𦓔
𦔮
𦘒
𦙃
𦚏
𦣝
𦣞
𦣻
𦥑
𦥔
𦥯
𦨉
𦭝
𦰩
𧆞
𧈧
𧘇
𧰨
𧴪
𧴮
𧵩
𧾷
𨸏
𨾴
𩙿
𩠐
𩫏
𩵋
𪉷
𪜀
𪟽
𪠲
𪩲
𫇦
𫔭
𫜸
𫝀
𫠣
𫠩
𫢉
𫥞
𫩏
𫩠
𫪡
𫲽
𫶧
𬀷
𬐘
𬗌
𬙙
𬛸
𬜯
𬟩
𬯁
𬴘
𬺻
𬼉
𬼖
𭀰
𭁈
𭁨
𭅰
𭑈
𭕄
𭗼
𭤨
𭥫
𭻾
𮅕
𮊿
𮍌
𮍏
𮓗
𮥼
𮧮
廾
𰀁
𰀄
𰀈
𰀉
𰀕
𰀠
𰀡
𰀢
𰀪
𰁜
𰃮
𰆊
𰆘
𰋙
𰕎
𰢴
𰧭
𰯲
01--
10--
11--
12--
13--
14--
15--
16--
17--
18--
19--
20--
21--
22--
23--
24--
25--
26--
27--
28--
29--
30--
31--
32--
33--
34--
35--
36--
37--
38--
39--
40--
41--
42--
43--
44--
45--
46--
47--
48--
49--
50--
51--
52--
53--
55--
56--
57--
59--
62--
64--
67--
72--
73--
74--
78--
79--
83--
86--
a--
ab--
aba--
abbrevi--
abet--
abi--
abo--
abor--
abra--
abse--
abso--
abst--
abut--
ac--
aca--
acc--
acceler--
accep--
accid--
acco--
accord--
accus--
acqui--
ad--
admi--
adminis--
ado--
ador--
adu--
adult--
aer--
af--
affec--
ag--
aggre--
agit--
agri--
ai--
air--
al--
alb--
alter--
am--
amb--
ambi--
an--
anaes--
anc--
anglo--
anim--
ans--
anta--
ante--
ap--
appa--
appe--
appl--
appr--
appre--
approxim--
aqu--
ar--
ara--
aris--
arm--
arra--
as--
asc--
ash--
assi--
assu--
astro--
at--
attri--
au--
auc--
audi--
av--
avai--
aver--
avi--
avo--
aw--
ax--
aɪ--
aʊ--
b--
ba--
baby--
back--
bai--
bal--
ban--
band--
bangla--
bar--
be--
ber--
bi--
bio--
bo--
bra--
bri--
bu--
c--
ca--
cab--
cack--
calc--
calcu--
cambo--
can--
cap--
car--
cara--
cent--
certi--
cha--
chri--
cla--
clo--
co--
cof--
com--
con--
conc--
cons--
cont--
cre--
cri--
cu--
cus--
d--
da--
de--
dec--
devel--
di--
dis--
dist--
distri--
div--
do--
dr--
du--
dʒ--
e--
ear--
ec--
eco--
ed--
edu--
ef--
egg--
ego--
ei--
el--
elabor--
elec--
elect--
electri--
electro--
elem--
elev--
em--
emb--
emi--
en--
enab--
enc--
enco--
encyc--
encyclo--
end--
eng--
ens--
ensh--
ent--
ente--
enter--
entertain--
enth--
environ--
ep--
epi--
epid--
equi--
er--
es--
establish--
et--
ethno--
eu--
evacu--
evi--
ex--
exam--
exc--
excav--
excel--
excha--
exclu--
exec--
exem--
exhi--
exhibi--
expe--
expec--
expedi--
expi--
expl--
explo--
ext--
extre--
exu--
eye--
eɪ--
f--
fa--
fac--
facto--
fai--
fal--
fami--
fan--
far--
fau--
fav--
fe--
feeb--
feel--
fenc--
fer--
ferti--
fet--
fev--
fi--
fic--
fidd--
fidg--
fo--
for--
fr--
frie--
fu--
g--
ga--
ge--
gen--
geo--
ger--
gi--
go--
gra--
gre--
gro--
gu--
gui--
h--
ha--
hand--
har--
he--
hi--
ho--
hos--
htan--
hu--
i--
im--
in--
indi--
indo--
indu--
inst--
inter--
inv--
is--
it--
j--
je--
ji--
jo--
ju--
k--
ka--
kan--
ke--
key--
ki--
ko--
kya--
kyauk--
l--
la--
laui--
le--
let--
li--
lo--
lu--
m--
ma--
mag--
magyi--
man--
mar--
me--
mem--
mi--
mo--
mon--
mor--
mr--
mu--
mus--
my--
n--
na--
nam--
naung--
ne--
ni--
no--
non--
nor--
nya--
nyaung--
o--
oce--
op--
or--
orig--
p--
pa--
para--
pauk--
pe--
ph--
phi--
phy--
pi--
pl--
pla--
plat--
po--
por--
posi--
pr--
pre--
pro--
provin--
pu--
publi--
q--
qu--
r--
ra--
ran--
re--
rec--
reg--
rela--
res--
rest--
ri--
ro--
ru--
s--
sa--
se--
sec--
sh--
si--
so--
spe--
st--
stat--
sti--
struc--
sty--
stɹ--
su--
sub--
supp--
sus--
swe--
sym--
t--
ta--
taung--
te--
tea--
tele--
tem--
ter--
terri--
tha--
thayet--
ti--
to--
tou--
tradi--
tre--
tri--
tro--
tu--
tur--
tɹ--
u--
un--
up--
v--
val--
vi--
vic--
vo--
w--
wa--
waan--
we--
wel--
wi--
x--
y--
ya--
ye--
yo--
ywar--
z--
zh--
zhu--
æ--
æk--
æl--
æm--
æn--
æs--
ŋ--
ɑ--
ɒ--
ɒn--
ɔɪ--
ə--
əʊ--
ɛ--
ɛk--
ɛl--
ɛn--
ɛs--
ɛə--
ɡ--
ɪ--
ɪs--
ɪə--
ɲ--
ɹ--
ʃ--
ʉ--
ʊ--
ʌ--
ʒ--
ʔ--
ก--
ง--
ด--
ต--
น--
บ--
ม--
ย--
ว--
ห--
อ--
า--
เ--
แ--
က--
ခ--
ဂ--
င--
စ--
ဆ--
ဇ--
ည--
တ--
တမ--
တရ--
ထ--
ဒ--
ဓ--
န--
ပ--
ဖ--
ဗ--
ဘ--
မ--
မၼ--
ယ--
ရ--
လ--
ဝ--
သ--
သပ--
ဟ--
အ--
ဢ--
ဤ--
ဥ--
ဧ--
ဩ--
၁၄--
၂--
၂၀--
၃--
၄--
၅--
၆--
၇--
၈--
၉--
ၵ--
ၷ--
ၸ--
ၸၵ--
ၺ--
ၻ--
ၼ--
ၽ--
ၽရ--
ၽဝ--
ၾ--
ၿ--
ႁ--
႑--
႒--
႓--
႔--
႕--
႖--
႗--
႘--
႙--
--0
--00
--02
--1
--2
--3
--4
--5
--6
--7
--8
--9
--a
--able
--ach
--ad
--ai
--al
--als
--am
--an
--ance
--ans
--ant
--ar
--arian
--aries
--ary
--as
--at
--atic
--ation
--ations
--aw
--ay
--b
--bed
--bia
--ble
--bly
--bo
--bs
--c
--ca
--cal
--ce
--ced
--cent
--ces
--ch
--cious
--ck
--co
--cs
--ct
--cted
--ctive
--cts
--cy
--d
--da
--ddy
--de
--ded
--der
--dge
--ding
--ds
--dy
--e
--ect
--ed
--ee
--el
--en
--ence
--ent
--ents
--er
--ered
--ers
--ery
--es
--ese
--ess
--est
--et
--ey
--f
--ful
--g
--ge
--ged
--ges
--ght
--gical
--gies
--gn
--gs
--gue
--gy
--gyi
--h
--hai
--har
--hla
--i
--ia
--ial
--ian
--ic
--ical
--ice
--ics
--ied
--ies
--ight
--ign
--il
--in
--ine
--ing
--ings
--io
--ion
--ions
--ious
--ir
--is
--ise
--ish
--ism
--isms
--ist
--istic
--ists
--it
--itarian
--itic
--ities
--ition
--ity
--ive
--ization
--ize
--ized
--izes
--izing
--j
--k
--kan
--ker
--l
--ld
--le
--led
--les
--less
--lk
--ll
--lly
--lm
--logy
--ls
--ly
--m
--ma
--mas
--me
--ment
--ments
--ms
--my
--n
--na
--nce
--nces
--nch
--ncy
--nd
--ne
--ned
--ner
--nes
--ness
--nesses
--ng
--ngs
--ni
--nia
--ning
--ns
--nt
--nts
--ny
--o
--od
--oe
--oi
--ol
--ols
--om
--omy
--on
--ons
--op
--or
--ors
--ory
--os
--ot
--ou
--ous
--ow
--p
--ph
--phy
--ps
--pt
--r
--ra
--ral
--rate
--rd
--re
--res
--ress
--rge
--ria
--rian
--ric
--ries
--ring
--rk
--rm
--rms
--rn
--rry
--rs
--rt
--rted
--rts
--ry
--ryar
--s
--se
--sed
--ses
--sh
--ship
--sia
--sing
--sion
--sis
--sity
--sive
--sk
--sm
--son
--ss
--sses
--st
--stic
--sts
--su
--t
--ta
--tal
--tary
--tch
--te
--ted
--ter
--ters
--tes
--th
--thar
--ti
--tic
--ties
--ting
--tive
--tle
--tly
--to
--tor
--tors
--try
--ts
--ty
--u
--uce
--ude
--ue
--ugh
--uk
--um
--ung
--ur
--ure
--ures
--uring
--us
--ution
--v
--va
--val
--ve
--ves
--w
--way
--west
--wn
--ws
--x
--xi
--y
--ya
--ys
--z
--ze
--zes
--ŋ
--ɔ
--ə
--əl
--ɚ
--ɪ
--ɪd
--ɪt
--ɪz
--ɪŋ
--ɰ
--ɹ
--ɹi
--ʃ
--ʊ
--ʒ
--ณ
--น
--ม
--ร
--ะท
--က
--င
--စ
--ည
--တ
--ထ
--န
--ပ
--မ
--ယ
--ရ
--လ
--ဝ
--သ
--၀
--၀၀
--၅
--ၵ
--ၶ
--ၷ
--ၸ
--ၺ
--ၻ
--ၼ
--ၽ
--ႁ
--႐
