!
"
##0
##1
##10
##11
##12
##13
##14
##15
##16
##17
##18
##19
##2
##20
##21
##22
##23
##24
##25
##26
##27
##28
##29
##3
##30
##31
##32
##33
##34
##35
##36
##37
##38
##39
##4
##40
##41
##42
##43
##44
##45
##46
##47
##48
##49
##5
##50
##51
##52
##53
##54
##55
##56
##57
##58
##59
##6
##60
##61
##62
##63
##64
##65
##66
##67
##68
##69
##7
##70
##71
##72
##73
##74
##75
##76
##77
##78
##79
##8
##80
##81
##82
##83
##84
##85
##86
##87
##88
##89
##9
##90
##91
##92
##93
##94
##95
##96
##97
##98
##99
$
%
&
'
(
)
+
,
-
.
/
0
000
0098036
01
02
03
05
1
10
100
107
11
110
12
13
130
1371
14
15
16
17
176
18
19
1932
1950
1954
1960
1965
1970
1975
1976
1983
1989
1995
1996
1999
2
20
200
2001
2003
2004
2005
2006
2007
2008
2009
2010
2011
2012
2013
2014
2015
2016
2017
2018
2019
2020
2021
207
21
22
23
24
25
250
26
27
28
29
3
30
300
31
32
37
38
4
40
400
42
43
44
5
50
500
59
6
60
600
6203
63
64
65
7
70
8
80
800
841
8601
88
9
90
978
98036
:
;
<
=
>
?
[
\
]
^
_
a
ab
abigail
about
ac
aceni
action
actor
ad
aferika
aferikan
ag
aglaia
ai
air
aisi
aj
ak
akwid
al
ala
alatala
alchemy
all
alps
also
am
american
amerika
amerikan
an
ana
and
angeles
animal
antarctic
antennaria
apostolic
ar
ara
arc
archived
archives
are
arithmetic
as
aspirini
association
astrolabe
astronidium
at
atalanitika
ati
atmospheric
atom
atomic
au
aua
august
australian
austria
auto
auwa
av
awai
ay
b
ba
baby
back
bafalo
bahia
bai
balaka
balavu
bale
baleta
baleti
ban
banana
band
bank
baqe
bar
baravi
barba
bas
based
basi
basika
basikeli
basikete
baskin
bata
batabata
bati
bau
bc
be
beatles
bebe
beethoven
beitaka
beka
beki
beleti
bera
berabera
berlin
beseni
besi
best
bi
bia
biau
bibi
bili
billion
bilo
biodiversity
birdlife
bisikete
bisinisi
biu
biuta
biuti
biuvanua
bla
bleu
blo
blues
bo
bogi
bomba
bomu
books
boro
boroya
bose
bosnia
boso
boto
br
bra
braun
brazil
british
bro
broadway
brother
bru
bsk
bu
bucini
buja
buka
bula
bulabula
buli
bulia
buloko
bulu
bulumakau
buo
bure
burogo
buta
buto
butobuto
by
c
ca
cabe
cagi
cagilaba
caka
cakacaka
cakacakaniliga
cakacakataki
cakau
cakaudrove
cakava
cake
cala
california
cambridge
camera
capital
car
caracas
caribbean
carota
carry
categ
cau
cauravou
cava
cavuti
cay
ce
cecere
cegu
cei
cent
center
centre
centro
ceva
cevara
cevata
cevatokalau
ch
cha
charter
che
chi
chicago
chile
cho
christian
chu
church
ci
cici
cil
cina
ciqoma
ciqomi
cite
citrus
city
ciwa
ck
cm
co
coast
cocos
cokovata
collection
collections
colombia
com
combining
combustion
commons
community
con
confucius
conservation
continental
cook
coral
corbin
costa
cowiri
cr
cre
cu
cuba
cudru
curu
curuma
d
da
dabe
dabuiloa
dai
daku
daliga
dalo
damudamu
dan
danisi
dar
daramaki
daru
data
datou
dau
daudidigo
daukerekere
daulagasere
daulomani
daunivucu
dauqito
dauvakadidike
dauvakaraitaki
dauvauimadrai
david
davo
dawai
day
de
december
dede
definition
del
dela
der
derekona
des
dessous
di
dia
diameter
dictionary
digidigi
digitaki
dikeva
dikevi
dina
dio
diospyros
disi
displaystyle
do
dodonu
dog
doi
dokai
dolava
dolavi
domo
domona
don
donu
dou
dovu
dovuititoko
dra
draiva
draki
drano
drau
draudrau
dravu
dravuisiga
dredre
drega
dresden
drew
drodro
droini
drokadroka
dromodromo
du
dua
duabau
duadua
duatani
duavata
dui
duidui
duka
dusimaki
dv
dwarf
dy
dz
e
east
ecoivakarau
ed
eda
edaidai
egory
ei
ek
eka
el
ela
elder
electromagnetic
elemedi
eliumi
empera
en
ena
encyclopedia
english
eni
epereli
er
era
eratou
erau
eris
eroti
error
es
esia
eso
est
esto
et
eta
euclidean
eula
evei
f
fa
farisi
father
fe
february
feperueri
fiji
fijian
fika
filimu
filipaini
filosofi
finiladi
first
fisher
fisiki
five
florida
fo
fomu
footnotes
for
fore
found
fra
fracture
francisco
friedrich
from
ft
fu
fute
fy
g
ga
gacagaca
gade
gadreva
gadrevi
gaga
gagadre
galala
gamete
ganilau
gata
gauna
gauni
gaunisala
ge
genus
geographic
geological
geology
geometry
georgia
gi
gia
giu
gn
go
god
golden
gole
gona
gone
gonedramidrami
gonetagane
goneyalewa
gov
gra
great
green
gregorian
group
gs
gu
gugumatua
gunu
gunuva
gusu
h
ha
halloween
hammurabi
han
hat
haydn
he
help
herzegovina
hi
high
hindi
his
history
ho
hosted
hotel
house
how
http
hu
hue
hunter
husband
hydrogen
hyena
hyva
i
ia
ibale
ibalebale
ibulibuli
icavacava
icili
icocovi
icurucuru
id
idabedabe
idavodavo
idia
idinia
idonisia
idre
idrekedreke
idusidusi
ie
igacagaca
igiladi
ignored
igu
ii
ijipita
ijipta
ik
ika
ikalima
ikaono
ikarua
ikatalau
ikatini
ikatolu
ikava
ikavitu
ikeli
iko
ikoya
ikuri
il
ilakolako
ilavelave
ilavo
ilawalawa
ilesilesi
iliuliu
iloilo
ima
imatai
imocemoce
in
ina
inaki
inakinaki
includes
indo
ine
inen
influenza
information
institute
integer
international
invalid
io
iotioti
iprage
iqaqalo
ir
ira
irairai
iratou
ireland
irogorogo
is
isau
isbn
isele
isema
isikele
isireli
island
islands
iso
isolisoli
isoqosoqo
isoso
isosomi
issn
isulu
it
itaba
itala
italatala
itali
itataqomaki
itau
itaukei
itavi
itaviqaravi
itei
iteitei
itekitekivu
itekivu
iti
itikotiko
itovo
itubutubu
ituku
itukutuku
itutu
ituvaki
ituvatuva
iu
iukuuku
iurope
iusutu
iva
ivakadewa
ivakadinadina
ivakalailai
ivakamacala
ivakaraitaki
ivakarau
ivakatagedegede
ivakatagedegedetaki
ivakatagi
ivakatakarakara
ivakatakata
ivakatakilakila
ivakavakadina
ivakavuvuli
ivalavala
ivalu
ivana
ivau
ivava
ivavakoso
ivi
ivodo
ivola
ivolanivula
ivolatabu
ivolatukutuku
ivoli
ivosavosa
ivukivuki
ivunau
ivurevure
iwalewale
iwase
iwasewase
iwiliwili
iwirini
iyalayala
iyaloyalo
iyaragi
iyau
iyaya
j
ja
jack
jaina
jamani
james
january
janueri
japani
java
jazz
je
jeke
jerusalemi
ji
jiova
jisi
jisu
jiu
jiuta
jo
john
johnson
jokeliti
jone
joni
josefa
joseph
joshua
journal
ju
july
june
jupiter
jv
k
ka
kabani
kabata
kabebe
kaboni
kabu
kacabote
kaciva
kacivi
kadavu
kadrala
kai
kakana
kakaseresere
kako
kakua
kakumea
kalasi
kaleda
kalo
kalokalo
kaloko
kalou
kalougata
kalove
kama
kami
kamica
kamusu
kana
kania
kaqaru
karakarawa
karate
kareti
karisitala
karisito
karua
kasi
katakata
kathmandu
kato
katolika
katoni
kau
kaua
kaukamea
kaukaua
kaukauwa
kauta
kauti
kauveilatai
kauwai
kava
kaveti
kawa
kawatamata
kaya
ke
kea
kece
kecega
keda
kedra
kedrau
kei
keia
keimami
keke
kemesi
kemisitiri
kemuni
kena
kenada
kentucky
kere
kerea
kerekere
kete
kevaka
keya
kf
kho
ki
kila
kilai
kilanibula
kilometres
kilomita
kina
kini
kioa
kirimu
kirisi
kk
kla
km
knowledge
ko
koli
komipiuta
kompiuta
koniteina
konitineni
korea
koro
koronivuli
koroturaga
kos
kosipeli
kote
koto
koula
kovuta
koya
kra
ks
ku
kudrukudru
kuila
kuli
kumi
kumuni
kune
kunea
kunei
kupu
kuro
kutunitana
kw
ky
l
la
labasa
laga
lagasere
lailai
laini
laivi
laki
lako
lala
lalai
lali
language
laos
lasa
lase
lasu
latex
latina
lau
laukana
laurai
lautoka
lavetaki
law
lawa
lawatu
ld
le
lea
leka
lekaleka
leleka
lelevu
leo
leqa
les
lesi
lesoni
lesu
levu
lewa
lewai
lewe
lewelevu
lewena
lewenilotu
lewenivanua
li
life
lifuka
liga
ligairi
ligaqu
lima
line
lisi
liu
liutaka
liutaki
livaliva
liwa
ll
lla
ln
lo
loaloa
loga
loka
loli
lolo
loloma
loma
lomadonu
lomalagi
lomana
lomani
lomanibai
lori
los
lotu
lu
lua
lulu
lululu
luna
luther
lutu
luvena
luvequ
m
ma
maca
macala
macawa
maciu
mada
madagasikar
madaqasika
madrai
madua
mai
maile
maji
makau
makawa
makete
malea
mali
malina
maliwa
maliwalala
malua
malumalumu
malumu
mama
mamaca
mamare
mamaroroi
mamau
man
mana
manamana
mangga
mango
manu
manumanu
map
mape
maqo
mar
mara
marama
marau
marautaka
marautaki
march
marika
maritime
maroroi
martin
masela
masi
masima
masu
mata
matabani
matabete
mataboko
matabose
matagaga
matai
mataisau
mataisoqosoqo
mataivakatagi
mataivalu
mataka
matanisiga
matanitu
matanivanua
matanivika
matanivola
mataniwai
mataqali
matata
matataka
matau
matavuvale
mate
matea
mathematics
matua
mau
mavoa
may
me
med
meimei
meki
mekisiko
men
mer
mercury
mes
metre
metropolitan
mexico
mh
mi
michael
milioni
millioni
min
minh
ministry
miniti
misini
mita
mo
moce
module
moko
moku
moli
molikiuli
momani
momo
mona
monk
moon
more
morgen
mosese
mosi
mother
moto
motoka
moz
mpa
mu
mua
mudre
multi
multiplication
muri
muria
music
musical
musuka
my
n
na
naba
nadi
nah
nai
naisilsisili
namaki
named
namu
nan
nana
nanoa
nanuma
nanumi
national
natural
nausori
nb
nd
nds
ne
nei
neli
nepal
net
new
news
ng
nga
ngo
ngu
nh
nha
ni
nia
nifai
nikua
nima
nist
nitu
niu
niukaseli
niusi
niusiladi
nn
no
noa
noda
nodra
nodratou
nodrau
nomu
nona
noqu
norge
north
not
noti
noveba
ns
nta
nu
nui
nukilia
nuku
nunu
ny
nylon
o
oca
oceania
october
of
official
ogaoga
ogavae
ohio
oka
okati
okosijeni
okosita
okotova
olimipiki
om
on
one
oneness
oni
online
ono
ontario
op
open
oqani
oqo
oqori
or
org
organic
organism
original
os
ose
ositerelia
osooso
otela
oti
ou
oxford
p
pa
pacific
package
palasitika
palau
palisitaina
pan
papeti
papiloni
papitaisotaki
papua
paraimari
parameter
park
parofita
parokaramu
parte
pasidia
pasifika
pasivika
pat
paula
pdf
pe
pea
peipei
pen
peni
peninsula
pepa
percussion
peresitedi
peretania
perisia
peritania
person
peru
pes
peter
peteriaki
petty
phenomena
phenomenon
philosophy
pi
piano
pita
pizza
plan
plasma
playbill
plos
pluto
po
poc
pokok
polad
polinisia
politiki
polo
polymer
pone
pope
population
populous
pos
posi
positovesi
pot
pote
pp
pr
pra
pre
press
pro
provided
pu
pusi
q
qai
qali
qalo
qaqa
qara
qarava
qaravatu
qaravi
qase
qasenivuli
qasi
qasikalolo
qato
qele
qin
qiqo
qita
qito
qoli
qoroya
qu
qua
que
r
ra
rabailevu
radius
rai
raica
raici
raikalokalo
rairai
rakavi
ramase
ramusu
rap
rapa
raraba
raradamu
rarama
rarawa
ratou
ratu
rau
rauni
rauta
rawa
rawarawa
rawata
rawati
rd
re
red
ref
refs
reketuqula
republic
rere
rerevaki
res
retequla
retioyaloyalo
retrieved
revurevu
ri
ria
richard
rig
rika
ring
rio
ripabuliki
river
rka
ro
road
robbins
rogoca
roka
rokataki
rokete
roma
rorogo
rotuma
roughly
rt
ru
rua
ruarua
ruasagavulu
rube
rui
ruku
rumu
rusi
ruve
s
sa
sai
saikolaji
sainitaka
saiva
saka
sala
salavata
samoa
san
santa
saqa
saqata
sara
sarasara
saravanua
sasaga
sasamaki
saulailai
sauma
saumaki
saumi
saurawarawa
savasava
savata
savusavu
sc
school
schubert
scn
se
sea
sede
sega
segai
segata
sekodi
semati
senijiuri
senikau
senitiuri
september
seraki
sere
setilaite
setilaiti
shi
si
sich
sie
siga
sigaanisucu
sigalevu
siganisucu
sigatabu
sigatoka
sika
sikoa
sikuea
sila
siladi
siliva
simede
simici
sinh
sinucodo
sipaisi
sipeni
sipi
sir
sisa
sisili
sister
siti
sitoa
sivia
siwa
sjo
sko
sla
sm
sn
so
sobu
society
sogota
soka
soko
sol
solar
soli
solia
solo
solomoni
son
soniwai
soqo
soqoni
soqosoqo
sore
sorenikau
soro
sotava
sotavi
sote
soti
sotia
south
sovu
spain
species
sq
ss
st
sta
stand
star
states
sto
stra
strategy
su
sua
suasua
subset
subtraction
sucu
sudamerica
sugar
sui
suka
suva
suwiteni
symmetry
synthetic
sz
sza
t
ta
tabaka
tabaki
tabana
tabanilotu
tabu
tabua
tag
taga
tagane
tagica
tai
taipe
taiwana
taka
takete
taki
tala
tale
talega
talei
taleitaka
taleitaki
tama
tamana
tamanibulumakau
tamata
tani
taqomaka
taqomaki
tara
tarai
tarausese
tarava
taro
tas
tata
tataqomaki
tau
taucoko
taudaku
taudua
taumada
tauni
taura
tauri
tautauvata
tautuba
tauvi
tauvimate
tauyavutaka
tauyavutaki
tavaya
taveuni
tavi
tavioka
tavu
tavua
tawa
tawana
tawani
tawase
tawasei
tawavanua
te
tea
tei
teitei
teivaki
tekinolaji
tekivu
tekivutaki
template
tempo
ten
teo
teveli
text
tg
th
tha
thailand
that
the
thermovakayavavala
thi
this
tho
thu
ti
tie
tiki
tikina
tiko
tikoga
til
till
timi
timoci
tina
tini
tinikarua
tisaipeli
tiseba
titobu
tk
to
toa
toba
tobo
tobu
todroge
toga
toka
tokalau
toki
tokitaki
tokona
tolu
tom
tomana
tomani
topology
toso
totoka
totolo
tovo
tovolea
tpi
tra
tre
tri
tro
tru
tt
tta
tu
tuaka
tuba
tubu
tucake
tudei
tui
tuituina
tuku
tukuna
tukuni
tukutuku
tupaia
turaga
tutuni
tuu
tuva
tuvai
tuvanaki
tuwawa
tv
tva
ty
u
ua
uc
uca
uci
uciwai
ucu
udolu
ug
uk
ulu
uludamu
ulumu
ulunivanua
ulutaga
uluvula
uma
umani
un
united
university
univesiti
unknown
unsworth
url
uro
urou
us
uto
uva
uvi
uz
v
va
vagalalataki
vagauna
vagolei
vagoleya
vaka
vakaakaude
vakabauta
vakabibi
vakabisinisi
vakabula
vakabulai
vakacaca
vakacacani
vakacagicagi
vakacakacaka
vakacalaka
vakacava
vakacegu
vakacurumi
vakadeitaka
vakadeitaki
vakadewataka
vakadewataki
vakadidike
vakadikeva
vakadinadinataka
vakadinata
vakadodonu
vakadonui
vakadonuya
vakadua
vakaduavatataki
vakafika
vakaibalebaletaki
vakaikoya
vakailavo
vakailesilesi
vakaisi
vakaitamera
vakaitaukei
vakaitavi
vakaitikotiko
vakaivakarau
vakaivola
vakaiyalayala
vakaiyaloyalo
vakajaina
vakakina
vakakompiuta
vakalailai
vakalailaitaka
vakalailaitaki
vakalawa
vakalekaleka
vakalekalekataki
vakalevu
vakalevutaki
vakalivaliva
vakaloloma
vakalotu
vakalou
vakalougatataka
vakama
vakamacalataka
vakamacalataki
vakamadua
vakamalua
vakamatanitu
vakamatatataka
vakamau
vakamisini
vakamuria
vakanamata
vakanananu
vakani
vakaoqo
vakaoti
vakapenitiko
vakapolitiki
vakaraitaka
vakaraitaki
vakararaba
vakararavi
vakarauta
vakarautaka
vakarautaki
vakarisito
vakarorogo
vakarua
vakasala
vakasama
vakasamataka
vakasamataki
vakasaqa
vakasaurarataki
vakasavasavataki
vakasorena
vakasucuma
vakasucuna
vakatabakidua
vakatagane
vakatagi
vakataka
vakataki
vakatakila
vakatamata
vakatara
vakatarai
vakatasuasua
vakatau
vakatautauvata
vakatautauvatataki
vakatauvatani
vakateresitieli
vakatikina
vakatikori
vakatoka
vakatokai
vakatorocaketaka
vakatorocaketaki
vakatotolo
vakatovotovotaki
vakatui
vakatulewa
vakatulewataki
vakaturaga
vakau
vakauasivi
vakaumauma
vakavalagi
vakavanua
vakavinaka
vakavinavinaka
vakaviti
vakavo
vakavolivolita
vakavolivoliti
vakavucesa
vakavuku
vakavulici
vakavuna
vakavuniwai
vakavuqa
vakavuravura
vakavuvuli
vakavuvulitaka
vakawaicalataka
vakawasoma
vakawawa
vakayabaki
vakayacora
vakayacori
vakayagataka
vakayagataki
vakayago
vakayakavi
vakayalewa
vakayawa
vake
vakilai
vakoloni
vakuri
valagi
valavala
vale
valenisili
valenivolavola
valu
vanila
vanua
vanualala
vanuatu
vaqumia
varada
varanise
vata
vatavata
vatu
vauna
vava
vavaku
vavalagi
ve
vec
vei
veiba
veibasai
veibuka
veico
veicurumaki
veidinadinati
veidutaitaka
veigadivi
veigauna
veika
veikarisitala
veikau
veikauyaki
veikoro
veilakoyaki
veilecayaki
veileti
veiliutaki
veimaliwai
veimama
veimatanitu
veimataqali
veipapitaisotaki
veiqaravi
veisaqasaqa
veisau
veisautaka
veisautaki
veisele
veisiga
veisisivi
veisoliyaki
veitalanoa
veitalia
veitaqomaki
veitaratara
veitarataravi
veitaravi
veitauvi
veitiki
veitikina
veitokoni
veitosoyaki
veitua
veituberi
veiulunivanua
veivakadonui
veivakadrukai
veivakamarautaki
veivakarusai
veivakasama
veivakasaurarataki
veivakatorocaketaki
veivakauqeti
veivakavatukani
veivakavulici
veivale
veivanua
veivaqaqai
veiveisau
veivola
veivosa
veivosaki
veivosakitaki
veivuke
veivukei
veivunikau
veivuravura
veiwekani
veiyabaki
veiyacovi
veiyalayalati
veiyanuyanu
veiyasai
veiyasana
veiyatuyanuyanu
veleti
venezuela
ver
veva
vi
via
viavialevu
vica
vidio
vie
vietnam
vika
vin
vinaka
vinakata
vinakati
vinivo
virginia
viri
virus
viti
vitu
vo
vodo
vokete
vol
vola
volai
volavola
voleka
volekata
voli
volitaka
volitaki
vonu
voravora
vosa
vositi
vou
vs
vu
vua
vuaicake
vuaka
vualiku
vualikura
vuanikau
vucesa
vudi
vuka
vuke
vuku
vula
vulagi
vulaimatumatua
vulaqeti
vulavula
vuli
vulica
vulici
vuna
vunau
vuni
vunikau
vunilagi
vuniwai
vuqa
vuravura
vutinisipi
vutuniyau
w
wa
wadakau
wai
waicala
waicevata
waini
wainimate
waisea
waitui
waiwai
waka
wakadra
wakana
wale
walega
walesi
walu
waqa
waqavuka
waraka
was
wasa
wasawasa
wasea
wasei
wasoma
wati
watiqu
wavu
we
website
weg
wekana
welesi
weleti
western
what
which
wife
wikicommons
wikimedia
wili
wilika
wiliki
will
william
with
wo
woodard
world
www
x
xa
y
ya
yabaki
yaca
yacana
yaco
yacova
yadra
yadua
yadudua
yaga
yago
yagodra
yakavi
yalewa
yali
yalo
yalodina
yalododonu
yaloka
yalomalumalumu
yaloqaqa
yaloyalo
yame
yameyame
yani
yanuyanu
yapolo
yaqona
yasa
yasana
yasayasa
yatu
yava
yavala
yavana
yavavala
yavu
yavunibula
yavusa
yavutaki
yawa
yhta
yi
yoka
york
you
younger
z
za
zac
ze
zh
zi
zone
zt
zu
zuru
{
|
}
~

¦
­
°
´
µ
º
×
ß
ð
ø
đa
đe
đo
đu
ı
ł
ło
łobez
ƀ
ə
ˈ
ˌ
ː
̀
́
̂
̃
̄
̆
̇
̈
̉
̊
̋
̌
̛
̣
̦
̧
̨
̱
α
απο
β
βο
δα
δε
δι
ε
ει
ζω
η
ι
κα
κη
κι
κο
κυ
λα
λι
μα
με
μη
ν
να
νας
νη
νι
νος
νω
ο
πα
ρ
ρα
ρι
ριο
ρος
ς
τε
τι
το
υ
ω
а
аи
буква
в
время
е
за
и
или
к
ка
м
н
на
нныи
р
с
се
т
ти
у
я
і
ַ
ָ
־
ֿ
א
ב
ג
ה
י
ל
פ
ا
ب
ة
ت
ح
خ
د
ر
س
ف
ل
م
ن
و
ي
ً
َ
ِ
ّ
ٓ
ٔ
ٕ
کردن
ی
ے
ނ
ބ
ކ
އ
ވ
މ
ފ
ަ
ާ
ި
ު
ެ
ޭ
ް
ँ
ं
ः
अ
आ
ई
ऊ
ए
क
करन
कल
ख
खन
ग
घ
च
चन
छ
ज
झ
ञ
ट
ठ
ड
ढ
ण
त
तर
थ
द
दर
ध
न
प
फ
ब
भ
म
मह
य
र
ल
ळ
व
वस
श
ष
स
सम
ह
़
ा
ि
ी
ु
ू
ृ
े
ै
ॉ
ो
ौ
्
ঁ
ং
ওয
ক
কর
খ
গ
চ
ছ
জ
ট
ড
ণ
ত
থ
দ
ধ
ন
প
ফ
ব
ভ
ম
য
র
রক
ল
শ
ষ
স
হ
়
া
ি
ী
ু
ৃ
ে
্
ৗ
ৰ
ਜ
ਨ
ਰ
ਸ
ਹ
਼
ਾ
ੀ
ੁ
ੇ
ੈ
ੱ
ં
ઓ
ક
ચ
જ
ટ
ડ
ત
દ
ન
પ
ફ
બ
મ
ય
ર
લ
વ
સ
હ
ા
િ
ી
ુ
ૂ
ે
ો
્
କ
ତ
ଦ
ନ
ର
ଷ
ା
ି
ୁ
େ
୍
க
ங
ட
த
ந
ன
ப
ம
ய
ர
ல
ள
வ
ா
ி
ு
ே
ை
்
ం
అ
క
కడ
ఖ
గ
చ
జ
ట
డ
ణ
త
థ
ద
ధ
న
ప
బ
మ
య
ర
ల
వ
శ
ష
స
హ
ా
ి
ీ
ు
ూ
ె
ే
ొ
ో
్
ౖ
ಂ
ಕ
ಗ
ಚ
ಟ
ಡ
ಣ
ತ
ದ
ನ
ಪ
ಬ
ಮ
ಯ
ರ
ಲ
ಳ
ವ
ಷ
ಸ
ಹ
ಾ
ಿ
ು
ೂ
ೃ
ೆ
್
ೕ
ം
ക
ഗ
ങ
ച
ട
ണ
ത
ദ
ന
പ
ബ
ഭ
മ
യ
ര
റ
ല
ള
വ
ശ
ഷ
സ
ഹ
ാ
ി
ീ
ു
ൂ
ൃ
െ
േ
്
ൽ
ක
ඩ
ත
න
ප
බ
ම
ය
ල
ව
ස
හ
්
ා
ැ
ි
ු
ෙ
ก
กล
ข
ค
ง
จ
ช
ซ
ณ
ด
ต
ถ
ท
น
บ
ป
ผ
พ
ภ
ม
ย
ร
ล
ว
ศ
ส
ห
อ
อน
ั
า
ำ
ิ
ี
ึ
ื
ุ
ู
เด
เร
็
่
้
๋
์
ກ
ຄ
ງ
ຊ
ຍ
ດ
ຕ
ຖ
ທ
ນ
ບ
ປ
ຜ
ພ
ມ
ລ
ວ
ສ
ຫ
ອ
ຮ
ັ
າ
ຳ
ິ
ີ
ຶ
ື
ຸ
ູ
ົ
່
້
ໍ
ໜ
་
བ
ུ
က
ခ
ဂ
င
စ
ဆ
ည
တ
ထ
ဒ
န
ပ
ဖ
ဗ
ဘ
မ
ယ
ရ
လ
သ
ဟ
အ
ဥ
ါ
ာ
ိ
ီ
ု
ူ
ေ
ဲ
ံ
့
း
္
်
ျ
ြ
ွ
ှ
ᏼ
ក
ខ
គ
ឃ
ង
ច
ឆ
ជ
ឈ
ញ
ដ
ឋ
ត
ថ
ទ
ធ
ន
ប
ផ
ព
ភ
ម
យ
រ
ល
វ
ស
ហ
ឡ
អ
ឮ
ា
ិ
ី
ឹ
ឺ
ុ
ូ
ួ
ើ
ឿ
ៀ
េ
ែ
ៃ
ោ
ៅ
ំ
ះ
៉
៊
់
៌
៍
័
្
​
‌
‍
‎
–
—
’
“
”
…
′
″
⁄
↔
↷
⇨
−
③
④
⑦
☉
♀
♂
⯓
⺀
⺄
⺆
⺈
⺊
⺌
⺕
⺝
⺸
⺼
⿰
⿱
⿲
⿳
⿴
⿵
⿶
⿷
⿸
⿹
⿺
⿻
々
〢
あ
い
う
え
お
か
き
く
け
こ
さ
し
す
せ
そ
た
ち
っ
つ
て
と
な
に
の
は
ひ
ふ
へ
ほ
ま
み
む
め
も
ゃ
や
ゆ
ょ
よ
ら
り
る
れ
ろ
わ
を
ん
゙
゚
ア
ィ
イ
ウ
ェ
オ
カ
キ
ク
ケ
コ
サ
シ
ス
セ
タ
チ
ッ
ツ
テ
ト
ナ
ニ
ネ
ハ
ヒ
フ
ヘ
ホ
マ
ミ
ム
メ
モ
ャ
ヤ
ュ
ユ
ョ
ラ
リ
ル
レ
ワ
ン
ー
㇁
㇂
㇄
㇇
㇈
㇉
㇓
㐁
㐄
㐅
㐌
㐫
㐬
㐭
㐮
㐱
㑒
㒵
㒸
㒼
㓁
㓞
㔾
㕛
㕣
㖾
㘝
㚅
㚇
㚔
㚘
㝉
㝡
㝴
㝵
㞋
㞢
㞷
㠩
㠭
㠯
㡀
㡭
㡿
㢲
㢴
㣇
㣺
㥯
㪅
㫄
㫐
㫒
㫺
㬅
㬎
㬥
㬰
㲋
㳄
㷠
㸒
㸚
㸦
㼌
㼲
㽞
㿟
䀠
䂞
䍃
䏍
䒑
䖍
䖒
䖝
䖵
䙴
䚻
䜌
䝿
䡛
䧹
䪞
一
丁
丂
七
丄
丅
丆
万
丈
三
上
下
丌
不
与
丏
丐
丑
专
且
丕
世
丘
丙
业
东
丞
両
丢
丣
两
严
並
丨
丩
个
丫
丬
中
丮
丰
丱
串
丵
丶
丷
丸
丹
为
主
丽
丿
乀
乂
乃
久
乆
乇
么
义
之
乌
乍
乎
乏
乐
乑
乔
乖
乗
乘
乙
乚
乛
乜
九
乞
也
习
乡
乳
乾
亀
亅
了
亇
予
争
事
二
亍
于
亏
亐
云
互
亓
五
井
亘
亚
亜
亞
亟
亠
亡
亢
交
亥
亦
产
亨
亩
享
京
亭
亮
亯
亰
亲
亳
亶
亷
人
亻
亼
亾
仁
今
介
仌
从
仐
仑
仒
仓
仔
仕
他
付
仝
代
令
以
们
任
份
企
伊
伏
伐
休
会
伝
伯
但
位
佑
体
何
佘
余
作
佥
使
來
侈
侌
侖
侯
侵
便
保
俞
信
修
俺
倉
倍
們
候
倠
偶
備
僉
僕
儿
兀
允
兂
元
兄
充
兆
兇
先
光
兊
克
兌
免
児
兑
兒
兓
兔
党
兜
兟
入
全
兩
兪
八
公
六
兮
兰
共
关
兵
其
具
典
兹
兼
冀
冂
冃
冄
内
冈
冉
冊
冋
册
再
冎
冏
冐
冒
冓
冖
冗
冘
写
军
农
冝
冡
冥
冫
冬
冷
凄
几
凡
凢
凵
凶
凷
凸
凹
出
函
凾
刀
刁
刂
刃
刄
刅
分
切
刍
刑
刕
刖
列
刘
则
初
別
利
别
到
制
刺
則
削
剌
前
剡
剽
劉
力
功
加
劦
助
劫
劳
劵
勃
勇
勉
勒
動
務
勞
勢
勤
勹
勺
勻
勾
勿
匀
匂
包
匆
匈
匊
匋
匍
匕
化
北
匚
匝
匡
匪
匱
匸
匹
区
医
匽
匿
區
十
卂
千
卄
卅
卆
升
午
卉
半
卌
华
卑
卒
卓
单
卖
南
単
卜
卝
卞
占
卡
卢
卣
卤
卦
卩
卪
卬
卯
印
危
即
却
卵
卷
卸
卻
厂
厃
厄
历
厈
厉
厌
厓
厘
厚
原
厤
厥
厨
厭
厲
厶
厷
厸
去
厼
厽
叀
参
參
叅
又
叉
及
友
双
反
叐
发
叒
叔
叕
取
受
叚
叜
叟
口
古
句
另
叩
只
召
可
台
叱
史
右
叵
号
司
叹
吂
各
吅
合
吉
吊
吋
同
名
后
吏
向
吕
君
吝
吞
否
含
听
启
吳
吴
吸
吹
吾
呂
呆
呈
告
员
呙
周
呼
命
咅
和
咎
咠
咢
咨
咸
咼
哀
品
哉
員
哥
哲
唐
唯
唱
商
啇
問
啚
啬
啻
善
喜
喬
單
喿
嗇
噩
嚴
囊
囗
囘
囙
囚
四
回
囟
因
囧
囬
困
囱
囷
固
国
圂
圅
國
圍
園
圓
圖
土
圡
圣
圥
在
圭
地
圶
圼
坊
坐
坒
坚
坴
垂
型
垔
垚
垣
埀
埋
埶
執
基
堂
堅
堆
堇
堯
報
場
塞
墨
壘
士
壬
壯
声
売
壳
壴
壹
壺
壽
夂
处
夅
夆
备
変
夊
夋
夌
复
夏
夒
夕
外
夗
夘
多
夜
夢
大
夨
天
太
夫
夬
夭
央
失
夲
头
夷
夸
夹
夻
夾
奂
奄
奇
奈
奉
奎
奏
奐
契
奓
奔
奚
奞
奠
奢
奥
奭
女
奴
她
奻
好
如
妄
妈
妙
妟
妥
妻
妾
姆
始
姑
委
姜
姨
威
娃
娄
娘
婁
婚
婴
媽
嬰
嬴
子
孑
孔
孕
孖
字
存
孚
孛
孝
孟
季
孤
学
孩
孫
孱
學
宀
宁
宂
它
宅
宇
守
安
宋
完
宏
宓
宗
官
定
宛
宜
宝
実
客
宣
室
宮
宰
害
家
容
宾
宿
寄
寅
密
富
寒
察
寧
審
寫
寬
寮
寸
对
寺
寻
寽
対
寿
封
専
尃
射
将
將
專
尉
尊
尋
尌
對
小
少
尒
尓
尔
尖
尗
尚
尞
尢
尣
尤
尧
尨
尭
就
尸
尹
尺
尻
尼
尽
尾
尿
局
居
屈
屋
屎
屏
屑
展
屖
屚
属
屠
屡
屬
屮
屯
屰
山
屵
屾
岁
岂
岑
岡
岩
岳
岸
峯
島
崇
崑
崔
崖
崙
崩
嵬
嶲
巂
巛
川
州
巟
巠
巢
巤
工
左
巧
巨
巩
巫
差
己
已
巳
巴
巷
巸
巽
巾
巿
帀
市
布
师
希
帚
帛
帝
带
師
席
帮
帶
常
幣
幫
干
平
年
幵
并
幷
幸
幺
幻
幼
幽
幾
广
広
庄
床
底
店
庚
府
度
庫
庭
庶
康
庸
廉
廌
廛
廣
廩
廴
延
廷
建
廾
廿
开
弁
弃
弄
弇
弋
式
弓
弔
引
弗
弘
弜
弟
弥
弦
弱
張
強
强
彈
彊
彌
彎
彐
彑
当
彔
录
彖
彗
彡
形
彥
彦
彧
彭
彳
役
彼
往
待
律
後
徒
得
徙
從
復
微
徵
心
忄
必
忌
忍
志
忙
忝
忠
忩
快
念
忽
忿
怒
怕
思
怠
急
怱
恆
恒
恩
恭
息
悉
患
悤
悲
悶
惠
惡
惢
想
愁
愈
意
愛
感
愧
慈
慧
慮
憂
憲
憾
應
戀
戈
戉
戊
戋
戌
戍
戎
成
我
戒
戔
或
戚
戠
戢
截
戲
戶
户
戹
戻
戼
戾
房
所
扁
扇
手
扌
才
打
托
执
承
投
折
拉
拜
拿
持
授
掌
掛
推
提
握
摩
支
攴
攵
收
攸
改
放
政
敄
故
敏
敕
敖
敗
教
敝
敞
敢
散
敦
敫
敬
数
敷
數
斂
文
斉
斊
斗
料
斤
斥
斩
斬
斯
新
方
於
施
斿
旁
旅
旋
族
无
旡
既
旣
日
旦
旧
旨
早
旬
旱
旲
时
旾
昆
昇
昌
昍
明
昏
易
昔
昗
昜
星
春
昨
昬
是
昱
昴
昷
時
晃
晋
晏
晚
普
景
晶
智
暑
暗
暝
暴
曇
曉
曩
曰
曲
曳
更
曷
書
曹
曼
曾
替
最
朁
會
月
有
朋
服
朔
朕
朗
望
朝
木
朩
未
末
本
札
朮
术
朱
朵
朶
机
朿
杀
权
杏
杜
束
条
来
杯
東
杲
杳
松
析
林
枚
果
枝
枲
枼
某
柔
查
柬
柰
柴
栗
校
根
桀
桂
桌
桑
桶
桼
梁
條
梟
梨
棘
棠
棥
森
椅
椰
楚
業
楽
榮
樂
樊
権
樹
橋
機
權
欠
次
欣
欮
欲
欶
欽
款
歆
歇
歛
止
正
此
步
武
歨
歩
歪
歮
歯
歰
歲
歴
歷
歸
歹
歺
死
残
殳
段
殷
殸
殹
殺
殻
殿
毋
毌
母
每
毒
比
毕
毚
毛
毳
氏
氐
民
气
気
氣
水
氵
氶
氷
永
氺
氾
求
汝
汞
江
汽
沃
沒
沓
沙
沝
没
河
油
泉
泊
法
波
泣
泥
泰
泳
洋
洗
洛
洪
活
派
流
浜
浦
浪
浮
浴
海
淡
淮
清
渚
渠
湯
湿
滿
漸
火
灬
灭
灰
灵
灷
炅
炎
炏
炗
炙
炭
為
烈
烏
烛
烝
焉
無
焦
焱
然
煞
熊
熏
熟
燕
營
燥
燭
燮
爆
爪
爫
爭
爯
爰
爱
爲
爵
父
爸
爹
爻
爽
爾
爿
片
牙
牚
牛
牜
牟
牡
牢
牧
物
牪
特
牽
犀
犬
犭
犮
狂
狄
狊
独
狺
猋
猒
猪
献
獻
玄
率
玉
王
玟
玨
珎
班
理
琴
瑟
瑩
瓜
瓦
瓶
甘
甚
生
産
用
甫
甬
田
由
甲
申
电
甶
男
甸
甹
画
甾
畀
界
畏
畐
留
畜
畟
畢
畧
畨
番
畫
異
畱
當
畺
畾
疊
疋
疌
疑
疒
疲
疾
病
症
痛
癶
癸
癹
登
發
白
百
皀
皃
的
皆
皇
皋
皐
皕
皮
皷
皿
盃
盆
盇
盈
益
盍
盎
监
盒
盖
盛
盡
監
盤
盧
目
盲
直
相
盾
省
眇
眉
看
眔
眞
真
眷
眼
眾
着
睘
睪
睿
瞏
瞢
瞿
矍
矛
矞
矢
矣
知
矦
短
石
砂
破
硬
碎
確
磊
磨
示
礻
礼
社
神
祟
票
祭
禀
禁
禸
禹
禺
离
禽
禾
禿
秀
私
秃
秉
秋
科
秝
秦
移
程
稟
種
穀
穌
穴
究
穹
空
穿
突
窄
窒
立
竒
竜
竝
竟
章
童
竹
笑
笠
筆
等
答
箕
算
箴
節
篤
篭
簡
米
类
粉
粛
粟
粤
粦
粲
精
糕
糖
糞
糸
糹
系
約
紅
納
紙
級
素
索
紫
累
細
絜
絫
絲
維
網
綺
綿
練
縣
繇
纍
纟
红
缶
网
罒
罔
罕
罗
罙
罡
罢
罪
署
罷
羅
羊
羌
羍
美
羔
羕
羗
羞
羡
羣
群
義
羲
羸
羽
翁
翏
習
翕
翟
翠
翼
老
耂
考
者
耆
而
耎
耑
耒
耳
耴
耶
耷
聂
聊
聖
聚
聞
聶
職
聽
聿
肀
肃
肅
肉
肖
肙
肥
肩
肯
育
肴
胃
背
胡
胥
能
脊
脩
腳
腹
膚
膜
臣
臤
臧
自
臬
臭
臯
臱
至
致
臺
臼
臽
臾
臿
舀
舂
舄
與
興
舉
舌
舍
舛
舜
舞
舟
航
般
船
艮
良
色
艸
艹
艾
芒
芔
芬
芮
花
芳
芺
芻
苔
苗
苟
若
苦
英
茶
茸
荅
草
荒
荣
荼
莆
莧
莫
莽
菆
菊
菐
菜
華
萝
萬
落
葉
著
葛
董
葵
蒙
蒦
蒼
蓋
蓬
蓺
蔑
蔡
蕉
蕭
薄
薛
薦
薯
薰
藍
藏
藥
蘭
蘿
虍
虎
虐
虒
虔
處
虖
虗
虘
虚
虛
虜
虞
虫
虽
蚤
蚩
蜀
蜜
蜡
蝶
蟲
蟻
蠟
蠡
血
行
衍
衛
衣
衤
表
衫
衬
衮
衰
袁
袞
裡
褭
褱
襄
襯
襾
西
覀
要
覃
見
規
覓
覧
親
覽
见
角
解
言
訁
訇
計
設
許
詞
試
話
詹
認
語
誩
課
調
請
論
諸
議
讠
词
请
谷
豆
豈
豊
豐
豕
豖
豙
象
豦
豩
豪
豸
貇
貝
貞
貟
負
貢
貧
貪
貫
責
貳
貴
買
費
賁
資
賈
賏
賓
賔
賛
賞
賢
賣
質
賴
贊
贝
贡
责
贯
贲
贵
赖
赞
赤
赦
走
起
越
足
路
踊
踏
蹇
身
躬
車
軍
軎
軟
転
輦
輩
车
辛
辜
辟
辥
辰
辱
農
辵
辶
边
达
过
近
还
这
连
迷
追
退
送
逆
逐
這
通
速
造
逢
連
逮
週
進
遀
遂
運
過
道
達
遗
遞
遠
遣
適
遷
遺
還
邊
邑
邕
那
邦
邪
郎
部
郭
郵
都
鄉
酉
酋
配
酒
酓
酪
醫
釆
采
里
重
野
量
金
釒
銀
錢
鐘
钅
钟
钱
長
镸
长
門
閃
閉
開
閏
閑
閒
間
閔
閵
閻
闌
门
间
闷
阑
阜
阝
阿
降
限
陳
隆
隊
隋
隡
隨
隱
隶
隹
隺
隻
隼
隽
难
雀
雁
集
雈
雋
雍
雐
雔
雙
雚
雜
雝
雞
離
難
雨
雩
雪
雲
零
雷
需
霍
霜
霝
霞
霸
靈
靑
青
非
靡
面
靣
革
鞋
韋
韦
韭
韯
韱
音
頁
頂
頃
項
須
頗
頡
頭
頻
顛
類
页
風
风
飛
飞
食
飠
飮
飯
飲
養
餐
館
饣
饭
馆
首
香
馬
馮
駦
马
骨
高
髟
髪
髮
鬍
鬥
鬯
鬲
鬼
魂
魚
魯
鮮
鱼
鲁
鳥
鳳
鳴
鸟
鹵
鹿
麃
麗
麥
麦
麻
黃
黄
黍
黎
黑
黒
黨
黹
黽
黾
鼎
鼓
鼠
鼻
齊
齋
齐
齒
齢
齿
龍
龙
龜
龟
龠
龰
龱
龴
龵
龶
龷
龸
龹
ꭰ
ꭲ
ꭳ
ꭴ
ꭵ
ꭶ
ꭷ
ꭹ
ꭺ
ꭿ
ꮃ
ꮄ
ꮅ
ꮈ
ꮉ
ꮎ
ꮑ
ꮓ
ꮕ
ꮖ
ꮘ
ꮙ
ꮝ
ꮟ
ꮠ
ꮡ
ꮢ
ꮣ
ꮤ
ꮧ
ꮩ
ꮫ
ꮲ
ꮵ
ꮹ
ꮻ
者
艹
﻿
？
🜨
𠀁
𠀃
𠀆
𠀉
𠀎
𠀐
𠁁
𠁣
𠂆
𠂇
𠂈
𠂉
𠂊
𠂋
𠂎
𠂒
𠂔
𠂛
𠂡
𠂢
𠂤
𠂬
𠂭
𠂹
𠃊
𠃋
𠃌
𠃍
𠃎
𠃑
𠃓
𠃔
𠃜
𠄌
𠄎
𠄠
𠄢
𠆢
𠆥
𠇍
𠈌
𠌵
𠓜
𠔉
𠔥
𠔼
𠔽
𠔿
𠕀
𠕁
𠕋
𠘧
𠘨
𠙻
𠙼
𠚏
𠚒
𠚤
𠚪
𠣏
𠤎
𠤕
𠥓
𠦄
𠦑
𠦝
𠧒
𠧗
𠧪
𠩺
𠪚
𠫓
𠫔
𠫤
𠬛
𠬝
𠬞
𠬢
𠬤
𠬶
𠮛
𠮦
𠮷
𠯑
𠱠
𠳮
𠷎
𡈼
𡉀
𡉵
𡌥
𡍮
𡏳
𡕒
𡕩
𡕰
𡖅
𡗗
𡗜
𡘆
𡘤
𡧱
𡨄
𡩧
𡬠
𡭽
𡰣
𡰥
𡰪
𡰯
𡰱
𡷈
𡸁
𡿨
𡿩
𡿪
𡿺
𢀖
𢀛
𢀩
𢁙
𢆉
𢆰
𢆶
𢇁
𢇇
𢉖
𢌬
𢌿
𢏚
𢑑
𢑚
𢖻
𢙣
𢛳
𢦏
𢦒
𢧵
𢼄
𢾕
𣁋
𣄼
𣅀
𣅽
𣍘
𣎳
𣎵
𣏋
𣏼
𣗥
𣥂
𣥖
𣦵
𣦼
𣧄
𣪊
𣪠
𣬉
𣳾
𣶒
𤇾
𤊽
𤐫
𤓰
𤔔
𤕨
𤣩
𤰇
𤰔
𤰞
𤴓
𤴔
𤽄
𥁑
𥁕
𥃦
𥃩
𥃭
𥇡
𥑟
𥘅
𥘈
𥝢
𥫗
𥱡
𦈢
𦉪
𦉬
𦉼
𦍌
𦍒
𦎧
𦐇
𦓔
𦔮
𦘒
𦙃
𦚏
𦣝
𦣞
𦣻
𦥑
𦥔
𦥯
𦨉
𦭝
𦰩
𧆞
𧈧
𧘇
𧰨
𧴪
𧴮
𧵩
𧾷
𨸏
𨾴
𩙿
𩠐
𩫏
𩵋
𪉷
𪜀
𪟽
𪠲
𪩲
𫇦
𫔭
𫜸
𫝀
𫠣
𫠩
𫢉
𫥞
𫩏
𫩠
𫪡
𫲽
𫶧
𬀷
𬐘
𬗌
𬙙
𬛸
𬜯
𬟩
𬯁
𬴘
𬺻
𬼉
𬼖
𭀰
𭁈
𭁨
𭅰
𭑈
𭕄
𭗼
𭤨
𭥫
𭻾
𮅕
𮊿
𮍌
𮍏
𮓗
𮥼
𮧮
廾
𰀁
𰀄
𰀈
𰀉
𰀕
𰀠
𰀡
𰀢
𰀪
𰁜
𰃮
𰆊
𰆘
𰋙
𰕎
𰢴
𰧭
𰯲
0--
10--
12--
15--
18--
19--
20--
3--
4--
5--
6--
7--
8--
9--
a--
ab--
ac--
acce--
adminis--
ag--
ai--
ak--
al--
am--
an--
ana--
ang--
ar--
as--
aspi--
aspiri--
aste--
at--
au--
av--
b--
ba--
bal--
be--
bi--
bib--
bio--
bo--
bom--
br--
bre--
bru--
bu--
c--
ca--
car--
ce--
cer--
ch--
ci--
co--
con--
cor--
cro--
cu--
d--
da--
dau--
dauni--
dauvei--
de--
di--
do--
dre--
dro--
du--
e--
ed--
el--
en--
er--
es--
et--
eva--
ex--
f--
fa--
fe--
fla--
fo--
fu--
g--
ga--
ge--
go--
gone--
gra--
gu--
h--
ha--
he--
hi--
ho--
hu--
i--
id--
ika--
il--
ima--
in--
inclu--
is--
it--
itaba--
ito--
ivaka--
ivola--
ja--
je--
jo--
ju--
k--
ka--
kai--
ke--
ki--
ko--
kon--
ku--
l--
la--
lan--
le--
li--
ll--
lo--
loma--
lu--
m--
ma--
maka--
mata--
matana--
me--
mela--
mi--
min--
mo--
mon--
mor--
mu--
mua--
n--
na--
ne--
ni--
no--
nor--
nu--
o--
oce--
oli--
on--
op--
or--
os--
out--
p--
pa--
para--
pe--
per--
phy--
pi--
pla--
plu--
po--
poly--
pro--
pu--
q--
r--
ra--
re--
reli--
res--
ri--
ro--
s--
sa--
sal--
sau--
sc--
se--
si--
siga--
sin--
so--
spe--
st--
stu--
su--
sub--
t--
ta--
tam--
tau--
tawa--
te--
tele--
ter--
ti--
tini--
to--
tu--
tur--
ty--
u--
ua--
uca--
uku--
ulu--
un--
uni--
ura--
v--
va--
vaka--
vakaro--
vakasi--
valeni--
ve--
vei--
veivaka--
vi--
vo--
vu--
w--
wa--
wai--
we--
whi--
wil--
wo--
x--
y--
ya--
yalo--
z--
za--
ze--
zi--
ð--
đ--
α--
γ--
δ--
λ--
μ--
ν--
π--
ρ--
σ--
τ--
φ--
χ--
д--
де--
м--
ме--
мож--
о--
р--
с--
т--
у--
ч--
ح--
خ--
دا--
ر--
س--
م--
ه--
ي--
ک--
अ--
आ--
क--
ज--
त--
द--
न--
प--
ब--
म--
य--
र--
ल--
व--
श--
स--
ह--
আ--
প--
স--
క--
న--
వ--
ಪ--
ค--
ย--
ว--
ห--
อ--
า--
เ--
ເ--
ပ--
လ--
သ--
အ--
ក--
ស--
--0
--00
--1
--2
--3
--4
--5
--58
--6
--7
--8
--9
--97
--a
--aia
--al
--an
--ar
--as
--au
--ay
--b
--ba
--bo
--c
--ca
--cal
--ce
--ci
--cio
--ck
--co
--ction
--d
--da
--dam
--de
--dewa
--di
--do
--dra
--ds
--dua
--e
--ea
--east
--ed
--ef
--el
--em
--en
--ent
--er
--ern
--ers
--es
--et
--f
--g
--ga
--ge
--gi
--go
--gy
--h
--ha
--i
--ia
--ic
--id
--ig
--ing
--io
--is
--iso
--ity
--ja
--jo
--k
--ka
--kadua
--kau
--ke
--ki
--ko
--l
--la
--ladi
--lar
--lc
--ld
--le
--li
--lia
--lo
--lu
--lum
--ly
--m
--ma
--me
--mi
--mo
--n
--na
--nce
--nd
--ne
--ng
--ni
--nk
--no
--nt
--nu
--nus
--ny
--o
--ok
--ology
--on
--os
--ot
--ou
--ous
--p
--pe
--pical
--ping
--qa
--qi
--qu
--r
--ra
--ral
--rarama
--rc
--rd
--re
--rg
--ri
--rm
--ro
--rs
--rt
--ry
--s
--sa
--sagavulu
--sawa
--se
--si
--sia
--sion
--so
--st
--t
--ta
--taka
--taki
--te
--tel
--th
--ti
--tion
--to
--tolo
--tor
--ts
--tus
--u
--ul
--um
--ur
--us
--ut
--v
--va
--vaki
--ve
--vi
--vola
--voni
--vu
--w
--wa
--wai
--wn
--x
--y
--ya
--yaya
--ye
--z
--za
--ður
--α
--ι
--νο
--ο
--ς
--а
--во
--и
--ин
--к
--м
--н
--о
--ов
--р
--т
--ть
--у
--я
--ا
--ب
--ت
--د
--ر
--ل
--ه
--ى
--ي
--ណ
