!
"
#
##0
##1
##10
##11
##12
##13
##14
##15
##16
##17
##18
##19
##2
##20
##21
##22
##23
##24
##25
##26
##27
##28
##29
##3
##30
##31
##32
##33
##34
##35
##36
##37
##38
##39
##4
##40
##41
##42
##43
##44
##45
##46
##47
##48
##49
##5
##50
##51
##52
##53
##54
##55
##56
##57
##58
##59
##6
##60
##61
##62
##63
##64
##65
##66
##67
##68
##69
##7
##70
##71
##72
##73
##74
##75
##76
##77
##78
##79
##8
##80
##81
##82
##83
##84
##85
##86
##87
##88
##89
##9
##90
##91
##92
##93
##94
##95
##96
##97
##98
##99
$
%
&
'
(
)
*
+
,
-
.
/
0
00
000
01
02
03
04
05
06
07
08
09
1
10
100
1071
11
1111
12
120
121
13
14
15
155
16
17
18
19
1920
1945
1950
1960
1976
1978
1979
1982
1984
1985
1988
1990
1991
1992
1993
1994
1996
1997
1998
1999
2
20
200
2000
2001
2002
2003
2004
2005
2006
2007
2008
2009
2010
2011
2012
2013
2014
2015
2016
2017
2018
2019
2020
2021
2022
21
22
23
24
25
26
27
28
29
3
30
303
31
32
33
34
35
36
37
38
39
4
40
400
41
42
43
45
46
47
48
49
5
50
51
53
55
6
60
61
62
63
65
66
667
7
72
75
76
77
78
79
8
80
81
85
86
87
88
9
90
92
93
94
97
978
99
:
;
<
=
>
?
@
[
\
]
^
_
`
a
abc
abhi
about
above
access
accessdate
accessed
accessyear
according
account
accounts
achart
acharya
acquired
acquires
act
action
activities
actor
actress
ad
adams
address
adds
aditya
administrative
adult
afcon
affairs
affinis
afghanistan
africa
after
against
age
agency
agglomerations
agricultural
agriculture
ahead
ahmed
ahmedabad
ai
air
airport
akshay
al
albanian
album
albums
alexa
alexis
ali
alia
all
allanah
alliance
allowed
alpha
also
am
ame
america
american
an
analysis
anastasia
ancient
and
android
angeles
angelina
ani
anna
announced
announces
annual
another
anthem
anushka
app
apple
apps
april
ar
archive
archived
archivedate
ardeola
are
area
areas
argentina
aria
arjun
around
art
article
articles
artist
arts
as
asia
asian
asiatic
asin
aspx
assembly
association
at
atlas
attempt
au
august
australia
australian
author
authority
authors
available
aviation
avn
award
awards
away
azerbaijan
b
ba
babbler
babblers
babu
back
backup
bahadur
bahrain
bangladesh
banglapedia
bank
barcelona
based
basic
basu
bay
bb
bbc
be
beat
beauty
become
before
behaviour
being
bengal
berlin
berners
best
beta
between
beyond
bhatt
big
bigg
billboard
billboardencode
billboardurl
billed
billionaires
bio
biodiversity
biography
biology
bird
birdlife
birds
birth
birthday
bista
black
blender
blica
blog
blogspot
bloomberg
blue
board
body
bold
bolivia
bollywood
bombay
book
books
born
boss
boston
bot
botanical
botswana
box
bra
brazil
break
breeding
brian
bridge
brief
brings
britain
britannica
british
broadcasting
bruce
bureau
business
busuu
but
buys
buzz
by
c
ca
cabinet
caerulea
calendar
california
call
calling
calls
calyptorhynchus
cambodia
cambridge
can
canada
canadian
candidate
capital
caption
career
carnaby
cas
case
cases
casos
cat
catalogue
category
cbs
celebrates
celebrities
celebrity
celebs
censo
census
center
central
centre
ceo
cestrum
change
changes
channel
chaplin
character
charles
charlie
chart
charts
chat
check
checklist
chief
chile
china
chinese
chitwan
christopher
chronicle
chrysanthemum
church
cia
ciao
ciconia
cinema
citation
cite
cities
city
class
climate
clock
cloudmagic
cm
cms
cnn
co
coach
cockatoo
cockatoos
coefficient
collection
college
colombia
color
columbus
com
come
commission
commissioner
committee
committees
common
commons
community
company
compare
complete
complex
con
conference
confirme
confirmed
confirms
conflict
congo
congress
conmebol
conservation
constitution
constitutional
content
control
coordinates
copy
corona
coronavirus
corporation
corresponding
costa
council
count
countries
country
countrymeters
covid
crc
cricinfo
cricket
cricketarchive
croatian
cs
css
cuckoo
cultural
culture
cup
current
custom
czech
d
da
daily
dailybooth
daisy
daniel
das
data
database
date
david
day
daylight
de
dead
deadurl
deal
death
debut
dec
deccan
december
deepika
definition
del
delhi
della
demographics
denis
denmark
density
department
dependencies
der
des
design
despite
details
development
devi
dhaka
dhupia
di
dictionary
die
digital
director
directorate
directory
disambiguation
discovery
disease
display
disposable
distribution
district
districts
division
dna
do
document
documents
does
doi
dominica
dominican
don
donnie
double
douyin
down
download
downloaded
dr
dream
drive
dropbox
dty
du
dual
e
each
early
east
ec
economic
economist
ed
edicions
edition
eds
edu
education
egypt
ekantipur
el
elected
election
elections
elephantdrive
elevation
email
en
encyclopedia
encyclopædia
end
endangered
engine
england
english
entertainment
environment
episcopus
equatorial
equivalised
era
eritrea
error
es
esa
espan
espn
espncricinfo
estadi
estimate
eswatini
et
ethnic
ethnologue
eu
europa
europe
european
eurostat
eva
even
events
ever
exchange
exclusive
executive
exist
express
external
extra
f
facebook
fact
factbook
facts
factsheet
family
fans
far
fashion
fc
fe
features
february
federal
feed
feeding
field
fifa
fight
figures
fiji
file
film
filmfare
final
finally
financial
finland
first
five
flood
flooding
florida
flower
flowers
following
food
football
for
forbes
foreign
forest
forkel
form
format
former
fort
found
foundation
founder
four
france
frank
free
freida
french
fresh
friendly
friends
from
fruit
ft
fu
full
fund
funereus
future
g
gabon
gandhi
garden
gardenia
gaurika
gdp
ge
general
geographical
geography
george
german
germany
germplasm
get
getglue
gets
gill
gini
girl
given
glance
global
glossary
glottolog
go
goalnepal
goes
gold
goodreads
google
gov
government
govt
grandiflora
grayii
great
group
groups
growth
guide
guinea
gupta
gurung
guyana
h
ha
haiti
half
hammarstro
hamrakura
handbook
happy
harald
harv
has
haspelmath
have
having
hazare
hdi
he
head
health
hegde
height
helm
help
henry
her
here
heritage
hero
heron
higgins
high
him
himalaya
himalayan
hindi
hindu
hindustan
hips
his
hist
historic
historical
history
ho
holiday
holy
home
hong
hot
hotel
house
household
housing
how
however
htm
html
http
https
human
husband
hydrangea
i
iafd
ians
ibis
icc
iceland
id
if
ignored
ii
iii
image
images
imdb
imf
in
ina
inbox
inc
including
income
increase
independent
index
india
indian
indiatimes
indica
indigenous
indo
indonesia
industry
influencer
info
infobox
information
input
insec
inside
institut
institute
institution
instituto
integrated
intelligence
international
internationale
internet
interview
into
introduction
invalid
investment
ipa
ipcc
iphone
ipl
iqtell
ireland
irish
is
isbn
islam
islamabad
islands
israel
issn
it
italian
italic
italy
item
itis
itm
its
iucn
j
jack
jamaica
jamal
james
january
jasmine
jena
jerdon
jerusalem
jimmy
john
joshi
journal
jpg
js
july
june
just
k
ka
kalin
kantipur
kapoor
karki
kathmandu
kavitakosh
ke
kenya
key
kg
khalifa
khan
khanna
khaptad
kher
ki
kiddle
kidrex
kilometres
king
kingdom
kingfisher
kiribati
know
knowledge
koirala
kolkata
kong
korea
krishna
kriti
kumar
kuwait
kə
l
la
lake
lakh
lakshmi
land
landscape
lang
language
languages
largest
last
latest
latirostris
launch
launches
law
lb
le
lead
leader
leaders
league
learning
lee
legal
legend
lena
leprosy
les
lets
level
li
library
life
like
limited
line
linguistic
link
linkedin
lisa
list
listen
listing
lithuania
live
living
local
location
london
long
look
lopamudra
los
lot
lotus
love
lower
ltd
lua
ly
lynx
m
ma
mac
machine
macrophylla
made
magazine
magnolia
maharashtra
mahesh
mail
mailbox
main
maint
maithili
major
make
making
maldives
mali
man
management
map
mapping
maps
mara
march
marilyn
mark
marketing
markup
marriage
martin
match
matches
mathbb
matthew
mauritius
max
may
mayo
me
mean
measurement
measurements
media
mediawiki
medical
meet
megan
members
messages
messaging
messenger
mfid
mi
mia
michael
microsoft
mid
million
minister
ministers
ministry
minorities
minority
mirror
miss
missing
mixed
mobile
model
modern
module
mojeek
monetary
mongolia
monier
monitor
monroe
month
monuments
moon
more
morning
morocco
most
mother
mouni
mountain
moves
movie
movies
mozy
mr
mukesh
multiple
mumbai
municipal
museum
music
musical
my
myanmar
myrepublica
myspace
n
na
nacional
nagariknews
name
named
names
namibia
nasa
nat
national
nations
natural
nature
navneet
nd
ndtv
ne
necked
need
needed
neha
nelson
nepal
nepalese
nepali
nesting
net
netherlands
network
networks
never
new
news
newton
next
ng
ni
nic
nielsen
niger
nigeria
night
nil
nm
no
non
north
norway
not
note
nov
november
now
np
number
numeric
ny
nz
o
oath
oclc
october
odi
of
off
office
officeholder
official
oli
oman
on
one
online
onlinekhabar
only
ooh
open
opera
opposite
or
org
organisation
organization
original
orrell
os
other
others
our
out
outlook
over
overview
own
oxford
oz
p
pa
pacific
padukone
page
pages
pakistan
palace
palestine
paper
parameter
park
parks
parliament
parliamentary
part
party
passiflora
path
patterns
paudel
paul
pdf
peace
peak
people
per
permanent
personal
peru
pg
ph
philippines
photo
photos
php
picture
pictures
place
plan
planck
planet
planning
plant
plants
platform
play
player
pm
pmid
png
poblacio
poems
poetry
point
pokhrel
policy
political
politics
pond
pooja
pop
popular
population
por
porn
portal
portuguese
position
post
power
powers
pp
pr
prachanda
practice
pradesh
prasad
prashant
premier
president
presidential
press
prime
print
priyanka
prize
product
profile
program
programme
project
prometheus
promotion
pronunciation
properties
prospects
provided
province
provincia
provisional
pu
public
publications
publique
publisher
publishing
q
quarterly
r
ra
radio
rai
rain
raises
raj
rajamouli
ram
ramsar
rana
rara
rate
ratio
ration
raut
rautela
rd
re
reactions
real
receives
record
recorded
records
red
rediff
ref
reference
references
refs
region
regional
regions
registered
registrar
rekha
relations
release
releases
religion
religious
report
reports
repu
republic
republica
reputation
requires
research
resource
resourceloader
resources
results
retrieved
reuters
review
reviews
revision
rgb
ri
rica
richard
right
rights
rio
ripley
rise
ritwik
river
road
robert
rock
rose
roy
royal
rs
rss
ru
ruling
russia
russian
ruth
s
sa
saarc
safety
salah
salman
samantha
samsung
san
sanon
sanskrit
saunders
save
saving
says
school
science
sciences
scientific
scorecard
se
sea
search
searchme
second
section
securities
security
see
seed
selected
self
semi
sen
september
serbia
series
service
services
set
seth
setopati
sets
sex
shah
shares
sharma
she
sheet
shetty
shoe
shooting
short
show
shrestha
shugart
side
sign
silc
siliguri
simple
since
singapore
singer
singh
single
singles
sinha
sirajul
site
sites
situation
size
smith
smithsonian
sms
snapchat
so
soc
social
society
somalia
somaliland
some
song
songs
sonia
soon
source
south
southern
space
spanish
speak
special
species
sports
spp
spread
square
ss
st
staff
standard
star
stars
start
state
statehood
states
statistical
statistics
statistique
statoids
stats
status
stephen
stica
still
store
stories
stork
story
strategy
street
structure
studies
study
style
su
subedi
subjects
subscription
subset
suggested
suman
summary
summer
summit
sun
super
surface
survey
swedish
swift
switzerland
sy
system
systems
søberg
t
table
tag
tags
tailed
take
takes
talent
tamang
tamil
tanzania
taxonomic
taxonomy
taylor
taylorswift
tb
te
tea
team
technology
tej
telegraph
television
telugu
temple
term
territories
territory
test
texas
text
texts
th
than
thapa
thapki
that
the
thehimalayantimes
their
there
they
things
third
this
thomas
threatened
three
through
tiger
tik
tiktok
tim
time
timeanddate
times
timesofindia
title
to
today
together
tok
tonga
too
top
total
totals
tourism
tournament
tout
town
tr
track
traffic
trans
translated
travel
trends
tribune
trisha
tropical
trump
trust
tu
turdoides
turkey
turns
tv
tweet
twitter
two
type
u
uk
un
und
under
undp
unesco
union
united
university
unknown
unrecognized
up
upazila
update
updated
updates
urban
url
urvashi
us
usa
use
used
user
users
uses
using
util
uttar
uzbekistan
v
va
validation
valley
valuation
value
values
variety
varun
vatican
ve
version
via
victim
video
videos
vietnam
view
village
virginia
virus
voice
vol
volume
w
waiba
waist
wales
walton
want
was
washington
watch
water
way
wayback
we
web
website
week
weekly
weight
welcome
welfare
were
west
western
what
whc
where
which
while
white
whiteheaded
who
why
wiki
wikimedia
wikipedia
wildlife
will
williams
win
windows
winners
with
within
women
words
work
working
world
worldbank
worth
wp
wr
wwe
www
x
xls
y
yahoo
year
yearbook
years
yellow
yen
york
you
young
your
youtube
z
zealand
{
|
}
~
¥
§
«
°
²
·
¸
»
¿
×
÷
ı
ŋ
œ
ə
ɛ
ʰ
ʻ
ˈ
ˌ
ː
ˑ
˥
˨
˩
̀
́
̂
̃
̄
̆
̇
̈
̊
̌
̓
̣
̤
̦
̧
̨
̪
͡
α
ε
ο
в
и
с
яндекс
ا
ر
س
و
َ
ِ
ْ
ٓ
ٔ
ٕ
ި
ँ
ं
ः
अ
अइत
अइल
अइलसम
अईल
अईलक
अक
अकबर
अकबरल
अख
अखण
अग
अगरतल
अगष
अगस
अघ
अङ
अङर
अच
अचम
अचल
अछ
अज
अजयम
अजरब
अझ
अञ
अट
अटल
अठ
अड
अढ
अण
अत
अथ
अथव
अद
अध
अधर
अन
अनक
अनन
अनबठ
अनम
अनर
अनल
अनवर
अनस
अप
अपन
अपभ
अपर
अपल
अपहरण
अफ
अफग
अफन
अब
अबस
अभ
अम
अमर
अमरगढ
अमरन
अमरस
अय
अयन
अर
अरन
अरब
अरबक
अरबपत
अरय
अरव
अल
अलग
अलड
अलम
अलर
अव
अवक
अवत
अवतरण
अवध
अवर
अवल
अवश
अवस
अवसर
अवसरम
अश
अष
अस
असज
असन
असनप
असफल
असम
असमक
असर
असल
असहय
अह
अहमद
आ
आइ
आइओएस
आइक
आइज
आइट
आइतब
आइतव
आइन
आइप
आइफ
आइबर
आइय
आइर
आइरह
आइल
आइस
आइसक
आइसल
आई
आईएसब
आईन
आईप
आईस
आउ
आउट
आउटड
आउत
आउद
आउन
आए
आएक
आएर
आक
आकर
आख
आग
आगजन
आगन
आगमन
आगर
आघ
आच
आज
आजक
आजभ
आजसम
आट
आठ
आडव
आत
आतङ
आथ
आद
आदत
आदर
आध
आन
आनन
आप
आपन
आपस
आपसम
आफ
आफन
आब
आबद
आभ
आम
आमन
आय
आयर
आयरल
आर
आरअ
आरएसएसएसएफ
आरक
आरग
आरज
आरम
आल
आव
आवतज
आवद
आवश
आश
आष
आस
आसक
आसन
आसप
आह
इ
इअक
इअर
इए
इएक
इएफए
इएमस
इक
इकग
इकर
इकल
इग
इगर
इघ
इङ
इङल
इच
इछ
इछन
इज
इजन
इजर
इञ
इट
इटअन
इटअनक
इटक
इटन
इटम
इटर
इटल
इटहर
इड
इडर
इण
इत
इथ
इद
इन
इनक
इनखबर
इनग
इनन
इनम
इनर
इनल
इनलम
इनस
इप
इफ
इब
इबट
इबर
इबल
इभ
इभर
इभल
इम
इमर
इय
इर
इरक
इरफ
इरय
इरह
इल
इलअन
इलक
इलट
इलर
इव
इवर
इश
इष
इस
इसक
इसकन
इसम
इसर
इसल
इह
इहर
ई
ईएक
ईक
ईख
ईग
ईज
ईट
ईड
ईत
ईद
ईन
ईनखबर
ईप
ईब
ईबर
ईभ
ईम
ईय
ईर
ईल
ईव
ईवट
ईवर
ईवस
ईश
ईस
ईसक
ईहर
उ
उइ
उइक
उइब
उइल
उई
उईक
उक
उख
उग
उच
उछ
उछन
उज
उजर
उट
उठ
उड
उडन
उडम
उण
उत
उथ
उद
उदय
उदयद
उदयप
उध
उन
उनअन
उनअनक
उनअनल
उनक
उनम
उनर
उनल
उप
उपक
उपकरण
उपकरणअन
उपकरणक
उपग
उपच
उपज
उपत
उपन
उपप
उपभ
उपमह
उपय
उपर
उपल
उपलब
उपव
उपस
उपसभ
उपह
उफ
उब
उबज
उभ
उभयचर
उम
उमर
उय
उर
उल
उलर
उलरक
उलरल
उव
उष
उस
उसक
उसल
उह
ऊ
ऊक
ऊर
ऋच
ऋत
ऋष
ए
एअ
एइ
एइक
एइल
एई
एउट
एएफस
एओएल
एक
एकक
एकजन
एकड
एकत
एकद
एकदम
एकन
एकफ
एकम
एकल
एकलक
एघ
एच
एचआइभ
एचआईभ
एचक
एचड
एचब
एज
एजबठ
एञ
एट
एटल
एड
एडम
एडमन
एडल
एडव
एण
एत
एथ
एन
एनएक
एनएन
एनक
एनडब
एनन
एनप
एप
एपछ
एफ
एफआइप
एफएम
एफल
एफस
एब
एभ
एभर
एभरन
एम
एमए
एमज
एमट
एमस
एय
एयर
एयरप
एर
एल
एलक
एलस
एव
एवम
एश
एस
एसए
एसएलस
एसप
ऐ
ऐत
ऐन
ऐम
ऐर
ऐल
ऐलक
ऐलसम
ऐश
ऐस
ऑफ
ऑर
ओ
ओइ
ओएस
ओक
ओखण
ओखल
ओखलढ
ओगट
ओछ
ओज
ओजन
ओझ
ओट
ओड
ओद
ओन
ओनसर
ओप
ओब
ओभ
ओभर
ओम
ओर
ओल
ओलम
ओव
ओश
ओस
ओह
औ
औज
औद
औन
औपच
और
औरह
औषत
औषध
औसत
क
कअन
कअनक
कअनम
कअनल
कइन
कई
कओ
कक
ककथ
कग
कङ
कच
कज
कञ
कट
कटक
कटप
कटम
कटल
कटह
कटहर
कठ
कड
कण
कत
कतन
कतम
कतर
कथ
कद
कदम
कन
कनक
कप
कपट
कपड
कपम
कफ
कफस
कब
कबठ
कभ
कम
कमक
कमज
कमन
कमम
कमर
कमल
कमलबज
कय
कर
करण
करणअन
करणक
करणकक
करणम
करणल
करन
करप
करम
करल
कल
कलक
कलकत
कलन
कलनक
कलम
कलर
कलश
कव
कश
कष
कस
कसर
कसल
कसह
कह
कहर
कहल
ख
खअन
खअनक
खक
खग
खच
खज
खट
खड
खढकन
खण
खत
खतर
खतरन
खद
खन
खनन
खप
खपत
खपर
खब
खबठ
खबर
खम
खर
खरक
खरब
खरभ
खरम
खल
खलङ
खव
खवर
खश
खस
खहर
ग
गअन
गअनक
गअनम
गइन
गइबर
गइल
गई
गए
गएक
गएर
गक
गकर
गगन
गङ
गच
गज
गजल
गञ
गट
गठ
गठन
गठनअन
गठनक
गठबन
गड
गडन
गडव
गढ
गढव
गण
गणतन
गणन
गणर
गत
गतक
गतम
गद
गदद
गदर
गन
गप
गफ
गब
गबठ
गबन
गबह
गभर
गम
गमक
गमत
गमन
गमर
गमल
गमस
गय
गर
गरक
गरण
गरन
गरम
गरय
गरल
गरहर
गल
गलक
गलत
गलब
गलम
गलल
गलस
गव
गश
गस
गसब
गसम
गह
गहन
गहर
घ
घक
घट
घटक
घटन
घड
घण
घत
घन
घनत
घम
घर
घरअन
घरअनम
घरक
घरटहर
घरध
घरबठ
घरभ
घरम
घरल
घल
घव
घस
ङ
ङक
ङग
ङट
ङटन
ङद
ङफ
ङम
ङल
ङस
च
चअन
चउर
चक
चकन
चकल
चग
चगड
चजन
चट
चड
चढ
चण
चत
चतर
चथर
चन
चनक
चनज
चनजङ
चनप
चनम
चप
चब
चम
चमक
चय
चयन
चर
चरक
चरण
चरणक
चरणब
चरणम
चरम
चरल
चरव
चल
चलअन
चलक
चलच
चलन
चलम
चव
चवट
चस
चहर
छ
छअ
छक
छञ
छट
छड
छत
छन
छप
छमछम
छय
छर
छरक
छल
छलफल
छव
ज
जअन
जइ
जइक
जइम
जइल
जई
जईक
जईम
जईल
जक
जकत
जग
जगत
जगतक
जगतम
जगद
जगदम
जगन
जङ
जट
जड
जण
जत
जतन
जद
जदरब
जध
जन
जनआन
जनक
जनकप
जनगणन
जनघनत
जनज
जनत
जनद
जनधनत
जनन
जनप
जनम
जनमत
जनय
जनरल
जनल
जनव
जनवर
जनश
जनशक
जनस
जनसङ
जनसम
जनह
जनहर
जप
जपत
जपथ
जपर
जब
जबक
जबठ
जबर
जभ
जम
जमन
जमर
जमहल
जय
जयन
जयप
जयर
जर
जरक
जरल
जल
जलक
जलप
जलव
जलस
जव
जवड
जश
जस
जसक
जसब
जसम
जसमध
जसर
जसल
जह
जहर
झ
झक
झट
झड
झण
झन
झनक
झर
झरन
झल
झलक
ञ
ञक
ञव
ट
टअल
टक
टकक
टकम
टकर
टकह
टग
टघ
टङ
टच
टड
टण
टत
टद
टन
टनक
टनगर
टनगरक
टनगरम
टनल
टप
टफ
टब
टबज
टबट
टबठ
टबल
टभ
टम
टय
टर
टरएक
टरक
टरट
टरन
टरफ
टरम
टरल
टरस
टल
टव
टवर
टवल
टश
टस
टसल
टह
टहर
ठ
ठउर
ठउरक
ठउरम
ठक
ठकक
ठकम
ठकहर
ठग
ठण
ठन
ठप
ठभ
ठम
ठश
ड
डअन
डअनक
डआ
डक
डकप
डकपक
डकर
डग
डच
डछ
डट
डटक
डटकम
डटकमक
डटकमल
डटन
डटर
डड
डण
डद
डन
डनक
डनम
डप
डपत
डपर
डफ
डब
डम
डय
डयन
डर
डरक
डरल
डरसन
डल
डलक
डलम
डलर
डलरक
डलल
डव
डष
डस
डहर
ढ
ढक
ढकन
ढङ
ढन
ढप
ढर
ढल
ढव
ण
णक
णकट
णत
णद
णन
णप
णपत
णब
णभ
णम
णय
णयल
णर
णल
णव
णस
णहर
त
तअन
तअनक
तअनम
तअनल
तइ
तऋत
तओ
तक
तकक
तकन
तकम
तकर
तकल
तकहर
तख
तग
तच
तज
तजन
तजनहर
तजस
तट
तटम
तड
तण
तत
तथ
तद
तन
तनक
तनध
तनप
तनल
तनह
तप
तपस
तब
तबई
तबठ
तबम
तबल
तम
तमन
तमर
तमल
तमस
तय
तर
तरक
तरगत
तरङ
तरण
तरणम
तरत
तरतर
तरद
तरध
तरप
तरपश
तरब
तरम
तरर
तरल
तरव
तरसम
तल
तलक
तलत
तलप
तलब
तव
तवन
तवनक
तवम
तवर
तशत
तस
तसम
तह
तहक
तहट
तहतक
तहम
तहर
तहहर
थ
थअन
थक
थग
थड
थतन
थन
थप
थपक
थम
थमन
थय
थर
थरआ
थरक
थल
थलअन
थलक
थलम
थलल
थलह
थलहर
थव
थश
थस
थहर
द
दअन
दअनल
दओ
दक
दकत
दख
दग
दघ
दङ
दछ
दछन
दण
दत
दतल
दथ
दद
दध
दन
दनअन
दनक
दनश
दप
दब
दभ
दम
दमक
दमन
दय
दर
दरग
दरण
दरत
दरब
दरबन
दरल
दरव
दल
दलक
दलदल
दलहर
दव
दवक
दवर
दश
दशक
दशकक
दशकम
दशन
दशम
दशरथ
दशरथक
दशहर
दस
दह
दहर
ध
धक
धकल
धग
धगय
धड
धत
धन
धनअन
धनक
धनगढ
धनम
धनर
धनल
धप
धब
धम
धर
धरत
धरम
धरहर
धल
धव
धवन
धवप
धवल
धस
धहर
न
नअन
नअनक
नअनम
नअनल
नअर
नआ
नइ
नई
नउग
नओ
नक
नकर
नख
नग
नगद
नगर
नगरक
नगरप
नगरम
नगरल
नच
नचल
नछ
नज
नजर
नट
नड
नढ
नत
नतम
नथ
नद
नध
नन
ननगर
नप
नपछ
नपड
नपर
नफ
नब
नबक
नबठ
नबर
नबस
नबह
नभ
नभई
नभएक
नभन
नभय
नभर
नम
नमत
नमन
नमस
नय
नयक
नर
नरकट
नरस
नरह
नरहर
नल
नव
नवक
नवग
नवज
नवट
नवभ
नवम
नवय
नवर
नवलपर
नश
नष
नस
नसक
नसखण
नसन
नसभ
नसम
नसर
नह
नहर
प
पअन
पआ
पइल
पईल
पक
पकड
पकमल
पकव
पख
पग
पङ
पच
पचपन
पछ
पञ
पट
पटक
पटकथ
पटन
पटर
पठ
पठन
पड
पडड
पडन
पडर
पढ
पण
पणज
पणन
पणम
पत
पतन
पथ
पद
पदक
पदण
पदम
पदय
पन
पनक
पनम
पनल
पप
पब
पम
पय
पर
परक
परज
परद
परभ
परम
परय
परर
परश
परस
पल
पलक
पलच
पव
पवन
पश
पष
पस
पसम
पह
पहर
पहल
पहलम
फ
फक
फजई
फट
फटय
फड
फत
फन
फब
फबठ
फर
फरक
फरवर
फल
फलक
फलफ
फलस
फस
फसलक
ब
बअन
बई
बईम
बक
बख
बखत
बखतक
बग
बगञ
बगड
बगत
बगद
बगन
बगर
बघ
बङ
बच
बछ
बज
बझ
बञ
बट
बटव
बठ
बड
बडहर
बढ
बढत
बण
बत
बतक
बद
बदन
बदल
बध
बन
बनउन
बनन
बनब
बनर
बनस
बफ
बब
बबरमहल
बम
बमक
बमम
बमल
बय
बर
बरक
बरत
बरद
बरफ
बरफक
बरम
बरमत
बरल
बल
बलक
बलम
बलर
बलल
बस
बसन
बह
बहन
बहर
भ
भइ
भइन
भइबर
भइरय
भइरह
भइसक
भई
भईछ
भउत
भए
भएक
भएत
भएन
भएपछ
भएपन
भएम
भएर
भक
भकर
भग
भगव
भगवत
भगवद
भङ
भज
भजन
भञ
भट
भण
भणन
भत
भद
भन
भब
भम
भय
भर
भरक
भरणसप
भरत
भरतप
भरतल
भरन
भरप
भल
भलपम
भव
भवत
भवन
भवनक
भवनम
भवनहर
भस
म
मअन
मअनक
मअनम
मअनल
मआ
मई
मऋत
मओ
मक
मकर
मकरण
मकव
मख
मग
मगध
मगर
मगरक
मगरल
मङ
मच
मचन
मछ
मज
मजद
मजब
मझ
मञ
मट
मठ
मठओ
मठक
मठम
मड
मण
मणक
मणल
मत
मतक
मतगणन
मतद
मतलब
मथ
मद
मदत
मदन
मदरस
मध
मन
मनक
मनद
मनपड
मनपर
मनम
मनल
मनस
मनहर
मप
मपट
मपत
मफ
मब
मबट
मबठ
मबर
मबह
मभ
मम
ममत
मय
मर
मरण
मल
मलक
मलत
मलन
मलय
मव
मवरण
मवलम
मश
मष
मस
मसल
मह
महत
महम
महर
महल
महस
य
यअन
यअनक
यअनल
यइ
यइक
यइपछ
यइम
यइल
यई
यईक
यईपछ
यईम
यईल
यओ
यक
यकक
यकत
यकर
यकल
यकव
यङ
यच
यज
यजन
यञ
यट
यटक
यटकअन
यटकक
यटकहर
यटन
यटनक
यड
यण
यणक
यणग
यणगढ
यणम
यणह
यत
यतक
यतन
यतम
यतय
यतल
यथ
यद
यध
यन
यनक
यनल
यनश
यनस
यप
यपश
यपह
यब
यबठ
यबस
यबह
यभ
यभट
यम
यमक
यमण
यमन
यमब
यमबठ
यमम
यमय
यमल
यय
ययन
ययनक
ययनल
यर
यरक
यरत
यरफक
यरम
यरल
यल
यलक
यलय
यलयअनम
यलयल
यव
यवर
यवस
यवह
यश
यस
यसक
यसप
यसपछ
यसब
यसम
यसर
यसल
यह
यहर
र
रअ
रअन
रअनक
रअनम
रअनल
रअय
रआ
रइ
रइछ
रइथ
रओ
रक
रकट
रकम
रकर
रकव
रख
रखण
रखर
रग
रगञ
रगढ
रगत
रगतक
रघ
रङ
रङक
रच
रचण
रचन
रचल
रचलन
रचलनम
रज
रजत
रजन
रजनन
रजननक
रजव
रजह
रञ
रट
रठ
रड
रण
रणअन
रणअनक
रणक
रणज
रणतय
रणन
रणब
रणबह
रणम
रणल
रणव
रणहर
रत
रतक
रतन
रतब
रतबठ
रतम
रतल
रतवर
रतस
रथ
रथअन
रथम
रद
रदर
रदरस
रध
रन
रनक
रनगर
रनप
रनम
रप
रपङ
रपट
रपत
रपद
रपर
रपल
रपश
रपस
रफ
रफल
रफलक
रफलम
रब
रबठ
रबन
रबर
रबल
रबह
रभ
रभर
रम
रमअन
रमक
रमण
रमणक
रमणम
रमप
रमम
रमल
रमश
रमहर
रय
रर
रल
रलक
रव
रवट
रवन
रवर
रवल
रश
रशस
रष
रस
रसक
रसङ
रसञ
रसन
रसनक
रसनल
रसम
रसरक
रसल
रसस
रह
रहक
रहण
रहद
रहन
रहम
रहय
रहर
रहल
रहव
रहस
रहहर
ल
लअन
लअनक
लआ
लओ
लक
लकक
लकण
लकर
लख
लखण
लखन
लखनऊ
लग
लगञ
लगड
लगढ
लगत
लगन
लगभग
लघ
लङ
लच
लज
लट
लठ
लड
लण
लत
लतम
लतल
लतव
लद
लध
लधर
लन
लनक
लनम
लनल
लप
लपक
लपत
लफ
लब
लबअन
लबक
लबठ
लबम
लबर
लबल
लबह
लभ
लभर
लम
लमगन
लमज
लमन
लय
लयअन
लयक
लयन
लयब
लयबठ
लयम
लयल
लयहर
लर
लरक
लल
लव
लवस
लश
लस
लसम
लह
लहर
ळ
व
वअन
वक
वकअन
वकप
वकपक
वकपम
वकर
वग
वगञ
वगन
वच
वचन
वज
वजन
वञ
वट
वटक
वड
वण
वणक
वणल
वत
वतक
वतन
वतम
वद
वदन
वध
वन
वनक
वनड
वनद
वननगर
वनब
वनम
वनल
वनव
वनश
वनस
वप
वपत
वब
वभ
वभर
वभरण
वम
वय
वयन
वयम
वयस
वर
वरक
वरण
वरणक
वरणम
वरद
वरप
वरपर
वरपरक
वरम
वरल
वरहर
वल
वलम
वव
ववह
वश
वशक
वस
वसक
वसन
वसम
वह
वहन
वहर
श
शअन
शअनम
शअनल
शआ
शक
शकक
शकर
शगर
शङ
शज
शजक
शजल
शत
शतक
शद
शन
शनक
शनम
शनल
शप
शपथ
शब
शभ
शभर
शम
शमश
शय
शर
शरण
शरणम
शरद
शरदऋत
शल
शव
शस
शसभ
शसस
शह
शहर
शहरक
शहरम
शहरल
शहरहर
ष
षअन
षक
षकअन
षकअनल
षकक
षकम
षकहर
षगर
षचन
षड
षडयन
षण
षणक
षणम
षणल
षणहर
षत
षद
षदक
षध
षन
षप
षपछ
षबठ
षभ
षम
षमण
षमत
षय
षयअन
षयक
षयम
षयर
षयहर
षर
षरत
षरम
षल
षश
षस
षसक
षसन
षसम
षसल
षहर
स
सअन
सअनक
सअनल
सआ
सएबल
सओ
सक
सकअनल
सकक
सकन
सकर
सकल
सकहर
सख
सग
सगढ
सगर
सगरम
सघ
सङ
सङत
सच
सज
सञ
सट
सठ
सड
सडक
सडकक
सडकम
सढ
सत
सतख
सतह
सतहब
सद
सदक
सदन
सदर
सदरम
सदल
सदस
सध
सन
सनक
सनम
सनर
सनल
सप
सपथ
सपन
सफ
सफत
सफल
सफलत
सब
सबक
सबठ
सबभन
सबर
सबस
सबह
सभ
सम
समक
समग
समझद
समत
समथल
समन
समम
समय
समयक
समयद
समयम
समयल
समयसम
समर
समल
समस
सय
सयदप
सर
सरक
सरण
सरद
सरदर
सरभ
सरम
सरल
सरस
सरसफ
सरसर
सरह
सल
सलभ
सलम
सलह
सव
सवक
सवम
सश
सशक
सशस
सस
सह
सहक
सहज
सहन
सहप
सहभ
सहमत
सहय
सहर
सहरक
सहरम
सहरल
सहरहर
सहस
ह
हअन
हक
हङ
हङकङ
हज
हट
हड
हण
हत
हद
हदरब
हन
हनप
हनर
हप
हब
हम
हमद
हमन
हमर
हमल
हयग
हर
हरण
हरल
हल
हलक
हलय
हव
हवन
हवल
हस
हहर
़
ऽ
ऽछ
ऽथ
ऽल
ऽह
ा
ि
ी
ु
ू
ृ
ॅ
ॆ
े
ै
ॉ
ॊ
ो
ौ
्
ॐ
॒
।
॥
०
००
०००
०१
०२
०३
०४
०५
०६
०७
०८
०९
१
१०
१००
१०००
१०१
१०३
१०५
१०६
११
११०
१२
१२०
१२३
१२५
१३
१३०
१३२
१३४
१३५
१४
१४०
१४४
१४५
१५
१५०
१६
१६०
१६५
१७
१७४
१७५
१७९०
१८
१८००
१८१५
१८३२
१८६९
१८७५
१८८२
१९
१९००
१९०१
१९०३
१९०४
१९०६
१९१०
१९११
१९१४
१९१७
१९१८
१९१९
१९२०
१९२१
१९२२
१९२३
१९२४
१९३
१९३०
१९३२
१९३३
१९३४
१९३८
१९३९
१९४०
१९४१
१९४२
१९४४
१९४५
१९४६
१९४७
१९४८
१९४९
१९५०
१९५१
१९५२
१९५३
१९५४
१९५५
१९५६
१९५७
१९५८
१९५९
१९६०
१९६१
१९६२
१९६३
१९६४
१९६५
१९६६
१९६७
१९६८
१९६९
१९७०
१९७१
१९७२
१९७३
१९७४
१९७५
१९७६
१९७७
१९७८
१९७९
१९८०
१९८१
१९८२
१९८३
१९८४
१९८५
१९८६
१९८७
१९८८
१९८९
१९९०
१९९१
१९९२
१९९३
१९९४
१९९५
१९९६
१९९७
१९९८
१९९९
२
२०
२००
२०००
२००१
२००२
२००३
२००४
२००५
२००६
२००७
२००८
२००९
२०१०
२०११
२०१२
२०१३
२०१४
२०१५
२०१६
२०१७
२०१८
२०१९
२०२०
२०२१
२०२२
२०२३
२०२४
२०२५
२०२६
२०२७
२०२८
२०२९
२०३०
२०३१
२०३२
२०३३
२०३४
२०३५
२०३६
२०३७
२०३८
२०३९
२०४०
२०४१
२०४२
२०४३
२०४४
२०४५
२०४६
२०४७
२०४८
२०४९
२०५०
२०५१
२०५२
२०५३
२०५४
२०५५
२०५६
२०५७
२०५८
२०५९
२०६०
२०६१
२०६२
२०६३
२०६४
२०६५
२०६६
२०६७
२०६८
२०६९
२०७०
२०७१
२०७२
२०७३
२०७४
२०७५
२०७६
२०७८
२०७९
२१
२२
२३
२४
२५
२५०
२६
२७
२८
२९
३
३०
३००
३०००
३१
३१०
३२
३३
३४
३५
३५०
३६
३६५
३७
३८
३९
४
४०
४००
४१
४११
४२
४३
४४
४५
४५०
४६
४७
४८
४९
५
५०
५००
५०००००
५१
५२
५३
५४
५५
५५०
५६
५७
५८
५९
६
६०
६००
६१
६२
६३
६४
६५
६६
६७
६८
६९
७
७०
७००
७१
७२
७३
७४
७४४
७५
७५००००
७६
७७
७८
७९
८
८०
८००
८१
८२
८३
८४
८४८
८५
८६
८७
८८
८९
९
९०
९००
९१
९२
९३
९४
९५
९६
९७
९८
९९
॰
ঁ
ং
আইমন
আম
ই
উপজ
এ
ও
ক
কব
খ
গ
ঘ
চ
ছ
জ
ঞ
ট
ঠ
ড
ঢ
ণ
ত
থ
দ
ধ
ন
প
ফ
ব
ভ
ম
য
র
ল
শ
ষ
স
হ
়
া
ি
ী
ু
ূ
ে
্
ਪ
ਬ
ਮ
ਸ
ਹ
਼
ਾ
ਿ
ੀ
ੁ
੍
ੰ
ા
ી
ુ
ି
க
ச
ட
த
ந
ன
ர
ல
ழ
ா
ி
ீ
ு
ே
ை
்
ం
గ
త
ద
న
ప
ర
ల
హ
ా
ి
ు
ె
్
ಿ
ು
ം
ള
ാ
්
་
ག
ད
མ
ར
ལ
ས
ི
ུ
ེ
ོ
ྱ
ྷ
ဘ
မ
သ
ာ
း
်
ႂ
᜔
ា
​
‌
‍
‎
‐
–
—
―
‘
’
“
”
„
†
•
…
′
″
€
₹
↔
↷
−
⊂
③
④
⑦
ⱄ
ⴰ
ⵜ
⺀
⺄
⺆
⺈
⺊
⺌
⺕
⺝
⺸
⺼
⿰
⿱
⿲
⿳
⿴
⿵
⿶
⿷
⿸
⿹
⿺
⿻
〢
い
つ
て
に
の
゙
イ
ウ
コ
ス
ナ
ユ
ル
ロ
ー
㇁
㇂
㇄
㇇
㇈
㇉
㇓
㐁
㐄
㐅
㐌
㐫
㐬
㐭
㐮
㐱
㑒
㒵
㒸
㒼
㓁
㓞
㔾
㕛
㕣
㖾
㘝
㚅
㚇
㚔
㚘
㝉
㝡
㝴
㝵
㞋
㞢
㞷
㠩
㠭
㠯
㡀
㡭
㡿
㢲
㢴
㣇
㣺
㥯
㪅
㫄
㫐
㫒
㫺
㬅
㬎
㬥
㬰
㲋
㳄
㷠
㸒
㸚
㸦
㼌
㼲
㽞
㿟
䀠
䂞
䍃
䏍
䒑
䖍
䖒
䖝
䖵
䙴
䚻
䜌
䝿
䡛
䧹
䪞
一
丁
丂
七
丄
丅
丆
万
丈
三
上
下
丌
不
与
丏
丐
丑
专
且
丕
世
丘
丙
业
东
丞
丢
丣
两
严
並
丨
丩
个
丫
丬
中
丮
丰
丱
串
丵
丶
丷
丸
丹
为
主
丽
丿
乀
乂
乃
久
乆
乇
么
义
之
乌
乍
乎
乏
乐
乑
乔
乖
乗
乘
乙
乚
乛
乜
九
乞
也
习
乡
乳
乾
亀
亅
了
亇
予
争
事
二
亍
于
亏
亐
云
互
亓
五
井
亘
亚
亜
亞
亟
亠
亡
亢
交
亥
亦
产
亨
亩
享
京
亭
亮
亯
亰
亲
亳
亶
亷
人
亻
亼
亾
仁
今
介
仌
从
仐
仑
仒
仓
仕
他
付
仝
代
令
以
任
企
伊
伏
伐
休
会
伯
但
位
何
佘
余
作
佥
使
來
侈
侌
侖
侯
侵
便
保
俞
信
修
倉
倍
候
倠
備
僉
僕
儿
兀
允
兂
元
兄
充
兆
兇
先
光
兊
克
兌
免
兑
兒
兓
兔
党
兜
兟
入
全
兩
兪
八
公
六
兮
兰
共
关
兵
其
具
典
兹
兼
冀
冂
冃
冄
内
冈
冉
冊
冋
册
再
冎
冏
冐
冒
冓
冖
冗
冘
军
农
冝
冡
冥
冫
冬
冷
几
凡
凢
凵
凶
凷
凸
凹
出
函
凾
刀
刁
刂
刃
刄
刅
分
切
刍
刑
刕
刖
列
刘
则
初
別
利
别
到
制
刺
則
削
剌
前
剡
剽
劉
力
功
加
劦
助
劫
劳
劵
勃
勇
勉
勒
動
務
勞
勤
勹
勺
勻
勾
勿
匀
匂
包
匆
匈
匊
匋
匍
匕
化
北
匚
匝
匡
匪
匱
匸
匹
区
医
匽
匿
區
十
卂
千
卄
卅
卆
升
午
卉
半
卌
华
卑
卒
卓
单
卖
南
卜
卝
卞
占
卡
卢
卣
卤
卦
卩
卪
卬
卯
印
危
即
却
卵
卷
卸
卻
厂
厃
厄
历
厈
厉
厌
厓
厘
厚
原
厤
厥
厨
厭
厲
厶
厷
厸
去
厼
厽
叀
参
參
叅
又
叉
及
友
双
反
叐
发
叒
叔
叕
取
受
叚
叜
叟
口
古
句
另
叩
只
召
可
台
叱
史
右
叵
号
司
叹
吂
各
吅
合
吉
吊
吋
同
名
后
吏
向
吕
君
吝
吞
否
含
听
启
吳
吴
吹
吾
呂
呆
呈
告
员
呙
周
命
咅
和
咎
咠
咢
咨
咸
咼
哀
品
哉
員
哥
哲
唐
商
啇
問
啚
啬
啻
善
喜
喬
單
喿
嗇
噩
嚴
囊
囗
囘
囙
囚
四
回
囟
因
囧
囬
困
囱
囷
固
国
圂
圅
國
圍
圓
土
圡
圣
圥
在
圭
地
圶
圼
坐
坒
坚
坴
垂
型
垔
垚
埀
埋
埶
執
基
堂
堅
堆
堇
堯
塞
墨
壘
士
壬
壯
声
壳
壴
壹
壺
壽
夂
处
夅
夆
备
夊
夋
夌
复
夏
夒
夕
外
夗
夘
多
夜
夢
大
夨
天
太
夫
夬
夭
央
失
夲
头
夷
夸
夹
夻
夾
奂
奄
奇
奈
奉
奎
奏
奐
契
奓
奔
奚
奞
奠
奢
奥
奭
女
奴
奻
好
如
妄
妙
妟
妥
妻
妾
姑
委
姜
威
娄
婁
婴
嬰
嬴
子
孑
孔
孕
孖
字
存
孚
孛
孝
孟
季
孤
学
孫
孱
學
宀
宁
宂
它
宅
宇
守
安
宋
完
宏
宓
宗
官
定
宛
宜
宝
客
宣
室
宮
宰
害
家
容
宾
宿
寄
寅
密
富
寒
察
寧
審
寫
寬
寮
寸
对
寺
寻
寽
対
寿
封
尃
射
将
將
專
尉
尊
尋
尌
對
小
少
尒
尓
尔
尖
尗
尚
尞
尢
尣
尤
尧
尨
尭
就
尸
尹
尺
尻
尼
尽
尾
尿
局
居
屈
屋
屎
屏
屑
展
屖
屚
属
屠
屡
屬
屮
屯
屰
山
屵
屾
岁
岂
岑
岡
岩
岳
岸
峯
島
崇
崑
崔
崖
崙
崩
嵬
嶲
巂
巛
川
州
巟
巠
巢
巤
工
左
巧
巨
巩
巫
差
己
已
巳
巴
巷
巸
巽
巾
巿
帀
市
布
师
希
帚
帛
帝
带
師
席
帶
常
干
平
年
幵
并
幷
幸
幺
幻
幼
幽
幾
广
広
庄
床
应
底
店
庚
府
度
庫
庭
庶
康
庸
廉
廌
廛
廣
廩
廴
延
廷
建
廾
廿
开
弁
弃
弄
弇
弋
式
弓
弔
引
弗
弘
弜
弟
弥
弦
弱
張
強
强
彊
彌
彎
彐
彑
当
彔
录
彖
彗
彡
形
彥
彦
彧
彭
彳
役
彼
往
待
律
徒
得
徙
從
復
微
徵
心
忄
必
忌
忍
志
忝
忠
忩
快
念
忽
忿
思
怠
急
怱
总
恆
恒
恩
恭
息
悉
患
悤
悲
悶
情
惠
惡
惢
愁
愈
意
愛
感
慈
慧
慮
憂
憲
應
戀
戈
戉
戊
戋
戌
戍
戎
成
我
戒
戔
或
戚
戠
戢
截
戲
戶
户
戹
戼
戾
房
所
扁
扇
手
扌
才
打
托
执
承
抓
投
抖
折
拉
拜
拿
掌
推
提
搜
摩
支
攴
攵
收
攸
改
放
政
敄
敏
敕
敖
敗
敝
敞
敢
散
敦
敫
敬
数
敷
數
斂
文
斉
斊
斗
斤
斥
斩
斬
斯
新
方
於
施
斿
旁
旋
族
无
旡
既
旣
日
旦
旧
旨
早
旬
旱
旲
时
旾
昆
昇
昌
昍
明
昏
易
昔
昗
昜
星
春
昬
是
昱
昴
昷
時
晃
晋
晏
普
景
晶
智
暑
暴
曇
曩
曰
曲
曳
更
曷
書
曹
曼
曾
替
最
朁
會
月
有
朋
服
朔
朕
朗
望
朝
木
朩
未
末
本
札
朮
术
朱
朵
朶
朿
杀
杏
杜
束
条
来
東
杲
杳
松
析
林
枚
果
枝
枲
枼
某
柔
查
柬
柰
柴
栗
格
桀
桑
桼
梁
條
梟
梨
棘
棠
棥
森
楚
業
楽
榮
樂
樊
欠
次
欣
欮
欲
欶
欽
款
歆
歇
歛
止
正
此
步
武
歨
歪
歮
歯
歰
歲
歴
歷
歸
歹
歺
死
殳
段
殷
殸
殹
殺
殻
殿
毋
毌
母
每
毒
比
毕
毚
毛
毳
氏
氐
民
气
氣
水
氵
氶
氷
永
氺
氾
求
汝
汞
江
沃
沓
沙
沝
泉
法
波
泣
泥
泰
洛
津
洪
活
派
流
浦
浪
浮
淡
淮
清
渚
渠
湯
滿
漸
火
灬
灭
灰
灵
灷
炅
炎
炏
炗
炙
炭
点
為
烈
烏
烝
焉
無
焦
焱
然
煞
熊
熏
燕
營
燮
爪
爫
爭
爯
爰
爱
爲
爵
父
爻
爽
爾
爿
片
牙
牚
牛
牜
牟
牢
牧
牪
牽
犀
犬
犭
犮
状
狂
狄
狊
狐
独
狺
猋
猒
猪
献
獻
玄
率
玉
王
玟
玨
珎
班
現
琴
瑟
瑩
瓜
瓦
甘
甚
生
産
用
甫
甬
田
由
甲
申
电
甶
男
甸
甹
画
甾
畀
界
畏
畐
留
畜
畟
畢
畧
畨
番
畫
異
畱
當
畺
畾
疊
疋
疌
疑
疒
疾
病
癶
癸
癹
登
發
白
百
皀
皃
的
皆
皇
皋
皐
皕
皮
皷
皿
盃
盆
盇
盈
益
盍
盎
监
盒
盖
盛
盡
監
盤
盧
目
直
相
盾
省
眇
眉
看
眔
眞
真
眷
眼
眾
着
睘
睪
睿
瞏
瞢
瞿
矍
矛
矞
矢
矣
知
矦
短
石
破
碎
磊
磨
示
礻
礼
祟
票
祭
禀
禁
禸
禹
禺
离
禽
禾
禿
秀
秃
秉
秋
科
秝
秦
移
稟
穀
穌
穴
究
穹
空
穿
突
窄
窒
立
竒
竜
竝
竟
章
童
竹
笑
笠
筆
等
答
箕
算
箴
節
篤
篭
米
粉
粛
粟
粤
粦
粲
糞
糸
糹
系
約
納
素
索
紫
累
細
絜
絫
絲
維
綿
縣
繇
纍
纟
编
缶
网
罒
罔
罕
罗
罙
罡
罢
罪
署
罷
羅
羊
羌
羍
美
羔
羕
羗
羞
羡
羣
群
義
羲
羸
羽
翁
翏
習
翕
翟
翠
翼
老
耂
考
者
耆
而
耎
耑
耒
耳
耴
耶
耷
聂
聊
聖
聚
聶
聿
肀
肃
肅
肉
肖
肙
肥
肩
肯
育
肴
胃
背
胡
胥
能
脊
脩
膚
臣
臤
臧
自
臬
臭
臯
臱
至
致
臺
臼
臽
臾
臿
舀
舂
舄
與
興
舉
舌
舍
舛
舜
舞
舟
般
艮
良
色
艸
艹
艾
节
芒
芔
芬
芮
花
芳
芺
芻
苔
苗
苟
若
苦
英
茶
茸
荅
草
荒
荣
荼
莆
莧
莫
莽
菆
菊
菐
華
萬
落
葉
著
葛
董
葵
蒙
蒦
蒼
蓋
蓬
蓺
蔑
蔡
蕉
蕭
薄
薛
薦
薰
藍
藏
藥
蘭
虍
虎
虐
虒
虔
處
虖
虗
虘
虚
虛
虜
虞
虫
虽
蚤
蚩
蜀
蜜
蟲
蠡
血
行
衍
衛
衣
衤
表
衮
衰
袁
袞
褭
褱
襄
襾
西
覀
要
覃
見
規
覓
覧
親
覽
见
视
角
解
言
訁
訇
計
話
詹
語
誩
諸
變
讠
讯
语
谷
豆
豈
豊
豐
豕
豖
豙
象
豦
豩
豪
豸
貇
貝
貞
貟
負
貢
貧
貪
貫
責
貳
貴
買
費
賁
資
賈
賏
賓
賔
賛
賞
賢
賣
質
賴
贊
贝
贡
责
贯
贲
贵
资
赖
赞
赤
赦
走
越
足
路
蹇
身
躬
車
軍
軎
軟
輦
车
辛
辜
辟
辥
辰
辱
農
辵
辶
边
达
过
近
连
迷
追
退
送
逆
逐
通
速
造
逢
連
逮
進
遀
遂
過
道
達
遣
適
遷
遺
邊
邑
邕
那
邦
邪
郎
部
郭
都
鄉
酉
酋
配
酓
釆
采
里
重
野
量
金
釒
錢
钅
長
镸
长
門
閃
閉
開
閏
閑
閒
間
閔
閵
閻
闌
门
间
闷
闻
阑
阜
阝
阿
陈
降
陳
隆
隊
隋
隡
隨
隱
隶
隹
隺
隻
隼
隽
难
雀
雁
雅
集
雈
雋
雍
雐
雔
雙
雚
雜
雝
離
難
雨
雩
雪
雲
零
雷
需
霍
霜
霝
霞
霸
靈
靑
青
非
靡
面
靣
革
韋
韦
韭
韯
韱
音
頁
頃
項
須
頗
頡
頻
顛
页
風
风
飛
飞
食
飠
養
饣
首
香
馬
馮
駦
马
骨
高
髟
鬥
鬯
鬲
鬼
魚
魯
鮮
鱼
鲁
鳥
鳳
鸟
鹵
鹿
麃
麗
麥
麦
麻
黃
黄
黍
黎
黑
黒
黨
黹
黽
黾
鼎
鼓
鼠
鼻
齊
齋
齐
齒
齿
龍
龙
龜
龟
龠
龰
龱
龴
龵
龶
龷
龸
龹
ꯩ
者
艹
﻿
，
：
？
🇳
🇵
𠀁
𠀃
𠀆
𠀉
𠀎
𠀐
𠁁
𠁣
𠂆
𠂇
𠂈
𠂉
𠂊
𠂋
𠂎
𠂒
𠂔
𠂛
𠂡
𠂢
𠂤
𠂬
𠂭
𠂹
𠃊
𠃋
𠃌
𠃍
𠃎
𠃑
𠃓
𠃔
𠃜
𠄌
𠄎
𠄠
𠄢
𠆢
𠆥
𠇍
𠈌
𠌵
𠓜
𠔉
𠔥
𠔼
𠔽
𠔿
𠕀
𠕁
𠕋
𠘧
𠘨
𠙻
𠙼
𠚏
𠚒
𠚤
𠚪
𠣏
𠤎
𠤕
𠥓
𠦄
𠦑
𠦝
𠧒
𠧗
𠧪
𠩺
𠪚
𠫓
𠫔
𠫤
𠬛
𠬝
𠬞
𠬢
𠬤
𠬶
𠮛
𠮦
𠮷
𠯑
𠱠
𠳮
𠷎
𡈼
𡉀
𡉵
𡌥
𡍮
𡏳
𡕒
𡕩
𡕰
𡖅
𡗗
𡗜
𡘆
𡘤
𡧱
𡨄
𡩧
𡬠
𡭽
𡰣
𡰥
𡰪
𡰯
𡰱
𡷈
𡸁
𡿨
𡿩
𡿪
𡿺
𢀖
𢀛
𢀩
𢁙
𢆉
𢆰
𢆶
𢇁
𢇇
𢉖
𢌬
𢌿
𢏚
𢑑
𢑚
𢖻
𢙣
𢛳
𢦏
𢦒
𢧵
𢼄
𢾕
𣁋
𣄼
𣅀
𣅽
𣍘
𣎳
𣎵
𣏋
𣏼
𣗥
𣥂
𣥖
𣦵
𣦼
𣧄
𣪊
𣪠
𣬉
𣳾
𣶒
𤇾
𤊽
𤐫
𤓰
𤔔
𤕨
𤣩
𤰇
𤰔
𤰞
𤴓
𤴔
𤽄
𥁑
𥁕
𥃦
𥃩
𥃭
𥇡
𥑟
𥘅
𥘈
𥝢
𥫗
𥱡
𦈢
𦉪
𦉬
𦉼
𦍌
𦍒
𦎧
𦐇
𦓔
𦔮
𦘒
𦙃
𦚏
𦣝
𦣞
𦣻
𦥑
𦥔
𦥯
𦨉
𦭝
𦰩
𧆞
𧈧
𧘇
𧰨
𧴪
𧴮
𧵩
𧾷
𨸏
𨾴
𩙿
𩠐
𩫏
𩵋
𪉷
𪜀
𪟽
𪠲
𪩲
𫇦
𫔭
𫜸
𫝀
𫠣
𫠩
𫢉
𫥞
𫩏
𫩠
𫪡
𫲽
𫶧
𬀷
𬐘
𬗌
𬙙
𬛸
𬜯
𬟩
𬯁
𬴘
𬺻
𬼉
𬼖
𭀰
𭁈
𭁨
𭅰
𭑈
𭕄
𭗼
𭤨
𭥫
𭻾
𮅕
𮊿
𮍌
𮍏
𮓗
𮥼
𮧮
廾
𰀁
𰀄
𰀈
𰀉
𰀕
𰀠
𰀡
𰀢
𰀪
𰁜
𰃮
𰆊
𰆘
𰋙
𰕎
𰢴
𰧭
𰯲
10--
11--
12--
17--
19--
20--
4--
5--
6--
7--
8--
9--
99--
a--
aca--
ad--
ag--
air--
ak--
al--
am--
amaz--
an--
ar--
as--
au--
b--
ba--
bas--
be--
bha--
bi--
bl--
bor--
br--
bri--
bud--
budd--
c--
ca--
cab--
cam--
car--
cele--
ch--
cha--
char--
chri--
citiz--
cl--
co--
col--
con--
contr--
cor--
cr--
cre--
d--
da--
de--
decla--
democ--
demog--
di--
dis--
do--
du--
e--
eag--
ed--
edit--
ef--
eg--
el--
em--
en--
es--
ex--
f--
fe--
g--
ga--
ge--
geog--
gi--
go--
gr--
gra--
gre--
gu--
h--
ha--
hay--
he--
hi--
ho--
hou--
hung--
hy--
i--
ib--
id--
im--
in--
intro--
it--
j--
ja--
jas--
je--
ji--
jo--
ju--
k--
ka--
kar--
ke--
kha--
l--
la--
li--
lu--
ly--
m--
ma--
me--
mem--
men--
mer--
mi--
minu--
mo--
moham--
mus--
my--
n--
na--
naray--
nc--
ne--
nepali--
ni--
no--
nomi--
o--
ofi--
opti--
or--
p--
pa--
pat--
pati--
pay--
per--
pi--
pl--
po--
pr--
pres--
pro--
pu--
q--
qu--
r--
ra--
re--
recog--
regu--
requi--
ri--
ric--
ro--
ros--
ru--
s--
sa--
sche--
se--
sec--
sh--
sha--
sil--
similar--
so--
sp--
st--
stre--
stu--
su--
sub--
succ--
sw--
swe--
sy--
t--
ti--
to--
tr--
tre--
u--
un--
unf--
uni--
unive--
up--
v--
va--
ve--
vi--
w--
we--
weat--
wr--
x--
xb--
y--
z--
ال--
अ--
अस--
आ--
आइ--
आई--
आर--
आव--
इ--
इर--
ई--
उ--
उन--
ऊ--
ऋ--
ए--
एन--
ऐ--
ओ--
औ--
क--
कद--
कर--
ख--
खड--
ग--
गण--
घ--
घर--
ङ--
च--
छ--
ज--
जन--
जल--
झ--
ञ--
ट--
टक--
ठ--
ठक--
ड--
डल--
ण--
त--
थ--
थर--
द--
धन--
न--
नभ--
नर--
नव--
प--
फ--
ब--
बच--
बम--
भ--
भई--
म--
मन--
य--
यक--
यम--
यर--
यस--
र--
रक--
ल--
लव--
व--
वज--
वन--
वर--
श--
शक--
ष--
षण--
स--
सन--
सर--
सहर--
ह--
हक--
हन--
हर--
ऽ--
१४--
१५--
१६--
१७--
१८--
१९--
ই--
ম--
র--
ল--
স--
--0
--1
--2
--3
--4
--5
--6
--7
--74
--8
--9
--a
--able
--ak
--al
--ald
--als
--am
--an
--ance
--ant
--ar
--ard
--as
--ate
--ation
--b
--c
--ce
--ceae
--ch
--ck
--cs
--ct
--cted
--ction
--cy
--d
--de
--ds
--e
--ed
--ek
--en
--ep
--er
--ern
--ers
--ery
--es
--est
--f
--g
--ght
--go
--h
--hi
--hip
--hua
--i
--ia
--ial
--ian
--ice
--ie
--ies
--ik
--il
--ile
--in
--india
--ine
--ing
--io
--ion
--ions
--ir
--ish
--ist
--it
--ities
--ity
--ive
--ivity
--j
--ju
--k
--ks
--l
--la
--ld
--le
--li
--ll
--ls
--lt
--lu
--ly
--m
--ma
--ment
--ms
--n
--na
--nc
--nce
--nda
--ne
--ng
--ni
--nia
--nn
--ns
--nt
--nta
--nts
--o
--ock
--od
--ogy
--on
--or
--os
--p
--pe
--ph
--phic
--post
--r
--ra
--ral
--re
--rg
--ri
--ria
--ries
--ris
--rk
--rt
--ry
--s
--se
--sh
--ship
--son
--st
--ster
--t
--ta
--tant
--te
--ted
--th
--ti
--tia
--tial
--til
--tion
--tions
--tra
--ts
--tt
--ty
--u
--ual
--ud
--ue
--ul
--uld
--um
--ur
--us
--v
--ve
--w
--wood
--x
--y
--ya
--z
--и
--я
--अन
--आ
--इ
--ई
--ए
--ओ
--क
--ख
--ग
--घ
--ङ
--च
--चन
--छ
--ज
--झ
--ञ
--ट
--ठ
--ड
--ढ
--ण
--त
--थ
--द
--ध
--न
--प
--पन
--फ
--ब
--बठ
--भ
--म
--य
--र
--ल
--व
--श
--स
--ह
--हर
--०
--१
--२
--३
--४
--५
--६
--७
--८
--९
--য
