!
"
#
##0
##1
##10
##11
##12
##13
##14
##15
##16
##17
##18
##19
##2
##20
##21
##22
##23
##24
##25
##26
##27
##28
##29
##3
##30
##31
##32
##33
##34
##35
##36
##37
##38
##39
##4
##40
##41
##42
##43
##44
##45
##46
##47
##48
##49
##5
##50
##51
##52
##53
##54
##55
##56
##57
##58
##59
##6
##60
##61
##62
##63
##64
##65
##66
##67
##68
##69
##7
##70
##71
##72
##73
##74
##75
##76
##77
##78
##79
##8
##80
##81
##82
##83
##84
##85
##86
##87
##88
##89
##9
##90
##91
##92
##93
##94
##95
##96
##97
##98
##99
$
%
&
'
(
)
*
+
,
-
.
/
0
000
01
02
03
04
05
06
07
08
09
1
10
100
104
105
11
110
111
112
114
116
117
118
119
12
120
121
122
13
14
15
16
17
18
19
1995
1997
1998
1999
2
20
2000
2001
2002
2003
2004
2005
2006
2007
2008
20080113215940
2009
2010
2011
2012
2013
2014
21
22
23
24
25
26
27
28
29
3
30
31
32
33
34
35
36
37
38
39
4
40
41
42
43
45
47
48
5
50
52
53
55
57
58
59
6
60
61
62
63
64
65
67
68
7
70
71
72
73
74
75
76
77
78
79
8
80
81
82
83
84
85
86
87
88
89
9
90
91
92
93
94
95
97
978
98
:
;
<
=
>
?
[
\
]
^
_
a
about
accessed
acid
actor
actress
africa
african
after
age
air
al
all
also
although
american
an
anatapur
and
another
any
aortic
aponline
april
archive
are
area
around
art
artery
article
as
asiarooms
associated
asthma
at
au
august
automobile
b
based
bc
be
because
been
being
benz
between
bhattiprolu
bidurnagar
biology
blood
board
body
book
both
boundaries
branch
british
bureau
burkina
but
by
c
called
can
canal
canals
case
cause
cell
census
center
central
century
change
charles
chemistry
china
chinese
cite
city
co
com
committee
common
company
corporation
country
culture
current
d
data
day
de
dead
death
december
defined
department
development
dictionary
different
dirs
disease
displaystyle
dissection
district
do
does
doi
down
due
during
e
each
early
earth
economic
ed
edition
education
element
elements
en
encyclopedia
energy
english
error
et
etext
even
evolution
example
excursions
f
falling
faso
february
fevch
fever
film
fire
first
following
for
form
found
france
french
from
g
gamelan
gene
general
genetic
genomics
geological
george
german
gov
government
great
greek
group
groups
guide
gutenberg
h
had
haiti
has
have
he
health
heart
help
her
high
his
historical
history
hitchcock
hogarth
how
however
html
http
https
human
hyderabad
i
if
ii
important
in
inc
include
including
india
indian
information
institute
international
into
invalid
is
isbn
islands
it
its
j
james
january
jews
john
journal
jpg
july
june
k
keeffe
king
km
known
l
la
language
languages
large
later
left
life
like
link
list
london
long
lower
m
made
mahbubnagar
management
many
march
material
may
medical
medicine
minerals
model
modern
more
most
municipal
museum
music
n
name
named
names
national
nations
natural
nature
nepal
new
news
no
non
north
not
november
now
np
number
o
october
of
office
official
often
on
one
online
only
or
org
organisms
organization
other
out
over
oxford
p
pacific
page
paris
part
party
pdf
people
php
plants
player
pmid
point
population
power
pp
present
president
press
process
produced
project
provided
public
q
r
rain
ref
refs
related
research
retrieved
richard
right
robert
russian
s
sa
same
sanskritdocuments
science
second
see
selection
september
set
several
she
short
should
side
since
singer
site
small
so
society
some
south
species
st
state
states
statistics
study
such
surgery
survey
syndrome
system
t
tag
template
text
th
than
that
the
their
them
then
theory
there
these
they
this
three
through
time
times
to
topography
town
travel
treatment
triangle
two
txt
u
under
union
united
university
until
up
upanishad
us
use
used
using
usually
v
very
w
wallace
war
was
water
web
website
well
were
west
what
when
where
which
while
who
wikipedia
will
william
with
within
work
working
works
world
would
www
x
y
year
years
york
you
z
zinc
{
|
}
~
«
°
²
·
»
×
÷
ˈ
ː
̀
́
̂
̃
̄
̆
̇
̈
̊
̌
̓
̣
̧
α
β
ς
в
г
ँ
ं
ः
अ
अक
अकबरप
अकर
अख
अग
अगल
अगस
अघ
अङ
अच
अछ
अज
अजय
अजरबइज
अञ
अट
अड
अण
अत
अथ
अथर
अद
अध
अन
अनन
अनल
अप
अपन
अपर
अफ
अफग
अब
अभ
अम
अमर
अमल
अय
अर
अरब
अल
अलग
अव
अवत
अवध
अवर
अवस
अश
अष
अस
अह
अहमद
आ
आइ
आइड
आइल
आक
आख
आग
आगर
आच
आज
आण
आत
आद
आदर
आध
आन
आनन
आप
आफ
आब
आम
आमडग
आमन
आय
आर
आल
आलमप
आव
आवक
आश
आस
आसन
आह
इ
इक
इकल
इग
इङ
इच
इज
इजर
इजह
इञ
इट
इड
इण
इत
इद
इध
इन
इनर
इप
इफ
इब
इभ
इम
इय
इर
इल
इलय
इव
इश
इस
इह
ई
ईक
ईखद
ईज
ईड
ईद
ईन
ईप
ईय
ईल
ईलय
ईश
ईस
उ
उक
उग
उच
उज
उट
उड
उत
उथ
उद
उदय
उदयप
उन
उनक
उप
उपज
उपन
उपमह
उपस
उब
उम
उमर
उमरग
उय
उर
उरवक
उल
उलघ
उष
उस
उसक
ऊ
ऊट
ऊधम
ऊर
ऋत
ऋष
ऎ
ऎङ
ऎन
ऎल
ऎस
ए
एओर
एक
एच
एज
एट
एड
एण
एत
एद
एन
एप
एफ
एब
एम
एमप
एर
एल
एव
एश
एस
ऐ
ऐत
ऐतर
ऑफ
ऒ
ऒर
ओ
ओक
ओखलढ
ओड
ओप
ओब
ओम
ओय
ओर
ओल
औ
औद
औपन
और
औसत
क
कक
कग
कङ
कच
कछ
कछल
कज
कट
कटय
कटर
कठ
कड
कडप
कण
कत
कथ
कथल
कद
कन
कनग
कप
कपक
कपट
कपल
कफ
कब
कभ
कम
कमज
कमल
कमलप
कय
कर
करण
करणय
करत
करन
करप
करम
कल
कलक
कलन
कळ
कव
कश
कस
कह
ख
खग
खज
खड
खण
खत
खन
खनगर
खपट
खम
खय
खर
खरस
खल
खस
ग
गक
गग
गच
गज
गञ
गटन
गठन
गड
गढ
गढय
गढव
गण
गणतन
गणव
गत
गतय
गथ
गद
गदरप
गन
गनमल
गप
गब
गम
गमत
गय
गर
गरगढ
गरम
गरय
गल
गलय
गव
गस
गह
घ
घट
घटन
घन
घनप
घय
घर
घरघ
ङ
ङय
ङल
ङळ
च
चक
चकर
चट
चड
चण
चत
चन
चनप
चप
चम
चय
चर
चल
चलणस
चलन
चलय
चव
चवथ
छ
छक
छग
छत
छन
छप
छम
ज
जक
जख
जग
जगच
जगढ
जगत
जगद
जगन
जट
जड
जत
जतन
जद
जध
जन
जनकप
जनगणन
जनगर
जनज
जनत
जनपद
जनपदय
जनय
जनस
जप
जफ
जब
जभ
जम
जय
जयनगर
जयनगरम
जयप
जर
जल
जलप
जलव
जलसन
जव
जश
जस
जसप
जह
झ
झर
ञ
ञत
ट
टक
टकय
टग
टण
टत
टद
टन
टनकप
टप
टपर
टपल
टम
टय
टर
टरन
टरय
टल
टव
टस
ठ
ठक
ठकथ
ठम
ठय
ड
डई
डक
डकल
डग
डड
डन
डनय
डप
डपनकल
डपल
डब
डबर
डम
डय
डर
डल
डलत
डलय
डलव
डव
डस
ढ
ण
णक
णकट
णग
णचन
णद
णन
णप
णम
णय
णव
णस
त
तइ
तक
तकल
तखतप
तग
तङ
तच
तछल
तज
तट
तड
तत
तथ
तद
तध
तन
तनकल
तनतय
तनम
तनह
तप
तपल
तब
तम
तय
तर
तरक
तरप
तरय
तल
तलक
तलपल
तलमड
तव
तवन
तस
तह
तहट
तहस
थ
थक
थग
थतन
थथ
थन
थनय
थप
थम
थय
थर
थल
थव
द
दइ
दक
दकथ
दकल
दकलय
दग
दछ
दड
दण
दत
दथ
दन
दनय
दप
दपप
दब
दम
दय
दर
दरप
दरब
दरव
दल
दव
दवड
दश
दशकय
दशहर
दस
दसक
दसम
दह
ध
धक
धत
धन
धनक
धनव
धप
धम
धय
धर
धरमजयगढ
धरहर
धल
धव
धवन
धवल
न
नइग
नई
नक
नख
नग
नगर
नगरप
नगरय
नगल
नच
नज
नट
नड
नत
नथ
नद
नन
नप
नपल
नब
नभ
नम
नमन
नय
नर
नरस
नल
नव
नवम
नवर
नवलपर
नश
नस
नसभ
नसर
नह
नहर
प
पक
पग
पच
पछ
पज
पञ
पट
पठ
पड
पण
पत
पतन
पथ
पथर
पद
पन
पनग
पप
पब
पम
पय
पर
परम
परव
परस
पल
पळ
पव
पश
पस
पह
पहल
फ
फत
फय
फर
फरग
फल
फस
ब
बई
बक
बख
बग
बगड
बङ
बच
बछल
बज
बझ
बट
बड
बढ
बत
बतय
बथ
बद
बन
बनग
बनगर
बनय
बप
बब
बम
बय
बर
बरन
बल
बलय
बलर
बळ
बश
बस
बसन
बह
बहमन
भ
भएक
भक
भग
भगव
भगवत
भङ
भञ
भट
भटव
भण
भत
भद
भन
भय
भर
भल
भव
भवत
भवन
म
मई
मक
मकव
मख
मग
मगट
मङ
मच
मछ
मज
मजद
मझ
मञ
मट
मठ
मड
मडकश
मण
मत
मथ
मद
मदन
मदप
मदय
मध
मन
मनगर
मनप
मनस
मनहल
मप
मफ
मब
मभ
मम
मय
मर
मरग
मरव
मल
मलय
मव
मवरम
मश
मस
मसम
मह
महक
महत
महब
महम
महर
महल
य
यक
यकतय
यकर
यग
यगढ
यच
यज
यटन
यण
यणप
यत
यतघर
यतत
यतय
यथ
यथन
यद
यन
यनय
यप
यब
यम
यमक
यमय
यय
ययन
यर
यल
यलय
यव
यवन
यवस
यवह
यश
यस
यसम
यह
र
रक
रकर
रकल
रख
रखण
रग
रगञ
रगढ
रघ
रङ
रच
रचन
रचल
रचलनय
रछ
रज
रजप
रञ
रट
रड
रण
रणय
रत
रतम
रतय
रथ
रथम
रद
रदर
रध
रन
रनगर
रप
रपत
रफ
रफनगर
रफल
रब
रभ
रम
रमग
रमण
रमय
रय
रर
रल
रलय
रव
रवर
रश
रस
रसन
रसय
रह
रहण
रहर
ल
लक
लकय
लख
लखण
लग
लगभग
लघ
लङ
लच
लज
लट
लड
लत
लद
लध
लन
लनय
लप
लपल
लब
लबस
लभ
लम
लमज
लमड
लमण
लमत
लय
लयय
लर
लल
लव
लवर
लश
लस
लह
लहन
लहर
ळ
ळक
व
वइ
वइग
वक
वख
वग
वच
वज
वट
वड
वण
वत
वतन
वतनत
वद
वध
वन
वनपर
वनय
वनस
वप
वब
वभ
वम
वय
वयम
वर
वरकद
वरच
वरण
वरप
वरय
वरलक
वल
वलथल
वलय
वळ
वव
वश
वस
वसन
वसप
वसफ
वह
श
शक
शङ
शजय
शत
शतय
शद
शन
शनय
शप
शब
शम
शय
शर
शल
शव
शवर
शश
शह
शहर
शहरय
शहरयग
ष
षक
षण
षणय
षत
षद
षन
षम
षमत
षय
षयय
षर
षरत
स
सक
सकत
सकल
सख
सग
सगढ
सगढय
सगरम
सङ
सच
सज
सञ
सट
सड
सण
सत
सतप
सतह
सद
सदर
सदरम
सदस
सन
सनय
सनल
सप
सफ
सफल
सब
सभ
सम
समय
समर
समस
सय
सर
सरक
सरग
सरस
सल
सव
सस
सह
सहर
सहस
ह
हक
हज
हट
हड
हण
हत
हथ
हद
हन
हनतय
हनप
हप
हब
हम
हय
हर
हरद
हरन
हरप
हल
हव
हस
हसन
़
ऽ
ऽक
ा
ि
ी
ु
ू
ृ
ॄ
ॅ
ॆ
े
ै
ॉ
ॊ
ो
ौ
्
ॐ
॑
॒
॓
ॗ
ॠत
ॢ
।
॥
०
००
०००
००००००
०१
०२
०३
०४
०५
०६
०८
०९
१
१०
१००
१०००
१०१
१०२
१०२०
१०३
१०४
१०५
१०६
१०७
१०७४
१०८
१०९
१०९७
१०९८
११
११०
११०४
१११
१११८
११२
११२०
११२४
११३
११४
११५
११६
११७
११८
११९
१२
१२०
१२१
१२२
१२३
१२४
१२५
१२६
१२७
१२८
१२९
१३
१३०
१३१
१३२
१३२३
१३२६
१३३
१३४
१३४७
१३५
१३६
१३७
१३८
१३९
१४
१४०
१४१
१४२
१४३
१४४
१४५
१४६
१४७
१४८
१४९
१५
१५०
१५१
१५२
१५३
१५४
१५५
१५६
१५७
१५८
१५९
१६
१६०
१६१
१६२
१६३
१६४
१६५
१६६
१६७
१६८
१६८२६
१६९
१७
१७०
१७१
१७२
१७३
१७४
१७५
१७६
१७७
१७८
१७९
१८
१८०
१८१
१८२
१८३
१८४
१८५
१८६
१८७
१८८
१८९
१९
१९०
१९१
१९२
१९३
१९३४
१९३५
१९३६
१९३७
१९३८
१९३९
१९४
१९४०
१९४१
१९४२
१९४३
१९४४
१९४५
१९४६
१९४७
१९४८
१९४९
१९५
१९५०
१९५१
१९५२
१९५३
१९५४
१९५५
१९५६
१९५७
१९५८
१९५९
१९६
१९६०
१९६१
१९६२
१९६३
१९६४
१९६५
१९६६
१९६७
१९६८
१९६९
१९७
१९७०
१९७१
१९७२
१९७३
१९७४
१९७५
१९७६
१९७७
१९७८
१९७९
१९८
१९८०
१९८१
१९८२
१९८३
१९८४
१९८५
१९८६
१९८७
१९८८
१९८९
१९९
१९९०
१९९१
१९९२
१९९३
१९९४
१९९५
१९९६
१९९७
१९९८
१९९९
२
२०
२००
२०००
२००१
२००२
२००३
२००४
२००५
२००६
२००७
२००८
२००९
२०१
२०१०
२०११
२०२
२०२५
२०२७
२०२८
२०२९
२०३
२०३०
२०४
२०५
२०६
२०७
२०८
२०९
२१
२१०
२११
२१२
२१३
२१४
२१५
२१६
२१७
२१८
२१९
२२
२२०
२२१
२२२
२२३
२२४
२२५
२२६
२२७
२२८
२२९
२३
२३०
२३१
२३२
२३३
२३४
२३५
२३६
२३७
२३८
२३९
२४
२४०
२४१
२४२
२४३
२४४
२४५
२४६
२४७
२४८
२४९
२५
२५०
२५१
२५२
२५३
२५४
२५५
२५६
२५७
२५८
२५९
२६
२६०
२६१
२६२
२६३
२६४
२६५
२६६
२६७
२६८
२६९
२७
२७०
२७१
२७२
२७३
२७४
२७५
२७६
२७७
२७८
२७९
२८
२८०
२८१
२८२
२८३
२८४
२८५
२८६
२८७
२८८
२८९
२९
२९०
२९१
२९२
२९३
२९४
२९५
२९६
२९७
२९८
२९९
३
३०
३००
३०१
३०२
३०३
३०४
३०५
३०६
३०७
३०८
३०९
३१
३१०
३११
३१२
३१३
३१४
३१५
३१६
३१७
३१८
३१९
३२
३२१
३२२
३२३
३२४
३२५
३२६
३२७
३२८
३२९
३३
३३१
३३२
३३३
३३५
३३६
३३७
३३८
३३९
३४
३४१
३४२
३४३
३४४
३४५
३४६
३४७
३४८
३४९
३५
३५०
३५१
३५२
३५३
३५४
३५५
३५६
३५७
३५८
३६
३६०
३६१
३६२
३६४
३६५
३६६
३६७
३६८
३६९
३७
३७१
३७२
३७३
३७५
३७६
३७७
३७८
३७९
३८
३८०
३८१
३८३
३८४
३८५
३८६
३८७
३८८
३८९
३९
३९१
३९५
३९६
३९७
३९८
३९९
४
४०
४००
४०१
४०३
४०६
४०८
४०९
४१
४१०
४११
४१२
४१५
४२
४२६
४३
४३१
४३३
४३६
४३७
४३९
४४
४४१
४४२
४४६
४४९
४५
४५४
४५८
४५९
४६
४६१
४६२
४६४
४६५
४६६
४६९
४७
४७३
४७४
४७५
४७६
४८
४८४
४८५
४८८
४८९
४९
४९२
४९८
५
५०
५००
५०१
५०५
५०६
५०८
५१
५१४
५२
५२४
५२९
५३
५३१
५४
५५
५५२
५६
५६३
५७
५७७
५७९
५८
५८०
५८१
५९
६
६०
६१
६२
६३
६३३
६३८५९६
६३९
६४
६५
६५४
६६
६७
६८
६९
६९५
७
७०
७१
७२
७२७
७३
७४
७५
७५३
७६
७७
७८
७९
७९२
८
८०
८००
८०७
८१
८२
८३
८४
८५
८६
८७
८८
८९
९
९०
९१
९२
९३
९४
९५
९६
९७
९८
९९
॰
র
া
্
க
ங
ச
ஜ
ட
ண
த
ந
ன
ப
ம
ய
ர
ற
ல
ள
ழ
வ
ஷ
ஸ
ா
ி
ீ
ு
ூ
ெ
ே
ை
்
ం
క
గ
చ
జ
ట
డ
ణ
త
ద
న
ప
పల
బ
భ
మ
య
ర
ల
ళ
వ
శ
ష
స
హ
ా
ి
ీ
ు
ూ
ృ
ె
ే
ొ
ో
ౌ
్
ౖ
ೆ
್
ം
ഈ
ഒര
ക
കള
ഖ
ഗ
ങ
ങള
ച
ജ
ഞ
ട
ഡ
ണ
ത
ഥ
ദ
ധ
ന
പ
ഫ
ബ
ഭ
മ
യ
ര
റ
ല
ള
ഴ
വ
ശ
ഷ
സ
ഹ
ാ
ി
ീ
ു
ൂ
ൃ
െ
േ
ൈ
്
൧
ั
้
་
ས
​
‌
‍
‎
–
—
‘
’
“
”
†
•
…
′
″
№
→
↔
↷
−
∗
③
④
⑦
⺀
⺄
⺆
⺈
⺊
⺌
⺕
⺝
⺸
⺼
⿰
⿱
⿲
⿳
⿴
⿵
⿶
⿷
⿸
⿹
⿺
⿻
〢
コ
ユ
㇁
㇂
㇄
㇇
㇈
㇉
㇓
㐁
㐄
㐅
㐌
㐫
㐬
㐭
㐮
㐱
㑒
㒵
㒸
㒼
㓁
㓞
㔾
㕛
㕣
㖾
㘝
㚅
㚇
㚔
㚘
㝉
㝡
㝴
㝵
㞋
㞢
㞷
㠩
㠭
㠯
㡀
㡭
㡿
㢲
㢴
㣇
㣺
㥯
㪅
㫄
㫐
㫒
㫺
㬅
㬎
㬥
㬰
㲋
㳄
㷠
㸒
㸚
㸦
㼌
㼲
㽞
㿟
䀠
䂞
䍃
䏍
䒑
䖍
䖒
䖝
䖵
䙴
䚻
䜌
䝿
䡛
䧹
䪞
一
丁
丂
七
丄
丅
丆
万
丈
三
上
下
丌
不
与
丏
丐
丑
专
且
丕
世
丘
丙
业
东
丞
丢
丣
两
严
並
丨
丩
个
丫
丬
中
丮
丰
丱
串
丵
丶
丷
丸
丹
为
主
丽
丿
乀
乂
乃
久
乆
乇
么
义
之
乌
乍
乎
乏
乐
乑
乔
乖
乗
乘
乙
乚
乛
乜
九
乞
也
习
乡
乳
乾
亀
亅
了
亇
予
争
事
二
亍
于
亏
亐
云
互
亓
五
井
亘
亚
亜
亞
亟
亠
亡
亢
交
亥
亦
产
亨
亩
享
京
亭
亮
亯
亰
亲
亳
亶
亷
人
亻
亼
亾
仁
今
介
仌
从
仐
仑
仒
仓
仕
他
付
仝
代
令
以
任
企
伊
伏
伐
休
会
伯
但
位
何
佘
余
作
佥
使
來
侈
侌
侖
侯
侵
便
保
俞
信
修
倉
倍
候
倠
備
僉
僕
儿
兀
允
兂
元
兄
充
兆
兇
先
光
兊
克
兌
免
兑
兒
兓
兔
党
兜
兟
入
全
兩
兪
八
公
六
兮
兰
共
关
兵
其
具
典
兹
兼
冀
冂
冃
冄
内
冈
冉
冊
冋
册
再
冎
冏
冐
冒
冓
冖
冗
冘
军
农
冝
冡
冥
冫
冬
冷
几
凡
凢
凵
凶
凷
凸
凹
出
函
凾
刀
刁
刂
刃
刄
刅
分
切
刍
刑
刕
刖
列
刘
则
初
別
利
别
到
制
刺
則
削
剌
前
剡
剽
劉
力
功
加
劦
助
劫
劳
劵
勃
勇
勉
勒
動
務
勞
勤
勹
勺
勻
勾
勿
匀
匂
包
匆
匈
匊
匋
匍
匕
化
北
匚
匝
匡
匪
匱
匸
匹
区
医
匽
匿
區
十
卂
千
卄
卅
卆
升
午
卉
半
卌
华
卑
卒
卓
单
卖
南
卜
卝
卞
占
卡
卢
卣
卤
卦
卩
卪
卬
卯
印
危
即
却
卵
卷
卸
卻
厂
厃
厄
历
厈
厉
厌
厓
厘
厚
原
厤
厥
厨
厭
厲
厶
厷
厸
去
厼
厽
叀
参
參
叅
又
叉
及
友
双
反
叐
发
叒
叔
叕
取
受
叚
叜
叟
口
古
句
另
叩
只
召
可
台
叱
史
右
叵
号
司
叹
吂
各
吅
合
吉
吊
吋
同
名
后
吏
向
吕
君
吝
吞
否
含
启
吳
吴
吹
吾
呂
呆
呈
告
员
呙
周
命
咅
和
咎
咠
咢
咨
咸
咼
哀
品
哉
員
哥
哲
唐
商
啇
問
啚
啬
啻
善
喜
喬
單
喿
嗇
噩
嚴
囊
囗
囘
囙
囚
四
回
囟
因
囧
囬
困
囱
囷
固
国
圂
圅
國
圍
圓
土
圡
圣
圥
在
圭
地
圶
圼
坐
坒
坚
坴
垂
垔
垚
埀
埋
埶
執
基
堂
堅
堆
堇
堯
塞
墨
壘
士
壬
壯
声
壳
壴
壹
壺
壽
夂
处
夅
夆
备
夊
夋
夌
复
夏
夒
夕
外
夗
夘
多
夜
夢
大
夨
天
太
夫
夬
夭
央
失
夲
头
夷
夸
夹
夻
夾
奂
奄
奇
奈
奉
奎
奏
奐
契
奓
奔
奚
奞
奠
奢
奥
奭
女
奴
奻
好
如
妄
妙
妟
妥
妻
妾
姑
委
姜
威
娄
婁
婴
嬰
嬴
子
孑
孔
孕
孖
字
存
孚
孛
孝
孟
季
孤
学
孫
孱
學
宀
宁
宂
它
宅
宇
守
安
宋
完
宏
宓
宗
官
定
宛
宜
宝
客
宣
室
宮
宰
害
家
容
宾
宿
寄
寅
密
富
寒
察
寧
審
寫
寬
寮
寸
对
寺
寻
寽
対
寿
封
尃
射
将
將
專
尉
尊
尋
尌
對
小
少
尒
尓
尔
尖
尗
尚
尞
尢
尣
尤
尧
尨
尭
就
尸
尹
尺
尻
尼
尽
尾
尿
局
居
屈
屋
屎
屏
屑
展
屖
屚
属
屠
屡
屬
屮
屯
屰
山
屵
屾
岁
岂
岑
岡
岩
岳
岸
峯
島
崇
崑
崔
崖
崙
崩
嵬
嶲
巂
巛
川
州
巟
巠
巢
巤
工
左
巧
巨
巩
巫
差
己
已
巳
巴
巷
巸
巽
巾
巿
帀
市
布
希
帚
帛
帝
带
師
席
帶
常
干
平
年
幵
并
幷
幸
幺
幻
幼
幽
幾
广
広
庄
床
底
店
庚
府
度
庫
庭
庶
康
庸
廉
廌
廛
廣
廩
廴
延
廷
建
廾
廿
开
弁
弃
弄
弇
弋
式
弓
弔
引
弗
弘
弜
弟
弥
弦
弱
張
強
强
彊
彌
彎
彐
彑
当
彔
录
彖
彗
彡
形
彥
彦
彧
彭
彳
役
彼
往
待
律
徒
得
徙
從
復
微
徵
心
忄
必
忌
忍
志
忝
忠
忩
快
念
忽
忿
思
怠
急
怱
恆
恒
恩
恭
息
悉
患
悤
悲
悶
惠
惡
惢
愁
愈
意
愛
感
慈
慧
慮
憂
憲
應
戀
戈
戉
戊
戋
戌
戍
戎
成
我
戒
戔
或
戚
戠
戢
截
戲
戶
户
戹
戼
戾
房
所
扁
扇
手
扌
才
打
托
执
承
折
拉
拜
拿
掌
推
提
摩
支
攴
攵
收
攸
改
放
政
敄
敏
敕
敖
敗
敝
敞
敢
散
敦
敫
敬
数
敷
數
斂
文
斉
斊
斗
斤
斥
斩
斬
斯
新
方
於
施
斿
旁
旋
族
无
旡
既
旣
日
旦
旧
旨
早
旬
旱
旲
时
旾
昆
昇
昌
昍
明
昏
易
昔
昗
昜
星
春
昬
是
昱
昴
昷
時
晃
晋
晏
普
景
晶
智
暑
暴
曇
曩
曰
曲
曳
更
曷
書
曹
曼
曾
替
最
朁
會
月
有
朋
服
朔
朕
朗
望
朝
木
朩
未
末
本
札
朮
术
朱
朵
朶
朿
杀
杏
杜
束
条
来
東
杲
杳
松
析
林
枚
果
枝
枲
枼
某
柔
查
柬
柰
柴
栗
桀
桑
桼
梁
條
梟
梨
棘
棠
棥
森
楚
業
楽
榮
樂
樊
欠
次
欣
欮
欲
欶
欽
款
歆
歇
歛
止
正
此
步
武
歨
歪
歮
歯
歰
歲
歴
歷
歸
歹
歺
死
殳
段
殷
殸
殹
殺
殻
殿
毋
毌
母
每
毒
比
毕
毚
毛
毳
氏
氐
民
气
氣
水
氵
氶
氷
永
氺
氾
求
汝
汞
江
沃
沓
沙
沝
泉
法
波
泣
泥
泰
洛
洪
活
派
流
浦
浪
浮
淡
淮
清
渚
渠
湯
滿
漸
火
灬
灭
灰
灵
灷
炅
炎
炏
炗
炙
炭
為
烈
烏
烝
焉
無
焦
焱
然
煞
熊
熏
燕
營
燮
爪
爫
爭
爯
爰
爱
爲
爵
父
爻
爽
爾
爿
片
牙
牚
牛
牜
牟
牢
牧
牪
牽
犀
犬
犭
犮
狂
狄
狊
独
狺
猋
猒
猪
献
獻
玄
率
玉
王
玟
玨
珎
班
琴
瑟
瑩
瓜
瓦
甘
甚
生
産
用
甫
甬
田
由
甲
申
电
甶
男
甸
甹
画
甾
畀
界
畏
畐
留
畜
畟
畢
畧
畨
番
畫
異
畱
當
畺
畾
疊
疋
疌
疑
疒
疾
癶
癸
癹
登
發
白
百
皀
皃
的
皆
皇
皋
皐
皕
皮
皷
皿
盃
盆
盇
盈
益
盍
盎
监
盒
盖
盛
盡
監
盤
盧
目
直
相
盾
省
眇
眉
看
眔
眞
真
眷
眼
眾
着
睘
睪
睿
瞏
瞢
瞿
矍
矛
矞
矢
矣
知
矦
短
石
破
碎
磊
磨
示
礻
礼
祟
票
祭
禀
禁
禸
禹
禺
离
禽
禾
禿
秀
秃
秉
秋
科
秝
秦
移
稟
穀
穌
穴
究
穹
空
穿
突
窄
窒
立
竒
竜
竝
竟
章
童
竹
笑
笠
筆
等
答
箕
算
箴
節
篤
篭
米
粉
粛
粟
粤
粦
粲
糞
糸
糹
系
約
納
素
索
紫
累
細
絜
絫
絲
維
綿
縣
繇
纍
纟
缶
网
罒
罔
罕
罗
罙
罡
罢
罪
署
罷
羅
羊
羌
羍
美
羔
羕
羗
羞
羡
羣
群
義
羲
羸
羽
翁
翏
習
翕
翟
翠
翼
老
耂
考
者
耆
而
耎
耑
耒
耳
耴
耶
耷
聂
聊
聖
聚
聶
聿
肀
肃
肅
肉
肖
肙
肥
肩
肯
育
肴
胃
背
胡
胥
能
脊
脩
膚
臣
臤
臧
自
臬
臭
臯
臱
至
致
臺
臼
臽
臾
臿
舀
舂
舄
與
興
舉
舌
舍
舛
舜
舞
舟
般
艮
良
色
艸
艹
艾
芒
芔
芬
芮
花
芳
芺
芻
苔
苗
苟
若
苦
英
茶
茸
荅
草
荒
荣
荼
莆
莧
莫
莽
菆
菊
菐
華
萬
落
葉
著
葛
董
葵
蒙
蒦
蒼
蓋
蓬
蓺
蔑
蔡
蕉
蕭
薄
薛
薦
薰
藍
藏
藥
蘭
虍
虎
虐
虒
虔
處
虖
虗
虘
虚
虛
虜
虞
虫
虽
蚤
蚩
蜀
蜜
蟲
蠡
血
行
衍
衛
衣
衤
表
衮
衰
袁
袞
褭
褱
襄
襾
西
覀
要
覃
見
規
覓
覧
親
覽
见
角
解
言
訁
訇
計
詹
誩
諸
讠
谷
豆
豈
豊
豐
豕
豖
豙
象
豦
豩
豪
豸
貇
貝
貞
貟
負
貢
貧
貪
貫
責
貳
貴
買
費
賁
資
賈
賏
賓
賔
賛
賞
賢
賣
質
賴
贊
贝
贡
责
贯
贲
贵
赖
赞
赤
赦
走
越
足
路
蹇
身
躬
車
軍
軎
軟
輦
车
辛
辜
辟
辥
辰
辱
農
辵
辶
边
达
过
近
连
迷
追
退
送
逆
逐
通
速
造
逢
連
逮
進
遀
遂
過
道
達
遣
適
遷
遺
邊
邑
邕
那
邦
邪
郎
部
郭
都
鄉
酉
酋
配
酓
釆
采
里
重
野
量
金
釒
錢
钅
長
镸
长
門
閃
閉
開
閏
閑
閒
間
閔
閵
閻
闌
门
间
闷
阑
阜
阝
阿
降
陳
隆
隊
隋
隡
隨
隱
隶
隹
隺
隻
隼
隽
难
雀
雁
集
雈
雋
雍
雐
雔
雙
雚
雜
雝
離
難
雨
雩
雪
雲
零
雷
需
霍
霜
霝
霞
霸
靈
靑
青
非
靡
面
靣
革
韋
韦
韭
韯
韱
音
頁
頃
項
須
頗
頡
頻
顛
页
風
风
飛
飞
食
飠
養
饣
首
香
馬
馮
駦
马
骨
高
髟
鬥
鬯
鬲
鬼
魚
魯
鮮
鱼
鲁
鳥
鳳
鸟
鹵
鹿
麃
麗
麥
麦
麻
黃
黄
黍
黎
黑
黒
黨
黹
黽
黾
鼎
鼓
鼠
鼻
齊
齋
齐
齒
齿
龍
龙
龜
龟
龠
龰
龱
龴
龵
龶
龷
龸
龹
者
艹
﻿
？
𑐂
𑐎
𑐐
𑐔
𑐖
𑐚
𑐜
𑐟
𑐠
𑐡
𑐣
𑐥
𑐦
𑐧
𑐩
𑐫
𑐬
𑐮
𑐰
𑐳
𑐴
𑐵
𑐶
𑐸
𑐾
𑑂
𑑄
𑑋
𠀁
𠀃
𠀆
𠀉
𠀎
𠀐
𠁁
𠁣
𠂆
𠂇
𠂈
𠂉
𠂊
𠂋
𠂎
𠂒
𠂔
𠂛
𠂡
𠂢
𠂤
𠂬
𠂭
𠂹
𠃊
𠃋
𠃌
𠃍
𠃎
𠃑
𠃓
𠃔
𠃜
𠄌
𠄎
𠄠
𠄢
𠆢
𠆥
𠇍
𠈌
𠌵
𠓜
𠔉
𠔥
𠔼
𠔽
𠔿
𠕀
𠕁
𠕋
𠘧
𠘨
𠙻
𠙼
𠚏
𠚒
𠚤
𠚪
𠣏
𠤎
𠤕
𠥓
𠦄
𠦑
𠦝
𠧒
𠧗
𠧪
𠩺
𠪚
𠫓
𠫔
𠫤
𠬛
𠬝
𠬞
𠬢
𠬤
𠬶
𠮛
𠮦
𠮷
𠯑
𠱠
𠳮
𠷎
𡈼
𡉀
𡉵
𡌥
𡍮
𡏳
𡕒
𡕩
𡕰
𡖅
𡗗
𡗜
𡘆
𡘤
𡧱
𡨄
𡩧
𡬠
𡭽
𡰣
𡰥
𡰪
𡰯
𡰱
𡷈
𡸁
𡿨
𡿩
𡿪
𡿺
𢀖
𢀛
𢀩
𢁙
𢆉
𢆰
𢆶
𢇁
𢇇
𢉖
𢌬
𢌿
𢏚
𢑑
𢑚
𢖻
𢙣
𢛳
𢦏
𢦒
𢧵
𢼄
𢾕
𣁋
𣄼
𣅀
𣅽
𣍘
𣎳
𣎵
𣏋
𣏼
𣗥
𣥂
𣥖
𣦵
𣦼
𣧄
𣪊
𣪠
𣬉
𣳾
𣶒
𤇾
𤊽
𤐫
𤓰
𤔔
𤕨
𤣩
𤰇
𤰔
𤰞
𤴓
𤴔
𤽄
𥁑
𥁕
𥃦
𥃩
𥃭
𥇡
𥑟
𥘅
𥘈
𥝢
𥫗
𥱡
𦈢
𦉪
𦉬
𦉼
𦍌
𦍒
𦎧
𦐇
𦓔
𦔮
𦘒
𦙃
𦚏
𦣝
𦣞
𦣻
𦥑
𦥔
𦥯
𦨉
𦭝
𦰩
𧆞
𧈧
𧘇
𧰨
𧴪
𧴮
𧵩
𧾷
𨸏
𨾴
𩙿
𩠐
𩫏
𩵋
𪉷
𪜀
𪟽
𪠲
𪩲
𫇦
𫔭
𫜸
𫝀
𫠣
𫠩
𫢉
𫥞
𫩏
𫩠
𫪡
𫲽
𫶧
𬀷
𬐘
𬗌
𬙙
𬛸
𬜯
𬟩
𬯁
𬴘
𬺻
𬼉
𬼖
𭀰
𭁈
𭁨
𭅰
𭑈
𭕄
𭗼
𭤨
𭥫
𭻾
𮅕
𮊿
𮍌
𮍏
𮓗
𮥼
𮧮
廾
𰀁
𰀄
𰀈
𰀉
𰀕
𰀠
𰀡
𰀢
𰀪
𰁜
𰃮
𰆊
𰆘
𰋙
𰕎
𰢴
𰧭
𰯲
10--
12--
13--
14--
15--
16--
17--
18--
19--
20--
4--
5--
6--
9--
a--
ab--
ac--
aca--
accord--
ad--
additi--
al--
am--
an--
anci--
anim--
ar--
as--
associ--
au--
b--
ba--
bar--
be--
beg--
bi--
bl--
bo--
br--
bu--
c--
ca--
cal--
ch--
cha--
char--
chemic--
cl--
co--
col--
con--
cont--
conta--
coord--
copy--
cr--
d--
da--
de--
di--
diagnos--
direc--
dis--
dist--
dr--
du--
e--
ed--
eff--
elevati--
eng--
establ--
estim--
ex--
exp--
ext--
f--
fa--
fe--
fi--
fin--
fl--
fo--
footb--
fr--
frequ--
fu--
g--
ga--
ge--
gi--
giv--
go--
gr--
gre--
h--
ha--
har--
he--
hippocr--
ho--
i--
im--
in--
ind--
individu--
induc--
intern--
ir--
is--
it--
j--
ja--
jap--
je--
jo--
k--
ka--
kh--
l--
la--
le--
lea--
li--
lo--
lu--
m--
ma--
maj--
mar--
mat--
me--
mem--
met--
mi--
min--
miner--
mo--
mu--
n--
na--
ne--
net--
ni--
norm--
o--
oce--
ongl--
op--
operati--
or--
orig--
p--
pa--
paint--
pati--
pe--
per--
physic--
pi--
po--
pol--
pr--
pri--
pro--
prod--
publis--
qu--
r--
ra--
re--
rec--
regi--
rep--
res--
resp--
ri--
ro--
rom--
s--
sa--
sc--
sch--
scient--
se--
secti--
ser--
sh--
si--
sim--
sm--
soci--
sp--
st--
str--
su--
sub--
sur--
symp--
t--
ta--
te--
tech--
temper--
th--
to--
tr--
tra--
traditi--
trans--
tri--
ty--
u--
un--
v--
vi--
vol--
w--
we--
wh--
wi--
wom--
wr--
x--
y--
z--
अ--
अल--
अस--
आ--
इ--
ई--
उ--
उप--
ऊ--
ऋ--
ऎ--
ए--
ऐ--
ऑ--
ऒ--
ओ--
औ--
क--
कन--
कम--
कर--
कल--
ख--
ग--
गर--
घ--
ङ--
च--
छ--
ज--
जन--
जम--
जय--
झ--
ञ--
ट--
टन--
ठ--
ड--
ढ--
ण--
त--
थ--
द--
ध--
न--
प--
पल--
फ--
ब--
बर--
भ--
भर--
भल--
म--
मन--
मर--
मल--
य--
यव--
र--
रत--
ल--
ळ--
व--
वन--
वर--
श--
ष--
स--
सन--
सर--
ह--
हन--
हर--
ऽ--
०--
००--
०१--
०२--
०३--
०४--
०५--
०६--
०८--
०९--
३३--
३७--
३९--
४०--
४१--
४२--
४३--
४४--
४५--
४६--
४७--
४८--
४९--
५०--
५१--
५२--
५३--
५४--
५५--
५६--
५७--
५८--
५९--
६०--
६१--
६२--
६३--
६४--
६५--
६६--
६७--
६८--
६९--
७०--
७१--
७२--
७३--
७४--
७५--
७६--
७७--
७८--
७९--
८०--
८१--
८२--
८३--
८४--
८५--
८६--
८७--
८८--
८९--
९०--
९१--
९२--
९३--
९४--
९५--
९६--
९७--
९८--
९९--
அ--
க--
ச--
த--
ப--
ம--
வ--
క--
గ--
త--
న--
మ--
ల--
അ--
ആ--
ഇ--
എ--
ക--
ച--
ട--
ത--
ന--
പ--
മ--
യ--
ര--
ല--
വ--
സ--
--0
--00
--1
--2
--3
--4
--5
--6
--66
--7
--8
--9
--96
--a
--able
--ad
--ai
--al
--am
--an
--aphy
--ar
--ard
--ary
--ation
--b
--ble
--c
--ce
--ces
--ch
--ck
--ct
--cts
--cy
--d
--da
--di
--ding
--ds
--e
--ear
--ect
--ed
--ef
--el
--ely
--er
--ern
--ers
--es
--ese
--ess
--ey
--f
--ful
--g
--ge
--gle
--gs
--h
--ha
--ht
--i
--ia
--ial
--ian
--ic
--ica
--ice
--ics
--id
--ie
--ies
--il
--ing
--ion
--ions
--is
--ity
--ive
--j
--k
--ke
--ks
--l
--ld
--le
--ledge
--ler
--li
--ll
--logy
--ls
--lt
--lts
--ly
--m
--ma
--me
--ment
--ms
--my
--n
--na
--nce
--nd
--ne
--ng
--nia
--ns
--nt
--nts
--o
--od
--ol
--ology
--oms
--or
--ose
--out
--ow
--p
--pe
--pur
--r
--ra
--rd
--re
--red
--res
--ri
--ria
--ric
--rs
--rt
--ry
--s
--se
--ss
--st
--t
--ta
--tal
--tary
--te
--ted
--ter
--ters
--ti
--tic
--tion
--tive
--tle
--tly
--try
--ts
--ty
--u
--uce
--ue
--um
--ur
--urces
--ure
--us
--v
--ve
--w
--x
--y
--z
--ई
--क
--ख
--ग
--ङ
--च
--ज
--ञ
--ट
--ड
--ढ
--ण
--त
--थ
--द
--ध
--न
--प
--फ
--ब
--भ
--म
--य
--र
--ल
--ळ
--व
--श
--स
--ह
--०
--०१
--०२
--०३
--०४
--०५
--०६
--०७
--०८
--०९
--१
--११
--१२
--१३
--१४
--१५
--१६
--१७
--१८
--१९
--२
--२१
--२२
--२३
--२४
--२५
--२६
--२७
--२८
--२९
--३
--३१
--३२
--३३
--३४
--३५
--३६
--३७
--३८
--३९
--४
--४१
--४२
--४३
--४४
--४५
--४६
--४७
--४८
--४९
--५
--५१
--५२
--५३
--५४
--५५
--५६
--५७
--५८
--५९
--६
--६१
--६२
--६३
--६४
--६५
--६६
--६७
--६८
--६९
--७
--७१
--७२
--७३
--७४
--७५
--७६
--७७
--७८
--७९
--८
--८१
--८२
--८३
--८४
--८५
--८६
--८७
--८८
--८९
--९
--९१
--९२
--९३
--९४
--९५
--९६
--९७
--९८
--९९
--ర
