!
"
#
##0
##1
##10
##11
##12
##13
##14
##15
##16
##17
##18
##19
##2
##20
##21
##22
##23
##24
##25
##26
##27
##28
##29
##3
##30
##31
##32
##33
##34
##35
##36
##37
##38
##39
##4
##40
##41
##42
##43
##44
##45
##46
##47
##48
##49
##5
##50
##51
##52
##53
##54
##55
##56
##57
##58
##59
##6
##60
##61
##62
##63
##64
##65
##66
##67
##68
##69
##7
##70
##71
##72
##73
##74
##75
##76
##77
##78
##79
##8
##80
##81
##82
##83
##84
##85
##86
##87
##88
##89
##9
##90
##91
##92
##93
##94
##95
##96
##97
##98
##99
%
&
'
(
)
*
+
,
-
.
/
0
000
01
02
03
04
05
06
07
08
09
1
10
100
101
109
11
110
119
12
120
124
126
128
13
135
14
15
16
17
18
1848
1852
1877
1888
1889
1892
1894
1896
1897
19
1901
1902
1903
1904
1905
1906
1907
1908
1909
1910
1911
1912
1913
1914
1915
1916
1917
1918
1919
1920
1921
1922
1923
1924
1925
1926
1927
1928
1929
1930
1931
1932
1933
1934
1935
1936
1937
1938
1939
1940
1941
1942
1943
1944
1945
1946
1947
1948
1949
1950
1951
1952
1953
1954
1955
1956
1957
1958
1959
1960
1961
1962
1963
1964
1965
1966
1967
1968
1969
1970
1971
1972
1973
1974
1975
1976
1977
1978
1979
1980
1981
1982
1983
1984
1985
1986
1987
1988
1989
1990
1991
1992
1993
1994
1995
1996
1997
1998
1999
2
20
200
2000
2001
2002
2003
2004
2005
2006
2007
2008
2009
2010
2011
2012
2013
2014
2015
2016
2017
2018
2019
2020
2021
2022
21
210
218
22
221
226
23
24
244
245
25
26
27
28
289
29
3
30
300
31
32
33
34
35
36
37
38
39
4
40
400
41
42
43
44
45
46
47
477
479
48
5
50
500
51
52
53
55
56
57
59
6
60
600
61
62
63
64
65
68
7
70
73
7448
759
8
81
82
83
84
85
86
88
9
90
900
92
93
95
970
978
98
999
:
;
<
=
>
?
@
[
\
]
^
_
a
abderhalden
abel
abelan
able
about
absorbo
ac
academy
action
ad
adi
aditione
adjektives
administratione
administrative
administrativi
adolf
adverbies
adversarie
aeroplane
afere
aferes
afganistan
afrika
afrikal
afrikani
afrikansum
after
aftru
again
agrikulture
ahlberg
ahlstedt
ai
ais
aise
aje
akademial
akademie
akita
akitania
akorde
akseleratione
aksepta
akte
aktione
aktiveso
aktivesos
aktivi
aktiviste
aktivitate
akto
aktora
aktoro
aktos
al
alan
albania
albert
ales
alexander
alfabete
alfred
algebra
algeria
ali
alianse
alienor
alighieri
alkemiisto
all
alma
alois
along
also
alti
altres
altri
altrilok
altrim
altris
am
amatole
amayuba
amb
ambi
america
american
amerika
amerikan
amerikanes
amerikani
amerikano
amerikas
amiko
aminim
amino
amo
amour
amphora
an
analiso
analiti
anatomia
anc
and
andora
andre
angeles
anglesi
angli
anglia
anglim
anglo
anglum
animale
animales
animalia
ankara
anke
ankore
anna
anno
anode
anonyme
ansieni
antarktika
ante
antei
anteim
anteu
anthony
anti
antiles
antiqui
antoine
antologie
anton
antropologia
aomori
apaches
apari
aparid
apartena
aplika
aplikat
aplikati
aplikatione
aplikationes
apre
aprile
apud
aque
arabes
arabi
arabum
aragonum
archive
archived
are
area
areas
argentina
argumente
aristote
aritmetike
arizona
armee
armenia
armes
aromanum
arrhenius
arte
artes
article
artikle
artikles
arts
aruba
arverni
arvernia
arvernium
arvernum
as
asemblee
aserbaijan
aserte
asia
asian
aside
asides
association
astrobiologia
astrofisike
astrologia
astronome
astronomes
astronomia
astronomial
astronomo
at
atake
atitude
atlanti
atmosfere
atome
atomes
atomi
au
audi
august
auguste
augustin
augusto
aus
auschwitz
australasia
australia
australiani
austria
austrian
austriani
autonomi
autonomous
autora
autore
autoritates
auvernia
auxiliari
auxiliary
avan
avec
aves
awards
ayn
azerbaijan
b
ba
baard
baartman
bacon
baeyer
baiji
balonpede
ban
bangladesh
bantual
barandovska
barcelona
barker
barnard
barselona
basal
basat
base
bases
basi
batalie
baumeister
baur
bavaria
baye
be
beaufront
beauvoir
been
beethoven
begin
beijing
bela
belarus
belgia
beli
beliz
belo
bende
benedicta
beograd
berger
berlin
bernard
bernoulli
berry
besona
besonat
best
bi
bible
biden
binari
binomial
binomialim
bioinformatike
biokemie
biologes
biologia
biologial
birmania
blanchet
blanki
bli
blid
blu
board
boccoli
bojanala
bon
boni
bonim
book
books
boole
bopirima
borde
boris
bosnia
botanike
both
botle
boxe
boxes
boxing
boxo
boyle
br
branche
brase
brasilia
brasiliani
break
breede
bremen
bretonum
britani
briti
brown
broz
bu
budapest
budisme
bulgaria
burundi
but
by
c
ca
can
cantal
capital
carl
carre
catalunya
ce
census
central
cervantes
cetacea
ch
chad
chadwick
chaki
chambre
chambres
chanja
chanjad
chanjo
chanjos
charles
charlotte
che
chef
chefe
chefi
chefim
chefo
chekia
chekoslovakia
chevalier
chiba
chicago
chile
china
chinani
chinum
chiroptera
choose
chordata
chris
christian
chu
ci
cia
cibber
city
clayton
clovis
co
code
col
collection
com
commission
commons
commonscat
como
completes
con
considered
copy
corre
cosmoglotta
costalago
countries
country
couturat
cultura
cun
curitiba
d
da
dakota
dal
dalmatum
dani
dania
danjere
dante
danum
dar
das
data
datumes
david
davy
day
de
dea
debye
dees
defense
defini
definit
dek
deklinationes
dekyare
del
delfine
dels
dem
demanda
demarcation
demokrati
den
denove
denseso
deo
departamente
departemente
dependa
depos
der
deriva
derivat
des
desembre
desfasil
desimal
deskovra
deskovrad
deskovrat
deskovro
deskripte
deskriptet
determina
devan
deve
developa
developal
developat
developo
deveni
devenid
dextri
dez
di
dialekte
dialektes
dictionary
did
die
dies
diferant
diferanti
diferenti
difero
diktature
dikte
dikted
diktet
dinah
direktere
direkti
direktione
direktiones
dis
disdi
dise
dises
disi
diskreti
displaystyle
distinkte
distinktet
distribut
distributi
distributione
distributiones
district
distrikte
distriktes
disu
disum
ditions
diversi
diviset
divisione
divisiones
dna
do
document
dodoma
domat
don
dona
donad
doppler
doris
dr
druides
du
duanti
ducation
due
duesmi
duime
duko
duktere
dumil
dunke
duopli
duran
durant
durante
duvivier
e
east
eastern
easy
ed
eden
edgar
edicions
editione
editore
edukatione
edward
edwin
efekte
efektes
egali
egiptanes
egipti
egiptia
ehlanzeni
ein
einstein
ek
eklesie
ekologia
ekonomi
ekonomia
ekonomike
ekuruleni
ekvada
el
election
electoral
elekta
elekte
elekted
elektione
elektiones
elektionure
elektri
elektrode
elektromagneti
elektrone
elektrones
elemente
elementes
els
em
embriologia
eme
emil
emirates
emperere
en
encyclopedia
end
energie
engineering
english
ensemble
ensembles
ensimes
entrai
envada
environmental
environmente
episkopo
episodes
epistle
epoke
equador
equatione
equivalenti
erik
es
esad
esed
esentialim
eser
esmi
espan
esperanto
est
establi
este
esti
estis
estonia
estu
et
etc
etekwini
etimologia
eukaryota
euklidan
eur
eurial
euro
europa
europan
europani
europe
european
evangelie
even
eventa
eventad
eventes
evita
evolu
evolutional
evolutionari
evolutione
ex
examina
exemple
exemplim
exept
exista
existad
expektati
experienties
explika
explosione
exprese
expresione
extensione
exter
extremi
extremum
f
fa
facto
fad
faire
fake
fakes
fakte
faktim
fala
falios
falsi
familie
famosi
faraono
farbenspiel
fasie
fat
fayard
fe
februare
federal
federali
federation
felde
fema
femas
feminin
feminini
feminisme
fenomenes
ferni
feste
fighting
figures
filia
filies
filio
filios
filipines
film
filmal
filme
filmes
filosofe
filosofes
filosofia
filosofial
filosofo
fin
fina
final
finale
fine
fini
finiti
finlande
finni
firenze
firmin
fischer
fisikal
fisike
fisikiste
fisikisto
fisiologia
fisiologial
flage
flages
flags
flexione
florence
florida
fluvie
foix
fonda
fondad
fondat
fondatione
foneme
fonemes
fonetike
fonologia
fonte
for
forma
formal
formation
forme
formes
formule
forsan
forse
forses
forti
fortrese
foye
foyes
fr
frac
franc
franca
france
frances
francis
franco
frank
fransanes
fransani
fransi
fransia
fransianes
fransiani
fransim
fransum
frases
fratra
fratro
fre
frederick
frege
french
frequentim
frequently
friedrich
fro
from
fronte
frui
fu
fukuoka
fukushima
fundamental
fundamente
funktione
futbale
future
futuri
g
ga
gaetsewe
galaxie
galaxies
gali
galia
galianes
galiani
gamma
gamow
gana
ganad
gangemi
garde
gariep
gase
gases
gaston
gauteng
gaza
ge
gelbi
genal
gene
general
generali
generalim
generally
generatione
genes
geneti
genetike
genomike
genre
genres
genu
geografia
geologia
geometri
geometria
geometriki
geometrikim
george
georges
georgia
german
germanes
germani
germania
germanidi
germano
germanum
germany
gert
gestapo
gibraltar
gifu
gilbert
giles
gini
globasa
glosa
go
godal
godel
golda
gomz
google
gottlob
gov
governe
government
governo
gqabi
gradu
gradualim
gradus
gramatike
grand
grande
grandi
granta
gravitational
gravitatione
grekes
greki
grekia
grekim
grekum
grinlande
grupe
grupes
guangxi
guere
guernsey
guvernere
guyana
h
ha
habita
habitantes
hachette
had
haiti
hamburg
hani
hans
harold
harry
has
hasardal
hause
havad
have
haved
havent
hawaii
haß
he
heart
heinrich
helena
helene
help
helpa
helpo
helsinki
heme
henri
henricus
henry
heredo
hermann
hertsegovina
herzegovina
hi
hidrogene
hills
hipotese
hir
his
histoire
historia
historial
historical
historie
history
hitler
ho
hobite
hoff
hokkaido
hoku
holmes
homal
homaro
home
homes
homme
hong
honore
honshu
hores
houston
how
howard
however
html
http
https
hu
hubble
humphry
hunan
hungaria
i
iala
ich
id
idee
idees
identi
identim
idiom
ido
ie
if
ii
iii
il
ilembe
illinois
im
imdb
imi
imperie
important
importanti
in
ina
include
includes
independent
independenti
india
indiana
indika
individus
indo
indochina
indochinoise
indonesia
industrial
industrie
inertia
infiniti
infinitive
inflektiones
info
information
informatione
infty
injenieria
inkluse
inklusent
inkluset
inquesto
insendie
insted
institute
instruktione
inter
interaktos
intereso
interete
interlingua
interlingue
international
internationale
internationali
internet
interni
interpretatione
interslavum
introdukted
invalid
inventere
inventero
iones
iprage
irak
iran
irani
irgi
irgitem
irlandani
irlande
is
isaac
isbn
island
islande
islands
isle
isles
israe
israel
israeli
istanbul
istme
istrum
it
itali
italia
italian
italiani
italianum
italum
its
iv
ivan
j
ja
jack
jacob
jacobus
jacques
james
jan
janeiro
januare
january
japan
japani
japanum
japon
japonani
jean
jersey
jespersen
jesu
jesus
jeta
ji
jira
joan
joe
johann
johannesburg
john
jordan
jorne
jornes
jose
joseph
josephus
josip
jpg
jr
judo
jugoslavia
jules
julia
julie
julien
june
junie
junkte
jupitere
jure
jurnale
k
ka
kabe
kad
kagoshima
kaj
kakadu
kalagadi
kalifornia
kam
kanada
kanale
kand
kandidate
kansai
kanta
kantera
kantere
kantes
kanto
kantone
kantos
kape
kaprikorn
karaktere
karakterisat
karate
karbo
kardinal
kariere
karl
karte
karu
kastele
kasu
katalani
katalanum
katalise
katalunia
kateb
katod
katode
katolikes
katoliki
kausa
kause
kazakhstan
ke
kel
kelen
keles
kelke
kelkes
kelki
kelkifoy
kelkitem
kelti
kemial
kemie
kemiiste
kemiisto
ken
kenneth
kepler
kessel
ki
kick
kickboxing
kilometres
kim
kingdom
kiprus
kirke
kirkeslavum
kiyev
klari
klarim
klase
klasifika
klasifikatione
klasiki
klein
klube
klubes
km
ko
koldi
kolektione
kolonie
kolore
kolpe
kolpes
kom
kombate
kombates
kombina
komensa
komensad
komensim
komenso
komerse
kometes
komoros
komparo
kompleti
komplexi
komposi
komposit
kompositione
komprenda
komprendo
komputal
komto
komun
komuneso
komuni
komunie
komunies
komunika
komunikatione
komunim
komunistes
komunisti
komutativ
kon
konarski
konduite
kong
kongrese
konjugationes
konosa
konosat
konosata
konosati
konsepto
konserna
konsidera
konsiderad
konsiderat
konsista
konstrukte
konstruktet
konstrukteti
konstruktione
kontena
konter
kontinente
kontinentes
kontinua
kontinuad
kontinui
konto
korali
kordie
korea
korean
koreani
korekti
koresponda
korpore
korpores
korte
korzybski
koses
kosmoglott
kosmologia
kosovo
kosum
kovra
kovre
krea
kread
kreat
kreati
kreatione
kreatore
kreda
kredad
kredo
kredos
kresko
kristani
kristanisme
kristiani
kristo
kroatia
kulta
kulture
kum
kun
kurdes
kurente
kurmanji
kurso
kurt
kurti
kwazulu
københavn
l
la
labora
laborad
labore
laboreres
laboro
ladinum
laffont
laibach
lambda
lan
land
lande
landes
language
languages
larji
lars
las
lasa
lasad
last
lasti
latere
latin
latini
latinidaj
latinidi
latinim
latino
latinum
latvia
law
le
left
lefte
lefti
legal
lege
leges
leipzig
lejweleputswa
lekte
lekwa
len
lenin
lenn
lentim
leonardo
leone
lerna
lerno
les
lesedi
lesen
leste
let
leti
letre
lev
lewis
lexike
lexique
li
lia
liber
libereso
liberi
libia
libre
libres
life
lige
liguri
ligurum
limitat
limpopo
lin
lincoln
lingua
lingual
lingue
lingues
linguiste
linguistes
linguistike
linie
liour
liste
literalim
literari
literatura
literature
litere
literes
lituania
live
ljubljana
lo
logikal
logike
logikiste
loglan
logos
lokal
lokali
loke
lokes
lombardum
lon
london
longi
los
lou
louis
love
low
lu
lublin
luca
lude
ludere
luderes
ludes
lum
lume
lumine
lun
lune
lunes
lunges
lus
lusen
luxemburg
luxemburgia
m
ma
maa
madrid
mafikeng
main
major
majoritate
makedonia
maladi
malaysia
malgre
mali
mallorca
malta
malti
mamiferes
mammalia
man
mandela
manere
maneres
manja
mantena
manu
map
maral
marcel
mare
maria
marie
marilyn
marita
mark
marshale
marte
martial
martie
martin
marx
mary
mas
mase
massiac
matematikal
matematike
matematikiste
matematikistes
matematikisto
material
materie
materies
mathrm
matra
mauriac
maurice
max
maxim
maximilien
maye
mbeki
mbox
me
medalie
medi
medie
medieval
medieve
medike
medisine
medium
mekanike
mekanismes
membre
membres
men
mende
mensu
mensus
merkurie
meros
mesopotamia
mesuro
metode
metodes
metropoli
metropolitan
metsweding
mexiko
mey
mgcawu
mi
michel
mie
mier
miguel
mikhai
mikri
mikrobal
mikrobes
mikrobiologia
mil
milano
miliones
milital
militari
milite
milke
min
mine
minim
ministere
ministre
ministro
mise
mistral
mites
mitologia
mitologial
mo
mode
modela
modeles
modern
moderni
modiari
mofutsanyane
moissan
mol
moldova
molekulal
molekular
molekule
molekules
moll
monako
mondal
monde
mondiali
monegaskum
monete
moneye
mongoli
mongolia
monroe
monsieur
monte
montenegro
montes
montra
montrat
moon
mopani
more
morfeme
morfologia
mori
morid
morie
morio
moroko
mortimer
mos
moskva
moteo
mova
movant
movo
movos
moyen
mozarabum
mpumalanga
mu
mulliken
mult
multe
multes
multi
multim
multiplikatione
multum
munde
municipal
municipality
mus
musee
musike
muss
mute
mutu
muzike
my
myanmar
n
na
nagano
namakwa
name
names
namibia
napole
naska
naskad
naskat
naskita
nasko
natal
national
nationali
nationes
nato
natural
naturali
naturalisti
nature
nc
nchen
ncia
nd
ndebelum
ne
nebula
nederlandani
nederlande
nega
negativ
negativi
negri
nek
nelson
neptune
nesesari
net
netboxe
netherlands
neur
neutral
neutri
neutrone
neutrones
new
news
newton
ng
nh
nha
ni
nia
nicolas
niels
nightingale
nigri
niigata
nin
ninesmi
nivele
nkangala
nm
no
nobel
noe
nokte
noktes
noma
nomad
nomat
nombre
nombres
nombro
nome
nomes
nomine
nomisat
non
nondependanti
nor
nord
norda
norde
nordi
nordu
normal
north
norvegi
norvegia
nos
not
note
nov
nova
novembre
novi
novial
novialide
novialides
novialiste
novialistes
novlingue
now
nr
nu
nuit
nukleus
nukleusal
nul
nuli
nun
nuni
nunim
nur
nus
nusen
nussbaum
nzo
o
ob
obama
objekte
objektes
obres
observational
observere
obtena
oc
occidental
occidentalistes
occupied
ocean
oceania
octobre
od
of
ofensive
official
ofisial
ofisiali
ofisialim
ofte
often
ohio
ois
oklahoma
oksitanum
oktobre
okupa
ol
oldi
omega
omna
omne
omnes
omni
omnum
on
onb
once
ond
one
online
only
onsager
opera
operatione
operationes
opinione
or
ordinari
ordinarim
ordine
ordines
org
organi
organisatione
organisationes
organisme
organismes
oriente
original
originalim
origine
ortografia
ortografial
os
osaka
oscar
oseane
oseania
oses
oslo
ostwald
ot
other
otto
ou
ovce
over
overberg
oxford
oxigene
p
pa
pacific
page
pagine
pai
pakistan
palestinian
panama
papere
papo
par
parametre
parametres
parametrisatione
parenti
paris
parla
parlad
parlamente
parlat
parlati
part
parte
partes
partie
partikle
partikles
partikulari
partikularim
partise
partisipa
partisipad
pasa
pasad
pase
pasifiki
past
patres
patrick
patro
paul
paulo
pe
peano
pede
pedes
pensa
pensera
people
per
perda
perfekte
peri
periode
permise
permised
perry
personal
persone
persones
peso
peter
petrolie
petrus
ph
physics
pieds
pierre
pinyin
place
planat
planck
planete
planetes
planlingvoj
plante
plantes
platone
plea
pleni
pleo
plesire
pli
plu
plubonisa
plubonisat
plural
plurale
pluri
plus
plusi
pluto
po
poeme
poemes
poete
poetes
poeto
poings
poisson
poke
pokes
poki
pokim
polise
politi
political
politikal
politike
politikista
politikiste
politikisto
polokwane
poloni
polonia
polve
pop
pople
populari
population
populational
populatione
populationes
popule
populen
popules
populosi
por
port
porta
portad
porte
portion
portugal
portugalum
pos
posibli
positione
positiones
positiv
post
postal
poste
pote
potsdam
pova
povad
pove
povo
povud
poza
pr
praha
praktikal
prc
pre
prefecture
prefekture
prega
premie
premies
prenda
prendad
presente
presidantali
presidante
presidente
presidento
presisi
preske
press
pri
primi
primim
prince
prinsipate
prinsipe
prinsipes
pro
proba
probableso
probablim
probleme
problemes
probo
probos
produkte
produktione
profesional
profesore
profesoro
profile
profundi
projekte
projektes
promote
pronunsati
pronuntia
pronuntiat
proposi
proposid
propositiones
propri
prosedo
prosedos
protected
proteine
proteines
protekta
protestantes
protone
provensale
provensalum
provinces
provinse
provinses
provise
proxim
proximeska
proximi
proximim
pruva
psikologia
psychology
publika
publikat
publikatione
publisad
publisat
pueres
puerto
pugne
pumpa
punkta
punktu
puri
putin
q
qu
qua
qualim
quam
quankam
quantitate
quantitates
quantum
quantus
quar
quaresmi
quatre
que
questione
questiones
qui
quo
quu
quum
r
ra
racontas
radiatione
radies
radike
radikes
radio
rafael
ral
ramsay
ramses
rand
range
rapideso
rapidim
rapiditate
raymond
re
reagan
reaktione
reaktiones
real
reali
reckoned
recognised
records
red
redaktere
redesko
redi
ref
refera
reformad
rega
regal
regali
regia
region
regione
regiones
regle
regles
rego
relapse
relat
relate
relationes
relativim
relativitate
religione
rene
renkontra
renkontrad
representa
republic
republikani
republike
resenti
resentim
resista
resisto
resiva
resivad
resone
resono
responda
resta
restad
reste
resulta
resulte
resultes
results
retorike
retoromanum
retrieved
retro
review
revolte
revolucio
revolutione
revue
rhode
ri
ria
ric
rich
richard
richmond
rick
rife
rifes
rifoy
riga
right
ringe
rio
river
rivere
rna
robert
roberts
robespierre
role
roma
roman
romanchum
romane
romanes
romani
romanikal
romanisatione
rome
ronald
rosa
rose
royal
rumanes
rumani
rumania
rumanum
rusa
rusi
rusia
russia
ruth
s
sa
saarlande
sabatella
sadat
sahara
saint
saitama
sal
sam
sami
samim
samiman
samtem
san
sanderson
sange
sankte
sankti
santa
santiago
sar
sarah
sardinum
satelite
sati
saturne
sava
savat
savo
saxonia
sc
sce
science
sciences
se
sedibeng
segun
sekle
sekles
seku
sekuent
sekuenti
sekukune
sekun
selande
self
selular
selule
selules
semane
semanes
semantike
sembla
semi
sempre
sen
senatane
senate
sense
sent
senteyare
sentral
sentre
sentria
septembre
serbia
sercha
seremonie
serie
sero
serteni
sertim
serva
set
seu
shablones
shake
shizuoka
shore
si
sibande
sie
sielal
siele
siential
sientie
sienties
signale
signe
signifika
signifikad
signifikant
signifikatione
signifiko
sim
simbole
simboles
simili
simone
simpli
simplifikat
simplim
sin
sine
sinioro
sink
sinkesmi
sintaxe
sintese
sir
siria
sirili
sirk
sirku
sirkumdat
sisilum
sisonke
sisteme
sistemes
site
situat
situatione
sivili
six
sixesmi
siyanda
skandinavi
skole
skoles
skotia
skribere
skriptad
skripte
skripted
skriptera
skriptere
skripteres
skriptero
skriptet
slavi
slovakia
slovenia
smi
so
society
soddy
sokrate
sol
soldates
soli
solim
solutione
some
sometimes
son
sont
soologia
soria
sosial
sosiali
sosialisti
sosiete
sosiologia
south
southeastern
southern
soviet
sovieti
spani
spania
spanium
spanum
spatie
spektakle
spesial
spesialim
spesie
spesies
spesifikat
spiral
spirite
sporte
sportes
ss
st
stando
standos
state
states
statistike
statistikes
stats
stelaro
stele
steles
steve
stile
stockholm
stopselclub
stranjeri
street
strukture
struktures
stuart
studente
studia
studiad
studies
studio
studios
studunuo
study
su
sub
subatomi
subfake
subfakes
substantie
substantive
substantives
subtraktione
subu
sud
sude
sudi
suedi
suedia
suez
sufixe
sufixes
suisi
suisia
suksese
sukseso
suksesos
sum
sume
sumo
sumotori
sunal
sundie
sune
suno
suone
suones
super
suposa
sur
sutum
svante
svastike
swatum
switzerland
t
ta
tabo
taekwondo
tag
tailandani
tailande
tajikistan
tal
tali
talim
tallinn
tam
tambo
tamen
tampone
tan
tand
tantim
taolo
tardi
tardim
taxonomie
te
teatral
teatre
teknikes
televisional
televisione
teme
temes
tempe
tempes
template
tena
teoreme
teorial
teorie
teories
teral
tere
teresa
teritorie
teritories
termina
termine
termines
termodinamike
terra
territories
territory
tes
testamente
texas
texte
textes
th
that
the
their
there
they
this
thomas
through
ti
tica
til
time
times
timor
tipe
tipes
title
tito
to
tobago
tokyo
tolkien
topologia
torsten
total
toti
totim
toulouse
tour
tournee
tourneur
tra
traditional
traditionalim
traditione
traduktet
traduktione
trakta
trans
transcontinental
translation
tre
tres
trete
tretes
tri
trianti
trie
triesmi
trinidad
trivium
tro
trotski
trova
trovat
true
ts
tshwane
tswanum
tu
tua
tum
turisme
turkes
turkey
turkia
tv
two
u
ubuntu
ugu
ukraina
ultimi
um
umgungundlovu
umkanyakude
umzinyati
un
und
under
une
unesma
unesmi
unesmim
uni
uniki
union
unionati
unione
unioni
unitate
universal
universe
universitate
universitates
university
up
ural
urane
urbe
urbes
urbete
urey
urgell
us
usa
usad
usani
usant
usat
used
useres
uso
utilisa
utukela
utungulu
v
va
vada
vadad
valahia
vale
valencia
valore
valorosi
van
vanbrugh
vanhanen
var
varia
variable
variables
variantia
varietate
varmi
vatikan
ve
vembe
venda
vendum
venezuela
veni
venid
vente
ventrikle
verb
verbe
verbes
verbs
verdi
veri
verim
veritate
verke
verkes
vers
versione
vespertilies
vespre
veste
vesti
vi
via
vicente
victor
victoria
vida
vidabli
vidal
vie
vietnam
view
vii
viktorie
vilaje
vine
virginia
viro
visita
viva
vivad
vivanti
vivo
voise
vokales
volapu
voli
volid
von
vor
vorde
vordes
vota
votes
voto
vu
vud
vun
w
wade
wahl
wales
walter
war
was
washington
watch
waterberg
we
web
webarchive
website
west
weste
western
westi
westu
what
when
which
who
wien
wiki
wikipedie
wilhelm
wilhelmus
will
william
with
without
wka
wolf
woodard
words
world
www
x
y
yahoo
yamagata
yangon
yare
yares
yarsento
ye
years
yer
yes
yo
york
you
youtube
yunes
yuni
yves
z
zagreb
ze
zf
zo
zone
zu
zulu
zulum
zum
{
|
}
«
°
²
·
º
»
×
đo
ħ
œ
ˈ
ˌ
ː
̀
́
̂
̃
̄
̆
̇
̈
̉
̊
̌
̓
̛
̣
̦
̧
̨
͡
α
γ
κ
λ
μ
ν
π
ς
ω
в
и
्
ா
்
–
—
‘
’
“
”
„
•
…
‪
‬
′
″
₂
↑
→
↔
↷
∑
−
∞
⋯
③
④
⑦
☿
⺀
⺄
⺆
⺈
⺊
⺌
⺕
⺝
⺸
⺼
⿰
⿱
⿲
⿳
⿴
⿵
⿶
⿷
⿸
⿹
⿺
⿻
〢
え
に
も
ん
゙
キ
コ
シ
ス
ト
ネ
フ
ミ
ユ
ラ
㇁
㇂
㇄
㇇
㇈
㇉
㇓
㐁
㐄
㐅
㐌
㐫
㐬
㐭
㐮
㐱
㑒
㒵
㒸
㒼
㓁
㓞
㔾
㕛
㕣
㖾
㘝
㚅
㚇
㚔
㚘
㝉
㝡
㝴
㝵
㞋
㞢
㞷
㠩
㠭
㠯
㡀
㡭
㡿
㢲
㢴
㣇
㣺
㥯
㪅
㫄
㫐
㫒
㫺
㬅
㬎
㬥
㬰
㲋
㳄
㷠
㸒
㸚
㸦
㼌
㼲
㽞
㿟
䀠
䂞
䍃
䏍
䒑
䖍
䖒
䖝
䖵
䙴
䚻
䜌
䝿
䡛
䧹
䪞
一
丁
丂
七
丄
丅
丆
万
丈
三
上
下
丌
不
与
丏
丐
丑
专
且
丕
世
丘
丙
业
东
丞
丢
丣
两
严
並
丨
丩
个
丫
丬
中
丮
丰
丱
串
丵
丶
丷
丸
丹
为
主
丽
丿
乀
乂
乃
久
乆
乇
么
义
之
乌
乍
乎
乏
乐
乑
乔
乖
乗
乘
乙
乚
乛
乜
九
乞
也
习
乡
乳
乾
亀
亅
了
亇
予
争
事
二
亍
于
亏
亐
云
互
亓
五
井
亘
亚
亜
亞
亟
亠
亡
亢
交
亥
亦
产
亨
亩
享
京
亭
亮
亯
亰
亲
亳
亶
亷
人
亻
亼
亾
仁
今
介
仌
从
仐
仑
仒
仓
仕
他
付
仝
代
令
以
任
企
伊
伏
伐
休
会
伯
但
位
何
佘
余
作
佥
使
來
侈
侌
侖
侯
侵
便
保
俞
信
修
倉
倍
候
倠
備
僉
僕
儿
兀
允
兂
元
兄
充
兆
兇
先
光
兊
克
兌
免
兑
兒
兓
兔
党
兜
兟
入
全
兩
兪
八
公
六
兮
兰
共
关
兵
其
具
典
兹
兼
冀
冂
冃
冄
内
冈
冉
冊
冋
册
再
冎
冏
冐
冒
冓
冖
冗
冘
军
农
冝
冡
冥
冫
冬
冷
几
凡
凢
凵
凶
凷
凸
凹
出
函
凾
刀
刁
刂
刃
刄
刅
分
切
刍
刑
刕
刖
列
刘
则
初
別
利
别
到
制
刺
則
削
剌
前
剡
剽
劉
力
功
加
劦
助
劫
劳
劵
勃
勇
勉
勒
動
務
勞
勤
勹
勺
勻
勾
勿
匀
匂
包
匆
匈
匊
匋
匍
匕
化
北
匚
匝
匡
匪
匱
匸
匹
区
医
匽
匿
區
十
卂
千
卄
卅
卆
升
午
卉
半
卌
华
卑
卒
卓
单
卖
南
卜
卝
卞
占
卡
卢
卣
卤
卦
卩
卪
卬
卯
印
危
即
却
卵
卷
卸
卻
厂
厃
厄
历
厈
厉
厌
厓
厘
厚
原
厤
厥
厨
厭
厲
厶
厷
厸
去
厼
厽
叀
参
參
叅
又
叉
及
友
双
反
叐
发
叒
叔
叕
取
受
叚
叜
叟
口
古
句
另
叩
只
召
可
台
叱
史
右
叵
号
司
叹
吂
各
吅
合
吉
吊
吋
同
名
后
吏
向
吕
君
吝
吞
否
含
启
吳
吴
吹
吾
呂
呆
呈
告
员
呙
周
命
咅
和
咎
咠
咢
咨
咸
咼
哀
品
哉
員
哥
哲
唐
商
啇
問
啚
啬
啻
善
喜
喬
單
喿
嗇
噩
嚴
囊
囗
囘
囙
囚
四
回
囟
因
囧
囬
困
囱
囷
固
国
圂
圅
國
圍
圓
土
圡
圣
圥
在
圭
地
圶
圼
坐
坒
坚
坴
垂
垔
垚
埀
埋
埶
執
基
堂
堅
堆
堇
堯
塞
墨
壘
士
壬
壯
声
壳
壴
壹
壺
壽
夂
处
夅
夆
备
夊
夋
夌
复
夏
夒
夕
外
夗
夘
多
夜
夢
大
夨
天
太
夫
夬
夭
央
失
夲
头
夷
夸
夹
夻
夾
奂
奄
奇
奈
奉
奎
奏
奐
契
奓
奔
奚
奞
奠
奢
奥
奭
女
奴
奻
好
如
妄
妙
妟
妥
妻
妾
姑
委
姜
威
娄
婁
婴
嬰
嬴
子
孑
孔
孕
孖
字
存
孚
孛
孝
孟
季
孤
学
孫
孱
學
宀
宁
宂
它
宅
宇
守
安
宋
完
宏
宓
宗
官
定
宛
宜
宝
客
宣
室
宮
宰
害
家
容
宾
宿
寄
寅
密
富
寒
察
寧
審
寫
寬
寮
寸
对
寺
寻
寽
対
寿
封
尃
射
将
將
專
尉
尊
尋
尌
對
小
少
尒
尓
尔
尖
尗
尚
尞
尢
尣
尤
尧
尨
尭
就
尸
尹
尺
尻
尼
尽
尾
尿
局
居
屈
屋
屎
屏
屑
展
屖
屚
属
屠
屡
屬
屮
屯
屰
山
屵
屾
岁
岂
岑
岡
岩
岳
岸
峯
島
崇
崑
崔
崖
崙
崩
嵬
嶲
巂
巛
川
州
巟
巠
巢
巤
工
左
巧
巨
巩
巫
差
己
已
巳
巴
巷
巸
巽
巾
巿
帀
市
布
希
帚
帛
帝
带
師
席
帶
常
干
平
年
幵
并
幷
幸
幺
幻
幼
幽
幾
广
広
庄
床
底
店
庚
府
度
庫
庭
庶
康
庸
廉
廌
廛
廣
廩
廴
延
廷
建
廾
廿
开
弁
弃
弄
弇
弋
式
弓
弔
引
弗
弘
弜
弟
弥
弦
弱
張
強
强
彊
彌
彎
彐
彑
当
彔
录
彖
彗
彡
形
彥
彦
彧
彭
彳
役
彼
往
待
律
徒
得
徙
從
復
微
徵
心
忄
必
忌
忍
志
忝
忠
忩
快
念
忽
忿
思
怠
急
怱
恆
恒
恩
恭
息
悉
患
悤
悲
悶
惠
惡
惢
愁
愈
意
愛
感
慈
慧
慮
憂
憲
應
戀
戈
戉
戊
戋
戌
戍
戎
成
我
戒
戔
或
戚
戠
戢
截
戲
戶
户
戹
戼
戾
房
所
扁
扇
手
扌
才
打
托
执
承
折
拉
拜
拿
掌
推
提
摩
支
攴
攵
收
攸
改
放
政
敄
敏
敕
敖
敗
敝
敞
敢
散
敦
敫
敬
数
敷
數
斂
文
斉
斊
斗
斤
斥
斩
斬
斯
新
方
於
施
斿
旁
旋
族
无
旡
既
旣
日
旦
旧
旨
早
旬
旱
旲
时
旾
昆
昇
昌
昍
明
昏
易
昔
昗
昜
星
春
昬
是
昱
昴
昷
時
晃
晋
晏
普
景
晶
智
暑
暴
曇
曩
曰
曲
曳
更
曷
書
曹
曼
曾
替
最
朁
會
月
有
朋
服
朔
朕
朗
望
朝
木
朩
未
末
本
札
朮
术
朱
朵
朶
朿
杀
杏
杜
束
条
来
東
杲
杳
松
析
林
枚
果
枝
枲
枼
某
柔
查
柬
柰
柴
栗
桀
桑
桼
梁
條
梟
梨
棘
棠
棥
森
楚
業
楽
榮
樂
樊
欠
次
欣
欮
欲
欶
欽
款
歆
歇
歛
止
正
此
步
武
歨
歪
歮
歯
歰
歲
歴
歷
歸
歹
歺
死
殳
段
殷
殸
殹
殺
殻
殿
毋
毌
母
每
毒
比
毕
毚
毛
毳
氏
氐
民
气
氣
水
氵
氶
氷
永
氺
氾
求
汝
汞
江
沃
沓
沙
沝
治
泉
法
波
泣
泥
泰
洛
洪
活
派
流
浙
浦
浪
浮
海
淡
淮
清
渚
渠
湖
湘
湯
滿
漸
火
灬
灭
灰
灵
灷
炅
炎
炏
炗
炙
炭
為
烈
烏
烝
焉
無
焦
焱
然
煞
熊
熏
燕
營
燮
爪
爫
爭
爯
爰
爱
爲
爵
父
爻
爽
爾
爿
片
牙
牚
牛
牜
牟
牢
牧
牪
牽
犀
犬
犭
犮
狂
狄
狊
独
狺
猋
猒
猪
献
獻
玄
率
玉
王
玟
玨
珎
班
琴
瑟
瑩
瓜
瓦
甘
甚
生
産
用
甫
甬
田
由
甲
申
电
甶
男
甸
甹
画
甾
畀
界
畏
畐
留
畜
畟
畢
畧
畨
番
畫
異
畱
當
畺
畾
疊
疋
疌
疑
疒
疾
癶
癸
癹
登
發
白
百
皀
皃
的
皆
皇
皋
皐
皕
皮
皷
皿
盃
盆
盇
盈
益
盍
盎
监
盒
盖
盛
盡
監
盤
盧
目
直
相
盾
省
眇
眉
看
県
眔
眞
真
眷
眼
眾
着
睘
睪
睿
瞏
瞢
瞿
矍
矛
矞
矢
矣
知
矦
短
石
破
碎
磊
磨
示
礻
礼
祟
票
祭
禀
禁
福
禸
禹
禺
离
禽
禾
禿
秀
秃
秉
秋
科
秝
秦
移
稟
穀
穌
穴
究
穹
空
穿
突
窄
窒
立
竒
竜
竝
竟
章
童
竹
笑
笠
筆
等
答
箕
算
箴
節
篤
篭
米
粉
粛
粟
粤
粦
粲
糞
糸
糹
系
約
納
素
索
紫
累
細
絜
絫
絲
維
綿
縣
繇
纍
纟
缶
网
罒
罔
罕
罗
罙
罡
罢
罪
署
罷
羅
羊
羌
羍
美
羔
羕
羗
羞
羡
羣
群
義
羲
羸
羽
翁
翏
習
翕
翟
翠
翼
老
耂
考
者
耆
而
耎
耑
耒
耳
耴
耶
耷
聂
聊
聖
聚
聶
聿
肀
肃
肅
肉
肖
肙
肥
肩
肯
育
肴
胃
背
胡
胥
能
脊
脩
膚
臣
臤
臧
自
臬
臭
臯
臱
至
致
臺
臼
臽
臾
臿
舀
舂
舄
與
興
舉
舌
舍
舛
舜
舞
舟
般
艮
良
色
艸
艹
艾
芒
芔
芬
芮
花
芳
芺
芻
苔
苗
苟
若
苦
英
茶
茸
荅
草
荒
荣
荼
莆
莧
莫
莽
菅
菆
菊
菐
華
萬
落
葉
著
葛
董
葵
蒙
蒦
蒼
蓋
蓬
蓺
蔑
蔡
蕉
蕭
薄
薛
薦
薰
藍
藏
藥
蘭
虍
虎
虐
虒
虔
處
虖
虗
虘
虚
虛
虜
虞
虫
虽
蚤
蚩
蜀
蜜
蟲
蠡
血
行
衍
衛
衣
衤
表
衮
衰
袁
袞
褭
褱
襄
襾
西
覀
要
覃
見
規
覓
覧
親
覽
见
角
解
言
訁
訇
計
詹
誩
諸
讠
谷
豆
豈
豊
豐
豕
豖
豙
象
豦
豩
豪
豸
貇
貝
貞
貟
負
貢
貧
貪
貫
責
貳
貴
買
費
賁
資
賈
賏
賓
賔
賛
賞
賢
賣
質
賴
贊
贝
贡
责
贯
贲
贵
赖
赞
赤
赦
走
越
足
路
蹇
身
躬
車
軍
軎
軟
輦
车
辛
辜
辟
辥
辰
辱
農
辵
辶
边
达
过
近
连
迷
追
退
送
逆
逐
通
速
造
逢
連
逮
進
遀
遂
過
道
達
遣
適
遷
遺
邊
邑
邕
那
邦
邪
郎
部
郭
都
鄉
酉
酋
配
酓
釆
采
里
重
野
量
金
釒
錢
钅
長
镸
长
門
閃
閉
開
閏
閑
閒
間
閔
閵
閻
闌
门
间
闷
阑
阜
阝
阪
阿
降
陳
隆
隊
隋
隡
隨
隱
隶
隹
隺
隻
隼
隽
难
雀
雁
集
雈
雋
雍
雐
雔
雙
雚
雜
雝
離
難
雨
雩
雪
雲
零
雷
需
霍
霜
霝
霞
霸
靈
靑
青
静
非
靡
面
靣
革
韋
韦
韭
韯
韱
音
頁
頃
項
須
頗
頡
頻
顛
页
風
风
飛
飞
食
飠
養
饣
首
香
馬
馮
駦
马
骨
高
髟
鬥
鬯
鬲
鬼
魚
魯
鮮
鱼
鲁
鳥
鳳
鸟
鹵
鹿
麃
麗
麥
麦
麻
黃
黄
黍
黎
黑
黒
黨
黹
黽
黾
鼎
鼓
鼠
鼻
齊
齋
齐
齒
齿
龍
龙
龜
龟
龠
龰
龱
龴
龵
龶
龷
龸
龹
者
艹
？
𠀁
𠀃
𠀆
𠀉
𠀎
𠀐
𠁁
𠁣
𠂆
𠂇
𠂈
𠂉
𠂊
𠂋
𠂎
𠂒
𠂔
𠂛
𠂡
𠂢
𠂤
𠂬
𠂭
𠂹
𠃊
𠃋
𠃌
𠃍
𠃎
𠃑
𠃓
𠃔
𠃜
𠄌
𠄎
𠄠
𠄢
𠆢
𠆥
𠇍
𠈌
𠌵
𠓜
𠔉
𠔥
𠔼
𠔽
𠔿
𠕀
𠕁
𠕋
𠘧
𠘨
𠙻
𠙼
𠚏
𠚒
𠚤
𠚪
𠣏
𠤎
𠤕
𠥓
𠦄
𠦑
𠦝
𠧒
𠧗
𠧪
𠩺
𠪚
𠫓
𠫔
𠫤
𠬛
𠬝
𠬞
𠬢
𠬤
𠬶
𠮛
𠮦
𠮷
𠯑
𠱠
𠳮
𠷎
𡈼
𡉀
𡉵
𡌥
𡍮
𡏳
𡕒
𡕩
𡕰
𡖅
𡗗
𡗜
𡘆
𡘤
𡧱
𡨄
𡩧
𡬠
𡭽
𡰣
𡰥
𡰪
𡰯
𡰱
𡷈
𡸁
𡿨
𡿩
𡿪
𡿺
𢀖
𢀛
𢀩
𢁙
𢆉
𢆰
𢆶
𢇁
𢇇
𢉖
𢌬
𢌿
𢏚
𢑑
𢑚
𢖻
𢙣
𢛳
𢦏
𢦒
𢧵
𢼄
𢾕
𣁋
𣄼
𣅀
𣅽
𣍘
𣎳
𣎵
𣏋
𣏼
𣗥
𣥂
𣥖
𣦵
𣦼
𣧄
𣪊
𣪠
𣬉
𣳾
𣶒
𤇾
𤊽
𤐫
𤓰
𤔔
𤕨
𤣩
𤰇
𤰔
𤰞
𤴓
𤴔
𤽄
𥁑
𥁕
𥃦
𥃩
𥃭
𥇡
𥑟
𥘅
𥘈
𥝢
𥫗
𥱡
𦈢
𦉪
𦉬
𦉼
𦍌
𦍒
𦎧
𦐇
𦓔
𦔮
𦘒
𦙃
𦚏
𦣝
𦣞
𦣻
𦥑
𦥔
𦥯
𦨉
𦭝
𦰩
𧆞
𧈧
𧘇
𧰨
𧴪
𧴮
𧵩
𧾷
𨸏
𨾴
𩙿
𩠐
𩫏
𩵋
𪉷
𪜀
𪟽
𪠲
𪩲
𫇦
𫔭
𫜸
𫝀
𫠣
𫠩
𫢉
𫥞
𫩏
𫩠
𫪡
𫲽
𫶧
𬀷
𬐘
𬗌
𬙙
𬛸
𬜯
𬟩
𬯁
𬴘
𬺻
𬼉
𬼖
𭀰
𭁈
𭁨
𭅰
𭑈
𭕄
𭗼
𭤨
𭥫
𭻾
𮅕
𮊿
𮍌
𮍏
𮓗
𮥼
𮧮
廾
𰀁
𰀄
𰀈
𰀉
𰀕
𰀠
𰀡
𰀢
𰀪
𰁜
𰃮
𰆊
𰆘
𰋙
𰕎
𰢴
𰧭
𰯲
0--
15--
16--
17--
18--
4--
5--
6--
7--
8--
9--
a--
ab--
ac--
ad--
ade--
adop--
af--
afri--
ag--
ai--
ak--
al--
alsa--
alte--
alver--
am--
ama--
an--
ang--
anse--
ap--
ar--
ara--
ari--
arki--
arti--
as--
at--
ata--
au--
auto--
axio--
b--
ba--
bal--
bap--
bar--
bas--
be--
bel--
ber--
bet--
bi--
bio--
bir--
bo--
bombar--
bos--
br--
bri--
bu--
c--
ca--
cal--
cam--
car--
cast--
ce--
cen--
ch--
cha--
champi--
chap--
ci--
cla--
co--
com--
con--
cor--
cr--
cu--
da--
dan--
de--
dek--
depu--
des--
di--
dife--
dig--
dina--
dis--
do--
dok--
dr--
du--
duk--
e--
ed--
ega--
el--
elbo--
elek--
em--
en--
er--
es--
esper--
et--
ex--
exak--
exc--
expansi--
expo--
f--
fa--
fak--
fe--
feli--
fi--
fil--
fir--
flo--
flu--
for--
fou--
fr--
fre--
fu--
g--
ga--
gam--
gan--
gar--
ge--
gi--
giy--
glo--
go--
gr--
gra--
gram--
gre--
gu--
guil--
gus--
h--
ha--
har--
he--
hi--
ho--
hosp--
hu--
i--
il--
im--
in--
indi--
inf--
influ--
ing--
instrumen--
inter--
io--
is--
j--
ja--
je--
ji--
jon--
jor--
jou--
ju--
judi--
k--
ka--
kan--
kap--
kar--
kau--
ke--
ki--
kla--
ko--
kol--
kom--
komba--
kon--
konson--
konst--
kor--
kra--
kres--
kri--
krist--
kroat--
ku--
kultu--
kur--
kus--
kuw--
l--
la--
lau--
laz--
le--
li--
lo--
lu--
luk--
m--
ma--
maga--
mal--
mar--
masku--
mat--
mau--
me--
mem--
mi--
mid--
mix--
mixu--
mo--
mon--
mor--
msu--
mu--
multi--
mus--
n--
na--
nd--
ne--
neder--
ng--
ni--
no--
non--
nor--
nu--
o--
ob--
oc--
occi--
of--
ofis--
ol--
op--
or--
orig--
os--
ot--
ou--
p--
pa--
pal--
par--
pe--
pen--
per--
ph--
pi--
pla--
plan--
po--
poli--
prak--
pre--
presi--
pri--
pro--
profesi--
proven--
pu--
pue--
quar--
r--
ra--
radi--
rati--
re--
ref--
reg--
regu--
resi--
ri--
ro--
rod--
ros--
rou--
ru--
rus--
s--
sa--
sar--
sc--
sch--
se--
ser--
sexu--
si--
sin--
sist--
skrip--
so--
spa--
spe--
spek--
st--
star--
stra--
stu--
su--
sub--
t--
ta--
tar--
te--
tek--
tem--
temp--
ter--
th--
ti--
to--
tor--
tra--
ts--
tu--
u--
ul--
um--
uni--
up--
ur--
v--
va--
val--
ve--
ven--
ver--
vi--
vil--
vin--
vir--
vla--
vo--
vol--
vor--
voya--
w--
wal--
we--
whi--
x--
y--
ya--
ye--
yu--
yugo--
z--
ze--
--0
--00
--1
--2
--3
--4
--5
--6
--7
--8
--80
--9
--a
--ad
--al
--an
--ana
--ane
--anes
--ang
--ani
--ano
--ans
--ant
--ar
--ard
--ari
--at
--ate
--ati
--atione
--ative
--atore
--au
--ay
--b
--ba
--be
--berg
--bli
--bu
--c
--ca
--ce
--ch
--ck
--co
--d
--da
--de
--di
--ditional
--do
--du
--dukte
--dy
--e
--ed
--el
--ember
--en
--ence
--eni
--ense
--entia
--er
--era
--eres
--ers
--es
--eso
--et
--f
--fera
--fero
--fi
--fie
--fika
--foy
--g
--ga
--ge
--ght
--gie
--go
--gre
--gress
--gui
--h
--he
--her
--i
--ia
--ial
--iani
--ic
--id
--ide
--ie
--ier
--ieres
--ika
--ikal
--ike
--im
--in
--ine
--ing
--ings
--ion
--ione
--ions
--ir
--is
--isa
--iso
--iste
--it
--ite
--ity
--iv
--je
--jes
--jo
--k
--ka
--kal
--kat
--ke
--ker
--kes
--ki
--kle
--ko
--ks
--kte
--ku
--kulu
--kurse
--l
--la
--ld
--le
--ler
--li
--lim
--lisme
--ll
--lle
--lli
--lo
--logia
--lok
--ls
--lu
--m
--ma
--man
--mba
--mber
--me
--ment
--mentes
--mes
--mi
--mo
--ms
--n
--na
--nd
--ndi
--ndo
--ne
--nes
--ng
--ni
--nny
--no
--ns
--nse
--nt
--nte
--ntes
--nti
--nto
--num
--o
--oa
--oge
--oges
--ogia
--oi
--ologia
--ology
--on
--onia
--ons
--os
--osi
--p
--pan
--pe
--pele
--pi
--ple
--polis
--r
--ra
--rd
--re
--res
--rete
--rg
--ri
--rie
--rne
--ro
--ros
--rs
--rt
--s
--sa
--sat
--se
--ses
--si
--sia
--sk
--sky
--sme
--smi
--so
--st
--sta
--ste
--sto
--t
--ta
--tad
--tate
--tates
--te
--ted
--tele
--tem
--ten
--tes
--th
--ti
--tia
--tine
--tione
--tiones
--tiv
--tive
--tivi
--to
--tologia
--ton
--tor
--trukte
--ts
--u
--ud
--ult
--um
--ume
--ure
--us
--ute
--ux
--v
--va
--ve
--vi
--vo
--w
--wa
--x
--xi
--y
--ya
--yn
--z
--za
--zi
--zwe
--ο
