!
"
#
##0
##1
##10
##11
##12
##13
##14
##15
##16
##17
##18
##19
##2
##20
##21
##22
##23
##24
##25
##26
##27
##28
##29
##3
##30
##31
##32
##33
##34
##35
##36
##37
##38
##39
##4
##40
##41
##42
##43
##44
##45
##46
##47
##48
##49
##5
##50
##51
##52
##53
##54
##55
##56
##57
##58
##59
##6
##60
##61
##62
##63
##64
##65
##66
##67
##68
##69
##7
##70
##71
##72
##73
##74
##75
##76
##77
##78
##79
##8
##80
##81
##82
##83
##84
##85
##86
##87
##88
##89
##9
##90
##91
##92
##93
##94
##95
##96
##97
##98
##99
$
%
&
'
(
)
*
+
,
-
.
/
0
00
000
001
005
006
01
010
0140
015
016
02
025
03
04
040
05
052
06
061
066
07
070
08
09
1
10
100
1000
1001
1002
1007
101
1016
102
1028
103
1038
104
1046
105
1051
106
1062
107
108
1080
1086
1088
109
11
110
1100
1101
111
1111
112
1121
1126
1128
113
1130
114
1148
115
1152
116
1163
117
118
119
12
120
121
122
1229
123
124
125
126
127
128
129
13
130
1300
1304
131
132
133
134
135
1350
136
137
138
139
14
140
141
142
143
144
1440
145
146
14651858
147
148
149
15
150
1500
1504
151
1510
1516
152
153
154
155
156
157
158
1583
159
16
160
1600
161
162
163
164
165
1650
166
167
168
1680
169
1694
17
170
171
172
173
174
175
1750
1753
1756
1758
176
1763
1768
177
1773
1774
1778
178
1782
1783
1789
179
1790
1791
1792
1794
1797
1798
1799
18
180
1800
1801
1802
1803
1806
1809
181
1810
1812
1814
1815
1818
1819
182
1820
1821
1822
1823
1824
1826
1827
1828
1829
183
1830
1832
1835
1836
1837
1838
1839
184
1840
1841
1842
1843
1845
1846
1847
1848
1849
185
1850
1852
1853
1854
1855
1856
1857
1859
186
1860
1861
1862
1863
1864
1865
1866
1867
1868
1869
187
1870
1871
1872
1873
1874
1875
1876
1877
1878
1879
188
1880
1881
1882
1883
1884
1885
1886
1887
1888
1889
1890
1891
1892
1893
1894
1895
1896
1897
1898
1899
19
190
1900
1901
1902
1903
1904
1905
1906
1907
1908
1909
191
1910
1911
1912
1913
1914
1915
1916
1917
1918
1919
192
1920
1921
1922
1923
1924
1925
1926
1927
1928
1929
193
1930
1931
1932
1933
1934
1935
1936
1937
1938
1939
194
1940
1941
1942
1943
1944
1945
1946
1947
1948
1949
195
1950
1951
1952
1953
1954
1955
1956
1957
1958
1959
196
1960
1961
1962
1963
1964
1965
1966
1967
1968
1969
197
1970
1971
1972
1973
1974
1975
1976
1977
1978
1979
198
1980
1981
1982
1983
1984
1985
1986
1987
1988
1989
199
1990
1991
1992
1993
1994
1995
1996
1997
1998
1999
2
20
200
2000
2001
2002
2003
2004
2005
2006
2007
2008
2009
201
2010
2011
2012
2013
2014
2015
2016
2017
2018
2019
202
2020
2021
2022
203
2048
205
206
207
208
209
21
210
211
212
213
214
215
216
217
218
219
22
220
221
222
223
224
225
226
227
228
229
23
230
2305
2308
231
233
235
236
237
238
239
24
240
241
242
243
244
245
246
247
248
249
25
250
2500
251
252
253
254
255
256
257
258
259
26
260
261
262
263
264
265
266
267
268
269
27
270
271
272
273
274
275
276
278
279
28
280
281
282
283
284
285
286
287
288
289
29
290
291
293
294
295
296
298
299
2999
3
30
300
3000
301
302
303
304
305
306
307
308
309
31
310
311
312
313
314
315
316
3166
317
318
319
32
320
321
322
323
324
325
326
327
328
329
33
330
331
332
333
334
335
336
337
338
339
34
340
341
342
343
344
345
346
347
348
349
35
350
351
352
353
354
355
356
357
358
359
36
360
361
362
363
364
365
366
367
368
369
37
370
371
372
373
377
378
38
380
381
382
383
384
385
386
387
388
389
39
390
391
392
393
394
396
397
398
399
4
40
400
4000
402
405
407
408
41
42
421
422
423
429
43
430
431
434
44
440
442
446
45
450
451
453
455
459
46
460
469
47
470
475
479
48
480
482
483
486
489
49
492
493
496
497
499
5
50
500
5000
504
508
51
52
521
527
53
530
532
533
534
535
536
537
539
54
540
541
544
546
547
548
55
550
555
56
560
563
565
566
567
568
57
570
572
578
58
581
584
59
593
6
60
600
6000
61
610
618
62
622
627
628
63
630
632
634
636
637
639
64
640
642
647
65
650
653
655
66
667
67
670
6736
676
68
683
686
688
69
690
692
693
695
696
7
70
700
7000
703
705
708
71
710
711
718
72
720
73
736
737
74
748
75
750
756
76
762
77
775
78
780
79
8
80
800
8000
802
809
81
815
82
820
828
83
830
833
84
843
846
85
850
857
86
860
87
870
88
880
89
890
891
9
90
900
906
91
910
92
93
930261
94
940
947
95
950
96
97
970
972
973
978
979
98
981
984
99
995
996
9961
999
99959
:
;
<
=
>
?
@
[
\
]
^
_
a
aa
aamruc
ab
aba
ababat
abaggus
abagu
abalessa
abalti
abanɣu
abaraz
abareɣ
abaski
abba
abbas
abd
abdallah
abdar
abdelaziz
abdelkrim
abdellah
abdelmumen
abdelqader
abderrahmane
abdic
abeckid
abeddel
abeh
abelkam
abelkim
abellez
abellireg
aben
abendayer
aber
aberdeɣyul
aberfaw
aberfiw
aberkan
aberni
abernus
aberrah
aberrani
aberzegzaw
abet
abg
abi
abib
abies
abin
abiyen
abizar
abizent
abjed
ableɣ
ablidi
ablug
about
abr
abraham
abranis
abrid
abrit
abruri
abt
abu
abud
abuferriw
abugat
abuniqi
abunsay
aburɣas
aburɣes
abus
abusbis
abxazya
abyannu
abyzanti
ac
aca
acade
academy
acafcal
acalim
acaoh
acaulis
acbayli
accawen
access
accessed
acciwen
acebbub
acebcal
acebh
acemma
acemmek
acengu
acennay
acer
acet
acewwiq
ach
acibar
acicani
acimi
acku
aclag
acrocephalus
acruf
act
actes
action
actrice
actualite
acu
acuɣer
ad
adabu
adad
adafal
adal
adalen
adam
adapte
add
adda
addad
addaden
addal
addar
adday
addi
addit
addition
addud
adebbuz
adebsi
adeffu
adeg
adej
adekran
adelsan
ademraw
aden
ader
aderbal
aderbaɛl
aderyati
aderyis
aderzeggaɣ
adfar
adfel
adgir
adi
adigan
adik
adis
adjed
adlis
administration
adn
adnanas
adobe
adolf
adolphe
adrar
adras
adren
adrim
adris
adriz
adrum
adt
adu
adunati
adur
adventures
adyu
adzayri
adɣa
adɣaɣ
ae
af
afa
afar
afaren
afarent
afares
afaris
afarsi
afaylu
afecku
afekkan
afel
afelfesna
afella
afellay
afelsafi
afelsuf
afeltwacult
afen
afent
afer
aferdis
afessas
affaires
affal
affar
afgan
afi
afimidi
afiniqi
aflan
aflu
afr
afrag
afran
afransis
afraq
afraw
afray
afrensaw
afrensis
africa
africaine
african
afrique
afriw
afriwen
afrux
afsax
aft
after
aftus
afud
afurk
afurmas
afus
afuɣal
afɣanistan
ag
agadez
agadir
agadiz
agafa
agafagmud
agafan
agafataram
agafay
agama
agaman
agaraw
agarsafen
agarwan
agaz
agazay
agbur
agd
agdal
agdef
agdud
age
ageffur
agejdan
ageldan
ageldun
agellid
agellusan
agelmim
agemmay
agemmun
agency
agennaw
agensas
agensay
agensu
agerdas
agermal
agerram
agerru
agerruj
aget
agezdu
agezlan
agezzum
aggad
aggay
aggi
aggur
aggwaca
aggz
agi
agim
agin
agla
aglam
aglay
aglim
aglizi
agmam
agman
agmar
agmmay
agmud
agmudan
agnaw
agni
agnin
agrakal
agraklan
agratraw
agraw
agrawi
agrawli
agrawliw
agraɣlan
agreɣlan
agrigi
agrigur
agris
agronomie
agru
agrud
agrudem
agt
agtul
agu
agumi
agummu
agur
agusim
agwni
agzam
agzum
ah
aha
ahaggar
ahat
ahed
ahendi
aher
ahidr
ahil
ahilen
ahilium
ahir
ahl
ahmed
ahr
ahras
ahric
ai
aime
ain
air
airlines
ais
aise
ait
aix
aj
ajapuni
ajaɣiɣ
ajdid
ajdir
ajeg
ajent
ajenyur
ajgu
ajiniral
ajiyen
ajjed
ajjer
ajr
aju
ajuga
ajun
ak
aka
akabar
akadim
akal
akala
akamruni
akanadi
akar
akat
akatuliki
akayad
akaɣed
akd
akdu
akec
aked
akeffadu
akem
aken
akenni
akent
aker
akfadu
akim
akin
akira
akiwan
akk
akka
akke
akked
akken
akkenni
akkin
akkma
akkw
aklan
aklasik
akli
aknul
akr
akruran
aksel
aksil
aksum
akter
akuc
akud
akukru
akuz
akw
akwd
akwed
al
ala
aladɣa
alah
alala
alalmani
alama
alami
alamma
alammi
alan
alarmi
alaska
alat
alatin
alatini
alba
albanya
albert
albrecht
album
ald
aleb
alec
alectoris
aleh
alemmas
alen
aleqqaq
alexander
alexandre
alez
alfred
alge
alger
algerie
ali
alibi
alice
alim
alin
alit
alite
aljiber
all
alla
allah
allal
allalen
allan
allaɣ
allegoria
allen
allit
allium
allus
alluy
alma
almad
almani
almaniyen
almi
almuggar
aln
aloe
alpaka
alpes
alpha
alqem
alsan
also
alt
alugan
alugen
alullam
alut
aluy
alya
alyan
alyani
alyanit
alzuz
alɣem
alɣu
alɣuɣ
am
ama
amacemma
amad
amadal
amadalan
amaddad
amaddud
amadeus
amadlan
amafag
amagdez
amagnu
amagrad
amagraman
amahil
amakken
amaklas
amal
amalas
amalay
amalu
amalway
aman
amanar
amani
amant
amar
amara
amaranthaceae
amaray
amarikan
amarikani
amarir
amaru
amaruz
amas
amasay
amasih
amaskad
amaskar
amaslad
amassan
amastan
amat
amatu
amawal
amawat
amaway
amay
amayka
amaylal
amaynag
amaynu
amaynut
amaz
amazellaw
amazigh
amazighite
amaziɣ
amazrar
amazray
amazun
amazwar
amazzal
amaɣad
amaɣud
amaɣun
amaɣus
ambul
amcabi
amcic
amd
amda
amdan
amdun
amdya
ame
ameccaq
amecras
amect
amectuh
amecwar
amed
ameddakel
ameddakul
ameddis
amedya
amedyaz
amegrud
amegzu
ameh
amejjay
amek
amekkasu
amekla
ameknas
amekruz
ameksa
amellal
amellay
amellil
amelwi
amemmay
amen
amenferriw
amenhar
amenkad
amenkud
amennuɣ
amensay
amensi
ament
amenukal
amenz
amenzay
amenzu
ameqqr
ameqqran
ameqqren
ameqr
ameqran
amer
america
american
ames
amesfizik
amesgunef
ameskan
ameskar
ameslay
amesnallun
amesnulfu
amessarti
amessuji
amestrisiti
amexwar
ameyyez
amez
amezday
amezdaɣ
amezgun
amezray
amezruy
amezwar
amezwaru
amezyan
amezzay
amezzirez
amezzwaru
ameɛ
ameɣlal
ameɣnas
ameɣras
amg
amgal
amgarad
amgaru
ami
amid
amiddur
amihi
amikr
amila
aminas
amine
amir
amiran
amirika
amirouche
amiz
amizur
amkan
amkuz
amlulli
amma
ammad
ammam
ammar
ammas
ammasen
ammed
ammi
ammomanes
ammud
amnadi
amnay
amnen
amni
amnir
amnukal
amnummes
amnummsan
amnursuy
amour
amper
amqerqur
amqqran
amqun
amr
amrabed
amran
amrarad
amray
amrig
amru
amsafag
amsaylal
amsed
amseddas
amsedrar
amseggas
amsegraw
amseksum
amsektay
amsenɣi
amsetrar
amseɣz
amsisi
amsterdam
amsuget
amsuji
amsulles
amt
amtawa
amtiweg
amu
amud
amuddir
amuddur
amudlif
amugay
amuli
amulli
amun
amunak
amuqran
amur
amurakuc
amuran
amurigam
amusnak
amusnaw
amussnaw
amussu
amwan
amyag
amyaraw
amyaru
amyiwen
amyurar
amz
amzik
amzikan
amzun
amɛiwen
amɣar
amɣaw
amɣus
an
ana
anabad
anacyclus
anad
anaddal
anadi
anaffal
anafi
anafuk
anagar
anagi
anagraw
analman
analyse
analysis
anamak
anamek
anamsad
anamur
anar
anas
anat
anavad
anaw
anaz
anaza
anazur
anbad
anbat
anbaz
anc
ancestry
ancien
ancienne
anciens
and
anda
andalus
andar
anden
anders
andorra
andre
anebdad
anebdu
anect
anecta
aned
anefsar
aneggaf
aneggal
aneggar
aneggaru
aneggez
anegmar
anekcum
anelmad
anembad
anemgal
anemhal
anemlay
anen
anes
anesbaɣur
anessas
anesur
anet
anewrir
anez
anezmar
anezway
anezwi
anezwu
aneɣ
aneɣlaf
aneɣmas
anfa
anfafad
anfaras
anfufed
angal
angaz
angeles
anglizi
anhil
ani
anida
animal
animaux
anime
anin
anisa
anit
aniyen
aniyin
aniyt
anja
anmezray
ann
anna
annar
annay
annaɣ
anne
annect
annecta
annetta
annua
annual
annuf
annuz
anrar
ans
ansa
ansay
ansayan
ansayen
ansi
ansis
ansist
ant
anta
antalas
anthologie
anthony
anthropologie
anthus
antilles
antiquite
antoine
anton
antonio
antraktika
antwan
anumidi
anus
anvidyu
anwa
anwar
anya
anz
anza
anzar
anzaren
anzeggan
anzi
anzul
aou
ap
apache
apartheid
apg
apiaceae
apple
application
apr
apre
april
aq
aqa
aqamum
aqbayli
aqbil
aqbu
aqbur
aqcic
aqdim
aqeddac
aqelqul
aqer
aqerru
aqerruy
aqettal
aqjun
aql
aqlaɣ
aqli
aqmad
aqqa
aqqar
aqrib
aqs
aquilegia
aqur
aquran
aqvayli
aqziz
ar
ara
arab
arabe
arabes
arabic
arakal
aram
arami
aran
aranen
arant
aras
arasen
aratak
araz
arbib
arborea
arbres
arbustes
arch
arche
archimedes
architecture
archive
archived
archives
ard
ardekal
ardekkal
ardeqqal
are
aref
areksim
aren
areq
aresqi
areyya
arez
arezqi
arfa
argaz
argigi
ari
aridal
arif
arig
arim
arin
ariq
ariqa
ariqat
ariri
aristide
aristot
arizona
arjentin
arkawal
arkoun
arkti
arkun
arma
arme
armi
arminya
armud
arnat
arnaud
arrac
arras
arraw
arraz
arrazen
arren
arrif
arris
arriɣed
arrondissements
arryn
art
artemisia
arthur
article
articles
artiste
artistique
arts
aru
aruku
arumani
arumi
arun
aruns
arurad
arusi
arusrid
aruɣ
arvensis
arwas
arway
arxiv
arxmides
arya
as
asad
asafar
asafaylu
asafi
asaflaw
asaflu
asagen
asaka
asalay
asalel
asali
asallaf
asalu
asamar
asammar
asammer
asan
asani
asarag
asaru
asawen
asayes
asaɣur
asduklan
asebdad
asebrurez
asebter
aseddayan
aseflalay
aseflay
asefrek
asefru
asegbar
aseggas
asegget
asegmar
asegt
asegwas
asegzi
aseh
asekcem
asekkil
asekkud
aseklan
asekliw
aseklu
asekraf
aselkim
aselmad
aselmed
aselt
aselway
asemdu
asemmad
asemmam
asemmat
asemmili
asemmit
asemran
asemres
asen
asenfar
aseng
asengam
asensu
asent
asentel
aseqdec
aseqqamu
aser
aserdas
aserdasi
aserdun
asertan
asertay
aserti
aserɣin
aserɣud
asesmel
asewzel
asexdem
aseɣnew
aseɣz
asfel
asfi
asfijjej
asfugel
asgayet
asget
asgunef
asi
asia
asid
asiden
asif
asifliw
asigna
asignew
asin
asinaryu
asirem
asismel
asiwed
asiwel
askeladd
asken
aslem
asmekti
asmel
asmi
asmil
asnas
asnawi
asnegnag
asnudran
asnulfu
aspanyuli
aspects
aspenyul
aspenyuli
asqamu
asqif
asrag
ass
assa
assaɣ
assaɣen
assebded
assed
assefqed
assegas
assegwass
assen
assideg
assileɣ
assmi
associated
association
assufeɣ
ast
asteɛreb
astidiu
astirf
astragalus
astronomy
astrophysical
astrophysics
asudu
asuf
asufeɣ
asugnan
asuji
asun
asunded
asuned
asuqel
asuri
asusru
asut
asutel
asuvyati
aswag
aswir
asya
asɣan
asɣar
asɣim
at
ata
atan
ataram
atas
atem
aten
atena
atent
atergi
aterras
atg
ath
atig
atin
ation
atlantica
atlantique
atlas
atletaz
atma
atmaten
atmelli
atnan
atni
atp
atrar
atraw
atriceps
atriplex
att
attan
attekki
attribut
atunsi
atxaga
au
aucun
aucune
august
auguste
augustin
augustus
aujourd
auparavant
aure
aurelius
aurigaster
aussi
author
authors
auto
automne
autonomie
autre
autres
aux
auxiliary
avant
avec
aventures
averroe
avirus
aviv
avril
aw
awa
awad
awadem
awah
awahri
awal
awalen
awali
awan
awanak
awanek
awanen
awaqqur
awaqur
award
awards
awaziw
awaɣzen
awd
awdan
awed
aweggir
aweh
awen
aweqqas
awertilani
awes
awet
awey
awezlan
awezziw
awezɣi
awh
awi
awin
awiɣ
awlal
awlef
awliwel
awr
awras
awraɣ
awrir
awt
awtem
awtul
awudem
axat
axatar
axeclawan
axeddam
axeddaɛ
axeddim
axemmem
axes
axs
axxam
ay
aya
ayad
ayagi
ayagwar
ayamun
ayan
ayanen
ayat
ayazit
aybi
ayd
ayda
aydeg
aydi
ayeffus
ayefki
ayem
ayen
ayer
ayes
ayet
ayetma
ayfus
aygan
ayi
ayis
ayla
aylal
aylan
ayland
ayman
ayouz
ayt
aywal
ayyi
ayyur
ayyuren
ayɣef
ayɣer
az
azadur
azag
azagir
azaglu
azagur
azal
azalen
azamul
azar
azara
azarug
azawag
azawan
azayez
azayku
azaɣar
azdal
azdar
azday
azedgan
azeffar
azeggaɣ
azegriran
azegza
azegzaw
azekka
azelli
azelmad
azem
azemmur
azemni
azemz
azen
azenzar
azerbijan
azerket
azet
azewwaɣ
azgen
azger
azirdyaw
aziweɣ
azlaf
azlem
azmez
azmul
azr
azrar
azref
azrem
azru
azufan
azuk
azul
azunmenz
azunɣid
azuran
azwaw
azwawaɣ
azwel
azwil
azwu
azzayri
azzug
azɣar
azɣer
aɛawdiw
aɛdaw
aɛebri
aɛeggal
aɛekkur
aɛessas
aɛfer
aɛfir
aɛiraqi
aɛlayan
aɛli
aɛmar
aɛmer
aɛmiruc
aɛqal
aɛr
aɛrab
aɛraben
aɛririg
aɛrur
aɛudiw
aɛumar
aɛut
aɛutmani
aɛyiɣ
aɛziz
aɛzizen
aɣ
aɣanib
aɣara
aɣaras
aɣarim
aɣawas
aɣbal
aɣbalu
aɣella
aɣelluy
aɣelnaw
aɣen
aɣenja
aɣer
aɣerbaz
aɣerbi
aɣerfan
aɣersaw
aɣersiw
aɣesmar
aɣewwiɣ
aɣezfan
aɣezzfan
aɣeɣ
aɣil
aɣilas
aɣisan
aɣlad
aɣlal
aɣlan
aɣlif
aɣmis
aɣr
aɣrab
aɣref
aɣrem
aɣrib
aɣrud
aɣrum
aɣsi
aɣtas
aɣucaf
aɣurar
aɣyay
aɣyul
b
ba
bab
baba
babar
babuc
babur
bac
badis
bag
baga
bah
baha
bahya
baja
bakir
baku
bakunin
bal
bali
balise
balises
ball
balqan
ban
band
bande
banen
banent
bangladec
banu
baptiste
bar
bara
baratheon
barbara
barbarus
barbatus
barika
baron
barra
bas
basayib
base
based
basket
basset
bassin
bat
batent
batna
batnet
battuta
bay
bayern
baynan
bbc
bce
bd
bdan
bdant
bdun
be
bean
beau
beccar
beclul
bed
bedd
bedden
beddlen
beddlent
beddu
beddun
bedren
before
begnan
begsen
beh
bejji
bel
belh
belize
bell
bella
belli
below
belqasem
belt
belɛebbas
belɛid
ben
beni
benjamin
benmuhub
bennay
bennun
bensekran
benxedda
benyan
benyub
benyusef
benzart
benzema
benɛebdelqader
benɛeknun
benɛuf
beqqu
ber
berbe
berber
berg
bergara
berkan
berlin
bern
bernard
berr
berra
berraqi
berreh
berreyyan
berrik
berwageyya
bes
besaɛud
bessam
bessi
bessif
best
bet
beta
betacov
betrun
between
beyond
beyrouth
beyynen
beɛ
beɛd
beɛden
beɣdad
bgayet
bi
bib
bibcode
biber
bibliothe
bibren
bibt
bien
big
bih
bilarusya
bilinguisme
biljik
bill
bin
bine
binen
bins
binyamin
biographie
biography
biology
bir
birds
birin
birtuta
birut
bis
bisekstil
bit
bitt
bizasina
bla
black
blanc
blanche
blida
blog
blogspot
bloody
blue
blues
bnadem
bnan
bni
bnun
bo
body
bohr
bois
boli
bolivia
book
books
bordeaux
bordj
borrow
bos
bosnia
boston
botanique
bou
bouali
bouche
boudiaf
bourdieu
boushaki
bouzid
br
braham
brahe
brahem
brahim
braille
bran
branch
branis
bray
brazil
bre
bretagne
breviarium
brida
brimyan
brit
britannica
british
brizil
brizina
brown
brtv
bru
bruce
brugnatelli
bt
bu
bubeɣla
bubker
bucegguf
buciker
bud
buda
budapest
budinar
budwaw
bufarik
bug
bugarmuh
bugaɛa
bugerra
bugirat
bugt
bugud
buh
buktu
bukus
bulgarya
bulifa
bulletin
bulman
bult
bulunda
buluɣin
bumedfeɛ
bumedyen
bumerdas
bumez
bumlikar
bun
buneggaf
bunura
bunɛama
buqadir
bur
bureau
burg
burgiba
burj
burkina
buruba
burundi
bus
busad
busemɣun
bush
busidi
busif
busmaɛil
busnya
busɛada
busɛid
but
butefliqa
butelg
butlilis
buturin
butwab
buxalfa
buxus
buyeh
buzeyyan
buzgan
buzid
buzina
buɛendas
buɛerfa
buɛic
buɛlam
buɛli
buɛmara
buɛririg
buɛziz
buɣalem
buɣni
buɣrara
bwinan
by
byron
bɣan
bɣiɣ
c
ca
cabh
cad
cadli
caesar
caesaribus
cafaɛ
cafiq
cah
cahiers
caker
calais
calendrier
calendula
california
call
calopteryx
cambridge
camelus
cameroon
cameroun
camil
camille
camp
camps
camus
can
canada
canariensis
candidate
canis
cannes
cap
cape
capital
capitale
caprimulgus
car
carduelis
care
carey
carl
carlina
carlo
carlos
carre
carrie
carte
carthage
casablanca
casbah
case
cassini
castanea
catalogue
cate
catelyn
catherine
caɛban
caɛbi
cbah
cbel
cbirdu
ccah
ccam
ccama
ccambit
ccan
ccaref
ccariɛa
ccbah
ccd
ccedda
cceh
ccehbuneyya
ccek
ccekraɣ
cceqfa
ccer
ccerfa
ccerq
ccetla
ccetwa
cci
ccih
ccin
ccinwa
ccit
ccix
cciɛa
cclef
ccna
ccnawi
ccr
ccraga
ccreɛ
ccriɛa
ccud
ccuhada
ccwal
ccyux
ccɛiba
ccɣel
cd
cdc
ce
cebana
ceccar
cedrus
cellal
cellala
cellalet
celtic
celɣum
cem
cembre
cemmini
cendrillon
cennun
census
centaure
centaurea
center
central
centre
centres
century
cenwa
cercal
cerken
cersei
certhia
cervantes
cesare
cet
cette
ceyyɛen
cf
cfiɣ
ch
cha
chabane
chadli
chaker
champs
chant
chante
chanteur
chaos
chaouia
characteribus
chardon
charente
charge
charles
che
check
chef
cheikh
chelem
chelha
chen
chenopodium
cher
cherif
chez
chi
chicago
children
china
chopin
chris
christian
christopher
chroniques
chœurs
ci
cia
cic
cican
cicunq
cid
cielo
cigan
cili
cilmun
cine
cir
circonscription
cirin
cirta
cirte
cistus
cit
citation
cite
cited
citeref
city
clara
class
classe
classes
classification
classis
claude
claudius
claus
claymore
cldr
cle
clematis
climat
clinical
clos
club
cm
cms
cmurra
cna
cnna
co
code
cole
coll
collaboration
collection
colline
collings
collins
colombia
colonel
coloniale
colonisateurs
colorado
columbia
com
combat
come
comite
comme
comment
commentationes
commerce
commissariat
commission
commons
commun
communaute
commune
communes
communication
communis
communiste
company
comple
comportant
compose
composition
confe
congre
connecticut
conomie
conrad
conseil
conservation
constantine
constitution
construction
consulte
contact
contemporaine
contes
contre
control
convolvulus
cook
coronavirus
correspondante
corse
cos
couleur
couleurs
country
cours
couverte
couverture
cov
covid
cr
crataegus
cre
created
cret
cricetulus
cricetus
crif
crifa
critique
crivains
criɛa
crocodylus
cronquist
cs
ct
ctamber
ctember
ctumber
cu
cudden
cukken
cultive
culture
culturel
culturelle
culturelles
cum
cup
cupressus
current
cut
cwi
cwit
cwiya
cytisus
czech
cœur
cɛayeb
cɛib
d
da
daboia
dacu
daenerys
dagi
dah
dakar
dakk
dakka
dakken
dali
dalil
dallet
dam
dame
damien
damus
dan
dance
daniel
danmar
danmark
dans
daphne
dar
darin
dark
darwin
das
dasin
dat
data
database
date
daucus
david
dawed
dawud
daxel
day
dayen
dayeq
dayin
daymi
days
dayt
daɣ
daɣen
daɣistan
dd
dda
ddabex
ddamus
ddan
ddar
ddaw
ddbila
ddefla
ddel
ddem
ddemma
ddeqs
dderya
ddewla
ddheb
ddin
ddmen
ddren
ddu
dduh
ddukklen
dduklen
ddula
ddun
ddunit
ddunnit
ddur
ddurt
dduɣ
ddwa
de
dead
deadurl
death
debbaɣ
december
decima
deffir
defla
deg
degli
degs
degsen
degsent
deh
dei
del
delete
deletion
delheure
delhi
della
delles
delta
dem
demnat
den
denis
denmark
densite
dent
department
depechedekabylie
depuis
deq
deqqal
deqs
der
derah
dernier
derrag
derɛan
des
desfontaines
deux
deuxie
dg
dges
dgi
dheb
di
dialecte
dialectes
diana
dianthus
dicinales
dictionary
dictionnaire
did
diduc
die
diego
dien
dietrich
differentiis
dihya
dima
dimecq
din
dina
dindin
dinna
dir
direct
directeur
direction
diri
dis
disease
diseases
displaystyle
distance
district
dit
diter
diteur
dith
dition
ditions
divise
division
dix
diɣ
diɣen
djamila
djaout
djazairess
djurdjura
dlen
dna
do
doctorat
documentation
documents
does
dogs
doi
dominique
dominium
don
donne
dont
dos
dot
down
download
dr
dra
draa
drama
drapeau
drarya
draɛ
dreɛ
dris
driwec
droit
droits
drus
drusen
drusilla
ds
du
dubay
dublin
duc
dug
dujamber
dujember
dujenbir
duktur
duktura
dunatus
dunit
dunnit
dur
during
dust
dustur
duveyrier
duz
dwala
dwiret
dz
dzayer
dzzayer
dɣa
e
earth
east
eastern
eau
eb
ebba
ebbar
ebbat
ebber
ebbes
ebbi
ebbren
ebbug
ebh
ebra
ebren
ebs
ebsen
ebsi
ebsiyen
ebt
ebɛa
ec
ecole
ecser
ecuador
ed
edd
eddad
eddada
eddaden
eddard
eddin
edduq
edinburgh
edison
edit
edition
editions
edmen
edmond
edr
edren
eds
edu
education
edward
ef
efen
effects
effren
effun
efk
efr
efra
efren
efrent
efs
efsen
eft
eg
eggal
eggem
egger
eggiden
egwa
eh
ehd
ehden
eiffel
ein
einstein
ek
ekka
ekkmen
ekku
ekkun
ekmen
ekwan
el
elephant
elfa
elh
elizabeth
ella
ellal
ellasa
elle
elli
elsevier
elt
elwatan
elyan
elyani
elyanit
elɛa
em
ember
emberiza
emd
emdan
emed
emile
emlen
emma
emmacen
emmad
emmadeyya
emmadi
emmadiyen
emmam
emmamat
emman
emmanuel
emmed
emmel
emmi
emmic
emmlen
emmleɣ
emmu
emmuda
emnen
empire
empty
emt
emza
emɛa
en
ena
enal
encyclopaedia
encyclope
encyclopedia
encyclopædia
end
endel
enders
enf
enfants
eng
english
ennaca
enne
enni
ens
enseignement
ensis
ensisen
ensist
ent
entertainment
entre
entreprise
entretien
enya
enz
ep
eq
eqq
eqqani
eqranit
eqren
er
erasmus
erba
erbil
ercaw
ercen
erci
erd
eren
erf
erfi
erg
erh
eric
erk
erkit
erkiyen
erma
erman
ermanin
ernest
eroi
erqan
err
errac
errah
erran
errek
erren
errez
erric
erru
erruc
errun
errzen
ers
ersen
ert
erz
erzen
erzent
es
esben
esnawen
esnawi
espace
ess
essai
essaid
est
esyaf
et
etc
ethnic
ethnologue
etta
ettem
ettmen
etude
etudes
eu
euge
euragraw
eure
euro
europaea
europe
european
eutropius
evian
evolution
ew
ewan
ewc
ewt
ewwa
ewwas
ewwes
ewwi
ex
exe
existent
expe
explain
exploration
exposition
expression
extra
extrait
ey
eyya
ez
ezqi
ezzar
ezzouar
eɛ
eɛfer
eɣ
eɣlen
f
fa
fabaceae
face
facebook
fact
factbook
facts
fad
fadma
fakken
falco
falest
familia
famille
family
fan
fantasy
faqen
far
farah
faren
fares
farid
farida
farsen
faru
fas
fasen
faso
fat
fayet
fc
fe
feat
features
february
fecture
fed
federer
fehhmen
fehmen
fekkan
felis
fell
fella
fellag
fellas
fellasen
fellawen
fellawsen
fellaɣ
felli
femme
femmes
fen
fennuɣil
fent
fer
ferdinand
ferg
fergani
ferh
ferhat
feriel
fernen
ferqen
ferru
ferrug
ferɛun
fes
fesna
fessus
fessusen
festival
feu
feuilles
fezzan
ff
ffeɣ
ffren
ffs
ffɣen
ffɣent
fi
fiche
fichier
fiction
ficus
fid
fifa
figure
fih
fikr
filippin
film
films
fin
final
finland
fir
firefox
firmus
first
fis
fist
fkan
fken
fkirina
fkiɣ
flan
flash
flavius
fleurs
fln
florence
florida
flu
flying
folio
fontaine
food
for
forbes
force
forkel
forma
formation
forme
fort
foundation
foureau
fourni
fox
foxes
fr
frac
frah
franc
francais
france
francis
francisco
franco
frank
franking
franklin
frans
fransa
franz
frawsen
fre
frederick
free
frenda
friedrich
frih
frikat
from
front
fsus
fsusen
fu
fud
fuda
fuka
fuku
fullurl
fur
furar
furat
fus
fuɣala
fɣen
g
ga
gabriel
gaeltacht
gaga
gaius
gala
galactic
galement
galerie
galileo
galium
gallica
gallimard
gallus
galma
game
gamma
gan
gandhi
gant
gar
garasen
garde
gassion
gates
gaulle
gauss
gauß
gaya
gayed
gcompris
gdeyyel
gdz
ge
gebren
gecca
geg
geiger
gelden
gellan
gellun
geltet
gelɛet
gemmar
gemmu
gemnen
gen
gene
genera
general
genetic
genetta
genevois
genre
gentis
genus
genzat
geographic
george
georges
georgia
ger
gergur
germah
germany
gerrara
gerruma
get
gezmen
gezzam
gezzmen
ggan
ggaren
ggeɣran
ggten
ggtent
ggug
ggunin
gh
ghef
gher
gi
gigu
gin
ginya
gion
giovanni
girl
gitu
gladiolus
glis
globe
glottolog
gma
gmas
go
goethe
google
gorie
gorien
gosling
gottingensis
gottlieb
gouvernement
gov
gra
grammaire
grammy
gran
grand
grande
grant
grarem
gre
great
green
greenland
gren
gretel
greɣ
grimm
grinland
groenland
group
groupe
gsm
gta
gu
guda
gueliz
guerre
guga
gugar
guide
guinness
gulusa
gulussa
guntarik
guraya
gurzil
gustave
guy
gwatimala
gzam
h
ha
hab
hacem
had
hadj
hafez
hamid
hamla
hamlaoui
hammam
hammarstro
hampshire
han
hanoi
hanoteau
hans
hansel
harald
hard
harmattan
harun
harv
has
haspelmath
hassi
haut
haute
hautes
hauts
have
hawaii
haydn
hbo
he
head
health
heart
heavy
hed
heddren
heinrich
hejlsberg
hell
hellal
help
henna
henri
henry
herbe
herbert
hermann
herschel
herzegovina
herzl
hetfield
hewwari
heyyan
hfr
hibberd
hibel
hicem
hid
hidr
hiempsal
high
hilal
hill
himalaya
hims
himsal
hinan
hip
hirziguvina
his
histoire
historique
history
hitler
hiver
hlal
ho
hoffman
hollywood
holmiae
home
hommage
homme
hommes
homo
honcu
honduras
hong
honneur
hop
horizons
hospital
house
how
hraw
hrawen
htm
html
http
https
huang
huawei
hubei
huda
hudden
hugo
hui
hull
humaines
human
humanite
humu
hunayn
hungarya
huntington
hyaena
i
ia
ib
iba
ibabaten
ibaburen
ibadisen
iban
ibanen
ibardan
ibarɣawaten
ibaskiyen
ibaw
ibawen
ibd
ibda
ibed
ibedd
ibeddel
ibedden
ibeddilen
ibeddlen
ibeddu
ibeddun
ibeldisen
ibelkimen
ibellirg
iben
ibennu
iber
iberdan
iberfiwen
iberkanen
iberniyen
iberraniyen
ibet
ibeɛden
ibin
ibirya
ibis
ibitten
ibiz
ibizent
ibki
ibn
ibrahim
ibrir
ibrit
ibt
ibudraren
ibulisen
iburaɣ
ibureɣsen
iburɣas
ibɣan
ic
icafcalen
icaliyen
icawiyen
icc
icca
icebcalen
icebh
iceggeɛ
icelh
icenga
icennayen
icennu
icennun
icerken
icerɛiwen
icet
iceyyeɛ
iceɣben
icidi
icimat
icinwaten
icna
icuban
icubar
icubranen
icud
icudden
id
ida
idammen
idan
idanen
idawsanen
idda
iddem
idder
iddew
idduklen
ide
ideflawen
ideg
ideggan
idelsanen
iden
identite
iderma
iderman
idernen
idetti
idgan
idgel
idiganen
idir
idiren
idis
idisan
idles
idlisen
idmaren
idmim
idra
idraren
idrasen
idrimen
idris
idrisen
idrusen
idt
iduba
idularen
idum
idumen
idunatiyen
idurar
idwi
idzayriyen
ie
if
ifa
ifadden
ifakk
ifaq
ifarisen
ifasen
ifassen
ifat
ifawatayen
ifaylellisen
ifazen
ifecka
ifehhem
ifek
ifel
ifelasmil
ifellah
ifellayen
ifen
ifer
iferdisen
iferh
iferki
iferr
iferran
iferrawen
ifert
iferɛunen
ifeɣmasen
ifeɣmes
iff
iffer
iffeɣ
ifganen
ifis
ifiɣa
ifka
ifkan
iflacen
iflalen
iflis
iflisen
ifniqen
ifr
ifra
ifran
ifransisen
ifraren
ifrax
ifrensisen
ifriqiyen
ifsan
ifuk
ifukk
ifur
ifurken
ifuyla
ifuɣas
ifɣen
ig
iga
igamanen
igan
igarawen
igarzen
igazen
igber
igburen
igd
igdalen
igduden
igebren
igedfen
igedr
igejdanen
igelliden
igellil
igellilen
igellmen
igellu
igellun
igelman
igelmimen
igem
igemmad
igemmer
igemmun
igen
igenni
igensasen
igenwan
iger
igerbucen
igerdan
igerrez
igerrujen
igerrzen
igerzen
iget
igezda
igezennayen
igezlanen
igezzumen
iggi
ighil
igi
igider
igim
igiman
igimen
igin
iglamen
igli
igliziyen
iglu
igmad
igmamen
igmanen
igmariyen
ignan
ignored
igra
igran
igrawen
igrawliwen
igraɣlanen
igrigiyen
igriken
igriwlen
igt
igtal
igujilen
igumma
igures
iguza
ih
ihad
iheddr
ihegga
ihendiyen
iheyya
ihi
ihig
ihriren
ihudd
ihudden
ii
iii
ij
ijeddar
ijeg
ijehden
ijent
ijer
ijider
ijinumen
ijja
ijjadarmiyen
ijqiwen
ijudar
ijufar
ijuɣaɣ
ik
ikabaren
ikacbaren
ikamruniyen
ikamyunen
ikar
ikat
ikatulikiyen
ikayaden
ikcem
ikecmen
ikemlen
ikemmel
iker
ikerri
ikfa
ikiker
ikikuyuten
ikilumitren
ikilumtren
ikit
ikiyt
ikka
ikkan
ikker
ikkes
ikniwn
ikritiyen
ikruranen
ikruraren
iksilen
ikurdiyen
ikwadur
il
ila
ilal
ilali
ilan
ilaq
ilaqen
ilat
ilatiniyen
ilaw
ildun
ileddayen
ilef
ileh
ilel
ilelli
ilelliyen
ilem
ilemmasen
ilemmed
ilemz
ilemzi
ilen
iles
ilew
ilex
ileɣman
ilha
ilhan
ili
iliktrunen
ilili
ilin
ilint
ilit
iliwi
ill
illa
illan
illant
ille
illel
illi
illin
illinois
illizi
illu
illul
illulen
ilmaten
ilmayen
ilmed
ilmend
ilmendis
ilmez
ilmezyen
ilmi
ilt
ilu
ilugan
ilul
ilula
iluled
ilulen
ilulufen
ilya
im
ima
imac
images
imagraden
imahilen
imakaren
imaklasen
imal
imalas
imalasen
imalen
imalwayen
iman
imanaz
imar
imaren
imarikanien
imarikaniyen
imas
imasayen
imasih
imaslad
imassanen
imawalen
imawat
imawlan
imaynuten
imaz
imazanen
imazellawen
imazighen
imaziɣen
imazrayen
imazzalen
imaɛtuqen
imcac
imceddalen
imceyyeɛ
imd
imdanen
imdb
imdukal
imec
imect
imed
imeddukal
imeddukkal
imeddulen
imedyaten
imedyazen
imedzi
imedɣasen
imegruden
imeh
imejjayen
imeksawen
imelayn
imellalen
imelyan
imelyar
imelyaren
imelyunen
imen
imendiyen
imensi
imenz
imenza
imenzayen
imenɣan
imenɣi
imeqqr
imeqqranen
imeqqren
imeqranen
imerrukiyen
imerwel
imes
imesden
imesdurar
imeshanayen
imesla
imeslayen
imesli
imesnallunen
imessartiyen
imet
imetti
imez
imezdaɣ
imezdaɣen
imezdeɣ
imezdi
imezdiyen
imezgi
imezgiyen
imezrayen
imezwura
imezzayen
imezzi
imezzwura
imeɣlalen
imeɣnasen
imeɣrasen
imeɣrawen
imeɣriyen
imeɣsuyen
imgaraden
imghantensawt
imi
imidduren
imik
imikr
imineg
iminig
iminigen
imir
imira
imiren
imisin
imiyen
imjuhad
imkiren
imkuz
imla
imlal
imlil
imma
immal
immalen
immut
immuten
imnayen
imnummsanen
imnummsen
impe
imperium
imprimerie
imqerqar
imr
imrabd
imrabt
imrawen
imrayen
imrigen
imru
ims
imsawalen
imsed
imsefki
imseggasen
imseksumen
imselleh
imselɣet
imseɣret
imsineg
imssufen
imsuh
imsullsen
imsulta
imsuneɣ
imsut
imt
imtiwgen
imucaɣ
imud
imudar
imudaɣ
imuddiren
imuhal
imuhaɣ
imukan
imula
imunen
imunguliyen
imuqranen
imurar
imuren
imuriyen
imusnawen
imussa
imussnawen
imussuyen
imut
imweh
imyura
imz
imzad
imzdaɣen
imzedaɣen
imzerreg
imzik
imziken
imzuren
imɣan
imɣaren
imɣi
imɣuzen
in
ina
inaddalen
inadi
inadiyen
inagmayen
inagrawen
inalco
inamsaden
inamuren
inas
inawen
inay
inaz
inazuren
inc
incorrecte
inde
index
india
indiana
indic
indica
indicus
indige
indunisya
industrie
ine
inebgi
ined
inefɛen
ineggura
inegmaren
inegmi
inegren
inek
inelmaden
inembad
inemlayen
ineqqen
ines
ineslem
inet
inez
inezggan
inezgi
inezwa
ineɣ
ineɣmasen
infect
infection
influence
influenced
influenza
info
infobox
information
informatique
infraclassis
infraordo
infraphylum
infraregnum
infusen
infzawen
ingliz
ingliziyen
ini
inig
inigen
inijel
inin
inisi
init
initen
iniyen
iniɣ
injil
inna
innexsys
inni
innulfan
inselmen
institut
institute
instituteurs
institutions
insurrection
int
inte
intellectuels
intelligence
interdit
international
internationale
internet
interview
into
intramuros
introduction
inu
inuda
inumak
inumaz
inumiden
inurar
inuva
inz
inzan
inzaren
inzaten
inzer
inɣan
inɣerfel
io
ion
ip
iprage
iq
iqamumen
iqbayliyen
iqburen
iqdec
iqdimen
iqedcen
iqeddacen
iqeddcen
iqeddec
iqeddicen
iqeddsen
iqellalen
iqen
iqerben
iqerra
iqert
iqqar
iqqaren
iqqim
iqqimen
iqt
ir
ira
iran
iraq
iraten
irawen
ircam
irden
irebh
irebraben
irefden
ireg
ireggmen
irekden
ireland
irem
iren
irennu
ires
irewlen
irezzun
irfed
irg
irgazen
iri
irifiyen
irin
iris
irland
irlanda
irlande
irlandi
irlandiyen
irmadduden
irmuden
irna
iron
irra
irt
iruh
iruka
irumaniyen
irumiyen
irumyen
irusiyen
irwasen
irwel
irz
irzi
is
isabelle
isad
isafaren
isafen
isaffen
isah
isalan
isalen
isali
isallen
isardasen
isat
isawad
isaɣuren
isbed
isbedd
isbegsanen
isbenyuliyen
isbn
isdilasas
isebdaden
isebtar
isebtaren
isedraten
iseffuden
isefka
iseflayen
isefra
isegasen
isegassen
iseggasen
iseggassen
iseggwasen
isegra
isegran
isegwasen
isehlen
isejji
isek
isekkilen
isekla
isekles
isekliwen
isekna
isel
isell
isellek
isellen
iselmaden
iselman
iselsa
iselwayen
isem
isema
isemawen
isemda
isemiman
isemlel
isemma
isemmad
isemmat
isemmeh
isemmt
isen
isenfaren
isengamen
isennanen
isensa
isent
isental
iseqdacen
iserdasen
isersen
isertanen
isertiyen
iserɣinen
isesmilen
iset
iseɣ
iseɣwan
iseɣz
isgensis
isgensisen
ish
ishak
isiaxem
isig
isigniwen
isin
isirew
isirgen
isiwan
isiɣid
iskanen
iskecmen
isken
isker
iskerci
isla
islam
islami
islamic
islamique
island
isli
ism
ismal
ismawen
isme
ismektayen
ismilen
isnajjyanen
isnarem
isnat
isni
isnudranen
isnulfa
isnulfan
iso
ispenyuliyen
israel
israeli
isragen
israyel
israyil
iss
issali
issawed
issefk
issegwassen
issem
issen
isseqdacen
issers
issiakhem
issiliɣen
issinen
issn
issufeɣ
issura
issusem
ist
istambul
isud
isufeɣ
isuffeɣ
isufɣ
isugan
isuka
isunad
isuqel
isura
isurdiyen
isurifen
isusiyen
isut
isuvyatiyen
iswi
iswiren
iswiyen
isyin
isɛa
isɛan
isɣanen
isɣi
it
italian
italie
itargiyen
itbir
itebɛen
iteddu
iteddun
iteffeɣ
iteffɣen
itekk
itekka
itekkan
item
iten
itent
iteqqnen
itergiyen
iterkiyen
itett
itetten
itezzi
itezzin
itij
itis
itran
itraren
itrawen
itri
itruski
its
itt
ittag
ittak
ittaken
ittasen
itteffeɣ
itteffɣen
itteg
ittekka
ittekki
ittekkiyen
ittemɣayen
ittili
ittilin
ittmagen
ittmeslayen
ittnadi
ittunefken
ittwali
ittwassen
ityubya
ityupya
iucn
iulianus
iv
iva
ivirusen
iw
iwa
iwad
iwakken
iwala
iwalan
iwali
iwandalen
iwata
iwdan
iwec
iweh
iwen
iwes
iwet
iwetmen
iwezlanen
iweɛr
iwi
iwillimiden
iwimi
iwin
iwlalen
iwraɣen
iwt
iwtal
iwudam
iwula
iwulem
iwulmen
iwumi
iwunak
iwuzat
iwwed
iwwi
ix
ixataren
ixdem
ixeddamen
ixeddem
ixeddmen
ixedem
ixedmen
ixef
ixelqen
ixemmem
ixerban
ixes
ixf
ixfawen
ixlef
ixuled
ixus
ixxamen
iy
iyen
iyet
iyi
iyin
iyit
iylalen
iylan
iylanen
iyufa
iyurayen
iyya
iz
iza
izagiren
izamulen
izan
izarazen
izawaɣen
izaɣaren
izdeɣ
izdi
izedɣen
izeffaren
izeggaɣen
izegnan
izegren
izegriren
izegza
izegzawen
izelman
izem
izemren
izen
izenqan
izenzaren
izenzer
izer
izerfan
izerman
izerri
izerzer
izet
izga
izgan
izi
iziganen
izinezren
izinzer
izirig
iziriyen
izlan
izli
izmal
izmawen
izmer
iznassen
iznaten
izri
izumal
izunyuren
izunɣiden
izuran
izuɣar
izwal
izwawen
izwilen
izzayriyen
izzin
iɛac
iɛawed
iɛawen
iɛawnen
iɛdawen
iɛedda
iɛeddan
iɛeddi
iɛeggalen
iɛekkuren
iɛekren
iɛemmucen
iɛerd
iɛessasen
iɛet
iɛetmaniyen
iɛeyyad
iɛez
iɛezzuzen
iɛic
iɛiwen
iɛiwnen
iɛlayanen
iɛlayen
iɛraben
iɛsekriyen
iɣ
iɣab
iɣad
iɣalen
iɣallen
iɣar
iɣarimen
iɣas
iɣbula
iɣeblan
iɣecter
iɣed
iɣef
iɣellaten
iɣelnawen
iɣer
iɣerbazen
iɣerbiyen
iɣerdayen
iɣerfan
iɣerman
iɣerruba
iɣersiwen
iɣes
iɣess
iɣez
iɣezr
iɣi
iɣil
iɣilasen
iɣir
iɣiɣden
iɣlanen
iɣli
iɣmisen
iɣr
iɣra
iɣrem
iɣri
iɣriben
iɣrisen
iɣsan
iɣuraren
iɣzer
j
ja
jack
jackson
jacques
jadu
jaime
james
jan
janduba
jane
january
japon
japun
jar
jardin
jardins
jaune
java
javascript
jazeera
jdiwya
je
jean
jeanne
jedd
jeddi
jelfa
jemɛen
jena
jennad
jenner
jennifer
jerh
jersey
jeune
jeux
jibuti
jida
jijel
jjan
jjaɣ
jlil
jo
joffrey
johann
john
jon
jones
joradp
jose
joseph
joshua
jour
jourdan
journal
jpg
jr
js
jsk
ju
juillet
juin
jules
julien
julius
julliard
july
julya
jun
juncus
june
juniperus
jurjura
jurjya
jusqu
just
justice
justinyan
k
ka
kabul
kabusa
kabyle
kabyles
kabylie
kaf
kal
kalidunya
kalifurnya
kaliɣyula
kam
kamal
kambudya
kamel
kamirun
kan
kanada
kansas
karim
karkasan
karl
karthala
karuh
katalunya
kateb
kawsen
kayin
kayt
kazaxestan
kazaxistan
kcem
kebek
kec
kecc
keccini
keccmen
kecmen
kecment
kecmeɣ
kel
kelvin
kem
kemlen
kemm
kemmlen
ken
kent
kenya
kenza
ker
kerdja
kerma
kermes
kessen
kg
khaldoun
khaldu
khaldun
khaled
khan
khe
ki
kibik
kicut
kidal
kif
kifkif
kih
kill
killing
kim
king
kirgizistan
kirya
kkan
kkant
kkaten
kker
kkert
kkes
kkren
kksen
kkseɣ
kliyubatra
klur
km
knoll
knut
ko
kobe
kong
kopenhagen
kosovo
kossmann
kr
kra
krad
kren
krim
krimyu
kruwatya
ksaɣ
ksen
ksila
kter
ku
kuba
kufi
kuiper
kuku
kul
kulagina
kulci
kull
kullec
kulumbya
kungu
kunta
kunwi
kupernik
kur
kurdish
kurdistan
kursika
kurya
kusina
kusta
kuz
kyiv
l
la
lab
laban
laboratoire
laden
lady
ladɣa
laguna
lah
lake
laksida
lakul
lakumzis
lal
lala
lall
lalla
lalman
lam
laman
lamarck
lamaɛna
lamer
lameɛna
lamin
lamir
lan
lancet
land
landing
lang
langage
langliz
language
languages
langue
langues
lanka
lannister
lant
laphomic
lapologne
lar
larbaa
larbi
larbɛa
larebɛa
larhat
larousse
las
lasi
lassell
last
lat
later
lathyrus
latin
latinit
laudi
laurent
lavigne
lawan
lawi
lawrence
lay
layen
laz
laɛmer
laɛnaya
laɛyun
laɛzib
lbabur
lbacir
lbad
lbal
lbarda
lbat
lbay
lbaz
lbeh
lbenyan
lber
lberd
lberg
lberr
lbesbas
lbeyyad
lbeyyed
lbid
lbir
lbiru
lbumba
lbumbat
lbuni
lbur
lburg
lburj
lbust
lbut
lbuxari
ldi
ldin
ldzayer
le
league
leb
lebda
lebh
leblida
lebni
lebt
lebwaqi
lebyar
lebyed
lebɣi
lecyax
lecyux
lecɣal
ledriq
ledwar
lee
lefd
lefh
leflani
leflay
left
leg
legliz
legrad
legrig
leh
lehlak
lehmum
lehna
leipzig
lejdid
lejdud
lejher
lejnas
lekbir
lekbira
lekdeb
lekmal
lekwaɣed
lekwif
lekwit
lemden
lemdeyya
lemdeyyet
lemdiyyet
lemh
lemmden
lemmer
lemniɛa
lemqadra
lemqam
lemrahna
lems
lemt
lemɛatqa
lemɛawna
lemɛiwna
lemɣir
len
lengliz
lenwar
leo
leonardo
leqbayel
leqder
leqdic
leqdicat
leqhawi
leqran
leqrar
leqraya
leqrun
leqs
leqwanen
leqwanin
ler
lerbah
lerbeɛt
lerg
leroux
les
leslah
lesnin
leswaq
leswar
letnin
letniyen
letourneux
letter
lettre
lettres
leur
lewhayem
lewhi
lewnis
lewzir
lexbar
lexd
lexdeɛ
lexique
lexla
lexmis
lexrif
lexrub
lexs
lexsara
lexzara
lez
lezhareyya
lezzayer
leɛd
leɛdawra
leɛg
leɛmer
leɛmum
leɛnaya
leɛqed
leɛqel
leɛr
leɛrac
leɛsel
leɛtab
leɛwayed
leɛwinat
leɛyun
leɛzib
leɛzizeyya
leɣdir
leɣlad
leɣwat
lfakya
lfarh
lfattih
lfayda
lfed
lfer
lferh
lfet
lfirma
lfud
lg
lgaz
lgelb
lget
lgirra
lh
lhacimeyya
lhan
lhend
li
libe
liberte
libil
librairie
library
libre
libya
lida
lidriseyya
lie
liechtenstein
lieu
life
light
ligne
lih
like
lil
lila
lili
lim
limam
limamat
liman
limara
limarat
limit
limus
lin
linaria
line
lingua
linguistes
linguistics
linguistique
link
linnaeus
linne
lint
linux
lire
lisbun
liser
lislam
list
liste
listiɛmar
lit
lite
literature
litte
litwanya
liu
live
livre
livres
liya
liyen
liyin
ljal
ljameɛ
ljil
lkaf
lkanun
lkarimeyya
lkart
lkaɣed
lkerma
lkuca
lla
llah
llama
llan
llant
llaz
lli
llin
llint
lliɣ
llsas
llufan
llun
lluz
lma
lmajen
lmakla
lmal
lmaleh
lmanga
lmasih
lmaɛna
lmeg
lmegren
lmeh
lmehdi
lmektub
lmelh
lmelk
lmend
lmendad
lmens
lmeqrani
lmer
lmerg
lmerruk
lmers
lmersa
lmesk
lmet
lmeɛder
lmeɛna
lmileyya
lmina
lmir
lmitra
lmitrat
lmizan
lmug
lmulud
lmuludeyya
lmut
lmuziga
ln
lo
loach
locis
loir
loire
loisirs
london
long
lonicera
lord
lors
los
lough
louis
louise
louvre
love
lower
lpari
lqad
lqader
lqahira
lqahwa
lqala
lqalus
lqanun
lqayed
lqayen
lqaɛa
lqaɛida
lqed
lqedd
lqella
lqelɛa
lqem
lqent
lqerh
lqern
lqes
lqibla
lquds
lqull
lsas
lu
lubnan
lud
ludwig
luis
lukan
lul
lulen
luluf
lumie
lumur
lunar
lundun
lung
lunis
luras
luscinia
lustr
lut
luxembourg
lwad
lwah
lwali
lwalid
lweh
lwelg
lwelha
lwennas
lweqt
lwert
lwidan
lwilaya
lwiz
lxalat
lxalifa
lxecna
lxed
lxedma
lxemsa
lxid
lxilaf
lxiq
lxir
lyanna
lyazid
lyce
lynx
lyon
lyut
lzayer
lzzayer
lɛabed
lɛabidin
lɛaddat
lɛali
lɛamra
lɛarbi
lɛarc
lɛasker
lɛater
lɛebbadeyya
lɛebd
lɛecc
lɛefrun
lɛegla
lɛehd
lɛellayeg
lɛelma
lɛemr
lɛemreyya
lɛenqa
lɛens
lɛer
lɛerbi
lɛerc
lɛes
lɛeskar
lɛesker
lɛeslama
lɛessa
lɛet
lɛewwana
lɛid
lɛin
lɛins
lɛiraq
lɛumareyya
lɣaci
lɣar
lɣella
lɣerb
lɣerba
lɣerraba
lɣezlan
lɣica
lɣwerba
m
ma
maa
maamar
maarten
mac
maca
macci
macdonald
machine
maci
mack
macmillan
mad
madagascar
madagaskar
madame
madani
made
madina
madna
madoka
madrid
madɣis
mag
magazine
maggu
maghre
maghreb
magne
magu
mah
mahdi
mai
maillard
maillot
main
maine
maint
mais
maison
majar
major
mak
makawsen
makemake
maksimyan
makuda
mal
mala
malawi
malek
malen
malh
mali
malika
malizya
mall
malt
malta
malva
mama
mammeri
man
mana
manchester
mandela
manen
manga
mangellat
mangulya
manhattan
mani
manit
mans
manual
manuel
many
map
mar
mara
maradona
marcel
march
marco
marconi
mare
marguerite
maria
marie
marikan
marin
marina
marine
maritime
marius
mark
marko
marks
maroc
marocain
marra
marrakech
mars
marsa
marseille
marshall
marsil
martin
martina
marx
mary
marzuqi
mas
masensen
maser
masiba
masibsa
masibsen
masidunya
masilya
masin
masinisa
masisilya
masnsen
maspero
masra
mass
massa
massinissa
massinu
massnsen
mast
mastanabal
mastenbaɛl
master
masters
masteɛbar
masuna
masunas
mat
mathbb
mathe
mathematicae
mathrm
matie
matin
matiques
matoub
maupassant
maurice
mauritanie
max
may
mayu
mayyu
maz
mazal
mazel
mazibba
maziɣ
mazuka
mazuna
mbarek
mbaɛd
mbeɛd
mc
mca
mcb
md
mdawruc
me
mebla
mebɛid
mechur
mechuren
mechuret
meckent
mecreyya
mecreɛ
mecruh
mect
med
medden
meden
media
medical
mednin
medrusa
meet
meftah
meg
megra
meh
mehdeyya
mehdi
mehenni
meister
mejjir
mekka
mekmen
meknas
mekne
meksa
mel
mellal
mellul
mellulen
mellulit
melmi
melwan
melyun
membre
meme
memmac
men
menad
menceyato
mendas
mendel
mendil
mengellat
menguellet
mens
ment
mentha
menthe
menwala
menɛa
menɛen
menɣir
meqbel
meqleɛ
meqqar
meqqer
meqqr
meqqran
meqqren
meqqret
meqran
meqren
mer
mercier
merh
merr
merra
merrakec
merran
merruk
mers
merwan
meryem
mes
meskint
meskyana
meslayen
messali
messus
mest
mestanususus
mestɣanem
mesɛed
mesɛud
mesɛudi
met
metal
metallica
metellus
method
metlili
mettijet
mexluf
mextar
meyya
mez
mezdad
mezweɣ
mezyan
mezzay
mezɣenna
mezɣic
meɛna
meɛnas
meɛruf
meɛt
meɣneyya
meɣres
meɣɣren
mg
mgal
mgaraden
mgaradent
mgun
mh
mhenni
mhidi
mi
michael
michel
michelet
michigan
micli
microordo
microsoft
mid
midan
midden
middle
midisinas
mie
miguel
mih
mihub
mikasa
miksik
mil
mila
milan
milano
milek
militants
miller
million
milt
mimun
mimuna
min
minh
ministe
ministre
minnesota
minor
mira
mis
misipsa
missing
mission
mississippi
missouri
mist
mit
miz
mizrana
mjezz
mkul
mkull
mlalen
mlih
mlikec
mlila
mlilen
mlilt
mm
mmalen
mmeslayen
mmi
mmih
mmis
mmugren
mmuten
mnas
mnayel
mnba
mo
moc
mocratie
mode
modern
moderne
mohamed
mohammed
mohand
moi
moire
mokrani
mole
molecular
molie
mon
monde
mondeberbere
mondial
mondiale
monster
mont
monte
montesqiueu
montesquieu
montre
montreal
moon
morale
morales
more
moroccan
mort
moscow
mosku
motacilla
motion
mots
moudjahid
mouffok
moulay
mouloud
moussa
mouvement
movie
moyen
mozart
mqeddem
mr
mraw
mrez
mrin
ms
msaɛed
msefhamen
msegrawen
msila
mt
mtawan
mtld
mu
mucaɛ
mucaɛen
mud
muden
mugadur
muh
muhammad
muhend
mula
mulay
multiple
mulud
mumen
mummu
mun
munaku
muni
munich
municipalite
muqleɣ
muqren
mur
murad
murakuc
muretanya
muricatus
murit
muritanya
murra
murset
mus
musa
muse
music
musique
musku
muslim
must
mustafa
mustapha
mustela
mut
muzambik
muzaya
muɣrar
mxallafent
my
mya
myal
mysql
myussanen
mz
mzab
mɛammer
mɛemmar
mɛemmer
mɛemmri
mɛesker
mɣila
n
na
nabdalsa
nabti
nabulsi
nader
nadi
nadin
nadya
naf
naff
nafiɛ
nag
naga
nagen
nagt
nai
nalut
nam
name
names
namibya
nan
nanna
nant
nantes
naples
napole
naqal
narabas
naru
naruto
nas
nasa
nassim
nat
nation
national
nationale
nations
nato
natur
nature
naturæ
navarra
navarre
nawal
nawi
naya
nayet
nbayel
nbi
ncbi
ncov
nd
ne
nebd
nebder
nebdu
nebɣa
nec
necrah
ned
nedder
nedjma
nedruma
nefhem
nefk
nefka
neg
negh
negren
negrent
negrin
neh
nek
nekcem
nekk
nekkes
nekkini
nekkur
nekni
nella
nelli
nelson
nemmeslay
nen
nengir
nenna
neqbil
neqqar
neqqim
neqsen
nerna
nernu
nerr
nerra
nes
nesla
nesnulfu
nessawal
nessawed
nessen
nesseqdac
nesseqdec
nessin
nesɛa
nesɛi
net
netta
nettaf
nettaru
nettat
nettini
nettmeslay
nettu
nettwaggez
nettwali
nettwassen
new
newham
news
newton
newwara
newwed
newwi
nexdem
nez
nezmer
nezmir
nezzeh
neɛman
neɛred
neɣ
nfaq
ng
ngawes
nger
ngusa
nh
ni
nia
nicolas
nicolle
nid
niden
nie
nif
nifa
nifeyya
nig
niger
nigeria
night
nigra
nih
nijer
nijir
nijirya
niklaus
nil
nili
nils
nin
nina
nini
nipal
niptun
niqal
nissin
nit
nitenti
nitni
niɣ
nli
nn
nna
nnad
nnan
nnas
nnaɣ
nnaɣen
nnbi
nnefs
nnejmaɛen
nnes
nnesen
nneyya
nneɣ
nnfaq
nnfeɛ
nng
nnger
nni
nnid
nniden
nnif
nnig
nnijer
nnil
nnill
nniya
nniɣ
nns
nnsen
nnuba
nnulfan
nnuɣen
nnɛama
no
nobel
noir
nom
nomme
noms
non
nord
normandie
north
northern
nos
not
note
notes
notice
notre
noureddine
nouveau
nouvel
nouvelle
nouvelles
novak
novel
november
novembre
now
nruh
ns
nsel
nsen
nsent
nsers
nt
nu
nubel
nubil
nudan
nufa
nufel
nufi
nuit
nuja
number
nume
numidia
numidie
numidya
nun
nur
nurdin
nuredin
nussa
nutenti
nutni
nuɣ
nuɣal
nwala
nwali
nwar
nwember
nwen
nwisi
nxemmem
nz
nɣ
nɣan
nɣant
nɣen
nɣer
o
oasis
occidental
ocimum
oclc
october
octobre
od
oenanthe
of
ofalac
office
officiel
officielle
officinalis
ographie
ohio
ois
oiseaux
old
olea
olivier
ologie
ologique
olympia
omad
omar
ome
on
one
online
ons
ontario
onu
ope
open
opuntia
or
oran
orchestre
ordines
ordo
org
organisation
organization
orie
oriental
origanum
origin
original
origines
oriolus
orion
orle
oro
os
osad
osaka
oscar
otan
other
ottawa
ou
ouargla
oublie
oued
ouest
oulad
ouled
our
oussaih
out
ouzou
over
oxalis
oxford
p
pa
pablo
pacific
page
pages
paix
pakistan
palais
palermu
palistin
pallas
panama
panicum
panthera
paolo
pape
par
paraguay
paragway
parameter
pardus
pari
paris
park
parlement
parler
parlers
part
partement
parti
partie
pas
pascal
passe
pasteur
patrick
patrimoine
patula
paul
pays
pc
pdf
pe
peace
peine
peintre
peintres
peinture
pekin
pele
pelecanus
pen
pendance
pendant
pennsylvania
pense
people
per
pertoire
peter
petit
petite
peuple
ph
phalaris
philip
philippe
phlomis
phoenix
photoshop
php
phylloscopus
phylogeny
phylum
physics
pi
piaf
picasso
pie
piece
pierre
piru
pisa
pisodes
pistacia
piza
place
plage
plan
planck
planet
planetary
plantaginaceae
plantago
plantes
plasma
platon
play
please
plon
pluriel
plus
plusieurs
pmc
pmid
pnas
po
pocket
poe
polandball
policier
polimiraz
political
politique
politiques
pollandball
polnareff
polo
polverel
pop
populaire
population
populations
port
porte
portugal
position
pour
power
pp
ppa
ppe
ppen
prag
prague
prasse
prayer
pre
premie
premier
premium
press
presse
pression
preuves
prevention
primary
prince
printemps
prive
prix
prize
pro
proble
proce
proceedings
production
profile
program
programme
programming
project
projet
projets
protect
provence
province
provinces
prunus
psammodromus
pub
pubescens
public
publicain
publication
publications
publique
publishers
pulunya
punctuation
punk
putorius
pycnonotus
pyrrhula
q
qabel
qablen
qada
qadireyya
qan
qaren
qasem
qasi
qat
qayes
qayser
qbel
qbilen
qeblen
qecra
qedcen
qeddcen
qen
qer
qerrih
qert
qertaj
qes
qessih
qi
qif
qim
qnadsa
qnit
qqar
qqaren
qqarent
qqarn
qqim
qqimen
qqiment
qqimeɣ
qqlen
qqnen
qqnent
qrib
qs
qsent
quand
quartier
quatre
qubrus
que
queen
quercus
ques
qui
quinoxe
quotidien
qurs
r
ra
rab
rabah
rabat
rabeh
rables
rabt
raced
rachid
racid
racines
rad
radio
radyu
raf
rafael
rafin
rag
rah
rai
raire
raires
ral
rale
ralya
ram
ramberg
ramd
ramus
ran
randlett
ranen
ranin
rant
ranunculus
rap
ras
ration
rature
ray
rayes
raymond
raz
rbat
rcd
re
real
reason
reb
rebbi
rebh
rebrab
rebɛa
reccac
recensement
recentiores
recherche
recherches
records
recueil
red
ref
refden
references
reffu
reformata
reg
reggan
regglen
regiae
regions
regna
regnum
reh
rekku
religion
remd
remdane
remiz
remove
ren
renaissance
rence
rences
rene
reng
rennes
rennun
report
repre
reprint
republic
reqqmen
requires
rer
res
research
reseda
resolution
respectives
respiratory
results
retour
retrieved
rev
review
revue
rewlen
rez
rfan
rg
rh
rhiw
rho
ri
ric
rica
ricen
richard
rid
rie
rien
rienne
riens
rieur
rif
rifa
right
rigin
rigt
rihanna
rika
rime
rin
ring
rio
riq
rir
ris
risen
risk
rist
rit
ritchie
riwt
riyen
riɣ
riɣa
rlts
rn
rnan
rnu
rnun
ro
robert
rock
rocky
roger
roi
roma
roman
rome
rose
ross
rouen
rouge
rougon
royal
rqiq
rqiqen
rr
rradyu
rran
rrant
rray
rrayat
rrbeh
rrebbah
rrebrab
rregmat
rreh
rrekba
rremci
rremka
rren
rres
rrgiba
rric
rrif
rrih
rriɣ
rrmel
rruh
rruman
rrus
rrwaced
rrwiba
rs
rsen
rt
ru
rubin
rubrique
rubus
rue
ruf
rufan
rufen
rufin
ruft
rugatinus
ruggas
ruh
ruk
rum
ruma
rumanya
rumex
run
rurale
russell
rusya
rut
ruyen
rwa
rwanda
rwiced
rwin
rwina
rz
rzi
rzin
s
sa
saadi
sab
sabat
sabaw
saben
sadat
sadeq
saga
sah
sahara
sahariens
sai
said
saint
sainte
sakin
sakk
sakkin
sakun
salah
saldae
saleh
salem
salim
salima
salix
salle
salvador
salvia
sam
sambucus
samir
sammak
samuel
san
sani
sans
santa
santiago
santos
sapiens
sar
sara
sarah
sardinya
sars
sasna
sat
sativa
saturn
sauvage
savana
sawalen
sawd
say
sayneyya
saɛd
saɛdi
saɛid
sbedden
sbenyul
sbin
sbit
sbt
sce
schumann
schwarze
sci
science
sciences
scientiarum
scientific
scientifiques
scolymus
scotland
sd
sdat
sdaxel
sdeffir
sdis
se
sean
search
season
seasons
seattle
seb
sebastian
sebba
sebdu
sebta
sebɛa
sebɛin
sectio
secundum
sed
seddaw
seddiq
seddis
sedduq
sefru
seg
seghir
segmi
segwasen
seh
seine
sekcem
sekles
seksu
seld
sellam
selt
sem
semman
semmt
semmus
semɛun
sen
send
senegal
sennig
sent
sentation
sente
sept
september
septembre
seqdacen
ser
serbah
serbya
serh
series
sers
sersen
sert
service
ses
set
setta
seuil
seven
several
sex
sexdamen
sexual
seɛd
seɛdi
seɛɛun
seɣwan
sfizef
sg
sgi
sh
shahid
shahnez
shakespeare
shaw
sheet
sho
show
si
sibbus
sibirya
sibyun
sic
sid
sidence
sidi
sidna
sie
sifaks
sifaw
sig
sigus
silini
silva
simal
simmal
simo
simon
sin
sina
sinapis
singapur
sinigal
sinima
sinna
sir
sirbya
siridaɣ
sirk
sirt
sirta
sirwa
sirya
sis
site
sitta
situe
siwa
siwen
siwr
skecmen
skikda
skin
skud
skutland
skutlanda
skype
sla
slam
slama
slan
slim
sliman
slimane
slimani
slisen
sliɣ
sluvakya
sluvinya
smah
small
smaɛel
smaɛil
smenyafen
smil
smith
smus
smyrnium
snat
sned
snekren
snen
snernin
snitra
snow
snrt
snulfan
snus
so
social
sociale
sociales
socialiste
socie
societatis
society
sociologie
sofia
sofiane
solar
soleil
solstice
son
song
sont
sophonisbe
souk
source
sous
south
southern
sp
space
spaghetti
spanya
spe
species
speedy
spenyul
spinosa
spontane
sportive
springer
sqedcen
sql
square
sr
srayer
sri
srid
srur
ss
ssa
ssah
ssalin
ssanya
ssaramen
ssarsen
ssawalen
ssawd
ssawlen
ssawt
ssaɛa
ssaɛid
ssbeɛ
ssebba
ssebbat
ssebs
ssebt
sseh
sseknen
sselmaden
sselt
sselɛa
ssem
ssemman
ssemmar
ssemrasen
ssenf
sseqdacen
sseqdacent
sser
ssersen
sserɣen
ssexdamen
ssexdament
sseɣlin
ssh
ssi
ssidren
ssif
ssifa
ssiliɣen
ssin
ssinen
ssinima
ssirilik
ssiwlen
sskanayen
ssnen
ssqef
ssr
ssrusayen
sstut
ssuffuɣen
ssuffɣen
ssufɣen
ssulin
ssunna
ssuq
ssur
ssutren
ssuttren
ssuxna
sswagi
sswid
sswis
ssya
ssyin
ssɛida
st
sta
stanbul
standard
star
stark
starmont
stars
state
states
statistics
statue
status
statut
stauffenberg
ste
stenyan
stephen
steve
steɛmren
steɛr
stockholm
storm
strasbourg
streaming
structure
structures
studies
studio
study
style
su
sub
subclassis
subdivisio
subfamilia
subforma
subgenus
subordo
subphylum
subregnum
subsectio
subset
subsp
subspecies
subtribus
subvarietas
sucre
sud
sudad
sudan
sufel
sufell
sufella
suffɣen
sufyan
suger
suggested
sulfen
sulfentid
sumam
sumata
sumer
summam
summer
sun
supe
super
superdivisio
superfamilia
superficie
superior
superordo
superphylum
superregnum
suq
sur
surface
surfaces
surt
survey
surya
sus
susa
susus
sutren
suvyit
suɛudiya
swa
swadda
swaswa
swayes
swid
swis
switzerland
sxedmen
sya
syen
syin
syinna
sylvia
symptoms
synonymis
syste
system
systema
sɛada
sɛan
sɛant
sɛeddan
sɛid
sɛin
sɛint
sɛun
sɛunt
sɣur
t
ta
tabadut
tabagust
tabarkant
tabaskit
tabatent
tabaɣurt
tabburt
tabelkamt
taberkant
taberlinit
tabexsist
tabitha
table
tabr
tabrat
tabratt
tabrit
tabuda
tabuniqit
tabuzeggaɣt
tabuzegrayezt
tabwad
tabɣest
tac
tacacit
tacawit
taccelt
tacelh
tacennayt
tacentirt
tacenwit
taceqquft
tacerqit
tacet
taceɛlalt
taciɛit
tacubrant
tad
tadamsa
tadanict
tadart
tadaya
tadayma
tadayr
tadayra
tadbelt
taddart
taddayt
taddert
taddukli
tadelles
tadelsant
tader
tadersi
tadfert
tadigant
tadimt
tadist
tadla
tadmayt
tadra
tadremt
tadrimt
tadukli
tadunatit
tadusi
tadut
tadwilt
tadyant
tadzayrit
tadɣaɣat
taf
tafada
tafarest
tafarsit
tafasa
tafaska
tafat
tafed
tafekka
tafellah
tafellayt
tafelwit
tafem
taferka
taferkit
tafersit
tafesna
taffa
tafidir
tafidiralit
tafilalt
tafiniqit
tafinit
taflist
tafna
tafr
tafransist
tafrant
tafrara
tafrawt
tafrensist
tafrent
tafrikt
tafriqt
tafrirut
tafsut
taftart
taftist
tafukt
tafulfuldet
tafulmant
tafunast
tafuyt
tag
tagafant
tagamant
taganin
tagant
taganza
tagara
tagda
tagduda
tagejdant
tagelda
tageldant
tageldit
tageldunt
tagella
tagellidt
tagemmunt
tagemmut
tagemrawt
tagennawt
tagertilt
taggara
taggat
taggayin
taggayt
taggaz
taggi
tagi
tagida
tagjdant
taglest
taglimt
taglisya
taglizit
taglizt
tagma
tagmant
tagmat
tagmatt
tagmud
tagnit
tagnitt
tagnizit
tagnnawt
tagra
tagrawla
tagrawt
tagraɣlant
tagrest
tagreɣlant
tagrigit
tagrigurit
tagrigurt
tagrikit
tagrikt
tagruja
tagruma
tagrumma
tagurart
tagut
tagwaranit
tagzirt
tah
tahar
taher
tahibrut
tahrest
tahulandit
tahungarit
taient
taine
tait
tajapunit
tajerrumt
tajmaɛt
tajmilt
tajumma
tajummant
takalast
takanadit
takard
takat
takatalant
takatidralt
takatulikit
takatulikt
takebbanit
takemmart
takenzirart
taker
takerbust
takerduft
takfarinas
takirgizit
taklast
taklit
taklitin
taklut
takma
takrura
takrurant
taksanna
takti
taktiwin
takuct
takura
takurdit
takurmanjit
takurmut
takurt
takuryit
tal
tala
talaba
talalit
talamt
talast
talat
talatinit
talatint
taldayt
tale
taleb
talemmast
talemmiz
taleslalit
tali
talit
talitwanit
taliwin
talk
tallalt
tallast
tallelt
tallest
tallin
tallinn
tallit
talliyin
talliz
tallunt
talmanit
talmant
talmat
talmest
talsa
talsant
taluft
taluksemburgit
talut
talwit
talɣa
talɣemt
talɣent
talɣiwin
talɣut
talɣuɣa
tam
tama
tamacahut
tamacahutt
tamaceq
tamaceɣt
tamacint
tamad
tamaddudt
tamadlant
tamafart
tamagdezt
tamagit
tamahaq
tamajeq
tamallast
tamalt
tamanaɣt
tamaneɣt
tamant
tamara
tamarikanit
tamarikant
tamarix
tamart
tamarut
tamas
tamasayt
tamasih
tamasit
tamaslad
tamasɣant
tamatant
tamatut
tamawin
tamawt
tamaynut
tamaz
tamazgha
tamazight
tamazirt
tamaziɣt
tamazrayt
tamazɣa
tamaɣlalt
tamcumt
tamda
tamdint
tamect
tamectuh
tameddit
tameddurt
tamedrart
tamedyazt
tamedyezt
tamegdayt
tamehla
tamekruzt
tamella
tamellalt
tamend
tamendawt
tamenrut
tamens
tamensayt
tamentilt
tamenzut
tameqqr
tameqqrant
tameqrant
tamer
tamerrukit
tames
tamesbanit
tamesgida
tamesguneft
tameskant
tameslayt
tamesɣant
tamet
tamettant
tamettut
tamez
tamezdayt
tamezduɣt
tamezgida
tamezgunt
tamezwart
tamezwarut
tamezzayt
tamezzwarut
tameɣra
tamguri
tamgut
tamh
tamhalt
tamhazt
tamhelt
tamhilt
tamikrest
tamirant
tamiwin
tamkuz
tamlilt
tamment
tamnad
tamnat
tamnatt
tamnekda
tamqqrant
tamrikt
tamsalt
tamsedfart
tamsetla
tamsilt
tamsirwa
tamsisit
tamsmunt
tamsullest
tamtawant
tamtilt
tamtiwgant
tamudemt
tamudi
tamugri
tamulla
tamunt
tamuqra
tamuqrant
tamurant
tamurit
tamurt
tamuski
tamusni
tamussni
tamuɣli
tamyarut
tamyercalt
tamyiwent
tamz
tamzikent
tamzikt
tamziɣt
tamzwarut
tamɣart
tamɣast
tamɣawt
tamɣiwent
tan
tanad
tanaddalt
tanafukt
tanammast
tanamsadt
tanamurt
tanarumt
tanawt
tanaya
tanayyurt
tanaz
tand
tanecfalt
taneflit
tanegga
taneggarut
tanegluft
tanejjikt
tanekra
tanemlayt
tanemmirt
tanes
tanesbaɣurt
tanez
tanezduɣt
tanezzawt
taneɣlaft
taneɣraft
tanfalit
tanfust
tanga
tanglizit
tanglizt
tanila
tanilla
taninna
tanmegla
tanmezrit
tannumi
tans
tansa
tansawt
tansift
tant
tantala
tantalatin
tantaliwin
tanumi
tanumidt
tanut
tanz
tanzagt
tanzanya
tanzeggit
tanzeɣt
taourirt
tapidgint
tapulunit
taqa
taqacuct
taqbaylit
taqbilt
taqbuct
taqbur
taqburt
taqcict
taqdimt
taqebt
taqer
taqerbuzt
taqjunt
taqliɛt
taqqa
taqs
taqsit
taqubbet
taqurant
tar
tara
tarakalt
taramit
taratakt
tarba
tarbaɛt
tarebbut
tareddi
tareh
tarennawet
tarennawt
tarewla
targa
targaryen
targit
tarifit
tarjentint
tarka
tarmit
tarrawt
tarrayin
tarrayt
tarselt
tarudant
tarumanit
tarumit
tarusit
tarwa
tarwih
tas
tasa
tasad
tasadan
tasaft
tasah
tasakbabt
tasakrart
tasala
tasanayt
tasartut
tasarut
tasawt
tasaɛudit
tasbeddit
tasdawit
tasebgast
taseddar
taseddart
taseddawit
tasedmirt
tasefsit
tasegbart
tasegda
tasehrest
tasekkurt
tasekla
taseklant
taseklut
taselmadt
taselwayant
taselwayt
taselwit
tasemhuyt
tasemlilt
tasemmadt
tasemmumt
tasemrant
tasenbert
tasengama
tasengamt
tasensartut
tasenselkimt
taseqqamut
tasertant
tasertayt
tasertit
taserɣint
taseɛdit
taseɣleyt
taseɣrut
tasfift
tasga
tasift
tasili
tasimant
tasint
tasiwant
tasiwelt
tasiwit
taskant
taslekt
taslullit
tasluvakt
tasmanya
tasmedna
tasmekta
tasmilt
tasna
tasnakant
tasnakta
tasnallunt
tasnamurt
tasnawit
tasnayyawin
tasnimɣan
tasniwin
tasnudert
tasnudrant
tasnujjya
tasnullant
tasnulut
taspanyulit
taspenyulit
taspenyult
tasrenka
tassast
tassemt
tasubyitit
tasuddest
tasudest
tasudut
tasuknit
tasuqelt
tasuqilt
tasureft
tasurit
tasusit
tasusmi
tasut
tasuta
tasutin
tasuvyatit
taswast
taswidit
taswist
taswiɛt
tasɣent
tasɣunt
tat
tata
tatergit
tatluɣt
tatoeba
tatrart
tatrat
tatrawt
tatrit
tatunsit
tatut
taurus
taviani
tawacult
tawala
tawalant
tawalt
tawat
tawaɣit
tawed
tawellemt
tawennad
tawennat
tawerga
tawes
tawet
tawh
tawi
tawid
tawilant
tawilayt
tawinest
tawla
tawlaft
tawment
tawr
tawra
tawrat
tawraɣt
tawrirt
tawsit
tawtemt
tawuri
tawurta
tawwurt
taxatart
taxatemt
taxlig
taxlijt
taxonomicon
taxxamt
taycukt
tayda
taydiwin
taydiyyin
tayed
tayedt
tayeffust
tayemmat
tayemmatt
tayet
tayett
tayla
taylalt
tayland
taylor
tayri
tayuga
taywalt
tayyugin
taz
taza
tazalɣi
tazanet
tazart
tazarurant
tazayezt
tazdayt
tazdemt
tazeggaɣt
tazeggwaɣt
tazegzawt
tazelmat
tazelɣa
tazemmurt
tazeqqa
tazerzayt
tazgaga
tazla
tazmalt
tazmart
tazmert
taznagt
taznast
taznatit
tazrart
tazrawt
tazrirt
tazunegzirt
tazunɣidt
tazuri
tazwara
tazwart
tazyagurt
tazzant
tazzayrit
tazzirt
tazzla
tazzurt
tazzwara
tazɣent
taɛcurt
taɛebrit
taɛessast
taɛkemt
taɛlayant
taɛr
taɛrabin
taɛrabt
taɛzibt
taɣ
taɣara
taɣawsa
taɣbalut
taɣcuyt
taɣda
taɣdemt
taɣect
taɣelnawt
taɣennawt
taɣerbit
taɣerfant
taɣersawt
taɣessa
taɣezfant
taɣinawt
taɣisant
taɣit
taɣiwant
taɣlamt
taɣlent
taɣreft
taɣrut
taɣtest
taɣuct
taɣulin
taɣult
taɣur
taɣuri
taɣya
taɣzut
tbadut
tbagust
tban
tbatent
tbedd
tbeddel
tbeddu
tbenferriwin
tbennu
tbeskert
tbessa
tbiktirin
tbudit
tbuzegrayezt
tbuzegrayzin
tc
tcawit
tcennayt
tcennu
tceqqufin
tceqquft
td
tdamsa
tdawsa
tdayra
tdayriwin
tdefrin
tdersi
tdersiyin
tdu
tdukkla
tdukkli
tdukla
tdukli
tdukliwin
tdunatit
tdusi
te
team
tebburt
tebd
tebda
tebdu
tebh
teblad
tebna
tebr
tebrat
tebratin
tebrek
tebt
tebɛed
tebɣa
tebɣest
tebɣid
tebɣu
tec
tecbeh
tecc
tecca
teccna
tecd
tecna
tecrek
ted
tedbelt
tedda
teddart
teddem
tedder
teddu
teddukel
teddukla
teddukli
teddun
teddunt
teddy
tedfert
tedremt
tedrimt
tedwilin
tedwilt
tedyanin
tedyant
tedɣaɣat
tedɣaɣatin
tefd
teffeɣ
tefk
tefka
tefki
teflal
teflalit
teflel
teflest
tefr
tefra
tefranin
tefrans
tefransist
tefrant
tefrar
tefrara
tefrawt
tefrensist
tefrensit
tefreq
tefrer
tefrikt
tefriqt
tefru
tefses
tefsut
teftisin
teftist
tefyar
tefyirt
teg
tegber
tegda
tegduda
teggug
tegguni
tegla
teglest
teglimt
teglizit
teglizt
tegma
tegmat
tegmatt
tegmi
tegnatin
tegnawt
tegnit
tegnitt
tegnizit
tegnizt
tegnut
tegra
tegrawin
tegrawla
tegrawliwin
tegrawt
tegrest
tegrigit
tegrikt
tegwaranit
tegwnitt
tegyizit
tegzem
tegzirin
tegzirt
teh
tehibr
tehrest
tehri
teil
tejja
tejmaɛt
tejmilt
tejra
tekcem
tekfa
tekka
tekkat
tekker
tekkes
tekksen
teklut
tekrura
tekti
tektiwin
tekwatin
tekwatt
tel
tela
teldayt
teldi
telenz
telephium
television
telh
telha
telhu
telkin
tella
telli
tellid
telluga
telmant
telmas
telmast
telmed
telmest
telqey
telwih
telwit
telɣa
telɣemt
telɣiwin
telɣuɣa
temcabigzirt
temcict
temd
temda
temdinin
temdint
temgarad
temguri
temh
temhalin
temhalt
temhazt
temhelt
temlal
temlilin
temlilit
temliliyin
temlilt
temmal
temmug
temmut
temnad
temnadt
temnat
temps
temraradin
temrawt
temrikt
temsal
temsalt
temsaman
temsedfart
temsedfert
temseffatin
temsefranin
temseksumin
temseɣz
temsiffatin
temsilt
temsirin
temsisit
temsisɣelt
temsizzelt
temsulta
temsut
temurt
temxallaf
temz
temzerɣlin
temzikrin
temɛemmert
temɣarin
temɣart
temɣer
ten
tend
tenerife
tenfalit
tenfufed
tenfust
tenga
tengalin
tenger
tengiwin
tenglizit
tenglizt
tenkart
tenma
tenmegla
tenmehla
tenmiregt
tenna
tennerni
tennessee
tennid
tennis
tennulfa
tenqes
tensa
tensawt
tent
tentala
tentaliwin
tentalyin
tenzad
tenzagt
tenzeggit
tenɣa
tenɣerfelt
teqbaylit
teqbel
teqbilin
teqbilt
teqbucin
teqbuct
teqcicin
teqcict
teqdec
teqebt
teqhirt
teqliɛt
teqqar
teqqel
teqqen
teqqim
teqqnen
teqqur
teqreb
teqs
teqsid
ter
terba
terbaɛin
terbaɛt
terbeh
terga
tergalin
tergalt
terjentint
termist
termitin
terna
terni
ternu
ternud
terr
terra
terre
terred
ters
terwel
terwi
terza
terɛi
tes
tesbedd
tesdatin
tesdawit
tesdawiyin
tesdidin
tesdidt
tesdukel
teselwit
tesfifin
tesfift
tesga
tesgilt
teskanin
tesled
teslit
tesmekta
tesmilt
tesnakta
tesnallunt
tesnawit
tesnayyawin
tesnerni
tesnilest
tesnudert
tesnujjya
tesnulfa
tesnutlayt
tespanyulit
tespanyult
tespenyulit
tespenyult
tesqamut
tesragin
tesragt
tesred
tessawal
tessawat
tessawed
tessebded
tessekcem
tesselh
tesselmed
tessen
tessentay
tessenz
tesseqdac
tesseqdec
tessers
tessexdem
tessiliɣ
tesskanay
tessken
tessrusay
tessufeɣ
tessuffeɣ
tessuter
testament
testenya
teswasin
teswast
teswermin
teswist
teswiɛin
teswiɛt
tesɛa
tesɛedda
tesɛi
tesɛu
tesɣunin
tesɣunt
tet
tetrawt
tetrit
tett
tettaf
tettag
tettak
tettaked
tettali
tettarew
tettarra
tettaru
tettas
tettat
tettawat
tettawi
tettaɣ
tettbeddil
tettbin
tetteddu
tetteki
tettekka
tettekki
tettemcabi
tettemɣay
tetten
tettent
tettett
tetth
tettheggi
tetti
tettidir
tettiki
tettili
tettimɣur
tettmeslay
tettnadi
tettru
tettumeggez
tettunefk
tettunefka
tetturar
tettusemma
tettuseqdac
tettuseqdec
tettusexdem
tettuɣal
tettwabd
tettwafreq
tettwaggez
tettwagzam
tettwah
tettwali
tettwameslay
tettwaru
tettwasemma
tettwasen
tettwasileɣ
tettwasismel
tettwassen
tettwaxleq
tettwaz
tettɣimi
teucrium
tewlafin
tewrirt
tewsatin
tewsit
tewsitin
tewtemt
tewwed
tewwet
tewwi
tewwid
tewwura
tewwurt
tewɛer
texas
texdem
texs
texser
texte
textes
texxamin
texxamt
teywalt
tez
tezdalt
tezdayt
tezdeg
tezdemt
tezdeɣ
tezdi
tezga
tezgad
tezlatin
tezlit
tezlitt
tezmalt
tezmart
tezmekt
tezmel
tezmer
tezmert
tezmir
tezrart
tezrawin
tezrawt
tezrigin
tezwar
tezwara
tezweg
tezweɣ
tezyiwin
tezzi
tezzin
tezzint
tezɣent
teɛdel
teɛr
teɛrabt
teɛred
teɣdemt
teɣlamin
teɣlamt
teɣli
teɣmert
teɣr
teɣra
teɣreft
teɣremt
teɣri
teɣrmt
teɣsatin
teɣsert
teɣtas
teɣwalt
teɣzef
teɣzi
tfadiwin
tfakk
tfarsit
tfasa
tfaska
tfaskiwin
tfednin
tfekka
tfekkiwin
tfeljumma
tfellah
tfelseft
tfelsuft
tfelwit
tferka
tferkit
tferkiwin
tfesna
tfesniwin
tfilkut
tfinaɣ
tfizikt
tfr
tfrac
tfransist
tfuk
tfukk
tfukt
tfunasin
tfunasiyin
tfunast
tg
tga
tgama
tganza
tgara
tgebber
tgelda
tgeldatin
tgeldit
tgeldiwin
tgeldiyin
tgeldunt
tgellidt
tgemmi
tgemmunt
tgemrawin
tgen
tger
tgez
tgezmi
tgezmiyin
th
thapsia
that
the
theft
their
thenia
thibrut
this
thomas
thought
thrash
threatened
thrones
thymelaea
ti
tibaltiyin
tibawt
tibergent
tiberkanin
tiberr
tiberraniyin
tibeskert
tibet
tibexsisin
tibh
tibibelt
tibit
tibratin
ticcert
ticci
tici
tick
ticki
ticrad
tid
tidak
tidayr
tidayrayin
tidda
tiddas
tiddi
tiddin
tiddit
tiddiwin
tiddukla
tiddukliwin
tidefrin
tidelsanin
tidersiyin
tidet
tidett
tidi
tidikelt
tidir
tidmi
tidukkla
tidukla
tidusiyin
tidyanin
tidɣaɣatin
tif
tifawin
tifeffeɣt
tifekkiwin
tifelwa
tifelwiyin
tiferkit
tifernin
tifin
tifinagh
tifinaɣ
tifirest
tifkin
tifra
tifranin
tifrat
tifrit
tifrusyawiyin
tiftisin
tifunasin
tifus
tifwin
tig
tigamanin
tigawin
tigawt
tigduda
tigejda
tigejdanin
tigejdit
tigeldiwin
tigemmi
tigemrawin
tigennawin
tigermamzikin
tigert
tigezmi
tigezt
tiggest
tigget
tiggi
tiggtin
tighzert
tigi
tigin
tiginit
tigmanin
tigmawin
tignatin
tignewt
tigni
tignut
tigrawin
tigrawliwin
tigraɣlanin
tigreɣlanin
tigrin
tigritin
tigti
tigurarin
tigzi
tigzirin
tigzirt
tih
tihendur
tihert
tijelabin
tikal
tikci
tikdi
tikeddalin
tikeli
tikelmanin
tikelt
tikilsa
tikkal
tikkelt
tikkwal
tikli
tiklisent
tikliwin
tiknariyin
tikruranin
tikta
tikti
tiktiwin
tikubaniyin
tikuz
tikwal
tikwatin
tikyi
tilas
tilawin
tilawt
tilelli
tilellit
tilelliyin
tilemt
tilemz
tileɣmatin
tili
tilibizyu
tilifun
tilin
tilisa
tilist
tilit
tiliwa
tiliz
tilizri
tilkin
tilkinin
tillas
tilleli
tillicin
tilmas
tilsanin
tilufa
tiluɣa
tilɣa
tilɣuɣa
timad
timaddudin
timaklasin
timanit
timarikaniyin
timawit
timaynutin
timaz
timaziɣin
timdinin
time
timect
timeddursa
timedkin
timegrudin
timejjiwin
timekkest
timellalin
timelwi
timenza
timenɣiwt
timeqqr
timeqqranin
timeqranin
timer
timerniwt
times
timesbaniyin
timesdurifsan
timeskanin
timeskebrin
timeslayin
timess
timest
timestuga
timesɣaz
timetti
timettit
timettiyin
timez
timezdayin
timezdit
timezgida
timezgiyin
timezgunin
timezwura
timezzayin
timezzit
timgad
timid
timimun
timit
timiwa
timizar
timizart
timkuz
timlilit
timliliyin
timmad
timmi
timmunent
timmuzɣa
timnad
timnummsanin
timraradin
timri
timsal
timsedfert
timseksumin
timselleh
timsennenin
timsennent
timseɣz
timsirin
timsizzelt
timsud
timsut
timtegzitin
timucent
timucuha
timudmin
timunent
timunnent
timura
timuta
timuzɣa
timuɣliwin
timz
timzikin
timziregt
timzizelt
tin
tina
tinafukin
tinariwen
tinaɣlalin
tinduf
tinefra
tineggura
tinegnit
tinegwa
tinekkit
tinerkuk
tines
tineslemt
tinez
tingi
tini
tinid
tinigt
tiniri
tiniɣit
tinliwin
tinma
tinmel
tinna
tinnagrawt
tinselmin
tint
tintaliwin
tintalyin
tinzert
tipaza
tipped
tiqbayliyen
tiqbayliyin
tiqbilin
tiqburin
tiqcicin
tiqdimin
tiqent
tiqqayin
tique
tir
tira
tirawin
tirawt
tirebbaɛ
tirect
tiregwa
tiremt
tirga
tiririt
tirlandit
tirmit
tirmitin
tirni
tirrayin
tirrin
tirrugza
tiruca
tirz
tirza
tis
tisamiyin
tiseddarin
tisedmirin
tiseflay
tiseflayin
tisemranin
tisemsilt
tisent
tisertiyin
tiserɣuda
tisiway
tiskanin
tiski
tislamit
tislavin
tislit
tismin
tisnat
tisnudranin
tissas
tisselwit
tissi
tissirt
tissisyin
tissit
tissiwin
tist
tisuda
tisulla
tit
titan
titergiyin
tition
title
titre
titrit
tiwaculin
tiwal
tiwet
tiwetmin
tiwilayin
tiwin
tiwizi
tiwsatin
tiwsitin
tiwtilin
tiwwura
tixencelt
tiyad
tiyed
tiyeggert
tiyemmatin
tiyita
tiyitiwin
tiynin
tiytiwin
tiz
tizegzawin
tizermemmuyin
tizerzert
tizeɣt
tizgelt
tizi
tiziri
tizit
tizizwa
tizizwit
tizlatin
tizlit
tizlitt
tizmekt
tizmert
tiznatiyin
tiznit
tizra
tizrawin
tizrigin
tizumag
tizumbiyin
tizunt
tizutar
tizwal
tizza
tizzegzut
tiɛrabin
tiɛwinin
tiɣawsiwin
tiɣbula
tiɣelnawin
tiɣilt
tiɣimit
tiɣirdemt
tiɣiwanin
tiɣmert
tiɣmi
tiɣmiwin
tiɣr
tiɣra
tiɣremt
tiɣri
tiɣrifin
tiɣriwin
tiɣzert
tjerrumt
tjumma
tjummiwin
tkadimit
tkadimt
tkalast
tkard
tkatalant
tkatut
tkebbanit
tkec
tkelmanin
tkemmel
tker
tkerbust
tkerrust
tkeryas
tkessawt
tkirgizit
tkukt
tkura
tkurawin
tkurdit
tkurt
tla
tlalit
tlallit
tlat
tlata
tlatinit
tlatint
tlawin
tlaɣma
tleh
tlelli
tlelliwin
tlemmast
tlemsan
tlemz
tleɣmatin
tli
tlifa
tlilat
tlisa
tlitwanit
tliwa
tlla
tlu
tlufa
tluksemburgit
tlul
tmacahut
tmacahutt
tmacinin
tmacint
tmagit
tmaheɣt
tmalus
tmanaɣt
tmaneɣt
tmanya
tmara
tmasih
tmaskarin
tmawalt
tmaz
tmazight
tmazirt
tmaziɣt
tmazɣa
tmect
tmeddit
tmeddurt
tmedkin
tmedyazt
tmedyezt
tmehla
tmejjirin
tmekkasin
tmekkast
tmekkest
tmekkisin
tmekkist
tmellalin
tmellalt
tmellit
tmelyant
tmend
tmendawt
tmennad
tmennat
tmentilin
tmentilt
tmenya
tmenɣest
tmenɣiwt
tmeqbert
tmer
tmerniwt
tmerrit
tmerwin
tmes
tmesbaniyin
tmesdurifsan
tmesgida
tmeskanin
tmeskant
tmeskebrin
tmeslayin
tmeslayt
tmess
tmet
tmettant
tmetti
tmettiyin
tmettut
tmez
tmezdayt
tmezduɣt
tmezgida
tmezgidiwin
tmezgunin
tmezgunt
tmezzit
tmezziyin
tmeɣra
tmeɣriwin
tmid
tmiwa
tmnad
tmucuha
tmudemt
tmudmin
tmugri
tmulla
tmuqra
tmura
tmurt
tmuski
tmuskiwin
tmusni
tmusniwin
tmussni
tmuɣli
tmuɣliwin
tnariyin
tnaz
tnazzant
tnaɣlalin
tnebd
tneflit
tnefsit
tneggarut
tneggizt
tneglufin
tnegluft
tnegmud
tnegwa
tnejjikt
tnekkit
tnekra
tneqqit
tnes
tneslemt
tneyyet
tnez
tnezzayt
tnezzut
tnila
tnira
tniri
tniriwin
tnuda
to
today
todd
toile
tokyo
tom
tome
tomus
tor
toronto
total
touareg
toufik
tour
tous
tout
town
tpidgint
tqacuct
tqeddec
tqent
tr
tra
trabut
trad
tradition
traduction
trafalgar
traite
trakalt
translated
transliteration
transmission
tre
treatment
trebbaɛ
trebbut
trebbuya
tree
tregwa
trennu
tres
trewla
tria
tribu
tribus
trie
trifit
tripod
tririt
trisiti
tro
trois
troupe
trouve
truca
truh
trujlita
trumit
trusit
truz
ts
tsabit
tsafin
tsartut
tsawel
tsawin
tseddar
tseddarin
tseddart
tseddawit
tseddi
tsedmirin
tsedmirt
tseftit
tsegla
tsekkurt
tsekla
tsekliwin
tsekrin
tsekta
tselwit
tsemhuyin
tsemhuyt
tsemsilt
tsen
tsenfednin
tsengama
tsensartut
tsenselkimt
tsenɣersiwt
tserran
tsertit
tserɣint
tserɣuda
tseɣleyt
tsinin
tsint
tsuda
tsuddest
tsudut
tsunami
tsuqilin
tsusmi
tsut
tsuta
tt
ttafen
ttag
ttagaden
ttaken
ttalasen
ttalin
ttamnen
ttar
ttaran
ttarran
ttarun
ttaruɣ
ttasen
ttat
ttawd
ttawil
ttawilat
ttawin
ttaznen
ttaɣen
ttbeddilen
ttbut
ttebyita
tteddren
tteddu
tteddun
ttejr
ttekkan
ttekkin
ttekksen
ttemcabin
ttemcabint
ttemlilin
ttemsefhamen
ttemɣayen
ttemɣayent
tteryel
ttesrih
ttgen
tth
ttidiren
ttidirent
ttili
ttilin
ttilint
ttin
ttingen
ttinigen
ttinin
ttjur
ttlata
ttlaɣ
ttmagaren
ttmagen
ttmeslayen
ttmeslayent
ttmettaten
ttnadin
ttnadiɣ
ttnaɣen
ttqadaren
ttr
ttrad
ttrajun
tts
ttumeggzen
ttumeggzent
ttun
tturaren
tturk
ttusemman
ttusisemlen
ttusxedmen
ttuta
ttuɣ
ttuɣalen
ttwabnan
ttwafken
ttwah
ttwakksen
ttwalin
ttwanfan
ttwanɣan
ttwarun
ttwasemman
ttwasnen
ttwassnen
ttwassnent
ttwat
ttwaxdamen
ttwaɛezlen
ttwuran
ttxemmimen
ttz
ttɛawaden
ttɣilen
tu
tuareg
tubar
tuber
tubiret
tuc
tucbih
tuccanin
tuccd
tuccent
tud
tudart
tudayt
tuddar
tuddert
tuddisin
tuddna
tuddsa
tuddsiwin
tude
tuder
tudert
tudes
tudmisin
tudmist
tudra
tudrin
tudsa
tufa
tuffirt
tuffiɣt
tuffra
tuffɣa
tuffɣiwin
tufra
tufrar
tufya
tufɣa
tug
tuga
tugar
tugart
tugdi
tugdut
tuget
tugett
tugg
tuggdi
tuggta
tuggtudert
tuggurt
tugi
tugna
tugniwin
tujjya
tukkest
tukkist
tukkit
tukksa
tukr
tuksa
tuksitant
tukza
tulawin
tuli
tullas
tullawin
tullisin
tullist
tulmisin
tumanin
tumant
tumart
tumast
tumdin
tumedt
tumert
tummidt
tumz
tunag
tundra
tunes
tunis
tunisie
tunnigt
tuns
tunsibt
tunt
tuqqla
tuqqna
tur
tura
turagt
turah
turar
turart
turat
turda
turdiwin
turdus
turew
turfin
turfinn
turin
turkill
turkya
turmidt
turrit
turufit
turuft
turwin
turza
tus
tusa
tusdidin
tusdidt
tusligt
tusna
tusnakt
tusnant
tusniwin
tusridt
tussda
tussit
tussna
tussnant
tussniwin
tusut
tut
tutalyt
tutlayin
tutlayt
tutrict
tutrimin
tutrimt
tuttut
tuwed
tuwey
tuwi
tuwmert
tuwwt
tuyat
tuz
tuzduɣt
tuzer
tuzga
tuzin
tuzna
tuzza
tuzzalt
tuzzuft
tuzzya
tuzzyiwin
tuɣ
tuɣac
tuɣal
tuɣaled
tuɣalin
tuɣaltin
tuɣd
tuɣit
tuɣmas
tuɣmest
tv
twaccult
twaculin
twacult
twaffra
twaksa
twala
twalid
twat
twati
twaɣit
twennad
twennat
twenza
twessna
twet
twetlin
twetmin
twilayat
twilayet
twilayin
twilayt
twinas
twines
twinest
two
twuri
twuriwin
twurta
twurtiwin
txeddem
txedmed
txencelt
txus
tyemmat
tyemmatt
tyita
tyiwt
tyudus
tyuga
tz
tza
tzedmin
tzeglin
tzelɣa
tzemkin
tzemmar
tzemmurt
tzeqqa
tzermemmuyin
tzerrew
tzerzayt
tzeɣlilin
tzizwa
tzumar
tzumbiyin
tzunegzirt
tzuri
tɛadda
tɛawed
tɛebrit
tɛedda
tɛuss
tɣaltin
tɣamsa
tɣara
tɣawla
tɣawsa
tɣawsiwin
tɣelli
tɣellist
tɣemrin
tɣerdayt
tɣerfin
tɣerma
tɣermiwin
tɣessa
tɣimit
tɣirdmiwin
tɣiwanin
tɣiwant
tɣulin
tɣult
tɣur
tɣuri
u
ub
uba
ubabat
ubaggus
ubagu
ubanɣu
ubareɣ
ubat
ubb
ubben
ubeddel
ubeh
ubelkim
ubellez
uber
uberkan
uberni
ubleɣ
ubrid
ubuferriw
ubunsay
uburɣes
uc
uccen
ucebbub
ucengu
ucennay
uceqquf
ucin
ucubar
ud
udabu
udad
udan
uday
udayen
udbil
udd
udden
uddis
uddisen
uddu
uddun
udebbuz
udeffu
udekkar
udem
udfar
udfel
udi
udid
udinan
udlis
udmawan
udmawanen
udmawen
udnanas
udrar
udren
udrim
udrum
udus
ue
uf
ufakan
ufan
ufant
ufares
ufaris
ufaylu
ufell
ufella
ufen
uferdis
uffir
uffiren
uffiɣ
uffiɣen
ufgan
ufi
ufimidi
ufin
ufit
ufiyin
ufiɣ
ufran
ufransis
ufraq
ufray
ufrin
uft
ufunas
ufurk
ufurmas
ufus
ufyan
ug
uga
ugaden
ugadez
ugadeɣ
ugadir
ugafa
ugama
uganda
ugani
ugar
ugaraw
ugaren
ugarent
ugasas
ugaz
ugbur
ugdil
ugdud
ugeddis
ugedr
ugeffur
ugeldun
ugellid
ugellus
ugelmim
ugemmad
ugemmay
ugemmud
ugemmun
ugen
ugerjum
ugerru
ugerrum
ugersal
ugezdu
uggar
uggug
ugin
ugitu
uglam
uglan
uglay
uglim
ugmam
ugmar
ugmud
ugni
ugniw
ugraw
ugrawliw
ugris
ugrut
ugten
ugtent
ugummu
ugur
uguren
ugusim
ugzedu
uh
uhad
uhaggar
uhidr
uhilium
uhuki
ujeg
ujemmal
ujin
ujiniral
uk
ukabar
ukala
ukamyun
ukar
ukaswar
ukawsar
ukaɣed
ukbal
ukdu
ukebri
ukeffadu
ukemmel
uker
ukerdis
ukerrer
ukessar
uki
ukkud
ukkuz
ukr
ukranya
ukrayin
uksijin
uksum
ukt
uktab
ukud
ukuma
ukuz
ukzen
ul
ula
ulac
ulama
ulamek
ulamma
uland
ulant
ulawen
ulemmas
ulempiyen
ulfa
ulfan
ulfu
ulfun
ulga
ulh
ulhas
ulin
ulit
ulla
ulli
ulman
ulmu
ulmud
ulsen
ult
ulzasen
ulzuz
ulɣem
ulɣu
um
uma
umad
umadal
umadaɣ
umagrad
umagraman
umahil
umal
umalay
umalu
umam
uman
umanar
umanen
umanit
umaniyen
umar
umarir
umaru
umat
umata
umawal
umaynag
umaynut
umaz
umazellaw
umaziɣ
umazrar
umazzal
umaɣad
umaɣat
umaɣus
umbeɛd
umcic
umd
umdan
umeccaq
umecwar
umed
umeddakel
umedya
umedyaz
umeggez
umeh
umeksa
umellal
umellil
umelyun
umen
umenkad
umenkud
umennuɣ
umenuɣ
umenz
umenzaw
umenzu
umenɣi
umeqqran
umeqran
umer
umercel
umerri
umerruk
umeskan
umeskar
umeslay
umesni
umez
umezdaɣ
umezgun
umezruy
umezwaru
umeɣnas
umeɣrad
umeɣras
umgarad
umgaru
umh
umi
umidag
umihi
umin
umit
umiter
umiyen
umiz
umkan
umlil
umlulli
ummam
umman
ummid
umnen
umnir
umnukal
umqerqur
umrawseggas
umray
ums
umsaddas
umsenɣi
umseqdac
umt
umtawa
umtiweg
umud
umuddir
umunak
umur
umurigam
umusnaw
umussnaw
umussu
umuɣ
umwan
umya
umyag
umyaraw
umyaru
umyen
umyurar
umz
umɣar
un
una
unabad
unadi
unafag
unag
unagen
unagi
unagraw
unamek
unavirus
unaz
unazur
unbad
unbir
und
under
undiyen
une
unebdu
unect
uneggaf
uneggaru
uneggez
unegliz
unekcum
unelmad
unembad
unemgal
unemhal
unen
unesco
unez
unezwu
unezzu
uneɣlaf
uneɣmas
unfafad
unfufed
ungal
ungalen
ungar
uni
unicode
unin
union
unit
unite
united
universalis
universe
universitaires
universite
university
uniyen
unknown
unnar
unnen
unnig
unnigen
unrecognized
uns
unsay
unsib
unstats
unt
untersuchungen
unti
unulfu
unuɣ
unuɣen
unwi
unya
unyir
unz
unzul
up
uppa
upyanu
uq
uqamum
uqarruy
uqasi
uqbayli
uqbel
uqbu
uqcic
uqeddac
uqer
uqerru
uqerruy
uqet
uqqet
uqqin
uqqten
uqrat
uqus
ur
ura
urabah
urad
uran
uranya
urar
uraren
urarent
urasan
urasya
urbain
urdun
uren
urent
ureyya
ureɣ
urfan
urg
urgaz
uri
urigami
urih
urikata
urin
uriyin
uriɣ
urk
url
urlal
urmir
urnan
ursa
ursu
ursus
ursuten
urt
urtan
urtica
uruguay
urugway
urumi
uruppa
urured
urway
uryin
urɛad
urɣu
us
usa
usad
usaduf
usaflaw
usagen
usalay
usali
usallaf
usama
usamar
usamer
usammar
usammer
usan
usarag
usaru
usawen
usbeddi
usbit
usdid
usdiden
usdukkel
usebdad
usebded
usebges
usebter
usec
used
usedday
useffud
useflay
usefru
usefruret
usefrurex
usegdef
usegder
usegg
useggas
useggwas
usegmi
usegnaf
usegrew
usegwas
usegzel
useh
usekcem
usekkil
usekkud
useklu
usekraf
usekti
uselkim
usellek
uselmad
uselmed
uselway
usemdu
usemgerred
usemgirred
usemmid
usemmili
usemmit
usemres
usenfar
usenmel
usenqed
usentel
usentem
usenzi
useqdec
useqqamu
userdas
userdun
usersi
userɣen
uses
usesmel
usewwi
usexdem
usfijjej
usfugel
usfuggel
usganfu
usggas
usgunef
usgunfu
usid
usiden
usigna
usignew
usihel
usiked
usikel
usiken
usileɣ
usima
usin
usinuksid
usirem
usismel
usiwed
usiwel
usiwet
usizzel
uslelli
uslig
usligen
usmel
usmeskel
usnan
usnefli
usnerni
usnirem
usnulfu
usqamu
usrag
usrid
ussan
usseggwas
ussegwass
usselkem
usselmed
usseqdec
ussezgi
ussid
ussis
ussisen
ussnan
ussnanen
ussuffeɣ
ussuji
ussukkes
ust
usteɛreb
ustr
ustralya
ustudyu
usu
usud
usudu
usufeɣ
usugen
usuji
ususru
usuter
usuɣel
uswir
usɣan
usɣar
ut
utaram
uterras
utilifun
utilise
utin
utitan
utmelli
utram
utrim
utt
uttekki
uvirus
uwanak
uwanek
uwaqqur
uwd
uwdan
uweqqas
uwin
uwliwel
uwraɣ
uwtem
uwyen
uxas
uxeddim
uxemmem
uxris
uxxam
uy
uyama
uyazid
uyefki
uyeh
uyen
uyiren
uz
uza
uzadur
uzaglu
uzagur
uzal
uzamul
uzan
uzarug
uzawan
uzaɣar
uzbu
uzdal
uzdiger
uzeffar
uzeggaɣ
uzegrir
uzegza
uzegzaw
uzekka
uzelmad
uzemmur
uzemz
uzenzar
uzet
uzgen
uziri
uziweɣ
uzizzer
uzmez
uzmig
uzref
uzuf
uzumba
uzunɣid
uzwaw
uzwel
uzwu
uzzal
uzzu
uzɣar
uɛd
uɛdaw
uɛebbud
uɛeddi
uɛeqqa
uɛessas
uɣ
uɣal
uɣalen
uɣalent
uɣanib
uɣanim
uɣara
uɣaras
uɣawas
uɣbalu
uɣella
uɣelluy
uɣelmi
uɣen
uɣent
uɣer
uɣerbaz
uɣerda
uɣerrabu
uɣersiw
uɣes
uɣesmar
uɣest
uɣewwiɣ
uɣilas
uɣmir
uɣmis
uɣref
uɣris
uɣrum
uɣucaf
uɣur
uɣyul
v
va
valentin
van
var
varepsilon
vatikan
vava
ve
venezuela
vent
venus
verbe
verlag
vermondo
vers
version
versions
ves
veto
vi
via
victor
victoria
video
videoprojecteur
vie
vielliard
vienna
vietnam
vii
viii
vij
village
villages
ville
villes
vincent
vinci
vinisya
virginia
virus
viruses
vision
vittorio
vocabulaire
voir
voivodeship
voix
vol
volte
volume
volution
von
voyage
vre
vrier
vu
vue
vulgare
vulgaris
vulpes
w
wa
wab
wac
waccaren
wacciwen
wacemma
wacer
wach
wacu
wad
wadad
wadal
wadanen
wadda
waddad
waddaden
waddag
waddal
waddalen
waddar
wadday
waddud
wadduden
wadeg
wadgen
wadis
wadu
wadur
waffal
waffaw
wafriwen
wag
wagar
wagarsafen
wagaz
wagazen
waggad
waggagen
waggug
waggur
wagguren
wagi
wagim
wagla
wagnun
wagur
waguren
wah
wahil
wahilen
waj
wajjed
wak
wakal
wakalen
wakat
waken
wakk
wakka
wakken
waklan
wakli
wakraren
wakud
wakuden
wal
wala
walan
walaɣ
walbaɛd
walbumen
walennas
wali
walim
walin
wall
wallal
wallalen
wallaɣ
wallaɣen
wallen
wallunmas
wallus
walluy
walma
walmaniyen
walt
waman
wamber
wamek
wameɛ
wamin
wamlal
wammas
wammud
wamri
wamun
wamur
wan
wanag
wanaw
wanda
wandalus
wanect
wanecta
wang
wanida
wannar
wannay
wannect
wannecta
wansayen
wansifen
wanu
wanz
wanza
wanzaren
war
wara
waras
waray
waraz
warazen
warda
warg
warglen
warim
warrac
warramen
warraw
warraz
warrazen
warsaw
warsu
wartilan
warz
warzazat
was
wasel
washington
wasif
wasmi
wass
wassa
wassaɣ
wassaɣen
wassif
wasun
wat
watan
watch
watig
watmaten
wawal
wawalen
wawras
way
waya
wayagi
wayback
waydi
wayed
wayen
wayes
wayet
wayetma
wayi
wayis
wayla
wayt
wayyur
wayyuren
waz
wazag
wazagen
wazal
wazalen
wazemz
wazuk
wazzug
wazzun
waɛli
waɛmer
waɛrab
waɛraben
waɣzen
wd
we
web
webleɣ
webrid
website
wed
wedfar
wedfel
wedlag
wedlis
wedrar
wedras
wedren
wedrim
wedrum
weekly
wefgan
wefran
wefru
wefrux
wefsay
wegdud
wegener
weglam
weglim
wegmam
wegmar
wegmud
wegni
wegraw
wegris
wegru
wegrud
wegt
wegzam
weh
wehmen
wehran
weimar
wejda
wejgu
wejɛud
wekdu
wekfadu
weksil
weksujin
weksum
welban
weld
welkam
welmad
welt
weltennas
weltma
welɣem
wember
wemcabi
wemcic
wemd
wemda
wemdan
wemgarad
wemgaru
wemkan
wemni
wemray
wemruj
wemsefham
wemyag
wemyaraw
wemɛuc
wemɣar
wen
wengar
wenissa
wennar
wenrar
wensa
went
wenz
wenza
wenzar
weqbel
weqbu
weqcic
weqmad
wer
were
werg
wergaz
wergla
werja
werjin
werkawal
werke
wermud
wertilan
wertiran
werway
weryaɣel
werɛad
wes
wesget
weskasi
weslelli
wesmel
wesmil
wesnay
wesnerni
wesnirem
wesnulfu
wesrem
wessara
west
westan
westay
western
westeros
westminster
westum
weswir
wesɣan
wesɣar
wet
wetram
wewras
wexred
wexxam
weyya
wez
wezday
wezgen
wezger
wezniq
wezra
wezrar
wezref
wezrem
wezwu
wezzu
wezɣal
wezɣar
weɛli
weɛr
weɛraben
weɣlan
weɣlis
weɣmis
weɣr
weɣref
weɣrem
weɣyay
weɣyul
weɣzu
wfaras
what
which
white
who
why
wi
wid
widak
widen
wien
wig
wigi
wiki
wikimapia
wikimedia
wikipedia
wila
wilaya
wilhelm
william
williams
wilson
wimbledon
win
wind
windows
winna
winterfell
wir
wirzan
wis
wisar
wisconsin
wiss
wissen
wissin
wit
with
wiyad
wiyid
wizgan
wlad
wnez
wnif
wolf
wolfgang
wolves
women
wonders
wood
work
works
world
wr
wrida
wsenɣed
wsesmel
wsuji
wten
wu
wuc
wuccanen
wuccen
wud
wudayen
wudem
wudi
wudmawen
wudus
wugar
wuggug
wuglan
wugur
wuguren
wuhan
wukud
wul
wulac
wulawen
wulli
wullis
wumdan
wumi
wumuɣ
wungal
wungalen
wunti
wunuɣ
wunuɣen
wurar
wuraren
wureɣ
wurfan
wurigami
wurmir
wurtan
wurufiyen
wuseggas
wussan
wusud
wut
wuz
wuzellagen
wuzzal
wuɣur
wwd
wwed
wwi
wwid
wwin
wwint
www
x
xal
xaled
xalef
xali
xalifa
xalil
xan
xarttum
xas
xdem
xed
xedda
xeddam
xeddmen
xeddment
xedmen
xedment
xef
xeldun
xelfun
xelluf
xelqen
xemsa
xerrat
xes
xesren
xet
xettab
xf
xi
xii
xiii
xilla
xir
xireddin
xiv
xix
xlifa
xlig
xlil
xmir
xmisti
xnifra
xp
xubbana
xug
xus
xuwarzmi
xvi
xwiled
xx
xxi
y
ya
yacine
yad
yada
yaf
yag
yaggi
yaggug
yaggugen
yagi
yah
yahia
yak
yakan
yakk
yakked
yakkw
yakuc
yakuf
yakw
yal
yales
yali
yall
yalla
yaman
yamen
yamina
yan
yanen
yanin
yanni
yant
yaounde
yapan
yara
yark
yarna
yaru
yas
yasen
yasin
yasmina
yass
yat
yawed
yawet
yawi
yawin
yayınları
yazid
yaɛla
yaɛqub
yaɣ
yd
ye
year
years
yebbwi
yebd
yebda
yebdan
yebder
yebdu
yebna
yebnan
yebnu
yebrir
yebrit
yebt
yebter
yebwid
yebɛed
yebɣa
yebɣan
yebɣi
yebɣu
yec
yecban
yecc
yeccna
yeccur
yecna
yecnu
yed
yedda
yeddan
yeddem
yedder
yeddren
yeddu
yeddukel
yeddukklen
yedduklen
yedg
yedgan
yedles
yedlisen
yedraren
yedren
yedrimen
yeffer
yeffeɣ
yeffiɣ
yeffren
yeffɣen
yefhem
yefk
yefka
yefkan
yefken
yefki
yeflal
yeflalen
yeflalin
yeflisen
yefr
yefra
yefrah
yefrax
yefren
yefreq
yefri
yefru
yefsan
yefɣen
yeg
yegan
yegber
yegda
yegdan
yegdel
yegduden
yegfilen
yeggar
yeggran
yegguma
yegguni
yeggunin
yegla
yeglamen
yeglan
yegled
yegli
yeglu
yegmamen
yegmanen
yegmen
yegnan
yegra
yegran
yegrawen
yegren
yegrin
yeh
yehwa
yehwan
yejbed
yejjan
yejmeɛ
yejreh
yekcem
yekfa
yekfan
yekk
yekka
yekkan
yekkat
yekkaten
yekkawen
yekker
yekkes
yekki
yekkren
yekksen
yekna
yeldi
yeldin
yelfa
yelh
yelha
yelhan
yell
yella
yellan
yellel
yelli
yellilten
yellis
yellu
yelmed
yelmez
yelsa
yemcac
yemd
yemdanen
yemdukal
yemen
yemeslayen
yemgarad
yemgaraden
yemgerraden
yemhel
yemjuhad
yemlal
yemlil
yemma
yemmager
yemmal
yemmalen
yemmas
yemmel
yemmeslay
yemmeslayen
yemmet
yemmez
yemmug
yemmugen
yemmuger
yemmugren
yemmut
yemmuten
yemnayen
yemneɛ
yemnummsen
yemrabd
yemrayen
yemut
yemxallaf
yemxallafen
yemyagen
yemɣan
yemɣar
yemɣaren
yemɣi
yen
yenbed
yenfufed
yenger
yenh
yenher
yenker
yenna
yennan
yennayer
yennaɣ
yennerna
yenni
yennulfa
yennulfan
yennumken
yennuɣ
yennuɣen
yensa
yent
yenumen
yenzan
yenɣa
yenɣan
yeqbayliyen
yeqbel
yeqbil
yeqdec
yeqjan
yeqqar
yeqqaren
yeqqel
yeqqen
yeqqim
yeqqimen
yeqqlen
yeqqnen
yeqqur
yeqquren
yeqreb
yeqwa
yer
yerbeh
yerfa
yerfed
yergazen
yerna
yernan
yernu
yerr
yerra
yerran
yerri
yerructan
yers
yersen
yerwel
yerz
yerza
yerzan
yerɣan
yes
yesban
yesbed
yesbedd
yesbedden
yesdukel
yesdukkel
yesduklen
yeshel
yesker
yesla
yeslul
yesmilen
yesnekren
yesnen
yesnerni
yesnulfa
yesnulfan
yesnulfu
yesri
yess
yessakel
yessarem
yessawal
yessawalen
yessawat
yessawd
yessawed
yessawel
yessawet
yessawlen
yessebded
yessebgen
yessed
yessefhem
yessefk
yessefken
yessefra
yessefrurux
yessegrawen
yessegrew
yesseh
yessekcem
yessekles
yessekren
yesselh
yesselmad
yesselmaden
yesselmed
yessemras
yessen
yessenker
yessent
yesseqdac
yesseqdacen
yesseqdec
yesser
yesserfan
yessermed
yessers
yesserwel
yessetma
yessew
yessewseɛ
yessexdam
yessexdamen
yessexdem
yesseɣli
yesseɣret
yessi
yessisrigen
yessiwed
yessiz
yesskan
yesskanay
yesskanayen
yessken
yessker
yessnen
yessrusay
yessufeɣ
yessuffeɣ
yessuffɣen
yessufuɣen
yessufɣen
yessuli
yessumer
yessusem
yessuter
yessutren
yessutur
yessuturen
yesteqsa
yesteɛr
yesteɛref
yesyi
yesɛa
yesɛan
yesɛed
yesɛedda
yesɛeddi
yesɛi
yesɛu
yesɣaren
yet
yetran
yetri
yett
yettabaɛen
yettadam
yettaf
yettag
yettak
yettaken
yettakken
yettales
yettali
yettalin
yettallen
yettalsen
yettamnen
yettaran
yettargu
yettarra
yettarran
yettaru
yettarun
yettas
yettasen
yettat
yettawat
yettawed
yettawi
yettawin
yettawt
yettazen
yettazzalen
yettaɣ
yettaɣen
yettban
yettbeddil
yettbeddilen
yettbin
yettbinen
yettd
yettekka
yettekkan
yettekki
yettekkin
yettembiwil
yettemcabi
yettemcabin
yettemɣay
yettemɣayen
yettenfufud
yettenfufuden
yettent
yettezzin
yetteɣlay
yettfakka
yettfeg
yettfejjijen
yettferfiren
yettgen
yettgin
yetth
yettidir
yettidiren
yettiki
yettikki
yettili
yettilin
yettinig
yettinigen
yettkemmil
yettmag
yettmagen
yettmeslay
yettmeslayen
yettmettat
yettnadi
yettnadin
yettnaɣ
yettnaɣen
yettnerni
yettr
yettraju
yettru
yettruh
yetts
yettsbed
yettu
yettuh
yettumeggez
yettunefk
yettunefka
yettunefken
yettuneh
yettunnefkan
yettura
yetturar
yetturaren
yettusemma
yettusemman
yettusemres
yettuseqdac
yettuseqdacen
yettusesmel
yettusexdem
yettusismel
yettusmersen
yettusxedmen
yettuz
yettuɣal
yettuɣalen
yettuɣil
yettwabdar
yettwabder
yettwabeddel
yettwabna
yettwabnan
yettwac
yettwad
yettwaddgen
yettwaf
yettwafk
yettwafken
yettwafren
yettwagdel
yettwaggzen
yettwaglem
yettwah
yettwakelsen
yettwakkes
yettwali
yettwalin
yettwamd
yettwamneɛ
yettwant
yettwanɣa
yettwanɣan
yettwaqbel
yettwaqqnen
yettwarna
yettwaru
yettwarun
yettwasemma
yettwasemman
yettwasemmi
yettwasen
yettwasentmen
yettwasexdem
yettwaskaden
yettwasmersen
yettwasnen
yettwasnirem
yettwassen
yettwassenen
yettwassnen
yettwasxdmen
yettwasxedmen
yettwat
yettwattun
yettwaxdam
yettwaxdem
yettwaxedmen
yettwaz
yettwazmer
yettwaɣen
yettwura
yettxemmim
yettɛassan
yettɣimi
yewed
yewhem
yewin
yewit
yewten
yewwed
yewwet
yewwi
yewwid
yewwin
yewɛer
yexdem
yexdeɛ
yexlef
yexleq
yexs
yexser
yextar
yexxamen
yexxdem
yez
yezdeɣ
yezdi
yezdin
yezga
yezgan
yezgaren
yezger
yezmer
yezmir
yezra
yezri
yezrin
yezwar
yezwaren
yezweg
yezzi
yezzin
yeɛdawen
yeɛdel
yeɛdil
yeɛg
yeɛmed
yeɛnan
yeɛqub
yeɛred
yeɣd
yeɣlanen
yeɣleb
yeɣli
yeɣlin
yeɣmisen
yeɣr
yeɣra
yeɣran
yeɣriben
yeɣsan
yeɣyal
yeɣzer
yeɣɣar
yeɣɣaren
yg
ygelden
yh
yi
yibaskiyen
yibelbaren
yiberbacen
yiberdan
yiberkanen
yibizent
yibki
yibulisen
yibureɣsen
yicawiyen
yiceffaren
yicennayen
yicicaniyen
yicinwaten
yicrat
yid
yidammen
yideg
yideggan
yidem
yider
yiderginen
yiderman
yides
yidgan
yidi
yidir
yidis
yidisan
yidisken
yidles
yidlisen
yidmaren
yidrasen
yidrimen
yidsen
yidunan
yidunatiyen
yidurar
yif
yifasen
yifassen
yifat
yifawatayen
yifen
yiferdisen
yiferh
yiferki
yiferran
yiflisen
yifr
yifransisen
yifrax
yifsan
yifuyla
yig
yigaliyen
yigarawen
yigd
yigduden
yigeldunen
yigelliden
yigelmimen
yigem
yigen
yigenni
yiger
yigerdan
yigerramen
yigim
yigiman
yigimen
yigit
yigmamen
yigmanen
yigran
yigrawliwen
yigt
yigudar
yigujilen
yigumma
yih
yiherrasen
yihilaliyen
yijapuniyen
yijdi
yijqiwen
yikabaren
yikamruniyen
yikayaden
yikilumitren
yikirgiziyen
yikurdiyen
yil
yila
yilef
yilel
yilem
yilemz
yiles
yilfan
yili
yilin
yillel
yilli
yillu
yilmez
yilsawen
yilu
yilugan
yimad
yimagraden
yimakaren
yimal
yimalas
yiman
yimarikaniyen
yimasih
yimasiliyen
yimassanen
yimawlan
yimaziɣen
yimcac
yimceyyeɛ
yimceyyɛen
yimd
yimdanen
yimdukal
yimeddukal
yimeh
yimejjayen
yimelyan
yimelyunen
yimennuɣen
yimensi
yimenz
yimenɣi
yimenɣiyen
yimeqqranen
yimeqranen
yimeskaren
yimez
yimezdaɣ
yimezdaɣen
yimezwura
yimeɣnasen
yimg
yimi
yiminigen
yimir
yimiren
yimjuhad
yimma
yimnayen
yimrabd
yimsawalen
yimselmen
yimsulta
yimtiwgen
yimucaɣ
yimuddiren
yimuhaɣ
yimukan
yimunak
yimunaken
yimura
yimuren
yimurigamen
yimuriyen
yimusnawen
yimussnawen
yimz
yimzadaɣen
yimɣan
yimɣi
yimɣur
yimɣuzen
yin
yinaz
yinaziyen
yinelmaden
yinembad
yines
yinesbaɣuren
yinezgan
yinezgi
yineɣlafen
yini
yinig
yinigen
yinii
yiniten
yinjil
yinni
yinselmen
yinsleman
yinurar
yinzan
yinzaren
yiqbayliyen
yiqeddacen
yiqeddicen
yiqerra
yiqert
yiqet
yir
yiran
yiraten
yirawen
yirden
yirebraben
yirem
yirgazen
yiri
yirna
yirumaniyen
yirumyen
yirusiyen
yirz
yis
yisad
yisafen
yisaffen
yisalan
yisallen
yisawad
yisefka
yisefra
yiseggasen
yisekkilen
yisekla
yisekna
yiselmaden
yiselman
yisem
yisen
yiserdasen
yiseɣ
yisig
yismawen
yismilen
yisragen
yisrayel
yissem
yissen
yissin
yissu
yist
yisud
yisura
yiswi
yiswiren
yiswiyen
yisɣaren
yit
yitergiyen
yiterkiyen
yititanen
yitran
yitri
yiwad
yiwanaken
yiwat
yiwed
yiwen
yiwet
yiwindaliyen
yiwudam
yiwunak
yiwwas
yiwwet
yixeddamen
yixef
yixfan
yixxamen
yiylanen
yiz
yizan
yizem
yizenqan
yizerfan
yizerman
yizi
yiziriyen
yizmawen
yizri
yizwawen
yizzayriyen
yiɛdawen
yiɛebbasiyen
yiɛeggalen
yiɛez
yiɛraben
yiɣallen
yiɣbula
yiɣef
yiɣerbazen
yiɣerfan
yiɣernuqen
yiɣersiwen
yiɣes
yiɣi
yiɣil
yiɣir
yiɣlanen
yiɣmisen
yiɣrem
yiɣsan
yiɣzer
yjerh
ylulen
ynes
york
yoshizawa
you
youcef
young
yourself
youssef
youtube
yqerben
ytett
yu
yub
yuba
yud
yudas
yuddes
yuddsen
yuder
yudes
yudnen
yudren
yudsen
yufa
yufad
yufan
yufi
yufrar
yufraren
yugad
yugar
yugaren
yugerten
yugi
yugin
yugten
yugurten
yuguslavya
yuh
yuhan
yuk
yuki
yukkes
yuklal
yules
yuli
yulin
yulyan
yulyu
yulyus
yumen
yumnen
yunag
yunagen
yunyu
yura
yuran
yurar
yuraren
yurra
yurwen
yusa
yusad
yusan
yusef
yussa
yussan
yuwd
yuwed
yuwi
yuwin
yuwyen
yuzat
yuzel
yuzen
yuzgan
yuɣ
yuɣal
yuɣalen
yuɣen
yxeddmen
yxedmen
yzemren
yɛeddan
z
za
zahana
zahra
zakariya
zambya
zammak
zan
zariɛa
zarza
zawiya
zawiyet
zayed
zdat
zdaxel
zdin
zdint
ze
zeddig
zeddigen
zeddiɣ
zeddɣen
zedɣen
zedɣent
zeg
zegren
zeit
zekri
zelfana
zemlen
zemmura
zemren
zemrent
zemreɣ
zen
zenaga
zenzen
zenzla
zermani
zerrad
zewg
zeyyad
zeyyan
zeɛmum
zgan
zgant
zges
zi
zid
zidan
zidane
zidat
zik
zikenni
ziland
zin
zina
zineddin
zinya
ziralda
zirem
ziri
zituna
ziyad
zizu
ziɣ
ziɣut
zman
zmenzer
zmiren
znati
zone
zop
zouaoua
zribet
zrin
zriɣ
zuhra
zul
zumba
zun
zur
zwag
zwit
zy
zyama
zzaweyya
zzayer
zzayeria
zzbel
zzerga
zzewwar
zzher
zzin
zzint
zzit
zzitun
zzituna
zzman
zzwag
zɣer
{
|
}
~
©
«
°
±
²
³
´
·
º
»
¼
¾
×
đokovic
œuvre
œuvres
ɛ
ɛabd
ɛabed
ɛacen
ɛacur
ɛad
ɛamer
ɛaryan
ɛawden
ɛawnen
ɛazar
ɛazem
ɛaziz
ɛbadla
ɛbid
ɛdella
ɛebban
ɛebbas
ɛebbasa
ɛebd
ɛebdelkrim
ɛebdella
ɛebdellah
ɛebdelmalek
ɛebdelmumen
ɛebdelqader
ɛebdelɛaziz
ɛebderreh
ɛecr
ɛecrin
ɛecɛaca
ɛedda
ɛeddan
ɛeddi
ɛeddin
ɛeddiɣ
ɛellal
ɛellam
ɛellawa
ɛemman
ɛemmar
ɛemmari
ɛemmi
ɛemran
ɛemruc
ɛennaba
ɛent
ɛerbayun
ɛerd
ɛesla
ɛet
ɛetman
ɛeyyad
ɛeyyu
ɛezlen
ɛezzaba
ɛezzuz
ɛic
ɛica
ɛidel
ɛin
ɛiraq
ɛisa
ɛisi
ɛla
ɛlay
ɛlayen
ɛli
ɛmar
ɛmara
ɛmer
ɛmiruc
ɛririg
ɛrus
ɛt
ɛuf
ɛuggaz
ɛumar
ɛumman
ɛuqba
ɛyan
ɛziz
ɣ
ɣa
ɣadames
ɣaf
ɣal
ɣan
ɣana
ɣar
ɣas
ɣazawat
ɣbalu
ɣebri
ɣed
ɣef
ɣelluy
ɣelqen
ɣelt
ɣen
ɣennif
ɣer
ɣezzif
ɣezzifen
ɣilas
ɣilen
ɣilizan
ɣir
ɣiwel
ɣiwt
ɣlayen
ɣlin
ɣlint
ɣr
ɣren
ɣriba
ɣris
ɣuct
ɣur
ɣures
ɣuri
ɣɣaren
ʲ
ʷ
ʻ
ʼ
ʾ
ʿ
ˈ
ˌ
ː
̀
́
̂
̃
̄
̆
̇
̈
̊
̌
̓
̔
̣
̦
̧
̨
̱
͂
͡
α
β
γ
δ
ε
ζ
η
θ
ι
λ
μ
ν
ξ
ο
π
ρ
ς
σ
υ
φ
ψ
ω
а
в
г
з
и
є
і
ԑ
ְ
ִ
ֵ
ֶ
ַ
ָ
ֹ
ּ
ׁ
א
ב
ג
ד
ה
ו
ז
י
ל
מ
נ
ע
פ
צ
ק
ר
ש
ת
،
؛
ا
ابن
الا
الابتهاج
الجزاي
الديباج
الزواوي
الشيخ
الله
ب
بن
بو
بوسحاقي
ة
ج
ح
حمد
د
ر
س
سلام
سيدي
شرح
ص
صالح
طبقات
عبد
عراب
علام
عين
في
ق
قواعد
كتاب
ل
للزواوي
م
محمد
معجم
من
ن
نظم
ه
و
ولاد
ولاية
ي
َ
ُ
ِ
ّ
ْ
ٓ
ٔ
ٕ
٪
ٰ
ۦ
ा
ी
ರ
ಸ
ಾ
ಿ
್
ං
ක
ත
ර
්
ා
ි
ී
​
‍
‎
‑
–
—
―
‘
’
“
”
„
‟
†
•
…
‬
′
″
⁄
⁡
⁴
€
⅓
⅔
↑
→
↔
↖
↗
↷
⇒
∀
∈
−
∘
∞
∩
⊂
⋅
⌂
③
④
⑦
─
└
├
◼
◾
♂
♔
♕
♖
♗
♘
♙
♚
♛
♜
♝
♞
♟
♥
⟶
ⲓ
ⲙ
ⲟ
ⴰ
ⴱ
ⴳ
ⴴ
ⴵ
ⴶ
ⴷ
ⴹ
ⴻ
ⴼ
ⴽ
ⴾ
ⴿ
ⵀ
ⵂ
ⵃ
ⵄ
ⵅ
ⵇ
ⵈ
ⵉ
ⵊ
ⵋ
ⵍ
ⵎ
ⵏ
ⵓ
ⵔ
ⵕ
ⵖ
ⵗ
ⵙ
ⵛ
ⵜ
ⵟ
ⵡ
ⵢ
ⵣ
ⵥ
ⵧ
ⵯ
⺀
⺄
⺆
⺈
⺊
⺌
⺕
⺝
⺸
⺼
⿰
⿱
⿲
⿳
⿴
⿵
⿶
⿷
⿸
⿹
⿺
⿻
〢
か
き
し
な
の
ふ
ま
ん
゙
ァ
ア
ィ
イ
ウ
カ
ク
コ
サ
ス
タ
ッ
ト
ナ
ニ
ネ
ハ
フ
ヘ
ホ
マ
ユ
ラ
リ
ル
レ
ロ
ン
・
ー
㇁
㇂
㇄
㇇
㇈
㇉
㇓
㐁
㐄
㐅
㐌
㐫
㐬
㐭
㐮
㐱
㑒
㒵
㒸
㒼
㓁
㓞
㔾
㕛
㕣
㖾
㘝
㚅
㚇
㚔
㚘
㝉
㝡
㝴
㝵
㞋
㞢
㞷
㠩
㠭
㠯
㡀
㡭
㡿
㢲
㢴
㣇
㣺
㥯
㪅
㫄
㫐
㫒
㫺
㬅
㬎
㬥
㬰
㲋
㳄
㷠
㸒
㸚
㸦
㼌
㼲
㽞
㿟
䀠
䂞
䍃
䏍
䒑
䖍
䖒
䖝
䖵
䙴
䚻
䜌
䝿
䡛
䧹
䪞
一
丁
丂
七
丄
丅
丆
万
丈
三
上
下
丌
不
与
丏
丐
丑
专
且
丕
世
丘
丙
业
东
丞
丢
丣
两
严
並
丨
丩
个
丫
丬
中
丮
丰
丱
串
丵
丶
丷
丸
丹
为
主
丽
丿
乀
乂
乃
久
乆
乇
么
义
之
乌
乍
乎
乏
乐
乑
乔
乖
乗
乘
乙
乚
乛
乜
九
乞
也
习
乡
乳
乾
亀
亅
了
亇
予
争
事
二
亍
于
亏
亐
云
互
亓
五
井
亘
亚
亜
亞
亟
亠
亡
亢
交
亥
亦
产
亨
亩
享
京
亭
亮
亯
亰
亲
亳
亶
亷
人
亻
亼
亾
仁
今
介
仌
从
仐
仑
仒
仓
仕
他
付
仝
代
令
以
任
企
伊
伏
伐
休
会
伯
但
位
何
佘
余
作
佥
使
來
侈
侌
侖
侯
侵
便
保
俞
信
修
倉
倍
候
倠
備
僉
僕
儿
兀
允
兂
元
兄
充
兆
兇
先
光
兊
克
兌
免
兑
兒
兓
兔
党
兜
兟
入
全
兩
兪
八
公
六
兮
兰
共
关
兵
其
具
典
兹
兼
冀
冂
冃
冄
内
冈
冉
冊
冋
册
再
冎
冏
冐
冒
冓
冖
冗
冘
军
农
冝
冡
冥
冫
冬
冷
几
凡
凢
凵
凶
凷
凸
凹
出
函
凾
刀
刁
刂
刃
刄
刅
分
切
刍
刑
刕
刖
列
刘
则
初
別
利
别
到
制
刺
則
削
剌
前
剡
剽
劉
力
功
加
劦
助
劫
劳
劵
勃
勇
勉
勒
動
務
勞
勤
勹
勺
勻
勾
勿
匀
匂
包
匆
匈
匊
匋
匍
匕
化
北
匚
匝
匡
匪
匱
匸
匹
区
医
匽
匿
區
十
卂
千
卄
卅
卆
升
午
卉
半
卌
华
卑
卒
卓
单
卖
南
卜
卝
卞
占
卡
卢
卣
卤
卦
卩
卪
卬
卯
印
危
即
却
卵
卷
卸
卻
厂
厃
厄
历
厈
厉
厌
厓
厘
厚
原
厤
厥
厨
厭
厲
厶
厷
厸
去
厼
厽
叀
参
參
叅
又
叉
及
友
双
反
叐
发
叒
叔
叕
取
受
叚
叜
叟
口
古
句
另
叩
只
召
可
台
叱
史
右
叵
号
司
叹
吂
各
吅
合
吉
吊
吋
同
名
后
吏
向
吕
君
吝
吞
否
含
启
吳
吴
吹
吾
呂
呆
呈
告
员
呙
周
命
咅
和
咎
咠
咢
咨
咸
咼
哀
品
哉
員
哥
哲
唐
商
啇
問
啚
啬
啻
善
喜
喬
單
喿
嗇
噩
嚴
囊
囗
囘
囙
囚
四
回
囟
因
囧
囬
困
囱
囷
固
国
圂
圅
國
圍
圓
土
圡
圣
圥
在
圭
地
圶
圼
坐
坒
坚
坴
垂
垔
垚
埀
埋
埶
執
基
堂
堅
堆
堇
堯
塞
墨
壘
士
壬
壯
声
壳
壴
壹
壺
壽
夂
处
夅
夆
备
夊
夋
夌
复
夏
夒
夕
外
夗
夘
多
夜
夢
大
夨
天
太
夫
夬
夭
央
失
夲
头
夷
夸
夹
夻
夾
奂
奄
奇
奈
奉
奎
奏
奐
契
奓
奔
奚
奞
奠
奢
奥
奭
女
奴
奻
好
如
妄
妙
妟
妥
妻
妾
姑
委
姜
威
娄
婁
婴
嬰
嬴
子
孑
孔
孕
孖
字
存
孚
孛
孝
孟
季
孤
学
孫
孱
學
宀
宁
宂
它
宅
宇
守
安
宋
完
宏
宓
宗
官
定
宛
宜
宝
客
宣
室
宮
宰
害
家
容
宾
宿
寄
寅
密
富
寒
察
寧
審
寫
寬
寮
寸
对
寺
寻
寽
対
寿
封
尃
射
将
將
專
尉
尊
尋
尌
對
小
少
尒
尓
尔
尖
尗
尚
尞
尢
尣
尤
尧
尨
尭
就
尸
尹
尺
尻
尼
尽
尾
尿
局
居
屈
屋
屎
屏
屑
展
屖
屚
属
屠
屡
屬
屮
屯
屰
山
屵
屾
岁
岂
岑
岡
岩
岳
岸
峯
島
崇
崑
崔
崖
崙
崩
嵬
嶲
巂
巛
川
州
巟
巠
巢
巤
工
左
巧
巨
巩
巫
差
己
已
巳
巴
巷
巸
巽
巾
巿
帀
市
布
希
帚
帛
帝
带
師
席
帶
常
干
平
年
幵
并
幷
幸
幺
幻
幼
幽
幾
广
広
庄
床
底
店
庚
府
度
庫
庭
庶
康
庸
廉
廌
廛
廣
廩
廴
延
廷
建
廾
廿
开
弁
弃
弄
弇
弋
式
弓
弔
引
弗
弘
弜
弟
弥
弦
弱
張
強
强
彊
彌
彎
彐
彑
当
彔
录
彖
彗
彡
形
彥
彦
彧
彭
彳
役
彼
往
待
律
徒
得
徙
從
復
微
徵
心
忄
必
忌
忍
志
忝
忠
忩
快
念
忽
忿
思
怠
急
怱
恆
恒
恩
恭
息
悉
患
悤
悲
悶
惠
惡
惢
愁
愈
意
愛
感
慈
慧
慮
憂
憲
應
戀
戈
戉
戊
戋
戌
戍
戎
成
我
戒
戔
或
戚
戠
戢
截
戲
戶
户
戹
戼
戾
房
所
扁
扇
手
扌
才
打
托
执
承
折
拉
拜
拿
掌
推
提
摩
支
攴
攵
收
攸
改
放
政
敄
敏
敕
敖
敗
敝
敞
敢
散
敦
敫
敬
数
敷
數
斂
文
斉
斊
斗
斤
斥
斩
斬
斯
新
方
於
施
斿
旁
旅
旋
族
无
旡
既
旣
日
旦
旧
旨
早
旬
旱
旲
时
旾
昆
昇
昌
昍
明
昏
易
昔
昗
昜
星
春
昬
是
昱
昴
昷
時
晃
晋
晏
普
景
晶
智
暑
暴
曇
曩
曰
曲
曳
更
曷
書
曹
曼
曾
替
最
朁
會
月
有
朋
服
朔
朕
朗
望
朝
木
朩
未
末
本
札
朮
术
朱
朵
朶
朿
杀
杏
杜
束
条
来
東
杲
杳
松
析
林
枚
果
枝
枲
枼
某
柔
查
柬
柰
柴
栗
栽
桀
桑
桼
梁
條
梟
梨
棘
棠
棥
森
楚
業
楽
榮
樂
樊
欠
次
欣
欮
欲
欶
欽
款
歆
歇
歛
止
正
此
步
武
歨
歪
歮
歯
歰
歲
歴
歷
歸
歹
歺
死
殳
段
殷
殸
殹
殺
殻
殿
毋
毌
母
每
毒
比
毕
毚
毛
毳
氏
氐
民
气
氣
水
氵
氶
氷
永
氺
氾
求
汝
汞
江
沃
沓
沙
沝
泉
法
波
泣
泥
泰
洛
洪
活
派
流
浦
浪
浮
淡
淮
清
渚
渠
湯
滿
漢
漸
火
灬
灭
灰
灵
灷
炅
炎
炏
炗
炙
炭
為
烈
烏
烝
焉
無
焦
焱
然
煞
熊
熏
燕
營
燮
爪
爫
爭
爯
爰
爱
爲
爵
父
爻
爽
爾
爿
片
牙
牚
牛
牜
牟
牢
牧
牪
牽
犀
犬
犭
犮
狂
狄
狊
独
狺
猋
猒
猪
献
獻
玄
率
玉
王
玟
玨
珎
班
琴
瑟
瑩
瓜
瓦
甘
甚
生
産
用
甫
甬
田
由
甲
申
电
甶
男
甸
甹
画
甾
畀
界
畏
畐
留
畜
畟
畢
畧
畨
番
畫
異
畱
當
畺
畾
疊
疋
疌
疑
疒
疾
癶
癸
癹
登
發
白
百
皀
皃
的
皆
皇
皋
皐
皕
皮
皷
皿
盃
盆
盇
盈
益
盍
盎
监
盒
盖
盛
盡
監
盤
盧
目
直
相
盾
省
眇
眉
看
眔
眞
真
眷
眼
眾
着
睘
睪
睿
瞏
瞢
瞿
矍
矛
矞
矢
矣
知
矦
短
石
破
碎
磊
磨
示
礻
礼
祟
票
祭
禀
禁
禸
禹
禺
离
禽
禾
禿
秀
秃
秉
秋
科
秝
秦
移
稟
穀
穌
穴
究
穹
空
穿
突
窄
窒
立
竒
竜
竝
竟
章
童
竹
笑
笠
筆
等
答
箕
算
箴
節
篤
篭
米
粉
粛
粟
粤
粦
粲
糞
糸
糹
系
約
納
素
索
紫
累
細
絜
絫
絲
維
綿
縣
繇
纍
纟
缶
网
罒
罔
罕
罗
罙
罡
罢
罪
署
罷
羅
羊
羌
羍
美
羔
羕
羗
羞
羡
羣
群
義
羲
羸
羽
翁
翏
習
翕
翟
翠
翼
老
耂
考
者
耆
而
耎
耑
耒
耳
耴
耶
耷
聂
聊
聖
聚
聶
聿
肀
肃
肅
肉
肖
肙
肥
肩
肯
育
肴
胃
背
胡
胥
能
脊
脩
膚
臣
臤
臧
自
臬
臭
臯
臱
至
致
臺
臼
臽
臾
臿
舀
舂
舄
與
興
舉
舌
舍
舛
舜
舞
舟
般
艮
良
色
艸
艹
艾
芒
芔
芬
芮
花
芳
芺
芻
苔
苗
苟
若
苦
英
茶
茸
荅
草
荒
荣
荼
莆
莧
莫
莽
菆
菊
菐
華
萬
落
葉
著
葛
董
葵
蒙
蒦
蒼
蓋
蓬
蓺
蔑
蔡
蕉
蕭
薄
薛
薦
薰
藍
藏
藥
蘭
虍
虎
虐
虒
虔
處
虖
虗
虘
虚
虛
虜
虞
虫
虽
蚤
蚩
蜀
蜜
蟲
蠡
血
行
衍
衛
衣
衤
表
衮
衰
袁
袞
褭
褱
襄
襾
西
覀
要
覃
見
規
覓
覧
親
覽
见
角
解
言
訁
訇
計
詹
語
誩
諸
讠
谷
豆
豈
豊
豐
豕
豖
豙
象
豦
豩
豪
豸
貇
貝
貞
貟
負
貢
貧
貪
貫
責
貳
貴
買
費
賁
資
賈
賏
賓
賔
賛
賞
賢
賣
質
賴
贊
贝
贡
责
贯
贲
贵
赖
赞
赤
赦
走
越
足
路
蹇
身
躬
車
軍
軎
軟
輦
车
辛
辜
辟
辥
辰
辱
農
辵
辶
边
达
过
近
连
迷
追
退
送
逆
逐
通
速
造
逢
連
逮
進
遀
遂
過
道
達
遣
適
遷
遺
邊
邑
邕
那
邦
邪
郎
部
郭
都
鄉
酉
酋
配
酓
釆
采
里
重
野
量
金
釒
錢
钅
長
镸
长
門
閃
閉
開
閏
閑
閒
間
閔
閵
閻
闌
门
间
闷
阑
阜
阝
阿
降
陳
隆
隊
隋
隡
隨
隱
隶
隹
隺
隻
隼
隽
难
雀
雁
集
雈
雋
雍
雐
雔
雙
雚
雜
雝
離
難
雨
雩
雪
雲
零
雷
需
霍
霜
霝
霞
霸
靈
靑
青
非
靡
面
靣
革
韋
韦
韭
韯
韱
音
頁
頃
項
須
頗
頡
頻
顛
页
風
风
飛
飞
食
飠
養
饣
首
香
馬
馮
駦
马
骨
高
髟
鬥
鬯
鬲
鬼
魚
魯
鮮
鱼
鲁
鳥
鳳
鸟
鹵
鹿
麃
麗
麥
麦
麻
黃
黄
黍
黎
黑
黒
黨
黹
黽
黾
鼎
鼓
鼠
鼻
齊
齋
齐
齒
齿
龍
龙
龜
龟
龠
龰
龱
龴
龵
龶
龷
龸
龹
者
艹
ﺍ
ﺔ
ﺠ
ﺭ
ﻠ
ﻤ
ﻨ
ﻬ
ﻮ
ﻴ
﻿
？
ｆ
ｏ
ｕ
𐍂
𐤀
𐤁
𐤃
𐤋
𐤌
𐤍
𐤏
𐤓
𐤕
𠀁
𠀃
𠀆
𠀉
𠀎
𠀐
𠁁
𠁣
𠂆
𠂇
𠂈
𠂉
𠂊
𠂋
𠂎
𠂒
𠂔
𠂛
𠂡
𠂢
𠂤
𠂬
𠂭
𠂹
𠃊
𠃋
𠃌
𠃍
𠃎
𠃑
𠃓
𠃔
𠃜
𠄌
𠄎
𠄠
𠄢
𠆢
𠆥
𠇍
𠈌
𠌵
𠓜
𠔉
𠔥
𠔼
𠔽
𠔿
𠕀
𠕁
𠕋
𠘧
𠘨
𠙻
𠙼
𠚏
𠚒
𠚤
𠚪
𠣏
𠤎
𠤕
𠥓
𠦄
𠦑
𠦝
𠧒
𠧗
𠧪
𠩺
𠪚
𠫓
𠫔
𠫤
𠬛
𠬝
𠬞
𠬢
𠬤
𠬶
𠮛
𠮦
𠮷
𠯑
𠱠
𠳮
𠷎
𡈼
𡉀
𡉵
𡌥
𡍮
𡏳
𡕒
𡕩
𡕰
𡖅
𡗗
𡗜
𡘆
𡘤
𡧱
𡨄
𡩧
𡬠
𡭽
𡰣
𡰥
𡰪
𡰯
𡰱
𡷈
𡸁
𡿨
𡿩
𡿪
𡿺
𢀖
𢀛
𢀩
𢁙
𢆉
𢆰
𢆶
𢇁
𢇇
𢉖
𢌬
𢌿
𢏚
𢑑
𢑚
𢖻
𢙣
𢛳
𢦏
𢦒
𢧵
𢼄
𢾕
𣁋
𣄼
𣅀
𣅽
𣍘
𣎳
𣎵
𣏋
𣏼
𣗥
𣥂
𣥖
𣦵
𣦼
𣧄
𣪊
𣪠
𣬉
𣳾
𣶒
𤇾
𤊽
𤐫
𤓰
𤔔
𤕨
𤣩
𤰇
𤰔
𤰞
𤴓
𤴔
𤽄
𥁑
𥁕
𥃦
𥃩
𥃭
𥇡
𥑟
𥘅
𥘈
𥝢
𥫗
𥱡
𦈢
𦉪
𦉬
𦉼
𦍌
𦍒
𦎧
𦐇
𦓔
𦔮
𦘒
𦙃
𦚏
𦣝
𦣞
𦣻
𦥑
𦥔
𦥯
𦨉
𦭝
𦰩
𧆞
𧈧
𧘇
𧰨
𧴪
𧴮
𧵩
𧾷
𨸏
𨾴
𩙿
𩠐
𩫏
𩵋
𪉷
𪜀
𪟽
𪠲
𪩲
𫇦
𫔭
𫜸
𫝀
𫠣
𫠩
𫢉
𫥞
𫩏
𫩠
𫪡
𫲽
𫶧
𬀷
𬐘
𬗌
𬙙
𬛸
𬜯
𬟩
𬯁
𬴘
𬺻
𬼉
𬼖
𭀰
𭁈
𭁨
𭅰
𭑈
𭕄
𭗼
𭤨
𭥫
𭻾
𮅕
𮊿
𮍌
𮍏
𮓗
𮥼
𮧮
廾
𰀁
𰀄
𰀈
𰀉
𰀕
𰀠
𰀡
𰀢
𰀪
𰁜
𰃮
𰆊
𰆘
𰋙
𰕎
𰢴
𰧭
𰯲
01--
02--
47--
52--
58--
87--
89--
a--
ab--
aba--
abd--
abhand--
abi--
ac--
aca--
ach--
activ--
acu--
ad--
adaptat--
adi--
admin--
af--
afel--
afi--
afr--
ag--
age--
agez--
ah--
aj--
ajj--
ak--
aka--
akni--
al--
ala--
ali--
all--
aln--
alt--
am--
ama--
amaɣ--
ame--
ames--
amg--
ami--
amsa--
amz--
amɣ--
an--
ana--
ang--
ant--
ap--
appro--
aq--
aqa--
aqu--
ar--
ara--
arbo--
ari--
aru--
as--
aseb--
aseg--
asek--
asel--
asem--
asi--
asnu--
ass--
assel--
ast--
asteɛ--
astro--
at--
att--
au--
aust--
ave--
aw--
ax--
ay--
aya--
az--
azeg--
azel--
azeɣ--
aɛ--
aɛeb--
aɛib--
aɣ--
b--
ba--
bac--
bal--
bar--
bay--
be--
bek--
bel--
ben--
ber--
bex--
bey--
bez--
bi--
bib--
bir--
bit--
bo--
bom--
bor--
bou--
br--
bu--
bud--
bug--
buh--
buka--
bum--
buq--
bur--
bus--
but--
bux--
buz--
buɛ--
c--
ca--
can--
canna--
cap--
car--
caste--
cc--
cce--
ce--
ceb--
cel--
cent--
cer--
cet--
ceɛ--
cf--
ch--
cha--
cham--
chap--
che--
cho--
chrysan--
ci--
cir--
civilisat--
cla--
cn--
co--
colo--
com--
comp--
compag--
compi--
con--
cons--
cont--
cr--
crit--
cro--
cs--
cu--
cy--
d--
da--
dah--
dd--
de--
deb--
dej--
der--
des--
deuts--
develop--
dew--
dg--
di--
die--
dip--
dis--
dj--
dja--
dje--
do--
don--
dr--
du--
dy--
dz--
e--
eb--
ec--
ed--
edd--
ef--
eg--
eh--
ek--
el--
elem--
em--
en--
ep--
eq--
er--
err--
ery--
es--
ess--
est--
et--
euph--
ew--
ex--
expe--
ey--
ez--
eɛ--
eɣ--
f--
fa--
fe--
fer--
feu--
fez--
ff--
fi--
fil--
fin--
fir--
fla--
flo--
flu--
fo--
fonct--
for--
fou--
fr--
fru--
fu--
g--
ga--
gal--
gam--
gar--
gas--
ge--
gen--
ger--
ggu--
gh--
gi--
gil--
glo--
go--
gol--
gu--
gul--
h--
ha--
ham--
han--
har--
hart--
has--
he--
heli--
her--
hin--
hir--
his--
ho--
hus--
hy--
i--
ia--
ib--
iba--
ibel--
ic--
id--
ide--
idel--
if--
ifa--
iff--
ig--
iga--
igd--
igel--
igi--
ih--
ij--
ijeb--
ik--
ikar--
il--
ilɣ--
im--
ima--
imar--
imaz--
imd--
imer--
imes--
imez--
imeɣ--
imi--
imidi--
ims--
imz--
in--
ina--
ine--
inz--
ip--
iq--
ir--
iramm--
iri--
irk--
is--
iseg--
ism--
iss--
issex--
ist--
it--
itt--
itteɣ--
iv--
iw--
iwa--
iwel--
iwilli--
ix--
iy--
iz--
iza--
izel--
izi--
iɛ--
iɛeg--
iɣ--
iɣi--
j--
ja--
je--
jer--
jj--
jo--
ju--
k--
ka--
kan--
kar--
kas--
ke--
keb--
ken--
ker--
ket--
khe--
kho--
ki--
kilo--
ko--
kr--
ku--
kyo--
l--
la--
lakh--
lam--
lax--
laɛ--
laɣ--
le--
leb--
lef--
leg--
leh--
lej--
lem--
lemɛ--
leq--
ler--
lex--
lez--
leɛ--
lfa--
lg--
lh--
li--
lj--
lk--
lma--
lmu--
lo--
logi--
lq--
lu--
lub--
lx--
ly--
lɛ--
lɛeq--
lɣ--
m--
ma--
mac--
mad--
mag--
man--
mar--
mas--
mat--
mauri--
max--
maɛ--
mc--
me--
med--
meg--
mek--
mel--
meq--
meqq--
mer--
mes--
mez--
meɛ--
mg--
mi--
mm--
mo--
mon--
mor--
mos--
mr--
ms--
mu--
mun--
muq--
mus--
mut--
mx--
my--
mz--
mɛ--
n--
na--
ne--
ned--
nem--
neq--
ner--
nes--
net--
nett--
new--
nez--
neɛ--
nfuf--
ng--
ni--
nig--
nn--
no--
nom--
nor--
ns--
nt--
nu--
nz--
nɣ--
o--
ob--
obje--
od--
offi--
on--
opi--
or--
os--
ou--
out--
p--
pa--
pal--
par--
pas--
pe--
per--
ph--
pho--
phy--
physi--
pi--
po--
polyg--
pom--
pra--
pre--
pri--
pro--
py--
pyg--
q--
qeb--
qer--
qq--
qu--
qub--
r--
ra--
re--
reb--
reg--
relat--
res--
rh--
ri--
rich--
ro--
rob--
rr--
ru--
rz--
s--
sa--
sab--
sal--
sas--
sat--
sax--
sch--
sci--
sco--
scorpi--
sd--
se--
seg--
sek--
sel--
sem--
sen--
ser--
set--
sful--
sg--
sh--
si--
sic--
sig--
sil--
ska--
ski--
sla--
so--
sp--
spor--
sr--
ss--
ssa--
sseɣ--
ssi--
ssut--
ssɛ--
st--
sta--
ste--
su--
suf--
sy--
sɛ--
t--
ta--
tabel--
tacin--
tad--
taf--
tafin--
tag--
taggar--
tah--
taj--
tak--
taka--
takam--
tal--
tam--
tama--
tamek--
tameɣ--
tamɛ--
tan--
taneg--
taneɣ--
tap--
taq--
tar--
tas--
tased--
tasel--
tasen--
taser--
tat--
taw--
tax--
tay--
tayu--
taz--
taɛ--
taɣ--
tbi--
tbun--
tc--
td--
tdu--
te--
teb--
tebb--
tebɛ--
tec--
ted--
tef--
teg--
tej--
tek--
tel--
tem--
tems--
temɣ--
ten--
teq--
ter--
tes--
tesna--
tesnim--
tessa--
tessi--
tet--
tett--
tettwa--
tew--
tewr--
tex--
tez--
teɛ--
teɣ--
tfel--
tfi--
tfu--
tg--
tgej--
th--
the--
ti--
tib--
tibu--
tid--
tider--
tif--
tig--
tigens--
tij--
tik--
til--
tim--
timd--
tims--
timzer--
tin--
tineɣ--
tiq--
tir--
tis--
tisna--
tisɣ--
tit--
tiw--
tiwr--
tix--
tiy--
tiz--
tizel--
tiɣ--
tiɣer--
tk--
tka--
tle--
tma--
tmah--
tmaɣ--
tme--
tmes--
tmun--
tna--
tneɣ--
to--
tou--
tq--
tr--
tra--
trans--
ts--
tsed--
tsedd--
tseg--
tsek--
tserd--
tt--
ttef--
ttek--
ttfa--
ttfer--
ttmes--
ttnu--
ttus--
ttwa--
ttwag--
ttwas--
tu--
tud--
tuf--
tug--
tuk--
tul--
tull--
tuq--
tur--
tus--
tut--
tuz--
tx--
txi--
ty--
tz--
tzik--
tɛ--
tɣ--
u--
ub--
uba--
uc--
ud--
udi--
uf--
ufi--
ug--
uh--
uj--
uje--
uk--
ukr--
ul--
um--
uma--
umd--
un--
una--
une--
uni--
up--
uq--
ur--
urk--
urt--
us--
usa--
useg--
usek--
usel--
usem--
usen--
usse--
ussu--
ust--
usu--
ut--
utili--
uwr--
ux--
uy--
uz--
uza--
uɛ--
uɣ--
v--
va--
val--
ve--
ver--
vi--
vie--
vis--
vo--
w--
wa--
wafr--
wan--
war--
was--
waɛ--
waɣ--
we--
wed--
wef--
weg--
wej--
wek--
wel--
wem--
wems--
wemt--
wen--
weq--
wer--
wes--
wex--
wey--
wez--
weɣ--
wi--
wiki--
win--
wr--
wu--
wud--
wuk--
x--
xed--
xem--
xi--
y--
ya--
ye--
yeb--
yec--
yed--
yedd--
yef--
yeg--
yeh--
yej--
yek--
yem--
yemg--
yemm--
yems--
yeq--
yer--
yes--
yesbeg--
yesk--
yess--
yet--
yett--
yettu--
yettwab--
yettwas--
yettɛ--
yew--
yewɛ--
yex--
yez--
yeɛ--
yeɣ--
yi--
yid--
yif--
yifr--
yig--
yijeq--
yika--
yil--
yim--
yimaz--
yimed--
yimes--
yimr--
yin--
yiq--
yir--
yis--
yisef--
yiseg--
yit--
yiz--
yiɛ--
yiɣ--
yiɣer--
yo--
yu--
yuc--
yug--
yuk--
yuz--
z--
za--
ze--
zek--
zemm--
zer--
zeɣ--
zi--
zy--
zz--
ɛ--
ɛebd--
ɛiw--
ɣ--
ɣa--
ɣer--
ɣez--
ɣr--
ɣur--
ا--
ال--
الت--
الح--
الع--
العر--
الم--
ب--
ح--
د--
ر--
س--
ق--
ل--
م--
ن--
و--
وا--
ي--
--0
--00
--1
--1212
--2
--3
--4
--44
--5
--6
--7
--8
--9
--a
--aa
--ab
--abaɛ
--ac
--aceae
--ad
--adj
--ae
--af
--ag
--ah
--ail
--aire
--ak
--al
--ala
--alas
--ale
--alel
--ales
--als
--alt
--alyin
--am
--an
--ana
--ane
--anen
--ania
--ant
--aq
--ar
--ara
--art
--ary
--as
--ast
--at
--au
--aw
--awd
--awen
--awi
--awt
--ax
--ay
--ayin
--ayt
--az
--aɛ
--aɛen
--aɣ
--b
--ba
--bad
--ban
--baz
--baɛ
--be
--beh
--ben
--bga
--bh
--bi
--bin
--bo
--bourg
--bt
--bu
--bz
--c
--ca
--cal
--ccaq
--ccu
--ce
--ceae
--cel
--cem
--cen
--ces
--ch
--chys
--ci
--cin
--ck
--co
--ct
--cu
--cur
--cus
--cy
--d
--da
--dac
--dad
--dag
--dal
--dam
--dan
--dc
--ddi
--de
--dec
--den
--des
--deɣ
--di
--dim
--din
--dis
--disen
--dit
--dlus
--do
--dr
--ds
--dt
--du
--dul
--dut
--e
--ea
--eae
--eb
--ec
--ed
--ef
--eg
--eggas
--eggift
--egt
--eh
--ej
--ek
--eka
--eki
--eknut
--ekt
--el
--elam
--ell
--els
--elt
--em
--emlil
--en
--ensit
--ent
--enur
--eo
--eola
--eq
--eqdec
--er
--era
--ere
--ersa
--es
--et
--eth
--eur
--eurs
--eus
--ew
--ey
--eyya
--ez
--ezgi
--ezma
--ezzi
--eɛ
--eɛr
--eɣ
--eɣt
--f
--fa
--fag
--fal
--fali
--falt
--fel
--fen
--fer
--feɣ
--fi
--fit
--ft
--fu
--fun
--fut
--g
--ga
--gag
--gam
--gan
--ganin
--gas
--gay
--gaz
--ge
--gel
--gen
--ger
--ges
--gest
--ggaz
--ghi
--gi
--gie
--git
--gne
--gri
--gs
--gu
--gug
--gur
--gura
--gzir
--h
--ha
--ham
--har
--hd
--he
--her
--hi
--hil
--hl
--hu
--hum
--hun
--i
--ia
--ian
--iana
--ib
--ic
--ica
--ical
--ice
--ict
--icum
--icus
--id
--ie
--ien
--ier
--ies
--if
--ifolia
--ig
--igo
--ih
--ija
--ik
--ika
--ikel
--iken
--ikt
--il
--ile
--im
--imt
--in
--ina
--ine
--ing
--ini
--ins
--io
--ion
--ipt
--iq
--iqa
--ique
--iques
--ir
--ira
--ire
--is
--ise
--isme
--ist
--it
--ita
--ite
--ity
--ium
--ius
--ive
--iw
--iwt
--ixer
--iya
--iyen
--iz
--izt
--izzelt
--iɣ
--iɣt
--j
--ja
--jdi
--jer
--ji
--jin
--jj
--jt
--k
--ka
--kad
--kadt
--kan
--kanen
--kar
--karen
--kart
--kas
--kat
--kaw
--ke
--ked
--kel
--ken
--ki
--kid
--kil
--kin
--kit
--kk
--kka
--kkel
--kli
--kni
--ko
--ks
--kt
--kti
--ktit
--ktr
--ku
--l
--la
--lad
--law
--lay
--ld
--le
--lek
--lel
--lem
--len
--ley
--leɣ
--lf
--li
--lid
--lifa
--lin
--lis
--lit
--liwt
--liɛ
--ll
--lle
--lls
--llu
--lon
--lor
--ls
--lt
--lte
--lu
--lub
--luf
--luffaz
--lun
--lus
--ly
--lyun
--m
--ma
--man
--mar
--mas
--maw
--mawen
--mayen
--md
--me
--med
--mekti
--mel
--men
--ment
--mer
--meɣ
--mi
--mic
--mim
--mineqr
--mir
--mma
--mme
--mmu
--mos
--mp
--mt
--mu
--mum
--n
--na
--nag
--nar
--naw
--nawt
--nay
--naz
--nce
--nd
--nder
--ne
--ned
--nen
--ner
--nerni
--ners
--nes
--neɛ
--ng
--ni
--nig
--nin
--nis
--nit
--niyen
--niyin
--nk
--nn
--nne
--no
--ns
--nt
--nthus
--nts
--nu
--num
--nuq
--nus
--nut
--nuɣen
--ny
--nya
--o
--ol
--ole
--oli
--om
--oma
--omic
--on
--or
--ore
--ors
--os
--ot
--ota
--ou
--oui
--our
--ow
--p
--pe
--phi
--phy
--pos
--pus
--q
--qa
--qas
--qd
--qen
--qes
--qi
--qid
--qin
--qq
--qr
--qt
--quq
--r
--ra
--raf
--ragen
--ran
--rar
--rart
--raw
--rawt
--ray
--rayt
--razt
--rba
--rd
--re
--rea
--rem
--remt
--ren
--res
--rew
--reyya
--rez
--rg
--ri
--ria
--rin
--rit
--rium
--riwin
--rix
--rjen
--rk
--rne
--rni
--ro
--ron
--rri
--rru
--rs
--rt
--ru
--rus
--ruy
--ry
--rya
--rys
--rz
--s
--sa
--saki
--sar
--sau
--saɣ
--se
--sef
--sel
--sen
--si
--sileɣt
--sin
--sion
--sis
--sit
--siwt
--sme
--son
--sor
--ss
--sse
--ssen
--sso
--st
--su
--sut
--syen
--t
--ta
--tain
--tay
--te
--tem
--ten
--tes
--th
--thy
--ti
--tic
--tik
--tilt
--tin
--tion
--tit
--tle
--to
--tris
--ts
--tt
--tte
--tu
--tus
--ty
--u
--ua
--ub
--uc
--uca
--ud
--uda
--ue
--ues
--uf
--ufaɣ
--ufuɣ
--ufɣ
--ug
--uggit
--ugit
--uh
--uit
--uji
--uk
--ukkes
--ukt
--ul
--uli
--ult
--ulus
--ulya
--um
--ume
--un
--uq
--ur
--ura
--ure
--urt
--us
--usi
--ut
--uta
--uve
--ux
--uz
--uɣ
--uɣt
--v
--vaux
--ven
--ver
--vya
--w
--wa
--wad
--wag
--wakez
--wameggez
--wan
--want
--waq
--waqqen
--war
--waren
--wasemres
--wasteg
--wat
--way
--waɣ
--wej
--wel
--wen
--wh
--wi
--wic
--wilt
--win
--wla
--wn
--ws
--wt
--x
--xd
--xem
--xt
--y
--ya
--yar
--yd
--yel
--yen
--yeɛ
--yi
--yin
--yla
--ylu
--yn
--yt
--yult
--yum
--yun
--yur
--yus
--yut
--yya
--z
--za
--zag
--zal
--zayt
--zel
--zem
--zen
--zer
--zi
--zil
--zir
--ziw
--zo
--zt
--zu
--zuq
--zut
--zuyt
--ɛ
--ɛa
--ɛd
--ɛed
--ɛel
--ɛen
--ɛi
--ɛs
--ɛt
--ɛu
--ɣ
--ɣa
--ɣan
--ɣayen
--ɣaz
--ɣaɣ
--ɣel
--ɣen
--ɣes
--ɣi
--ɣil
--ɣin
--ɣlalin
--ɣna
--ɣra
--ɣri
--ɣt
--ɣuda
--اء
--امع
--ة
--د
--ر
--ق
--ل
--م
--ن
--ني
--وف
--ى
--ي
--ية
--يم
--ين
--يه
