!
"
#
##0
##1
##10
##11
##12
##13
##14
##15
##16
##17
##18
##19
##2
##20
##21
##22
##23
##24
##25
##26
##27
##28
##29
##3
##30
##31
##32
##33
##34
##35
##36
##37
##38
##39
##4
##40
##41
##42
##43
##44
##45
##46
##47
##48
##49
##5
##50
##51
##52
##53
##54
##55
##56
##57
##58
##59
##6
##60
##61
##62
##63
##64
##65
##66
##67
##68
##69
##7
##70
##71
##72
##73
##74
##75
##76
##77
##78
##79
##8
##80
##81
##82
##83
##84
##85
##86
##87
##88
##89
##9
##90
##91
##92
##93
##94
##95
##96
##97
##98
##99
$
%
&
'
(
)
*
+
,
-
.
/
0
00
000
01
0140
02
03
04
05
06
07
08
09
1
10
100
1000
101
1016
104
106
108
1093
11
114
12
120
1200
125
128
13
14
143
148
15
150
1500
1570
16
160
17
175
18
180
1830
1840
1844
1855
1856
1858
1860
1861
1862
1863
1864
1865
1867
1870
1873
1874
1875
1879
1880
1881
1884
1885
1886
1887
1888
1890
1891
1893
1894
1895
1896
1897
1898
1899
19
1900
1901
1903
1904
1905
1906
1907
1910
1911
1914
1917
1919
1923
1925
1926
1928
1929
1930
1931
1932
1934
1935
1936
1937
1938
1940
1941
1942
1943
1944
1945
1946
1947
1948
1949
1950
1952
1953
1954
1955
1956
1957
1958
1959
1960
1961
1962
1963
1964
1965
1966
1967
1968
1969
1970
1971
1972
1973
1974
1975
1976
1977
1978
1979
1980
1981
1982
1983
1984
1985
1986
1987
1988
1989
1990
1991
1992
1993
1994
1995
1996
1997
1998
1999
2
20
200
2000
2001
2002
2003
2004
2005
2006
2007
2008
2009
2010
2011
2012
2013
2014
2015
2016
2017
2018
2019
2020
2021
2022
2095
21
22
23
23245604
233
235
24
25
250
26
27
28
29
298
3
30
300
3000
31
32
33
331
34
35
354
36
37
375
380
39
4
40
400
41
42
43
44
45
450
46
47
48
49
5
50
500
5000
513
52
53
54
55
555
56
57
58
59
6
60
600
61728
62
63
64
65
66
67
6736
69
7
70
700
71
72
73
74
75
750
77
78
79
8
80
800
81
82
83
84
85
89
9
90
900
92
95
96
97
978
98
9859
99
:
;
<
=
>
?
@
[
\
]
^
_
`
a
aa
aab
aabbaa
aabbaaf
aabbaan
aabbaanis
aabbaas
aabbaatti
aabbo
aabboo
aaboo
aachisan
aada
aadaa
aadaafi
aadaan
aadaatti
aadaawwan
aadam
aadan
aadanii
aadda
aaddanee
aaddaneessa
aaddanuu
aadde
aaddee
aaddoo
aadduu
aade
aadee
aadeffachiisisuu
aadeffachiisuu
aadeffachuu
aadeffadhe
aadeffanne
aadeffate
aadha
aadhaa
aadhaan
aadi
aadnaa
aadu
aaduu
aaf
aafii
aafrikaa
aaga
aagaa
aagii
aajaa
aajjaa
aakshinii
aakshiniin
aaksum
aaktiivii
aalee
aalfaa
aaloo
aan
aana
aanaa
aanaalee
aanaan
aanaaq
aanaatti
aanaawwan
aanan
aananii
aane
aanee
aanga
aangawaa
aangawoota
aangessuu
aangii
aango
aangoo
aangoodhaan
aangoon
aangoorra
aangootti
aanguu
aanichaa
aanii
aanja
aankii
aannaa
aannaan
aannan
aannani
aannanii
aannannoo
aanni
aanolee
aanolii
aanota
aanquu
aansa
aansaa
aanse
aansee
aansees
aansoo
aansun
aansuu
aansuun
aantee
aantii
aantima
aantummaa
aantummaan
aanu
aanutti
aanuu
aanuun
aar
aara
aaraa
aaraan
aaram
aaran
aare
aaree
aareen
aarii
aariidhaan
aariin
aarnon
aarod
aaron
aaroo
aarri
aarsa
aarsaa
aarsan
aarse
aarsituu
aarsu
aarsuu
aarsuuf
aartii
aartiin
aaru
aaruu
aasaa
aashii
aati
aatii
aatiin
aatin
aatti
aatu
aau
aawaa
aawortaa
aawurooppaa
aayerlaandi
aayi
aayina
aayyii
aayyoo
ab
abaaboo
abaadir
abaaramaa
abaarsa
abaasuu
ababa
abadan
abarraa
abba
abbaa
abbaan
abbaansaa
abbaasaa
abbabaa
abbabaan
abbabora
abbayyaa
abboo
abboomamaa
abboomamne
abboomamuu
abboommii
abboota
abbootii
abbootiin
abbr
abbummaa
abdachiisaa
abdallaa
abdallaahi
abdii
abdiin
abdiisaa
abdiisaan
abdiisan
abdullaahi
abdullaahii
abdullaxiif
abdullee
abdulqaadir
abdulrahmaan
abee
abidda
abiishee
abiisheen
abiishen
abisiiniyaa
abjoochuu
abjuu
abjuun
able
abo
abon
aboo
abootee
abotti
about
abrahaam
absd
abshaala
abshaalummaa
abshiir
absorb
abu
abubakar
abuduroo
abukaattoo
abut
abuu
abuuna
abuunaa
abuurraa
abyssinica
ac
academic
academy
accept
accessed
accident
achaa
achi
achii
achiin
achiis
achiisaa
achirraa
achirratti
achitti
achittii
achittis
achu
achuf
achuma
achumaan
achumatti
achuu
achuuf
achuun
acid
action
active
actor
acute
ad
ada
adaa
adaabbaa
adaadaa
adaal
adaamaa
adaamaatti
adaamii
adaba
adabbii
adabuu
adafii
adam
adamoo
adamsituu
adamsuu
adansonia
adapt
adare
adareen
add
adda
addaa
addaan
addaarraa
addaatiif
addaatiin
addaatin
addaatti
addaatu
addababa
addaggee
addaggummaa
addan
addatti
addayaa
addeenya
addeessa
addeessaa
addeessi
addi
addis
addisababacity
addooyyee
address
addunya
addunyaa
addunyaalessaa
addunyaan
addunyaarra
addunyaarraa
addunyaarratti
addunyaatti
adeema
adeeman
adeemsa
adeemsi
adeemsifamaa
adeemsifamu
adeemsisaa
adeemu
adeemuu
ademma
ademsaa
adhu
adii
adiin
adiyyoo
adj
administration
adoochu
adoochuu
adoodaa
adooleessa
adoolessa
adunya
adunyaa
adurree
aduu
aduun
aduutti
adv
advertisement
advise
advised
adwui
aeronautics
afaa
afaala
afaan
afaanessuu
afaani
afaanii
afaaniin
afaanin
afaanitti
afaanonni
afaanota
afaanuma
afamu
afan
afarsuu
afata
afdaneessa
afeerraa
affaa
affaar
affeeluu
affeerraa
affirm
afiroo
afoola
afoolaa
afoollessuu
afraffaa
afraid
afran
africa
african
afriikaa
afrika
afrikaa
afrikaan
afrikaanonni
afrikaatti
afrique
afrobasket
afroo
after
afur
afurii
afuriif
afuritti
afurtama
afurtamii
afuufuu
afuura
afuuraa
afuuraan
afuurri
aga
against
agamsa
agarii
agariin
agarre
agarsiifaman
agarsiiftu
agarsiiftuu
agarsiisa
agarsiisaa
agarsiisan
agarsiise
agarsiisu
agarsiisuu
agarsiisuuf
agarsiisuun
agarsisu
agarsisuu
age
agency
agent
aggression
agree
agriculture
ahead
ahimad
ahmad
ahmed
aim
air
aircraft
ajaa
ajaja
ajajaa
ajajaan
ajaje
ajajni
ajajuu
ajeesuu
ajjechaa
ajjeechaa
ajjeefaman
ajjeefame
ajjeesa
ajjeesaa
ajjeesan
ajjeesanii
ajjeese
ajjeesee
ajjeesse
ajjeessu
ajjeesu
ajjeesuu
ajjeesuuf
akaakayyuu
akaakuu
akeeka
akeekkachiisa
akeekkachiisaa
akeekkachiisuu
akk
akka
akkaa
akkaadaamii
akkaan
akkaata
akkaataa
akkaataan
akkam
akkamii
akkamiin
akkamitti
akkan
akkana
akkanaa
akkanatti
akkanni
akkas
akkasaa
akkasii
akkasittan
akkasitti
akkasuma
akkasumaan
akkasumaanii
akkasumaas
akkasumas
akkasumatti
akkata
akkataa
akkatta
akkattan
akki
akkoo
akkuma
akkumaa
akkuman
akkumma
akliluu
aktiivii
aktiiviitii
aktiviitii
al
ala
alaa
alaabaa
alaan
alaatiin
alaatti
alaga
alagaa
alalaasuu
alam
alamaayyoo
alamuu
alamuun
alangaa
alangaadhaan
alatti
alattis
albama
albamii
albamiin
albinism
album
albumin
albuuda
albuudaa
albuudota
alessandro
alfabeetii
algala
alge
alger
alh
ali
alii
aliin
aliyyii
aliyyiin
aljeeriyaa
alkan
alkanii
alkeemii
alkoolii
all
alla
allaah
allaattii
alle
allied
allow
alpha
alphabet
also
alter
always
am
ama
amaa
amaan
amaanaa
amaara
amaaraa
amaariffaa
amaariffaan
amaatti
amajaajii
amajji
amajjii
amajjiin
amala
amalaa
amalaaf
amalli
amaloota
aman
amana
amanama
amanamaa
amanamne
amanamu
amanamummaa
amanamummaan
amanamuu
amanan
amananii
amanee
amaneef
amani
amanii
amanne
amansiifne
amansiisaa
amansiisuu
amansisaa
amantaa
amantii
amantiif
amantiilee
amantiin
amantiitti
amanu
amanuu
amanuuf
amanuun
amartii
ambaa
ambaasaaddara
ambo
amboo
ambootti
ame
amee
ameera
ameeriikaa
ameerikaa
ameerikaan
ameerikaatti
america
american
ametti
amino
aminoo
amisterdaam
amma
ammaa
ammaaf
ammaan
ammaannee
ammaatti
ammajjii
ammallee
ammammoo
ammamtaa
ammas
ammata
ammayyaa
ammayyummaa
ammayyuu
ammo
ammoo
ammuma
amna
amne
among
amoolee
ampilifaayerii
amplifier
ampuulii
amsterdam
amtu
amu
amuruu
amutti
amuu
an
ana
anaa
anaaf
anaafis
anaaloogii
anaan
analysis
anatomy
anatti
anatu
anchote
ancient
ancootee
ancooteen
ancooten
and
andorra
andrew
andy
anga
angaasuu
angafa
angafaa
angafni
angel
angle
angoo
angoolaa
ani
anii
aniidha
aniif
aniin
aniiru
aniiti
animal
animals
animation
animmoo
anirra
anis
anistaayin
anitti
anna
annaa
annan
anne
anni
anniisaa
anniyyaa
anno
annoo
anoodii
another
ansaada
ant
anthrax
anthropology
anti
antiibodii
antiraaksii
antiraaksiin
antonio
anuu
any
appaartaayidii
apparent
appearance
apple
application
applications
applied
appointed
appraisal
april
ar
araada
araara
araaraa
araarsaa
araarsuu
arab
araba
arabaa
arabaatin
arabia
arabic
arabiin
arabiyaa
araddaa
arafa
aramaa
arba
arbaa
arbooyyee
archive
archived
arco
ardaa
ardaan
ardii
ardiilee
are
area
areeda
arfaasa
arfaasaa
arfaasee
arfaffaa
arfan
arfii
arga
argaa
argachaa
argachuu
argachuuf
argachuun
argadhe
argadhee
argadheera
argadhu
argama
argamaa
argaman
argamani
argamanii
argamaniiru
argamanitti
argame
argamee
argameera
argamne
argamsiisu
argamte
argamtee
argamti
argamtii
argamtu
argamtuu
argamtuudha
argamu
argamus
argamutti
argamuu
argamuudha
argamuun
argan
arganii
argannaan
arganne
argannoo
argannu
argansuu
argata
argatan
argataniiru
argate
argatee
argateera
argatte
argattee
argatu
arge
argee
argeera
argentina
argiin
argine
argisiisu
argisiisuu
argite
argitee
argitu
argu
arguu
arguuf
arguun
ari
arii
ariifachiisaa
ariifachuu
ariifataa
ariitidhaan
ariitii
ariitiidhaan
ariitiin
aristootil
arjaa
arjentiinaa
arjummaa
arkitiik
arm
armaan
armeeniyaa
armenia
army
around
arraa
arraba
arrabni
arrabsoo
arrabsu
arrabsuu
arreeduu
arrii
arrive
arroolee
arrow
arsadii
arsi
arsii
arsiin
arsiitti
art
arthritis
article
artificial
artifishaalii
artii
artist
artisti
artistii
artistoota
arts
as
asafa
asaffaa
asaffaan
asallaa
asattoo
asattoon
asfaaltii
ash
ashaboo
ashamed
asheeta
ashhadu
ashkara
ashkarri
ashuuraa
asia
asian
asidii
asii
asiidii
asiif
asirratti
asitti
asmerom
asoosaa
asoosama
asoosamaa
ass
assault
assembly
assess
assist
association
asteer
asteroyidii
astiroonoomii
astronomy
asuma
asxaa
at
ata
ataa
atakaaroo
atame
atamii
atamu
atamuu
atan
atani
atanii
atara
ataraa
atarii
ate
atee
ateensi
ateera
ateetee
ateeteen
athletics
ati
atii
atiin
atilaantiik
atileetii
atileetiksii
atileetota
atis
atiyyuu
atmosferra
atom
atomii
atoomii
atoomsaa
atoota
attach
atte
attee
atti
attu
attuu
atu
atumti
atutti
atuu
au
audio
aug
august
australia
australian
austria
authority
auto
automatic
autumn
available
avenue
avireejjiin
avirejjiin
aviv
avoid
avregiin
awaash
awadaay
award
awards
awareness
away
awayaata
awurooppaa
awustiraaliyaa
awustireliyaa
awwaala
awwaalaa
awwaalamee
awwaalan
awwaalcha
awwaaluu
axarroo
axe
axis
ayiskiriimii
ayyaana
ayyaanaa
ayyaanni
ayyaanota
ayyaantuu
ayyaantuun
azerbaijan
azhar
azharitti
b
ba
baa
baabbilee
baabeeji
baabura
baaburaa
baaburri
baachuu
baacoo
baadhes
baadiyaa
baadiyyaa
baaduu
baafachuu
baafachuuf
baafame
baafannaa
baafatan
baafatu
baafne
baahire
baakireel
baakister
baakkoo
baakteeriiyaa
baakteeriiyaadhaan
baakteeriyaa
baakteeriyaan
baala
baalaa
baale
baalee
baaleen
baaletti
baallee
baalli
baallii
baandii
baandin
baandiraa
baane
baanee
baankii
baanu
baanuu
baaqelaa
baarentuu
baarneexaa
baaroo
baaroon
baarree
baasa
baasaa
baasaboortii
baasan
baasanii
baasaniif
baase
baasee
baashaa
baasi
baasii
baasiles
baasu
baasun
baasuu
baasuudhaan
baasuuf
baasuun
baatan
baatanii
baate
baatee
baates
baatii
baatiin
baatirii
baatiriin
baatiroonni
baattee
baattu
baattuu
baatu
baatus
baatuu
baaxii
baaxiitti
baay
baayee
baayina
baayinni
baayoloojii
baayoogaazii
baayoogaaziin
baayoogaazin
baayyatu
baayye
baayyee
baayyeen
baayyeetti
baayyen
baayyetti
baayyetu
baayyina
baayyinaa
baayyinaan
baayyinni
baayyisuu
babal
baballisuu
babbareedaa
baboon
baby
bachoo
bacillus
back
bacteria
bad
bada
badaa
badada
badda
baddaa
badde
bade
badee
badhaadhaa
badhaadhummaa
badhaasa
badhaasaa
badhaasni
badhaasuu
badhee
badii
badiisa
badiyya
badne
badu
baduu
bag
baga
baha
bahaa
bahaan
bahaatiin
bahaatti
bahamas
bahan
bahanii
bahara
bahe
bahee
baheen
bahi
bahii
bahu
bahuu
bahuuf
bahuun
bakakkaa
bakakkaan
bakar
bakka
bakkaa
bakkaan
bakkalcha
bakkan
bakkatti
bakkayyuu
bakkayyuutti
bakkee
bakkeen
bakkeewwan
bakki
bakkuma
bakri
bakrii
bakriin
bal
balaa
balaafamaa
balaan
balaatiin
balali
balance
balaqqee
balbala
balbalaa
balballi
bale
balfaa
balfuu
ball
ballaa
balleessa
balleessaa
balleessaan
balleessan
balleesse
balleessee
balleessu
balleessuu
balleessuuf
ballina
ballinaan
ballinan
ballini
baloo
bamaqaa
bana
banaa
baname
banamu
banan
banana
bananii
band
bane
banee
bani
bank
bantii
banu
banuu
banuun
baobab
baqachuu
baqaqaa
baqaqsanii
baqaqsuu
baqatan
baqatanii
baqate
baqatee
baqee
baqqala
baqqalaa
baqqalaan
bar
bara
baraa
baraan
baraaruu
barabaraa
barachaa
barachuu
barachuuf
barachuun
baradhe
baradhu
baramaa
barame
baramee
baramne
baran
baranne
barataa
baratame
baratan
baratanii
barate
baratee
barattoonni
barattoota
barattootaa
barattootni
barattu
barattuu
baratu
baratuu
baratuuf
barbaacha
barbaachifne
barbaachisa
barbaachisaa
barbaachisaadha
barbaachisan
barbaachisne
barbaachisoo
barbaachisu
barbaachisummaa
barbaachisummaan
barbaachisuu
barbaada
barbaadaa
barbaadamaa
barbaadamne
barbaadamu
barbaadan
barbaadanii
barbaadaniif
barbaadanitti
barbaaddamu
barbaadde
barbaaddu
barbaade
barbaadee
barbaadne
barbaadu
barbaaduu
barbaaduuf
barbaanne
barbachisa
barbachisaa
barbadaa
barbadeessu
barbadeessuu
barbadu
barcelona
barcuma
bare
baree
bareechanii
bareechee
bareechuu
bareechuuf
bareeda
bareedaa
bareedduu
bareedina
bareedu
bargaa
bari
barii
bariisaa
barkeessaa
barker
barley
barliin
barmaatilee
barmeelii
barmoota
barmootaa
barnoonni
barnoota
barnootaa
barnootaaf
barnootaan
barnootasaa
baroota
barre
barreeffama
barreeffamaa
barreeffamaan
barreeffaman
barreeffame
barreeffamee
barreeffamni
barreeffamoota
barreeffamu
barreeffamuu
barreessa
barreessaa
barreessaan
barreessan
barreesse
barreessee
barreessite
barreessitoonni
barreessitoota
barreessituu
barreessu
barreessuu
barreessuuf
barreessuun
barrefama
barri
barrisuu
barruu
barruulee
barruun
barsiifata
barsiifataan
barsiisa
barsiisaa
barsiisan
barsiise
barsiisee
barsiisota
barsiisotaa
barsiisu
barsiisuu
barsisaa
bartee
baru
baruma
barumsa
barumsaa
barumsaaf
baruu
baruuf
baruumsa
baruumsaa
baruun
basaasa
basaasaa
basallaqaa
basallaquu
basalt
base
based
bash
bashannana
bashannanaa
bashannanaaf
bashannansiisaa
bashannansiisuu
bashannanuu
basic
basin
basket
basketball
baskin
bassoo
bassu
bat
bataskaana
battala
battaluma
battalumatti
battee
battery
batti
battle
baxter
baxxee
bay
baya
bayan
baye
bayee
bayeen
bayeessa
bayinna
bayu
bayye
bayyee
bayyen
bayyina
bayyinaan
bayyinan
bbc
bc
be
bean
bear
bearer
bebbeekamoo
bebbeekamoon
bebbeekkamoo
because
become
becoming
bed
bee
beef
beeka
beekaa
beekama
beekamaa
beekamaadha
beekame
beekamiin
beekamne
beekamoo
beekamti
beekamtii
beekamtu
beekamtuu
beekamtuudha
beekamu
beekamuu
beekan
beekanii
beekaniif
beekee
beekhaa
beekhu
beekiin
beekin
beekkama
beekkamaa
beekkamaadha
beekkamaan
beekkaman
beekkame
beekkamne
beekkamoo
beekkamti
beekkamtii
beekkamtuu
beekkamu
beekkamus
beekkomsa
beekkumsa
beekkumsi
beekne
beeknu
beeksisa
beeksisaa
beeksisan
beeksisu
beeksisuu
beekta
beektaa
beektee
beektonni
beektota
beektu
beektuu
beeku
beekumsa
beekumsaa
beekutti
beekuu
beekuuf
beekuun
beel
beela
beeljiyeem
beellada
beellama
been
beeniin
beenishaangul
beenyaa
beenzina
beijing
being
bekele
bekkama
bekkamu
belgium
belgrade
believe
belt
berlin
best
bet
better
between
bi
bible
bicuu
bicycle
biddeena
bidiruu
bidiruun
bifa
bifaa
bifaan
bifi
bifti
bifunka
big
biifolee
biiftuu
biilaa
biiraa
biiroo
bikila
bilaasha
bilbila
bilbilaa
bilbile
bilbilli
bilbiluu
bilchaachuu
bilchina
bildimaa
bilii
bilillee
bililleen
bilisa
bilisaa
bilisaan
bilisumma
bilisummaa
bilisummaan
biliyoona
bill
biluu
bin
binary
bind
bineelda
bineeldaa
bineeldonni
bineeldoota
bineeldootaa
bineeldota
bineeldotaa
bineensa
bineensaa
bineensonni
bineensoota
bineensota
bineensotaa
bineensummaa
bineentii
bineeyyii
binensotta
biogas
biography
biology
biqila
biqilaa
biqiloota
biqiltoonni
biqiltoota
biqiltootaa
biqiltuu
biqiltuulee
biqiltuuti
biqilu
bira
biraa
biraadhaan
biraan
biraas
biraatiif
biraatiin
biraatin
biraatti
biraaziil
biratti
birbirsa
birbirsaa
birciqqoo
bird
biriiteen
biriiten
biriitish
birkii
birmajii
biroo
biroof
biroon
biroos
birootiif
birootti
birra
birraa
birraan
birro
birruu
birth
birtukaanii
bishaan
bishaani
bishaanii
bishaaniif
bishaaniin
bishaanin
bishaanirra
bishaanis
bishaanni
bishan
bishanii
bishooftuu
bisil
biskileetii
biskiliittii
biskutii
bissii
bitaa
bitan
bite
bitee
bitooteessa
bitootessa
bitootessaa
bittaa
bitti
bittinnaa
bitu
bituu
bituuf
biya
biyya
biyyaa
biyyaaf
biyyaalessaa
biyyaati
biyyaatti
biyyasaa
biyyatti
biyyattii
biyyee
biyyi
biyyoo
biyyooleessa
biyyoolessaa
biyyoonni
biyyoota
biyyotta
bizinesii
black
bladder
blazer
bless
blessed
blind
bloc
block
blogspot
blood
blow
blue
bo
boar
board
boarding
boba
bobaa
bobba
bobbaa
bobbaatii
boca
bocaa
bocuu
bodaa
bodda
body
bofa
bofaa
bogota
bokka
bokkaa
bokkaan
bokkoo
bokkuu
bololi
bomb
bona
bonaa
bone
boo
booda
boodaa
boodarra
boodarraa
boodarras
boodas
boodatti
booddee
booji
boojjii
boojuu
book
booka
bookee
books
boolee
boolla
boollaa
boombii
boombiin
boonaa
boonsaa
boonsaan
boontuun
boonuu
boor
boora
booraa
boorana
booranaa
booranni
boordii
booree
booressu
boorsaa
booruu
boosat
boot
booyyee
boqojjii
boqonnaa
boqoo
boqote
boqqolloo
boquu
bor
boraatii
boran
borana
borcuu
border
born
boroo
borrow
boru
boruu
bosona
bosonaa
bosonni
both
bottle
bound
bourgeois
boushaki
bow
bowl
bowwaa
box
boy
bra
bracelet
brain
branch
brazil
break
breaker
bred
breed
brigade
bring
british
brother
brown
brush
brussels
bu
bubbee
bubbisu
buck
bud
budaa
buddeen
buddeena
buddeenaa
buduni
buffalo
build
bukkee
bukkeetti
bula
bulaa
bulaatti
bulbulamee
bulbuluu
bulcha
bulchaa
bulchaan
bulchan
bulchi
bulchiinsa
bulchiinsaa
bulchiinsi
bulchitoota
bulchituu
bulchu
bulchuu
bule
bulee
bulii
bull
bullaa
bulleessuu
bulletin
bulloo
bulluq
bultii
bultoo
bultoota
bultu
bultum
bulu
buluu
buluun
buna
bunaa
bunee
bunni
buqqa
buqqee
buqqisuu
buqushaa
bura
burden
burjaaja
burly
burqaa
burqaan
burqituu
burraaquu
burree
burruusa
busaa
busaaf
busaan
bush
bushaa
business
but
butt
buttaa
butter
bututaa
bututtuu
bututuu
butuu
buu
buufata
buukii
buunyaa
buusaa
buusan
buusanii
buuse
buusee
buusii
buusu
buusuu
buusuuf
buute
buutuu
buxunxula
by
c
ca
caaccun
caaccuu
caala
caalaa
caalaan
caalaatti
caalan
caalatti
caalbaasii
caalmaa
caalu
caaluu
caamsa
caamsaa
caasaa
caasluga
caaslugaa
caba
cabaa
cabbage
cabbi
cabbii
cabbiin
cabbin
cabe
cabin
cabne
cabsaa
cabsanii
cabse
cabsee
cabsuu
cabsuun
cabu
cabuu
caccabaa
caccabsaa
caccabsuu
caccabu
caccabuu
cactus
caffee
caffeen
cake
cal
calaqqisaa
calaqqisu
calaqqisuu
calcium
calculate
calendar
calf
calii
call
calla
callaa
callaan
callee
calleensa
calliinsa
calliinsaan
calliinsi
calling
callisaa
callisanii
callisee
callistee
callisuu
callu
calu
camadaa
came
camel
cameroon
camii
camp
can
canada
canal
cancala
cancel
cancer
candle
cannon
canteen
canyon
cap
capacity
cape
capital
car
caraanuu
carallaa
carbohydrate
carbon
carcar
card
care
caries
carpet
carra
carraa
carraan
carraaqqii
carry
cart
cartilage
cartoon
cartridge
cascade
case
cash
caste
castor
castrated
cat
category
cattle
causes
caveat
cd
cdc
ce
cease
cell
cement
census
center
central
centre
centrifugation
century
cerebral
ceremonial
ceremony
ch
chaappaa
chaarjeffamu
chaarjii
chaarles
chaayinaa
chaayiniffa
chagas
chain
challenge
chamber
champions
change
channel
chant
chapel
chapter
character
characterization
charles
chase
chat
cheat
check
cheek
chemical
chemistry
chest
chewing
chick
chicken
chief
chiilii
chikaagoo
child
children
chile
chili
china
chip
cho
chocho
choice
choose
christian
christmas
chronic
chronicles
chronological
chrysler
chuck
church
churn
chute
chyel
cia
cibra
cicada
cicciruu
ciccitaa
ciccite
ciccituu
cichaa
cichu
cichuu
cidha
cidhaa
cidhaan
ciigoo
ciisaa
ciise
ciisee
ciisicha
ciisichaa
ciisu
ciisuu
cilee
cimaa
cimaan
cimdaa
cimdaan
cimdii
cimee
cimina
ciminaa
cimsee
cimsuu
cimtuu
cina
cinaa
cinaan
cinaatti
cinatti
ciniinnaa
cinne
cinqi
cinqii
cinqu
ciqilee
ciramee
circle
circuit
circumstance
circumstantial
ciree
ciroo
cirracha
cirrachaa
cirrii
cirriin
ciruu
citaa
citation
cite
citee
citii
cittuu
city
civet
civil
clap
class
classification
classroom
claw
clay
clean
clever
climate
clinic
clinical
clip
cloak
clock
close
closet
closing
clot
cloth
clothes
cloud
club
clubs
co
coagulation
coal
coast
coat
coba
cobuu
coccinia
code
coffee
coffer
coil
cold
cole
collagen
collar
collateral
collect
collection
collector
collier
collision
colonial
colonization
colonizing
com
combat
combatant
combined
combustion
come
comedy
comes
commander
commee
comment
commercial
commission
committee
common
commons
commonscat
communication
communion
community
company
comparative
compartment
compassion
complex
compliance
complicated
composition
compound
comprehensive
computer
computers
concave
concealed
concentration
concept
concrete
condition
confederate
conference
confidence
confident
conflict
congenital
congo
congratulation
congress
conj
conjugation
conjure
conjurer
connect
connective
conquest
conscious
consequence
conservation
conserve
considered
console
consort
constitution
construction
contact
contemporary
context
contextual
continental
continue
contributions
control
conversation
convex
cook
cooma
coomman
cooperation
copha
copper
copulation
copy
coqorsa
coraa
cord
core
corn
corporation
corps
corpus
correct
corrugated
corruption
cost
costa
cotton
couch
cough
count
counter
countries
country
coupe
course
court
covering
cow
crazy
cream
create
creation
creator
crescent
crime
critical
crop
cross
crossing
crow
cruise
crush
crust
crustiin
cry
crystal
cs
csa
cub
cubbuu
cube
cufa
cufaa
cufamu
cufan
cuff
cufti
cufuu
cull
cult
cultivate
cultural
culture
culullee
cumaa
cunqursaa
cup
cuqqaalaa
cuquliisa
cure
curie
curiew
curioslty
curitiba
current
cush
custom
customer
cut
cutaneous
cutter
cutting
cuunfaa
cuunfuu
cuuphaa
cycle
cyclone
cycloniin
cyprus
cysticercosis
d
da
daa
daabboo
daaccii
daachi
daadee
daadhii
daafura
daagii
daakaa
daakan
daakkiyyee
daaktuu
daakuu
daalacha
daalachaa
daalalaa
daalee
daallee
daandi
daandii
daandiin
daandiiwwan
daangaa
daangeeffame
daangeffama
daangeffamee
daangeffamtee
daangeffamti
daangessuu
daani
daannoo
daanyaa
daara
daaraa
daarii
daataa
daatuu
daaw
daawit
daawud
daawullaa
daawwachuu
daawwannaa
daawwitii
daayi
daayoodii
daba
dabala
dabalaa
dabalaman
dabalame
dabalamee
dabalamu
dabalata
dabalataa
dabalataan
dabalataanis
dabalate
dabalatee
dabalatiin
dabalatu
dabale
dabalee
dabalees
dabalgochima
daballu
dabalu
dabaluu
dabaluuf
dabaluun
dabaree
dabareedhaan
dabareen
dabarre
dabarsa
dabarsaa
dabarsan
dabarsanii
dabarse
dabarsee
dabarsine
dabarsite
dabarsitee
dabarsu
dabarsuu
dabarsuuf
dabarsuun
dabarte
dabartee
dabballee
dabbasaa
dabeessa
dabooroo
dabra
dabran
dabre
dabru
dabsuu
dacha
dachaa
dachaasanii
dachaasuu
dachee
dacheen
dachii
dadacha
dadammaqsuu
dadar
daddafanii
daddafee
daddarbaa
daddarbu
dadhabaa
dadhaban
dadhabanii
dadhabaniif
dadhabbii
dadhabbiin
dadhabde
dadhabduu
dadhabe
dadhabee
dadhabina
dadhabsiisaa
dadhabsiisuu
dadhabu
dadhabuu
daduu
dafanii
dafee
dafii
dafqa
daftee
dagaagaa
dagaagina
dagachuu
dagaggama
dagaggamaan
dagalee
dagam
daggalaa
dajjaazmaach
dalaga
dalagaa
dalagaan
dalagan
dalage
dalagu
dalaguu
daldala
daldalaa
daldalaan
daldalli
daldaltoota
dalga
dallaa
dallaan
dallane
dallansiisuu
dallansuu
dallanuu
dalloo
dambali
dambalii
dambi
dambii
dame
damee
dameen
dameewwan
dames
damma
dammaa
dammaqe
dammaqsuu
dammaqu
dammaquu
damooza
danaa
danbali
danbii
dance
danda
dandaha
dandamachuu
dandeenya
dandeenye
dandeenyee
dandeenyeef
dandeenyeen
dandeenyu
dandeessa
dandeesse
dandeessee
dandeessi
dandeessisa
dandeessise
dandeessisu
dandeessu
dandeessuu
dandeetii
dandeetti
dandeettii
dandeettiin
dandenne
dandettera
dandii
dane
danee
danfisuu
danfuu
danga
dangaa
dannaba
dansaa
dantaa
danuu
daqiiqaa
dar
daraaraa
daraartuu
daraartuun
daran
dararaa
dararama
darasaa
darba
darbaa
darbachaa
darbachuu
darban
darbanii
darbatame
darbatamu
darbatu
darbe
darbee
darbeera
darbii
darbine
darbitee
darbu
darbuu
darbuuf
darbuun
dardara
daree
dargaggeessa
dargaggeessi
dargaggeettii
dargaggoo
dargaggoonni
dargaggoota
dargaggootaa
dargaggootni
dargaggummaa
dargii
dargiin
dark
darre
data
database
date
daughter
david
davidovits
dawaa
dawwaa
dawwee
day
dc
de
dead
deadline
deaf
dealer
death
debi
debut
dec
decade
deceive
december
decide
decimal
declaration
decode
decrease
decrepit
deddeebi
deddeebiin
deddeebisu
deebi
deebii
deebiin
deebine
deebinee
deebisa
deebisanii
deebise
deebisee
deebiseef
deebisu
deebisuu
deebisuuf
deebisuun
deebite
deebitee
deebitu
deegaa
deeggaraa
deeggarame
deeggarsa
deeggartoota
deeggaru
deema
deemaa
deeman
deemanii
deeme
deemee
deemeen
deemi
deemne
deemnu
deemsa
deemta
deemte
deemtee
deemtu
deemtuu
deemu
deemudhaan
deemuf
deemun
deemuu
deemuuf
deemuun
deenmaarki
deep
deeply
deer
deesse
deetaa
deettii
defective
defense
defensive
deficiency
defined
deforest
deggeraa
deggersa
deggertuu
deggeru
deggeruu
degree
deity
del
delete
delhi
delicious
delinquency
delta
dementia
demma
demmu
democracy
democratic
denial
denmark
density
denzel
department
depth
deputy
der
des
design
desk
detached
determination
development
dh
dha
dhaa
dhaaba
dhaabaa
dhaabachuu
dhaabadhee
dhaaban
dhaabanii
dhaabatan
dhaabatanii
dhaabate
dhaabatee
dhaabatu
dhaabbachuu
dhaabbachuun
dhaabbadhee
dhaabbanni
dhaabbata
dhaabbataa
dhaabbatan
dhaabbatanii
dhaabbate
dhaabbatee
dhaabbatu
dhaabbii
dhaabbilee
dhaabbileen
dhaabde
dhaabe
dhaabni
dhaabu
dhaabuu
dhaabuuf
dhaabuun
dhaadannoo
dhaala
dhaaluu
dhaamoo
dhaamsa
dhaamsaa
dhaamsan
dhaamsuu
dhaan
dhaba
dhabaa
dhabamne
dhabamsiisuu
dhabamsisuu
dhaban
dhabanii
dhabatte
dhabde
dhabdee
dhabe
dhabee
dhabeessa
dhabii
dhablee
dhabne
dhabsiisuu
dhabu
dhabuu
dhabuun
dhaddacha
dhadhaa
dhadhaabbata
dhadhaan
dhaga
dhagaa
dhagaan
dhagahama
dhagahamaa
dhagahame
dhagahamne
dhagahamu
dhagahi
dhagahu
dhagahuu
dhagahuun
dhagayi
dhageenye
dhageesisu
dhageesisuu
dhageesse
dhageessee
dhageessisu
dhageessisuu
dhageettii
dhaggeeffachuu
dhaggeeffachuuf
dhaggeeffatan
dhagna
dhagnaa
dhagni
dhaha
dhahaa
dhahaan
dhahanii
dhahee
dhaka
dhakaa
dhala
dhalaa
dhalata
dhalataa
dhalatan
dhalate
dhalatee
dhalatoo
dhalatte
dhalattee
dhalche
dhalee
dhalfate
dhallaadduu
dhalli
dhaloonni
dhaloota
dhalootaa
dhalootaaf
dhalootaan
dhalootan
dhaltuu
dhaluu
dhama
dhamaatii
dhan
dhandhama
dhangaa
dhangaan
dhangaggaa
dhangala
dhangalaasuu
dhaqan
dhaqanii
dhaqdhaqii
dhaqe
dhaqee
dhaqna
dhaqu
dhaquu
dhaquuf
dhaquun
dhara
dharra
dharraa
dhawaa
dhayne
dhduo
dhedheessaa
dheebuu
dheedhii
dheekkamaa
dheekkamsa
dheekkamsaan
dheekkamu
dheekkamuu
dheera
dheeraa
dheeraaf
dheeraan
dheeradhaaf
dheeratu
dheeressuu
dheeriina
dheerina
dheerinaan
dheerinni
dheertuu
dheessuu
dhi
dhiba
dhibaa
dhibaan
dhibamaa
dhibba
dhibbaa
dhibbantaa
dhibbantaan
dhibbatti
dhibbeentaa
dhibbeentaan
dhibee
dhibeen
dhibooftuu
dhibu
dhidhimuu
dhiga
dhigaa
dhiha
dhihaa
dhihaachuu
dhihaan
dhihaate
dhihaatiin
dhihaatin
dhihaatti
dhihaatu
dhiheenya
dhiheessu
dhiheessuu
dhihoo
dhihootti
dhiiban
dhiibbaa
dhiibbaan
dhiibuu
dhiifama
dhiifame
dhiifami
dhiifamuu
dhiifne
dhiiftee
dhiiga
dhiigaa
dhiigaan
dhiigi
dhiigni
dhiiguu
dhiira
dhiiraa
dhiironni
dhiirota
dhiirri
dhiirti
dhiirummaa
dhiisa
dhiisaa
dhiisan
dhiisanii
dhiise
dhiisee
dhiiseera
dhiisi
dhiisii
dhiisiitii
dhiisne
dhiistee
dhiisu
dhiisuu
dhiisuuf
dhiisuun
dhiita
dhiituu
dhilbee
dhiltee
dhimbiibuu
dhimma
dhimmamne
dhimmamuu
dhimmi
dhimmichi
dhimmoota
dhinnaa
dhiphachaa
dhiphachuu
dhiphanne
dhiphataa
dhiphatu
dhiphina
dhiphinaa
dhiphinni
dhiphisaa
dhiphisu
dhiphisuu
dhiphoo
dhiqachuu
dhiqannaa
dhiqatan
dhiquu
dhira
dhiraa
dhirsa
dhisamee
dhisee
dhiyaachaa
dhiyaachuu
dhiyaachuuf
dhiyaana
dhiyaata
dhiyaatan
dhiyaatanii
dhiyaate
dhiyaatee
dhiyaatu
dhiyeenya
dhiyeenyaan
dhiyeessa
dhiyeesse
dhiyeessu
dhiyeessuu
dhiyeessuuf
dhiyoo
dhiyootti
dhkd
dho
dhokachuu
dhokannaa
dhokataa
dhokatan
dhokatanii
dhokatee
dhoksaa
dhoksaadhaan
dhoksaadhan
dhoksaan
dhoksanii
dhoksuu
dhoksuuf
dhooftuu
dhooqa
dhooqaa
dhoowwe
dhoqaa
dhoqdhoqa
dhoqonaa
dhoqqaa
dhoqqee
dhorkaa
dhorkame
dhorku
dhorkuu
dhowwaa
dhowwu
dhowwuu
dhufa
dhufaa
dhufaan
dhufaatii
dhufan
dhufanii
dhufaniiru
dhufe
dhufedha
dhufee
dhufeef
dhufeen
dhufeenya
dhufeenyi
dhufeera
dhufiin
dhufnaan
dhufne
dhufnee
dhufte
dhuftee
dhufu
dhufutti
dhufuu
dhufuun
dhufuutti
dhugaa
dhugaadha
dhugaadhaan
dhugaaf
dhugaan
dhugaatii
dhugaatiin
dhugaatti
dhugamu
dhugan
dhuganii
dhugee
dhugeeffachuu
dhuguma
dhugumaan
dhuguman
dhugumatti
dhugumattuu
dhuguu
dhuguun
dhuka
dhukaasa
dhukaasuu
dhukii
dhukkee
dhukkuba
dhukkubaa
dhukkubaaf
dhukkubaatiin
dhukkubbi
dhukkubbii
dhukkubbiin
dhukkubicha
dhukkubichaan
dhukkubichi
dhukkubichii
dhukkubni
dhukkuboota
dhukkubsachuu
dhukkubsataa
dhukkubsataan
dhukkubsatanii
dhukkubsate
dhukkubsatee
dhukkubsatte
dhukkubsattoota
dhukkubu
dhullaa
dhuma
dhumaa
dhumaarratti
dhumaatti
dhuman
dhumanii
dhumarratti
dhume
dhumee
dhumne
dhumni
dhumuu
dhungate
dhuubuu
dhuufuu
dhuukuuba
dhuukuubicha
dhuukuubichii
dhuunfaa
dhuunfaatti
di
dia
diabetes
diagnosis
diamond
dias
dibaa
dibaabaa
dibaba
dibame
dibamu
dibata
dibatan
dibbee
dibuu
dictionary
didaa
didan
diddaa
didde
diddiqo
dide
didee
dideef
didibbisa
diduu
die
diego
different
dig
digdama
digdamaa
digdamii
digestion
digirii
digital
digrii
diida
diidaa
diiguu
diikkaa
diilallaa
diimaa
diimaan
diimgurraa
diin
diina
diinaa
diinaan
diinagdee
diinagdeen
diinni
diinummaa
dijitaalaa
dilallaa
dilbata
diluted
dimokiraatawaa
dimookiraasii
dimookiraatawaa
dimshaasha
dinagdee
dingil
dinner
dinnicha
dinniinaa
dinqamuu
dinqii
dinqine
dinqisiifachuu
dinqisiifanna
dinqisiifannaa
dinqisiisaa
dinqisiisuu
dinqisisaa
dinquu
dinquun
diogo
dioxide
dippiloomaa
diqqa
diqqo
dira
diraamaa
direct
direction
diriiraa
diriiree
diriirsuu
dirmammuu
dirqama
dirqamaan
dirqaman
dirqame
dirqamni
dirqiin
dirqisiisuu
dirre
dirree
dirreen
dirriba
dirrisuu
disappoint
dischaarjii
discharge
discipline
discussion
disease
diseases
disgraceful
dislike
dismiss
disobedient
disobey
disorder
displaystyle
dispose
disposed
distance
distant
distii
distinction
district
divide
diving
division
diyaarii
diyaariin
dizaayinii
dizzaayinii
djazairess
djibouti
dll
dna
do
doctor
document
documentary
doddotaa
dodola
doe
dog
dogoggora
dogoggoraa
dogoggoraan
dogoggorri
dogoggorsaa
dogoggorsuu
dogoggoruu
doi
dokdokkee
doktarii
dolloo
domestic
dominant
don
done
donkey
doobbii
doofaa
doofummaa
doolaara
doolloo
doomaa
doonii
dooniidhaan
dooniin
door
doorii
doorsisuu
doqna
doqnummaa
dorgomaa
dorgoman
dorgommii
dorgommiin
dorgomuu
dorgomuuf
dot
double
dove
down
downstream
dr
dracunculiasis
drag
dragon
drain
draper
draw
drawing
dream
dreamworks
dress
dressing
drink
drinker
driver
driving
drop
drought
drug
drum
drummer
drunk
dry
du
dub
dubara
dubaraa
dubarti
dubartii
dubartiif
dubartiin
dubartoonni
dubartoota
dubartootaa
dubartootaaf
dubbachaa
dubbachuu
dubbachuudhaan
dubbachuuf
dubbachuun
dubbadhe
dubbadhu
dubbanne
dubbata
dubbataa
dubbatama
dubbatamaa
dubbataman
dubbatame
dubbatamu
dubbatan
dubbatanii
dubbate
dubbatee
dubbatte
dubbatti
dubbattu
dubbatu
dubbi
dubbifama
dubbifamaa
dubbifaman
dubbifamu
dubbii
dubbiin
dubbisa
dubbisaa
dubbisaan
dubbise
dubbisee
dubbisu
dubbisuu
dubbisuuf
dubbisuun
dubra
dubree
due
dugda
dugdaa
dugdaan
dugdatti
dugugguruu
dukkaana
dukkana
dukkanaa
dukukaa
dulaaba
dulloomaa
dullooman
dulloome
dulloomee
dung
dungoo
dunk
dunkaana
dur
dura
duraa
duraaf
duraan
duraanii
duraatiif
duraatti
duras
duratti
durba
durbaa
durbee
durbii
durboota
durbummaa
durdurii
duree
dureen
dureessa
durfamu
durgala
duri
durii
during
durjireessa
durra
dursa
dursaa
dursanii
dursee
dursuu
duruma
duty
duuba
duubaa
duubaan
duubaatti
duubatti
duudaa
duudhaa
duuka
duukaa
duula
duulaa
duulan
duule
duules
duumessa
duumessaa
duune
duusel
duute
duuti
duuyyaa
duwwa
duwwaa
dye
dynamic
dynamics
dynamo
e
each
eagle
ear
early
earth
earthquake
east
easter
eastern
easy
eat
eater
ebla
eblaa
ebola
echinococcosis
echinococcus
ecosystem
ed
eda
edaa
edaasa
eddoo
edema
eden
edge
edha
edisen
edison
edit
edited
edition
edu
educated
education
ee
eebba
eebbaa
eebbi
eebbifamaa
eebbifame
eebbifamee
eebbisa
eebbisaan
eebbisu
eebbisuu
eebbisuuf
eebila
eedha
eef
eefi
eega
eegaa
eegala
eegalan
eegale
eegalee
eegalte
eegaluu
eegame
eegamu
eegan
eeganii
eegasii
eegdota
eegdu
eegduu
eege
eegee
eeggachaa
eeggachuu
eeggannaa
eeggannoo
eeggannoodhaan
eeggannoon
eeggata
eeggataa
eeggatan
eeggatee
eeggatu
eegi
eegne
eegu
eegumsa
eegumsi
eeguu
eeguuf
eekkaa
eel
eela
eelee
een
eenabaa
eenii
eenis
eenyu
eenyullee
eenyummaa
eenyummaan
eenyutu
eenyuu
eenyuun
eenyuuniyyuu
eenyuyyuu
eera
eertiraa
eertiraan
eeru
eeruu
ees
eeshiyaa
eeshiyaan
eessa
eessaa
eessatti
eessayyuu
eessituu
eessuma
eessuu
eetan
eeti
eetin
eetti
eetu
eeyyama
eeyyamamne
eeyyame
eeyyamuu
eeyyee
ef
effect
effects
efficacy
effort
egaa
egaan
egg
ego
egypt
ejeree
ejersa
ejja
ejjaa
ejjennoo
ejjennoon
ejjituu
ekeraa
eksi
el
ela
elaa
elastic
elba
elbow
elect
election
electric
electrical
electricity
electrify
electron
electronic
electronics
eleektriikii
elektiriikii
elektirikaalii
elektirikii
elektirikiin
elektirikiitti
elektirkii
elektiroodii
elektiroolaayitii
elektiroonii
elektirooniik
elektiroonikii
elektirooniksii
elektrikii
elementary
elementii
elemoo
elemoon
elephant
ellee
ellektiriikii
ellektirikii
elmituu
elsevier
emancipation
embarrass
embarrassment
emergency
emerging
emery
emf
emmer
emotion
emperor
emphasis
empire
empirical
en
enamel
enamelii
enciclope
encounter
encourage
encyclopedia
end
endure
enemy
energy
enfeldi
engine
engineer
engineering
english
ennaa
enough
enter
entertainment
entire
entomology
environment
enzyme
epicenter
epidemiology
epistle
equipment
era
erase
erect
erer
erga
ergaa
ergaan
ergama
ergamaa
ergame
ergamoota
ergamu
ergan
erganii
ergasii
erge
ergee
ergi
ergifatamee
ergu
erguu
eritrea
eroobiikii
erosion
erra
errand
error
es
escape
eshiyaa
esparanto
especially
espionage
essay
essential
establish
established
establishment
estate
esteem
estimate
et
ethics
ethiopia
ethiopian
ethnic
ethnicity
ethnography
etti
europe
european
evaluation
evangelical
evasion
even
evening
event
ever
every
everybody
everything
evidence
evident
examination
examine
example
exceed
except
exchange
excrement
executive
exempt
exercise
exhibition
existent
exit
expansion
expel
expensive
experience
expert
explain
explanatory
explode
exploration
explosion
exposition
expression
exterior
external
extinguisher
eye
eyebrow
eyed
eyyuu
f
fa
faa
faadha
faajja
faajjessuu
faajjii
faalama
faalamne
faallaa
faallama
faallame
faaluu
faana
faanaa
faandaan
faandaanis
faarfachaa
faarfannaa
faarsaa
faarsu
faarsuu
faaruu
faashinii
faashistii
faatee
faati
faaya
faayaa
faayaan
faayaatti
faayibrinoojiin
faayidaa
faayidaan
faayidaarra
faayila
fable
faca
facaase
facaasuu
facaatii
face
facebook
faced
fact
facto
factor
factors
factory
fafa
fafakkaatan
fafakkaataniin
fafakkaatanitti
faffaca
fagaachuu
fagaara
fagaaraa
fagaate
fagaatee
fagaattee
fagaatu
fageenya
fageenyaa
fageenyaan
fageessanii
fageessee
fageessuu
fagoo
fagoodhaa
fagootti
fail
failure
fairy
faith
fak
fakk
fakkaachaa
fakkaachuu
fakkaanne
fakkaata
fakkaataa
fakkaatan
fakkaatanii
fakkaataniif
fakkaataniin
fakkaatanitti
fakkaate
fakkaatee
fakkaateera
fakkaatiin
fakkaatti
fakkaattu
fakkaatu
fakkaatutti
fakkaatuu
fakkatu
fakkeenya
fakkeenyaaf
fakkeenyaatti
fakkeessaa
fakkeessanii
fakkeessituu
fakkeessu
fakkeessuu
fakkeessuuf
fakkena
fakki
fakkii
fakkiidhaan
fakkiilee
fakkiin
fal
fala
falaasama
falaasamaa
falfala
falfalaa
falfaltuu
fall
fallaana
falli
fallow
falmaa
falmii
falmisiifne
falmisiisaa
falmuu
falquu
false
faltii
family
famine
famous
fandalala
fandii
fannifamu
fannifatan
fannisan
fannisanii
fannisuu
fannoo
far
fara
faradaay
farangagsaa
faranjii
faransaay
faransaayi
farda
fardaa
fardaaf
fardaan
fardeen
fardi
farm
farmer
farra
farsoo
fast
fat
fate
father
fattee
fault
fayidaa
fayyaa
fayyaaleessa
fayyada
fayyadama
fayyadamaa
fayyadamaan
fayyadaman
fayyadamani
fayyadamanii
fayyadame
fayyadamee
fayyadamna
fayyadamne
fayyadamni
fayyadamnu
fayyadamte
fayyadamtee
fayyadamu
fayyadamuu
fayyadamuudhaan
fayyadamuuf
fayyadamuun
fayyadatama
fayyadu
fayyaduu
fayye
fayyee
fayyida
fayyisaa
fayyisaan
fayyisuu
fayyummaa
fayyuu
fdg
fe
fear
feast
feather
feature
february
federaalaa
federaalawaa
federal
federation
fedha
fedhe
fedhii
fedhiidhaan
fedhiin
fedhu
fedhuu
feeble
feed
feeder
feedhii
feeding
feene
feenu
feet
feeta
feete
feetu
fekadu
female
fertility
fesashi
feud
fever
few
ff
ffa
ffaa
ffaan
ffaatti
fi
fib
fiba
fibrin
fiction
fida
fidaa
fidan
fidanii
fiddoo
fiddu
fide
fidee
fidi
fidne
fidu
fiduu
fiduudhan
fiduuf
fiduun
field
fifa
fifth
fight
figures
fii
fiichee
fiigaa
fiigan
fiige
fiigee
fiigicha
fiigichaa
fiigu
fiiguu
fiildii
fiilmii
fiilmiin
fiinlaandi
fiixaan
fiixee
fiiziksii
fiizisistii
filachuu
filame
filannoo
filannoon
filatamaa
filatamanii
filatame
filatan
file
filiippiinsii
fill
fillano
filler
filling
film
filmiin
filoosofera
filter
filuu
fin
final
finca
fincaa
fincaan
fincaanii
finchaa
fincila
fincilaa
finciluu
find
fine
finfinne
finfinnee
finfinneen
finfinneerraa
finfinneetti
finger
finiinsaa
finish
finna
finniisa
finyoo
fiqhii
fir
fira
firaaf
firaanki
firaansi
firaashii
firammaa
fire
fireenchi
firewood
firii
firm
firooma
firoota
firri
first
firummaa
fiscal
fish
fishiinii
fit
fitnaa
five
fiwudaalaa
fix
fixa
fixaa
fixatee
fixe
fixed
fixee
fixeensa
fixin
fixu
fixuu
fixuuf
fixuun
fiyuuzyinii
fkn
flag
flame
flammable
flask
flee
fleet
flight
flip
float
floating
floor
florence
flour
flow
flower
fluid
fly
fo
foam
focus
foddaa
fodooddoo
fog
fokkisaa
fokkistuu
fokkuu
fold
folk
folklore
follow
foncaa
fonqolcha
food
fool
foolii
fooliin
foolish
foon
foonii
fooqii
foot
football
fooyituu
fooyya
fooyyessuu
for
force
forces
foreman
forest
forget
forgiveness
fork
form
formal
formula
formulan
fort
fortune
forward
foster
foul
found
foundation
founded
four
fourth
fowl
foyya
framework
france
frank
free
freedom
french
frequency
frequently
fresh
friction
friday
friend
friendly
frighten
from
front
fruit
frying
ft
fucungee
fudhachiisuu
fudhachu
fudhachuu
fudhachuudhaan
fudhachuudhan
fudhachuuf
fudhachuun
fudhanne
fudhata
fudhataa
fudhatama
fudhatamaa
fudhatame
fudhatamee
fudhatamu
fudhatamuu
fudhatan
fudhatanii
fudhate
fudhatee
fudhateera
fudhatte
fudhattee
fudhattu
fudhattuu
fudhatu
fudhatuuf
fudhee
fuduraa
fuel
fufa
fufaa
fufan
fufanii
fufe
fufee
fufeera
fufiinsa
fufinsa
fufne
fufte
fufu
fufuu
fufuudhaan
fufuuf
fufuun
fugitive
fulbaana
fuldura
fulduraa
fulduratti
full
fulla
fullee
funaantuu
funaanuu
functional
funee
funeral
funyaan
funyoo
furaa
furdaa
furdina
furgaasaa
furmaata
furnace
furnoo
furtuu
furuu
furuuf
future
fuudha
fuudhaa
fuudhaaf
fuudhan
fuudhanii
fuudhe
fuudhee
fuudhu
fuudhuu
fuudhuuf
fuula
fuulaa
fuuldura
fuulduraa
fuulduraatti
fuulduratti
fuullee
fuulleetti
fuulli
fuuluu
fuunee
fuutee
g
ga
gaa
gaabbii
gaabbuu
gaaddidduu
gaaddisa
gaaddisaa
gaaddisaan
gaadi
gaaf
gaafa
gaafachuu
gaafachuun
gaafadha
gaafadhe
gaafadhu
gaafan
gaafannaan
gaafas
gaafata
gaafataa
gaafataan
gaafatama
gaafatamaa
gaafatamaan
gaafatamu
gaafatamummaa
gaafatamummaan
gaafatan
gaafate
gaafatee
gaafatiin
gaafatte
gaafatu
gaaffi
gaaffii
gaaffiif
gaaffiin
gaaftokko
gaaga
gaagura
gaala
gaalaa
gaalchu
gaalee
gaalla
gaallaa
gaalli
gaambiyaa
gaanaa
gaanfa
gaanfi
gaangee
gaannaba
gaantii
gaara
gaaraa
gaari
gaarii
gaariidha
gaariin
gaariis
gaariitti
gaarin
gaaritti
gaarreen
gaarren
gaarri
gaarummaa
gaarummaan
gaasii
gaasiin
gaattiraa
gaayoo
gaazexaa
gaazexaan
gaazexessaa
gaazexoota
gaazii
gaaziin
gaazin
gabaa
gabaabaa
gabaabaadhaaf
gabaabaaf
gabaabaatti
gabaabduu
gabaabsanii
gabaabsee
gabaabsuu
gabaabumatti
gabaafameera
gabaasa
gabaase
gabaasetti
gabaasni
gabatee
gabbara
gabbarri
gabbina
gabbisuu
gabrummaa
gad
gada
gadaa
gadaamii
gadaan
gadaanaa
gadadoo
gadameessa
gadameessaa
gadamsa
gadamsaa
gadareessa
gadda
gaddaa
gadde
gaddi
gaddii
gaddisiisaa
gaddisiisu
gaddisiisuu
gaddu
gadduu
gadee
gadhee
gadheedhaan
gadheen
gadhees
gadhiisee
gadi
gadii
gadiin
gadiiti
gadiitti
gaditti
gadoo
gadooduu
gafarsa
gagaa
gaggaarii
gaggabaabaa
gaggabaabduu
gaggabaaboo
gaggaragalchee
gaggeeffame
gaggeessa
gaggeessaa
gaggeesse
gaggeessuu
gaha
gahaa
gahan
gahe
gahee
gaheen
gaheera
gahu
gahumsa
gahuu
gahuuf
gahuun
gain
gajjallaa
gal
gala
galaa
galaan
galaana
galaanaa
galaanaatti
galaanni
galamsoo
galamsootti
galan
galani
galanii
galanni
galata
galataa
galateeffachuu
galatti
galbeed
galche
galchee
galchi
galchine
galchu
galchuu
galchuuf
galchuun
gale
galee
galeera
galeessa
galeessaa
galeessaan
galgala
galgalaa
galii
galiin
gall
gallana
galle
gallee
galleef
gallery
galma
galmaa
galmaan
galmee
galmeessun
galmeessuu
galoo
galte
galtee
galtuu
galu
galuu
galuuf
galuun
gama
gamaa
gamaaggamuu
gamana
gambling
game
gamma
gammachiisaa
gammachiisne
gammachiisu
gammachiisuu
gammachiisuuf
gammachuu
gammachuudhaan
gammachuun
gammada
gammadaa
gammadde
gammadduu
gammade
gammadee
gammadne
gammadu
gammaduu
gammoojii
gammoojjii
gammoojjiin
gamna
gamnummaa
gamoo
gamoon
gamtaa
gamtaadhaan
gamtaan
gamtoomanii
ganama
ganamaa
ganamaan
ganamas
ganamee
ganameen
ganda
gandaa
gandoota
gang
gangster
ganna
gannaa
gannaalee
gannatii
gannii
gannoo
gantuu
ganuu
ganzabee
gar
gara
garaa
garaacha
garaachaa
garaagara
garaagaraa
garaagaraatiin
garaagaraatti
garaagarummaa
garaagarummaan
garaan
garaatti
garad
garafuu
garagalchuu
garagale
garagalee
garagaluu
garagara
garagaraa
garas
garasuu
garasuun
garba
garbaa
garbage
garbi
garbummaa
garbuu
gardaafoo
garee
gareen
gareewwan
gargaara
gargaaraa
gargaaramu
gargaare
gargaarsa
gargaarsaa
gargaarsi
gargaartuu
gargaaru
gargaaruu
gargaaruuf
gargar
gargara
gargari
garii
gariin
garmalee
garnet
garra
garraamii
garre
garri
gartokkee
gartokkeen
gartuu
gartuudhaan
gartuulee
gartuun
garu
garuu
garuummoo
gas
gatamaa
gate
gateettii
gates
gati
gatii
gatiidhaaf
gatiin
gatiittii
gatuu
gaye
gayu
gazelle
gc
ge
geeddaramuu
geeddaruu
geedoo
geeffaman
geeffame
geejibaa
geejjibaa
geengoo
geenye
geeraa
geerarsa
geeraru
geese
geesisuu
geessan
geessanii
geesse
geessee
geessi
geessisu
geessisuu
geessu
geessuu
geggeeffama
geggeeffame
geggeeffamee
geggeeffamerratti
geggeeffamu
geggeessaa
geggeessan
geggeesse
geggeessu
geggeessummaa
geggeessuu
geggeessuun
geggefame
geggefamu
gel
gemini
gemmii
gender
gene
general
generally
generation
generous
genesis
genetic
genius
genus
geography
geology
geometry
geopolymer
geopolymers
georgia
germany
get
ghost
gi
giant
gibee
gibtsi
gibxi
gibxii
gidaara
giddaa
giddu
giddugala
giddugaleessa
giddugaleessaa
giddutti
gidduu
gidduudhaa
gidduutti
gidiraa
gift
gihon
giiftii
giincii
giinii
gill
gimbii
gindabarat
gingilchaa
giraaba
giraamii
giraffe
giriik
giriikii
giroo
gita
gitaa
gitaara
gitu
give
given
giver
gland
glass
global
globe
globular
globulins
glory
glow
glucose
go
goat
gobbaa
gobble
gobbuu
gobuu
gocha
gochaa
gochaalee
gochaan
gochi
gochima
gochu
gochuu
gochuudhaan
gochuuf
gochuun
gochuutti
god
godaa
godaanaa
godaanan
godaane
godaannisa
godaansa
godaansi
godaanu
godaanuu
godha
godhaa
godhachuu
godhama
godhamaa
godhaman
godhame
godhamee
godhameen
godhamu
godhamuf
godhamuu
godhamuuf
godhan
godhani
godhanii
godhaniif
godhaniin
godhatan
godhatanii
godhate
godhatee
godhatu
godhe
godhedha
godhee
godheef
godheen
godheera
godherra
godhi
godhiin
godhu
godhuu
godhuuf
godhuun
godina
godinaa
godinaalee
godinichaa
godinni
godinoota
godmother
godoo
goga
gogaa
gogaan
gogeessa
gogfame
gogga
gogsuu
gola
golambaa
golba
golbobbaa
golboo
gold
golden
golee
golgaa
gololcha
golollee
gommaa
gonfachuu
gonfoo
gonkumaa
gooba
goobana
goobanaa
gooboo
good
goodarree
gooftaa
googaa
google
goojjam
goojjamoonni
goojjoo
goolaa
goolabbii
goolabuu
goolii
goomattuu
goona
goone
goonni
goonu
gooroo
gooroon
goorroo
goose
goota
goote
gootee
gooticha
gootichi
gootni
gootonni
gootota
goototni
gootu
gootummaa
gootummaan
gora
goraa
goraadee
goree
goro
gorora
gorroo
gorsa
gorsaa
gorsan
gorse
gorsituu
gorsoddoma
gorsuu
goruu
gosa
gosaa
gosaan
gosoonni
gosoota
gossa
gossi
gossip
gosti
gov
govern
government
gowoomsaa
gowoomsuu
gowoomsuuf
gowwaa
gowwoomsituu
gowwoomsuu
gowwoomsuuf
gowwummaa
gp
grade
gradually
grain
grammar
granary
grand
grandfather
grandmother
granite
grant
graph
grass
grave
gravel
gravy
graze
great
greece
greek
green
greenhouse
grenade
grey
grid
griddle
grieve
grin
grip
groan
groove
ground
group
groups
grow
growl
gs
gu
guard
guardian
guatemala
gubaa
gubachuu
guban
gubate
gubatu
gubba
gubbaa
gubbaatti
gubbatti
gube
gubu
gubuu
gudaan
gudar
gudayyaa
gudda
guddaa
guddaadha
guddaadhaan
guddaadhan
guddaan
guddaas
guddaatti
guddaatu
guddachaa
guddachuu
guddachuun
guddan
guddataa
guddatan
guddate
guddatee
guddatte
guddatu
guddicha
guddichi
guddifachaa
guddifachuu
guddina
guddinaa
guddinaan
guddinni
guddisa
guddisan
guddisanii
guddisbaddee
guddise
guddisee
guddisu
guddisuu
guddisuuf
guddisuun
gudditti
guddittii
guddo
guddoo
guddoon
gudina
guduru
guduruu
guduunfuu
guess
gufachiisuu
gufuu
gugee
guggudo
guguddaa
guidance
guide
guinea
guitar
gujii
gujiin
gulaaluu
gulana
gulantaa
gulf
gullallee
guluffii
gulufuu
gulummaa
gum
gumaa
gumaacha
gumaachi
gumgummii
gumgumuu
gumii
gumiin
gummaa
gun
guraagee
guraandhala
gurbaan
gurbayyee
gurguddaa
gurguddaan
gurguddoo
gurguddoolii
gurguddoon
gurguraaf
gurguramee
gurguramu
gurgurtaa
gurguru
gurguruu
gurguruuf
gurmaa
gurmeessaa
gurmeessuu
gurmuu
guroo
gurra
gurraa
gurraacha
gurraachaa
gurraachi
gurraandhala
gurrandhala
gurri
gursum
gut
guttu
gutummaa
gutummaan
guuboo
guujja
guula
guuraa
guuruu
guutamaa
guutamaan
guutame
guutamee
guutamu
guutamuu
guute
guutee
guutoo
guuttame
guutu
guutumaan
guutummaa
guutummaan
guutummaatti
guututti
guutuu
guutuudhaan
guutuumaan
guutuummaatti
guutuun
guutuutti
guy
guyya
guyyaa
guyyaan
guyyaatti
guyyee
guyyoo
guyyoonni
guyyoota
guyyootaa
guyyooti
guyyuma
guyyuu
gwa
h
ha
haa
haacaalun
haacaaluu
haada
haadha
haadhaa
haadhasaa
haadhoo
haaduu
haafa
haajaa
haaji
haala
haalaa
haalaan
haaldubbii
haalli
haalonni
haaloo
haalota
haaluma
haaluu
haara
haaraa
haaraan
haaraatti
haaran
haardiweerii
haaromsa
haaromsaa
haasa
haasaa
haasaan
haasawa
haasofne
haata
haatayuu
haati
haatii
habalaka
habasha
habashaa
habashootaa
haboo
hacuuccaa
had
hadha
hadhaa
hadhaawaa
hadhaba
hadhooftuu
hadiida
hadiisa
hadiisni
hadiyyaa
hadurree
hadurreen
haemoglobin
hafa
hafaa
hafan
hafe
hafee
hafeef
hafeen
hafiin
hafin
hafne
hafte
haftee
hafu
hafuu
hafuura
hafuuraa
haga
hagam
hagas
hagasi
hagasmara
hagayya
hagayyaa
haggle
haguuguu
hahaha
hair
hajii
hajiin
hajji
hajjii
halalee
haleellaa
haleeluu
half
halkan
halkanii
halkaniif
hall
hallaattii
hallu
halluu
halt
hama
hamaa
hamaan
hambaa
hambisuu
hamii
hamilee
hamlee
hamma
hammachuu
hammam
hammamtaa
hammatee
hammattuu
hammeenya
hammeenyaan
hammer
hammina
hamper
hamtuu
hancaa
hand
handaaqqoo
handaara
handbook
handed
handhuura
hang
hanga
hangaa
hangafa
hangafaa
hangam
hangan
hanna
hanqaaquu
hanqattee
hanqatu
hanqina
hanqisi
hanshaafa
hantuuta
hantuutaa
haphee
haphii
happen
happiness
happy
haqa
haqaa
haqni
haqummaa
haquu
har
hara
haraa
haraatii
haramaya
harannaa
harar
hararge
harargee
harari
hararii
hararitti
harass
harawwan
harbor
harbuu
harca
hard
hardha
hariiroo
harka
harkaa
harkaan
harkasaa
harkatti
harki
harkifamu
harkisa
harkisaa
harkisan
harkisu
harkisuu
harkisuuf
harm
harma
harmaa
harmee
harmeef
harmeen
harmeenis
harmees
harmeesaa
haroo
haroon
haroowwan
harra
harree
harri
harry
harshama
haruu
harvest
harvesting
has
hasan
hassan
hat
hatattamaa
hatattamaan
hate
hattoonni
hattuu
hatuu
have
hawaa
hawaas
hawaasa
hawaasaa
hawaasi
hawaasni
hawaasumma
hawaasummaa
hawwaa
hawwachuu
hawwachuuf
hawwanne
hawwataa
hawwattu
hawwattuu
hawwatu
hawwe
hawwii
hawwiin
hawwisoo
hawwisoon
hawwu
hawwuu
haxaa
haxxee
haxxummaa
hay
hayidiroojinii
hayila
hayilamaaraam
hayilamaaram
hayilamaariyaam
hayilasillaasee
hayilee
hayileen
hayiluu
haylasillaase
hayyama
hayyamuu
hayyee
hayyoonni
hayyoota
hayyuu
hayyuun
hd
he
head
headed
headline
heal
health
healthy
heart
hearted
heat
heath
heavy
hebrew
heddu
hedduminaan
hedduu
hedduuf
hedduun
heduu
heefa
heektaara
heera
heeraa
heeruma
heerumaa
heerumne
heerumte
heerumtu
heerumuu
heexoo
heifer
height
hektaara
hektara
hell
helminth
help
hemisphere
hemostasis
hen
hennaa
henri
henrii
henry
hepatitis
her
hero
heroism
herreegaa
herrega
herregaa
herreguu
hers
hi
hibboo
hidda
hiddaa
hidden
hiddi
hidduu
hide
hidha
hidhaa
hidhaan
hidhaatii
hidhaatti
hidhabuu
hidhamaa
hidhaman
hidhamanii
hidhame
hidhamee
hidhamne
hidhamtoota
hidhamu
hidhamuu
hidhan
hidhanii
hidhannoo
hidhata
hidhatan
hidhatanii
hidhate
hidhatee
hidhee
hidhii
hidhiin
hidhuu
hidhuun
high
hiibboo
hiika
hiikaa
hiikaan
hiikamu
hiikamuu
hiikan
hiike
hiiki
hiikkaa
hiikkamu
hiikni
hiiktuu
hiiku
hiikuu
hiikuuf
hiin
hikaan
hill
him
hima
himaa
himaammata
himachuu
himama
himame
himamu
himan
himannaa
himata
himataa
himatamaa
himatame
hime
himee
himeen
himi
himne
himni
himte
himtee
himtu
himu
himuu
himuuf
himuun
hin
hind
hindandeenye
hindi
hindii
hinduu
hinjiru
hinqabu
hinsochoone
hinta
hintaane
hip
hir
hiraara
hiramuu
hirbuu
hire
hiree
hiriira
hiriyaa
hiriyaan
hiriyoonni
hiriyoota
hiriyootasaa
hiriyummaa
hirkoo
hirmaachaa
hirmaachuu
hirmaannaa
hirmaanne
hirmaata
hirmaatan
hirmaatanii
hirmaate
hirmaatu
hirree
hirrisuun
hiru
hiruu
his
historical
history
hit
hitler
hiyyeessa
hiyyummaa
ho
hobby
hoboloo
hodhaa
hodhan
hodhuu
hoffolaa
hog
hogga
hoggaa
hogganaa
hoggantoonni
hoggantoota
hojechuu
hojechuuf
hojetame
hojetamu
hoji
hojii
hojiidhaan
hojiif
hojiilee
hojiin
hojiinsaas
hojiirra
hojiirraa
hojiisaa
hojiitti
hojiiwwan
hojjaa
hojjachaa
hojjachu
hojjachuu
hojjachuuf
hojjachuun
hojjata
hojjataa
hojjatama
hojjataman
hojjatame
hojjatamee
hojjatamu
hojjatan
hojjate
hojjatee
hojjateera
hojjattu
hojjatu
hojjatuu
hojjatuuf
hojjechaa
hojjechu
hojjechuu
hojjechuudhaan
hojjechuuf
hojjechuun
hojjechuutti
hojjenne
hojjetaa
hojjetamaa
hojjetaman
hojjetame
hojjetamee
hojjetamne
hojjetamu
hojjetamuu
hojjetan
hojjetanii
hojjetaniif
hojjete
hojjetee
hojjetiin
hojjettoonni
hojjettoota
hojjettootaa
hojjettu
hojjetu
hojjetuuf
hojji
hold
holder
holding
hole
holocaust
holqa
holy
homaa
home
homma
honduras
honey
hong
honor
hoo
hood
hoof
hooggana
hoogganaa
hoogganamu
hooggansa
hoogganuu
hooggayyuu
hook
hookaa
hookkara
hookkuu
hoolaa
hoolaandi
hoolaandiin
hoolota
hoomaa
hoosiftoota
hop
hope
hophoo
hora
horaa
horachuu
horate
horde
hordofa
hordofaa
hordofan
hordofee
hordoftoota
hordofu
hordofuu
hordofuun
horee
horgoggee
horii
horiin
horizontal
hormaata
hormaataa
hormone
hormonii
hormoonii
horn
hornless
horroo
horse
horsiisa
horsiisee
horsiisuu
hortee
horuu
hospitaala
hospitaalaa
host
hostel
hot
hoteela
hoteelaa
hour
house
how
html
http
https
hubachiisa
hubachiisu
hubachiisuu
hubachuu
hubachuuf
hubachuun
hubadhe
hubannaa
hubanne
hubannoo
hubataa
hubatan
hubatanii
hubate
hubatee
hubatte
hubatu
huccuu
huccuun
hudduu
hudhaa
hug
huge
hujeessaa
hujeessuu
hulaa
hull
hulluuqsisi
human
humane
humanity
humid
humiliation
humna
humnaa
humnaan
humni
humnoonni
humnoota
hunda
hundaa
hundaaf
hundaan
hundaati
hundaatti
hundaawe
hundarraa
hundatti
hundee
hundeeffama
hundeeffaman
hundeeffame
hundeen
hundeessan
hundeesse
hundeessuu
hundi
hundinuu
hundoofne
hundoofte
hundred
hunduma
hundumaa
hundumaaf
hundumaan
hundumtuu
hunduu
hungary
hungry
hunt
hurka
hurkaa
hurki
hurku
hurraa
hurricane
hurrii
hurruma
hurry
hurwic
huseen
hut
huuba
huubboo
huuqqataa
huusoo
huuxii
hydrocarbon
hyena
hypocenter
hypocrite
i
iaaf
iaafn
iba
ibaa
ibidda
ibiddaa
ibiddaan
ibiddi
ibm
ibn
ibnu
ibolaa
ibraahiim
ibraahim
ibrootaa
ibsa
ibsaa
ibsachuu
ibsame
ibsamne
ibsamu
ibsamuu
ibsan
ibse
ibseef
ibseera
ibsetti
ibsiisaa
ibsine
ibsu
ibsutti
ibsuu
ibsuuf
ibsuun
ibu
icciitii
icciitiin
iccitii
iccitiidhaan
iccitiin
ice
icha
ichi
icing
id
ida
idaa
idaan
iddo
iddoo
iddoodhaa
iddoon
iddootti
iddoowwan
idea
ideal
identity
idil
idilee
ieee
if
ifa
ifaa
ifaan
ifachuu
ifannaa
ifatti
ife
iffa
ifi
ifii
ifiin
ifirraa
ifti
ifu
ifuu
ii
iidhaa
iif
iifii
iin
iinsa
iitifii
iitti
ija
ijaa
ijaaf
ijaan
ijaaraman
ijaarame
ijaaramee
ijaaramu
ijaaramuu
ijaaran
ijaare
ijaarrii
ijaarsa
ijaaru
ijaaruu
ijaaruuf
iji
ijibbaata
ijiipti
ijji
ijoo
ijoollee
ijoolleen
ijoollen
ijoollummaa
ijoonni
ijoota
ila
ilaa
ilaala
ilaalaa
ilaalaan
ilaalama
ilaalamu
ilaalamuu
ilaalan
ilaalanii
ilaalcha
ilaalchaa
ilaalchi
ilaalchisee
ilaale
ilaalee
ilaaleen
ilaali
ilaallama
ilaallamu
ilaalle
ilaallu
ilaaltu
ilaalu
ilaalun
ilaaluu
ilaaluuf
ilaaluun
ilallani
ilalluf
ilbiisa
ilbiisota
ilillii
ilkaan
ilkaanii
ill
illee
illeettii
illness
illu
ilma
ilmaan
ilmi
ilmii
ilmiyah
ilmoo
ilmoon
iluu
ima
imaa
imaam
imaammata
imaammataa
imaatti
imala
imalaa
imaltoonni
imimmaan
immaan
imman
immanii
immo
immoo
immune
impaayera
impaayerri
impact
impale
impede
impeeriyaalistii
impeeriyaalizimii
imperial
imply
important
improve
imummaa
in
ina
inaa
inaaffaa
inaan
inaariyaa
inc
incense
incinnii
include
income
inconvenient
incorrect
increase
indaakshinii
indaakterii
indaakteriin
independent
index
india
indian
indicate
indigenous
indiis
individual
indiyaa
indooyyee
induction
indulgent
industirii
industrial
industry
infant
infect
infection
infectious
infinite
inflammation
influence
info
information
infra
ingest
ingiccaa
ingilaandi
ingilaanditti
ingiliffa
ingiliffaa
ingiliffaan
ingiliish
ingiliz
ingilizii
inherit
inhibit
inii
inistiitiyuutii
injection
injifachuu
injifannoo
injifatamuu
injifate
injiinii
injinar
ink
inna
inni
innii
innis
innocent
innovation
inorganic
inquire
insa
insecticide
insi
inside
inspect
inspire
instead
institute
insult
insurance
insurgency
int
intala
intalaa
intalli
intalti
integireetid
integrated
integration
intel
intellectual
intensity
inter
interest
interesting
interior
internal
international
interneetii
internet
interrupt
interview
intestine
intimidate
into
intoxicated
introduce
introduction
inumaa
inumaayyuu
invasion
invention
inventor
investment
invitation
invite
ion
ionize
ionizing
ions
ipa
ira
iraa
iraan
iraaq
iran
iraq
iratti
irbaata
irbuu
ireland
iriyaa
iriyyummaa
iron
irra
irraa
irraan
irraanfachuu
irraanfatu
irraas
irraati
irraatti
irraayi
irran
irras
irrati
irratii
irratti
irrattii
irrattis
irree
irreecha
irreechaa
irreechi
irriba
irribni
irruma
irsaasii
is
isa
isaa
isaaf
isaan
isaani
isaanif
isaanii
isaaniif
isaaniin
isaaniis
isaaniiti
isaaniitiin
isaaniitti
isaanin
isaanirraa
isaanirratti
isaanis
isaanitiif
isaanitiin
isaanitti
isaaq
isaarra
isaarraa
isaarraan
isaarratti
isaas
isaati
isaatif
isaatii
isaatiif
isaatiin
isaatin
isaatini
isaatti
isaatu
isaayyuu
isan
isanii
isarra
isarraa
isarratti
isas
isatti
isbn
ise
isee
ishaa
ishe
ishee
isheef
isheefis
isheen
isheenis
ishees
isheeti
isheetiin
isheetin
isheetti
ishii
ishiin
ishiis
ishiitti
isi
isii
isiidhaa
isiin
isin
isinii
isiniif
isinitti
isiraa
iskiriinii
iskootilaandi
iskuweer
islaama
islaamaa
islaamummaa
islam
islamic
island
ismaa
ispeen
ispeeshaalistii
ispeesii
ispoorii
ispoorin
ispoortii
isquweer
israa
israel
issa
issaa
issani
issue
istaatistiksii
istaayilii
isteet
isteetis
isti
istirooberrii
istirooberriin
istuudiyoo
isu
isuma
isuu
isuuf
iswiichii
iswiidin
isximaara
it
ita
italy
itii
itillee
ititi
itittuu
itituu
itiyoophiyaa
itoophiyaa
itoophiyaan
itoophiyaatin
itoophiyaatti
itophiyaa
its
itt
ittan
itti
ittigaafatamaa
ittigaafatamummaa
ittii
ittiin
ittiiqaan
ittin
ittisa
ittisaa
ittisan
ittismaata
ittisu
ittisuu
ittisuuf
ittisuun
ittoo
ittuma
ittuu
itu
ituu
ivory
iyya
iyyaa
iyyaasuu
iyyata
iyyataa
iyyi
iyyitu
iyyu
iyyuu
iznii
j
ja
jaafoo
jaagamaa
jaakkeettii
jaal
jaala
jaalachuu
jaaladha
jaaladhe
jaaladhu
jaalala
jaalalaa
jaalalaan
jaalallee
jaalalli
jaalanne
jaalata
jaalatamaa
jaalatamtuu
jaalatamu
jaalatan
jaalataniif
jaalatti
jaalattu
jaalatu
jaallachuu
jaalladhu
jaallatamaa
jaallatamtuu
jaallatamu
jaallatan
jaallattu
jaallatu
jaalle
jaallee
jaamaa
jaamboo
jaami
jaappaan
jaarii
jaarmaa
jaarmiyaa
jaarra
jaarraa
jaarraan
jaarsa
jaarsaa
jaarsi
jaarsolii
jaarsoo
jaarsummaa
jaartee
jaartii
jaawwii
jabaa
jabaachaa
jabaan
jabaataa
jabaatee
jabaatu
jabadha
jabanaa
jabba
jabbena
jabbii
jabduu
jabeenya
jabeenyaan
jabeessa
jabeessanii
jabeessee
jabeessu
jabeessuu
jabeettii
jabina
jabinaa
jabinaan
jabummaa
jagna
jaha
jahan
jail
jajallaa
jajjabeessu
jajjabeessuu
jajjabeessuuf
jajjabina
jajjaboo
jajuu
jala
jalaa
jalaan
jalaanii
jalata
jalatti
jaldeessa
jaldeessaa
jalduu
jalduutti
jalla
jallaa
jallachuu
jallatti
jallisuu
jalqaba
jalqabaa
jalqabaaf
jalqabaan
jalqabaati
jalqabaatif
jalqabaatiif
jalqabaatti
jalqabame
jalqaban
jalqabaniiru
jalqabarratti
jalqabbii
jalqabde
jalqabe
jalqabee
jalqabeen
jalqabeera
jalqabne
jalqabu
jalqabuma
jalqabuu
jalqabuuf
jaltuu
jam
jama
jamaa
jamaal
james
jan
jannata
january
japan
jara
jarjaraa
jarman
jarmanii
jarmaniin
jarmanitti
jarmanoonni
jarmanoota
jarmii
jarraa
jarri
jaw
jawaar
je
jealous
jecha
jechaa
jechaan
jechama
jechamni
jechamoota
jechan
jechatti
jechi
jechii
jechoonni
jechoota
jechootaa
jechu
jechun
jechuu
jechuudha
jechuudhaa
jechuudhaan
jechuudhan
jechuuf
jechuun
jechuunis
jedha
jedhaa
jedhaan
jedhama
jedhamaa
jedhaman
jedhamani
jedhamanii
jedhamaniin
jedhame
jedhamee
jedhamtee
jedhamti
jedhamtu
jedhamtutti
jedhamu
jedhamun
jedhamuni
jedhamus
jedhamutti
jedhamutu
jedhamuu
jedhamuuf
jedhamuun
jedhamuunis
jedhamuutti
jedhan
jedhani
jedhanii
jedhaniin
jedhanitti
jedhe
jedhee
jedheen
jedheenii
jedhees
jedheessa
jedhetti
jedhi
jedhiin
jedhu
jedhun
jedhurraa
jedhurratti
jedhus
jedhutti
jedhuu
jedhuudha
jedhuuf
jedhuun
jedhuuti
jeedala
jeemsi
jeeqaa
jeeqamaa
jeeqe
jeequ
jeequmsa
jeequu
jemes
jeneraal
jeneraala
jennaan
jennaanin
jenne
jennee
jenneen
jennu
jersey
jerusalem
jetta
jettan
jettanii
jette
jettee
jetteen
jetti
jettiin
jettu
jettuu
jewish
ji
jibba
jibbaa
jibbaan
jibban
jibbisiisaa
jibbisiistuu
jibbisiisu
jibbisisaa
jibbu
jibbuu
jibuuti
jibuutii
jidda
jiddaa
jiddarraa
jiddatti
jiddu
jiddutti
jidduu
jidduutti
jifaara
jiffy
jifuu
jigsuu
jiguu
jiidha
jiidhaa
jiidhan
jiini
jiinii
jiisuu
jiitoo
jija
jijiirama
jijiiruu
jijjigaa
jijjiirama
jijjiiramaa
jijjiirame
jijjiirameera
jijjiiramne
jijjiiramu
jijjiiramuu
jijjiiramuun
jijjiiran
jijjiiranii
jijjiire
jijjiiree
jijjiirrama
jijjiirrame
jijjiirre
jijjiiru
jijjiiruu
jijjiiruuf
jijjiiruun
jijjirama
jijjirami
jijjiramu
jijjiru
jila
jilaa
jilba
jilbaa
jilli
jiloo
jimaa
jimaata
jimma
jimmaa
jimmaatin
jira
jiraa
jiraacha
jiraachaa
jiraachuu
jiraachuuf
jiraachuun
jiraadhe
jiraan
jiraanne
jiraata
jiraataa
jiraatan
jiraatanii
jiraate
jiraatee
jiraattee
jiraattonni
jiraattota
jiraattu
jiraattuu
jiraatu
jiraatudha
jiraatus
jiraatuu
jiran
jirani
jiranii
jiraniif
jiraniin
jiranitti
jiranni
jirattu
jirbii
jireenya
jireenyaa
jireenyaaf
jireenyasaa
jireenyi
jirenya
jirenyaa
jirma
jirra
jirraa
jirran
jirrattu
jirre
jirreef
jirretti
jirru
jirruu
jirta
jirtan
jirti
jirtii
jirtu
jirtutti
jirtuu
jirtuudha
jiru
jirudha
jirun
jirurraa
jirus
jirutti
jiruu
jiruuf
jiruun
jiruutti
job
john
joint
joke
joollee
joon
joonja
joonjessuu
joordaan
joorji
jordan
jose
joseph
journal
journalist
jpg
jr
jubilee
judgment
jufunfula
july
jumbo
jump
jumping
june
jungle
jury
justice
justification
juvenile
k
ka
kaa
kaaba
kaabaa
kaabaan
kaabaatiin
kaabaatti
kaaban
kaabatti
kaabbaa
kaaboolii
kaachhoo
kaachuu
kaadhimaa
kaadhimamaa
kaafame
kaalaandara
kaalandara
kaalkuleeterii
kaam
kaameeraa
kaampaanii
kaampaaniin
kaampii
kaan
kaanee
kaanii
kaaniin
kaanin
kaanirraa
kaanis
kaappaasiterii
kaarbon
kaarbonii
kaarboonii
kaardiboordii
kaardii
kaarentii
kaartaa
kaasaa
kaasan
kaasanii
kaase
kaasee
kaasu
kaasun
kaasuu
kaasuun
kaatee
kaatodii
kaatolikii
kaawonsilii
kaayan
kaaye
kaayiroo
kaayyon
kaayyoo
kaayyoon
kaazaakistaan
kabaja
kabajaa
kabajaaf
kabajaan
kabajama
kabajamaa
kabajame
kabajamtuu
kabajamu
kabajamuu
kabajamuuf
kabajatan
kabaju
kabajuu
kabba
kabbadaa
kadhaa
kadhachaa
kadhachuu
kadhannaa
kadhata
kadhataa
kadhatanii
kadiir
kafata
kaffalamne
kaffalamu
kaffaltii
kaffalu
kaffaluu
kaffaluuf
kaka
kakaasan
kakaasu
kakaasuu
kakaasuuf
kakachuu
kakuu
kalaa
kalahari
kalaqa
kalaqaa
kalaqame
kalaqe
kalee
kaleen
kaleessa
kaleessaa
kallacha
kallachaa
kallachi
kallatti
kallattii
kallattiidhaan
kallattiin
kalloo
kaluu
kam
kamaal
kamal
kamii
kamiiniyyuu
kamiinuu
kamiiyyuu
kamiyyuu
kamtu
kamuu
kan
kana
kanaa
kanaadaa
kanaadaan
kanaaf
kanaafi
kanaafis
kanaafuu
kanaan
kanaanis
kanaarii
kanaas
kanaati
kanaatti
kanadha
kanaf
kanan
kanarra
kanarraa
kanarraan
kanarratti
kanarrattis
kanas
kanaslaali
kanatti
kaneen
kangaroo
kanin
kanneen
kanniin
kannisa
kantaruu
kanuma
kanumaan
kara
karaa
karaan
karabaatii
karameellaa
karantii
karantiin
karibiyaan
karibiyaanii
karkarroo
karoora
karooraa
karoorfachuu
karoorfame
karoorri
karoorsuu
karra
karraa
karrayyuu
kasaaraa
kashalabbee
kasoo
katabame
katabbii
katabbiilee
katabe
katabuu
kattaa
kee
keekii
keelloo
keemikaala
keemikaalaa
keemikaalii
keen
keena
keeniyaa
keeniyaan
keenna
keenya
keenyaa
keenyaaf
keenyaan
keenyaati
keenyaatti
keenyan
keenyas
keenyatti
keenyayyuu
keenyi
keep
keeper
keeppi
kees
keesa
keesaa
keessa
keessaa
keessaahuu
keessaan
keessaas
keessaati
keessaatti
keessaayyuu
keessan
keessas
keessati
keessatii
keessatti
keessattii
keessattis
keessattu
keessattuu
keessi
keessoo
keessumaa
keessumaayyuu
keessumattuu
keessummaa
keessummaan
keessummeessaa
keessummeessituu
keessummeessuu
keeti
keetii
keetiin
keetti
keettoo
keewwatan
keeyyata
kefaa
kellaa
kemistii
kemistirii
kenenisa
kenna
kennaa
kennaaf
kennaan
kennama
kennaman
kenname
kennamee
kennameef
kennamu
kennamuu
kennamuuf
kennan
kennanii
kennaniif
kenne
kennee
kenneef
kenneefi
kenneefii
kenneera
kenni
kennine
kennite
kenniti
kennitu
kennu
kennun
kennuu
kennuudhaan
kennuuf
kennuufii
kennuun
kenya
kesa
kessa
kessaa
kessati
kessatti
kessattu
key
keynote
kg
khalil
kheenya
kheessa
kheessatti
khg
kibba
kibbaa
kibbaan
kibbaati
kibbaatti
kibban
kichuu
kick
kid
kidney
kiilolee
kiilomeetira
kiilomeetirii
kiiloo
kiisii
kiitii
kiitiif
kijiba
kijibaa
kijibduu
kijibuu
kilabii
killee
killer
kilo
kilomeetira
kilometer
kilometers
kimmo
kind
king
kingdom
kingidem
kiraayii
kireeler
kireler
kiriistaalii
kiristaana
kiristaanaa
kiristaanummaa
kiristoos
kiristoosiin
kirrii
kisaaraa
kiss
kistaana
kitaaba
kitaabaa
kitaabaatiin
kitaaban
kitaabban
kitaabicha
kitaabichi
kitaabni
kitaabonni
kitaabota
kitaabotaa
kiyya
kiyyaa
kiyyaan
kiyyarraa
kiyyas
kiyyatti
kiyyoo
kk
kkf
kkt
km
knack
knee
knell
knife
knight
kning
knock
knot
know
knowledge
known
ko
kobaa
kobba
kofa
kofalchiisaa
kofalchiisu
kofalchiisuuf
kofalee
kokkee
kolfa
kolfi
kolfuu
kolleejii
kolleejjii
kolombiyaa
koloneel
kolonii
koloniin
koloniyaalizimii
kolonoonni
koloosesiin
koloraadoo
komachuu
komee
komii
kompiiteraa
kompitara
kompitaraa
kompitaroonni
kompitaroota
kompitarri
komputarii
kong
konkolaataa
konsartii
kontiroobaandii
konyaa
koo
koochoo
koodii
koof
kook
kookii
koolleejjii
koollejjii
koomee
koon
koongoo
kooriyaa
koorra
koos
koosti
kooti
kootii
kootiin
koottaa
kootti
koottu
kootu
kopha
kophaa
kophaadhaaf
kophaadhaan
kophaatti
kophee
kophummaa
kophummaan
kora
korboo
korbuzye
kore
korea
koree
koreen
korma
kormaa
kormaan
korree
korri
kortoo
kosii
kosiin
kotob
kotoree
kottee
kotteen
ku
kubba
kubbaa
kubbaayyaa
kubur
kuburuu
kudha
kudhan
kudhanii
kudhaniin
kuduraa
kufaatii
kufan
kufanii
kufe
kufee
kufu
kufuu
kukkutuu
kum
kuma
kumaa
kumsaa
kun
kuni
kunii
kuniin
kuniis
kunimmoo
kunin
kunis
kunniin
kunoo
kunuunsa
kunuunsi
kunuunsuu
kuphaa
kuraa
kurii
kuriin
kuriiwwan
kurumboo
kuruphee
kuta
kutaa
kutaalee
kutaan
kutaawwan
kutannoo
kutataa
kute
kutee
kutiin
kutta
kuttaayee
kuttan
kutu
kutuu
kuubaa
kuufama
kuufame
kuufamee
kuufannoo
kuufannoon
kuula
kuusaa
kuusaan
kuusaawwan
kuusamu
kuusan
kuusdeetaa
kuusee
kuush
kuushii
kuushtik
kuusuu
kuwait
kuweyti
kuyyuu
kyh
l
la
laa
laabii
laabiraatorii
laafaa
laafaan
laafaatti
laafessa
laaffisuu
laafina
laaftoo
laafu
laafuu
laalu
laaqana
laastikii
laata
laatinii
laayibeeriyaa
laayibiniiz
labooba
laboratory
labsii
labsuu
labuu
lachu
lachuu
lachuun
lady
lafa
lafaa
lafaaf
lafaan
lafaatin
lafaatti
lafan
lafarra
lafarraa
lafarratti
lafatti
lafee
lafeen
lafoo
lafqalii
lafti
laftii
lag
laga
lagaa
lagaatti
laggasaa
laggasaan
laggeen
lagni
laguu
lake
lakk
lakka
lakkaa
lakkaawuuf
lakkaawwaman
lakkaawwamu
lakki
lakkifame
lakkii
lakkisee
lakkisu
lakkisuu
lakkisuun
lakkofsa
lakkoobsa
lakkoobsaa
lakkoobsaan
lakkoofsa
lakkoofsaa
lakkoofsaan
lakkoofsi
lakkoofsuma
lakkooftuu
lakkoomsa
lalisaa
lallaafaa
lallaba
lallabuu
lam
lama
lamaa
lamaaf
lamaan
lamaanii
lamaanirraa
lamaanuu
lamaatti
laman
lamarraa
lamatti
lamatu
lameen
lamii
lamma
lammaa
lammaan
lammaffa
lammaffaa
lammaffaan
lammaffaarratti
lammaffaatti
lammaffatti
lammaffoo
lamman
lammata
lammataa
lammii
lammiilee
lammiileen
lammiin
lammoota
lammummaa
lamp
lancet
land
landan
language
languages
laphee
laptop
large
last
lasting
lataa
late
latest
latii
latin
latitude
laugh
launder
lava
law
lawuzii
lawwee
lay
layer
layidaa
le
lead
leader
leading
leaf
league
leak
learn
leather
leave
lecture
lee
leel
leellisaa
leellisu
leellisuu
leenca
leencaa
leenci
leenji
leenjii
leenjisaa
leenjisoo
leenjisoon
leenjisuu
leensii
leephoo
leeqaa
leexaa
left
leftist
leg
legal
legelleguu
legend
legitimate
leishmaniasis
lemon
lend
lens
leonardo
leper
leprosy
les
lessen
lesser
lesson
let
lethal
letter
level
lever
levy
li
liberia
liberty
library
licence
license
lid
lie
lieutenant
life
lift
light
lighter
lightning
liiban
liibiyaa
liid
liizaa
like
likely
lili
lilmoo
lily
lime
limit
limited
limmoo
limmuu
limp
line
linguistics
link
lion
lip
lipid
liqeessuu
liqii
liqimsuu
liquid
list
listen
literature
lithosphere
little
live
liver
livestock
liviingistoon
living
lixa
lixaa
lixaan
lixaatin
lixaatti
lixuu
liyonaardoo
lla
lo
loan
local
lock
lodging
log
logic
logmaleessa
lola
lolaa
lolaan
lolan
lolee
lolla
lolli
lolte
loltoonni
loltoota
loltootaa
loltummaa
loltuu
loltuun
lolu
loluu
loluun
london
long
loo
loogii
looguu
loojikii
look
loomii
loon
looni
loonihoo
loonii
loop
loos
loqoda
lord
lost
love
low
lower
lozano
lua
luba
lubbu
lubbuu
lubbuudhaan
lubbuun
lubbuunsaa
lubni
luck
luggage
luggee
luka
lukkuu
lumma
lunar
lung
lute
luteraanii
luugama
luulleessa
luuxii
luxembourg
lymph
lynch
m
ma
maa
maaccaa
maagaa
maagineetiik
maagineetizimii
maal
maalalchiisaa
maalan
maali
maalidha
maalif
maalii
maaliif
maaliin
maalin
maalis
maaliyyuu
maallaqa
maallaqaa
maallaqi
maaloo
maaltu
maalumaafuu
maalummaa
maamila
maammon
maammoo
maanguddoo
maanguddoonni
maaren
maargoot
maargootiif
maargootiin
maargootis
maark
maarki
maarqos
maarsii
maaruu
maashaa
maashaalee
maashin
maashinii
maashiniin
maashinoonni
maashinoota
maasii
maatii
maatiin
maatiisaa
maatin
maattii
maayikiroopirooseserii
maayilii
macaafa
macaafaa
maccaa
maccaafi
machaa
machaaraa
machii
machine
mad
madaa
madaala
madaaliyaa
madaaluu
madaan
madagascar
madagaskaar
madaqsuu
madaquu
madda
maddaa
madde
maddee
maddi
maddii
maddiin
maddisiiftuu
maddisiisu
maddisiisuu
maddu
made
madiina
madiinaa
madiinan
madonna
madrid
magaala
magaalaa
magaalaan
magaalaatti
magaalan
magaallan
magaalli
magaalonni
magaalota
magala
magalaa
magariisa
magarsaa
magarsaan
magazine
magnesium
magnetic
magnify
magnitude
mahaammad
mahal
mahammad
mahammed
mahibuubaa
mai
maid
main
mainly
maintain
maintenance
maize
majesty
major
majority
makaa
makaana
makaanikaalii
makama
makamaa
makaman
makame
makamee
makamne
makamu
makamuu
makamuun
makararsaa
make
maker
makiinaa
makiinaadhaan
makiinaan
makinaa
making
makka
makkaa
makkala
makkoo
makonnin
makoo
makuu
makuudhaan
mala
malaa
malaan
malaria
male
malee
malees
maleessa
maleessaa
maleessummaa
malkaa
mallaqa
mallattoo
mallattoolee
mallattoon
mallattoowwan
malle
malli
malu
mammaaksa
mammaaksi
mammals
mamuu
man
mana
manaa
manaama
manaasaa
manaashii
manaatti
management
manager
manasaa
manatti
manca
mandara
mandaroota
mandatory
mandhee
mandoo
manfincaanii
mangaagaa
mange
mangisti
mangistii
mangistiin
mangistuu
mangistuun
manhole
manifesto
manii
manila
mankuusa
mankuusaa
mannaa
mannee
manneen
manneetii
mannered
manni
mantle
manufacture
manuma
manure
many
map
maputo
maqa
maqaa
maqaan
maqaansaa
maqdisho
maqdishoo
maqe
maqibsii
maqoota
maqqa
maqqan
maqqofee
maquu
mar
mara
maraa
maraataa
maraatoonii
maraatummaa
maraatuu
maramaa
maramee
mararaa
mararaan
marathon
maratti
marayaa
marble
marburg
march
mare
maree
mareshah
marfame
marfamee
marfamte
marfamtee
marga
margaa
margi
mari
maria
marie
marii
mariid
mariidhaan
mariif
mariin
mark
market
maroon
marqaa
marriage
married
marrimaanii
marrow
marry
mars
marsaa
marsaan
marsanii
marsee
marsii
marsiin
marsuu
marti
martial
martin
maruu
marxoo
masaraa
masjida
masochism
masoo
mass
master
mat
mata
mataa
mataan
mataasaa
mataatti
mataduree
matadureensaa
matayyaa
match
mate
material
materials
maternal
mathcal
matima
matoobilii
matoobiliin
matrix
matta
matter
mattuu
matuma
matumaa
mature
maxinoo
maxxanee
maxxanfame
maxxanfamee
maxxanfamu
maxxannee
maxxansa
maxxansaa
maxxanse
maxxansiise
maxxansuu
maxxantuu
maxxanu
maxxanuu
may
maykil
mayor
mayraa
mayri
mazammir
mazhaba
mc
me
mead
meadow
meal
mean
meaning
means
meanwhile
measure
meat
mecca
mechanical
mechanics
mechanism
medaaliyaa
medal
media
medical
medicine
meditiraaniyaanii
medium
mee
meedaaliyaa
meedhicha
meejer
meeksikoo
meemoraandamii
meeppee
meeppeen
meeqa
meerii
meerkurii
meesha
meeshaa
meeshaalee
meeshaaleen
meeshaalen
meeshaan
meet
meeta
meetii
meetira
meetirii
meettaa
meison
melanin
mellow
membrane
memorial
memorize
memory
men
mentor
mercury
meridian
merqa
messenger
meta
metal
metallic
meter
meters
methane
method
metre
mexico
mi
micciiruu
michael
michelangelo
michillee
michummaa
michuu
miciree
microbe
microbiology
microscopic
microsoft
mid
middisa
middle
midhaan
midhaanii
midhafame
midhagaa
midhama
miiccuu
miidhaa
miidhaan
miidhagaa
miidhagduu
miidhagina
miidhama
miidhamaa
miidhaman
miidhame
miidhamne
miidhamuu
miidhe
miidhu
miidhuu
miidhuuf
miidiyaa
miila
miilaa
miilaan
miilan
miiliyoona
miilla
miillaa
miillaan
miilli
miiltoo
miindaa
miira
miiraa
miirri
miirtuu
miiruu
mijaa
mijataa
mijatu
mijeessuu
mijuu
mikaa
mike
mil
mile
miles
miliquu
military
miliyoona
miliyoonatti
milk
milkaa
milkii
milkoofne
milkoofneef
milky
mill
milla
millaa
million
mimic
mindaa
minded
mindeeffame
mindeeffamee
mine
mineral
mini
minilik
mining
ministeera
ministeeraa
minister
minjaala
minnesota
minshaara
minute
mira
mirga
mirgaa
mirgaatti
mirgatti
mirgi
mirkana
mirkanaa
mirkaneessa
mirkaneesse
mirkaneessu
mirkaneessuu
mirkaneessuuf
mirkaneessuun
mirkanoofne
mirror
misaayelii
miseensa
miseensi
miseensonni
miseensoonni
miseensoota
miseensota
miseensummaa
misirroo
miskiinticha
mismaara
misooma
misoomaa
misra
misraa
misratti
miss
missile
missing
mission
mistake
miti
mitii
mitteenii
mitteeniin
mitteenin
mix
mixii
mixxiq
miya
mk
mm
mo
moan
mobile
modeelii
model
modern
modify
module
moggaa
moggaafame
moggaafamu
moggaasa
moggaasan
moggaase
moggaasuu
moggoyyaa
mohammed
moist
mokonnin
molecule
moleculotta
molokiyuulii
monaco
monarchy
monday
money
monkey
mono
monosaccharide
monotheism
month
moo
moocii
moodeela
moofa
moofaa
mooji
moon
moora
mooraa
moorsaa
moosisi
moota
mooti
mooticha
mootichaa
mootichi
mootii
mootiin
mootin
mootootaa
mootota
mootumma
mootummaa
mootummaan
mootummaatiin
mootummaatti
mootummoota
mooyyee
mop
moqaadishoo
moqdisho
moqdishoo
moral
more
morkataa
morkii
morma
mormaa
morman
mormii
mormiin
mormu
mormuu
morning
morocco
morodaa
morookoo
mortality
mortuu
mosee
mosquito
most
mother
motion
motor
motora
motorcycle
motorii
motorri
mountain
mountains
mourn
mouth
mouthed
movable
move
movie
moving
moyyaalee
mp
mr
mro
mrs
ms
mu
mucaa
mucaan
mucayyoo
mucayyoon
much
mucha
mucichi
mud
mudaa
mudannoo
mudate
mudatee
mudatu
muddamaa
mudde
muddee
mudhii
muduraa
mufachiisu
mufachiisuu
mufti
mugaa
muguu
muhaammad
muhammad
muhammed
mujaadala
mujaadalaa
mujaadaluu
muka
mukaa
mukeetii
muki
mukkeen
mul
muldhate
mule
mullah
mullanne
mullata
mullatu
multi
multiply
muluu
munnee
muraa
muraasa
muraasaa
muraasaaf
muraasi
muraasni
murame
muramee
muran
muranii
muree
murmuruu
murna
murtaa
murtee
murteeffachuu
murteeffame
murteessa
murteessaa
murteessan
murteesse
murteessu
murteessuu
murtii
murtiin
murtiitti
murtoon
muruu
muscle
museen
museum
mushroom
music
musliima
musliimaa
muslim
mustard
mute
muudaa
muudama
muudame
muuduu
muul
muummee
muummicha
muusaa
muussaa
muuxannoo
muuyoo
muuzii
muuziiqaa
muuziqaa
muuziqaan
my
myth
mythology
n
na
naa
naaf
naafa
naamusa
naan
naanna
naannawa
naannee
naannessu
naannichaa
naanno
naannolee
naannon
naannoo
naannoolee
naannoon
naanoo
naasisaa
naasisu
naasisuu
naasuu
naayijeeriyaa
naayil
naazii
naazonni
naazotaan
nabee
nabi
nabii
nabiin
nadhii
nadhiin
nafa
nafsaala
nafxanyaa
nafxanyoonni
nafxanyoota
nafxanyootaa
naga
nagaa
nagaan
nagaatti
nagaya
nagayaa
nagayaan
nagee
nageenya
nageenyaa
nageenyi
nageya
nail
najjoo
nam
nama
namaa
namaaf
namaafi
namaan
namaatiif
namaatti
naman
namarra
namarraa
namarratti
namatti
name
nami
namicha
namichi
nammoota
namni
namnii
namonni
namoonni
namoonnii
namoonnis
namoota
namootaa
namootatti
namooti
namootni
namootnii
namota
namotta
namticha
namtokko
namtolchee
namummaa
namuu
nan
nannoo
nanny
naqa
naqaa
naqaman
naqame
naqamee
naqamte
naqamtee
naqamteetti
naqamtetti
naqamu
naqan
naqanii
naqe
naquu
narra
narraa
narratti
narrow
narvii
nasal
nasib
nation
national
nationalism
nationality
native
natti
natural
nature
nausea
navy
nba
nban
nd
ne
near
necktie
need
neefkaa
neefkaalee
negative
neglect
neglected
negotiate
negro
nervous
nest
net
netflix
netherlands
nettle
network
neutral
never
new
news
next
ni
nice
nidanda
niger
nigeria
niggard
night
nii
niitii
niitiin
niiw
nikola
nile
nin
nine
nit
niwukilasii
niwuu
niwuukilaaraa
nm
no
noble
nobody
nominate
nominated
non
noobelii
noolee
noon
noonnoo
nooraa
nor
normal
north
northbound
northern
norway
nose
not
notch
note
notice
notify
noun
novel
november
now
ntgen
nu
nuclear
nucleus
nuffisiisaa
num
numa
number
numbers
nun
nurra
nurraa
nurratti
nurse
nuti
nutis
nutrient
nutti
nuu
nuubiyaa
nuuf
nuugii
nuun
nuura
nuusa
nuður
nyaachaa
nyaachuu
nyaachuun
nyaanne
nyaannee
nyaanni
nyaapha
nyaara
nyaata
nyaataa
nyaataaf
nyaatama
nyaataman
nyaatame
nyaatamne
nyaatamu
nyaatamuu
nyaatan
nyaatanii
nyaatatti
nyaate
nyaatee
nyaati
nyaatni
nyaattu
nyaatu
nyaatuu
nyakkisaa
nyakkistuu
nyakkisuu
nyanyee
nyatta
nyattan
nyattu
o
oak
ob
obaasi
obbo
obbobbosh
obbolaa
obbolee
obboleessa
obboleessi
obboleetti
obboleettii
obboleettiin
obboleewwan
obboleeyyan
obboloota
obbolummaa
obboo
obboroo
obedient
obey
object
obligation
obnoromia
obomboleettii
obomboleettiin
obonboleettiin
oboo
oborraa
obsa
obsaa
obsaan
obsee
observance
observation
obstruction
obsuu
obsuun
ocean
oceania
ocholoonii
oclc
october
oda
odaa
odaan
oddoo
oddoola
odeeffannoo
odeeffannoolee
odeeffannoon
odeessaa
odeessine
odeessituu
odeessu
odeessuu
odo
odola
odolaarraa
odoloota
odoo
oduma
oduu
oduun
oduuwwan
of
ofan
ofeeggannoo
off
offence
offend
office
officer
official
offspring
ofi
ofii
ofiif
ofiin
ofiirratti
ofiitiin
ofiitti
ofin
ofirra
ofirraa
ofirratti
ofitti
ofittoo
ofjajaa
ofjajjuu
often
oftuulaa
oftuultuu
ofuma
ofumaa
ofumaan
ogbarruu
ogeessa
ogeeyyii
ogeeyyiin
oggaa
ogre
ogummaa
ogummaadhaan
ogummaan
oh
oil
okkoo
okkotee
oksaayidii
oksaayidiin
oksijiinii
ol
olaana
olaanaa
olaanaan
olaanoo
olaantummaa
olaantummaan
old
olee
oli
olii
oliif
oliin
oliiqaa
oliiqaan
oliitti
olitti
olive
olka
ollaa
ollachuu
olokee
olompiikii
olompikii
olympic
omisha
omn
on
ona
onchocerciasis
one
oneself
onesimos
onesmoos
onkololeessa
onkoloolessa
only
onnee
onneen
oo
oof
oofan
oofkalaa
oofkalchaa
ooftuu
oofu
oofuu
ooksijiinii
ooksijiiniin
oola
oolaa
oolan
oolchi
oolchu
oolchuu
oolchuuf
oolchuun
oole
oolee
oolle
oolmaa
ooloojii
oolu
ooluu
ooluuf
oomacha
oomeetirii
oomisha
oomishaa
oomishama
oomishame
oomishamu
oomishni
oomishu
oomishuu
oomishuuf
oomishuun
oomoo
oon
oostiriyaa
oota
ootifii
ootin
ooyiler
opa
opdo
open
operation
opinion
opportunity
oppress
opran
optical
optimize
or
oral
orange
order
ordinal
ordinary
ore
org
organ
organic
organism
organization
organizations
organize
organizimotta
ori
oriental
original
oriisaa
orma
ormaa
ormi
oromduroo
oromduroon
oromeessuu
oromia
oromiya
oromiyaa
oromiyaan
oromiyaatti
oromo
oromoland
oromoo
oromoodhaa
oromoof
oromoon
oromoonni
oromoorra
oromoorratti
oromoos
oromoota
oromootaa
oromooti
oromootif
oromootiif
oromootiin
oromootin
oromootti
oromos
oromummaa
orraa
orthodox
orthography
ortodoksii
oryx
os
osasco
oslo
osole
osolee
osoo
osoon
ostrich
ota
other
otherwise
otobisii
otomaatikii
otontoraa
otoo
otoon
otti
otuma
otuu
our
ours
out
outbreak
outcome
outer
outside
over
overall
own
oxford
oxygen
ozone
p
pa
paaraashuutii
paaris
paarisitti
paarkii
paarkin
paarlaamaa
paartii
paartikilii
paasifiik
paastaa
paaster
paatentii
paatentiin
pacific
pack
package
packed
pad
paddy
page
pain
paint
pakistan
paklaar
paklar
palm
pan
panama
panic
paper
para
parade
paradise
parasite
parasites
pare
paris
parish
park
parsentii
parsentiin
part
particle
particles
parts
party
pass
past
pastoralist
pasture
patent
paternal
path
patient
patron
pattern
paul
paw
pay
payment
paz
pbgb
pdf
pe
pea
peace
peach
peddle
peel
peg
pen
penal
penalty
pencil
pendant
penicillin
penis
penny
people
pepper
per
percentii
percentiin
perennial
perfect
performance
period
periodic
peripheral
permanent
permit
persentiin
persian
person
persona
personal
pest
pesticide
peter
petty
ph
phaaphaasii
pharmacology
phase
phd
pheexiroos
phenomena
philadelphia
philosophy
phone
phosphate
photo
photograph
photosynthesis
physical
physician
physics
piano
pick
picking
picture
pierce
pierre
pig
pigeon
piinoo
piiter
piiteri
piiterii
piiteriif
piiteriin
piiteris
piiteritti
piitii
pilaaneetii
pilaaneetota
pilaanetii
pilaanki
pilaasmaa
pilaasmaan
pilaastikii
pilaateleetii
pile
pillar
piluutoo
pin
pink
pioneer
pipe
piraashiyaa
pirezidaantii
pirofeesar
pirofeesara
pirojektii
pirootiinii
pirootiiniiotni
pirootiinonni
pirootiinota
piroteestaantii
pisces
pituitary
piyaanoo
piyeer
piyeerii
pl
place
placenta
plague
plan
planet
planeta
planetotta
plankton
plant
plants
plasma
plastic
plate
platelet
play
player
please
pleasure
plough
plug
plumb
plural
pm
pmc
pmid
pocket
poetry
point
poison
poker
polandball
polar
pole
police
policeman
policy
polish
political
politics
pollution
polooniyeemii
pooch
pool
poolaandi
poolisii
poolisiif
poolisiin
poolisiitti
poolisoonni
poolisoota
poorchugaal
poostaa
pop
pope
popular
population
porchugaal
port
portion
portland
porto
portrait
positive
possible
post
postgraduate
pot
potassium
potato
potential
pouch
pour
powder
power
pp
practical
practice
prague
praise
prc
predict
pregnant
preliminary
premier
prep
prepared
prescription
present
preservation
president
press
pressure
pretend
prevent
prevention
preview
previously
price
pride
primary
prime
primer
prince
princess
principal
principles
print
printing
prison
private
prize
pro
problem
proceedings
process
processing
processor
proclamation
produce
product
production
profile
profit
program
progress
prohibit
project
proliferation
promise
promote
pron
pronoun
proof
proper
property
prosecutor
prostitute
protect
protective
protein
proteiniin
protocol
prove
proverb
provide
province
pt
pub
public
publication
pull
pump
pumpkin
punch
punish
punishment
pure
purified
purple
push
put
pygmy
q
qaaccessa
qaaccessuu
qaalii
qaalluu
qaama
qaamaa
qaamaan
qaami
qaamni
qaana
qaanessu
qaanessuu
qaanii
qaanqee
qaata
qaawwa
qaawwaa
qaba
qabaa
qabaachuu
qabaachuun
qabaadhaa
qabaan
qabaata
qabaatan
qabaatiin
qabaattu
qabaatu
qabachu
qabachun
qabachuu
qabachuuf
qabachuun
qabadhaa
qabadhu
qabama
qabaman
qabamani
qabamanii
qabame
qabamee
qabamne
qabamu
qabamuu
qabamuun
qaban
qabana
qabani
qabanii
qabaniif
qabaniin
qabannaa
qabanne
qabannee
qabannoo
qabata
qabataa
qabatamaa
qabatamaan
qabatan
qabatanii
qabate
qabatee
qabatotta
qabatte
qabattee
qabattoo
qabattu
qabatu
qabatuu
qabbana
qabbanaa
qabbaneessuu
qabda
qabdee
qabdi
qabdu
qabduu
qabduudha
qabe
qabee
qabeenya
qabeenyaa
qabeenyaan
qabeenyi
qabeera
qabeessa
qabeessaa
qabeessattis
qabeessi
qabeettii
qabeeyyii
qabeeyyiin
qabenya
qabi
qabiyyee
qabiyyeen
qabna
qabne
qabnee
qabneef
qabneen
qabnu
qabrii
qabriin
qabsaa
qabsaawaa
qabsaawota
qabsiifame
qabsiifamu
qabsiisan
qabsiise
qabsiisee
qabsiisu
qabsiisuu
qabsisuu
qabsoo
qabsoof
qabsoon
qabsootti
qabu
qabudha
qabuf
qaburraa
qaburraan
qabus
qabutti
qabuu
qabuudha
qabuuf
qabuufi
qabuun
qabxii
qaccee
qadaada
qadiidaa
qajeelaa
qajeelan
qajeelchuu
qajeele
qajeelfama
qajeelton
qajeeltoo
qajjisa
qal
qalaa
qalama
qalamu
qalbii
qalbiin
qallaa
qallaba
qallabaa
qallamu
qalloo
qaluu
qamaa
qamadii
qamalee
qananii
qananiisaa
qananiisaan
qanansiisuu
qaphxii
qaqeessi
qaqqabe
qaqqabu
qara
qaraxa
qareessa
qaroo
qarooma
qaroomne
qarqara
qarqarra
qarree
qarriffaa
qarsaa
qarshii
qarshiin
qaruu
qaruuraa
qawwe
qawwee
qawween
qaxxaamura
qaxxaamuru
qaxxaamuruu
qaxxisuu
qbo
qe
qee
qeensa
qeenxee
qeeqa
qeeqannoo
qeequu
qeeraa
qeerransa
qeerransaa
qeerroo
qeerroon
qeesii
qiinxamaa
qiixxeessaa
qillee
qilleensa
qilleensaa
qilleensaaf
qilleensaan
qilleensaatti
qilleensi
qillensa
qilxuu
qimmiiduu
qinaaxxii
qindaa
qindeessaa
qindeessuu
qindoomina
qirixxee
qisaasa
qixa
qixxaatu
qixxee
qixxeessaa
qixxeessuu
qixxeetti
qixxummaa
qo
qocaa
qoccolloo
qodaa
qofa
qofaa
qofaadha
qofaaf
qofaan
qofatti
qofatu
qoffa
qofti
qola
qolee
qolka
qolli
qomaa
qomoo
qondaala
qondaalaa
qondaaltota
qonna
qonnaa
qonnaaf
qonnaan
qonqoo
qoobii
qooccoon
qooda
qoodama
qoodamu
qoodamuu
qooddachuu
qoodee
qooduu
qooduun
qoolloo
qoonqoo
qoonqoon
qooqa
qooqaa
qoosaa
qoosuu
qooyyaba
qooyyabaa
qopha
qophaa
qophaawu
qophee
qopheeffame
qopheeffamu
qopheessan
qopheesse
qopheessee
qopheessu
qopheessuu
qopheessuun
qophii
qoqqodama
qoraa
qoraan
qoraasuu
qoraattii
qorachaa
qorachuu
qorachuudhaan
qorachuuf
qorachuun
qorannaa
qorannaan
qorannoo
qorannoon
qorannoosaa
qorata
qorataa
qoratan
qorate
qorateera
qorattoonni
qoratu
qoratudha
qoree
qoricha
qorichaa
qorichaan
qorichi
qorichoota
qorii
qormaata
qoroo
qorra
qorraa
qorsa
qorumsa
qotamee
qotanii
qotee
qotinyaa
qottoo
qottu
qottuu
qotu
qotuu
qu
quality
quantum
quarter
quartz
quba
qubachuu
qubata
qubatan
qubate
qubatee
qubee
qubeelaa
qubeelee
qubeen
qubeessa
qubeewwan
quboota
qubsuma
qubu
queen
quest
question
queue
qufaa
quick
quiz
qulfii
qullaa
qulleessan
qulleessuu
qullubbii
qulqullaa
qulqulleessuu
qulqulleessuuf
qulqullina
qulqullinaa
qulqullinaan
qulqullinni
qulqullu
qulqullummaa
qulqulluu
qulqulluun
qulqulluutti
qumaara
qumbii
qummaaddii
quncisuu
qunname
qunnamtii
qunnii
qunxurroo
quotation
qur
quraanaa
qurbaana
qurcii
qurxummi
qurxummii
qusachuu
quubsaa
quufa
quufaa
quufne
quufuu
quunnamsiisu
quunnamsiisuu
quunnamtii
quunnamu
quunnamuu
quwaantamii
quyyifa
r
ra
raabiisii
raabiisiin
raabsaa
raadaarii
raadiyeeshinii
raadiyo
raadiyoo
raadiyoon
raadiyoona
raafuu
raaguu
raajeffannaa
raajeffannoo
raajessuu
raajii
raajiin
raajuu
raammoo
raaree
raas
raasaa
raasee
raashiyaa
raashiyaan
raasuu
raata
raatuu
raaw
raawwachaa
raawwachuu
raawwachuuf
raawwachuun
raawwata
raawwatama
raawwatamaa
raawwataman
raawwatame
raawwatamu
raawwatamuu
raawwatan
raawwate
raawwatee
raawwatu
raayyaa
raazerfoordi
rabbi
rabbii
rabbiin
rabbit
rabies
race
radiation
radio
radiology
rafaa
rafe
rafee
rafu
rafuu
raga
ragaa
ragaan
raggaasisuu
rah
rain
rakasa
rakasaa
rakkachuu
rakkina
rakkinni
rakkisa
rakkisaa
rakkise
rakkisne
rakkisu
rakkisuu
rakko
rakkoo
rakkoof
rakkoolee
rakkoon
ram
ramadama
ramadame
ramadamee
ramadamu
ramaddii
ramaduu
randa
random
range
rap
raphael
rapid
rarra
rarraasuu
ras
rasaasa
rasaasaa
rasaasaan
rashaad
rassi
rat
rate
rattle
raw
ray
rays
rd
re
reaction
reactive
read
ready
real
reality
recognize
record
recorder
records
red
reduce
reebi
reebicha
reebichaa
reebuu
reediyeemii
reediyemii
reediyoo
reef
reeffa
reeffaa
reeffi
reefu
reettii
reference
refuse
regard
region
regional
register
regret
rel
related
relationship
relax
release
reliance
religion
religions
religious
rem
remain
remember
remind
remove
renal
renewable
rent
repair
reparation
repeat
report
reptile
republic
research
reserve
resident
resistance
resource
respect
respectively
respondent
response
rest
restoration
result
results
retreat
retrieved
return
rev
review
revolution
reyii
reyiin
rezisterii
rezisteriin
rhino
rhinoceros
ri
ribuu
richard
richiitii
ride
riennes
rifachiisaa
rifachuu
rifatu
rifeensa
rifeensaa
rifeensi
rifle
rift
right
righteous
rights
riguu
riifti
riikardii
riippabiliika
rincicaa
ring
rio
rip
riphee
riphuu
rippaablika
rippabiliika
riqaa
riqicha
risaa
rise
risk
river
rna
ro
road
roast
rob
roba
robbins
robe
robert
rock
roga
rogsadee
role
roll
rom
roman
rome
rooba
roobaa
roobalee
roobee
rooberti
roobi
roobii
roobni
roobu
roof
rook
room
roomaa
roontigan
roorroo
root
rope
rose
roster
rot
rotten
rough
round
route
row
royal
rraa
rub
rukkina
rukutamu
rukutan
rukutanii
rukutee
rukuttaa
rukutu
rukutuu
rukutuuf
rule
rules
ruling
run
runner
running
rural
rush
russia
russian
ruubii
ruudaa
ruuqolee
ruuqoleen
ruuqoo
ruuzii
ruwaandaa
s
sa
saa
saacca
saaddoo
saaduu
saafaa
saahiba
saahile
saakarraa
saala
saalaa
saalfachuu
saalfii
saalih
saalquunnamtii
saamaawaaraa
saaman
saamicha
saamu
saamunaa
saamuu
saanduqa
saani
saanii
saannatee
saanqaa
saantima
saantimaa
saaphana
saaraa
saawwan
saaxil
saaxilaman
saaxiluu
saaxoo
saayinsii
saayinsiin
saayintistii
saayintistiin
saayintistoonni
sab
saba
sabaa
sabaaf
sababa
sababaa
sababbiin
sababii
sababiin
sababiinsaas
sababni
sabbata
sabbataa
sabboonaa
sabboontota
sabboonummaa
sabdaneessa
sabdaneessaa
sablammoota
sabni
saboota
sabrii
sabsibeen
sacrifice
sad
sadaasa
sadaasaa
sadaffa
sadaffaa
sadaffaan
sadan
sadarka
sadarkaa
sadarkaadhaan
sadarkaan
sadarkicha
saddeet
saddeetii
saddeettaffaa
saddeettan
saddeetuu
saddle
sadeen
sadhatawaa
sadi
sadii
sadiif
sadiin
sadiitti
sadoo
safaaraa
safar
safara
safaraa
safari
safartuu
safaruu
safaruuf
safety
saffisa
saffisaa
saffisaan
saffisni
saffron
safuu
safuudhaa
safuun
safuutiin
sagaaggaltuu
sagada
sagadaa
sagadaatti
sagaduu
sagal
sagalee
sagaleedhaan
sagaleen
sagaleessaa
sagaleessan
sagaleessuu
sagaltama
sagantaa
sagantaalee
sagantaan
saganteeffamu
saganteessaa
saggoo
sagittarius
saglan
sahaaraa
saint
sakatta
salaalee
salaaletti
salaam
salaata
salaatee
salaaxaa
sales
salfarii
salgan
saloon
salpha
salphaa
salphaadhumatti
salphaatti
salphina
salphisuu
salphoo
salphumatti
salt
salty
salvador
samaa
same
samii
samiin
sammuu
sammuun
samtuu
samuu
san
sana
sanaa
sanaaf
sanaan
sanaas
sanaatti
sanadii
sanan
sanarra
sanarratti
sanas
sanatti
sanbata
sanbataa
sanctity
sand
sandhoobeessa
sanduuqa
sangaa
sanh
sani
sanii
saniin
sanirraa
sanitti
santa
santiago
sanuma
sanyi
sanyii
sanyiin
sap
saphaalloo
saqqaa
saragee
sarara
sararaa
sararri
sarbiyaa
sardamsuu
sardamsuudhaan
sarduu
saree
sariitii
sarkiyuutii
sarkiyuutiin
sarkiyuutin
sassaabuu
sassataa
sassattuu
satisfaction
satisfied
satisfy
sattawa
saturday
saudi
saunders
save
saw
sawweekoo
saxaxa
saxaxuu
sayid
saying
sayyaara
sayyaaraa
sayyaaran
sayyoo
sayyoon
scale
scarf
scarlet
scatter
scent
schistosomiasis
school
science
sciences
scientific
scientist
scientists
scissors
scoop
scot
scotch
scotland
scout
scream
screw
scripture
se
sea
seal
search
searching
season
seat
second
secondary
secret
secretary
section
sector
security
sedan
see
seed
seel
seelii
seeliin
seelin
seelonni
seelota
seelotaa
seem
seena
seenaa
seenaan
seenan
seenanii
seene
seenee
seeneen
seenne
seennee
seensa
seensaa
seensisu
seensisuu
seente
seentee
seenti
seenu
seenuu
seenuuf
seenuun
seenxii
seequu
seera
seeraa
seeraala
seeraan
seeraatiin
seeraatti
seeran
seerluga
seeromaa
seerota
seerri
seete
seexana
seexanaa
seismic
sekendii
self
sell
semi
semiikondaakterii
semmoo
send
senegaal
senile
sentence
seoul
sephaa
september
serbia
serial
series
serious
sermon
serpent
serum
servant
serve
service
set
setter
seven
seventy
sew
sex
sexual
sh
shaafi
shaakala
shaalaqaa
shaallaa
shaam
shaampiyoonaa
shaanaa
shaangaayi
shaanii
shaanxaa
shaaroo
shaashamannee
shaawulaa
shaayee
shaayii
shade
shadow
shaggar
shahaadaa
shahnez
shake
shakkaa
shakkii
shakkisiisaa
shakkisiisne
shakku
shakkuu
shallaga
shallagaa
shallaggii
shaman
shamarran
shamarree
shamizii
shan
shanaffaa
shanan
shananii
shani
shanii
shaniif
shanitti
shantama
shantamaa
shape
sharaa
shariifaa
shark
sharkiin
sharp
sharpen
shatter
shave
shawaa
shayii
she
sheaf
shear
sheek
sheekh
sheekha
sheekhni
sheekkoo
sheena
sheep
sheet
sheikh
shell
shellfish
shiboo
shiftaa
shimbiro
shin
shira
shire
shirt
shock
shokorkota
shonkooraa
shookileen
shoora
shoorbaa
shop
shopping
shororkaa
short
shotgun
shoulder
show
shower
shrek
shubbisa
shubbisaa
shukkaa
shuntuuraa
shurraaba
shut
shy
si
sibiila
sibiilaa
sibiilli
sibila
sibilaa
sibuu
sick
sickle
sickness
sidaamaa
sidaamoo
side
sidi
sift
sight
sighted
sigigaachuu
sigimoo
sign
signal
signature
signify
sii
siicoo
siidaa
siidaan
siidan
siidii
siif
siifan
siigaaraa
siin
siinqee
siinqeen
siiqqee
sikkoo
silaa
silasee
silent
silica
silk
sill
sillaasee
sillaaseen
silver
sima
simachuu
simannaa
simbira
simbirroo
similar
simmintoo
simple
simply
sin
sinbirri
sinbirroota
since
sing
singapore
singer
single
singular
sinkiramaa
sinqii
sinsinnii
sio
siqe
siqee
sir
sirba
sirbaa
sirbe
sirboota
sirbu
sirbuu
siree
sirkaa
sirna
sirnaa
sirnaan
sirni
sirnoota
sirra
sirraa
sirreeffama
sirreessu
sirreessuu
sirreessuuf
sirri
sirrii
sirriidha
sirriin
sirriittan
sirriitti
sirritti
sirumaa
sirumayyuu
sis
sisal
sister
sit
site
sittan
sitter
sitti
sitting
situ
siwaahiliin
siyaad
siyaasa
siyaasaa
siyaasaatiin
siyaasaatti
siyaatil
skeleton
skid
skin
skinny
skiwoodofiskaa
sky
slam
slap
slate
slaughter
slave
sledge
sleep
sleeping
slender
slinging
slip
slow
small
smart
smash
smell
smile
smith
smoker
smut
snake
sneak
snow
so
soak
soap
soba
sobaa
sobduu
sobuu
soccer
sochii
sochiin
socho
sochoone
sochoosan
sochoosuu
sochoosuun
social
society
soda
sodaa
sodaachisaa
sodaachisu
sodaachisuu
sodaachuu
sodaadhaan
sodaadhe
sodaan
sodaanne
sodaataa
sodaatan
sodaattuu
soddaa
soddoma
soddomii
sodium
soft
software
soil
solar
soldier
solicitor
solid
solloqqee
solution
somaalee
somaaliyaa
somaaliyaatti
somba
sombaa
some
someone
something
sometimes
somewhere
son
sona
song
sooddo
sooddoo
soofaa
soofee
soofuu
soogidda
sookkoo
soolee
soomaale
soomaalee
soomaalen
soomaali
soomale
soomayyoo
soon
soorama
soorata
soorataa
sooressa
sooriyaa
sooshaalistii
sooviyeet
soquu
soraa
sorghum
sorooroo
sorrow
sossobuu
sossodaachiisuu
sossodaachisuu
soul
sound
soup
source
sources
south
southern
sow
soya
space
spain
span
spanish
spark
speak
spear
special
species
specifically
speech
speed
spelling
spend
spider
spinal
spine
spinner
spirit
spiritual
spit
splay
splitting
spoke
sponge
sport
sports
spot
spread
spring
springer
sq
squad
square
squint
st
stack
stad
stage
stain
stamp
stan
standard
stanley
star
starch
stars
start
starter
starting
startle
state
states
station
statistical
statistics
statue
status
statute
stay
stead
steal
steam
steel
stereotype
stick
still
sting
stinging
stir
stockholm
stoke
stomach
stone
stool
stop
storage
store
storm
story
stove
straight
strait
strange
strap
stratosphere
straw
stream
street
strength
striker
strip
stroke
strong
structure
struggle
stuck
student
studies
study
stuff
stumble
stunning
style
su
sub
subba
subii
subject
subsidy
subtle
succeed
successful
succession
such
sucrose
sudaan
suffice
sufficient
suffix
suga
sugar
suggest
suggestions
suicide
suitable
sukkaara
sukkaaraa
sukkuumuu
sulula
sululli
sum
sumaalee
summaa
summer
summii
summiin
summit
summuuguu
sun
sunday
suni
sunii
sunis
sunitti
sunset
super
superpower
supha
suphaa
suphaan
suphaman
suphee
suphu
suphuu
supper
supply
support
supporting
supreme
surface
surge
surgery
surpass
surprise
surraa
surrii
surround
surveyor
suspect
suufii
suukanneessaa
suuqii
suura
suuraa
suuraan
suuriya
suuriyaa
suuta
suutaan
suwiiz
swallow
swamp
sweat
swedish
sweep
sweet
sweeten
swim
swimming
swipe
swiss
switzerland
symposium
syndrome
synthesis
system
systematic
systems
t
ta
taa
taaddasaa
taaddasaan
taaksonoomii
taanaan
taane
taanee
taaneef
taaneen
taanes
taanetti
taanzaaniyaa
taariikha
taasifame
taasisa
taasisaa
taasisan
taasise
taasiseera
taasisu
taasisuu
taasisuun
taate
taatee
taatoo
taatota
taatu
taatuu
taayitaa
taba
tabaroo
tabate
tabba
table
tables
tae
taenia
tafarii
tafsiira
tag
tahe
tahee
tahu
tahuu
tahuun
tail
taiwan
taj
tajaajila
tajaajilaa
tajaajilan
tajaajile
tajaajileera
tajaajilli
tajaajiltu
tajaajilu
tajaajiluu
tajaajiluuf
tajajilama
tajajilamuu
tajajilla
take
takka
takkaa
takkaan
takkaayuu
takkatti
talaallii
talaalliin
talaallin
tale
talk
talkhis
tall
tamboo
tamsa
tamsaasa
tamsaasaa
tamsaasu
tamsaasuu
tan
tana
tanaaf
tango
tanzaaniyaa
tanzania
tape
tapeworm
tapha
taphachu
taphachuu
taphataa
taphatan
taphatta
taphatte
taphatu
taphni
taqii
tarii
tarkaanfachuu
tarkaanfii
tarminaalii
tarree
tarreeffama
tarreen
tarreessuu
tarsaasuu
tarsiimoo
tartiiba
tartiibni
tasa
tasaa
tasammaa
tasfaahuun
tasgabbaa
tasgabbeessuu
tasgabbii
tasiserra
tasuma
tasumaa
tatamsa
tatee
tattaa
tattaafata
tattaaffii
tatu
taurus
tax
taxi
taxonomy
taye
tayee
tayin
tayu
tayuu
tayuun
te
tea
team
tear
technology
tectonic
tee
teeknooloojii
teeknooloojiin
teellaa
teenya
teenyaa
teenyatti
teenye
teenyee
teeppii
teessee
teessoo
teessoon
teessuma
teessumaa
teeth
teknooloojii
tel
telegiraafii
telegraph
telephone
telescope
television
televizyinii
tell
teller
telling
temperate
temperature
tempered
tempireechara
template
temple
temprature
ten
tench
tender
tense
tent
tenure
term
terminal
termite
termooniwuukilaaraa
territory
terror
tesla
teslaa
teslaan
test
testament
text
textbook
th
thach
than
thank
that
thatching
the
theatre
their
them
then
thence
theory
therapeutic
therapy
there
therefore
thermal
these
thespian
they
thick
thief
thigh
thin
thing
think
third
thirsty
this
thorn
thorny
those
though
thought
thousand
threat
three
threshing
thrombosis
through
throw
thumb
thursday
thyme
thyroid
ti
tibba
tibbana
tidal
tide
tidings
tie
tight
tigist
tigraay
tigraayi
tii
tiin
tikaa
tikeetii
tiksaa
tiksu
tiksuu
till
tilmaama
tilmaamaa
tilmaamaan
tilmaamama
tilmaamamuu
tilmaaman
tilmaami
tilmaamu
tilmaamuu
tilmaamuuf
tilmaamuun
tilmamaan
tilmaman
tima
time
times
timira
timjii
tin
tinfaa
tiraakii
tiraamp
tiraanzisterii
tiraanzisteriin
tirachuu
tired
tirika
tiruu
tiruun
tishuu
tisiisa
tissue
title
titles
tiyaatira
tiyaatiraa
tiyaatirii
tiyoorii
tiyoorin
tiyya
tiyyaa
tnt
to
today
toffee
together
toilet
toka
tokkee
tokkicha
tokkichaa
tokkichatti
tokkichi
tokkittii
tokko
tokkodha
tokkof
tokkoffa
tokkoffaa
tokkoffaan
tokkoleen
tokkollee
tokkommoo
tokkon
tokkoo
tokkoof
tokkoomsuu
tokkoon
tokkoonsaa
tokkootti
tokkorraa
tokkorratti
tokkotti
tokkotu
tokkoyyuu
tokkummaa
tokkummaan
tokyo
tola
tolaa
tolaan
tolasaa
tolcha
tolchan
tolche
tolchee
tolchituu
tolchu
tolchuu
tolchuuf
tole
toleessa
tolerance
tolfamaa
tolfaman
tolfame
tolfamee
tolfamu
toll
tolle
tolu
toluu
tom
tomorrow
tone
tongue
tonight
too
tooftaa
tooftaan
tooftawaa
toogoo
tookiyoo
toomaas
toonii
toora
tooraan
tooth
top
topic
torba
torbaa
torbaan
torbaffaa
torban
torbaniin
torbatti
torbee
tornado
tortoraa
tortore
tortoree
tortorre
tortoruu
torture
total
tottolchuu
touch
tough
tourist
tout
tow
towards
towel
tower
town
toxic
toxin
toy
track
trade
trading
tradition
traditional
traffic
trail
train
training
transcontinental
transistor
translation
transmission
transmitted
transport
transportation
travel
traveler
tray
treasure
treatment
tree
trend
trial
tributary
trichuriasis
trick
trillion
trimmed
trinity
trip
troliers
tropical
trouble
trousers
truck
true
trunk
trust
truth
try
trybishop
trypanosomiasis
ts
tsahaay
tsetse
tsunami
tsunamin
tt
tta
tti
ttii
ttis
tu
tub
tube
tuboo
tuesday
tufaa
tuffachuu
tuffatamaa
tuffatu
tuffii
tuft
tug
tulloota
tullu
tulluu
tulluun
tulluuwwan
tumaa
tumamee
tumble
tume
tumsa
tumsaa
tumsuu
tumtuu
tumuu
tun
tuner
tuqaa
tuqamaa
tuqamne
tuqamu
tuqan
tuqe
tuqo
tuqu
tuquu
tuquun
tura
turaan
turan
turani
turanii
turaniif
turaniiru
turanis
turanitti
turban
ture
turedha
turee
tureedha
tureef
tureen
tureera
turerraa
tures
turetti
turiin
turin
turkey
turkii
turkish
turn
turning
turre
turree
tursiisuuf
tursuu
turte
turtee
turteetti
turtii
turu
turungoo
turuu
turuun
tusii
tuttuquu
tuubii
tuulaa
tuulama
tuulamaa
tuulame
tuulamni
tuule
tuuli
tuullaa
tuuluu
tuuriin
tuurin
tuuta
tv
twenty
twister
two
type
typhoon
tyranny
u
ua
ub
ud
udaan
udha
udhaan
udhan
uefa
uefan
uf
uffachuu
uffannaa
uffanni
uffata
uffataa
uffatamu
uffatan
uffatanii
uffate
uffatee
uffatu
uffee
ug
uggaa
uggurtii
ujummoo
ujummoon
uk
ukaa
ukkaamamuu
ukkaamsanii
ukkaamsuu
uktuu
ul
ulaagaa
ulamaa
ulcer
ulee
uleen
ulfa
ulfaa
ulfaanne
ulfaata
ulfaataa
ulfaatoo
ulfaatu
ulfina
ulfinni
ulle
ullee
ultrasound
ultraviolet
um
uma
umamu
umamuu
umar
ummaa
ummaan
ummama
ummamu
ummani
ummanni
ummata
ummataa
ummataaf
ummataan
ummatatti
ummatni
ummatoota
ummatootaa
ummatta
ummatti
ummattoota
umrii
umriin
umsa
umsaa
umsi
umurii
umuriin
umuriinsaa
un
unable
unacknowledged
uncle
under
underha
underpants
understand
understanding
underwear
uniform
union
unit
united
university
unknown
unkuruu
unmarried
unsupported
untidy
until
up
update
uppfo
upphovsra
uppra
uppsala
uppta
upright
uproot
ur
ura
uraa
uraagaa
uran
urban
urea
urgaa
urgi
urgooftuu
urjii
urjiin
urjiiwwan
urra
urraa
urratti
uruu
us
usa
usan
use
used
useful
usmaan
usually
ususuu
ut
utaalanii
utaalchoo
utaalee
utaalloo
utaaluu
utc
uterine
utfo
utga
utla
uto
utti
utu
utubaa
utubduu
utubu
utubuu
utuu
utva
uu
uudha
uudhaan
uudhan
uudi
uuf
uufi
uufii
uukkoo
uuma
uumaa
uumama
uumamaa
uumamaan
uumaman
uumame
uumamee
uumamni
uumamu
uumamuu
uumamuun
uuman
uumanii
uume
uumee
uummama
uummamaa
uummame
uummamte
uummamu
uummanni
uummata
uummataa
uummataaf
uummataan
uummataatti
uummatatti
uummati
uummatni
uummatoota
uummattoota
uumu
uumun
uumuu
uumuuf
uumuun
uun
uunsaa
uura
uuraa
uus
uusaa
uuti
uutii
uutin
uutti
uutu
uv
uwwaa
uwwisni
uwwisu
uwwisuu
uyyuu
uz
uzbekistan
v
va
vaakiyuum
vaalvii
vaayirasii
vaayiresii
vaayiresiin
vaccination
vaccine
vacuum
vacuumiin
valley
value
values
vampire
van
vane
variable
various
vault
vector
veetnaam
vehicle
velocity
venus
verb
verde
verdee
verse
versed
version
very
vessel
veterinary
via
vice
vicious
victory
video
vienna
view
viidiyoo
viilheelmi
viktooriyaa
vinci
violence
viral
virgin
virgo
virus
viruses
vise
visible
vision
visit
vitamin
vocal
voice
vol
volcanic
volcano
volcanon
vole
volta
voltage
volume
vomit
von
voolteejii
voolteejin
vooltii
voon
vote
vowel
vulgar
w
wa
waa
waabdii
waabee
waadaa
waadaan
waaddii
waajira
waajirri
waajjira
waajjirri
waakkachuu
waakkataa
waal
waaltaa
waamama
waamaman
waamamu
waaman
waame
waamee
waamicha
waamichaa
waammama
waammamu
waamu
waamuu
waan
waanan
waancaa
waanin
waanta
waantan
waanti
waantin
waantokko
waantonni
waantoota
waantota
waantotta
waanuma
waaq
waaqa
waaqaa
waaqaatti
waaqarkee
waaqarraa
waaqatti
waaqayyo
waaqayyoo
waaqayyoof
waaqayyoon
waaqeffannaa
waaqeffannaatti
waaqeffattoota
waaqeffattootaa
waaqi
waaqni
waaqo
waaqon
waaqoo
waaqota
waara
waardiyyaa
waaree
waaroo
waarsawu
waayee
waayit
waayyuu
wabii
waca
wacaqa
waccuu
waci
wacuu
wadaajoo
wadaay
wadaroo
wagga
waggaa
waggaan
waggaatti
waggoota
wagii
waif
waist
waiting
wajiin
wajin
wajji
wajjiin
wajjin
wajjiniin
waka
wake
wal
walaabu
walaabuu
walaba
walaboomsuu
walabummaa
walakkaa
walakkaan
walakkaatti
walakkeessa
walaleessaa
walaloo
walaloon
walaloowwan
walanee
walbira
waldaa
waldaan
waldee
waldhaansoo
waldichaa
walfaana
walfakkaatuun
walga
wali
waligalaa
waligaltee
walii
waliif
waliigala
waliigalaa
waliigalaan
waliigalaatti
waliigalan
waliigalatti
waliigaltee
waliigaluu
waliin
waliinii
waliinis
walin
walirra
walirraa
walirratti
walisoo
walit
waliti
walitti
walk
walker
walking
wall
wallaalaa
wallaalee
wallaaluu
wallaga
wallagaa
wallagga
wallaggaa
wallaggaatti
wallee
wallo
walloo
walnyaatinsa
waloo
walqabatee
walqabatu
walqixxee
walqixxummaa
walqunnamtii
walta
waltajii
waltajjii
walumaa
walumaagalatti
walumatti
walumma
wamamu
wan
wancii
wandaboo
wangeela
wangeelaa
wangoo
wanna
wanni
wannin
want
wanta
wanti
wantoonni
wantoota
wantootaa
wantotta
waqtii
war
waraabamee
waraabamu
waraabbii
waraabessaa
waraana
waraanaa
waraanaaf
waraanaan
waraanaatti
waraanan
waraananii
waraanatiin
waraanee
waraanichi
waraanni
waraansa
waraanu
waraanuu
warab
warana
waranaa
waraqaa
waraqata
waraqataa
wareega
wareegama
wareegame
warehouse
warfare
warhol
warm
warming
warn
warning
warqee
warqeen
warqii
warra
warraa
warraaqsa
warraaqsaa
warraaqsi
warrana
warrani
warri
warrii
warshaa
was
wash
washing
washington
wasiila
waste
watch
watchman
water
waterfall
watering
wave
wavelength
waves
waxabajji
waxabajjii
way
wayaa
wayii
wayiin
wayiitiin
wayinii
wayita
wayitan
wayitti
wayta
wayya
wayyaa
wayyaanee
wayyaaneen
wayyeessuu
wbo
we
weak
weapon
weapons
wear
weary
weasel
weather
web
website
wedding
wednesday
weebsaayitii
weed
weeddisuu
weedduu
week
weekly
weellisaa
weellistuu
weerara
weeraraa
weerarichaa
weerarichi
weerarri
weeraruu
weigh
weighing
weight
wel
welcome
well
wellington
were
west
western
westiingihaawus
wet
wfdo
whale
what
wheat
wheel
when
where
which
while
whip
whipping
whipworm
whistle
white
who
whole
whom
whore
why
wide
widow
width
wiiliyaam
wiirtuu
wiixata
wiki
wikimedia
wikipedia
wikipidiyaa
wild
wildlife
wilhelm
will
william
williams
willy
win
wind
window
wing
winner
winnow
winter
wip
wipe
wire
wireless
wirtuu
wisdom
wise
wish
witch
with
without
witness
wixinee
wixxifachuu
wnba
wol
wolf
wolii
woman
women
won
wood
wooden
wool
woraana
word
wordpress
woreda
work
worker
working
world
worm
worn
worry
wqo
wrist
write
writer
writing
written
wrong
wulii
www
x
xaa
xaafii
xaaliyaanii
xaaliyaaniif
xaaliyaaniin
xaaliyaanin
xaaliyaanonni
xaasaa
xaba
xabachuu
xabatan
xabatu
xalayaa
xalayaan
xannacha
xariiqaa
xaxaa
xaxama
xaxamaa
xaxamee
xaxuu
xeellaa
xibaaruu
xiinxaluu
xiiqii
xinnaa
xinnaachuu
xinneessuu
xinno
xinnoo
xinnoodhaan
xinsammuu
xiqqaa
xiqqaadha
xiqqaan
xiqqaate
xiqqeessuu
xiqqo
xiqqoo
xiqqoof
xiqqoollee
xiqqoon
xiqqoos
xiraa
xixinnoo
xixiqqaa
xixiqqoo
xixiqqoon
xiyya
xiyyaa
xiyyaara
xiyyaaraa
xiyyaaraaf
xiyyaaraan
xiyyaarri
xiyyara
xiyyeeffachuu
xiyyeeffannaa
xiyyeeffannaan
xiyyeeffannoo
xiyyeeffata
xiyyeeffatan
xiyyeeffate
xiyyeeffatu
xiyyoo
xo
xumura
xumuraa
xumurame
xumuramne
xumuramu
xumure
xumuree
xumurte
xumuruu
xumuruuf
xumuruun
xuqur
xuraa
xureessuu
xurii
xurree
xurumbaa
xurunash
xuuxu
xuuxuu
xuuxxoo
y
ya
yaa
yaaban
yaada
yaadaa
yaadaan
yaadachiisa
yaadachiisuu
yaadachuu
yaadachuuf
yaadadha
yaadadhu
yaadame
yaadamee
yaadamiin
yaadamne
yaadamu
yaadan
yaadanii
yaadannoo
yaadannoon
yaadatama
yaadda
yaaddama
yaaddessaa
yaaddessu
yaaddoo
yaaddu
yaade
yaadee
yaadi
yaadiin
yaadin
yaadne
yaadni
yaadu
yaaduu
yaaduudhaan
yaaduun
yaala
yaalaa
yaalan
yaale
yaali
yaalii
yaaliin
yaalin
yaalu
yaalun
yaaluu
yaaluun
yaamu
yaanni
yaanuu
yaaqoob
yaasi
yaasuu
yaayaa
yaayyaa
yabbina
yabbuu
yadda
yaddatama
yaddi
yakka
yakkaa
yakkamaa
yakkamtoota
yakki
yakkuu
yam
yaman
yaroo
yaroon
yasus
yasuus
yayyaba
year
years
yeedaloo
yeelloo
yellow
yemen
yemmuu
yeroo
yeroodhaa
yeroodhaaf
yeroodhuma
yeroof
yerooma
yeroon
yerootti
yerosuma
yerro
yerroo
yeruma
yesus
yesuus
yet
yihuudaa
yihuudii
yihuudonni
yihuudota
yihuudotaa
ykn
yo
yohannis
yokaan
yokan
yommuu
yoo
yookaa
yookaan
yookan
yookiin
yookin
yoom
yoomi
yoomillee
yoomiyyuu
yoomuma
yoomuu
yoon
yoona
yoork
yoorki
yoorkitti
yoosuu
york
you
young
your
yours
youth
youtube
yugaandaa
yunaayitid
yunivarsiitii
yunivarsitii
yuraaniyemii
yuukireen
yuunibarsiitii
yuunitii
yuunivarsiitii
yuunivarsiitiin
yuunivarsiitota
yuurooppi
yuurooppin
yuuyyee
z
za
zaanzibaar
zabanyaa
zamanaa
zarihuun
zawwii
zayita
zayitii
zealand
zebra
zeeroo
zerah
zero
ziinkii
zika
zimbaabuwee
zinnaara
ziyaad
ziyaaru
ziz
zone
zonii
zoodiyaak
zoonii
zuwaay
zy
{
|
}
~
«
­
°
±
²
³
´
·
º
»
×
æ
÷
ɑ
ɪ
ʲ
ʻ
ʼ
ʾ
ʿ
ˈ
ˌ
ː
̀
́
̂
̃
̄
̇
̈
̊
̌
̓
̣
̧
̨
̱
α
β
γ
δ
ε
μ
ς
υ
ϑ
،
ا
ابن
ال
الا
الابتهاج
التاسع
الجديد
الجزء
الجزاي
الديباج
الزواوي
الضوء
العلمية
القرن
القول
الكتب
اللامع
الله
المفيد
ب
بتطريز
براهيم
بن
ت
ج
جزايرس
ح
حمد
د
دار
ر
رجوزة
رسول
س
شرح
ص
ض
طبقات
ع
عبد
عراب
علام
على
عمر
غ
فاي
في
قواعد
كتاب
ل
لا
لقواعد
للزواوي
م
محمد
من
موسى
ن
نظم
نيل
ه
هشام
هل
و
والا
ي
يا
ين
َ
ُ
ِ
ّ
ْ
ٓ
ٔ
ٕ
०
০
೦
ሁኔታ
ሆኖ
ላይ
ልቀት
መቀነስ
መጠበቂያ
መጠን
ማለት
ማቅለጫ
ምርት
ምርቶች
ሲ
ሲሆን
ሲሚንቶ
ሲሚንቶዎች
ስልኬት
ቀናት
በ
በላይ
በመቶ
በብናኝ
በብዙ
በታች
በኋላ
በአለት
በአልካላይ
በእርግጥ
በዚህ
ብናኝ
ተብለው
ትክክለኛ
ቶን
ነው
ነገር
ናቸው
አመድነት
አርማታ
አይነት
አፈር
ኤምፒኤ
ኤኤስቲኤም
እስከ
እነዚህም
እና
እንደ
እንዲሁም
ከ
ከዚህ
ከፍተኛ
ከፖርትላንድ
ካልሺየም
ኬሚስትሪ
ወይም
ወደ
ውህድ
ውህዶች
ውስጥ
ዝቃጭ
የ
የሚሰሩ
የሚችሉ
የሚያገለግል
የሚገኝ
የሲሚንቶ
የብረት
የብናኝ
የተመሰረተ
የተወሰኑ
የአልካላይ
የአልካላይን
የአፈር
የካርቦን
የካርቦንዳይኦክሳይድ
የክብደት
የደህንነት
የጂኦፖሊመር
የፖሊመር
የፖርትላንድ
ያለው
ይህም
ይመልከቱ
ደረጃ
ዲ
ጂኦፖሊመር
ጉዳት
ጊዜ
ጋር
ግን
ፖሊ
ፖታሺየም
፡
፣
​
‎
–
—
‘
’
“
”
„
‟
•
…
‧
′
↑
→
↔
↷
−
√
⋅
③
④
⑦
☉
♀
♁
♂
♅
♆
♇
♈
♉
♊
♋
♌
♍
♎
♏
♐
♑
♒
♧
⛢
➲
⯓
⺀
⺄
⺆
⺈
⺊
⺌
⺕
⺝
⺸
⺼
⿰
⿱
⿲
⿳
⿴
⿵
⿶
⿷
⿸
⿹
⿺
⿻
。
〢
コ
ユ
㇁
㇂
㇄
㇇
㇈
㇉
㇓
㐁
㐄
㐅
㐌
㐫
㐬
㐭
㐮
㐱
㑒
㒵
㒸
㒼
㓁
㓞
㔾
㕛
㕣
㖾
㘝
㚅
㚇
㚔
㚘
㝉
㝡
㝴
㝵
㞋
㞢
㞷
㠩
㠭
㠯
㡀
㡭
㡿
㢲
㢴
㣇
㣺
㥯
㪅
㫄
㫐
㫒
㫺
㬅
㬎
㬥
㬰
㲋
㳄
㷠
㸒
㸚
㸦
㼌
㼲
㽞
㿟
䀠
䂞
䍃
䏍
䒑
䖍
䖒
䖝
䖵
䙴
䚻
䜌
䝿
䡛
䧹
䪞
一
丁
丂
七
丄
丅
丆
万
丈
三
上
下
丌
不
与
丏
丐
丑
专
且
丕
世
丘
丙
业
东
丞
丢
丣
两
严
並
丨
丩
个
丫
丬
中
丮
丰
丱
串
丵
丶
丷
丸
丹
为
主
丽
丿
乀
乂
乃
久
乆
乇
么
义
之
乌
乍
乎
乏
乐
乑
乔
乖
乗
乘
乙
乚
乛
乜
九
乞
也
习
乡
乳
乾
亀
亅
了
亇
予
争
事
二
亍
于
亏
亐
云
互
亓
五
井
亘
亚
亜
亞
亟
亠
亡
亢
交
亥
亦
产
亨
亩
享
京
亭
亮
亯
亰
亲
亳
亶
亷
人
亻
亼
亾
仁
今
介
仌
从
仐
仑
仒
仓
仕
他
付
仝
代
令
以
任
企
伊
伏
伐
休
会
伯
但
位
何
佘
余
作
佥
使
來
侈
侌
侖
侯
侵
便
保
俞
信
修
倉
倍
候
倠
備
僉
僕
儿
兀
允
兂
元
兄
充
兆
兇
先
光
兊
克
兌
免
兑
兒
兓
兔
党
兜
兟
入
全
兩
兪
八
公
六
兮
兰
共
关
兵
其
具
典
兹
兼
冀
冂
冃
冄
内
冈
冉
冊
冋
册
再
冎
冏
冐
冒
冓
冖
冗
冘
军
农
冝
冡
冥
冫
冬
冷
几
凡
凢
凵
凶
凷
凸
凹
出
函
凾
刀
刁
刂
刃
刄
刅
分
切
刍
刑
刕
刖
列
刘
则
初
別
利
别
到
制
刺
則
削
剌
前
剡
剽
劉
力
功
加
劦
助
劫
劳
劵
勃
勇
勉
勒
動
務
勞
勤
勹
勺
勻
勾
勿
匀
匂
包
匆
匈
匊
匋
匍
匕
化
北
匚
匝
匡
匪
匱
匸
匹
区
医
匽
匿
區
十
卂
千
卄
卅
卆
升
午
卉
半
卌
华
卑
卒
卓
单
卖
南
卜
卝
卞
占
卡
卢
卣
卤
卦
卩
卪
卬
卯
印
危
即
却
卵
卷
卸
卻
厂
厃
厄
历
厈
厉
厌
厓
厘
厚
原
厤
厥
厨
厭
厲
厶
厷
厸
去
厼
厽
叀
参
參
叅
又
叉
及
友
双
反
叐
发
叒
叔
叕
取
受
叚
叜
叟
口
古
句
另
叩
只
召
可
台
叱
史
右
叵
号
司
叹
吂
各
吅
合
吉
吊
吋
同
名
后
吏
向
吕
君
吝
吞
否
含
启
吳
吴
吹
吾
呂
呆
呈
告
员
呙
周
命
咅
和
咎
咠
咢
咨
咸
咼
哀
品
哉
員
哥
哲
唐
商
啇
問
啚
啬
啻
善
喜
喬
單
喿
嗇
噩
嚴
囊
囗
囘
囙
囚
四
回
囟
因
囧
囬
困
囱
囷
固
国
圂
圅
國
圍
圓
土
圡
圣
圥
在
圭
地
圶
圼
坐
坒
坚
坴
垂
垔
垚
埀
埋
埶
執
基
堂
堅
堆
堇
堯
塞
墨
壘
士
壬
壯
声
壳
壴
壹
壺
壽
夂
处
夅
夆
备
夊
夋
夌
复
夏
夒
夕
外
夗
夘
多
夜
夢
大
夨
天
太
夫
夬
夭
央
失
夲
头
夷
夸
夹
夻
夾
奂
奄
奇
奈
奉
奎
奏
奐
契
奓
奔
奚
奞
奠
奢
奥
奭
女
奴
奻
好
如
妄
妙
妟
妥
妻
妾
姑
委
姜
威
娄
婁
婴
嬰
嬴
子
孑
孔
孕
孖
字
存
孚
孛
孝
孟
季
孤
学
孫
孱
學
宀
宁
宂
它
宅
宇
守
安
宋
完
宏
宓
宗
官
定
宛
宜
宝
客
宣
室
宮
宰
害
家
容
宾
宿
寄
寅
密
富
寒
察
寧
審
寫
寬
寮
寸
对
寺
寻
寽
対
寿
封
尃
射
将
將
專
尉
尊
尋
尌
對
小
少
尒
尓
尔
尖
尗
尚
尞
尢
尣
尤
尧
尨
尭
就
尸
尹
尺
尻
尼
尽
尾
尿
局
居
屈
屋
屎
屏
屑
展
屖
屚
属
屠
屡
屬
屮
屯
屰
山
屵
屾
岁
岂
岑
岡
岩
岳
岸
峯
島
崇
崑
崔
崖
崙
崩
嵬
嶲
巂
巛
川
州
巟
巠
巢
巤
工
左
巧
巨
巩
巫
差
己
已
巳
巴
巷
巸
巽
巾
巿
帀
市
布
希
帚
帛
帝
带
師
席
帶
常
干
平
年
幵
并
幷
幸
幺
幻
幼
幽
幾
广
広
庄
床
底
店
庚
府
度
庫
庭
庶
康
庸
廉
廌
廛
廣
廩
廴
延
廷
建
廾
廿
开
弁
弃
弄
弇
弋
式
弓
弔
引
弗
弘
弜
弟
弥
弦
弱
張
強
强
彊
彌
彎
彐
彑
当
彔
录
彖
彗
彡
形
彥
彦
彧
彭
彳
役
彼
往
待
律
徒
得
徙
從
復
微
徵
心
忄
必
忌
忍
志
忝
忠
忩
快
念
忽
忿
思
怠
急
怱
恆
恒
恩
恭
息
悉
患
悤
悲
悶
惠
惡
惢
愁
愈
意
愛
感
慈
慧
慮
憂
憲
應
戀
戈
戉
戊
戋
戌
戍
戎
成
我
戒
戔
或
戚
戠
戢
截
戲
戶
户
戹
戼
戾
房
所
扁
扇
手
扌
才
打
托
执
承
折
拉
拜
拿
掌
推
提
摩
支
攴
攵
收
攸
改
放
政
敄
敏
敕
敖
敗
敝
敞
敢
散
敦
敫
敬
数
敷
數
斂
文
斉
斊
斗
斤
斥
斩
斬
斯
新
方
於
施
斿
旁
旋
族
无
旡
既
旣
日
旦
旧
旨
早
旬
旱
旲
时
旾
昆
昇
昌
昍
明
昏
易
昔
昗
昜
星
春
昬
是
昱
昴
昷
時
晃
晋
晏
普
景
晶
智
暑
暴
曇
曩
曰
曲
曳
更
曷
書
曹
曼
曾
替
最
朁
會
月
有
朋
服
朔
朕
朗
望
朝
木
朩
未
末
本
札
朮
术
朱
朵
朶
朿
杀
杏
杜
束
条
来
東
杲
杳
松
析
林
枚
果
枝
枲
枼
某
柔
查
柬
柰
柴
栗
桀
桑
桼
梁
條
梟
梨
棘
棠
棥
森
楚
業
楽
榮
樂
樊
欠
次
欣
欮
欲
欶
欽
款
歆
歇
歛
止
正
此
步
武
歨
歪
歮
歯
歰
歲
歴
歷
歸
歹
歺
死
殳
段
殷
殸
殹
殺
殻
殿
毋
毌
母
每
毒
比
毕
毚
毛
毳
氏
氐
民
气
氣
水
氵
氶
氷
永
氺
氾
求
汝
汞
江
沃
沓
沙
沝
泉
法
波
泣
泥
泰
洛
洪
活
派
流
浦
浪
浮
淡
淮
清
渚
渠
湯
滿
漸
火
灬
灭
灰
灵
灷
炅
炎
炏
炗
炙
炭
為
烈
烏
烝
焉
無
焦
焱
然
煞
熊
熏
燕
營
燮
爪
爫
爭
爯
爰
爱
爲
爵
父
爻
爽
爾
爿
片
牙
牚
牛
牜
牟
牢
牧
牪
牽
犀
犬
犭
犮
狂
狄
狊
独
狺
猋
猒
猪
献
獻
玄
率
玉
王
玟
玨
珎
班
琴
瑟
瑩
瓜
瓦
甘
甚
生
産
用
甫
甬
田
由
甲
申
电
甶
男
甸
甹
画
甾
畀
界
畏
畐
留
畜
畟
畢
畧
畨
番
畫
異
畱
當
畺
畾
疊
疋
疌
疑
疒
疾
癶
癸
癹
登
發
白
百
皀
皃
的
皆
皇
皋
皐
皕
皮
皷
皿
盃
盆
盇
盈
益
盍
盎
监
盒
盖
盛
盡
監
盤
盧
目
直
相
盾
省
眇
眉
看
眔
眞
真
眷
眼
眾
着
睘
睪
睿
瞏
瞢
瞿
矍
矛
矞
矢
矣
知
矦
短
石
破
碎
磊
磨
示
礻
礼
祟
票
祭
禀
禁
禸
禹
禺
离
禽
禾
禿
秀
秃
秉
秋
科
秝
秦
移
稟
穀
穌
穴
究
穹
空
穿
突
窄
窒
立
竒
竜
竝
竟
章
童
竹
笑
笠
筆
等
答
箕
算
箴
節
篤
篭
米
粉
粛
粟
粤
粦
粲
糞
糸
糹
系
約
納
素
索
紫
累
細
絜
絫
絲
維
綿
縣
繇
纍
纟
缶
网
罒
罔
罕
罗
罙
罡
罢
罪
署
罷
羅
羊
羌
羍
美
羔
羕
羗
羞
羡
羣
群
義
羲
羸
羽
翁
翏
習
翕
翟
翠
翼
老
耂
考
者
耆
而
耎
耑
耒
耳
耴
耶
耷
聂
聊
聖
聚
聶
聿
肀
肃
肅
肉
肖
肙
肥
肩
肯
育
肴
胃
背
胡
胥
能
脊
脩
膚
臣
臤
臧
自
臬
臭
臯
臱
至
致
臺
臼
臽
臾
臿
舀
舂
舄
與
興
舉
舌
舍
舛
舜
舞
舟
般
艮
良
色
艸
艹
艾
芒
芔
芬
芮
花
芳
芺
芻
苔
苗
苟
若
苦
英
茶
茸
荅
草
荒
荣
荼
莆
莧
莫
莽
菆
菊
菐
華
萬
落
葉
著
葛
董
葵
蒙
蒦
蒼
蓋
蓬
蓺
蔑
蔡
蕉
蕭
薄
薛
薦
薰
藍
藏
藥
蘭
虍
虎
虐
虒
虔
處
虖
虗
虘
虚
虛
虜
虞
虫
虽
蚤
蚩
蜀
蜜
蟲
蠡
血
行
衍
衛
衣
衤
表
衮
衰
袁
袞
褭
褱
襄
襾
西
覀
要
覃
見
規
覓
覧
親
覽
见
角
解
言
訁
訇
計
詹
誩
諸
讠
谷
豆
豈
豊
豐
豕
豖
豙
象
豦
豩
豪
豸
貇
貝
貞
貟
負
貢
貧
貪
貫
責
貳
貴
買
費
賁
資
賈
賏
賓
賔
賛
賞
賢
賣
質
賴
贊
贝
贡
责
贯
贲
贵
赖
赞
赤
赦
走
越
足
路
蹇
身
躬
車
軍
軎
軟
輦
车
辛
辜
辟
辥
辰
辱
農
辵
辶
边
达
过
近
连
迷
追
退
送
逆
逐
通
速
造
逢
連
逮
進
遀
遂
過
道
達
遣
適
遷
遺
邊
邑
邕
那
邦
邪
郎
部
郭
都
鄉
酉
酋
配
酓
釆
采
里
重
野
量
金
釒
錢
钅
長
镸
长
門
閃
閉
開
閏
閑
閒
間
閔
閵
閻
闌
门
间
闷
阑
阜
阝
阿
降
陳
隆
隊
隋
隡
隨
隱
隶
隹
隺
隻
隼
隽
难
雀
雁
集
雈
雋
雍
雐
雔
雙
雚
雜
雝
離
難
雨
雩
雪
雲
零
雷
需
霍
霜
霝
霞
霸
靈
靑
青
非
靡
面
靣
革
韋
韦
韭
韯
韱
音
頁
頃
項
須
頗
頡
頻
顛
页
風
风
飛
飞
食
飠
養
饣
首
香
馬
馮
駦
马
骨
高
髟
鬥
鬯
鬲
鬼
魚
魯
鮮
鱼
鲁
鳥
鳳
鸟
鹵
鹿
麃
麗
麥
麦
麻
黃
黄
黍
黎
黑
黒
黨
黹
黽
黾
鼎
鼓
鼠
鼻
齊
齋
齐
齒
齿
龍
龙
龜
龟
龠
龰
龱
龴
龵
龶
龷
龸
龹




者
艹
，
？
￼
𝒂
𝒌
🜨
𠀁
𠀃
𠀆
𠀉
𠀎
𠀐
𠁁
𠁣
𠂆
𠂇
𠂈
𠂉
𠂊
𠂋
𠂎
𠂒
𠂔
𠂛
𠂡
𠂢
𠂤
𠂬
𠂭
𠂹
𠃊
𠃋
𠃌
𠃍
𠃎
𠃑
𠃓
𠃔
𠃜
𠄌
𠄎
𠄠
𠄢
𠆢
𠆥
𠇍
𠈌
𠌵
𠓜
𠔉
𠔥
𠔼
𠔽
𠔿
𠕀
𠕁
𠕋
𠘧
𠘨
𠙻
𠙼
𠚏
𠚒
𠚤
𠚪
𠣏
𠤎
𠤕
𠥓
𠦄
𠦑
𠦝
𠧒
𠧗
𠧪
𠩺
𠪚
𠫓
𠫔
𠫤
𠬛
𠬝
𠬞
𠬢
𠬤
𠬶
𠮛
𠮦
𠮷
𠯑
𠱠
𠳮
𠷎
𡈼
𡉀
𡉵
𡌥
𡍮
𡏳
𡕒
𡕩
𡕰
𡖅
𡗗
𡗜
𡘆
𡘤
𡧱
𡨄
𡩧
𡬠
𡭽
𡰣
𡰥
𡰪
𡰯
𡰱
𡷈
𡸁
𡿨
𡿩
𡿪
𡿺
𢀖
𢀛
𢀩
𢁙
𢆉
𢆰
𢆶
𢇁
𢇇
𢉖
𢌬
𢌿
𢏚
𢑑
𢑚
𢖻
𢙣
𢛳
𢦏
𢦒
𢧵
𢼄
𢾕
𣁋
𣄼
𣅀
𣅽
𣍘
𣎳
𣎵
𣏋
𣏼
𣗥
𣥂
𣥖
𣦵
𣦼
𣧄
𣪊
𣪠
𣬉
𣳾
𣶒
𤇾
𤊽
𤐫
𤓰
𤔔
𤕨
𤣩
𤰇
𤰔
𤰞
𤴓
𤴔
𤽄
𥁑
𥁕
𥃦
𥃩
𥃭
𥇡
𥑟
𥘅
𥘈
𥝢
𥫗
𥱡
𦈢
𦉪
𦉬
𦉼
𦍌
𦍒
𦎧
𦐇
𦓔
𦔮
𦘒
𦙃
𦚏
𦣝
𦣞
𦣻
𦥑
𦥔
𦥯
𦨉
𦭝
𦰩
𧆞
𧈧
𧘇
𧰨
𧴪
𧴮
𧵩
𧾷
𨸏
𨾴
𩙿
𩠐
𩫏
𩵋
𪉷
𪜀
𪟽
𪠲
𪩲
𫇦
𫔭
𫜸
𫝀
𫠣
𫠩
𫢉
𫥞
𫩏
𫩠
𫪡
𫲽
𫶧
𬀷
𬐘
𬗌
𬙙
𬛸
𬜯
𬟩
𬯁
𬴘
𬺻
𬼉
𬼖
𭀰
𭁈
𭁨
𭅰
𭑈
𭕄
𭗼
𭤨
𭥫
𭻾
𮅕
𮊿
𮍌
𮍏
𮓗
𮥼
𮧮
廾
𰀁
𰀄
𰀈
𰀉
𰀕
𰀠
𰀡
𰀢
𰀪
𰁜
𰃮
𰆊
𰆘
𰋙
𰕎
𰢴
𰧭
𰯲
13--
14--
15--
16--
17--
18--
19--
3--
6--
7--
8--
9--
a--
aa--
aab--
aach--
aad--
aadeffach--
aak--
aakk--
aal--
aan--
aangoo--
aar--
aari--
aarsich--
aarsin--
aarsit--
aaw--
aay--
ab--
aba--
abda--
abdo--
abe--
abr--
abso--
abys--
ac--
acc--
accom--
accompl--
acti--
ad--
add--
ade--
adol--
ador--
adul--
adv--
adven--
advo--
ae--
af--
afaan--
aff--
affec--
afflu--
afuuf--
ag--
aga--
agar--
agi--
agu--
air--
aj--
aja--
ajje--
ajjeef--
ak--
akaa--
akk--
al--
ala--
alco--
alga--
alla--
am--
ambi--
ameri--
amphi--
amput--
an--
ana--
anes--
ani--
ank--
ano--
ant--
anti--
any--
ap--
app--
appe--
appli--
appre--
approx--
aqu--
ar--
arab--
argi--
arj--
arm--
aro--
arrab--
art--
as--
ash--
asp--
ass--
aste--
astro--
at--
ata--
ati--
atmos--
atoo--
att--
au--
auth--
auto--
av--
ava--
aw--
ay--
ayyaane--
az--
b--
ba--
baa--
baab--
baan--
baar--
baay--
bab--
back--
bad--
bakk--
bal--
balaqq--
balball--
ball--
ban--
band--
bang--
baq--
baqaq--
baqat--
bar--
bare--
bas--
bash--
bat--
bath--
bay--
be--
bed--
beek--
beekk--
beeylado--
bekk--
bel--
bene--
benefi--
ber--
bet--
bev--
bey--
bi--
biblio--
bid--
bii--
bikk--
bilbi--
bilch--
bilchaa--
bili--
bill--
bin--
binenso--
bio--
bir--
bis--
bita--
biy--
bl--
bla--
black--
ble--
bli--
blo--
blood--
blus--
bo--
bob--
bon--
boo--
book--
boom--
booy--
boq--
boqo--
bor--
bra--
bre--
bree--
bri--
brid--
bro--
brok--
bron--
brut--
bu--
bub--
bubbut--
bug--
bul--
bun--
buqq--
bur--
burg--
bush--
but--
buu--
buub--
buufa--
buzun--
by--
c--
ca--
caal--
caas--
cab--
cac--
cack--
cafaq--
caj--
cal--
cali--
cam--
can--
cap--
car--
cara--
care--
carto--
cas--
cat--
caut--
cav--
caw--
ce--
cee--
cel--
cele--
cen--
centi--
cer--
ch--
cha--
chaa--
chair--
champ--
chan--
char--
chauv--
che--
chi--
chig--
chimp--
chlo--
chri--
chur--
ci--
cic--
cicc--
cii--
cims--
cin--
cinq--
circul--
circumc--
cita--
citiz--
cl--
cla--
cle--
cli--
clo--
co--
coagu--
cob--
cobb--
coc--
cock--
col--
colo--
colum--
com--
commemo--
communi--
comp--
compe--
compla--
compli--
compre--
con--
conc--
conclus--
cond--
conf--
confe--
confecti--
conge--
consc--
conse--
consp--
const--
consum--
cont--
conta--
contra--
contri--
conv--
conva--
conver--
cool--
coor--
cor--
coro--
corp--
cos--
cov--
cr--
cra--
crack--
crafts--
crav--
cre--
crem--
cres--
crev--
cri--
cro--
cru--
cruc--
crum--
cuc--
cuf--
cul--
culmi--
cum--
cun--
cunqurfa--
cuqqaa--
cur--
cus--
cuu--
cuuph--
cy--
d--
da--
daa--
daadi--
daan--
daange--
dab--
dabar--
dad--
dadhab--
daf--
dag--
daga--
dal--
dam--
dan--
dand--
danda--
dange--
dar--
day--
dazz--
de--
dead--
deb--
dec--
decel--
decor--
dedi--
deduc--
dee--
deeggar--
deem--
def--
defe--
defi--
defoli--
deg--
degge--
dehydr--
dele--
deli--
delibe--
delin--
dem--
demo--
demonst--
den--
denomi--
dep--
depre--
der--
des--
desp--
dev--
deva--
develo--
dh--
dha--
dhaa--
dhaam--
dhab--
dhaggeef--
dham--
dhaq--
dhaw--
dhay--
dhe--
dhed--
dhee--
dhi--
dhiph--
dhiq--
dhiy--
dhiyees--
dho--
dhok--
dhor--
dhuf--
dhug--
dhuk--
dhukkubsatt--
dhum--
dhun--
dhuukuub--
dhuun--
di--
dia--
dib--
dic--
did--
diff--
diffe--
dii--
diid--
diim--
dil--
dimen--
dimi--
dimimm--
dimok--
din--
dinq--
diq--
dir--
diriir--
dirq--
dis--
disagree--
disap--
disc--
discipl--
disco--
discom--
discre--
disem--
disen--
disgu--
dish--
disin--
disinte--
disinteg--
disor--
disp--
dispro--
disput--
dissi--
disso--
dist--
distri--
div--
diver--
do--
dock--
dod--
dog--
dok--
dokta--
dol--
domi--
don--
door--
dor--
dorgo--
down--
doy--
dr--
dra--
draw--
dre--
dribb--
driv--
du--
dub--
dubbach--
dud--
dugu--
dul--
dull--
dun--
dupli--
dur--
dust--
duu--
dy--
dys--
e--
ear--
ec--
eco--
econo--
ed--
ee--
eeg--
eer--
ees--
ef--
egg--
eigh--
ejje--
el--
ele--
elek--
elekti--
elektiro--
elimi--
ellek--
elo--
eluc--
em--
ema--
emascul--
emb--
eme--
emer--
emol--
emp--
emul--
en--
enc--
end--
endo--
eng--
ens--
ent--
enth--
env--
ep--
epi--
epide--
equ--
equi--
er--
eradi--
es--
escal--
eso--
est--
et--
ete--
eup--
eut--
ev--
eva--
evapor--
ex--
exasper--
exc--
exca--
excl--
excre--
exe--
exemp--
exh--
exha--
exhaus--
exhila--
exi--
exo--
exp--
expe--
expec--
experi--
expi--
expl--
expli--
explic--
explo--
expos--
ext--
extemp--
extra--
extram--
eye--
f--
fa--
faa--
faar--
faasi--
faax--
faci--
facili--
fact--
fag--
fagaa--
fakk--
fal--
fan--
fanni--
fannifa--
far--
farm--
fas--
fasc--
fat--
fav--
fay--
fayy--
fe--
fel--
feli--
fen--
fer--
ferv--
fet--
fi--
fid--
fift--
figu--
fii--
fil--
fila--
fin--
finan--
fincil--
fir--
fire--
fis--
fit--
fitaw--
fix--
fl--
fla--
flagel--
flan--
flash--
flav--
flirta--
flo--
flood--
flu--
fluctu--
fly--
fo--
fool--
foot--
fooyy--
for--
fore--
foren--
forni--
forth--
fos--
four--
fox--
fr--
fra--
frac--
frag--
fran--
fre--
free--
fri--
fro--
frog--
frust--
fud--
fuf--
fug--
ful--
fumi--
fun--
func--
fur--
furio--
fus--
fut--
fuu--
g--
ga--
gaa--
gaach--
gaay--
gaazex--
gab--
gabay--
gabra--
gad--
gadhi--
gag--
gagge--
gai--
gal--
gam--
gamb--
gan--
gand--
gang--
gar--
gara--
gas--
gata--
gate--
gaz--
ge--
gee--
geeddar--
geef--
geej--
gees--
geg--
gegeeddar--
gegge--
gel--
gen--
gent--
geo--
geolo--
ger--
gha--
gi--
gib--
gibbe--
gid--
gii--
gil--
giloobiyul--
gin--
gir--
git--
gl--
gla--
glam--
gle--
gli--
glo--
glut--
glyco--
gno--
go--
gob--
god--
gog--
gogg--
gol--
gold--
gom--
gon--
goo--
goon--
gor--
gos--
gow--
gowooms--
goww--
gr--
gra--
grav--
gre--
gri--
grizz--
gro--
grud--
grumb--
gu--
guba--
gubin--
gud--
guddi--
gude--
gul--
gulaa--
gum--
gun--
gur--
gurgu--
gurguram--
gut--
guut--
guyy--
gy--
gymna--
gynaeco--
h--
ha--
haa--
haasof--
haayila--
hab--
habi--
hack--
hae--
haemorr--
hagu--
haguug--
hair--
haj--
hal--
ham--
hamm--
hamma--
han--
hand--
hang--
hanq--
hapha--
har--
hard--
has--
hat--
haw--
haww--
hawwa--
hay--
hayy--
haz--
he--
head--
heat--
hec--
hedge--
heel--
hel--
hem--
hemorr--
her--
here--
hesit--
hete--
hey--
hi--
hic--
hide--
high--
hii--
hiik--
him--
hin--
hind--
hip--
hir--
hirri--
his--
hiyy--
ho--
hob--
hobb--
hoc--
hoj--
hojjatt--
hol--
home--
homo--
hoo--
hooggan--
hook--
hop--
hor--
hord--
hot--
house--
hub--
hud--
hul--
hum--
hump--
hun--
hunch--
hur--
hus--
hust--
huu--
huuqq--
huur--
hy--
hydr--
hydro--
hygi--
hyper--
hypo--
i--
ib--
ibi--
ice--
id--
idaayy--
idio--
idol--
if--
ifu--
ig--
igno--
ignor--
ii--
ija--
ijol--
il--
ila--
illit--
im--
imal--
imi--
imm--
immedi--
immer--
imp--
impass--
impe--
impec--
impedi--
impen--
imper--
impla--
imple--
impo--
impor--
impos--
impreg--
impres--
impri--
in--
ina--
inacc--
inadver--
inaug--
inc--
incarce--
incin--
incomp--
incompre--
incon--
incub--
inde--
indec--
inden--
indi--
indig--
indis--
indisc--
indo--
indone--
indu--
ine--
inebri--
inef--
inev--
inex--
inf--
infe--
infilt--
infla--
ing--
inge--
inha--
inimi--
initi--
inj--
inji--
injifat--
injine--
innum--
inocul--
inoper--
inqu--
insc--
inse--
insen--
inst--
insti--
instr--
instruc--
insu--
int--
intemp--
intenti--
inter--
inv--
inva--
invalid--
inves--
investi--
invi--
invigi--
inviol--
iodi--
ir--
iron--
irre--
irrele--
irri--
is--
iskoot--
iso--
isol--
isti--
it--
itin--
itt--
itti--
ityoo--
j--
ja--
jaal--
jaarma--
jac--
jack--
jag--
jaj--
jal--
jalli--
jalq--
jar--
jaun--
je--
jee--
jeeq--
jer--
ji--
jib--
jibbi--
jig--
jij--
jiji--
jijji--
jil--
jin--
jir--
jire--
jirji--
jo--
job--
joo--
joor--
jor--
joy--
ju--
jub--
jud--
judi--
jugg--
junc--
juni--
jur--
juu--
juuli--
k--
ka--
kaa--
kaan--
kaapit--
kaar--
kaffa--
kaje--
kam--
kan--
kar--
kara--
karo--
ke--
ker--
ket--
key--
kha--
khali--
ki--
kii--
kil--
kili--
kin--
kire--
kirist--
kit--
kita--
kla--
klepto--
ko--
kol--
kolo--
kolone--
koloneef--
koloneeffat--
komi--
komp--
konti--
koo--
koopp--
kor--
kro--
ku--
kub--
kuff--
kur--
l--
la--
laa--
laal--
lab--
lac--
lace--
lad--
lady--
lag--
lak--
lam--
lamp--
lan--
land--
lap--
lar--
las--
lat--
laud--
laun--
lav--
law--
lax--
lay--
le--
lec--
led--
lee--
leen--
left--
leg--
leng--
les--
leu--
lev--
lexi--
lexico--
li--
libe--
life--
light--
lil--
lim--
lin--
lini--
liqee--
liqi--
liqims--
lis--
lit--
lite--
liti--
lixx--
lo--
lob--
loc--
lod--
log--
lol--
lone--
long--
loo--
lop--
love--
low--
lub--
luc--
lum--
lun--
luqq--
lur--
lustf--
luu--
luxuri--
ly--
m--
ma--
maa--
maamil--
maan--
maar--
maari--
maary--
mac--
mace--
mach--
mad--
mag--
magi--
magni--
mail--
main--
mal--
male--
malig--
mam--
mamm--
man--
manipul--
manz--
maq--
mar--
mas--
mast--
mat--
mathe--
maur--
max--
maxi--
maxx--
maxxanfa--
maxxansii--
may--
me--
meas--
mech--
medd--
medi--
mee--
mega--
mel--
melan--
mem--
memo--
memorandum--
men--
mer--
merc--
merci--
mes--
mete--
metic--
mi--
mic--
miccii--
micro--
micros--
mid--
midw--
mii--
miid--
miilii--
mil--
mili--
miliq--
milli--
min--
mind--
mine--
mini--
mir--
mirkan--
mirq--
mis--
misbe--
misk--
misre--
mist--
misunder--
miti--
mix--
mo--
moder--
mog--
mol--
molok--
mon--
mono--
monst--
moo--
moon--
moor--
moozaambik--
mor--
mormi--
mort--
mos--
moti--
motumm--
mu--
muc--
mucuca--
mud--
mug--
muk--
mul--
multi--
munic--
mur--
murxuxx--
mus--
musk--
must--
muti--
muud--
my--
n--
na--
naa--
nag--
nah--
nam--
narcis--
navi--
ne--
near--
nec--
neces--
neck--
needle--
neezer--
neg--
negli--
negoti--
neigh--
net--
neur--
new--
news--
ni--
nick--
night--
nim--
no--
noc--
nomi--
non--
not--
note--
now--
nu--
nuff--
nug--
num--
nur--
nutri--
ny--
nya--
nyaach--
nympho--
o--
ob--
obli--
obs--
obsc--
obse--
obser--
obso--
obst--
obtr--
obvio--
oc--
occ--
occa--
occup--
ocul--
od--
odd--
odeef--
odees--
odi--
odo--
of--
off--
ofi--
oil--
okk--
ol--
oly--
ome--
omni--
on--
oo--
oof--
ool--
oomish--
oord--
op--
oper--
ophthalmo--
opp--
oppor--
opt--
opti--
or--
ordi--
org--
orgaanizi--
ori--
orkes--
oromi--
orth--
os--
osc--
ost--
otto--
out--
ov--
over--
ovul--
ow--
ox--
p--
pa--
paa--
paarti--
paaw--
pac--
pal--
pala--
pales--
palli--
palp--
pamph--
pan--
pap--
par--
para--
pass--
pat--
patri--
pay--
pe--
pea--
pec--
peev--
pen--
penet--
per--
peram--
pere--
peri--
perpet--
perse--
pes--
pessi--
pet--
petro--
petti--
ph--
phi--
phila--
philo--
phy--
physio--
pi--
pic--
pidd--
pie--
pig--
pilfe--
pill--
pimp--
pin--
pipe--
piri--
pis--
pit--
pitchb--
piti--
pl--
pla--
plac--
plagi--
plat--
play--
ple--
pleas--
plen--
pli--
pne--
po--
poig--
pol--
poli--
polli--
poly--
pon--
pontifi--
poo--
por--
port--
pos--
post--
pot--
poul--
poun--
prac--
prag--
pre--
prec--
precip--
predes--
predi--
predomi--
pree--
prefe--
prejud--
prem--
preoc--
presc--
pri--
privi--
pro--
proce--
profes--
propa--
pros--
prose--
prost--
provo--
prud--
pse--
psy--
psychi--
psycho--
publi--
pud--
pul--
pum--
pun--
punc--
punctu--
pup--
pur--
purp--
push--
put--
putre--
py--
q--
qa--
qaa--
qab--
qac--
qacar--
qaje--
qajeel--
qal--
qam--
qan--
qaq--
qar--
qarq--
qax--
qay--
qee--
qeeso--
qi--
qin--
qinde--
qindees--
qis--
qo--
qoc--
qond--
qoo--
qood--
qoon--
qoph--
qoq--
qoqqo--
qor--
qorat--
qorich--
qu--
qua--
quadr--
quar--
qub--
qui--
qulqullees--
qumm--
qun--
quo--
qur--
qusa--
quun--
qux--
r--
ra--
raa--
raab--
raaje--
raay--
rac--
race--
radio--
rag--
rai--
rail--
rain--
rakk--
rakkin--
ram--
ran--
rap--
ras--
rat--
rav--
razz--
re--
rea--
read--
rec--
recap--
rece--
recept--
recipro--
reco--
recom--
recon--
recru--
recti--
recup--
ree--
reeqq--
ref--
reflec--
refrige--
reg--
regi--
regu--
regur--
rehabi--
rein--
reji--
rejo--
rel--
rele--
reli--
relo--
rem--
remun--
reno--
rep--
reput--
requ--
resi--
resp--
respon--
ret--
retali--
retro--
rev--
rhe--
rhy--
ri--
rick--
rifa--
rika--
rincic--
ring--
riv--
ro--
road--
rom--
roor--
roorri--
rot--
ru--
rud--
rudi--
ruk--
rukut--
rum--
run--
rup--
rus--
rust--
ruth--
ruu--
s--
sa--
saa--
saal--
saams--
saay--
sab--
sac--
sacch--
sacri--
sad--
saga--
sai--
sal--
sale--
sales--
salph--
salt--
salva--
san--
sand--
sap--
sar--
sara--
sard--
sati--
sav--
saw--
sax--
sc--
scab--
scaff--
scar--
scav--
sce--
sch--
sche--
scho--
sco--
scoo--
score--
scr--
scre--
scri--
scribb--
scro--
scrup--
scrut--
scul--
se--
sea--
sec--
seces--
secl--
secul--
sedi--
see--
seel--
seen--
seg--
segre--
seismo--
sel--
selec--
semi--
sen--
sene--
sensati--
sequ--
ser--
sere--
servi--
set--
sev--
sew--
sex--
sh--
sha--
shaa--
shab--
shag--
shame--
share--
she--
sher--
shi--
shig--
shimi--
ship--
sho--
shoe--
shop--
shoror--
show--
shub--
shuf--
shum--
shun--
si--
sib--
sid--
side--
sigigaa--
sii--
sim--
simul--
sin--
siq--
sir--
sirrees--
six--
sk--
ske--
skel--
ski--
sky--
sl--
sla--
sli--
slip--
slo--
slob--
slug--
slum--
small--
smi--
smok--
smugg--
sna--
snap--
sni--
snow--
snu--
so--
soci--
sod--
sol--
solic--
som--
somb--
some--
son--
song--
soo--
soof--
soovi--
sop--
soph--
soq--
sor--
sos--
south--
sove--
sp--
spa--
spar--
spe--
spec--
spect--
spectac--
specul--
spell--
sph--
spi--
spl--
spokes--
spon--
sprink--
sq--
squ--
sque--
st--
sta--
stag--
stair--
stam--
stand--
star--
ste--
steno--
step--
ster--
stet--
sti--
stig--
stimul--
stipul--
sto--
stoc--
stop--
store--
str--
stre--
stri--
strike--
stub--
stup--
sty--
su--
sub--
subst--
suc--
succ--
sud--
suff--
suffo--
sul--
sulph--
sum--
sun--
sup--
super--
supp--
supple--
suppli--
sur--
surpri--
surre--
susce--
suup--
sw--
swa--
sy--
syl--
symbo--
symp--
syn--
syndi--
t--
ta--
taa--
taas--
taay--
tab--
tac--
tacti--
tail--
tal--
tan--
tar--
tas--
tast--
tax--
te--
tea--
tech--
techni--
tee--
tees--
tele--
temp--
temprech--
ten--
ter--
terri--
tes--
tet--
th--
the--
there--
thermo--
thir--
thorough--
thum--
thunder--
ti--
tib--
tick--
tig--
tik--
til--
tilma--
tim--
time--
tin--
tir--
tiraa--
tiraak--
to--
todd--
tok--
tokk--
tol--
tole--
tom--
ton--
top--
tor--
torp--
tour--
tr--
tra--
trac--
tran--
trans--
transac--
transc--
transce--
transg--
transit--
trap--
tre--
treac--
tren--
tri--
trian--
triumph--
tro--
tru--
trum--
tu--
tun--
tuq--
tur--
turn--
tuul--
tw--
twe--
twis--
ty--
typ--
type--
typo--
tyran--
u--
ub--
ud--
uf--
ug--
uk--
ukkaam--
ul--
ulul--
um--
uma--
umb--
un--
una--
unab--
unac--
unans--
unb--
unbe--
unce--
unco--
uncon--
unde--
under--
undis--
unemp--
ung--
uni--
univer--
unpre--
unr--
uns--
unsc--
unst--
unt--
unta--
unw--
up--
upp--
ur--
us--
usmaay--
ut--
uti--
utili--
uu--
uumm--
uur--
uure--
uw--
uww--
v--
va--
vaaleenshi--
vac--
vacill--
vacuo--
vale--
valen--
van--
vap--
var--
vari--
ve--
veget--
vehe--
vel--
ven--
veno--
venti--
ver--
vermi--
verte--
verti--
ves--
vesti--
vet--
vex--
vi--
vic--
view--
vigi--
vill--
vine--
viol--
viri--
virtu--
vis--
visu--
vit--
viti--
vitu--
viv--
vo--
voc--
vocat--
vol--
vool--
vor--
voya--
vul--
w--
wa--
waa--
waac--
wag--
wal--
wali--
walk--
wall--
walqun--
wan--
waq--
war--
was--
wash--
water--
way--
wayy--
we--
wed--
wee--
weel--
wei--
whe--
whim--
whirl--
whis--
wi--
wick--
wies--
wild--
win--
wind--
with--
wo--
won--
wood--
wor--
work--
worm--
worth--
wrang--
wre--
wret--
wrink--
x--
xa--
xaa--
xeno--
xi--
xii--
xiin--
xiinx--
xiq--
xiqq--
xiqqees--
xo--
xum--
xur--
xuux--
xuuxx--
y--
ya--
yaa--
yaab--
yaach--
yaad--
yal--
yan--
yar--
ye--
yeel--
yihud--
yo--
yok--
yoo--
yunivar--
yus--
yuu--
yuunivar--
yuuniver--
z--
za--
zaam--
ze--
zen--
zi--
zikk--
zo--
zoo--
zy--
ا--
ال--
ب--
ح--
س--
ض--
ع--
عل--
ل--
م--
ن--
و--
በ--
የ--
--0
--1
--2
--3
--4
--5
--51
--6
--7
--76
--8
--9
--91
--94
--a
--aa
--aale
--aan
--aawwii
--aba
--able
--ably
--ac
--ach
--ache
--acious
--act
--acy
--ad
--ade
--af
--ag
--age
--agus
--ah
--aic
--ail
--ain
--aire
--ak
--ake
--aker
--aky
--al
--ala
--alee
--alism
--ality
--all
--ally
--am
--ama
--ame
--amp
--amu
--an
--ance
--ancy
--andi
--ane
--anii
--ant
--antry
--ap
--apy
--ar
--ara
--ard
--ariat
--arkable
--arm
--arnate
--arri
--ary
--as
--asa
--asaa
--ase
--asee
--asm
--ast
--astuu
--asu
--asuu
--at
--ate
--ated
--ath
--atic
--ation
--ative
--ator
--atory
--atti
--atu
--aty
--au
--ave
--aver
--aw
--away
--ax
--axe
--ay
--ayimii
--az
--b
--ba
--baa
--back
--bag
--ball
--ban
--banni
--bar
--base
--bba
--bbannee
--bbii
--bdu
--bduu
--be
--beam
--beat
--bee
--bent
--ber
--berry
--bery
--bi
--bia
--bicha
--bid
--bii
--bility
--bit
--ble
--bling
--bly
--bni
--boat
--bow
--box
--boy
--bread
--bridge
--brow
--bsa
--bsuu
--burn
--bus
--buu
--by
--c
--caa
--cap
--cast
--cat
--cate
--cated
--cation
--ccuu
--ce
--ced
--cee
--cence
--cend
--cent
--cer
--ch
--cha
--chaa
--chan
--cher
--chery
--chi
--chiisaa
--chiistuu
--chiisu
--chiisuu
--ching
--chise
--chu
--chuf
--chun
--chuu
--chy
--cide
--cient
--cii
--cil
--cious
--cism
--cit
--cize
--ck
--cker
--ckers
--cket
--cks
--cky
--cle
--co
--coach
--coat
--cock
--con
--cosm
--cover
--cracy
--craft
--cs
--ct
--cted
--ctic
--ction
--ctive
--ctor
--ctory
--cts
--cule
--cut
--cuu
--cy
--d
--da
--daa
--dable
--dal
--dalize
--dam
--dan
--dash
--day
--ddaa
--ddee
--ddi
--ddii
--ddle
--ddly
--ddu
--dduu
--ddy
--de
--ded
--dee
--dem
--den
--dency
--der
--dew
--dge
--dha
--dhaa
--dhaaf
--dhaan
--dhaf
--dhan
--dhe
--dhee
--dhu
--dhuma
--dhumatti
--dhuu
--di
--dic
--dict
--dii
--din
--ding
--dium
--dle
--dly
--dne
--do
--dock
--dog
--dom
--doo
--dor
--down
--dox
--ds
--du
--duu
--dy
--e
--ea
--eal
--ected
--ed
--edly
--ee
--eer
--eering
--ef
--eful
--efy
--eh
--ek
--el
--ele
--elf
--elier
--ely
--em
--emble
--eme
--emia
--en
--ena
--ence
--ency
--ened
--eni
--enii
--ening
--ense
--ensive
--ent
--ental
--entate
--entation
--enturous
--eon
--eous
--eously
--ep
--epy
--er
--era
--ere
--ered
--erence
--erial
--eric
--erii
--eriin
--erly
--ern
--erness
--eroo
--erous
--erry
--ers
--erse
--ert
--ery
--es
--escent
--ese
--ess
--essa
--essu
--essuu
--est
--estible
--esy
--et
--eta
--ete
--etic
--etii
--etta
--ette
--etti
--ety
--eur
--euver
--eve
--evil
--ew
--ex
--ey
--ez
--eze
--f
--fa
--faa
--fachuu
--fadhe
--fadhu
--fall
--fama
--faman
--fame
--famee
--famte
--famu
--famuu
--fan
--fannaa
--fanne
--fatame
--fatu
--fe
--fed
--fee
--feit
--ff
--ffama
--ffame
--ffamu
--ffannaa
--ffata
--ffatan
--fi
--fic
--fie
--fied
--fii
--fiyyuu
--fle
--fluous
--fly
--fne
--fold
--foo
--fox
--ft
--fte
--ftee
--ftu
--ftuu
--fu
--ful
--fulness
--fuu
--fy
--fying
--g
--ga
--gaa
--gala
--gant
--ge
--ged
--gee
--gen
--gent
--ger
--gery
--ges
--ggy
--gh
--ght
--ghty
--gi
--gia
--gii
--ginable
--ging
--gist
--givable
--gle
--gled
--gn
--gne
--gni
--go
--going
--gon
--goo
--gram
--gree
--gs
--gua
--gue
--gus
--guu
--gy
--h
--ha
--haa
--hal
--hall
--hamuu
--hand
--he
--head
--hed
--hee
--hel
--hem
--hii
--hilia
--hinii
--hip
--hize
--hold
--hone
--hoo
--hood
--hound
--ht
--hty
--hu
--huu
--hy
--i
--ia
--iac
--ial
--iality
--ian
--iar
--iary
--iastic
--ibility
--ible
--ic
--ica
--ical
--ice
--icious
--ick
--icle
--ico
--ics
--ict
--id
--ide
--idence
--ids
--iduous
--ie
--ied
--ient
--ier
--ies
--ieth
--if
--ification
--ify
--igh
--ight
--ign
--ii
--iidha
--iif
--iifi
--iin
--iiru
--iisuu
--ik
--ikii
--il
--ile
--ilii
--ility
--ilizer
--ilt
--ilty
--ily
--im
--ime
--iment
--in
--inate
--ination
--ine
--iner
--iness
--ing
--ingly
--ings
--io
--ion
--ionable
--ional
--ionate
--ious
--iously
--ip
--ir
--ire
--irk
--iroo
--iry
--is
--ise
--ish
--ism
--isor
--ist
--ister
--it
--itarian
--ite
--itii
--ition
--itious
--itis
--itive
--itoo
--itor
--itti
--itude
--ity
--ium
--ius
--ival
--ivation
--ive
--ived
--ively
--iver
--ivity
--ix
--iya
--iyaa
--iyemii
--ization
--ize
--ized
--izer
--izimii
--j
--ja
--jaa
--jee
--ji
--jii
--jin
--jjii
--joo
--joy
--k
--ka
--kaa
--ke
--ked
--kel
--ken
--ker
--kers
--kery
--kh
--ki
--kii
--kin
--kind
--kkoo
--kle
--ksii
--ku
--kuu
--ky
--l
--la
--laa
--lan
--land
--lanne
--lant
--lar
--lash
--lasm
--lass
--lation
--lay
--lcha
--lchaa
--lchi
--ld
--ldi
--le
--lect
--led
--lee
--leen
--lem
--len
--lent
--ler
--lerii
--less
--lessa
--let
--ley
--li
--lia
--lian
--lic
--lify
--light
--ligible
--lii
--liin
--lin
--line
--liness
--ling
--lingual
--lism
--lit
--lite
--lity
--lize
--lk
--lky
--ll
--lla
--lle
--llee
--lli
--llii
--llo
--lly
--lm
--lmi
--lo
--load
--log
--lor
--lorn
--lry
--ls
--lsi
--lt
--lte
--ltee
--ltuu
--lu
--lum
--luu
--lve
--ly
--lying
--lyze
--m
--ma
--maa
--maan
--maid
--mal
--man
--manned
--manship
--mark
--mason
--master
--mb
--mble
--me
--med
--mee
--ment
--mer
--met
--mi
--mic
--mii
--miin
--min
--mina
--minable
--mism
--mit
--mity
--mize
--mma
--mmaa
--mmaan
--mmii
--mmoo
--mmuu
--mn
--mne
--mneef
--mni
--mnu
--mo
--mon
--monger
--mony
--moo
--most
--mous
--mpt
--mpter
--ms
--msa
--msi
--msiisu
--msuu
--mte
--mtee
--mti
--mtoonni
--mtoota
--mtu
--mtuu
--mu
--mus
--muu
--muun
--my
--n
--na
--naa
--nable
--nacle
--nage
--nail
--nal
--nally
--nap
--nary
--nate
--nated
--nator
--ncaa
--nce
--nch
--ncy
--nd
--ndaa
--ndance
--nder
--ndi
--ne
--neck
--ned
--nee
--neen
--nel
--nen
--ner
--ners
--nery
--ness
--ney
--ng
--nga
--nger
--ngle
--ngy
--ni
--nia
--nial
--nic
--nier
--nified
--nii
--niif
--ning
--nious
--nis
--nist
--nitti
--niyaa
--nize
--nk
--nker
--nky
--nly
--nna
--nnaa
--nne
--nnee
--nni
--nnoo
--nnu
--nny
--no
--noo
--ns
--nsa
--nsaa
--nsi
--nt
--nta
--ntal
--nted
--nth
--ntic
--ntii
--ntive
--ntly
--ntoo
--ntric
--ntuu
--nu
--nuate
--nut
--nuu
--nx
--ny
--nym
--nza
--o
--ock
--od
--ody
--oe
--ofne
--ogen
--ogist
--ogy
--ok
--oke
--ol
--olar
--ole
--ologist
--ology
--om
--oma
--ome
--omii
--on
--oni
--onic
--onious
--onni
--ons
--ony
--oo
--oon
--oonii
--oonni
--oota
--ootaa
--ootni
--op
--ope
--oped
--or
--orate
--ordinate
--orn
--orous
--orse
--ort
--ory
--os
--ose
--osis
--osphere
--ot
--ota
--otaa
--ote
--otni
--oty
--ough
--ous
--ously
--out
--ovable
--ow
--oxxoo
--oy
--p
--pa
--paw
--pay
--pe
--ped
--pel
--per
--pet
--ph
--pha
--phaa
--phuu
--pia
--piece
--pin
--ping
--pit
--play
--ple
--plex
--ply
--pose
--poser
--pper
--pret
--ps
--pse
--psy
--pt
--ptive
--ptuous
--py
--q
--qa
--qaa
--qan
--qi
--qii
--qoo
--qu
--quat
--que
--quity
--quu
--r
--ra
--raa
--rable
--rack
--ract
--racy
--rage
--ral
--ran
--rance
--rant
--rate
--ration
--ratti
--ray
--rch
--rchy
--rd
--rdi
--re
--reach
--red
--ree
--reen
--rely
--ren
--rer
--res
--ress
--ret
--rf
--rgy
--ri
--ria
--rial
--rian
--ric
--ricide
--rick
--rics
--rict
--rie
--ries
--riff
--rii
--riin
--rism
--rity
--rium
--riyaam
--riyeem
--rize
--rj
--rk
--rky
--rl
--rly
--rm
--rmative
--rmed
--rmii
--rn
--rnity
--ro
--ron
--roo
--room
--rous
--rra
--rraa
--rraan
--rratti
--rre
--rree
--rri
--rrii
--rru
--rruu
--rry
--rs
--rsa
--rsaa
--rse
--rship
--rsi
--rsoo
--rsu
--rsuu
--rt
--rti
--rtonni
--rtuu
--ru
--ruct
--ructive
--rum
--rus
--rust
--ruu
--rve
--rvy
--ry
--s
--sa
--saa
--sake
--sal
--samu
--san
--sanii
--sation
--say
--screen
--scribe
--script
--scus
--se
--sed
--see
--sel
--sen
--senti
--ser
--serii
--ses
--sess
--sh
--shed
--shee
--sheet
--shii
--ship
--shoot
--shooter
--shot
--si
--sia
--sible
--sichaa
--side
--sii
--siin
--siisa
--siise
--siisu
--siisuu
--sile
--sion
--sis
--sisaa
--sive
--sively
--size
--sk
--skin
--slide
--sly
--sm
--sman
--sne
--snee
--sni
--so
--some
--son
--soo
--sor
--sore
--sota
--sp
--spect
--spective
--spout
--sque
--ss
--ssa
--ssaa
--ssary
--sse
--ssed
--ssi
--ssituu
--ssive
--ssor
--ssu
--ssuu
--ssy
--st
--staffed
--stee
--step
--ster
--stic
--ston
--stration
--struck
--stry
--stu
--stuu
--sty
--su
--suit
--suma
--sun
--suu
--suuf
--suun
--sy
--t
--ta
--taa
--table
--tain
--tal
--tama
--taman
--tamu
--tan
--tanii
--tar
--taraa
--tary
--tate
--tation
--tative
--tch
--te
--ted
--tee
--teen
--teenth
--tely
--ten
--tence
--ter
--tera
--teral
--terii
--tery
--tes
--tessuu
--tful
--th
--thic
--thy
--ti
--tial
--tiate
--tible
--tic
--tichi
--tician
--ticize
--tics
--tif
--tify
--tii
--tiif
--tiin
--tile
--tin
--ting
--tion
--tiraa
--tis
--tism
--tist
--tive
--tivity
--tize
--tle
--tled
--tling
--tly
--tni
--to
--ton
--tone
--tonni
--too
--toonni
--toota
--top
--tor
--toric
--tory
--tota
--tress
--tric
--tructible
--try
--ts
--tt
--tta
--ttan
--ttanii
--tte
--ttee
--tter
--tti
--ttii
--ttiin
--ttis
--tto
--ttoonni
--ttoota
--ttu
--ttuu
--tu
--tude
--tum
--tuous
--tuu
--tuuf
--tuun
--ty
--tyr
--tz
--u
--ual
--uation
--uck
--uct
--ud
--uda
--ude
--udha
--ue
--ueak
--uf
--ugal
--uit
--uitous
--uity
--ul
--ula
--ular
--ulate
--ulity
--ulous
--um
--uma
--ume
--umti
--un
--unate
--unately
--und
--unt
--untary
--uous
--up
--ur
--urb
--ure
--ured
--urious
--urize
--uroo
--ury
--us
--use
--ust
--ut
--ute
--uu
--v
--va
--vable
--val
--ve
--ved
--vel
--vene
--veness
--vention
--ver
--vern
--vert
--vi
--vii
--vil
--ving
--vior
--vity
--vo
--voke
--voy
--vy
--w
--wa
--waa
--ward
--ware
--wash
--watte
--way
--ways
--wd
--wdy
--we
--wee
--wi
--wide
--wii
--wit
--wk
--wl
--wn
--woo
--wood
--work
--works
--worthy
--wry
--ws
--wu
--wun
--wuu
--wwa
--wwachuu
--wwame
--wwan
--wwii
--x
--xa
--xe
--xi
--xii
--xoo
--xuu
--xxee
--xxii
--xy
--y
--ya
--yaa
--yan
--yard
--ye
--yed
--yee
--yer
--yessuu
--yi
--yii
--yilii
--yitis
--yoo
--yu
--yuu
--yya
--yyaa
--yyii
--yyuu
--z
--za
--zaa
--ze
--zed
--zee
--zi
--zii
--zon
--zz
--ء
--اء
--ات
--ب
--ة
--د
--دكتور
--ر
--ك
--ل
--م
--ن
--نحو
--ي
--يم
--ሆነ
--ሆኑ
--ሎክሶ
--ም
--ር
--ት
--ን
--ውሃ
--ዎች
