!
"
#
##0
##1
##10
##11
##12
##13
##14
##15
##16
##17
##18
##19
##2
##20
##21
##22
##23
##24
##25
##26
##27
##28
##29
##3
##30
##31
##32
##33
##34
##35
##36
##37
##38
##39
##4
##40
##41
##42
##43
##44
##45
##46
##47
##48
##49
##5
##50
##51
##52
##53
##54
##55
##56
##57
##58
##59
##6
##60
##61
##62
##63
##64
##65
##66
##67
##68
##69
##7
##70
##71
##72
##73
##74
##75
##76
##77
##78
##79
##8
##80
##81
##82
##83
##84
##85
##86
##87
##88
##89
##9
##90
##91
##92
##93
##94
##95
##96
##97
##98
##99
$
%
&
'
(
)
*
+
,
-
.
/
0
000
01
02
022056
03
04
05
06
07
08
09
1
10
100
1000
11
110
117
12
124
125
13
130
14
15
150
16
160
17
18
1857
1869
1899
19
1901
1913
1914
1917
1918
1919
1920
1928
1930
1937
1938
1940
1945
1946
1947
1948
1949
1950
1951
1953
1956
1957
1959
1960
1961
1962
1963
1964
1965
1966
1967
1968
1969
1970
1971
1972
1973
1974
1975
1977
1978
1980
1981
1982
1983
1984
1985
1986
1987
1988
1989
1990
1991
1992
1993
1994
1995
1996
1997
1998
1999
2
20
200
2000
2001
2002
2003
2004
2005
2006
2007
2008
2009
2010
2011
2012
2013
2014
2015
2016
2017
2018
2019
2020
2022
21
22
224
23
24
25
26
27
28
29
3
30
300
31
32
33
34
35
36
37
38
39
4
40
400
41
42
43
44
45
46
47
48
49
5
50
500
51
52
53
54
55
56
58
59
6
60
61
64
65
69
7
70
72
73
74
75
750
76
77
78
786686
79
8
80
800
81
8160
82
83
84
85
850
86
8601
87
88
89
9
90
91
93
95
96
97
978
9781787012394
9788123734859
9788183240468
98
:
;
<
=
>
?
@
[
\
]
^
_
a
about
access
accessdate
accessed
accessyear
act
ad
adhir
administration
affairs
africa
after
agency
agriculture
air
al
align
all
allowed
alpha
also
america
american
amsterdam
an
analysis
ancient
and
andhra
andover
ap
april
archive
archived
are
area
args
arsu
article
articleshow
as
ascr
asia
assam
assembly
at
attr
au
august
australia
author
authority
awards
b
background
bangladesh
bank
bbc
bc
be
been
between
bgcolor
bheem
big
bihar
biography
bjp
block
body
bold
book
books
border
box
bridge
britannica
british
buddhist
builder
bureau
business
but
by
c
can
cannot
case
cases
cbs
cdc
census
censusindia
center
centers
central
centre
century
ch
character
charge
chawla
chief
china
choudhury
chowdhury
cia
cite
cited
city
civil
claimed
class
climate
cm
cms
cnn
co
code
coefficient
college
color
colspan
columbia
com
commission
commissioner
committees
company
comprehensive
concept
congress
constituencies
constitution
contemporary
content
control
controlled
coordinates
coronavirus
council
countries
country
cov
creation
cricinfo
cricket
cricketarchive
css
culture
cup
d
dadra
data
date
david
day
de
dead
deadlink
dec
december
delhi
demographic
dengue
density
department
development
df
dictionary
disease
diseases
distribution
district
districts
division
dna
do
dravid
dynamics
e
eaefef
earthquake
east
economic
economics
economy
ed
edition
editor
education
election
else
em
emergency
emesco
en
encyclopedia
end
england
english
espn
espncricinfo
et
europe
eurostat
exploration
express
f
factbook
facts
factsheet
family
feb
february
feed
figures
file
firefox
first
football
for
foreign
formation
four
france
french
from
function
fund
g
gabinete
garo
gazette
general
geography
geohack
george
get
gets
gini
global
google
gopal
gov
government
govt
group
guide
gujarat
gutenberg
h
hand
haryana
has
have
haveli
hawaii
he
health
hill
hills
hindi
hindu
hindustan
his
history
home
how
hr
htm
html
http
https
human
hyderabad
i
ibn
icc
if
ii
important
imran
in
income
index
india
indian
indiatimes
info
infobox
information
insert
institute
int
intelligence
international
introduction
ipairs
ipl
irrfan
is
isabella
isbn
island
iso
it
italic
its
ittf
j
jagtial
james
jammu
january
jefferson
jharkhand
jnu
john
journal
jpg
july
june
k
kabaddi
kalpana
kashmir
kerala
key
khan
khowai
km
know
knowledge
ko
komaram
korea
kumar
kuru
kurukshetra
l
la
lal
land
landmark
lang
language
languages
lanka
lead
leader
left
legislative
leprosy
li
library
life
line
linguistic
link
list
listnp
listnpp
literature
liu
live
living
local
localbodies
london
lonely
lord
lower
lucknow
lyon
m
macmillan
madhya
malkajgiri
map
maps
march
markup
match
may
mays
me
medchal
medical
medicine
meghalaya
mergedrow
metatable
minerva
minister
ministry
minorities
minority
mismatch
mittal
module
monetary
more
most
municipal
muslim
my
mycobacterium
n
nagar
name
names
nasa
national
nations
ncov
nd
ndtv
nepal
net
new
news
newspapers
newton
nhlbi
nic
nl
no
noble
node
nodes
none
north
northeast
not
note
novel
november
nowrap
number
o
october
odi
of
office
official
officials
on
one
online
or
order
org
organization
os
otherwise
out
over
oxford
p
page
pagename
pakistan
parakeet
params
parent
parliamentary
part
past
pdf
people
per
php
place
planet
planning
player
players
pmc
pmid
pneumonia
political
polity
population
portal
post
potti
power
pp
practice
pradesh
present
president
press
prevention
primary
profile
programme
project
pronunciation
prop
psittacula
publications
publisher
publishing
punjabi
px
q
r
rahul
ramakrishna
rd
re
records
red
reddy
redirect
ref
reference
references
region
regional
registrar
related
religion
report
republic
research
ret
retrieved
return
richard
right
root
rule
rules
rural
s
salman
sanskrit
says
schedule
school
scorecard
second
section
see
sehwag
selected
september
series
service
set
sex
shah
sharma
shillong
shreyas
silvassa
singh
six
size
skin
smith
so
solar
sold
south
space
spread
sq
squad
sreeramulu
sri
st
state
states
statistical
statistics
status
story
stub
studies
study
style
styles
subdivisions
suchbir
summary
suresh
survey
system
t
ta
table
tag
tagname
takes
tamil
team
telangana
telugu
test
text
th
than
that
the
then
this
thomas
thumb
time
times
timesalert
title
to
today
tools
top
total
tour
tourism
town
tripura
trophy
trust
ts
type
u
uk
ulbharyana
un
under
union
united
university
unless
unsold
up
update
urdu
url
us
uttar
v
val
var
vcard
verma
version
vijay
virginia
virus
vol
von
w
war
was
washington
we
weather
web
website
west
which
white
who
why
width
will
with
wmflabs
women
world
wuhan
www
x
y
yang
year
years
york
you
z
zea
{
|
}
®
°
²
·
º
ʲ
ˈ
ː
̀
́
̃
̄
̆
̈
̌
̓
̔
̞
̧
α
β
ς
и
،
ا
و
ّ
ٓ
ٔ
ँ
ं
ः
अ
अइस
अइसन
अइसय
अईसन
अउर
अउरव
अऊर
अक
अकबर
अख
अखब
अग
अगर
अगरतल
अगल
अगस
अङ
अच
अछ
अज
अजन
अजय
अञ
अट
अटल
अठ
अड
अण
अत
अथव
अद
अध
अन
अनन
अप
अपन
अपर
अपस
अफ
अफग
अब
अबह
अभ
अभय
अम
अमर
अय
अर
अरब
अरव
अरवल
अरस
अल
अलग
अव
अवत
अवध
अवश
अवस
अवसर
अश
अष
अस
असत
असम
असर
असल
अह
अहन
अहमद
अहय
आ
आइ
आइब
आइसल
आई
आईप
आईस
आउट
आए
आओ
आक
आकर
आख
आग
आगमन
आगर
आच
आज
आजकल
आजमगढ
आट
आठ
आठव
आत
आद
आदम
आदर
आध
आन
आनन
आप
आपन
आपस
आफ
आब
आभ
आम
आमत
आय
आयरल
आर
आरएनए
आरक
आरम
आल
आव
आवत
आवश
आश
आष
आस
आसप
आसम
आह
इ
इऑक
इक
इकय
इकल
इग
इच
इज
इजर
इट
इटल
इटहर
इठ
इड
इडर
इण
इत
इथ
इन
इनक
इनकय
इनम
इनर
इनल
इप
इपर
इफ
इब
इबर
इम
इमन
इमर
इय
इर
इरफ
इरस
इल
इलब
इव
इश
इस
इसक
इसम
इसर
इसस
इह
ई
ईएसप
ईक
ईग
ईट
ईथ
ईथर
ईद
ईन
ईप
ईब
ईम
ईयर
ईर
ईल
ईश
ईस
ईसव
ईह
उ
उग
उच
उज
उजर
उठ
उड
उण
उत
उथ
उद
उदय
उदयप
उधम
उन
उनक
उनकय
उनम
उप
उपक
उपग
उपच
उपज
उपत
उपद
उपन
उपभ
उपम
उपमह
उपय
उपर
उपलब
उपस
उपह
उब
उम
उमर
उर
उल
उष
उस
उसक
उसन
उसम
उसस
उह
ऊ
ऊन
ऊप
ऊपर
ऊर
ऋ
ऋग
ऋत
ऋष
ऍन
ऍस
ए
एअर
एअरल
एक
एकठ
एकड
एकत
एकद
एकम
एकर
एग
एच
एज
एट
एड
एडम
एण
एत
एतन
एथ
एन
एनए
एनक
एनड
एनय
एनस
एप
एफ
एब
एम
एर
एल
एलन
एव
एवर
एश
एशन
एस
एसट
एह
एहक
एहकय
एहम
ऐ
ऐत
ऐन
ऐम
ऐल
ऐलन
ऐस
ऐसन
ऑक
ऑन
ऑफ
ऑर
ऑल
ऑस
ओ
ओआइ
ओक
ओकर
ओट
ओड
ओद
ओन
ओनक
ओनकय
ओब
ओम
ओर
ओल
ओव
ओस
ओह
औ
औद
औपच
और
औरह
औषध
औसत
क
कइ
कइक
कइकय
कइन
कइय
कइव
कइस
कई
कईक
कईय
कउन
कए
कक
कच
कछ
कज
कजर
कञ
कट
कटतम
कटर
कटवर
कठ
कड
कण
कत
कतम
कतर
कथ
कद
कदम
कन
कप
कपड
कफ
कब
कबड
कबह
कभ
कम
कमज
कमल
कमलप
कय
कर
करक
करण
करत
करन
करब
करम
करय
करव
कल
कलकत
कलन
कलप
कव
कवन
कवर
कश
कस
कसभ
कह
कहत
कहन
कहल
ख
खक
खग
खज
खड
खडगप
खण
खत
खतम
खतर
खद
खन
खनन
खब
खबर
खभ
खम
खय
खर
खरख
खल
खस
ग
गइय
गई
गए
गक
गकन
गज
गट
गटन
गठ
गठन
गठब
गड
गडम
गढ
गण
गणत
गणतन
गणन
गणर
गत
गथ
गद
गन
गप
गपत
गब
गबह
गभ
गम
गमत
गमन
गय
गर
गरण
गरम
गल
गलप
गलव
गव
गवत
गवर
गश
गस
गह
गहर
घ
घग
घट
घटन
घड
घन
घनत
घम
घर
घल
घव
ङ
ङर
च
चउथ
चक
चकत
चट
चटर
चड
चढ
चण
चत
चतम
चद
चन
चनप
चनर
चप
चम
चमड
चय
चयन
चर
चरख
चरण
चल
चलच
चलत
चलन
चव
चश
चस
चह
छ
छठ
छठव
छड
छत
छन
छप
छपर
छर
छल
छव
छह
ज
जइस
जइसन
जइसय
जक
जकर
जग
जगत
जगद
जगदग
जगन
जगह
जगहन
जङ
जट
जड
जण
जत
जध
जन
जनक
जनकप
जनगणन
जनज
जनत
जनपद
जनम
जनय
जनरल
जनल
जनव
जनवर
जनस
जनसत
जप
जपत
जफ
जब
जबक
जभ
जम
जमश
जय
जयद
जयन
जयप
जर
जल
जलप
जलव
जव
जवन
जश
जस
जह
झ
झज
झटक
झर
झरन
ञ
ट
टइ
टक
टकक
टकम
टकर
टज
टड
टत
टन
टनगर
टप
टब
टम
टर
टरन
टल
टव
टवर
टवल
टस
टसन
टहन
ठ
ठक
ठम
ठर
ड
डक
डकर
डग
डच
डत
डन
डप
डब
डबव
डम
डमड
डमर
डर
डरम
डल
डलन
डव
डस
डहर
ढ
ण
णक
णकट
णन
णप
णम
णय
णव
णस
त
तइय
तक
तकन
तग
तज
तट
तत
तथ
तद
तन
तनत
तप
तब
तम
तमब
तय
तर
तरक
तरण
तरत
तरद
तरन
तरप
तरफ
तरर
तरह
तल
तव
तवन
तवर
तश
तशत
तस
तसर
तह
तहट
तहत
तहर
तहस
थ
थक
थन
थनगर
थम
थय
थर
थरग
थरस
थल
थव
थश
थस
द
दइ
दक
दकत
दख
दग
दड
दत
दद
दन
दप
दब
दम
दमन
दय
दर
दरग
दरत
दरब
दरभ
दरल
दरव
दल
दव
दश
दशक
दशहर
दस
दह
ध
धइ
धक
धगद
धत
धन
धनक
धनगढ
धब
धम
धर
धरण
धरत
धरम
धल
धव
धस
न
नई
नए
नक
नकय
नख
नग
नगर
नगरप
नच
नज
नजद
नजर
नट
नड
नत
नतम
नद
नन
ननगर
नप
नब
नबर
नभद
नम
नमन
नमस
नय
नयर
नर
नरव
नरस
नल
नव
नवज
नवप
नवभ
नवम
नवर
नवरन
नश
नष
नस
नसन
नसभ
नसम
नसर
नह
नहर
नऽन
प
पक
पकड
पकर
पकव
पगढ
पच
पछ
पञ
पट
पटन
पठ
पड
पढ
पण
पत
पतन
पद
पदम
पन
पनस
पप
पब
पम
पय
पयर
पर
परक
परच
परज
परत
परद
परध
परन
परबत
परभ
परम
परय
परव
परश
परस
पल
पलवल
पव
पवन
पश
पष
पस
पसम
पह
पहच
पहल
फ
फइल
फक
फड
फत
फर
फरनगर
फरल
फरवर
फल
फलस
फसल
ब
बई
बक
बकध
बख
बग
बच
बचपन
बज
बजट
बट
बड
बडहन
बढ
बत
बथन
बद
बदल
बन
बनड
बनत
बनन
बनब
बनय
बनरझ
बनल
बनव
बनस
बप
बम
बमनग
बय
बर
बरक
बरख
बरन
बरप
बरस
बल
बलर
बव
बस
बसन
बसब
बसय
बह
बहत
बहन
बहय
बहर
भ
भइय
भए
भक
भग
भगत
भगव
भगवतप
भगवद
भज
भट
भण
भद
भन
भय
भर
भरत
भरतप
भरप
भल
भव
भवन
भस
म
मई
मउत
मऊ
मक
मकबर
मख
मग
मगध
मङ
मच
मचन
मचर
मछर
मज
मजद
मजब
मट
मठ
मड
मण
मत
मतद
मतभ
मतलब
मथ
मद
मदत
मदद
मध
मधव
मन
मनइ
मनइन
मनई
मनईन
मनगर
मनम
मप
मफ
मब
मभ
मम
मय
मर
मरक
मल
मलय
मलहन
मव
मवर
मश
मशह
मस
मसह
मह
महज
महत
महन
महब
महर
महल
महस
य
यक
यकर
यच
यज
यट
यटक
यटन
यड
यण
यत
यतन
यथ
यद
यदर
यध
यन
यनक
यनकय
यप
यपद
यब
यबर
यभ
यभट
यम
यमन
यय
ययन
यर
यरड
यरत
यरस
यल
यव
यवस
यवह
यश
यस
यसभ
यसम
यह
यहम
यऽन
र
रइन
रई
रक
रकन
रकय
रकर
रख
रखण
रखत
रखन
रखप
रखरख
रग
रगढ
रगत
रघ
रङ
रच
रचण
रचन
रचय
रचर
रचल
रचलन
रज
रजक
रजभ
रठ
रड
रण
रणज
रणन
रत
रतम
रतवर
रथ
रथम
रद
रदर
रदरफ
रदह
रध
रन
रनगर
रनप
रप
रपत
रफ
रफल
रब
रबत
रबन
रबर
रभ
रम
रमई
रमण
रमद
रमश
रय
रर
रल
रव
रवर
रवरह
रश
रशवन
रशस
रष
रस
रसम
रसर
रसरत
रह
रहत
रहन
रहमप
रहय
रहर
रहल
रहव
रहस
रऽन
ल
लइ
लइक
लई
लक
लकड
लकय
लकर
लख
लखनऊ
लग
लगत
लगभग
लघ
लघर
लच
लचर
लज
लड
लत
लतप
लद
लन
लप
लब
लबर
लभ
लम
लय
लयन
लर
लल
लव
लवर
लवस
लश
लस
लह
लहन
लहर
लऽन
ळ
व
वइसय
वक
वकर
वग
वच
वज
वजन
वजह
वट
वड
वण
वत
वतन
वतम
वद
वध
वन
वनक
वनकय
वनड
वनन
वनम
वनस
वप
वफ
वभ
वम
वय
वर
वरग
वरण
वरर
वल
वलप
वलम
वव
वश
वस
वह
वहन
श
शक
शटल
शत
शतक
शद
शन
शनर
शनल
शप
शपथ
शब
शम
शर
शल
शव
शस
शह
शहर
ष
षक
षकर
षज
षण
षत
षद
षन
षम
षमत
षय
षर
षरत
षरन
षस
स
सउद
सक
सकत
सकन
सकरप
सकल
सख
सग
सगढ
सगर
सगरम
सङ
सङर
सच
सज
सट
सड
सडक
सत
सतक
सतप
सतव
सतह
सद
सदन
सदरम
सदस
सन
सनर
सप
सपन
सफ
सफल
सफलत
सब
सबक
सबर
सबस
सभ
सम
समक
समझ
समझय
समतल
समय
समर
समस
सय
सर
सरक
सरग
सरद
सरलत
सरस
सल
सलम
सव
सश
सशस
सस
सह
सहज
सहन
सहमत
सहय
सहर
सहव
सहश
सहस
ह
हक
हग
हज
हजह
हट
हड
हण
हत
हतक
हतर
हथ
हद
हन
हनम
हनस
हप
हफ
हब
हभ
हम
हमर
हमल
हय
हर
हरण
हरद
हरदम
हरप
हरल
हल
हव
हस
़
ा
ि
ी
ु
ू
ृ
ॅ
ॆ
े
ै
ॉ
ो
ौ
्
॑
।
॥
०
००
०००
०४
१
१०
१००
१०००
११
१२
१२०
१३
१४
१५
१५०
१६
१७
१८
१८१४
१८८२
१९
१९००
१९१९
१९३३
१९३५
१९४५
१९४७
१९५०
१९५३
१९५४
१९५६
१९६०
१९६१
१९६२
१९६६
१९६७
१९७०
१९७१
१९७२
१९७५
१९७६
१९७७
१९८०
१९८२
१९८३
१९८४
१९८५
१९८७
१९८८
१९८९
१९९०
१९९१
१९९२
१९९३
१९९४
१९९५
१९९७
१९९८
१९९९
२
२०
२००
२०००
२००१
२००२
२००३
२००४
२००५
२००६
२००७
२००८
२००९
२०१०
२०११
२०१२
२०१३
२०१४
२०१५
२०१६
२०१७
२०१८
२०१९
२०२०
२१
२२
२३
२४
२५
२५०
२६
२७
२८
२९
३
३०
३१
३२
३३
३४
३५
३६
३७
३८
३९
४
४०
४००
४१
४२
४३
४३४
४४
४५
४६
४९
५
५०
५००
५१
५२
५३
५५
५८
५९
६
६०
६००
६२
६४
६६
६७
६९
७
७०
७००
७१
७२
७४
७५
७६
७७
७९
८
८०
८१
८३
८५
८७
९
९०
९३
९४
९५
९६
९७
९८
९९
॰
ং
আম
আৰ
ই
ক
খ
গ
ছ
জ
ট
ঠ
ণ
ত
তৰ
থ
দ
ধ
ন
প
ব
ভ
ম
য
র
ল
শ
ষ
স
হ
়
া
ি
ী
ু
ূ
ৃ
ে
ৈ
্
ৰ
ৱ
ਬ
ਲ
ਾ
ੇ
க
ங
த
ன
ப
ர
வ
ஸ
ா
ி
ெ
ே
்
ం
క
గ
జ
ట
డ
త
ద
న
ప
బ
భ
మ
య
ర
ల
వ
స
ా
ి
ీ
ు
ూ
ె
ే
ొ
్
ರ
ಾ
್
་
្
​
‌
‍
‎
–
—
‘
’
“
”
•
…
‪
‬
′
″
₹
℃
↔
↷
−
③
④
⑦
⺀
⺄
⺆
⺈
⺊
⺌
⺕
⺝
⺸
⺼
⿰
⿱
⿲
⿳
⿴
⿵
⿶
⿷
⿸
⿹
⿺
⿻
〢
コ
ユ
㇁
㇂
㇄
㇇
㇈
㇉
㇓
㐁
㐄
㐅
㐌
㐫
㐬
㐭
㐮
㐱
㑒
㒵
㒸
㒼
㓁
㓞
㔾
㕛
㕣
㖾
㘝
㚅
㚇
㚔
㚘
㝉
㝡
㝴
㝵
㞋
㞢
㞷
㠩
㠭
㠯
㡀
㡭
㡿
㢲
㢴
㣇
㣺
㥯
㪅
㫄
㫐
㫒
㫺
㬅
㬎
㬥
㬰
㲋
㳄
㷠
㸒
㸚
㸦
㼌
㼲
㽞
㿟
䀠
䂞
䍃
䏍
䒑
䖍
䖒
䖝
䖵
䙴
䚻
䜌
䝿
䡛
䧹
䪞
一
丁
丂
七
丄
丅
丆
万
丈
三
上
下
丌
不
与
丏
丐
丑
专
且
丕
世
丘
丙
业
东
丞
丢
丣
两
严
並
丨
丩
个
丫
丬
中
丮
丰
丱
串
丵
丶
丷
丸
丹
为
主
丽
丿
乀
乂
乃
久
乆
乇
么
义
之
乌
乍
乎
乏
乐
乑
乔
乖
乗
乘
乙
乚
乛
乜
九
乞
也
习
乡
乳
乾
亀
亅
了
亇
予
争
事
二
亍
于
亏
亐
云
互
亓
五
井
亘
亚
亜
亞
亟
亠
亡
亢
交
亥
亦
产
亨
亩
享
京
亭
亮
亯
亰
亲
亳
亶
亷
人
亻
亼
亾
仁
今
介
仌
从
仐
仑
仒
仓
仕
他
付
仝
代
令
以
任
企
伊
伏
伐
休
会
伯
但
位
何
佘
余
作
佥
使
來
侈
侌
侖
侯
侵
便
保
俞
信
修
倉
倍
候
倠
備
僉
僕
儿
兀
允
兂
元
兄
充
兆
兇
先
光
兊
克
兌
免
兑
兒
兓
兔
党
兜
兟
入
全
兩
兪
八
公
六
兮
兰
共
关
兵
其
具
典
兹
兼
冀
冂
冃
冄
内
冈
冉
冊
冋
册
再
冎
冏
冐
冒
冓
冖
冗
冘
军
农
冝
冡
冥
冫
冬
冷
几
凡
凢
凵
凶
凷
凸
凹
出
函
凾
刀
刁
刂
刃
刄
刅
分
切
刍
刑
刕
刖
列
刘
则
初
別
利
别
到
制
刺
則
削
剌
前
剡
剽
劉
力
功
加
劦
助
劫
劳
劵
勃
勇
勉
勒
動
務
勞
勤
勹
勺
勻
勾
勿
匀
匂
包
匆
匈
匊
匋
匍
匕
化
北
匚
匝
匡
匪
匱
匸
匹
区
医
匽
匿
區
十
卂
千
卄
卅
卆
升
午
卉
半
卌
华
卑
卒
卓
单
卖
南
卜
卝
卞
占
卡
卢
卣
卤
卦
卩
卪
卬
卯
印
危
即
却
卵
卷
卸
卻
厂
厃
厄
历
厈
厉
厌
厓
厘
厚
原
厤
厥
厨
厭
厲
厶
厷
厸
去
厼
厽
叀
参
參
叅
又
叉
及
友
双
反
叐
发
叒
叔
叕
取
受
叚
叜
叟
口
古
句
另
叩
只
召
可
台
叱
史
右
叵
号
司
叹
吂
各
吅
合
吉
吊
吋
同
名
后
吏
向
吕
君
吝
吞
否
含
启
吳
吴
吹
吾
呂
呆
呈
告
员
呙
周
命
咅
和
咎
咠
咢
咨
咸
咼
哀
品
哉
員
哥
哲
唐
商
啇
問
啚
啬
啻
善
喜
喬
單
喿
嗇
噩
嚴
囊
囗
囘
囙
囚
四
回
囟
因
囧
囬
困
囱
囷
固
国
圂
圅
國
圍
圓
土
圡
圣
圥
在
圭
地
圶
圼
坐
坒
坚
坴
垂
垔
垚
埀
埋
埶
執
基
堂
堅
堆
堇
堯
塞
墨
壘
士
壬
壯
声
壳
壴
壹
壺
壽
夂
处
夅
夆
备
夊
夋
夌
复
夏
夒
夕
外
夗
夘
多
夜
夢
大
夨
天
太
夫
夬
夭
央
失
夲
头
夷
夸
夹
夻
夾
奂
奄
奇
奈
奉
奎
奏
奐
契
奓
奔
奚
奞
奠
奢
奥
奭
女
奴
奻
好
如
妄
妙
妟
妥
妻
妾
姑
委
姜
威
娄
婁
婴
嬰
嬴
子
孑
孔
孕
孖
字
存
孚
孛
孝
孟
季
孤
学
孫
孱
學
宀
宁
宂
它
宅
宇
守
安
宋
完
宏
宓
宗
官
定
宛
宜
宝
客
宣
室
宮
宰
害
家
容
宾
宿
寄
寅
密
富
寒
察
寧
審
寫
寬
寮
寸
对
寺
寻
寽
対
寿
封
尃
射
将
將
專
尉
尊
尋
尌
對
小
少
尒
尓
尔
尖
尗
尚
尞
尢
尣
尤
尧
尨
尭
就
尸
尹
尺
尻
尼
尽
尾
尿
局
居
屈
屋
屎
屏
屑
展
屖
屚
属
屠
屡
屬
屮
屯
屰
山
屵
屾
岁
岂
岑
岡
岩
岳
岸
峯
島
崇
崑
崔
崖
崙
崩
嵬
嶲
巂
巛
川
州
巟
巠
巢
巤
工
左
巧
巨
巩
巫
差
己
已
巳
巴
巷
巸
巽
巾
巿
帀
市
布
希
帚
帛
帝
带
師
席
帶
常
干
平
年
幵
并
幷
幸
幺
幻
幼
幽
幾
广
広
庄
床
底
店
庚
府
度
庫
庭
庶
康
庸
廉
廌
廛
廣
廩
廴
延
廷
建
廾
廿
开
弁
弃
弄
弇
弋
式
弓
弔
引
弗
弘
弜
弟
弥
弦
弱
張
強
强
彊
彌
彎
彐
彑
当
彔
录
彖
彗
彡
形
彥
彦
彧
彭
彳
役
彼
往
待
律
徒
得
徙
從
復
微
徵
心
忄
必
忌
忍
志
忝
忠
忩
快
念
忽
忿
思
怠
急
怱
恆
恒
恩
恭
息
悉
患
悤
悲
悶
惠
惡
惢
愁
愈
意
愛
感
慈
慧
慮
憂
憲
應
戀
戈
戉
戊
戋
戌
戍
戎
成
我
戒
戔
或
戚
戠
戢
截
戲
戶
户
戹
戼
戾
房
所
扁
扇
手
扌
才
打
托
执
承
折
拉
拜
拿
掌
推
提
摩
支
攴
攵
收
攸
改
放
政
敄
敏
敕
敖
敗
敝
敞
敢
散
敦
敫
敬
数
敷
數
斂
文
斉
斊
斗
斤
斥
斩
斬
斯
新
方
於
施
斿
旁
旋
族
无
旡
既
旣
日
旦
旧
旨
早
旬
旱
旲
时
旾
昆
昇
昌
昍
明
昏
易
昔
昗
昜
星
春
昬
是
昱
昴
昷
時
晃
晋
晏
普
景
晶
智
暑
暴
曇
曩
曰
曲
曳
更
曷
書
曹
曼
曾
替
最
朁
會
月
有
朋
服
朔
朕
朗
望
朝
木
朩
未
末
本
札
朮
术
朱
朵
朶
朿
杀
杏
杜
束
条
来
東
杲
杳
松
析
林
枚
果
枝
枲
枼
某
柔
查
柬
柰
柴
栗
桀
桑
桼
梁
條
梟
梨
棘
棠
棥
森
楚
業
楽
榮
樂
樊
欠
次
欣
欮
欲
欶
欽
款
歆
歇
歛
止
正
此
步
武
歨
歪
歮
歯
歰
歲
歴
歷
歸
歹
歺
死
殳
段
殷
殸
殹
殺
殻
殿
毋
毌
母
每
毒
比
毕
毚
毛
毳
氏
氐
民
气
氣
水
氵
氶
氷
永
氺
氾
求
汝
汞
江
沃
沓
沙
沝
泉
法
波
泣
泥
泰
洛
洪
活
派
流
浦
浪
浮
淡
淮
清
渚
渠
湯
滿
漸
火
灬
灭
灰
灵
灷
炅
炎
炏
炗
炙
炭
為
烈
烏
烝
焉
無
焦
焱
然
煞
熊
熏
燕
營
燮
爪
爫
爭
爯
爰
爱
爲
爵
父
爻
爽
爾
爿
片
牙
牚
牛
牜
牟
牢
牧
牪
牽
犀
犬
犭
犮
狂
狄
狊
独
狺
猋
猒
猪
献
獻
玄
率
玉
王
玟
玨
珎
班
琴
瑟
瑩
瓜
瓦
甘
甚
生
産
用
甫
甬
田
由
甲
申
电
甶
男
甸
甹
画
甾
畀
界
畏
畐
留
畜
畟
畢
畧
畨
番
畫
異
畱
當
畺
畾
疊
疋
疌
疑
疒
疾
癶
癸
癹
登
發
白
百
皀
皃
的
皆
皇
皋
皐
皕
皮
皷
皿
盃
盆
盇
盈
益
盍
盎
监
盒
盖
盛
盡
監
盤
盧
目
直
相
盾
省
眇
眉
看
眔
眞
真
眷
眼
眾
着
睘
睪
睿
瞏
瞢
瞿
矍
矛
矞
矢
矣
知
矦
短
石
破
碎
磊
磨
示
礻
礼
祟
票
祭
禀
禁
禸
禹
禺
离
禽
禾
禿
秀
秃
秉
秋
科
秝
秦
移
稟
穀
穌
穴
究
穹
空
穿
突
窄
窒
立
竒
竜
竝
竟
章
童
竹
笑
笠
筆
等
答
箕
算
箴
節
篤
篭
米
粉
粛
粟
粤
粦
粲
糞
糸
糹
系
約
納
素
索
紫
累
細
絜
絫
絲
維
綿
縣
繇
纍
纟
缶
网
罒
罔
罕
罗
罙
罡
罢
罪
署
罷
羅
羊
羌
羍
美
羔
羕
羗
羞
羡
羣
群
義
羲
羸
羽
翁
翏
習
翕
翟
翠
翼
老
耂
考
者
耆
而
耎
耑
耒
耳
耴
耶
耷
聂
聊
聖
聚
聶
聿
肀
肃
肅
肉
肖
肙
肥
肩
肯
育
肴
胃
背
胡
胥
能
脊
脩
膚
臣
臤
臧
自
臬
臭
臯
臱
至
致
臺
臼
臽
臾
臿
舀
舂
舄
與
興
舉
舌
舍
舛
舜
舞
舟
般
艮
良
色
艸
艹
艾
芒
芔
芬
芮
花
芳
芺
芻
苔
苗
苟
若
苦
英
茶
茸
荅
草
荒
荣
荼
莆
莧
莫
莽
菆
菊
菐
華
萬
落
葉
著
葛
董
葵
蒙
蒦
蒼
蓋
蓬
蓺
蔑
蔡
蕉
蕭
薄
薛
薦
薰
藍
藏
藥
蘭
虍
虎
虐
虒
虔
處
虖
虗
虘
虚
虛
虜
虞
虫
虽
蚤
蚩
蜀
蜜
蟲
蠡
血
行
衍
衛
衣
衤
表
衮
衰
袁
袞
褭
褱
襄
襾
西
覀
要
覃
見
規
覓
覧
親
覽
见
角
解
言
訁
訇
計
詹
誩
諸
讠
谷
豆
豈
豊
豐
豕
豖
豙
象
豦
豩
豪
豸
貇
貝
貞
貟
負
貢
貧
貪
貫
責
貳
貴
買
費
賁
資
賈
賏
賓
賔
賛
賞
賢
賣
質
賴
贊
贝
贡
责
贯
贲
贵
赖
赞
赤
赦
走
越
足
路
蹇
身
躬
車
軍
軎
軟
輦
车
辛
辜
辟
辥
辰
辱
農
辵
辶
边
达
过
近
连
迷
追
退
送
逆
逐
通
速
造
逢
連
逮
進
遀
遂
過
道
達
遣
適
遷
遺
邊
邑
邕
那
邦
邪
郎
部
郭
都
鄉
酉
酋
配
酓
釆
采
里
重
野
量
金
釒
錢
钅
長
镸
长
門
閃
閉
開
閏
閑
閒
間
閔
閵
閻
闌
门
间
闷
阑
阜
阝
阿
降
陳
隆
隊
隋
隡
隨
隱
隶
隹
隺
隻
隼
隽
难
雀
雁
集
雈
雋
雍
雐
雔
雙
雚
雜
雝
離
難
雨
雩
雪
雲
零
雷
需
震
霍
霜
霝
霞
霸
靈
靑
青
非
靡
面
靣
革
韋
韦
韭
韯
韱
音
頁
頃
項
須
頗
頡
頻
顛
页
風
风
飛
飞
食
飠
養
饣
首
香
馬
馮
駦
马
骨
高
髟
鬥
鬯
鬲
鬼
魚
魯
鮮
鱼
鲁
鳥
鳳
鸟
鹵
鹿
麃
麗
麥
麦
麻
黃
黄
黍
黎
黑
黒
黨
黹
黽
黾
鼎
鼓
鼠
鼻
齊
齋
齐
齒
齿
龍
龙
龜
龟
龠
龰
龱
龴
龵
龶
龷
龸
龹
者
艹
﻿
？
👇
𠀁
𠀃
𠀆
𠀉
𠀎
𠀐
𠁁
𠁣
𠂆
𠂇
𠂈
𠂉
𠂊
𠂋
𠂎
𠂒
𠂔
𠂛
𠂡
𠂢
𠂤
𠂬
𠂭
𠂹
𠃊
𠃋
𠃌
𠃍
𠃎
𠃑
𠃓
𠃔
𠃜
𠄌
𠄎
𠄠
𠄢
𠆢
𠆥
𠇍
𠈌
𠌵
𠓜
𠔉
𠔥
𠔼
𠔽
𠔿
𠕀
𠕁
𠕋
𠘧
𠘨
𠙻
𠙼
𠚏
𠚒
𠚤
𠚪
𠣏
𠤎
𠤕
𠥓
𠦄
𠦑
𠦝
𠧒
𠧗
𠧪
𠩺
𠪚
𠫓
𠫔
𠫤
𠬛
𠬝
𠬞
𠬢
𠬤
𠬶
𠮛
𠮦
𠮷
𠯑
𠱠
𠳮
𠷎
𡈼
𡉀
𡉵
𡌥
𡍮
𡏳
𡕒
𡕩
𡕰
𡖅
𡗗
𡗜
𡘆
𡘤
𡧱
𡨄
𡩧
𡬠
𡭽
𡰣
𡰥
𡰪
𡰯
𡰱
𡷈
𡸁
𡿨
𡿩
𡿪
𡿺
𢀖
𢀛
𢀩
𢁙
𢆉
𢆰
𢆶
𢇁
𢇇
𢉖
𢌬
𢌿
𢏚
𢑑
𢑚
𢖻
𢙣
𢛳
𢦏
𢦒
𢧵
𢼄
𢾕
𣁋
𣄼
𣅀
𣅽
𣍘
𣎳
𣎵
𣏋
𣏼
𣗥
𣥂
𣥖
𣦵
𣦼
𣧄
𣪊
𣪠
𣬉
𣳾
𣶒
𤇾
𤊽
𤐫
𤓰
𤔔
𤕨
𤣩
𤰇
𤰔
𤰞
𤴓
𤴔
𤽄
𥁑
𥁕
𥃦
𥃩
𥃭
𥇡
𥑟
𥘅
𥘈
𥝢
𥫗
𥱡
𦈢
𦉪
𦉬
𦉼
𦍌
𦍒
𦎧
𦐇
𦓔
𦔮
𦘒
𦙃
𦚏
𦣝
𦣞
𦣻
𦥑
𦥔
𦥯
𦨉
𦭝
𦰩
𧆞
𧈧
𧘇
𧰨
𧴪
𧴮
𧵩
𧾷
𨸏
𨾴
𩙿
𩠐
𩫏
𩵋
𪉷
𪜀
𪟽
𪠲
𪩲
𫇦
𫔭
𫜸
𫝀
𫠣
𫠩
𫢉
𫥞
𫩏
𫩠
𫪡
𫲽
𫶧
𬀷
𬐘
𬗌
𬙙
𬛸
𬜯
𬟩
𬯁
𬴘
𬺻
𬼉
𬼖
𭀰
𭁈
𭁨
𭅰
𭑈
𭕄
𭗼
𭤨
𭥫
𭻾
𮅕
𮊿
𮍌
𮍏
𮓗
𮥼
𮧮
廾
𰀁
𰀄
𰀈
𰀉
𰀕
𰀠
𰀡
𰀢
𰀪
𰁜
𰃮
𰆊
𰆘
𰋙
𰕎
𰢴
𰧭
𰯲
0--
10--
14--
15--
16--
18--
19--
6--
9--
a--
ad--
am--
ame--
an--
as--
astr--
b--
ba--
bang--
be--
beng--
bi--
bu--
bud--
c--
cal--
ch--
chr--
cl--
d--
dam--
de--
direc--
disp--
du--
e--
er--
eth--
f--
fi--
fo--
fr--
g--
ga--
gi--
h--
he--
her--
ho--
i--
im--
in--
ind--
j--
ja--
k--
kar--
ko--
l--
la--
le--
m--
ma--
mad--
me--
mi--
mo--
n--
ne--
no--
o--
orig--
p--
pa--
pac--
par--
po--
pr--
pub--
qu--
r--
raj--
re--
ro--
s--
sa--
sci--
sh--
si--
so--
spe--
st--
stu--
t--
tech--
territ--
th--
tr--
tu--
us--
v--
vi--
vil--
vir--
w--
wh--
wick--
y--
z--
अ--
अज--
अस--
आ--
आई--
इ--
ई--
उ--
ऊ--
ऋ--
ए--
ऐ--
ऑ--
ओ--
औ--
क--
ख--
ग--
घ--
च--
छ--
ज--
जन--
जब--
जम--
झ--
ञ--
ट--
ठ--
ड--
डर--
ण--
त--
थ--
द--
दर--
दश--
ध--
नव--
प--
पट--
फ--
फर--
ब--
बन--
बल--
भ--
म--
मल--
य--
यण--
रम--
रह--
ल--
व--
वन--
श--
ष--
षय--
स--
ह--
ऽ--
०--
१७--
१८--
१९--
४--
५--
६--
७--
८--
९--
--0
--00
--1
--2
--3
--4
--5
--6
--7
--8
--9
--a
--age
--ai
--al
--ar
--ary
--at
--ay
--b
--c
--ce
--ck
--d
--ddy
--e
--ed
--ek
--ent
--er
--ern
--ers
--es
--ey
--f
--g
--ge
--gs
--h
--ha
--hi
--i
--ia
--ial
--ic
--id
--ies
--ight
--il
--io
--ion
--ir
--is
--j
--ji
--k
--kar
--ke
--l
--ld
--ll
--ly
--m
--ment
--ms
--n
--na
--ne
--ng
--ns
--nt
--nts
--o
--ok
--on
--or
--ore
--p
--pa
--q
--r
--ra
--ri
--rs
--s
--se
--t
--tan
--te
--ter
--times
--tion
--try
--u
--view
--w
--y
--इ
--ई
--ओ
--क
--ग
--गर
--ङ
--च
--ज
--ट
--ड
--ढ
--ण
--त
--थ
--द
--ध
--न
--प
--फ
--ब
--भ
--म
--य
--र
--ल
--व
--श
--स
--ह
--ऽन
--०
--१
--२
--३
--४
--५
--५७
--६
--६३
--७
--८
--८९
