!
"
#
##0
##1
##10
##11
##12
##13
##14
##15
##16
##17
##18
##19
##2
##20
##21
##22
##23
##24
##25
##26
##27
##28
##29
##3
##30
##31
##32
##33
##34
##35
##36
##37
##38
##39
##4
##40
##41
##42
##43
##44
##45
##46
##47
##48
##49
##5
##50
##51
##52
##53
##54
##55
##56
##57
##58
##59
##6
##60
##61
##62
##63
##64
##65
##66
##67
##68
##69
##7
##70
##71
##72
##73
##74
##75
##76
##77
##78
##79
##8
##80
##81
##82
##83
##84
##85
##86
##87
##88
##89
##9
##90
##91
##92
##93
##94
##95
##96
##97
##98
##99
$
%
&
'
(
)
*
+
,
-
.
/
0
00
000
002
003
007
01
012
02
025
03
04
05
050
06
07
07597
08
09
1
10
100
1000
101
102
1024
103
104
1046
105
106
10617
1066
107
108
109
11
110
1100
111
11116
112
113
114
115
1152
116
1164
117
118
119
12
120
1200
121
122
123
124
125
1250
1254
126
1266
127
128
129
13
130
1300
1304
1306
1309
131
1319
132
1321
133
134
1345
135
1350
1359
136
137
1376
138
1393
1397
1399
14
140
1400
1401
141
1415
1417
142
1426
1427
143
144
1445
145
1450
1453
1455
1458
1459
146
1460
1464
147
1472
1473
1475
148
1480
149
1492
1493
1498
15
150
1500
1501
1502
1506
151
1511
1512
1513
1515
1517
1518
1519
1520
1521
1523
1524
1526
1528
153
1530
1532
1533
1534
1535
1536
1537
1538
154
1540
1541
1542
1543
1545
1547
1548
1549
155
1550
1555
156
1560
1562
1564
1565
1568
157
1570
1575
1576
158
1580
1582
1586
1587
1588
159
1594
1595
1598
16
160
1600
1603
1604
1605
1606
1607
1608
1609
161
1610
1611
1612
1613
1614
1615
1616
1617
1618
1619
162
1620
1621
1622
1623
1624
1625
1626
1627
1628
1629
163
1630
1631
1632
1634
1635
1638
164
1640
1641
1642
1643
1645
1648
165
1650
1651
1652
1654
1657
166
1660
1662
1663
1664
1665
1666
1667
1668
1669
167
1670
1672
1674
1675
168
1685
169
1699
17
170
1700
1701
1703
1705
1706
1707
171
1710
1712
1713
172
1720
1721
1723
1725
1727
173
1732
1733
174
1740
1744
1747
1749
175
1750
1751
1754
1755
1756
1758
1759
176
1763
1764
1767
1768
1769
177
1770
1773
1775
1776
1778
1779
178
1780
1781
1782
1783
1784
1785
1786
1787
1788
1789
179
1790
1791
1792
1793
1794
1795
1796
1797
1798
1799
18
180
1800
1801
1802
1803
1804
1805
1806
1807
1808
1809
1810
1811
1812
1813
1814
1815
1816
1817
1818
1819
1820
1821
1822
1823
1824
1825
1826
1827
1828
1829
1830
1831
1832
1833
1834
1835
1836
1837
1838
1839
184
1840
1841
1842
1843
1844
1845
1846
1847
1848
1849
1850
1851
1852
1853
1854
1855
1856
1857
1858
1859
1860
1861
1862
1863
1864
1865
1866
1867
1868
1869
187
1870
1871
1872
1873
1874
1875
1876
1877
1878
1879
1880
1881
1882
1883
1884
1885
1886
1887
1888
1889
1890
1891
1892
1893
1894
1895
1896
1897
1898
1899
19
190
1900
1901
1902
1903
1904
1905
1906
1907
1908
1909
191
1910
1911
1912
1913
1914
1915
1916
1917
1918
1919
192
1920
1921
1922
1923
1924
1925
1926
1927
1928
1929
193
1930
1931
1932
1933
1934
1935
1936
1937
1938
1939
194
1940
1941
1942
1943
1944
1945
1946
1947
1948
1949
195
1950
1951
1952
1953
1954
1955
1956
1957
1958
1959
196
1960
1961
1962
1963
1964
1965
1966
1967
1968
1969
197
1970
1971
1972
1973
1974
1975
1976
1977
1978
1979
198
1980
1981
1982
1983
1984
1985
1986
1987
1988
1989
199
1990
1991
1992
1993
1994
1995
1996
1997
1998
1999
2
20
200
2000
2001
2002
2003
2004
2005
2006
2007
2008
2009
201
2010
2011
2012
2013
2014
2015
2016
2017
2018
2019
202
2020
2021
2022
203
204
206
207
209
21
210
213
215
216
22
220
2200
223
224
225
226
227
228
229
23
230
231
232
233
235
237
238
239
24
240
241
243
245
246
249
25
250
2500
251
253
254
256
257
259
26
260
262
268
269
27
270
2700
271
273
274
278
28
280
282
283
284
285
288
289
29
291
292
293
297
298
299
3
30
300
3000
302
304
30450
307
308
31
310
311
312
317
318
32
321
322
323
325
326
327
33
332
334
34
340
341
345
346
347
349
35
350
3500
351
353
355
356
357
36
360
364
365
367
368
37
370
371
372
373
375
378
38
380
381
383
385
387
389
39
390
391
393
394
395
396
398
4
40
400
4000
401
403
406
408
409
41
410
412
417
418
419
42
421
422
424
427
429
43
435
436
437
438
439
44
440
444
446
447
448
45
450
4500
458
46
461
47
48
484
485
488
489
49
492
497
499
5
50
500
5000
502
509
51
510
52
520
521
525
529
53
531
534
54
544
548
55
550
552
56
560
564
565
567
57
5789
58
580
583
586
587
59
590
596
598
6
60
600
6000
607
61
62
625
63
630
639
64
641
643
644
65
650
657
66
660
665
67
674
68
680
69
691
694
695
7
70
700
7000
71
714
716
719
72
73
734
74
743
746
749
75
750
76
762
768
77
772
777
78
785
79
792
7920
793
7963
8
80
800
8018
802
807
81
814
82
8289
83
84
843
85
855
86
860
865
869
87
870
88
88007
88441
89
89598
897
9
90
900
9000
91
92
921516
93
937467
94
95
950
96
966
97
978
98
99
:
;
<
=
>
?
@
[
\
]
^
_
`
a
aa
aachen
aaden
aal
aalda
aaln
aaltied
aaltiede
aaltouhoope
aan
aantje
aapel
aarhus
aaron
aaskengen
aasket
aaskje
aast
aastdu
aaste
aastelk
aastelke
aastelken
aasten
aasterhusen
aastersiede
aastersk
aasteuropa
aastfoan
aastfra
aastindien
aastkuste
aastpru
aastrauderfeen
aastriek
aastriekisk
aastriekiske
aastriekisken
aastrieksk
aastriekske
aastrieksken
aastsee
aaststellingwerf
aate
ab
abc
abe
abel
abels
aber
aberglaube
abgerufen
abies
abituur
aborigines
abraham
absolut
absolute
absolutismus
absorbierd
abstrakte
abstraktion
abt
abu
aceh
achte
aconcagua
actinoid
actium
ad
adam
adams
additive
addrup
adelheid
adenauer
adenin
adenosintriphosphat
ader
adjektiv
adjektive
adler
admiroal
adolf
adolph
adriatiske
ae
aeneis
aes
aesar
af
afd
affa
afghanen
afghaniske
afghanisken
afghanistan
afr
afrika
afrikoa
afrikoansk
afrikoanske
afro
afwa
ag
agatha
age
agglomeration
agricola
aguilar
ah
ahd
ahlrich
ahlrichs
ahmad
ai
ailound
ailounddialekte
ailounde
ailoundgruppe
ailoundkoppel
ailoundkoppele
ailoundstoat
aime
ain
ainewaine
aire
aires
ais
aiske
ait
aiter
aja
akademie
akademiske
akademy
akira
akroat
aktion
aktions
aktiv
aktive
aktivita
aktsjoon
aktuell
akzentuierjen
al
ala
alabama
alain
alamo
alan
alanin
alaska
alba
albanien
albert
alberto
albrecht
album
aldegea
aleenich
aleer
aleksandr
alessandro
alexander
alexandra
alexandre
alexandria
alfa
alfred
alfte
algemeen
algemeene
algemeenen
algerien
ali
alighieri
alkaloide
alkan
alkohol
alkoholiske
all
allan
alle
allebee
alleenich
alleenspieler
allegorien
allen
allende
aller
allerdings
allere
alleren
allerweegense
alles
alleweegense
allgemeine
allianz
alliierde
allinich
alliteratsjoon
almagro
alnus
alois
alonso
alpaka
alpen
alpha
alphabet
alphabetisk
alphen
als
alsa
also
alt
altaiske
alte
alten
altenburger
alter
alternative
altfriesisch
altied
altiplano
aluminium
alveste
alwen
am
amadeus
amateure
amazonas
ambacht
amdo
amdorf
ame
ameerega
amel
amelound
america
american
amerika
amerikoa
amerikoaner
amerikoanere
amerikoaniske
amerikoanisken
amerikoansk
amerikoanske
amerikoansken
aminogruppe
aminosu
ammerland
ammerlound
amnestie
amon
amor
ampe
amphibien
amring
amrum
amsterdam
amt
amte
amtelk
amtelke
amtelken
amts
amtskommuner
amtssproake
amtssproaken
an
ana
anakonda
analoge
analyse
anatomie
anbaud
and
andeel
anden
ander
andere
anderen
andersen
andinobates
andorra
andre
andrea
andreas
andrew
andriessen
andry
anduurjend
andy
anfang
anfierd
anfierder
angela
angeles
angelsaksiske
angers
anglikoanske
anglo
anglofra
angoawen
angola
angriep
angriepen
anguilla
angungt
anhalt
anhang
anhongere
anita
anjou
anla
anlaid
anlaut
anloage
anloagen
anm
anma
anna
anne
annektiert
annerd
annerde
annerenge
annerengen
annerje
annert
annette
annexion
anno
annuumen
anoardend
anode
anpaased
anra
anroat
ansicht
ansichte
ant
anta
antaal
antarktikoa
antenne
anthony
anti
antigua
antike
antillen
antisemitisken
antje
anto
antoine
anton
antoni
antonio
antonius
antwerpen
anwar
anweende
anweendenge
anweendengen
anwoand
anwoande
anzeiger
ao
aofr
ap
apa
apaat
apaate
apache
aparecida
apartheid
apbau
apbaud
apbreeken
apdeeld
apdeele
apdeelenge
apdraach
apdrift
apennin
apfa
apfaalen
apfaalend
apfaalende
apfierd
apfierde
apfoated
apfoatenge
apfreeten
apgjucht
apgjuchte
apgjuchten
apgjuchtet
apgoawe
apgruund
apgruunde
aphoolde
apiaster
apis
apkleeuwenge
apkloord
apkloorenge
apla
apleeken
apliested
aplo
aploage
aploosed
aploosenge
apluukenge
apma
apnoame
apnoamen
apnunner
apnuumen
apollo
apostel
apostele
appaasje
appe
appel
appele
apr
april
aproat
aproup
apruur
apsa
apskreeuwen
apskrieuwen
apstand
apstoald
apstok
apstound
apstounde
apstoundiske
apstuuns
apteekend
apteekengen
aptoubauen
aptra
aptreede
aptreeden
apwiese
apwoaksen
aqua
aquarellmoalera
ar
araber
arabien
arabisk
arabiske
araguaia
arama
aranesisk
arawak
arawakisk
arbeit
arc
archa
archipel
architekt
architektuur
archiv
archive
ardennen
are
arend
arendt
arfe
argentienske
argentinien
argentiniske
argentinske
argon
argonne
ariel
aristoteles
arizona
arizonica
arktiske
armand
arme
armee
armeenske
armenien
armenisk
armstrong
army
arne
arnold
arpitoansk
arsen
arst
art
artemis
arthur
articulen
artikel
artikkel
artikkele
artillerie
aru
aruba
arvalis
as
aschaffenburg
asen
aserbaidschan
ashe
asiatisk
asiatiske
asiatisken
asien
assad
assen
assibilation
assibilierenge
assimilation
association
astrid
astrologie
astronom
astronomie
astronomiske
asuncio
asylbewierwer
at
atawallpa
athene
athletik
atlantik
atlantikkuste
atlantiske
atlantisken
atlas
atmospha
atom
atoma
atome
atomka
atommasse
atomnummer
atomtaal
atp
attentat
au
aubert
auch
audiencia
audio
audiodoata
auerk
auf
aufl
auflage
aug
auger
augsburg
augsbuurich
augstein
august
augusta
auguste
augustin
augusto
augustus
auks
aurich
aurk
aus
ausgabe
australia
australien
australis
australisk
australiske
australisken
austroalske
auto
autoboan
autochthon
automatisk
automobil
autonome
autonomie
autor
autoren
autorita
autos
autre
auwerk
aux
aviv
avocado
aw
awatan
awick
ax
axolotl
axon
aymara
ayub
ayuthaya
az
azteken
aztekenriek
aztekiske
aztekisken
aztla
b
ba
baabe
baadenje
baadenuuren
baal
baald
baale
baalen
baalende
baalenje
baalenjer
baalere
baaljene
baalt
baalwiesen
baarenbierich
bach
back
backemoor
bad
baden
badiske
bagdad
bahai
bahamas
bahia
bahrain
bai
baier
bakker
bakr
bakterien
bal
balboa
baldassare
baldoarich
baldoarige
baldoarigen
bale
bali
balkan
ballon
balmaceda
balspil
balthasar
baltiske
baltisken
baltrum
bamberg
band
bangka
bangkok
bangladesch
banneetel
banoanen
baptist
baptiste
bar
barack
barbados
barbara
barbizon
barboare
barbuda
barcelona
barock
barocke
baron
barriere
barrois
bartholdy
bartholoma
baruch
barßel
baschar
base
basel
basen
basierde
basierje
basiert
basilika
basis
baskisk
baskiske
basra
basseterre
bataviske
batterie
battista
bau
baubegin
baud
baude
bauden
baue
bauelement
bauen
bauer
baukunst
baukunstler
baulound
bausteede
baut
bauten
bautied
bautzen
bauwierk
bauwierke
bauwiesen
bay
bayano
bayeriske
bayern
bayeux
bb
bbc
bbe
bd
be
beach
beaken
beamten
beatles
beatrice
bebel
beck
becker
beckmann
beclagten
beda
bedeeligede
bedingenge
bedingengen
bedra
bedrieuw
bedrieuwe
bedrieuwen
bedrieuwene
bee
beeged
beegenge
beekmans
been
beend
beende
beendoustand
beene
beers
beeter
beetere
beethoven
befa
befeel
befeelsha
befiende
befint
befoated
befoatede
befoatet
befoatje
befoulked
befoulkenge
befoulkengsgruppen
befoulkengstichte
befra
bega
begeen
begin
begind
beginne
begint
begjucht
begjuchte
begon
begonnen
begra
begreeuwen
begriep
begriepe
begriff
begrip
begro
begruunder
beha
beheelden
behierd
behnen
beho
behonneld
behonnelje
behoolde
behoolden
bei
beienflouded
beilage
beim
beirut
beispiel
beitra
beitrag
bekanne
bekantnis
bekieked
bekieket
bekiekje
bekiekjen
bekloaged
bekloagede
bekloaget
bekoand
bekoande
bekoanden
bekoander
bekoandste
bekoant
bel
bela
bele
beleegerenge
beleeken
belgien
belgisk
belgiske
belgisken
beliekteekend
belieuwnis
belitung
belize
beljoowed
beljuchtenge
bellen
belmopan
beloanged
beloanget
beloangje
beloangjen
belt
belukt
beluuke
beluukenge
beluukengen
beluukengswiese
bema
ben
benaamd
benaamde
benaamen
benaamenge
benda
benedikt
beni
benin
benjamin
beno
bentheim
benutsed
benutsede
benutset
benutsje
benz
benzin
beoachted
beoachtjen
beoarbaidenge
beoarbaidje
bepeelde
ber
bera
berblinger
bere
bereekend
bereekenge
bereekenje
berg
bergen
berger
beriek
berieke
berlin
berliner
bern
bernard
bernardo
bernd
bernhard
bernina
berninapass
beropt
beroupe
beru
beryl
beryllium
bes
besa
bescha
beschrieuwen
besiedeld
besiedelde
besiedelenge
besiedelt
besiedlung
besirk
besit
beska
beskat
beskeed
beskeeten
beskreeuw
beskreeuwen
beskrieuwe
beskrieuwen
beskrieuwenge
beskrieuwengen
beskrift
beskutsjen
besleeten
besloot
beslut
besluut
besluute
besoacht
besoachte
best
besta
bestanddeel
bestiegenge
bestimd
bestimde
bestimden
bestimme
bestimmen
bestimmenge
bestimt
bestoant
bestound
bestounddeel
bestounddeele
bestounde
bestounden
bestoundend
bestoundende
bestrieuwengen
bestuude
besu
besunner
besunnere
besunneren
besunneres
besunnerhaid
besunnerhaide
besunners
beteekend
beteekende
beteekenge
beteekengen
beteekenje
beteekent
bethlehem
betjudt
betjut
betjutte
betjuude
betjuudend
betjuudende
betjuudenden
betjuudendste
betjuudenge
betjuudengen
betjuudenste
betjuudet
betjuudt
betoacht
betoald
betoalje
betoaljen
betoanke
betoond
betoonde
betoonenge
betra
betrachted
betrachtet
betrachtje
betrachtjen
betreeden
betruued
betruuede
betruuenge
betty
beuurkunded
bewa
beweegenge
bewierket
bewies
bewiese
bewoaked
bewoaksen
bewoard
bewoarjen
bewoond
bewoonde
bewoonere
bgia
bhutan
bi
bibel
bibliota
bibliotheken
bidskrift
bie
biebeheelden
biebel
biebeluursa
biedroage
bielde
bieldeden
bieldehauer
bieldehauera
bielden
bieldende
bieldenge
bieldenskrift
bieldet
bieldeta
biele
bielitjen
bienaist
biende
bienden
bienoome
bienunner
bienuur
bierge
bierich
bierichka
bierichlound
bierichstieger
bierichstiegere
bierichstiegerske
bierige
bierstadt
biespiel
biespiele
biespil
biespile
biespilswiese
bietiede
bietou
bietoufo
bieuw
bieuwelte
biewielen
big
bigriep
bij
bikba
bikoand
bilateria
bild
bilded
bildede
bildeden
bildenge
bildet
bildje
bilget
bilgje
bilker
bill
billiger
bilt
bimetal
bin
bingen
bingum
binne
binnelound
binnen
binnenlound
binnensta
binnere
binnerste
binneruum
binnesta
biographie
biologe
biologie
biologiske
biotop
bis
bisdum
biskop
biskoppe
biskup
bismarck
bison
bissau
bistum
bisunners
bit
bitje
bitjen
bitjuudengen
bitsken
bitter
bjoode
bjoor
bjunt
bjut
bke
bla
black
blaine
blanca
blau
blaue
blaumeeske
ble
bleede
bleedere
bleeuw
bleeuwen
blica
bliede
blieuwe
blieuwen
blift
blo
block
blok
blood
bloot
bloud
bloudboad
blouderch
blouderge
blouked
bloume
bloumen
blu
blue
blues
bluetooth
blv
blw
bo
boald
boalde
boalden
boalsert
boalt
boan
boane
boanen
boanhoaf
boanhof
boank
boanstation
boantje
boantjene
boare
boaren
boark
boars
boas
boasis
bochum
bod
bodensee
bodin
bogota
bois
bokelesch
bokser
bolde
boli
bolivien
bolivioanske
bollingen
bologna
bolsonaro
bolt
bommel
bonaire
bonaparte
bonete
bonifatius
bonilla
bonn
bood
boode
booge
boogen
book
bookela
books
boolke
boolken
boom
boome
boommodder
boomstam
boomstieger
boomwuttele
boone
boor
boot
boote
booth
bootjer
bootjera
boppe
bor
borchers
bordeaux
boris
borkum
borneo
bornholm
borssum
bosch
boskoop
boskup
boskupper
bosnia
bosnien
bosniske
boston
botke
botsuana
bottrop
boucher
boud
boudem
bouk
bouke
boukela
boukelisk
bouksta
bouksteeuwe
bouksteeuwen
bourtange
bourtanger
boys
br
bra
brabant
braille
brainge
brandenburg
brandenbuurich
brandt
brange
brangen
brangt
brasi
brasilien
brasilioanske
brasilioansken
brassica
bratte
braunschweig
bravo
bre
breda
bredstedt
breed
breede
breeden
breeke
breeken
breekenge
breektaal
breer
breinermoor
breinigerberg
breisgau
bremen
bremerhoawen
breslau
bretagne
bretonisk
bretoniske
brfxxccxxmnpcccclllmmnprxvclmnckssqlbb
brian
bridge
bridgetown
briek
brieken
brille
brillen
brillengleese
brinkmann
britannien
briten
british
britisk
britiske
britisken
britske
brixi
bro
broacht
broachte
broachten
brockhaus
brok
brom
brons
bronstied
brood
brookmer
brookmerlound
broud
bround
brouwer
brown
bru
bruce
brueghel
brunei
bruni
bruno
bruns
brussel
brust
brutoal
bruttoinloundsprodukt
brutus
bruuk
bruukboare
bruuke
bruuken
bruukt
bruukte
bruukten
bruun
bruune
bruunkoole
bruur
bruure
bruursba
bsch
bsv
bu
buch
bucht
buda
budapest
buddele
buddhismus
budys
buenos
buffalo
buk
bukarest
bukse
bulgarien
bulgariske
bull
bulle
buma
bumbe
bumben
bunau
bunde
bunderhee
bundesrepublik
bunken
bunte
buppe
buppeda
buppelound
buppen
bupper
bupperbefeel
buppere
bupperen
bupperflakte
bupperkaante
bupperloop
buppersorbisk
bupperste
buppeste
burgema
burger
burgere
burgerfereen
burgerkriech
burgum
burgumer
burirom
burkina
burli
burloage
burma
burmann
burrows
burundi
busch
bush
busk
buske
butan
butjadingen
buuk
buund
buundes
buundesautoboan
buundesdai
buundesdais
buundesdaiwoalen
buundeskansler
buundeskanslerske
buundeskanzler
buundeslound
buundeslounde
buundespra
buundesregierenge
buundesrepublik
buundesstoat
buundesstoaten
buundesstra
buundnis
buunen
buur
buura
buuren
buurenhuus
buurenhuuse
buurenkriech
buurenrepublik
buurgen
buurger
buurgere
buurgerkriech
buurich
buuriske
buurma
buurskup
buurskuppe
buute
buuteminister
buuten
buutena
buutenda
buutere
buuterga
buuterste
buutewais
buutloundske
buxtehude
by
byzantiniske
c
ca
cabo
cadien
cadovius
caesar
cafe
caicos
cajamarca
cajun
calcium
calendula
california
calluna
calvin
cambridge
cameron
camille
campanula
campbell
campo
can
canal
canidae
canis
canterbury
canto
cantos
canyon
capcom
capreolus
caracas
carboxylgruppe
cardoso
carex
carl
carles
carlo
carlos
carmen
carnivora
carolina
carolus
carrel
carstens
carte
carter
caspar
casper
cassirer
castillo
castries
castro
catalunya
catamarca
catastri
catedral
cayenne
cayley
cayman
cbs
cc
cd
cdu
ce
cedrus
cello
celsius
cembalo
census
center
centre
century
cer
cerambycidae
cerro
ch
cha
chaco
chagres
chan
chance
channel
charakter
charakteristisk
charakteristiske
charles
charlie
charlotte
charta
chaucer
che
chemical
chemie
chemiker
chemisk
chemiske
chemistry
chemnitz
chen
cher
cherokee
chfierd
chga
chgeen
chgunge
chhoald
chi
chiapas
chibcha
chicago
chiche
chile
chileenske
chimborazo
chimi
china
chinchilla
chinchillas
chineeske
chinesisk
chinesiske
chinesisken
chla
chleeken
chlor
chloroplasten
chluuke
chnimt
cho
choco
chopin
chor
chow
chr
chris
christel
christi
christian
christie
christina
christine
christo
christoph
christopher
christus
chrom
chromosomen
chromosomensats
chromosomensatse
chronik
chronospezies
chse
chsische
chsischen
chsisches
chsloain
chste
chstens
cht
chte
chten
chtepunkt
chtitlan
chtlings
chur
ci
cia
cicero
ciel
cincinnati
cio
cirksena
city
ciudad
ck
ckchensee
ckchenwoold
cke
cken
cker
cklin
cklingen
cl
clage
clark
claude
claudio
claus
clav
cle
cleger
clemens
clemenswerth
clement
cleveland
cloppenburg
club
cm
co
cobain
cobalt
cochimi
cocopa
codex
cohen
cohte
collection
collybita
colo
colorado
colostethus
columbia
columbus
com
come
comic
comics
comitia
commedia
commons
commonwealth
company
completes
computer
computere
computerna
conley
connecticut
conquistadoren
conrad
consul
content
contra
control
convallaria
cook
copa
cordes
cordillera
coriolis
cornelis
cornelius
cornet
cornwall
corot
corte
costa
cottbus
coulomb
council
county
courant
court
coyo
cranach
crassus
crc
cristina
cristo
croix
cruz
cs
csu
cuhzo
cultural
cuniculus
cupressus
curac
curie
curitiba
curtis
cusco
cuxhaven
d
da
daach
dach
dachau
dagoge
dagoginne
dagogiske
dai
dailound
daimler
dait
dak
dakar
dakota
dal
dalbergia
dallas
dame
damp
damplokomotiven
dampskiepe
dampskip
dan
dance
daniel
dann
dannebaum
dannenappele
dante
dantes
dantumadiel
danzig
daor
dar
darmstadt
darstellung
darwin
das
dass
dat
data
database
datierje
david
davis
davy
day
db
dd
dde
dded
ddeel
ddeele
ddel
ddelboome
ddele
ddeler
ddelerdom
dden
ddene
ddenge
dder
dderdierte
ddere
dderen
ddermuus
ddermuuse
ddr
de
death
decidua
deddens
dee
deeder
deege
deeges
deeken
deel
deeld
deele
deelenge
deelgebiet
deelgebiete
deella
deelnieme
deelniemere
deeloardenge
deels
deelsa
deelsleeke
deelsloain
deelsmieten
deelstoat
deelstoate
deelt
deelwiese
deenema
deenenge
deeniske
deensk
deenske
deensken
deenuur
deep
deer
deera
deeran
deerap
deerbie
deerbuppe
deerbuute
deerfoar
deerfon
deerha
deerieuwenske
deerjuun
deerma
deeroane
deeroun
deerstaalenge
deerstaalerinne
deerstoald
deerstoalt
deertou
deertruch
deertwiske
deerunner
deeruum
deeruume
deeruur
deeruut
deerwai
definierd
definition
definitione
definitiv
degas
degli
del
delaunay
delfin
delft
delk
delke
della
delmenhorst
delta
dem
demokratie
demokratiske
demokroatiske
demonstranten
demonstratsjoon
demonstratsjoonen
demonstrierje
den
dendrobates
dendrobatidae
dene
denfusion
denis
denkleeuwenge
denkmal
denkraftwierk
denreaktione
denreaktsjoonen
denwoapen
departamento
departement
deportierd
der
dera
deration
deratsjoon
derek
derfon
derierde
dertou
des
desertifikation
desiderius
det
details
detern
detocht
deuterium
deutsch
deutsche
deutschen
deutscher
deutschland
devant
dez
dezember
dfra
dgebiet
dgjuchte
dgrootste
dgruundenge
dho
di
dialekt
dialekte
dialektgruppe
dialektvariante
diana
dich
dichtenge
dichter
dichtere
dichterske
dick
dickens
dictionary
diderik
die
died
diede
dieden
diego
dieguen
diek
diekmann
dien
diepenbrock
diepholz
diert
dierte
diesa
diesel
dieter
dietrich
dige
digitoal
digitoale
diktator
diktoatoor
diktoator
diktoatuur
din
ding
dingen
dingere
dingo
dingos
diode
dioden
dioica
diploid
diploide
diploidie
diplomoat
diplomoatiske
dira
direkt
direkte
direkten
direktor
dis
disk
diskussion
diskutierd
displaystyle
diss
disse
dissen
dissertation
distrikt
dit
divina
division
dix
diz
dj
djapper
dje
djen
djoop
djoopste
dju
dk
dl
dm
dmidde
dmuure
dna
dnunner
dnuur
do
doal
doale
doalsound
doarne
doarste
doarsten
doata
doaten
doatenboank
doatenferoarbaidenge
doatum
dobbe
dochter
dochtere
doe
dog
dogg
doggystyle
doi
dokken
dokkum
dokter
dokuma
dokument
dokumentation
dokumente
dokumentierd
dolk
dolke
dollar
dom
domenico
domestica
domestikation
dominica
dominierje
dominierjende
dominikoaner
dominikoanske
domoalige
domoals
don
donald
donau
dong
dongeradiel
donia
dons
donserske
doo
doobel
dood
doode
dooded
dooden
doodet
doodjen
doodskeeten
dook
doom
doore
dopheede
dordrecht
doresta
dorff
doris
dorothy
dorset
dortmund
dosa
dose
dost
dota
douard
douglas
douk
douse
down
dr
dra
dracht
drachten
drachtenkoppel
drain
dre
dream
dreege
dreegen
dreegend
dreeger
dreegere
dregion
dreguuner
dreguunere
dreguunerske
drei
dreisprachige
drente
drenthe
drentse
dresden
drieuwe
drieuwen
drieuwwoain
drift
drina
drinken
drinkwoater
dro
droake
droanen
drogen
dronk
drost
droste
druckerei
druk
drukt
drukte
druppen
druuch
druuchte
druuge
druugen
druuger
druugje
drylts
ds
dschibuti
dsdeele
dsee
dsgebiet
dstieger
dstried
dt
du
dubbeld
dubbelde
dublin
duc
duisburg
dul
dulle
dullegaid
dullert
duma
dumstorf
dun
dunker
dunkere
dunkeren
dunkergra
dunkerque
durch
dutch
duudelk
duukje
duunen
duur
duurde
duuren
duuret
duurje
duurt
duusend
duusende
duusendtakke
duvell
dvd
dw
dwa
dwertmann
dwest
dwo
dwoon
dykstra
dynamo
dynastie
dz
dzentrum
dzje
dzjes
e
earebondel
earl
east
eberhard
ebert
eblul
eckhard
ecs
ectopoglossus
ecuador
ed
edda
edelgas
edgar
edicions
edition
edmund
eds
eduard
eduardo
edv
edvard
edward
edzard
ee
eed
eede
eedgreeuwe
eedgreeuwen
eedgreeuwer
eedgreeuwera
eedmoas
eedwierk
eegentelk
eegentelke
eeken
eeltsje
eemoalige
een
eend
eende
eended
eendede
eendelk
eenden
eendenge
eendet
eendgultich
eendje
eendriem
eene
eenegaid
eenfach
eenfache
eenfacher
eenfachste
eenhaid
eenhaide
eenich
eenige
eenigje
eenkloang
eenmoal
eenpeld
eenpelde
eenpeldhaide
eensa
eensiche
eensichste
eensige
eensigen
eentaal
eenuntwintich
eenuur
eepen
eepenbeer
eepenbeere
eepend
eepende
eepene
eepenenge
eepengewinkel
eepent
eepentelk
eepentelke
eer
eerder
eerdere
eere
eerenamtelke
eerenge
eerenmeeglid
eermoda
eerst
eerste
eersten
eerstens
eerstmoals
effekt
effektive
efter
egoal
egon
ehrentraut
ei
eichhornia
eide
eiderstedt
eilat
eilers
eilert
ein
eine
einen
einer
eines
einfu
einhaus
einstein
eintrag
eisenach
ek
el
elbe
elektrisk
elektriske
elektrisken
elektrizita
elektromagnetiske
elektron
elektrone
elektronik
elektroniske
elektrotechnik
elema
element
elementarpaate
elemente
elementsymbol
elephas
elias
elie
elisabeth
elisabethfeen
elisabethfeenkanoal
elisabethfehn
elke
elphinstone
els
elvis
em
emanuel
embera
emden
emil
emile
emilia
emilianisk
emiroate
emission
emitter
emmanuel
emmius
ems
emsla
emys
en
encyclopedia
end
ende
endemisk
endemiske
ene
energie
energieniveaus
eng
engelbert
engelke
engl
englisch
english
entwicklung
enunner
enzyklopa
enzym
enzyme
eoza
epenberenge
ephesos
ephraim
epidemie
epipedobates
epoche
epos
eppendorf
equus
er
erasmus
ere
erforderlich
erfurt
eric
erica
erich
erik
eriophorum
eritrea
erlangen
ernest
ernesto
ernst
erste
erwin
erza
erzbiskop
es
esa
escher
espan
espeter
essen
est
ester
esterweger
estes
estlound
estniske
et
eta
etc
ethanol
ethniske
ethnologue
etniske
etsbergisk
etymologie
etymologisches
etymologisk
etymologiske
eu
euarchontoglires
euge
eugene
eumops
eunectes
eurasien
euripides
euro
euroopa
europa
europas
europe
europeade
european
euryale
euthanasie
ev
eva
evangeelsk
evangeelske
evangeelsken
evangelien
evangelisk
evangeliske
evangelisken
evangelium
evangelske
evers
evolution
evolutiona
ew
ex
exemploar
exil
existenz
exklave
expeditsjoon
experiment
experimente
experimentelle
experimentierd
explosion
expo
expressionismus
externsteine
extrem
extreme
extroa
exupe
eyck
ez
f
fa
faal
faale
faalen
faalt
faander
faandergruund
faanderrhien
faar
faarallen
faaw
faawe
faaweloos
faawen
faawenmiskenge
faawige
fabriek
fabrik
facebook
facto
fail
failt
fakt
faktisk
faktor
fal
falkland
falklound
falkloundkriech
falle
falsk
faltings
fami
famielje
familiaris
familie
familien
family
fan
fangd
fange
fangen
fangene
fangenskup
fangt
far
farad
farbe
faso
fat
faulbaum
fauna
fd
fde
fdp
fe
feanwa
feb
febr
februar
februoar
fedde
federation
feeder
feegefjuur
feeke
feen
feenkultuur
feenmuseum
feer
fehnmuseum
felidae
felipe
felix
feloidea
fen
fer
fera
ferannerd
ferannerenge
ferannerengen
feranstaltenge
feranstaltengen
ferbaadend
ferbaadenjen
ferbannenge
ferbaud
ferbeeden
ferbeedene
ferbeend
ferbeende
ferbeeterd
ferbeeterde
ferbeeterenge
ferbeeterje
ferbeeterjen
ferbiende
ferbienden
ferbiendenge
ferbiendengen
ferbiendet
ferbint
ferbleeuwen
ferbood
ferboont
ferbreeken
ferbruuker
ferbruukere
ferbuunded
ferbuundede
ferbuunden
ferbuunen
ferda
ferdeeld
ferdeele
ferdeelenge
ferdeelt
ferdinand
ferdraach
ferdraage
ferdreege
ferdrieuwe
ferdrieuwen
ferdulde
fereediged
fereen
fereend
fereende
fereene
fereeniged
fereenigenge
fereerd
fereerenge
ferfa
ferfaal
ferfo
ferfoaren
ferfoated
ferfoatenge
ferfoater
ferfoulgede
ferfoulgenge
fergeene
fergeenhaid
fergiftenge
fergliek
ferglieke
ferglieked
ferglieken
fergratterd
ferha
ferhinnerje
ferhinnerjen
ferhoaldt
ferhonnelengen
ferhoolde
ferhoolden
ferhooldnis
ferhooldnisma
ferhooldnisse
fering
ferjeete
ferjeeten
ferka
ferkier
ferkierd
ferkierde
ferkiers
ferkloord
ferkloorde
ferkloorden
ferkloorenge
ferkloorje
ferkloorjen
ferkloort
ferkoop
ferkooped
ferkoopede
ferkoopjen
ferla
ferlaach
ferlach
ferlaid
ferliet
ferljoose
ferljus
ferljust
ferloag
ferlof
ferloop
ferloope
ferloopende
ferloos
ferloosen
ferlopt
fermieden
fermisked
fermiskenge
fermo
fermoord
fermoorje
fermouded
fermoudede
fermoudelk
fermoudenge
fermuugen
ferna
fernand
fernandes
fernando
feroantwoudelk
feroarbaided
feroarbaidenge
feroarbaidje
ferra
ferrari
ferroat
ferrumequinum
fersa
fersammelenge
ferscheeden
ferscheedene
ferseerd
ferseerde
ferseert
fersierenge
ferska
ferskeeden
ferskeedene
ferskiel
ferskiele
ferskielende
ferskiene
ferskient
ferskuuwenge
fersoacht
fersoachte
fersoachten
fersprat
ferspreedenge
fersta
fersteen
ferstoant
ferstopped
ferstounde
ferstounden
fersuurged
fersuurgenge
ferswiende
ferswint
ferswoont
ferswuunen
ferta
fertjoonje
fertra
fertredenge
fertreede
fertreeden
fertreedenge
fertreeder
fertreedere
fertroangen
feruurdeeld
feruurseeked
feruurseeket
feruurseekje
ferwa
ferwalted
ferwaltenge
ferwaltengs
ferwaltengsbesirk
ferwaltere
ferwaltet
ferwant
ferwantskup
ferweende
ferweendenge
ferwiese
ferwiest
ferwikseld
ferwikseljen
ferwoand
ferwoande
ferwoant
ferwu
fest
festival
festschrift
fet
ff
ffen
ffentlichungen
fgl
fidel
fideo
fideos
field
fielicht
fiende
fienden
fiene
fienen
fier
fierd
fierdai
fierde
fierdeege
fierdelk
fierden
fierder
fierdere
fiere
fieren
fierende
fierenden
fierenge
fiergungende
fiersjoon
fiert
fierte
fiertepunkt
fieuw
fieuwuntru
fieuwuntwintich
fighter
figurativ
figurative
figuur
figuure
figuuren
fikoar
filiecht
film
filme
filology
filsum
fin
finanzielle
findt
finger
fingere
finlound
finnisk
finniske
finno
finster
finstere
fint
firma
firmen
first
fischer
fisk
fiske
fiskediek
fiskera
fiskere
fix
fjauer
fjauerduusend
fjauermoal
fjautich
fjautien
fjautienste
fjoode
fjooden
fjoodendeel
fjoodendeele
fjoole
fjoondel
fjoorup
fjuund
fjuur
fjuurenboom
fjuurenboome
fjuurenge
fjuurla
fjuurlound
fjuurspa
fjuurwoapen
fla
flaage
flaagenstried
flak
flakke
flakte
flakten
flamme
flandern
flask
flederma
flensburg
flevolound
flieger
flielound
flinnerkene
flitsepee
fljooge
fljoogen
fljoogende
fljooger
fljoogere
fljoote
fljootende
fljucht
fljut
flo
floaks
floaksmeer
flooch
flora
floreana
florenz
flores
florian
florida
flot
flotte
floud
floyd
flu
fluch
fluchste
flucht
fluchted
fluchtede
fluchteden
fluchtet
fluchtje
fluchtjen
fluchtlenge
fluchtlinge
fluchtlings
flugge
fluggen
fluks
flurnamen
fluurkoarten
fn
fo
foaks
foakse
foamielje
foan
foane
foangebied
foangebiet
foangoud
foanlieke
foanlieken
foanmuseum
foar
foaraaln
foarallen
foarbie
foarbielde
foardeel
foardeele
foare
foarel
foaren
foarfa
foarfoaren
foargunge
foarha
foarheerskup
foarige
foarigen
foarjier
foarkristelke
foarkumt
foarkuume
foarkuumen
foarkuumende
foarloage
foarloopende
foarlooper
foarloopere
foarm
foarmde
foarme
foarmen
foarmt
foarnoome
foarnste
foaroolden
foaroun
foarpommern
foarsa
foarsichtich
foarsittende
foarsitter
foarskenge
foarskengen
foarsker
foarskere
foarskrifte
foarsleek
foarsloain
foarsta
foarstaale
foarstaalenge
foarstaalengen
foarstoald
foart
foartied
foaruut
foaruutta
foatenge
foatjen
focke
focko
fodder
fodderje
fodderwa
foerste
fokhuus
fokke
folk
folketro
folksdounsploech
folmhusen
fon
fonna
fonne
fonnunner
fonsa
foone
foonen
foonkieker
foont
foonten
for
force
ford
foriining
forma
formel
formell
formen
formoal
formoat
formule
formulierd
fort
fortuna
forum
fosite
fossil
fossile
foto
fotogroafinne
fotos
foucault
foudelsgjuchte
foulge
foulged
foulgede
foulgeden
foulgejier
foulgen
foulgere
foulget
foulgetied
foulgje
foulgjende
foulk
foulke
foulkere
foulkewonderenge
foulkiske
foulks
foulksdonsgruppe
foulkskundler
foulksmusik
foulksousta
foulksrepublik
foulksskoule
foulkssproake
foulksta
fout
foutbaal
foutbaaler
foutbal
foutet
foutpaat
foutsa
fr
fra
fracht
fraiegaid
franc
france
francesco
francis
francisco
franck
franckh
franco
franeker
frangula
frank
franke
franken
frankfurt
frankfurter
frankiske
frankriek
frans
franske
frantis
frantso
frantsoose
frantsoosen
frantsoosenkruud
franz
fratso
frau
frbl
fre
frederick
frederik
free
freedelk
freedelke
freerk
freeselk
freete
freeten
freiburg
freiherr
french
frequenz
frequenzen
fresken
freya
frida
friedla
friedrich
friem
fries
friese
friesen
friesisch
friesische
friesischen
friesisches
friesland
friesoythe
friisk
frisian
frisica
friske
fritz
frjentsjer
fro
froage
froagen
froai
froaie
froamd
froamde
froamdwoud
froamdwoude
froast
from
frpl
fru
frucht
fruchtboom
fruchtboome
fruchte
frysk
fryske
frysla
fs
fsa
fstedt
ft
fte
ftel
ftich
ftichste
ftien
ftienste
ftigen
ftiger
ftiget
ftsta
ftstof
ftstoffe
fu
fuad
fuchs
fuchtich
fuchtige
fugel
fuji
ful
fulboodige
fulda
fulkeemen
full
fulle
fulsta
fungiert
funk
funktion
funktione
funktionierje
funktsjoon
funktsjoona
funste
funza
fusion
fuugel
fuugelailound
fuugele
fuugelhuus
fuul
fuulba
fuule
fuulfoold
fuulmoor
fuuls
fuunen
fuur
fy
g
ga
gabriel
gabrieli
gabun
gaddafi
gail
gailani
gaita
gaius
gala
galapagoensis
galapagos
galen
galerie
galeriehollounder
galicien
galilei
galileo
galinsoga
gallery
gallia
gallien
gallisk
galliske
gallium
gallo
gam
gambia
game
games
gamma
gandersum
ganglia
gans
ganse
gansen
gap
garci
garde
garifuna
gas
gase
gaspard
gast
gat
gate
gath
gatu
gau
gauck
gaudi
gaue
gauegaid
gauer
gauguin
gaza
gb
gdan
ge
gea
geb
geba
geben
gebied
gebiet
gebiete
gebietsreform
gebo
gebooren
geboren
gebruuk
gebuursdai
gebuurt
ged
geda
gede
gedicht
gedichte
geegend
geen
geenen
geest
geeten
gefa
gefangen
gefo
gefoar
gefoarelk
gefoor
gefoorelk
gegen
gehalt
gehu
geiger
gekweeden
gel
gela
gelb
geld
geldeenheid
gelderland
gele
geleerde
gelenge
gelje
gelma
gels
gelt
gema
gemeenskup
gemeenskuppe
gemeensoame
gemeinde
gemeinschaft
gen
genau
gend
gende
gene
genealogie
general
generalitat
generation
generatione
generoal
generoale
generoalfa
generoalgouverneur
generoalstoate
genesis
genetisk
genetiske
genf
genge
gengen
genje
genjen
geno
genouch
gentilis
genua
geoffrey
geografisk
geografiske
geographical
geographie
geologie
geologisk
geometrie
geometriske
georg
george
georges
georgia
georgien
georgiske
ger
gera
gerald
gerard
gerd
gerdes
gerhard
gerlofs
germ
german
germanen
germanic
germanica
germanische
germanischen
germanisk
germaniske
germanist
germanium
germoanen
germoanske
gesa
gesammelt
geschichte
geschiedenis
gesellschaft
gesetz
gesicht
gesina
geska
geskichte
geskichten
geskichtsskrieuwenge
geskoanke
gesla
gesta
gestalt
gestapo
gestis
gestrich
gestriche
get
getu
gewalt
gewaltich
gewaltige
gewicht
gewisse
gewo
gg
ghana
gi
giacomo
gian
gießen
gift
giftich
gilbert
giotto
giovanni
girl
girls
girolamo
giuseppe
gje
gjende
gjucht
gjuchte
gjuchtelke
gjuchten
gjuchtengen
gjuchter
gjuchtere
gjuchtfa
gjuchts
gjuchtskrieuwenge
gjuchtsta
gla
glaan
glaanba
gleese
gletschervorfeld
glidderske
glied
gliek
glieke
gliekma
glieknoomige
glieknoomigen
glieks
glieksponnenge
gliekstroom
gliekwa
glieuwe
glieuwen
glitsker
glitskere
glo
global
globo
globoale
gloowe
gloowen
gloowens
glossary
glu
gluk
glukkelk
gmbh
gmina
gnaeus
gnau
gnauedierte
gnauer
gnd
gnoade
go
goadelk
goadelke
goar
goarn
goarneen
goarnit
goartjebloume
goate
god
godde
goddelke
goddes
goddeshuus
goddestjoonst
goddine
gode
godhaid
godhaide
goeree
goesharder
goethe
gogh
goia
gold
golf
golla
gong
gonza
goodyear
google
goolt
goolten
gordon
gorilla
gorsafawddacha
gotha
gotik
gotisk
gotiske
gotlound
gottfried
gotthold
gottlieb
goud
goude
gouden
gould
goulden
gouldene
gouverneur
gov
goya
gr
gra
graceland
graf
grafik
grafiker
graham
gram
grammatik
grammatiske
gran
granada
grand
grande
graphit
grass
grattendeels
gratter
grattere
gratteren
graubu
gravenhage
graz
great
greco
greep
greetsiel
greeuwe
greeuwen
gregor
gregorioanske
gregorioansken
gregory
grenada
greta
gretchen
griechen
griechenlound
griechisk
griechiske
griechisken
griep
griepe
griepen
gries
griesbruun
griese
grieseed
grimm
grimmberger
grins
grinzer
gript
gris
gro
groad
groaf
groafe
groafen
groafskup
groep
groide
groie
groienge
groit
groningen
groninger
groningerlound
groot
grootbritannien
groote
grootegast
grooten
grootfoar
grootfu
grootha
grootsta
grootste
grootsten
grootstendeels
grosse
grosser
grosso
grote
grotius
grou
groß
große
großer
großstadt
gru
grube
grundriss
gruppe
gruppen
gruund
gruunde
gruunded
gruundede
gruundeden
gruundenge
gruunder
gruundet
gruundgesa
gruundje
gruundla
gruundloage
gruundskoule
gruundskoulen
gruundsleek
gruundsteen
gruundstof
gruundwa
grzimek
gu
guadeloupe
guanahatabey
guanako
guangxi
guarani
guatemala
guaviare
guayana
guelfe
guerilla
guez
guide
guillaume
guinea
guinness
gulf
gulfkriech
gultich
gummi
gunge
gungen
gungt
gustaf
gustav
gustave
gustavo
gut
gutenberg
guunere
guy
guyana
gymnasium
gypten
gyptiske
gyptisken
gysbert
gysseling
h
ha
haag
haager
haagere
haageren
haaldeel
haalt
haan
haarlem
haarlimmer
haas
haat
haate
haben
habsburger
hachte
hagen
haifa
haiti
hajo
halbertsma
hall
halle
hallige
halligen
halligfra
halunder
hamburg
hambuurich
hamilton
hampshire
han
handbook
handbuch
hande
hanekamp
hanenkamp
hannah
hanne
hannover
hans
hansa
hansen
hanser
haploidie
hara
harald
hard
hardy
haren
harkebra
harm
harmenszoon
harms
harns
harold
harrison
harry
hart
harte
hartmann
harz
haspel
hat
hatte
haud
haudailound
haudartikkel
hauding
haudling
haudseekelk
haudskoule
haudsta
haudsteede
haudstra
haudwoud
haue
hauen
hauk
hauptskoule
hauptstra
haus
hausen
haut
havanna
hawai
hawaii
hawaiisk
hay
haydn
hayen
he
hearrenfean
heart
heavy
hebra
heede
heedelound
heeden
heedendum
heedensk
heedenske
heedensken
heel
heelden
heele
heelen
heelplonte
heelt
heelten
heem
heemat
heematmuseum
heemel
heemelfoart
heemelsko
heemsk
heemske
heer
heerd
heerde
heerden
heerdoata
heere
heeren
heerende
heerenveen
heeroma
heersker
heerskup
heert
heertoach
heertoachdum
heese
heeselbierich
heesters
heet
heete
heeuwelte
heewe
heft
heide
heidelberg
heiko
heimat
heimatbla
heimatbund
heimatkalender
heimatkunde
heimatkundliches
heimatverein
heimeldinger
hein
heinemann
heinrich
heinz
hektar
hektoar
helen
helena
helffte
helgola
helgoland
heliand
helium
helix
hellbernd
helmers
helmut
helsinki
hemispha
hen
hendrik
henk
henken
henri
henriette
henry
her
herausgegeben
herbert
here
herero
herman
hermann
herna
hernando
herpestidae
herschel
hertz
herzegovina
herzegowina
herzog
hesel
hespe
hessen
hessiske
het
heteren
hettema
heuer
heuss
hexameter
hexaploidie
heyens
hg
hi
hiddes
hie
hied
hiede
hieden
hiedene
hiemba
hier
hierbie
hiere
hieren
hiertruch
hierunner
hiet
hietsele
higgins
high
hildegard
hildesheim
hilked
hilkede
hilket
hill
hillich
hillichdum
hillige
hilligen
him
himalaya
himmler
hindenburg
hindi
hinerks
hinnerk
hinrich
hinrichs
hinter
hip
hispaniola
histoorisk
histooriske
historienmoaler
historiker
historische
historischen
historisk
historiske
historisken
historismus
history
hitler
hitlerjugend
hl
hle
hlen
hler
hm
hmen
hn
ho
hoaf
hoaftbefeel
hoake
hoaken
hoald
hoalde
hoalden
hoaldt
hoalje
hoaljen
hoals
hoalt
hoamp
hoangst
hoangste
hoase
hoasenmuuse
hoasenoardige
hoast
hoawen
hoawensta
hoawer
hoch
hoche
hoekema
hof
hofer
hoffmann
hofmann
hohenzollern
hoi
hokusai
hol
holbein
holger
holle
hollebierich
hollen
hollenbround
hollener
hollenerfoan
hollound
holloundsgungere
holloundsk
holloundske
holloundsken
hollounske
holocaust
holp
holstein
holsten
holt
holtbusk
holtbuske
holten
holtene
holtenen
holtkoole
homepage
homer
homo
honda
hondel
hondschrift
hondskrift
hondskrifte
honduras
hondwierk
hondwierksbedrieuwe
honge
honget
hongje
honnel
honnelde
honnelenge
honnelje
honneljen
honnelt
honore
honshu
hoo
hooch
hoochchinesisk
hoochchinesiske
hoochdu
hoochieuwene
hoochkultuur
hoochlound
hoochskoule
hoochskruuwer
hoochskruuwere
hoochst
hoochste
hoochsten
hoochwoater
hooge
hoogebierich
hoogen
hoogezand
hoohaid
hoolde
hoolden
hoolich
hoolichailound
hoolichlaiter
hoolichlaitere
hoolichmetal
hoolichwa
hoolwe
hoomer
hoopenge
hop
hopi
hopper
horatio
horizon
horst
horstmann
hot
hotel
hotman
houd
houden
houget
hougje
houk
hound
hounde
hounden
house
houston
hovedstaden
hr
hren
hrer
hring
hrmann
hrsg
hrung
hs
htm
html
http
https
hu
huang
hubble
hubert
hugenotten
hugo
huisman
humanist
humboldt
hundert
hunger
hungersnood
hunnerd
hunnerde
hunnert
hunnertfu
hunte
hurrikan
hussein
husserl
husum
hutte
huun
huund
huunde
huundestok
huunich
huus
huusdiert
huusdierte
huuse
huushollenge
huushollengen
huuslook
huusnoome
huusnoomen
hydrochoerus
hydrophile
hydrophilie
hyloxalus
hylpen
hylpersk
hyperkorrektuur
hypothese
hyves
hz
i
ia
iba
iberiske
ibis
ibiza
ibm
ic
ica
ich
ichdu
ichkalifornien
ichsaksen
ichsaksisk
ichsaksiske
ichsorbisk
ichste
ichte
ichten
id
ida
idafeen
idasee
idatmospha
idaum
idba
idbieuwjen
idboudem
ide
ided
idee
ideen
idegaid
iden
idene
idenge
idens
idensba
idensbouk
idensbouke
idenstied
idenstuun
idenstuune
identifisierje
identisk
identita
ider
idere
idfulle
idgas
idgeschichtelke
idgrootste
idhoochste
idhuus
idich
idige
idiom
idje
idkoarste
idraigodanheddogleddollo
idske
ie
iedenst
iegaid
iegaiden
iegaidsstrieder
iek
iemandt
ieme
iemen
iemenfreeter
iemenfreetere
iemesku
ien
ienbaud
iende
iendeeld
iendeele
iendeelenge
ienden
iendrain
iendruk
ienfersteen
ienfierd
ienfierenge
ienfloud
ienfloudberiek
ienfloude
ienflouded
ienge
iengjucht
iengjuchtenge
iengjuchtengen
iengong
iengonge
iengriepe
iengskriege
ienheemske
ienhilked
ienhoold
ienhoolde
ienluuke
ienmarsk
iennieme
iennoame
iennuumen
ienoardend
ienoardenge
iensa
iensats
iensen
iensleeten
iensluutend
ienspeerd
ienstaalenge
ienstoald
ienteekend
ientouniemen
ientreed
ienwa
ienweensel
ienwooner
ienwoonere
ienwoonertaal
ienwoonertaale
ienwoonertoal
ier
iere
ieren
ierenge
ierengen
ierm
ierme
iersen
iersenboan
iersenboanstra
iersene
iersenen
iersentied
ierwe
ies
iesel
iesfra
iesk
ieslound
iesloundsk
iesloundske
iestied
iestiede
iete
ietelweeren
ieten
ieuwen
ieuwene
ieuwenske
ieuwenskenunner
ieuwenso
if
ifexpr
igbo
ige
iged
igede
igen
igend
igenge
iger
igere
igerenge
iget
igje
igjen
igna
ignacio
ignaz
igor
igotik
igranada
iguinea
iheedendum
iheedene
iheedenen
ihr
ihre
ii
iii
ijssel
ik
ike
iked
iken
ikenge
ikengen
ikengs
iker
ikere
ikmaskiene
il
ila
ild
ilde
ilden
ildend
ildene
ildener
ildere
ildheer
ildmarschall
ildmuus
ildmuuse
ildtoach
ile
ilen
ilenge
ilere
ilha
ilich
ilige
iljitsch
illegoal
illinois
ilound
ilt
iluchtmuseum
im
ima
image
imaskiene
imdb
imkera
immer
immigranten
immigration
imperium
impressionismus
imte
in
ina
inc
ind
inda
indai
inde
indelk
indelke
independence
index
indian
indiana
indien
indigene
indioaner
indioanere
indioanske
indisk
indiske
indisken
individuelle
indo
indogermanisk
indogermaniske
indonesia
indonesien
indonesiske
indonesisken
indskup
industria
industrie
industrielle
industriellen
ine
inen
infanterie
inferno
infinitiv
informatik
information
informatione
informationen
infoulge
infrarood
infrastruktuur
inge
ingeborg
ingenieur
inhoold
initiative
inka
inkariek
inlound
inloundere
inloundsk
inloundske
inmitten
inn
inne
innerdoat
innere
ins
insekt
insekte
insekten
insel
inseln
insen
inskrifte
inspiration
inspirierd
instande
insteede
institut
institute
institution
instituut
instruma
instrument
instrumente
int
integration
integrierde
integroalreekenge
interessant
interessante
interesse
interessen
interferenz
interfra
interlingue
interna
internasjonoal
internasjonoale
international
internationale
internationoal
internationoale
internet
internetsiede
internetversion
intonation
introduction
intucht
intwiske
inuit
inuktitut
invasion
iod
ion
ione
ionen
ioniske
ip
ipa
ipe
ipeere
ipen
iprage
ir
irak
irakiske
irakkriech
iran
iraniske
ire
iren
irisk
iriske
irisken
irlound
irminsul
iroan
iroat
irtysch
is
isa
isaac
isaak
isabela
isbn
ische
isdai
ise
iseelound
iseeloundsk
isekool
iselke
iselken
isem
iseme
isen
isensa
isensee
isk
iska
iskbaalere
iske
isken
isla
islam
islamiske
islamisken
islamistiske
islamistisken
island
islands
islas
islound
islounde
iso
isolation
isolator
isolierd
isolierde
isolierte
isotop
isotope
ispanien
israel
israeli
israeliske
israelisken
iss
issn
ist
istanbul
iste
istelke
istelken
istige
istoat
it
italieensk
italieenske
italieensken
italien
italienisk
italieniske
ite
itegaid
item
iten
itenge
itengen
iter
iterkriech
itersbuurich
itet
itetied
itich
itied
itige
itigen
itje
itjen
itloangte
itnoame
itnoamen
itroal
its
itwoater
itza
itzco
iucn
iulius
iupac
iv
ivan
ive
iwa
iwaareld
iwal
iwe
iwed
iweloa
iwend
iwende
iwendloundske
iwendma
iwends
iwillich
ix
j
ja
jack
jackson
jacob
jacobus
jacopo
jacques
jade
jadebousem
jae
jahr
jahrbuch
jahre
jahrhundert
jair
jakarta
jakob
jakobus
jamaica
jamaika
james
jameson
jan
janeiro
jansen
janssen
januar
januoar
janßen
japan
japanisk
japaniske
japiks
japoansk
japoanske
japoansken
japura
jaqaru
java
javascript
javier
jay
jazz
je
jean
jeanne
jee
jeel
jeele
jeelma
jeelsk
jeesel
jeesele
jeesenge
jef
jefferson
jefimowitsch
jemen
jemgum
jena
jens
jensen
jersey
jerusalem
jesu
jesuiten
jesus
jet
jetske
jever
jeverlound
jewish
jh
ji
jie
jiepeke
jier
jierduusend
jierduusende
jiere
jierelk
jierelke
jierelks
jieren
jierhundert
jierhunndert
jierhunnerd
jierhunnerde
jierhunnert
jierhunnerte
jierich
jierige
jierigen
jierseende
jiertjaand
jiertjaande
jim
jimmy
jir
jo
joa
joachim
joagd
joaged
joager
joan
joaqui
joast
job
joe
joh
johan
johann
johanna
johannes
johanniter
johanniterkommende
johanniteroarden
johannsen
john
joint
jom
jona
jones
jong
joo
jood
jookub
jool
joole
joop
jooplound
joote
jordanien
jorge
jose
josef
josep
joseph
joshua
jou
journal
journalist
journalistinne
jouwer
jpg
jr
ju
juan
jubila
juda
judas
juden
judith
juist
jujuy
jules
juli
julia
julioanske
julioansken
julius
juncus
jung
junge
jungen
jungere
jungeren
jungfern
jungfoulk
jungste
jungsteentied
juni
junner
juns
junta
junuur
jupiter
jura
jurist
jurua
jusa
justin
justiz
justizminister
justus
jutlound
juu
juuden
juudendum
juudsk
juudske
juudsken
juugendstil
juuke
juuken
juun
juundeel
juunpaata
juunreformation
juunregierenge
juunsa
juunsats
juunsiedich
juunsiedige
juunstrieder
juunstriedere
juunuur
juur
juust
juustso
k
ka
kaalje
kaante
kaanten
kaatsen
kabinett
kabul
kachelotplate
kafka
kahlo
kaiser
kaiserdum
kaisere
kaiserkrounenge
kaiserriek
kaisertied
kakao
kakteen
kaktus
kala
kalender
kalif
kalifornien
kalium
kalk
kallage
kalma
kama
kambodscha
kamera
kamerun
kamp
kampe
kamped
kampede
kampere
kamperfeen
kamra
kanaan
kanada
kanadiske
kanadisken
kanal
kanariske
kandahar
kandidoat
kandinsky
kanienken
kanienkenbusk
kanienkene
kanne
kannen
kanoal
kanoale
kanon
kansje
kant
kanton
kantone
kanu
kanzler
kap
kapa
kapazita
kapelle
kapitel
kapitulatsjoon
kapkolonie
kapp
kappe
kardinoal
karel
kariben
karibik
karibiske
karibisken
karl
karlsbader
karlsruhe
karte
kasachstan
kaschuba
kaschubisk
kaschubiske
kaspar
kaspiske
kassel
kasta
kaste
kasten
kastilien
kat
katalanisk
kataloanske
kataloansken
katalonien
katalysator
katar
katastrophe
kateeker
kategorie
katharina
kathedroale
kathoolsk
kathoolske
kathoolsken
katoolsk
katoolske
katoolsken
katte
kattegat
katuun
kauffungen
kaukasus
kaunas
kautschuk
kavallerie
kawki
kb
ke
keelde
keem
keemen
keemene
keening
keeningriek
kees
keete
keetegaid
keetich
keith
kelnoome
kelten
keltisk
keltiske
kelvin
ken
kene
kenia
kennedy
kennen
kenneth
keno
kentucky
kenunne
kenunnen
kepler
keramik
keramiske
kfa
kg
khan
khz
kiddeboom
kiek
kiekje
kiekjen
kiel
kieler
kiensel
kiesinger
kiliwa
kilo
kilomeeter
kilomeetere
kilometer
kilometere
kim
kind
kinder
kindergarten
king
kingharder
kippur
kirche
kirchspiel
kisch
kitjen
kitts
kjoosen
kjuus
kjuusba
kjuusdanne
kjuustoach
kk
kke
kked
kkeden
kkelk
kken
kkene
kkenge
kker
kkere
kla
klaaster
klaasterbusk
kladogramm
klaipe
klarina
klasse
klassen
klassenruum
klassik
klassisk
klassiske
klassisken
klaus
klavier
klee
kleeuwen
klein
kleine
kleinen
kleiner
kleopatra
kleve
klik
klima
klimaklassifikation
klimazone
klimoa
klimt
klinge
klingt
klo
kloaifra
kloang
klok
klokke
klokken
klokkerke
klokkespul
kloodere
kloor
kloore
kloppenbuurger
kloppenbuurich
klotzsche
kluge
km
kna
knap
knee
knelangen
knesset
kniebel
knipper
knop
knu
knullen
knut
ko
koabel
koafje
koafjehuus
koai
koalitsjoon
koalitsjoonskriech
koalitsjoonskriege
koande
koant
koare
koarel
koarele
koarl
koarte
koarten
koartenspil
koast
koaster
koastere
koasterske
kobane
koblenz
kode
kohl
kollektor
kollmann
kollumerlound
kollumerpomp
kologiske
kolonie
kolonien
koloniestra
kolonioal
kolonioale
kolonioalismus
kolonioaltied
kolonisation
kolonisierenge
kolonisten
kolumbien
kolumbioansk
kolumbioanske
kolumbioansken
kolumbus
kolwe
kom
kombination
kombinatione
kombinierd
komeet
komete
komiker
komitee
kommando
kommende
kommentoare
kommerzielle
kommission
kommune
kommunikation
kommunismus
kommunisten
kommunistiske
komo
komp
komplementa
komplex
komplexe
komponierd
komponierde
komponist
komponistinne
komposition
komputer
komputere
kon
kondensator
kondensatore
konferenz
konfessionen
konflikt
konflikte
konfo
kongo
kongra
kongress
koninklijke
konkordanz
konne
konnen
konnene
konomie
konquistador
konrad
konsa
konservative
konsonant
konsonante
konsonantferbiendenge
konstant
konstante
konstantin
konstantinopel
konstanz
konstitutionelle
konstrukteur
konstruktione
konsul
kontakt
kontakte
kontinent
kontinente
kontinentoal
kontinentoalspeere
kontrakt
kontrolle
kontrollierd
kontrollierde
kontrollierden
kontrollierje
konvergenz
konzept
konzert
kool
koold
koolde
koolden
kooldtied
koole
koolestof
koolestofdioxid
koolich
koolmeeske
koom
koomen
koomer
koomere
kooped
koopede
kooper
koopjen
koopljuude
koopmon
koos
kop
kopenhagen
kopie
koppe
koppel
koppele
kordes
korea
koreaniske
korl
kornhorn
kornisk
korniske
korrosionsbesta
kosmos
kosmosnaturfu
kosovo
kost
kosted
kostede
kosten
kostenfra
kostet
kosystem
kosysteme
kou
koum
kr
kra
kraansba
kraansfuugel
kraft
krahe
krako
kramer
kre
kreationismus
kreech
kreegen
krefeld
kreis
kreoolske
kreta
kricht
kriech
kriechs
kriechsferbreeker
kriechsferkloorenge
kriechshoawen
kriege
kriegen
kriegere
kriegeriske
krim
kring
kringdai
kringe
kringfra
kripto
krise
kristelk
kristelke
kristelken
kristen
kristendum
kristene
kristianisierenge
kristianisiert
kristus
kritik
kritikere
kritisk
kro
kroane
kroank
kroankenhuus
kroankhaid
kroankhaide
kroaten
kroatien
kroatiske
krone
krop
kround
kroune
krounenge
krounprins
kru
krung
kruse
kruud
ks
ksa
kse
ksen
ksproake
kst
kste
ksten
kstich
kstien
kstienste
kstiger
kt
kte
kten
ku
kuba
kubismus
kuboanske
kude
kuhn
kult
kultiske
kultivierd
kultivierde
kultur
kulturelle
kulturhuus
kultuur
kultuuren
kultuurhistorisk
kumeyaay
kumt
kunde
kunden
kunert
kunst
kunste
kunstelk
kunstelke
kunstelken
kunstler
kunstlere
kunstlernoome
kunstlerske
kunstmjuks
kunststof
kunstwierke
kunz
kurden
kurdisk
kurdiske
kurdistan
kurfu
kurier
kurs
kurse
kurt
kurve
kuste
kusten
kustenkanoal
kuu
kuud
kuude
kuuden
kuudene
kuugel
kuugele
kuume
kuumen
kuumende
kuumt
kuunder
kuurfu
kuurich
kuurige
kuurse
kuuse
kuusje
kuuste
kuut
kuute
kuuten
kuuter
kuutere
kuutjende
kuutske
kuutste
kuwait
kv
kw
kwa
kwad
kwattier
kwattiere
kweede
kweeden
kwieden
kwierk
kwoud
kwoude
kyrilliske
kz
l
la
laampe
laan
laanger
laangere
laangte
laangtema
ladin
ladiner
ladinisk
ladiniske
lagidium
lagið
lago
lahn
lai
laid
laide
lailampe
lain
laistenge
laistengen
lait
laitenge
laitengsbeend
laiter
laitere
lama
lamas
lambert
lampe
lampen
land
lande
landes
landesmuseum
landesvermessung
landkreis
landriucht
landschaft
landt
landtrecht
lang
lange
langen
langeooch
langer
langere
langholt
language
languages
langue
langues
lanka
laos
lapt
lara
laren
larix
las
laser
lasere
lassen
last
lat
latien
latiensk
latienske
latienskoule
latinisierd
lau
lauda
laufen
laur
laurasiatheria
laurentius
lausitz
laut
lauwers
lava
lavoisier
law
lcnaf
lco
ld
lde
lded
lden
ldenge
le
leander
leben
lebendiges
lech
lechte
led
leda
leds
lee
leede
leeden
leedene
leedenge
leedengen
leeder
leedoa
leeger
leeken
leem
leenwoud
leenwoude
leer
leerbouk
leerd
leerde
leerden
leere
leeren
leerort
leert
leese
leesebouk
leesen
leesewa
leet
leete
leeter
leetere
leetmiddeloaler
leeuwarden
leeuwarder
leeuwe
leeuwen
leeward
legende
legierenge
legierengen
legitimen
lehrer
leiden
leipzig
len
lengen
lengenerlound
lenin
lenstra
leo
leon
leonard
leonardo
leone
leopold
ler
lernen
les
lesebouk
lesebuch
lesen
lessing
letlound
letzte
leuven
lew
lewis
lexikon
lez
lf
lfenbeenkuste
lft
lge
lgelound
lgelounder
lgeloundske
lgen
lgene
li
lia
libaneesisk
libaneesken
libani
libanon
libanonkriech
liberia
liberoale
libri
libyen
libyske
lich
licht
lichte
lichter
licinius
lid
lide
lie
liebig
liebknecht
liech
liechtenstein
liede
lieden
liegen
liek
liekap
lieke
lieken
lieket
liekje
liekuut
lien
lienje
lienjen
lient
lier
liesbetfeen
liesbetfeenkanoal
lieste
liesten
liet
lieten
lieuw
lieuwde
lieuwden
lieuwede
lieuweden
lieuwend
lieuwende
lieuwendsduur
lieuwendsruum
lieuwendsruumte
lieuwendswiese
lieuwet
lieuweweesen
lieuwje
lieuwjende
lieuwt
life
liga
light
lik
like
lilienthal
liliuokalani
lille
lima
limburg
limbuurchsk
limbuurchske
limbuurich
limbuurichske
limit
lin
lincoln
lindern
lindgren
line
lingen
linguist
linguistic
linguistics
linguistik
linguistiske
linie
linien
liniers
linke
links
linnaeus
linnen
linse
lint
linux
lio
lippe
lipsius
lisk
lisle
lissabon
list
litauen
literariske
literatur
literaturatlas
literatuur
lithium
litje
litjen
litjer
litjere
litjeren
litjet
litste
littek
littik
little
live
lix
liyon
lizenz
lj
ljauer
ljedder
ljoacht
ljoachte
ljoachten
ljoachter
ljoofte
ljoowe
ljouwert
ljude
ljuude
lk
lke
lkemoal
lken
lkuneen
ll
llanfairpwllgwyngyllgogerychwyrndrobwllllantysiliogogogoch
lld
lle
llegaid
llen
llene
llenge
llengen
llensammelenge
ller
llercomite
llerfereen
llich
llige
lln
lloyd
lm
lmshoawen
ln
lne
lnefereen
lnemuseum
lnen
lner
lo
loade
loage
loagen
loang
loange
loangen
loanger
loangere
loanghoarst
loanghoarster
loangholt
loangholter
loangjierige
loangs
loangsoam
loangsoamer
loangste
loangstra
loangte
loga
logabirum
loire
lok
lokativ
lokoale
lokomotive
lokono
lombok
lon
londen
london
londskup
londskuppe
long
lood
look
looken
loop
loopboan
loope
loopen
looperske
loorp
loos
loose
lopt
lord
lorenzen
lorraine
lorup
los
lot
lothar
lothringen
lotus
louis
louisiana
lound
loundbra
lounddai
lounde
lounded
loundede
loundelke
loundenge
loundera
loundere
loundes
loundet
loundfoulge
loundgjucht
loundje
loundkring
loundkringe
loundnoomen
loundskup
loundskuppe
loundwirtschaft
loundwirtskaft
loundwirtskup
louts
love
low
loxodonta
lp
lpe
lpen
lpere
lpt
lring
ls
lse
lsen
lsk
lskup
lskuppe
lst
lster
lstere
lt
lte
ltere
ltnis
ltnisse
lu
lubbe
lucas
lucht
luchta
luchtgauegaid
luchtjier
luchtjiere
luchtskiepe
luchtskip
luchtsta
luchtstroom
luchtwa
lucia
lucius
ludt
ludwig
luft
lufthoawen
luigi
luis
luise
lukas
lukassen
luks
lukt
lumen
lund
lupus
lutea
luther
lutherske
luthersken
luttersk
lutterske
luud
luude
luudferskuuwenge
luudgeskichte
luudleere
luuke
luuken
luuterengsbierich
luxemburg
luxembuurich
luzifer
lw
lwen
lwenferlaach
lwenferwaltenge
lwenmo
lwenmoort
lwer
lwerne
lwerwiet
lychnis
lyon
lz
m
ma
maak
maas
maast
maaste
maasten
maastens
maastricht
maasttied
maasttieds
machen
machiavelli
macht
machte
machu
macke
mackenzie
macmillan
mad
madagaskar
made
madeira
madonna
madrid
mae
mafia
magazin
magdalena
magdeburg
magellan
magistroate
magnesium
magnet
magnetfa
magnetisk
magnetiske
magnus
mahadilok
mahanakhon
mahasathan
mahinthara
mahler
mai
maiglo
main
maine
mainz
maisch
maiwand
majalis
makedonien
malaiiske
malawi
malaysia
maler
mali
mallorca
mallord
malta
malus
mamluken
mammal
mammals
mammut
mammute
mammuthus
mamore
man
manaus
mandela
mandoat
manfred
mangan
mangroven
manhattan
manifest
maniok
manku
mann
mannheim
mansfa
mansfeld
manuel
manx
map
maplandia
mapocho
maps
mapuche
mapudungun
mar
marajo
maran
marburg
marc
marcel
march
marco
marcus
mare
margaretha
margarita
mari
maria
marianne
maricopa
marie
marien
marilyn
marine
marinefunksteede
marino
marinus
mario
maritim
marius
mark
marka
markhausen
markus
marmeloade
marokko
marron
mars
marseillaise
marseille
marselha
marskierden
marskierje
martes
marti
martin
martini
martinique
martins
marum
marx
mary
maryland
mas
maschinenbau
maskiene
maskienen
maskine
maskinell
massachusetts
massaker
masse
massen
massentaal
materialien
materie
materielle
materioal
materioale
materioalien
mathematik
mathematiker
mathematikerske
mathematiske
mathias
mato
matteo
mattha
mattheson
matthias
matuszak
mau
mauer
mauretanien
maurice
mausoleum
max
maximilian
may
maya
mayathan
mayer
mays
mb
mc
mcd
mckinley
mclaren
md
mde
me
mechanik
mechaniske
mechanismus
mecklenbuurich
mededelingen
media
medici
medien
mediendoata
medium
medizin
mee
meebegruunder
meebroacht
meedglid
meeglid
meeglied
meegliedere
meemoaked
meemoakje
meend
meende
meenden
meene
meenenge
meenengen
meenskup
meenskuppe
meenskuppelke
meensoame
meent
meente
meenteferwaltenge
meenten
meentera
meenuumen
meeoarbaider
meeoarbaidere
meer
meere
meerhaid
meerswien
meerte
meestriedere
meete
meeten
meetenge
meeter
meetere
mei
mein
meister
mekka
melandrium
melasse
melchior
meles
melk
mellifera
mellum
membran
memel
memmert
memphis
men
menameradiel
mendelssohn
mendoza
menge
mennoniten
mensch
ment
meppen
mer
mera
mercator
mercedes
mercury
merkel
merkur
merops
mersebuurich
mertens
mesopotamien
mesproake
messias
met
meta
metal
metall
metalle
metallisk
metalloid
metamorphose
metapher
meteorit
meteorologie
meter
methode
methoden
metropol
metropolitan
metropolitana
metz
meuse
mexico
mexiko
mexikoanere
mexikoanske
mexikoansken
meyer
mg
mhz
mi
michael
michail
michel
michelangelo
michele
miconia
microtus
mid
midde
middel
middelamerikoa
middeldu
middele
middeleuropa
middelhoochdu
middelhooge
middelloop
middelmeer
middeloaler
middeloalerelke
middeloalerske
middelpunkt
middels
midden
middewinter
middle
midsloundsk
midtjylland
mie
miedema
miege
mielen
mien
migranten
migration
migratorius
miguel
mike
mikro
mikroskop
mildaam
milionen
milita
militariske
military
mill
miller
milliarde
milliarden
millimeter
millimetere
million
millione
millionen
milliwatt
milton
min
mind
minderheiten
mindestens
mineralien
mineroal
mineroalien
minh
minimoalpoore
minister
ministerpra
minner
minnerhaid
minnerhaide
minnerhaidesproaken
minnerhaidssproaken
minnesota
minor
minsener
minssen
minste
minus
minute
minuten
mio
mir
misk
miske
misked
miskede
miskenge
mission
missionoar
missionoare
mississippi
missouri
mistral
mit
mitochondrial
mitochondrien
mitochondrioale
mitt
mitteilungen
mittheilungen
mje
mjitte
mjo
mjoon
mjota
mjuks
mken
mloos
mm
mme
mmelk
mmen
mmenge
mmengen
mmesee
mmling
mmlinger
mo
moacht
moachtha
moade
moaden
moai
moaiboom
moaiklokje
moaked
moakede
moakeden
moaket
moakje
moakjen
moal
moald
moalde
moale
moaler
moalera
moalere
moalerfoamielje
moalerkunst
moalerske
moalje
moaljen
moalt
moalwiesen
moan
moangelse
moanske
moanskelke
moansken
moanskene
moarten
moas
moast
moaste
moasten
moate
moaten
mobile
moc
moctezuma
moda
modder
moddere
modell
modelle
moderatoorinne
modern
moderne
mohammed
mohave
moin
moite
moitera
moldawien
moleku
molen
molk
molkera
molkstra
moll
mommsen
mon
monaco
monarchie
monarchomachen
monet
mongelse
mongolen
mongs
monken
monljuude
monnelke
monochamus
monophyletisk
monophyletiske
monotypisk
monroe
monskup
mont
montana
monte
montenegro
montfort
montfortisk
montierd
montje
montjene
montserrat
montu
monumentoale
moonige
moor
moore
moorere
moorgut
moorhaid
mooring
mooringer
moorkultuur
moorleiche
moormerlound
moort
moortaal
mora
morales
moreau
moreno
moritz
morpheme
morris
morteratsch
morteratschdoal
morteratschglitsker
morus
mosambik
mose
mosel
moskau
mote
motive
motor
motto
moud
moude
moudeerne
mound
moundai
mounde
moune
mounen
mount
mout
mouten
mozart
mpel
mpele
mr
mrang
mt
mtdna
mu
muammar
mudde
muddebierich
mulder
muller
munch
mundart
mundarten
mundenge
mundet
mungard
munske
munster
munsterlound
munsterske
munte
munten
murray
museen
museum
museums
museumsboan
museumsdirektor
museumsdorf
museumseisenbahn
museumsiersenboan
museumsta
music
musik
musiker
musikinstruma
muslime
muslimiske
mustela
mustelidae
mutation
muude
muugelk
muugelkaid
muugelke
muugelkhaid
muugelkhaide
muugelkst
muule
muur
muure
muuren
muurlound
muursproake
muus
muuse
mw
my
myanmar
myelin
myst
mythen
mythologie
mythologiske
n
na
naamd
naamde
naamden
naame
naamkunde
naamt
naan
naar
naarding
nach
nachdruck
nachschlagewerk
nacht
nachtschatten
nadar
nafo
nah
nahe
nahuatl
nai
naie
naier
naiste
naite
nakamura
nama
name
namen
namenforschung
namibia
nanometer
nant
nantes
napo
napoleon
napoleoonske
narcissus
nasa
nasjonoal
nasjonoale
nasjonoalfersammelenge
nasjonoalist
nasjonoalpark
nasjonoalsosjoalismus
nasoal
nassau
nation
national
nationale
natione
nationoal
nationoale
nations
native
nato
natrium
natu
natur
natural
nature
naturfu
natuur
natuurelke
natuurskuts
natuurskutsgebiet
nau
navajo
navy
nazi
nazis
nb
ncatl
nchen
nchengladbach
ncia
nd
nde
ndegaid
ndel
nden
ndenge
nder
ndere
nderung
ndez
ndich
ndige
ndigenge
ndisch
ndische
ndischen
ndjer
ndl
ndnis
ndoal
ndr
ne
neapel
neben
neckar
nederland
nederlands
nederlandse
needer
neemens
neen
neerenge
negativ
negative
negro
neil
neiße
nelk
nelke
nelken
nelson
nemann
nemark
nen
nenskildpudde
neo
neobiota
neonazi
neonazis
neozoa
neozoon
nepal
ner
net
nettelburg
neu
neuburg
neue
neumu
neustadt
neutrinos
neutroal
neutron
neutrone
nevada
nevado
neves
nevis
new
news
newton
nez
nf
nfeld
ng
nge
ngel
ngele
ngelk
ngelke
ngelsk
ngelske
ngelsken
ngelsksproakige
ngen
ngenge
nger
ngere
ngeren
ngh
nglound
nglounder
ngloundere
ngte
nh
nhd
ni
nia
nib
nic
nica
nicaragua
niccolo
nice
nich
nichdum
nichriek
nichrieke
nichs
nichshuus
nicht
nico
nicola
nicolaas
nicolas
nicolaus
nie
niebu
niede
niederdeutsch
niederdeutschen
niederdeutsches
niederla
niederlounde
niederlounden
niederlounder
niederloundisk
niederloundiske
niederloundsk
niederloundske
niederloundsken
niederlounsk
niedermu
niedersa
niedersachsen
niedersachsens
niels
nieme
niemen
niemeyer
nien
niep
niepe
nieper
nietzsche
nieuw
nig
nige
niger
nigeria
night
nigin
niginne
nigra
nigrum
nik
niki
nikkel
nikko
nikolai
nikolaj
nikolajewitsch
nikolaus
niks
nil
nils
nimt
ningen
ninka
nio
nis
nisk
niske
nit
nita
nitz
nivalis
nizza
nje
njuugen
njuugende
njuugentich
njuugentienste
njuugentiger
nk
nke
nko
nkooge
nkoogisk
nkoogiske
nl
nm
nn
nne
nnen
nnenge
nner
nners
no
noa
noaber
noaberlounde
noaberskup
noabersta
noaberta
noacht
nobel
nobelpries
noch
nochmoal
noemi
nome
nomen
nomenklatur
nomenklatuur
nomenologie
nominatfoarm
non
nood
noodweendich
nooit
noom
noomd
noome
noomen
noomenkunde
noose
noote
nooten
noppharat
nord
norden
norderney
nordfriesische
nordfriesischen
nordfriesischer
nordfriesland
nordfriisk
nordiske
nordjylland
nordwest
nordwestdeutschland
noriega
norm
norman
normandie
normandier
normdoaten
normoal
normoale
normoalerwiese
north
northern
nortmoor
norwegen
norwegisk
norwegiske
not
notre
notyp
nouch
noud
noudaast
noudaaste
noudaastelk
noudaastelke
noudamerikoa
noudamerikoanske
noudbrabant
nouddu
noude
noudelk
noudelke
noudelken
nouden
noudfra
noudgermaniske
noudhollound
noudirlound
noudkuste
noudmakedonien
noudrhien
noudsee
noudsiede
noudwa
nov
nova
november
novo
now
nowak
npenrhynareurdraethceredigion
nr
ns
nsa
nsdap
nse
nsed
nsee
nsen
nsenge
nset
nsk
nske
nster
nsterla
nsterland
nsw
nt
ntda
nte
nted
nteeken
nteekend
nteekene
nter
ntgen
nthaalt
nther
nthoaldt
nthoalt
nthoolde
ntimeeter
ntimeetere
ntjansba
ntje
ntjen
ntjene
ntkuume
ntla
ntleenenge
ntren
ntroal
ntroale
ntroalen
ntrum
ntskat
ntskeedende
ntskeedenge
ntslus
ntspra
ntspreeke
ntspreekend
ntspreekende
ntspringt
ntstamme
ntstamt
ntsteen
ntsteene
ntstoant
ntstounde
ntstounden
ntstoundenge
ntstuud
ntstuude
ntstuuden
ntweeder
ntwikkeld
ntwikkelde
ntwikkelden
ntwikkelenge
ntwikkelje
ntwikkeljen
ntwikkelt
ntwiklenge
nu
nuestra
nueva
nuevo
nukleinsu
nukleotid
nukleotide
nul
numer
nummer
nunne
nuphar
nur
nutsed
nutselk
nutsen
nuumen
nuumer
nuumere
nwz
ny
nyctinomops
nyi
nz
o
oa
oaber
oachte
oachteduusend
oadel
oadelige
oafte
oafter
oafters
oai
oaiere
oailound
oailounde
oain
oainde
oaindum
oaine
oainen
oainer
oainere
oainskup
oainskuppe
oainsta
oainstoundige
oaint
oaintelk
oaiwiete
oaje
oakse
oaler
oalerdum
oalter
oamde
oamder
oamse
oamselound
oamsfra
oane
oankeld
oankelde
oankelden
oante
oantwoud
oape
oarbaid
oarbaide
oarbaided
oarbaidede
oarbaideden
oarbaiden
oarbaider
oarbaidere
oarbaidet
oarbaidje
oarbaidjen
oarbaidsiemen
oarbeidskring
oard
oarde
oarden
oardend
oardenge
oardengen
oardent
oardige
oardkonzept
oardnengstaal
oardnengstoal
oare
oargel
oargele
oargelist
oarich
oas
oawe
oawers
ob
obama
oberhausen
objekt
objekte
objektiv
objektive
oblast
obres
occitan
ocholt
ocko
octavianus
oder
odore
oer
of
offenbach
offensive
offer
offerd
offere
offisier
offisiere
offisjelle
offiziel
offiziell
offizielle
og
ognd
oh
ohio
ohm
ohne
oi
ois
ojos
oksitanien
oksitoansk
oksitoanske
okt
oktoawe
oktober
ol
old
oldenburg
oldenburger
oldenburgische
oldenburgischen
ole
oleracea
olga
oligoza
olivaceus
oliver
olliges
ologe
ologie
ologiske
olympia
om
oman
omar
omje
omme
ommo
on
one
online
onondaga
ontario
onze
oo
oog
ooge
oogene
ook
oold
oolda
oolde
oolden
ooldenbuurchske
ooldenbuurger
ooldenbuurich
ooldenhuus
ooldfra
ooldgriechisk
ooldgriechiske
ooldhoochdu
ooldnoudisk
ooldsaksisk
ooldst
ooldsta
ooldste
ooldsten
oom
oophaga
oor
oore
ooriersen
oost
op
oper
opera
operation
opern
opposition
optik
optiker
optiske
or
ora
orange
oranje
orbicularis
orchester
orellana
org
organellen
organeum
organisation
organisatione
organisatsjoon
organisierd
organisierde
organisierden
organisiert
organisk
organiske
organismen
orgoane
orientierde
orientierenge
origin
originoal
originoale
orinoco
orinoko
oriolus
orlando
orleans
ornain
ornamente
oro
orthodoxe
orts
ortschronisten
ortsnamen
oryctolagus
os
oscar
oslo
osmaniske
osmium
osmoanen
osmoanske
osnabru
ossenbra
ost
ostendorp
ostermoorstra
ostfriesen
ostfriesische
ostfriesischen
ostfriesisches
ostfriesland
ostfrieslands
othain
otomops
ottenjann
otto
ou
oubaadend
oubau
oubaud
oubielded
oubieldenge
oubieldengen
oubreeken
oubreekene
oud
oudeelenge
oudrukt
oufierd
oufra
ougend
ouger
ougere
ouheelden
ouhongich
oukuumen
oukuuted
oukuutenge
oukuutengen
oula
oulat
ouleedenge
ouleese
ouliend
oulje
oulo
ouloop
ouma
oun
ouna
ounbau
ounbaud
oundeel
oundraach
ounfa
ounfang
ounfangd
ounfange
ounfierd
oungriep
oungriepe
oungriepen
oungrieper
oungriepere
ounhongere
ounlaid
ounnieme
ounnuumen
ounoardend
ounpaased
ounrakt
ounreeke
ounroat
ounsleek
ounsleeke
ounspro
ounuumen
ouoardende
ouoardenden
our
oureeke
ourieten
ouroat
ouroupen
ous
ousa
ouskaffed
ouskeed
ousleeten
ousmilten
ousnied
ousniede
ousnit
ousta
oustamme
oustammenge
oustand
oustande
oustomje
oustommenge
outa
outouleeden
outra
ouwiekenge
ouwikseljend
over
overflakkee
overijssel
owwol
oxford
oxid
ozean
ozeanien
ozeoan
p
pa
paad
paade
paas
paaset
paasje
paaske
paat
paata
paate
pablo
pac
paderborn
padua
paestum
pagos
pai
paiute
pakistan
pala
palast
palisander
palm
palmyra
palts
paltsersk
paltserske
paltsersken
palustris
pampa
panama
panamaiske
panamakanoal
paneve
panser
paolo
papenbuurich
paper
papier
papua
para
paradies
paradiso
paraguay
paraguayiske
parallel
paramilita
parana
paris
pariser
parish
park
parlama
parlament
parlema
part
parteien
partement
partido
partien
pascha
pass
passoat
pastoor
pastor
pat
patent
patrick
paul
paula
paulinum
paulo
paulsen
paulus
paulusbra
pavel
pavian
pazifik
pazifiske
pazifisken
pdf
pe
peck
pedersen
pedro
peel
pein
peking
pel
pelecanus
pellworm
pen
penn
pennsylvania
pennsylvanien
pensionierenge
pentaploidie
people
pepier
per
perdix
pere
periode
perioden
periodensystem
periodiske
perlentaucher
pers
persisk
persiske
perso
person
personal
persone
personen
personoal
persoon
persoone
perspektiv
perspektive
perthois
peru
peruoanske
pest
pestoor
pestoore
peter
petersen
petit
petrieshanne
petrus
pez
pfalz
ph
pha
pharao
phase
phasen
phaseolus
phil
philadelphia
philip
philipp
philippe
philips
philologe
philologie
philosoph
philosophe
philosophie
philosophiske
pho
phonem
phonetik
phonetiske
phonologie
phop
phosphat
phosphate
phosphor
photograph
photographie
photon
photone
photosynthese
php
phyllobates
phylloscopus
phylogenetische
phylogenetiske
physics
physik
physiker
physiske
pi
pianist
picasso
picchu
picea
pico
piebenga
piek
piepe
piepen
pieper
pier
pierre
pieson
piet
pieter
pietro
piipaash
pik
pikblende
pilot
piltse
piman
pings
pingsterbloume
pinneberg
pinochet
pinsel
pinsele
pinus
pinyin
pionier
piper
piroaten
pittsburgh
pius
piz
pizarro
pl
pla
plaatsnamen
place
plaknammen
plan
planet
planete
planeten
planetoiden
plantijn
plasma
plasmolyse
plastik
plastiske
plat
plata
platdu
platin
platoane
plats
platt
plattdu
platte
platten
plebejus
pleegje
pleistoza
plicht
plichtfa
plioza
plo
ploan
ploand
ploande
ploane
ploansta
ploate
ploats
plonken
plonte
plonted
plonten
plontengen
plontje
plouch
plouchiersen
plouge
plunnerden
plural
plus
pluto
po
poabst
poage
poagen
poagensta
poagenstoule
poagesta
poapske
poapskenbleede
poapst
poar
poark
poars
poater
podolsk
poe
pokken
pol
polen
poliocephalus
politik
politiker
politikere
politikerske
politisk
politiske
politisken
polniske
polyploidie
pommern
pompeius
pool
poole
poolsk
poolske
poolsken
poor
poore
pop
popmusik
popula
population
populatione
populatsjoon
port
porto
portoal
portra
portsmouth
portugal
portugiesen
portugiesisk
portugiesiske
portugiesisken
position
positiv
positive
positsjoon
post
posthum
posthumus
postklassik
postma
postsynaptiske
pot
potentioal
potsdam
potshuusen
potter
poulenc
poulos
pounde
poute
powiat
pp
ppel
ppele
ppen
ppenge
pper
pra
prag
prager
praktisk
praktiske
praktisken
prasit
pratensis
praxis
pre
preetjere
premier
premierminister
presents
presida
presley
press
preußen
pries
priese
priestere
prima
primigenius
prince
princeton
principe
prins
prinsenroow
prinzessin
prinzip
prinzipien
privilegien
privoate
pro
probe
probleem
probleeme
problem
probleme
procyonidae
produkte
produktion
produktiv
produsa
produzente
produzierd
prof
professor
program
programm
programme
progressive
projekt
projekte
projektgruppe
promovierde
propheten
proportionoal
prosa
prosper
prost
prota
protein
proteine
protest
protestante
protestanten
protestantiske
protestantisken
protestantismus
proteste
proto
protokoll
proton
protone
provins
provinse
provinsen
provints
provinz
provinze
provinzen
proza
prozent
prozess
pru
pruning
prunkjuuweel
prunus
pse
psoolme
psychologie
psychologinne
pt
pte
pteropodidae
ptolema
pu
publikation
publikum
publishing
publisierd
publisierde
publisiert
publius
publizierd
publizierde
publiziert
publizist
puccini
pudde
puddera
puente
puerto
puigdemont
pulver
punkt
punkte
punte
purus
puschkin
puss
putsch
putsk
pyramide
pyt
q
qhapac
qhapaq
qom
quadroatkilomeetere
quagga
qualita
quarke
quator
quatorioal
quatre
que
quechua
quedens
queen
queensland
quelle
quellen
quito
qusqu
r
ra
raake
raakt
raant
raante
raate
rabbiner
rad
radbod
radikoale
radio
radioaktiv
radioaktive
radioaktivita
radiowoogen
radium
radius
rafael
raffael
raid
rainer
raise
raisede
raisen
raiset
raisje
rait
raitsenge
raitsjen
rajoelin
rakete
raketen
rakt
ramo
ramsauer
ramslo
ramsloh
ranitomeya
rant
rantma
rapper
rasse
rassen
rassistiske
rassistisken
ratchathani
rattanakosin
rau
rauch
rauderfeen
raue
rauelk
ravenna
ray
rch
rchen
rd
rde
rden
rdere
rdoba
rdraach
re
read
ready
reagan
reagiert
reaktion
reaktione
reaktiv
reaktor
reaktsjoon
real
realismus
realistiske
realskoule
reba
rebellen
rebellion
rebhuhn
recht
recklinghausen
records
red
reden
reede
reeger
reeke
reeken
reekend
reekenfa
reekenjen
reekent
reeket
reewe
reewen
ref
referendum
reflektierd
reform
reformation
reformierde
reformierden
regensburg
regentskup
regierd
regierde
regierenge
regierengs
regierengstroppen
regime
regina
regio
region
regional
regione
regionen
regionoal
regionoale
regisseur
regisseurinne
register
reich
reichenau
reiderland
reiderlound
reihe
rein
reiner
reinhard
reinhold
reis
reise
reiter
reker
rekonstruierd
rekord
rekordbouk
rektor
rel
relativ
relative
relativita
religio
religion
religione
religionen
reliquien
relk
relke
relken
rely
rembrandt
remmers
ren
renaissance
renate
renault
renburg
rend
render
rendere
rendsburg
rene
renge
rengen
renjen
rent
report
repra
reptilien
repu
republik
republikaniske
republikoanske
rer
rereeke
res
research
reservoat
reservoate
residenz
restaurierd
resultoat
resultoate
reutlingen
review
revolte
revolution
revolutsjoon
revolutsjoona
revolutsjoons
revolutsjoonstroppen
reykjavi
reynolds
rez
rezente
rf
rfgoud
rfiendenge
rfiender
rfoarenge
rfoarsked
rfoarskenge
rfoarsket
rfon
rfoulch
rfoulchriek
rfoulchrieke
rfoulge
rft
rfu
rfuunen
rg
rge
rgen
rgensen
rger
rgerverein
rhammar
rhauderfehn
rheelden
rheeldene
rhein
rhien
rhienlound
rhiensken
rhinolophus
rhinopoma
rho
rhoolde
rhoolden
rhooldenge
rhus
ri
ria
ribes
ric
rica
ricault
rich
richard
richter
richthofen
rico
rieder
riedere
riege
riegen
riegenfoulge
riegenskaltenge
riek
riekdum
rieke
riekelk
riekelu
rieken
rieks
rieksdai
rieksdaisko
rieksferwalter
riekskansler
riekskanzler
rieksmonument
riekspra
rieksweer
riem
riemet
riemsel
riemsele
rien
rient
rientied
rienwoold
riep
ries
riese
riesen
riesenboarenklau
riesene
riesheede
rifka
rig
riga
rijn
ring
ringe
ringen
rink
rio
rioja
riot
risk
riske
risken
risum
rituale
rituoale
river
rivera
rja
rje
rjoomele
rk
rkanboare
rkanne
rkannen
rkannenge
rke
rked
rkede
rkeden
rkelke
rkemeente
rken
rkenge
rkengen
rkenmeente
rker
rkere
rket
rkhoaf
rkje
rkla
rkmoal
rkmoale
rkoand
rkoande
rkoant
rksoamkaid
rkste
rkte
rktouden
rkuume
rkuumen
rl
rlitz
rm
rme
rmesound
rmoud
rn
rna
rnberg
rne
rnis
rnisse
ro
roa
roage
roagebierich
roaked
roakede
roakeden
roaket
roakje
roakjen
roane
roat
roate
roaten
roberd
roberde
roberje
robert
roberto
roberts
robespierre
robin
rock
rockkoppel
rockmusik
roda
rodri
rodrigo
roelandts
roger
rok
rokoko
rolf
roll
rolling
rom
roma
romagna
roman
romani
romanik
romanisk
romaniske
romantik
romoanske
ron
ronald
rooberd
rooberde
rooberden
rooberenge
rooberere
rooberje
rooberjen
roobert
rood
roode
rooden
room
roome
roomelse
roomelster
roomere
roomsk
roomske
roomsken
roor
roosevelt
roowdierte
ropt
rosa
rosario
rose
rosma
rostock
rot
rotenburg
roter
rotten
rotterdam
roubaix
rouen
roup
roupe
roupnoome
roupnoomen
rouse
rousettus
rousseau
routledge
row
roy
royal
rp
rpe
rper
rpere
rpnoomen
rq
rreeged
rreeget
rro
rs
rsa
rscheen
rschienen
rschient
rschke
rse
rsel
rselerfoan
rsen
rske
rsked
rskede
rskeden
rskeen
rsker
rskere
rsket
rskiene
rskienen
rskienengen
rskient
rskje
rskjende
rsktrummel
rskup
rslound
rsma
rst
rstaalenge
rstaaler
rstbiskop
rste
rsten
rstendum
rstoald
rt
rtembierich
rten
rter
rterbuch
rth
rtjen
rtjuugere
rtoustaalen
rts
rtsbiskop
rtsoch
rtsochdum
rttemberg
rttembierich
ru
ruanda
rubben
rubens
rubicone
rubikon
rubus
rudolf
ruhr
ruhrgebiet
ruinaulta
ruinen
ruiz
rulle
rullen
rum
ruma
rump
rund
runde
rundfunk
rune
runen
rung
runner
rupt
rusk
ruske
rusken
ruslound
ruslounddu
russel
russen
russisk
russiske
rust
ruste
ruuge
ruum
ruume
ruumelke
ruumfoart
ruumte
ruumtefeer
ruumtefoart
ruumteienhoold
ruumtemperatuur
ruumtestation
ruup
ruur
ruut
ruutroat
rwa
rwe
rwen
rwensa
rwensystem
rwgoud
ry
rz
rzburg
s
sa
saach
saagen
saale
saarlound
saba
sabbat
saccolaimus
sache
sachsen
sadat
sagelterland
sagen
sagrada
sahara
sahel
saigon
sail
saile
sailskiepe
saint
saise
saitenge
saitengen
saitengs
sakkathattiya
saksen
saksiske
salado
saljoet
sall
salpa
salvador
sam
sambia
sambo
sambucus
samlenge
samlengen
sammeld
sammelde
sammelenge
samoa
samtgemeinde
samtmeente
samuel
san
sandmann
sankt
sanktionen
sanskrit
sant
santa
santafe
santi
santiago
santo
sap
sapir
sar
sarah
sarajevo
sardinien
sark
satellit
satellite
sater
saterfriesen
saterfriesisch
saterfriesische
saterfriesischen
saterfriesisches
saterfuchs
saterla
saterland
saterlande
saterlandes
saterlands
sathit
satru
sats
satse
saturn
saudi
saulx
savanne
savannen
saxifraga
sc
scalesia
scarlatti
scarle
sch
scha
schabowski
schaff
scharon
scharrel
scharreler
schat
scheed
scheel
scheemda
schiepe
schiermo
schil
schiller
schip
schipkau
schlegel
schleswig
schmidt
schmits
schmitz
schneider
scho
schober
schopenhauer
schoule
schoulen
schra
schramm
schrieuwe
schrieuwen
schrieuwwiese
schrift
schro
schu
schubert
schule
schulen
schulte
schulzentrum
schumacher
schuster
schutz
schutze
schuul
schwalb
schwarz
schwarze
schwarzer
schweiz
schwentine
science
scott
scripta
sd
sde
sden
se
sea
sealter
sealterla
sebastia
sebastian
secession
second
sed
sedelsberg
see
seedelsbierich
seeden
seederboom
seederboome
seefoarder
seefoardere
seefoarer
seegen
seeger
seehoawen
seeke
seeken
seeker
seekerjen
seelen
seeljuude
seelound
seelounde
seelter
seelterbuund
seelterfra
seelterlound
seelterlounder
seelterlounds
seeltersk
seelterske
seemeeske
seen
seende
seenden
seendenge
seender
seeregaid
seeroowere
seeslacht
seewai
sein
seine
seite
sektion
sektor
seku
sekunda
sekunde
sekunden
selbstverlag
sello
sem
seminolen
semitic
semitisk
semitiske
sempervivum
sen
send
sende
senegal
senge
senoat
sens
sententien
sentierd
separatistiske
sept
september
ser
serben
serbien
serbiske
sere
sergei
sergejewitsch
seri
serie
serra
serrano
set
sevilla
sex
sfr
sg
shanne
shannen
shi
show
shuttle
shuus
si
sia
sibirien
sibskup
sich
sicher
sicherhaid
sicherheitsdatenblatt
sichtboar
sichtboare
sida
side
siden
sident
sidenten
sidentin
sidentinne
sidentskup
sidentskups
sie
sieben
siebs
sied
siede
siedelden
siedelenge
siedelengen
sieden
siedlenge
siedler
siedlere
siedlung
siegel
siegen
siegfried
siel
siela
siemer
sien
siene
siepe
sierra
sies
siet
sietda
sieuwe
sieuwen
sievers
sigismund
signoal
signoale
sik
siksa
silene
silicium
silizium
silla
silva
silverfox
silverstoneia
silvestris
silwe
silwen
simbabwe
simmendoaler
simo
simon
simone
sims
sin
sinai
sind
sinfonie
singer
sint
sinti
sioux
sipma
siprage
sir
sirte
sit
sitierd
sitte
sitten
sitting
situation
situatione
sitze
sive
six
sixth
sixtus
sizilien
sje
sjo
sjoode
sjooden
sjoogen
sjoon
sjuch
sjucht
sjunge
sjunger
sjungere
sjungerske
sjuunelk
sjuunelke
sjælland
sk
ska
skaach
skala
skaltengen
skaltjiere
skandinavien
skandinaviske
skat
skauspieler
skauspielerske
ske
skeed
skeede
skeeden
skeedwachtere
skeeldich
skeen
skeene
skelett
sken
ski
skichte
skiednis
skient
skiepe
skiere
skierstins
skieuwe
skieuwen
skiksoal
skild
skildpudden
skilleroatsje
skilleroatsjen
skip
skipfoart
skips
skizzen
skjoote
skjooten
skjootera
skjootwoapen
skjucht
skjut
skloue
sklouen
sklouera
sko
skoade
skoaden
skoankenge
skoankt
skoar
skotlound
skottisk
skottiske
skottisken
skoule
skoulen
skoulkere
skoulsa
skra
skreeuw
skreeuwen
skrieuwe
skrieuwen
skrieuwene
skrieuwer
skrieuwere
skrieuwerske
skrieuwnoome
skrieuwwiese
skrift
skrifte
skriftelk
skriftelke
skriften
skriftsproake
skriftstaaler
sku
skubben
skulptuur
skuppen
skut
skuts
skuul
skuuld
skuulen
skylge
skylgersk
sla
slacht
slachte
slange
slangen
slawisk
slawiske
sleat
sleek
sleeke
sleesien
sleesisk
sleesiske
sleeten
sleetene
sleeuwe
sleeuwekanoal
slicher
slie
sliepen
slingen
sljuchte
slo
sloachtjen
sloain
slonk
sloon
sloot
slooten
slot
slowaka
slowenien
slu
slucht
slumpede
slumpet
slut
sluuch
sluute
sluuten
sma
smaragd
smid
smiet
smiete
smieten
smilt
smit
smith
smitte
smoacht
smoakje
smolten
sna
snee
sniede
snieden
snits
snitser
snoabeldiert
snoagens
snoop
snorra
snu
snurrich
snuute
so
soacht
soachte
soage
soagen
soaks
soal
soalt
soand
soande
soang
soangen
soant
soarte
soarten
society
soda
soest
sofia
software
sofuul
sogoar
sohn
sojus
sol
sola
solano
solanum
soldoate
soldoaten
solidarita
soll
sollen
solms
soloange
soma
somalia
son
sonaamde
sonaamden
sonde
song
sonia
sonic
sonora
soo
sood
sooden
soogen
soogende
soogenjierige
soogenjierigen
soogenjiersbloume
soogentich
soogentien
soogentiger
soogoar
soole
soonaamde
soone
soonen
soowa
sophie
sophokles
sorb
sorben
sorbisk
sorbiske
sorbisksproakige
sosjoal
sosjoale
sosjoalistiske
sotouta
soul
sound
soundho
source
sous
south
souvera
souza
soviet
sowa
sowied
sowjet
sowjetiske
sowjetunion
soziale
sp
spa
space
spaceshuttle
spalte
spanien
spanier
spaniere
spanisk
spartakus
spd
spe
species
speegel
speer
speergjuchte
speerloage
speerwierk
spektroskopie
spektrum
spel
spele
spen
spenter
speyer
speyerer
speziell
spezielle
spezifiske
sphagnum
spiedeld
spiedelde
spiegel
spiekere
spiekerooch
spield
spielde
spielden
spiele
spieler
spielere
spielerske
spielje
spieljen
spielt
spil
spin
spinnen
spinoza
spit
spits
spitse
spitsen
spitzweg
spoanien
spoaniere
spoanisk
spoaniske
spoansk
spoanske
spoansken
spoarlampe
spoartler
sponnenge
sponnengen
spontoan
sport
sportler
sportlerske
sportzentrum
spoule
spra
sprache
sprachen
sprachraumes
spreedengswierstand
spreeken
spreeker
spreekere
springe
springer
spro
sproak
sproake
sproakelke
sproaken
sproakfamilie
sproakfamilien
sproakgebiet
sproakgruppe
sproakgruppen
sproakige
sproakkunde
sproakkundige
sproakkundigen
sproakleere
sproakstatistik
sproakuutbau
sproakwietenskup
sproakwietenskuppere
spurensuche
sputnik
spuuren
sr
sranan
sri
ss
sse
ssegaid
ssel
sseldorf
ssen
sser
ssw
st
sta
staal
staale
staalenge
staalt
staat
staatsarchiv
stabil
stabile
stabilita
stad
stade
stadion
stadium
stadt
stafrikoa
staile
stal
stalingrad
stam
stama
stamme
stamoard
stamt
stand
standard
standoardsproake
stanford
stap
stappe
stappen
starr
starum
stat
state
states
station
statistik
statistikbanken
stauffenberg
stausee
stb
stdu
ste
stede
steede
steeden
steedhoolder
steel
steele
steen
steene
steenene
steenhuus
steenmodder
steentied
steete
steeten
stefan
stegaid
stein
steinfurt
steinhaus
steinmeier
stel
stelk
stelke
stelken
stellingwarf
stellingwerf
stellingwerfsk
stellingwerfske
stellingwerve
stellingwerver
stellmacher
sten
stenge
stephan
stephen
ster
sterben
stere
stersiede
sterske
sterskup
sterweede
sterweeder
steven
stewart
stfoalen
stfoan
stfra
stgermanisk
stgermaniske
stheelden
sthoolde
sthouksk
stich
stiche
stichpunkte
sticht
stickhusen
stickisee
stiekel
stiekele
stiel
stiern
stierne
stiernen
stiernsystem
stiernsysteme
stierwe
stift
stifted
stiftenge
stiftung
stiged
stigede
stigje
stikke
stikken
stikker
stikstof
stil
stilkene
stilkenen
stilkens
still
stille
stillieuwend
stimme
stimmen
stimt
stina
stindiske
stinensiske
stins
stinzen
stinzeplonten
stjordaanlound
stjuur
stjuurd
stjuuren
stkuste
stla
stlaid
stlaide
stlound
stlounddialekte
stmoaked
stner
stnuumen
sto
stoadich
stoaf
stoafsuuger
stoald
stoalde
stoalden
stoalt
stoant
stoarm
stoarmfloud
stoarmfloude
stoarmje
stoat
stoate
stoatelk
stoatelke
stoaten
stoats
stoatsautorita
stoatsmon
stoatspra
stoatsupperhaud
stoatus
stockholm
stof
stoffdatenbank
stoffe
stoite
stok
stokke
stom
stomboom
stomje
stomme
stommet
stommige
stone
stonnere
stoorf
stoorwen
stoowe
storm
stoul
stound
stounde
stounden
stoundende
stra
straasbuurich
strackerjan
strand
strange
strauderfeen
strauss
straßburg
street
stried
strieder
striedere
striederske
striedich
striedige
striedkra
striek
strieke
strieken
striemel
striepe
stringen
stro
stroafe
stroal
stroalenge
stroalengswinkel
strom
stromme
stroom
stroome
stroomsna
stround
strounde
stru
strukelje
strukeljer
strukeljers
struktur
struktuur
struktuure
struuk
struuke
sts
stsiede
stskrieuwen
ststaale
ststoald
ststof
sttoustaalen
stu
stuart
student
studente
studenten
studie
studien
studierd
studierde
studierje
studies
studio
studium
stuk
stukke
stukken
sture
stutsed
stuttgart
stuud
stuude
stuuden
stuuns
stuur
stuure
stuurwen
stwierk
style
su
subatoma
subdialekt
subjekt
substantiv
substantive
substanz
substanzen
substroat
substroatsproake
succisa
such
sudan
suez
suk
sukke
sukker
sukkerroor
sul
sula
sulawesi
suldoat
suldoate
suldoaten
sulla
sultan
sultanoat
sumatera
sumatra
sumer
summe
summer
sumpe
sun
sunda
sundai
sunne
sunnebloume
sunnenlucht
sunnensystem
sunner
sunnerbuundskriech
sunnerkoarten
sunnern
sunt
superstroatsproake
sur
suriname
surrealismus
suster
sustere
sustertaxa
suud
suudaast
suudaaste
suudaastelk
suudaastelke
suudafrikoa
suudafrikoanske
suudafrikoansken
suudamerikoa
suudamerikoanske
suude
suudelk
suudelke
suudelken
suudelkste
suuden
suudersee
suudhollound
suudpool
suudstoaten
suudtirol
suudwa
suugediert
suugedierte
suugel
suukene
suulen
suumer
suumerdai
suumertied
suun
suune
suur
suure
suurge
suurgede
suurgeden
suurget
suurstof
sv
sw
swa
swaits
swaitser
swarrere
swasilound
sweden
swedisk
swediske
sweeden
sweedisk
sweediske
sweedisken
sweedsken
sweer
sweere
sweerer
sweerkraft
sweerpunkte
swiek
swieten
swieuwel
swimme
swimmende
swom
swonnebiergerfoan
swonnebierich
swoorm
swot
swott
swotte
swotten
swuunden
syddanmark
sygeltra
sylt
sylter
sylvestris
symbol
symbole
symbolik
symbolismus
symbool
syn
synagoge
synapsen
synaptiske
synkretistisken
synonym
syntax
syrien
syrisk
syriske
syrisken
systeem
system
systematik
systematisk
systematiske
systeme
szene
szenen
t
ta
taal
taale
taalrieke
tabelle
tachentiger
tadarida
tadeusz
tag
tageszeitung
tai
taiwan
takke
takken
taks
taksierd
takt
taliban
tallinn
tambo
tan
tanach
tang
tansania
tapajo
taphozous
tapir
tapire
tarsomerus
tasmanien
tastatuur
taste
tasten
tatar
tatarisk
tatariske
tatarstan
tau
taumatawhakatangihangakoauauotamateapokaiwhenuakitanatahu
taxa
taxon
tb
te
team
teau
technik
techniken
technisk
techniske
technologie
technology
tecklenbuurger
tecklenbuurich
tee
teeken
teekend
teekende
teekene
teekenge
teekengen
teekenjen
teekent
teekner
teil
tek
tel
tela
telefon
telegrafie
teleskoop
telk
tell
tellmann
tellur
tempel
temperatuur
temperatuure
temple
ten
teneriffa
tennessee
tennis
teno
teologie
teppich
ter
terbium
terdeel
tere
tergruund
teritopra
teritum
terra
terrhien
territorium
territory
terror
terrorist
terroristen
terschelling
terste
tertia
tes
tessel
tesselsk
tessin
test
testama
testament
testet
tetralix
tetraploidie
tetzcohco
teutoborger
texas
texcoco
texoanere
text
texte
tgjucht
tgjuchte
th
tha
thailound
than
thar
that
the
their
thema
themen
themoa
themse
theo
theodor
theodore
theologe
theologie
theologinne
theoretiker
theoretiske
theorie
theorien
theotoko
thep
ther
thermiske
these
thesen
thet
theun
thi
thieme
thien
thiopien
thiopiske
this
thiu
tho
thoben
tholt
thomas
thompson
thu
thuner
ti
tibet
tibetisk
tica
tich
tichduusend
tichela
tichjierige
ticht
tichte
tichtebie
tichtegaid
tichter
tid
tidschrift
tied
tiede
tieden
tiedoaler
tiedruum
tiedschrift
tiedskrift
tiedwiese
tiedwoud
tiedwoude
tiemersma
tienden
tienne
tige
tiger
tikal
timbaland
time
times
timor
timotheus
timpe
tintenfass
tintoretto
tirol
tiroler
titan
titanic
titel
titicaca
tittel
titus
tizian
tjaande
tjaanden
tjalk
tje
tjittes
tjo
tjoachter
tjodimensionoal
tjohunnert
tjoo
tjoon
tjoond
tjoonde
tjoonden
tjoonduusend
tjoonje
tjoonst
tjoonste
tjoont
tjooter
tjootern
tjooterspieler
tjooterspil
tjooterstuk
tjooterstukke
tjosproakige
tjosproakigen
tjou
tjoue
tjuk
tjukke
tjukken
tjukte
tjut
tjuude
tjuugen
tjuugnis
tjuusterch
tjuusterge
tjuustergen
tl
tlaxcala
tlaxcalteken
tlound
tlu
tm
tnunner
to
toach
toacht
toachte
toachten
toal
toale
toalemon
toalen
toalrieke
toanke
toankebouk
toanken
toankere
toankmoal
toankt
toba
tobago
tocantins
togo
tokio
toledo
tolstoi
tom
tomme
tomoaten
ton
tonge
tongen
tonk
tonket
tonnen
toon
toonapnoame
toonapnoamen
toone
toonen
toonho
top
topographiske
toponymie
torah
torf
toromanisk
toromaniske
torre
torrijos
torter
toskana
totoal
totoale
tou
touden
toudene
toueerst
toueerste
toufa
toufierd
touflusse
toufo
toufoarne
toufree
toufuul
tougjuchte
tougliek
tougoang
tougong
tougongelk
touhoope
touhoopefljoote
touhoopefljooten
touhoopefljut
touhoopefo
touhoopefoated
touhoopefoatenge
touhoopefoatet
touhoopefoatjend
touhoopehong
touhoopehongje
touhoopehongjende
touhoopeoarbaid
touhoopesa
touhoopesluut
touhoopestaalenge
touhoopestoald
touhoopewoaksen
touhuus
touken
toukumst
toula
toulouse
touma
toumindest
touminst
toumoal
toun
tounuumen
touoardend
tour
toura
toureeke
tourismus
touriste
touristen
touristiske
tournachon
tousa
touskrieuwen
tousta
toustand
toustande
touta
toutreedenge
town
tr
tra
traale
trachemys
tracht
trade
tradition
traditione
traditionell
traditionelle
traditsjonell
traditsjonelle
traditsjoon
trafalgar
trago
transactinoide
transistor
transistore
transport
transportierd
transvaal
trappe
tre
treede
trenkamp
tres
tresoar
tried
trient
trier
trilogie
tringa
tringe
trinidad
tripel
triploid
triploidie
triticum
triumph
triumviroat
trjo
trjoue
tro
troald
troalt
troch
troon
tropen
tropisk
tropiske
tropisken
troppe
troppen
trots
tru
truch
truchfierd
truchgungend
truchla
truchma
truchnunner
truchsa
truchsichtich
truchsleek
true
trujillo
trump
trumpa
truppen
truuf
truuffaawe
truuge
ts
tsa
tsaar
tsalp
tschad
tschechien
tschechiske
tschechoslowaka
tschechoslowakiske
tse
tsed
tseldoabe
tselk
tsenge
tsengen
tsk
tske
tsken
tsklinik
tsklound
tsklounds
tsksproakige
tsksproakigen
tsoar
tstheorie
tt
tte
ttel
tten
ttenge
ttengen
ttengs
tter
tterbau
tterda
tterdruk
ttere
tterfoulge
tterfoulger
tterfoulgere
tterfoulgjende
tterfra
ttergjucht
tterkuumen
tterla
ttermiddai
ttermoakede
ttern
tters
tterske
tterstoundene
ttertoacht
tterwiese
tterwiesengen
ttien
ttienste
ttingen
tu
tucht
tuchted
tucuma
tuffelke
tullius
tun
tunesien
tunge
tunne
tuo
tupaq
turbine
turdus
turka
turken
turkmenistan
turks
turner
tursk
turske
tursken
tuske
tuume
tuumesproang
tuun
tuune
tuunersbieriger
tuunkera
tuusterpa
tv
twa
twadde
tweelfte
tweelich
tweelwe
tweelwerra
twiech
twiege
twieluude
twierk
twieuwel
twinge
twintich
twintichste
twiske
twiskenoan
twisketruch
twist
twiste
two
twoangen
twobra
twoduusend
twohunnert
twoo
twosproakegaid
twosproakich
twosproakige
typ
typen
typisk
typiske
tytsjerksteradiel
tz
tze
tzen
tzin
u
ubbehusen
ubbo
ucayali
ude
udo
udomratchaniwet
uetersen
uff
uganda
uk
ukena
ukraine
ukrainiske
uljanow
ulk
ulm
ulmer
ulrich
ultimoatum
ultra
um
umelound
umlaut
un
und
under
unesco
ungarisk
ungariske
ungarn
ungefa
ungefeer
uni
union
united
universita
university
universum
unner
unnerbreeken
unnerdeeld
unnerdrukt
unneren
unnerfamilie
unnergeen
unnergeene
unnergjucht
unnergjuchtere
unnergong
unnergruund
unnerierm
unnerkaante
unnerklasse
unnerla
unnerloop
unnerlound
unnern
unnerniemen
unnerniemer
unnernoom
unneroard
unneroarde
unneroarden
unneroardenge
unnersa
unnerschat
unnerscheede
unnerskat
unnerskeed
unnerskeede
unnerskeedelk
unnerskeedelke
unnerskeeden
unnerskeedenge
unnerskrieuwen
unnerskrift
unnersleek
unnersoacht
unnerste
unnersto
unnerteekend
unnerteekende
unnerteekenge
unnerteekenje
unnerwaiens
uno
unter
untersuchungen
up
uplengen
upperhaud
uppermon
uppermonljuude
upstalsboom
ur
uran
uranus
urkunde
ursidae
ursprungs
ursula
ursus
uru
uruguay
us
usa
use
user
usw
ut
uta
utah
utc
utende
utert
uthende
uto
utrecht
uu
uuk
uum
uumda
uume
uumebaud
uumebenaamd
uumebrange
uumebroacht
uumehooch
uumekierd
uumela
uumelound
uumelounde
uumesa
uumesleek
uumetou
uumewaareld
uumewaareldfaktore
uumfang
uumfangrieke
uumfoated
uumfoatede
uumfoatet
uumfoatje
uumgongssproake
uumhooch
uumloop
uumroat
uumsa
uumskrift
uumsta
uumwaareld
uun
uuna
uunbekoand
uunbewoond
uunbewoonde
uuneendelk
uuneenichkaid
uunfaal
uungefa
uungefeer
uungjucht
uunglieke
uungoadelke
uungultich
uunmuugelk
uunouhongegaid
uunouhongegaids
uunouhongegaidskriech
uunouhongich
uunouhongige
uunouhongigen
uunra
uur
uurblieuwsele
uurbroacht
uurda
uurdeel
uurdrain
uurdrieuwen
uure
uureenkumst
uureensta
uureenstimt
uurema
uuren
uurfaal
uurfaalen
uurfamilie
uurfla
uurfloudenge
uurgong
uurgongs
uurgongsmetal
uurgongsmetall
uurgunge
uurha
uurich
uurige
uurigens
uurkunde
uurkunden
uurla
uurledingerlound
uurleeken
uurlieuwende
uurlieuwet
uurlieuwje
uurlieuwjende
uurloang
uurma
uurnieme
uurnimt
uurnoom
uurnoomen
uurnuumen
uuroardenge
uurra
uurroat
uurs
uursa
uurse
uursee
uurseeke
uurseeken
uursicht
uursiede
uursniedengen
uurspro
uursproang
uursproangelk
uursproangelke
uurswa
uurswain
uurwinnenge
uurwint
uurwoold
uus
uut
uuta
uutbau
uutbaud
uutbielded
uutboald
uutbreeken
uutbriek
uutbu
uutdiende
uutdienengskoeffizient
uutdruk
uutdrukke
uutdrukt
uute
uutfa
uutfaale
uutfierd
uutfuunen
uutgenuumen
uutgliek
uutgoawe
uutgong
uutgongsenergie
uutgreeuwen
uutgreeuwengen
uutgunge
uutgungt
uutla
uutlaached
uutlo
uutloopere
uutloundere
uutmoaket
uutnoame
uutnoamen
uutnonner
uutnunner
uutnuur
uutoarbaided
uutreeker
uutroat
uutrooded
uutrustenge
uutruupen
uutsa
uutsiedlere
uutsjo
uutsjoon
uutsjucht
uutska
uutsoand
uutspreede
uutspreedenge
uutspreeken
uutsproake
uutstaalenge
uutstierwen
uutstoald
uutstra
uutsturwen
uutstuurwen
uutstuurwene
uutteekend
uuttoacht
uuttreeden
uuttuusk
uutwieded
uutwierkenge
uutwoaksen
uutwoaksene
uutwoaksenen
uutwoal
uw
uwen
uwene
uxmal
v
va
vaccinium
vakuum
val
valdivia
vale
valencia
valentin
valenzbeend
valletta
valley
van
vandalen
var
varel
vargas
variante
varianten
varieta
varilla
vasco
vatikansta
vatikoansken
ve
vechta
vechtaer
vechte
veda
veden
veen
vega
vegas
vegetation
vegetatsjoon
vegetatsjoons
vela
velde
vele
vende
venedig
venetien
venezuela
ventil
ventile
venus
ver
vera
verband
verde
verdi
verdun
verein
vereins
verfassung
vergessene
vergil
verlag
vermeer
verne
vero
versailles
version
versloot
verzeichnis
vi
via
viaf
vicente
victor
victoria
vida
video
videos
vietnam
vii
viii
viktor
villa
village
ville
villeneuve
villers
vilnius
vincent
vincenz
vinci
vinh
viola
violencia
virginia
viscacha
visigoten
vision
vita
vitamin
vitis
vivaldi
viverridae
vize
vizeko
vk
vladimir
vlagtwedde
vnd
vnder
vo
vogel
vokoal
vokoale
vol
volk
volkskunde
volkszeitung
volt
volta
volume
volumen
vom
von
voor
vor
vorgeschichte
vp
vre
vries
vro
vs
vt
vulgaris
vulkoan
vulkoane
vulkoanismus
vund
vv
w
wa
waal
waareld
waarelda
waarelddeel
waarelddeele
waareldkoarte
waareldkriech
waareldkultuura
waareldma
waareldnatuura
waareldriek
waareldruum
waareldruumte
waareldsee
waareldske
waarelduutstaalenge
waareldwied
waarmte
waas
wacholder
wagner
wai
waigjucht
waigjuchted
waigjuchtenge
wain
waiwiesenge
wales
waling
walisisk
walisiske
walker
walkers
wall
wallis
wallonien
wallschlag
walter
walther
wams
wan
wanen
wangen
wangerooge
wangerooger
wangeroogisk
wangeroogiske
wanner
wap
wapedia
war
warhol
warkum
warns
warschau
warschaupakt
warsingsfehn
was
wasa
washington
waskar
waskaran
wasser
wassily
wat
waten
water
watt
wattenmeer
way
wayna
wałe
we
web
weber
webside
websiede
website
webstee
websteede
wechselwiesen
weede
weeden
weeder
weege
weegen
weende
weener
weer
weerbie
weere
weeren
weerfon
weerhaid
weershuuse
weerskienelk
weerskup
weerwe
weese
weesen
weet
weete
weeuwen
weeuwer
weeuwere
weg
weichsel
weimar
weimarer
weizsa
wel
welches
wele
welle
welt
wen
wenn
wentu
wer
werd
werde
werden
were
werenge
werengen
werje
werk
werner
wert
weser
weserfra
west
western
westfalen
westminster
westoverledingen
westrhauderfehn
wetter
wfr
wgerm
what
white
who
whorf
wi
wich
wichtich
wichtichste
wichtige
wichtigen
wichtiger
widerhall
widukind
widzel
wie
wied
wiede
wiedede
wieden
wieder
wiedere
wiederen
wiedet
wiedewieuw
wiedingharde
wiedje
wiedkieker
wiefken
wiefkene
wiek
wieke
wiele
wiemann
wien
wiend
wiende
wiendma
wiener
wier
wiera
wierap
wierapbau
wierbie
wieren
wierfoar
wierfon
wiergebuurt
wiergoawe
wierha
wieringen
wierk
wierke
wierkede
wierkenge
wierkengsgroad
wierket
wierkje
wierkjen
wierksteede
wierma
wieroane
wieroun
wierroat
wierstand
wierstande
wierstound
wierstoundler
wierstounds
wiertou
wiertruch
wierunner
wieruum
wieruume
wieruut
wies
wiesbaden
wiesd
wiesde
wiese
wiesed
wiesegaid
wieselke
wiesen
wiesengen
wiest
wiet
wiete
wieten
wietenskup
wietenskupler
wietenskuppe
wietenskuppelk
wietenskuppelke
wietenskupper
wietenskuppere
wietenskupperske
wietruslound
wietsound
wieu
wieuw
wieuwelk
wieuwelke
wieuwljuude
wieuwmoanske
wikimedia
wikinger
wikingere
wikipedia
wikipedien
wikisource
wiksel
wikselde
wikselje
wikselsponnenge
wikselt
wil
wild
wilda
wilfried
wilhelm
wilhelmine
wilhelmshaven
wilhelmshoawen
wilke
wilkens
will
wille
willem
willi
william
williams
willibrord
willy
wilson
wilst
wilts
wiltshusen
wim
win
windward
winkel
winkele
winne
winnen
winner
winnere
winschoten
wint
winter
winterdai
wintere
wir
wird
wirtschaft
wirtskaft
wirtskaftelke
wirtskup
wirtskuppelke
wirtskuppelken
wirtskups
wisconsin
wish
wisse
wissenschaft
wiste
wisten
wit
with
witsanukam
witte
wittenberg
wittlich
wittmund
witzel
wka
wladimir
wo
woain
woaine
woaks
woakse
woaksed
woaksen
woaksende
woaksene
woaksje
woakst
woal
woale
woalen
woalgjucht
woanelk
woanelke
woape
woapen
woapene
woapenstilstound
woar
woarniemenge
woarniemer
woarniemere
woarnuumen
woarschienelk
woarsene
woarskienelk
woater
woaterdoabe
woaterdoaben
woatere
woaterfierenge
woaterhanne
woaterhyazinthen
woaterkra
woaterloope
woaterpoute
woaterspeegel
woaterstof
woaterstofatome
woaterstroom
woaterswien
woaterswiene
woe
wofuul
woiwodskup
wol
wolf
wolfe
wolfgang
wolga
wolle
wollen
wollene
won
wonnen
wonnerden
wonsk
woodan
wooge
woogelaangte
woogen
woogenlaangte
wook
wooke
woold
woolde
wooldfla
wooldfra
woon
woond
woonde
woonden
woonenge
woonhuus
woonje
woonjen
woonsteede
woont
woordenboek
woorm
woorme
woormenge
woormer
woormte
word
world
worms
wort
woud
woude
woudebouk
woudebouke
woudelieste
woudeliesten
woudelk
woudfrequenz
woudska
wounded
wra
wrieuweluud
wright
wro
wu
wucht
wuchtere
wuddelk
wuddelke
wuddelkhaid
wude
wuden
wul
wulf
wulff
wulfila
wulfs
wulle
wullen
wulwe
wunnen
wunner
wurde
wurk
wursten
wurstfra
wuttel
wuttele
wuttelstok
wuud
wuude
wuudelk
wuudelkaid
wuudelke
wuuden
wuudene
wuuks
wuuksen
ww
www
x
xaver
xavier
xi
xianfan
xii
xiii
xingu
xiv
xo
xochimilco
xv
xvi
xviii
xx
y
ya
yag
yavapai
yn
yo
york
you
young
your
youtube
ys
yucata
yucatan
yuma
yupanki
yves
z
za
zamora
zanne
zar
zdene
ze
zea
zeit
zeitschrift
zeitung
zeno
zentimeter
zentimetere
zentroal
zentroalafrikoanske
zentroale
zentrum
zeppelin
zhuang
zimmermann
zink
zirkonium
zitadelle
zivile
zivilisten
zone
zoo
zquez
zu
zug
zulu
zum
zur
zwei
zwijndrecht
zwischen
zwolffen
zwolle
zwoluen
zypern
zypresse
zypressen
{
|
}
~
§
ª
«
­
°
²
³
´
·
»
½
×
ß
æ
ð
ø
þ
þorn
łobez
łuz
œ
œhmichen
ɔ
ə
ɛ
ɛi
ɪ
ɲ
ʃ
ʎ
ʏ
ʤ
ʧ
ʰ
ʻ
ʿ
ˈ
ˌ
ː
̀
́
̂
̃
̄
̆
̇
̈
̊
̋
̌
̓
̔
̛
̞
̣
̦
̧
̨
̯
͂
ͅ
͡
α
β
γ
ε
θ
μ
ν
ο
ρ
ς
υ
φ
χ
ω
ϵ
а
и
л
м
с
ч
֑
֖
֣
֥
֨
ְ
ֱ
ֲ
ִ
ֵ
ֶ
ַ
ָ
ֹ
ֻ
ּ
ֽ
־
ׁ
ׂ
׃
א
ב
ג
ד
ה
ו
ח
י
ים
ית
ך
כ
ל
ם
מ
נ
פ
ץ
צ
ק
ר
ש
ת
ٔ
ٕ
்
န
မ
ာ
်
ြ
​
‎
–
—
‘
’
‚
“
”
„
†
•
…
′
″
⁡
€
→
↔
↷
∂
−
≈
≫
③
④
⑦
♠
♣
♥
♦
⟶
⺀
⺄
⺆
⺈
⺊
⺌
⺕
⺝
⺸
⺼
⿰
⿱
⿲
⿳
⿴
⿵
⿶
⿷
⿸
⿹
⿺
⿻
〢
゙
ク
コ
ッ
ユ
・
㇁
㇂
㇄
㇇
㇈
㇉
㇓
㐁
㐄
㐅
㐌
㐫
㐬
㐭
㐮
㐱
㑒
㒵
㒸
㒼
㓁
㓞
㔾
㕛
㕣
㖾
㘝
㚅
㚇
㚔
㚘
㝉
㝡
㝴
㝵
㞋
㞢
㞷
㠩
㠭
㠯
㡀
㡭
㡿
㢲
㢴
㣇
㣺
㥯
㪅
㫄
㫐
㫒
㫺
㬅
㬎
㬥
㬰
㲋
㳄
㷠
㸒
㸚
㸦
㼌
㼲
㽞
㿟
䀠
䂞
䍃
䏍
䒑
䖍
䖒
䖝
䖵
䙴
䚻
䜌
䝿
䡛
䧹
䪞
一
丁
丂
七
丄
丅
丆
万
丈
三
上
下
丌
不
与
丏
丐
丑
专
且
丕
世
丘
丙
业
东
丞
丢
丣
两
严
並
丨
丩
个
丫
丬
中
丮
丰
丱
串
丵
丶
丷
丸
丹
为
主
丽
丿
乀
乂
乃
久
乆
乇
么
义
之
乌
乍
乎
乏
乐
乑
乔
乖
乗
乘
乙
乚
乛
乜
九
乞
也
习
乡
乳
乾
亀
亅
了
亇
予
争
事
二
亍
于
亏
亐
云
互
亓
五
井
亘
亚
亜
亞
亟
亠
亡
亢
交
亥
亦
产
亨
亩
享
京
亭
亮
亯
亰
亲
亳
亶
亷
人
亻
亼
亾
仁
今
介
仌
从
仐
仑
仒
仓
仕
他
付
仝
代
令
以
任
企
伊
伏
伐
休
会
伯
但
位
何
佘
余
作
佥
使
來
侈
侌
侖
侯
侵
便
保
俞
信
修
倉
倍
候
倠
備
僉
僕
儿
兀
允
兂
元
兄
充
兆
兇
先
光
兊
克
兌
免
兑
兒
兓
兔
党
兜
兟
入
全
兩
兪
八
公
六
兮
兰
共
关
兵
其
具
典
兹
兼
冀
冂
冃
冄
内
冈
冉
冊
冋
册
再
冎
冏
冐
冒
冓
冖
冗
冘
军
农
冝
冡
冥
冫
冬
冷
几
凡
凢
凵
凶
凷
凸
凹
出
函
凾
刀
刁
刂
刃
刄
刅
分
切
刍
刑
刕
刖
列
刘
则
初
別
利
别
到
制
刺
則
削
剌
前
剡
剽
劉
力
功
加
劦
助
劫
劳
劵
勃
勇
勉
勒
動
務
勞
勤
勹
勺
勻
勾
勿
匀
匂
包
匆
匈
匊
匋
匍
匕
化
北
匚
匝
匡
匪
匱
匸
匹
区
医
匽
匿
區
十
卂
千
卄
卅
卆
升
午
卉
半
卌
华
卑
卒
卓
单
卖
南
卜
卝
卞
占
卡
卢
卣
卤
卦
卩
卪
卬
卯
印
危
即
却
卵
卷
卸
卻
厂
厃
厄
历
厈
厉
厌
厓
厘
厚
原
厤
厥
厨
厭
厲
厶
厷
厸
去
厼
厽
叀
参
參
叅
又
叉
及
友
双
反
叐
发
叒
叔
叕
取
受
叚
叜
叟
口
古
句
另
叩
只
召
可
台
叱
史
右
叵
号
司
叹
吂
各
吅
合
吉
吊
吋
同
名
后
吏
向
吕
君
吝
吞
否
含
启
吳
吴
吹
吾
呂
呆
呈
告
员
呙
周
命
咅
和
咎
咠
咢
咨
咸
咼
哀
品
哉
員
哥
哲
唐
商
啇
問
啚
啬
啻
善
喜
喬
單
喿
嗇
噩
嚴
囊
囗
囘
囙
囚
四
回
囟
因
囧
囬
困
囱
囷
固
国
圂
圅
國
圍
圓
土
圡
圣
圥
在
圭
地
圶
圼
坐
坒
坚
坴
垂
垔
垚
埀
埋
埶
執
基
堂
堅
堆
堇
堯
塞
墨
壘
士
壬
壯
声
壳
壴
壹
壺
壽
夂
处
夅
夆
备
夊
夋
夌
复
夏
夒
夕
外
夗
夘
多
夜
夢
大
夨
天
太
夫
夬
夭
央
失
夲
头
夷
夸
夹
夻
夾
奂
奄
奇
奈
奉
奎
奏
奐
契
奓
奔
奚
奞
奠
奢
奥
奭
女
奴
奻
好
如
妄
妙
妟
妥
妻
妾
姑
委
姜
威
娄
婁
婴
嬰
嬴
子
孑
孔
孕
孖
字
存
孚
孛
孝
孟
季
孤
学
孫
孱
學
宀
宁
宂
它
宅
宇
守
安
宋
完
宏
宓
宗
官
定
宛
宜
宝
客
宣
室
宮
宰
害
家
容
宾
宿
寄
寅
密
富
寒
察
寧
審
寫
寬
寮
寸
对
寺
寻
寽
対
寿
封
尃
射
将
將
專
尉
尊
尋
尌
對
小
少
尒
尓
尔
尖
尗
尚
尞
尢
尣
尤
尧
尨
尭
就
尸
尹
尺
尻
尼
尽
尾
尿
局
居
屈
屋
屎
屏
屑
展
屖
屚
属
屠
屡
屬
屮
屯
屰
山
屵
屾
岁
岂
岑
岡
岩
岳
岸
峯
島
崇
崑
崔
崖
崙
崩
嵬
嶲
巂
巛
川
州
巟
巠
巢
巤
工
左
巧
巨
巩
巫
差
己
已
巳
巴
巷
巸
巽
巾
巿
帀
市
布
希
帚
帛
帝
带
師
席
帶
常
干
平
年
幵
并
幷
幸
幺
幻
幼
幽
幾
广
広
庄
床
底
店
庚
府
度
庫
庭
庶
康
庸
廉
廌
廛
廣
廩
廴
延
廷
建
廾
廿
开
弁
弃
弄
弇
弋
式
弓
弔
引
弗
弘
弜
弟
弥
弦
弱
張
強
强
彊
彌
彎
彐
彑
当
彔
录
彖
彗
彡
形
彥
彦
彧
彭
彳
役
彼
往
待
律
徒
得
徙
從
復
微
徵
心
忄
必
忌
忍
志
忝
忠
忩
快
念
忽
忿
思
怠
急
怱
恆
恒
恩
恭
息
悉
患
悤
悲
悶
惠
惡
惢
愁
愈
意
愛
感
慈
慧
慮
憂
憲
應
戀
戈
戉
戊
戋
戌
戍
戎
成
我
戒
戔
或
戚
戠
戢
截
戲
戶
户
戹
戼
戾
房
所
扁
扇
手
扌
才
打
托
执
承
折
拉
拜
拿
掌
推
提
摩
支
攴
攵
收
攸
改
放
政
敄
敏
敕
敖
敗
敝
敞
敢
散
敦
敫
敬
数
敷
數
斂
文
斉
斊
斗
斤
斥
斩
斬
斯
新
方
於
施
斿
旁
旋
族
无
旡
既
旣
日
旦
旧
旨
早
旬
旱
旲
时
旾
昆
昇
昌
昍
明
昏
易
昔
昗
昜
星
春
昬
是
昱
昴
昷
時
晃
晋
晏
普
景
晶
智
暑
暴
曇
曩
曰
曲
曳
更
曷
書
曹
曼
曾
替
最
朁
會
月
有
朋
服
朔
朕
朗
望
朝
木
朩
未
末
本
札
朮
术
朱
朵
朶
朿
杀
杏
杜
束
条
来
東
杲
杳
松
析
林
枚
果
枝
枲
枼
某
柔
查
柬
柰
柴
栗
桀
桑
桼
梁
條
梟
梨
棘
棠
棥
森
楚
業
楽
榮
樂
樊
欠
次
欣
欮
欲
欶
欽
款
歆
歇
歛
止
正
此
步
武
歨
歪
歮
歯
歰
歲
歴
歷
歸
歹
歺
死
殳
段
殷
殸
殹
殺
殻
殿
毋
毌
母
每
毒
比
毕
毚
毛
毳
氏
氐
民
气
氣
水
氵
氶
氷
永
氺
氾
求
汝
汞
江
沃
沓
沙
沝
泉
法
波
泣
泥
泰
洛
洪
活
派
流
浦
浪
浮
淡
淮
清
渚
渠
湯
滿
漸
火
灬
灭
灰
灵
灷
炅
炎
炏
炗
炙
炭
為
烈
烏
烝
焉
無
焦
焱
然
煞
熊
熏
燕
營
燮
爪
爫
爭
爯
爰
爱
爲
爵
父
爻
爽
爾
爿
片
牙
牚
牛
牜
牟
牢
牧
牪
牽
犀
犬
犭
犮
狂
狄
狊
独
狺
猋
猒
猪
献
獻
玄
率
玉
王
玟
玨
珎
班
琴
瑟
瑩
璠
瓜
瓦
甘
甚
生
産
用
甫
甬
田
由
甲
申
电
甶
男
甸
甹
画
甾
畀
界
畏
畐
留
畜
畟
畢
畧
畨
番
畫
異
畱
當
畺
畾
疊
疋
疌
疑
疒
疾
癶
癸
癹
登
發
白
百
皀
皃
的
皆
皇
皋
皐
皕
皮
皷
皿
盃
盆
盇
盈
益
盍
盎
监
盒
盖
盛
盡
監
盤
盧
目
直
相
盾
省
眇
眉
看
眔
眞
真
眷
眼
眾
着
睘
睪
睿
瞏
瞢
瞿
矍
矛
矞
矢
矣
知
矦
短
石
破
碎
磊
磨
示
礻
礼
祟
票
祭
禀
禁
禸
禹
禺
离
禽
禾
禿
秀
秃
秉
秋
科
秝
秦
移
稟
穀
穌
穴
究
穹
空
穿
突
窄
窒
立
竒
竜
竝
竟
章
童
竹
笑
笠
筆
等
答
箕
算
箴
節
篤
篭
米
粉
粛
粟
粤
粦
粲
糞
糸
糹
系
約
納
素
索
紫
累
細
絜
絫
絲
維
綿
縣
繇
纍
纟
缶
网
罒
罔
罕
罗
罙
罡
罢
罪
署
罷
羅
羊
羌
羍
美
羔
羕
羗
羞
羡
羣
群
義
羲
羸
羽
翁
翏
習
翕
翟
翠
翼
老
耂
考
者
耆
而
耎
耑
耒
耳
耴
耶
耷
聂
聊
聖
聚
聶
聿
肀
肃
肅
肉
肖
肙
肥
肩
肯
育
肴
胃
背
胡
胥
能
脊
脩
膚
臣
臤
臧
自
臬
臭
臯
臱
至
致
臺
臼
臽
臾
臿
舀
舂
舄
與
興
舉
舌
舍
舛
舜
舞
舟
般
艮
良
色
艸
艹
艾
芒
芔
芬
芮
花
芳
芺
芻
苔
苗
苟
若
苦
英
茶
茸
荅
草
荒
荣
荼
莆
莧
莫
莽
菆
菊
菐
華
萬
落
葉
著
葛
董
葵
蒙
蒦
蒼
蓋
蓬
蓺
蔑
蔡
蕉
蕭
薄
薛
薦
薰
藍
藏
藥
蘭
虍
虎
虐
虒
虔
處
虖
虗
虘
虚
虛
虜
虞
虫
虽
蚤
蚩
蜀
蜜
蟲
蠡
血
行
衍
衛
衣
衤
表
衮
衰
袁
袞
褭
褱
襄
襾
西
覀
要
覃
見
規
覓
覧
親
覽
见
角
解
言
訁
訇
計
詹
誩
諸
讠
谷
豆
豈
豊
豐
豕
豖
豙
象
豦
豩
豪
豸
貇
貝
貞
貟
負
貢
貧
貪
貫
責
貳
貴
買
費
賁
資
賈
賏
賓
賔
賛
賞
賢
賣
質
賴
贊
贝
贡
责
贯
贲
贵
赖
赞
赤
赦
走
越
足
路
蹇
身
躬
車
軍
軎
軟
輦
车
辛
辜
辟
辥
辰
辱
農
辵
辶
边
达
过
近
连
迷
追
退
送
逆
逐
通
速
造
逢
連
逮
進
遀
遂
過
道
達
遣
適
遷
遺
邊
邑
邕
那
邦
邪
郎
部
郭
都
鄉
酉
酋
配
酓
釆
采
里
重
野
量
金
釒
錢
钅
長
镸
长
門
閃
閉
開
閏
閑
閒
間
閔
閵
閻
闌
门
间
闷
阑
阜
阝
阿
降
陳
隆
隊
隋
隡
隨
隱
隶
隹
隺
隻
隼
隽
难
雀
雁
集
雈
雋
雍
雐
雔
雙
雚
雜
雝
離
難
雨
雩
雪
雲
零
雷
需
霍
霜
霝
霞
霸
靈
靑
青
非
靡
面
靣
革
韋
韦
韭
韯
韱
音
頁
頃
項
須
頗
頡
頻
顛
页
風
风
飛
飞
食
飠
養
饣
首
香
馬
馮
駦
马
骨
高
髟
鬥
鬯
鬲
鬼
魚
魯
鮮
鱼
鲁
鳥
鳳
鸟
鹵
鹿
麃
麗
麥
麦
麻
黃
黄
黍
黎
黑
黒
黨
黹
黽
黾
鼎
鼓
鼠
鼻
齊
齋
齐
齒
齿
龍
龙
龜
龟
龠
龰
龱
龴
龵
龶
龷
龸
龹
者
艹
？
�
𐌰
𠀁
𠀃
𠀆
𠀉
𠀎
𠀐
𠁁
𠁣
𠂆
𠂇
𠂈
𠂉
𠂊
𠂋
𠂎
𠂒
𠂔
𠂛
𠂡
𠂢
𠂤
𠂬
𠂭
𠂹
𠃊
𠃋
𠃌
𠃍
𠃎
𠃑
𠃓
𠃔
𠃜
𠄌
𠄎
𠄠
𠄢
𠆢
𠆥
𠇍
𠈌
𠌵
𠓜
𠔉
𠔥
𠔼
𠔽
𠔿
𠕀
𠕁
𠕋
𠘧
𠘨
𠙻
𠙼
𠚏
𠚒
𠚤
𠚪
𠣏
𠤎
𠤕
𠥓
𠦄
𠦑
𠦝
𠧒
𠧗
𠧪
𠩺
𠪚
𠫓
𠫔
𠫤
𠬛
𠬝
𠬞
𠬢
𠬤
𠬶
𠮛
𠮦
𠮷
𠯑
𠱠
𠳮
𠷎
𡈼
𡉀
𡉵
𡌥
𡍮
𡏳
𡕒
𡕩
𡕰
𡖅
𡗗
𡗜
𡘆
𡘤
𡧱
𡨄
𡩧
𡬠
𡭽
𡰣
𡰥
𡰪
𡰯
𡰱
𡷈
𡸁
𡿨
𡿩
𡿪
𡿺
𢀖
𢀛
𢀩
𢁙
𢆉
𢆰
𢆶
𢇁
𢇇
𢉖
𢌬
𢌿
𢏚
𢑑
𢑚
𢖻
𢙣
𢛳
𢦏
𢦒
𢧵
𢼄
𢾕
𣁋
𣄼
𣅀
𣅽
𣍘
𣎳
𣎵
𣏋
𣏼
𣗥
𣥂
𣥖
𣦵
𣦼
𣧄
𣪊
𣪠
𣬉
𣳾
𣶒
𤇾
𤊽
𤐫
𤓰
𤔔
𤕨
𤣩
𤰇
𤰔
𤰞
𤴓
𤴔
𤽄
𥁑
𥁕
𥃦
𥃩
𥃭
𥇡
𥑟
𥘅
𥘈
𥝢
𥫗
𥱡
𦈢
𦉪
𦉬
𦉼
𦍌
𦍒
𦎧
𦐇
𦓔
𦔮
𦘒
𦙃
𦚏
𦣝
𦣞
𦣻
𦥑
𦥔
𦥯
𦨉
𦭝
𦰩
𧆞
𧈧
𧘇
𧰨
𧴪
𧴮
𧵩
𧾷
𨸏
𨾴
𩙿
𩠐
𩫏
𩵋
𪉷
𪜀
𪟽
𪠲
𪩲
𫇦
𫔭
𫜸
𫝀
𫠣
𫠩
𫢉
𫥞
𫩏
𫩠
𫪡
𫲽
𫶧
𬀷
𬐘
𬗌
𬙙
𬛸
𬜯
𬟩
𬯁
𬴘
𬺻
𬼉
𬼖
𭀰
𭁈
𭁨
𭅰
𭑈
𭕄
𭗼
𭤨
𭥫
𭻾
𮅕
𮊿
𮍌
𮍏
𮓗
𮥼
𮧮
廾
𰀁
𰀄
𰀈
𰀉
𰀕
𰀠
𰀡
𰀢
𰀪
𰁜
𰃮
𰆊
𰆘
𰋙
𰕎
𰢴
𰧭
𰯲
04--
15--
57--
67--
78--
82--
86--
87--
92--
a--
aa--
aal--
aapel--
aast--
ab--
aca--
acc--
ach--
aco--
acti--
ad--
admin--
ae--
aemi--
af--
afr--
ag--
agu--
ah--
ai--
ailound--
airl--
aka--
aktions--
aktiv--
aktuali--
al--
alba--
ali--
alkali--
all--
alle--
allo--
alt--
am--
amby--
amts--
an--
ana--
and--
ant--
anthropog--
anti--
ap--
appa--
apst--
ar--
argu--
art--
as--
astro--
astu--
at--
atla--
atom--
au--
auf--
aus--
auto--
ave--
ayyubi--
az--
b--
ba--
baad--
babylon--
bal--
bar--
bast--
bau--
be--
bedeel--
bee--
behi--
bek--
bel--
belee--
belju--
ben--
benut--
beoa--
beoobo--
ber--
berg--
bern--
bes--
besie--
besku--
beson--
bet--
bi--
bib--
biblio--
bie--
bierich--
bietou--
bill--
bio--
birman--
bis--
bit--
bla--
ble--
blo--
bloud--
bo--
boal--
boar--
bols--
boom--
bor--
borg--
bos--
bots--
br--
bra--
bre--
breek--
bro--
bru--
bruun--
bu--
bulga--
burger--
buundes--
buut--
buute--
buuten--
byzantien--
c--
ca--
capy--
car--
cari--
cata--
ce--
cent--
cer--
ch--
cha--
chen--
chi--
chile--
chron--
cht--
chtou--
ci--
ck--
cl--
co--
coll--
com--
con--
cons--
cor--
corp--
cott--
cra--
cri--
cult--
cur--
d--
da--
dai--
damp--
dar--
dat--
db--
ddel--
de--
deeges--
deel--
deer--
defin--
demo--
den--
der--
des--
det--
di--
dia--
diam--
dicc--
die--
digi--
dis--
disco--
dl--
dm--
do--
doat--
dolo--
dom--
domin--
dons--
dood--
dr--
dro--
dru--
ds--
du--
dun--
duur--
e--
east--
ed--
ee--
eed--
een--
eend--
eenun--
ei--
eich--
ein--
eis--
ek--
ekonom--
el--
ele--
elek--
elektro--
em--
emer--
en--
engel--
er--
erzie--
es--
escu--
est--
et--
eu--
eura--
euro--
ev--
eva--
even--
ex--
exist--
exo--
expedit--
explo--
f--
fa--
faawe--
fal--
fau--
fe--
feen--
fer--
fera--
ferbie--
ferhi--
feroun--
fersp--
feu--
ff--
fic--
fie--
fieuw--
figu--
fil--
fin--
fix--
fjo--
fju--
fjuun--
fjuur--
fla--
fle--
flens--
flint--
flo--
floite--
flu--
fluch--
flug--
fo--
foan--
foar--
fon--
foold--
for--
foulke--
foulks--
fout--
foutbal--
fr--
fra--
fracht--
fre--
frie--
fro--
froage--
ft--
fu--
ful--
fuugel--
g--
ga--
gali--
gall--
gang--
gar--
gard--
gas--
ge--
geb--
geograph--
ger--
gi--
gift--
giga--
gjuchts--
glau--
gli--
gliek--
glo--
gloowens--
gna--
go--
god--
gou--
gr--
gra--
graph--
green--
groning--
groot--
gru--
grund--
gruund--
gu--
guadal--
guer--
gulf--
gypt--
h--
ha--
habs--
hal--
halm--
halo--
haplo--
har--
harl--
haud--
haup--
he--
heer--
her--
hi--
hie--
hier--
hilde--
hiro--
histo--
hl--
hn--
ho--
hoch--
hof--
hol--
holz--
hond--
hong--
hooch--
hou--
hr--
hu--
hum--
hunnert--
hus--
huu--
huunde--
huus--
hy--
hydro--
hym--
hyper--
i--
ich--
id--
ide--
iden--
ider--
idi--
ie--
ien--
ientou--
ienwon--
ies--
if--
ige--
ik--
il--
ild--
illu--
im--
in--
indo--
ink--
inn--
ins--
int--
integr--
intelli--
inten--
inter--
ip--
ir--
is--
isa--
iso--
it--
itali--
italjee--
iten--
iw--
j--
ja--
je--
jee--
jidd--
jier--
jo--
joa--
ju--
jugend--
jung--
juu--
juun--
k--
ka--
kana--
kap--
kapitu--
karr--
kasten--
katol--
ke--
kid--
kilo--
kirch--
kjuus--
kla--
klaaster--
klassifis--
klima--
klo--
klok--
kloor--
kno--
ko--
koll--
kom--
kommu--
kommunikat--
kon--
konkur--
konse--
koo--
kool--
koop--
kopti--
kor--
koreoa--
korrig--
kos--
kosten--
kr--
kra--
kre--
kreuz--
kriechs--
krim--
krist--
kro--
kroat--
kru--
kry--
ks--
kst--
ku--
kultur--
kultuur--
kunst--
kuut--
kwa--
l--
la--
lagu--
lan--
land--
lands--
laser--
lat--
law--
ld--
lde--
le--
legu--
len--
les--
leu--
lexiko--
li--
lid--
liek--
lien--
litau--
literatuur--
liturg--
liud--
lj--
lke--
ll--
lle--
ln--
lo--
loang--
loos--
lound--
ls--
lt--
lte--
lu--
lucht--
luft--
luud--
lwen--
ly--
m--
ma--
maast--
mac--
magi--
mah--
mai--
maipu--
mala--
man--
mar--
mas--
me--
mee--
megaherbi--
memo--
men--
mess--
met--
mexi--
mha--
mi--
mid--
middel--
mikro--
min--
minner--
mis--
misk--
mit--
mittel--
mo--
moa--
moal--
molos--
mon--
mono--
moon--
moor--
motor--
mp--
mu--
munit--
musik--
muta--
muur--
my--
n--
na--
nai--
natur--
natuur--
nau--
nb--
nd--
ne--
neer--
neid--
neu--
neurotrans--
ng--
nh--
ni--
nichs--
nie--
nij--
nis--
nit--
niz--
nn--
no--
noa--
noaber--
nood--
nor--
nord--
noud--
ns--
nt--
ntoa--
nu--
nuk--
o--
oa--
oai--
oargel--
ob--
occ--
octa--
odys--
of--
ol--
olden--
oliv--
olog--
om--
on--
oold--
op--
opti--
or--
os--
ost--
ou--
oulje--
oun--
ous--
ousoa--
outou--
oxidation--
oxyco--
oy--
p--
pa--
pakistoa--
para--
parzel--
pat--
pe--
pen--
per--
pi--
piel--
pig--
pl--
pla--
plast--
platt--
plo--
po--
poage--
poe--
pol--
polit--
polynes--
pop--
pot--
preet--
pri--
pro--
produ--
produz--
pru--
pse--
pu--
purg--
putu--
puu--
puus--
pyri--
q--
qu--
que--
quir--
r--
ra--
radio--
ran--
rand--
rch--
rde--
re--
reag--
red--
ref--
reflekt--
regi--
regional--
rekatholis--
rekon--
relat--
res--
rf--
rhien--
rho--
ri--
rieks--
rien--
ring--
rk--
rke--
rken--
rm--
rn--
ro--
roa--
roer--
rom--
ron--
roo--
rood--
roow--
rou--
rree--
rs--
rsk--
rst--
rt--
rtjuu--
ru--
rump--
rund--
runen--
ruther--
ruum--
ruumte--
ruut--
s--
sa--
saar--
salz--
sam--
san--
sats--
sc--
sch--
schla--
schlie--
scho--
schrei--
schwe--
se--
sea--
see--
sem--
sen--
seng--
sephard--
ser--
sha--
sho--
si--
sie--
sig--
sil--
sin--
sk--
ska--
skalt--
skeed--
ski--
skien--
skla--
sko--
skoulk--
slee--
slju--
slo--
sloa--
slove--
smilt--
smo--
snur--
so--
sol--
song--
soo--
sosjoal--
sound--
sozi--
sozia--
sozialdemo--
sozialist--
sp--
spe--
spekt--
spie--
spielst--
spir--
spits--
spon--
sprach--
sproak--
ss--
st--
sta--
stadt--
stam--
stand--
stapel--
stat--
ste--
steen--
ster--
stie--
stiern--
stil--
sto--
stoats--
stri--
sts--
stu--
su--
sub--
sun--
sunner--
suu--
suud--
sw--
sweer--
swoa--
swot--
sy--
syn--
synapto--
sø--
t--
ta--
taal--
tabellier--
tachen--
taks--
tasma--
tau--
te--
tele--
tem--
ten--
ter--
territo--
terz--
th--
the--
theo--
thermo--
tho--
thy--
thyla--
ti--
tied--
tja--
tjo--
tju--
tjuuch--
to--
toan--
toon--
tou--
toun--
tr--
tra--
trans--
tre--
tri--
trif--
tro--
troon--
truch--
truuf--
truur--
ts--
tsje--
tten--
tter--
ttertou--
tu--
tucht--
twoangsoar--
twoun--
u--
uer--
uit--
um--
un--
uni--
unner--
up--
upper--
ur--
us--
ut--
uu--
uum--
uume--
uumek--
uun--
uunou--
uur--
uurt--
uut--
uuttou--
v--
va--
vaku--
val--
ve--
veg--
veld--
ver--
vi--
vo--
vor--
w--
wa--
waareld--
wai--
wan--
war--
water--
we--
weede--
weer--
wel--
wen--
west--
wester--
wi--
wien--
wier--
wiet--
wik--
wiksel--
wil--
wilmesaur--
win--
winter--
wo--
woal--
woater--
won--
woold--
wort--
woud--
wu--
x--
xo--
y--
ya--
ye--
z--
za--
ze--
zif--
zu--
zwei--
zylindr--
ß--
œ--
--0
--1
--2
--3
--4
--5
--6
--7
--75
--8
--9
--a
--aar
--aat
--ac
--aceae
--ach
--ad
--ado
--adt
--ae
--af
--ag
--age
--agen
--ago
--ah
--ai
--ain
--ak
--ake
--aks
--akse
--al
--ald
--ale
--alen
--alt
--am
--an
--ane
--ann
--anske
--ant
--anz
--ao
--ar
--ard
--are
--aren
--ary
--as
--asien
--asje
--ast
--at
--ata
--ate
--ated
--ater
--ation
--atisk
--ativ
--ato
--atom
--ator
--au
--awe
--ay
--b
--ba
--bald
--bau
--be
--beer
--beere
--ben
--berg
--besa
--bet
--bie
--blau
--bly
--bo
--boar
--boom
--bra
--bs
--bu
--burg
--buund
--c
--ca
--ce
--ceae
--ces
--ch
--che
--cht
--chteden
--chtet
--cio
--ck
--co
--cus
--cy
--d
--da
--dae
--dai
--de
--deel
--den
--der
--dere
--dert
--des
--di
--dia
--do
--dom
--dorp
--dos
--ds
--dt
--du
--dum
--dus
--duume
--duusend
--dy
--e
--ea
--ech
--ed
--eda
--ede
--ee
--eed
--egaid
--ege
--eges
--ei
--ek
--eken
--el
--eld
--elde
--ele
--elk
--elke
--ell
--elle
--em
--en
--ena
--ene
--enge
--engen
--ens
--ensis
--ent
--eo
--er
--era
--erd
--ere
--erg
--ers
--ersk
--erske
--ert
--es
--et
--eus
--euw
--ewen
--ex
--ey
--f
--fa
--fe
--feld
--fereen
--ferta
--ff
--fla
--fo
--foarm
--fra
--fru
--ft
--fu
--g
--ga
--gaid
--gas
--gd
--ge
--gebiet
--gen
--ger
--ges
--gge
--gie
--gio
--gje
--gle
--gn
--go
--gra
--gret
--gs
--gst
--gt
--gu
--gua
--gum
--h
--ha
--haid
--haide
--he
--heim
--hew
--ho
--hoaf
--hon
--hong
--hou
--hr
--ht
--hus
--husen
--huus
--huuse
--hymne
--i
--ia
--iae
--ial
--ian
--ic
--ich
--ico
--id
--ide
--ie
--ien
--ierd
--ierde
--ierje
--ierjen
--iert
--ierte
--ies
--ifolia
--ig
--igd
--igde
--ige
--ii
--ik
--ika
--il
--im
--imum
--imus
--in
--ina
--ine
--inen
--iner
--ing
--ings
--ini
--inne
--ino
--io
--ioanske
--ion
--ionistiske
--ior
--ios
--ir
--ira
--is
--isch
--ish
--isierd
--isierje
--isk
--iske
--ismus
--ist
--isten
--it
--ita
--itiske
--itsch
--itz
--ium
--ius
--ix
--iz
--izen
--iß
--j
--ja
--je
--jen
--jend
--jende
--jierige
--jk
--juuch
--juuge
--k
--ka
--kaid
--ke
--kel
--ken
--ker
--ket
--ki
--ko
--koarte
--kongres
--kriech
--krift
--ks
--kt
--kte
--ktion
--ku
--kunde
--kup
--kus
--kuste
--l
--la
--lar
--lav
--lba
--lbeere
--ld
--lde
--le
--leek
--len
--ler
--les
--let
--lf
--li
--liche
--lis
--lismus
--lje
--lk
--lke
--lken
--ll
--lla
--lle
--lm
--lmann
--ln
--lo
--logie
--loo
--loop
--loos
--loose
--lound
--ls
--lse
--lt
--ltje
--lu
--lus
--ly
--lz
--m
--ma
--maak
--man
--masse
--me
--ment
--mes
--mia
--mierd
--mo
--model
--moor
--mp
--mpe
--ms
--mu
--mul
--mus
--n
--na
--nas
--nay
--nberg
--nbu
--nc
--nces
--nd
--nde
--nden
--ne
--nelle
--nen
--nenge
--ner
--nerd
--nere
--nes
--nese
--ng
--nge
--ngen
--ngs
--ngsa
--nho
--nhof
--ni
--nia
--nis
--nisk
--niske
--niveau
--nn
--no
--noale
--noame
--noomen
--ns
--nt
--nte
--nto
--num
--nus
--nuur
--ny
--nze
--o
--oal
--oald
--oale
--oalige
--oalske
--oan
--oar
--oard
--oat
--oate
--od
--ographie
--ok
--ol
--ology
--om
--on
--ond
--opus
--or
--os
--ot
--ough
--ound
--ov
--ow
--oy
--p
--pa
--paata
--park
--pe
--per
--pf
--ph
--phie
--phyt
--pje
--ppe
--pra
--ps
--q
--quartier
--que
--r
--ra
--rain
--ral
--ram
--rat
--ration
--rax
--rd
--rde
--re
--reba
--region
--rer
--rf
--rg
--ri
--rie
--riekste
--rieten
--rin
--rium
--rje
--rk
--rlound
--rm
--rma
--rn
--ro
--ros
--rr
--rre
--rs
--rsk
--rske
--rst
--rsta
--rt
--rte
--ru
--rus
--ruum
--ry
--s
--sa
--sch
--se
--see
--sekreta
--sel
--sen
--sene
--ses
--sfa
--sh
--silwe
--sion
--sionoale
--sis
--sisk
--sit
--siv
--sk
--ska
--ske
--skede
--skup
--sma
--smus
--snit
--so
--soam
--son
--spiele
--spil
--spra
--sproake
--ss
--ssa
--ssproake
--ssta
--st
--sta
--ste
--stied
--stiede
--stoat
--stoul
--stra
--stuk
--su
--sum
--sus
--sweach
--sweege
--swiese
--swiesen
--t
--ta
--taal
--tal
--talis
--tation
--te
--ted
--tel
--ten
--tenge
--tengen
--ter
--tes
--th
--ti
--tia
--tie
--tied
--tiert
--tik
--tina
--tion
--tisk
--tiske
--tive
--tjer
--tmann
--to
--tor
--tos
--tou
--tra
--trie
--ts
--tse
--tt
--tta
--tte
--tti
--tum
--tus
--tusk
--typ
--tz
--u
--ua
--ud
--ue
--uen
--uer
--uet
--uf
--ugh
--uk
--uke
--ul
--ula
--um
--un
--ung
--up
--ur
--ura
--ure
--uro
--uropa
--urs
--us
--ut
--ute
--uw
--uwe
--ux
--v
--va
--ve
--ven
--ves
--w
--wa
--wai
--wald
--way
--we
--weg
--wegen
--wen
--wenge
--wierk
--wiese
--wijk
--wo
--woal
--wooge
--woud
--woude
--ws
--x
--xt
--y
--ya
--ye
--yer
--z
--za
--ze
--zel
--zen
--zes
--zig
--zil
--zo
--zy
--ß
--ße
--ι
