!
"
#
##0
##1
##10
##11
##12
##13
##14
##15
##16
##17
##18
##19
##2
##20
##21
##22
##23
##24
##25
##26
##27
##28
##29
##3
##30
##31
##32
##33
##34
##35
##36
##37
##38
##39
##4
##40
##41
##42
##43
##44
##45
##46
##47
##48
##49
##5
##50
##51
##52
##53
##54
##55
##56
##57
##58
##59
##6
##60
##61
##62
##63
##64
##65
##66
##67
##68
##69
##7
##70
##71
##72
##73
##74
##75
##76
##77
##78
##79
##8
##80
##81
##82
##83
##84
##85
##86
##87
##88
##89
##9
##90
##91
##92
##93
##94
##95
##96
##97
##98
##99
$
%
&
'
(
)
*
+
,
-
.
/
0
00
000
0000
0001
0006
001
003
004
009
01
013
0140
0154
017
02
020
021
029
03
03610
039
04
043
05
054
06
067
07
08
09
092
1
10
100
1000
1002
1007
101
1016
102
1029
103
1038
104
105
105943
106
107
108
1080
109
1093
1097
11
110
111
1111
112
113
1136
114
115
115080
1158712
116
117
118
1186
119
12
120
1200
121
122
123
124
125
126
127
128
129
13
130
131
132
133
134
135
136
137
13796
138
139
14
140
1400
141
142
143
144
145
146
14651858
147
148
149
15
150
1500
151
152
153
154
155
157
158
158663955
159
16
160
1600
161
162
164
165
166
167
168
169
17
170
1700
171
172
174
175
1750
176
177
1770
178
179
18
180
1800
181
1818
182
1820
1821
183
184
1844
1847
185
1850
1860
1863
1867
187
1874
188
1881
1882
1884
189
1892
1895
1898
1899
19
190
1900
1901
1903
1904
1905
1906
1908
1909
191
1910
1911
1912
1913
1914
1915
1916
1917
1918
1919
1920
1921
1922
1923
1924
1925
1926
1927
1928
1929
193
1930
1931
1932
1933
1934
1935
1936
1937
1938
1939
194
1940
1941
1942
1943
1944
1945
1946
1947
1948
1949
195
1950
1951
1952
1953
1954
1955
1956
1957
1958
1959
196
1960
1961
1962
1963
1964
1965
1966
1967
1968
1969
197
1970
1971
1972
1973
1974
1975
1976
1977
1978
1979
198
1980
1981
1982
1983
1984
1985
1986
1987
1988
1989
199
1990
1991
1992
1993
1994
1995
1996
1997
1998
1999
2
20
200
2000
20003
2001
2002
2003
2004
2005
2006
2007
2008
2009
201
2010
2011
2012
2013
2014
2015
2016
2017
2018
2019
202
2020
2021
2022
2023
203
204
205
206
207
208
209
21
210
211
212
2123
213
214
215
216
217
219
22
220
221
222
223
224
225
229
23
230
2307
232
233
234
235
237
239
239815297
24
240
241
242
244
245
246
2463
247
248
249
25
250
252
253
254
255
256
257
258
26
262
263
264
265
267
268
269
27
273
275
278
28
280
281
2829516
288
289
29
293
294
296
299
3
30
300
301
302
304
306
307
31
310
31169
313
314
315
316
317
319
32
320
323
324
325
326
329
33
331
333
339
34
340
342
344
349
35
350
353
36
360
361
362
366
369
37
370
375
379
38
380
382
385
388
389
39
392
4
40
400
404
405
406
41
418
42
420
426
428
43
432
433
44
443
444
44481723
445
447
449
45
450
454
46
47
470
476
477
48
485
49
490
498
5
50
500
502
51
510
52
520
521
529
53
530
533
535
536
537
54
540
547
55
550
557
56
564
567
568
569
57
58
581
585
59
6
60
600
601
61
618
62
622
63
630
64
648
65
650
658
66
661
67
6736
674
68
680
69
690
7
70
700
704
71
72
722
73
733
735
74
742
747
7488
75
750
753
76
766
77
78
782
784
7864
787
79
797733
8
80
800
808
81
815
82
820
83
831
84
85
850
86
860
8601
869
87
88
880
88032
89
9
90
900
91
911
92
93
94
945
9467
949
95
96
97
975
976
978
9780199540884
98
9837
988
99
9964
9988
:
;
<
=
>
?
@
[
\
]
^
_
`
a
aa
ab
aba
abaa
abaayewa
ababa
ababaawa
ababio
ababtoɔ
abadeakyire
abadiakyire
abadiakyiri
abadiekyire
abadiekyiri
abadwakuo
abah
abakan
abakwasɛm
abakɔsem
abakɔsɛm
abam
abambila
abammɔfoɔ
aban
abanda
abankɛse
abankɛseɛ
abannennen
abansoro
abantenten
abantuguo
abarimaa
abaso
abasobɔ
abasobɔde
abasobɔdeɛ
abasobɔdiɛ
abata
abato
abatoo
abatow
abatoɔ
abayewa
abayifo
abayisɛm
abban
abbey
abbrem
abc
abdominal
abdul
abdulai
abdullah
abeawa
abediakyire
abeiku
aben
abena
abenfoɔ
aber
abera
aberante
abere
aberɛ
abetifi
abi
abibifo
abibifoɔ
abibiman
abibinnuro
abibire
abibirem
abibirim
abien
abiesa
abigail
abingya
abira
abiɛsa
ablekuma
abo
aboa
aboaboa
aboafo
aboafoɔ
aboagye
aboah
aboatoɔ
abobɔ
abodakpi
abodan
abodeɛ
abodin
abofra
abokobi
abolimbisa
abom
abomu
abon
aborigines
aboro
aborofo
abortion
aborɔfo
abosom
abosome
abosomfie
abotan
abotoɔ
abotɔyam
about
aboɔ
aboɔden
abra
abrabɔ
abraham
abrannaa
abranteɛ
abrantie
abre
abrefa
abroad
abrofo
abrokyire
abrokyireman
abrɔfo
abrɛ
abs
abscess
abtoɔ
abu
abuakwa
abubakar
abubakari
abubu
abudu
abue
abufuw
abupɛn
abura
aburi
aburo
aburokyiman
aburokyire
aburoo
aburow
abusua
abusuabɔ
abusuafo
abusuafoɔ
abusuakuo
abusuakuw
abɔ
abɔde
abɔdeɛ
abɔdin
abɔdini
abɔfra
abɔm
abɔmmɔ
abɔmmɔfo
abɔnten
abɔntene
abɔseɛ
abɔten
abɔtene
abɛ
abɛdeakyire
abɛdiakyire
abɛfo
abɛhia
abɛka
abɛn
abɛnkwan
abɛyɛ
abɛɛfo
ac
acacus
academic
academy
acaraje
access
accessed
accident
according
accountants
accounting
accra
acheampong
achiase
achievement
achimota
acid
ackah
ackam
acp
acquah
acre
acres
act
acta
acting
action
active
activist
actor
actress
acts
acute
ad
ada
adabor
adabraka
adaduanan
adae
adaklu
adam
adamfo
adamfofa
adamoa
adams
adamu
adan
adane
adangbe
adangbefo
adannandi
adanse
adansedi
adansedie
adanseɛ
adansi
adansidie
adansie
adansifoɔ
adantam
adanwomase
adare
addae
addai
added
addis
addo
address
addy
ade
adehye
adehyeman
adehyeɛ
adekyerɛ
adeline
adepa
adepam
adesamma
adesoa
adesrɛ
adesrɛdeɛ
adesua
adesuafo
adesuafoɔ
adesuani
adetɔfoɔ
adetɔn
adetɔnbea
adetɔnfo
adeyeman
adeyemi
adeyɛ
adeɛ
adi
adidi
adidibea
adidie
adidisoɔ
adii
adikan
adikanfoɔ
adina
adinkra
adisadel
adiyisɛm
adjaho
adjapong
adjaye
adjei
adjoa
adjorlolo
admin
administration
administrative
administrator
admiral
adoagyiri
adoe
adolescent
adom
adoma
adomako
adomonline
adongo
adoption
adowa
adrian
adu
adua
aduan
aduana
aduanan
aduane
aduannuru
aduasa
adubea
adum
aduna
adunkron
aduo
aduokono
aduokron
aduonan
aduonkron
aduonu
aduonum
aduonwɔtwe
aduosa
aduosia
aduoson
aduosɔn
aduowɔtwe
aduro
aduru
aduruyɛ
adusei
aduɔkron
aduɔson
advanced
advances
adventist
adventure
advisory
adwa
adwabɔ
adwadie
adwadifoɔ
adwen
adwene
adwenemhaw
adwenemyare
adwennwen
adwini
adwinnade
adwinni
adwo
adwoa
adwuma
adwumaden
adwumakuo
adwumakuw
adwumam
adwumawura
adwumayɛ
adwumayɛbea
adwumayɛfo
adwumayɛfoɔ
adwumayɛkuo
adwumayɛni
adwumkuo
adɔe
adɔɔso
ae
afa
afadjato
afahye
afahyia
afahyɛ
afam
afanaa
afanan
afar
afari
afasu
afcon
afe
afebɔɔ
afede
afeha
afehyia
afehyɛ
afei
affairs
afful
afghanistan
afi
afia
afiase
afidie
afie
afiease
afifide
afifideɛ
afigya
afiri
afisɛm
aflao
afoforo
afoforɔ
afofro
afoko
afoofida
afra
afrafra
afram
afrc
africa
african
africanelections
africans
afrifa
afrika
afrikafo
afrikafoɔ
afrikani
afrique
afriyie
afro
afropedea
afrɛ
aft
after
afua
afunu
afuo
afuom
afutufoɔ
afutuo
afuw
afɔre
afɛfoɔ
ag
agag
again
against
agbadza
agbenu
agbo
agbotui
age
agency
agents
ages
aggrey
agnes
ago
agodibea
agodie
agodifo
agofomma
agogo
agokansie
agona
agoprama
agoru
agoruyɛfo
agorɔ
agotime
agricultural
agriculture
agu
agua
aguadi
aguadibea
aguadifo
aguanfo
aguanfoɔ
aguaree
agudeɛ
agudie
agumadi
agumadibea
agya
agyae
agyan
agyanan
agyananbea
agyanka
agyanom
agyapade
agyapadeɛ
agyapong
agyarko
agyayɛ
agye
agyede
agyedin
agyei
agyekum
agyeman
agyemang
agyemfra
agyenkwa
agyepong
agyina
agyinatukuo
agyirae
agyiraehyɛde
ah
aha
ahaanu
ahaasa
ahabammono
ahaban
ahabanmono
ahafo
ahahan
ahahannuro
ahakron
ahaligah
ahanan
ahankro
ahankron
ahannsia
ahannson
ahannwɔte
ahannwɔtwe
ahansia
ahanson
ahanta
ahantafoɔ
ahanu
ahanum
ahanwɔtwe
ahasa
ahaw
ahawɔtwe
ahayɔ
ahead
aheman
ahemfie
ahemfo
ahemman
ahene
ahenfie
ahenfo
ahenie
ahenkoro
ahenkro
ahenkron
ahenkuro
ahenkurow
ahenni
ahennie
ahensia
ahenson
ahenum
ahi
ahiable
ahiade
ahiafo
ahinanan
ahinime
ahintasɛm
ahmadiyya
ahmed
aho
ahobammɔ
ahobanbɔ
ahoboa
ahodow
ahodoɔ
ahofadi
ahofadie
ahofama
ahohoro
ahohoɔ
ahokafo
ahokeka
ahokokwaw
ahoma
ahome
ahomegye
ahomegyebea
ahomegyeɛ
ahonidie
ahono
ahonyade
ahoro
ahorow
ahoroɔ
ahorɔw
ahosiesie
ahosuo
ahotoso
ahotɔ
ahoyera
ahoɔden
ahoɔhene
ahoɔyaw
ahu
ahunahuna
ahunu
ahuoden
ahurututu
ahwehwɛ
ahwehwɛde
ahwoi
ahwɛ
ahwɛfo
ahwɛfoɔ
ahyaseɛ
ahyeaseɛ
ahyehyɛ
ahyehyɛde
ahyehyɛdeɛ
ahyensodeɛ
ahyeseɛ
ahyeɛ
ahyia
ahyɛ
ahyɛase
ahyɛaseɛ
ahyɛde
ahyɛn
ahyɛnsode
ahyɛnsodeɛ
ahɔho
ahɔhodan
ahɔhoɔ
ai
aidoo
aidooh
aids
air
aircraft
aires
airline
airlines
airport
aisha
ajumako
ak
aka
akadeɛ
akan
akanda
akandifo
akandifoɔ
akane
akanee
akanfo
akanfoɔ
akanni
akannifo
akansi
akansie
akansifoɔ
akantagriwen
akanyan
akara
akasa
akasakasa
akata
akatasoɔ
akatsi
akatua
akekaduro
akenkan
akenten
akeseɛ
akim
akisikuru
ako
akodeɛ
akodi
akodu
akofo
akofoɔ
akokoaa
akokwaw
akokɔ
akokɔsrade
akoma
akomea
akomia
akondwa
akongua
akonnwa
akontaa
akontaabu
akontabuo
akontombra
akonwa
akora
akorade
akorae
akoraeɛ
akorafoɔ
akorli
akosombo
akosua
akotene
akoto
akotombra
akpaloo
akple
akplɛ
akpu
akra
akraman
akristofoɔ
akrofuom
akron
akropong
aku
akua
akuafo
akuafoɔ
akuapem
akuapemfoɔ
akuapim
akuffo
akufo
akukudam
akum
akumaa
akunini
akuo
akuokuo
akura
akuraa
akurase
akuru
akutu
akuw
akuwakuw
akwaa
akwaaba
akwahosan
akwakoraa
akwamma
akwamu
akwan
akwanhosan
akwanhyia
akwankyerɛ
akwankyerɛfo
akwanmisa
akwannya
akwanside
akwansideɛ
akwansin
akwantu
akwantufo
akwantufoɔ
akwantuo
akwanya
akwapim
akwasi
akwatia
akye
akyekyɛ
akyem
akyemfo
akyemfoɔ
akyere
akyerepɔ
akyerɛ
akyerɛkyerɛ
akyerɛkyerɛfo
akyerɛkyerɛfoɔ
akyerɛw
akyerɛwfo
akyi
akyidifoɔ
akyimɔta
akyinnye
akyinnyegye
akyire
akyirepɔ
akyirepɔn
akyiri
akyirikyiri
akyiripo
akyiripɔ
akyiripɔn
akyiripɔw
akyirpɔw
akyitaafoɔ
akyɛ
akyɛdeɛ
akɔ
akɔhwɛ
akɔmfoɔ
akɔneaba
akɔnhoma
akɔnnɔ
akɔre
akɔsi
akɔso
akɔyɛ
akɛse
akɛseɛ
al
alabama
alabi
alan
alata
alban
albania
albert
alberta
album
aldabra
ale
aleppo
alert
alex
alexander
alfred
algeria
alhaji
alhassan
ali
alice
alima
aliu
alkayida
all
allafrica
allah
allela
allen
allergy
alliance
allied
allotey
alorwu
alpha
alpine
also
alternative
alumni
always
am
ama
amadu
amakye
amaman
amambuo
amamere
amamerɛ
amamfo
amammere
amammerɛ
amammra
amammui
amammuifo
amammuo
amamuo
aman
amanaman
amanbuo
amane
amanehunu
amaneɛ
amaneɛbɔ
amanfo
amanfoɔ
amanfrafoɔ
amanfuo
amankani
amankwaa
amankwah
amanman
amanmuo
amanne
amanneɛ
amanneɛbɔ
amanneɛbɔfo
amannyɔkuo
amannyɔkuoba
amannɔne
amanone
amanpanin
amanpaninfoɔ
amansan
amansie
amansin
amansɛm
amantam
amantin
amanyokuo
amanyosɛm
amanyɔ
amanyɔfoɔ
amanyɔkuo
amanyɔkuoni
amanyɔkuw
amanyɔni
amanyɔnii
amanyɔnni
amanyɔsem
amanyɔsɛm
amanyɛkuo
amanyɛsɛm
amanɔne
amartey
amasaman
amayɔkuo
amayɔni
amba
ambassador
ambassadors
ame
amegashie
ameh
amemene
amen
amena
amenfi
america
american
americas
amerika
amerikafo
amerikani
amerley
ameyaw
amfa
amharic
amidu
amihere
amin
amissah
amma
ammamerɛ
ammamuo
amnyoni
amnyɔkuo
amnyɔni
amoa
amoah
amoako
amon
among
amos
amp
ampa
ampah
ampem
ampene
ampesi
ampofo
amponsah
amrado
amsterdam
amu
amua
amusiei
amɛrika
an
ana
anaa
anaafo
anaafoɔ
anaafoɔfam
anaamusini
anaasɛ
anabah
anadwo
anafo
anafoɔ
analysis
anammɔn
anamoah
anamsini
anamusifoɔ
anamusini
anamɔn
anamɔnsini
anamɔntuo
anan
anane
ananmu
ananmusifo
ananmusifoɔ
ananmusini
ananse
anansesɛm
anantwi
anantwinini
anato
ancient
and
andam
anderson
andoh
andorra
andrae
andre
andrew
andrews
angel
angela
angeles
angelo
anglican
anglo
anglofoɔ
angola
angwa
angye
anhwea
anhweatam
ani
anidaso
anidie
anigye
anigyede
anigyee
anigyeɛ
anika
anim
anima
animal
animdefo
animdefoɔ
animhwɛ
animtiaabu
animuonyam
anini
aniso
anisoadehu
anisoadehunu
anita
aniwa
anka
ankara
ankasa
ankasaa
ankomah
ankorankoro
ankorankorɛ
ankoreankore
ankorɛ
ankorɛankorɛ
ankrah
ankyɛ
ankɔ
anlo
anna
annan
anne
anni
anniversary
annor
announces
annual
annya
annye
annyina
annyɛ
ano
anoa
anohyeto
anokye
anom
anomaa
anomabo
anonneɛ
anononeɛ
anosiw
another
anoyie
anquandah
ansa
ansaa
ansaana
ansah
ansan
ansana
anse
ansi
anthony
anti
antibiotics
antioch
anto
antom
antonio
antumi
antwi
anuanom
anum
anuonyam
anwa
anwea
anwene
anwensɛm
anwie
anwonsɛm
any
anya
anyaa
anyame
anyanui
anyimadu
anyin
anyinam
anyini
anyɛ
anɔpa
aortic
aowin
ap
apa
apaawa
apakan
apam
apamfoɔ
apata
apaw
apawa
apayɛ
apc
apem
apete
apeui
apewosika
apira
apolisefoɔ
apolisifo
apolisifoɔ
apollo
apomasu
apomuden
apon
apoo
aporɔbɔ
apostle
apostolic
app
appeal
appeals
appellate
appendicitis
appiah
applied
appointed
appointment
appointments
appoints
apraku
aprapransa
april
apue
apueeɛ
apueeɛfam
apuei
apueɛ
apuiɛ
apɔmuden
apɔnkɔ
apɔw
apɔwmuden
apɛ
apɛde
aqs
ar
ara
araa
arab
araba
arabfo
arabia
arabic
aram
arc
archaeological
archaeology
archbishop
architect
architectural
architecture
archive
archived
archives
arden
are
area
areas
arena
arhin
aristotle
arko
armah
armed
armenian
army
arnold
around
arrested
arsenal
art
artemisinin
artery
arthritis
arthur
article
articles
articleshow
artikel
artist
artiste
arts
aryee
aryeetey
as
asa
asaabo
asaana
asaase
asaasepɔn
asafo
asafotu
asafotufiam
asaga
asakra
asamang
asamoah
asan
asane
asante
asantefo
asantefoɔ
asantehene
asanteman
asantewaa
asanti
asare
asase
asasepɔn
asasesin
asasetaw
asasewosow
asau
asaw
asawase
ase
asebu
aseda
asefo
asefoɔ
aseidu
asekyerɛ
asem
asemfua
asen
asendibea
asene
asennibea
aseresɛm
asesa
asetena
asetra
asetram
asew
aseɛ
ashaiman
ashante
ashanti
ashesi
ashietey
ashitey
ashley
ashong
asi
asia
asiamah
asiane
asibon
asie
asiedu
asiesie
asihene
asikafoɔ
asikuma
asikyire
asiria
asisi
asiw
askia
asmah
asme
aso
asoafo
asoafoɔ
asodi
asoe
asoeɛ
asokore
asokwa
asom
asomafo
asomdwee
asomdwoe
asomdwoeɛ
ason
asono
asore
asorɔkye
asotwe
asoɛe
asp
aspen
aspx
asraafo
asraafoɔ
asrafo
asrafoɔ
asram
assemblies
assembly
assessment
assin
assistant
associate
associated
association
assur
assyria
asu
asua
asuade
asuaeɛ
asuafo
asuafoɔ
asuapɔn
asubonten
asubɔ
asubɔnten
asubɔntene
asukuufo
asukuufoɔ
asukɔnkɔn
asumda
asunafo
asuo
asuogyaman
asutifi
asylum
asylvfg
asɔ
asɔfo
asɔn
asɔre
asɔredan
asɔrefie
asɔremma
asɔretiafoɔ
asɛ
asɛdeɛ
asɛe
asɛm
asɛmdibea
asɛmfua
asɛmpa
asɛmti
asɛndibea
asɛnni
asɛnnibea
asɛyɛde
at
ataade
atadeɛ
atakora
atare
ate
atebubu
ateetee
atemmu
atemmufo
atemmufoɔ
atemmuo
atena
atenae
atenaeɛ
atene
atenka
atenten
atese
atete
atetesɛm
atew
athens
athletic
athletics
ati
atia
atifi
atifido
atififam
atipɛnfo
atiridii
atirimpɔw
atitire
atitiriw
atiwa
atlanta
atlantic
atlas
atle
ato
atoe
atoeɛ
atoko
atom
atopic
atoro
atosodeɛ
atosɛm
atoto
atra
atrae
atraeɛ
atrɛ
atta
attachment
attack
attah
attendance
attor
attorney
attractions
atu
atua
atuatew
atuatewfo
atuateɛ
atubra
atubrafo
atubrafoɔ
atubraman
atuhoakyɛ
atukɔfo
atukɔfoɔ
atukɔtena
atukɔtenafoɔ
atum
atumfoɔ
atumi
atumpɔn
atuo
atwa
atwam
atwe
atwerɛ
atwerɛdeɛ
atwerɛfoɔ
atwerɛsɛm
atwerɛtwerɛfoɔ
atwerɛwsɛm
atwima
atɔ
atɔe
atɔei
atɔeɛ
atɔeɛfam
atɔn
atɔre
atɔsodeɛ
atɔɛ
atɛkyɛ
atɛmmuafoɔ
atɛmmuo
atɛn
atɛnmuafo
atɛnmuafoɔ
atɛntenenee
atɛntrenee
au
aubyn
audio
auf
august
augustine
augustus
aunt
austin
australia
austria
author
authority
authors
autism
automatic
automobile
aux
available
avance
avatime
avenue
aviation
avoka
award
awarded
awards
aware
awaree
awarefo
awarefoɔ
awaregyae
awareɛ
away
awerɛhow
awerɛhoɔ
awerɛkyekye
awia
awiabere
awiase
awie
awieeɛ
awiei
awieyɛ
awieɛ
awindor
awo
awoda
awode
awodeɛ
awofo
awofoyɛ
awofoɔ
awosu
awotwaa
awotwe
awoɔ
awu
awua
awuah
awubia
awuduru
awukugua
awulley
awura
awuraa
awurade
awuranom
awutu
awuwu
awɔ
awɔw
axim
ay
aya
ayamdeɛ
ayamtim
ayamtuo
ayare
ayarefo
ayarefoɔ
ayarehwɛ
ayaresa
ayaresabea
ayariga
ayawaso
ayayade
ayeforɔ
ayensu
ayensuano
ayera
ayesɛm
ayi
ayie
ayigbefoɔ
ayim
ayirebi
ayitey
ayiyɛ
ayorkor
ayoyo
ayt
ayɔnkofa
ayɛ
ayɛsɛm
ayɛwohommumɔ
ayɛwohomummɔ
ayɛwohomumɔ
ayɛwohummumɔ
az
azantilow
azerbaijan
azonto
azumah
b
ba
baa
baabi
baabia
baabiara
baaeɛ
baafi
baah
baako
baanan
baanodani
baanu
baasa
baasonkuo
baatan
bab
baba
babaa
babarima
babaso
babatu
babea
babia
babies
babilon
baby
bachelor
back
bacteria
bad
badu
badwa
badwakuo
badwam
badwamu
badwani
bae
baeɛ
bafan
baffoe
baffour
bagbin
bagri
bagua
baguafo
baguakuo
baguam
baguamuni
baguani
bahi
bahia
baiden
baidoe
baidoo
baka
bakatue
bako
baku
bakyela
balado
baldwin
ball
balme
baltimore
bambah
bamboi
bambɔ
bamf
bammɔ
bampo
bampoh
ban
banana
banbɔ
banbɔfo
band
banda
banga
bangladesh
baning
banjul
bank
banking
banku
bankuta
bankye
banovci
bantama
baobab
baptist
bar
bara
barbara
barcelona
barima
baroque
barrister
barry
bartels
basaa
basabasa
basabasayɛ
base
based
basel
basic
basin
basing
basketball
baskin
basoah
basque
bat
bata
batakari
batch
batoɔ
battir
battle
bawa
bawku
bawumia
bay
bayerɛ
bayifoɔ
bayon
bazaar
bb
bbc
bc
bce
bd
be
bea
beach
beae
beaeɛ
beat
beatrice
beats
beautiful
beauty
beaɛ
bebere
beberee
bebiree
bebree
bec
because
beccaria
bechem
become
becomes
bedi
bediako
bedii
been
beer
bef
before
begye
behia
behind
beho
behu
beijing
being
bekoe
bekwai
bel
belarus
belarusian
belgium
belgrade
belle
ben
benada
benard
bench
benedicta
benefits
benin
benita
benjamin
benkum
benya
benyaa
benyiwa
beposo
bepɔ
bepɔw
ber
berber
bere
berebuw
berekum
berlin
bernard
bernice
berɛ
berɛmo
besi
besii
best
beta
beth
better
betty
betumi
betway
between
bewadze
beye
beyonce
beyond
beyɛ
beyɛɛ
bf
bi
bia
biaa
biako
biakoye
biakoyɛ
biara
bibcode
bibiani
bibini
bible
bicocca
bie
big
bih
bijilo
bikin
bilbao
bild
bill
billy
bimbilla
bin
binduri
bingley
binom
bintou
bio
biodiversity
biography
biological
biology
biom
biomedical
bios
biosphere
bird
birdlife
biribi
biribiara
birikisi
birim
birmingham
birth
birthday
bisa
bisaa
bishop
bl
black
blackstone
bladder
blastoursghana
blay
blica
block
blog
blogs
blogspot
blood
bloomberg
blue
bmj
bo
boa
boaa
boaboa
boachie
boadi
boadu
boafo
boafoɔ
boahen
boakye
boamah
boampong
board
boate
boateng
boayikuo
boayikuw
bob
bobie
bobɔ
boc
bodi
bodies
boforo
bokiti
bole
bolga
bolgatanga
bologna
bom
bomm
bon
bone
bonful
bongo
boniface
bono
bonoman
bonsra
bonsu
bonwire
book
books
booksources
boom
boon
border
born
boro
borofo
boroo
borteyman
bortianor
borɔde
borɔdeɛ
borɔfo
borɔno
bosnia
bosom
bosome
bosomtwe
boss
bossman
boston
bot
botae
botaeɛ
botchway
botchwey
both
boti
botsio
botswana
botwe
bowel
box
boxing
boy
boye
boys
boɔ
br
bra
braa
brace
bragoro
braimah
brakwa
branch
brand
brantuo
brasil
brayɛ
brazil
bre
breakfast
breman
bremen
brentuo
brew
brewer
brian
brief
briefing
bright
brigidi
britain
britania
britaniafo
britannica
british
britishfoɔ
broadcasting
brobbey
brofo
brong
brongahafo
broni
bronya
bronze
brothers
brown
browse
bruce
bruu
brɔde
brɔfo
brɛ
brɛoo
bsc
bu
bua
buadi
buah
bucket
budapest
budget
bue
buee
buem
bueros
buffalo
buganda
bui
building
builsa
built
bulgaria
bulletin
buluk
bunkpurugu
bunso
buor
burden
bureau
burkina
buron
bus
busby
bush
busia
business
businessghana
but
buu
buzzghana
by
byzantine
bɔ
bɔbeasu
bɔfo
bɔm
bɔne
bɔnefoɔ
bɔɔ
bɔɔbɔkuo
bɔɔl
bɔɔlbɔ
bɔɔlbɔfo
bɔɔlbɔfoɔ
bɔɔlbɔni
bɔɔlo
bɔɔlobɔ
bɔɔlobɔkuo
bɔɔlobɔni
bɔɔmu
bɛ
bɛba
bɛboa
bɛboro
bɛbrɛ
bɛbɔ
bɛda
bɛdaa
bɛdi
bɛdii
bɛfa
bɛfaa
bɛgye
bɛgyee
bɛgyina
bɛgyinaa
bɛgyinaeɛ
bɛhia
bɛhunu
bɛhunuu
bɛhwɛ
bɛhyɛ
bɛhyɛɛ
bɛka
bɛkaa
bɛkyerɛ
bɛkɔ
bɛma
bɛn
bɛntɛe
bɛnya
bɛnyaa
bɛperee
bɛrema
bɛrima
bɛsa
bɛsan
bɛsi
bɛsii
bɛtaa
bɛte
bɛtena
bɛtenaa
bɛto
bɛtoa
bɛtoo
bɛtra
bɛtumi
bɛtuu
bɛtɔ
bɛwo
bɛyɛ
bɛyɛɛ
bɛɛ
c
ca
cabinet
cables
caesar
caf
cake
calabria
calcium
calculator
caldeiras
caldera
calendar
california
caliphate
call
called
calls
cambridge
cameroon
camp
campaign
campus
can
canada
canadani
cancer
candidate
candidates
candomble
cantonese
cape
capital
captain
car
carbon
carbonatite
carcinoma
care
career
cargo
caribbean
carl
carlo
carlos
carnival
carr
carriers
case
casely
cases
cash
cassava
cast
castello
castle
castles
cat
category
cathedral
catherine
catholic
catid
caucasian
cause
caused
causes
caves
cc
cd
cdc
ce
cecilia
cedi
ceek
celebrate
celebrated
celebrates
celebration
celebrities
celebrity
celiac
cell
cemetery
census
center
centers
central
centre
centuries
century
ceo
cerf
cerro
certificate
cf
cfm
cgi
ch
cha
chain
chair
chairman
chairperson
challenge
challenges
chambas
chamber
chambers
champion
champions
championship
championships
chan
chancellor
change
changed
changes
changing
channel
chanson
chapel
chapter
character
charity
charles
charlotte
chartered
check
checkghana
chelsea
chemical
chemistry
chen
chevaliers
chi
chiana
chicago
chicken
chief
chiefs
child
childhood
children
chile
chimpanzee
chimu
chin
china
chinafo
chinafoɔ
chinese
choapa
chocolate
choice
cholera
chop
chris
christ
christian
christiana
christianity
christians
christie
christina
christine
christmas
christopher
chrome
chromosome
chronic
chronicle
chu
church
churcher
cia
cid
circle
circuit
citation
cite
citi
cities
citifmonline
citinewsroom
city
citypopulation
civic
civil
civile
cj
clarke
class
classical
clean
clement
clifford
climate
clinic
clinical
clinton
close
cloth
cloud
club
cm
cms
cn
cnn
cns
co
coast
cobbina
cochrane
cocoa
code
coffie
col
cold
cole
coleman
colitis
collection
college
colleges
collegiate
collins
collinsdictionary
colobus
colombia
colon
colonial
colony
color
colorado
colorectal
columbia
com
combined
come
comfort
commander
commerce
commercial
commission
commissioner
committee
common
commons
commonwealth
commune
communes
communication
communications
communist
communities
community
companies
companion
company
comparative
competition
complex
composer
comprehensive
computer
comune
comuni
con
concepts
concert
condition
conditions
conference
confirmed
congenital
congo
congress
consanguinity
conservation
consist
consisting
consolidated
constipation
constituencies
constituency
constitution
constitutional
construction
consultant
contact
contemporary
content
contenttranslation
contest
continental
contraception
control
convention
conventions
cooperation
coordinates
coordinating
copy
corn
cornelius
coro
corona
coronavirus
corporate
corporation
corpus
corridor
corruption
cost
cote
cough
could
council
count
countries
country
countrystudies
county
coup
cour
course
court
courts
cousin
cov
cover
covid
cpp
crabbe
crac
craze
cream
created
creation
creative
credible
credit
cremasco
cremona
crew
crib
crime
criminal
crisis
critical
critics
croatia
croatian
crocodile
crocodylus
crop
cross
crossland
crown
crowned
crystal
cs
ct
cu
cuba
cudjoe
cuisine
cultural
culture
cultures
cup
curr
current
cusano
cutaneous
cuts
cwur
cycle
cynthia
cyrene
cyril
czech
d
da
daa
daadaa
daakye
dabere
dabiara
daboya
dada
dadaa
dade
dadesɛn
dadeɛ
dadwen
dadzie
dagbani
dagbon
dagmanyi
dagomba
dagombafoɔ
daily
dailyguidenetwork
dallas
dallol
dam
damango
damascus
damasko
damba
dambai
dame
damongo
damptey
dan
dance
dancehall
dances
dancing
dane
danee
dangbe
danger
dangme
dangmefoɔ
danh
daniel
daniella
danish
dankwa
danlad
dannan
danquah
danso
dansoman
dapaah
dapɛn
dar
darko
darkwa
dartey
das
data
dataa
database
date
dates
dauda
daughter
david
dawadawa
dawuro
dawurobɔ
dawuru
dawurubɔ
day
dayi
days
dc
dces
de
dea
dead
deadurl
dean
death
debarge
deborah
debut
dec
december
decker
dedaw
dede
dedei
dee
default
defence
defense
definition
definitions
degli
degree
degrees
dei
dekyerɛ
dekɔ
dekɔɔ
del
delhi
dell
della
delta
democracy
democratic
democrats
demographics
demokrase
den
denam
dene
denis
denkyira
denmark
denmarkfo
denneennen
dennis
densu
dental
department
departments
dept
deputies
deputy
der
derek
dermatitis
dery
des
description
design
designed
designer
designindaba
detail
details
detention
deutsche
developed
developing
development
dey
deɛ
dfp
di
dia
diabetes
diagnosis
diagnostic
diaguitas
diamond
diana
dibea
dibeaperefoɔ
diberɛ
dickson
dictionary
didi
die
diebedo
diehuo
dies
difference
different
digital
dii
diiɛ
dikan
din
diploma
diplomat
dipo
direct
director
directors
directory
disambiguation
disease
diseases
dishes
disorder
disorders
distance
distancing
district
districts
diverticulitis
divine
division
dj
djaba
djan
djenne
dna
do
doc
docs
doctor
doctorate
doctors
document
documents
dodo
dodow
dodowa
dodoɔ
doe
doi
doinyo
dokono
dokua
dollars
dolphyne
dom
domain
dombo
dome
domeabra
domestic
dominic
dominican
dompoase
don
donald
donates
donkor
dont
dontoh
dorcas
doris
dorlands
dormaa
dos
dosoo
down
dpp
dq
dr
drama
dramani
drink
drive
driver
drug
dry
du
dua
duadwumfoɔ
duah
dubaako
dubiako
dubrovnik
ducale
duchess
due
dugan
duiker
duke
dumien
dumienu
dumiɛnsa
dummienu
dummiɛnsa
dunan
dunkron
dunkwa
dunsia
dunson
dunsɔn
dunum
dunwɔtwe
duplicates
durham
during
duro
duru
duruu
dutch
dutchfo
dutchfoɔ
duu
dva
dwa
dwabɔ
dwadibea
dwadie
dwadifoɔ
dwadini
dwam
dwamena
dwene
dwensɔtwaa
dwetɛ
dwirii
dwo
dwoada
dwom
dwomfo
dwomtoni
dwonku
dwonsɔ
dwuma
dwumadi
dwumadibea
dwumadie
dwumakuo
dwumayɛfo
dwumayɛni
dwumdie
dx
dyskinesia
dzifa
dzigbordi
dzirasah
dzogbenuku
dɔ
dɔkono
dɔkota
dɔkotani
dɔla
dɔm
dɔmkumaa
dɔnhwere
dɔte
dɔteɛ
dɔɔm
dɔɔso
dɛ
dɛm
dɛmdi
dɛn
dɛnkyɛm
dɛnkyɛmmoɔ
e
each
early
earth
east
eastern
easy
easytrackghana
eb
ebeduu
ebefi
ebenezer
ebert
ebetumi
ebi
ebia
ebien
ebinom
ebo
ebola
ebony
eburo
ec
ece
ecole
economic
economics
economy
ecowas
ed
eda
eddie
ede
edem
edf
edi
edidi
edidisoɔ
edie
edii
edikan
edin
edina
edinburgh
edith
edition
editor
edmund
eds
edu
eduasa
eduasar
edubease
education
educational
educationist
edumadzi
eduokron
eduonan
eduonu
eduonum
eduru
edusei
eduu
edwa
edward
edwards
edwin
edwuma
edwumayɛ
efa
effah
effect
effective
effectiveness
effects
effia
efficacy
effiduase
effutu
efi
efiada
efie
efii
efiri
efirisɛ
efisɛ
efri
efua
efutu
egala
egle
egu
eguafo
egwa
egya
egye
egyina
egypt
ehia
ehu
ehuru
ehyia
ejisu
ejura
ekow
ekum
ekumfi
ekuo
ekuoba
ekura
ekuru
ekyi
ekyiripɔ
el
elect
elected
election
elections
electoral
electric
electrical
elephant
elizabeth
eljko
ellembelle
ellen
elmina
elobey
elsevier
elsie
elubo
em
ema
embassy
emelia
emergency
emfa
emily
emma
emmanuel
emom
emperor
empire
employment
empowerment
empress
empty
emu
emufo
en
ena
enac
enam
encyclopedia
end
endocrine
ene
energy
eng
engine
engineer
engineering
engineers
engiresi
engiresifo
engiresini
england
englesi
english
engresi
enne
enni
ennu
eno
enoch
enrico
enterprise
entertainment
enti
entrepreneur
entrepreneurs
entry
entumi
enugu
enum
environment
environmental
enya
enyan
enye
enyin
enyiresi
ep
ephraim
epidemic
epidemiology
epigenetic
epileptic
equatorial
er
eric
eritrea
ernest
ernestina
error
eruption
es
esaine
esam
esan
esc
esi
esian
esiane
esiesie
esii
esikyire
esiw
espan
espn
essential
essiam
essien
essikado
est
established
estate
esther
estonia
esu
esua
et
etc
ethiopia
ethnic
ethnologue
etienne
eto
etu
etumi
etuo
etwa
etymology
etymonline
etɔ
eu
eugene
eunice
euro
europa
europafo
europe
european
eurovision
ev
eva
evaluation
evalue
evans
event
events
ever
everglades
every
everywhere
evic
evidence
evolution
ew
ewe
ewefo
ewefoɔ
ewiase
ewiem
ewɔ
ex
examination
example
examples
excellence
exchange
exclusive
executive
expectations
experience
expert
explained
extends
extension
external
extra
eye
eyes
eyi
eyinom
eyɛ
f
fa
faa
faahodie
faako
face
facebook
facilities
facility
facolta
fact
factbook
factor
factors
factory
facts
faculties
faculty
faeɛ
fagude
fagudeɛ
fahodi
fahodie
failed
fair
faith
fall
false
fam
fame
famfo
family
famous
famu
fan
fango
fangoo
fante
fanteakwa
fantefoɔ
fao
fapem
faq
far
farmer
fashion
faso
fast
fata
father
fathia
faustina
fawohodie
fazao
fc
fe
fearless
feat
featherweight
feature
featured
features
featuring
february
federal
federation
federer
fekuo
fekuw
fekɔfekɔ
felicia
felix
fellow
female
feok
fern
fernando
fes
festival
festivals
fever
ff
fi
fiada
fiam
fiandadghanalimited
fibea
fiction
fida
fidie
fie
field
fiema
fifa
fight
figure
figures
fii
fiiri
file
files
film
final
finals
finance
financial
finds
fine
finland
fiorano
firaw
fire
firi
firii
firiiɛ
firm
first
fish
fitaa
fiti
five
fj
flag
flagstaff
flavors
flight
floating
floor
flora
florence
florida
flu
fm
fms
fo
fobih
fofie
fofor
foforo
foforɔ
fogo
fomena
food
football
footballer
for
force
forces
ford
forecast
foreign
forest
forestry
forever
form
formation
former
forms
fort
forts
forum
forɔeɛ
forɔyɛ
foster
fosu
foto
fotufoɔ
foufou
found
foundation
founder
founders
founding
foundnhwɛsoɔ
four
fourth
fox
foɔ
fr
fra
frafra
fram
france
francesco
francis
francisca
francisco
franco
frank
frankaa
frankaatuni
frankatuni
franklin
franse
fransefo
franseni
frao
frau
fraw
fred
freda
freddie
frederick
free
freedom
freetown
fregate
freho
french
fri
friedrich
frii
frimpong
frisian
from
front
frontpage
frɔmfrɔm
frɛ
frɛɛ
ft
fu
fufu
fufuo
fugar
fugu
full
fumbisi
functional
fund
funu
fura
fuseini
futufoɔ
future
fɔ
fɔm
fɛ
fɛfɛɛfɛ
fɛm
g
ga
gaana
gaanafoɔ
gaanaman
gaanani
gabon
gabriel
gafah
gafoɔ
gala
galindo
gallery
gambaga
gambia
game
games
gamey
gana
ganani
gando
gao
garamba
garden
gari
garu
gas
gastroenterology
gate
gates
gauge
gazette
gazetteer
gb
gbc
gbcghana
gbcghanaonline
gbedemah
gbeho
gc
gce
gdp
ge
gen
gender
gene
general
generation
genesis
geneva
gennaio
geography
george
georgia
georgina
gerald
german
germanfo
germanfoɔ
germani
germanic
germany
ges
get
getrooms
gets
gh
ghan
ghana
ghanabusinessnews
ghanacelebrities
ghanaconsulatedubai
ghanaculture
ghanaculturepolitics
ghanadistricts
ghanaelection
ghanaelections
ghanaembassyiran
ghanaemberlin
ghanafo
ghanafoɔ
ghanagist
ghanagoods
ghanagrio
ghanahome
ghanahomepage
ghanaian
ghanaians
ghanaman
ghanamps
ghananewsagency
ghanani
ghanareview
ghanas
ghanasat
ghanaschoolsnet
ghanasoccernet
ghanastar
ghanaweb
ghann
ghansah
ghartey
ghc
ghheadlines
ghlinks
ghnewslab
ghone
giant
giap
gibb
gidisu
gifty
gimpa
gina
giorgio
giovanni
girl
girls
github
gitta
giuseppe
gizella
gizo
gladys
glitz
glitzafrica
global
gloria
glossary
glover
glow
gluten
glycolysis
go
goal
goalkeeper
goaso
god
godfred
godwin
goes
going
goitre
goka
gold
golden
golf
gomoa
gonja
gonorrhea
good
google
gordon
gorilla
gospel
gothic
gotti
gov
governance
government
governor
govt
grace
grade
gradovi
graduate
graft
grammar
gramps
grand
grande
grandmother
granite
grant
graphic
grau
great
greater
greateraccra
greece
greek
green
greenwood
gregorian
gregory
griffiths
ground
group
groups
grove
growth
grumeti
grundow
gtv
gtz
gu
gua
guadi
guadibea
guadidan
guamtrani
guan
guangxi
guankɔbea
guardian
guggisb
gui
guidance
guide
guidelines
guides
guinea
guiɛ
gujarat
gulf
gum
gun
gunung
guo
gur
guru
gushegu
gustav
guu
guuɛ
gwandara
gwira
gwollu
gya
gyaa
gyaaman
gyae
gyaee
gyakie
gyamfi
gyan
gyapong
gyasi
gyata
gyaw
gye
gyedi
gyedie
gyee
gyeene
gyegye
gyene
gyetoomu
gyidi
gyidie
gyimah
gyina
gyinaa
gyinabea
gyinae
gyinaesi
gyinaeɛ
gyinapɛn
gynecology
gyɛɛman
gɛɛman
gɛɛmani
h
ha
had
hagan
hague
hajia
half
hall
hama
hamburg
hamidu
hammah
hammond
hand
handbook
handler
hands
hann
hanna
hannah
hanoi
hans
hansen
happened
harbour
hardware
hare
hari
harold
harriet
harris
harrison
harry
haruna
harvard
has
hassan
hatnote
haunsinafrica
hausa
have
havens
haw
hawa
hawaiian
hayford
hazel
hdz
he
head
headache
heads
health
healthcare
heart
hebrew
hebri
hebron
hectares
heinemann
hekta
hela
helafo
held
helipad
heloo
help
hemaa
hemang
hemmaa
hemmah
hene
henry
hepatitis
her
herbert
here
heritage
herod
heroes
herpes
herzegovina
hezekiah
hi
hia
hidden
high
higher
highlife
hill
hilla
hillenburg
hills
hindi
hinrichs
hip
his
historian
historic
historical
history
hit
hiv
hl
ho
hoa
hockey
hohoe
hohoro
hohorow
hokafo
hokafoɔ
hokkaido
hokwan
holding
holidays
holland
holy
homa
home
homeda
homegoing
homo
homowo
hon
honam
hong
honhom
hono
honorary
honour
honoured
honours
hons
hoo
hope
hopkins
hormone
horn
horow
hospital
hospitality
host
hostel
hostels
hostɛl
hot
hotel
hotels
houalla
house
houses
housing
how
howard
hr
htm
html
http
https
hu
huang
hub
hugedomains
hughes
hui
human
humanities
hungary
huni
hunter
hunu
hunuu
hunuuiɛ
husband
hutchful
huu
huudu
hw
hwe
hwee
hwehwɛ
hwehwɛfo
hwehwɛɛ
hwene
hwere
hweree
hwidiem
hwie
hwɛ
hwɛbea
hwɛfo
hwɛsofoɔ
hwɛɛ
hy
hydrocortisone
hye
hyee
hyehye
hyehyeɛ
hyehyɛ
hyehyɛfo
hyehyɛɛ
hyew
hyeɛ
hyia
hyiaa
hyiadan
hyiamu
hyɛ
hyɛaseɛ
hyɛmma
hyɛn
hyɛɛ
hɔ
hɔfo
hɔmɔwɔ
i
ian
ibm
ibn
ibrahim
ic
icc
ice
ict
id
iddi
iddris
iddrisu
identifier
ie
if
ignatius
ignored
ii
iii
il
illinois
illness
im
image
imdb
immigration
imoru
impact
imperial
implications
important
in
inc
incidence
include
including
incorporates
ind
independence
independent
index
india
indian
indiatimes
indigenous
indigo
indo
indonesia
induced
industrial
industrialist
industries
industry
infection
infections
infectious
inflammation
inflammatory
influence
influential
influenza
info
infobox
infographic
information
initiative
initiatives
inn
inner
innovation
innovations
insee
inspirational
inspired
instagram
institut
institute
institution
institutions
instrument
instruments
insulin
insurance
int
interior
internal
international
internet
interventions
interview
into
introduction
invalid
inventor
investment
invitation
io
iodine
ion
ionizing
ipc
ips
ipu
irak
iran
iraq
ireland
irene
irish
iron
irrigation
irritable
is
isaac
isaiah
isbn
isced
ishmael
islam
islamic
island
islands
isley
ismail
iso
israel
israeli
issah
issahaku
issn
issue
issues
istanbul
istat
it
itali
italia
italian
italiane
italics
italy
itch
itching
itemid
its
iu
iucn
iv
ivan
ivoire
ivory
j
ja
jack
jackie
jackson
jacob
jam
jaman
james
jan
jane
janeiro
janet
january
japan
japanese
japanfoɔ
jazz
jb
jc
je
jean
jefferson
jelena
jerry
jersey
jerusalem
jessica
jesus
jew
jewfoɔ
jhs
jirapa
jnr
job
joe
johannesburg
john
johns
johnson
joins
joint
joksimovic
jollof
jomoro
jonathan
jones
jordan
jose
joseph
joshua
journal
journalism
journalist
journalists
journals
joy
joyce
jp
jpg
jr
jsp
jstor
juaben
juaboso
juan
jubilee
judah
judaism
judge
judges
judicial
judy
juge
jugoton
juliet
july
june
junior
juridiction
jurisdiction
jury
just
justice
k
ka
kaa
kabea
kabi
kabimamenkabi
kabom
kade
kae
kaeɛ
kaguta
kahuzi
kai
kairo
kakra
kakraa
kakrabi
kalba
kalybos
kalɛnda
kama
kamakama
kamfo
kampala
kampus
kan
kanada
kandifo
kandifoɔ
kane
kanea
kanee
kaneshie
kann
kannifo
kannifoɔ
kano
kantanka
kanyan
kaole
kar
kara
karaga
karamarko
kari
karim
kasa
kasadwini
kasafidie
kasahorow
kasakoa
kasamafo
kasamafoɔ
kasamfoni
kasamu
kaseɛbɔ
kasoa
kassa
kassena
kata
kataa
katamanso
kate
katee
katolekfo
kaufmann
kay
ke
kedem
keita
keka
kelewele
kelly
ken
kena
kenkan
kenkey
kennedy
kenneth
kent
kente
kenya
kenyan
kenyani
kenyasi
kere
kese
kesee
keseɛ
kesh
kesovija
keta
ketan
keteke
ketewa
ketewaa
ketu
kevin
key
kg
khan
ki
kibi
kidney
kids
kilometa
kilometres
kilomita
king
kingdom
kings
kingsford
kingsley
kintampo
kissi
kitawonsa
kitchen
klottey
km
knights
know
known
knust
ko
koankorɔ
kob
koba
kobina
kodii
kodjo
kodoɔ
kodu
kodua
koduu
kofi
koforidua
koigi
kojo
koko
kokoam
kokoamsɛm
kokonte
kokoo
kokoram
kom
koma
komenda
komfo
komla
komo
konadu
kong
konko
kontenkorɔ
kontomire
konyaa
koo
kooko
kookoo
koomson
koowaa
kor
kora
koraa
korabea
korakora
korankye
koranteng
koratwe
korea
korle
koro
korsah
korɔ
kosi
kosii
kosovo
kosua
kosuaa
kotei
kotodwe
kotoka
kotoko
kotoku
kotonima
kotonimaa
kotonimma
kow
kowaa
kowie
kpalime
kpandai
kpando
kpanlogo
kpone
kr
kra
kraa
krabɛhwɛ
krachi
kradin
krak
krakye
kraman
kramoni
krataa
kristo
kristofo
kristofoɔ
kristoni
kristosom
kro
krobea
krobo
krom
kronkron
kronkronbea
krosbi
krosby
krowehyia
krowor
ku
kua
kuadwuma
kuami
kuani
kuayo
kuayɔ
kuayɛ
kube
kubi
kudjodji
kudjoe
kuenyehia
kuffour
kufour
kufuor
kukurantumi
kuli
kulungugu
kum
kuma
kumaa
kumah
kumase
kumasi
kumawu
kumbungu
kumi
kunayɛ
kundum
kunfah
kunini
kunkum
kunle
kunu
kununom
kuo
kuoba
kupɔn
kura
kuraa
kuro
kurom
kuropɔn
kurow
kuru
kurukuruwa
kuruwa
kusawgu
kusi
kusuu
kuta
kutawonsa
kutu
kuu
kuw
kwa
kwabena
kwabenya
kwabere
kwabre
kwadaso
kwadjo
kwadu
kwadwo
kwadzo
kwae
kwaeɛ
kwahu
kwaku
kwakye
kwamang
kwamank
kwamankese
kwame
kwamena
kwan
kwankyerefo
kwankyerɛfo
kwankyerɛfoɔ
kwansin
kwansini
kwanso
kwantenpɔn
kwanwoma
kwarteng
kwasafoman
kwasi
kwasiada
kwasida
kwata
kwati
kwaw
kweku
kwenkwen
kwesi
kwesimintsim
ky
kye
kyeame
kyeamehene
kyebi
kyee
kyei
kyekye
kyekyere
kyekyɛ
kyekyɛɛ
kyensen
kyer
kyere
kyeree
kyeremateng
kyeremeh
kyeretwie
kyerɛ
kyerɛe
kyerɛkyerɛ
kyerɛkyerɛni
kyerɛw
kyerɛwee
kyerɛwfo
kyerɛwtohɔ
kyerɛɛ
kyew
kyineeɛ
kyineɛ
kyinhyia
kyinie
kyiniiɛ
kyɛ
kyɛfa
kyɛn
kyɛnn
kyɛnsee
kyɛnsen
kyɛɛ
kyɛɛn
kɔ
kɔbere
kɔbɔ
kɔbɔɔ
kɔdaa
kɔdan
kɔdii
kɔdɔɔm
kɔe
kɔeɛ
kɔfa
kɔfaa
kɔfabaeɛ
kɔgyee
kɔhyɛɛ
kɔkaa
kɔkɔ
kɔkɔɔ
kɔla
kɔlege
kɔlegye
kɔlera
kɔlɛgy
kɔma
kɔmaa
kɔmisa
kɔmmisan
kɔmputa
kɔn
kɔntɔnkorɔ
kɔpem
kɔpree
kɔsi
kɔsii
kɔso
kɔsra
kɔsua
kɔsuaa
kɔtee
kɔtena
kɔtenaa
kɔto
kɔtoaa
kɔtonimaa
kɔtoo
kɔtra
kɔtɔnimaa
kɔyɛɛ
kɔɔ
kɔɔto
kɛkɛ
kɛse
kɛseyɛ
kɛseɛ
kɛtɛasehyɛ
l
la
label
labik
laboratory
labour
ladies
lady
lagoon
lagos
laid
lake
lakes
lalibela
lambussie
lamptey
lancet
land
landmarks
lands
lane
lang
language
languages
laos
lara
larabanga
larbi
larteh
lartey
laryea
laser
last
late
latest
latin
latino
latvia
laud
launch
launches
laura
lava
laval
law
lawerh
lawra
lawrence
laws
lawyer
lazamankwala
lazio
lb
lc
le
lead
leader
leaders
leadership
leading
league
learnakan
learning
lebanon
led
ledzokuku
lee
leeds
left
legacy
legal
legend
legislation
legislative
legon
leishmaniasis
lemonde
lengai
leo
leone
leprosy
leptis
lernia
les
lesley
leti
letter
leukemia
leuser
levant
level
levy
lgbt
li
liberal
liberals
liberation
liberia
liberty
libia
library
libreville
libya
lieutenant
life
lifestyle
liga
light
lighthouse
like
liman
limann
limestone
limited
lincoln
linda
line
linguistics
link
linkedin
links
lion
lipkalimor
lisbon
list
listen
lit
literary
literature
lithur
little
live
lived
liver
liverpool
lives
living
lj
ljubav
ljubavi
ljubljana
ll
llb
lo
loango
local
lodge
lodi
lodigiano
loi
loire
lokko
lombardy
london
lonely
long
lope
lord
lords
lorenzo
lorry
los
loses
lost
lou
louis
love
low
lower
lsraefo
lt
ltd
lu
ludovico
luigi
luka
luke
lumor
luxmanda
lydia
lyme
lymphoma
lyon
lɔre
lɔya
lɔyani
m
ma
maa
maame
mabang
mabel
macedonia
machine
macmillan
madagascar
madam
madame
made
madina
madrid
mae
mafi
magazine
magnus
mago
mahama
mahe
mai
mail
main
maint
maintenance
majid
majik
major
majorfestivals
majority
make
makes
making
mako
makola
malaria
malawi
malaysia
male
malfakassa
mali
mall
mallorca
malta
mama
mame
mamluk
mamlukfo
mampanin
mampanini
mampong
mamprusi
mamtamu
man
manaf
manageable
management
manager
managing
manatam
manchester
manfo
manfoɔ
mangrove
manhene
manhyia
mankani
mankessim
mann
manolic
manpanin
manpanyin
manpayin
mansin
mansini
manso
mansoafo
mansoafoɔ
mantam
mantamu
mantan
mantem
mantɔw
manu
manual
manufacturing
many
manya
manyɔkuo
manyɔni
map
mapa
maps
mar
marahyɛ
marc
march
marco
marfo
margaret
maria
marie
marietta
marine
mario
maritime
mark
market
marketing
markings
marks
marleen
marriage
married
mars
marsamxett
martin
maru
mary
maryjonah
maryland
masjid
massachusetts
massif
massive
master
masters
mate
material
materials
maternal
mathematics
mathias
maths
matibabu
matrifocal
matthew
mauro
mavis
maxwell
may
mayenne
mayor
mayɛ
mba
mbeya
mbra
mc
mcbrown
mcfarland
me
mean
meaning
meanings
means
measure
mecca
mechanical
med
medal
media
mediation
medical
medicine
medieval
medikal
mediteranea
medium
meet
meeting
meets
melanoma
meleke
member
members
membrane
memeneda
memorial
men
mends
mene
menka
menkabi
mensa
mensah
mental
mente
menu
menyaa
mercer
merchant
mercy
mere
merriam
merɛ
mesenteric
mesopotamia
met
meta
metabolic
metastasis
methodist
metres
metropolis
metropolitan
mettle
mexico
mfa
mfahodie
mfantseman
mfantsiman
mfantsipim
mfaso
mfasoɔ
mfata
mfatoho
mfe
mfehaha
mfei
mfeɛ
mfi
mfiase
mfidi
mfididwuma
mfidie
mfie
mfifini
mfimfim
mfimfini
mfinfin
mfinfini
mfinifini
mfinimfin
mfinimfini
mfiri
mfiridwuma
mfirihyia
mfirinwuma
mfitiase
mfitiaseɛ
mfomso
mfomsoɔ
mfoni
mfonin
mfonini
mfoninitwa
mfoniniyɛfo
mframa
mfudeɛ
mfuw
mfɛfo
mi
michael
michel
michigan
microbiology
microsoft
middle
midwifery
miensa
miensah
mienu
mighty
migraine
migration
mike
milan
milano
mildred
miles
milion
military
millennium
miller
million
mills
mim
minacord
minaret
minarets
mind
mines
minh
mining
ministe
minister
ministerial
ministers
ministries
ministry
minnesota
minority
minsk
mint
mirror
misraim
miss
missing
mission
missionary
mit
mita
mixed
miɛnsa
mj
ml
mm
mma
mmaa
mmaako
mmaayewa
mmabaa
mmabaabere
mmabarima
mmabun
mmabunbere
mmabunu
mmadwoa
mmae
mmaeɛ
mmakan
mman
mmanana
mmanoma
mmara
mmaradwuma
mmarahybadwani
mmarahye
mmarahyɛ
mmarahyɛbadwa
mmarahyɛbadwafie
mmarahyɛbadwafoɔ
mmarahyɛbadwakuo
mmarahyɛbadwam
mmarahyɛbadwamni
mmarahyɛbadwamu
mmarahyɛbadwani
mmarahyɛbadwanii
mmarahyɛbadwanni
mmarahyɛbedwa
mmarahyɛbedwafie
mmarahyɛbedwafoɔ
mmarahyɛbedwakuo
mmarahyɛbedwam
mmarahyɛbedwani
mmarahyɛbedwanii
mmarahyɛbɛdwam
mmarahyɛbɛdwani
mmaranim
mmaranimfo
mmaranimfoɔ
mmaranimni
mmaranimnii
mmaranketewa
mmarhyɛ
mmarima
mmarimaa
mmarimayɛ
mmayewa
mmda
mmea
mmeae
mmeaeɛ
mmeamudua
mmeawa
mmeaɛ
mmeinu
mmepɔ
mmepɔw
mmer
mmera
mmerahyɛ
mmerahyɛbadwani
mmerante
mmerantebere
mmere
mmerɛ
mmerɛbo
mmerɛw
mmiensa
mmienu
mmirika
mmirikatuo
mmiɛnsa
mmo
mmoa
mmoaninko
mmoawa
mmoawammoawa
mmofra
mmofraase
mmofraberem
mmogya
mmom
mmonnaato
mmoroso
mmorosoɔ
mmra
mmrahyɛ
mmrahyɛbadwa
mmrahyɛbadwafie
mmrahyɛbadwafoɔ
mmrahyɛbadwam
mmrahyɛbadwamuni
mmrahyɛbadwani
mmrahyɛbedwa
mmrahyɛbedwafie
mmrahyɛbedwafoɔ
mmrahyɛbedwam
mmrahyɛbedwani
mmrahyɛbɛdwa
mmrahyɛbɛdwafie
mmrahyɛbɛdwani
mmrane
mmranimfoɔ
mmrɛ
mmuae
mmuaeɛ
mmusua
mmusuakuo
mmusuakuw
mmɔ
mmɔden
mmɔdenbɔ
mmɔdene
mmɔfra
mmɔfrase
mmɔho
mmɔle
mmɔnten
mmɔre
mmɔtafowa
mmɛrema
mmɛrima
mmɛyɛ
mnatam
mo
mobile
moctar
mod
mode
model
models
modern
modernghana
module
mofa
mogya
mogyatɔw
mohammad
mohammed
moje
mole
molecular
molecule
molina
monaco
monday
monde
money
monica
monkey
mono
monsieur
mont
monte
montenegro
month
months
monument
monuments
monusco
moo
moore
more
morgan
moroccan
morocco
morojele
morrison
mortality
moscow
mose
moses
mosque
most
mother
mount
mountain
mountains
mourrut
movement
movie
movies
moyenne
mozambique
mp
mpa
mpaapaemu
mpaboa
mpae
mpaeɛ
mpambi
mpanimfoɔ
mpanin
mpaninfie
mpaninfoɔ
mpanyimfo
mpanyimfoɔ
mpanyin
mpanyinfo
mpanyinfoɔ
mpasoa
mpasua
mpasuaso
mpataa
mpataayi
mpem
mpempem
mpempii
mpen
mpena
mpenatweɛ
mpenu
mpesoa
mpesua
mpesuaso
mpeusa
mphethi
mphil
mpo
mpoano
mpohor
mpontu
mpontuo
mponua
mpraeso
mprako
mpremprem
mprempren
mprenpren
mprensa
mprenu
mprenusoɔ
mprɛ
mprɛmprɛn
mprɛnsa
mprɛnu
mps
mpuntu
mpuntuo
mpɔn
mpɔtam
mpɔtamu
mpɔtorɔ
mpɔtɛm
mpɛ
mpɛmpii
mpɛn
mpɛsoa
mpɛsoaso
mpɛsoasofoɔ
mpɛsua
mpɛsuaso
mpɛsuasoɔ
mr
mrs
ms
msasani
msc
mshila
msimps
mt
mtn
mu
mua
mubarak
much
mud
mufo
mugabe
muhammad
muhammed
multi
multimedia
multiple
mum
mumuni
muni
municipal
municipality
muntaka
mununkum
murray
musah
muse
museum
museums
museveni
music
musician
muslim
must
mustapha
mutism
mw
my
myjoyonline
mynewsgh
mzvee
mɔlta
n
na
naa
naadu
naana
naayɛ
nabatoɔ
nabdam
nacional
nadesua
nadowli
nadwuma
nagila
nai
nairobi
nalerigu
nam
name
named
names
namibia
nan
nana
nanabea
nananom
nancy
nandom
nani
nankana
nanmusini
nanso
nante
nantew
nantwi
nantwie
nanumba
narh
nartey
nasa
nassima
natalia
natalie
nathaniel
nation
national
nationale
nationalist
nations
natural
nature
naval
navrongo
nawieɛ
nawotwe
nawɔtwe
nazareth
ncbi
ncce
nchen
nchumuru
ncp
nd
nda
ndc
ndp
nduane
nduom
ndwom
ndwomtoni
ndwuma
ndwumakuo
ne
nea
nee
need
needed
needle
needs
nego
nelson
nene
neolithic
nephew
net
netherlands
network
never
new
newly
newman
news
newsarchive
newsghana
newspaper
newspapers
newton
newvision
next
neɛ
neɛma
nfa
nfidie
nfidiedwuma
nfie
nfinfin
nfoni
nframa
ng
ngissah
ngleshie
ngo
ngodua
ngoma
ngrɛsi
nguye
nguyen
ngwo
ngyiresi
nh
nha
nhaban
nhabannuru
nhama
nhia
nhini
nhoma
nhomanimfo
nhomasua
nhomsua
nhu
nhuru
nhwehw
nhwehwɛ
nhwehwɛmu
nhwehwɛmubea
nhwehwɛmufo
nhwi
nhwiren
nhwɛ
nhwɛso
nhwɛsode
nhwɛsoɔ
nhyehye
nhyehyeeɛ
nhyehyei
nhyehyeɛ
nhyehyɛ
nhyehyɛe
nhyehyɛeɛ
nhyia
nhyiaeso
nhyiam
nhyiamu
nhyiamudie
nhyira
nhyɛ
nhyɛso
ni
nia
nichd
nicholas
niddk
nidi
nie
nifa
niger
nigeria
nigeriafoɔ
nigerian
nigeriani
nih
nii
nije
nikki
nil
nile
nim
nimba
nimdefo
nimdefoɔ
nimdeɛ
nimdie
nimo
nimpa
ningo
niokolo
nip
nipa
nipadua
nipaduam
nipakuo
nipasu
nishliu
nitiwul
niumi
nixon
nka
nkabom
nkabomkuo
nkae
nkaebɔ
nkaedum
nkaeɛ
nkakrankakra
nkan
nkane
nkanea
nkanka
nkankan
nkansah
nkasa
nkate
nkatenkwan
nkateɛ
nkatiɛ
nkawkaw
nkayan
nkesua
nketenkete
nketewa
nketewaa
nketia
nketiah
nkitaho
nkitahodi
nkitahodie
nkitinkiti
nko
nkoa
nkoaa
nkoanim
nkoasom
nkoguo
nkoko
nkokoaa
nkokɔ
nkongua
nkonim
nkonimbo
nkonimboɔ
nkonimdi
nkonimdie
nkonnwa
nkono
nkontaabuo
nkontabuo
nkonwa
nkonya
nkorabata
nkoranza
nkorɔfo
nkorɔfoɔ
nkosua
nkra
nkrae
nkraman
nkramo
nkramofo
nkramofoɔ
nkramoni
nkramosom
nkramosombea
nkran
nkranfo
nkrataa
nkrataasɛm
nkron
nkruma
nkrumah
nkrɔfo
nkrɔfoɔ
nkrɔn
nkrɔŋ
nku
nkuguo
nkukuo
nkum
nkumaa
nkunim
nkunimdie
nkunimdifoɔ
nkura
nkuraa
nkuraase
nkuran
nkurase
nkuraseɛ
nkuro
nkurow
nkurɔfo
nkurɔfoɔ
nkutahodie
nkutoo
nkuu
nkwa
nkwaadɔm
nkwaboaa
nkwadaa
nkwammoaa
nkwan
nkwanta
nkye
nkyekye
nkyekyem
nkyekyemu
nkyekyɛ
nkyekyɛm
nkyekyɛmu
nkyem
nkyemu
nkyen
nkyene
nkyer
nkyerɛ
nkyerɛase
nkyerɛaseɛ
nkyerɛkyerɛ
nkyerɛkyerɛmu
nkyerɛwde
nkyerɛwee
nkyi
nkyɛ
nkyɛkyɛm
nkyɛm
nkyɛmu
nkyɛn
nkɔ
nkɔanim
nkɔdaa
nkɔm
nkɔmhyɛ
nkɔmhyɛfoɔ
nkɔmhyɛni
nkɔmmɔ
nkɔmmɔbɔ
nkɔnsɔnkɔnsɔn
nkɔso
nkɔsoɔ
nkɔɔ
nkɛntɛnso
nkɛntɛnsoɔ
nl
nlc
nlm
nm
nna
nnafua
nnam
nnamfo
nnamfofa
nnamfonom
nnan
nnansa
nnanu
nnapɔnna
nnawɔtwe
nnawɔtweda
nne
nneama
nnema
nneyɔeɛ
nneyɛe
nneyɛeɛ
nneyɛɛ
nneɛma
nni
nnidiso
nnidisoɔ
nnim
nnimdeɛ
nnipa
nnipadua
nnipakan
nnipakuo
nniso
nnisoɔ
nnomaa
nnompe
nnoɔma
nnu
nnua
nnuaba
nnuan
nnuane
nnubɔne
nnum
nnuro
nnuroyɛ
nnuru
nnuruyɛ
nnuruyɛfo
nnwa
nnwinnade
nnwom
nnwoma
nnwomasua
nnwomto
nnwomtofoɔ
nnwomtoni
nnwomtoɔ
nnwontofo
nnwuma
nnwumadie
nnwumakuo
nnwumakuw
nnwɔtwe
nnya
nnyanka
nnyarewa
nnye
nnyetom
nnyigyei
nnyina
nnyinaso
nnyinasosɛm
nnyinasoɔ
nnyɛ
nnɔbae
nnɔbaeɛ
nnɔnhwerew
nnɛ
nnɛyi
no
noa
nobel
noble
noguchi
nokoe
nokor
nokware
nokwaredi
nokwarem
nokwasɛm
nom
nominated
nomination
nominee
nominees
non
nono
noo
norbert
nordic
normal
norman
norse
nortey
north
northern
norway
norwegian
not
note
notre
notsie
nov
novel
novelist
november
now
npp
nrc
nrp
ns
nsa
nsaa
nsaano
nsaase
nsae
nsakrae
nsakraeɛ
nsam
nsaman
nsamanfo
nsamanfoɔ
nsan
nsanyareɛ
nsase
nsasesin
nsateaa
nsawam
nsawansawa
nsawɔsoɔ
nse
nsem
nsenia
nsensanee
nsensene
nsesae
nsesaeɛ
nsf
nsi
nsia
nsiah
nsiakyibaa
nsiesie
nsisi
nsiw
nso
nsoah
nson
nsonsoneɛ
nsonsono
nsonsonoe
nsonsonoeɛ
nsoroma
nsoromma
nsow
nsrahwɛ
nsrahwɛbea
nsrahwɛfo
nsrahwɛfoɔ
nsu
nsuaem
nsubɔnten
nsufi
nsunsuanso
nsunsuansoɔ
nsunsuasoɔ
nsuo
nsuohyeɛ
nsuom
nsuomnam
nsuomunam
nsupɔw
nsusueɛ
nsusuiɛ
nsusuwii
nsuta
nsuten
nsutene
nsuyiri
nsɔ
nsɔhwɛ
nsɔn
nsɔre
nsɛ
nsɛdi
nsɛm
nsɛmfua
nsɛmma
nsɛmmisa
nsɛmmɔnedi
nsɛmsoɔ
nsɛmsɛm
nsɛmti
nsɛmtwerɛ
nsɛmtwerɛni
nsɛnkyerene
nsɛnkyerɛnne
nsɛnkyerɛnneɛ
nsɛnnennen
nsɛnsɛm
nsɛntwerɛni
nt
ntaa
ntaade
ntaadeɛ
ntaafoɔ
ntaban
ntade
ntadeɛ
ntam
ntama
ntamgyinafo
ntamgyinafoɔ
ntawantawa
ntawntawdi
nte
ntease
nteaseɛ
nteaseɛnam
ntem
ntena
ntentan
ntete
ntetee
nteteeɛ
nteteɛ
nteɛso
nti
ntia
ntini
ntira
nto
ntoa
ntoaso
ntoasoɔ
ntoatoaso
ntoatoasoɔ
ntoboa
ntobro
ntokontrama
ntom
ntoma
ntomtom
ntonso
ntontom
ntoosi
ntotoe
ntotoeɛ
ntotoho
ntow
ntrɛ
ntrɛwmu
ntu
ntua
ntumi
ntummoa
ntutuo
ntwahonan
ntwene
ntwereɛ
ntwo
ntɔ
ntɔkwa
ntɔn
ntɛm
ntɛmntɛm
ntɛntɛm
nu
nua
nuabaa
nuabarima
nuabea
nuabeanom
nuammaa
nuammarima
nuanom
nubia
nufu
nufusu
nuklea
num
number
nun
nungua
nunoo
nursing
nurudeen
nut
nutrition
nwabiagya
nwansena
nwanwa
nwanwasoɔ
nwapa
nwene
nwi
nwii
nwini
nwo
nwom
nwoma
nwomasua
nwomtonii
nwomtoɔ
nwontoni
nwonwa
nwotwe
nwuma
nwumakuo
nwunu
nwura
nwɔtwe
ny
nya
nyaa
nyaaeɛ
nyae
nyaeɛ
nyam
nyame
nyamekye
nyamesom
nyankontɔn
nyankopɔn
nyanor
nyansa
nyansahu
nyansahufo
nyansahyɛ
nyansapɛ
nyansapɛfo
nyarewa
nyarko
nyaunu
nye
nyerere
nyiamu
nyin
nyina
nyinaa
nyinara
nyinasoɔ
nyini
nyinii
nyinsɛn
nyinsɛntogu
nyisaa
nyiyim
nyiyimu
nylander
nytimes
nyɛ
nzema
nzulezo
nɔa
nɔma
o
obaa
obama
obarima
obbin
obed
obedi
obenfo
obeng
obenya
obetsebi
obetumi
obgyn
obi
obia
obiara
obibiara
obibini
obimpeh
oblayo
obodai
obom
oboro
obour
observatory
obstetrics
obstruction
obu
obuasi
obubuafo
obubuo
obuo
obusuani
oc
ocean
oclc
oct
october
od
oda
odambea
odame
ode
odi
odii
odiikan
odikan
odikanfo
odikuro
odoben
odotobri
odunton
oduro
oduruyɛfo
odwan
odwira
odwomtoni
oed
of
off
office
officer
officers
official
officially
offinso
ofi
ofie
ofii
ofin
ofiri
ofirii
ofirikafo
ofoase
ofori
oforiatta
oforikrom
oforisuo
ofosu
ofri
ogg
ogooue
oguaa
oguamtrani
ogya
ogyae
ogyaframa
ogyefuo
ogyina
ogyinaa
ogyinae
oha
ohene
oheneba
ohia
ohio
ohum
ohunu
ohyiaa
oil
oka
okai
okaikwei
okandifo
okapi
okayafrica
okere
okity
oklahoma
oko
okoe
okoh
okomfo
okristoni
oku
okuani
okum
okunani
okunini
okunu
okura
okuraa
okyeame
okyere
okyidɔmfo
okyinnsoromma
okyinsromma
ol
ola
old
older
oldest
olimpik
olivier
olympia
olympic
olympics
oma
oman
omanhene
omanpanyin
omar
omiflo
omo
on
once
onchocerciasis
oncogenes
one
onepage
onii
oniiko
onim
onimuonyamfoɔ
onini
onipa
online
only
onni
ono
ontario
ontumi
onua
onuawa
onya
onyaa
onyae
onyame
onyankopon
onyankopɔn
onyeka
onyin
oo
opare
open
opera
operation
operations
ophelia
opinion
opira
opoku
oppong
oprehyen
oprehyɛn
option
oquaye
or
oral
orange
order
ordinary
ore
oregon
org
organisation
organization
oriental
origin
original
origins
oro
orphan
orsay
orthodox
ortodɔks
osa
osafo
osagyefo
oscar
osei
osi
osii
osman
osmond
osono
osu
osua
osuaa
osuahu
osuani
osudoku
osuro
osutɔ
otemmufo
oteng
other
others
oti
otitenani
otoo
otsere
ottobre
ottoman
otu
otumfoɔ
otumfuo
otumi
otuo
otuu
otwa
our
out
outbreak
output
outstanding
ovarian
over
overview
owia
owie
owiee
owner
owu
owui
owuo
owura
owurayere
owusu
owuu
oxfam
oxford
oxygen
oya
oye
oyɛ
oz
p
pa
paa
paane
paano
pacific
pae
paee
paga
page
pages
pagya
pagyaa
pain
painter
pakistan
palace
palm
palmyra
palmyrene
palmyrenefo
pam
pan
panama
pandemic
paneɛ
panie
panin
panini
panyin
paolo
papa
paper
papillomavirus
par
para
paradise
paralympic
paralympics
parameter
parasites
parc
parents
paris
park
parks
parlia
parliament
parliamentarians
parliamentary
parliamentatian
parline
paroxysmal
part
partey
participation
parties
partnership
partriotic
party
pas
pasha
passes
passion
passport
past
pastoral
patas
paternal
pathogens
paths
patience
patrick
patriotic
patroitic
paul
paulo
pavement
pavia
paw
pay
payin
pcr
pdf
pe
peace
peacefmonline
pearl
peduase
pee
peel
pefee
peki
pelican
pelvic
pem
pen
pendjari
pene
penee
peninsula
pennsylvania
pentecost
pentecostal
pentekost
pentekostsom
peope
people
peoples
pepem
peptic
per
pere
peree
perez
performance
period
permaculture
permanent
persia
persian
person
personal
personality
personnel
perspective
perspectives
pertussis
peru
petee
peter
petition
petro
petroleum
pew
pewforum
pfp
pg
pgp
ph
pharmaceutical
pharmacology
pharmacy
phases
phd
phil
philadelphia
philip
philippines
phillips
philosophy
photos
php
phu
physical
physician
physicist
physics
pi
piacenza
piano
piazza
picks
pico
pictures
pidgin
pierre
pietro
pii
pilot
pinkrah
pintinn
pioneer
pira
pl
pla
place
plagiarism
plains
plan
planet
planning
plans
plastic
plate
platinum
play
playback
player
players
pm
pmc
pmid
pnc
pndc
pneumonia
png
pnp
po
poet
point
points
poku
pokua
poland
police
policewoman
policies
policy
polish
polisifo
political
politician
politicians
politics
politik
pollen
pollination
pollution
polytechnic
pomaa
pomary
pon
pongara
pono
poor
pop
pope
popolazione
popular
population
por
porcupine
porridge
port
portal
porter
portia
porto
portobelo
portugal
portuguese
porɔeɛ
position
positive
post
postgraduate
potassium
potosi
potɔ
pound
pour
poverty
pow
power
powerful
pox
pp
ppen
ppp
pr
pra
practical
practice
prampram
praslin
pre
prefix
pregnancy
premier
prempeh
preparatory
prepare
presby
presbyterian
present
presenter
presents
presidency
president
presidential
presidents
press
prestea
prestigious
pretoria
pretty
prevalence
prevention
preventive
previous
price
prijatelji
primal
primaries
primary
prime
primenewsghana
primidi
prince
princess
print
prisca
priscilla
prison
pritzker
private
prix
prize
pro
problems
procedure
proceedings
process
procurement
prod
producer
product
production
products
prof
professional
professor
profile
profiles
program
programme
programmes
programs
progress
progressive
project
projects
pronounciation
pronunciation
prophet
proposed
prostate
protected
protection
protein
protestant
proto
provided
province
provisional
pru
pruritus
prɔfɛsa
psephos
psychology
pt
pub
public
publication
publications
published
publisher
publishers
publishing
pubs
pue
puebla
puei
puerto
puff
pulse
punpuni
puozaa
pupuni
pusiga
put
pyramid
pɔ
pɔn
pɔtee
pɔtɔ
pɔɔfo
pɛ
pɛn
pɛnhyen
pɛpɛɛpɛ
pɛtro
pɛyɛ
pɛɛ
q
qa
quadrant
quansah
quarshie
quarter
quartey
quaye
quaynor
queen
queens
quentin
quoc
qur
quran
r
ra
rabat
rabies
race
radio
radojka
ragusa
rahman
railway
ramsar
ran
randolph
range
ranking
rankings
ransford
raphael
rapid
rapper
ras
rashid
rawlings
ray
raymond
rc
rd
re
reaction
reading
reagan
real
reason
reba
rebecca
rebɔ
receives
recent
recipe
recipes
record
records
recreation
rector
red
redemption
redi
redir
redirect
ref
reference
referendum
reform
reformed
refs
refugees
regent
reggie
regina
reginald
region
regional
regioni
regions
register
regular
regulation
rehabilitation
rehwehwɛ
reiner
rekasa
reko
rekyerɛ
rekɔ
related
relations
release
releases
relevant
religion
religious
rema
renaissance
rennell
renya
repere
report
reports
repository
representative
representatives
reproductive
repu
republic
republican
republik
repɔblik
res
research
researchgate
reserve
resi
residence
residente
residents
resistance
resort
resource
resources
rest
result
results
retains
reto
retrieved
return
returns
reuters
rev
reveals
review
reviews
revised
revolutionary
revolver
reyɛ
rh
rheumatic
rheumatism
rheumatoid
rheumatology
rhymz
ri
riba
ribeira
rice
rich
richard
rico
ridge
rieure
rifle
rift
riga
right
rights
ringworm
rio
ris
rise
rising
risk
rita
rivalry
river
rivers
ro
road
roads
robbins
robert
robin
rock
rockson
rockstone
roger
roi
rokɔ
role
rolex
roll
roma
romafo
roman
romance
romanesque
romania
romanian
romanized
rome
romeo
rona
ronald
room
roosevelt
rose
roselyn
rosemary
rosemond
roses
ross
rotterdam
round
routledge
roy
royal
rs
rt
rtb
rtd
rtp
rts
ru
ruba
rugby
ruins
rules
rural
russia
russian
ruth
ryan
s
sa
saa
saaka
saamufo
sabea
sackey
saclay
sacred
sadat
sae
safe
safety
safo
saforo
sagnarigu
sagoe
sahara
saharan
sahel
sahene
sai
said
saifi
saint
sainte
sakumono
salaam
salaga
salamanca
salem
salia
salifu
salisu
salome
salt
saltpond
salvador
sam
saman
samarra
samena
samia
samina
samira
sammy
samonas
sampson
samuel
samufoɔ
san
sana
sanaa
sanctuary
sandema
sane
sang
sangmorkie
sanitation
sanitizer
sanku
sankuo
sanso
sant
santacana
santene
santiago
santo
santorini
sao
sapiens
sapienza
sapporo
sarah
sarawak
sarcoma
sare
sarfo
sarkodie
sarpong
sars
sas
sasabrɔ
satellite
savanna
savannah
save
savelugu
saving
sawla
say
says
sc
sch
scholar
scholarship
school
schools
science
sciences
scientific
scientist
scotland
scott
script
sculpture
sda
se
sea
search
seasons
seat
seats
sebastian
sec
second
secondary
secretariat
secretary
section
sectionid
sector
secure
securitas
securities
security
sedeɛ
see
seed
seesei
sefa
sefwi
sei
seidu
seikwa
seine
seini
seisei
seizure
seizures
sekan
sekondi
sekyedumase
sekyere
sekyi
selection
self
sem
semfo
semi
seminary
sen
sena
senate
sene
senea
senegal
senegalensis
seneɛ
senior
sentri
senu
senya
september
serbia
serbian
serengeti
series
serra
serve
service
services
serwaa
sesa
sesaa
sesae
sesei
session
set
seth
settlement
settlements
seven
severe
sewaa
sex
seychelles
seɛ
sforza
sforzesco
sg
shah
shahada
shai
shall
shama
share
shares
shatta
shattered
shay
she
sheet
sheikh
sherifatu
shi
shia
shibam
ship
ships
shirley
shito
short
shot
should
show
showbiz
showcase
shs
shtml
si
siam
sian
sic
sicily
side
sidney
sie
siemens
sierra
siesie
siesiee
sigaretnom
sign
signs
sii
siiɛ
sika
sikakorabea
sikakɔkɔɔ
sikasem
sikasɛm
sima
simma
simon
simone
simpson
since
singapore
singer
single
singles
sini
sinitwa
sinitwafoɔ
sinitwani
sinitwanii
siniyi
siniyifo
siniyɛfo
sintɔ
sio
sir
siria
sisi
sissala
sister
sisters
site
sites
sivas
siw
six
sixth
size
ski
skiing
skills
skin
skuul
slalom
slave
slavery
slovenia
small
smart
smc
smith
snippet
so
soa
soafo
soafoa
soafoɔ
soap
sobo
soboɔ
soccer
social
socialist
society
sociolinguistic
sociology
socrates
sodifo
sodifoɔ
sofo
software
sohwɛ
sohwɛfo
soil
solar
sold
soldier
solid
solomon
som
somafoɔ
some
somee
somm
son
song
songs
songwe
songwriter
sononko
soo
soom
sophia
sor
sore
soro
sorokɔ
soronko
sotɔɔ
soul
soup
soups
source
south
southeast
southern
soviet
sowah
sowu
sowutuom
soɔ
spa
space
spain
spainfo
spania
spanish
speaker
speakers
special
specialist
specific
spectrum
speech
spio
spiritan
splash
split
spoken
sport
sports
spot
spread
springer
sq
squad
square
sr
srade
sradeɛ
sri
sronko
sry
srɛ
ss
st
stable
stadium
staff
stage
stanbic
standard
standards
stanford
stanley
star
stars
start
state
statement
states
station
statistical
statistics
stats
status
ste
stefania
stefano
stella
stephen
steve
steven
stiftung
still
stock
stomach
stone
stool
stop
stories
storm
storms
story
strategic
strategy
stratoserver
straße
street
striker
structural
structure
student
students
studi
studies
studio
study
stuttgart
style
su
sua
suaa
suafoɔ
suahunu
suaman
suame
suapon
suapɔn
sub
suban
subin
subjects
subscription
such
sud
sudan
sudanese
sugar
suhum
suhyɛn
sukuu
sukuufo
sukuufoɔ
sukuukɔ
sukuul
sukuuni
sukuupɔn
sulemana
sultan
sum
sumaila
sumatra
summary
summer
sun
sunday
sunni
sunsum
sunyani
supe
super
superficie
superior
supply
support
supports
supreme
supɔw
sur
surat
surgical
suro
surp
survey
susan
susana
susanna
sustainable
susu
susudua
susupɛn
susuw
sutherland
suv
sv
sverko
swag
swahili
swears
sweden
swedish
swedru
swiss
switzerland
sworn
sydney
sylvester
symbols
symphony
symposium
symptoms
syndrome
syria
syringe
syringes
system
systematic
systemic
systems
sɔ
sɔhwɛ
sɔne
sɔre
sɔɔ
sɛ
sɛdeɛ
sɛe
sɛee
sɛm
sɛnea
sɛneɛ
sɛnkyerɛnne
sɛntry
sɛɛ
t
ta
taa
tadmor
tadrart
tae
tafo
tag
tagoe
tahir
tain
taiwan
take
takes
taking
takoradi
takyi
talensi
talk
tam
tamale
tamfoe
tan
tana
tandoh
tano
tanzania
targettitle
tarkwa
task
tat
tatale
tatyana
tau
tawa
tawia
tawiah
tay
tayanna
taylor
tb
te
tea
teacher
teachers
teaching
team
teams
teaseɛnam
teateaa
tebea
tech
techie
techiman
technical
technology
tee
teeɛ
tei
tekpertey
telefon
telegraph
television
tell
tells
tema
temmufo
tempane
temperature
template
temple
tena
tenaa
tenabea
tene
tenetenefoɔ
tennessee
tennis
tenten
tepa
tereza
term
terminals
terms
territorial
terɛw
teshie
test
testa
testing
tesɛ
tete
tetee
tetefo
tetenani
tetteh
tettey
tew
texas
text
textiles
teye
teɛ
teɛteɛ
th
thailand
than
that
the
theater
theatre
thebftonline
theculturetrip
theguardian
their
them
then
theodore
theodosia
theophilus
theory
therapy
there
theresa
these
thespinoff
they
thi
things
think
thinkghana
third
this
thomas
thompson
three
threshold
through
thyroid
ti
tia
tiaa
tiatia
tiawa
tich
tico
tie
tienne
ties
tikiti
tilapia
tim
timber
timbuktu
time
times
timesofindia
timothy
timur
tin
tintim
tintimbea
tipaeɛ
tirana
tire
tiri
tirimpɔ
tirimupɔ
tissue
titenani
titi
titire
titirew
titiri
titiriw
title
titrani
titriw
tjc
to
toa
toaa
toaso
today
togbe
togo
togoland
tokuro
tokyo
tolon
tom
tomas
tomislav
tomm
tongo
tongu
tono
too
tooeɛ
toom
top
topic
topical
topics
toronto
total
toto
totoo
toulouse
tour
tourghana
touring
touringghana
tourism
tournament
tournaments
tow
tower
towers
town
towns
toɔ
tr
tra
traa
track
tract
trade
trader
trading
tradition
traditional
traffic
trailer
training
trans
transmission
transport
travel
treatment
treaty
trebil
trends
trendy
tri
trial
trials
tribunal
tribute
trinity
trio
tripod
tripoli
trobu
tropical
troposphere
tru
true
trump
truong
trust
trɛ
trɛw
trɛɛ
tsar
tsenku
tsikata
ttl
tu
tua
tubaani
tudes
tukɔtena
tum
tumi
tumidi
tumidie
tumii
tumtum
tuna
tunde
tunis
tunisia
tuntum
tuo
turkana
turkewich
turkey
turkish
turo
turtle
tutu
tutufo
tutuu
tuu
tv
tw
twa
twaa
twaka
twam
twe
twee
twene
twenebɔ
twentieth
twer
twerɛ
twerɛfoɔ
twerɛsɛm
twerɛtwerɛfoɔ
twerɛɛ
twetwa
twi
twifo
twin
twins
twitwa
two
twum
twumasi
twɛn
txt
type
types
tɔ
tɔgbe
tɔn
tɔɔ
tɛlɛvihyin
tɛtrɛtɛ
u
ua
ucc
uefa
uetersen
ug
ugali
uganda
ugandan
ugcc
ugm
uk
ukraine
ukrainian
ulcer
ulcerative
ultimate
ultrafine
un
unaids
unc
uncle
und
under
undergraduate
undp
unep
unesco
unicef
unicusano
unilever
unimib
union
unique
unit
united
units
unity
universal
universe
universita
universitas
universite
universities
university
unknown
until
up
update
updated
updates
uploads
upper
uppereast
upperwest
upsa
ur
urban
urges
uric
url
us
usa
use
used
user
userfiles
uses
utag
utc
utv
uvsq
v
va
vaccine
vaccines
val
valid
valletta
valley
values
van
vancouver
vanessa
vascular
ve
vehicle
verde
verona
veronica
versailles
vessels
veterinary
vi
via
vice
vicente
vicky
victor
victoria
victory
vida
video
videos
vie
vienna
vietnam
vietnamese
view
vigevano
vignette
viii
villa
village
villages
vincent
violet
viral
virtual
virus
viruses
vision
visit
visitghana
visual
vitamin
vivian
vladimir
vladivostok
vn
vo
vocational
vodafone
vogan
voice
vol
volcano
volgograd
volleyball
volta
volume
von
vote
votes
voting
vu
vung
w
wa
waakye
waboa
wabɔ
wadi
waduro
waduru
waei
wafa
wafu
wagyae
wagye
wagyina
wahunu
wahyɛ
waka
wako
wakwadare
wakye
wakyɛ
wakɔ
wale
wales
walewale
walk
wall
walter
wamfa
wan
wang
wannyina
wansa
want
wantumi
wanya
wanyin
wanyini
wap
war
ward
ware
waree
warefo
warner
warsaw
warszawa
was
wasa
wasan
wasane
wasawasa
washington
wasi
wasom
wassa
waste
watch
wate
watena
water
waterfalls
wato
watu
watumi
watwa
watwam
watwerɛ
waware
wawie
wawo
wawu
way
wayans
wayback
wayi
wayo
wayɛ
wc
we
weather
weaver
web
webarchive
website
websitehome
webster
wednesday
wee
week
wegbe
wei
weija
welcome
well
welterweight
wenchi
wendy
wer
were
wereko
wesley
west
western
westminster
wetlands
what
whc
when
where
which
whip
white
who
whole
why
wi
wiafe
wiase
wiawso
widow
widowhood
wie
wiee
wieeɛ
wiei
wiem
wiemhyɛn
wiemhyɛnbea
wiemuhyɛn
wieɛ
wife
wig
wiki
wikimedia
wikipedia
wildlife
will
william
williams
wilson
wim
wimhyɛn
win
winans
winfred
winneba
winner
winners
winning
wins
wiredu
wisconsin
wisdom
with
within
without
wli
wn
wo
woadi
woagye
woama
woanya
woayɛ
wobebisa
wobebu
wobedi
wobegyae
wobegye
wobehu
wobenya
wobetumi
wobeyi
wobu
wobue
wobuee
wobuu
wobɔ
wobɛ
wobɛhunu
wobɛnya
wobɛtumi
wobɛyɛ
wode
wodi
wodii
wodikan
wodua
wofa
wofi
wofii
wofiri
wofrɛ
wogyae
wogyaee
wogyaw
wogye
wogyee
wogyina
wohia
woho
wohu
wohui
wohunu
wohuu
wohwɛ
woka
wokum
wokunkum
wokura
wokuu
wokɔ
wom
womaa
woman
womanrising
women
womens
womfa
won
wonder
wone
wonfa
wonhu
wonim
wonkɔ
wonni
wonnii
wonnim
wonnya
wonnye
wonoa
wonoo
wonsa
wontua
wontumi
wonya
wonyaa
wonyae
woo
wood
woolstencroft
wopaw
wopɛ
word
wordpress
words
worebɔ
woreka
worekɔ
woreyɛ
work
workers
working
works
workshop
world
worlds
worldwide
worship
worth
wosan
wosi
wosie
wosiee
wosiesie
wosii
wosisii
wosiw
wosua
wosusuw
wote
wotintim
wotu
wotumi
wotutu
wotutuu
wotuu
wotwe
would
wowie
wowiee
wowuwu
wowuwui
wowɔ
woyi
woyii
woyɛ
wp
wright
writer
writers
writing
wu
wuhan
wui
wuiɛ
wukuada
wulensi
wuo
wura
wuraa
wuram
wuranom
wusiw
wuu
wuwu
www
wɔ
wɔaboaboa
wɔabu
wɔabue
wɔabɔ
wɔada
wɔadi
wɔafa
wɔagyae
wɔagyaw
wɔagye
wɔahu
wɔahyehyɛ
wɔahyɛ
wɔaka
wɔakora
wɔakwati
wɔakyekyɛ
wɔakyerɛ
wɔakyerɛw
wɔakɔ
wɔama
wɔamfa
wɔankyerɛ
wɔanoa
wɔanya
wɔanyinyin
wɔapaw
wɔasan
wɔasiesie
wɔasua
wɔasɛe
wɔatete
wɔatew
wɔato
wɔatrɛw
wɔatu
wɔatumi
wɔatwa
wɔatwerɛ
wɔaware
wɔawie
wɔawo
wɔayam
wɔayi
wɔayɛ
wɔba
wɔbaa
wɔberɛ
wɔboa
wɔboaboa
wɔbom
wɔboro
wɔbu
wɔbue
wɔbuu
wɔbɔ
wɔbɔɔ
wɔbɛ
wɔbɛboa
wɔbɛbɔ
wɔbɛda
wɔbɛdi
wɔbɛfa
wɔbɛgye
wɔbɛhwehwɛ
wɔbɛhwɛ
wɔbɛhyehyɛ
wɔbɛhyɛ
wɔbɛka
wɔbɛkora
wɔbɛkwati
wɔbɛkyerɛ
wɔbɛkyerɛkyerɛ
wɔbɛkɔ
wɔbɛma
wɔbɛn
wɔbɛnya
wɔbɛpaw
wɔbɛsa
wɔbɛsan
wɔbɛsi
wɔbɛte
wɔbɛtete
wɔbɛtra
wɔbɛtumi
wɔbɛwo
wɔbɛyɛ
wɔbɛyɛɛ
wɔda
wɔdaa
wɔde
wɔdi
wɔdii
wɔdikan
wɔdua
wɔdɔɔso
wɔfa
wɔfaa
wɔfiri
wɔfre
wɔfrɛ
wɔfrɛɛ
wɔgye
wɔgyedi
wɔgyee
wɔgyina
wɔgyinaa
wɔhunu
wɔhunuu
wɔhwehwɛ
wɔhwere
wɔhwɛ
wɔhwɛɛ
wɔhyehyɛ
wɔhyehyɛɛ
wɔhyɛ
wɔhyɛɛ
wɔhɔ
wɔka
wɔkaa
wɔkae
wɔkamfo
wɔkan
wɔkasa
wɔkeka
wɔko
wɔkora
wɔkura
wɔkwati
wɔkyekye
wɔkyekyem
wɔkyekyeree
wɔkyekyɛ
wɔkyere
wɔkyeree
wɔkyerɛ
wɔkyerɛkyerɛ
wɔkyerɛw
wɔkyerɛwee
wɔkyerɛɛ
wɔkyɛ
wɔkyɛɛ
wɔkɔ
wɔkɔɔ
wɔm
wɔma
wɔmaa
wɔmfa
wɔmfaa
wɔmma
wɔmmɔ
wɔmpɛ
wɔn
wɔnam
wɔne
wɔnho
wɔnhwɛ
wɔnhyɛ
wɔnim
wɔnkyɛ
wɔnkɔ
wɔnni
wɔnnya
wɔnnye
wɔnoa
wɔnom
wɔnso
wɔntaa
wɔnte
wɔnto
wɔntumi
wɔnwaree
wɔnya
wɔnyaa
wɔnyaeɛ
wɔnyɛ
wɔpa
wɔpaa
wɔpagyaa
wɔpaw
wɔpow
wɔpɛ
wɔrebɔ
wɔrebɛto
wɔredi
wɔrehwɛ
wɔrehyɛ
wɔrenya
wɔresa
wɔresan
wɔresi
wɔreto
wɔretu
wɔrewo
wɔreyɛ
wɔsa
wɔsan
wɔsane
wɔsesa
wɔsesaa
wɔsi
wɔsiee
wɔsiesie
wɔsii
wɔsom
wɔsua
wɔsusu
wɔsɔ
wɔsɔre
wɔsɔɔ
wɔsɛe
wɔsɛee
wɔtaa
wɔtae
wɔte
wɔtee
wɔteeɛ
wɔtena
wɔtete
wɔtetee
wɔtetew
wɔtew
wɔto
wɔtoe
wɔtoeɛ
wɔtoo
wɔtow
wɔtowee
wɔtraa
wɔtrɛw
wɔtu
wɔtumi
wɔtuu
wɔtwa
wɔtwaa
wɔtwe
wɔtwerɛ
wɔtwerɛɛ
wɔtwitwa
wɔtɔ
wɔtɔn
wɔware
wɔwea
wɔwie
wɔwiee
wɔwo
wɔwom
wɔwoo
wɔwɔ
wɔyare
wɔyem
wɔyi
wɔyii
wɔyɛ
wɔyɛe
wɔyɛn
wɔyɛɛ
wɔɔ
wɛ
wɛbsaet
x
xi
xianfan
xico
xiv
xlibris
y
ya
yaa
yadeɛ
yafunu
yahata
yahaya
yaka
yakubu
yakye
yale
yalta
yam
yamoah
yankah
yanoa
yao
yapan
yapei
yare
yarefoɔ
yareɛ
yareɜ
yato
yaw
yawo
yawoada
yayam
ye
yea
year
years
yebetumi
yeboa
yeboah
yehu
yei
yeinom
yekaterinburg
yellow
yemen
yen
yendi
yenya
yera
yere
yerenom
yerusalem
yes
yesaia
yesu
yesufu
yi
yiadom
yie
yiedie
yii
yilo
yinom
yinsɛn
yiri
yiye
yiyedi
yiyedie
yiyi
yiyie
yohane
yokohama
yoma
york
yoruba
yotta
you
young
your
youth
youtube
yoweri
yudafo
yugoslavia
yunyoo
yussif
yvelines
yvonne
yɔ
yɔnko
yɛ
yɛahunu
yɛaka
yɛawo
yɛbu
yɛbɔ
yɛbɔɔ
yɛbɛ
yɛbɛfa
yɛbɛka
yɛbɛnyaa
yɛbɛtumi
yɛdaa
yɛde
yɛdi
yɛdii
yɛe
yɛeɛ
yɛfa
yɛfrɛ
yɛfrɛɛ
yɛhu
yɛhunu
yɛhwɛ
yɛhyɛ
yɛka
yɛkeka
yɛmmea
yɛn
yɛnim
yɛnni
yɛnto
yɛntumi
yɛnya
yɛnyaa
yɛpɛ
yɛsane
yɛsi
yɛtaa
yɛtae
yɛte
yɛtee
yɛto
yɛtoo
yɛtumi
yɛwo
yɛwoo
yɛwɔ
yɛyi
yɛyii
yɛyɛ
yɛɛ
z
za
zaafi
zabid
zabzugu
zagreb
zambia
zanzibar
zaragoza
zealand
zebilla
zel
zeljko
zenith
zerrougui
zimbabwe
ziope
zone
zones
zongo
zu
zugah
{
|
}
~
£
§
¨
«
°
±
²
´
·
º
»
×
æ
đa
đo
łobez
ɔ
ɔb
ɔba
ɔbaa
ɔbaapanin
ɔbaatan
ɔbabarima
ɔbabun
ɔbarima
ɔbarimayɛ
ɔbea
ɔbenem
ɔbenfo
ɔbenfoɔ
ɔbeyee
ɔbi
ɔboa
ɔboaa
ɔbotan
ɔbrɛ
ɔbɔ
ɔbɔɔ
ɔbɛ
ɔbɛba
ɔbɛboa
ɔbɛda
ɔbɛdi
ɔbɛdii
ɔbɛfa
ɔbɛgyina
ɔbɛgyinaa
ɔbɛhwɛ
ɔbɛhyɛ
ɔbɛka
ɔbɛkɔ
ɔbɛma
ɔbɛn
ɔbɛnem
ɔbɛnim
ɔbɛsi
ɔbɛte
ɔbɛtenaa
ɔbɛtumi
ɔbɛyɛ
ɔbɛyɛɛ
ɔda
ɔdaa
ɔdan
ɔde
ɔdeneho
ɔdi
ɔdii
ɔdiikan
ɔdikan
ɔdom
ɔdɔ
ɔfa
ɔfaa
ɔfaso
ɔfasu
ɔfasuo
ɔfata
ɔfe
ɔfiri
ɔfirii
ɔfoforo
ɔfoforɔ
ɔfrɛ
ɔfrɛɛ
ɔgyae
ɔgye
ɔgyee
ɔgyefo
ɔgyefoɔ
ɔgyefuo
ɔgyina
ɔgyinaa
ɔgyinaeɛ
ɔha
ɔhamu
ɔhankron
ɔhaw
ɔhemaa
ɔhempɔn
ɔhene
ɔhokafo
ɔhome
ɔhotefo
ɔhoteni
ɔhunuu
ɔhwe
ɔhwehwɛ
ɔhweree
ɔhwɛ
ɔhwɛfo
ɔhwɛɛ
ɔhy
ɔhye
ɔhyee
ɔhyehyɛɛ
ɔhyew
ɔhyiaa
ɔhyɛ
ɔhyɛɛ
ɔhɔ
ɔka
ɔkaa
ɔkae
ɔkandifo
ɔkandifoɔ
ɔkasa
ɔkasafoɔ
ɔkasamafoɔ
ɔko
ɔkoo
ɔkra
ɔkraman
ɔkristoni
ɔkura
ɔkwammɔne
ɔkwan
ɔkwankyerɛfo
ɔkwankyerɛfoɔ
ɔkyer
ɔkyerɛ
ɔkyerɛkyerɛ
ɔkyerɛkyerɛfo
ɔkyerɛkyerɛfoɔ
ɔkyerɛkyerɛni
ɔkyerɛkyerɛnii
ɔkyerɛkyerɛnyi
ɔkyerɛw
ɔkyerɛwee
ɔkyerɛwfo
ɔkyerɛɛ
ɔkɔ
ɔkɔgye
ɔkɔgyinaa
ɔkɔm
ɔkɔmfo
ɔkɔnyaa
ɔkɔsua
ɔkɔsuaa
ɔkɔtoaa
ɔkɔtɔberɛ
ɔkɔyɛɛ
ɔkɔɔ
ɔma
ɔmaa
ɔmaame
ɔmampanin
ɔmampanyin
ɔman
ɔmanfo
ɔmanfoɔ
ɔmanhene
ɔmanko
ɔmanpanin
ɔmanpanyin
ɔmansin
ɔmansoafoɔ
ɔmantam
ɔmanyɔni
ɔmfa
ɔmmɛyɛ
ɔmo
ɔnam
ɔne
ɔni
ɔnim
ɔnka
ɔnkɔ
ɔnni
ɔnnyina
ɔno
ɔnoa
ɔnom
ɔnsane
ɔntumi
ɔnwaree
ɔnya
ɔnyaa
ɔnyaeɛ
ɔnyinii
ɔnyɛ
ɔpaa
ɔpam
ɔpanin
ɔpanyin
ɔpapa
ɔpaw
ɔpepe
ɔpepem
ɔpepepe
ɔpepepee
ɔpepepem
ɔpepɔn
ɔpere
ɔperee
ɔpɛ
ɔpɛnima
ɔpɛnimaa
ɔpɛnimma
ɔpɛpɔn
ɔrebɛyɛ
ɔrefiri
ɔregye
ɔregyina
ɔreka
ɔrekɔ
ɔrepere
ɔreto
ɔreyɛ
ɔsa
ɔsaana
ɔsahene
ɔsan
ɔsanaa
ɔsane
ɔsanso
ɔsi
ɔsiesie
ɔsii
ɔsoafo
ɔsoafoɔ
ɔsom
ɔsome
ɔsomm
ɔsono
ɔsoom
ɔsoro
ɔsraani
ɔsram
ɔsua
ɔsuaa
ɔsuafoɔ
ɔsɔfo
ɔsɔɔm
ɔsɛe
ɔtaa
ɔtare
ɔte
ɔtee
ɔtemmufo
ɔtemmufoɔ
ɔtena
ɔtenaa
ɔtenetene
ɔtenetenefoɔ
ɔtete
ɔtetee
ɔtitenani
ɔto
ɔtoa
ɔtoaa
ɔtoaso
ɔtoeɛ
ɔtomfoɔ
ɔtoo
ɔtooso
ɔtopae
ɔtoto
ɔtu
ɔtumi
ɔtuu
ɔtwa
ɔtwaa
ɔtwee
ɔtwerɛ
ɔtwerɛfoɔ
ɔtwerɛtwerɛfoɔ
ɔtwerɛɛ
ɔtɔ
ɔtɔn
ɔtɔso
ɔtɔɔ
ɔtɛmmuafoɔ
ɔtɛnmuafo
ɔwansane
ɔware
ɔwaree
ɔwarefo
ɔwarefoɔ
ɔwhɛ
ɔwie
ɔwiee
ɔwieeɛ
ɔwo
ɔwofo
ɔwoo
ɔwu
ɔwui
ɔwuiɛ
ɔwura
ɔwuu
ɔwɔ
ɔy
ɔyare
ɔyarefo
ɔyarefoɔ
ɔye
ɔyere
ɔyi
ɔyii
ɔyɛ
ɔyɛkyerɛ
ɔyɛɛ
ə
ɛ
ɛba
ɛbaa
ɛbae
ɛbaeɛ
ɛbata
ɛbemmɛn
ɛben
ɛbenada
ɛbere
ɛberɛ
ɛbetumi
ɛbi
ɛbinom
ɛboa
ɛboro
ɛboɔ
ɛbrɛ
ɛbunu
ɛbɔ
ɛbɔɔ
ɛbɛ
ɛbɛba
ɛbɛboa
ɛbɛgyinaa
ɛbɛgyinaeɛ
ɛbɛhyɛ
ɛbɛkyerɛ
ɛbɛkɔ
ɛbɛma
ɛbɛn
ɛbɛtumi
ɛbɛyɛ
ɛbɛyɛɛ
ɛda
ɛdaa
ɛdan
ɛdane
ɛdannan
ɛde
ɛdeba
ɛdefa
ɛdenam
ɛdi
ɛdidi
ɛdidisoɔ
ɛdie
ɛdii
ɛdikae
ɛdikan
ɛdin
ɛduru
ɛdwoada
ɛdɔm
ɛdɔɔso
ɛfa
ɛfata
ɛfe
ɛfi
ɛfiada
ɛfie
ɛfiri
ɛfirii
ɛforo
ɛgu
ɛgye
ɛgyee
ɛgyina
ɛha
ɛhaw
ɛhia
ɛho
ɛhohia
ɛhu
ɛhwee
ɛhwehwɛ
ɛhwɛ
ɛhyehyɛ
ɛhyerɛn
ɛhyeɛ
ɛhyɛ
ɛhyɛn
ɛhyɛɛ
ɛhɔ
ɛhɔfo
ɛhɔnom
ɛka
ɛkaa
ɛkae
ɛkame
ɛkanyan
ɛkasa
ɛkata
ɛke
ɛkeka
ɛko
ɛkorɔn
ɛkrɔ
ɛkuo
ɛkuoba
ɛkura
ɛkuro
ɛkwan
ɛkyere
ɛkyerɛ
ɛkyerɛkyerɛ
ɛkyire
ɛkyɛ
ɛkyɛn
ɛkɔ
ɛkɔm
ɛkɔso
ɛkɔɔ
ɛkɔɔso
ɛlɛtrɔnik
ɛma
ɛmaa
ɛmfa
ɛmma
ɛmmer
ɛmmerɛ
ɛmo
ɛmom
ɛmoo
ɛmu
ɛna
ɛnam
ɛnan
ɛnanom
ɛnde
ɛne
ɛneɛ
ɛnfa
ɛnhyɛ
ɛni
ɛnka
ɛnkane
ɛnkyerɛ
ɛnkyɛ
ɛnkɔ
ɛnna
ɛnne
ɛnni
ɛnnyɛ
ɛnnɛ
ɛno
ɛnoa
ɛnsan
ɛnsɛ
ɛntaa
ɛnte
ɛnteɛ
ɛnti
ɛntumi
ɛnya
ɛnyaa
ɛnyɛ
ɛnɛ
ɛpaapae
ɛpae
ɛpaee
ɛperee
ɛpo
ɛpɛ
ɛreba
ɛrekyerɛ
ɛrekɔ
ɛrenya
ɛreyɛ
ɛsa
ɛsai
ɛsakra
ɛsan
ɛsane
ɛse
ɛsen
ɛseɛ
ɛsi
ɛsiane
ɛsii
ɛso
ɛsom
ɛsono
ɛsoro
ɛsu
ɛsua
ɛsɔ
ɛsɛ
ɛsɛe
ɛtaa
ɛte
ɛtee
ɛtene
ɛtete
ɛtetew
ɛteɛ
ɛtia
ɛto
ɛtoa
ɛtoaso
ɛtoatoa
ɛtoo
ɛtoso
ɛtra
ɛtrɛ
ɛtrɛw
ɛtu
ɛtumi
ɛtuu
ɛtwa
ɛtwaa
ɛtwam
ɛtwatoɔ
ɛtwe
ɛtwerɛ
ɛtwetwe
ɛtɔ
ɛtɔe
ɛtɔso
ɛtɔɔ
ɛwa
ɛware
ɛwiase
ɛwo
ɛwom
ɛwoo
ɛwɔ
ɛwɔm
ɛwɛ
ɛyaw
ɛye
ɛyera
ɛyii
ɛyɛ
ɛyɛɛ
ʃ
ʻ
ʽ
ʾ
ʿ
ˈ
ˌ
ː
ˤ
̀
́
̂
̃
̄
̆
̇
̈
̉
̊
̋
̌
̔
̛
̣
̦
̧
̨
͂
ͅ
ͻ
α
β
ε
εε
η
θ
ς
в
д
и
я
ԑ
ִ
ַ
ָ
ׁ
כ
ככ
מ
נ
ש
ا
ب
ج
ح
د
ر
س
ف
ل
م
ن
ي
َ
ُ
ِ
ّ
ْ
ٓ
ٔ
ٕ
ं
क
ट
द
न
ब
म
र
ल
ा
ि
ी
ु
े
्
া
ા
ன
ு
்
ా
ุ
་
ུ
​
‎
‐
‑
–
—
‘
’
“
”
„
…
‪
‬
′
″
›
⁄
€
™
↔
↷
−
③
④
⑦
⺀
⺄
⺆
⺈
⺊
⺌
⺕
⺝
⺸
⺼
⿰
⿱
⿲
⿳
⿴
⿵
⿶
⿷
⿸
⿹
⿺
⿻
〢
゙
コ
ユ
㇁
㇂
㇄
㇇
㇈
㇉
㇓
㐁
㐄
㐅
㐌
㐫
㐬
㐭
㐮
㐱
㑒
㒵
㒸
㒼
㓁
㓞
㔾
㕛
㕣
㖾
㘝
㚅
㚇
㚔
㚘
㝉
㝡
㝴
㝵
㞋
㞢
㞷
㠩
㠭
㠯
㡀
㡭
㡿
㢲
㢴
㣇
㣺
㥯
㪅
㫄
㫐
㫒
㫺
㬅
㬎
㬥
㬰
㲋
㳄
㷠
㸒
㸚
㸦
㼌
㼲
㽞
㿟
䀠
䂞
䍃
䏍
䒑
䖍
䖒
䖝
䖵
䙴
䚻
䜌
䝿
䡛
䧹
䪞
一
丁
丂
七
丄
丅
丆
万
丈
三
上
下
丌
不
与
丏
丐
丑
专
且
丕
世
丘
丙
业
东
丞
丢
丣
两
严
並
丨
丩
个
丫
丬
中
丮
丰
丱
串
丵
丶
丷
丸
丹
为
主
丽
丿
乀
乂
乃
久
乆
乇
么
义
之
乌
乍
乎
乏
乐
乑
乔
乖
乗
乘
乙
乚
乛
乜
九
乞
也
习
乡
乳
乾
亀
亅
了
亇
予
争
事
二
亍
于
亏
亐
云
互
亓
五
井
亘
亚
亜
亞
亟
亠
亡
亢
交
亥
亦
产
亨
亩
享
京
亭
亮
亯
亰
亲
亳
亶
亷
人
亻
亼
亾
仁
今
介
仌
从
仐
仑
仒
仓
仕
他
付
仝
代
令
以
任
企
伊
伏
伐
休
会
伯
但
位
何
佘
余
作
佥
使
來
侈
侌
侖
侯
侵
便
保
俞
信
修
倉
倍
候
倠
備
僉
僕
儿
兀
允
兂
元
兄
充
兆
兇
先
光
兊
克
兌
免
兑
兒
兓
兔
党
兜
兟
入
全
兩
兪
八
公
六
兮
兰
共
关
兵
其
具
典
兹
兼
冀
冂
冃
冄
内
冈
冉
冊
冋
册
再
冎
冏
冐
冒
冓
冖
冗
冘
军
农
冝
冡
冥
冫
冬
冷
几
凡
凢
凵
凶
凷
凸
凹
出
函
凾
刀
刁
刂
刃
刄
刅
分
切
刍
刑
刕
刖
列
刘
则
初
別
利
别
到
制
刺
則
削
剌
前
剡
剽
劉
力
功
加
劦
助
劫
劳
劵
勃
勇
勉
勒
動
務
勞
勤
勹
勺
勻
勾
勿
匀
匂
包
匆
匈
匊
匋
匍
匕
化
北
匚
匝
匡
匪
匱
匸
匹
区
医
匽
匿
區
十
卂
千
卄
卅
卆
升
午
卉
半
卌
华
卑
卒
卓
单
卖
南
卜
卝
卞
占
卡
卢
卣
卤
卦
卩
卪
卬
卯
印
危
即
却
卵
卷
卸
卻
厂
厃
厄
历
厈
厉
厌
厓
厘
厚
原
厤
厥
厨
厭
厲
厶
厷
厸
去
厼
厽
叀
参
參
叅
又
叉
及
友
双
反
叐
发
叒
叔
叕
取
受
叚
叜
叟
口
古
句
另
叩
只
召
可
台
叱
史
右
叵
号
司
叹
吂
各
吅
合
吉
吊
吋
同
名
后
吏
向
吕
君
吝
吞
否
含
启
吳
吴
吹
吾
呂
呆
呈
告
员
呙
周
命
咅
和
咎
咠
咢
咨
咸
咼
哀
品
哉
員
哥
哲
唐
商
啇
問
啚
啬
啻
善
喜
喬
單
喿
嗇
噩
嚴
囊
囗
囘
囙
囚
四
回
囟
因
囧
囬
困
囱
囷
固
国
圂
圅
國
圍
圓
土
圡
圣
圥
在
圭
地
圶
圼
坐
坒
坚
坴
垂
垔
垚
埀
埋
埶
執
基
堂
堅
堆
堇
堯
塞
墨
壘
士
壬
壯
声
壳
壴
壹
壺
壽
夂
处
夅
夆
备
夊
夋
夌
复
夏
夒
夕
外
夗
夘
多
夜
夢
大
夨
天
太
夫
夬
夭
央
失
夲
头
夷
夸
夹
夻
夾
奂
奄
奇
奈
奉
奎
奏
奐
契
奓
奔
奚
奞
奠
奢
奥
奭
女
奴
奶
奻
好
如
妄
妙
妟
妥
妻
妾
姑
委
姜
威
娄
婁
婆
婴
嬰
嬴
子
孑
孔
孕
孖
字
存
孚
孛
孝
孟
季
孤
学
孫
孱
學
宀
宁
宂
它
宅
宇
守
安
宋
完
宏
宓
宗
官
定
宛
宜
宝
客
宣
室
宮
宰
害
家
容
宾
宿
寄
寅
密
富
寒
察
寧
審
寫
寬
寮
寸
对
寺
寻
寽
対
寿
封
尃
射
将
將
專
尉
尊
尋
尌
對
小
少
尒
尓
尔
尖
尗
尚
尞
尢
尣
尤
尧
尨
尭
就
尸
尹
尺
尻
尼
尽
尾
尿
局
居
屈
屋
屎
屏
屑
展
屖
屚
属
屠
屡
屬
屮
屯
屰
山
屵
屾
岁
岂
岑
岡
岩
岳
岸
峯
島
崇
崑
崔
崖
崙
崩
嵬
嶲
巂
巛
川
州
巟
巠
巢
巤
工
左
巧
巨
巩
巫
差
己
已
巳
巴
巷
巸
巽
巾
巿
帀
市
布
希
帚
帛
帝
带
師
席
帶
常
干
平
年
幵
并
幷
幸
幺
幻
幼
幽
幾
广
広
庄
床
底
店
庚
府
度
庫
庭
庶
康
庸
廉
廌
廛
廣
廩
廴
延
廷
建
廾
廿
开
弁
弃
弄
弇
弋
式
弓
弔
引
弗
弘
弜
弟
弥
弦
弱
張
強
强
彊
彌
彎
彐
彑
当
彔
录
彖
彗
彡
形
彥
彦
彧
彭
彳
役
彼
往
待
律
徒
得
徙
從
復
微
徵
心
忄
必
忌
忍
志
忝
忠
忩
快
念
忽
忿
思
怠
急
怱
恆
恒
恩
恭
息
悉
患
悤
悲
悶
惠
惡
惢
愁
愈
意
愛
感
慈
慧
慮
憂
憲
應
戀
戈
戉
戊
戋
戌
戍
戎
成
我
戒
戔
或
戚
戠
戢
截
戲
戶
户
戹
戼
戾
房
所
扁
扇
手
扌
才
打
托
执
承
折
拉
拜
拿
掌
推
提
摩
支
攴
攵
收
攸
改
放
政
敄
敏
敕
敖
敗
敝
敞
敢
散
敦
敫
敬
数
敷
數
斂
文
斉
斊
斗
斤
斥
斩
斬
斯
新
方
於
施
斿
旁
旋
族
无
旡
既
旣
日
旦
旧
旨
早
旬
旱
旲
时
旾
昆
昇
昌
昍
明
昏
易
昔
昗
昜
星
春
昬
是
昱
昴
昷
時
晃
晋
晏
普
景
晶
智
暑
暴
曇
曩
曰
曲
曳
更
曷
書
曹
曼
曾
替
最
朁
會
月
有
朋
服
朔
朕
朗
望
朝
木
朩
未
末
本
札
朮
术
朱
朵
朶
朿
杀
杏
杜
束
条
来
東
杲
杳
松
析
林
枚
果
枝
枲
枼
某
柔
查
柬
柰
柴
栗
桀
桑
桼
梁
條
梟
梨
棘
棠
棥
森
楚
業
楽
榮
樂
樊
欠
次
欣
欮
欲
欶
欽
款
歆
歇
歛
止
正
此
步
武
歨
歪
歮
歯
歰
歲
歴
歷
歸
歹
歺
死
殳
段
殷
殸
殹
殺
殻
殿
毋
毌
母
每
毒
比
毕
毚
毛
毳
氏
氐
民
气
氣
水
氵
氶
氷
永
氺
氾
求
汝
汞
江
沃
沓
沙
沝
泉
法
波
泣
泥
泰
洛
洪
活
派
流
浦
浪
浮
淡
淮
清
渚
渠
湯
滿
漸
火
灬
灭
灰
灵
灷
炅
炎
炏
炗
炙
炭
為
烈
烏
烝
焉
無
焦
焱
然
煞
熊
熏
燕
營
燮
爪
爫
爭
爯
爰
爱
爲
爵
父
爷
爻
爽
爾
爿
片
牙
牚
牛
牜
牟
牢
牧
牪
牽
犀
犬
犭
犮
狂
狄
狊
独
狺
猋
猒
猪
献
獻
玄
率
玉
王
玟
玨
珎
班
琴
瑟
瑩
瓜
瓦
甘
甚
生
産
用
甫
甬
田
由
甲
申
电
甶
男
甸
甹
画
甾
畀
界
畏
畐
留
畜
畟
畢
畧
畨
番
畫
異
畱
當
畺
畾
疊
疋
疌
疑
疒
疾
癶
癸
癹
登
發
白
百
皀
皃
的
皆
皇
皋
皐
皕
皮
皷
皿
盃
盆
盇
盈
益
盍
盎
监
盒
盖
盛
盡
監
盤
盧
目
直
相
盾
省
眇
眉
看
眔
眞
真
眷
眼
眾
着
睘
睪
睿
瞏
瞢
瞿
矍
矛
矞
矢
矣
知
矦
短
石
破
碎
磊
磨
示
礻
礼
祟
票
祭
禀
禁
福
禸
禹
禺
离
禽
禾
禿
秀
秃
秉
秋
科
秝
秦
移
稟
穀
穌
穴
究
穹
空
穿
突
窄
窒
立
竒
竜
竝
竟
章
童
竹
笑
笠
筆
等
答
箕
算
箴
節
篤
篭
米
粉
粛
粟
粤
粦
粲
糞
糸
糹
系
約
納
素
索
紫
累
細
絜
絫
絲
維
綿
縣
繇
纍
纟
缶
网
罒
罔
罕
罗
罙
罡
罢
罪
署
罷
羅
羊
羌
羍
美
羔
羕
羗
羞
羡
羣
群
義
羲
羸
羽
翁
翏
習
翕
翟
翠
翼
老
耂
考
者
耆
而
耎
耑
耒
耳
耴
耶
耷
聂
聊
聖
聚
聶
聿
肀
肃
肅
肉
肖
肙
肥
肩
肯
育
肴
胃
背
胡
胥
能
脊
脩
膚
臣
臤
臧
自
臬
臭
臯
臱
至
致
臺
臼
臽
臾
臿
舀
舂
舄
與
興
舉
舌
舍
舛
舜
舞
舟
般
艮
良
色
艸
艹
艾
芒
芔
芬
芮
花
芳
芺
芻
苔
苗
苟
若
苦
英
茶
茸
荅
草
荒
荣
荼
莆
莧
莫
莽
菆
菊
菐
華
萬
落
葉
著
葛
董
葵
蒙
蒦
蒼
蓋
蓬
蓺
蔑
蔡
蕉
蕭
薄
薛
薦
薰
藍
藏
藥
蘭
虍
虎
虐
虒
虔
處
虖
虗
虘
虚
虛
虜
虞
虫
虽
蚤
蚩
蜀
蜜
蟲
蠡
血
行
衍
衛
衣
衤
表
衮
衰
袁
袞
褭
褱
襄
襾
西
覀
要
覃
見
規
覓
覧
親
覽
见
角
解
言
訁
訇
計
詹
誩
諸
讠
谷
豆
豈
豊
豐
豕
豖
豙
象
豦
豩
豪
豸
貇
貝
貞
貟
負
貢
貧
貪
貫
責
貳
貴
買
費
賁
資
賈
賏
賓
賔
賛
賞
賢
賣
質
賴
贊
贝
贡
责
贯
贲
贵
赖
赞
赤
赦
走
越
足
路
蹇
身
躬
車
軍
軎
軟
輦
车
辛
辜
辟
辥
辰
辱
農
辵
辶
边
达
过
近
连
迷
追
退
送
逆
逐
通
速
造
逢
連
逮
進
遀
遂
過
道
達
遣
適
遷
遺
邊
邑
邕
那
邦
邪
郎
部
郭
都
鄉
酉
酋
配
酓
釆
采
里
重
野
量
金
釒
錢
钅
長
镸
长
門
閃
閉
開
閏
閑
閒
間
閔
閵
閻
闌
门
间
闷
阑
阜
阝
阿
降
陳
隆
隊
隋
隡
隨
隱
隶
隹
隺
隻
隼
隽
难
雀
雁
集
雈
雋
雍
雐
雔
雙
雚
雜
雝
離
難
雨
雩
雪
雲
零
雷
需
霍
霜
霝
霞
霸
靈
靑
青
非
靡
面
靣
革
韋
韦
韭
韯
韱
音
頁
頃
項
須
頗
頡
頻
顛
页
風
风
飛
飞
食
飠
養
饣
首
香
馬
馮
駦
马
骨
高
髟
鬥
鬯
鬲
鬼
魏
魚
魯
鮮
鱼
鲁
鳥
鳳
鸟
鹵
鹿
麃
麗
麥
麦
麻
黃
黄
黍
黎
黑
黒
黨
黹
黽
黾
鼎
鼓
鼠
鼻
齊
齋
齐
齒
齿
龍
龙
龜
龟
龠
龰
龱
龴
龵
龶
龷
龸
龹
者
艹
﻿
（
）
？
￼
𠀁
𠀃
𠀆
𠀉
𠀎
𠀐
𠁁
𠁣
𠂆
𠂇
𠂈
𠂉
𠂊
𠂋
𠂎
𠂒
𠂔
𠂛
𠂡
𠂢
𠂤
𠂬
𠂭
𠂹
𠃊
𠃋
𠃌
𠃍
𠃎
𠃑
𠃓
𠃔
𠃜
𠄌
𠄎
𠄠
𠄢
𠆢
𠆥
𠇍
𠈌
𠌵
𠓜
𠔉
𠔥
𠔼
𠔽
𠔿
𠕀
𠕁
𠕋
𠘧
𠘨
𠙻
𠙼
𠚏
𠚒
𠚤
𠚪
𠣏
𠤎
𠤕
𠥓
𠦄
𠦑
𠦝
𠧒
𠧗
𠧪
𠩺
𠪚
𠫓
𠫔
𠫤
𠬛
𠬝
𠬞
𠬢
𠬤
𠬶
𠮛
𠮦
𠮷
𠯑
𠱠
𠳮
𠷎
𡈼
𡉀
𡉵
𡌥
𡍮
𡏳
𡕒
𡕩
𡕰
𡖅
𡗗
𡗜
𡘆
𡘤
𡧱
𡨄
𡩧
𡬠
𡭽
𡰣
𡰥
𡰪
𡰯
𡰱
𡷈
𡸁
𡿨
𡿩
𡿪
𡿺
𢀖
𢀛
𢀩
𢁙
𢆉
𢆰
𢆶
𢇁
𢇇
𢉖
𢌬
𢌿
𢏚
𢑑
𢑚
𢖻
𢙣
𢛳
𢦏
𢦒
𢧵
𢼄
𢾕
𣁋
𣄼
𣅀
𣅽
𣍘
𣎳
𣎵
𣏋
𣏼
𣗥
𣥂
𣥖
𣦵
𣦼
𣧄
𣪊
𣪠
𣬉
𣳾
𣶒
𤇾
𤊽
𤐫
𤓰
𤔔
𤕨
𤣩
𤰇
𤰔
𤰞
𤴓
𤴔
𤽄
𥁑
𥁕
𥃦
𥃩
𥃭
𥇡
𥑟
𥘅
𥘈
𥝢
𥫗
𥱡
𦈢
𦉪
𦉬
𦉼
𦍌
𦍒
𦎧
𦐇
𦓔
𦔮
𦘒
𦙃
𦚏
𦣝
𦣞
𦣻
𦥑
𦥔
𦥯
𦨉
𦭝
𦰩
𧆞
𧈧
𧘇
𧰨
𧴪
𧴮
𧵩
𧾷
𨸏
𨾴
𩙿
𩠐
𩫏
𩵋
𪉷
𪜀
𪟽
𪠲
𪩲
𫇦
𫔭
𫜸
𫝀
𫠣
𫠩
𫢉
𫥞
𫩏
𫩠
𫪡
𫲽
𫶧
𬀷
𬐘
𬗌
𬙙
𬛸
𬜯
𬟩
𬯁
𬴘
𬺻
𬼉
𬼖
𭀰
𭁈
𭁨
𭅰
𭑈
𭕄
𭗼
𭤨
𭥫
𭻾
𮅕
𮊿
𮍌
𮍏
𮓗
𮥼
𮧮
廾
𰀁
𰀄
𰀈
𰀉
𰀕
𰀠
𰀡
𰀢
𰀪
𰁜
𰃮
𰆊
𰆘
𰋙
𰕎
𰢴
𰧭
𰯲
00--
02--
05--
08--
18--
28--
37--
44--
45--
46--
50--
61--
72--
84--
90--
a--
aa--
ab--
aba--
abako--
abi--
abibi--
abo--
aboa--
abro--
abs--
abu--
abɛ--
ac--
acca--
accom--
ache--
ad--
ade--
ado--
adu--
aduo--
advi--
adwen--
adɔ--
ae--
aero--
afa--
aff--
afo--
ag--
ago--
ah--
aha--
ahen--
aho--
ai--
air--
ak--
ake--
aki--
ako--
akro--
aku--
akwa--
akɔ--
al--
am--
ama--
aman--
amnyɔ--
amu--
an--
ana--
ani--
ano--
anta--
anwu--
ap--
apa--
ar--
arbi--
arc--
aris--
as--
aso--
asɛ--
at--
ate--
ati--
atifi--
ato--
atte--
atu--
au--
ave--
awo--
awu--
ay--
aya--
aye--
ayɛ--
az--
azu--
b--
ba--
bag--
bal--
bam--
bar--
basi--
bat--
be--
beg--
beha--
ben--
bi--
bibl--
bio--
bl--
blas--
bo--
boa--
bon--
bor--
bot--
br--
bra--
bre--
bri--
bro--
broke--
bu--
budd--
bur--
bɔ--
bɛ--
c--
ca--
can--
car--
cat--
cau--
ce--
cere--
ch--
che--
cid--
cla--
cle--
co--
col--
com--
complic--
compo--
con--
coo--
cor--
cra--
cre--
cri--
cru--
cu--
d--
da--
daga--
daily--
dam--
dan--
de--
dec--
decla--
del--
den--
des--
det--
di--
dia--
dias--
dis--
disc--
do--
doc--
dor--
dou--
dr--
dre--
du--
dur--
dwo--
dy--
dɔm--
e--
eb--
ec--
ecc--
eco--
ed--
edu--
efi--
el--
ele--
em--
emer--
en--
endo--
eng--
ep--
er--
es--
establish--
estim--
et--
eu--
ev--
ew--
ex--
exte--
ey--
eyi--
f--
fa--
fan--
fe--
fer--
fi--
fie--
fle--
flo--
fo--
for--
fr--
fri--
fu--
funct--
g--
ga--
gar--
gat--
gb--
gc--
ge--
geo--
get--
gh--
ghana--
gi--
giv--
gla--
go--
god--
gon--
gra--
grand--
gri--
gu--
gui--
gya--
gye--
h--
ha--
hac--
har--
he--
head--
heli--
hemor--
hen--
her--
hi--
hip--
his--
hit--
ho--
hodg--
hogb--
hol--
home--
hu--
hw--
hypo--
hɔ--
i--
ic--
id--
if--
il--
illu--
im--
in--
inaugur--
incre--
inspi--
inst--
inter--
is--
it--
iv--
j--
ja--
jan--
je--
jin--
jo--
joha--
jon--
ju--
jua--
judi--
juli--
k--
ka--
kan--
ke--
ki--
ko--
kpe--
ku--
kwa--
kwan--
ky--
kye--
kyi--
kɔ--
kɔm--
kɔn--
l--
la--
lar--
le--
lea--
li--
lj--
lo--
loc--
locat--
lock--
lu--
ly--
m--
ma--
mag--
maha--
mai--
man--
manif--
map--
mar--
mars--
mass--
mat--
matri--
mc--
mcg--
me--
media--
mediter--
men--
mess--
mfa--
mfi--
mfu--
mi--
micro--
mm--
mma--
mmi--
mmo--
mmɔ--
mo--
mor--
mos--
mou--
mp--
mpa--
mpo--
ms--
mu--
mw--
my--
n--
na--
nam--
nan--
nd--
ne--
neg--
net--
new--
news--
ng--
nh--
nhu--
nhwe--
ni--
nka--
nke--
nko--
nkwa--
nna--
nnabu--
nni--
no--
nsa--
nso--
nsu--
nsɛ--
nsɛm--
nsɛnt--
nt--
ntam--
nte--
nto--
nu--
nuc--
nwe--
ny--
nya--
o--
obje--
oc--
od--
odu--
of--
oku--
ol--
on--
opio--
or--
org--
os--
osa--
ot--
oti--
otwa--
oxford--
p--
pa--
paa--
pad--
pales--
pan--
pancre--
pas--
pat--
patri--
pe--
pedia--
pen--
ph--
phy--
pi--
pl--
plan--
plat--
po--
poli--
poly--
pot--
pr--
practit--
pre--
pro--
provi--
pu--
pur--
pɛ--
q--
qa--
qu--
qua--
quick--
r--
ra--
rainfo--
re--
rece--
refer--
reg--
requi--
res--
rh--
ri--
ro--
row--
ru--
rwey--
s--
sa--
sal--
sala--
san--
sara--
saw--
sc--
sch--
se--
sea--
sele--
sem--
ser--
sh--
sha--
shi--
sho--
shr--
si--
sika--
sil--
sket--
sla--
so--
soc--
solu--
some--
spe--
spi--
spo--
spr--
ss--
st--
ste--
stra--
stre--
su--
sub--
succ--
sum--
sy--
syl--
sɛ--
t--
ta--
tax--
te--
ter--
tes--
the--
thisis--
tho--
ti--
titi--
to--
top--
tor--
tr--
tra--
trans--
tro--
tu--
tur--
twe--
ty--
tɔ--
u--
un--
uni--
up--
ur--
us--
v--
va--
val--
van--
ve--
velo--
vene--
ver--
vi--
virg--
vo--
vu--
w--
wa--
wan--
we--
wel--
west--
wi--
wil--
wo--
wobe--
women--
won--
wore--
world--
wu--
wɔ--
wɔan--
wɔbɛ--
wɔm--
wɔn--
wɔre--
x--
y--
ya--
yaw--
ye--
yɛ--
yɛbɛ--
yɛn--
z--
za--
ɔ--
ɔb--
ɔba--
ɔbu--
ɔbɔ--
ɔbɛ--
ɔha--
ɔhwɛ--
ɔka--
ɔkɔ--
ɔkɔm--
ɔma--
ɔpɛ--
ɔre--
ɔsa--
ɔse--
ɔsr--
ɔte--
ɔy--
ɔyɔ--
ɛ--
ɛbɛ--
ɛdu--
ɛp--
ɛre--
ا--
--0
--04
--1
--2
--20
--3
--4
--5
--53
--6
--7
--72
--8
--9
--92
--a
--aa
--abea
--able
--ad
--ae
--aeɛ
--afo
--afoɔ
--age
--agic
--ah
--ain
--aj
--ak
--al
--am
--an
--ant
--ao
--ar
--aries
--ars
--ary
--as
--ase
--at
--ate
--ation
--ations
--au
--aw
--awa
--aɛ
--b
--ba
--be
--bea
--bet
--bi
--ble
--bo
--boa
--bom
--brik
--bu
--bunu
--buo
--burg
--by
--bɔ
--c
--ca
--cal
--ce
--cent
--ch
--cher
--cies
--ck
--co
--cs
--ct
--cus
--cy
--d
--da
--dad
--dan
--de
--den
--dewa
--deɛ
--di
--die
--difo
--do
--doo
--dor
--dorf
--ds
--du
--dua
--dwa
--dwuma
--dy
--dɔm
--e
--ea
--ean
--ed
--ee
--ees
--ef
--eh
--ei
--el
--ela
--ell
--em
--ement
--en
--ence
--ent
--ents
--er
--ere
--eries
--ers
--ert
--ery
--es
--ese
--esie
--ess
--est
--et
--ey
--eɛ
--f
--fa
--fe
--fi
--fie
--fo
--foɔ
--fua
--fuo
--g
--ga
--gbe
--ge
--ger
--gery
--gh
--ghana
--ght
--ghts
--gi
--gin
--ging
--go
--gon
--gs
--gu
--gue
--gye
--gyi
--h
--ha
--hai
--ham
--he
--hene
--hip
--ho
--ht
--hu
--hwɛ
--hy
--hyɛ
--i
--ia
--ial
--ian
--ic
--ics
--id
--ide
--ids
--ie
--ies
--ifo
--ii
--il
--ilia
--im
--ima
--imaa
--in
--ina
--inal
--ine
--ing
--ini
--io
--ion
--ir
--iri
--is
--isa
--ish
--ism
--ist
--ith
--ities
--itis
--ity
--ius
--ive
--ivity
--iwa
--ized
--iɛ
--j
--ja
--je
--ji
--jm
--jo
--k
--ka
--kafo
--kam
--kan
--ke
--ked
--kia
--ko
--koi
--kor
--kra
--ks
--ku
--kuo
--kuw
--kwa
--kye
--kyerɛ
--kyi
--kyire
--kyɛ
--kɔ
--l
--la
--lar
--las
--ld
--le
--led
--ler
--ley
--lf
--li
--lia
--lin
--ling
--lk
--ll
--lla
--lle
--lly
--lm
--lo
--logy
--lon
--ls
--lt
--ly
--m
--ma
--mah
--man
--mara
--me
--ment
--mfo
--mia
--misa
--mma
--mo
--moa
--mond
--mor
--mpa
--mu
--mus
--my
--mɔ
--n
--na
--nafo
--nan
--nc
--nce
--nci
--nd
--ndi
--ndwa
--ne
--nee
--ner
--nes
--ney
--ng
--nga
--ni
--ning
--nk
--nko
--nn
--no
--nom
--nor
--ns
--nsi
--nsɛm
--nt
--nta
--nts
--ntwɛn
--nu
--ny
--nyi
--nz
--nze
--o
--oa
--ob
--oe
--ogical
--ogy
--oh
--oi
--ok
--ol
--olina
--ology
--olution
--om
--ome
--on
--oni
--ons
--oo
--op
--or
--ora
--ors
--os
--ose
--osis
--ot
--ous
--ow
--oɔ
--p
--pa
--pe
--pii
--pon
--pox
--ps
--pɔn
--pɛ
--q
--que
--r
--ra
--ral
--rd
--rdo
--rds
--re
--ren
--rey
--reɛ
--rf
--ri
--ria
--rial
--ric
--rick
--ries
--ring
--rk
--rna
--ro
--ron
--room
--row
--rry
--rs
--rt
--rum
--ry
--rɔ
--rɔn
--rɛ
--s
--sa
--sation
--se
--sed
--sem
--ser
--sh
--ship
--si
--sia
--sie
--sis
--ska
--sly
--sm
--so
--son
--soɔ
--sphere
--ss
--st
--stant
--su
--sua
--sus
--sɛ
--sɛm
--sɛn
--t
--ta
--tafa
--tal
--tam
--tan
--tar
--tary
--te
--ted
--ten
--tene
--ter
--tes
--tey
--th
--tha
--thy
--ti
--tia
--tic
--tica
--tical
--ting
--tion
--tis
--tive
--tle
--to
--tofo
--ton
--tor
--tory
--tow
--toɔ
--tr
--try
--ts
--tse
--tsi
--tt
--tu
--tufoɔ
--tv
--twa
--twe
--ty
--tz
--tɔ
--tɔn
--tɛm
--u
--ua
--ually
--ud
--ue
--ugh
--ui
--ul
--um
--uo
--uor
--up
--ur
--ure
--us
--ut
--uu
--v
--va
--ve
--vent
--ver
--vic
--vo
--vy
--w
--wa
--waa
--way
--we
--wene
--wi
--wo
--x
--y
--ya
--ye
--yi
--yo
--ys
--yɔ
--yɛ
--yɛfo
--yɛfoɔ
--z
--za
--zation
--ze
--zi
--zo
--zy
--ɔ
--ɔeɛ
--ɔk
--ɛ
--ɛe
--ɜ
--ɪm
