!
"
#
##0
##1
##10
##11
##12
##13
##14
##15
##16
##17
##18
##19
##2
##20
##21
##22
##23
##24
##25
##26
##27
##28
##29
##3
##30
##31
##32
##33
##34
##35
##36
##37
##38
##39
##4
##40
##41
##42
##43
##44
##45
##46
##47
##48
##49
##5
##50
##51
##52
##53
##54
##55
##56
##57
##58
##59
##6
##60
##61
##62
##63
##64
##65
##66
##67
##68
##69
##7
##70
##71
##72
##73
##74
##75
##76
##77
##78
##79
##8
##80
##81
##82
##83
##84
##85
##86
##87
##88
##89
##9
##90
##91
##92
##93
##94
##95
##96
##97
##98
##99
$
%
&
'
(
)
*
+
,
-
.
/
0
00
000
001
002
006
008
009
01
010
011
012
014
02
020
021
022
024
025
029
03
030
031
035
04
040
041
044
046
049
05
050
051
052
053
055
056
057
058
059
06
060
061
062
064
065
066
067
068
069
07
070
071
072
076
077
079
08
082
085
086
087
088
089
09
092
093
096
097
099
1
10
100
1000
101
102
103
104
105
106
107
108
1087
109
11
110
111
1111
112
113
114
115
116
117
118
119
1196
12
120
1200
121
122
123
124
125
1253
126
127
128
129
13
130
131
132
133
134
135
136
137
138
139
14
140
141
142
143
144
1442
145
146
1469
147
148
1480
1485
149
15
150
1500
151
152
1522
1523
1526
1527
153
1530
1536
154
1541
1542
1546
1547
155
1550
1551
1552
1553
1556
156
1564
1566
1568
157
1570
1572
1575
1576
1577
1578
158
1584
159
16
160
1600
1605
1609
161
1614
1616
162
1620
1628
1629
163
1630
1635
1637
164
1646
165
1658
1659
166
1660
1663
1664
167
1673
1678
168
1683
169
1697
1698
17
170
1700
1703
1704
1705
1707
1708
1709
171
1710
1712
1714
1716
1717
1718
172
1720
1721
1722
1723
1724
1725
1726
1727
1729
173
1730
1731
1732
1733
1735
1736
1738
1739
174
1740
1741
1742
1743
1744
1745
1746
1748
1749
175
1750
1751
1752
1753
1754
1755
1756
1757
1758
1759
176
1760
1761
1762
1763
1764
1765
1766
1767
1768
1769
177
1770
1771
1772
1773
1774
1775
1776
1777
1778
1779
178
1780
1781
1782
1783
1784
1785
1786
1787
1788
1789
179
1790
1791
1792
1793
1794
1795
1796
1797
1798
1799
18
180
1800
1801
1802
1803
1804
1805
1806
1807
1808
1809
181
1810
1811
1812
1813
1814
1815
1816
1817
1818
1819
182
1820
1821
1822
1823
1824
1825
1826
1827
1828
1829
183
1830
1831
1832
1833
1834
1835
1836
1837
1838
1839
184
1840
1841
1842
1843
1844
1845
1846
1847
1848
1849
185
1850
1851
1852
1853
1854
1855
1856
1857
1858
1859
186
1860
1861
1862
1863
1864
1865
1866
1867
1868
1869
187
1870
1871
1872
1873
1874
1875
1876
1877
1878
1879
188
1880
1881
1882
1883
1884
1885
1886
1887
1888
1889
189
1890
1891
1892
1893
1894
1895
1896
1897
1898
1899
19
190
1900
1901
1902
1903
1904
1905
1906
1907
1908
1909
191
1910
1911
1912
1913
1914
1915
1916
1917
1918
1919
192
1920
1921
1922
1923
1924
1925
1926
1927
1928
1929
193
1930
1931
1932
1933
1934
1935
1936
1937
1938
1939
194
1940
1941
1942
1943
1944
1945
1946
1947
1948
1949
195
1950
1951
1952
1953
1954
1955
1956
1957
1958
1959
196
1960
1961
1962
1963
1964
1965
1966
1967
1968
1969
197
1970
1971
1972
1973
1974
1975
1976
1977
1978
1979
198
1980
1981
1982
1983
1984
1985
1986
1987
1988
1989
199
1990
1991
1992
1993
1994
1995
1996
1997
1998
1999
2
20
200
2000
2001
2002
2003
2004
2005
2006
2007
2008
2009
201
2010
2011
2012
2013
2014
2015
2016
2017
20170306023755
20170452
2018
2019
202
2020
2021
2022
203
204
205
206
207
208
209
21
210
211
212
213
214
215
216
217
218
219
22
220
221
222
223
224
225
226
227
228
229
23
230
231
232
233
234
235
236
237
238
239
24
240
241
242
243
244
245
246
247
248
249
25
250
2500
251
252
253
254
255
256
257
258
259
26
260
261
262
263
264
265
266
267
268
269
27
270
271
272
273
274
275
276
277
278
279
28
280
281
282
283
284
285
286
287
288
289
29
290
291
292
293
294
295
296
297
298
299
3
30
300
3000
301
302
303
304
305
306
307
308
309
31
310
311
312
313
314
315
316
317
318
319
32
320
321
322
323
324
325
327
328
329
33
330
331
332
333
334
335
336
337
338
339
34
340
341
342
343
344
345
346
347
348
349
35
350
351
352
353
354
355
356
357
358
359
36
360
361
362
363
364
365
366
367
368
369
37
370
371
372
373
374
375
376
377
378
379
38
380
381
382
383
384
385
386
387
388
389
39
390
391
392
393
394
395
397
398
399
4
40
400
4000
401
402
403
404
405
406
407
408
409
41
410
411
412
414
415
416
417
418
42
420
421
422
423
424
425
426
427
428
429
43
430
431
432
433
434
435
436
437
439
44
440
441
442
444
445
446
447
448
449
45
450
451
452
453
454
455
456
457
459
46
460
461
462
463
464
465
466
468
469
47
470
472
473
474
475
476
477
478
479
48
480
481
482
483
484
485
486
487
488
489
49
490
491
492
493
494
496
497
498
5
50
500
501
502
503
504
505
507
508
509
51
510
511
512
513
514
515
516
517
518
519
52
520
521
523
524
525
526
527
528
529
53
530
531
532
533
534
535
536
537
538
539
54
540
541
542
543
545
547
549
55
550
551
552
553
554
555
556
558
56
560
561
562
564
565
566
567
569
57
570
571
572
573
574
575
576
578
579
58
580
581
582
583
584
585
586
588
589
59
590
591
594
595
597
598
599
6
60
600
6000
601
603
606
607
608
609
61
612
613
614
615
616
617
618
62
620
621
622
623
625
626
627
628
629
63
630
632
633
634
637
638
639
64
640
641
642
643
645
646
647
65
650
651
653
654
655
656
658
659
66
660
663
664
666
667
668
669
67
670
671
672
673
674
675
676
678
679
68
680
682
683
684
685
686
687
69
690
691
693
694
696
697
698
699
7
70
700
7000
701
702
703
704
705
706
707
708
709
71
710
711
712
713
716
717
718
719
72
720
721
722
723
724
725
726
727
728
729
73
730
731
732
733
735
737
738
739
74
740
741
742
743
744
745
746
747
75
750
751
752
753
754
755
756
757
758
759
76
762
763
764
765
766
767
768
769
77
770
771
773
774
775
776
778
779
78
780
782
784
785
786
787
788
789
79
790
791
794
795
796
797
7979
798
799
8
80
800
801
802
803
804
806
807
809
81
811
812
813
814
815
816
817
818
819
82
820
821
822
823
824
825
826
827
828
829
83
830
831
832
833
834
836
84
840
843
844
845
846
848
849
85
850
851
852
854
855
856
857
86
861
862
864
865
867
868
87
870
871
874
876
877
878
879
88
880
882
883
884
885
886
887
888
889
89
890
891
892
894
896
897
899
9
90
900
901
902
904
905
907
908
909
91
910
911
912
913
914
915
916
918
92
920
921
923
925
926
927
93
930
931
932
934
935
936
939
94
940
941
944
945
946
947
948
949
95
950
951
952
953
954
955
956
957
958
96
960
961
962
963
964
965
967
968
969
97
970
971
973
974
975
976
977
977378
978
979
98
980
981
982
984
986
987
988
989
99
990
992
993
995
996
997
998
999
:
;
<
=
>
?
@
[
\
]
^
_
`
a
aa
aaron
aaronsohnia
abafi
abbot
abbott
abbotti
abbreviata
abbreviatum
abcnews
abdullah
abe
abel
abelmoschus
aberrans
abies
ablepharus
about
aboutmari
abraham
abyssinicus
ac
acacallis
acacia
acaciella
acad
academic
acampe
acanthaceae
acanthephippium
acanthis
acanthosaura
acaulis
accepted
accipiter
accipitrinus
acer
achille
acianthera
acianthus
acineta
ackerman
ackermania
acnodon
aconitoides
acontias
acosta
acostaea
acridotheres
acriopsis
acrocephalus
acrolophia
acta
aculeata
acuminata
acuminatum
acuticaudatus
acutifolia
acutirostris
ad
ada
adam
adams
adansonia
adenoncos
adler
adolf
adolfo
adolfus
adolph
adolphe
adrianae
adscitus
adventus
aegean
aegithina
aegolius
aemula
aene
aenea
aeneus
aerangis
aeranthes
aerides
aestiva
aethiopicus
afer
affinis
africa
african
africana
africanus
afrikalı
afroablepharus
afroedura
afyonkarahisar
afzelia
ag
again
agama
aganisia
agapornis
agassiz
agathis
age
agilis
aglossorrhyncha
agric
agricola
agrostophyllum
aguiar
ahl
ahmad
ahmed
ahmet
ahtisaari
ahtna
ai
aigner
ailanthus
ailuridae
ailuronyx
aise
ajania
ak
akarere
akc
aks
aksaray
aksu
al
alain
alan
alaska
alata
alauda
alba
albert
albertisii
alberto
albescens
albicollis
albida
albifacies
albiflora
albifrons
albigularis
albinucha
albirostris
albiventris
albivitta
albocinctus
albogularis
albopurpurea
album
albuquerque
albus
alcala
alcea
alces
alectoris
alectroenas
alejandro
aleksandrovich
alestes
alestopetersius
alex
alexander
alexandrae
alexandre
alexandri
alfaro
alfonso
alfred
alfredi
alfredo
algeria
algeriensis
ali
alibertia
alice
alipiopsitta
alisterus
all
allen
alleni
allenii
allison
allomyrina
alman
almeida
aloe
alp
alpestris
alphonse
alpina
alpinus
alps
als
alsophylax
alstroemeria
alta
altensteinia
alticola
altiphylax
altissima
altınyayla
alutiiq
alvarez
alves
alzate
am
amabilis
amadina
amaral
amazona
amazonica
amazonum
ambae
ambiguus
amblyospiza
amblyrhynchus
amboinensis
ambon
ambrym
ame
amer
america
american
americana
americanus
amerikan
ames
amesiella
amethystinus
amitostigma
ammocryptocharax
ammomanes
amoena
amparoana
amphiglossus
amphisbaenidae
amurensis
an
ana
anacamptis
anadolu
anaplectes
anas
anathallis
anatolica
anatololacerta
anceps
ancipitia
ancistrorhynchus
and
andamanensis
anders
andersen
anderson
andersoni
andersson
andigena
andinus
andra
andrade
andre
andreas
andreetta
andreettae
andrei
andreone
andrew
andrews
androcorys
androglossini
anexos
angel
angelfish
angeli
angelinae
angolensis
angraecopsis
anguis
anguloa
angustifolia
angustilabia
angustissima
animal
animals
anisognathus
ankara
ann
anna
annamensis
annandale
anne
annectens
anniella
annona
anodorhynchus
anoectochilus
anomala
anomalopus
anomalospiza
anostomoides
anostomus
ans
anser
ansorgii
answer
antaresia
antennifera
anthoceros
anthony
anthopeplus
anthropophora
anthus
antilla
antilles
antipodensis
antipodes
anto
antoine
anton
antonio
aou
ap
apalis
aphelandra
aphelocoma
aphrodite
aphylla
apiales
apicauda
apiculata
apifera
aplocheilichthys
aplonis
apoda
apolemichthys
apostasia
appendicula
appendiculata
appia
applanata
aprosmictus
aptenodytes
apteryx
apus
aq
aquaticus
aquila
ar
ara
arabian
aracari
arachnis
arachnites
arachnitiformis
araneola
aratinga
arau
arborea
arborophila
arcanus
arch
archer
archipelago
archive
arcila
arctic
arcuata
area
arenaria
arenas
arenicola
arfaki
argenteus
argentina
argolica
argophyllum
arias
ariel
arini
aristata
ark
armandii
armeniaca
arms
arnold
arnoldi
aromatica
arq
ars
arthur
article
articles
articulata
artists
arts
arturo
arvense
arvensis
as
ascendens
ascocentrum
ascoglossum
asia
asiat
asiatica
asio
asp
aspasia
aspidites
aspidogyne
aspx
assam
assimilis
aster
asteraceae
asteriscus
astrapia
astriata
astrid
astronium
at
atatu
atelerix
ateles
ater
aterrimus
athene
atlantic
atlantica
atlas
atnahwt
atoll
atra
atrata
atricapilla
atrogularis
atropurpurea
atrorubens
attenuata
attila
atwood
au
auct
auffenbergi
august
auguste
augusto
augustus
aulacorhynchus
aulosepalum
aurantiaca
aurantiacum
aurantiacus
aurantiifrons
aurantius
aurata
auratus
aurea
aurelia
aureola
aureum
aureus
auriculata
aurifrons
aurita
aurivillius
auropalliata
aurorae
aus
austin
austral
australia
australis
austriaca
auteur
auteurs
author
authors
autres
autumnalis
aux
auxopus
avec
aver
averyanova
avicennia
avila
avis
avustralyalı
avusturyalı
axillaris
axis
ay
aydın
aydıncık
aymara
aymoninii
aythya
ayvacık
az
azara
azevedo
aziz
azpelicueta
b
ba
backed
badia
badius
baeolophus
baglafecht
bahc
bahia
bahiensis
bail
bailey
baillon
baird
baker
bakkamoena
bal
balaenoptera
balansae
baldwin
baleares
baliensis
balsamorhiza
baltimore
balzac
balı
band
banded
bangs
bangsia
banks
banksii
bankı
bannermani
bao
baptista
baptiste
baran
barani
barb
barbara
barbarus
barbata
barbosella
barbour
barker
barkeria
barklyi
barlia
barnard
barnardius
barred
barrett
barrio
barros
barry
bartlett
bas
base
basilica
basiliscus
basiphyllaea
baskervilla
basoglu
basoglui
bassiana
bat
bateman
batemannia
bates
bathyaethiops
battalgazi
bauer
baumann
bay
bayat
bayerische
bayram
bb
bbc
bc
bd
be
beach
beatles
beccarii
beck
becker
bedriaga
before
bei
beih
belc
bell
bella
bellatorias
beloglottis
ben
benedict
bengalensis
benine
benjamin
benn
bennett
bennettii
benson
bensoni
benth
benthamia
ber
berg
berlepschi
berlin
bernard
bernhard
bernieri
bernsteinii
berry
bert
bertaco
berthold
bertolonii
berus
bes
beutler
bf
bianch
bibliographie
bibliographisches
bibliothe
bibron
bicallosa
bicarinata
bicinctus
bicolor
bicornis
bicornuta
bifida
biflora
bifolia
bifrenaria
big
bijdr
bikkia
billed
biloba
bimaculata
bin
biographical
biographie
biography
biol
biologiste
bipedidae
bipes
bipinnula
bird
birindelli
birula
biscutella
bishop
bismarck
biswas
bitorquata
bitorquatus
bivittatus
biyolog
bkz
bl
black
blackburn
blaesodactylus
blakistoni
blanc
blanchard
blanche
blanford
blanfordi
blanidae
blanus
blasius
bleeker
bletia
bletilla
blica
bloch
blowin
blue
bluebonnet
blume
blumea
blyth
bnf
bo
bob
bocage
bocagei
bock
boehmei
boeleni
boettger
bog
bogor
bojerii
bol
bolbopsittacus
bolborhynchus
boli
bolivia
boliviana
boliviensis
bolus
bolusiana
bombax
bombycilla
bombyliflora
bonaparte
bonasa
bond
bonnet
bonplandia
book
books
bor
bora
borbonica
borealis
borges
boris
borneensis
borneo
borough
bory
bosnia
bosser
bostrychia
bot
botanikc
botswana
bottae
boulenger
boulengeri
bourne
bourret
bouvardia
boyer
bozkurt
br
brachiata
brachionidium
brachychiton
brachydactyla
brachylaena
brachymeles
brachypetersius
brachypeza
brachyrhaphis
brachystele
brachyurus
bracteata
bracteosa
brade
bradea
bradei
bradford
brady
brama
bramocharax
branch
brandon
branta
bras
brasil
brasiliensis
brasiliscincus
brassavola
brassia
braun
brazil
brecht
breda
brehm
brehmeri
brehmii
brenchleyi
brenesia
brenneri
breviceps
brevifolia
brevipes
brevirostris
brevis
brian
brieger
brisout
brit
britain
britannica
britanyalı
britski
broadley
broadway
brocket
brockhaus
bromheadia
brongersma
brongersmai
bronze
brookii
brotogeris
broughtonia
brown
brownii
brownleea
bru
bruce
bruijnii
brunnea
brunnescens
bruno
bryant
bryceana
brycinus
brycon
bryconaethiops
brygoo
bu
bubalornis
bubo
bucak
bucephala
buchanan
buchtienia
buchtienii
buckleyi
buckup
budak
budaki
buitenzorg
bulbophylloides
bulbosa
bull
bunopus
burgess
burmeister
burns
burt
burton
buruensis
burundi
bush
bussing
butantan
butcheri
buteo
buthraupis
butler
butleri
by
byrne
byron
c
ca
cacatua
cactorum
cadeidae
cadetia
caenotropus
caerulea
caeruleogularis
caerulescens
caeruleus
caesarea
caesaris
caespitosa
caladenia
calandrella
calanthe
calathea
calcarata
calceolaris
caldero
caldwell
caledonicus
caledoniscincus
calendulauda
calidris
californicus
calliparaea
callitris
callotis
calocedrus
calodactylodes
caloenas
calopogon
calvo
calvus
calycera
calypso
calypsus
calyptomena
calyptorhynchus
calyptotis
camarhynchus
cambridge
camelus
cameroon
cami
camii
camilo
camp
campacci
campanulata
campbell
campestris
campo
campos
campylocentrum
camus
can
canada
canadensis
canary
candica
candida
candidum
canedo
caniceps
canicularis
canigularis
canis
canorus
canthium
cantwell
canus
cape
capensis
capicola
capreolus
captcha
carassius
cardinalis
cardoso
carduelis
carel
caribaea
caribbean
caribe
caribou
carica
caricifolia
carinata
carl
carlia
carlo
carlos
carnaval
carnea
carnevali
carola
carolina
caroline
carolinensis
carpathians
carpenter
carr
carranza
carrii
carrillo
carunculata
carunculatus
carvalho
carya
casasia
cassini
castan
castaneiceps
castanotis
castelnau
castle
castre
castro
casuarina
casuarius
catalana
catalogue
catalpa
catasetum
category
catemaco
catharus
catherine
catling
cattleya
caucaea
caucasicus
caucasus
caudata
caudatus
caularthron
caulescens
cauta
cayana
cayennensis
cayman
cd
ce
cebus
cecil
ceciliae
cecropis
celebica
cenisia
census
center
central
centralbl
centroame
centropyge
century
cephalanthera
cephalantheropsis
cephalanthus
cephalophus
cephalotes
ceratandra
ceratobranchia
ceratophora
ceratostylis
cernua
certhia
certhilauda
cervantes
cervus
cesar
cessite
cetti
ch
chacoensis
chaetodontoplus
chalceus
chalcides
chalconota
chalcophaps
chalcopsitta
chalcopterus
chalcosoma
chama
chamaegastrodia
chamaeza
chan
chang
chapman
chapple
characidium
characiformes
charadrius
charax
charles
charmosyna
chase
chatham
chathamensis
chathamica
chaubardia
che
cheirodendron
cheirodon
cheirostylis
chemin
chen
cheng
chernovi
chiaje
chiapas
chicago
chien
chihi
children
chilensis
chilodus
chiloglottis
chilomycterus
chilopogon
chiloschista
china
chinensis
chinese
chioninia
chirio
chiriquensis
chiron
chiroxiphia
chisholm
chitina
chlorantha
chloris
chlorochrysa
chloroptera
chloropterus
chlorornis
chlorospingus
chlorothraupis
chocoensis
chondrodactylus
chondrorhyncha
chopin
chris
christenson
christian
christine
christmas
christoph
christophe
christopher
chron
chrysantha
chrysanthemum
chrysobrycon
chrysocome
chrysocycnis
chrysoglossum
chrysolophus
chrysomelas
chrysonotus
chrysostoma
chukar
chun
chysis
chytroglossa
cia
ciccaba
cicinnurus
ciconia
ciliaris
ciliata
ciliolata
cinclus
cinctus
cineracea
cinerascens
cinerea
cinereiceps
cinereus
cinnabarina
cinnamomeus
cintra
circus
cirrhaea
cisneros
cissa
cisticola
cite
citharinus
cities
citing
citrina
citrus
city
ck
ckbr
cker
clade
clancey
clandestina
clangula
claravis
clareae
clarence
clark
clarke
claude
claus
clausa
clavata
clavicornis
clavigera
cle
cleisocentron
cleistogama
clem
clemens
cleveland
clowesia
club
cnesterodon
co
cobb
coccinea
coccineorchis
coccothraustes
cochleanthes
cochlearis
cochleata
cochlioda
cochoa
code
codonorchis
coelia
cogger
cogn
cognatus
coilostylis
coleman
colgan
colin
coll
collared
collaris
collection
collembola
collina
collins
colombiana
colon
colorata
colossoma
columba
columbia
columbianus
columbina
com
comata
comber
combined
common
community
comorensis
compacttoc
companion
company
comparettia
compressa
concert
concinna
concinnia
concolor
condorensis
conferta
confusa
congesta
congo
conirostrum
conn
conopophaga
conopsea
conrad
conspicillatus
constant
constantin
constantine
content
continent
continents
contr
contra
conuropsis
cook
cooke
cooper
cooperi
cope
copeoglossum
cophoscincopus
copper
coprosma
coracopsis
corallorhiza
cordata
cordem
cordifolia
cordigera
coriacea
corneliana
cornelius
corniculata
cornuta
cornutus
corokia
corone
coronella
correll
corse
corucia
corunastylis
corvus
corybas
corycium
corymborkis
corymbosa
cosmos
costa
costaricensis
coturnix
country
couper
covacevich
craig
cramer
crassa
crassicaule
crassifolia
crassilabia
crassirostris
crassus
crawford
creek
cremastra
crenata
crete
cretica
crex
cribb
crimea
crinigera
crinita
crispa
cristata
cristatus
cristina
croatia
crocodeilanthe
crocodylus
croix
cross
crossoptilon
crotaphytus
crowned
crucianella
cruz
cryptantha
cryptarrhena
cryptoblepharus
cryptocentrum
cryptopus
cryptostylis
cryptoxanthus
crypturellus
cs
ct
ctenobrycon
ctenotus
cuba
cubensis
cucullata
cucullatus
cuculus
cultural
culture
cumi
cuneata
cunninghamii
cup
cupania
cupressaceae
curranii
curtis
curvirostra
cuspidata
cuvier
cuvieri
cv
cyanea
cyanerpes
cyaneus
cyanistes
cyanocephala
cyanocharax
cyanocorax
cyanolaemus
cyanoliseus
cyanolyca
cyanomelana
cyanopsitta
cyanoptera
cyanoramphus
cyanurus
cyclodomorphus
cyclopogon
cyclopsitta
cycnoches
cygnoides
cygnus
cymbidiella
cymbidium
cynocephalus
cynopotamus
cynorkis
cyphochilus
cypripedium
cyprus
cyreni
cyrtopodium
cyrtostylis
cystorchis
cz
czechura
d
da
dacnis
dactylorhiza
daday
daget
dahl
dahlem
dahlia
dale
dalessandroi
dallas
dalstro
dalstroemii
dama
damaliscus
danesch
daniel
danilowa
danimarkalı
dans
dansk
dar
darevskia
darevsky
darmstadt
das
dasia
data
database
daudin
daugherty
david
davidiana
davidson
davies
davis
day
de
dea
dead
dean
death
decaocto
decipiens
decora
deer
deg
deiregyne
del
delarbrea
delavayi
delforge
delicatula
delichon
della
delle
delta
dem
den
denali
dendragapus
dendrobium
dendrochilum
dendrocitta
dendrocopos
dendroperdix
dendrophylax
dene
denh
denis
denise
deniz
dennis
densa
densiflora
dentata
denticulata
der
deraniyagala
derbianus
deroptyus
des
deserti
desf
desmarestii
det
deuterodon
deutsche
deutschland
devillers
di
dia
diadema
dialects
diapoma
dias
dic
dichaea
dichotoma
dichroa
dichromanthus
dicrurus
dictionary
didactylus
didymoplexis
die
diego
dies
diesmos
dieter
dietr
dietrich
digitalarchivioricordi
digitata
digitus
diglossa
dil
dilatata
dilomilis
dimerandra
dimidiatus
dimunitive
dinarolacerta
dinemelli
dinemellia
ding
diodia
diodon
diomedea
diophthalma
diopsittaca
diphylla
diplocaulobium
dipodium
dipterocarpus
dirk
disa
discogs
discolor
discurus
disney
disperis
display
dissimilis
distans
disticha
district
dit
ditions
diuris
dixon
dk
do
doc
dockrill
dockrillia
document
dod
dodson
dodsonii
dog
dohertyi
doi
dollar
dolphin
domestica
domesticus
domingensis
domingoa
dominican
don
donald
dong
donnellan
doreanus
doria
doritis
dorsalis
dos
douard
doughty
douglas
dove
down
downie
dracontia
dracula
drakaea
drakensberg
dressler
dresslerella
dressleri
dressleria
druce
drumana
drummond
drymoda
dryoscopus
dsee
du
dual
dubois
duboisi
duckeella
ducula
duge
dugesii
duivenbodei
dume
dunn
dunst
dunstervillei
dunstervilleorum
dupetithouarsii
duplex
duque
durand
durbin
durio
dusenii
dutra
dwarf
dwight
dylan
dynastes
e
ea
earina
east
eastern
eberhard
eburnea
ec
echinacea
echinata
eclectus
ecornuta
ecuador
ecuadorense
ed
eda
edgar
edition
edmond
edmund
edmunds
edremit
eds
edu
eduard
eduardo
edulis
edvard
edward
edwards
edwardsii
edwin
ee
eesti
efate
eg
egernia
egregia
ehir
ehri
ei
eibesfeldt
eibl
eigenmann
ein
eine
einer
eiro
eiselt
ek
ekmanii
ekvadorlu
el
ela
elachocharax
elasy
elata
elatum
elegans
elegantula
elephas
eleutherococcus
elias
eliomys
eliot
elizabeth
elliptica
ellis
elmer
elmeri
elongata
elongatia
elongatum
elongatus
emanuel
emarginata
emberiza
embreei
emil
emiliana
emilio
emmanuel
emoia
en
encephalartos
enciclope
enciclopedia
enciklopedija
encyclopedia
encyclopædia
endara
endl
endonezyalı
endres
endresii
eng
engel
england
engler
english
enicognathus
enrique
entandrophragma
entodinium
entomolog
entre
eo
eolophus
eos
ephippium
epiblastus
epidendrum
epigeneium
epilobium
epipactis
epipogium
eques
equestris
equinum
equisetum
er
erecta
ereg
eremias
eremiascincus
eremita
eremomela
eremopterix
eria
eric
erich
erik
erinaceus
eriochilus
eriopsis
erithacus
erl
ernest
ernesto
ernodea
ernst
erosa
erubescens
erwin
erycina
erythrocephala
erythrodes
erythrogaster
erythrogenys
erythropitta
erythrops
erythroptera
erythropterus
erythrura
es
escobar
escobariana
escobarii
esmeralda
esox
espan
especie
espejo
essai
essays
est
estado
este
estrilda
estrildidae
et
ethiopia
ethnologue
etolog
etymology
etzel
eu
eudocimus
eudorcas
eudyptes
eudyptula
euge
eugen
eugene
eugenii
eugongylus
eulagos
eulophia
eulophiella
eumeces
eunymphicus
euonymus
euops
eupatria
eupeus
euplectes
euproctus
eupsittula
europaeus
europe
euroscaptor
eurycentrum
eurylaimus
euteles
eutropis
evans
everett
everetti
evermann
evren
ex
exaltata
excelsa
exigua
exilis
eximius
exsul
extinct
ez
f
fa
faced
falcata
falcatifolium
falcinellus
falcipennis
falco
familiaris
family
familysearch
fan
fang
fargesii
farinosa
fasciata
fasciatus
fasciculata
father
faust
fawc
fe
feadensis
federico
felder
felipe
felis
felix
fembio
femoralis
feng
fer
ferdinand
ferenc
ferna
fernando
ferox
ferr
ferrari
ferreira
ferruginea
ferrum
festiva
feylinia
ffer
fi
ficedula
fiction
files
filiformis
filipinli
filmportal
filosofi
fimbriata
fimbriatum
fin
find
finet
fink
finland
finlandiyalı
finn
finnougoria
finsch
finschi
finschii
first
fischer
fischeri
fish
fishbase
fisher
fishes
fitch
fittonia
fitzg
fitzgerald
fitzgeraldii
fitzsimons
fl
flabellata
flaccida
flammea
flava
flavescens
flavicans
flavifrons
flavigularis
flavipes
flavirostris
flaviventris
flavovirens
flavoviridis
flavum
fleischm
flexuosa
flickingeria
flora
flores
floribunda
florida
fluviatile
fluviatilis
fluviphylax
fo
focke
fol
foldats
foliosa
fontaine
for
forbes
forbesi
forbesii
fordii
foreign
forest
formerly
formicarius
formosa
formosae
formosanus
forpus
forrestii
forst
forsteni
forster
fort
fortunae
fortunella
foster
foudia
fouquieria
fowler
fowlie
fox
fr
fractiflexa
fragilis
fragrans
franc
france
francesco
francis
francisco
franco
francolinus
frank
franklin
frantis
franz
frapp
fraser
frauendatenbank
fre
fred
frederic
frederick
frenata
frey
friedrich
frisch
fritz
from
frontalis
fronted
froriep
frost
fry
fu
fuchs
fuchsia
fuchsii
fuciflora
fuiten
fujita
fukuy
fulva
fulvicollis
funerea
funereus
funkiella
furcata
fusca
fuscata
fuscicollis
fuscus
g
ga
gabriel
gaga
gagnep
gaiman
gakenke
galapagoensis
galaxia
galeandra
galearis
galeata
galeola
galeotti
galeottia
galeottiana
galerida
galerita
galicia
gallicolumba
gallimard
gallinago
gallopavo
galloperdix
galloti
gallotia
gallus
galvis
gambusia
gao
garavello
garay
garayana
garayi
garci
garcia
gard
gardner
gardneri
garganica
garman
garrulus
gart
garten
gary
gastrochilus
gastropholis
gatsibo
gaudich
gavia
gazella
gazetteer
ge
gecko
geelvinkiana
gekko
gen
general
genetikc
genicanthus
geniez
gentryi
genyorchis
geodorum
geoffroy
geoffroyi
geoffroyus
geographic
geopelia
geophaps
geophyte
georg
george
georges
geospiza
geotrygon
gephyrocharax
ger
gerais
gerald
gerhard
gerlach
germain
geronticus
geryi
ghillanyi
giant
gibbons
gibbosa
gibbsiae
gigantea
giganteus
gigas
gil
gilbert
gill
gillespie
gilli
giovanni
girard
girardinus
giri
giuseppe
glabra
glandulosa
glauca
glaucescens
glaucidium
glaw
glen
glenn
globosa
glomera
glossopsitta
glumacea
gmelin
gnathostomata
gnd
go
gobiidae
goethe
golden
goldiei
goldmani
goliath
gomes
gomesa
gomphichis
gonc
gone
gong
gongora
gongylomorphus
gonza
gonzalezii
good
goodnight
goodyera
goodyeroides
google
goose
gordon
gorilla
gornomarijskij
gottfried
gottlieb
gould
gouldii
goura
gov
govenia
government
gra
gracile
gracilipes
gracilis
gracillima
graeca
graeme
graham
graminea
graminifolia
graminoides
grammatophyllum
gran
granatensis
grand
grande
grandidier
grandiflora
grandiflorum
grandiflorus
grandifolia
grandis
granitica
grant
granti
graphiurus
grass
graveolens
gray
graydidascalus
grayi
graysoni
great
greater
greek
green
greenw
greer
gregory
grenier
grey
grial
griff
griffin
griffith
griffithii
griseb
griseicauda
griseigularis
griselinia
griseus
grismer
griveaudi
grobya
grossmann
group
gru
gruber
grup
grus
gsater
gu
guarianthe
guatemala
guatemalensis
gue
guentheri
guerrero
guettarda
guevara
guez
guianensis
guillaume
guillaumin
guillermo
guimbeaui
guine
guinea
gularis
gulielmi
guo
gurneyi
gustaf
gustav
gustave
gustavo
gutenberg
gutie
guttata
guy
guyana
gwich
gymnadenia
gymnophaps
gyo
h
ha
haacke
haas
habenaria
haematogaster
haematopygus
hagedash
hagsateri
hahn
hainan
hainanensis
haiti
hakenschnabel
halconensis
haliaeetus
hall
halle
hallowell
hamburg
hamelia
hamer
hamilton
han
hand
hannover
hano
hans
hansen
hapalopsittaca
hapalorchis
haqqında
har
harald
harding
hardy
harold
harpactes
harris
harrison
harry
hartert
hartlaubi
hartwegii
harv
harvey
harveyana
hasemania
hashim
hasta
hastata
hatschbachii
having
hawkes
hay
hayata
he
head
headed
headstander
heana
heart
heckel
hedges
heine
heiner
heinrich
heinz
heldreichii
helen
helena
helenae
heliobolus
helleborine
heller
helleri
helmintolog
heloderma
helodermatidae
helonoma
helsinki
hemibrycon
hemidactylus
hemiechinus
hemiergis
hemigrammus
hemiphaga
hemipilia
hemispingus
hemsl
henderson
hendricks
hendrik
henicophaps
henle
henn
henri
henrici
henrik
henry
henryi
her
heracleum
herb
herbert
hercules
heringeri
herman
hermann
hermans
herminium
herna
hero
herrera
herrerae
herrmann
hertel
herzegovina
herzogii
hespenh
hetaeria
heterandria
heteroclitus
heterophylla
heuglini
hewitt
hexalectris
hexandra
hexisea
hibiscus
higgins
hikida
hilaire
hildebrand
hill
hills
himalaya
himalayana
himalayas
himantoglossum
hippolyte
hirsuta
hirta
hirth
hirtz
hirtzii
hirundo
his
hispanica
hispaniola
hispida
hist
history
histrio
histrionica
hit
hiw
hl
hler
hlke
hme
ho
hodgson
hodgsoni
hodgsonii
hoehne
hoehnea
hoehnei
hoeijeri
holacanthus
holcoglossum
hollandalı
hollister
holmberg
holoserica
holosericea
holothrix
holttum
home
homme
honduras
hondurensis
hong
honore
hook
hookeri
hookeriana
hopkins
hopper
horace
horner
hose
hosei
hosii
hoskin
hosmer
houlletia
house
how
howard
howe
howell
hp
hrnheim
hrsg
htm
html
http
https
hu
hua
huang
hubbs
huber
hubert
huet
hugh
hughes
hugo
hui
hume
humeralis
humilis
humphreys
hung
hunt
hunter
huntleya
huon
hutchinson
huye
hwt
hyacinthinus
hybrid
hydrocynus
hydrornis
hylomys
hylopanchax
hylophila
hypericum
hypomasticus
hypsopanchax
i
ian
iberolacerta
ibm
ic
ice
icon
icterorhynchus
icterotis
id
ie
iftlik
ig
iglesias
ignacio
igniventris
iguana
iguanodectes
ihering
ii
iii
ik
ikalı
il
ile
ilgaz
ilhas
ili
ilili
ill
ilyurt
im
image
images
imaginary
imberbis
imbricata
imidugudu
imirenge
imitans
immanuel
impatiens
imperialis
imre
in
inaequalis
inalco
inca
incarnata
incubacea
indes
index
india
indian
indica
indicus
indo
indolagus
ine
ined
ineich
inexpectata
inflata
info
inform
information
infuscatus
inger
ingram
ino
inornata
inornatus
inquisitor
inscriptus
insectifera
insignis
inst
institut
insularis
intara
integra
intermedia
intermedius
international
internet
iodopleura
iota
ipsea
ir
iran
ireland
iricolor
iridosornis
iris
irrorata
is
isabel
isabelia
isbn
isbru
isla
island
islands
iso
isochilus
isopachys
israel
issn
ist
istva
it
italica
italy
itau
itaucultural
iv
ivan
ivanovich
ix
ixodes
ixora
j
ja
jaan
jack
jackmann
jackson
jacksoni
jacob
jacobs
jacobsen
jacques
jacquiniella
jahrb
jaime
jairo
jakob
jamaica
jamaicensis
james
jamesi
jameson
jan
janeiro
janet
jansson
janthina
japonica
japonicus
jarae
jard
jardine
jason
java
javanica
javanicus
javier
je
jean
jeanes
jeanne
jeffrey
jennifer
jenny
jens
jensen
jeolog
jeremy
jerep
jesu
jesus
jeude
jeugdliteratuur
ji
jia
jian
jiang
jie
jim
jime
jin
jo
joachim
joannis
jobiensis
joe
joger
johan
johann
johannes
john
johnson
johnsonii
johnston
johnstoni
johnstoniae
jonathan
jones
jong
jonss
jordan
jorge
jose
josef
josefinae
joseph
jost
joulupukki
journal
jr
ju
juan
jules
julia
julian
julio
julius
jumellea
jun
jupiaba
justin
k
ka
kaas
kageyo
kai
kaiser
kalanchoe
kale
kallman
kalı
kami
kanazawa
kaniensis
kant
kaplinski
karabag
karadeniz
karama
karaman
karel
karen
karl
kars
katangae
katangensis
kautskyi
kay
kayonza
kc
ke
kec
kefersteinia
kegeliella
kegelii
keiensis
keith
kelly
kemal
kemer
ken
kenai
kenli
kennedy
kenneth
kent
kenya
kepulauan
kerr
kes
ketupa
kew
khan
ki
kicukiro
kid
kigali
kim
kinabaluensis
king
kinghorn
kingii
kionophyton
kirehe
kiribati
kirjaviite
kirk
kitaibelii
kittr
kitwe
kiwi
klaus
klausewitz
klotzsch
klutina
km
kner
knifefishes
knight
knodus
knowindia
knowles
ko
kobus
koc
koch
kochi
kodiak
koellensteinia
konak
konrad
kopstein
kores
kotschyi
koyukon
koyukuk
krabbe
kraenzl
kraenzlinella
kramer
krameri
kratochvi
kraus
krauss
krefft
kreodanthus
kreutz
ksa
ku
kuhl
kuhlhasseltia
kuhlii
kuhn
kumar
kumlutas
kunth
kuntze
kus
kuskokwim
kwazulu
l
la
labati
labiatus
lac
lacaena
lace
lacerda
lacerta
laciniata
lactea
lacustricola
ladenbergia
lady
laemolyta
laevis
lagenorhynchus
lagerstroemia
lagopus
lai
lajos
lake
lam
lamb
lambert
lamellata
lampeye
lamprolepis
lampropholis
lan
lanceolata
lancifolia
lancilabris
land
lang
langi
language
languages
laniarius
lanius
lanka
lankalı
lankesteri
lanthanotidae
lanwis
lanza
lapponica
lar
large
lark
larousse
larus
lasianthus
lasteraamat
latastia
lateralis
latham
lathami
lathamus
laticauda
latifolia
latifolium
latilabris
latipetala
latrans
latvijas
laudakia
laura
laurent
lauterbach
lautus
lava
lawrence
lawrencii
lawson
laxa
laxiflora
lay
layardii
le
lea
leache
leadbeateri
leaf
leafl
lecanorchis
leclancheri
ledum
lee
legendary
lehm
lehmanni
lehmannii
leibniz
leiolopisma
leite
lennon
leo
leochilus
leonard
leonardo
leone
leontopithecus
leopardus
leopold
lepanthes
lepanthopsis
lepida
lepidothyris
lepisosteus
leporellus
leptoptilos
leptosittaca
leptotes
leptotila
lepus
ler
lerista
les
leslie
lesser
lesson
lesueur
leucantha
leucocephala
leucocephalus
leucogaster
leucogenys
leuconota
leucophthalma
leucoptera
leucorodia
leucotis
leucura
leviton
lewis
lex
leyte
leytensis
lez
lgesi
li
lia
liang
liasis
lib
libocedrus
library
libris
licania
lichtenstein
lidth
lien
lietuvos
life
lifestyle
ligulata
lilacina
liliifera
lim
lima
limbata
limia
limprichtii
lin
linden
lindenii
lindgren
lindl
lindley
lindleyalis
lindleyana
line
linearifolia
linearis
lineata
lineola
lingua
link
linn
linnaea
linnaeus
lio
liopholis
liparis
lipinia
liquidambar
lissotriton
list
liste
listera
lit
literature
lithocarpus
litte
little
littoralis
liu
live
livebearer
livia
livida
livingstone
livingstonii
livre
lix
lizard
ll
llave
ller
lo
lobata
lobulia
lockhartia
locustella
lodd
loddigesii
loefgr
log
logos
london
long
longibracteata
longicauda
longicaulis
longicornu
longiflora
longifolia
longifolium
longilabris
longipes
longipetala
longirostris
longissima
lontra
lophochroa
lophophanes
lophophorus
lophopsittacus
lophotes
lophotibis
lophura
lorca
lord
lorenz
loriculus
lorius
los
lothar
louis
louise
lourenc
love
loveridge
lowe
lower
lowii
loxia
lu
lucas
lucena
luchterhand
lucida
lucien
lucinda
lucionensis
lucksom
luconensis
luculia
ludwig
lueddemannia
lueddemanniana
luer
lugens
lugentoides
lugubris
lui
luigi
luis
luisia
luiz
luna
lund
lunulata
luo
lupinus
lupus
lusaka
luschani
luscinia
lutea
luteola
luteus
lutra
lutz
luulekogu
luzon
luzonica
lv
lvarez
ly
lycaste
lyciasalamandra
lycomormium
lygosoma
lynch
lynx
lyroglossa
lyrurus
lı
m
ma
maboroensis
mabuya
mac
macaca
macao
machado
maciel
mackay
mackinlayi
mackloti
macleay
macodes
macquarie
macra
macrantha
macrocarpa
macrolepis
macrophylla
macropygia
macroura
maculata
maculatum
maculatus
maculirostris
maculosa
mada
madagascar
madagascariensis
madeira
madoqua
maek
maewo
mag
magazine
magdalena
magellanicus
magna
magnifica
magnificus
magnolia
magyar
mahnert
mahony
mai
mail
main
maingayi
majalis
major
maker
makino
makira
mala
malabarba
malaconotus
malampa
malawi
malaxis
malayan
malcolm
maldonado
male
malezyalı
malimbus
malo
malu
maluku
malus
mambwe
mammalia
mammea
mammosa
man
manacus
mandonii
manfred
manis
manley
mann
mannerheim
mannii
mansf
manucode
manucodia
manuel
many
mao
map
mar
marc
marcelo
marco
marcos
marcus
margaritae
marginata
marginatus
mari
maria
mariae
marie
marihistory
marin
mario
maritima
mariuver
mark
markus
marla
marlene
marmara
marmorata
marseille
marsh
marshall
marshallia
marsu
martens
martes
marti
martin
martinezii
martins
martius
martti
marx
mary
masam
mascarin
mascarinus
mascula
masked
mason
mat
mathews
mathieu
matsui
matthew
matthias
maurice
mauritius
max
maxillaria
maxillaris
maxim
maxima
maximilian
maximiliani
may
mayeri
mazama
mazz
mccann
mccoy
mcdonald
mcgregor
me
meade
media
medinae
mediocalcar
mediodactylus
medit
mediterranean
meek
meeki
megadyptes
megalops
megalorynchos
megalotis
megascops
megastylis
mehmet
meier
meiracyllium
melalophos
melanitta
melanocephala
melanocephalus
melanocharacidium
melanocorypha
melanogaster
melanoleuca
melanophylla
melanopis
melanoseps
melanotis
melanura
melanurus
meleagris
meles
melo
melogale
melopsittacus
mem
men
mendoza
mendozae
menetia
menezes
mentasta
mer
meridionalis
merkez
merkezi
meroles
merrillii
mertens
mertensi
mertensiella
meryta
mesa
mesadenella
mesadenus
mesalina
mesobuthus
mesoplodon
mesospinidium
metae
metallica
metasequoia
metriopelia
metropol
metynnis
mexicana
mexicanus
mexico
meyer
meyeri
mez
mi
miami
michael
michel
micralestes
micrantha
micranthum
micrathene
microcharacidium
microchilus
microcoelia
microglossa
microlepis
micropanchax
microphylla
microphyta
micropoecilia
micropsitta
microschemobrycon
microthelys
microtis
middle
miguel
miha
mihail
mikado
mikhail
miklo
mikolog
mile
militaris
miller
milne
miltonia
miltoniopsis
mimagoniates
min
minahassae
minas
mindanao
mindorensis
ming
minima
minimus
minor
minuta
minutiflora
minutus
mirabilis
mirafra
miralles
miranda
mireille
mirongo
miryapodolog
misc
mischobulbum
mississippi
missouri
mit
mitchell
mitchelli
mitchill
mitragyna
mitrata
mix
mlokosiewiczi
mo
mochlus
mocquard
model
modesta
modestus
mogera
mola
mole
moles
molinae
mollis
molloy
molly
molucca
moluccensis
molva
moma
monacha
monachus
mondetoura
monogr
monomeria
monophylla
monosepalum
montana
montanum
montanus
montes
monticola
montifringilla
montis
moore
moorei
mora
morales
morat
morato
moravec
morelia
moreno
morenoi
morethia
morgan
morio
morisii
moritz
morizot
mormodes
mormolyca
morrison
mort
moscosoa
moscow
mosque
mota
motacilla
motu
mountain
mountains
moura
movie
mozambique
mpika
mpumalanga
mrcpk
mu
mucronata
muell
muelleri
muganza
muhanga
mullerii
multiflora
mun
mungwi
muntiacus
muntjac
munzinger
murambi
murphy
murray
mus
musanze
muscicapidae
muscicola
music
musschenbroekii
must
mustela
mustelidae
musteloidea
my
myadestes
myanmar
myanmarlı
mycteria
myers
myersi
myiopsitta
mylesinus
myleus
myloplus
mylossoma
myodocarpus
myophonus
myoxanthus
myrmechila
myrmechis
myrmecodia
myrmecophila
myrtaceae
mysolensis
mystacea
mystacidium
mystax
mytnik
məlumat
n
na
nabhitabhata
nachtr
nacionalna
nainus
naipaul
nakai
name
names
nana
nandayus
nannopsittaca
nanus
narod
nat
natal
natalensis
natalis
nathan
national
nationalbibliothek
nationale
native
natl
natrix
nattereri
naturaliste
nauclea
naumann
navarro
nc
nchez
ndez
ne
nebulosa
necropsittacus
nees
neglecta
neil
neill
nek
nelson
nelsonii
nematoceras
nematolog
nen
neobathiea
neocossyphus
neofinetia
neomys
neophema
neopsephotus
neopsittacus
neotinea
neottia
neottianthe
nepal
nephelaphyllum
nertera
nervilia
nervosa
nesoenas
nessia
nestor
nestoridae
net
neto
netto
neudecker
neumann
neumanni
neurergus
neuwied
neuwiedia
neville
new
news
newton
newtonia
ney
nez
nfelder
ng
ngo
ngoma
ngororero
nguyen
ni
nicholas
nicholls
nichols
nicholson
nicobarica
nicolas
nicolaus
nielsen
nietzsche
nig
niger
nigeria
nightwish
nigra
nigrescens
nigricans
nigriceps
nigricollis
nigripes
nigrirostris
nigritella
nikolaevich
nikolai
nin
ning
ninox
nio
nipalensis
nippon
nitens
nitida
nitidissima
nivalis
nivea
niveoscincus
nkele
nnberg
nnrot
nnrotin
no
nobilis
node
nogueira
nom
nome
nord
nordic
norman
noroeste
norte
north
northern
northiella
northwest
norway
nos
not
notabilis
notes
nothofagus
nothoprocta
nothosubsp
nothura
notizbl
notul
notylia
nouvelles
nov
nova
novaeseelandiae
novaezelandiae
novelle
now
ns
nsf
nter
nther
nu
nuchalis
nucifraga
nucras
nuda
number
numenius
nummularia
nupta
nussbaum
nutans
nw
ny
nyagatare
nyanza
nyarugenge
nyc
nyimba
nytimes
o
oatesi
oaxaca
oberonia
obiensis
obituaries
oblanceolata
obliqua
oblonga
oblongifolia
obovata
obscura
obscurus
obtusa
occidentalis
occipitalis
ocean
oceanica
ocellata
och
ochracea
ochreata
ochrocephala
october
octomeria
ocularis
ocyphaps
odontochilus
odontoglossum
odontonema
odontorrhynchus
odontostilbe
odorata
odoratissima
odore
oeceoclades
oecozona
oenanthe
oenas
oeonia
oerstedii
oertzeni
oeste
oestrifera
of
og
ogilby
ogilvie
ognorhynchus
oh
ohwi
oi
ois
ol
old
oldenlandia
oligantha
oligosarcus
oligosoma
olivacea
olivaceus
olive
oliveira
oliver
olivier
omegaifera
omissa
on
oncidium
one
online
ono
opaca
opc
opera
ophidion
ophiomorus
ophiopogonoides
ophiorrhiza
ophisops
ophrys
ophthalmicus
oppositifolia
or
orbicularis
orch
orchid
orchidaceae
orchidee
orchids
orchis
order
oreophila
oreopsittacus
oreorchis
orestias
org
ori
orientalis
oriolus
orleanesia
orlov
ormerod
ornata
ornatus
ornithocephalus
ornithochilus
orqui
orquideologia
ortako
ortega
orthopsittaca
orthotomus
ortiz
oryx
os
oscar
osteospermum
ota
other
otia
otidiphaps
otostylis
otto
otus
ou
ouest
oup
out
ova
ovacık
ovalifolia
ovalis
ovata
owen
oxford
oz
p
pa
pablo
pabst
pabstia
pabstii
pachyglossa
pachyphylla
pachyphyllum
pachypodium
pachyramphus
pachystachys
pacific
pacifica
paederia
page
pagenstecher
pages
painteri
pakistanica
pakistanlı
palaeognathae
palau
palawan
palawanensis
palawensis
pale
paleontolog
palicourea
pallas
pallasii
pallens
pallescens
pallida
pallidiceps
pallidiflavens
pallidum
pallidus
palmarum
palmeri
paludicola
paludosa
palumbus
palustre
palustris
pamphorichthys
pan
panama
panamensis
panaspis
panayensis
pandurata
paniculata
panisea
panoptes
panthera
pantl
paphinia
papilio
papilionacea
papilionanthe
papillosa
papio
papou
papua
papuana
papuanum
par
paracheirodon
paracontias
paradigalla
paradisaea
paradisanthus
paradise
paradoxa
paraguay
paraguayensis
paralaudakia
paramesotriton
parana
paranaensis
paraphalaenopsis
parazitolog
parfois
paris
parish
parishii
parker
parkeri
parotia
parrot
partridge
parus
parva
parviflora
parviflorum
parvifolia
parvilabris
parvirostris
parvula
pas
passer
passerina
passerinus
passionis
pasteur
pastinator
patagioenas
patagonicus
patagonus
patens
patricia
patrick
patterson
patti
patula
pauciflora
pauciflorus
paul
paula
paulo
paulownia
paulus
pauwels
pav
pavanelli
pavetta
pavo
paxton
paz
pazar
pdf
pe
peacock
pearce
pearson
peck
pectinata
pectoralis
pedersen
pedilochilus
pedioplanis
pedro
pedunculata
peixoto
pelagicus
pelecanus
pelewensis
peliperdix
pellegrin
pelzelni
pembaensis
pen
penama
pendens
pendula
peng
penicillata
peninsula
pennata
people
pequenas
per
perciformes
percy
perdicula
perdix
pereira
perez
periparus
perisoreus
peristeria
perousii
perpusilla
perrier
perrieri
perry
pers
persa
persica
persicus
person
personal
personata
personatus
personen
perspicillata
perthensis
pertinax
peru
perugia
perulu
peruviana
peruvianum
pessoa
petauke
peter
peters
petersiana
petiolata
petr
petrochelidon
petronia
petulanos
pez
pezoporus
pfavii
pfeffer
pfitzer
pg
phaius
phalacrocorax
phalaenopsis
phallichthys
phalloceros
phallotorynus
phapitreron
phaps
pharomachrus
phasianus
phayrei
pheasant
phelsuma
phenacogaster
phenacogrammus
phigys
philip
philipp
philippe
philippensis
philippinense
philippinensis
philippines
phillipsi
philochortus
phimosus
phocoena
phoebastria
phoebetria
phoenicopterus
phoenicurus
pholidota
photo
php
phragmipedium
phreatia
phyllocladus
phylloscopus
physogyne
phytologia
phytotax
pi
piaractus
pica
picasso
picazuro
picea
pickeringii
picta
picturata
pictus
pie
pierre
pieter
pietro
pigeon
pileata
pileatus
pilifera
pilosa
pin
pinaceae
pine
ping
pinto
pinus
pionites
pionopsitta
pionus
piperia
pipra
piprites
piranha
pires
pistrinaria
pithecia
pitta
pityphyllum
piza
pl
place
placentis
plantaginea
platalea
platanthera
plataplochilus
plateau
platenae
platforması
platurus
platycercus
platyfish
platystele
plectorrhiza
plectrophenax
plegadis
pleione
pleurothallis
ploceidae
plocepasser
ploceus
plocoglottis
plumbea
plumosa
po
podocarpaceae
podoces
podochilus
poecile
poecilia
poeciliidae
poeciliopsis
poensis
poepp
poeser
pogona
pogonia
poicephalus
point
poir
poll
polyantha
polycycnis
polygonoides
polylepis
polyplectron
polystachya
polytelis
pomacanthus
pomatocalpa
ponce
ponera
ponerorchis
pongo
ponthieva
popayanensis
pope
poptella
population
poropanchax
porpax
porroglossum
porsch
port
portekizli
portilla
portillae
portlandia
porto
porzana
potter
pour
powell
powellii
pp
ppell
prado
praecox
praemorsa
prasinohaema
prasinus
prasophyllum
pre
presbytis
prescottia
presl
press
priapella
priapichthys
price
pridgeon
primatolog
primolius
prince
princeps
prinia
prionailurus
prioniturus
pristobrycon
prix
probosciger
procatopus
procera
proeulagus
progne
project
proleksis
prolifera
promenaea
promontorii
pronolagus
propinqua
proposed
prorepentia
proscelotes
prosopeia
prosthechea
prostrata
prov
province
provincialis
provins
pru
prunella
przewalskii
psalidoprocne
psammodromus
psephotus
pseudalopex
pseudanos
pseudemoia
pseudeos
pseuderemias
pseuderia
pseudibis
pseudoacontias
pseudobertolonii
pseudocentrum
pseudochalceus
pseudogoodyera
pseudolaelia
pseudonigrita
pseudopanax
pseudoscops
pseudovanilla
psilopsiagon
psittacara
psittacella
psittacopasserae
psittacula
psittaculidae
psittaculirostris
psittacus
psitteuteles
psittinus
psychilis
psychopsis
pt
pterichis
pternistis
pteroceras
pterodroma
pteroglossa
pteroglossus
pterostylis
ptilinopus
ptilopachus
ptilopsis
ptiloris
ptyonoprogne
pu
puberula
pubescens
publ
publications
publique
puffinus
pulau
pulchella
pulchellum
pulchellus
pulcher
pulcherrima
pulchra
pulchrum
pullarius
pullei
pullicauda
pulsatrix
pumila
pumilum
punctata
punctulata
pupulin
purpurascens
purpurata
purpuratus
purpurea
purpureicephalus
purpurella
purpureum
pusilla
pusillus
pusio
px
pygmaea
pygmaeus
pygocentrus
pygoscelis
pyramidalis
pyrenees
pyrgilauda
pyrilia
pyrrhocorax
pyrrhula
pyrrhura
python
pınarbas
q
qadınlar
qi
quadriloba
quadriocellata
quail
que
queensland
quekettia
quelea
quintero
quisqueya
r
ra
rabor
racemosa
radda
radiata
raf
rafael
rainer
rajon
ral
ralph
ramanamanjato
rami
ramo
ramos
ramosa
ramosii
ramphastos
ramphocelus
ramsay
ramulosa
randall
rankin
rao
rara
rarotongensis
rasmussen
rauhiella
rawlinson
raxworthy
ray
raymond
rchb
re
real
record
recurva
recurvata
red
redunca
reed
rees
reeve
ref
reference
reflexa
reg
regan
regel
regia
regina
reginae
reginald
region
regis
registration
regni
regulus
reichenbach
reichenbachiana
reichenow
reichenowi
reid
reinhard
reinhardt
reinhold
reinholdii
reinwardti
reinwardtii
reinwardtoena
reis
reli
remastered
remera
remota
ren
renanthera
rendahl
rendle
rene
renz
rep
repens
repert
reptans
reptilia
repu
republic
republika
res
resnum
restrepia
result
ret
reticulata
reticulatus
retusa
reuss
rev
review
revoluta
rez
rg
rgen
rgio
rhabdalestes
rhea
rhellicani
rhexipanchax
rhineuridae
rhizanthella
rhizophora
rhynchophreatia
rhynchopsitta
rhynchostylis
rhynchotus
rhytiodus
rhytionanthos
ri
ria
ribeiro
ric
rica
ricain
ricardo
rich
richard
richards
richardson
richmond
ricii
rico
ridgwayi
ridl
riefferii
rigida
ril
riley
rilke
rin
ringens
rio
riparia
risso
rita
rivas
river
rivera
rivero
rivoli
rk
rkdartists
rkiye
rkəmli
rlandalı
rn
rner
ro
robber
robert
roberto
roberts
robertson
robin
robinson
robinsonii
robiquetia
robusta
robustus
rocha
rock
rodericana
rodr
rodri
rodrigo
rodrigoi
rodrigues
rodriguezia
roeboides
roger
rogers
rolfe
roma
roman
romen
romer
romero
ron
ronald
ronde
ronkay
rooij
roratus
rosa
rose
rosea
roseata
rosei
roseicapilla
roseicollis
roseifrons
rosen
rosenberg
roseum
roseus
rosillo
ross
rossi
rossii
rostellata
rostrata
rothschild
rothschildi
rotundifolia
rouse
roux
rowley
roxb
roy
royen
rquez
rrez
rsel
rt
ru
rubavu
rubecula
rubens
ruber
rubescens
rubiaceae
rubicunda
rubiginosus
rubra
rubriceps
rubrigularis
rubrirostris
rubritorquis
ruckeri
rudbeckia
rudolf
rudolfiella
rudolph
rueppellii
rufa
rufescens
ruficauda
ruficeps
ruficollis
rufigula
rufipennis
rufiventris
rufous
rufus
rugosa
ruhango
rui
ruiz
rumex
rupestris
rupicola
rupp
rus
rusa
rusizi
russell
russia
russian
rustica
rutilans
rutilus
rutk
rvi
rw
rwamagana
rwanda
ry
rzano
s
sa
saavedra
saccata
saccoglossum
saccolabium
sacd
sadlier
sagittatus
saguinus
sahlberg
sai
saimiri
saint
salazar
salminus
salpistele
salpornis
salvador
salvadori
salvadorii
salvator
salvini
samarensis
sambucus
samuel
san
sanctithomae
sand
sanderiana
sanders
sandra
sanfordi
sang
sanguinea
sanma
santa
santaclauslive
santiago
santo
santolina
santos
sapindaceae
saproscincus
sar
sarah
saray
sarcanthopsis
sarcochilus
sarcoglottis
sarcophylla
sarcostoma
sardegna
sartor
satyrium
saudade
sauleda
saunders
saundersiana
sauroglossum
savage
saxatilis
saxicola
sc
scandens
scapanus
scaphosepalum
scaphyglottis
scapularis
scarabaeidae
sce
scha
schartl
schedul
schefflera
schelpe
schiedeella
schilleriana
schindleria
schinopsis
schinus
schinz
schizodon
schlechter
schlechteriana
schlegel
schlegeli
schlimii
schltr
schmidt
schmidtler
schmitz
schneider
schneideri
scho
schomburgkia
schuit
schult
schultz
schultzei
schulze
schumann
schutzgeb
schweinf
sci
science
sciences
scincella
scincidae
scincoides
scincus
scintillata
sciureus
sclater
sclateri
scleroptila
scolecoseps
scolopax
scops
scotopelia
scott
scriptum
scuticaria
scutulata
scytalopus
se
sea
search
sebastian
secc
sect
section
secunda
see
seidenf
seimundi
sein
seipp
selbyana
selc
selenidera
selma
semifuscus
semitorquata
sen
sena
senegalensis
senegalus
senghas
senilis
sentation
sephaena
sepium
sepsina
septentrionalis
serapias
sergei
sericeus
serpens
serpentes
serra
serrapinnus
serrasalmus
serrulata
sertifera
sessiliflora
seychelles
sezen
sg
sganzini
shannon
sharma
sharp
shaughnessy
shaw
shea
shefa
shelleyi
shen
sheng
shepherd
sheviak
short
show
shreve
shu
si
sia
sialia
siamensis
siberia
sibirica
sicilia
sicula
sieboldii
siegerist
sierra
sievekingia
sigmoidea
sijm
sijmii
siler
silurus
silva
silvae
silvana
silver
silverstonei
silvestris
sima
simalia
simarouba
simia
similis
simon
simondii
simonyi
simplex
sin
sindaco
sinensis
sinica
sinotoi
siqueira
sir
sites
siu
size
ska
skeptrostachys
ski
skinneri
skoc
slavey
sler
sm
small
smaragdina
smarty
smith
smithi
smithii
snyder
so
soares
sobralia
soc
social
society
socorrensis
socorroensis
solanaceae
solano
solanum
solitaire
solitaria
solitarius
solo
solomon
solomonensis
somptuosus
son
sond
sonda
song
soo
sophora
sophronitis
sordida
sordidus
sororcula
soto
source
sousa
south
southeast
southern
southwell
southwest
souza
sowerby
sp
spadicea
spaeth
spain
spanischer
spanyol
sparrow
spathoglottis
spathulata
spec
species
speciosa
specklinia
spectabilis
speculative
spence
spencer
sphecotheres
sphegodes
spheniscus
sphenomorphus
sphenurus
spilonotus
spilopelia
spilorrhoa
spilotantha
spindalis
spinosus
spintherobolus
spinus
spiranthes
spitzelii
spitzschnabel
spix
spizocorys
splendens
splendida
spondias
sporopipes
spotted
spreng
springer
sprucei
spruneri
squamata
squammata
squamosa
squez
srailli
sri
ssp
st
sta
staatsbibliothek
stairi
standleyi
stanhopea
stanley
star
state
states
statistical
ste
stefan
stefani
steidl
steindachner
steindachneri
stejneger
stelis
stellagama
stellaris
stellata
stellilabium
stellio
stenella
stenia
stenoglossa
stenopetala
stenophylla
stenoptera
stenorrhynchos
stepa
stephani
stephen
stepheni
stephenson
stercorarius
stereo
stereosandra
sterna
sternberg
sternfeld
sterreichische
steven
stevens
stevensonii
stewart
steyermarkii
stiassny
stigmatus
stimson
sto
stoliczka
stoliczkana
stone
storr
storri
story
strelitzia
strenua
streptopelia
streptopetala
striata
striatum
striatus
stricta
striolata
striped
strix
struthio
stuart
sturnia
sturnus
stylosa
su
sua
subbuteo
subdialect
subdivision
subfamily
subflavescens
subgenus
subgroup
subsection
subsp
subulata
subvinacea
suc
sud
sudan
sudeste
sue
suffix
sugpiaq
sul
sula
sulaensis
sulawesi
sulcata
sulcatus
sulfuratus
sullivan
sulphurea
sultan
sumatra
sumatrana
sumatranus
summerh
sun
sunda
sundbergi
superba
superbiens
superciliaris
superciliosus
superfl
sur
surame
suriname
surround
sus
suspectum
sutorius
sv
svecica
svic
sw
swainsonii
swamp
swan
sweet
swindernianus
swordtail
sylvestris
sylvia
sylvilagus
symbols
syn
synonym
syrmaticus
syst
sz
szidat
szlach
t
ta
tabuensis
tachycineta
tachyphonus
taczanowskii
tadorna
tafea
tailed
tailorbird
tainia
taiwan
takydromus
talautensis
talbot
tales
talpa
talpinaria
tan
tang
tangara
tanimbar
tanna
tanner
tanygnathus
tanzania
tao
tapaculo
taphorn
taricha
tas
tat
tate
tauraco
tavs
taxonomic
taylandlı
taylor
taylori
tayvanlı
tchagra
te
teaguei
teira
teleostei
telmateia
telophorus
temminck
temminckii
ten
tenella
tentaculata
tenthredinifera
tenue
tenuicaulis
tenuifolia
tenuirostris
tenuis
teoksessa
tequilana
ter
teres
term
terrestris
territories
territory
tersch
tersina
tessellata
test
testacea
tetra
tetragona
tetragonopterus
tetramicra
tetrao
tetraogallus
tetrix
teuscheria
teysmannii
th
thailand
thailandica
thalassarche
thanh
the
thecostele
thectocercus
thelymitra
theobald
theodor
theodore
theristicus
they
thiele
thin
this
thlypopsis
thomas
thomensis
thompson
thomson
thoracica
thouars
thraupis
threnetes
threskiornis
thrixspermum
throated
thrush
thumb
thunb
thunbergia
thunia
thwaites
ti
tian
tibet
tibetanus
tienne
tigerfish
tigrina
tiliqua
time
times
timon
timothy
tina
tinamus
ting
tiphia
tipo
tipularia
title
tityra
tken
tl
tlingit
to
tobago
toco
tod
todd
toed
tokat
toledo
tolumnia
tom
tome
tomentosa
tometes
toni
tonkinensis
tonsina
topminnow
torba
tornier
torquatus
torre
torres
torrey
torricellensis
toscano
tosunog
touit
tove
townsend
townsendii
toxicodendron
toxopei
tr
trachylepis
tragelaphus
tragopan
tranquebarica
trans
transvaal
trape
traunsteineri
travassos
tre
tree
treron
trevoria
trias
tribe
tribolonotus
trichocentrum
trichoglossus
trichoglottis
trichopilia
trichosalpinx
trichotosia
triclaria
tricolor
tridens
tridentata
trifida
trigonidium
triloba
trilobata
trimen
tringa
trinidad
triphora
trisetella
tristigmata
tristis
triturus
trivittatus
trnc
troglodytes
trogon
trogonophidae
trop
tropical
tropidia
tropidophorus
tropidosaura
troschel
true
trugon
trujillo
trulla
trullifera
truncata
truncicola
ts
tsi
tsikma
tso
tsubotae
ttingen
tu
tuber
tuberculata
tucanus
turdus
turfosa
turkey
turkherptil
turner
turneri
turtur
tuyama
tylototriton
tympanuchus
typha
typhlosaurus
typus
tytler
tyto
tyttobrycon
tyttocharax
u
ua
uaf
ug
uganda
uk
ukraynalı
ula
uliginosa
ulmus
ulrich
ultramarina
ulubey
um
umbilicata
umurenge
un
uncatum
unchall
unciferia
und
under
undulata
undulatus
une
unguiculata
unicolor
unicorn
uniflora
unifolia
union
united
univ
university
unspecified
untranslated
upper
urb
urban
url
urocissa
uropsilus
urrutia
ursidae
ursinus
ursus
urtica
uruguaylı
urvilleana
us
usa
ussheri
ustulata
utc
utf
utiaritichthys
utriculata
utugari
uturere
v
va
vaccinium
vaginata
vaillant
valencia
valenciennes
valentine
valery
valida
validus
van
vanda
vandopsis
vanellus
vanilla
vanoverberghii
vanua
vanuatu
var
varanidae
varanus
vargas
vari
varia
variabilis
varie
variegata
variegatum
varius
vasa
vasquezii
vaughan
ve
ved
veg
vell
velutina
velvet
vences
venez
venezuela
venezuelalı
venezuelana
venezuelensis
venosa
vented
venusta
venustus
vera
veracruz
verdc
verde
verlag
verm
vernalis
vernixia
vernon
vernonia
verreaux
verrucosa
versicolor
verticalis
vespa
vestita
vhs
vi
via
vicente
victor
victoria
victoriae
vidua
vie
vieillot
vieites
vietnam
vietnamensis
vietnamlı
view
vii
viii
vik
viktor
vila
village
villosa
vinacea
vincent
vini
vinson
viola
violacea
vipera
virens
virescens
virgata
virginalis
virginia
viridiflora
viridis
vis
vitellinus
vitiensis
vittata
vittatus
vivaldi
vladimir
vo
voeltzkowia
vogel
vogt
vol
volker
voltaire
volte
vom
von
vr
vu
vulgaris
vulpes
w
wa
wageneri
wagleri
wagner
wales
walker
wall
wallace
wallisii
walpers
walt
walter
wang
war
warbler
ward
wardi
wardii
wariana
warm
warmingia
warneri
warren
warsz
warszewiczii
washington
watch
water
waterhouse
waterstradti
watson
wc
we
web
weber
wei
weitzman
wellington
wells
welwitschii
wen
wenzelii
werner
werneri
west
westc
western
wetar
wettstein
what
wheeler
whitaker
white
whiteheadi
whitelianus
whitfieldia
whitneyi
who
widdringtonia
wiegmann
wien
wight
wiki
wikipedia
wild
wiley
wilhelm
wilkinson
will
willd
willem
william
williams
williamsii
willing
willis
willy
wilson
wilsonii
wind
winkler
winter
wissen
with
witte
wo
wolf
wolfgang
wombey
wood
woods
wordpress
works
world
worthington
wright
wrightii
wu
www
x
xanthops
xanthopterygius
xanthurus
xavier
xenopirostris
xenurobrycon
xi
xiang
xiao
xii
xiii
xin
xinag
xing
xiong
xiphophorus
xiv
xix
xu
xv
xvi
xvii
xviii
xx
xxi
xylobium
y
ya
yaa
yag
yan
yang
yarkandensis
yarrow
yauaperyensis
ye
yellow
yeni
yenice
yenipazar
yenis
yes
yin
ying
ynu
yoania
yong
york
you
young
youtube
yu
yuan
yukon
yunnan
yunnanensis
yup
yves
yıg
z
za
zambezi
zambia
zanata
zarske
ze
zealand
zebra
zebrata
zee
zeichnungen
zelandalı
zelandica
zelenkoa
zelyurt
zenaida
zentrygon
zeuxine
zhang
zhao
zheh
zheng
zhi
zhou
zhrii
zhu
ziegler
zietz
zimbabwe
zimmer
zimmerman
zimmermann
zinnia
zio
zollingeri
zonarius
zoolog
zoothera
zootrophion
zosterops
zquez
zsef
zu
zug
zum
zygopetalum
zygosepalum
zygostates
{
|
}
~
¤
§
«
¬
¯
°
²
³
´
·
º
»
¿
×
ı
ılca
ıq
ə
ʉ
ʰ
ʲ
ʷ
ʻ
ʼ
ˈ
ˌ
ː
˛
̀
́
̂
̃
̄
̆
̇
̈
̊
̋
̌
̓
̔
̣
̧
̨
̱
̲
͂
α
β
γος
ε
ι
λο
ν
ο
ρ
ς
υ
а
аббуд
абзац
абидин
абиссини
абрикос
абуджа
абукаев
абхазин
ава
август
августын
авокадо
австралазишты
австрали
австралии
австралин
австралишты
австри
австрии
австрин
австро
автобиографическии
автобус
автономи
автономная
автономныи
автор
авторвла
авторжы
авторын
ага
агама
агамавла
агата
агры
агыл
агылеп
ада
адам
адамава
адана
адансони
адапазары
адвент
ади
адин
административ
административно
административныи
администраци
адмиралти
адольф
адыяман
ажаккек
ажедма
ажедшы
азан
азанышты
азаныштыш
азербаи
ази
азиатскии
азизие
азии
азин
азишты
азия
азор
аи
аига
ак
аказ
аказан
аказын
акаролог
акат
аква
аквариум
акдениз
акпарс
акпарсын
акрет
аксаи
аксараи
акситы
аксу
акте
актеон
активно
активныи
актриса
актрисы
актуальныи
актусола
акцорин
акшехир
акьюрт
ал
ала
алабама
алавиры
алавы
алагек
аладжа
алангы
алатаи
алатна
алберт
алдиар
але
александр
александра
александров
александрович
алексеев
алексеевич
алексеевна
алексеи
алексис
алестесвла
алеут
алеутвла
алжир
али
аликов
алор
алтаи
алтындаг
алтынъяи
алфавит
алык
алыквла
алыкмарла
алыкты
аль
альбатрос
альбатросвла
альберт
альбертина
альбом
альдабра
альпывла
альфред
альфреды
алютик
алютиквла
алютикла
аляска
аляскын
аляскышты
ам
ама
амадина
амазон
амазонвла
амазонка
аманыр
амасья
аматисола
амашкек
амбон
амбрим
америка
американ
американская
американские
американскии
америкы
америкын
америкыш
америкышты
америкыштыш
аметист
амишвла
ампат
амстердам
амур
амфисбена
амфисбены
амыж
амыжгек
ан
ана
анатоли
анатолии
ангелина
англ
англи
англии
англичан
англишты
англла
ангола
ангы
анд
андаман
анджелес
андигена
андре
андреевич
андреевна
андреи
андскии
анеи
анешла
анжа
анжал
анжалат
анжалаш
анжалда
анжалтыш
анжалтышвла
анжалтышыжы
анжалтышыжым
анжалына
анжат
анжаш
анжен
анжены
анжы
анжыкта
анжыкталеш
анжыкталтеш
анжыкталтыт
анжыктат
анжыкташ
анжыктен
анжыктены
анжыктымаш
анжыктымы
анжыктышы
анжымаш
анжымы
анжышы
анжышывла
анзыкы
анзыкыла
анзыкылашы
анзыл
анзылны
анзыц
анзыцок
анзыцшы
анисимов
анкара
анна
аннона
анолис
аностомусвла
анош
ансамбль
ансамбльвла
ансамбльым
ансамбльын
анталья
антарктида
антарктидышты
антик
антил
антилопа
антипод
антон
антонио
антониус
антркасто
антрополог
апалис
апатеев
аплонис
апрель
апрельы
апрельын
ар
ара
араб
арабла
арави
аравла
арали
аран
арасари
аратинга
арахнолог
арашы
арва
аргек
аргекы
аргентин
аргентина
аргентинышты
ардахан
арде
аржан
ари
аризона
аристотель
арифие
аркадии
арктик
арктика
арлекин
армары
армени
арми
армижы
армии
армим
армин
армиш
армишты
арпад
арпы
арсении
артвин
арте
артиствла
артистшы
артньык
артньыквла
артур
ару
археологи
архив
архиввла
архивы
архип
архипелаг
архипов
архитектор
архитектура
ары
аспирантурышты
ассам
ассамблеи
ассоциацивла
асср
астра
астрид
астрильд
ат
атабаск
атакум
атланти
атна
атнавла
атнала
атолл
атом
аттила
атюлов
атяжы
ауш
афганистан
афины
африка
африканская
африканскии
африкын
африкышты
африкыштыш
афшин
афьонкарахисар
ахмет
ахтисаари
ашкед
ашкедмы
ашкыл
аштаваи
аштываи
ая
аяр
аяран
аят
аяш
б
ба
баба
бабар
бабелдаоб
бабитс
бабич
бабичы
бавари
багамвла
баглар
бад
баден
базар
баи
баклан
баку
балашши
балашшин
бали
балинт
балти
балтимор
балчова
балыкесир
баля
бананоед
бангаи
бангладеш
бангладешы
банда
банк
банкс
баннерман
банту
баобаб
бар
баран
барнард
барокко
баронов
бартын
бархатныи
басилан
басквла
бассеи
батанта
батлер
батман
баучи
бахреи
бахтин
бахче
бачан
баш
башньы
башы
баят
беи
бек
бекард
бела
белая
белиз
белогорлая
белозубки
белорусси
бельги
бельгишты
беляев
бен
бенгалила
бенин
берлин
берлины
бетлен
бешикташ
биак
библи
библим
библиотека
библиотекы
библишты
бизнес
бизнесмен
бизнесы
биледжик
бинго
биогеографи
биолог
биологи
биса
бисау
бисл
бисламала
бисмарк
битлис
бич
бишкек
бланус
бледная
бледныи
блика
бо
бодлер
боевои
бозкурт
болгари
болгарла
боливи
боливишты
боливишы
боливия
болотныи
болу
большая
больше
большевик
большои
бомбакс
бонин
бор
борис
борнемисса
борнео
борнова
бородатая
босни
ботаник
ботническии
ботсвана
бохоль
бр
бразили
бразилишты
бразилишы
браунлови
бремен
брехт
британ
британи
британин
британишты
британскии
бродскии
брокгауз
брунеи
бсбургвла
бу
бугенвиль
буд
буда
будак
будапешт
буджа
буджак
буи
бук
буква
буквавла
булат
буллер
бурая
бурдур
буревестник
буркина
бурса
бурт
буру
бурунди
бутан
был
в
ва
вааса
вадеш
ваджык
вадим
вады
вадывел
вадывелны
вадывелы
важ
важвла
важыкнер
важына
важынкапшангы
ваза
вазеш
вазы
вазын
вазыныт
ваи
вал
вала
валвел
валвелны
валгыды
вален
валентин
валентина
валери
валериан
валерии
валтари
валтарин
валькеакоскии
вальтер
ван
ванга
ванги
ванды
ванжа
ванжен
ванжены
ванжымы
ванжышы
вантаа
вануа
вануату
вануатун
вануатушты
вань
вар
вара
варажы
варан
варарак
вараракшы
вараш
варашы
варжы
вариант
варлана
варым
вас
васикова
василии
васильев
васильевич
васли
вацшы
ваш
вашингтон
вашт
вашталт
вашталта
вашталташ
вашталтен
вашталтеш
вашталтмашвла
вашталтымы
ваштар
ваштареш
ваштарсир
вашташ
ваштены
ваштшы
ваштымы
ввв
ве
веб
веи
век
века
векы
вел
велды
веле
великии
велны
велы
вен
вена
венг
венгерскии
венгр
венгрвла
венгри
венгрин
венгриш
венгришты
венгрла
венесуэла
венесуэлаышты
венесуэлышты
вениамин
венценосныи
вепсвла
вер
вера
веракрус
верде
верема
верси
версижы
версия
верц
верцы
вес
весела
весин
веске
вескид
вессир
вестфали
весы
вет
ветар
ветвь
вец
вецы
ви
виа
вивла
видатних
виден
виды
вижы
вии
викингвла
википеди
википедила
википедишкы
википедишты
викискладышты
викта
виктор
виктори
викы
вила
виловат
виловатовраж
виловатышты
вилы
вильгельм
вильгельмина
вильнюс
вильянди
вим
винница
виноград
винсент
виргини
вирумаа
висы
вита
виталии
вичы
виш
вишкы
вишне
вка
вл
вла
владивосток
владимир
владимирович
владислав
влажы
влак
влаклан
влакым
власть
внутренние
во
военныи
возаш
возен
вои
вокал
вокзал
воксеокат
вол
волаан
волк
вологда
володькин
волостьвла
волостьыш
волынь
вольык
вольыквла
вольыкым
вольыкын
воробеи
воробьиныи
ворон
ворона
восстановленныи
восток
восточная
восточнои
восточныи
вот
вр
врач
все
встрин
втор
ву
вуеш
вуешы
вуи
вулкан
вулны
вургымла
вурдыжы
вурс
вуян
вы
выдающихся
выдра
выж
выжален
выжалымаш
выжалымы
выжалышы
выльдырцан
выргем
выргема
выргемжы
выргемы
вырсы
вырсывла
вырсын
вырсышты
выру
выч
вычат
вычен
вычымы
вьетнам
вьетнамышты
вьюрок
вячеслав
г
га
габон
габсбургвла
гаваи
гага
газель
газет
газетвла
газеты
гази
газиантеп
газиэмир
гаи
гаити
гакенке
галапагос
галереи
галис
галиси
галисивла
гамби
гамбье
гана
ганновер
гань
ганьок
ганьы
ганьывла
ганьырак
гатсибо
гач
гачеш
гваделупа
гваруба
гватемала
гвембе
гвиана
гвинеи
гвичин
гвичинвла
гвичинла
гг
ге
геи
гек
геквла
геккон
гекконы
гемерек
гемлик
генерал
генеральныи
геннадии
генри
генрик
генрих
гео
географи
георг
георгии
гербшы
герла
герман
германи
германин
германишты
герои
герпетолог
герреро
герцеговина
герцог
герцогвла
геставла
ги
гиацинт
гигантскии
гималаи
гимн
гимнвла
гимнофталмус
гимнура
гиресун
гирне
гитара
гиш
гиша
гишан
глагол
глаголвла
гномвла
го
гог
год
года
году
годшаш
годшен
годшенжок
годшенок
годшы
годы
годым
годымат
годымок
гож
голди
голландвла
голланди
гологлазыи
голуби
голубь
гомбе
гомера
гондурас
гонконг
гордеев
горлица
горная
горно
горномарии
горныи
город
города
городе
городище
городов
городским
горсоветам
горькии
государственныи
государство
гр
граждан
гражданвл
гражданвла
гражданскии
грамматика
гран
грасс
граф
график
греи
грек
грекла
греко
гренланди
греци
грецин
греч
григориан
григории
григорьев
григорьевич
григорьевы
гриф
грифвла
грузи
группа
группы
группывла
группын
группыш
группышкы
гу
гуа
гуадалканал
гуам
губерни
губернин
губерништы
губерня
гуза
гульд
гуманизм
гуманист
гуманиствла
гур
гурии
гуро
гусеницеед
густав
гусянова
гы
гыл
гын
гынат
гыц
гыч
гэмпшир
гэс
гюнтер
д
да
давид
даг
дагы
даже
дажы
дажым
дакка
дакнис
дакота
дам
даман
дамар
дан
дани
данилован
данин
данныи
данных
дар
дарваз
дарвин
дат
датчан
даури
дахо
дв
двел
двиг
двла
двор
дворецвла
дворецы
дворян
дворянвла
двулны
дде
дды
де
дебрецен
дег
деж
дежвла
дежы
деи
дек
декабрь
декабрьы
декабрьын
декабря
деке
декоративныи
делегации
делыт
дель
дельта
дельфин
дем
демар
демд
демды
демократи
демократик
демократин
демре
демы
ден
дене
денизли
деок
деп
департаментжы
депутат
дер
дере
деревня
деч
деш
дешкен
джаз
джами
джамі
джан
джаник
дже
джеи
джек
джексон
джерси
джибути
джин
джон
джордж
джорджи
джума
джунглевая
джык
ди
диалект
диалектвла
диаметржы
дизаи
динагат
динар
дипломат
дипломым
директор
директоржы
дискриминаци
диярбакыр
дкаля
дкыва
длиннохвостая
для
дмитрии
дна
днепропетровск
до
договор
договорым
дои
док
докладвла
докладшым
докладым
доко
доктор
докторжы
документ
документвл
документвла
документы
докы
докыжы
докыла
долина
доминикан
дон
донат
донецк
донецкая
донжы
донна
доно
донок
доны
доныш
донышы
дополнени
дор
дорис
дорович
дорога
дорц
дорцын
др
драма
драматург
драмывла
древесная
древесные
древесныи
дрозд
дроздовидная
дронго
дронт
дружба
дсы
ду
дунаи
духовныи
дшы
дъял
ды
дыв
дым
дын
дынджык
дыр
дьа
дьо
дьюла
дэ
дэвид
дюма
дятел
е
евангелим
евгении
еврази
евразин
евразишты
евреи
евро
европа
европеи
европым
европын
европысо
европышты
европыштыш
египет
египетишты
его
егоров
егорович
егоровна
ед
единая
единственныи
ежи
ежы
езуитвла
ела
елена
ель
емен
ен
енг
ени
енидже
енимахалле
енипазар
енисеи
енишехир
епископ
епископшы
ер
ера
еропов
ес
есенин
еспа
ефимов
ефимовын
ефреи
ефрон
ече
ечы
еш
ешильюрт
ж
жа
жак
жако
жан
жанр
жанран
жанрвла
жап
жапыште
жвла
жвы
жга
жгы
же
жем
жемчужныи
жемы
женщинах
жеп
жепа
жепеш
жепла
жепшы
жепы
жепын
жера
жеш
жика
житомир
жмы
жок
жоффруа
журавль
журнал
журналвла
журналеш
журналист
журналым
журналын
журналышты
жшы
жы
жым
жыр
жырнер
жінок
з
за
завирушка
завод
заж
заи
закон
законвл
законвла
заливы
замбези
замби
замбин
замбишты
заместитель
занзибар
западнои
запорожье
зара
заслуженныи
зга
згар
здже
зеи
зеланди
зеландин
зеландишты
зелбахче
зеле
зельюрт
землерои
земля
землям
землянои
земскии
зенворт
зеш
зи
зид
зимбабве
зимбабвен
зимбабвешты
зинаида
зингер
зишты
зкраукле
змеи
знакым
знамя
значени
значениа
золотистая
золотистыи
золотои
зонгулдак
зонда
зонышты
зоолог
зоологи
зорина
зосим
зотина
зоя
зрини
зринин
зу
зуе
зы
и
иа
ибери
ибис
ибисвла
ибом
ибрахим
ибсен
иван
ивано
иванов
иванова
иванович
ивановна
ивл
ивла
ивлан
иволга
ивритла
ивуар
игбовла
иглоногая
игнатьев
игнатьевы
игорь
игуана
игы
ид
ида
идеи
идентификатор
иерро
ижы
из
иза
изд
издательство
издательствышты
изделивла
изи
изиа
изивла
изижы
изин
изинекок
изира
изиш
измаил
измир
измит
изобразительного
израиль
израильишты
изумруд
ии
ик
ика
икань
икв
иква
икебана
икиа
икманяр
икмыняр
икса
икт
икта
иктешлен
икто
икты
икша
икшы
икы
икымше
ил
илвла
илжы
или
илкадым
иллинои
иллюстратор
иллюстрацивла
илче
илчежы
илы
илыш
иль
илья
ильяков
им
има
имам
имни
имнивла
имнижы
имнио
имниэшкы
император
импери
империн
импрессионизмы
импульсым
имре
ин
инджесу
инди
индиана
индии
индишты
индия
индокитаи
индон
индонези
индонезила
индонезин
индонезишты
индустри
инженер
инжир
инка
инквизици
инок
инспектор
инспирацим
институт
институтым
институтын
институтыш
институтышты
инструмент
интеллигенци
интерес
интересвла
интересне
интересныи
интересуялтеш
интересы
инуит
инуитвла
информаци
информацим
инюпиак
инюпиаквла
инюпиакла
иоанн
иоганн
иордани
иосиф
ипаи
ипполит
ир
ирак
иракышты
иран
иранышты
ирв
ирвел
ирвелны
ирвелы
ире
ирина
ирланди
ирмызы
ирок
ирокшы
иры
иса
исабель
искеле
искилип
искусства
искусство
искусствын
ислам
исланди
исока
исп
испан
испани
испанила
испанин
испаништы
испир
ист
истори
историжы
истории
историк
историко
историм
историн
историческии
историшты
исуткан
ит
итал
итали
италиш
италишты
италия
итальян
итальянла
итежи
ити
иты
ихтиолог
иш
ишвла
ишеш
ишжы
ишкы
иштван
ишты
ишы
иэш
июль
июльын
июнь
июньын
к
ка
кабве
кабо
кабомпо
кавак
кавамбва
кавафис
кавафисы
каваштан
кавашты
кавказ
кавкази
кавшта
кавштавичы
кагеи
кагыль
кагыльвла
кадеа
кадуна
кадьяк
каеш
каждыи
казаков
казан
казанскии
казань
казаньышты
казарка
казахстан
казахстанышты
казуар
казунгула
каи
каир
как
кака
какаду
какадувла
какшан
кал
калабо
каламиан
кале
калевала
каледжик
каледони
каледоништы
календарь
календарьын
калимантан
калифорни
калифорнии
каломо
калпакан
калулуши
калык
калыкын
каля
каляиа
камака
камаканыр
камбоджа
каменка
каменныи
камень
камерун
камерунышты
камигин
кампетка
камчатка
камчатскии
камышевка
кан
канада
канадашты
канадская
канадын
канадышты
канал
канар
канари
канда
кандат
канден
кандены
кандидат
кандидатвла
кандидатшы
кандымы
кандышы
кандышывла
канзас
кано
кант
кантонын
канюшков
каома
кап
капаен
капаи
капири
капута
капшангы
капшангывла
кара
карабаглар
карабу
карадениз
караисалы
карак
карама
караман
карангеш
карас
каратаи
каргы
кардинал
карел
карелин
карем
каремвла
каремы
кариб
карка
каркар
карл
карликовые
карликовыи
карло
карман
карманым
каролин
каролина
карпат
карпвла
карс
карт
карта
картин
картинвла
картины
картук
карцинолог
карш
каршызы
каршым
каршын
каршыяка
касама
касемпа
каспи
кассики
кастамону
кастрен
кат
катандуанес
катег
категори
катете
католик
католиквла
католицизм
катри
каукси
кафедральныи
кафедрын
кафка
кафуе
кахраманмараш
кацина
качкаш
качкын
качкыт
качкыш
качкышвла
качкышеш
качкышым
качкышышты
качмы
качурка
качшы
качы
кашакын
кашалот
кашар
кашмир
каштановыи
кашташ
каштеш
каштмы
каштшы
каштшывла
каштын
каштыныт
каштыт
кашубвла
кая
каяпынар
квинсленд
квл
квла
кг
кды
ке
кеа
кебби
кеен
кеи
кек
кеквла
кекешы
кеклик
кекы
кел
келгы
келес
келеса
келесен
келесы
келеш
келты
келшен
келшы
келы
кель
кельт
кем
кема
кемер
кемы
кен
кени
кеништы
кеннеди
кент
кены
кепез
кер
кера
керд
керда
кердде
кердделыт
кердеп
кердеш
кердмы
керды
керек
керемет
кермадек
кертеш
керы
кескин
кестель
кесы
кеча
кече
кечеш
кечио
кечы
кечыва
кеш
кешы
ки
киа
киви
кигали
кид
кидешы
кидшы
киды
кидым
киев
кии
килис
километр
ким
кин
кинды
кино
киоск
кипр
киприн
киргизи
кирехе
кирибати
кирилл
киров
кировоград
кит
китаи
китве
китеэ
кичукиро
киша
кишы
киэн
киямат
кл
кла
клавиатур
клавиатурын
клавишлам
клада
класс
классан
классическии
классым
классышты
клаус
клеи
клен
клетке
клещи
клима
кловои
клуб
клубым
клы
км
кмы
кн
кна
книг
книга
кнут
кныр
князь
ко
ковашан
ковыи
когда
когершы
когечы
кого
когоа
коговла
коговуи
когога
когогорны
когожы
когожын
когон
когонжат
когонжок
когонок
когорак
когораквла
когосир
когосола
когоэшна
код
кода
кодат
кодаш
кодде
коден
кодены
кодеш
коджа
коджасинан
коджаэли
кодшы
коды
кодыде
кодымы
кодын
кодыныт
кодыт
кож
кожваж
кожла
кожлана
кожым
козодои
козьмодемьянск
козьмодемьянскии
козьмодемьянскышты
кои
кок
кокиа
кокла
кокласола
коклаште
коклы
коклышы
кокты
коктыге
коктын
кокшу
кокшы
кокшыжы
кокэн
кол
кола
колвла
колгучкыж
колен
колены
колеш
колибри
колибривла
коллегывла
коллективизаци
коллоэц
коллоэцвла
колорадо
колт
колта
колтат
колташ
колтен
колтены
колтымы
колтыш
колумб
колумби
колумбишты
колумбия
колхоз
колхозвла
колхозым
колхозын
колхозыш
колхозышты
колшы
колым
колымаш
колымы
колымыжы
колын
колышт
колыштын
колышы
колышывла
командора
комбинат
комбы
комбывла
комбын
комедивла
комета
коми
комисси
комиссин
комитет
комитеты
коммуна
коммунист
коммунистическии
коммунын
комодо
комор
коморвла
композитор
компьютер
комсомол
конак
конвенци
конвенцивл
конвенцим
конго
конгресс
кондор
коне
конкурсвла
коннектикут
конрад
константин
константиновна
континент
континентвла
континенты
контроль
конфессивла
концерт
концертвла
концессии
конья
коньяалты
копон
коппербелт
корабль
корватунтури
коргы
кордова
кореи
корзины
коричневыи
коркут
корнан
корно
корны
корнывла
корныгешы
корныжы
корныжым
корным
корнын
корныш
корнышкы
корнышты
корныштыжы
короле
королевская
корона
коротков
короткоклювая
короткоклювыи
корсика
косир
косиры
космонавтвла
космос
коста
костан
кострома
кот
коти
котивла
котинга
котка
коувола
кохоа
кошка
коштымы
кошы
кошыгек
кошыгеквла
коэвла
коэла
коюкон
коюконла
коя
коҥга
кпрф
кр
кра
краи
краселицы
красивая
краснов
красноногии
красныи
краткая
крачка
кред
креда
кренухусвла
креса
крет
крик
криптуреллус
крисам
кристи
кристиан
кристобаль
критик
критиквла
критикуен
критикуя
крокодил
кролик
кроншнеп
кросс
крот
крупская
крус
крылов
крым
крючкоклюв
кса
ксы
кт
кта
ктен
ктерла
ктеш
кты
ку
куанен
куатан
куба
кубышты
кувеи
кугезы
куги
кугиж
кугижа
кугила
кугу
кугуза
кугузалан
кугузам
кугузан
кугыжаныш
куд
кудвичы
кудлу
куды
кудывичы
кудыло
кудымшы
кудыт
кужика
кужлиды
кужу
кужы
кужырак
кужыцшы
кузе
кузен
кузнецов
кузнецово
кузнецовы
кузнецовыш
кук
куку
кукшы
кукшыгечы
кукшылиды
кулаковы
культивируят
культур
культура
культуран
культурныи
культуры
культурывла
культурыжы
культурыжым
культурым
культурын
культурышты
культурыштым
кум
кумдан
кундем
кунст
кунстым
кунстын
куопио
куп
купец
куплагы
куплагывла
куприна
курныгучкыж
куропатка
куропатки
курсвла
курск
курык
курым
курымаш
курымвла
курымеш
курымжы
курымын
кусаие
кускоквим
кускоквимла
кустарниковая
кустарниковые
кустарниковыи
кучкыж
кучылталтеш
кучылташ
кучылтмо
кушкеш
кушкыл
кушкын
кушкыт
кушкыш
кушкышвла
кушкышым
кушкышын
кушмы
кушны
кушта
куштат
кушташ
куштен
куштылгы
куштылгын
куштылгырак
куштымаш
куштымы
куштышы
кушшы
кушы
кушыргы
кчекмедже
кчем
кш
кша
кшвла
кшика
кшлап
кшы
кы
кыва
кывла
кыды
кыдывл
кыдывла
кыдыжы
кыдылан
кыдым
кыдын
кызылырмак
кызыт
кызытсе
кыи
кылдалтше
кылым
кыльы
кыльыкал
кым
кымалаш
кымалмы
кымд
кымда
кымдан
кымданер
кымданервла
кымдем
кымдемвла
кымдемшы
кымдемы
кымдемын
кымдемышты
кымдец
кымдецшы
кымдык
кымлы
кымлышы
кымшы
кымыжвуи
кымыл
кымылан
кымылангдымы
кымыт
кын
кынам
кынамжы
кыралшы
кыргельы
кыргыжеш
кыргызстан
кыркларели
кырла
кырля
кыршехир
кырык
кырыквла
кырыкжы
кырыккале
кырыкмарла
кырыкшы
кытан
кыташ
кыткы
кыткывла
кыткылоэц
кытлан
кытшы
кытышты
кыц
кыце
кыча
кычат
кычен
кычены
кычыкым
кычылт
кычылталтеш
кычылталтын
кычылташ
кычылтеп
кычылтеш
кычылтмаш
кычылтмы
кычылтын
кычылтыныт
кычылтыт
кычымаш
кычымы
кычышы
кыш
кышец
кышкы
кышты
кэмпбелл
л
ла
лава
лавал
лавонгаи
лаврентьев
лагос
лагы
лагывла
ладик
ладна
лазоревая
лаи
лакты
лан
ланзылымашты
ланка
ланкышты
лаос
лап
лапата
лапка
лапкавла
лапсола
лар
лас
ласло
ласточка
ласточки
лат
лата
латансола
латв
латви
латвии
латвин
латен
латин
латинла
латымы
латышеш
латышы
латышывл
латышывла
латышыжы
латышын
лауреат
лауреатвла
лауреатшы
лахти
лач
лачин
лачок
лачокат
лачокла
лачокшы
лачокшымат
лаш
лашаш
лашашым
лаште
лаштык
лаштыквла
лаштыкеш
лаштыкшы
лаштыкшым
лаштыкым
лаштыкышты
лва
лвел
лвелны
лвелы
лвл
лвла
лг
лген
лгом
лгы
лд
лда
лден
лдпр
лды
ле
лев
лева
леву
легенда
легенды
легендывла
леи
лека
лекаи
лелепа
лем
лемар
лемвла
лемда
лемды
лемы
лен
лена
ленин
ленинград
ленинградышты
леннон
лены
леоне
леонид
лепка
лептотила
лер
лесная
леснои
лесные
лессинг
лет
лети
лефкоша
лец
лецы
леш
лжы
лзы
ли
лиа
либери
ливан
ливанышты
ливи
ливингстон
лида
лиде
лидия
лиды
лиетува
лиеш
лижы
лии
лим
лимон
лимы
лин
лина
линдгрен
линдгрены
лини
линивла
линус
лины
лирикы
лисица
лиссабон
лист
листовкывла
лит
литва
литван
литератор
литератур
литература
литературная
литературныи
литературы
литературым
литературын
литературышты
лихир
лица
лицеи
лиш
лиша
лишкы
лишны
лишты
лишы
лиэш
лия
лкы
лле
ллер
ллы
лм
лма
лмы
лна
лнешта
лны
ло
лов
ловии
лович
логер
логера
логы
лои
лок
ломберскии
ломбок
ломбы
ломыж
лондон
лондонышты
лорд
лори
лоривла
лорикет
лорикетвла
лос
лотман
лофура
лохья
лош
лошкы
лоштат
лошты
лоштыжы
лоштыш
лоштышты
лоштышы
лоэц
лоэш
лт
лта
лтде
лтен
лтеш
лтма
лтмы
лтшы
лты
лтын
лу
луаи
луан
луангва
луаншья
луапула
луатвы
луатикты
луатикшы
луатка
луаткок
луаткокты
луаткымыт
луатны
луатшы
луаты
лувингу
луганск
лудика
луды
лужавуи
лузин
луи
луизиада
луизиана
луис
луктын
лукулу
лундази
лусака
лусон
луфаньяма
лушы
лш
лшты
лшы
лшыкым
лы
лывыргы
лыдаш
лыдеш
лыдмы
лыдшы
лыдшывла
лыдшылан
лыды
лыдывла
лыдын
лыдыт
лыдыш
лыдышвл
лыдышвла
лыдышыжы
лыдышыжым
лыдышым
лыдышын
лыдышышты
лыдышыштыжы
лыи
лык
лыкан
лыквла
лыкмаш
лыкмашты
лыкмы
лыкмыла
лыкташ
лыктеш
лыктын
лыктыныт
лыктыт
лыкшы
лыкым
лыкын
лым
лыма
лымы
лын
лыпшен
лысково
лыт
ль
льбашы
львиниствла
львов
льке
льн
льныи
льы
людвиг
людмила
ля
лявы
лярка
м
ма
маа
мабуи
маврикии
мавритани
магеллан
мадагаскар
мадагаскарын
мадагаскарышты
мадаш
мадеи
мадеш
мади
мадре
мадрид
мадшы
мадын
мадыныт
мадыт
мадьяр
мазабука
маи
мак
макамын
макарсир
макарсиры
макатеа
македон
македони
макира
маккуори
макс
максим
максимович
мактен
мактымы
малави
малаи
малаита
малакка
малаколог
малампа
малатья
малая
малекула
мали
малимбус
малларме
мало
малуку
малые
малыи
малын
мальва
мам
мамак
мамбве
ман
манак
манакин
манакинвла
манакины
маналтеш
маналтын
манам
манаш
мангровая
манде
мандельштам
мандинкавла
мане
манеш
маниса
манмы
манмым
манн
манус
манын
манына
маныныт
маныт
маньчжури
маньым
маняр
маняры
мао
маорила
мара
маргарита
мардеж
мардин
мари
мариа
мариана
мариехамн
марии
марина
мария
марк
маркиз
марку
маркугпеди
марла
марлаат
марлан
марлашкы
мармара
марнии
марокко
марсель
март
марта
марте
мартин
мартиника
мартти
мартын
маршалл
мары
марывла
марыжы
марын
марынвла
масаити
масаквла
масвинго
маска
маскан
маскарен
масковая
масковыи
масср
массышты
мастар
мастарвла
мастарлыкшым
мастарлыкыштым
мастарын
мастерскои
матери
материал
материалвла
материалжы
материалым
матиаш
маттиас
матюковскии
махань
маш
машвла
машина
машоналенд
машы
маэ
мбал
мбала
мбалны
мбел
мбелвла
мвен
мвинилунга
мвла
мгек
мд
мда
мден
мдены
мдер
мдеры
мды
ме
медаль
медиафаи
медицины
меек
международныи
мезитли
меи
мексика
мексикан
мексикаышты
мексико
мексикышты
меланези
меланезишты
меле
мелекеок
мелена
меликгази
мелы
мем
мемы
менделеевын
менемен
ментаваи
меня
мер
мера
мерам
мерсин
мертенс
местоимени
местоименим
мет
метр
метропол
меты
меца
мечеть
мечетьшы
меш
меша
мешы
мжа
мжы
ми
миа
мигель
миж
мижгем
мижгемы
мик
мика
микеш
микита
миклаи
миклош
миколаи
микор
микорсир
микорсола
микра
микронези
микронезишты
мил
миленге
миллер
миллион
минданао
миндоро
минерал
министр
министрвл
министрвла
минна
миннесота
миос
мир
мира
мирныи
мировои
мисоол
миссури
митчелл
миф
мифологи
михаи
михаил
михкель
мичиган
мишель
мишка
миэн
мкуши
мл
мла
млен
млешта
млн
млу
млы
мм
мн
мна
мненижы
мныи
мо
моаш
модель
модерн
модернизм
модернист
модерниствла
мозазавр
мозамбик
мозамбикишты
мои
мок
мол
молат
моллинези
молнам
молнамжы
молнамшы
молнар
моло
молода
молы
молывла
молымат
мом
момоца
момы
мон
монал
монастир
монастиры
монастырь
монгол
монголи
монгу
монгыр
монгыреш
монгыржы
монгырым
монгырыш
монгырышкыла
монгырышты
монгырыштыжы
монгырыштыш
монден
монды
мондымы
монзе
моника
монне
монотипан
монро
монрон
монтана
моныт
мораль
моргауш
мордва
мордови
море
морен
моренвла
морено
морко
моркы
моротаи
морская
морские
морскои
морфологически
москва
москваш
москвашты
москваштыш
москваштышы
мот
мота
моту
мохноногии
моэш
мпика
мпонгве
мпорокосо
мпоши
мпулунгу
мрамор
мс
мтс
му
муганза
мугла
муданья
музеи
музыка
музыкальныи
музыкант
музыкы
музыкым
музыкын
муи
мула
муланды
мумбва
мумитрольвла
мунгви
муниципалитет
муниципалитеты
муниципальныи
муравеи
муравьеловка
муравьеловки
муравьянки
мурамби
мурат
муратпаша
муро
мусанзе
мускус
мустафа
мусульман
мут
мутлан
муфулира
муфумбве
муханга
мухин
мухоловка
муш
мшы
мы
мыгыльонг
мыжырым
мызы
мызывла
мыктешкы
мыл
мылам
мынастиры
мынивла
мыны
мынывла
мынь
мыр
мыра
мыралтен
мырат
мыраш
мырем
мырен
мырены
мыры
мырывла
мырыжы
мырызы
мырызывла
мырым
мырымы
мырын
мырышы
мырышыжы
мытык
мыч
мычаш
мычашвла
мычашеш
мычашешы
мычашты
мычашыжы
мычашыжым
мычашышты
мычкы
мышта
мышташ
мыштен
мышты
мыштымаш
мыштышы
мьянма
мэн
мэри
мэриленд
мэрилин
н
на
наантали
навахо
над
надежда
наи
наиболее
наказани
наконде
наличного
налме
налын
намалеш
намалшы
намалын
намвала
намиби
нан
нанду
нань
наре
наречи
наречивла
наречим
нарлыдере
народа
народная
народные
народов
нары
нарынзы
населе
население
населения
настоящие
наталия
наталья
нато
натуралист
наука
наукан
наукын
науру
наурула
наурун
научно
научныи
национальныи
начкы
наш
ная
нвичы
нвл
нвла
нг
нга
нгалы
нгвл
нгвла
нгда
нгды
нге
нгеа
нгель
нгельи
нгем
нгемы
нген
нгены
нгеш
нгешла
нгешы
нгжы
нгма
нгмы
нгома
нгорореро
нгр
нгрвла
нгри
нгрин
нгришты
нгуна
нгшы
нгы
нд
нда
ндалы
нде
ндебеле
ндебелевла
ндекш
ндекшы
нден
ндена
ндены
ндола
ндон
ндонат
ндоно
нды
не
невада
невшехир
негативныи
негрос
негы
негызеш
неда
нежы
незер
незервла
неи
нелы
нем
немы
нен
нены
неотропика
неотропическая
непал
нер
нера
нерген
нергы
нержы
нерка
неруда
неры
нестор
несторвла
нет
неш
неясыть
нж
нжок
нжы
нжыкт
нз
нза
нзен
нзеш
нзы
ни
нигде
нигер
нигери
нигерин
нигериы
нигерия
нигынамат
нигыштат
нидерл
нидерланд
нидерландвла
нижегородскии
нии
ник
ника
никандр
никарагуа
никобар
никовая
никовыи
никола
николаев
николаевич
николаевна
николаи
никон
нил
нилу
ним
нимат
нимахань
нин
нина
нис
ниугат
ницше
нн
нна
нная
ннои
нныи
нным
но
нобель
нов
новая
новгород
новеллывла
нович
новыи
нок
номера
номержы
номинацишты
норв
норвег
норвеги
норвегин
норвегишты
норвегла
норма
нормативныи
норт
норфолк
носола
нотура
ноэль
ноябрь
ноябрьын
нпичы
нр
нра
нс
нсильв
нсола
нт
нтер
нтжы
ну
нуж
нужанал
нужгол
нужголвла
нум
нумфор
нунивак
нуно
нунын
нур
нци
нцы
нча
нчеленге
ншы
ны
нывуӄаӷмит
ные
ныи
ным
нымбал
нымбалны
нымбалым
нын
ныны
ныр
нырвла
ныри
нырок
нырым
нырышты
нь
ньагатаре
ньанза
ньаругенге
ньвла
ньжы
ньимба
ньок
ньра
ньы
ньымыштшы
ньымыштшывла
нью
ньютони
ньяса
нян
няна
няны
няр
нят
няш
о
оа
оба
оби
обиница
область
областьвла
областьым
областьын
областьышты
областьыштыш
образ
образвла
образец
образжы
образовани
образованин
образым
общества
общественныи
общии
объедине
обыкновенная
обыкновенныи
обязательствывл
ова
оваджык
овла
оврашныр
овсянка
овуца
овуцавла
овуцам
ога
огаи
оген
оглу
огузели
огы
огывла
огыжы
огыл
огымаш
огымашвла
огын
огышты
одесса
одиссеи
одунпазары
оды
ожеф
ожефы
ожы
озгат
озеф
озы
озывла
озыжы
озыжын
ои
ок
океан
океанвла
океани
океаништы
океанын
океанышты
океаныштыш
оки
оккупируи
оклахома
окленд
окня
окнявла
округ
окса
оксам
октябрь
октябрьскии
октябрьын
ол
ола
оласал
оласалышты
олаш
олашкы
олашты
олаштыш
олег
олен
оливковыи
олма
олмавла
олмаву
олык
ом
он
она
онам
онаш
онвла
онгалтеш
онган
онгата
онгжы
онгылашлудымы
онгылашлудымывла
ондак
ондрин
онжы
онза
ончыко
ончыч
онын
онышты
оныштышы
опак
опера
оперы
опта
оптат
оптен
оптымы
ора
орави
оравивла
орган
органвл
органвла
организатор
организаторвла
организаци
организацивл
организацивла
организации
организуи
орден
орду
орды
орегон
ори
ориноко
ориок
орк
ормацим
орнитолог
оров
оролы
орта
ортако
ортозы
орубавла
орхан
орхидеи
оръеҥ
осип
осло
осман
османгази
османджык
османие
остатка
остров
острова
островнои
островскии
осып
от
отар
оте
отечественныи
открыткывла
отряд
отрядын
отта
отто
отшельник
оты
оулу
оулупукки
оулупуккин
оф
офицер
официал
официально
официальныи
охоница
охыр
охыра
охырец
оценками
очерквла
очковыи
ош
ошалгы
ошеи
ошика
ошкан
ошкар
ошкы
ошма
ошмаоты
ошмаотывла
ошмаотыжы
ошмаотын
ошмаотышты
ошты
ошы
ошывла
оэш
п
па
пабло
павел
павлин
павлович
павыл
падеж
пазар
пазары
пазмань
паи
пакистан
пакистанышты
паку
пакыла
пакылажы
палаван
паландо
палантаи
палат
палау
палаула
палаун
палды
палдыран
палеарктика
палемдыме
палеонтолог
палу
палша
палшаш
палшен
палшены
палшыкалышыжы
палшыкым
палшымы
палшышы
палы
пальгата
пальма
пальтика
памук
пан
панаи
панама
панамышты
панголин
панда
пандаш
пандашан
панды
пандывла
пандым
паннониус
пантар
панькан
папа
папажы
папивла
папуа
папугаи
парагваи
паратмар
парахеи
париж
парижы
парк
парквла
парламент
парламентвл
парламенты
пармы
парнинга
парня
парнявла
парнян
паром
парсын
парти
партивл
партивла
партии
пасна
паснаок
пастор
патагони
патраш
патрик
патыл
патыр
пауль
пач
пачан
пачаш
пачдымывла
пачеш
пачмы
пачшы
пачыжы
пачылтеш
пачылтын
пачын
пачыныт
пачыт
паша
пашам
пашкуды
пашкудыжы
паштек
паштекшы
паян
паянвла
пе
певчии
педагог
педтехникумым
педтехникумышты
пеи
пекоза
пел
пела
пеле
пелед
пеледа
пеледеш
пеледмы
пеледшы
пеледы
пелеи
пеликан
пелотро
пелы
пемба
пенама
пеночка
пенсильвани
пеппи
пер
перви
первижок
первижы
первира
первиш
первишен
первишы
первомаи
перега
переген
перегы
перепел
переписи
перепись
пермь
персила
персонаж
персонажвла
персонажшы
пертюк
перу
перушты
першут
першуткин
першутын
песочник
пет
петауке
петер
петербург
петербургышты
пето
петр
петров
петрович
петровна
петуксола
петухов
петуховын
пец
пеца
пецили
пециливла
печ
пеш
пи
пианист
пиарактус
пив
пивла
пиды
пижеш
пижоргы
пижы
пикш
пилбара
пингвин
пингвинвла
пингы
пинды
пион
пипра
пиранья
пиренеи
пирили
пирканмаа
пиры
писатель
писательвла
пистерла
писты
письмо
питер
питкэрн
питон
питонвла
питта
питтоподобная
питы
пихта
пича
пичы
пиш
пишок
пишт
пишта
пиштен
пиштены
пишты
пл
племена
плены
плодоядныи
плотность
площадь
по
повесть
повестьшы
повестьы
погаш
погемикшы
поген
погены
погоныш
погымы
погынен
погынены
под
подветвь
подокарпвла
подольски
подпис
подсемеи
пожар
пои
поктен
поктыл
покшал
покшалжы
покшалны
пол
полак
полдыш
поле
полильо
полинези
полинезишты
политик
политика
политиквла
политикы
политикыштыш
политическии
полицеи
полосатая
полосатик
полосатыи
полтава
полушарин
полушаришты
полшымо
поль
польша
польшын
польшышты
поляк
полякла
померанцев
помидор
помидорым
поморник
понгы
понпеи
поп
попа
попат
попаш
попашат
попвла
попен
попены
попугаи
популярныи
попы
попымы
попышы
попышывла
порандаи
порт
портвла
португали
португалла
портшы
порты
посе
поселенин
посна
постоянныи
похросола
поче
почеш
почта
почты
почтым
пошкырт
поэзи
поэзижы
поэзии
поэзила
поэзим
поэзин
поэзишты
поэма
поэмы
поэмывла
поэмым
поэт
поэтвла
поэтесса
поэтеш
поэтическии
поэтла
поэты
поэтын
ппель
пр
права
праваан
прававл
прававла
праважы
правам
правашты
правда
правилывла
правилышты
правительство
правительствыжы
правовои
православи
православныи
прага
праслен
предани
председатель
председательжы
президент
президентвла
президентжы
президенты
премижы
премим
премин
премьер
пресмыкающиеся
пример
примереш
примеры
прини
приния
принсипи
принц
принцесса
принцип
принципвл
принципвла
пристин
приходскои
приходыш
про
проблемы
провинци
провинцивла
провинцижы
провинцин
провинциш
провинцишты
провои
программым
продуктывла
продюсер
проза
прозаик
прозаиквла
прозым
произведени
произведенивла
промышленность
промышленныи
пропаганда
проста
протест
протестант
протокол
профессиональныи
профессор
профессоржы
прохоров
процесс
процессы
пру
псалмвла
псалмывла
псаммодромус
псевдолы
псевдохеи
псков
пта
птицы
пу
пуа
пуалтеш
пуат
пуаш
публицист
пуде
пуделыт
пуи
пукшен
пум
пумага
пумагавла
пумаш
пумы
пун
пункт
пунктам
пура
пурпурная
пурпурношапочныи
пурсаклар
пуртымо
пуры
пурыла
пурылык
пурым
пурын
пустынная
пустынныи
пустыня
путешественник
пухопе
пучы
пуш
пуша
пушкин
пуштмы
пуштын
пуштыныт
пушы
пуымо
пуэн
пуэны
пуэргы
пуэрто
пш
пша
пшы
пы
пыдырген
пыдыртен
пыдыртымы
пыи
пылвуи
пын
пынан
пынар
пынарбашы
пындаш
пынжы
пыр
пыра
пырастаи
пырат
пыраш
пырен
пырены
пырля
пырса
пырта
пырташ
пыртен
пыртымы
пыры
пырымы
пырыш
пырышы
пыт
пыта
пытарен
пычым
пышан
пышкыды
пьер
пьесывла
пьесым
пятнистая
пятнистыи
р
ра
раджа
радио
радиостанци
радугин
разноцветная
разрешеним
разрядшым
раи
рак
ракет
раклы
ракоци
рам
рамсеи
рамстедт
ран
раротонга
раскыды
раскыдын
расположен
распростране
рат
ратифицируи
рацин
раш
рая
рв
рва
рвал
рвамагана
рвеза
рвезы
рвелы
рвл
рвла
рвуи
рвы
рг
рга
рге
рген
ргеньы
ргец
ргецы
ргешкы
ргешты
ргу
ргы
рд
рда
рдд
рде
рди
рды
рдь
ре
реа
реализм
ревла
революци
революцим
революцин
регион
регионам
регионвла
регионжы
регионын
регионышты
регир
ред
редактор
редакторжы
редакцишты
режимвл
режиссе
режиссер
режы
резиденци
резиденцижы
резолюци
резолюцим
реи
рек
река
религи
религивла
религин
рем
ремез
ремера
ремнезуб
ремшы
рен
рене
ренесс
ренессанс
ренжок
реннелл
ренок
рены
реок
репресси
репрессируи
респу
республик
республика
республиканскии
республики
республикы
республикын
республикышты
республикыштына
ресты
рет
реформ
реформаторвла
реформаци
рехень
реш
реша
рештеш
решты
решы
реюньон
ржанкообразные
ржы
рза
рзи
рзы
ри
ривер
ривла
рига
рижок
рижы
ризе
рии
рика
рико
рикышты
рильке
рим
римаи
римы
ринхопситта
рио
риок
рис
рисуи
рисуяш
ритм
риф
рифма
ричард
риш
ришы
рк
рка
ркы
рл
рла
рлен
рлены
рло
рлы
рм
рма
рмижы
рминга
рн
рна
рная
рнен
рнены
рнинеура
рно
рну
рны
рные
рныи
рня
рнявла
рням
рнян
ро
роаш
роберт
ровно
ровотаяш
рогоз
род
родина
родон
родригес
рождественскии
роза
розелла
розеллывла
рои
рок
рокко
рокым
рольжы
рольжым
рольым
роман
романвла
романжы
романжым
романтизм
романым
романын
романышты
рон
рональд
росс
россел
росси
россии
россишты
россия
роэн
рпы
ррит
рсит
рсу
рт
рта
ртвла
ртен
ртни
ртнигорны
ртныр
ртнырышты
ртньо
ртньы
ртту
рту
ртшы
рты
ру
руанда
руандала
руандан
руандышты
руаш
рубаву
рубин
рудольф
руж
руина
рум
румыни
русская
русскии
русском
руссо
рута
руханго
руш
руша
рушан
рушла
рушлажы
рушын
рушынвла
рф
рц
рцы
рш
рша
ршан
ршты
ршы
ры
рыба
рыбаков
рыбы
рые
рыжая
рыжебрюхии
рыжии
рыи
рым
рын
рядовои
рянвла
с
са
саам
саамвла
саваи
саваланер
саванна
савик
саво
саву
савыц
сага
сагажы
сагаок
сагашты
сагашы
сад
садвла
садлан
садывичы
саи
сакарья
сакои
саксони
сакыр
салавати
салат
салатвла
салми
салтак
салтаквла
салымсола
салымсолашты
сальвадор
сальвадори
самар
самоа
самоала
самоан
самоаштыш
самого
самои
самсун
самфья
самынь
самыньвла
самырык
сан
сангихе
сандалы
санзал
санкт
санма
санта
сантиметр
санто
санук
сапота
сар
сараи
саралгы
саран
сарансола
сарапаи
сардини
сарика
сарта
сартавла
сартам
сары
сарычам
сасла
сасна
саснавла
сатира
саткансола
сауд
сауна
сафранболу
саха
сахалин
сахара
сахарын
сборник
сборникшы
сборникы
св
сва
сверчок
свет
светлана
светскии
своеи
святои
се
себу
сева
севастополь
севернои
северныи
северо
седы
сеи
сек
секретарьжы
сектор
секци
селедкы
селенидера
селим
селма
село
сельма
сельсоветы
сельсоветыш
сельчуклу
сем
семвла
семе
семеш
семжы
семинарим
семня
семняжы
семням
семняшты
семняэш
семон
семы
семын
семынь
сен
сенанга
сенегал
сент
сентябрь
сентябрьы
сентябрьын
серам
серая
сергеевич
сергеи
сердиван
серендже
сержант
сери
серо
серрасалмусвла
серыи
сессивл
сету
сетувла
сеферис
сеферисы
сешеке
сз
си
сиа
сиавонга
сиали
сибирская
сибирь
сибирьы
сивас
сигачин
сиирт
сикким
сила
сильвестров
сильвестрова
сима
символ
символвла
символжы
символист
симон
симса
симсы
син
синазонгве
синаи
сингапур
синджан
сине
синица
синоп
синото
синтезы
синухе
синьцзян
сипуха
сир
сира
сирвла
сиргек
сирем
сирен
сирена
сиреник
сирены
сиреш
сиржы
сири
сирма
сирна
сиры
система
системы
сита
сити
ситы
ск
ска
скавла
сказал
сказки
скандинави
скандинавишты
ская
скворцы
ски
ские
скии
ского
ское
скои
ском
скорпион
скорпионвла
ску
скульптор
скырык
сл
славка
славковые
славян
слеи
сло
словаки
словарь
служен
см
сма
смеющаяся
смирнов
смит
смоленск
смурфвла
сн
со
собор
событивла
сова
совет
советская
советскии
советы
совка
согласно
согонь
согоньвла
согоньжы
согоньым
согоньын
согоньыш
согоньышкы
согоньышты
сои
сокорро
сокото
сократ
сократын
сола
солавла
солаволкы
солажы
солалан
солам
солан
солана
солаш
солашкы
солашток
солашты
солаштыш
солаштышы
солаэш
солвези
соло
соловье
соломон
солор
сомали
сонимакы
сонинке
сонинкевла
соня
соок
сореда
сорока
сороки
сорокопут
сорокопуты
сост
состав
составнои
состоянию
соты
сотыжы
сотым
социализм
социальныи
союз
спб
спектакльвла
спектакльым
спенсер
специалист
специальным
спискы
спк
спорт
справедливая
среднии
сс
ссср
ссылкывла
ст
сталин
стамбул
стандарт
стандартвл
станислав
станци
старыи
статистика
статистическая
статистическом
статусан
статусом
статусшым
статусым
статьи
статян
ство
стена
степан
степанович
степнои
степь
стиль
стильвла
стильжы
стильы
стилян
стихвла
стихи
стныи
сто
стокгольм
столица
столичка
стр
страсбург
страсбургышты
страус
строен
строи
структурывла
стрыи
студентвла
ступенян
су
суас
суасламары
суасламарывла
суасламарынвла
суасламарыштыш
суахилила
субантарктика
субконтинент
субтропиквла
сугпиак
сугпиаквла
суд
судан
судшы
судын
судышкы
сузы
суи
суксы
сула
сулавеси
султан
сулу
суматра
сумахвла
сумба
сумбава
сумка
сумы
суоми
суомин
суомишты
сур
суринам
сурт
суртым
суситна
суслала
сусу
сусувла
сусум
сусун
суффикс
сухин
сценарист
сцинк
сцинквла
сша
сы
сыкыр
сылны
сылык
сыныр
сыр
сыра
сырам
сырмы
сыч
сычик
сычуань
сьерра
сэр
т
та
табак
табар
таблицыштыжы
тави
таг
тагачшы
тагачы
тагынам
тагынамок
тадар
тадарвла
таджикистан
таи
таиланд
таити
так
такеш
таксон
талантан
талас
талауд
таллинн
таллинны
тамам
таманяр
тамара
тамахань
танагра
танагравла
танагры
танана
танганьика
тангыж
тангыжвла
тангыжын
тангыжышты
тангыла
танзани
танзанин
танзаништы
танимбар
танна
тар
тара
таравла
тарашныр
тариш
таришы
тарту
тасмани
тасманишты
татарла
татарстан
татьяна
тау
таум
тафеа
тахья
таш
ташкент
тверь
твла
творческии
творчество
творчествыжым
творчествыштыжы
те
театр
театрын
театрышты
теве
тевеш
тежи
теи
тек
текирдаг
теккеко
текст
текствла
тексты
текстым
тел
телевизор
телефон
телы
тельы
тема
тематика
тематикы
темы
темывла
тен
тенант
тенге
тенгежы
тенгела
тенгеок
тене
тенерифе
теннесси
тены
теодор
теории
теория
тепе
тепебашы
тепуи
тер
теран
тервен
терга
терген
тергы
терджан
териолог
термин
терминвла
тернате
тернополь
территори
территоривла
территорижы
территории
территорим
территоришты
тетя
тетявл
тетявла
тетяжы
тетялык
тетям
тетян
техас
техень
техеньвла
техеньы
техника
техникум
ти
тибет
тиде
тиды
тидын
тилец
тиляпи
тимор
тиморышты
тимофеи
тин
тина
тинаму
тип
тиран
тиры
тисты
титира
тиш
тишец
тишкы
тишта
тишты
тк
тка
ткач
ткачиковыи
ткыд
тл
тла
тлен
тлингит
тлингитла
тлы
то
тобаго
тогиан
того
тои
ток
токат
токет
токы
токыжы
токышты
толаш
толеш
толкин
толмы
толмыжы
толмыкы
толмышты
толшаш
толшашышты
толшеш
толшы
толшывла
толын
толыныт
толыт
тольым
тома
томас
томаштыжы
томе
томила
тонг
тонга
тонгоа
тонн
тоны
тоныжы
тоныш
тонышы
тор
тора
торба
торгеи
тореш
торешы
торослар
торрес
тот
тотлы
тотшы
тошты
тр
трабзон
трагопан
традици
традицивла
тракт
трактвла
трансильваништы
траупис
траурныи
тре
треска
триба
тринидад
триполи
тристан
тритон
тритонвла
тритоны
трогон
трогонвла
трогонофис
трои
троицкии
тропиквла
тропикивла
тру
труба
труен
трупиал
трупиалы
труяш
ту
туамоту
туан
тубуаи
тувалу
туве
тудлан
тудо
тудым
тудын
тукан
туканвла
туканет
тум
тумна
тун
тунджели
тундра
тунис
тунымбал
тупан
тупы
тур
тура
турако
турач
турачвла
тури
туризм
турист
туриствла
турк
туркестан
туркла
туркменистан
турку
турок
туроквла
турокла
турци
турции
турцин
турцишты
тушто
тшы
ты
тыгаи
тыгак
тыге
тыглаи
тыгыды
тыгыр
тыды
тыдын
тыкты
тыктын
тыл
тылан
тылвышвла
тылгек
тылык
тылым
тым
тымана
тыманавла
тымда
тымдат
тымдаш
тымден
тымдым
тымдымаш
тымдымы
тымдышы
тымдышывла
тымдышыжы
тымдышын
тыменеш
тымень
тыменьма
тыменьмы
тыменьшы
тыменьы
тыменяш
тынгалеш
тыныш
тынь
тыр
тырга
тыртня
тыртнян
тырхаш
тырхен
тырхы
тырын
тырышты
тыс
тышман
тышманвла
тышнал
тышты
тьолгыжшы
тьотя
тьотявла
тьы
тьыри
тьюм
тьяш
тюбетеи
тюлени
тюрбан
тюрма
тюрьма
тя
тявла
тяжы
тяму
тян
тяньцзинь
у
уа
уаи
увервла
уверт
уверта
увла
уганда
угарман
угарманышты
угор
угр
угы
удмурт
уезд
уезды
уездын
уж
ужат
ужаш
уже
ужеш
ужын
ужына
ужыт
узбекистан
уи
уильям
ук
уке
укр
украин
украина
украинвла
украинла
украины
украинын
украинышты
укш
укшвла
укшым
ул
ула
улан
улар
улит
уло
улубеи
улы
улыт
ум
умы
уналашка
унив
университет
университетвла
университеты
унион
унионын
уполу
упшан
ур
урал
урвач
ургаля
урда
урден
урдула
урдымы
уроквла
уругваи
урын
ус
усола
утки
утл
утла
утларак
уты
уусимаа
участниквла
уче
учебник
учебниквла
училище
училищешты
училищы
учреждении
уш
уша
ушак
ушалтын
ушем
ушемвла
ушемкымдем
ушемкымдемы
ушемы
ушен
ушнен
ушнены
уштыш
уштышым
уштышышты
ушымы
уэльс
уэмда
уэмды
ф
фазан
фазанвла
фаи
фаина
факт
фактвла
факто
факультетшы
факультеты
фамили
фамилижы
фантазиа
фасо
фатих
фе
февраль
февральын
федерал
федераци
федерации
федерацим
федерацин
федерацишты
феи
фельзума
фер
фердинанд
ференц
фестиваль
фестивальвла
фестивальым
фестивальын
фестивальышты
фиалка
фигурывла
фигурыжы
фиджи
фиджишты
филин
филипп
филиппин
филиппинвла
филиппиништы
филиппович
филолог
филологи
философ
философи
философишты
фин
финикии
финлянди
финляндии
финляндин
финляндишты
финн
финнвла
финнла
финно
финскии
финш
фиолетовыи
фишер
флаг
флагификация
фламинго
фламинговла
флеи
флобер
флорес
флорида
фокс
фолкленд
фольклор
фольклора
фольклорист
фон
фонд
форма
форман
формо
формы
формывла
формыжы
формым
формышты
форсса
форт
фоторепортаж
фр
франковск
франсуа
франц
франци
францин
францишты
франция
француз
французвла
французла
фрегат
фридрих
фронтыш
фронтышты
фруктан
фу
фуди
фукси
фуксия
фульбе
фульбевла
футуна
фы
фэнтези
х
ха
хаджылар
хаи
хаккяри
хала
халавла
халажы
халазывла
халалан
халам
халан
халаш
халашкы
халашты
халаштыжы
халаштыш
халаштышы
халаэм
халык
халыквл
халыквла
халыклан
халыкланна
халыкна
халыкнам
халыкнан
халыкшы
халыкшым
халыкшын
халыкым
халыкын
хальмахера
хан
ханс
хансен
хант
ханты
характержы
харацин
харацинвла
хартерт
харьков
хатаи
хау
хаусавла
хафик
хвощ
хеи
хелт
хельсинки
хельсинкишты
хемингуэи
хемшин
хендерсон
хенрик
херсон
хива
хилодусвла
хими
хир
хирот
хисар
хитан
хитанла
хмельницки
хо
хоббит
хоз
хоза
хозажы
хозалан
хозяи
хоккеи
холикачук
хопа
хорасан
хорв
хорвати
хоровои
хорым
хосе
хоть
хохлатая
хохлатыи
хохштеттер
хр
храм
хреса
хресаньвла
хресты
христиа
христиан
христос
христосын
хрониквла
хроникы
хттп
ху
хуахине
худ
худа
худам
худан
художественныи
художник
художниквла
хуи
хы
хынавла
хыналаш
хытырен
хытырымашвла
хьюон
хэ
ц
ца
цаклалтеш
цаклаш
цаклен
цапля
царамак
цари
царишты
цартак
цат
цаткыды
цаткыдын
цаца
цацат
цацен
цацены
цацышы
цвла
цев
цевер
цевержы
цеверы
цеи
цела
цем
центр
центральныи
центржы
центры
цепель
цепошкавла
цер
церкы
церла
цермышал
цеш
ци
циа
цига
цик
циккаба
цикма
цикы
цил
цила
цилажы
цистикола
цитаринусвла
цитрус
цихлидвла
циц
цицерон
цк
цка
цкемы
цкы
цла
цлы
цо
цок
цписты
цу
цуда
цуня
цуштыри
цуштыривуян
ццы
цшы
цы
цымыни
цымыр
цымырен
цымырын
цын
ч
ча
чаваи
чавума
чагра
чад
чадиза
чадын
чаи
чако
чал
чам
чама
чан
чанаккале
чангаш
чанген
чангены
чангымы
чангышы
чанкая
чанкыры
чарлз
чарльз
чаршамба
час
часовня
части
частныи
частоташте
часть
чатем
че
чебоксар
чевак
челеби
человек
человека
чендравасих
черви
черемис
черемисвла
черемисино
черепахи
черепахывла
черкассы
чермышево
чернигов
черновицы
черноголовая
черноголовыи
четлык
чехи
чеш
чешуи
чиа
чибомбо
чигли
чиенги
чик
чикаго
чили
чилилабомбве
чилин
чилишты
чилуби
чимы
чингола
чиновниквла
чинсали
чипата
чирики
численности
численность
чифтлик
чиэн
чиэны
чка
чкеден
чкеды
чкы
член
членвл
членжы
чмы
чнк
чоко
чолистан
чома
чонгве
чонгешта
чонгештен
чонгешты
чорум
чот
что
чу
чубук
чукотка
чукурова
чучеш
чы
чыла
чын
чьяпас
ш
ша
шабдар
шабдарын
шаблон
шавашар
шавынь
шагал
шагалеш
шагалтат
шагалтен
шагалтены
шагалтымы
шагалын
шагалыныт
шадт
шаи
шакал
шакта
шактат
шакташ
шактен
шактенваж
шалахаи
шалга
шалгат
шалгаш
шалген
шалгены
шалгышы
шалгышывла
шам
шамак
шамакан
шамаквла
шамаклан
шамакшы
шамакшым
шамакым
шамакын
шамакышты
шамыч
шамычым
шана
шанавы
шанаш
шангомбо
шанем
шанен
шанлыурфа
шаныкален
шанымаш
шанымашан
шанымашвла
шанымашыжы
шанымашыжым
шанымашым
шанымем
шанымы
шанышы
шань
шапки
шапкила
шапренгы
шаптыр
шарды
шаркышла
шарлен
шартял
шартялым
шаршы
шарык
шахинбеи
шачаш
шачеш
шачмы
шачмыжы
шачшы
шачын
шачынжок
шачынжы
шачыныт
шачыт
шая
шаявла
шаяжы
шаям
шаян
шаяшты
шаяштыш
швед
шведла
швеи
швеци
швецин
швецишты
швл
швла
шды
ше
шеды
шекла
шекма
шекспир
шел
шела
шелвла
шелы
шем
шемеалты
шен
шеньы
шер
шера
шерга
шергинды
шергы
шерефликочхисар
шеры
шет
шефа
шехир
шехиткамиль
шец
шеш
шешта
шешты
ши
шигол
шиголвла
шижа
шижеш
шижма
шижы
шим
шима
шимы
шин
шинизавр
шинчапун
широкохвостыи
шишли
шишты
шк
шка
шке
шкевуя
шкежа
шкежы
шкем
шкен
шкеок
шкет
шкетан
шкетшы
шкеты
шкок
школ
школвла
школым
школын
школыш
школышкы
школышты
школыштыш
шку
шкы
шл
шла
шлегел
шлема
шлен
шлиа
шлима
шлимы
шлин
шлык
шляпа
шмарти
шму
шмы
шна
шны
шо
шоаш
шовын
шоде
шоды
шож
шоколад
шокта
шокташ
шоктен
шоктены
шоктыде
шоктымы
шокшы
шокшырак
шолтат
шолташ
шолтымы
шолшы
шолын
шоляжы
шоляк
шон
шона
шонавла
шонгы
шонгывла
шонен
шоным
шоныт
шоссе
шот
шотан
шотеш
шотл
шотла
шотлалтеш
шотлалтын
шотлалтыт
шотланди
шотлат
шотлаш
шотлен
шотлены
шотлымы
шотшы
шотым
шотыш
шотышкы
шотышто
шотышты
шочмо
шошмар
шошым
шошымшы
шоэн
шоэш
шри
шрифт
шт
шта
штаб
штат
штатвла
штате
штатшы
штатын
штатышты
штек
штем
штен
штены
штеныт
штет
шток
шты
штыш
шу
шудермара
шуды
шудыла
шудым
шужен
шукерды
шукиа
шуко
шукш
шукшвла
шукшлоэц
шукы
шукыжок
шукыжымок
шукым
шукын
шукынжок
шукынрак
шукырак
шукыракым
шукышт
шукыштат
шулы
шум
шумы
шуна
шур
шуран
шурды
шурмар
шурышты
шуэн
шхане
шы
шывашар
шыжаржы
шык
шылдыр
шылдыран
шылдырвла
шылдырдымы
шылен
шылтыкше
шым
шын
шыпшеш
шыпшмы
шыпштен
шыпштены
шыпшылт
шыпшылтеш
шыпшылтшы
шыпшылтын
шырлачы
шырлачывла
шырнак
шытыр
щенник
ы
ыван
ыгдыр
ыд
ыдал
ыдвел
ыдвелны
ыдпел
ыдпелвел
ыдпелвелны
ыдпелны
ыдылмы
ыдылыныт
ыдым
ыдыр
ыжар
ыжарвиры
ыжаргы
ыжарика
ыжга
ык
ыл
ыла
ылалтеш
ылам
ылат
ылатен
ылаш
ылгецы
ылд
ылде
ылделыт
ылдызели
ылдырым
ылевы
ылен
ылеш
ылеша
ыли
ылмаш
ылме
ылмы
ылмыжы
ылмыжым
ылмым
ылмышты
ылмыштым
ылнежы
ылны
ылныш
ылшы
ылшывла
ылы
ылымаш
ылымы
ылын
ылына
ылынат
ылыныт
ылыт
ылытат
ылышкы
ылышты
ылышы
ыльы
ым
ымаш
ымы
ымывла
ымылан
ымым
ымын
ымынта
ын
ынгы
ынгывуи
ынгыла
ынгылаш
ынгылдара
ынгылдарат
ынгылдарен
ынгылен
ынгылымаш
ынгын
ынде
ындыр
ыныт
ыпелвелны
ыр
ыра
ыражан
ырат
ыраш
ыргены
ыргымы
ыргышы
ырен
ырены
ырлаш
ырт
ыртем
ыртема
ыртемвла
ыртемжы
ыртемы
ырымаш
ырымашты
ырымашыжы
ырымы
ысе
ыспарта
ыт
ытара
ых
ыхвла
ыхшы
ыхын
ыхыш
ыхышты
ыш
ышан
ышкал
ышкалвла
ышке
ышма
ышт
ышта
ышталтеш
ыштат
ышташ
ыште
ыштен
ыштеш
ыштмаш
ыштмашвла
ыштмашыжы
ыштмашым
ыштмы
ыштшы
ышты
ыштыжы
ыштыме
ыштын
ыштыт
ыштыш
ышы
ышывла
ь
э
эврен
эврик
эгеи
эгирдир
эд
эдвард
эдвардс
эдем
эдема
эдемвл
эдемвла
эдемжы
эдемла
эдемок
эдемы
эджегик
эдирне
эдремит
эдуард
эи
эквадор
эквадорышты
экваториаль
экземпляр
экити
эклектус
экономика
экономикы
эксы
эл
элеги
элемент
элементвла
элжы
эли
элмадаг
элнет
элы
элын
элыштат
элышты
элыштыш
эль
элязыг
эм
эма
эмиль
эмильы
эмир
эн
эндемик
эндре
энтомолог
энугу
энциклопедическии
энциклопедия
эпа
эпин
эпос
эпосым
эрбаа
эрвел
эрга
эргы
эрегли
эреглиси
эренлер
эрза
эрзинджан
эрзурум
эритреи
эрих
эркын
эрнест
эроманга
эрт
эрта
эртен
эртены
эрты
эса
эски
эскимо
эскимос
эскишехир
эсперито
эспириту
эспоо
эссевла
эссеист
эст
эстетика
эстон
эстонвла
эстони
эстонин
эстоништы
эстонла
эт
этимесгут
этимологижы
этнограф
этнографи
этнофутуризм
это
этои
этьваи
эфате
эфиопи
эфиопишты
эх
эхелян
эче
эчеа
эчежы
эш
эшпаи
эшы
эяк
ю
юаньсир
юбилеи
ювелир
юго
южгынам
южная
южнои
южныи
южо
юк
юкан
юквла
юкон
юкшы
юкым
юкын
юкыштым
юлия
юлсер
юмор
юнеско
юннань
юньнань
юпик
юпиквла
юпикла
юр
юрии
юриспруденцим
юрлан
юрт
юта
юханнус
я
ябиру
ява
является
явуз
ядан
ядеш
ядмаш
ядмашвл
ядмашвла
ядмашеш
ядмашым
ядын
яж
яжо
яжожы
яжон
яжорак
яжоэш
язык
языка
языке
яи
яклака
якоб
яков
яковлев
яковлевич
якт
якте
яктеа
яктеок
якутие
якшар
якшаргы
якшарика
якшарлыды
якшарсир
ял
ялан
яланвла
ялаш
ялвла
ялдымы
ялжы
ялова
ялштат
ям
ямаи
ямак
ямаквла
ямакым
ямакышты
ямангаш
ямаш
ямдаш
ямде
ямшы
ямын
ямыныт
ян
январеш
январь
январьын
января
янгеж
янссон
януш
япен
япон
япони
японишты
японла
японскии
яр
яра
ярал
яралеш
ярата
яратат
яраташ
яратен
яратены
яратымаш
яратымы
яратымыжы
яратышы
яргата
яргатажы
ярослав
ярославль
яры
ярыктен
ярыктымы
ясы
ясым
яшпаи
яштуга
яшты
ящерица
ящерицы
і
інформаціі
ҥ
ҫ
ַ
א
ا
الا
المسجد
جامع
ر
مسجد
ّ
ٔ
ٕ
ज
द
म
र
ल
ह
ा
ि
ी
्
ক
ট
ত
দ
ন
ব
ম
মসজ
র
়
া
ি
ু
্
ા
ா
்
ర
ా
్
ജ
ാ
്
ู
‌
‎
‏
–
—
―
‘
’
“
”
„
†
•
…
№
↑
→
↔
↷
−
≈
③
④
⑦
─
└
├
♀
⺀
⺄
⺆
⺈
⺊
⺌
⺕
⺝
⺸
⺼
⿰
⿱
⿲
⿳
⿴
⿵
⿶
⿷
⿸
⿹
⿺
⿻
〢
け
せ
り
わ
゙
コ
タ
ユ
ン
㇁
㇂
㇄
㇇
㇈
㇉
㇓
㐁
㐄
㐅
㐌
㐫
㐬
㐭
㐮
㐱
㑒
㒵
㒸
㒼
㓁
㓞
㔾
㕛
㕣
㖾
㘝
㚅
㚇
㚔
㚘
㝉
㝡
㝴
㝵
㞋
㞢
㞷
㠩
㠭
㠯
㡀
㡭
㡿
㢲
㢴
㣇
㣺
㥯
㪅
㫄
㫐
㫒
㫺
㬅
㬎
㬥
㬰
㲋
㳄
㷠
㸒
㸚
㸦
㼌
㼲
㽞
㿟
䀠
䂞
䍃
䏍
䒑
䖍
䖒
䖝
䖵
䙴
䚻
䜌
䝿
䡛
䧹
䪞
一
丁
丂
七
丄
丅
丆
万
丈
三
上
下
丌
不
与
丏
丐
丑
专
且
丕
世
丘
丙
业
东
丞
丢
丣
两
严
並
丨
丩
个
丫
丬
中
丮
丰
丱
串
丵
丶
丷
丸
丹
为
主
丽
丿
乀
乂
乃
久
乆
乇
么
义
之
乌
乍
乎
乏
乐
乑
乔
乖
乗
乘
乙
乚
乛
乜
九
乞
也
习
乡
乳
乾
亀
亅
了
亇
予
争
事
二
亍
于
亏
亐
云
互
亓
五
井
亘
亚
亜
亞
亟
亠
亡
亢
交
亥
亦
产
亨
亩
享
京
亭
亮
亯
亰
亲
亳
亶
亷
人
亻
亼
亾
仁
今
介
仌
从
仐
仑
仒
仓
仕
他
付
仝
代
令
以
任
企
伊
伏
伐
休
会
伯
但
位
何
佘
余
作
佥
使
來
侈
侌
侖
侯
侵
便
俊
保
俞
信
修
倉
倍
候
倠
健
備
僉
僕
儿
兀
允
兂
元
兄
充
兆
兇
先
光
兊
克
兌
免
兑
兒
兓
兔
党
兜
兟
入
全
兩
兪
八
公
六
兮
兰
共
关
兵
其
具
典
兹
兼
冀
冂
冃
冄
内
冈
冉
冊
冋
册
再
冎
冏
冐
冒
冓
冖
冗
冘
军
农
冝
冡
冥
冫
冬
冷
几
凡
凢
凵
凶
凷
凸
凹
出
函
凾
刀
刁
刂
刃
刄
刅
分
切
刍
刑
刕
刖
列
刘
则
初
別
利
别
到
制
刺
則
削
剌
前
剡
剽
劉
力
功
加
劦
助
劫
劳
劵
勃
勇
勉
勒
動
務
勞
勤
勹
勺
勻
勾
勿
匀
匂
包
匆
匈
匊
匋
匍
匕
化
北
匚
匝
匡
匪
匱
匸
匹
区
医
匽
匿
區
十
卂
千
卄
卅
卆
升
午
卉
半
卌
华
卑
卒
卓
单
卖
南
卜
卝
卞
占
卡
卢
卣
卤
卦
卩
卪
卬
卯
印
危
即
却
卵
卷
卸
卻
厂
厃
厄
历
厈
厉
厌
厓
厘
厚
原
厤
厥
厨
厭
厲
厶
厷
厸
去
厼
厽
叀
参
參
叅
又
叉
及
友
双
反
叐
发
叒
叔
叕
取
受
叚
叜
叟
口
古
句
另
叩
只
召
可
台
叱
史
右
叵
号
司
叹
吂
各
吅
合
吉
吊
吋
同
名
后
吏
向
吕
君
吝
吞
否
含
启
吳
吴
吹
吾
呂
呆
呈
告
员
呙
周
命
咅
和
咎
咠
咢
咨
咸
咼
哀
品
哉
員
哥
哲
唐
商
啇
問
啚
啬
啻
善
喜
喬
單
喿
嗇
噩
嚴
囊
囗
囘
囙
囚
四
回
囟
因
囧
囬
困
囱
囷
固
国
圂
圅
國
圍
圓
土
圡
圣
圥
在
圭
地
圶
圼
坐
坒
坚
坴
垂
垔
垚
埀
埋
埶
執
基
堂
堅
堆
堇
堯
塞
墨
壘
士
壬
壯
声
壳
壴
壹
壺
壽
夂
处
夅
夆
备
夊
夋
夌
复
夏
夒
夕
外
夗
夘
多
夜
夢
大
夨
天
太
夫
夬
夭
央
失
夲
头
夷
夸
夹
夻
夾
奂
奄
奇
奈
奉
奎
奏
奐
契
奓
奔
奚
奞
奠
奢
奥
奭
女
奴
奻
好
如
妄
妙
妟
妥
妻
妾
姑
委
姜
威
娄
婁
婴
嬰
嬴
子
孑
孔
孕
孖
字
存
孚
孛
孝
孟
季
孤
学
孫
孱
學
宀
宁
宂
它
宅
宇
守
安
宋
完
宏
宓
宗
官
定
宛
宜
宝
客
宣
室
宮
宰
害
家
容
宾
宿
寄
寅
密
富
寒
察
寧
審
寫
寬
寮
寸
对
寺
寻
寽
対
寿
封
尃
射
将
將
專
尉
尊
尋
尌
對
小
少
尒
尓
尔
尖
尗
尚
尞
尢
尣
尤
尧
尨
尭
就
尸
尹
尺
尻
尼
尽
尾
尿
局
居
屈
屋
屎
屏
屑
展
屖
屚
属
屠
屡
屬
屮
屯
屰
山
屵
屾
岁
岂
岑
岡
岩
岳
岸
峯
島
崇
崑
崔
崖
崙
崩
嵬
嶲
巂
巛
川
州
巟
巠
巢
巤
工
左
巧
巨
巩
巫
差
己
已
巳
巴
巷
巸
巽
巾
巿
帀
市
布
希
帚
帛
帝
带
師
席
帶
常
干
平
年
幵
并
幷
幸
幺
幻
幼
幽
幾
广
広
庄
床
底
店
庚
府
度
庫
庭
庶
康
庸
廉
廌
廛
廣
廩
廴
延
廷
建
廾
廿
开
弁
弃
弄
弇
弋
式
弓
弔
引
弗
弘
弜
弟
张
弥
弦
弱
張
強
强
彊
彌
彎
彐
彑
当
彔
录
彖
彗
彡
形
彥
彦
彧
彭
彳
役
彼
往
待
律
徐
徒
得
徙
從
復
微
徵
心
忄
必
忌
忍
志
忝
忠
忩
快
念
忽
忿
思
怠
急
怱
恆
恒
恩
恭
息
悉
患
悤
悲
悶
惠
惡
惢
愁
愈
意
愛
感
慈
慧
慮
憂
憲
應
戀
戈
戉
戊
戋
戌
戍
戎
成
我
戒
戔
或
戚
戠
戢
截
戲
戶
户
戹
戼
戾
房
所
扁
扇
手
扌
才
打
托
执
承
折
拉
拜
拿
掌
推
提
摩
支
攴
攵
收
攸
改
放
政
敄
敏
敕
敖
敗
敝
敞
敢
散
敦
敫
敬
数
敷
數
斂
文
斉
斊
斗
斤
斥
斩
斬
斯
新
方
於
施
斿
旁
旋
族
无
旡
既
旣
日
旦
旧
旨
早
旬
旱
旲
时
旾
昆
昇
昌
昍
明
昏
易
昔
昗
昜
星
春
昬
是
昱
昴
昷
時
晃
晋
晏
晓
普
景
晶
智
暑
暴
曇
曩
曰
曲
曳
更
曷
書
曹
曼
曾
替
最
朁
會
月
有
朋
服
朔
朕
朗
望
朝
木
朩
未
末
本
札
朮
术
朱
朵
朶
朿
杀
李
杏
杜
束
条
来
東
杲
杳
松
析
林
枚
果
枝
枲
枼
某
柔
查
柬
柰
柴
栗
根
桀
桑
桼
梁
條
梟
梨
棘
棠
棥
森
楚
業
楽
榮
樂
樊
欠
次
欣
欮
欲
欶
欽
款
歆
歇
歛
止
正
此
步
武
歨
歪
歮
歯
歰
歲
歴
歷
歸
歹
歺
死
殳
段
殷
殸
殹
殺
殻
殿
毋
毌
母
每
毒
比
毕
毚
毛
毳
氏
氐
民
气
氣
水
氵
氶
氷
永
氺
氾
求
汝
汞
江
沃
沓
沙
沝
泉
法
波
泣
泥
泰
洛
津
洪
活
派
流
浦
浪
浮
淡
淮
清
渚
渠
湯
滿
漸
火
灬
灭
灰
灵
灷
炅
炎
炏
炗
炙
炭
為
烈
烏
烝
焉
無
焦
焱
然
煞
熊
熏
燕
營
燮
爪
爫
爭
爯
爰
爱
爲
爵
父
爻
爽
爾
爿
片
牙
牚
牛
牜
牟
牢
牧
牪
牽
犀
犬
犭
犮
狂
狄
狊
独
狺
猋
猒
猪
献
獻
玄
率
玉
王
玟
玨
珎
班
琴
瑟
瑩
瓜
瓦
甘
甚
生
産
用
甫
甬
田
由
甲
申
电
甶
男
甸
甹
画
甾
畀
界
畏
畐
留
畜
畟
畢
畧
畨
番
畫
異
畱
當
畺
畾
疊
疋
疌
疑
疒
疾
癶
癸
癹
登
發
白
百
皀
皃
的
皆
皇
皋
皐
皕
皮
皷
皿
盃
盆
盇
盈
益
盍
盎
监
盒
盖
盛
盡
監
盤
盧
目
直
相
盾
省
眇
眉
看
眔
眞
真
眷
眼
眾
着
睘
睪
睿
瞏
瞢
瞿
矍
矛
矞
矢
矣
知
矦
短
石
破
碎
磊
磨
示
礻
礼
祟
祥
票
祭
禀
禁
禸
禹
禺
离
禽
禾
禿
秀
秃
秉
秋
科
秝
秦
移
稟
穀
穌
穴
究
穹
空
穿
突
窄
窒
立
竒
竜
竝
竟
章
童
竹
笑
笠
筆
等
答
箕
算
箴
節
篤
篭
米
粉
粛
粟
粤
粦
粲
糞
糸
糹
系
約
納
素
索
紫
累
細
絜
絫
絲
維
綿
縣
繇
纍
纟
缶
网
罒
罔
罕
罗
罙
罡
罢
罪
署
罷
羅
羊
羌
羍
美
羔
羕
羗
羞
羡
羣
群
義
羲
羸
羽
翁
翏
習
翕
翟
翠
翼
老
耂
考
者
耆
而
耎
耑
耒
耳
耴
耶
耷
聂
聊
聖
聚
聶
聿
肀
肃
肅
肉
肖
肙
肥
肩
肯
育
肴
胃
背
胡
胥
能
脊
脩
膚
臣
臤
臧
自
臬
臭
臯
臱
至
致
臺
臼
臽
臾
臿
舀
舂
舄
與
興
舉
舌
舍
舛
舜
舞
舟
般
艮
良
色
艸
艹
艾
芒
芔
芬
芮
花
芳
芺
芻
苔
苗
苟
若
苦
英
茶
茸
荅
草
荒
荣
荼
莆
莧
莫
莽
菆
菊
菐
華
萬
落
葉
著
葛
董
葵
蒙
蒦
蒼
蓋
蓬
蓺
蔑
蔡
蕉
蕭
薄
薛
薦
薰
藍
藏
藥
蘭
虍
虎
虐
虒
虔
處
虖
虗
虘
虚
虛
虜
虞
虫
虽
蚤
蚩
蜀
蜜
蟲
蠡
血
行
衍
衛
衣
衤
表
衮
衰
袁
袞
褭
褱
襄
襾
西
覀
要
覃
見
規
覓
覧
親
覽
见
角
解
言
訁
訇
計
詹
誩
諸
讠
谷
豆
豈
豊
豐
豕
豖
豙
象
豦
豩
豪
豸
貇
貝
貞
貟
負
貢
貧
貪
貫
責
貳
貴
買
費
賁
資
賈
賏
賓
賔
賛
賞
賢
賣
質
賴
贊
贝
贡
责
贯
贲
贵
赖
赞
赤
赦
走
越
足
路
蹇
身
躬
車
軍
軎
軟
輦
车
辛
辜
辟
辥
辰
辱
農
辵
辶
边
达
过
近
连
迷
追
退
送
逆
逐
通
速
造
逢
連
逮
進
遀
遂
過
道
達
遣
適
遷
遺
邊
邑
邕
那
邦
邪
郎
部
郭
都
鄉
酉
酋
配
酓
釆
采
里
重
野
量
金
釒
錢
钅
長
镸
长
門
閃
閉
開
閏
閑
閒
間
閔
閵
閻
闌
门
间
闷
阑
阜
阝
阿
陈
降
陳
隆
隊
隋
隡
隨
隱
隶
隹
隺
隻
隼
隽
难
雀
雁
雄
集
雈
雋
雍
雐
雔
雙
雚
雜
雝
離
難
雨
雩
雪
雲
零
雷
需
霍
霜
霝
霞
霸
靈
靑
青
非
靡
面
靣
革
韋
韦
韭
韯
韱
音
頁
頃
項
須
頗
頡
頻
顛
页
風
风
飛
飞
食
飠
養
饣
首
香
馬
馮
駦
马
骨
高
髟
鬥
鬯
鬲
鬼
魚
魯
鮮
鱼
鲁
鳥
鳳
鸟
鸿
鹵
鹿
麃
麗
麥
麦
麻
黃
黄
黍
黎
黑
黒
黨
黹
黽
黾
鼎
鼓
鼠
鼻
齊
齋
齐
齒
齿
龍
龙
龜
龟
龠
龰
龱
龴
龵
龶
龷
龸
龹
者
艹
？
𠀁
𠀃
𠀆
𠀉
𠀎
𠀐
𠁁
𠁣
𠂆
𠂇
𠂈
𠂉
𠂊
𠂋
𠂎
𠂒
𠂔
𠂛
𠂡
𠂢
𠂤
𠂬
𠂭
𠂹
𠃊
𠃋
𠃌
𠃍
𠃎
𠃑
𠃓
𠃔
𠃜
𠄌
𠄎
𠄠
𠄢
𠆢
𠆥
𠇍
𠈌
𠌵
𠓜
𠔉
𠔥
𠔼
𠔽
𠔿
𠕀
𠕁
𠕋
𠘧
𠘨
𠙻
𠙼
𠚏
𠚒
𠚤
𠚪
𠣏
𠤎
𠤕
𠥓
𠦄
𠦑
𠦝
𠧒
𠧗
𠧪
𠩺
𠪚
𠫓
𠫔
𠫤
𠬛
𠬝
𠬞
𠬢
𠬤
𠬶
𠮛
𠮦
𠮷
𠯑
𠱠
𠳮
𠷎
𡈼
𡉀
𡉵
𡌥
𡍮
𡏳
𡕒
𡕩
𡕰
𡖅
𡗗
𡗜
𡘆
𡘤
𡧱
𡨄
𡩧
𡬠
𡭽
𡰣
𡰥
𡰪
𡰯
𡰱
𡷈
𡸁
𡿨
𡿩
𡿪
𡿺
𢀖
𢀛
𢀩
𢁙
𢆉
𢆰
𢆶
𢇁
𢇇
𢉖
𢌬
𢌿
𢏚
𢑑
𢑚
𢖻
𢙣
𢛳
𢦏
𢦒
𢧵
𢼄
𢾕
𣁋
𣄼
𣅀
𣅽
𣍘
𣎳
𣎵
𣏋
𣏼
𣗥
𣥂
𣥖
𣦵
𣦼
𣧄
𣪊
𣪠
𣬉
𣳾
𣶒
𤇾
𤊽
𤐫
𤓰
𤔔
𤕨
𤣩
𤰇
𤰔
𤰞
𤴓
𤴔
𤽄
𥁑
𥁕
𥃦
𥃩
𥃭
𥇡
𥑟
𥘅
𥘈
𥝢
𥫗
𥱡
𦈢
𦉪
𦉬
𦉼
𦍌
𦍒
𦎧
𦐇
𦓔
𦔮
𦘒
𦙃
𦚏
𦣝
𦣞
𦣻
𦥑
𦥔
𦥯
𦨉
𦭝
𦰩
𧆞
𧈧
𧘇
𧰨
𧴪
𧴮
𧵩
𧾷
𨸏
𨾴
𩙿
𩠐
𩫏
𩵋
𪉷
𪜀
𪟽
𪠲
𪩲
𫇦
𫔭
𫜸
𫝀
𫠣
𫠩
𫢉
𫥞
𫩏
𫩠
𫪡
𫲽
𫶧
𬀷
𬐘
𬗌
𬙙
𬛸
𬜯
𬟩
𬯁
𬴘
𬺻
𬼉
𬼖
𭀰
𭁈
𭁨
𭅰
𭑈
𭕄
𭗼
𭤨
𭥫
𭻾
𮅕
𮊿
𮍌
𮍏
𮓗
𮥼
𮧮
廾
𰀁
𰀄
𰀈
𰀉
𰀕
𰀠
𰀡
𰀢
𰀪
𰁜
𰃮
𰆊
𰆘
𰋙
𰕎
𰢴
𰧭
𰯲
03--
a--
aa--
ab--
aba--
abdo--
abr--
ac--
acan--
acic--
acti--
acu--
acuti--
acı--
ad--
aden--
afr--
ag--
agos--
agu--
ah--
ai--
ak--
aki--
al--
alb--
albic--
albo--
alek--
ales--
ali--
alp--
alti--
altı--
altın--
am--
amaz--
ambr--
amlı--
ammo--
an--
ana--
anc--
and--
anfr--
angu--
angusti--
antar--
anth--
anti--
ap--
apic--
ar--
are--
ari--
arta--
arti--
arı--
as--
asco--
at--
ati--
atro--
au--
auf--
auric--
av--
ay--
ayı--
az--
b--
ba--
bac--
bad--
bag--
bak--
bar--
bas--
bat--
bau--
be--
beau--
bed--
beh--
ben--
ber--
bet--
bew--
bey--
bhu--
bi--
bic--
bical--
bid--
bin--
biog--
bir--
bis--
bit--
bl--
bo--
bod--
bol--
bon--
bona--
boo--
bos--
bou--
bour--
bow--
boz--
br--
brac--
brach--
brachy--
bre--
brevi--
bro--
broo--
bru--
bu--
bul--
bur--
burn--
by--
c--
ca--
caca--
cal--
calce--
cali--
call--
calli--
calo--
caly--
calypt--
can--
cap--
capi--
capri--
car--
cara--
carbo--
cardi--
carn--
carnosi--
carpo--
cas--
cata--
cath--
cato--
cau--
cauca--
ce--
cele--
cepha--
certh--
cey--
ch--
cha--
cham--
chan--
chap--
char--
che--
chi--
chin--
chiro--
chlo--
chloro--
cho--
chry--
chryso--
chu--
ci--
cic--
cin--
cir--
cit--
ck--
cla--
clau--
cle--
clif--
clo--
cly--
co--
coba--
coc--
coel--
coelog--
coeru--
col--
colo--
colomb--
colum--
com--
con--
cong--
cono--
cons--
conso--
cor--
cordi--
core--
corn--
cory--
corytop--
cou--
cra--
cras--
crassi--
cre--
cri--
cro--
crot--
cru--
cruci--
cu--
cucum--
cul--
cum--
cun--
cur--
cy--
cyclo--
cyp--
cz--
d--
da--
dacty--
dal--
dan--
dau--
dauu--
de--
decur--
del--
den--
dentic--
der--
dere--
des--
di--
dia--
diap--
dic--
dil--
diplo--
diptero--
do--
doli--
don--
doro--
dow--
dra--
dre--
du--
duc--
dy--
e--
ea--
ec--
ech--
ed--
eg--
eh--
ei--
ek--
el--
ele--
em--
empu--
en--
encyc--
ensi--
epi--
epiphy--
er--
ere--
eryth--
erz--
es--
escu--
eu--
eublep--
eume--
eury--
eve--
eversm--
ex--
ey--
ez--
f--
fa--
fair--
fal--
fan--
far--
fau--
fe--
fel--
feld--
fi--
fil--
fili--
fin--
fis--
fitz--
fl--
fla--
flam--
flavi--
flo--
fo--
foer--
fon--
for--
fr--
frin--
fu--
fuer--
g--
ga--
gal--
gam--
gar--
gas--
gaz--
ge--
geh--
geis--
gem--
ger--
gi--
gib--
gibb--
gig--
gik--
gil--
gir--
gis--
git--
giu--
gla--
glau--
glazio--
glo--
go--
god--
gold--
gor--
gorno--
got--
gou--
gra--
grac--
gram--
greg--
gri--
grise--
gro--
gu--
guang--
guar--
gui--
guil--
guim--
gul--
gum--
gun--
gut--
guttu--
h--
ha--
hacı--
had--
hae--
haemat--
hal--
ham--
han--
har--
hart--
has--
hase--
hat--
hav--
he--
hed--
hel--
hell--
hen--
her--
hetero--
heu--
hey--
hi--
hid--
high--
hil--
himal--
hin--
hipp--
hir--
hiru--
his--
hl--
ho--
hoff--
hol--
holl--
holo--
hoo--
hoog--
hop--
hor--
hu--
hud--
hul--
hum--
hus--
hut--
hy--
hye--
hypo--
hypox--
i--
ic--
ida--
ig--
igua--
ik--
il--
im--
imer--
in--
intr--
iq--
ir--
is--
it--
iv--
j--
ja--
jac--
jacqu--
jam--
jan--
japo--
je--
jel--
jen--
jer--
ji--
jo--
jor--
ju--
k--
ka--
kaba--
kal--
kalkan--
kalo--
kam--
kara--
kat--
kath--
kau--
ke--
kes--
kha--
ki--
kib--
kin--
kir--
kiz--
kla--
kle--
klem--
kna--
ko--
koe--
kons--
konstanti--
kor--
koz--
kra--
kri--
krish--
ku--
kul--
kum--
kuz--
ky--
kı--
kırk--
l--
la--
laevi--
lan--
lap--
lapp--
lati--
lau--
law--
laxi--
le--
lea--
leg--
lem--
lemu--
leon--
lepi--
lepo--
lept--
leptoti--
les--
let--
leu--
leuco--
leucom--
leucop--
ley--
lher--
li--
lin--
lingu--
llam--
lo--
longis--
low--
lu--
luc--
luci--
ly--
m--
ma--
mab--
mac--
macro--
mad--
madi--
magni--
mal--
mall--
mam--
man--
map--
mar--
marga--
mas--
mat--
mau--
mauri--
mc--
mcca--
me--
mec--
mega--
megarhy--
mein--
mel--
melan--
mell--
men--
mer--
mexi--
mi--
mic--
mich--
micro--
mik--
mil--
mill--
mir--
mo--
mon--
monophy--
monti--
mor--
mot--
mou--
mu--
muh--
multi--
mus--
my--
myrt--
n--
na--
nam--
nama--
nar--
nat--
nau--
nc--
ndo--
ne--
neg--
nemo--
neo--
neod--
new--
ng--
ni--
nig--
nigri--
nigro--
nilo--
no--
nob--
nor--
nord--
nu--
nur--
nut--
ny--
nyak--
nyam--
nyar--
nymph--
o--
ob--
obso--
och--
octa--
odo--
of--
og--
oi--
oka--
ol--
olig--
oliv--
on--
ophiog--
or--
orni--
orth--
ortho--
os--
ostr--
ot--
oth--
ou--
oxyu--
oya--
p--
pa--
pachy--
pachyrhy--
pain--
pal--
palpe--
palum--
pan--
papi--
papuli--
par--
parap--
pat--
pe--
pect--
pel--
pem--
pen--
per--
pet--
ph--
pha--
phil--
phile--
pho--
phoen--
phy--
pi--
pia--
pin--
pit--
pl--
plan--
platy--
plu--
po--
pol--
poly--
polych--
pom--
pon--
poro--
porphy--
porphyro--
post--
pou--
pra--
pre--
pri--
pro--
pseu--
pseudo--
psi--
psit--
psitta--
psittacu--
pter--
ptero--
ptery--
pu--
pulv--
punc--
pur--
py--
pyrrho--
q--
qi--
qu--
qua--
quad--
quadri--
quin--
r--
ra--
racho--
rad--
ram--
ran--
rau--
re--
red--
reic--
rein--
reis--
res--
rey--
rh--
rho--
rhom--
rhyncho--
ri--
ris--
rit--
rk--
ro--
rob--
roh--
roll--
rost--
rotun--
rou--
ru--
rubr--
rud--
rufi--
rufo--
ruga--
rum--
rut--
rw--
ry--
s--
sa--
saba--
sac--
sal--
sam--
samb--
san--
sar--
satu--
sau--
saz--
sc--
sca--
scap--
sce--
sch--
schind--
schl--
schu--
sco--
scopu--
se--
see--
semi--
ser--
ses--
seu--
sey--
sh--
sha--
she--
shel--
shinisau--
si--
sie--
sig--
sik--
silv--
simi--
simu--
sit--
sket--
sla--
sm--
smu--
so--
sol--
soma--
son--
sor--
sou--
sov--
sp--
spat--
spathuli--
sphaero--
spilo--
spin--
spra--
spu--
squami--
st--
stau--
ste--
stic--
stolz--
stra--
strese--
stri--
stu--
su--
sua--
sub--
sum--
suo--
sus--
sw--
swai--
sy--
sylv--
sz--
szcz--
t--
ta--
tan--
tar--
tas--
tat--
tau--
te--
tele--
tem--
ter--
tex--
th--
the--
thi--
tho--
thor--
ti--
tig--
to--
tog--
tort--
tr--
tra--
tri--
tric--
trid--
tru--
trulli--
try--
ts--
tu--
tum--
tur--
tuz--
tw--
ty--
u--
uk--
uku--
ulu--
um--
un--
upi--
uri--
uro--
uru--
us--
uti--
uze--
uzun--
va--
val--
vasc--
ve--
ventr--
ver--
vern--
vi--
vic--
vig--
vill--
viri--
vo--
vol--
vr--
vul--
w--
wa--
wal--
wan--
war--
we--
web--
weber--
wed--
wein--
wel--
wen--
wer--
wet--
wey--
wie--
wier--
wiki--
wil--
win--
wo--
wood--
x--
xan--
xanth--
xantho--
xen--
xeno--
xi--
y--
ya--
yam--
yay--
ye--
yid--
yo--
yu--
z--
za--
zam--
zan--
ze--
zon--
ı--
ız--
ł--
ν--
а--
аб--
аба--
абхаз--
ава--
аг--
агло--
ад--
ада--
аде--
аджы--
адр--
аз--
азиат--
аи--
ак--
ака--
акча--
ал--
ала--
але--
аллига--
аль--
ам--
ама--
амаса--
ан--
анд--
ано--
анти--
анто--
ао--
апол--
ар--
ара--
аре--
ари--
арм--
архи--
асл--
аст--
ат--
атмос--
ать--
аукци--
аф--
афр--
ах--
аэро--
ая--
б--
ба--
баб--
бар--
бах--
баш--
бе--
бело--
белог--
бер--
бере--
бес--
беш--
би--
бин--
био--
бир--
бле--
бледно--
бо--
богаз--
боз--
бор--
бр--
бра--
бразиль--
бри--
брик--
бу--
буль--
буро--
бух--
в--
ва--
ваг--
вад--
важ--
вал--
вар--
вас--
вашт--
ве--
велико--
вен--
венед--
вер--
вере--
верхов--
вес--
вет--
ви--
вид--
вил--
виргин--
вих--
во--
вод--
вол--
воль--
восста--
все--
ву--
вы--
выж--
высо--
г--
га--
гавр--
гази--
гал--
гале--
гам--
гар--
гах--
гва--
ге--
гек--
гели--
гера--
ги--
гла--
глад--
го--
гор--
гр--
гра--
грам--
грен--
гу--
д--
да--
дан--
датир--
де--
дек--
деле--
демок--
ден--
дер--
дере--
десе--
дж--
джа--
ди--
дми--
дне--
до--
доган--
доми--
дон--
др--
ду--
дуб--
дын--
дь--
дэ--
е--
ед--
ен--
епарх--
ер--
ес--
еш--
ешил--
ж--
жа--
желт--
жиз--
з--
за--
зави--
запад--
западно--
звез--
зи--
зол--
и--
ивр--
игна--
ид--
идеоло--
из--
изи--
ик--
икта--
ил--
им--
ин--
индо--
интер--
ир--
иса--
источ--
иш--
к--
ка--
каба--
кага--
как--
кала--
кам--
кан--
кап--
кар--
кара--
карь--
кау--
кач--
кашта--
ква--
ке--
кел--
кен--
ки--
кино--
кири--
кл--
клу--
клю--
кн--
ко--
кога--
кого--
код--
кое--
коз--
кок--
коллектив--
ком--
кон--
конс--
конституци--
конт--
коп--
кор--
кори--
корич--
коро--
коса--
косм--
кр--
кра--
красно--
красного--
кре--
кри--
кро--
крым--
ку--
кузь--
куп--
кучы--
кче--
кш--
кы--
кыда--
кымал--
кычы--
л--
ла--
лаге--
лади--
лам--
лан--
лап--
лар--
лгом--
лде--
ле--
лек--
лем--
лео--
леп--
лепи--
лепо--
лет--
ли--
лин--
лирох--
личин--
лм--
ло--
лоз--
лу--
луат--
лы--
лыд--
лык--
ль--
лю--
ля--
м--
ма--
магда--
мад--
мады--
мак--
мал--
мала--
мам--
ман--
маса--
мат--
мах--
ме--
медж--
медо--
медь--
ми--
мик--
микро--
минис--
мисси--
мист--
мн--
мо--
му--
мух--
мухо--
мы--
мыск--
н--
на--
нама--
национа--
нг--
нга--
нд--
не--
неза--
ни--
ник--
никиф--
нн--
но--
нобе--
ново--
ното--
нс--
нт--
ну--
нур--
нь--
ньаб--
ньаги--
ньак--
ньару--
о--
оа--
одноцвет--
ок--
окси--
ол--
ом--
он--
ончы--
оп--
опи--
оре--
орк--
орла--
орле--
оро--
от--
оче--
очко--
ош--
п--
па--
пад--
палшы--
памят--
пан--
пара--
паст--
пач--
пе--
пед--
пепель--
пер--
перес--
пет--
пи--
пиго--
пл--
плат--
пле--
по--
поб--
поге--
погын--
под--
поз--
позици--
пол--
полу--
порф--
пост--
пр--
пра--
правл--
празньы--
практиче--
пре--
пред--
предложе--
предложени--
представи--
при--
про--
програм--
псев--
псевдо--
психологиче--
пу--
пурпу--
пы--
пыжа--
пын--
пырташ--
пь--
пьесы--
р--
ра--
рам--
распи--
рау--
рв--
рва--
ре--
реа--
реж--
рет--
реч--
реш--
ри--
рис--
рл--
рле--
рм--
рн--
ро--
роал--
род--
роз--
рок--
ру--
руга--
русс--
ры--
рыже--
с--
са--
саватк--
сад--
сала--
сар--
св--
свя--
се--
север--
северо--
сед--
сез--
сек--
сель--
семин--
сере--
серебр--
серра--
си--
сиду--
силь--
сим--
син--
ск--
ска--
сл--
сли--
сло--
служ--
со--
соб--
сов--
спи--
спр--
спряж--
ст--
сте--
степ--
стеф--
сти--
сто--
струк--
сту--
су--
суб--
субъе--
сувен--
сцен--
сы--
т--
та--
тал--
там--
таш--
те--
тел--
тех--
техно--
ти--
тимо--
типограф--
тихо--
тку--
то--
ток--
тол--
тон--
тор--
тр--
тран--
трансиль--
траур--
трихо--
тро--
ту--
туз--
ты--
тыл--
тым--
тя--
у--
уж--
уз--
ук--
ул--
улу--
ум--
уол--
ур--
ус--
услов--
участ--
учит--
уш--
ф--
фа--
фал--
фалло--
фан--
фанта--
фар--
фе--
фенако--
фер--
фи--
физиче--
фир--
фо--
фот--
фр--
франк--
фрон--
фу--
функ--
функци--
х--
ха--
хав--
хал--
хар--
харак--
хасан--
хе--
хеми--
хило--
хиль--
хо--
хр--
хрон--
ху--
хы--
хытыр--
хь--
ц--
ца--
цаткы--
цацы--
це--
цен--
цепо--
ци--
цих--
цыл--
ч--
ча--
чал--
чамлы--
чанга--
чатал--
че--
черно--
чил--
чо--
чу--
чуваш--
чум--
чы--
чь--
чьан--
ш--
ша--
шал--
шалгы--
шаны--
шаныкал--
шап--
шачы--
шая--
ше--
шев--
шен--
ши--
шим--
шк--
шке--
шл--
шле--
шо--
шу--
шы--
ы--
ыд--
ыде--
ыл--
ым--
ымы--
ын--
ыр--
ыра--
ыт--
ых--
ышы--
ь--
э--
эб--
эд--
эзи--
эк--
экспе--
экспедици--
эл--
эле--
элект--
электри--
элы--
эм--
эми--
эн--
эпи--
эр--
эри--
эртара--
эс--
эт--
эш--
ю--
южно--
юк--
юр--
юсти--
юшк--
я--
ял--
ям--
ян--
яр--
ясл--
ҥ--
ҥал--
--0
--1
--2
--3
--4
--5
--6
--7
--8
--9
--a
--aar
--abia
--acea
--aceae
--ad
--adensis
--ado
--ae
--aensis
--aer
--ag
--agus
--ah
--ai
--ail
--ain
--ak
--al
--am
--ama
--an
--ana
--anensis
--ani
--anica
--ann
--ano
--anta
--antha
--anum
--anus
--ap
--aq
--ar
--ara
--ard
--are
--ari
--aria
--aris
--aro
--art
--ary
--as
--at
--ata
--ato
--ator
--atum
--atus
--au
--aud
--ault
--awa
--ax
--ay
--az
--azi
--b
--ba
--bach
--ban
--baum
--be
--bey
--beyli
--bi
--bia
--bio
--ble
--bo
--bris
--bs
--bula
--bum
--bus
--by
--c
--ca
--cak
--cal
--capa
--cata
--caulis
--cco
--ce
--cea
--ceae
--cens
--ceps
--ceum
--ceus
--ch
--chi
--chilus
--chya
--chys
--ci
--cidae
--cik
--cina
--cincus
--ck
--cki
--co
--coni
--cosa
--cta
--ctes
--ctus
--ctylus
--cu
--culatum
--culus
--cum
--cus
--cık
--d
--da
--dae
--dag
--db
--de
--di
--dii
--din
--dium
--do
--don
--dorf
--ds
--dt
--dtii
--du
--dula
--dum
--dus
--dy
--e
--ea
--eae
--ean
--eau
--eca
--ed
--ef
--ei
--eira
--ek
--el
--eld
--ele
--eli
--ell
--ella
--elli
--em
--ema
--emia
--en
--ena
--ence
--ene
--enh
--eni
--enii
--enopsis
--ens
--ense
--ensis
--ent
--entosa
--enys
--eo
--epala
--ephala
--eps
--er
--era
--erae
--eras
--erata
--ere
--ered
--eri
--erolog
--ers
--ert
--erum
--erus
--erygii
--es
--escens
--ese
--esi
--essa
--est
--et
--etica
--ets
--ett
--ette
--eum
--eus
--ev
--eva
--exa
--ey
--ez
--f
--fe
--feld
--fera
--ff
--ffe
--field
--ft
--g
--ga
--gas
--gazi
--ge
--gel
--ger
--ges
--gg
--gh
--ghe
--ght
--gi
--gia
--giae
--gidae
--gii
--go
--gs
--gu
--gus
--gwe
--h
--ha
--hae
--hal
--ham
--he
--hi
--hii
--hila
--hn
--ho
--hr
--hraupis
--hs
--ht
--hton
--hu
--hum
--hus
--hy
--hynchus
--i
--ia
--iacus
--iae
--iana
--ianum
--ias
--iata
--iatus
--ic
--ica
--ich
--icha
--ichthys
--ico
--icola
--ics
--icta
--ictus
--icum
--icus
--id
--ida
--idae
--idea
--ideae
--ides
--idium
--ie
--ied
--iella
--iensis
--ier
--iers
--ies
--iformes
--ifrons
--ig
--ii
--iidae
--ik
--ika
--iki
--il
--ila
--ilabia
--ilus
--im
--in
--ina
--inae
--inata
--ing
--ingi
--ini
--inidae
--ino
--ins
--inum
--inus
--io
--ion
--iopsis
--ip
--ir
--ira
--ire
--iro
--is
--ish
--ished
--issa
--it
--ita
--iton
--its
--ium
--ius
--iye
--iza
--j
--ja
--jal
--je
--ju
--k
--ka
--kan
--kas
--kc
--ke
--ker
--key
--kh
--ki
--kii
--kin
--klı
--ko
--kov
--ks
--kıs
--l
--la
--lar
--lata
--latus
--lc
--ld
--ldo
--le
--lein
--len
--lensis
--lepis
--les
--let
--leuca
--ley
--leyi
--lf
--li
--licus
--lidae
--lii
--ling
--lis
--lk
--ll
--lla
--llarum
--lle
--lli
--llia
--llis
--llo
--llus
--lm
--lo
--lon
--lor
--lora
--low
--lp
--ls
--lt
--lta
--lu
--lum
--lus
--ly
--lı
--lık
--m
--ma
--man
--mas
--mba
--mbi
--mbia
--mbo
--mbus
--mbwa
--mbwe
--me
--mes
--mia
--mid
--midae
--mir
--mis
--mma
--mmica
--mo
--mond
--mp
--mphus
--ms
--mu
--n
--na
--nae
--nal
--nas
--nau
--naud
--nce
--nch
--nd
--nda
--nde
--ndi
--ndo
--ne
--nea
--neata
--ner
--nes
--ng
--nga
--nge
--ngu
--ni
--nia
--nica
--nicum
--nidae
--nii
--ninae
--nis
--nk
--nn
--nna
--no
--ns
--nse
--nsen
--nsis
--nt
--nta
--ntha
--nthum
--nthus
--nti
--ntz
--num
--nus
--ny
--nz
--o
--oa
--oba
--obum
--ock
--odon
--odus
--oensis
--off
--oi
--ol
--ola
--olatus
--ollis
--om
--on
--oni
--onii
--ons
--ont
--oo
--ophila
--ophilus
--ophora
--ophylla
--ops
--opsis
--optera
--opterus
--opus
--or
--ora
--ornis
--orpha
--orphae
--orum
--orus
--os
--osa
--osum
--osus
--ot
--otii
--otis
--otti
--ou
--ov
--ovich
--p
--pa
--pala
--pas
--pe
--pes
--petala
--petalum
--phala
--phalus
--phila
--phora
--phus
--phylla
--pi
--pidae
--pii
--pis
--po
--poda
--ps
--psis
--ptera
--pu
--pus
--pınar
--q
--r
--ra
--raceus
--rad
--rae
--ram
--ran
--raq
--ras
--rata
--ratus
--rax
--rce
--rch
--rchis
--rcus
--rd
--rdi
--re
--rea
--rei
--rek
--rensis
--rer
--rg
--rhynchos
--ri
--ria
--ridae
--ries
--rii
--riidae
--rimus
--rini
--ris
--rix
--rm
--rn
--rnis
--rnu
--ro
--roa
--rocephalus
--roi
--ropus
--rov
--rpa
--rpha
--rphae
--rr
--rra
--rs
--rsk
--rt
--rum
--ry
--ryi
--s
--sa
--sas
--sch
--se
--sen
--ser
--sh
--shi
--si
--sii
--sima
--sis
--sk
--sky
--sley
--so
--soides
--son
--soni
--ss
--ssa
--st
--stes
--stris
--su
--sum
--sı
--t
--ta
--tae
--tala
--talum
--tay
--te
--ted
--tei
--tel
--tepe
--ter
--tes
--th
--tha
--thus
--ti
--tia
--tidae
--tier
--tii
--tim
--tin
--tion
--tiosa
--tis
--tlı
--tna
--tner
--to
--ton
--tor
--tos
--tria
--tris
--ts
--tt
--tta
--tte
--tti
--ttis
--tu
--tum
--tus
--ty
--tylis
--tz
--tzer
--tı
--u
--ua
--uata
--uba
--uca
--uch
--uchus
--ud
--uda
--udi
--ue
--ues
--uga
--uis
--uk
--ul
--ulis
--ult
--ulus
--um
--ume
--un
--uosa
--ur
--ura
--ure
--uridae
--us
--ut
--uta
--utea
--uus
--ux
--v
--va
--vata
--ve
--ven
--ver
--vi
--w
--wa
--wald
--way
--we
--wi
--wl
--wn
--ws
--wsky
--x
--xis
--y
--ya
--yae
--yd
--ye
--yi
--yla
--yli
--ylidae
--yn
--yo
--ypus
--ys
--yx
--z
--za
--ze
--zer
--zi
--zii
--zo
--zı
--ı
--ık
--ır
--ıs
--ız
--ł
--ς
--а
--абат
--абрус
--ав
--аг
--аен
--аи
--ак
--акс
--ал
--алт
--алтыт
--альныи
--ам
--ан
--ана
--анвла
--ани
--антус
--ап
--ар
--аре
--арк
--арка
--ас
--ат
--атес
--ау
--аци
--аш
--ая
--б
--ба
--бая
--бе
--берг
--би
--биум
--бо
--брус
--брюхии
--бу
--бы
--бым
--в
--ва
--варня
--вач
--вая
--ве
--ви
--вик
--вируи
--вл
--вла
--во
--ву
--вы
--вые
--выи
--г
--га
--гал
--ган
--гая
--ге
--ген
--ги
--гим
--го
--гок
--грудая
--гтон
--гу
--гы
--д
--да
--даг
--даи
--даш
--дберг
--де
--дес
--дж
--джа
--джик
--джык
--ди
--дие
--дин
--диум
--до
--дра
--дт
--ду
--ды
--дымы
--е
--еа
--еб
--ев
--ева
--евич
--ег
--еды
--еев
--ежы
--ез
--ези
--еи
--ек
--екс
--ел
--еле
--ели
--елла
--ем
--емя
--ен
--ент
--ены
--еп
--епе
--ер
--ере
--ери
--ерина
--ерла
--еры
--ес
--ет
--ети
--еус
--ец
--еш
--ешкы
--ешты
--ешы
--ж
--жа
--жат
--же
--жок
--жы
--жым
--жын
--з
--за
--зе
--зи
--зка
--зм
--змы
--зо
--зома
--зы
--зын
--и
--иа
--иан
--иг
--иги
--ид
--ие
--иевич
--иелла
--изм
--измы
--ии
--ик
--ика
--ики
--иков
--икон
--икс
--икы
--ила
--илус
--иляпи
--им
--имы
--ин
--ина
--инус
--ины
--ио
--иохромис
--ир
--ира
--ируи
--ис
--исвла
--ист
--ита
--иум
--их
--ихтис
--иц
--ица
--ицы
--ич
--ически
--ическии
--ичы
--иш
--ишты
--ию
--ия
--к
--ка
--кая
--ке
--ки
--ко
--ков
--кон
--кс
--кус
--кы
--кыжы
--л
--ла
--лан
--ле
--лен
--ленд
--лестес
--ли
--лл
--лла
--лли
--лоа
--лог
--логус
--лп
--лтен
--лтеш
--лтше
--лты
--лу
--лум
--лы
--лык
--лыт
--ль
--льт
--лювая
--м
--ма
--мат
--маш
--мба
--мбе
--мби
--ме
--ми
--мли
--мо
--мок
--му
--мус
--мы
--мын
--н
--на
--нак
--ная
--нг
--нга
--нгы
--нд
--не
--нец
--нжы
--ни
--ние
--низм
--ник
--никвла
--никовые
--нк
--нка
--нко
--нкс
--нни
--но
--ное
--нои
--нос
--нск
--нти
--нтус
--нус
--ны
--ные
--ныи
--ных
--нь
--нья
--ня
--о
--обрикон
--ов
--ова
--ович
--овна
--ово
--овск
--овые
--овыи
--ог
--оги
--оград
--од
--одес
--одус
--ое
--ои
--ок
--ологи
--оль
--ом
--ома
--омис
--он
--они
--онизм
--оо
--опсис
--ор
--орхис
--ос
--оссома
--ость
--от
--отиляпи
--охилус
--охромис
--очныи
--п
--па
--пак
--пе
--пи
--по
--полис
--пс
--псис
--пу
--пус
--р
--ра
--рад
--рак
--рб
--рг
--рд
--ре
--рен
--ри
--рианов
--рики
--рин
--рит
--рко
--ро
--ров
--рохромис
--рп
--рр
--рс
--рт
--ру
--рус
--рхис
--ры
--рь
--рье
--ря
--с
--са
--свла
--си
--сир
--сис
--сиус
--сия
--ск
--ская
--ские
--скии
--ских
--ское
--скои
--сная
--со
--сон
--сси
--ст
--стая
--ствым
--стер
--стес
--сти
--стые
--стыи
--сть
--сук
--сум
--сус
--сы
--сья
--ся
--т
--та
--тан
--тат
--таш
--тв
--тва
--тво
--те
--теа
--тес
--тет
--ти
--тик
--то
--тон
--тра
--тт
--ттис
--ту
--тус
--ты
--тые
--тын
--тыт
--тыш
--ть
--ться
--у
--уа
--удая
--уз
--уи
--ук
--ул
--ум
--ун
--уп
--ура
--уры
--ус
--усвла
--ут
--уч
--уэ
--уя
--ф
--фи
--филлум
--х
--ха
--хакс
--хин
--хла
--хов
--хри
--хромис
--хтис
--хус
--ц
--ца
--це
--ци
--цижы
--ции
--цин
--цы
--ч
--ча
--чатыи
--ческии
--чи
--чина
--чо
--чы
--чь
--ш
--ша
--шаблон
--швла
--ше
--ши
--шии
--шка
--шкы
--шо
--ште
--шты
--штыжы
--штыш
--шы
--шым
--ще
--ы
--ывл
--ыде
--ые
--ыж
--ыжы
--ыи
--ык
--ым
--ын
--ынжы
--ыт
--ыш
--ыше
--ышкы
--ышты
--ыштым
--ь
--ье
--ьи
--ьныи
--ьы
--ья
--э
--эа
--эм
--эмды
--эмы
--эш
--эшы
--ю
--юлис
--юхая
--юхии
--я
--як
--ям
--ян
--ят
--яш
--ن
--ية
