!
"
#
##0
##1
##10
##11
##12
##13
##14
##15
##16
##17
##18
##19
##2
##20
##21
##22
##23
##24
##25
##26
##27
##28
##29
##3
##30
##31
##32
##33
##34
##35
##36
##37
##38
##39
##4
##40
##41
##42
##43
##44
##45
##46
##47
##48
##49
##5
##50
##51
##52
##53
##54
##55
##56
##57
##58
##59
##6
##60
##61
##62
##63
##64
##65
##66
##67
##68
##69
##7
##70
##71
##72
##73
##74
##75
##76
##77
##78
##79
##8
##80
##81
##82
##83
##84
##85
##86
##87
##88
##89
##9
##90
##91
##92
##93
##94
##95
##96
##97
##98
##99
$
%
&
'
(
)
*
+
,
-
.
/
0
00
000
0000
0001
01
0166667
02
03
0333333
04
05
06
0666667
07
08
0833333
09
1
10
100
1000
101
1016
102
1024
103
1034
104
1045
1046
105
1056
106
107
108
109
11
110
1100
1101
111
1119
112
113
114
1142
115
116
1166667
117
1177
118
119
12
120
1200
1201
1202
121
122
123
124
1241
125
1257
126
127
1271
1273
128
1281
129
13
130
131
132
133
1333333
134
1349
135
136
137
138
139
14
140
1409
141
142
1422
143
144
145
146
1460
147
148
149
15
150
1500
151
152
1521
153
1532
154
155
156
157
158
159
1599
16
160
161
1612
162
163
164
165
1658
166
1666667
167
168
169
17
170
171
172
173
174
1740
1742
175
1758
176
1763
1768
177
1772
1774
1775
178
1780
1783
1786
1788
1789
179
1790
1791
1792
1793
1794
1796
1797
1798
1799
18
180
1800
1801
1802
1803
1804
1805
1806
1807
1808
1809
181
1810
1811
1812
1813
1814
1815
1816
1817
1818
1819
182
1820
1821
1822
1823
1824
1825
1826
1827
1828
1829
183
1830
1831
1832
1833
1833333
1834
1835
1836
1837
1838
1839
184
1840
1841
1842
1843
1844
1845
1846
1847
1848
1849
185
1850
1851
1852
1853
1854
1855
1856
1857
1858
1859
186
1860
1861
1862
1863
1864
1865
1866
1867
1868
1869
187
1870
1871
1872
1873
1874
1875
1876
1877
1878
1879
188
1880
1881
1882
1883
1884
1885
1886
1887
1888
1889
189
1890
1891
1892
1893
1894
1895
1896
1897
1898
1899
19
190
1900
1901
1902
1903
1904
1905
1906
1907
1908
1909
191
1910
1911
1912
1913
1914
1915
1916
1917
1918
1919
192
1920
1921
1922
1923
1924
1925
1926
1927
1928
1929
193
1930
1931
1932
1933
1934
1935
1936
1937
1938
1939
194
1940
1941
1942
1943
1944
1945
1946
1947
1948
1949
195
1950
1951
1952
1953
1954
1955
1956
1957
1958
1959
196
1960
1961
1962
1963
1964
1965
1966
1967
1968
1969
197
1970
1971
1972
1973
1974
1975
1976
1977
1978
1979
198
1980
1981
1982
1983
1984
1985
1986
1987
1988
1989
199
1990
1991
1992
1993
1994
1995
1996
1997
1998
1999
2
20
200
2000
2001
2002
2003
2004
2005
2006
2007
2008
2009
201
2010
2011
2012
2013
2014
2015
2016
2017
2018
2019
202
2020
2021
2022
203
204
205
206
207
208
209
21
210
211
212
213
214
215
216
2166667
217
218
219
22
220
221
222
223
224
225
226
227
228
229
23
230
231
232
233
2333333
234
235
236
237
238
239
24
240
2409
241
242
2429
243
244
245
246
247
248
249
25
250
251
252
253
254
255
256
257
258
259
26
260
261
262
263
264
265
266
2666667
267
268
269
27
270
271
272
273
274
275
276
277
278
279
28
280
281
282
283
2833333
284
285
286
287
288
289
29
290
291
292
293
294
295
296
297
298
299
3
30
300
301
302
303
304
305
306
307
308
309
31
310
311
312
313
314
315
316
3166667
317
318
319
32
320
321
322
323
324
325
326
327
328
329
33
330
331
332
333
3333333
334
335
336
337
338
339
34
340
341
342
343
344
345
346
347
348
349
35
350
351
352
353
354
355
356
357
358
359
36
360
361
362
363
364
365
366
3666667
367
368
369
37
370
371
372
373
374
375
376
377
378
379
38
380
381
382
383
3833333
384
385
386
387
388
389
39
390
391
392
393
394
395
396
397
398
399
4
40
400
401
402
403
404
405
406
407
408
409
41
410
411
412
413
414
415
416
4166667
417
418
419
42
420
421
422
423
424
425
426
427
428
429
43
430
431
432
433
4333333
434
435
436
437
438
439
44
440
441
442
443
444
445
446
447
448
449
45
450
451
452
453
454
455
456
457
458
459
46
460
461
462
463
464
465
466
4666667
467
468
469
47
470
471
472
473
474
475
476
477
478
479
48
480
481
482
483
4833333
484
485
486
487
488
489
49
490
491
492
493
494
495
496
497
498
499
5
50
500
501
502
503
504
505
506
507
508
509
51
510
511
512
513
514
515
516
5166667
517
518
519
52
520
521
522
523
524
525
526
527
528
529
53
530
531
532
533
5333333
534
535
536
537
538
539
54
540
541
542
543
544
545
546
547
548
549
55
550
551
552
553
554
555
556
557
558
559
56
560
561
562
563
564
565
566
5666667
567
568
569
57
570
571
572
573
574
575
576
577
578
579
58
580
581
582
583
5833333
584
585
586
587
588
589
59
590
591
592
593
594
595
596
597
598
599
6
60
600
601
602
603
604
605
606
607
608
609
61
610
611
612
613
614
615
616
6166667
617
618
619
62
620
621
622
623
624
625
626
627
628
629
63
630
631
632
633
6333333
634
635
636
637
638
639
64
640
641
642
643
644
645
647
648
649
65
650
651
653
654
655
656
657
658
659
66
660
661
662
663
664
665
666
6666667
667
668
669
67
670
671
672
673
674
675
676
677
678
679
68
680
681
682
683
6833333
684
685
686
687
688
689
69
690
691
692
693
694
695
696
697
698
699
7
70
700
701
702
703
704
705
706
707
708
709
71
710
711
712
714
715
716
7166667
717
718
7180
719
72
720
721
722
723
724
725
729
73
731
7318
732
733
7333333
735
737
738
74
740
741
742
743
744
745
747
748
75
750
753
754
755
756
757
758
759
76
760
761
762
763
764
765
7666667
77
770
771
773
774
775
778
78
782
7833333
784
785
786
787
788
79
790
791
792
795
796
797
798
799
8
80
800
801
802
803
805
81
811
8166667
818
82
822
825
827
828
83
830
832
8333333
837
838
84
840
842
844
845
846
847
85
850
854
855
857
858
86
861
862
865
866
8666667
869
87
870
871
872
873
875
878346
879
88
880
881
882
883
8833333
884
885
886
887
89
891
895
9
90
900
901
907
908
91
910
911
9166667
92
93
933
9333333
936
939
94
95
954
957
96
963
966
9666667
967
968
969
97
970
971
972
978
98
981
982
9833333
99
995
998
:
;
<
=
>
?
@
[
\
]
^
_
`
a
aa
aar
ab
abadie
abbas
abbild
abbott
abdel
abdullah
abecadle
abecadła
abecadło
abellini
aberrans
abh
abietina
abietis
abo
aboe
about
abraham
abrothallus
abscondita
absidia
absztimo
absztimu
abt
abth
abu
abundisporus
aby
ac
acacia
acaciae
acad
academia
academy
acantharia
acanthofungus
acanthophysium
acanthostigma
acanthothecis
acarospora
acarosporaceae
acaulopage
acaulospora
acaulosporaceae
accad
access
accommodate
acerina
ach
achaetomium
acharius
achroomyces
acicola
acipenser
acremonium
acrodictys
acrodontium
acrogenospora
acrospermum
act
acta
acuminata
acutum
ad
adam
adama
addit
additional
additions
adelaide
adhaerens
adjacent
adler
admin
administracji
adolf
adolph
adresowych
adresy
aduje
advances
aecidium
aequatoriensis
aesculi
afd
affinis
afr
africa
african
africana
africanum
africanus
africe
afriki
afroboletus
afryki
agan
agaric
agaricaceae
agaricales
agaricalium
agaricinam
agaricomycetes
agarics
agaricus
agarwal
age
agerer
aggregata
aggregatum
agiato
aglu
agnihothr
agonimia
agr
agric
agricultural
agriculture
agrocybe
agron
agrostidis
aguirre
ahmad
ahmed
ahti
ahtii
ai
aigialus
aime
ain
air
aires
airport
aisne
ajax
ajello
ajnfachowo
ajnflus
ajnflusym
ajo
aju
ak
akad
akanthomyces
akcyje
akcyjo
aktor
aktywnos
akwitan
al
alabama
alan
alaska
alb
alba
alban
albatrellaceae
albatrellus
albert
albertini
albicans
albida
albidum
albidus
albo
albu
album
albus
alcides
alcorn
ale
aleksander
aleksandra
alenc
aleuria
aleurodiscus
alexander
alfabet
alfabyt
alfenas
alfred
alg
alias
aliquandostipitaceae
alismatis
aliso
all
allantospora
allen
allesch
allg
allgem
allgemeine
allied
allies
allii
allionia
allmusic
allomyces
allophylaria
almeida
almq
alni
alnicola
alpes
alpestris
alphonso
alpina
alpine
alpinum
alstrup
alt
alternaria
alto
alutacea
alves
am
amandinea
amanita
amanitaceae
amarrendia
amauroascus
amauroderma
amaurodon
amazonensis
ambigua
ambispora
ambrosiella
ambrosiozyma
amer
america
american
americana
americanum
americanus
americe
amerikan
ameriki
ameriku
ameryce
ameryka
amerykan
ameryki
ameryko
ames
ammophilae
amoena
among
amorphomyces
amphirosellinia
amphisphaeria
amphisphaeriaceae
amsterdam
amt
amy
amygdalaria
amylocorticiaceae
amylocorticium
an
ana
anaberg
anais
anal
analoge
analysis
analyt
anam
anamorph
anamorphic
anamorphs
anaskosporogenen
anc
anceps
ancient
ancylistaceae
and
andaluzyjo
andaman
anderson
andes
andina
andinum
ando
andre
andrea
andreas
andrew
android
andromedae
andropogonis
andrzej
andrzeja
andyjskich
ane
anfang
anfanga
anfangu
ang
angeles
angelicae
angelski
angelskij
angelsko
angew
anguillospora
angus
angustata
angustispora
ani
anim
animal
anime
aniptodera
anisomeridium
aniz
anka
ann
anna
annaa
annaberg
annales
annali
annals
anne
annln
annls
annotated
annual
annulata
annulatascaceae
annulohypoxylon
anny
ano
anomala
anomalus
anomoporia
antarct
antarctic
antarctica
antennulariella
antherospora
anthostoma
anthostomella
anthracobia
anthracoidea
anthracoideaceae
anthracophyllum
antlich
anton
antoni
antonie
antonio
antrodia
antrodiella
antycznych
anu
anungitea
any
anzi
anzia
aoki
aoshima
aotearoa
aphanoascus
aphelaria
aphyllophorales
apiculata
apiculatum
apinis
apiognomonia
apiosordaria
apiospora
apiosporaceae
aplopsora
aplosporella
apodospora
aporomyces
appendage
appendiculata
appendiculatum
appendiculatus
appl
applanata
apple
approach
aptroot
apulijo
aquatic
aquatica
ar
arab
arabskich
arabsko
arach
arachnion
arachniotus
arachnopeziza
aramb
arambarri
arb
arbor
arbuscula
arbuscular
arch
archana
arche
archer
archeri
archf
archipelagu
archive
archos
arctic
arctica
arcticum
arcuata
ard
ardennes
arduenna
ardyny
are
areas
arena
arenal
arenaria
arendh
arenicola
areolata
arg
argent
argentea
argentina
argentinensis
argoviensis
argyntyn
argyntyna
arias
aristata
arizonica
arizu
ark
arkansas
armije
armijo
armillaria
armstr
armstrong
army
armyn
arnaud
arnium
arnold
arnolds
arr
arrangement
arrhenia
arski
art
artemisiae
arten
artens
arthonia
arthoniaceae
arthopyrenia
arthopyreniaceae
arthothelium
arthrinium
arthrobotrys
arthroderma
arthrodermataceae
arthrographis
arthropod
arthrorhaphis
arthur
arthuria
arti
artige
artikel
artikla
artikle
artomyces
arts
artysta
aru
arundinacea
arundinis
arup
arx
arxii
ary
arzanlou
as
asahina
aschersonia
ascobolaceae
ascobolus
ascocarpous
ascochyta
ascodesmidaceae
ascodesmis
ascoidea
ascom
ascomycete
ascomyceten
ascomycetengattung
ascomycetes
ascomycetous
ascomycota
ascomycotina
ascophanus
ascosphaera
ascosphaeraceae
ascospores
ascosporogenous
ascotaiwania
ascotricha
ascozonus
asellaria
asia
asiatica
aspera
aspergillus
aspicilia
aspidothelium
asproinocybe
aspx
assimilating
assoc
associated
association
asterina
asterinaceae
asterinella
asteroma
asteromella
asterophora
asterostroma
asterothyrium
asterotremella
astragali
astro
astrocystis
astrosphaeriella
astrosporina
astrothelium
astru
asus
at
atas
aterrima
athelia
atheliaceae
athelopsis
atk
atkinson
atla
atlantica
atlantyckigo
atlantyckim
atlas
ato
atoli
atp
atra
atractiella
atrovirens
atrum
atti
atu
au
aubigny
auct
aude
auersw
auerswald
auf
auflage
aufsztand
aufteilung
augsburg
august
augustin
augusto
aurantia
aurantiaca
aurantiacum
aurantiacus
aurantiosporium
aurea
aureum
auricularia
auriculariaceae
auriculariales
auriscalpiaceae
auriscalpium
auritella
aurora
aus
aust
austral
australas
australasia
australasian
australe
australia
australian
australiense
australiensis
australije
australiji
australijo
australis
austriji
austrijo
austro
austrogautieria
austropaxillus
austrosmittium
austryje
austryjo
aut
auta
auto
autobana
autogr
autographica
auton
autopilot
autor
autorka
autorym
autorytatywno
autu
auvergne
aux
auxarthron
av
avancem
aveskamp
avicii
awa
awasthi
axel
axon
az
azbukina
azerbejdz
azur
azyje
azyji
azyjo
ała
ało
ałtajsko
ały
b
ba
bab
baba
babc
babcock
babu
baby
bacidia
bacidina
back
backus
bacon
bact
bacteriol
bactrodesmium
bactrospora
bad
badan
baden
badia
bado
badyn
baeodromus
bagl
bagliettoa
bagnisiopsis
bai
baijal
bailey
baillargeon
bailly
bainier
bajery
bajszpil
bajtla
bajtle
bajtli
bajtlu
baker
bakeri
bakshi
bakt
baku
bal
bala
balansia
balazy
balcanica
bale
balladyna
ballistosporous
bambusae
bambusicola
bambusina
ban
bana
band
bandoni
banker
bankeraceae
banno
banowo
baptiste
bar
baral
baran
barbara
barbata
barber
barcelona
barcelu
barclay
barker
barnett
barnettozyma
baroni
barr
barrasa
barreto
barrmaelia
barron
barthol
bartoli
bary
barzi
barzij
barzo
bas
based
basehoar
basgitara
basidiocarp
basidiodendron
basidiomyc
basidiomyce
basidiomycetes
basidiomycetous
basidiomycota
basidiomycotina
basowo
bass
basshunter
bat
bataliji
batalijo
batavia
bathelium
batista
batko
batkoa
batra
batsch
battista
battle
bauer
bauerago
bauerstwje
bauerstwo
bauhinus
bauko
baupilze
bavar
baxter
bay
bayer
bayern
bayl
baz
baza
bazie
bazowe
bazowo
bazowych
bazowym
bbc
bbeler
bchodzo
bd
be
beach
bearing
beaton
beaupre
beauveria
bec
beck
becker
becnie
becyrku
beeli
beenakia
beer
beetles
beever
begerow
begum
bei
beibl
beih
beihefte
beitr
beitra
beitrage
bejzdrzij
belg
belge
belgije
belgiji
belgijo
belgique
beliakova
belize
bell
bella
bellemerea
belonging
belonia
belonidium
belonium
belonopsis
beltraniella
ben
bender
benedetto
benj
benjamin
benjaminiomyces
benkert
benny
bensingtonia
ber
berberidis
berch
berg
bergen
bergman
bergmu
berk
berkeley
berkeleyi
berkhout
berkleasmium
berl
berlese
berlin
bern
bernard
berndt
bernhard
bernicchia
bernice
berol
bertault
berthet
berthier
bes
beskid
beskidu
beskidz
best
bestu
betulae
betulina
betulinum
between
beyma
bez
bezerra
bezma
bezto
beztu
beztuz
bhat
bhatt
bi
biatora
biatorella
biała
biblije
biblijo
biblio
biblioth
biblthca
bibsys
bicknell
bicolor
bicornis
bidaud
bidr
bie
biekto
biformis
bifusella
big
bigelow
bih
biju
bilai
billon
bills
binder
bio
biochem
biodiversity
biography
biol
biologia
biological
biology
bionectria
bionectriaceae
biosc
biotechn
biotrophic
biourge
biovigyanam
bioło
bioły
biołyj
bipolaris
bis
bisby
biscogniauxia
biseptata
bishop
biskup
biskupa
bispora
bisporella
bisporum
bissett
bitanc
bitter
bitunicate
bitwa
bivallum
bjalskim
bjalskopodlaskigo
bjelany
bjelskim
bjere
bjeru
bjo
bjografijo
bjoł
bjołe
bjoło
bjołorus
bjołyj
bkoło
bla
black
blackw
blackwell
blade
blanco
blank
blastobotrys
blastocladiaceae
blastocladiella
blaszk
blaszkowski
blek
blica
blisko
bliz
blova
blue
blum
blumer
blyczynia
blyczynie
bncf
bne
bnf
bo
bob
boedijn
boehm
boekhout
boerema
boeremia
boerlagiomyces
boertmann
boesew
boga
bohem
bohemoslov
boidin
boidinia
bois
boise
boissier
bojo
boju
boku
bol
bolbitiaceae
bolbitius
bolesław
bolesława
boletaceae
boletales
boletes
boleti
boletinellaceae
boletopsis
boletus
boliniaceae
boll
bolm
boln
bologna
bolton
bombardioidea
bommer
bon
bonar
bondartsev
bondartseva
bondarzewiaceae
boninensis
bonord
bonorden
book
boom
booth
boothii
bor
bordeaux
boreale
borealis
borelli
borgo
borki
borne
borneensis
borneo
bos
bosch
bose
boston
bot
bota
botan
botanica
botanical
botanici
botanik
botanique
botanisches
botaniste
botany
bothalia
botryobasidiaceae
botryobasidium
botryodiplodia
botryosphaeria
botryosphaeriaceae
botryosphaeriales
botryotinia
botrytis
boubovia
boud
boudier
boudiera
bougher
bourdot
bourg
bourgoin
bovista
bowio
bowler
bowles
box
boz
boza
bozu
bp
br
brabancyjo
brac
brachydesmiella
brachypodii
brachysporium
bracket
brady
bragantia
brain
brak
braku
brand
brandenb
brandenburg
brandynburgijo
brany
brasil
brasileira
brasiliense
brasiliensis
brasiliomyces
brassicae
brat
bratislava
brattiae
braun
brayford
brazil
brazilian
brazyliji
brazylijo
bref
bremen
bres
bresa
bresadola
bresadolae
bresinsky
breslau
bretan
breton
breuss
brevicellicium
brevipes
brevispora
brian
briard
bridge
brigantiaea
brigitte
briosi
brit
britain
britannica
british
brittonia
britzelm
brno
bro
brodo
brooks
broome
brote
broteriana
brown
bru
bruce
brumm
brummelen
brun
brunaud
brunei
brunnea
brunneiapiospora
brunneola
brunnescens
brunneum
brunneus
brunonia
brusse
brux
bruxelles
bryce
bryochiton
bryol
bryologist
bryomyces
bryonectria
bryonora
bryorella
bryoria
bryoscyphus
bryosphaeria
bryostroma
brytan
brytanije
brytanijo
brytyjske
brytyjski
brytyjskigo
brytyjskij
brytyjsko
brzeskim
brzez
brzygu
bu
buba
buchanan
buchsztaba
buchsztaby
buchw
buckley
budo
budowa
budowy
budy
budz
buellia
buenos
buffalo
buglossoporus
bugnic
buhagiar
buitenz
buitenzorg
buktryfflar
bulbothrix
bull
bullata
bullera
bulletin
bulliard
bungartz
bunodophoron
burds
burdsall
bureau
burgeff
burgess
burgu
buritica
burrillia
burt
business
but
butin
butler
buxi
buy
buyck
bułg
bułgaryji
by
byc
bycio
bycz
bydo
bydu
bydz
bydzie
byjmuje
byjmujo
byl
byli
byn
byssocorticium
byssoloma
byssosphaeria
byto
bytom
bytu
bywo
był
była
było
były
bło
c
ca
cabello
cabi
cadophora
caes
caespitosa
cafaro
cahiers
cai
cailleux
cain
cajto
cajtu
calais
calami
calat
calathella
caldasia
calduch
cale
caledonia
caliciaceae
calicium
calif
california
californica
californicum
callistosporium
calocera
calocybe
calonectria
calonge
calopadia
caloplaca
calosphaeria
calosphaeriaceae
calosphaeriales
calospora
calvados
calvatia
calvitimela
calvo
calycella
calycellina
calycina
calyptella
camarophyllopsis
camarophyllus
camarops
camarosporium
camarotella
cambios
cambridge
camelliae
cameroon
camillea
camon
campanella
campb
campbell
campestris
campos
camposporium
camptomyces
can
canad
canada
canadensis
canadian
canariensis
cand
candelabrochaete
candelabrum
candelariaceae
candelariella
candida
candidum
candolle
candoussau
cannon
cano
canomaculina
canoparmelia
canter
cantharellaceae
cantharelloid
cantharellus
cantharomyces
cape
capensis
capitata
capnobotrys
capnodiaceae
capnodiales
capnodium
capr
capronia
carbacanthographis
carbonea
cardona
caribbean
caricae
caricicola
caricina
caricis
carl
carlo
carlos
carlsberg
carmich
carmo
carnea
carnegie
carneum
carniol
carnivora
carol
carp
carpol
carter
caryospora
cas
cash
casimir
castagne
castan
castanea
castaneae
castell
castellano
castlebury
cat
catacauma
catal
catalogue
catapyrenium
cataractispora
catarina
catenaria
catenochytridium
catenulostroma
catillaria
catillariaceae
caucasus
caudata
caulicola
causal
caused
causing
cavalc
cavalcante
cavara
cbs
cd
cdot
ce
cech
cechuje
cechy
cellule
celtidis
cenangium
census
center
central
centralblatt
centre
centrum
century
cephaliophora
cephalosporium
cephalotheca
cephalotrichum
cera
ceraceomyces
ceramothyrium
ceratellopsis
ceratobasidiaceae
ceratobasidium
ceratocystidaceae
ceratocystiopsis
ceratocystis
ceratomycetaceae
ceratorhiza
ceratosebacina
ceratosphaeria
ceratosporella
ceratostomataceae
ceratostomella
cercidospora
cercophora
cercospora
cercosporella
cercosporoid
cerinomyces
ceriosporopsis
ceriporia
ceriporiopsis
cerkew
cerkwije
cerocorticium
cerotelium
cervina
ces
cesati
ceska
ceske
cesta
cesty
cet
cetrelia
ceuthospora
ch
cha
chaconia
chaconiaceae
chadefaudia
chaenothecopsis
chaetomella
chaetomiaceae
chaetomidium
chaetomium
chaetosphaeria
chaetosphaeriaceae
chaetosphaerulina
chaetothyriaceae
chaetothyrium
chaetotyphula
chalab
chalara
chalciporus
chalm
chamaeota
chamonixia
champ
champignons
champions
chang
changbai
chaplin
chapsa
characterization
characters
chardo
charente
charentes
charles
chart
chartarum
charts
chasti
chaverri
chaves
chc
chcioł
che
checa
check
checklist
cheilymenia
chelsea
chemistry
chen
cheng
chenopodii
cher
cherbourg
chester
chesters
chevall
chełmin
chi
chicago
chiel
chien
chiesanuova
child
chile
chilense
chilensis
chin
china
chinach
chinu
chiny
chionosphaera
chirayathumadom
chitonomyces
chivers
chlorociboria
chlorophyllum
chlorovibrissea
chn
cho
choby
choc
chocio
chodz
chojn
chop
chopo
chopu
chordata
chorwacyji
chorzo
chorzu
chou
chr
chris
christ
christan
christiaan
christian
christiania
christmas
chro
chromelosporium
chron
chroodiscus
chroogomphus
chru
chrysomyxa
chrysosporium
chrysothrix
chu
chun
chung
chupp
church
churchill
chusqueae
chymicznych
chytridiaceae
chytridiales
chytridiomycetes
chytridiomycota
chytridium
chytriomyces
chyz
ci
cia
ciała
ciało
ciboria
ciborinia
ciccar
cie
cienc
ciencias
cient
cieszyn
cieszyna
cieszynie
cif
ciferri
cij
cijo
ciliata
ciliolarina
cilonema
cilonemataceae
cincinnati
cinerascens
cinerea
cinnamomea
cintractia
cio
cionothrix
cioła
cioło
circ
circinans
circinata
circinella
circinotrichum
circumscription
cirrenalia
cirsii
cis
cistella
citri
citrina
city
ciu
ciy
ciynz
ck
cker
cki
cking
cl
clade
clades
cladiytriaceae
cladiytrium
cladobotryum
cladonia
cladoniaceae
cladoniae
cladoniicola
cladophialophora
cladorrhinum
cladosporium
clara
claridge
clark
clarkii
class
classif
classification
clasterosporium
clathrospora
claude
claussenomyces
clauzade
clauzadea
clavaria
clavariaceae
clavariadelphaceae
clavariadelphus
clavarioid
clavata
claviceps
clavicipitaceae
clavicipitaceous
clavidisculum
clavispora
clavulina
clavulinaceae
clavulinopsis
cle
cleland
clelandii
clem
clematidis
clemensiae
clements
clerc
clifford
clin
clinical
clinton
clitocybe
clonostachys
closely
club
clypeosphaeriaceae
cm
co
coast
coby
coccocarpia
coccodiella
coccomyces
cocconia
cochliobolus
cocoe
cocoicola
coelomycete
coelomycetes
coelomycetous
coem
coemansia
coenogoniaceae
coenogonium
coffeae
coffeicola
cohn
coimbra
coker
col
cole
colenso
colensoi
coleophoma
coleoptera
coleosporiaceae
coleosporium
coleroa
coll
collected
collection
collections
college
collema
collemataceae
collemopsidium
colletotrichum
collins
collybia
colomb
colombia
colombiana
colon
colpoma
coltricia
columbia
columbiana
columella
com
comb
combination
combinations
comm
comments
common
commons
communis
commutata
comoclathris
comp
compacta
compactum
company
complanata
complete
complex
compsomyces
compt
comptes
comte
con
concentrica
concentricum
concept
concepts
concinna
concolor
conferta
confluens
confusa
congesta
congo
congr
conica
conidia
conidial
conidiobolus
coniella
coniochaeta
coniochaetaceae
coniochaetales
coniophora
coniothyrium
connecticut
connections
conocybe
consequences
consociata
consp
conspectus
constant
constricta
cont
content
contr
contrib
contribution
contributions
control
contu
cook
cooke
cookei
cooper
copenhagen
coppins
coppinsii
coprinellus
coprinopsis
coprinus
coprophila
coprosmae
coprotus
coralloidea
corc
corda
cordana
cordyceps
cordycipitaceae
core
coriolopsis
cornelius
cornell
corner
corni
cornu
cornuta
cornutispora
coro
corollospora
coronata
coronavirus
coronellaria
coronicium
coronophora
coroz
corrections
cortic
corticiac
corticiaceae
corticioid
corticium
corticola
cortinaires
cortinariales
cortinarioi
cortinarioid
cortinarius
coryli
corylophomyces
corynascus
coryne
corynelia
coryneliaceae
corynespora
corynesporopsis
coryneum
cos
cosmospora
costa
costantin
costaricensis
cotylidia
couch
countries
country
county
courtec
courtecuisse
covid
cołke
cołki
cołkigo
cołkij
cołkim
cołko
cołkos
cracovie
crane
crassa
crassipes
crassum
crataegi
cratiria
crepidis
crepidotaceae
crepidotus
crespo
cresponea
cresporhaphis
cribb
crinipellis
cristelloporia
cristinia
crit
critical
critt
crittog
crittogam
crivelli
croc
crocicreas
croissent
cromb
cronartiaceae
cronartium
crossl
crossopsora
crost
crouan
crous
crustacea
crustoderma
cruz
cryphonectria
cryphonectriaceae
crypt
cryptadelphia
cryptocline
cryptococcus
cryptocoryneum
cryptodiaporthe
cryptodiscus
cryptog
cryptophiale
cryptosphaeria
cryptosporella
cryptosporiopsis
cryptosporium
cryptovalsa
cu
cuba
cubana
cubense
cubenses
cubensis
cubitt
cucujomyces
cucurbitaria
cucurbitariaceae
cug
culb
culberson
culmicola
cult
cultural
culture
cum
cummins
cumminsiella
cunn
cunningham
cunninghamella
cunninghamellaceae
cunninghamii
cup
cur
curazia
curr
currah
curreyi
curtis
curtisii
curvispora
curvularia
curzi
cuzamyn
cvetk
cwekym
cy
cyanescens
cyatheae
cyathus
cyberlindnera
cycaczy
cych
cycloschizon
cyfstofilobasidiaceae
cyj
cylindrica
cylindrobasidium
cylindrocarpon
cylindrocladiella
cylindrocladium
cylindrospora
cylindrosporium
cylindrosporum
cylindrotrichum
cylu
cym
cymatoderma
cynodontis
cyntru
cyntrum
cyperaceae
cyperi
cyphelium
cyphellaceae
cypr
cyptotrama
cyso
cystangium
cystobasidium
cystoderma
cystodermella
cystofilobasidium
cystolepiota
cystopage
cystostereum
cystotheca
cystotheceae
cytat
cytospora
cyttaria
cytuj
cz
cza
czas
czasach
czasie
czaso
czasu
czasy
czasym
cze
czech
czechach
czechosłowacyje
czechy
czego
czern
czerwca
czerwo
czes
czeski
czeskich
czeskigo
czeskij
czeskim
czesko
czesku
czile
czo
czorno
czornym
czowieka
czowjeka
czu
czy
czygo
czyli
czym
czyn
czyns
czynsto
czyrwca
czyrwjec
czyrwju
czyrwn
czyrwnia
czyrwo
czyła
człu
d
da
dac
dacampia
dacampiaceae
dacrymyces
dacrymycetaceae
dacryopinax
dactylaria
dactylella
dactylospora
dactylosporaceae
daedalea
dagestan
dagesto
dai
dajo
dakota
dakotensis
dal
dalbey
daldinia
dali
dalij
dalnego
dalsze
dalszych
dan
dance
dane
dang
danic
daniel
daniels
danish
dans
dansk
danych
danyj
dariusz
dariuszd
dark
darker
darwiniana
das
dasyscyphella
dasyscyphus
data
databasen
databases
date
dave
david
davidiella
davidiellaceae
davidson
davis
davisomycella
day
dała
dc
dca
dce
de
dead
dearden
dearn
death
debaryomyces
decaying
decipiens
decock
decolorans
decyzyjo
define
definicyjo
definition
deflexula
deformans
degawa
degel
dei
deighton
deightonii
dej
dek
dekk
dekkera
del
delacr
delas
delhi
delicata
delicatula
delimitation
delineata
delitschia
delitschiaceae
dell
della
delta
dem
dematiaceae
dematiaceous
deml
demoulin
den
denchev
dendrodochium
dendrophoma
dendrospora
dendrothele
dendryphion
denison
denkschr
denmark
dennis
dennisiella
dennisii
dennisiomyces
densa
densospora
dep
departamyn
departamync
departamyntu
department
depressa
depriest
dept
der
derm
dermateaceae
dermatocarpon
dermatosorus
dermea
dermocybe
dermoloma
des
descals
descolea
descr
described
description
descriptions
desert
desertorum
deshp
designated
desire
desjardin
desm
desmazie
desmazieri
det
detailed
determined
deuteromycetes
deuteromycotina
deutsch
deutsche
deutschen
deutschl
deutschland
deux
development
devon
devriesia
deł
di
diacanthodes
diadema
diagnoses
dialekt
dianese
dianthi
diaporthaceae
diaporthales
diaporthe
diatrypaceae
diatrype
diatrypella
dicephalospora
dicheirinia
dichomitus
dichostereum
dichotomocladium
dichter
dick
dickinson
dicks
dicosmo
dictionary
dictyochaeta
dictyochaetopsis
dictyonella
dictyonema
dictyopanus
dictyosporium
diddens
didymella
didymocyrtis
didymopsora
didymosphaeria
didymosphaeriaceae
die
died
diederich
diego
dienst
dierckx
dietel
dietelia
diffusa
diheterospora
dimargaris
dimelaena
dimitic
dimorpha
dimorphospora
dinemasporium
dingley
dingleyae
diorchidium
dioscoreae
diospyri
diphymyces
diplocarpon
diplococcium
diplodia
diplodina
diplomitoporus
diplonaevia
diplophlyctis
diploschistes
diplotomma
dipodascaceae
dipodascus
dirinaria
dis
dischloridium
discinella
disciseda
discogs
discolor
discom
discomyc
discomycete
discomyceten
discomycetes
discosia
discosphaerina
discosporium
discostroma
discovery
discreta
discula
disease
diseases
disney
dispira
displaystyle
disposition
diss
dissing
distans
distinct
distopyrenis
distribution
div
divakar
diversity
division
dixon
dj
djalekt
djalektu
djalykt
djalyktu
dka
dki
dko
dla
dlauchy
dlo
dmy
dn
dna
dne
dni
dnia
dniu
do
doassansiaceae
doassansiopsis
dobro
dobry
dobrze
doc
dochtu
document
docums
dodge
dogma
dogrywce
doi
doidge
dokludziyło
doko
doku
dola
dolan
doległos
dolne
dolnego
dolno
dolnos
dolny
dolnyj
dolnym
dom
domanski
domingensis
don
donadini
donald
donia
donk
donnell
dopiyro
dopływ
dortmund
dos
dostac
dostała
dostoł
dostymp
dostympny
dostympu
doszło
dothidea
dothideaceae
dothideales
dothidella
dothideomycetes
dothiora
dothioraceae
dothiorella
dowaju
down
downe
downo
downy
dowo
dowych
doł
dr
dra
drach
dream
drechsler
drechslera
drepanopeziza
dring
dro
droga
dru
druge
drugi
drugigo
drugij
drugim
drugo
druz
druzhinina
dry
dryadis
dryina
ds
dsir
dt
du
dual
dubia
dublin
duby
duen
dufour
duge
dugi
dugo
dugos
dumont
dun
dung
dunn
duportella
dura
durandiella
durch
durella
durham
durieu
durs
duss
duz
dvd
dwa
dwadz
dwie
dwje
dwo
dwu
dwudz
dy
dycki
dygo
dyj
dykcju
dyko
dym
dymokratyczno
dymokratycznyj
dynastyje
dynkmal
dynor
dyntaxa
dystrykc
dystrykt
dystryktu
dz
dze
dzenie
dzi
działalnos
działo
dzie
dziedzictwa
dzieje
dzieli
dzielnica
dziemia
dzien
dziennik
dziernika
dzierz
dziesio
dzieło
dzij
dzis
dzisiej
dzisioj
dziyn
dziynki
dziyrnika
dzke
dzkim
dzko
dztwa
dztwie
dztwje
dztwo
dła
dło
dłym
e
earle
early
earth
east
eastern
ebje
ebne
ebnos
eboh
ebry
ec
ech
echinata
eching
echinodontium
echinospora
echinulata
eckblad
eckim
ecol
ecology
econ
ectolechiaceae
ecuador
ed
eda
edgar
edicions
edin
edinb
edinburgh
editio
edition
editor
edlce
edle
edlecki
edleckigo
edleckim
edn
eds
edu
eduard
edvard
edward
edycyjo
edytuj
edz
eesti
effusa
effusum
egan
egatea
egea
egipc
egiptu
ego
ehrenb
ehrenberg
eicker
eid
eidam
ein
eine
einer
ej
ejowskim
eju
ek
ekman
eko
ekonomicznych
ekstra
eku
ekwadu
el
ela
elain
elaphocordyceps
elaphomyces
elblu
ele
elefantowych
elegans
elektro
elektru
elench
eleven
eli
elias
elinu
elisha
elix
elixii
ell
elliott
ellipsoidea
ellipsospora
elliptica
ellis
ellisii
elmerina
eln
elne
elongata
elongatum
elsie
elsinoaceae
elsinoe
elu
elym
elymynt
elymynta
elymynto
elymyntym
elz
em
emanuel
embellisia
emden
emend
emendation
emericella
emericellopsis
emi
emil
emile
emilijo
emory
empetri
emphasis
en
enchir
encoelia
encycl
encyclop
encyclopedia
encyklopedia
end
enderle
endiytriaceae
endiytrium
endocarpon
endococcus
endodothella
endogonaceae
endohyalina
endomelanconium
endomycetaceae
endoparasites
endoperplexa
endophragmiella
endophyllum
endophyte
endoptychum
endoraecium
endoxyla
engl
england
engler
englerulaceae
english
enterographa
entoloma
entolomataceae
entomopathogenic
entomophaga
entomophthora
entomophthoraceae
entomophthorales
entophlyctis
entorrhiza
entrophospora
entyloma
entylomataceae
enum
environs
ep
ephebe
epibryon
epichloe
epicoccum
epicr
epilobii
epiphylla
epipolaeum
epithele
epjyro
epoka
epoki
equiseti
er
era
erast
erb
erbnu
erbowizny
erebus
ergebn
eric
ericae
erichsen
erik
erikss
eriksson
erioderma
eriosphaeria
erlanga
ern
ernest
ernst
erratomyces
erubescens
erumpens
erynia
erysiphaceae
erysiphe
erysipheae
erz
es
esch
eschw
esenbeck
eske
esp
espan
espe
essai
essex
essl
esslinger
est
esteve
estonica
estonskoi
estu
esty
eszyn
et
etayo
ethnologue
etn
etude
eu
euagarics
euantennaria
euantennariaceae
eucalypti
eucalyptorum
eucalyptus
eugeniae
euonymi
eupatorii
eupenicillium
euphorbiae
eupropolella
eur
europ
europa
europe
european
europejskiego
eurotiales
eurotiomycetes
eurotium
eurovoix
euryancale
eutypa
eutypella
ev
evaluation
evans
everh
everniastrum
evert
evol
evolution
evrop
ew
ewa
ewickigo
ewicy
ewju
ewo
ewolucyje
ex
exact
excluded
exidiopsis
exigua
exobasidiaceae
exobasidium
exophiala
exosporium
exot
exp
expansion
exped
expedition
experimental
exs
exserohilum
exsic
exsicc
exsiccati
extr
ez
eła
f
fa
fabae
fabre
fac
fachu
factbook
faculty
fagi
fagicola
faginea
fago
faisalabad
fajer
falcata
fallah
fallax
fam
familia
families
familije
familiji
familijo
family
fan
fana
fany
far
farba
farby
farinacea
farinosa
farl
farlow
farlowia
farlowii
farr
farysia
fasc
fascicle
fasciculata
fasciculatum
faso
fater
fatra
fauna
faurel
fautrey
favolaschia
favolaschiaceae
favre
fayod
fazie
fc
fe
feat
feddes
federacyje
federacyji
feeding
feler
felidae
fell
fellhanera
feltgen
fems
fenestella
fenn
fennell
fennica
ferajn
ferajnu
ferd
ferdinand
ferment
ferna
fernando
ferraris
ferrarisia
ferreira
ferrer
ferrington
ferruginea
fertilis
ferwaltu
fest
festival
festiwal
festiwalu
festucae
ff
ffad
fi
fici
ficjalnie
ficjalno
fick
ficyjno
fidalgo
fide
fidz
field
fieldiana
fifa
fig
figueras
fiji
filicina
filiformis
filipinach
film
filmach
filmie
filmje
filmo
filmowo
filmowy
filmu
filmweb
filmy
filozof
filson
fimbriata
fimetariella
fimeti
fimicola
fin
finale
find
finiste
fink
finl
finlandyji
finlandyjo
finns
firenze
firma
firmy
first
fis
fisch
fischer
fischeri
fisher
fissurina
fistulina
fistulinella
fisza
fitopatol
five
fizycznych
fizyk
fizyka
fizyki
fl
flabellophora
flabellospora
flaccida
flagelloscypha
flammulaster
flandres
flava
flavescens
flavida
flaviporus
flavoparmelia
flavopunctelia
flavovirens
flavus
flechten
flexuosum
flo
floccularia
flora
floram
flore
florence
florida
florule
flot
flower
flowers
floyd
flug
fo
fogel
folia
foliacea
foliicola
foliicolous
folk
follmann
fomes
fomitopsidaceae
fomitopsis
fonseca
food
football
for
forest
forestry
forests
form
forma
formerly
formie
forming
formosa
formosana
formosanum
formy
forssell
forstw
fort
foster
fotkarakta
found
foundation
four
fourn
fox
fr
fra
frac
frag
fragariae
fragilis
franc
france
franche
francis
francisco
franciszek
franciszka
franco
francuski
francuskigo
francuskij
francusko
francyje
francyji
francyjo
frank
frankfurt
franklin
franz
fraser
fraxini
frederic
frederick
free
freire
french
fresen
fresenius
freshwater
freunde
frey
freycinet
freycinetiae
friedrich
fries
friesia
friesii
frisch
frisvad
fro
froid
from
frondicola
fronds
fructicola
fruit
fruticans
fryday
fryderyk
fryderyka
ft
fto
ftorou
ftory
fu
fuckel
fuckelii
fuegiana
fuegiani
fuego
fujikuroi
fuliginosa
full
fulva
fumiglobus
fumosa
fung
fungal
funghi
fungi
fungicola
fungicolous
fungorum
fungous
fungujo
fungus
funk
funkcjo
funkcyje
funkcyjo
furcata
furfuracea
furia
further
furuk
furuya
fusaria
fusariella
fusarium
fusbal
fusbalklub
fusbalok
fusbalowy
fusbalu
fusca
fuscescens
fuscidea
fuscideaceae
fuscolachnum
fuscopannaria
fuscoporia
fuscum
fuscus
fusicladium
fusicoccum
fusiformis
fusispora
fusisporum
fvers
fyrlo
fyrma
fyrmy
g
ga
gabu
gadanho
gadz
gaeumannomyces
gaillard
gal
gala
galaxy
galerella
galerina
galeropsis
galeryjo
galii
gall
gallacea
gallica
gallischen
galloway
galzin
galzinia
game
games
gams
gamundi
gamundia
gan
gandhe
gange
ganoderma
ganodermataceae
garci
garcia
gard
garden
garonne
garrido
gary
gas
gasteromycetes
gastroboletus
gastromycetes
gato
gatt
gattung
gatu
gaudichaud
gautieria
gay
gaz
gazeta
gdan
gdn
gdns
ge
geastrum
gebiete
geest
geesteranus
gei
geiser
gelasinospora
gelatinopsis
gelatinosa
gelopellis
gelyuta
gemeinde
gen
gene
genera
general
genere
generic
genes
genistae
geno
genre
genres
genus
geobot
geoglossaceae
geoglossum
geograficzny
geopora
georg
george
georgefischeriaceae
georges
georgia
geosmithia
geotrichum
ger
gerais
geranii
gerard
gerd
gerhard
germ
germain
german
germanici
germany
gerronema
gerwasia
ges
gesammtgeb
geschichte
gesell
gesellsch
get
geu
gewa
ghana
ghosh
gi
giacopo
gibbera
gibberella
gibellula
gibko
gibson
gifomitsety
gigantea
gigaspora
gigasporaceae
gilb
gilbert
gilbertson
gilkey
gilles
gillet
gilman
gilmaniella
ginns
giorn
giovanni
giralt
girl
girls
gitara
gitary
gitarzista
gitta
gjaerum
gks
glabra
glabrocyphella
glasgow
glauca
glen
glendale
glenn
gliocephalotrichum
gliocladium
gliomastix
gliophorus
gliwice
glo
global
globispora
globosa
globosum
globulifera
glockling
gloeocystidiellum
gloeomucro
gloeophyllaceae
gloeophyllum
gloeoporus
gloeosporium
gloiocephala
gloiothele
glomales
glomeraceae
glomerata
glomerella
glomerellaceae
glomeromycetes
glomeromycota
glomus
gloniella
gloniopsis
glonium
glotzia
glyphis
glywicach
gmel
gmin
gmina
gminie
gminu
gminy
gn
gnatu
gnd
gnomonia
gnomoniaceae
gnomoniella
gnu
go
god
godaju
godce
godek
godka
godkach
godki
godku
godo
godronia
godz
godziny
gogo
gogolin
goh
goid
gola
gold
golubev
gomphaceae
gomphidiaceae
gomphidius
gomphillaceae
gomphus
gonnermann
gonz
gonza
google
goos
goplana
gordon
gorgoniceps
gos
goso
gospodarce
gospodarka
gospodarki
gostyn
goto
gottfried
gottlieb
gottlob
gov
government
govt
gowa
goward
gowy
gr
gra
gracile
gracilis
graddon
graju
graminella
graminicola
graminis
graminum
grammothele
gran
grand
grande
grandis
grandispora
granica
granicach
granice
granicy
graniczo
graniczy
granmo
granulosa
graphidaceae
graphina
graphis
graphium
graphyllium
grasses
gray
graz
great
greater
greatest
grecki
greckij
grecko
grecyje
grecyji
grecyjo
green
greene
greg
gregaria
gregory
greifswald
grelet
gremmen
gresl
greslebin
grev
greville
grevillea
grgur
grgurinovic
grib
gribov
griby
gries
griffiths
grifola
grisea
griseum
griseus
gro
grodko
grodz
grodzki
groenewald
groenlandica
grosmannia
grotta
grou
group
groups
grove
groves
groß
groł
gru
gruba
grube
grubio
gruby
grudn
grudnia
grudz
grup
grupa
grupy
gruyter
gruz
gruzyje
gruzyji
gry
gryfin
grygu
gryzenh
grzegorz
grzegorzg
grzib
grzibo
grziby
grzybo
grzyby
grønland
gsmarena
gu
guadeloupe
guangdong
guarro
guba
guchołazy
gucht
gue
guez
guianensis
guide
guignardia
guinea
gul
guli
guo
gupta
gus
gustaf
gustav
gut
guu
guy
guyana
guyot
guzma
gwara
gwinyji
gwinyjo
gwio
gwoz
gyalectaceae
gyalidea
gyalideopsis
gyeln
gyelnik
gymnascella
gymnoascaceae
gymnoascus
gymnoderma
gymnomyces
gymnopilus
gymnopus
gymnosporangium
gyn
gynau
gynstos
gyoerffyella
gyromitra
gyrothrix
gyszichc
gyszichta
gyszichtowo
gyszichty
gło
głogo
głogu
głos
głu
h
ha
haase
habana
habitats
haematomma
hafellia
hafellner
hafte
hagedorn
haines
hajiti
hajnel
hale
halei
halemba
hall
halle
hallenb
haller
halling
haloguignardia
halophila
halosarpheia
halosphaeria
halosphaeriaceae
halst
hamam
hamamoto
hamaspora
hambleton
hamburg
hamers
hamilton
hammer
hampe
hampshire
han
hanchett
handb
handel
handl
handlu
hanlin
hans
hansen
hanseniaspora
hansf
hansford
hapalophragmium
hapalopilus
haplotrichum
haptocillium
har
hara
harada
hard
harkn
harknessia
harmaja
harold
harore
harpellaceae
harpellales
harposporium
harr
harrington
harris
harrison
harry
hartford
harvard
harz
has
hashioka
hasse
hatt
hattmurkla
hattori
hauerslev
hauskn
hausknecht
hausner
haute
hauts
havniae
hawai
hawaii
hawaiian
hawaiiensis
hawker
hawksw
hawksworth
hawyna
hazsl
he
heart
heat
heavy
hebd
hebeloma
hebr
hederae
hedl
hedwigia
hefearten
hefen
hefte
hegermila
heim
heimat
heimii
heimioporus
hein
heinem
heinemann
heinrich
helicodendron
helicogermslita
helicogloea
helicogonium
helicoma
helicomyces
helicosporium
hell
hellb
helminthosphaeria
helminthosphaeriaceae
helminthosporium
helotiaceae
helotiales
helotium
helv
helvella
helvellaceae
helvetica
hemimycena
hemiphacidiaceae
hemisphere
hemithecium
hemmes
hendersonia
hendrik
henicospora
henkel
henn
hennebert
hennen
hennings
henri
henry
henryk
henssen
hepp
heraclei
herb
herbarum
hercegowin
hercegowiny
heredia
hericiales
hericium
hermann
herna
herpotrichia
herpotrichiellaceae
herre
herrera
herriot
hertel
herzogia
hesler
hess
hesselt
hesyjo
heterobasidiomycetes
heterobasidion
heterochaete
heterodermia
heterodoassansia
heterogene
heteroplacidium
heteroporus
heterosphaeria
heterospora
hexagonia
hibernica
hiemalis
high
higher
hilber
hilitzer
hill
hills
himalayas
himalayensis
hindi
hino
hirats
hiratsuka
hirayama
hirsutella
his
hispidula
hist
histeridomyces
histoire
historia
historii
history
historyczne
historyczno
historyczny
historycznych
historyje
historyji
historyjo
historyk
hitler
hits
hjortstam
hjortstamia
hl
hlawniy
hlich
hn
hned
hnel
hner
ho
hochsch
hochschule
hocking
hodge
hodges
hoffm
hoffmann
hofmus
hohenbuehelia
hokkaido
hol
holandyjo
hollo
hollywood
holm
holmii
holstein
holtermannia
holubova
holw
holwayi
home
homme
hong
hongo
honolulu
honor
honour
honsiu
hood
hoog
hook
hooker
hookeri
hopple
hora
horak
horie
hormonema
horn
hors
horti
hosag
hosagoudar
hosoya
host
hosts
hot
hotson
hou
houby
house
how
howard
howe
hr
hrabstwa
hrabstwach
hrabstwje
hrabstwo
hsieh
hsu
htc
htm
html
http
https
hu
huang
huawei
hubert
hucie
huds
hudson
hue
hughes
hughesii
hugo
hugueney
huhndorf
huhtinen
huijsman
hulicy
hum
human
humaria
humber
humicola
humidicutis
humilis
humuli
hung
hunt
hunter
hut
huta
huty
hyalina
hyalinia
hyalinum
hyalocamposporium
hyalopeziza
hyalorbilia
hyaloscypha
hyaloscyphaceae
hyde
hydnaceae
hydnangiaceae
hydnellum
hydnochaete
hydnodontaceae
hydnopolyporus
hydnum
hydropisphaera
hydropus
hyg
hygrocybe
hygrocybeae
hygrocybearum
hygrophoraceae
hygrophoropsis
hygrophorus
hyme
hymenelia
hymeneliaceae
hymenochaetaceae
hymenochaetales
hymenochaete
hymenogaster
hymenomyc
hymenomycetes
hymenoscyphus
hymn
hyperborea
hyperphyscia
hyphoderma
hyphodermoideae
hyphodiscus
hyphodontia
hypholoma
hyphom
hyphomycete
hyphomycetes
hypobryon
hypocenomyce
hypochnicium
hypocopra
hypocrea
hypocreaceae
hypocreales
hypocreopsis
hypoderma
hypogeous
hypogymnia
hypomyces
hyponectriaceae
hypotrachyna
hypoxylon
hysterangiaceae
hysterangium
hysteriaceae
hysteriaceen
hysterium
hysterographium
hysteronaevia
hysteropezizella
hysterostegiella
hysterostomella
hywel
i
iba
iberian
ibn
ibu
ic
ica
icach
ice
ich
ichi
icki
ickigo
ickim
icne
icon
icones
iconogr
ictwa
ictwo
icu
icy
iczno
icznych
icznyj
iczo
iczu
iczy
id
idaho
idahoensis
identification
iderlandach
iderlandu
iderlandy
iderlandzki
idriella
idyjo
idz
idzie
ie
iger
igo
iheringia
ihre
ii
iii
ij
ijan
ije
iji
ijo
ijs
ijszych
iju
ik
ika
ikach
iki
ikorz
ikowo
iku
ikym
il
ile
ili
ilicis
ill
illinois
illman
illosporium
illustr
ilu
im
ima
imai
imazeki
imdb
imi
imimyces
imjyrz
immersa
immersaria
imowych
imp
imperfecti
imperyju
impressum
impyrium
imshaug
imshaugia
in
ina
inaequalis
inakszy
inakszyj
inc
incl
including
inconspicua
incrustans
ind
index
india
indian
indiana
indica
indicum
indicus
indigenous
indjaneru
indoh
indonesia
indu
industr
industry
industryje
industryji
industryjo
indyjach
indyji
indyjskim
ined
inek
inf
infecting
inferred
inflata
info
infomaterialien
informacyje
informacyjo
information
inga
ingold
ingoldii
ingram
inhabiting
inks
inksze
inkszego
inkszo
inkszy
inkszych
inkszyj
inkszym
inkszymi
inni
ino
inocybaceae
inocybe
inocyclus
inonotus
inoperculates
insect
insects
insignis
inst
instit
institut
instituta
institute
instituto
instytut
instytutu
insztrumynt
insztrumynta
insztrumynty
int
inte
integrated
interesting
intermedia
intermedium
international
internetowo
internetowych
interpunkcyjny
intertidal
intertropicale
into
intrahymenial
intralichen
intricata
inu
invest
involucropyrenium
iny
inz
ionaspis
iowa
ipa
ips
ipulet
iqbal
iraku
iran
ireland
iridis
irl
irlandyji
irlandyjo
irpex
irregulare
irregularis
is
isaria
isbn
ischnoderma
ise
isk
iska
isko
islam
island
islands
isni
iso
isolated
issatchenkia
issn
issue
ist
ista
istn
istoty
istracyjn
istracyjnygo
istu
isz
it
ital
italia
italica
italije
italiji
italijo
italski
italsko
italy
itis
ito
itogi
itoh
itp
its
iturr
iturriaga
iu
iua
iuy
iv
ivory
iwano
iwatsu
iwersytec
iwersytet
iwko
iwo
ix
iz
izacyje
izacyjo
ize
izrael
izraelu
ił
iła
j
ja
jaap
jabłu
jacek
jack
jacks
jackson
jacksonii
jacob
jacobs
jacques
jacz
jahnula
jahrb
jain
jak
jakarta
jake
jaki
jakij
jako
jakob
jakos
jamaicensis
james
jamesa
jamesdicksonia
jamesii
jan
jana
jane
janeiro
janina
janu
janusz
jap
japan
japanese
japo
japonica
japonicum
japonicus
japu
jard
jardi
jardin
jarosch
jarosław
jas
jasmini
jatta
java
javae
javanica
jawa
jb
je
jean
jech
jechova
jedna
jednak
jedne
jednego
jedno
jednostka
jednostki
jednotka
jednotki
jednu
jednygo
jednyj
jednym
jedyn
jedyno
jedz
jeewon
jego
jei
jeich
jeij
jeji
jejich
jeli
jena
jeng
jenkins
jens
jersey
jerzy
jes
jeseter
jest
jeszcze
jez
jezus
jezusa
ji
jich
jigo
jij
jl
jne
jo
joachim
joanne
job
jodhpur
joe
johan
johann
johannes
johannsen
johans
johansen
johanson
johansonia
john
johna
johnson
johnst
johnston
jon
jonas
jones
jong
jordan
jordstja
jork
jorku
jose
josef
joseph
joss
journal
jpg
jr
jstwo
ju
juan
juel
juglandis
jul
julella
julia
julius
juliusz
jumillera
junci
juncicola
juncus
junell
junewangia
jungh
junghuhn
junghuhnia
juniperi
juniperina
juniperinum
jura
just
justice
juz
jy
jydno
jydnostka
jydnu
jydnygo
jydnym
jydyn
jygo
jyn
jyno
jørg
jørgensen
jørst
k
ka
kaba
kabatina
kaczyn
kadyncyje
kaiserl
kaj
kakishima
kalb
kalbii
kalchbr
kalchbrenner
kaliforn
kalmiae
kalmusia
kalyndorza
kamal
kamat
kameru
kami
kamiya
kamjyn
kampan
kan
kanada
kanady
kanadz
kandrzin
kandydo
kane
kaneko
kano
kanouse
kansas
kantu
kantvilas
kapela
kapele
kapla
kapoor
kapusta
kar
karajibskim
karel
karjera
karl
karling
karlingiomyces
karm
karol
karola
karolina
karoowia
karst
karsten
karstenia
karstenii
kart
karta
karto
kartuskim
karty
kashiw
kastylijo
kasvit
kasz
kaszb
kasze
kaszub
kaszubsko
kaszuby
katalog
katalu
katarzynak
kategoryjo
katolicki
katolickigo
katolicyzm
katoliku
katowic
katowicach
katowice
katowickigo
katowicu
katowicy
katowsko
kattowitz
katum
kauffman
kavaka
kavkaza
kawam
kawas
kawasaki
kaye
kaz
kazachstan
kazachstania
kazan
kazimierz
ke
kedy
keissl
keissleriella
kej
keleckim
keller
kellerm
kendr
kendrick
keniensis
kenneth
kenntn
kentucky
ker
kera
kerala
keratinophilic
kere
kerego
kerej
kern
kernia
kernkampella
kero
kert
keru
kery
kerych
kerygo
keryj
kerym
kerzi
kesteren
kevin
kew
key
keys
kg
khan
khishchnye
khurana
ki
kickx
kickxellaceae
kiery
kiev
kigo
kilo
kilogramo
kilomyjtru
kim
kimbr
kinabalu
king
kingdom
kings
kionochaeta
kirjat
kirk
kirramyces
kirschner
kirschst
kirschstein
kirschsteiniothelia
kistler
kits
kjbenhavn
kl
klang
klangu
klasy
klasyfikacyje
klawiszowe
kleb
klein
klift
klimat
klo
klotzsch
klotzschii
klu
klub
klubu
kludz
kludzo
kluyveromyces
km
kn
knif
knight
knoph
knowledge
known
knox
knudsen
ko
kobay
kobayasi
kobe
koch
kock
kockova
kockovaella
kod
kodama
kodamaea
kodu
koenigstein
koerberiella
kohlm
kohlmeyer
kohn
kol
kole
kolicy
kolo
kolonia
kolorado
kolu
komag
komagata
komagataella
komarov
komarova
kombinatsyi
komisja
kompsoscypha
kon
kondr
kong
kongl
konrad
konstal
koord
kopernika
kor
koralionastes
korczew
korean
korf
koro
koru
korup
korwin
koryje
koryji
koryjo
kos
koske
kosu
kotiranta
kotl
kotu
kowalski
koz
koło
kr
kra
kraj
krajach
krajina
kraju
krajym
krajyn
krako
krakowje
krakowskim
kraku
krapkowice
krapkowskim
kras
kratochvi
kreger
kreisel
krej
krejach
kreje
kreju
kremp
krempelhuber
kres
kresie
kresu
kretzschmaria
kriegeriella
krieglsteiner
krisai
kro
krog
kropka
kros
krotoszyn
kru
krug
kruidk
krypt
kryptfl
krys
krysie
krystyna
krysu
krysym
krzes
krziz
krzysztof
krzyz
ks
ksia
ksie
ksio
ksiynstwa
ksiynstwo
kto
ku
kuba
kubicek
kubik
kubje
kuby
kudryavtsev
kuehn
kuehneola
kujawski
kujawsko
kukkonen
kulik
kulk
kultu
kultur
kultura
kulturalnym
kulturowego
kultury
kulturze
kumm
kummer
kuna
kuntze
kunze
kuo
kupa
kupy
kurok
kurokawa
kurt
kurtzman
kuru
kuthub
kuthubutheen
kuyper
kuz
kvasiniek
kvasinkovity
kwantowo
kwasna
kweilingia
kwietnia
kwjec
kwjetn
kwon
kyn
kłodzko
l
la
lab
labiko
labor
laboulbenia
laboulbeniaceae
laboulbeniales
laccaria
lachance
lachancea
lachnella
lachnellula
lachnocladiaceae
lachnocladium
lachnum
lacju
lacki
lactarius
lactea
lactocollybia
lady
laetinaevia
laevigata
laevis
lagerh
lagerheim
lagerheimii
lahore
lake
lamarck
lamb
lambertella
lambotte
lamoure
lamprospora
lan
lancashire
lancisporomyces
land
lande
landu
landz
lane
lang
lange
langer
langeron
language
langwedocyjo
lanka
lanq
lanquetin
lanzia
lapponica
lar
larger
laricina
laricis
lars
larsen
larss
larsson
larvae
las
lasch
lasiobelonium
lasiobolus
lasiosphaeria
lasiosphaeriaceae
last
lastra
lasy
lat
lata
latach
lateralis
lateritia
lato
laundon
laurer
laurera
lauri
lauriomyces
lavart
laxa
lb
lccn
ldmaa
le
lea
lead
leaf
leafl
league
leaves
lebel
lebo
lec
lecanactis
lecania
lecanicillium
lecanographa
lecanora
lecanoraceae
lecanorae
lecanoromycetes
leccinum
lech
lecidea
lecideaceae
lecidella
lect
lecythophora
ledi
lee
leeds
leeuwenhoek
lefebvre
legeriomyces
legeriomycetaceae
leguminosae
lehr
leiden
leif
leight
leiorreuma
leiosphaerella
leipzig
lejeunia
lejs
leko
lembosia
lemke
lemonniera
lempholemma
lendemer
lendn
leningrad
lennart
lenovo
lentaria
lentinellus
lentinula
lentinus
lenzites
leo
leohumicola
leonard
leone
leop
leopold
leotiaceae
leotiales
leotiomycetes
lepiota
lepista
lepraria
leprosa
lepteutypa
leptocorticium
leptodontidium
leptogium
leptographium
leptopeltis
leptorhaphis
leptospermi
leptosphaeria
leptosphaeriaceae
leptosphaerulina
leptospora
leptostroma
leptothyrium
leptotrema
leptotrochila
lepus
leratiomyces
les
lesd
leslie
less
lestwa
lestwo
leszek
let
letcher
lethariella
letn
letrouitia
lett
lettau
letter
leuchtm
leuckert
leucoagaricus
leucocintractia
leucocoprinus
leucodecton
leucogaster
leucogyrophana
leucoscypha
leucostoma
lewia
lewis
lewskij
lewsko
lewyj
lez
lg
li
liang
liard
lias
liaslight
liasnames
lib
libert
liberta
libertella
library
libreoffice
libri
lic
lich
liche
lichen
lichenes
lichenicola
lichenicolen
lichenicolous
lichenized
lichenochora
lichenoconium
lichenogr
lichenol
lichenologist
lichenology
lichenopeltella
lichenostigma
lichens
lichinaceae
lichinella
lichtw
lichtwardt
liczba
liczbach
liczby
lider
lidze
lie
liechtenstein
liepzig
liew
life
liga
light
ligi
lignicola
lignicolous
ligota
like
lilloa
lima
limits
limtong
lin
lincei
lincoln
lind
lindau
lindblad
lindeb
linder
lindner
lindnera
lindq
lindr
linds
lindsay
lindsey
lindtneria
line
linearis
ling
link
linn
linnaea
linnaeus
linne
linnem
linocarpon
linospora
linux
liny
liou
lipca
lipjec
lipn
lipnia
lipomyces
lipomycetaceae
lipsiae
liro
lirula
lis
lisa
lisb
list
lista
listade
listopad
listopada
listy
lite
liten
literackie
literackij
literatura
literatury
lithographa
lithothelium
litsch
litseae
litter
little
littoralis
litwa
litwje
litwy
liu
live
living
liwe
lizonia
ljalg
ljande
lk
lka
ll
lla
llande
llano
ller
lloyd
lloydia
llsk
ln
lne
lnego
lno
lnoc
lnota
lnoty
lo
loary
lobaria
lobariaceae
lobata
lobulata
locq
loculoascomycetes
lodder
lodge
lodha
lodu
loer
logo
lohman
loire
lokalnych
lokuloaskomitsety
lombard
lompa
lond
london
long
longcore
longipes
longispora
longisporum
longissima
lonicerae
lons
lopadium
lopezii
lopharia
lophiostoma
lophiostomataceae
lophiotrema
lophodermella
lophodermium
lophomerum
lophotrichus
loquela
lord
lorenzo
los
lot
lota
lotach
lotaryngijo
lotic
lotn
louis
louwhoff
lova
love
lowe
lowen
loweporus
lowo
lowy
loxospora
lp
lu
luangsa
lub
lubelske
lubelski
lubelskigo
lubelskim
lubin
lublin
lubno
lubrza
lubuskim
lucas
lucien
luck
ludnos
ludo
ludowe
ludowej
ludowo
ludowych
ludowyj
ludu
ludw
ludwig
ludz
ludzi
ludzie
ludzkij
luftu
lugubris
luigi
luis
luizjana
luksymburg
luksymburski
lulworthia
lulworthiaceae
lumbsch
lumyong
lunata
lund
lundae
lundell
lundq
lundqvist
lunghini
lupini
lusit
lutea
lutego
luteola
lutescens
luteum
luteus
luttr
luty
lutygo
lutym
lutz
lutzoni
luxembourg
luzon
luzulae
lwu
lycoperdon
lym
lymbergu
lymberskim
lyn
lynge
lynie
lynz
lyon
lyophyllaceae
lyophyllum
læssøe
m
ma
maas
maboke
mac
macabuna
macalpinomyces
macedu
mach
machiel
machine
maciej
macleod
macowanites
macrocarpum
macrocybe
macrolepiota
macromycetes
macrophoma
macrospora
macrosporum
macrosporus
maculans
maculata
madagascar
madr
madras
madrid
madryt
mady
madz
madziary
maeda
maekawa
mag
magera
maggi
maggiore
magic
magn
magna
magnaporthaceae
magnoliae
magnus
magnusiomyces
magnusson
maharashtra
mahoney
mahoniae
maia
main
maine
mains
maire
maja
majewski
majo
major
majster
majstra
majstru
majstrym
majte
majtych
maju
mala
malajczuk
malajczukia
malapana
malassezia
malawi
malaysia
malaysiana
malbr
malbranchea
malc
malcolm
malenc
mali
malloch
malme
malmei
malpighia
malta
malyrz
malysheva
mambwe
mammals
man
mana
manche
manchester
mandz
manga
mangenot
mangiferae
mangin
mangold
mangrove
mangrovei
manhattan
manier
manihotis
manjo
manohar
mansilla
manson
manszaft
manszaftu
manszafty
manu
manual
many
map
mapa
maps
mapy
mar
mara
marasas
marasmiaceae
marasmiellus
marasmius
maravalia
marbach
marc
marca
marcel
marcelli
marcelo
marchal
marchandiomyces
marche
marcin
marcu
marek
margaret
marginata
mari
maria
mariae
marie
marilyn
marina
marinc
marincowitz
marine
marino
mario
maritima
maritime
marjan
mark
marka
marki
marne
maroko
marr
mars
marsa
marsh
marshall
marson
marssonina
mart
marthamyces
marti
martin
martini
martinii
marvanova
mary
maryje
maryland
marzec
mas
masa
mason
masonii
massachusetts
massal
massalongo
massaria
massariaceae
massarina
massarinaceae
massariosphaeria
massariothea
massee
masseee
massospora
mastodia
masy
maszina
maszowskim
mat
mata
mater
materials
materialy
materyje
materyjo
math
mathbb
matheny
mathrm
mathur
mating
matka
matki
matsush
matsushima
matzer
maubl
maud
mauritius
max
maxima
may
maydis
mayendorf
mayer
mayor
mayrhofer
mazowjecke
mazowjecki
mazowjeckim
mazurske
mazurskim
mazzantia
mała
małe
mało
małopolske
małopolski
małopolskim
mały
małych
mb
mba
mbardyjo
mbiji
mbijo
mbrowa
mbru
mcalpine
mccarthy
mccune
mcgee
mcginnis
mchugh
mckenzie
mcnabb
mcnew
me
mearns
mechan
mecklenb
med
medal
meddel
meddn
meddr
meded
media
medicaginis
medical
medicine
mediterranea
medium
megalaria
megalospora
megalotremis
megasporaceae
megasporoporia
meguro
mehrotra
meinhard
meira
meizu
meji
mek
mekht
mekhtieva
meklymburgijo
meksyk
meksykan
meksyku
melaleuca
melampsora
melampsoraceae
melampsoridium
melanconidaceae
melanconis
melanconium
melanelia
melanelixia
melanocarpus
melanocephala
melanogaster
melanohalea
melanoleuca
melanomma
melanommataceae
melanospora
melanotaeniaceae
melanotaenium
melanotrema
melaspilea
melbourne
melin
meliola
meliolaceae
meliolicola
meliolina
mellea
melnik
melo
mem
members
memnoniella
memoirs
men
mena
menc
menegazzia
menispora
menisporopsis
menna
mens
mer
mera
mercado
meridionalis
meripilaceae
meripilus
merlin
merrillii
meru
meruliaceae
mery
mesophellia
mesophelliaceae
metacapnodiaceae
metacapnodium
metacordyceps
metal
metalu
metarhizium
metasphaeria
meth
method
methven
metra
metro
metrodiana
metru
metry
metschnikowia
metschnikowiaceae
mexicana
mexico
mexique
mey
meyer
meyers
mez
mi
mia
miami
mian
miana
miano
mianowany
mianym
miary
miast
miasta
miasto
miastym
miała
miało
miały
mic
micarea
mich
michael
michał
michel
michelia
michigan
micol
micologia
miconiae
micos
microascaceae
microascus
microbiol
microbotryaceae
microbotryomycetes
microbotryum
microcarpa
microcyclus
microdiplodia
microdochium
microfung
microfungi
micromycetes
micropeltidaceae
microporellus
microporus
microscop
microscopica
microsebacina
microsoft
microsperma
microsphaera
microsphaeropsis
microspora
microsporum
microsporus
microthyriaceae
microthyrium
miczne
miczno
miczny
micznych
micznyj
micznym
midi
midl
mie
miec
miejscowos
mieli
mierc
mierci
mies
miesio
mieszkan
mieszko
miettinen
mig
mije
miji
mijo
mik
mikata
mike
mikke
mikol
mikołaja
mikrobiol
mikroorganizmov
milano
miles
milesina
milijo
miliju
milju
milko
mill
miller
mimo
min
minas
minderheit
mini
minima
minimelanolocus
ministro
minn
minneapolis
minnesota
mino
minor
minoura
minter
minus
minut
minuta
minutissima
minutoexcipula
minutula
minutum
mio
mioł
mir
mirabile
mirabilis
miranda
miriquidica
miroslav
mirza
misc
miscellaneous
misra
mississippi
missouri
mistrzostwa
mistrzostwach
misturatosphaeria
misyje
misyjo
miszu
mit
mitac
mitchell
mitt
mitteilungen
mitteleur
mitteleuropa
miu
miura
mix
miyabe
miyaji
miyake
miym
miymco
miymcy
miymiec
miymiecke
miymieckich
miymieckigo
miymieckij
miymiecko
miyn
miyndzy
miyndzyno
miyszkajo
miyszkan
miyszko
miłos
mjan
mjana
mjano
mjanowan
mjanowane
mjanowano
mjanowany
mjanu
mjanuje
mjanym
mjast
mjasta
mjastach
mjasto
mjastu
mjastym
mjała
mjało
mje
mjec
mjejsce
mjejscowos
mjejske
mjejskij
mjejsko
mjeli
mjes
mjou
mjoł
mjoła
mjoło
mjoły
mju
mjym
mjymcach
mjymcu
mjymcy
mjymjec
mjymjecke
mjymjecki
mjymjeckij
mjymjecko
mjyn
mjyndzy
mjyndzyles
mjyrc
mjys
mjyszkan
mjyszkało
mjyszkiwalo
mjyszkiwało
mjyszkiwoło
mjyszko
mjyszkowało
mjyszkuje
mku
mld
mln
mm
mmtl
mn
mniopetalum
mo
moberg
moc
mocka
moco
mocy
mod
mode
modern
modesta
modro
mody
modych
moe
moelleri
moellerodiscus
moesz
mogajo
moge
mogebne
mogo
mogu
mogymy
mohammed
moj
moja
mokhoobraznye
mokobody
molecular
mollis
mollisia
mollisina
mollisiopsis
mona
monacrosporium
monandromyces
monascus
moncalvo
money
monilia
moniliformis
monilinia
monn
monoblastia
monoblastiaceae
monoblepharis
monochaetia
monochaetinula
monocillium
monod
monodictys
monogr
monograph
monographella
monographie
monographs
monoicomyces
monosporascus
monsunia
mont
montagne
montagnei
montagnula
montagnulaceae
montana
montbe
monte
montgomery
monticola
montpellier
moon
moore
mor
moravec
moravica
morawsko
morawy
morchella
morchellaceae
mordecai
mordy
more
moreau
moreaua
morelet
moreno
morenoina
morgan
morganella
mori
morphological
morphologically
morphology
morris
morrisographium
morske
morskim
morsko
mortierella
mortierellaceae
morton
morza
morze
morzo
morzu
morzym
mos
moscou
moscow
moselle
moser
moskwje
moss
most
mostert
mostki
moto
motorola
motyka
mou
mouch
mouchacca
mount
mountains
moustafa
mouton
mowo
mowy
mowyj
moz
mołopolskim
mpio
mpju
mpozytor
mprachc
mputrowych
mr
mrak
mrakia
ms
mskim
mt
mu
muchn
mucor
mucoraceae
mucorales
mucosa
mucronella
mucronoporaceae
mudd
muellerella
muelleri
muelleria
mugambi
muhafaz
muhafazy
mukerji
mukor
mul
multiclavula
multigene
multimedyju
multimydia
multiseptata
multispora
mun
mundart
mundk
mundkurella
munjal
munk
munt
mur
muroi
murray
murrill
mus
musae
muscicola
muscodor
muse
museum
mushr
mushrooms
musi
music
muster
mutabilis
muter
mutinus
muzeum
muzeumminiaturowejsztukiprofesjonalnejhenrykjandominiak
muzyczne
muzyczno
muzyczny
muzycznych
muzyju
muzyk
muzyka
muzykant
muzyki
my
myc
mycena
mycenaceae
mych
mycoacia
mycobilimbia
mycobiota
mycoblastaceae
mycocaliciaceae
mycocalicium
mycoflora
mycoflore
mycogloea
mycogr
mycol
mycoleptodiscus
mycologia
mycologica
mycologicae
mycological
mycologique
mycologist
mycology
mycomicrothelia
mycoparasites
mycopath
mycopathologia
mycoporum
mycorrhiza
mycorrhizal
mycoscience
mycosphaerella
mycosphaerellaceae
mycosystema
mycota
mycotaxon
mycoth
mycotheca
mycovellosiella
myelochroa
myeloconis
myelosperma
myjtru
mykol
mykologische
mym
myn
myna
myndo
mynga
mynij
myntu
myriangium
myricae
myriogonium
myriophacidium
myriosclerotinia
myriotrema
myron
myrothecium
mys
myszyn
mytilinidiaceae
mytilinidion
myxacium
myxomyceticolous
myxophora
myxosporium
myxotrichaceae
myxotrichum
myxozyma
mz
møller
n
na
nac
nach
nacho
nacional
nacyje
nacyji
nacyjno
nacyjo
naczo
naczu
nad
nade
nadgroda
nadgrody
nado
nadryn
naemacyclus
naetrocymbe
naeviopsis
naftowyj
nag
nagan
nagaoa
nagarkar
nagler
nagran
nagroda
nakagiri
nakase
nakaseomyces
nakasone
nako
nale
nalez
nalno
nalnych
name
names
nami
namn
nana
nancy
nann
nannf
nannfeldt
nannizzia
nano
nanoscypha
nanum
nao
napadz
napisoł
napoczo
napoczu
napoleone
napoli
nar
narc
narcisse
narodowos
narodowy
narodu
narodzio
nas
nasa
nascim
nash
nashii
nassau
nasto
nastympujo
nasz
naszyj
nat
natarajan
national
nationality
native
natl
natn
natnparks
nato
natu
natur
naturae
natural
naturalis
naturalist
naturaliste
naturalno
naturalny
naturalnych
nature
naturelle
naturelles
naturf
naturforsch
naturh
naturhist
naturk
naturw
naturwiss
natuurkunde
naucoria
nauk
nauka
nauki
naukowe
naukowy
naukowych
naumov
naumovia
nav
navarro
navisporus
nawawi
nawet
nawio
nawju
naz
nazod
nazw
nazwa
nazywany
nc
nca
nce
ncego
nch
nchen
nchez
ncia
ncl
nco
ncu
ncy
ncych
ncygo
ncyj
ncym
ncymi
ncz
nczas
nczka
nczo
nczu
nczyn
nczynie
nczynio
nd
ndeckim
ndek
ndez
ndku
ndl
ndo
ndowo
ndra
ndu
nduras
ndy
ndyjo
ndyn
ndz
ndzo
ne
neale
near
nebraska
nebulosa
neburg
nec
nectria
nectriaceae
nectriella
nectriopsis
neczajc
neczajta
ned
neerg
neerl
neerlandicam
nees
neglecta
nego
nej
nek
nelson
nemania
nematoctonus
nematode
nematofagovye
nen
neo
neobarya
neocallimastigaceae
neocallimastix
neocosmospora
neoerysiphe
neofusicoccum
neolentinus
neonectria
neophaeosphaeria
neosartorya
neotrop
neotropica
neotropical
neottiella
neottiosporina
neotyphodium
neozygitaceae
neozygites
nepal
nepalense
nepalensis
nephroma
nero
neros
net
neta
neth
netherlands
neue
neues
neurospora
new
newfield
newport
news
nez
nezyji
nezyjo
ng
nga
ngach
ngajo
ngel
ngi
ngla
nglo
ngn
ngo
ngolije
ngolsko
ngowo
ngowy
ngu
nguje
nguskich
nguyen
ngyfer
ngym
ni
nia
niaceae
nic
nica
nich
nicholas
nicolson
nicot
nidulans
nie
niebla
niec
niego
niemela
niessl
niesslia
niessliaceae
niesslii
nieuwl
nig
niger
night
nigl
nigra
nigrescens
nigricans
nigrospora
nigrum
nij
nije
niji
nijo
nik
nika
nils
nilsson
nim
nimbya
nine
ninety
nio
nipponica
niptera
nirenberg
nishim
nishimura
nitens
nitida
nitschke
nitschkia
nitschkiaceae
niu
nivalis
nivea
niveum
niy
niyjszych
niykere
niykerych
niym
niyma
niymce
niymiecke
niymiecki
niymieckij
niymiecko
niymodlin
niyo
niypoznany
niyskoro
niyskorzi
niyskorzij
niywo
niyzno
niz
nizshie
nka
nkach
nkc
nkcyjo
nki
nko
nkt
nkto
nktu
nkty
nktym
nku
nkurs
nky
nkym
nli
nn
nne
nno
nny
no
nobilis
nobla
noc
nochascypha
nocy
nodosa
nodulisporium
nodulosphaeria
nograsek
nojbar
nojbarz
nojbarzi
nojbarzij
nojbliz
nojczyn
nojczyns
nojdugszo
nojlepij
nojlepszych
nojmyn
nojprzo
nojs
nojsrogs
nojsrogsze
nojsrogszo
nojsrogszy
nojsrogszych
nojsrogszym
nojstarsze
nojstarszo
nojstarszy
nojstarszych
nojwaz
nojwiyncyj
nojwjyncyj
nojwjynks
nojwjynksze
nojwjynkszo
nojwjynkszych
nojwjynkszym
nojwo
nojwoz
nojwyz
nokia
nol
nolez
nolinae
nom
nomenclatural
nomenclature
nominatformen
nomyc
nomyce
non
noordel
noordeloos
nord
nordic
nordin
norfolk
norman
normandie
normandyjo
north
northern
norw
norway
norweg
norwygiji
norz
norzu
nos
not
notabilis
note
notes
noteworthy
nothofagi
nothofagus
nothoravenelia
notiser
notul
notulae
nou
nouv
nouveaux
nouvelle
nouvelles
nov
nova
novae
novel
novi
novitates
novo
novorum
now
nowa
nowak
nowakowskiella
nowano
nowe
nowego
nowo
nowodworskim
nowogrecko
nowosu
nowoł
nowy
nowych
nowygo
nowyj
nowym
np
nr
ns
nsek
nsis
nsk
nska
nske
nski
nskich
nskigo
nskij
nskim
nsko
nsku
nskym
nsole
nstytucyjo
nsv
nszt
nsztu
nt
nta
ntana
ntek
ntku
ntkym
nto
ntp
ntrola
ntu
nty
ntym
ntynynt
ntynyntu
nu
nubia
nuclear
nuda
nuevos
num
numer
numero
nuovi
nuovo
ny
nych
nye
nygo
nyj
nyl
nylander
nym
nyman
nymi
nymu
nypa
nypae
nypicola
nysa
nysie
nyskim
nyssopsora
nysy
nytt
nz
nzan
nzane
nzano
nzany
nzanych
nzek
nzfungi
nzki
nzku
nzo
nzoku
nzuje
nzujo
nła
nło
o
obducens
obec
oberschlesien
oberw
oberwinkler
obscura
observ
observations
occ
occidentalis
occulta
occultum
occurring
ocellata
ocellularia
ochracea
ochraceum
ochraceus
ochrolechia
ochrolechiaceae
ochroleuca
ocksa
oclc
octaviania
octospora
octosporella
od
odek
oder
odontia
odonticium
odontotrema
odzyskanych
oedocephalum
oehl
of
off
office
official
offord
oficjalny
oficyna
ofyn
ogataea
ohara
ohio
ohlsson
oidiodendron
oidium
ois
oise
ojganejsko
ojro
ojropa
ojropejczyku
ojropejskich
ojropejskij
ojropejsko
ojropie
ojropje
ojropy
ojrowizyjo
ok
okada
oku
ola
olchow
old
oleae
olesch
oligoporus
olivacea
olivaceum
olivaceus
olivascens
olive
olivea
oliveonia
olivier
olof
ologie
olpidiaceae
olpidium
om
ombrophila
omphaliaster
omphalina
omphalinoid
omphalotus
on
onca
one
oneplus
onet
online
ono
onofri
ontario
ony
onygenaceae
onygenales
oorschot
oospora
op
opaca
opegrapha
open
openoffice
opera
operculates
ophiobolus
ophiocordyceps
ophiocordycipitaceae
ophiodothella
ophiognomonia
ophiosphaerella
ophiostoma
ophiostomataceae
opole
opolskiego
oppeln
oppo
opred
opredelitel
opu
opuntiae
or
ora
oracle
orange
oraz
orb
orbicularis
orbilia
orbiliaceae
orbiliaceous
order
oregon
orejuela
org
organelles
organisms
orientalis
origin
ornata
ornatispora
oro
orphella
orr
orrell
orthospora
orto
orton
orym
oryzae
orz
os
osa
osaka
oslo
oso
ost
ostatni
osłowjan
ota
otani
otd
other
otidea
ottawa
otth
otto
ou
oua
oudem
oudemans
oudemansiella
ouest
our
out
outl
ouvrard
ov
ovalis
ovalispora
ovata
ove
over
overeem
overh
ovispora
ovularia
owadomorkowe
owe
owjec
owo
owskim
owy
owych
owygo
owyj
owym
oxford
oxydothis
oxyporus
oyonnax
oz
oł
oła
ołan
oło
ołocz
ołu
oły
p
pa
pachyderma
pachydisca
pachyella
pachylepyrium
pacific
pacifica
paczko
padaju
padhye
pado
padova
paecilomyces
page
paglinawan
pakistan
palat
palatynat
pale
palermo
pallescens
pallida
pallidum
pallidus
palm
palma
palmae
palmarum
palmer
palmicola
palms
paludosa
palustris
pamie
pan
pana
panaeolus
panama
pandanaceae
pandani
pande
pandora
panellus
pang
panici
panna
pannaria
pannariaceae
panny
panthera
panus
pap
papendorf
papillata
papju
papjyz
papowo
paprotn
papua
papulaspora
para
parabola
parachnopeziza
paraconiothyrium
paradoxa
paradoxus
parafiji
parafijo
paraglomus
paramyxacium
parana
paranectriella
paraphaeosphaeria
parapyrenis
parasit
parasites
parasitica
parasitici
parasiticum
parasiticus
parasitkde
parasitol
parasola
parbery
pardo
parerga
paris
park
parker
parku
parlamynt
parlamyntu
parmasto
parmastomyces
parmelia
parmeliaceae
parmeliella
parmelina
parmelinella
parmelinopsis
parmeliopsis
parmotrema
parmularia
parmulariaceae
parodiella
parodiopsidaceae
parorbiliopsis
pars
part
parte
partial
partridge
party
partyje
partyji
partyjo
parva
parvispora
parvula
parvum
paryz
pas
pascoe
pass
passalora
passerini
passeriniella
pat
patagonian
patagonica
patalog
patel
patellaria
patellariaceae
path
pathogen
pathogenic
pathogens
pathology
patil
patol
patouillard
patro
patru
patw
patwardhan
paul
paula
paulo
pavgi
pavia
paweł
pawełp
pawła
paxillaceae
paxillus
pays
paz
pałac
pdf
pe
pearce
pearson
peccania
peck
pedro
pedz
peerally
pegler
peintner
pellucida
peltata
peltigera
peltigeraceae
peltigerae
peltula
peltulaceae
penicillata
penicillia
penicillium
penidiella
peninsula
peninsular
peniophora
peniophoraceae
peniophorella
pennella
pennycook
penz
people
per
peradeniya
pereira
perenniporia
perepis
peres
perexigua
perfect
periconia
periconiella
peridermium
peristomialis
perkusyjo
pernambuco
perplexa
perpusilla
perrotia
perry
pers
persoon
persoonia
persoonii
perth
pertusaria
pertusariaceae
pertusariae
peru
peruviana
perzo
perzu
pesquis
pestalosphaeria
pestalotia
pestalotiopsis
petanque
petch
peter
peterburg
petersen
peterson
petr
petrak
petrakii
petri
petriella
petrini
petter
peyr
peyritschiella
peyronel
pez
pezicula
peziza
pezizaceae
pezizales
pezizella
pezizomycetes
pezoloma
pfister
pfl
pflanzenfam
pflkrankh
pflpath
pflschutz
ph
phacellium
phacidiaceae
phacidium
phaeoacremonium
phaeocalicium
phaeochoraceae
phaeochorella
phaeocollybia
phaeographis
phaeohelotium
phaeoisaria
phaeophleospora
phaeophyscia
phaeopyxis
phaeoramularia
phaeoseptoria
phaeosolenia
phaeosphaeria
phaeosphaeriaceae
phaeosphaeriopsis
phaeospora
phaeotrema
phaff
phakopsora
phakopsoraceae
phallaceae
phallus
phanerochaetaceae
phanerochaete
phanerochaetineae
phanerochaetoideae
pharcidia
phaulomyces
phellinus
phellodon
phialocephala
phialophora
phil
philad
philip
philipp
philippinensis
phillips
philos
phlebia
phlebiella
phlebioideae
phlebiopsis
phlebopus
phleogenaceae
phloeospora
phlyctiytrium
phoebes
pholiota
pholiotina
phoma
phomatospora
phomopsis
phone
php
phragmidiaceae
phragmidium
phragmiticola
phragmitis
phragmocephala
phragmotelium
phycomycetes
phyllachora
phyllachoraceae
phyllachorales
phylloblastia
phyllogloea
phylloporia
phyllopsora
phyllosticta
phylogenetic
phylogenies
phylogeny
phys
physalacria
physalacriaceae
physalospora
physcia
physciaceae
physconia
physiol
physis
physoderma
phytol
phytologia
phytopath
phytopathogenic
phytopathology
phytotax
pi
piasto
piatek
picard
picea
piceae
pichia
pichiaceae
pictures
pidopl
pie
piekary
piepenbr
piepenbring
pier
pierre
pies
pignal
pikardyjo
pike
pila
pileolariaceae
pilocarpaceae
pilosa
pilze
pilzk
pin
pinastri
pine
pini
pinicola
pinus
pio
piotr
piperis
piptarthron
piptocephalidaceae
piptocephalis
pirenomitsety
piromyces
pirottaea
piroz
pirozynski
pis
pisa
pisac
pisi
piso
pisolithus
pisor
pisorz
pisoł
pistillaria
pithoascus
pithomyces
pitt
piyn
piyramida
piyramidy
piyrsze
piyrszego
piyrszo
piyrszy
piyrszych
piyrszyj
piyrszym
piyw
piywki
pjes
pjoseczyn
pjosynki
pjosynkorka
pjosynkorz
pju
pjymu
pjyn
pjyrs
pjyrsze
pjyrszo
pjyrszu
pjyrszy
pjyrszych
pjyrszyj
pjyrszym
pjyrwej
pjyw
pjywka
pjywki
pjywok
pl
plac
place
placidium
placo
placopsis
placu
placym
placynthium
plagiostoma
plan
planet
planeta
planety
planistromella
planistromellaceae
plant
plantaginis
plantarum
plantes
plants
plat
plata
platani
plate
platensis
platforma
platy
platygloea
platygloeaceae
platygramme
platysporoides
play
playstation
plectania
plectosphaera
plectosphaerellaceae
plenodomus
pleomassariaceae
pleospora
pleosporaceae
pleosporales
pleostigma
pleuroceras
pleurophoma
pleurotaceae
pleurotheciopsis
pleurothecium
pleurotus
plochmopeltis
ploettnera
ploioderma
plowr
plus
pluteaceae
pluteus
pn
po
poaceae
poae
poc
pochodz
pochodzi
pochodzu
pochodzyn
pochonia
pocsia
poczo
poczta
pocztowych
poczu
pod
podan
podane
podano
podany
podarziło
pode
podgato
podiytrium
podkarpacke
podkarpackim
podlaski
podlaskim
podle
podo
podonectria
podoscypha
podosordaria
podosphaera
podospora
podowo
podstawczaki
podstawowo
podstawowyj
podstawy
podszukowan
podug
podwjela
podwu
podz
podzioł
poelt
poeltii
poeta
pogan
poggio
poitou
pojymnos
pojyn
pokazuje
poko
pokojnym
pokoju
pol
pola
poland
pole
policyjo
polis
polish
politiker
polityczno
polityk
polityka
polityker
polityki
pollack
polnischen
polo
poloku
polon
polsce
polska
polskawliczbach
polske
polski
polskich
polskie
polskiego
polskiej
polskigo
polskij
polskim
polsko
polsku
polu
polyblastia
polychaeton
polycoccum
polydesmus
polygo
polygoni
polymeridium
polymorpha
polyp
polyphyletic
polyporaceae
polyporaceas
polyporales
polypore
polypores
polyporoids
polyporus
polyschema
polyscytalum
polyspora
polystigma
pomjyn
pomjyszkuje
ponce
pont
ponte
pontogeneia
poot
pop
populacyje
populacyjo
popularne
popularno
popularny
population
populi
populina
pora
poradz
poradzu
poria
porina
porinaceae
porocyphus
poroid
porost
porostereum
porostyt
porotenus
porpidia
porpidiaceae
porpoloma
port
portal
porto
portoricensis
portoryko
portu
portugal
portugaliji
portugalijo
poru
porzo
pos
posiadajo
posiado
position
post
postac
postawju
postia
postr
postrzo
postrzodek
postrzodkowyj
postrzodku
postrzu
potajlowane
potajlowano
potajlowany
potential
potentillae
potok
potym
pouedn
pound
pouoz
pouzar
pow
powaz
powell
power
powers
powierzchnia
powio
powjarki
powjyrzchn
powo
powoz
powstan
powstała
powstało
powstały
powsto
powstowo
powstoł
powstoła
powstoło
powstoły
powyz
poz
poza
pozio
poznan
pozo
pozycyji
połedn
połednie
połedniowo
połedniowy
połedniowyj
połedniowym
połedniu
połn
połne
poło
połoz
połu
pp
pr
pra
prace
pracy
pradesh
pradze
praem
praetermissa
prag
praga
prague
praha
pramer
prantl
pratensis
praw
prawa
prawach
prawe
prawidła
prawie
prawn
prawo
prawyj
prawym
praze
pre
predatory
prefektury
prefekturze
prelim
preliminary
premier
press
preuss
preussia
previously
prezes
prezydynt
prezydynta
prezydyntym
pri
price
priest
prill
prillieuxina
prillinger
prim
prime
primulae
princ
princa
prince
princeps
princo
pringsheimia
printzen
pro
problemy
proc
proceedings
proces
proceso
procesu
prodr
producing
production
products
producynt
produkcyje
produkcyji
produkcyjo
produkowane
profil
progr
program
programu
project
projekt
projektu
prolifera
proliferodiscus
prolixandromyces
pronectria
propolis
proposal
proposed
prospodium
proste
prosthecium
prostoku
prostrata
proteaceae
proteae
protistenk
protoglossum
protomyces
protomycetaceae
protoparmelia
protothelenella
protounguicularia
protoventuria
protubera
prov
provence
province
prowa
prowach
prowadz
prowadzu
prowdz
prowincyje
prowincyji
prowincyjo
pru
prudn
prudnicki
prudnickigo
prudnickim
prudnik
prudnika
prudniku
pruinosa
pruni
prunus
prus
prusy
prymiera
prymjer
przec
przeciw
przeciwko
przed
przede
przedn
przedsto
przejo
przejs
przekludzo
przeko
przekroju
przekło
przepływo
przes
przesmyki
przestrzyn
przewodn
przez
przeznaczo
przełoz
przi
przido
przijmuje
przijo
przikuplowano
przikło
przikłod
przilu
przino
przinolez
przipadku
przistympnym
prziwu
przizwo
prziło
prziłu
przo
przodku
przodn
przywro
ps
psammina
psathyrella
psathyrellaceae
pseudallescheria
pseudo
pseudobaeospora
pseudocercospora
pseudocercosporella
pseudocraterellus
pseudocyphellaria
pseudohalonectria
pseudomassaria
pseudombrophila
pseudoparmelia
pseudoperisporiaceae
pseudopeziza
pseudophacidium
pseudorobillarda
pseudoseptoria
pseudospiropes
pseudostigmidium
pseudotomentella
pseudotrichia
pseudotsugae
pseudovalsa
pseudovalsaceae
pseudozyma
psidii
psilachnum
psilocybe
psiloglonium
psora
psoraceae
psoroglaena
psoroma
psorotichia
pszczyn
pszczyna
pt
pteridis
pterospora
pterula
pterulaceae
pterygiopsis
pto
ptoku
pu
publ
publc
public
publicac
publication
publications
publicysta
publicznej
publishing
puccinia
pucciniaceae
pucciniales
pucciniastraceae
pucciniastrum
pucciniomycetes
pucciniosira
pucciniosiraceae
pucciniostele
puerto
puhar
puharu
puiggarii
puiggarina
pulchella
pulchellum
pulcherrima
pulchra
pulchrum
pulicaris
pulvinata
pulvinula
pumila
punctata
punctelia
punctiformis
punith
punithalingam
purpurascens
purpurea
purpureum
pus
pusilla
pusillum
pustulata
pustyn
puy
pwn
pygmaea
pyn
pyndz
pynsylwan
pyrame
pyre
pyren
pyrenees
pyrenochaeta
pyrenocollema
pyrenomycetae
pyrenomycetes
pyrenopeziza
pyrenophora
pyrenopsis
pyrenula
pyrenulaceae
pyricularia
pyrina
pyrofomes
pyrolae
pyronemataceae
pyrrhoglossum
pyxidiophora
pyxidiophoraceae
pyxine
płu
płyn
płyta
q
qd
qi
quad
quaderno
que
queensland
queenslandica
queletii
quelques
quercicola
quercina
quercus
quercuum
qui
quintan
quintaria
r
ra
rabenh
rabenhorst
rabh
rac
rach
racib
racibo
raciborski
raciborskim
rada
radians
radiata
radicicola
radio
radlin
radu
radulodon
radulomyces
rady
radz
rafał
raffaele
raffaelea
rag
rai
raithelh
raithelhuber
raitv
raitviir
raj
raja
rajchenb
rajchenberg
raje
raju
ram
rama
ramakr
ramaley
ramalina
ramalinaceae
ramaria
ramariopsis
rambelli
rambo
rambold
ramboldia
rami
ramichloridium
rammeloo
ramonia
ramosa
ramsb
ramularia
ramulispora
ran
rant
ranunculi
rao
raper
rappaz
rare
ras
rast
rastenii
rasteniya
rasy
rattan
rauschert
ravenel
ravenelia
raveneliaceae
ravenelii
ray
razu
razy
razym
rb
rca
rczos
rd
rdna
rdo
rdoba
rdsfo
re
rea
reading
real
reale
realme
reassessment
recife
reclassification
record
records
rectipilus
red
redaelli
reddellomyces
reddy
redefinition
redescription
redhead
redinger
redingeria
redisposition
redmi
reed
reeks
reevaluation
reference
referred
reflections
reg
regiju
regio
region
regions
regionu
registros
regiyro
regle
regni
regyro
rehm
rehmii
rehmiodothis
reichardt
reid
reinhold
reinking
reinwardtia
rejo
reju
rejyncyjo
rek
rekommer
rekomst
relacyji
related
relationships
relicina
relicinopsis
religije
religijne
religijnych
religijo
remaud
remispora
remix
ren
rend
rendu
rene
rening
reno
rep
repens
repert
repetobasidium
repetophragma
replacing
report
reports
repr
reprezentacyje
reprezentacyji
reprezyntacyji
reprezyntacyjo
reprint
reprium
repu
republic
republice
republik
republika
republiki
republiko
republiku
requienellaceae
res
research
resinae
resinicium
resinomycena
restionaceae
restiosporium
results
resupinate
resupinatus
reszta
retiboletus
reticulata
reticulatum
reticulatus
reumaux
rev
review
revis
revised
revision
revisions
revisited
revista
revta
revue
rewolucyje
rexer
reyes
reynolds
rez
rfelt
rficos
rg
rganizacyje
rganizacyji
rganizacyjo
rganizmo
rganizmu
rganizmy
rh
rhabdocline
rhabdospora
rhachomyces
rhagadolobium
rhagoletis
rhamni
rhamphoria
rhandl
rheeder
rhein
rhenani
rhin
rhinocladiella
rhinotrichum
rhizidium
rhizocarpaceae
rhizocarpon
rhizochaete
rhizoctonia
rhizomucor
rhizomyces
rhizophlyctis
rhizophorae
rhizophydiaceae
rhizophydium
rhizopogon
rhizopogonaceae
rhizopus
rho
rhodoarrhenia
rhodocybe
rhododendri
rhodora
rhodosporidium
rhodotorula
rhopalostroma
rhynchophoromyces
rhytisma
rhytismataceae
rhytismatales
ri
ria
ribeiro
ribis
ribosomal
ric
rica
rich
richard
richardson
richter
rick
rickia
rickii
rico
riddle
rie
riess
rifai
rigidoporus
riichi
rij
rijks
rimbachia
rimelia
rimosus
rimularia
ring
rings
rinodina
rio
riv
rivas
river
rjan
rk
rka
rke
rki
rkowe
rkvizyon
rlitz
rn
rna
rnberg
rne
rnefelt
rnego
rnik
rno
rnor
rnos
rny
rnygo
rnyj
rnym
ro
road
rob
robak
roberge
robert
roberts
robertson
robi
robin
robio
robju
roblox
robnett
robota
roboty
robusta
robustum
roccellaceae
rock
rod
roda
rodek
rodini
rodn
rodnyj
rodr
rodri
rodrigues
rodu
rodway
rodwayi
rodz
rodzu
roemerianus
roestelia
roger
rogers
rogersii
rogerson
rok
roka
rokach
roki
rokitno
roko
roku
rokym
rola
roland
role
rolf
roli
roll
rolland
roln
roly
rom
roma
romagn
romagnesi
roman
romell
romero
ron
roots
ropalospora
ropy
roridomyces
ros
rosa
rosae
rosarum
rosea
rosellinia
roselliniella
roselliniopsis
roseola
roseum
roseus
rosine
rosj
roskov
ross
rossi
rossii
rossman
rostr
rostrata
rostrup
rotiferophthora
rotifers
rotting
roum
rousseau
roussillon
roux
rovereto
roy
royal
roz
rozc
rozcio
rozella
rozlygowan
rozlygowane
rozlygowano
rozlygowany
rozporza
rozprawianie
rozpro
rozrost
rozrostu
rozto
roztomajte
roztomajtych
roztu
rozu
rozwin
rozwinyły
rozwio
rozwju
rozwo
rozwoju
rozwu
rp
rpa
rske
rski
rskim
rsko
rstwa
rstwo
ru
rube
rubefaciens
rubella
rubescens
rubi
rubicola
rubiginosa
rubinoboletus
rubner
rubra
ruch
ruchu
ruchym
ruda
rudis
rudn
rudolf
rudy
rudz
rufescens
rugby
rugosa
rugosum
rugulosa
rui
ruiz
rulamort
rundel
rus
rusiaux
ruske
ruskej
ruski
ruskij
rusko
russia
russian
russula
russulaceae
russulales
russuloid
rust
rusts
rusyje
rusyji
rusyjo
rusyju
rutstroemia
rutstroemiaceae
ry
ryan
rybn
rybnik
rygju
rym
ryn
rynce
rynka
rynku
rynna
ryszard
ryvarden
rz
rza
rzburg
rze
rzec
rzecz
rzeszowskim
rzez
rzimje
rzimskigo
rzo
rzu
rzy
rzyce
rzyka
rzyki
rzyko
rzyku
rzym
rzyndu
s
sa
saarenoksa
sabbath
sabouraudia
sacc
saccardiaceae
saccardo
saccardoa
saccardoella
sacchari
saccharomyces
saccharomycetaceae
saccharomycetales
saccharomycetes
saccharomycopsis
saccobolus
sagediopsis
sagenomella
sahara
saikawa
saint
sainte
saito
sakay
saki
saksena
saksu
salazar
salicicola
salicina
salicis
salina
salisb
salmon
salvadorae
sam
sama
sambuci
same
samo
samobo
samodz
samogłoski
samos
samostanowjyn
samp
sampaio
samson
samsung
samuel
samuels
samuelsia
samuelsii
samyj
samym
san
sancho
sanders
sandu
sanford
sanguinea
sankt
sant
santa
santam
santamari
santesson
santessonii
santiago
santo
santos
sao
sapienti
sappa
sapporo
saprobic
saprochaete
sarawakus
sarbhoy
sarcodon
sarcographa
sarcogyne
sarcopodium
sarcoscypha
sarcoscyphaceae
sarcosomataceae
sarcotrochila
sardyn
sarnari
sarothamni
sartory
sasae
sat
satelitarne
sathe
sativae
sato
saturn
saturnispora
saunier
savile
savoie
savoryella
savul
sawada
sb
sber
sc
scand
sceaux
scha
schaeff
schaeffer
schaer
schaereria
scheff
schem
schenck
scheuer
schiffnerula
schild
schimmelpilze
schipper
schismatomma
schizonella
schizophyllum
schizoporaceae
schizothecium
schizothyriaceae
schizotrema
schla
schlag
schlechtendalia
schles
schlesien
schleswig
schltdl
schmidt
schneid
schneider
scho
schoch
schodn
schokn
schol
scholler
scholz
schotter
schr
schro
schroers
schroeteria
schru
schu
schub
schubert
schultz
schulzer
schumach
schumacher
schwarz
schwein
schweinitz
schweinitzii
schweiz
sci
science
sciences
scient
scientific
scientifique
scirpi
scirrhia
sclerococcum
scleroderma
sclerogaster
sclerotinia
sclerotiniaceae
sclerotium
scolecobasidium
scoliciosporum
scop
scopinella
scopulariopsis
scopuloides
scotica
scott
scripta
scutellinia
scutellospora
scutomollisia
scutula
scynarzista
scytalidium
scytinostroma
se
sea
seaver
sebacina
sebacinaceae
sebastian
second
secotium
secr
sect
sectie
section
sedz
see
seer
segedin
segregate
segregated
segregates
seifert
seimatosporium
seine
seiridium
sejm
sejmu
sel
select
selected
selecti
selenophoma
selsk
sen
senecionis
sensu
separation
septentrionalis
septobasidiaceae
septobasidium
septonema
septoria
septosperma
sequence
sequences
sequestrate
ser
serendipita
sergeeva
serial
series
serpulaceae
serravalle
servi
service
serwis
seryje
seryjo
seshadri
set
setariae
setchelliogaster
seth
sethy
setosa
setosphaeria
setulosa
seuran
seven
seymour
sezu
sfer
sferiacei
sh
shagufta
shanghai
shaped
sharma
shaw
shear
sheard
shearer
sheng
shepherd
sherwood
shi
shifrine
shin
ships
shirai
shirley
shivas
shoemaker
show
shrestha
shun
si
sia
siamensis
sic
sid
side
sie
siebie
siemaszko
siemaszkoa
siena
sierk
sierra
sieverd
sieverding
sigler
silenes
silesia
silesiae
silesiana
silling
silobia
silva
silvae
silvatica
sim
similar
similis
simmons
simocybe
simon
simplex
simplicillium
simpson
simulans
sin
sinclair
sinense
sinensia
sinensis
sing
singapore
singel
singer
singh
single
singles
singularis
sinoboletus
sio
sipman
sipmanii
siri
sist
sistotrema
site
sitt
sivan
sivanesan
six
siy
siydziba
siye
siyrpnia
siyła
siyły
sk
ska
skala
skali
ske
skego
skej
skeletocutis
skern
ski
skich
skie
skiego
skiej
skierka
skigo
skij
skim
skimi
skinner
skirz
skiz
sko
skogsva
skou
skr
skru
sku
skuli
skuod
skupin
skupina
skupiny
skuplowan
skych
skym
skło
skłod
skłodo
slezska
slezsko
slippers
sm
small
sman
smilacis
smith
smithii
smithson
smithsonian
smittium
smolen
smut
smuts
smy
smynto
sne
snell
sno
snos
so
soba
sobliwie
sobo
sobre
soby
soc
socie
sociedad
society
sogonov
soil
soils
sokołowskim
soku
solani
sole
solenopsora
solheim
solicorynespora
solitaria
solomon
solutions
som
some
someya
somme
sommerf
soneda
song
songs
sonic
sonorae
sonoran
sony
soop
soper
sopp
sorataea
sorbi
sordaria
sordariaceae
sordariales
sordariomycetes
sordida
sorediata
sorghi
sorokin
sous
sousa
south
southeastern
southern
souza
sowerby
sowerbyella
sp
spaaij
spadicoides
spain
spamiyn
sparassis
spark
sparrius
sparrow
spartii
spatafora
spathulata
spe
spec
special
species
speciesfungorum
specifications
speciosa
specs
spectabilis
speg
spegazzini
spegazzinia
spegazzinii
spencer
sphaceloma
sphacelotheca
sphaerella
sphaerellothecium
sphaeria
sphaerodes
sphaerodothis
sphaeronaema
sphaeronaemella
sphaerophoraceae
sphaerophragmium
sphaeropsis
sphaerospora
sphaerosporum
sphaerotheca
sphaerulina
spilonema
spinosa
spiralis
spirin
spiropes
spirosphaera
spis
spisu
spizellomyces
spizellomycetaceae
splanchnonema
splendens
splendida
spo
spodku
spongipellis
spooner
sporavtrycksfa
spored
sporendocladia
spores
sporidesmiella
sporidesmium
sporidiobolales
sporidiobolus
sporisorium
sporobolomyces
sporocybe
sporopodium
sporormia
sporormiaceae
sporormiella
sporoschisma
sporoschismopsis
sporothrix
sporotrichum
sporov
sportowy
sporul
spostrzo
spot
spots
spouec
spoz
społeczno
społecznos
społeczny
społeczyn
społym
spp
sprague
sprawa
sprawie
sprawio
spreng
sprengel
sprib
springer
springs
spro
sprynz
spu
spumula
squamanita
sri
sriniv
srivast
sroge
srogi
srogich
srogigo
srogij
srogim
srogo
srogos
srogsze
srogszo
srogszyj
ss
ssischen
ssler
ssr
sssr
st
sta
staatssamml
stac
stachybotrys
stachylina
stadju
stadler
stagonospora
staiger
stali
stalpers
stan
stangl
stanislaw
stanisław
stanisława
stano
stanowi
stanowio
stanowisko
stanowju
stanu
stanym
stapfia
star
stara
starba
stare
starmer
starmera
staro
staroz
stary
stat
state
statek
states
station
statistics
statni
status
statystyczny
statzell
stauronema
staurothele
staz
stała
stało
stały
stchigel
stecchericium
steccherinum
stefan
stegobolus
stein
steiner
stell
stellata
stellenbosch
stem
stemphylium
stenella
stenospora
stenroos
stephanosporaceae
stephensia
stereaceae
stereocaulaceae
stereocaulon
stereopsis
stereum
steuera
stev
steve
stevens
stevensii
stevenson
stewart
steyaert
sticta
stictica
stictidaceae
stictis
stigmatea
stigmatochroma
stigmatomyces
stigmatula
stigmidium
stigmina
stigmochora
stilbella
stilbohypoxylon
stilbum
still
stip
stipitata
stipitatum
stirt
stirton
stizenb
stn
sto
stockholm
stoji
stolec
stolecie
stolecio
stoleciu
stolica
stolice
stolico
stolicu
stolicy
stolk
stomiopeltis
stone
stopn
stor
store
story
stowarzyszenie
stoł
stoła
stoło
str
strangospora
strattonia
strauss
streams
strehlitz
streimann
striata
striatispora
stricto
strigosa
strigula
strigulaceae
stro
strobel
strobilina
strona
strone
strongman
stropharia
strophariaceae
strossmayeria
stru
structure
struktura
struktury
strzedn
strzednio
strzelce
strzeleckim
strziz
strzo
strzodek
strzodkowo
strzodkowoczeskim
strzodkowyj
strzodku
strzu
stsamml
stu
stud
studien
studies
study
stuntz
sturm
stuttgart
stw
stwa
stwach
stwami
stwie
stwje
stwo
stworzo
stworzu
stworzyn
stwowe
stwu
stwym
sty
styc
styczn
stycznia
styczyn
stylopage
stypella
su
subalpina
subantarctic
subfamilies
subgen
subgenera
subgenus
subglobosa
submerged
submersisphaeria
subram
subramanian
subtilis
subtropical
subulicystidium
subulispora
suchoz
sud
sudan
sudoc
suec
suecici
suetrong
suffolk
sugita
sugiy
sugiyama
sugiyamaella
suh
suillaceae
suillus
suisse
sukapure
sul
sulcata
sulphurea
suma
summa
summerbell
summerell
sumst
sun
sundara
sundaram
sung
suom
suowjan
sup
supe
super
superba
suppl
supplement
sur
surface
surv
survey
sussex
sutherl
sutton
suu
suz
suzuki
sv
svensk
svenska
sverige
svrcek
sw
swart
swartz
sweden
swinscow
swo
swoboda
swobodne
swoja
swoje
swojich
swojigo
swojij
swojim
swojo
swu
sycylijo
syd
sydney
sydow
sydowia
sydowiana
sydowiella
sydowii
syll
sylv
symb
symbionts
symbol
symbolym
symp
syn
syna
synandromyces
syncephalastraceae
syncephalis
syncesia
synchytriaceae
synchytrium
syngliocladium
synnematous
synonym
synonyms
synonymy
synopsis
synym
syrbiji
syrbijo
syringae
syryji
syst
system
systema
systematics
systematik
systems
systym
systyma
systymie
systymo
systymu
systymy
sytuacyjo
syzygospora
sz
szampan
szatala
szauszpiler
szauszpilerka
szczec
szczepan
sze
szego
szejs
szes
szko
szkocyje
szkocyji
szkocyjo
szkoła
szkoły
szkryft
szl
szlagcojg
szlagcojgu
szo
szos
szp
szpan
szpasu
szpil
szpila
szpilach
szpile
szpiler
szpilero
szpili
szpilo
szpilu
szportowy
szportu
szrajbo
szrajbu
sztac
sztacie
sztad
sztadu
sztama
sztand
sztat
sztatach
sztato
sztatu
sztatus
sztaty
sztatym
szto
sztrasbana
sztru
sztudio
sztwo
sztworty
sztyrech
sztyry
szu
szukacz
szula
szuli
szw
szwajcaryji
szwajcaryjo
szwecyji
szy
szych
szyj
szym
szyn
szyroko
szyrokos
szło
søchting
sło
słow
słowa
słowacko
słowacyji
słowacyjo
słowian
słowjan
słownik
słowo
słowyn
słoz
słu
słuz
t
ta
tab
tabl
tadeusz
tadz
taeniolella
tai
taipei
taiwan
taiwanensis
tajla
tajlach
tajle
tajleczek
tajli
tajlo
tajlowo
tajlu
tajluje
tajwan
tak
takada
takam
takamatsu
takash
takashi
takashima
take
taki
takich
takigo
takij
takim
tako
takso
taksonomichni
talaromyces
talbot
tallman
tam
tan
tanaka
tanzan
tanzawaensis
tapellaria
tapesia
taphrina
taphrinaceae
taphrophila
tar
tarczyn
targeo
tarn
tarnopolskim
tarnowskich
tarnowskim
tartu
tasm
tasman
tasmania
tasmanica
tassi
tat
tatarstan
tatarsto
tav
tax
taxa
taxi
taxon
taxono
taxonomic
taxonomical
taxonomie
taxonomy
taxons
taylor
te
tead
teatr
tech
techn
technischen
technol
technologiji
technology
tecno
tedy
tego
tehler
tehon
teil
teixeira
tej
tek
teksas
teksasu
tekst
teksto
tekstu
teksty
tel
tela
teleomorph
teleomorphs
telewizji
telewizyjny
telimena
telleri
teloschistaceae
ten
tenella
tenellum
teng
tennessee
tenue
tenuipes
tenuis
teoryje
teoryjo
tephrocybe
tephromela
ter
teratomyces
teratosphaeria
teratosphaeriaceae
terme
termin
terminaliae
termitomyces
tero
teroz
terozki
terrestre
terrestris
terricola
terriera
terror
teryn
terynach
terynie
teryno
terynu
teryny
terytorialnym
terytorium
terytorju
terytoryju
tes
tetracladium
tetramelas
tetrandromyces
tetrapisispora
tetrapyrgos
tetraspora
tewari
texana
texas
text
th
tha
thailand
thanatephorus
that
thaxt
thaxter
thaxteri
thaxteriella
thaxterogaster
the
theae
thecaphora
thecotheus
theft
their
theiss
theissen
theissenia
thelebolaceae
thelebolus
thelenella
thelenellaceae
thelephora
thelephoraceae
thelidium
thell
thelocarpaceae
thelocarpon
thelotrema
thelotremataceae
themes
theobromae
theodor
theophile
theory
thermoascus
therrya
thesis
thielavia
thiers
thind
thirum
this
thom
thomas
thomson
thore
thorn
thozetella
three
thu
thujae
thunbergia
thwaitesii
thyridaria
thysanophora
ti
tiarosporella
tibell
tidskr
tidsskr
tiegh
tierra
tigk
tiliae
till
tilletia
tilletiaceae
tilletiopsis
tim
timdal
time
times
tina
tirol
titel
tj
tki
tko
tm
to
tode
togniniaceae
toim
tokyo
tolkien
tolkiena
tolypocladium
tolyposporium
tom
tomasellia
tomasz
tomentella
tomentellopsis
tomilin
tommy
toni
toninia
top
topelia
topeliopsis
tor
tora
torino
tormu
tornai
toro
toronto
torre
torrend
torrendia
torrendiella
torrente
torrey
torrubiella
tortuosa
toru
torula
torun
tory
toskan
tottori
toulon
toulouse
tour
tous
toward
towards
towarzystwo
town
township
toz
tr
tra
trachyspora
tracy
tradycyje
tradycyji
tradycyjo
trail
traite
trametes
trans
transfer
tranzschel
tranzschelia
tranzscheliella
trapeliaceae
trapeliopsis
trappe
trappea
trapping
trav
traverso
trb
tre
trechispora
tredick
tree
trees
trefic
trefjo
trefju
tremella
tremellaceae
tremellales
tremellodendropsis
tremellomycetes
tremotylium
trent
trento
tres
tretospora
trevis
trevisan
triadelphia
triangularia
triangularis
tribus
trichaptum
tricharina
trichocladium
trichocomaceae
trichoderma
tricholoma
tricholomataceae
tricholomatales
trichomonascaceae
trichomonascus
trichomycete
trichomycetes
trichonectria
trichopeziza
trichophaea
trichophyton
trichosphaeria
trichosphaeriaceae
trichosporon
trichosporonaceae
trichosporonoides
trichosporum
trichothecium
trichothelium
tricladium
trident
triebel
trifolii
trimest
trimmatostroma
tripospermum
triseptata
tritici
tritirachium
trl
tro
trocha
trod
trogia
trop
tropica
tropical
tropicalis
tropico
tropics
trotter
tru
trudy
truffle
truncatella
trut
trwo
trwoł
tryn
tryner
trypetheliaceae
trypethelium
trza
trzc
trzec
trzech
trzeci
trzesakowe
trzi
trzidz
trzys
ts
tsuda
tsugae
tsui
tsuneda
tte
tter
tterpilze
ttingen
tu
tubaki
tubaria
tuber
tuberac
tuberaceae
tubercularia
tuberculata
tubeuf
tubeufia
tubeufiaceae
tubosaeta
tubulicium
tubulicrinis
tubulicrinopsis
tuck
tucker
tuckerman
tuckermanella
tuckermannopsis
tude
tukej
tul
tulasne
tulasnei
tulasnella
tulasnellaceae
tulostoma
tum
tumaczyn
tur
tura
turbinata
turcyje
turcyji
turcyjo
tureckich
turecko
turkey
turkvizyon
turn
turner
turyngijo
turystu
turystyce
turystyczne
turystyka
turystyki
tuvska
tv
tvp
twardoch
tweede
twenty
two
twor
tworzi
tworzic
tworzo
tworzu
tworzynio
twu
ty
tych
tychach
tychy
tydn
tygo
tygodnik
tyj
tyjater
tyjatralny
tyko
tym
tymat
tymatu
tympanis
tymperatura
tymperatury
tymu
tyn
type
typhae
typhula
typhulaceae
typu
tyromyces
tys
tysio
tysiyncy
tytuł
tytułym
tyz
tz
tzean
tzw
tønsberg
u
ua
uac
uc
uchiy
uchiyama
uczo
uczu
udagawa
uden
udeniomyces
udz
udzio
udzioł
ueber
ueda
uefa
ueyama
ugo
ujs
uk
ukazuje
uko
ukr
ukraine
ukrajin
ukrajina
ukrajiny
uku
układu
układzie
ukło
ul
uleomyces
ulje
ullasa
ulmariae
ulmi
ulmicola
ulocladium
ultra
ultrastructural
um
uman
umarto
umartych
umbelopsidaceae
umbelopsis
umbilicaria
umbilicariaceae
umbonata
umbrina
umo
umrził
un
una
uncinula
und
under
underarten
underarter
underground
undescribed
undulata
une
unesco
unger
unguicularia
unguiculariopsis
unguiculella
unicolor
unije
union
uniseptata
united
unitunicate
univ
univers
universalis
universidade
university
uniwersytetu
uniwerzytecie
uniwerzytet
unocno
unocy
unters
untersuchungen
unusual
uo
uobecn
uobejmuje
uobejrzij
uobejzdrzij
uobjyntos
uobleczyn
uobocz
uoborn
uobowju
uobru
uobs
uobu
uobwodu
uobwodz
uobwu
uobyczn
uocean
uoceanu
uoceanym
uochodzach
uochodzan
uochu
uod
uodc
uoddane
uoddekn
uoddz
uode
uodru
uodry
uodymkn
uoficjaln
uoficjalne
uoficjalno
uoficyjalno
uoficyjolno
uogu
uojc
uoklahu
uokolice
uokres
uokru
uokryngu
uokrys
uoksytan
uoles
uolsztyn
uonz
uoparto
uopolske
uopolskim
uoprogramowan
uorgan
uos
uosada
uosadn
uoskara
uosobliwje
uosoby
uostatn
uostała
uostało
uostoł
uostoła
uostoło
uostr
uostru
uostrzodek
uostrzodkym
uosu
uowern
uoz
uoznaczo
uoznoczo
up
upadhyay
upan
uppsala
upreti
upsal
upsaliae
ur
uraecium
uranie
urban
urbana
urceolella
urdu
ured
uredin
uredinales
uredinopsis
uredo
uredopeltis
url
urocystidaceae
urocystis
urodz
urol
uromyces
uromycladium
uropyxidaceae
uropyxis
urticae
urza
urze
urzu
us
usa
using
usnea
usneae
ustanciosporium
usteri
ustilaginaceae
ustilaginales
ustilaginomycetes
ustilago
uszakowe
utah
uto
utrecht
utworu
utworzo
utworzu
uu
uwaz
uwe
uwo
uwoz
uy
uz
uzno
uznowo
v
va
vaccinii
vaduz
vagans
vahliella
vain
vainio
vainionora
val
vale
valencia
validation
validations
valle
valley
valsa
valsaceae
valsaria
valsella
van
vanamo
vancouver
vanderbylia
vanderwaltozyma
var
vararia
varghese
varia
variabile
variabilis
varians
variations
varicosporium
vasilyeva
vassiljeva
vassiljevsky
vaterl
vauras
ve
veenb
veg
veget
vegte
veille
vel
velen
velenovsky
vellinga
veluticeps
velutina
velutinum
venet
veneta
veneti
veneto
venez
venezuela
venkatachalier
venturia
venturiaceae
venturiocistella
ver
verbeken
verdon
vereins
verh
verkley
verlag
verma
vermispora
vermisporium
vernalis
verona
veronaea
veronicae
verrie
verrucaria
verrucariaceae
verruciformis
verrucosa
verrucosum
verrucosus
verruculosa
verruculosum
versicolor
verticillata
verticillium
very
vestberg
vestergr
vestergren
vet
vetensk
vetenskakad
vezda
vezdaea
vi
viaf
viala
vibrissea
vibrisseaceae
vice
victor
victoria
victoriae
victorian
vidal
vidensk
video
vie
vienn
vienne
view
vii
viii
vila
vilgalys
villa
villosa
vilnius
vincent
vincenzo
vinci
vinosa
violacea
violaceum
violae
vip
virescens
virgin
viride
viridis
viridula
vit
vital
viticola
vitik
vitis
vittad
vittal
viv
vivo
vleugel
vo
voglino
voglmayr
vol
volkm
volkmann
volume
volutella
volvariella
vom
von
voor
vorschlag
vosges
vostoka
vouaux
vouauxiella
voy
voyage
vries
vrijmoed
vroey
vuill
vuillemin
vuilleminia
vulgaris
w
wa
wac
wachtyrz
wageningen
wagner
wago
wahab
wahlenberg
wajo
wakef
wakefield
walce
waldh
waliji
walijo
walker
wall
wallace
wallr
wallroth
wallrothiella
walt
walter
wan
wane
wang
wano
wany
wapyn
war
warcup
ward
wardomyces
warmin
warner
waro
wars
warsaw
warszawa
warszawie
warszawje
wartko
wartos
waru
was
wash
washington
wasser
waszyngtu
water
waterloo
watling
watson
watyku
wav
waz
wały
wc
wchodzo
wczas
wczes
wdy
we
web
weber
weberi
websdaneaceae
webster
wedin
wedle
według
weese
wehm
wehmeyer
wei
weijman
wein
weir
weiser
weiss
weitzman
wek
welden
wele
wells
welo
welu
welwitsch
wentiomyces
weraroa
werk
werner
wersyjach
wersyje
wersyji
wersyjo
wert
wescho
weschodnij
weschodzie
wespu
west
weste
westend
westerdykella
western
westfalijo
westling
wet
wetmore
wetter
wettsteinina
whalley
what
whetzel
which
white
whitehead
whitton
who
wiado
wiat
wiata
wiatowyj
wiatła
wiatło
wick
wickerhamiella
wickerhamomyces
wicklow
wideo
widz
wie
wiecie
wiedzy
wieku
wiela
wielge
wielgi
wielgich
wielgigo
wielgij
wielgo
wielka
wielkie
wielos
wielu
wien
wies
wiez
wikimapia
wikimedia
wikipedia
wikipedyje
wikipedyjo
wikispecies
wild
wilhelm
will
willd
willdenow
willdenowia
william
williams
williopsis
willoughby
wilson
wiltshire
win
windahlia
windisch
windows
winge
wingf
wingfield
wino
winter
winteri
wio
wirgin
wirth
wirtymbergijo
wirtymbyrgijo
wis
wisconsin
wiss
wisła
wisłu
wisły
with
within
wiyncyj
wiynksza
wiynkszos
wiyntego
wiynto
wiyrchni
wiyrchnia
wiyrchnie
wjata
wjatowo
wjatowyj
wjec
wjejski
wjejskigo
wjeku
wjela
wjelge
wjelgi
wjelgich
wjelgij
wjelgo
wjelgopolske
wjelgopolski
wjelgopolskim
wjelgos
wjelke
wjelos
wjelu
wjes
wjez
wju
wjyn
wjyncy
wjyncyj
wjynks
wjynkszo
wjynkszos
wjynto
wjyntokrziske
wjyntokrziskim
wjynty
wjyntych
wjyntygo
wjyrch
wjyrchn
wjyrchu
wjyrchym
wka
wki
wkludzo
wkludzu
wko
wku
wlazuje
wlazuju
wn
wne
wnie
wnij
wno
wnu
wny
wnych
wnyj
wnym
wo
woda
wodnych
wodu
wody
wodyn
wodz
woj
wojaczce
wojaczki
wojciech
wojewo
wojewoda
wojewu
wojn
wojna
wojnie
wojnu
wojny
wojo
wojoku
wojsk
wojska
wojywo
wokal
wokalista
wola
wolf
wolfe
wolfgang
wolfiporia
wollenw
wollenweber
wolnos
wong
wood
woody
world
worldcat
woron
wortschatz
woz
woł
wołyn
wpado
wr
wraz
wright
wrightii
wrightoporia
writ
wro
wrocław
wrocławia
wrocławiu
wrocławskim
wroz
wru
wrzes
ws
wscho
wschodn
wschodu
wschodz
wschu
wsi
wspo
wspu
wszechs
wszeo
wszyjske
wszyjskich
wszyjskim
wtynczo
wu
wuestneia
wulku
wuu
www
wy
wyborcza
wybr
wybrzez
wybrzyz
wyc
wyco
wyd
wydan
wydanie
wydano
wydany
wydawn
wydawnictwa
wydawnictwo
wydo
wydobyc
wydoł
wydz
wygrano
wygro
wygroł
wyjo
wyk
wyko
wyku
wym
wymianowane
wymo
wyn
wynecyjo
wynezueli
wyniki
wyniku
wynos
wynosi
wyraz
wyrfel
wyro
wyru
wys
wysoke
wysoki
wysoko
wysokos
wysp
wyspa
wyspach
wyspie
wyspje
wyspu
wyspy
wystawio
wysto
wystympowoł
wystympuje
wystympujo
wystympuju
wytwo
wywodz
wyz
wyznan
wz
wzduz
wzglyndym
wzio
wzro
władimir
władysław
władz
władza
władze
władzu
władzy
włas
właz
wło
włu
x
xanthagaricus
xanthochroic
xanthoconium
xanthomendoza
xanthoparmelia
xanthoria
xaver
xenasma
xenasmataceae
xenolophium
xenomeris
xenosporium
xerocomus
xeromphalina
xerula
xi
xiaomi
xii
xiii
xing
xiv
xix
xperia
xu
xv
xvi
xvii
xviii
xx
xxi
xxii
xxiii
xxix
xxvi
xxxvi
xylaria
xylariaceae
xylariaceous
xylariales
xylographa
xylohypha
y
yaguchi
yaku
yamada
yamadazyma
yamaguchi
yamam
yang
yanna
yao
yarrow
yasuda
yc
yca
yce
ych
ycia
ycie
ycio
yciu
ycko
ycy
ydu
ydz
year
years
yeast
yeasts
yen
ygo
yin
ying
yip
yj
yje
yjo
yju
ykej
ykere
ykerych
yki
yku
yli
ylu
ym
ymcy
ymi
ymja
ymje
ymji
ymnygo
ymnym
ymskigo
yn
yna
ync
ynergije
ynergijo
yng
ynga
yngland
ynglandu
ynglandz
ynglickej
ynie
ynio
yniu
ynki
ynn
yno
ynsto
ynstwa
ynstwo
ynte
ynto
ynty
yny
ynz
yokoy
york
yorkshire
yoshim
you
young
youngiomyces
your
youtube
ypodległos
yprzestympne
yr
yrpjyn
yrpn
yrwca
ys
yser
yskor
yskorzi
ysty
ysyr
yta
ytku
ytnos
yto
ytos
yu
yua
yuan
yunn
yunnan
yunnanensis
yvelines
ywac
ywajo
ywaju
ywan
ywane
ywano
ywany
ywanygo
ywe
ywicy
ywo
ywobyc
ywoln
ywy
yz
yzalez
ył
yła
yły
z
za
zaangaz
zabrze
zabytko
zac
zach
zachodn
zachodni
zachodnich
zachodnij
zachodnio
zachodu
zachodz
zachu
zacynou
zaczo
zaczu
zaczyno
zaczynto
zaczła
zaczły
zadku
zagran
zagroz
zagroł
zahlbr
zahlbruckner
zajc
zajcie
zajmuje
zajmujo
zajmuju
zajo
zajta
zajto
zajty
zajyn
zak
zako
zaku
zalerion
zales
zalessky
zalez
zaliczo
zaludn
zambett
zamek
zamiast
zamiyszkujo
zanclospora
zang
zao
zapis
zapropo
zarchiwizowane
zare
zaro
zarzu
zas
zasto
zastosowan
zatoka
zatoki
zatoku
zauobycz
zawarto
zawiyro
zawjero
zazou
zała
zało
załoz
zały
zb
zbigniew
zbju
zbl
zbliz
zbuczyn
zbudowane
zbudowano
zbudowany
zd
zdan
zdene
zdjync
zdo
zdobo
zdobu
zdobyc
zdru
zdrzo
zdrzu
zdu
zdy
ze
zeae
zealand
zef
zefa
zel
zelandiae
zelandyji
zeller
zelleromyces
zenfone
zentbl
zespo
zespołu
zespu
zginu
zgoda
zgodnie
zgody
zh
zhang
zhao
zheng
zhou
zhuang
zhurb
zicher
zidlo
zidlu
zie
zielo
ziem
ziemi
zignoe
zimbabwe
zimm
zipfel
ziym
ziymi
ziymia
ziymie
zjednoczo
zjednoczu
zjydnoc
zjydnoczu
zki
zl
zm
zmiany
zmitrovich
zmjyn
zmyn
zn
znaczo
znaczy
znaczyn
znaju
znak
znamjyn
znane
znano
znany
zno
znoc
znoczyn
znojduje
znojduju
znok
znu
zo
zobrze
zogg
zonata
zone
zool
zoopagaceae
zoopage
zoophagus
zoophthora
zopf
zopfiella
zort
zorta
zorto
zortu
zorty
zostou
zostoł
zouoz
zowdy
zoł
zołoz
zrobio
zrobju
zschacke
zso
zsolt
zte
ztg
zu
zukal
zumi
zundel
zupa
zur
zuu
zweite
zwickau
zwio
zwiyrza
zwiyrzo
zwiyrzynta
zwju
zwjy
zwo
zwyc
zwykle
zygoascus
zygomycetes
zygomycota
zygomycotina
zygorhizidium
zygorhynchus
zygosaccharomyces
zygosporium
zygotor
zyk
zyka
zło
złoto
złoty
złoz
{
|
}
~
«
°
±
²
³
´
µ
·
»
×
ßler
æ
øvstedal
ı
ł
ła
łac
łacin
łan
łaz
łka
łki
łkuli
łnoc
łnocach
łnocne
łnocno
łnocny
łnocnygo
łnocnyj
łnocnym
łnocy
ło
łobez
łojek
łowickim
łrzyndne
łto
łu
łukasz
łukowskim
łuz
łwyspje
ły
ʲ
ʻ
ʿ
ˈ
ˌ
ː
̀
́
̂
̃
̄
̆
̇
̈
̊
̋
̌
̓
̔
̛
̣
̦
̧
̨
̯
͂
α
δ
θ
μ
ν
ο
π
ς
φ
ψ
ω
а
б
в
г
д
е
и
м
н
на
о
р
с
у
э
ю
я
խ
ִ
ַ
ָ
ּ
ا
ة
ر
ع
ل
م
َ
ُ
ِ
ّ
ْ
ٓ
ٔ
ٕ
ި
ެ
ं
क
च
त
द
ब
र
ल
ा
ि
ु
े
ो
्
া
্
ப
்
ക
ാ
ു
്
ก
น
ว
อ
ั
ิ
ี
ุ
็
่
้
་
မ
ိ
ု
်
ြ
​
‎
‏
‑
–
—
‘
’
“
”
„
†
•
…
‰
′
″
⁡
→
↓
↔
↷
∈
−
∘
∫
≈
⊆
⊕
⋅
③
④
⑦
★
☆
⟶
⩽
ⴰ
ⴽ
ⵉ
ⵏ
ⵔ
ⵙ
ⵟ
⺀
⺄
⺆
⺈
⺊
⺌
⺕
⺝
⺸
⺼
⿰
⿱
⿲
⿳
⿴
⿵
⿶
⿷
⿸
⿹
⿺
⿻
【
】
〢
い
の
゙
゚
ア
イ
エ
カ
ク
ケ
コ
シ
ス
テ
ト
ニ
ノ
フ
ヘ
ホ
ユ
ョ
ラ
リ
ル
レ
ン
・
ー
㇁
㇂
㇄
㇇
㇈
㇉
㇓
㐁
㐄
㐅
㐌
㐫
㐬
㐭
㐮
㐱
㑒
㒵
㒸
㒼
㓁
㓞
㔾
㕛
㕣
㖾
㘝
㚅
㚇
㚔
㚘
㝉
㝡
㝴
㝵
㞋
㞢
㞷
㠩
㠭
㠯
㡀
㡭
㡿
㢲
㢴
㣇
㣺
㥯
㪅
㫄
㫐
㫒
㫺
㬅
㬎
㬥
㬰
㲋
㳄
㷠
㸒
㸚
㸦
㼌
㼲
㽞
㿟
䀠
䂞
䍃
䏍
䒑
䖍
䖒
䖝
䖵
䙴
䚻
䜌
䝿
䡛
䧹
䪞
一
丁
丂
七
丄
丅
丆
万
丈
三
上
下
丌
不
与
丏
丐
丑
专
且
丕
世
丘
丙
业
东
丞
丢
丣
两
严
並
丨
丩
个
丫
丬
中
丮
丰
丱
串
丵
丶
丷
丸
丹
为
主
丽
丿
乀
乂
乃
久
乆
乇
么
义
之
乌
乍
乎
乏
乐
乑
乔
乖
乗
乘
乙
乚
乛
乜
九
乞
也
习
乡
买
乳
乾
亀
亅
了
亇
予
争
事
二
亍
于
亏
亐
云
互
亓
五
井
亘
亚
亜
亞
亟
亠
亡
亢
交
亥
亦
产
亨
亩
享
京
亭
亮
亯
亰
亲
亳
亶
亷
人
亻
亼
亾
仁
今
介
仌
从
仐
仑
仒
仓
仕
他
付
仝
代
令
以
任
企
伊
伏
伐
休
会
伯
但
位
何
佘
余
作
佥
使
來
侈
侌
侖
侯
侵
便
保
俞
信
修
倉
倍
候
倠
備
僉
僕
儿
兀
允
兂
元
兄
充
兆
兇
先
光
兊
克
兌
免
兑
兒
兓
兔
党
兜
兟
入
全
兩
兪
八
公
六
兮
兰
共
关
兵
其
具
典
兹
兼
冀
冂
冃
冄
内
冈
冉
冊
冋
册
再
冎
冏
冐
冒
冓
冖
冗
冘
军
农
冝
冡
冥
冫
冬
冷
几
凡
凢
凵
凶
凷
凸
凹
出
函
凾
刀
刁
刂
刃
刄
刅
分
切
刍
刑
刕
刖
列
刘
则
初
別
利
别
到
制
刺
則
削
剌
前
剡
剽
劉
力
功
加
劦
助
劫
劳
劵
勃
勇
勉
勒
動
務
勞
勤
勹
勺
勻
勾
勿
匀
匂
包
匆
匈
匊
匋
匍
匕
化
北
匚
匝
匡
匪
匱
匸
匹
区
医
匽
匿
區
十
卂
千
卄
卅
卆
升
午
卉
半
卌
华
卑
卒
卓
单
卖
南
卜
卝
卞
占
卡
卢
卣
卤
卦
卩
卪
卬
卯
印
危
即
却
卵
卷
卸
卻
厂
厃
厄
历
厈
厉
厌
厓
厘
厚
原
厤
厥
厨
厭
厲
厶
厷
厸
去
厼
厽
叀
参
參
叅
又
叉
及
友
双
反
叐
发
叒
叔
叕
取
受
叚
叜
叟
口
古
句
另
叩
只
召
可
台
叱
史
右
叵
号
司
叹
吂
各
吅
合
吉
吊
吋
同
名
后
吏
向
吕
君
吝
吞
否
含
启
吳
吴
吹
吾
呂
呆
呈
告
员
呙
周
命
咅
和
咎
咠
咢
咨
咸
咼
哀
品
哉
員
哥
哲
唐
商
啇
問
啚
啬
啻
善
喜
喬
單
喿
嗇
噩
嚴
囊
囗
囘
囙
囚
四
回
囟
因
囧
囬
困
囱
囷
固
国
圂
圅
國
圍
圓
土
圡
圣
圥
在
圭
地
圶
圼
坐
坒
坚
坴
垂
垔
垚
埀
埋
城
埶
執
基
堂
堅
堆
堇
堯
塞
墨
壘
士
壬
壯
声
壳
壴
壹
壺
壽
夂
处
夅
夆
备
夊
夋
夌
复
夏
夒
夕
外
夗
夘
多
夜
夢
大
夨
天
太
夫
夬
夭
央
失
夲
头
夷
夸
夹
夻
夾
奂
奄
奇
奈
奉
奎
奏
奐
契
奓
奔
奚
奞
奠
奢
奥
奭
女
奴
奻
好
如
妄
妙
妟
妥
妻
妾
姑
委
姜
威
娄
婁
婴
嬰
嬴
子
孑
孔
孕
孖
字
存
孚
孛
孝
孟
季
孤
学
孫
孱
學
宀
宁
宂
它
宅
宇
守
安
宋
完
宏
宓
宗
官
定
宛
宜
宝
客
宣
室
宮
宰
害
家
容
宾
宿
寄
寅
密
富
寒
察
寧
審
寫
寬
寮
寸
对
寺
寻
寽
対
寿
封
尃
射
将
將
專
尉
尊
尋
尌
對
小
少
尒
尓
尔
尖
尗
尚
尞
尢
尣
尤
尧
尨
尭
就
尸
尹
尺
尻
尼
尽
尾
尿
局
居
屈
屋
屎
屏
屑
展
屖
屚
属
屠
屡
屬
屮
屯
屰
山
屵
屾
岁
岂
岑
岡
岩
岳
岸
峯
島
崇
崑
崔
崖
崙
崩
嵬
嶲
巂
巛
川
州
巟
巠
巢
巤
工
左
巧
巨
巩
巫
差
己
已
巳
巴
巷
巸
巽
巾
巿
帀
市
布
希
帚
帛
帝
带
師
席
帶
常
干
平
年
幵
并
幷
幸
幺
幻
幼
幽
幾
广
広
庄
床
底
店
庚
府
度
庫
庭
庶
康
庸
廉
廌
廛
廣
廩
廴
延
廷
建
廾
廿
开
弁
弃
弄
弇
弋
式
弓
弔
引
弗
弘
弜
弟
弥
弦
弱
張
強
强
彊
彌
彎
彐
彑
当
彔
录
彖
彗
彡
形
彥
彦
彧
彭
彳
役
彼
往
待
律
徒
得
徙
從
復
微
徵
心
忄
必
忌
忍
志
忝
忠
忩
快
念
忽
忿
思
怠
急
怱
恆
恒
恩
恭
息
悉
患
悤
悲
悶
惠
惡
惢
愁
愈
意
愛
感
慈
慧
慮
憂
憲
應
戀
戈
戉
戊
戋
戌
戍
戎
成
我
戒
戔
或
戚
戠
戢
截
戲
戶
户
戹
戼
戾
房
所
扁
扇
手
扌
才
打
托
执
承
折
拉
拜
拿
掌
推
提
摩
支
攴
攵
收
攸
改
放
政
敄
敏
敕
敖
敗
敝
敞
敢
散
敦
敫
敬
数
敷
數
斂
文
斉
斊
斗
斤
斥
斩
斬
斯
新
方
於
施
斿
旁
旋
族
旗
无
旡
既
旣
日
旦
旧
旨
早
旬
旱
旲
时
旾
昆
昇
昌
昍
明
昏
易
昔
昗
昜
星
春
昬
是
昱
昴
昷
時
晃
晋
晏
普
景
晶
智
暑
暴
曇
曩
曰
曲
曳
更
曷
書
曹
曼
曾
替
最
朁
會
月
有
朋
服
朔
朕
朗
望
朝
木
朩
未
末
本
札
朮
术
朱
朵
朶
机
朿
杀
李
杏
杜
束
条
来
東
杲
杳
松
析
林
枚
果
枝
枲
枼
某
柔
查
柬
柰
柴
栗
株
桀
桑
桼
梁
條
梟
梨
棘
棠
棥
森
楚
業
楽
概
榮
樂
樊
欠
次
欣
欮
欲
欶
欽
款
歆
歇
歛
止
正
此
步
武
歨
歪
歮
歯
歰
歲
歴
歷
歸
歹
歺
死
殳
段
殷
殸
殹
殺
殻
殿
毋
毌
母
每
毒
比
毕
毚
毛
毳
氏
氐
民
气
氣
水
氵
氶
氷
永
氺
氾
求
汝
汞
江
沃
沓
沙
沝
泉
法
波
泣
泥
泰
洛
洪
活
派
流
浦
浪
浮
海
淡
淮
清
渚
渠
湯
満
滿
漸
火
灬
灭
灰
灵
灷
炅
炎
炏
炗
炙
炭
為
烈
烏
烝
焉
無
焦
焱
然
煞
熊
熏
燕
營
燮
爪
爫
爭
爯
爰
爱
爲
爵
父
爻
爽
爾
爿
片
牌
牙
牚
牛
牜
牟
牢
牧
牪
牽
犀
犬
犭
犮
狂
狄
狊
独
狺
猋
猒
猪
献
獻
玄
率
玉
王
玟
玨
珎
班
琴
瑟
瑩
瓜
瓦
甘
甚
生
産
用
甫
甬
田
由
甲
申
电
甶
男
甸
甹
画
甾
畀
界
畏
畐
留
畜
畟
畢
畧
畨
番
畫
異
畱
當
畺
畾
疊
疋
疌
疑
疒
疾
癶
癸
癹
登
發
白
百
皀
皃
的
皆
皇
皋
皐
皕
皮
皷
皿
盃
盆
盇
盈
益
盍
盎
监
盒
盖
盛
盡
監
盤
盧
目
直
相
盾
省
眇
眉
看
眔
眞
真
眷
眼
眾
着
睘
睪
睿
瞏
瞢
瞿
矍
矛
矞
矢
矣
知
矦
短
石
破
碎
磊
磨
示
礻
礼
社
祟
票
祭
禀
禁
禸
禹
禺
离
禽
禾
禿
秀
秃
秉
秋
科
秝
秦
移
稟
穀
穌
穴
究
穹
空
穿
突
窄
窒
立
竒
竜
竝
竟
章
童
竹
笑
笠
符
筆
等
答
箕
算
箴
節
篤
篭
米
粉
粛
粟
粤
粦
粲
糞
糸
糹
系
約
納
素
索
紫
累
細
絜
絫
絲
維
綿
縣
繇
纍
纟
缶
网
罒
罔
罕
罗
罙
罡
罢
罪
署
罷
羅
羊
羌
羍
美
羔
羕
羗
羞
羡
羣
群
義
羲
羸
羽
翁
翏
習
翕
翟
翠
翼
老
耂
考
者
耆
而
耎
耑
耒
耳
耴
耶
耷
聂
聊
聖
聚
聴
聶
聿
肀
肃
肅
肉
肖
肙
肥
肩
肯
育
肴
胃
背
胡
胥
能
脊
脩
膚
臣
臤
臧
自
臬
臭
臯
臱
至
致
臺
臼
臽
臾
臿
舀
舂
舄
與
興
舉
舌
舍
舛
舜
舞
舟
般
舰
艮
良
色
艸
艹
艾
芒
芔
芬
芮
花
芳
芺
芻
苔
苗
苟
若
苦
英
茶
茸
荅
草
荒
荣
荼
莆
莧
莫
莽
菆
菊
菐
華
萬
落
葉
著
葛
董
葵
蒙
蒦
蒼
蓋
蓬
蓺
蔑
蔡
蕉
蕭
薄
薛
薦
薰
藍
藏
藥
蘭
虍
虎
虐
虒
虔
處
虖
虗
虘
虚
虛
虜
虞
虫
虽
蚤
蚩
蜀
蜜
蟲
蠡
血
行
衍
衛
衣
衤
表
衮
衰
袁
袞
褭
褱
襄
襾
西
覀
要
覃
見
規
覓
覧
親
覽
见
角
解
言
訁
訇
計
詹
誩
諸
讠
谷
豆
豈
豊
豐
豕
豖
豙
象
豦
豩
豪
豸
貇
貝
貞
貟
負
貢
貧
貪
貫
責
貳
貴
買
費
賁
資
賈
賏
賓
賔
賛
賞
賢
賣
質
賴
贊
贝
贡
责
购
贯
贲
贵
赖
赞
赤
赦
走
越
足
路
蹇
身
躬
車
軍
軎
軟
輦
车
辛
辜
辟
辥
辰
辱
農
辵
辶
边
达
过
近
连
述
迷
追
退
送
逆
逐
通
速
造
逢
連
逮
進
遀
遂
過
道
達
遣
適
遷
遺
邊
邑
邕
那
邦
邪
郎
部
郭
都
鄉
酉
酋
配
酓
釆
采
里
重
野
量
金
釒
錢
钅
長
镸
长
門
閃
閉
開
閏
閑
閒
間
閔
閵
閻
闌
门
间
闷
阑
阜
阝
阿
降
陳
隆
隊
隋
隡
隨
隱
隶
隹
隺
隻
隼
隽
难
雀
雁
集
雈
雋
雍
雐
雔
雙
雚
雜
雝
離
難
雨
雩
雪
雲
零
雷
需
霍
霜
霝
霞
霸
靈
靑
青
非
靡
面
靣
革
韋
韦
韭
韯
韱
音
頁
頃
項
須
頗
頡
頻
顛
页
風
风
飛
飞
食
飠
養
饣
首
香
馬
馮
駦
马
骨
高
髟
鬥
鬯
鬲
鬼
魅
魚
魯
鮮
鱼
鲁
鳥
鳳
鸟
鹵
鹿
麃
麗
麥
麦
麻
黃
黄
黍
黎
黑
黒
黨
黹
黽
黾
鼎
鼓
鼠
鼻
齊
齋
齐
齒
齿
龍
龙
龜
龟
龠
龰
龱
龴
龵
龶
龷
龸
龹
ꙉ
者
艹
？
🜨
𠀁
𠀃
𠀆
𠀉
𠀎
𠀐
𠁁
𠁣
𠂆
𠂇
𠂈
𠂉
𠂊
𠂋
𠂎
𠂒
𠂔
𠂛
𠂡
𠂢
𠂤
𠂬
𠂭
𠂹
𠃊
𠃋
𠃌
𠃍
𠃎
𠃑
𠃓
𠃔
𠃜
𠄌
𠄎
𠄠
𠄢
𠆢
𠆥
𠇍
𠈌
𠌵
𠓜
𠔉
𠔥
𠔼
𠔽
𠔿
𠕀
𠕁
𠕋
𠘧
𠘨
𠙻
𠙼
𠚏
𠚒
𠚤
𠚪
𠣏
𠤎
𠤕
𠥓
𠦄
𠦑
𠦝
𠧒
𠧗
𠧪
𠩺
𠪚
𠫓
𠫔
𠫤
𠬛
𠬝
𠬞
𠬢
𠬤
𠬶
𠮛
𠮦
𠮷
𠯑
𠱠
𠳮
𠷎
𡈼
𡉀
𡉵
𡌥
𡍮
𡏳
𡕒
𡕩
𡕰
𡖅
𡗗
𡗜
𡘆
𡘤
𡧱
𡨄
𡩧
𡬠
𡭽
𡰣
𡰥
𡰪
𡰯
𡰱
𡷈
𡸁
𡿨
𡿩
𡿪
𡿺
𢀖
𢀛
𢀩
𢁙
𢆉
𢆰
𢆶
𢇁
𢇇
𢉖
𢌬
𢌿
𢏚
𢑑
𢑚
𢖻
𢙣
𢛳
𢦏
𢦒
𢧵
𢼄
𢾕
𣁋
𣄼
𣅀
𣅽
𣍘
𣎳
𣎵
𣏋
𣏼
𣗥
𣥂
𣥖
𣦵
𣦼
𣧄
𣪊
𣪠
𣬉
𣳾
𣶒
𤇾
𤊽
𤐫
𤓰
𤔔
𤕨
𤣩
𤰇
𤰔
𤰞
𤴓
𤴔
𤽄
𥁑
𥁕
𥃦
𥃩
𥃭
𥇡
𥑟
𥘅
𥘈
𥝢
𥫗
𥱡
𦈢
𦉪
𦉬
𦉼
𦍌
𦍒
𦎧
𦐇
𦓔
𦔮
𦘒
𦙃
𦚏
𦣝
𦣞
𦣻
𦥑
𦥔
𦥯
𦨉
𦭝
𦰩
𧆞
𧈧
𧘇
𧰨
𧴪
𧴮
𧵩
𧾷
𨸏
𨾴
𩙿
𩠐
𩫏
𩵋
𪉷
𪜀
𪟽
𪠲
𪩲
𫇦
𫔭
𫜸
𫝀
𫠣
𫠩
𫢉
𫥞
𫩏
𫩠
𫪡
𫲽
𫶧
𬀷
𬐘
𬗌
𬙙
𬛸
𬜯
𬟩
𬯁
𬴘
𬺻
𬼉
𬼖
𭀰
𭁈
𭁨
𭅰
𭑈
𭕄
𭗼
𭤨
𭥫
𭻾
𮅕
𮊿
𮍌
𮍏
𮓗
𮥼
𮧮
廾
𰀁
𰀄
𰀈
𰀉
𰀕
𰀠
𰀡
𰀢
𰀪
𰁜
𰃮
𰆊
𰆘
𰋙
𰕎
𰢴
𰧭
𰯲
00--
01--
02--
03--
04--
05--
06--
07--
08--
09--
129--
221--
249--
261--
311--
330--
336--
341--
386--
404--
419--
441--
511--
544--
611--
64--
674--
72--
73--
74--
76--
77--
78--
79--
80--
81--
82--
83--
84--
85--
86--
87--
88--
89--
891--
90--
91--
92--
93--
939--
94--
95--
96--
97--
98--
99--
a--
ab--
aber--
abieti--
abstr--
ac--
acanth--
acantho--
acanthosti--
acer--
ach--
acicu--
acro--
acros--
act--
acu--
acuti--
ad--
adaptac--
adelo--
admin--
ae--
aerugi--
af--
aff--
afr--
afro--
ag--
aga--
aglo--
agnie--
agr--
ahe--
ai--
aj--
ajn--
ajnfac--
ak--
akty--
akur--
al--
alato--
alb--
albo--
ale--
alec--
aleks--
aless--
aleur--
alex--
alger--
ali--
alko--
all--
allan--
allo--
alph--
alt--
alve--
alys--
am--
amaz--
amazon--
ambro--
amniculic--
ampelo--
amph--
amphi--
ampu--
amy--
amyg--
amylo--
amylos--
an--
ana--
anc--
and--
ander--
ang--
angel--
angu--
ani--
aniso--
annul--
ano--
anten--
anth--
anthraco--
anti--
anty--
antycz--
aph--
aphyllop--
apio--
apo--
app--
appal--
append--
aqua--
aqui--
ar--
ara--
arab--
arach--
arane--
arauca--
arc--
archaeos--
arcy--
are--
arg--
arkiv--
aromat--
art--
arthro--
arto--
ary--
as--
asco--
ascodi--
ash--
aster--
asteridie--
at--
atro--
au--
auck--
auf--
aulo--
aure--
aureo--
auri--
aus--
austro--
av--
avell--
aw--
awa--
ay--
az--
b--
ba--
bab--
baci--
bacu--
bad--
bag--
baj--
baje--
bal--
bambus--
ban--
bangla--
bar--
bas--
basidio--
bat--
baz--
bałty--
be--
beat--
beau--
bec--
bel--
beltra--
ben--
ber--
bes--
bet--
bey--
bez--
beł--
bi--
bib--
bie--
big--
bil--
bilg--
billbo--
bio--
bir--
bis--
biy--
bje--
bjel--
bjo--
bjy--
bla--
blakes--
blis--
blo--
blox--
bo--
bogo--
boj--
bol--
boliw--
bon--
bor--
bos--
bot--
botry--
boy--
br--
brachys--
braz--
bre--
brem--
bren--
brev--
brevi--
brevis--
bro--
bru--
bruks--
brunneo--
bry--
brz--
brze--
bser--
bsztalo--
bto--
bu--
buchsz--
buda--
bulb--
bur--
burmi--
by--
byss--
bysso--
bywatel--
c--
ca--
cal--
calca--
calci--
call--
calo--
calos--
calyc--
calypt--
cam--
camb--
campto--
campylo--
can--
capi--
capn--
car--
carb--
cari--
cas--
cat--
cau--
caul--
ce--
cel--
celty--
cent--
ceph--
cer--
cerra--
cervi--
ch--
cha--
chaet--
chaeto--
char--
charac--
charak--
charakter--
che--
chei--
chi--
chlamydos--
chlo--
chlori--
chloro--
cho--
chond--
chor--
chro--
chrys--
chryso--
chrysopor--
chu--
chy--
chymicz--
ci--
cij--
cili--
cine--
cinere--
cinn--
cinnabar--
cir--
circum--
ck--
cl--
clad--
clarifi--
clat--
clav--
clavis--
cle--
cleisto--
cli--
cly--
clype--
co--
coc--
cocci--
cocco--
coccodi--
coccos--
col--
colo--
colum--
com--
con--
coni--
conio--
conop--
cope--
copro--
cor--
cora--
corall--
cord--
coro--
corru--
cos--
cou--
cra--
cran--
cras--
crassi--
crater--
craw--
cre--
cri--
cro--
cru--
cu--
cucu--
cul--
cup--
cur--
curvi--
cy--
cyano--
cycko--
cycl--
cyclo--
cym--
cynt--
cyntra--
cyph--
cyry--
cyst--
cystidi--
cysto--
cyto--
cywili--
cz--
cza--
cze--
czer--
czo--
czy--
d--
da--
dacty--
daeda--
dal--
dan--
dar--
das--
daw--
de--
dece--
defin--
dei--
dek--
del--
dem--
demo--
den--
dendrit--
dendro--
denticu--
dento--
dep--
der--
des--
deter--
di--
dia--
diaph--
dic--
dicho--
dicty--
dictyo--
dictyos--
didymo--
dietr--
diff--
diffrac--
digi--
digita--
dio--
dios--
dipl--
diplo--
dis--
disci--
disco--
discos--
ditop--
divar--
diver--
diversi--
dj--
dn--
do--
doassan--
dob--
dobrz--
doch--
docho--
dok--
dolichos--
dom--
domin--
doro--
dorzy--
dos--
dothid--
doug--
dpe--
dr--
dra--
drepano--
dro--
drzywni--
du--
ducho--
dug--
dun--
dur--
duri--
dwu--
dy--
dystrybu--
dz--
dzi--
dzisiyj--
dziyr--
e--
eb--
ebu--
ec--
ech--
echidno--
echino--
ed--
eduka--
efek--
eg--
egi--
egypti--
ehr--
ei--
eichle--
ein--
eit--
ej--
ek--
el--
ela--
elaeo--
ele--
elec--
eli--
ell--
em--
emer--
emi--
en--
end--
endo--
eo--
ep--
ephe--
epi--
epic--
epid--
epim--
epiphy--
epis--
epit--
epo--
er--
era--
eremothe--
erio--
ery--
eryth--
erythro--
erz--
es--
esco--
espe--
est--
et--
etn--
etno--
eu--
eur--
ev--
ew--
ewolu--
ex--
exam--
excent--
exo--
exp--
ez--
f--
fa--
fabr--
fac--
face--
fal--
falla--
fam--
far--
fe--
federac--
fer--
ferru--
ff--
fi--
fibu--
fibulo--
fic--
fila--
fili--
filo--
fin--
fir--
fire--
fis--
fitzpat--
fiz--
fizyc--
fl--
fla--
flage--
flam--
flav--
flavo--
flet--
flex--
fli--
flo--
floc--
flori--
fo--
fojer--
for--
foto--
fove--
fr--
fra--
frak--
fre--
frei--
fri--
frid--
fro--
fruti--
fry--
fu--
fuji--
ful--
fulv--
fur--
fusa--
fusc--
fusco--
fusi--
g--
ga--
gad--
gal--
gan--
gar--
garo--
gas--
gau--
ge--
gel--
gelat--
gen--
genicu--
genti--
geo--
geom--
george--
ger--
gero--
ges--
gesz--
gha--
gi--
gib--
gigas--
gil--
gimn--
gla--
glab--
glauc--
glauco--
gli--
gliw--
glo--
globu--
gloe--
gloeo--
gloeos--
glu--
gly--
glyw--
gn--
go--
god--
gos--
got--
gou--
gov--
gr--
gra--
grawitac--
gre--
gri--
grise--
griseo--
gro--
gru--
gryn--
gu--
guadal--
guar--
guay--
gue--
gui--
gul--
gut--
gwa--
gwin--
gy--
gybur--
gydi--
gym--
gymno--
gyn--
gyr--
gyrop--
gysz--
gło--
h--
ha--
hab--
habsb--
had--
haem--
haemato--
hag--
haj--
hal--
hali--
halo--
hamer--
han--
hapl--
har--
hay--
he--
hed--
hel--
helico--
helicos--
hemi--
hemispha--
her--
herpo--
het--
hetero--
hey--
hi--
hie--
higgi--
high--
hil--
himalay--
hipo--
hir--
hirsu--
his--
hl--
ho--
hoe--
hol--
homa--
homo--
hor--
hormo--
hot--
hou--
hr--
hrab--
hu--
hul--
hum--
hut--
hy--
hyal--
hyalos--
hybr--
hydno--
hydro--
hygro--
hygroph--
hyn--
hyper--
hyph--
hypo--
hys--
i--
iber--
ibor--
ic--
id--
iden--
ig--
igrz--
ij--
ik--
ika--
il--
ilici--
ill--
ilo--
ilu--
im--
imi--
imp--
in--
inc--
incar--
incon--
inconsp--
ind--
indo--
indyj--
inf--
ino--
inqui--
inso--
insul--
int--
inter--
inwaz--
ir--
irl--
is--
isabell--
isidi--
iso--
ist--
isth--
istni--
isz--
it--
iv--
iz--
izo--
j--
ja--
jadwi--
jan--
jar--
jawo--
jb--
je--
jeff--
jer--
jezi--
ji--
jo--
joer--
ju--
jug--
jul--
jy--
jyn--
k--
ka--
kady--
kaf--
kaka--
kal--
kala--
kan--
kap--
kapl--
kar--
kata--
kate--
kato--
kaz--
kazakh--
ke--
kel--
kem--
ker--
ki--
kim--
kir--
kirg--
kit--
kl--
klas--
klawi--
klu--
klucz--
kn--
ko--
kob--
kol--
kolbu--
komb--
kon--
kor--
kos--
kow--
kr--
kra--
kraj--
kru--
kry--
krz--
ks--
ksi--
ksiyn--
ksz--
ku--
kug--
kun--
kur--
kwa--
kwjo--
kym--
kyo--
kło--
l--
la--
lab--
labyr--
lac--
laci--
lacu--
laet--
laeti--
lan--
lance--
land--
lanugi--
lar--
las--
lasi--
lasio--
lat--
lati--
latis--
lau--
laur--
laure--
laza--
le--
lec--
legu--
lembos--
lento--
leo--
lepri--
lept--
lepto--
les--
lesz--
let--
leuc--
leuco--
leucos--
leucotr--
li--
lib--
liber--
lic--
lign--
lila--
limb--
limo--
lin--
lis--
lit--
livi--
ll--
ln--
lo--
lobu--
loh--
loj--
loka--
longi--
lou--
lu--
lub--
lud--
luft--
lute--
luteo--
ly--
lycop--
lycoper--
lym--
lyn--
m--
ma--
mac--
macar--
maco--
macro--
macul--
maculi--
madagas--
madzi--
mag--
magnis--
mah--
maj--
mal--
mamm--
man--
mani--
mar--
margi--
mas--
masti--
masz--
mat--
matymat--
maur--
maz--
mazo--
mało--
mb--
mbina--
me--
med--
medul--
mega--
megalos--
megas--
mel--
mela--
melan--
melano--
melanop--
meli--
melo--
mem--
membr--
men--
mer--
meris--
meso--
meta--
mexi--
mi--
mia--
mic--
micro--
mid--
midd--
miej--
mig--
mik--
mil--
mili--
min--
mino--
mir--
mis--
mit--
mittel--
miy--
miyjsc--
miyn--
miysz--
mja--
mje--
mjej--
mjy--
mjyndzy--
mly--
mn--
mniej--
mo--
mod--
mog--
mogi--
mol--
moni--
monos--
mons--
mont--
mor--
mori--
mos--
mosz--
mou--
mołdaw--
mpl--
mpoz--
mpu--
ms--
mu--
muci--
mul--
multi--
mun--
mur--
mus--
musci--
muz--
muzuł--
my--
myc--
myco--
mycoph--
myj--
myn--
myo--
myr--
myria--
myrio--
mys--
myslow--
mło--
mły--
n--
na--
nac--
nad--
nag--
naj--
namysłows--
nar--
narasim--
narod--
nas--
nat--
nau--
nauo--
nav--
naz--
nc--
ncep--
ncz--
nd--
ndo--
ndz--
ne--
nec--
neczn--
neg--
nemato--
neo--
neph--
nervi--
neu--
neus--
new--
nez--
nferyn--
ng--
ngro--
ni--
nic--
nider--
nidu--
nie--
nig--
nigro--
nik--
niti--
niy--
niyj--
nko--
no--
nob--
noc--
nodu--
noj--
nojdug--
nojlep--
nomenkl--
non--
nor--
norod--
norveg--
nos--
not--
notho--
novo--
now--
nowo--
ns--
nstan--
nstruk--
nstytu--
nt--
nu--
num--
ny--
nz--
nzko--
o--
oak--
ob--
ober--
obliq--
obr--
obsc--
obtec--
obtu--
oc--
oce--
ochro--
octo--
ocu--
od--
oedo--
ohl--
ojropej--
ok--
ol--
ole--
oli--
oligo--
oligos--
olmic--
om--
omph--
omphal--
on--
oni--
ony--
op--
opercu--
opo--
opol--
or--
ora--
orb--
ore--
org--
orie--
os--
oso--
ost--
ou--
ov--
ovo--
ow--
owo--
ox--
oxys--
oz--
p--
pa--
pab--
pach--
pachy--
pachys--
pacy--
pacz--
pad--
pala--
pall--
pallido--
pan--
pano--
pap--
par--
para--
parv--
parvi--
parvo--
pas--
paso--
pat--
patin--
paup--
paws--
pe--
pel--
pell--
pellicu--
penic--
penn--
per--
peregr--
ph--
phac--
phae--
phaeo--
phaeod--
phaeom--
phaeos--
phaeotr--
phallo--
phane--
phial--
phlyc--
pho--
phrag--
phragmo--
phycom--
phyll--
phyllo--
phyto--
pi--
pic--
pie--
pig--
pil--
pileo--
pili--
pilo--
pilos--
pilu--
pin--
pio--
piri--
pis--
piyr--
piyrwyj--
pje--
pjo--
pjotrow--
pjyr--
pl--
placo--
plas--
ple--
plec--
plecop--
plecto--
pleur--
pleuro--
plica--
po--
poc--
pod--
podo--
poj--
poja--
pokr--
pol--
poli--
polit--
polityczn--
poly--
polys--
polytr--
pop--
por--
poro--
pos--
posiad--
potr--
pow--
powi--
powiyr--
poz--
pozo--
pr--
pra--
pre--
prezy--
pri--
pro--
prob--
produko--
propa--
protes--
proto--
pru--
pry--
prz--
prze--
przi--
przy--
ps--
pseu--
pseude--
pseudo--
psoro--
psychro--
pter--
pteros--
pu--
publiko--
pul--
pull--
pulvi--
punc--
pur--
purp--
purpureo--
pus--
pusz--
putte--
pyc--
pycno--
pyj--
pyr--
pyri--
pyrrho--
pł--
pło--
pły--
q--
qua--
quamba--
que--
querci--
qui--
quis--
r--
ra--
rad--
radi--
rai--
raj--
ran--
ras--
rave--
rb--
re--
rea--
reak--
rece--
rech--
reco--
red--
reg--
reich--
rela--
reni--
renis--
rep--
reprez--
res--
reskyro--
reti--
reu--
rewolu--
rg--
rganizo--
rh--
rhagados--
rhiz--
rhizo--
rhizop--
rho--
rhodo--
rhyncho--
rhyti--
ri--
rid--
rie--
rigi--
ripa--
rk--
rn--
ro--
robo--
rocce--
rocz--
rod--
rok--
ros--
roseo--
rou--
rousso--
roz--
rozw--
rozwij--
ru--
rubro--
rufo--
rugi--
rupe--
rus--
ry--
rych--
rychto--
rz--
rze--
rzim--
rzimsko--
s--
sa--
sal--
sam--
samo--
san--
sangu--
sar--
sarci--
sarco--
sat--
sau--
saudyj--
sax--
saxi--
say--
sc--
scab--
sch--
sche--
schiz--
schizo--
sci--
scle--
sclero--
scleroph--
scleroti--
sco--
scoleco--
scu--
scutel--
se--
sek--
sel--
semi--
sen--
sepe--
septem--
septo--
septofu--
ser--
set--
sh--
she--
shi--
si--
sibi--
sie--
sig--
sil--
silvi--
sim--
sin--
siro--
sitzung--
siy--
sk--
ska--
sko--
sku--
sky--
skła--
sla--
slo--
sm--
smart--
smo--
so--
sob--
socja--
sol--
soli--
sorb--
sord--
soredi--
soro--
sos--
sound--
sp--
spad--
spar--
spathu--
spathulos--
spe--
spermos--
spha--
sphaer--
sphaero--
sphaeros--
sphinctr--
spi--
spil--
spin--
spini--
spinu--
spo--
spokoj--
sporo--
spu--
squa--
srog--
ss--
st--
sta--
star--
stat--
stawi--
stawro--
ste--
sten--
steno--
step--
stephan--
stephanos--
ster--
sti--
stic--
stilbos--
sto--
stock--
stow--
str--
stras--
stri--
stru--
strz--
strzew--
strzy--
stu--
sty--
su--
sub--
suba--
subal--
subca--
subd--
subdis--
subi--
subinca--
subo--
subp--
subsess--
subu--
subvi--
suc--
suk--
sul--
sulphur--
sun--
sup--
super--
sur--
suwal--
sv--
sw--
swe--
swo--
swobodn--
sy--
sym--
syn--
syr--
syrb--
sz--
szaco--
szi--
szl--
szo--
szoł--
szp--
szport--
sztarto--
sztok--
sztrasb--
sztu--
sztucz--
szty--
szw--
szwec--
szy--
sła--
sło--
t--
ta--
tabac--
tai--
taj--
tal--
tam--
tan--
tar--
tat--
te--
tec--
teichos--
telewiz--
tem--
ten--
ter--
terri--
tes--
tetra--
tex--
th--
tha--
the--
thermo--
tho--
thyr--
ti--
tilach--
tim--
tit--
to--
tom--
topo--
tor--
towarz--
tr--
tra--
trady--
trak--
trans--
tre--
trefi--
tri--
tribli--
trich--
tricho--
trichod--
trichopel--
trichospo--
trigonos--
trin--
triphrag--
tris--
trisept--
tro--
tru--
try--
trz--
trzeb--
ts--
tu--
tul--
tume--
tur--
ty--
tyj--
tyloph--
tym--
typh--
tz--
u--
uc--
uch--
ucz--
udi--
uk--
ukr--
ul--
ule--
um--
umbon--
umbr--
umi--
un--
unci--
undul--
uni--
unoc--
uo--
uob--
uobejzd--
uobl--
uobywa--
uobywatel--
uochoj--
uod--
uokr--
uol--
uolimpij--
uor--
uos--
uostr--
uot--
uoz--
up--
ur--
urceola--
urug--
urzyn--
us--
usta--
utricu--
uz--
uzbeki--
uzna--
uzno--
v--
va--
val--
vam--
van--
var--
varii--
vaug--
ve--
vel--
vent--
venu--
ver--
verrucis--
verrucos--
versi--
vex--
vi--
vie--
vill--
virg--
viri--
viridi--
vit--
vla--
vo--
vol--
von--
vul--
w--
wa--
wal--
walij--
wan--
wanie--
war--
warz--
waty--
wc--
we--
web--
wei--
wein--
wel--
west--
whe--
whit--
wi--
wic--
wice--
wid--
wie--
wielkopol--
wik--
wiki--
wil--
wila--
wilamo--
wilamow--
win--
wit--
wiyn--
wiyr--
wja--
wje--
wjej--
wjelgo--
wjet--
wjetna--
wjo--
wjy--
wloz--
wn--
wno--
wo--
woj--
wol--
woll--
wood--
wor--
woł--
wp--
wpły--
wr--
ws--
wsz--
wszyj--
wszys--
wu--
wy--
wybor--
wybu--
wyd--
wyk--
wym--
wymiyr--
wyn--
wyr--
wys--
wystym--
wyz--
wz--
wzg--
wzi--
wła--
wło--
włocławs--
x--
xan--
xanth--
xantho--
xav--
xeno--
xero--
xeroph--
xi--
xx--
xy--
xylo--
y--
yc--
ydo--
ydows--
yj--
ym--
ymi--
ymo--
yn--
yng--
yoko--
yon--
yosh--
yr--
ys--
yt--
yu--
yuc--
ywa--
yz--
z--
za--
zac--
zacho--
zaj--
zak--
zami--
zamoj--
zaregi--
zas--
zasi--
zaw--
zawar--
zb--
zbajstlo--
zbi--
zd--
zdo--
ze--
zebr--
zel--
zer--
zgi--
zh--
zie--
zim--
ziym--
zja--
zl--
zm--
zmi--
zn--
znac--
znisz--
zno--
zo--
zogły--
zollin--
zu--
zuc--
zw--
zy--
zygo--
zym--
zys--
ł--
ła--
łambinow--
ło--
łot--
łu--
ły--
н--
п--
респ--
ا--
--0
--0556
--1
--11
--111
--2
--22
--222
--3
--33
--333
--4
--44
--444
--5
--556
--56
--6
--667
--67
--7
--7778
--778
--78
--8
--8333
--8889
--889
--89
--9
--9444
--a
--ac
--acea
--aceae
--aceum
--aceus
--ach
--acyji
--aczka
--ad
--ada
--adia
--adium
--ado
--ady
--ae
--aea
--aeae
--aensis
--aeria
--ag
--ah
--ai
--aica
--ain
--ais
--ajo
--aju
--ak
--aka
--aki
--al
--ala
--ald
--ale
--ali
--alia
--alis
--alno
--alny
--alum
--am
--ama
--ami
--amo
--an
--ana
--and
--ands
--ane
--ania
--anii
--ano
--ans
--ant
--anthi
--anum
--anus
--any
--anzen
--ao
--ap
--ar
--ara
--arc
--ard
--are
--ari
--aria
--ariae
--arii
--ario
--ariopsis
--aris
--arium
--arius
--aro
--arpa
--arum
--ary
--as
--ascus
--asidium
--at
--ata
--ate
--ati
--atia
--atica
--ation
--ations
--atis
--atum
--atus
--aty
--au
--aux
--ava
--avy
--awy
--ay
--aya
--az
--ał
--ały
--b
--ba
--bach
--bae
--be
--beeja
--bi
--bia
--bic
--bin
--bina
--bl
--ble
--bn
--bno
--bo
--br
--bu
--burg
--bury
--bus
--by
--c
--ca
--cach
--cae
--cami
--cc
--ccus
--ce
--cea
--ceae
--cei
--cella
--cens
--ceous
--cephala
--cer
--ces
--ceum
--ceus
--ch
--chaete
--cht
--chy
--ci
--cia
--cii
--cina
--cis
--cium
--cji
--ck
--cka
--cke
--cki
--cko
--cladium
--co
--coidea
--cola
--colous
--conium
--corum
--court
--crella
--ct
--cta
--ction
--ctis
--ctria
--cu
--cula
--culatum
--culum
--culus
--cum
--cus
--cy
--cyje
--cyji
--cyjo
--cyju
--cypha
--cystis
--cz
--czka
--czki
--czn
--czne
--cznie
--czno
--czny
--cznyj
--cłow
--d
--da
--dad
--dae
--dard
--darum
--db
--dd
--de
--dea
--des
--di
--dia
--diae
--dii
--dio
--dion
--dis
--dium
--dko
--dkowo
--dkym
--dl
--dle
--dn
--do
--dor
--dorf
--drae
--dri
--dro
--dron
--ds
--dt
--du
--dula
--dum
--dus
--dy
--dyn
--dz
--dza
--e
--ea
--eae
--eana
--earum
--eata
--ec
--ecke
--ecki
--ecko
--ecta
--ectria
--eczko
--ed
--edo
--ee
--eg
--egia
--ego
--ei
--eis
--ej
--ek
--eka
--el
--eld
--ell
--ella
--elloides
--ellopsis
--els
--eltis
--em
--ema
--emann
--emia
--en
--ena
--enae
--enb
--enburg
--eni
--enia
--enii
--ens
--ense
--ensis
--ent
--entosa
--entosum
--entosus
--eo
--eoides
--eoli
--ep
--er
--era
--ere
--ereum
--erg
--eri
--eria
--eriae
--erma
--ers
--ersa
--ert
--erta
--eru
--erum
--ery
--eryji
--es
--escens
--ese
--esh
--esia
--ess
--essii
--et
--eta
--ete
--eti
--etii
--eto
--ets
--ett
--ettiae
--etu
--ety
--eum
--eus
--ev
--eva
--ew
--ewia
--ewicz
--ewski
--ex
--exa
--ey
--eya
--ez
--eł
--f
--fa
--faciens
--fera
--fezia
--ff
--fia
--ficzne
--ficzno
--ficzny
--fije
--fijo
--fikacyjo
--fio
--fje
--fly
--fo
--ford
--ft
--fu
--fy
--g
--ga
--gae
--gaster
--ge
--gel
--gena
--gh
--ght
--gi
--gia
--gii
--gijo
--ginea
--gio
--gne
--gny
--go
--gr
--grapha
--gs
--gton
--gu
--gua
--gym
--h
--ha
--hae
--haea
--ham
--haven
--he
--hem
--hen
--her
--hes
--hi
--hia
--hii
--hila
--hium
--hiza
--hl
--hm
--ho
--hodz
--hof
--homopsis
--hra
--ht
--hu
--hus
--hy
--hylli
--i
--ia
--iaca
--iaceae
--iae
--ial
--ialis
--ian
--iana
--ianae
--iani
--ians
--ianum
--ianus
--iaria
--iata
--iało
--iału
--iały
--ic
--ica
--ical
--ice
--ich
--ici
--icium
--ick
--icko
--ico
--icola
--icolor
--ics
--icta
--ictyon
--icum
--icus
--icy
--icza
--iczne
--id
--ida
--idae
--idea
--idensis
--ides
--ideum
--ideus
--ideł
--idia
--idiaceae
--idiata
--idioma
--idion
--idiopsis
--idis
--idium
--idula
--idum
--idus
--ie
--iec
--ied
--iei
--iel
--iella
--ien
--iens
--iense
--iensis
--ier
--ieri
--ies
--if
--ifer
--ifera
--iferarum
--iferum
--ifica
--ift
--ig
--ight
--igma
--igny
--ii
--iicola
--ij
--ije
--iji
--ijo
--iju
--ik
--ika
--iki
--iko
--il
--ila
--ilbe
--ile
--ilis
--im
--imum
--imus
--in
--ina
--inae
--inatum
--ine
--inea
--inensis
--ines
--ing
--ingii
--ington
--ini
--inia
--inii
--inis
--ins
--inula
--inum
--inus
--iny
--io
--ioides
--iomyces
--ion
--ions
--iopsis
--ior
--iorum
--ios
--iosum
--ious
--ip
--ipes
--ique
--ir
--ira
--is
--isa
--isca
--ische
--ischen
--iscus
--isii
--ispora
--isporium
--isporum
--ist
--ista
--it
--ita
--ite
--ites
--iti
--ition
--ity
--itz
--iu
--ium
--ius
--iv
--iva
--ive
--iw
--ix
--iy
--iya
--iye
--iyli
--iym
--iyn
--iyo
--iytridium
--iyła
--iyło
--iyły
--iz
--iza
--izm
--j
--ja
--jach
--jc
--je
--jec
--ji
--jn
--jno
--jny
--jo
--jowo
--js
--jt
--ju
--jum
--jyli
--jym
--jyn
--jz
--k
--ka
--kach
--ke
--kel
--ken
--kett
--kh
--ki
--kich
--kie
--kii
--kij
--kim
--kla
--ko
--kou
--kov
--kowa
--kowo
--kowyj
--ks
--ksa
--kt
--ktu
--kty
--ku
--kwa
--ky
--kym
--l
--la
--laca
--lach
--lae
--land
--laris
--latum
--latus
--ld
--le
--lens
--lense
--leptonia
--ler
--leri
--les
--ley
--lez
--li
--lia
--liae
--lica
--lig
--lii
--lijo
--lik
--lina
--lioides
--liopsis
--lis
--lki
--lko
--ll
--lla
--llaceae
--lle
--lli
--llifera
--llii
--llina
--llis
--llo
--llula
--llum
--llus
--lly
--lma
--ln
--lne
--lno
--lny
--lnyj
--lnym
--lo
--loae
--loides
--loma
--lon
--lopsis
--losa
--lr
--ls
--lt
--lu
--lum
--lus
--lw
--ly
--lym
--lz
--m
--ma
--mae
--man
--mann
--matis
--me
--mella
--ment
--mi
--mii
--mis
--mlung
--mm
--mma
--mme
--mno
--mo
--moides
--mond
--mopsis
--mp
--mpa
--ms
--mu
--mum
--mus
--my
--myces
--mynt
--mynta
--myxa
--n
--na
--nae
--nans
--nc
--nce
--ncta
--nd
--nda
--ndi
--nds
--ne
--nea
--neae
--nej
--nellus
--nema
--nensis
--ner
--neri
--nes
--ness
--neum
--ng
--ngium
--nh
--ni
--nia
--niae
--nicum
--nicus
--nie
--niella
--nii
--ning
--nio
--nis
--nivens
--nk
--nka
--nn
--no
--nopsis
--norum
--nos
--nosty
--ns
--nse
--nsis
--nt
--nta
--nte
--nthi
--ntia
--ntis
--ntrzno
--nts
--nu
--nula
--num
--nus
--ny
--nyj
--nym
--nz
--nza
--o
--oa
--oascus
--ob
--oc
--ocephalum
--och
--ochlora
--ock
--od
--oda
--odes
--odiella
--odii
--odium
--odz
--oe
--oensis
--og
--ogi
--ogia
--ogica
--ogical
--ogie
--ogije
--ogijo
--ogne
--ogone
--ogy
--oi
--oid
--oidea
--oides
--oideum
--oj
--ok
--oka
--oki
--ol
--ola
--ole
--oli
--olia
--ology
--olor
--olous
--olu
--olum
--olus
--om
--oma
--omatis
--omeus
--omi
--omus
--omyces
--omycetaceae
--omycopsis
--on
--ona
--onae
--onema
--oni
--onia
--oniae
--oniella
--onii
--onis
--ontia
--oo
--ook
--op
--opeltis
--ophila
--ophthora
--oporus
--ops
--opsis
--or
--ora
--ore
--orensis
--ori
--oria
--ormis
--orpha
--ort
--orum
--orus
--os
--osa
--osensis
--osphaeria
--ospora
--osporium
--osum
--osus
--osz
--ot
--othyrium
--oto
--otus
--ou
--ough
--ous
--out
--ov
--ova
--ovic
--ow
--owa
--owac
--owan
--owanie
--owanio
--owała
--owało
--owce
--owco
--owcu
--owe
--owego
--owi
--owice
--owicy
--owo
--owoł
--owska
--owske
--owski
--owy
--owyj
--owym
--oxyphium
--oz
--ozyma
--oł
--p
--pa
--pace
--pali
--pe
--pejske
--pelia
--peltis
--pens
--perma
--permum
--pes
--pha
--phaeria
--phala
--phella
--phia
--phic
--phie
--phis
--phoides
--phora
--phorum
--phs
--phum
--phus
--phy
--phylli
--pilus
--pis
--pn
--po
--pogon
--pora
--porella
--poridium
--porium
--porum
--ps
--psidaceae
--psis
--pta
--ptata
--ptomyces
--pu
--py
--pycnis
--q
--qua
--que
--r
--ra
--rad
--rae
--raea
--raki
--rans
--rata
--ration
--rc
--rch
--rcus
--rd
--rdia
--re
--rella
--rensis
--res
--ret
--rey
--rf
--rg
--ri
--ria
--riae
--ridis
--ridium
--rif
--rii
--rin
--rina
--rio
--ris
--rium
--rius
--rix
--rku
--rm
--rma
--rmella
--rn
--rni
--rnu
--ro
--rocephala
--roides
--ron
--ropsis
--rott
--rous
--rp
--rpa
--rpi
--rr
--rra
--rs
--rsk
--rst
--rt
--rth
--rto
--ru
--rula
--rum
--rus
--rw
--rwu
--ry
--ryae
--ryje
--ryji
--ryjo
--ryozyma
--rys
--ryum
--rz
--rza
--rze
--rzi
--rzu
--s
--sa
--sae
--sal
--sau
--sburg
--sca
--scaceae
--scens
--sch
--sco
--scula
--scus
--sdorf
--se
--seda
--sen
--septata
--ses
--sey
--sf
--sh
--shire
--si
--sia
--siae
--sii
--sima
--simum
--sis
--sk
--ska
--ske
--ski
--skigo
--skij
--sko
--sku
--sky
--sm
--smium
--so
--son
--sonii
--sphaera
--spora
--sporium
--sporum
--sporus
--sr
--ss
--ssa
--sse
--ssia
--ssum
--st
--sta
--stek
--sten
--ster
--stes
--stia
--stis
--stitution
--stoma
--ston
--stu
--stwa
--stwo
--su
--sum
--sus
--swald
--sy
--sz
--sza
--szaft
--t
--ta
--tacea
--taceae
--tach
--tae
--tal
--tali
--tas
--taw
--tały
--te
--tea
--ted
--teka
--tella
--ten
--ter
--tereum
--tes
--th
--thi
--thyrium
--ti
--tia
--tiae
--tic
--tica
--ticta
--ticum
--ticus
--tiella
--tig
--tii
--tin
--ting
--tino
--tinum
--tion
--tior
--tipes
--tis
--tium
--tka
--tku
--tl
--tle
--tn
--tne
--tnie
--tno
--tny
--to
--toides
--toma
--ton
--tos
--tosa
--tou
--town
--towo
--towyj
--tr
--tri
--tricha
--trium
--try
--ts
--tschia
--tt
--tta
--ttae
--tti
--tu
--tula
--tulum
--tum
--tus
--tusa
--tw
--twa
--ty
--tyka
--tym
--tz
--u
--ua
--uata
--ub
--uca
--uch
--uck
--ud
--uda
--ue
--uel
--ug
--ugh
--uguje
--ui
--uistia
--uje
--ujo
--uju
--ul
--ula
--ulans
--ulare
--ularia
--ulariae
--ularis
--ularn
--ulata
--ulatum
--ulea
--ulenta
--uli
--ulifera
--ulis
--ulopsis
--ulorum
--ulosa
--ulosum
--ulum
--ulus
--um
--un
--ung
--uo
--upa
--ur
--ura
--ures
--urg
--uri
--urt
--urus
--ury
--us
--usa
--usie
--uske
--usz
--ut
--uta
--uti
--utypa
--uu
--ux
--uy
--uz
--v
--va
--vata
--vatus
--ve
--vic
--ville
--vin
--w
--wa
--wac
--wali
--wan
--wane
--wanio
--wano
--wała
--wało
--wca
--we
--wego
--west
--wi
--wia
--wice
--wicy
--wicz
--wie
--witz
--wje
--wjo
--wn
--wo
--wood
--wos
--woł
--ws
--wske
--wski
--wskim
--wsko
--wu
--wy
--wych
--wygo
--wyj
--wym
--x
--xa
--xi
--xis
--y
--ya
--yan
--yc
--yce
--yces
--ycetaceae
--ych
--ycnis
--ycopsis
--yczne
--yczny
--ye
--ygo
--yi
--yj
--yja
--yje
--yji
--yjo
--yju
--yk
--yka
--ykh
--yko
--yla
--ylli
--ylum
--ym
--yma
--yn
--ynia
--ynt
--yntu
--yo
--ypha
--yrium
--ys
--yt
--yte
--ytrium
--yty
--yxis
--yz
--yła
--yło
--z
--za
--zan
--zane
--zano
--zany
--zcz
--ze
--zedn
--zen
--zer
--zetta
--zi
--zia
--zie
--zii
--zin
--zka
--zki
--zko
--zku
--zkuje
--zkuju
--zli
--zm
--zn
--zna
--zne
--znie
--zny
--zo
--zon
--zoni
--zoł
--zt
--zu
--zuje
--zy
--zyc
--zyj
--zym
--zyn
--zz
--zła
--ł
--ła
--ław
--łe
--ło
--łt
--łu
--ły
--łym
--а
--и
