!
"
#
##0
##1
##10
##11
##12
##13
##14
##15
##16
##17
##18
##19
##2
##20
##21
##22
##23
##24
##25
##26
##27
##28
##29
##3
##30
##31
##32
##33
##34
##35
##36
##37
##38
##39
##4
##40
##41
##42
##43
##44
##45
##46
##47
##48
##49
##5
##50
##51
##52
##53
##54
##55
##56
##57
##58
##59
##6
##60
##61
##62
##63
##64
##65
##66
##67
##68
##69
##7
##70
##71
##72
##73
##74
##75
##76
##77
##78
##79
##8
##80
##81
##82
##83
##84
##85
##86
##87
##88
##89
##9
##90
##91
##92
##93
##94
##95
##96
##97
##98
##99
$
%
&
'
(
)
*
+
,
-
.
/
0
00
000
0000
001
002
003
004
006
007
008
01
010
011
013
0140
02
03
030
04
042
045
05
053
054
06
064
07
08
080
09
097
1
10
100
1000
1001
1002
1005
101
1016
102
1020
103
1038
104
105
106
107
1076
108
1080
109
10915
1093
1095
11
110
111
1111
112
113
1136
114
115
116
1160
117
118
119
12
120
1200
1204
121
1218
122
123
124
125
1250
126
1261
1265
127
1271
128
129
1291
13
130
1300
131
132
1326
133
134
135
136
1368
137
138
1380
1381
1389
139
1396
1397
14
140
1400
1402
141
1412
142
1423
143
1430
1431
144
145
1450
1451
1453
1456
1458
146
14651858
1469
147
1470
1471
1472
1473
1474
1477
1478
1479
148
1481
1483
1485
1488
149
1491
1492
1493
1494
1497
1498
15
150
1500
1503
1507
1508
151
1515
1517
1519
152
1520
1521
1523
1524
1525
1527
1529
153
1532
1534
1535
1536
1537
1538
1539
154
1540
1541
1542
1543
1547
155
1550
1552
1553
1554
1555
1557
1558
156
1561
1564
1566
1567
1568
157
1570
1571
1572
1574
1575
1576
1577
1579
158
1580
1582
1585
1586
1588
159
1590
1591
1592
1593
1594
1595
1596
1597
1598
1599
16
160
1600
1602
1603
1604
1605
1606
1607
1608
1609
161
1610
1611
1612
1613
1614
1615
1616
1617
1619
162
1620
1621
1622
1623
1625
1626
1627
1628
1629
163
1630
1631
1632
1633
1634
1635
1636
1637
1638
1639
164
1640
1641
1642
1643
1644
1645
1646
1648
165
1650
1651
1653
1654
1655
1656
1657
1658
1659
166
1660
1661
1662
1663
1664
1665
1666
1667
1669
167
1670
1671
1672
1673
1674
1675
1678
1679
168
1681
1682
1684
1685
1686
1687
1688
1689
169
1691
1692
1693
1694
1695
1696
1698
1699
17
170
1700
1701
1702
1703
1704
1706
1707
1708
171
1710
1711
1712
1713
1714
1715
1716
1717
1718
1719
172
1720
1721
1722
1723
1724
1725
1726
1727
1728
1729
173
1730
1731
1732
1733
1734
1735
1736
1737
1738
1739
174
1740
1741
1742
1743
1744
1745
1746
1747
1748
1749
175
1750
1751
1752
1753
1754
1755
1756
1757
1758
1759
176
1760
1761
1762
1763
1764
1765
1766
1767
1768
1769
177
1770
1771
1772
1773
1774
1775
1776
1777
1778
1779
178
1780
1781
1782
1783
1784
1785
1786
1787
1788
1789
179
1790
1791
1792
1793
1794
1795
1796
1797
1798
1799
18
180
1800
1801
1802
1803
1804
1805
1806
1807
1808
1809
181
1810
1811
1812
1813
1814
1815
1816
1817
1818
1819
182
1820
1821
1822
1823
1824
1825
1826
1827
1828
1829
183
1830
1831
1832
1833
1834
1835
1836
1837
1838
1839
1840
1841
1842
1843
1844
1845
1846
1847
1848
1849
185
1850
1851
1852
1853
1854
1855
1856
1857
1858
1859
186
1860
1861
1862
1863
1864
1865
1866
1867
1868
1869
187
1870
1871
1872
1873
1874
1875
1876
1877
1878
1879
188
1880
1881
1882
1883
1884
1885
1886
1887
1888
1889
189
1890
1891
1892
1893
1894
1895
1896
1897
1898
1899
19
190
1900
1901
1902
1903
1904
1905
1906
1907
1908
1909
191
1910
1911
1912
1913
1914
1915
1916
1917
1918
1919
192
1920
1921
1922
1923
1924
1925
1926
1927
1928
1929
193
1930
1931
1932
1933
1934
1935
1936
1937
1938
1939
194
1940
1941
1942
1943
1944
1945
1946
1947
1948
1949
195
1950
1951
1952
1953
1954
1955
1956
1957
1958
1959
196
1960
1961
1962
1963
1964
1965
1966
1967
1968
1969
197
1970
1971
1972
1973
1974
1975
1976
1977
1978
1979
198
1980
1981
1982
1983
1984
1985
1986
1987
1988
1989
199
1990
1991
1992
1993
1994
1995
1996
1997
1998
1999
2
20
200
2000
2001
2002
2003
2004
2005
2006
2007
2008
2009
201
2010
2011
2012
2013
2014
2015
2016
2017
2018
2019
202
2020
2021
2022
203
2030
204
205
206
207
208
209
21
210
2100
211
212
213
214
215
216
217
218
219
22
220
221
222
223
224
225
226
227
228
229
23
230
231
232
233
234
235
236
237
238
239
24
240
241
242
243
244
245
246
247
248
249
25
250
251
252
253
254
255
256
257
258
259
26
260
261
262
263
265
267
268
269
27
270
272
273
274
275
276
277
278
279
28
280
281
282
283
284
285
286
287
288
289
29
290
291
292
293
294
295
296
297
298
299
3
30
300
3000
301
302
303
304
305
307
31
310
311
313
314
315
316
317
318
32
320
321
322
323
324
325
326
327
328
329
33
330
3300
331
332
333
334
335
336
337
338
339
34
340
341
342
343
344
345
346
347
348
349
35
350
352
353
354
355
356
357
358
359
36
360
361
362
363
364
365
366
367
368
37
373
374
375
376
379
38
380
383
385
387
389
39
390
392
393
395
399
4
40
400
4000
402
405
406
407
409
41
410
411
413
415
419
42
426
427
43
430
433
435
436
437
438
439
44
441
442
444
448
45
450
451
452
454
455
458
46
460
463
464
468
47
470
472
475
476
479
48
483
486
487
49
493
494
496
498
5
50
500
5000
504
505
506
507
51
514
515
516
517
52
521
525
526
527
53
531
532
535
536
537
539
54
540
541
545
548
55
550
553
556
56
560
568
57
570
573
576
58
59
597
6
60
600
603
607
61
610
612
614
615
617
62
620
622
623
625
626
627
63
632
639
64
641
643
645
65
650
652
655
66
660
667
668
67
670
6736
677
68
680
681
684
685
686
69
692
7
70
700
702
71
711
72
720
724
727
73
730
735
736
738
74
741
747
749
75
750
757
76
763
765
767
77
770
776
78
780
79
792
8
80
800
802
81
817
82
821
827
828
829
83
830
837
84
847
848
85
850
853
858
859
86
865
87
870
874
876
877
88
884
89
9
90
900
903
91
912
92
920
927
93
939
94
945
946
95
950
96
960
962
965
968
97
970
973
976
978
9780642568618
979
98
983
9837
987
988
99
996
997
99925
:
;
<
=
>
?
@
[
\
]
^
_
`
a
aa
aaron
ab
abad
abajo
abc
abd
abdel
abdo
abdullah
abe
abel
abente
abogada
abogado
abortion
about
abraham
abramo
abreu
abril
absceso
absoluta
abstract
abu
abuela
ac
aca
acade
academia
academias
academic
academy
acahay
acceso
access
accidente
accio
accipitridae
account
ace
aceite
acento
acerca
acero
aceval
acevedo
acfu
ache
achegety
achegetyme
aco
acosta
acta
action
activa
actividad
actividades
activista
acto
actor
actriz
actuacio
actual
actualidad
acueducto
acuerdo
acun
acunday
acupuntura
acute
ad
ada
adam
adams
addison
addo
adela
adema
adidas
adio
adjetivo
adler
administracio
administradora
administrativa
adn
ado
adolescent
adolf
adolfo
ador
adora
adria
adrian
adriana
adriano
adrien
aduana
adverbial
adverbio
ae
aekue
aerona
aeropuerto
af
affairs
afganista
afi
afluente
africa
african
afrika
afrikape
after
ag
aga
agagua
against
agaipi
agaite
age
agencia
agency
agosto
agotyo
agraria
agreste
agri
agricultura
agro
agropecuaria
agropecuarios
agrupacio
agu
agua
aguahe
aguai
aguapy
aguapyguigua
aguapyra
aguara
aguaray
aguas
aguascalientes
aguasu
aguata
aguayo
ague
aguenohe
agueraha
aguereko
agueru
agui
aguiar
aguije
aguilar
aguilera
aguirre
aguive
aguiye
agusti
agustin
aguy
aguygua
aguyje
aguykue
aguype
aguypegua
aha
ahague
ahai
ahasa
ahata
ahati
ahayhu
ahe
ahecha
aheka
ahendu
aheno
ahesa
aheta
ahetu
ahi
ahmad
ahmed
aho
ahoja
ahojajegua
ahora
ahy
ahyganita
ai
aids
aike
aiko
aikoteve
aiku
aikuaa
aimara
aimaran
aime
aimeha
aimete
aimo
aipo
aipoha
aiporavo
aipota
air
aire
aires
aisy
aita
aite
aiterei
aja
ajaka
ajapo
ajapova
aje
ajedrecista
ajegua
ajepy
ajere
ajerovia
ajerure
ajey
ajo
ajogua
ajopy
aju
ajuhu
ajupi
ajutyro
aka
akaha
akaite
akal
akanina
akanundu
akapa
akarai
akaray
akaru
akatu
akatua
akave
ake
akeme
aki
ako
akra
aku
akua
akuaa
akuaatyha
akue
akupe
akuruchi
akuti
akutipa
aky
akyra
akyry
akyta
al
ala
alabado
alagoas
alain
alan
alarco
alaska
alba
albatros
alberdi
albert
alberta
alberti
alberto
albino
alborada
album
albuquerque
alca
alcala
alcalde
alcaraz
alcohol
alda
aldama
aldea
aldo
ale
alegre
alegri
aleha
alejandra
alejandro
alejo
aleksandar
aleksandr
alekse
alema
aleman
alemana
alemania
alessandro
aleu
alex
alexa
alexander
alexandre
alexis
alfareri
alfe
alfonsi
alfonso
alfred
alfredo
algarrobo
algo
algunos
ali
aliada
aliado
alianza
alice
alicia
alighieri
alimentacio
alimentos
alison
alkimi
alkimia
alkoo
all
allan
allen
allende
alma
almada
almas
almeida
almirante
almiro
alo
alois
alonso
alphonse
alpinismo
alpinista
alrededor
alsina
alta
altar
alternativa
altiplano
alto
altos
altura
alva
alvarado
alvarenga
alvarez
alves
alvorada
alzheimer
am
ama
amada
amadeo
amadeus
amado
amador
amalia
amamba
amambay
aman
amancio
amanda
amandaje
amandajerape
amandu
amandyju
amanecer
amano
amante
amar
amaral
amarillo
amaro
amaru
amaso
amazo
amazon
amazonas
amazonia
amba
amberes
ambiental
ambiente
ambiguus
ambija
ambo
amboguapy
amboguata
ambogue
amboguevi
ambohasa
ambohe
ambohova
ambohyapu
ambohysy
amboja
ambojehe
ambojo
ambojoaju
ambojoapy
ambojoja
ambojy
ambu
ambue
ambuegua
ambueha
ambueichagua
ambuekue
ambuepa
ambuepaite
ambueva
ambueve
amby
ambyasy
ambyaty
amc
ame
america
american
americana
americano
americanos
amerika
amerikagua
ami
amiga
amigo
amigos
amindu
amiri
amistad
amnisti
amo
amoambue
amoha
amohen
amohenda
amohu
amoi
amoite
amoko
amomba
amombe
amombyte
amomora
amon
amonde
amondoho
amondy
among
amongeta
amongu
amono
amope
amopoti
amor
amores
amoroso
amortiguacio
amos
amove
ampe
amsterdam
amy
amyasa
amyesaka
amyry
amz
an
ana
anagrama
analysis
anamandaje
anambe
anambusu
anana
anandi
anandy
anangue
anarquista
anato
anatomi
anatomia
anatomista
ancient
and
anda
andai
andaluci
andalusi
anday
ande
andegueraha
andehegui
andeja
andepy
anderekoha
anders
andersen
anderson
andersson
anderu
andes
andeypykue
andoni
andorra
andrade
andre
andrea
andreas
andrei
andrew
andriy
andro
andrzej
andu
anduha
anduka
andukuaa
andupora
andureko
anduti
andutiguasu
andy
andypa
andyry
ane
anemandu
anemba
anembo
anembopy
anemomandu
anemon
anendive
anepytyvo
anerekombo
aneren
anereta
anexo
ang
anga
angaha
angahai
angaipa
angaite
angakue
angambyry
angambyrygui
angamy
angangue
angapiry
angapy
angapyhy
angapyre
angara
angareko
angarekoha
angarekokuaa
angarekopora
angarekora
angarekova
angarekove
angata
angatu
angava
ange
angeko
angel
angela
angeles
angelina
angelo
anggun
angiru
anglicana
anglo
ango
angola
angolen
angu
angue
anguja
ani
aniche
aniha
anike
anillos
animacio
animador
animal
animales
animals
anime
anita
anive
aniversario
anjo
ann
anna
anne
ano
anodorhynchus
anos
anr
ans
anselm
anselmo
anta
ante
antena
anteriores
antes
anthony
anti
antibio
antigo
antigua
antiguo
antillas
antiquity
anto
antoine
antoli
antologi
anton
antoni
antonia
antonio
antony
antropo
antropologi
antu
anual
anuario
anza
ao
aokue
aon
aopo
aora
aos
aovyta
apa
apaite
apajere
apan
aparecida
aparicio
apati
apave
ape
apegua
apeku
apekue
apenas
apeno
apepu
apere
aperegua
aperere
apertura
apesa
apesy
api
apiky
apiru
apo
apoha
apohague
apoharakue
apohare
apoi
apoite
apoiterei
apojepe
apokatu
apokuaa
apokue
apolo
apon
aponde
aponte
apopo
apopora
apopy
apopyme
apopyra
apopyre
apopyvusu
apora
aporandu
aporeko
aporekokuaa
aporte
apose
apoti
apoukapy
apova
apove
apoveha
apovo
apoyo
app
appjava
apple
appleyard
apresentador
april
aptenodytes
apu
apuku
apuntes
apy
apyka
apymi
apyra
apyre
apysa
apysahu
apyse
apyta
apyte
apytepe
apytere
apyti
apytimby
apytu
aquel
aquidaba
aquino
ar
ara
araapy
arabia
arabic
arado
arago
aragone
aragua
araguay
araha
arahaku
arahakue
arahakukue
arahasara
arahecha
arahenti
arai
araite
araity
arajere
araka
arako
araku
arakuaa
arakue
aral
aramboha
aramboty
arami
aramiro
aramo
aran
aranda
arandu
aranduchauka
aranduete
aranduite
aranduka
arandukakuaaha
arandukakue
arandukuaa
arandukue
aranduo
aranduon
arandupy
arandupykuaaty
arandupykuaatyha
arandura
arandutee
aranduve
arange
arango
arapa
arapaha
arapahapegua
arapaho
arapaima
arapapaha
arapasu
arapehe
arapo
arapoko
arapotei
arapoty
arapuru
arapy
arapygua
arapypegua
arapyregua
arapyrendy
arapytu
arara
araren
araresa
araro
ararogueku
ararova
ararundy
arasa
arase
arasy
aratei
arati
aratinga
aratirindy
arau
aravekue
araven
aravera
aravia
aravo
arc
arca
arce
archaeology
archibald
archivado
archive
archives
archivo
archivos
arco
ardeola
are
area
areas
aregua
areko
arekue
arellano
aremo
arena
arenas
arenda
arepa
arequipa
areta
arete
areterei
areve
argel
argelino
argenti
argentina
argentinagua
argentinaguagua
argentinape
argentino
arguedas
arhe
arhenti
ari
arias
ariel
ariete
arigua
aripaka
aristo
arive
arma
armada
armadas
armamento
armand
armando
armas
arme
armenia
armenian
armenio
armoni
armstrong
arnaldo
arnold
aro
aropu
arory
arovia
arpa
arpista
arqueo
arqui
arquidio
arquitecto
arquitectura
arreglador
arreglista
arriben
arrie
arriero
arro
arroio
arroyo
arroyos
arrua
arsenio
art
arte
artemio
artes
artesanal
artesani
arthur
arti
article
articles
articulo
artigas
artilleri
artist
artista
artistas
artists
arts
arturo
aru
aruete
aruka
arukue
arupi
arupigua
arupytu
aruru
arurupe
arusu
ary
arygua
aryite
arykue
arzobispo
as
asa
asad
asador
asaha
asaindy
asaje
asajekue
asajepyte
asale
asamblea
asapa
ascendencia
ase
asentamiento
aseri
aserikue
aserradero
aservaija
asesinada
asesinado
asesino
asesor
asfalto
ashei
ashikaga
ashley
asi
asia
asiagua
asian
asiape
asociacio
asociados
asp
aspectos
aspx
assis
associac
association
astro
astrofi
astrolohi
astronauta
astrono
astronomi
astronomy
asturias
asu
asugua
asuka
asuncena
asuncio
asuntos
asy
asyapype
asyete
asyite
asykue
asymombiaha
asyparara
asyve
at
ata
atai
atanasio
ataque
atarova
atatu
ate
atena
atenagua
atenas
atende
ateneo
ati
atl
atla
atlanta
atlas
atleta
atm
ato
atomic
atra
atukupe
aty
atygua
atyguasu
atyguataha
atyha
atykatuete
atykue
atypegua
atypu
atyra
atyty
atyvete
atyvusu
au
august
augusta
auguste
augusto
augustus
aupa
aurata
aurelio
aurora
austin
australia
australian
australiana
australiano
australoide
austri
austria
austriaca
austriaco
autara
autaralia
autera
auteralia
auteria
auto
automo
automovilismo
autonomi
autor
autora
autores
autoridad
autoridades
auxiliadora
ava
avai
avaite
avakachi
avakuaaha
avakuaaty
avakue
avalos
avan
avano
avanzada
avare
avareko
avarekokuaaty
avatee
avati
avatiku
avatiky
avatimiri
avatisoka
avave
avda
ave
avei
aveiro
aveka
avenida
aventura
aventurero
avery
aves
avevo
avevu
avi
aviacio
aviador
avibase
avio
aviones
aviv
avo
avokue
avril
avu
avy
award
awards
axel
ay
ayacucho
ayala
ayer
aygu
aygua
ayllu
ayolas
ayoreo
ayrton
ayuntamiento
ayvu
az
azara
aziz
azteca
azu
azul
b
ba
babosa
bach
bachiller
bachillerato
back
bacteria
bacteriana
bacterias
bactrocera
bad
baden
bado
bahi
bahia
bailari
bailarina
bailey
baja
bajista
bajo
bajos
baker
bal
bala
bale
baleares
ball
ballesteros
ballet
baloncestista
baloncesto
balonmano
baltasar
baltimore
bambi
ban
banca
banco
band
banda
bandas
bandeirante
bandeirantes
bandera
bang
banjul
bank
banks
bano
banquero
baptiste
bar
bara
barbados
barbara
barbero
barbosa
barboza
barbuda
barca
barcelona
barco
bardot
bareiro
bari
barker
barnes
barney
baro
baron
barra
barramundi
barras
barreiro
barrera
barrero
barreto
barrett
barrientos
barrio
barrios
barro
barroco
barros
barrow
barry
barrymore
bart
bartolome
baru
basa
base
based
basi
basic
basilio
baskin
bass
bastien
basto
bastos
batalla
batallo
bateri
baterista
batista
battista
bau
bauer
bautista
baviera
baxter
baza
bbc
bc
be
beach
beata
beatles
beatrice
beatriz
beaumont
beauvoir
bebida
bec
beca
beck
becker
bedoya
beethoven
behind
beisbolista
bela
bele
belfast
belga
belgrano
bell
bella
bellaco
bellamy
bellas
belle
bello
belo
beltra
belyrat
ben
bendego
benedicto
benedito
bengali
beni
benigno
benito
benjami
benjamin
bennett
benoi
bento
ber
bereber
berger
bering
berli
berlin
bermejo
bermu
bernabe
bernal
bernard
bernarda
bernardino
bernardo
bernhard
bert
berta
bertoni
best
bestard
bet
beta
betha
better
betty
between
beyond
bezzi
bi
bianca
biblia
bibliografi
biblioteca
bibliotecario
bicas
bien
big
bikram
bilingu
bill
billetes
billy
bin
binacional
bio
biodiversidad
biodiversity
biogra
biografi
biografia
biografias
biografiasyvidas
biography
biolib
biolo
biologi
biology
bioma
bioqui
bir
bird
birdlife
birds
birindelli
birth
biskek
bismarck
bitstream
bizantino
bl
bla
black
blackwell
blake
blanc
blanca
blanco
blas
blica
blicas
blico
blicos
bloch
blog
blogspot
bloque
blue
blues
bmj
bo
boa
board
bob
bobadilla
bobby
boca
bocas
boettner
bogado
bogari
boggiani
bogota
bohemia
boitempo
bol
bola
bolan
boleti
boli
bolita
bolivariana
bolivia
boliviana
boliviano
bolsonaro
bom
bonaparte
bonet
bonifa
bonifacio
bonito
bonnie
book
books
boquero
bora
borba
borbo
bordo
boreal
borges
borgon
bori
boris
borja
bosch
bosco
bosnio
bosque
bosques
bossa
boston
bota
botanica
boushaki
box
boxeador
boy
boyd
boyle
boys
br
bracho
bradford
bradley
braga
braganza
branco
branda
brandon
branislava
brasi
brasil
brasileira
brasileiro
brasilen
brasilera
brasilero
brasilia
brasiliensis
braun
bravo
braz
brazil
brazilian
brazuca
brazzaville
bre
breaking
bremen
brent
bretan
brett
breve
bri
brian
brica
briefing
brien
brigada
brigitte
brita
britain
britannica
british
britski
broadcasting
bronce
brooks
bros
brothers
brown
browne
browse
bru
bruce
brunei
bruno
brusca
bruselas
bruto
bryan
bu
bucknell
bue
buena
buenaventura
bueno
buenos
buey
building
buildings
bull
burden
bureau
burgos
burj
burke
burkina
burnout
burrerita
burt
busca
busch
bush
business
but
butia
butler
by
bybys
c
ca
caacupe
caaguazu
caatinga
caazapa
caballeri
caballero
caballo
caban
cabeza
cabildo
cable
cabo
cabra
cabral
cabrera
cac
cacajao
cacao
cachoeira
cacique
cada
cadena
cadogan
caetano
cafe
cai
caiman
caio
caja
cajamarca
cal
calabria
calco
calcuta
caldas
caldero
caldo
calendario
calero
calesita
calidad
california
call
callao
calle
called
callejo
calles
callicebus
calori
calpe
calvin
calvo
calvus
cama
camacho
camargo
cambio
cambodia
cambridge
cameron
camerune
camila
camille
camilo
caminho
camino
campamento
campan
campana
campanario
campbell
campeo
campeones
campesina
campesino
campestre
campina
camping
campo
campos
camus
can
canada
canadiense
canal
canales
canape
canarias
cancer
canciller
cancio
cancionero
canciones
candelaria
candia
candido
canela
canese
canis
cano
canonizado
canta
cantante
cantautor
cantautora
canto
cantor
cap
capa
capacidad
capella
capetillo
capi
capilla
capita
capital
capitalismo
car
cara
caracal
caracas
caracteres
caracteri
caras
carballo
carbo
carbono
cardenal
cardiff
cardinal
cardoso
cardozo
care
carey
carga
cargo
cari
caribe
caricaturista
carin
carl
carla
carles
carlo
carlomagno
carlos
carlota
carmagnola
carmelo
carmen
carmine
carnaval
carne
carneiro
carol
carolina
carpenter
carpenters
carpincho
carranza
carrasco
carrera
carreras
carreta
carrie
carrillo
carrizo
carro
carroll
carson
carta
cartagena
cartas
carter
cartera
cartier
carto
cartoon
carvalho
casa
casablanca
casaccia
casado
casal
casas
casco
case
casey
casi
caso
casos
castalia
castan
castelao
castellana
castellano
castilla
castillo
castro
cat
cata
catala
catalina
catalog
catalun
catarina
catecismo
catedra
catedral
categori
categorizaciones
category
catholic
cato
caudillo
causa
causas
cause
causes
cavallero
cavendish
caxias
cayetano
cayo
cb
cbs
cc
cd
cdc
ce
cea
ceaduc
ceara
ceas
ceci
cecil
cecilia
cecilio
cedrela
cedro
cefet
celebra
celeste
celestino
celia
celso
celular
cementerio
cemento
cena
censo
censos
census
centena
centenario
center
centers
centi
centinela
central
centralme
centre
centro
centroame
centros
centurio
century
cepag
cepal
cer
cera
ceramista
ceremonia
ceres
cero
cerrado
cerrito
cerro
cerros
cervantes
cervantesvirtual
cervera
cerveza
cesar
cesis
cesteri
cf
cg
cgi
ch
cha
chacarita
chachi
chaco
chacra
chad
chae
chagas
chagua
chaha
chaikovski
chaite
chako
chama
chamacoco
chamame
chambers
chamigo
chamorro
champions
chandler
chang
changa
change
changed
channel
chante
chapa
chaparro
chaplin
chapman
chapter
chaquen
chara
characiformes
charara
chari
charla
charles
charlie
charlotte
chase
chaves
chavi
chavurro
che
chean
checklist
checo
chehegui
cheja
chejopy
cheki
chekia
chekon
chemandu
chemba
chen
chendive
chepy
chepytyvo
cherayhu
cherehe
cherenda
chet
cheve
chi
chia
chicago
chicha
chicharo
chiche
chico
chikago
children
chile
chilegua
chilena
chileno
chilepe
china
chinagua
chinan
chinese
ching
chini
chino
chipa
chipre
chiquititas
chiri
chiripa
chive
chivivi
cho
chochi
chocolate
choguy
chokokue
chokora
chomsky
chope
chopi
chopin
chore
chorori
chororo
choroti
chovi
chovy
chovykue
chris
christian
christina
christine
christoph
christophe
christopher
chrome
chrysocome
chu
chubut
chuchu
chuck
chugui
chuguikue
chulupi
chumbe
chupe
chupekue
church
churchill
chyryry
ci
cia
cias
cica
ciclista
ciclo
ciconia
cid
cidade
cido
ciego
cielo
cien
ciencia
ciencias
cienti
cigarra
cil
cinco
cine
cineasta
cinematogra
cinta
cio
cipriano
circo
cirilo
cirujano
cisneros
cita
citados
cite
cities
city
ciudad
ciudadani
ciudadano
ciudades
civil
civiles
civilizacio
ck
cker
cl
cla
clara
clarence
clari
clarinetista
clark
clarke
claro
clase
clasificacio
classification
claude
claudia
claudio
clausura
clav
clavel
claves
cle
clemente
clements
cleo
cleto
cli
clifford
clima
climate
clin
clinical
clint
clive
clone
clorinda
clotilde
club
clyde
cm
cn
cnel
cnemotriccus
cnica
cnicas
cnico
cnn
co
coca
cochabamba
cochrane
cocido
cocinero
coco
code
cody
cofundador
cohen
coi
coimbra
cola
cold
cole
coleccio
coleccionista
colegio
coleman
colima
colin
colina
collar
collection
college
collins
colma
colmena
colo
colombia
colombiana
colombiano
colombino
colombo
colonia
colonial
colonias
colonizacio
colono
color
colorado
colossoma
columbia
columbus
columna
colunga
com
comadreja
comandante
comando
combate
combustible
comedia
comediante
comendador
comentario
comercial
comerciante
comercio
comida
comisio
comite
committee
common
commons
commonwealth
como
compan
companion
company
comparativo
complejo
complemento
completa
completas
complete
completo
completos
composicio
compositor
compositora
compositores
compostela
comprehensive
compromiso
compuesta
compuesto
computacio
comu
comuneros
comunicacio
comunicaciones
comunidad
comunidades
comunista
con
concacaf
conceic
concepcio
concepto
concert
concertista
concha
conciencia
concierto
concise
concordia
concurso
condado
conde
condecoracio
condicio
conducta
conductor
conductora
conejo
confederacio
conferencia
conflict
conflicto
congo
congolen
congregacio
congreso
congress
conhec
conjunto
conmebol
cono
conoce
conocido
conocimiento
conquista
conquistador
conrad
conrado
consecuencia
consejo
conservacio
conservation
conservative
conservatorio
considerada
considerado
consorte
conspiracio
constant
constantino
constantinopla
constitucio
constitucional
constitution
constitutional
constituyente
construccio
constructor
consuelo
consulado
consultado
contabilidad
contacto
contar
contempora
contemporary
contenida
contenido
content
contexto
contienda
continental
continentales
continente
contos
contra
contraception
contrastivo
contrato
contreras
contribucio
contricio
control
convencio
convenio
convierte
cook
cooper
cooperacio
cooperativa
coord
coordenadas
coordinadora
copa
copaco
cope
copenhague
copia
cora
corac
coral
coralina
corazo
corbusier
cordero
cordillera
corea
coreano
coreo
cornell
coro
corona
coronavirus
coronel
corpo
corporation
corpus
corrales
correa
corredor
correo
corriente
corrientes
corta
corte
corun
corvala
cosa
cosas
cosme
cosmonauta
cost
costa
costarricense
costumbres
cotorra
cough
council
countries
country
covid
cox
cracovia
craig
crata
crates
crawford
cre
crea
creacio
creado
creador
creadora
crecimiento
credo
creencias
creo
crespo
cri
criada
crimea
crimen
criminal
crimson
criollo
crisis
criso
crispi
cristal
cristian
cristiana
cristiano
cristianos
cristina
cristo
cro
croata
cronista
cross
croup
crucero
crucis
crup
cruz
cruzeiro
cs
ct
cter
ctica
ctico
ctima
ctor
ctrica
ctrico
cu
cua
cuadernos
cuadrado
cuadro
cuadros
cual
cuando
cuartel
cuarteto
cuatro
cuauhte
cuba
cubana
cubano
cue
cuenca
cuenta
cuentista
cuento
cuentos
cuerda
cuerpo
cuervo
cuestio
cueto
cueva
cuevas
cuevillas
cuiaba
cula
culinaria
culo
culos
cultivo
culto
cultura
cultural
culturales
culture
cummings
cuna
cunha
cuniculus
cunningham
cup
curie
curitiba
current
curros
curso
curt
curtis
curuguaty
cusco
cuvier
cuzco
cw
cynthia
cyrus
cysticercosis
d
da
dahl
daily
dakar
dako
dakota
dale
dali
dallas
dalton
dama
damia
dan
dana
dane
danesa
daniel
daniela
daniele
danny
dans
dante
danu
danza
danzas
dape
dardanelos
dari
dark
darren
darussalam
darwin
das
dasypus
data
database
dato
datos
dave
david
davies
davis
day
days
dc
de
dead
deal
dean
death
debate
dec
decano
december
decide
declaracio
declaration
decoud
decreto
dedicado
deep
default
defensa
defensor
defensores
definicio
definido
definition
dei
deimos
del
delegacio
delegado
delfi
delgado
delhi
della
delvalle
demetrio
democra
democracia
democracy
demogra
demographic
dempsey
den
dengue
denis
dennis
densidad
dentro
deo
deodoro
departamento
departamentos
department
departments
deporte
deportes
deportista
deportivo
der
derecho
derechos
derek
deres
des
desafi
desarrollo
descartes
descripcio
descubrimiento
descubrircorrientes
desde
deseo
desert
desmond
despue
destino
destiny
desvi
details
detall
detalle
deuda
deus
deutsch
deutsche
deutschland
devana
development
dewey
dez
dg
dgeec
dharma
di
dia
diablo
diagnosis
dialnet
diamante
diana
diario
dias
dibb
dibujante
dica
diccionario
diccionarios
dice
dicha
dici
diciembre
dicio
diciona
dick
dico
dicos
dictador
dictadura
dictionary
did
dida
die
diego
dietrich
diez
diferencias
difteria
digital
digna
digno
digo
dijo
dika
din
dina
dinamarca
dinasti
diniz
dio
dionisio
dios
diosnel
diploma
diptera
dipterorum
diputado
diputados
dirceu
direccio
directa
directiva
directo
director
directora
directors
directory
dirigente
dis
disciplina
disco
discogra
discos
discover
discovery
discurso
discursos
disease
diseases
disen
disney
disnomia
disorders
disponible
disposicio
distribucio
distribuidora
distrito
ditos
diversidad
diversitat
diversity
divinidad
divino
divisio
division
diz
dj
djibouti
dle
dmitri
do
doblaje
doble
doc
doce
docente
doces
docs
doctor
doctora
doctorado
doctrina
document
documentacio
documental
documentation
documento
documentos
documents
does
dog
dogs
doha
doi
dois
dolor
dolores
dom
domanovic
dome
domenico
domi
domingo
domingos
dominican
dominicana
dominicano
dominio
dominique
don
dona
donald
donde
dong
donoso
donovan
dope
dor
dora
dorado
dorothea
dorothy
dos
dostoyevski
douard
doug
douglas
doutor
dove
dover
download
downloadable
dq
dr
dra
drae
drago
drake
drama
dramaturga
dramaturgo
dream
drew
droga
drummond
du
duarte
duas
duda
dudas
duen
duka
dula
dulce
dumas
dumont
duncan
dunham
dunn
duque
dura
duran
durante
durero
during
dwarf
dz
dzongkhan
e
ea
ean
eandu
eapo
eapoha
eapopyha
earl
early
earth
east
eastern
eavy
eavyky
ebola
ec
eccles
echeverri
eclesia
eco
ecolo
econo
economi
economic
economist
economista
economy
ecorregio
ecosistema
ecoturismo
ecuador
ecuatorial
ecuatoriano
ed
eda
edad
edda
eddie
eddy
edgar
edic
ediccio
edicio
edicion
ediciones
edificacio
edificio
edinburgh
edisa
edit
edita
editar
edith
edition
editor
editora
editores
editorial
editors
edmond
edmund
edmundo
eds
edu
eduard
eduardo
educac
educacao
educacio
educacion
educador
educadora
education
educativa
educativo
eduvigis
edward
edwards
edwin
ee
eembucu
eemoera
eeuu
efecto
efectos
effects
efrai
efre
efunda
eg
egipcio
egipto
egon
egua
eguahe
eguasu
eguasuete
eguasuite
eguasuiteha
eguasuve
eguenohe
eguereko
egueru
egui
egusquiza
eha
ehague
ehakoty
ehakue
ehao
ehaokue
ehaopegua
ehaorusu
ehaovusu
eharakue
eharara
ehe
ehecha
eheja
ehekombo
ehekotee
ehekove
ehembe
ehendu
ehenduka
eheno
ehepyme
ehero
ehesa
ehesakutu
eheta
ehetaite
ehetave
ehetu
ehi
ehina
ehipto
ehipton
ehundi
ehundipa
ei
eicha
eichagua
eichaite
eichapa
eichmann
eiffel
eigenmann
eiha
eikoteve
eiku
eikuave
eikyti
eime
eimo
einaugura
einstein
eipepiru
eira
eirara
eirata
eirete
eiru
eite
eja
ejapo
eje
ejecucio
ejecutado
ejecutivo
ejegua
ejepe
ejepuru
ejercito
ejere
ejerure
ejey
ejogua
eju
ejumi
ek
ekandina
ekara
ekatu
ekavon
eko
ekosia
ekoteve
eku
ekua
ekuaa
ekuaaha
ekuaaharara
ekuaaita
ekuaakatu
ekuaara
ekuador
ekuato
ekuator
ekuave
ekue
ekuera
ekuerape
ekuri
ekyti
el
ela
eladio
elaine
elanoides
eldorado
ele
elecciones
electoral
electricidad
electro
elefante
eleme
elemental
elemento
elementos
elena
elenco
eleonora
eli
elias
eligio
elio
elis
elisa
elisabeth
eliseo
elizabeth
elizardo
ella
elliott
ellis
ellos
elmundo
elova
elovakia
elove
eloven
eloy
elpais
elpidio
elsa
elsevier
elvio
elvira
elvis
elza
elzear
em
ema
emae
emaimbe
emambeko
eman
emandu
emano
emba
embajada
embajador
embalse
embe
embiso
embo
emboaje
emboao
emboarete
emboaty
emboete
emboguapy
emboguapyha
emboguata
embogue
emboguejy
embohaity
embohape
embohapemoko
embohapera
embohasa
embohasy
embohe
emboheko
embohera
emboherava
embohero
emboheta
embohetave
embohete
emboho
embohory
embohova
embohovake
embohyapu
embohyru
embohysy
emboja
embojegua
embojehe
embojere
embojevy
embojo
embojoaju
embojoajuha
embojoapy
embojoja
embojopo
embojuavy
embojy
embojypyre
embokapu
embokatupyry
embokatupyryva
embokatupyryve
emboki
embope
embopiro
embopu
embopuku
embopupu
embopy
embopyahu
embopyahujey
embosa
embosako
embosara
embosarai
embosaraiha
embosaraipave
embosaraira
emboscada
embota
embotapykue
embotavy
embotove
embotuicha
embotuichave
emboty
embovo
embovu
embovy
embovyvy
emboy
emboyke
embuku
emby
embyahy
embyai
embyaipa
embyaipaite
embyaive
embyaku
embyame
embyasy
embyaty
embyatykue
embyatypa
embyatypyre
embyatypyrekue
embyeja
embyepoti
embygua
embykuarahyreike
embykuarahyrese
embykuarahyse
eme
emenda
emergencia
emergency
emi
emigdio
emiguerojera
emiha
emil
emile
emilia
emiliano
emilio
emily
emir
emira
emiryvy
emisora
emity
emma
emmanuel
emo
emoag
emoagui
emoaka
emoambue
emoan
emoarandu
emoaranduha
emoaranduite
emoarandura
emoaranduse
emoaranduva
emoaranduve
emog
emoguahe
emoha
emohata
emohe
emohen
emohenda
emohendaha
emohendajey
emohendakuaa
emohendapy
emohendapyre
emohendava
emoherakua
emoheta
emohu
emoi
emoinge
emoiru
emoka
emokangy
emoko
emokunu
emomaitei
emomandu
emomarandu
emomba
emombarete
emombareteve
emombe
emombia
emombo
emombyky
emombyta
emombyte
emomichi
emomombyry
emomora
emomy
emon
emonda
emonde
emondeha
emondo
emondy
emonei
emongakuaa
emongarai
emongaru
emongeta
emongolo
emongora
emongu
emonguera
emono
emopehe
emopetei
emopora
emopoti
emopu
emopy
emopyenda
emosa
emosarambi
emose
emosusu
emotenonde
emoti
emperador
emperatriz
empire
empires
emprendimiento
empresa
empresaria
empresario
emu
emuasa
emuha
emuhaguasu
emuhakue
emun
emura
emuve
emuveha
emy
emyaka
emyasa
emyatyro
emyengovia
emyesaka
emyro
en
enano
encaje
encarnacio
encarta
enciclopedia
encina
enciso
encomienda
encrucijada
encuestas
encyclopaedia
encyclopedia
encyclopædia
end
ende
endyry
enemigo
energi
enero
enfermedad
enfermedades
eng
engels
england
english
engue
enlightenment
eno
enohe
enombra
enri
enrico
enrique
enriqueta
ensayista
ensayo
ensayos
ense
ensen
ente
entero
entertainment
entese
entidad
entomo
entomologi
entonces
entrada
entre
entrenador
entrevista
entry
enupa
environment
environmental
enxet
enz
enzo
eo
ep
epa
epan
epe
epehe
ephippiorhynchus
epi
epidemiology
epifanio
episo
epochy
epoha
epohano
epomoi
epopeya
epora
eporandu
epota
epresenta
epu
epuha
epukuaa
epupora
epurory
epuru
epy
epyra
epyru
epyry
epysa
epysyro
epytu
epytyvo
equilibrio
equipo
equus
er
era
erairo
eramo
ere
erechaukaha
erectus
eregua
erehegua
erekokuaa
erekokuaaha
erendy
erepy
eri
eric
erich
erico
erik
erika
eris
erityre
ernest
ernesto
ernie
ernst
ero
error
erudito
erwin
es
esa
esc
escalada
escarabajo
esce
escena
escenario
escenografi
escobar
escoce
escocia
escola
escolar
escribir
escrito
escritor
escritora
escritoras
escritores
escritura
escudero
escudo
escuela
escuelas
escultor
escultora
escultura
escurra
ese
esgrimista
eski
eskue
esla
eslavo
eslovaco
esloveno
esmeralda
esmilce
eso
espa
espacial
espacio
espada
espan
espanol
espasa
especial
especiales
especie
especies
especta
espejo
esperanc
esperanza
espi
espina
espinosa
espiritual
esposa
esquiadora
esquina
essays
est
esta
establecimiento
estacio
estaciones
estadi
estadio
estadista
estado
estados
estadounidense
estambul
estampa
estancia
estancias
estandarte
estanislao
estar
estatal
estatuto
este
esteban
estela
estepe
estero
esteros
estiano
estigarribia
estilo
estimates
esto
estocolmo
estonio
estrate
estrecho
estreia
estrela
estrella
estreptoco
estreptococo
estreptococos
estructura
estudiante
estudiantes
estudio
estudios
esu
esuati
esyry
et
eta
etaita
etapa
etc
ete
etee
etegua
eteha
eteko
eteku
etemi
eterei
eterno
etete
eteva
etevoi
ethnologue
eti
etimologi
etiopi
etiopia
etiqueta
etnia
etno
etnografi
eto
etymology
eu
eua
eudyptes
eudyptula
euge
eugen
eugene
eugenia
eugenio
euka
euler
eulogio
eura
euro
europa
europagua
europape
europe
europea
european
europeo
eusebio
eva
evahi
evai
evakue
evaluation
evangelizacio
evans
evaristo
evavoi
eve
eveha
eveichagua
even
evende
evenhuis
ever
evero
evete
evic
evidence
evita
evo
evoi
evolucio
evolution
evre
ex
excepto
exiliado
exilio
existentialism
expedicio
expedito
experimental
experimentos
explica
explorador
explotacio
expo
exponente
exposicio
expresidente
expresio
extensio
extensivo
exteriores
extra
extranjero
extraterrestre
extremadura
extremo
exvakapipopo
ey
eye
ez
ezequiel
f
fa
fabia
fabio
fabiola
fabrica
facebook
fact
factbook
facto
facts
factsheet
facultad
facunda
facundo
fagundes
falco
falkland
fall
fallece
falls
false
fam
famagusta
fami
familia
familias
family
famoso
fanny
fanta
fao
farao
farin
faringitis
farmace
farmacia
fasci
fasciatum
fasciatus
fascismo
fascista
faso
fassardi
fatah
faulkner
fauna
faustino
fausto
fc
fe
features
febrerista
febrero
february
fecha
federacio
federal
federico
feira
felicia
feliciano
felicidades
felipe
felis
felix
feliz
female
femenino
feminista
feno
ferdinand
ferguson
feria
fermi
ferna
fernanda
fernandes
fernandez
fernando
fero
feros
ferraz
ferreira
ferreiro
ferrer
ferrocarril
ferroviaria
fes
festival
fever
ff
fi
fibra
fica
ficas
ficcio
ficha
fico
ficos
fidel
fiebre
field
fierro
fiesta
fiestas
fifa
figueroa
figura
fiji
fila
filadelfia
file
files
filho
fili
filipi
filipina
filipinas
filipino
filippo
film
filme
filo
filologi
filoso
filosofi
fin
fina
final
financiero
fine
finlande
fio
fire
firefox
fires
firma
first
fiscal
fischer
fish
fishbase
fisher
fishes
fisio
fisiologi
fissilis
fitzgerald
five
fiyi
fla
flamenco
flandes
flauta
flavio
flecha
fleitas
flo
flor
flora
flore
florence
florencia
florencio
florenti
florentino
flores
floriano
florida
flu
fluvial
fm
fmi
fo
fobos
fogo
folclo
folha
folklo
folklore
fomento
fondo
fone
fonema
fono
fonseca
fontana
fontao
football
for
forbes
force
foreign
forestal
forficatus
forjadores
forla
forma
formacio
formosa
foro
fort
fortaleza
forti
fosse
foster
foto
fotogra
fotografi
fotos
found
foundation
four
fowler
fox
foz
fr
fra
fragmento
fragmentos
fragoso
fraguas
fraile
franc
franca
france
frances
francesa
francesc
francesco
francia
francis
francisca
franciscana
franciscano
franciscanos
francisco
franck
franco
franja
frank
franklin
franz
fraser
fray
fre
frecuencia
fred
freddie
freddy
frederick
free
freedom
freeman
freire
frente
freud
frica
frida
friedman
friedrich
frigio
frika
frikape
fritz
from
frontcover
fronteira
frontend
frontera
fronteras
frutilla
frutos
fu
fue
fuego
fuente
fuentes
fuera
fueron
fuerte
fuerza
fuerzas
fuji
fulgencio
full
funcio
funcionario
fund
fundacio
fundador
fundamental
fundamento
furnariidae
furnarius
fuscatus
fusil
fusio
futbol
futbolista
future
futuro
futuros
fx
g
ga
gabinete
gabino
gabriel
gabriela
gabrielle
gae
gagliasso
gagua
gagui
gahoja
gaicha
gaite
gakue
gal
gala
galardo
gale
galeano
galega
galeri
gales
gali
galicia
galiciagua
galilei
galileo
galindo
gallardo
galle
gallega
gallego
gallegos
gallo
gallup
galo
galva
gama
gamarra
gamba
gambia
game
games
gameve
gan
ganaderi
ganadero
ganado
gandhi
ganglios
gano
ganso
gao
gaona
gape
gapy
gara
garavello
garay
garce
garcete
garci
garcia
garcilaso
gare
gari
garland
garrido
gary
garza
gas
gaspar
gaspard
gasto
gaston
gato
gaucho
gaudi
gauguin
gaulle
gava
gavila
gavo
gay
gaygua
gazetteer
gb
gdalas
gdp
ge
geller
gemelas
gen
gena
genas
gencat
gene
generacio
general
generales
genes
gengis
geno
gente
genus
geo
geocities
geogra
geografi
geografia
geographic
geographical
geography
geologi
georg
george
georges
georgi
georgia
georgios
ger
gerais
geral
gerard
gerardo
gerhard
germa
german
germania
germano
germany
gero
gervasio
gestio
getty
ghana
ghane
ghtml
gi
gia
giacomo
gianni
giant
gibson
gica
gicas
gico
gicos
gigante
gil
gilbert
gilberto
gilda
gill
gilles
gime
gimen
gimnasia
gimnasta
gina
ginas
ginebra
gini
gino
gio
giorgio
giovanni
gira
girala
girasol
girl
giro
giulio
giuseppe
gladys
glen
glenn
glo
global
globo
gloria
glosbe
glossary
gn
go
gob
gobernacio
gobernador
gobernante
gobierno
god
godoy
goethe
gogh
goia
gol
gold
goldfrapp
golf
golfista
golondrina
golpe
gomes
gonc
gondra
gonza
gonzaga
gonzalez
gonzalo
good
goodwin
google
gordon
goto
gottfried
gottlieb
gotyo
gotyogua
gotyove
gov
government
goyto
gra
grabacio
grabaciones
grabado
grabador
gracia
graciela
grado
grados
grafa
grafo
graham
gral
grama
gramaticales
grammy
gramo
gran
granada
granadinas
grand
grande
grandes
granja
grant
grau
gray
grazi
gre
great
greater
greatest
grecia
greece
greek
green
greene
greenwood
greg
grego
gregorio
gregory
griega
griego
griffin
griffith
gris
griselda
groening
grossa
grosso
group
groups
grove
growth
grupo
grupos
grus
gs
gu
gua
guacamayo
guadalajara
guadalupe
guahe
guai
guaiamu
guaicha
guaikuru
guaikurukue
guaira
guairen
guajaki
guajayvi
guakue
gualberto
guana
guanaco
guanajuato
guangxi
guape
guapo
guapy
guapyha
guara
guarambare
guarani
guarania
guaraniete
guaranikue
guaranime
guaranimegua
guaranin
guaraniportugues
guarara
guardia
guardian
guare
guari
guarimbe
guarini
guarinikue
guaripo
guas
guasch
guasu
guasuete
guasueterei
guasuha
guasuite
guasukue
guasura
guasuve
guasuvira
guata
guataha
guatambu
guatapu
guatema
guatemala
guatemalteca
guatemalteco
guaviju
guavira
guavirami
guavirana
guayaki
guayra
guazu
gubernativa
gue
guejy
guejyha
guembe
guembepi
gueorgui
gueraha
guerahaha
guerohory
guerojera
guerova
guerra
guerrero
guerrillera
guerrillero
gueru
guetei
gueterei
gueteri
guevara
guevi
guez
guggiari
gui
guia
guide
guidelines
guido
guigua
guila
guillaume
guille
guillermo
guinea
guinoi
guinoivae
guinte
guio
guionista
guipa
guitarra
guitarrista
guive
guja
gumersindo
guo
guru
gusma
gustav
gustave
gustavo
gutenberg
gutie
guvie
guy
guyana
guyra
guyrakue
guyrati
guyrau
guyryry
guzma
gyne
gynecology
gyrana
gyre
gyrego
gyregoriopegua
gyresia
gyresian
gyro
h
ha
hab
habana
haber
habiendo
habitantes
habla
hablantes
habsburgo
hac
hace
hacer
hacia
hacienda
hae
haedo
hag
haga
haggua
hagu
hagua
hague
haguekue
haguepa
haguere
hagui
hai
haicha
haiha
haiharakue
haikatu
haimbe
haimete
haipy
haipyre
haite
haiti
haity
hajygue
haka
hakamby
hakate
hakatu
hako
haku
hakua
hakue
hakukue
hakuve
hal
half
hall
halley
halloween
hama
hamba
hamburgo
hame
hamilton
hamo
han
hancock
handbook
hande
handle
hank
hannah
hans
hape
hapera
hapicha
hapichakue
hapo
hapokue
hapy
hapykue
hapykuere
hara
harakue
harbor
hardy
hare
haro
harold
harper
harris
harrison
harry
hart
harvard
harvey
has
hasa
hasaha
hase
hassan
hassler
hasta
hasy
hasyete
hasyeterei
hasyha
hasyite
hasykatu
hasykatuvarerekua
hasypeve
hasyrerekua
hasyve
hata
hateta
hati
hatoum
haumea
hava
havara
have
havi
haviju
haviru
havo
hawa
hawaii
hawking
hay
hayes
hbo
hdr
he
health
heart
heath
hec
hecha
hechapyra
hechapyre
hecharamomby
hechauka
hechaukaha
hecho
hechos
hecta
hector
hei
heindy
heinrich
heinz
heise
heisejoja
heitor
hejapyre
heka
heko
hekoha
hekoite
hekojoja
hekoka
hekokangy
hekokatu
hekomara
hekombo
hekome
hekomymba
hekope
hekopegua
hekopete
hekopora
hekopoti
hekopy
hekora
hekosa
hekotee
hekove
hekoveapy
hekovekue
hekovese
hekovety
hekovia
helado
helecho
helen
helena
helio
helmut
hembe
hembi
hembiapo
hembiapoita
hembiapokatu
hembiapokue
hembiapopora
hembiapora
hembiasa
hembiasagua
hembiasakue
hembigua
hembikuaa
hembipota
hembipuru
hembipurukue
hembipurura
hembireko
hembirekora
hembo
hemby
heme
hemiandu
hemikoteve
hemimbo
hemimo
hen
henares
henda
hendagua
hendague
hendaite
hendape
hendapy
hendive
hendivekue
hendy
hendyry
heno
henonde
henondera
henri
henrik
henrique
henry
henyhe
henypy
hepatitis
hepy
hepykue
hepyve
her
hera
heraguapy
heraha
heraite
herajoapy
herakua
herakue
herara
heratee
herava
herbert
heredia
herencia
heritage
herma
herman
hermana
hermann
hermano
hermanos
hermenegildo
herminio
hermosa
herna
hernandarias
hernando
hero
herodes
herrera
herreri
herrero
herusale
hesa
hesaite
hesaka
hesara
hese
hesegovina
hesegua
heseguakue
hesekue
heseve
hesse
hesu
hesui
hesuita
hesuitakue
hesukirito
heta
hetaha
hetaichagua
hetaite
hetaiterei
hetaitereive
hetaiteve
hetakue
hetamba
hetamive
hetateta
hetava
hetave
hetaveha
hete
hetekue
hetepy
heterei
hetia
hetyma
heve
heyma
heyn
hi
hidalgo
hidroele
hielo
hierba
hierbas
hierro
high
higinio
higuai
hija
hijo
hijos
hiko
hikogua
hikope
hikua
hikue
hilario
hilda
hill
himala
himno
hina
hindi
hindu
hinduista
hipo
hirochi
hiroshima
hirsch
his
hisopado
hispa
hispana
hispanic
hispanista
hispano
hispanoamericana
histo
histoire
histologi
historia
historiador
historiadora
historic
historical
historietas
historietista
history
hit
hitchcock
hitler
hito
hiv
hivyrayta
hizo
hl
ho
hoga
hogagua
hogakue
hogami
hogapy
hogara
hogaygua
hogayguakue
hogue
hoguekue
hohenau
hojas
hoke
hoko
hokusai
hoky
holanda
holandan
holande
holden
holland
hollywood
holocaust
holocausto
holstein
hombre
hombres
home
homem
homenaje
homer
homo
honda
hondo
honduras
honduren
hong
honor
hoover
hope
hopkins
hoplias
hora
horacio
horizon
horizonte
horqueta
horror
horst
hory
horyta
horytan
hosa
hose
hospital
hotel
houghton
house
housing
houston
hova
hove
hovy
hovykangy
hovyu
how
howard
hoy
hoyo
htm
html
http
https
hu
hua
huang
huatl
huayca
hubble
hubert
hude
hudi
hudiokue
huerta
hugh
hughes
hugo
hugua
huguy
huguyasuka
huguypa
huicoco
humaita
human
humana
humanas
humanidad
humanista
humano
humanos
humberto
humboldt
humby
humedales
humorista
hungy
hungyria
hunt
hunter
hupa
hupi
hutton
hutu
huvicha
huvichanda
hy
hya
hyakua
hyapu
hye
hyeguasu
hyekue
hyepy
hyju
hyku
hykue
hykuere
hykuese
hymba
hypa
hypy
hyra
hyru
hysy
hyun
i
ia
ian
iba
ibarra
ibars
ibe
iberoamericana
ibge
ibidem
ibn
ic
ice
iceland
ich
icha
ichagua
ichaha
ichai
ichaite
ichama
ichante
ichapa
ichape
ichapiko
icharamo
icharo
ichele
ichi
ichugui
ichuguikue
ichupe
ichupekue
id
ida
idea
ideal
ideas
identidad
identificacio
ideologi
iderecho
idh
idioma
idiomas
iesus
iete
ieterei
if
iglesia
iglesias
ignacio
ignaz
igo
igor
igua
iguac
igual
iguasu
iguasuve
iguazu
igui
iguy
iha
ihague
ihu
ii
iii
iivi
iiviguasu
ij
ija
ijachegety
ijaha
ijahy
ijaju
ijaku
ijao
ijaokue
ijapa
ijapaite
ijape
ijapekue
ijapoha
ijapohare
ijapopy
ijapopyre
ijapu
ijapy
ijapyra
ijapysa
ijapyte
ijapytekue
ijapytepekue
ijara
ijary
ijasu
ijasy
ijasykue
ijati
ijatukupe
ijaty
ijatyha
ijavegua
ije
ijeguakapa
ijeguata
ijehai
ijehe
ijehegui
ijeheguiete
ijeheguirei
ijeho
ijeikove
ijejapo
ijepokuaa
ijeporu
ijepuru
ijere
ijerekue
ijerere
ijereregua
ijerovia
ijeroviaha
ijeroviakatu
ijeroviapy
ijerure
ijetu
ijey
ijita
ijo
ijoguaha
ijoha
ijoja
ijojaha
ijokuaa
ijova
ijoyke
ijupe
ijuru
ijuruja
ijy
ijyke
ijykegua
ijykeregua
ijypy
ijypykue
ijypykuekue
ijysaja
ijysajakuaa
ijyta
ijyva
ijyvate
ijyvateha
ijyvatekue
ijyvateve
ijyvateveha
ijyvy
ijyvyku
ijyvykue
ijyvyrei
ijyvytee
ijyvyty
ika
ikamby
ikamisa
ikan
ikandu
ikane
ikangue
ikangy
ikangyve
ikarapa
ikarape
ikare
ikaria
ikario
ikaso
ikate
ikato
ikatu
ikatuete
ikatuha
ikatuhag
ikatuhagua
ikatukuaa
ikatupyry
ikatupyryeterei
ikatupyryetereiha
ikatupyryha
ikatupyryite
ikatupyryve
ikatutaha
ikatuva
ikatuve
ikavi
ike
ikerayvoty
ikiriri
iko
ikoe
ikokue
ikolo
ikorapy
ikoraso
ikoti
iku
ikua
ikuaa
ikuaandy
ikuaha
ikuarara
ikuatia
ikuatian
ikue
ikuimba
ikun
ikupe
ikuri
iky
ikypy
ikyra
ikyre
ikyry
ikyvy
il
ila
ilandian
ildefonso
ile
ilha
illandia
illinois
illustrated
ilustracio
ilustrada
ilustrador
ilustre
ilustres
ima
imagen
images
imandu
imano
imarandu
imarangatu
imarangatuve
imava
imba
imbaraka
imbarete
imbaretekue
imbareteve
imbe
imbegue
imbo
imboka
imborayhu
imboriahu
imboriahuite
imboriahuve
imbovy
imbovyve
imburuvicha
imburuvichara
imburuvichavete
imbyte
imdb
ime
imemby
imembykue
imembykun
imembyse
imen
imf
imi
imichi
imimi
imita
immanuel
imoko
imombe
imombyry
imombyrykue
imombyryve
imon
imoroti
imotenondeha
impe
imperativo
imperial
imperio
importancia
importante
importantes
imposible
imprensa
imprenta
impresa
impresionista
impuesto
imuanduhe
in
ina
inambi
inandi
inaturalist
inc
inca
ince
incidencia
incienso
incluye
incorpora
indalecio
indec
independence
independencia
independent
independentista
independiente
index
indi
india
indian
indiana
indias
indicadores
indicators
indices
indigenista
indio
indios
indo
indochi
indoeuro
indoeuropa
indoeurope
indoeuropeo
indone
indonesia
indonesio
indu
industria
industrial
industry
indy
ine
inegi
infancia
infanta
infanteri
infantil
infeccio
infect
infection
infections
infectious
infierno
influencia
influenza
info
informa
informac
informacio
information
informe
informes
infraestructura
inga
ingenieri
ingeniero
ingenio
inglaterra
ingle
inglen
ingles
inglesa
inglesn
inglyesn
ingo
ingue
inguepire
ingyate
ingyaterra
ingyaterran
iniciacio
inicial
inimbo
inka
inmaculada
inmaterial
inmigrante
ino
inocencia
inocencio
inos
insatisfechas
insecta
insectos
insensato
insfra
inspiracio
instagram
instalacio
institucio
instituciones
institut
institute
instituto
instruccio
instrumento
instrumentos
int
inte
integrante
intelectual
inteligencia
intellectual
intelligence
intendencia
intendente
intensivo
intento
interamericana
intere
interino
interior
internacional
internacionales
international
internet
interpretacio
into
introduccio
introduction
inutytu
invasio
inventor
invertebrados
investigacio
investigaciones
investigador
invictus
invisible
io
ion
ipa
ipaha
ipahague
ipahaite
ipahapegua
ipaite
ipaje
ipara
ipasu
ipave
ipe
ipegua
ipehe
ipehenguekue
ipenga
ipepo
ipereri
ipetei
ipi
ipiapotaa
ipiko
ipira
ipirapire
ipire
ipirehu
ipirekue
ipiresa
ipirevai
ipiro
ipiru
ipo
ipochy
ipochyeterei
ipoguasu
ipoguy
ipoha
ipohy
ipohyikue
ipohyive
ipoja
ipojera
ipoka
ipokatu
ipokatuve
ipopekue
ipopi
ipora
iporavopyre
ipore
iporo
iporoguirovia
iporokua
iporomboe
ipoti
ipoty
ipotykue
ipoyvi
ipu
ipuere
ipuha
ipuku
ipukueterei
ipukukue
ipukuve
ipurahe
ipuraheikue
ipuru
ipuruha
ipy
ipya
ipyahu
ipyahuete
ipyahuve
ipyape
ipyapy
ipyko
ipykue
ipype
ipypegua
ipypuku
ipyre
ipysa
ipyta
ipyti
ipytu
ipytuhe
ipytyvo
iquitos
ira
irak
irala
iramo
iran
irani
iraqui
ird
ire
ireko
ireland
irene
iri
irila
irlanda
irlande
irlandesa
irma
iro
irraza
iru
irundy
irundyha
irundykejoja
irundykejojaty
irundypa
irundyrundy
irundyve
iruru
iruvicha
iruvichaite
irving
irwin
is
isa
isaac
isabel
isabelle
isai
isapatu
isapy
isaraki
isarambi
isarambipa
isasi
isaso
isbn
ise
iseha
isejoja
ishir
isidoro
isidro
isl
isla
islamic
island
islande
islands
islas
ismael
iso
israel
israeli
issn
ista
isu
isy
isyva
it
ita
itabo
itacurubi
itagecha
itagua
itaguigua
itahai
itaipu
itaju
itajy
itakandua
itaku
itakua
itakue
itakuruvi
itakyra
itakyry
italia
italiagua
italian
italiana
italiano
italo
itanara
itape
itapiru
itapu
itapua
itapy
itasa
itati
itaty
itaugua
itava
itavaguasu
itavakue
itavarandu
itavera
itavusu
itavusura
itavy
itaygua
itaysy
ite
iteha
itekomboe
itekua
itemi
itemid
itenonde
itenondeve
iterei
iteve
iti
itia
itie
ito
its
itu
ituicha
ituichaite
ituichaiterei
ituichakue
ituichave
ituja
itujave
ituju
itupa
iturbe
ituvakue
ity
ityaro
ityke
ityre
ityvy
itza
iucn
iucnredlist
iv
iva
ivagui
ivai
ivaiete
ivaieterei
ivaive
ivan
ivape
ivare
ivary
ive
iveha
ivi
ivica
iviru
ivo
ivoi
ivoire
ivore
ivy
ix
iyipi
iyla
j
ja
jaber
jabiru
jacare
jacinto
jack
jackie
jackson
jacob
jacobo
jacqueline
jacques
jae
jaeko
jaema
jagua
jaguakue
jaguane
jaguapehe
jaguapyta
jaguarete
jaguareteru
jaguareterusu
jaguareteti
jaguaru
jaguarundi
jaguata
jaguatami
jaguaveve
jagueraha
jaguereko
jagueru
jaha
jahai
jahape
jahasa
jahave
jahayhu
jahe
jahecha
jahechaha
jahechakuaa
jahechami
jahechauka
jahechava
jaheja
jaheka
jahekombo
jahero
jaho
jahuha
jahupyty
jai
jaike
jaiko
jaikoha
jaikove
jaikuaa
jaikuaaha
jaikuaami
jaikuaapora
jaime
jain
jaipapa
jaipe
jaiporu
jaipota
jaipuru
jaipuruha
jaipurukuaa
jaipuruva
jaipyhy
jair
jaity
jaitykua
jaja
jajapo
jajavy
jajesareko
jajogua
jajoko
jaju
jajuhu
jajuhukuaa
jajupi
jaka
jakarati
jakare
jakaru
jakavere
jake
jakob
jaku
jalisco
jama
jamaica
jamaicano
jame
james
jamie
jan
jandaya
jane
janeiro
january
japa
japan
japanese
jape
japepo
japeusa
japeusaroto
japo
japoi
japoko
japone
japonesa
japopapyre
japopyre
japu
japugua
japurahe
japusa
japyta
japytu
jar
jara
jarara
jardi
jardim
jare
jareko
jari
jaro
jary
jason
jasuka
jasuru
jasy
jasyapy
jasyko
jasykue
jasypa
jasypako
jasypatei
jasypo
jasypoapy
jasypoko
jasyporundy
jasypotei
jasyrundy
jasytata
jasytei
jataity
jate
jatere
jatevu
jatopa
jatyta
jaume
java
jave
javegua
javete
javeve
javevy
javevyirana
javier
javiru
javora
javy
jay
jayme
jazeera
jazz
je
jean
jeanne
jefe
jeff
jefferson
jeffrey
jegua
jeguaka
jeguakara
jeguata
jegueraha
jeguereko
jeguerohory
jegueroviapy
jehai
jehaikue
jehaipy
jehaipyre
jehaira
jehapy
jehasa
jehasaha
jehayhu
jehe
jehecha
jehechakuaa
jehechapyra
jehecharamo
jehechauka
jehechaukara
jeheka
jeheky
jehepyme
jehero
jeho
jehupytyra
jei
jeike
jeikeha
jeiko
jeikogua
jeikoha
jeikopora
jeikove
jeikovejey
jeikuaave
jeikuaaveva
jeipapa
jeipe
jeipuru
jeity
jeja
jejahe
jejahuha
jejapo
jejapopy
jejapopyre
jejogapo
jejohe
jejoko
jejokua
jejopy
jeju
jejuhu
jejui
jejuka
jejukaha
jeka
jekaru
jeke
jeko
jekopyty
jekopytyjoja
jekoraka
jekuaa
jekuae
jekuaen
jekupyty
jekupytyha
jekupytyra
jekutu
jeme
jenaro
jenner
jennifer
jens
jensen
jepapa
jepe
jepeve
jepi
jepigua
jepive
jepivegua
jepivero
jepo
jepoko
jepokuaa
jepokuaapyre
jepopete
jeporavo
jeporeka
jeporu
jepuru
jepy
jepyso
jepytaso
jepytu
jera
jere
jerekue
jeremy
jereraha
jerere
jereregua
jero
jeroky
jerokyha
jerokyra
jeromandu
jerome
jerovia
jeroviaha
jeroviakatu
jeroviapy
jeroviapykue
jerry
jersey
jerure
jerusale
jeruti
jesareko
jesarekopyra
jesse
jessica
jesu
jesui
jesuita
jesuitas
jesus
jeta
jetapa
jetepyso
jetepysoha
jetu
jety
jeva
jeveve
jevy
jey
jeyva
jeyve
jha
jhtm
ji
jico
jiko
jim
jimbu
jime
jimmy
jin
jinete
jm
jo
joa
joachim
joaite
joaju
joajueta
joajuha
joajukatu
joajura
joajutei
joan
joana
joapy
joapykuaa
joapykue
joaqui
joaquim
joaty
joatykue
joavy
joayhu
joe
joel
joey
jogapo
jogapokuaa
jogapokuaaha
jogapopyre
jogua
joguaha
joguerahavia
johan
johann
johannes
johannesburgo
johe
joheipyre
john
johnny
johns
johnson
johnston
joja
jojaha
joker
joko
jokoha
jokora
jokua
jokuae
jokuaikuaa
jokuaikuaaha
jokuairape
jokupyty
jokupytyra
jon
jonathan
jones
jong
jopara
jope
jopi
jopo
jopyhy
jorda
jordan
jordi
jorge
jornal
jose
josef
josefa
josefina
josep
joseph
josh
josip
josopy
josopyre
jotopa
journal
jova
jovake
jovellanos
joven
jover
joy
joyke
joyvy
jp
jpg
jpl
jr
jsp
ju
jua
juan
juana
juasa
juayhu
judas
judea
judi
judicial
judith
judy
juego
juegos
juehegua
jueheguasa
jueheguaty
juehepehe
juez
jugador
jugola
juhu
juicio
jujuy
juka
jukaha
juky
jukyry
jukysy
jules
julia
julian
juliana
juliano
julie
julieta
julio
julius
july
jun
june
jung
junga
juni
junio
junior
junta
jupi
jupiha
jurado
juri
jurista
juru
jurugua
jurumi
jurumo
jurupe
justice
justicia
justin
justo
juty
juventud
juvicha
jy
jyva
jyvanga
k
ka
kacha
kachi
kachike
kachique
kafe
kaferyru
kafka
kagua
kaguyjy
kahlo
kai
kaigue
kajeta
kaka
kakapo
kakuaa
kakuaava
kakuaave
kalama
kalendo
kali
kalifo
kaliningrado
kalkuta
kallsen
kalo
kamba
kambe
kambo
kambojan
kambu
kambuchi
kamby
kame
kameru
kamio
kamisa
kampa
kan
kanada
kanata
kandil
kandu
kane
kangu
kangue
kanguekue
kanguemimi
kangy
kangymi
kaninde
kanindeju
kanji
kano
kanoa
kansas
kant
kaoru
kape
kapi
kapiata
kapu
kara
karaguata
karaguatay
karai
karaikue
karain
karaja
karajao
karakaru
karaku
karameg
karamegua
karanda
karapa
karape
karapegua
kare
karen
kari
karia
karimbata
karina
karl
karmeli
karolina
karre
karrero
karro
karu
karugua
karuguaha
karuguasu
karuha
karumbe
karura
kasahita
kaso
kastilla
kasu
kata
katala
katalu
katalun
kate
katemandu
katherine
kathleen
kati
kato
katowice
katu
katuete
katuetei
katui
katupy
katupyry
katupyryete
kavaju
kavara
kavi
kavichu
kavure
kay
kazajista
kazımova
ke
kechuan
kegua
keisuke
keitel
keith
keller
kelly
kemal
ken
kena
keniano
kennedy
kenneth
kenny
kepe
kera
kerana
kerayvoty
kere
kesu
kevin
kg
khalifa
khan
ki
kia
kids
kierkegaard
kiev
kigali
kike
kiko
killer
kilo
kilogramo
kilyikhama
kim
kimi
kimiko
kimikuaa
kin
kina
kindersley
king
kingdom
kio
kipling
kirchner
kiribati
kirigita
kirikiri
kiriri
kirito
kiriva
kirk
kiro
kita
kiveve
klaus
klein
klose
klu
km
knight
know
knowledge
knowles
ko
koa
kochiu
kocho
koga
kogakue
koichagua
koichiro
kojo
kokatu
koku
kokue
kokuehe
kokuepegua
kokuere
kola
kolo
kolombia
kolumbia
kombutado
komo
komuni
komunidad
konfu
kong
kongo
konrad
kontanti
kope
kora
korapy
koraso
kordille
kordillera
kore
korea
korean
koro
korochire
koronavi
koror
kororo
kosereva
kosina
kosovo
kosta
koteve
koti
kotte
koty
kotyguasu
kotykue
kov
kova
koygua
kra
kraus
krio
kristia
krivoshein
ktor
ku
kua
kuaa
kuaaha
kuaandy
kuaapy
kuaapyra
kuaara
kuaareka
kuaaty
kuaatyha
kuaaukaha
kuae
kuaha
kuairu
kuala
kuarahy
kuarahyreike
kuarahyreikegua
kuarahyrese
kuarahyse
kuarepoti
kuarepotiti
kuaru
kuati
kuatia
kuatiahai
kuatiahaiha
kuatiahaikue
kuatiahaipyre
kuatiakatu
kuatiakue
kuatian
kuatiapyre
kuatiarogue
kuatiaveve
kuatirana
kue
kuehe
kuera
kui
kuimba
kuimbe
kuiper
kumanda
kun
kunayo
kundaha
kundt
kunu
kuomintang
kupe
kupy
kupyju
kura
kurahyrese
kurapepe
kure
kuri
kuriju
kurt
kuru
kurugua
kuruguaty
kuruguatygua
kurundu
kurupa
kurupi
kururu
kurusu
kurusurape
kuruvi
kusugue
kutiyattam
kutu
kuva
kuvuasu
kuwait
ky
kygua
kyha
kyhyje
kyja
kykyo
kyoa
kyoasia
kyoasian
kyoe
kypy
kyra
kyrakue
kyre
kyrgyzstan
kyry
kyse
kysepuku
kyta
kyti
kyu
kyve
kyvy
l
la
lab
labor
laboratorio
labores
labrador
lacalle
ladislao
lado
ladrillo
lady
laga
lago
lagoa
lagos
laguna
lake
lalo
lama
lambare
lampreado
lana
lancet
lancha
land
lane
lang
language
languages
lanka
lanza
laos
lapacho
lape
lar
lara
lares
larga
largest
largo
lari
larrosa
larry
lars
larsson
las
lasion
last
late
lati
latin
latina
latinan
latino
latinoame
latinoamericana
latinoamericano
latitud
laura
laurel
laureles
lauren
laurent
laurie
lautrec
lava
law
lawrence
layla
lbum
le
lea
league
leal
leandra
leandro
leary
lebre
lech
leche
lector
ledesma
lee
leer
left
legado
legal
legislativo
legua
leguas
leguizamo
lehm
lei
leibniz
leigh
leiguasu
leila
leishmaniasis
leiva
lejana
lema
lemai
lembu
lena
lengua
lenguaguarani
lenguaje
lenguas
lenin
lennon
leo
leon
leona
leonard
leonardo
leone
leones
leonor
leopardo
leopardus
leopold
leopoldo
leoz
lepidocolaptes
leporinus
leroy
les
leslie
leso
lesotho
leticia
leto
letra
letras
letrista
leu
lev
level
levi
levy
lewis
lexico
ley
leyenda
leyendas
leyes
lez
lgaro
lgica
li
lia
liagua
liape
libane
liberal
liberalismo
liberato
liberia
libertad
libertadores
liberty
libra
library
libre
libro
libros
lic
lica
licenciado
licenciatura
lico
licos
lida
lidia
lie
liechtenstein
liechytentei
life
liga
light
lika
like
liko
lili
lilian
lillian
lilongue
lima
lime
limited
limo
limoy
limpio
lin
lina
linares
lince
lincoln
linda
lindo
line
lines
lingu
linguistics
link
linnaeus
lino
lio
lion
lionel
lippincott
lis
lisa
lisboa
lisimba
lisis
list
lista
lita
lite
literaria
literario
literato
literatura
literature
lito
litocolor
little
litua
lituan
lituano
liu
liv
live
liverpool
livia
living
livio
livro
lix
liz
ll
lla
llama
llamadas
llamado
llamas
llanura
llegar
llengues
ller
llo
llobregat
llorente
llosa
lloyd
llui
lluvia
lo
lobito
lobo
lobos
local
loco
locomotora
locro
locucio
locutor
lof
loga
logo
logos
loizaga
lola
lolo
loma
lombardi
lomita
london
londres
londrina
londye
long
longitud
loop
lope
lopes
lopi
lorca
lord
lorena
lorenzo
loreto
loro
los
losada
lota
lotes
lothar
lou
louis
louise
lourdes
lourenc
love
lovera
low
loyola
lozano
lpg
lta
ltd
ltica
ltiko
ltima
ltimo
ltimos
lu
lua
luca
lucas
lucero
lucha
luchador
luchadora
luchi
lucho
luci
lucia
luciana
luciano
lucien
lucio
lucy
ludovico
ludwig
luego
lugar
lugo
lui
luigi
luis
luisa
luisiana
luiso
luiz
luiza
lukas
luke
lula
lumpur
luna
lunes
lung
lunwerg
lupus
luque
lute
lutero
luther
lutra
luxemburgo
luxemburgue
luz
lvares
lvarez
lvaro
lvez
lynch
lynn
lynx
lyon
lyra
m
ma
mab
mabel
mabue
mac
macao
macedonio
machado
machai
machu
maciel
macmillan
maco
maculatus
mad
madame
maddie
madeira
madera
maderas
madison
madrazo
madre
madres
madrid
maera
maestra
maestro
mag
magallanes
magazine
magdalena
magere
maggie
magia
magistrado
magistratura
magma
magna
magnate
magno
magnus
mago
magua
magui
maha
mahal
mahe
mai
maimbe
main
mainumby
maior
mais
maitei
maiz
maja
majakue
major
maka
makakue
makate
makatu
makemake
making
makuri
mal
mala
malabo
malasia
malavar
malawi
malaysia
malcolm
maldonado
male
mali
mallorqui
malo
malta
malu
malvi
malvina
malvinas
mama
mame
mami
mammal
mammals
mamo
mamorei
mamove
man
management
manaos
manaus
mancha
manchester
manchete
manchu
mandagaka
mandamientos
mandari
mandato
mandi
mandioca
mando
mandu
manduvi
manduvira
mandyju
mane
maneco
manejados
manera
manga
mangaka
mangapy
mangapykuaa
mango
mangore
manhattan
mani
manifiesto
manihot
manjui
mann
mano
manoel
manolito
manolo
manora
manos
manta
mante
mantel
manterei
manteva
manu
manual
manuel
manuela
manzana
mao
map
mapa
mapcarta
mape
maps
mapuche
maquinarias
mar
mara
marae
marakana
maramo
marandeko
marandu
maranduha
marandukue
marandumyasa
marangatu
marangatuete
marangatukue
marangatura
maranha
marati
maravichu
marc
marcel
marcela
marcelino
marcelle
marcello
marcelo
march
marcha
marcial
marciales
marco
marcos
marcus
mare
marfil
marfilen
margaret
margarita
marge
mari
maria
mariana
mariano
marie
marilyn
marin
marina
marine
marino
mario
marion
marisa
mariscal
marjorie
mark
market
markets
markus
maro
marque
marques
marrakech
marro
marroqui
marrue
marruecos
mars
marsal
marsh
marshall
marta
marte
martel
martha
marti
martin
martina
martinez
martins
marvin
marx
mary
maryland
marzo
mas
masa
masakaragua
masendo
masendon
maskoy
mason
massa
massachusetts
massafera
massimo
master
mata
matar
mate
matema
mateo
materia
material
mateus
mathematical
mati
matilde
mato
matos
matrimonio
matsuura
matt
mattha
matthew
matto
mau
maua
maureen
mauri
maurice
mauricio
maurita
mauro
mava
mavave
mavoi
max
maxime
maximiliano
may
maya
mayans
mayer
mayma
maymaite
maymavaite
maymave
mayndi
mayo
mayor
mayori
mays
maza
mazama
mazo
mb
mba
mbae
mbaenunga
mbaeti
mbaha
mbaipy
mbaite
mbaiteva
mbaja
mbajepe
mbaracayu
mbaraka
mbarakaja
mbarakajarundi
mbarakaju
mbarakapu
mbaraviki
mbarete
mbareteha
mbaretekue
mbaretepyte
mbaretete
mbareteva
mbareteve
mbatovi
mbayru
mbe
mbegue
mbegueha
mbeguekatu
mbeguekatumi
mbejingo
mbeju
mbelise
mbeni
mberu
mbia
mbiape
mbichy
mbigua
mbiru
mbisa
mbita
mbito
mbo
mbocayaty
mboguataha
mbogueha
mbohapy
mbohapyha
mbohapyjasy
mbohapypa
mbohapysa
mbohapyve
mbohasa
mbohasaha
mbohasapyre
mbohova
mbohovake
mbohupa
mbohupakue
mboi
mboipy
mboja
mbojoja
mbojojaha
mboka
mbokaja
mbokajaty
mbokakue
mbokapu
mbokapuha
mbolo
mboparaha
mbopi
mbopu
mbopuha
mborayhu
mbore
mborevi
mboriahu
mboriahumi
mboriahuve
mborokuai
mborookuai
mbota
mbotia
mbotove
mbotuicha
mboty
mbotyha
mbovy
mbovymi
mbovyve
mboy
mboypy
mboyve
mboyvegua
mboyvemi
mbre
mbu
mbue
mbujape
mbukare
mbuku
mburika
mburikarana
mburukuja
mburune
mburuvi
mburuvicha
mburuvichakue
mburuvichapave
mburuvichara
mburuvicharape
mburuvichavete
mburuvichavy
mburuviha
mbusia
mbusu
mbutuy
mby
mbya
mbyaty
mbyatyha
mbyguai
mbyguaikue
mbyhy
mbyhyha
mbyhyra
mbyhyva
mbyja
mbyjajere
mbyjakuaa
mbyjakuaaha
mbyjakue
mbyjaty
mbyju
mbyky
mbykymi
mbykymimi
mbyre
mbyry
mbyte
mbyteafrikagua
mbyteame
mbytegua
mbytepe
mbytepegua
mbytere
mbytete
mc
mcal
mcbride
mccartney
mccormick
mcgraw
me
mec
meca
mecanismo
med
medalla
medelli
medes
media
medical
medicina
medicinales
medicine
medida
medieval
medina
medio
medios
mediterra
medlineplus
megadyptes
megua
mehmed
meio
meji
mejor
meka
meknes
mekong
meku
mel
melanie
melbourne
melchor
melgarejo
melissa
mello
melo
melodi
member
members
memby
membykua
membykue
membykun
membyn
membyra
membyryru
membyse
meme
memete
memo
memoria
memorial
memorias
memphis
men
mena
menara
mencio
menda
mendes
mendonc
mendoza
mene
menes
menino
meno
menonita
menonitas
menor
menos
mensaje
menta
mental
mente
menu
mercado
mercedes
mercosur
mercury
mereles
meridiano
meridional
merkel
mero
meros
merriam
mes
mesa
mesopota
mesopotamia
mesquita
messi
mestizo
meta
metal
metaphysics
metei
meteorito
meteoro
meteorolo
metro
metropolitana
metros
metynnis
meu
meve
mexicana
mexicano
meyer
mez
meza
mezzosoprano
mg
mi
mia
miama
miamar
miami
mica
micas
michael
michel
michelangelo
michele
michelle
michi
michigan
michimi
michoaca
mick
mickey
mico
micos
microbiology
microsoft
mid
middle
mide
mides
mie
miel
miembra
miembro
miembros
migliorisi
migracio
migration
migratoria
miguel
miguela
mijai
mika
mike
mikel
miko
mikyone
mil
mila
milagres
milagro
milagros
milan
milanesa
mile
miles
miley
mili
milikokue
militante
militar
militares
military
mill
milla
miller
million
millo
millones
milton
mimbi
mimby
mimi
mimo
min
mina
minas
mind
mine
mineral
ming
minga
minh
minha
mini
miniatura
minister
ministerio
ministro
minnesota
minutos
mio
mir
mirador
miranda
miri
miro
miroslav
mis
misa
misio
misionero
misiones
misisipi
mismo
miss
mississippi
misso
misterio
misuri
mit
mita
mitakun
mitchell
mite
mites
mito
mitolo
mitologi
mitos
mitre
miva
mive
mix
mixer
miyazaki
mm
mnibus
mo
moa
moaka
moambueha
moc
moctezuma
moda
modas
mode
model
modelo
modern
moderna
moderno
modesto
modo
mogi
moha
mohamed
mohammed
mohen
mohu
moi
moiru
moise
moko
mokoi
molas
molay
moldova
molecular
molie
molina
molinas
moliniers
molino
momarandu
momaranduha
momarandupora
momba
mombarete
mombary
mombaryryru
mombe
mombo
mombyry
mombyryete
mombyrykue
mombyryve
momento
momora
mon
mona
monaco
moncho
monda
mondaha
monday
monde
mondo
moneda
monedas
monegasco
monei
monetario
monetary
mongakuaa
mongelo
mongeta
mongo
mongol
mongolia
mongoloha
mongoraha
mongu
monica
monjardim
monje
mono
monografi
monroe
monsen
montan
montana
montani
monte
montene
montenegro
montero
monterrey
montes
montevideo
montgomery
monthly
monti
montmorency
montoya
montreal
montt
monumental
monumento
moo
moon
moore
mopu
mora
moraes
morais
moral
morales
morangu
more
moreira
morelos
morena
moreno
morfologi
morgan
mori
mormo
moro
moroni
moroti
morris
mortality
mosa
mosambi
mosambike
mosku
mosquito
most
mosusu
mota
mote
motei
motem
motenondaha
motenondeha
mother
motivo
motociclismo
motor
moulin
moura
mouse
movements
movie
movimiento
moynda
mozart
mozilla
mp
mpia
mpico
mpicos
mr
msnm
msw
mt
mu
muanduhe
mucho
muchos
mudo
mueble
muere
muerte
muerto
mugabe
mujer
mujeres
mujica
mulher
mulheres
mulo
mumba
mun
mundial
mundo
mundofox
muni
municio
municipal
municipalidad
municipio
municipios
mural
muralla
murcia
murillo
murilo
murio
muro
murphy
murray
musa
muse
museo
museos
museu
museum
music
musical
musicales
musico
musso
must
mustafa
musulma
muy
mw
mx
my
myaka
myanmar
myasa
myatyro
mycteria
mykure
mymba
mymbachu
mymbajuka
mymbakandu
mymbakeha
mymbakue
mymbarenda
mymbaty
myriam
n
na
nacer
nacho
nacido
nacimiento
nacio
nacional
nacionales
nacionalidad
nacionalismo
nacionalista
nacionalizado
naciones
naco
nada
nadador
nadadora
nadal
nadie
nagasa
nager
nagui
naha
nahe
nahesa
nahesaka
naho
naikane
naimandu
naimba
naimombyry
nain
naipora
nairo
naja
nakamura
nako
nambi
name
names
nami
namibia
namicha
namombyry
namomoko
nan
nana
nanawa
nancy
nandi
nanga
nape
napoleo
nara
naranja
naranjal
narciso
nare
narrador
narrativa
narva
nasa
nasal
nasaregua
nascimento
nash
nasikue
nassau
nasua
natal
natalia
natalicio
natalie
natekoteve
nathan
nati
nation
national
nations
nativa
nativo
natural
naturales
naturaleza
naturalista
nature
naval
navarra
navarro
navegacio
navegante
navero
navidad
nazareth
nazi
nazis
nbc
nbi
ncbi
ncer
ncha
nchez
ncho
ncia
ncipe
nd
nda
ndaha
ndahaku
ndahakuete
ndahase
ndahasy
ndahasyiete
ndahe
ndahepy
ndaheta
ndahetave
ndahi
ndahypy
ndaija
ndaijoja
ndaijojaha
ndaikatu
ndaikatuiha
ndaikatumo
ndaikatuve
ndaikuaa
ndaipo
ndaipori
ndaiporiha
ndaiporive
ndaipota
ndaipu
ndaipuku
ndaipy
ndaja
ndajaikuaa
ndaje
ndajeko
ndajuhu
ndan
ndape
ndareko
ndaro
ndatuicha
ndatuichaite
ndavoka
ndavy
nde
ndehegui
ndende
ndere
nderehe
ndetuicha
ndetuichapajepe
ndeve
ndez
ndi
ndia
ndiape
ndice
ndido
ndie
ndikatu
ndiko
ndinama
ndinamayka
ndio
ndive
ndo
ndoguereko
ndoguerohory
ndoguerovia
ndohaikuaa
ndohasa
ndohecha
ndohechakuaa
ndohechapora
ndohechauka
ndoheja
ndoho
ndohupyty
ndoikatu
ndoike
ndoiko
ndoikove
ndoikuaa
ndoikuaapora
ndoiporavo
ndoipota
ndoipuru
ndoipuruve
ndojapo
ndoje
ndojehai
ndojehecha
ndojehechakuaa
ndojeikuaa
ndojejapo
ndojejuhu
ndojekuaa
ndojekuaapora
ndojepuru
ndojepuruve
ndojoja
ndojuhu
ndoke
ndoku
ndokuera
ndoky
ndokyve
ndomini
ndominikagua
ndon
ndopa
ndopuka
ndopyta
ndopytu
ndor
ndoreko
ndoro
ndou
ndoupora
ndovale
ndovy
ndrome
ndu
ndusu
ndusukue
nduva
ndy
ndyre
ne
nea
necesidades
nee
need
neela
neerlande
neerlandesa
negara
negocio
negra
negro
nei
neil
neka
nelly
nelson
nemba
nen
nendive
neneco
neo
neonatal
neozelande
neozelandesa
nepal
nepali
nepomuceno
nepora
nereime
nero
neros
neruda
nesis
net
netflix
neto
netto
netu
network
neuland
neumoni
neuque
neuro
nevis
new
news
newton
next
neymar
nez
ng
nga
ngaha
ngahai
ngakara
ngakue
ngambyry
ngami
ngamy
ngandy
ngao
ngape
ngara
ngare
ngaro
ngatu
ngaty
nge
ngel
ngela
ngeles
ngelo
nger
ngerulmud
ngo
ngora
ngotyo
ngu
ngua
ngue
nguekue
nguemi
nguengue
nguera
nguete
nguez
ngui
nguiz
ngururu
ngy
nh
nheengatu
ni
nia
niara
nic
nica
nicanor
nicaragu
nicaragua
nicas
nicholas
nick
nico
nicola
nicolas
nicole
nicolino
nicos
nicotiana
nida
nielsen
niemeyer
nieto
nietzsche
nieves
nigel
niger
nigeriano
night
nightingale
nigo
nih
nihe
nika
nikara
nikaragua
niko
nikola
nilo
nils
nilsson
nima
nimbora
nimo
nin
nina
ningo
nio
nior
niri
nivacle
nivel
nix
nlm
nmente
no
noah
nobel
noble
noche
noches
nocturno
noel
noemi
noguahe
nogueira
noha
noharara
noi
noikoteve
noipora
noiporenose
nola
nolan
nom
noma
nomano
nomba
nomboyke
nombre
nombres
nome
nomenclatura
nominal
nomo
nomoambue
nomomba
nomombe
nomon
non
nonkilling
nope
nopena
nora
norberto
nord
noreste
norirlande
norma
normal
norman
noroeste
norte
norteame
north
northern
norton
norue
noruega
noruegan
noruego
nos
nose
not
nota
notable
notas
note
noti
noticia
noticias
notre
nouka
nov
nova
novel
novela
novelas
novelista
november
novembro
novenario
noviembre
novo
now
npe
ns
nsa
nscrito
nse
nsia
nskrito
nsul
nsula
nt
nta
ntara
nte
nteko
ntema
ntese
ntesis
nteva
ntevoi
nther
ntica
ntice
ntico
ntika
ntiko
ntikope
nto
ntrape
ntropa
ntropo
ntu
nu
nuakecho
nube
nubes
nuclear
nudo
nuestra
nuestro
nuestros
nueva
nuevas
nueve
nuevo
nuevos
num
numbers
nun
nunca
nundu
nunga
nungakue
nuoroda
nupa
ny
o
oa
oactu
oaxaca
obispo
obligado
obligatoria
obligatorio
obra
obrage
obraje
obras
obrero
observacio
obstetrics
ocampo
ocampos
ocan
occidental
occita
oce
ocho
ochoa
oclc
octavio
october
octubre
ocultista
ocupacio
oda
odefende
odestina
odispone
odo
oe
oea
oecd
oechauka
oeste
oestrena
oestudia
of
ofenda
office
official
oficial
oficiales
oficialmente
oficina
oficios
ofirma
ofunda
ofundava
og
oga
ogaguasu
ogaguy
ogaha
ogahoja
ogaita
ogakue
ogamimi
ogana
ogapy
ogapykue
ogapypegua
ogaraity
ogaygua
ogayguakue
ograva
ogua
oguah
oguahe
oguapy
oguata
oguataha
ogue
oguejy
oguejyha
oguenohe
ogueraha
oguerahaha
oguerahava
oguereha
oguereko
oguerekoha
oguerekohague
oguerekoro
oguerekova
oguerekove
oguero
ogueroguata
oguerohory
ogueroja
oguerojera
ogueromandu
oguerosapuka
oguerova
oguerovia
ogueru
ogueruka
ogueruva
oguevi
ogui
ogureko
ogyke
oha
ohague
ohai
ohaiha
ohaihague
ohaijepe
ohaikuaa
ohaitypo
ohaiva
ohaka
ohapejoko
ohapy
ohapykueho
ohasa
ohasaha
ohasakue
ohasapa
ohasapora
ohasava
ohasave
ohayhu
ohayhuete
ohayhueterei
ohe
ohecha
ohechaga
ohechaha
ohechakuaa
ohecharamo
ohecharamoite
ohecharamoiterei
ohechauka
ohechaukaha
ohechaukase
ohechaukava
ohechava
ohechuka
oheja
ohejarei
ohejava
oheka
ohekase
ohekave
oheko
ohekombo
ohekome
ohembe
ohen
ohendu
ohenduka
oheno
ohenonde
ohepyme
ohero
ohesa
ohesape
ohetu
ohio
oho
ohoha
ohohy
ohojey
ohokue
ohopa
ohorei
ohose
ohova
ohovasa
ohua
ohundi
ohupi
ohupity
ohupytu
ohupyty
ohupytyha
ohupytyka
ohupytyse
ohupytyva
ohypy
ohypyty
oi
oiha
oihague
oikara
oike
oikeha
oikejepe
oikepa
oikese
oikeva
oiko
oikoe
oikoha
oikohague
oikohi
oikoite
oikojepe
oikojey
oikokuaa
oikokue
oikomeme
oikopa
oikopora
oikoramo
oikose
oikoseha
oikotaha
oikoteve
oikova
oikovai
oikove
oikoveha
oikovejey
oikovente
oikoveva
oiku
oikua
oikuaa
oikuaaha
oikuaapora
oikuaase
oikuaauka
oikuaava
oikuaave
oikuauka
oikuave
oikumby
oikundaha
oikutu
oikyti
oikyty
oil
oime
oimeha
oimera
oimerae
oimeva
oimo
oinaugura
oinupa
oipapa
oipe
oipehe
oipeju
oipepiru
oipirakutu
oipo
oipoha
oiporavo
oiporavokuaa
oiporeno
oiporu
oiporuva
oipota
oipotague
oipotaha
oipuru
oipuruha
oipuruite
oipurukatu
oipurukuaa
oipuruva
oipuruve
oipy
oipyaha
oipyguara
oipyhy
oipyku
oipyso
oipysyro
oipyte
oipytyvo
oiru
ois
oisa
oisambyhy
oise
oisu
oite
oity
oitypa
oiva
oja
ojahe
ojaho
ojahu
ojaitypo
ojaja
ojajapo
ojapajere
ojapi
ojapo
ojapoha
ojapohague
ojapokuaa
ojapokue
ojapopa
ojapopaite
ojapose
ojapouka
ojapova
ojapove
ojapyhy
ojapysaka
ojasuru
ojavy
ojavyky
oje
ojeapresa
ojecha
ojechauka
ojeda
ojedeklara
ojegradua
ojeguata
ojegueraha
ojeguereko
ojeguerekoha
ojeguerohory
ojeguerohoryeterei
ojegueroja
ojeguerojera
ojegueromandu
ojeguerova
ojeguerovia
ojegueru
ojehai
ojehaiha
ojehaitypo
ojehaiva
ojehapejoko
ojehapy
ojeharu
ojehasa
ojehasaha
ojehayhu
ojehayhuve
ojehe
ojehecha
ojehechaha
ojehechakuaa
ojehechameme
ojehecharamo
ojehecharamoiterei
ojehecharamove
ojehechauka
ojehechaukaha
ojehechava
ojehechave
ojeheja
ojeheka
ojehekombo
ojeheky
ojehepyme
ojehero
ojeheroha
ojeherova
ojeherove
ojehesa
ojehesape
ojeho
ojehova
ojehovasa
ojehu
ojehuha
ojehuhague
ojehupi
ojehupyty
ojehupytyse
ojehuva
ojei
ojeike
ojeikeha
ojeiko
ojeikoha
ojeikove
ojeikua
ojeikuaa
ojeikuaaha
ojeikuaapora
ojeikuaauka
ojeikuaava
ojeikuaave
ojeipapa
ojeipapaha
ojeipe
ojeiporavo
ojeiporu
ojeiporuva
ojeiporuve
ojeipota
ojeipuru
ojeipuruha
ojeipuruite
ojeipuruva
ojeipuruve
ojeipyso
ojeity
ojeitypa
ojeja
ojejaho
ojejahu
ojejapo
ojejapoha
ojejapohague
ojejapopa
ojejapopyre
ojejapose
ojejapova
ojejapove
ojejapyhy
ojejavy
ojejepo
ojejeroky
ojejerovia
ojejerure
ojejo
ojejogapo
ojejogapopa
ojejogua
ojejohe
ojejoko
ojejokua
ojejokupyty
ojejopy
ojejoso
ojeju
ojejuhu
ojejuhuha
ojejuhukuaa
ojejuhuva
ojejuhuve
ojejuka
ojejukase
ojejukava
ojejuru
ojeka
ojekapupa
ojekaru
ojeke
ojeko
ojekua
ojekuaa
ojekuaaha
ojekuaapora
ojekuaauka
ojekuaava
ojekuaave
ojekutu
ojepapa
ojepapaha
ojepe
ojepirakutu
ojepita
ojepo
ojepohe
ojepoi
ojepoko
ojepokuaa
ojeporavo
ojeporavova
ojeporeka
ojeporu
ojeporumeme
ojeporuva
ojeporuve
ojepovyvy
ojepurahe
ojepuru
ojepuruha
ojepuruita
ojepuruva
ojepuruve
ojepy
ojepyaha
ojepykua
ojepyso
ojepyta
ojepytaso
ojepytu
ojeraha
ojere
ojereko
ojereraha
ojerereko
ojereva
ojero
ojeroky
ojerokykuaa
ojeromandu
ojerovia
ojeru
ojerure
ojerureva
ojesareko
ojesarekokatu
ojetopa
ojeupe
ojevy
ojevyjey
ojey
ojo
ojoaju
ojoajuha
ojoajupa
ojoajuva
ojoapy
ojoapyha
ojoapykue
ojoapyte
ojoavy
ojoehegui
ojogapo
ojogapokuaa
ojogua
ojoguaha
ojoguaite
ojoguaiterei
ojoguase
ojoguava
ojoguave
ojohayhu
ojohe
ojoja
ojojogua
ojojuhu
ojoka
ojoko
ojokose
ojokua
ojokuaikuaa
ojokupyty
ojope
ojopi
ojopoi
ojopy
ojos
ojova
ojoyke
oju
ojuaju
ojuasa
ojuavy
ojuehe
ojuehegua
ojuehegui
ojuhu
ojuhuakue
ojuhuva
ojuka
ojukaparaiva
ojukauka
ojukava
ojukupyty
ojupe
ojupi
ojupive
ojy
oka
okaha
okakua
okakuaa
okakuaaha
okakuaapa
okakuaave
okambu
okan
okapegua
okapu
okara
okaraha
okaraygua
okaru
okarupa
okarusu
okay
oke
okinawa
okinawan
okiriri
oklahoma
oko
okove
oktoberfest
oku
okua
okuaa
okuaarara
okue
okuera
oky
okyhyje
okyiterei
okykue
okymeme
okypota
okyve
okyveha
ol
ola
olaf
old
olga
olho
oli
olimpia
olimpo
oliva
olivares
oliveira
oliver
olivera
olivier
olivo
olla
olvido
olympiad
olympic
om
oma
omagua
oman
omanda
omano
omanoha
omanohague
omanoite
omanomba
omanombota
omanova
omantene
omar
omba
ombichy
ombo
omboaje
omboapy
omboarete
omboati
omboavevo
omboguapy
omboguata
omboguatava
ombogue
omboguejy
omboguevi
omboha
ombohape
ombohasa
ombohasy
ombohe
omboheko
ombohepy
omboherava
ombohero
omboheta
ombohetave
ombohetia
ombohory
ombohova
ombohovake
omboja
ombojapu
ombojegua
ombojeguaka
ombojehe
ombojei
ombojere
ombojo
ombojoaju
ombojoajuva
ombojoapy
ombojoavy
ombojoja
ombojopara
ombojopo
ombojopyru
ombojuaju
ombojuavy
ombojy
ombokakuaa
ombokapu
ombokatu
ombokatupyry
ombokuatia
ombopaha
ombopara
ombopiro
ombopu
ombopuha
ombopuka
ombopukuaa
ombopy
ombopyahu
ombori
omboruru
ombosa
ombosako
ombota
ombotarova
ombotavy
ombotove
ombotuicha
ombotuichave
omboty
ombotyryry
ombou
omboveve
ombovevu
ombovo
ombovu
ombovy
ombovyvy
omboy
omboyke
omboypy
ombuekovia
ombuekoviara
ombyai
ombyaipa
ombyaku
ombyaty
ombyatypa
ombyatyva
ome
omee
omenda
omendava
omi
omimbi
omnitrix
omniverse
omo
omoagui
omoaka
omoambue
omoambuese
omoan
omoandu
omoangeko
omoapan
omoarandu
omobe
omochichi
omog
omoguahe
omoha
omohe
omohechauka
omohembe
omohen
omohenda
omohendava
omoherakua
omohesa
omohesaka
omohu
omoi
omoinge
omoingo
omoingove
omoingue
omoiru
omoka
omokambu
omokan
omoko
omokunu
omokyre
omomaitei
omomarandu
omomba
omombarete
omombareteve
omombe
omombia
omombo
omombyta
omombyte
omomemby
omomichi
omomira
omomora
omomy
omon
omonda
omonde
omondo
omondoho
omondy
omone
omonei
omongakuaa
omongarai
omongaru
omongeta
omongolo
omongora
omongu
omonguera
omongy
omongyhyje
omono
omopa
omope
omopeipiru
omopero
omopetei
omopiri
omopora
omopoti
omopu
omopuka
omopukava
omopyenda
omopyendava
omosa
omosarambi
omose
omotenonde
omotenondeva
omotenondeve
omotimbo
oms
omu
omun
omy
omyaka
omyan
omyangeko
omyasa
omyatyro
omyendy
omyengovia
omyenyhe
omyesaka
omyi
omymba
omymbajuka
on
ondive
ondivepa
ondu
ondyry
ondyryse
ondyvu
one
onepage
onetti
ong
ongatu
ongatuha
ongatuva
ongue
online
only
ono
onohe
onombra
ontario
onte
onu
onupa
oort
op
opa
opaete
opaga
opaha
opaichagua
opaicharei
opaite
opakue
opama
opamba
opami
opan
opapota
oparticipa
oparupi
oparupiete
oparupigua
oparupirei
opava
opavave
opavavete
opave
ope
opehe
open
opening
operacio
operaciones
opi
opia
opinion
opirakutu
opita
opo
opoi
opoko
opopo
oporandu
oporandujey
oporeno
oporogueraha
oporojopi
oporojuka
oporokua
oporombo
oporombohasa
oporombohasy
oporombopy
oporombovy
oporombuekovia
oporombyai
oporomomandu
oporomomarandu
oporomomba
oporomomemby
oporomonga
oporomonguera
oporomongyhyje
oporon
oporopytyvo
oporu
opresenta
option
opu
opuka
opukavy
opupu
opurahe
opuruva
opy
opyre
opyru
opyta
opytaha
opytahague
opytahi
opytaite
opytami
opytava
opytu
opytyvo
opyvoi
or
ora
oracio
oraciones
orador
oraha
orahauka
orai
orairo
oral
orambosa
orange
oraro
orasy
oratorio
orca
orchestra
orden
ordenanza
order
ordo
ore
orei
oreja
oreko
orekoha
orekokue
orekoro
orekova
orekove
orendive
org
orga
organista
organizacio
organization
ori
oriental
orientalista
oriente
origen
origin
original
origins
orio
orlando
orleans
ornithology
ornito
ornitologi
oro
oroja
orovia
orquesta
orquestal
orqui
orrego
orrenunsia
ortega
orti
ortiz
ortografi
oruro
orwell
oryry
os
osa
osaingo
osapuka
osca
oscar
oscars
ose
oseani
osment
oso
osorio
osoro
osuna
osunu
osvaldo
oswald
osyry
osyryry
ota
otaky
otan
ote
otero
other
oti
oto
otoma
otomano
otopa
otra
otras
otro
otros
ots
ottawa
otto
ottoman
oturun
oty
otyky
otyryry
ou
ouha
oujey
oukue
our
ourense
ouro
out
outbreak
outlook
outras
ouva
ova
ovale
ovava
ove
ovecha
ovecharana
ovende
over
overa
oveta
oveve
ovevu
ovi
ovidio
oviedo
ovu
ovusu
ovy
owen
oxford
oyapo
oyeapo
oykeko
oyva
oz
ozuna
p
pa
paapyha
pablino
pablo
pac
paca
pacheco
paci
paciencia
pacific
pacifista
paco
pacto
pacu
padilla
padre
padres
padro
padua
paes
pag
page
pages
pagina
pago
pagui
paha
pahague
pai
paige
pais
paisaje
paite
paiva
paixa
paja
pajagua
paje
paka
pakista
pakistani
pakita
pako
pakova
paku
pakuri
pala
palabra
palabras
palacio
palacios
palau
paleonto
palermo
palestina
palestine
palestinian
paleti
palgrave
pallestrini
palma
palmas
palmeira
palmito
palo
paloma
palomita
palomo
paludismo
pam
pamela
pampa
pan
panama
panambi
panamen
pancho
panda
pane
pangrazio
panhispa
panora
panorama
pantanal
pantano
panteo
panthera
paola
paolo
papa
papaha
papaporavoha
papapy
papapykuaa
papapykuaaha
pape
papel
papers
papo
papoapy
papoapyha
papoha
papoko
paporundyha
papotei
papu
papua
papy
papyeta
papyetaite
papyre
papytei
par
para
parador
paragua
paraguai
paraguaiete
paraguaigua
paraguaikue
paraguaipe
paraguari
paraguasu
paraguay
paraguaya
paraguayas
paraguaygua
paraguaygui
paraguayo
paraguayos
paraguaype
paraguaypegua
paraguy
parai
parale
paralelo
parana
paranagua
paranaguasu
parapara
parapiti
parapyte
parara
pardo
pare
paredes
pareha
pareja
pari
paris
park
parker
parlamento
parliament
parma
paro
parodi
parque
parques
parra
parral
parrilla
parroquia
part
parte
partera
partes
parti
participac
particular
partidario
partido
partir
partitura
parto
party
parundy
pasado
pasajero
pascal
pascua
pascual
paseo
pasio
paso
pass
passos
past
pastel
pastor
pastora
pat
patagonia
patei
pati
patients
patin
patio
pato
patri
patria
patricia
patricio
patrick
patrimonio
patrio
patriota
patronal
patrono
patula
pau
paul
paula
paulina
paulista
paulo
paulope
pave
pavel
pavo
payagua
payaso
paz
pdf
pe
pea
peace
pearl
pearson
pecari
peces
pedacinho
pedago
pedagogo
pedersen
pedra
pedras
pedraza
pedro
pedrozo
pee
peg
pegua
peguaa
peguara
peguare
peha
pehe
pehengue
pehenguekue
peho
pei
peicha
peichagua
peichaha
peichave
peixoto
pejapo
peje
peju
pekaru
peki
peko
pelayo
pele
peli
peligro
pellegrini
pelo
pelota
pema
pemba
peme
pen
pena
penacho
pende
pene
penelope
penguin
peni
penn
pensador
pensamiento
pensilvania
pente
people
pepa
pepe
pepo
pequen
pequeno
per
pera
peralta
perasso
percusionista
percy
pere
peregrino
pereira
perere
pereri
perfil
perfiles
peri
perio
periodi
periodismo
periodista
periodo
perkins
perla
permanente
pernambuco
pernoud
pero
peron
perro
perros
perry
persa
persecucio
perseo
persona
personaje
personajes
personal
personalidad
personas
perspectivas
perspectives
peru
peruana
peruano
perugua
perurima
pesca
pescador
peso
pesos
pessoa
pete
petei
peter
peterevy
peters
petersburgo
peterson
peti
petit
petro
petrona
pettirossi
pety
peva
pevara
peve
peygua
peysian
pez
pg
phacellodomus
phane
pharyngitis
phil
philadelphia
philip
philipp
philippe
philips
phillip
phillips
philosophy
phoebe
phoenix
photos
php
physical
physician
pi
pia
piamonte
pianista
piano
piaractus
piare
pib
pica
picasso
picchu
pico
pide
pido
pie
piedra
piero
pierre
pies
piesa
pieta
pieter
pietro
pieza
pig
piko
piky
pilar
pilcomayo
pilo
piloto
pin
pinasco
pinda
pindo
pindora
pindorama
pindoramagua
pindoramape
pindoramapegua
pindu
pinedo
pingu
pinhal
pini
pinirampus
pino
pinto
pintor
pintora
pintura
pio
pionero
pioneros
piotr
pira
pirachuguasu
piraha
pirajaguara
piraju
pirakue
pirakutu
pirakutuha
piranare
pirandello
pirane
pirapire
pirapo
piraroto
piraru
pirata
pirayu
pire
pirekue
pirekyti
pires
piri
piribebuy
piriri
pirivevu
piro
piru
piso
pista
pita
pitanga
piter
pithecia
pitheciidae
pitikiri
pitogue
piura
pizarro
pl
pla
place
plan
planalto
planet
planeta
planetas
planets
planning
plano
plant
planta
plantarum
plantas
plasa
plasma
plata
plataforma
plato
play
playa
playas
plaza
plenipotenciario
plra
pluma
plumario
plural
plus
pluto
pmc
pmid
png
pnud
po
poapy
poapyha
poapypa
poapysa
poblacio
poblacional
pobreza
poca
pocho
pochy
poco
poder
poe
poema
poemas
poesi
poesia
poeta
poetas
poetisa
poguasu
poguasuve
poguy
poguygua
poh
poha
pohano
pohanoha
pohanokuaa
pohy
pohyikue
poi
poka
pokare
pokatu
poko
pokoka
pol
pola
polaca
polaco
polca
poles
poli
polici
policy
poline
polis
polisi
political
politico
politics
polito
polka
polo
polon
polonia
pombal
pombe
pombero
pomelo
poncho
pondal
pono
pons
ponta
ponte
pontevedra
pop
popa
pope
popeno
popi
popo
popper
popular
populares
population
por
pora
porandu
porandura
porave
poravopyre
porcio
pore
poreno
porenogua
porfiria
poriahuvereko
porno
pornogra
porokua
pororo
porque
porras
porres
port
portal
portales
portalguarani
porten
porter
portillo
portinari
porto
portugal
portugue
portugues
portuguesa
portuguese
porundy
porundyha
porundysa
porvenir
posadas
pose
posesio
posguerra
posibilidad
posicio
positivo
posse
post
pot
pota
potaite
potapy
potei
potencia
poti
potosi
poty
potykue
potyryru
pou
poverty
powell
power
powers
poytuga
poytugagua
poytugan
poyvi
pozo
pp
ppa
ppp
pr
pra
practice
pradesh
prado
praga
praia
prata
pre
pregnancy
prehispa
prehistoria
preliminar
preludio
premio
premios
prensa
pres
presbi
presencia
presentacio
presentador
presentadora
presente
presidencia
presidencial
president
presidenta
presidente
presidentes
presley
press
presupuesto
prete
preto
prevention
pri
prieto
primaria
primario
primary
primavera
prime
primer
primera
primero
primeros
primitivo
primo
prince
princesa
princeton
principal
principales
principles
print
printsec
prionailurus
prisionero
privada
privado
private
prize
pro
problema
problemas
procesio
proceso
produccio
product
production
producto
productor
productora
prof
profe
profesional
profesor
profesora
profesores
profeta
profile
profiles
profundamente
programa
programador
programme
project
promocio
promotor
pronombre
propia
propiedad
propio
propuesta
prosa
prospects
protagonismo
protagonista
proteccio
protector
protegida
protegidas
protei
protestante
protesto
proto
provenientes
provincia
provincial
provisional
proyeccio
proyecciones
proyecto
prueba
prusia
prusiano
pseudoplatystoma
psico
psicoanalista
psicologi
psiquiatra
psittacidae
pt
ptimo
pu
pua
pub
public
publica
publicacio
publicaciones
publicado
publicados
publication
publications
publicista
publique
publishers
publishing
puc
pucu
puebla
pueblo
pueblos
puede
pueden
puente
puerta
puerto
puertorriquen
puesto
puhoe
pujase
pukara
puko
pukoe
puku
pukuaa
pukue
pukukue
pukumi
pukuve
pulmo
pumbasy
pumbyry
pundie
pundieko
punk
punta
punto
puntos
pupora
pupoty
pupotyha
pura
purahe
purahei
puraheiapoha
puraheiha
puraheiharakue
puraheira
pureko
purory
puru
puruha
purukapy
purukatu
purukuaa
pururei
pururu
pusillus
puso
putrajaya
px
py
pya
pyaha
pyahapy
pyahe
pyahu
pyahura
pyahuve
pyapy
pycha
pychai
pyenda
pyeongchang
pygoscelis
pyhare
pyharegua
pyharekue
pyharepyte
pyhareve
pyharevete
pyhy
pykasu
pyku
pykuaa
pynandi
pyno
pype
pypegua
pypekue
pypore
pypuku
pyra
pyre
pyrenda
pyru
pysa
pysyro
pyta
pytagua
pytaguakue
pytaha
pyte
pyteha
pyti
pytu
pytuhe
pytuho
pytumby
pytundyry
pytyvo
q
qaeda
qatar
qin
qing
quadra
qualidade
quarai
quatro
que
quebracho
queen
queguay
queiroz
quemada
quemil
quere
quesada
quest
quevedo
quez
qui
quie
quien
quiero
quijote
quin
quince
quinn
quinta
quintana
quintero
quinto
quiro
quito
r
ra
raa
rabat
rabe
rabia
rabies
rabino
race
rachel
radial
radical
radio
radioemisora
radiofo
radoje
rae
rafael
rafaela
rage
ragua
rague
ragui
raguino
raha
rai
raicha
raimundo
rainer
rairo
raity
rajy
raka
rakamby
rakate
raku
rakue
rakuri
rally
ralph
rama
ramal
ramala
rambosa
rambueve
rame
rami
ramiro
ramo
ramogua
ramoguare
ramoite
ramon
ramona
ramos
ran
rancho
randi
randive
randolph
randu
randy
rango
rangue
rank
ranking
rante
rapa
rape
rapegua
rapekue
rapera
rapero
raphael
rapicha
rapichakue
rapo
rapokuaa
rapu
rapy
rapykue
rapykuere
rapyta
rapytara
raquel
rara
raramo
rard
rare
raro
rarupi
rasa
rasami
rase
rasiun
rasmussen
raso
rassi
rastros
rasy
rata
rate
ratee
rati
ration
ratypykua
rau
raul
rava
ravape
rave
raven
raviju
ravo
rawson
ray
rayhu
rayhuha
rayhupa
raymond
rayo
rayos
raza
razo
rbara
rbaros
rbitro
rbol
rcito
rcules
rculo
rd
rdenas
rdiko
rdoba
re
rea
reagan
real
realidad
reas
rebaudi
rebelde
rebelio
recalde
rechaukaha
recife
recoleta
recomendados
reconoce
reconocimiento
recopilacio
record
records
rector
recuerdos
recuperacio
recurso
recursos
red
redac
redaccio
rede
redir
reduccio
reducciones
reed
reeder
ref
reference
referencia
referencias
reforma
refugio
reg
regente
regimiento
regina
regio
region
regional
regiones
registro
regua
reguahe
reguata
reguereko
regueru
regular
reha
rehasa
rehe
rehecha
rehechase
rehegua
reheguacommons
reheha
rehenduse
reheve
reho
rehova
rei
reich
reiete
reike
reiko
reikuaa
reikyti
reime
reina
reinaldo
reindy
reinhold
reino
reipota
reipytyvo
reis
reity
reivindicacio
reja
rejala
rejapo
rejogua
reju
rejuhu
rejupi
reka
reko
rekoasa
rekoasakue
rekogui
rekoha
rekoite
rekoitegua
rekoiterape
rekokatu
rekomarangatugua
rekombo
rekopegua
rekopy
rekora
rekosa
rekotee
rekove
rekovekue
rekovia
rekua
relacio
relaciones
related
relationship
relativity
relatos
religio
religion
religions
religiosa
religiosas
religioso
religious
rema
remba
rembe
remberto
rembi
rembiapo
rembiapoita
rembiapokue
rembiapopora
rembiapora
rembiasa
rembiasakue
rembiejakue
rembiesara
rembigua
rembihasakue
rembijerure
rembijokua
rembikuaa
rembikuaaty
rembiporu
rembipota
rembipuru
rembireko
rembyre
reme
remedios
remiandu
remiariro
remikoteve
remimbo
remimbou
remimo
remimoi
remimono
remo
remoi
remola
remombe
remon
ren
renacimiento
renata
renato
renda
rendag
rendagua
rendague
rendakue
rendape
rendota
rendu
renduha
rendy
rendyry
rene
renonde
rente
renuncia
renyhe
reo
repa
repertorio
repiko
report
reportaje
reporter
reports
repositorio
repoti
represa
representacio
representante
reproductive
reprogra
repu
republic
republicana
republicano
repy
repykue
rerakua
rereko
rerekua
reruha
res
resa
resaju
resape
resara
resay
resck
rese
research
researchgate
reseda
resen
reserva
resfri
resfriado
residentas
residente
resistencia
resolucio
resoluciones
resources
respiratory
responsabilidad
response
resqui
restauracio
restaurante
restivo
result
resumen
reta
retagui
retakue
retape
retavae
rete
retekue
retepy
reto
retratos
retrieved
retyma
reunio
reus
reuters
rev
reve
reveals
revi
review
reviews
revisio
revision
revista
revolucio
revolucionaria
revolucionario
revolusio
revolution
rex
rey
reyes
rez
rgen
rgia
rgio
ri
ria
riacho
riape
riart
rias
rib
ribeira
ribeiro
ric
rica
ricardo
ricas
rice
rich
richard
richardson
richie
rick
ricky
rico
ricos
rida
rie
riera
right
rights
rigo
rigoberto
rigua
rigui
rika
rikaete
rikagua
rikaguape
rikape
rikapegua
rima
rimas
rinco
ringo
rinovirus
rinte
rio
rioja
rios
riquelme
riqueza
riramo
rire
riregua
riremi
riro
ris
rise
risia
risk
rita
ritier
ritmo
rito
ritter
ritu
ritual
riva
rivarola
rivas
river
rivera
riveros
rizzo
rj
rk
rke
rko
rktiko
rmula
rnia
rnico
ro
roa
road
rob
robbie
robbins
robert
roberto
roberts
robin
robinson
robles
robson
roca
roch
rocha
roci
rock
rodas
rodney
rodolfo
rodri
rodrigo
rodrigues
rodriguez
roe
roes
rogaygua
rogelio
roger
rogers
rogue
roguekue
rohayhu
rohecha
roheja
roheka
roho
roja
rojapo
rojas
rojo
rojuhu
roka
rokaru
roke
roky
roland
rolandi
rolando
rolling
rolls
rolo
roma
roman
romance
romano
rome
romeo
romero
rominia
ron
ronald
ronaldo
rondo
rongua
rooney
roosevelt
rope
ropyta
roque
rora
rory
rosa
rosada
rosado
rosali
rosario
rosas
rose
ross
rossi
rostros
rotary
rouge
rousseau
routledge
rova
rovake
rovasapyre
rovira
rovy
rovyu
roy
royal
royro
royuela
rp
rprete
rquez
rr
rra
rrafo
rran
rrape
rre
rrez
rri
rrika
rro
rroma
rru
rrua
rruma
rruman
rrusia
rrusiagua
rrusian
rs
rsa
rtico
rtida
rtidape
rtiga
rtiko
rtir
ru
rube
rubens
rubi
rubio
rubro
ruby
rudi
rudolf
rudolph
rudy
rudyard
rueda
rufino
rufus
rugbista
rugby
rugua
ruguaite
ruguy
rui
ruina
ruinas
ruiz
rumana
rumano
runa
rundy
rupa
rupert
rupi
rupiete
rupigua
rupigui
rupinte
rupipa
rupive
rural
ruru
rus
rusa
rusia
ruso
russ
russell
russia
russo
rusu
rusukue
rusumbo
rusungue
ruta
rute
ruth
rutherford
ruud
ruvicha
ruvichaete
ruvichakue
ruvichara
ruy
rwanda
ry
ryakua
ryan
ryapu
rye
ryepy
ryguasu
ryguasukue
ryguasume
ryguasurupi
ryju
ryke
rykue
rykuere
rymba
rypy
ryru
ryrupave
ryry
rysy
ryu
ryvy
s
sa
saa
saavedra
sabiduri
sabiduria
sabina
sabino
sabio
sabiya
saboya
sacerdote
sacramentos
sacrificio
sacro
sadaic
safari
safety
safua
sage
sagrada
sagrado
sagua
sagui
saguier
sahara
sahita
sai
saingo
saint
saite
saito
saitonia
sajonia
saka
sakandu
sakaro
sala
salado
salamanca
salas
salazar
saldi
salem
salemma
sales
salesiana
salesiano
salgado
salinas
sally
salo
salomo
salsa
salt
salta
salto
saltos
salud
salvador
salvadoren
salvaje
salvatore
salve
sam
samantha
samba
sambe
sambyhyha
sami
sammy
samo
samoa
sampaio
samson
samu
samudio
samuel
samura
san
sanabria
sanapana
sancho
sandi
sandia
sandoval
sandra
sandro
sandu
sangre
sanidad
sanitaria
sanjurjo
santa
santacruz
santana
santani
santi
santiago
santillana
santo
santos
sanz
sao
sapatu
sape
sapiens
saporo
sapucai
sapucaipe
sapuka
sapy
sar
sara
sarah
saraki
saramandaia
sarambi
sarambiha
sarapi
sardi
sargatal
sargento
sarigue
saro
sartre
saryty
sasa
saso
sate
satelitales
sati
satu
sau
sauce
saudi
saul
saunders
saussure
savagge
saxofonista
say
sayju
sb
sbt
scar
schaerer
schleicher
schmidt
schneider
scho
school
schu
schubert
schumann
scielo
science
sciences
scientific
sciurillus
scotland
scott
scribd
se
sea
seam
sean
search
sears
season
sebastia
sebastian
seccio
seco
second
secreta
secretari
secretaria
secretario
secreto
section
sector
secundaria
secundario
security
sed
sede
sedici
see
segismundo
segovia
segu
segunda
segundo
segura
seguridad
seguro
sei
seiferheld
seila
seis
seiyu
sela
selanda
sele
seleccio
selected
selects
sello
selma
selva
sema
semana
semanario
seminario
sen
sena
senado
senador
senatur
senegal
senegale
senhora
senna
sentido
seo
sep
september
septiembre
sequence
ser
sera
serafina
serbia
serbio
serenata
seres
serge
sergei
sergio
sergue
serie
series
serra
serrani
serrano
serrat
serrato
serta
servi
service
services
servicio
servicios
servilibro
ses
sesenta
seso
set
sete
setembro
seth
seu
seus
seve
severe
sevi
sevia
sevian
sevilla
sevo
sex
sexo
sexos
sexual
seychelles
sforo
shah
shakespeare
shang
shark
shaw
sheen
sheet
shi
shinji
shiva
sho
shogun
short
show
shtml
si
sia
siagua
siagui
sian
siani
siape
siapegua
siare
siaygua
sica
sicas
sico
sicos
sida
sidney
sido
sie
siempre
siendo
sierra
siete
sig
siglo
siglos
sigmund
signature
significa
significado
significados
signo
signos
sihoryta
siko
sila
silencio
silki
siluriformes
silva
silvano
silveira
silvestre
silvestres
silvia
silvina
silvio
sima
simba
simeo
simi
simmons
simo
simon
simone
simple
simpson
simpsons
simpsonsypegua
sin
sinai
sinan
sinclair
sindi
sindical
sindicalista
sinfo
sinfoni
sinforiano
singapore
singapu
singapur
singh
sino
sintaxis
sio
sir
siri
siria
sistema
site
sites
sitio
sito
sittasomus
situacio
situation
sive
ski
sky
smart
smith
smo
snow
so
soares
sobre
social
sociales
socialista
sociedad
society
socio
sociologi
socorro
sofa
sofi
sofo
sogue
soha
soja
sojourner
sol
sola
solamente
solano
solar
soldado
soledad
soler
solfeo
soli
solista
solo
solomon
solucio
soma
somali
somalia
sombra
sombras
sombrero
sombyre
some
somi
somos
son
song
sonido
sonidos
sonny
sonora
sons
sopa
sophie
soprano
sora
sorgo
soria
soro
soroban
sorrah
sos
sosa
sose
soto
source
sousa
south
southeast
southern
souza
sova
sove
sovie
soviet
sovy
soy
sp
space
spanish
sparks
special
species
specific
spedes
spencer
speratti
spheniscidae
sphenisciformes
spheniscus
spio
sports
spring
springer
springfield
squez
squid
sr
sri
srl
ss
ssica
ssio
st
sta
stahl
stalin
stan
stanford
stanley
starr
state
states
statistical
statistics
status
ste
stefan
stefano
steindachner
steiner
stella
stephen
ster
steud
steve
steven
stevens
stevenson
stevie
stewart
stica
sticas
stico
sticos
still
sto
stock
stol
stomo
stone
stor
stories
storni
story
stratford
street
streptococcal
string
stroessner
strong
struggle
stu
stuart
studies
studios
study
su
sua
suahi
suasi
suave
sub
subjects
subtropical
suceso
sucre
suda
sudafricano
sudame
sudamericana
sudan
sudano
sue
sueca
suecia
sueco
suen
suesian
sufijo
sui
suicidio
suisa
suite
suiza
suizo
sujeto
sul
sullivan
sulme
sulta
suma
sume
summa
summary
summer
sun
sunda
sung
sunshine
sununu
super
supercarretera
superficie
superior
supernatural
suplemento
suplementos
suppl
supremo
sur
surame
surcoreana
surcoreano
sureste
surina
surinam
suriname
surubi
suruku
suruvi
survey
survival
sus
susan
susana
susnik
sustantivo
sustantivos
susu
suva
sven
sy
sydney
sykue
symi
symptoms
syndrome
sype
syria
syry
syrymbe
syryry
syst
system
systema
systematic
systems
syva
szara
søren
t
ta
tabacum
tabare
tabebuia
tabla
table
tadeo
tage
tagore
tagua
taguasu
taguato
tague
tagui
taha
tahachi
tahachikue
tahy
tai
taigua
taiguaete
taikue
taiky
taila
tailande
tailandia
taimbe
tain
taipu
taipy
taita
taitachu
taity
taiua
taiwa
taiwanesa
taj
tajao
tajasu
tajave
tajikita
tajy
tajyapy
tajygue
taka
takamby
takape
tako
taku
takua
takuapi
takuara
takuare
takuarembo
takuati
takumbu
takuru
takykue
tal
talabarteri
talavera
talcahuano
talento
tall
talla
tallado
taller
talleres
talo
tama
tamandua
tamba
tambi
tambie
tambor
tamil
tamoi
tan
taneresa
tang
tango
tangos
tani
tanimbu
tanino
tano
tanto
tanzania
tapa
tape
tapeguasu
tapehu
tapekue
tapepo
tapere
tapereko
taperyva
tapi
tapia
tapiagua
tapiaite
tapicha
tapichakue
tapichakuke
tapiete
tapirakua
tapiryja
tapiti
tapo
tapua
tapy
tapykue
tara
taragui
taramo
tarave
tarde
tare
taro
tarope
tarova
tarragona
taru
taruma
tarumaite
taryry
tasa
tase
tasymombiaha
tasyo
tata
tataindy
tatajyva
tatakua
tatambogueha
tatapy
tatarapo
tatare
tatati
tataupa
tataveve
tatavevy
tataypy
tati
tatiana
tatu
tatua
tatuaje
tatukua
tau
taupe
taurus
tava
tavagua
tavaguasu
tavaha
tavaite
tavakuaireta
tavakue
tavanda
tavao
tavape
tavapegua
tavapy
tavarandu
tavarandugua
tavavo
tavavore
tavaygua
tavayguakue
tavayguarekua
tave
taveta
tavo
tavusu
tavy
tavytera
taxa
taxonomic
taxonomy
tayikista
taylor
tbol
tchekoslovakia
te
teatral
teatro
tebicuary
tebikuary
techa
techaga
techapyra
techara
techaramo
techaukaha
techaukara
tecladista
teclista
tecnolo
tecnologi
ted
tedra
tee
teete
tegua
teha
tei
teixeira
teja
tejada
tejido
teju
tejurugua
tejurusu
teko
tekoasy
tekoaty
tekoayhu
tekogua
tekoha
tekohaguigua
tekohatyai
tekohayhu
tekoite
tekoiterape
tekojoja
tekojojaha
tekokangy
tekokatu
tekokuaa
tekokyra
tekomara
tekombo
tekomboe
tekome
tekomo
tekopora
tekopoti
tekopy
tekopykatu
tekora
tekosa
tekotee
tekoteve
tekove
tekoveapy
tekovegua
tekovehai
tekovekuaaty
tekovekue
tekovety
tekovon
tekoypykuaaty
tekua
tekuaa
tekuareko
tel
tela
tele
teledramaturgia
telefo
telefoni
telegraph
telemundo
teles
televisa
televisio
television
televisiva
televisivo
tell
tem
tema
temas
tembe
tembi
tembiapo
tembiapoguigua
tembiapoha
tembiapojegua
tembiapokue
tembiapopora
tembiapora
tembiaporape
tembiapoukapy
tembiasa
tembiasagua
tembiasakue
tembiechapyra
tembiechara
tembiejakue
tembiesara
tembigua
tembikuaa
tembikuaaja
tembikuaareka
tembikuaarekaha
tembikuaaty
tembikuaatyha
tembipe
tembiporu
tembipota
tembipu
tembipuru
tembipurukue
tembireko
tembirekora
tembo
temiandu
temimbo
temimbopo
temimo
temimoi
temira
temity
temperatura
temple
templo
tempo
temporada
temporal
ten
tena
tenda
tendagua
tendakue
tendota
tendotakue
tendy
tendyry
tenesi
tengwar
teniente
tenista
tennessee
tenochtitla
tenonde
tenondegua
tenondeguaite
tenondeguave
tenondeite
tenondera
tenondete
tenondeve
tenor
tenyhe
teo
teodoro
teodosio
teologi
teori
tephritidae
tepoti
tepy
tepysa
tera
teraguapy
terakua
terara
terarangue
teraranguete
teratee
tercer
tercera
terciario
tereho
terei
terere
teresa
term
terminal
tero
teroja
teron
terra
terreno
territorial
territorio
territorios
territory
terror
terrorista
terry
tesa
tesaka
tesapara
tesape
tesapeha
tesapemon
tesara
tesaroryra
tesay
tesia
tesis
tesla
tesoro
testimonio
teta
tetara
tete
teteasukary
tetekue
teten
tetepy
tetera
tetia
tetyma
teva
teve
tevi
tevicuary
tevikuary
tevikuarymi
texas
text
textbook
texto
textos
tez
th
thailand
thali
than
that
the
theatre
their
theo
theodor
theodore
theory
there
thesimpsons
thiago
things
third
thomas
thompson
thomson
thought
threatened
three
thrones
through
thumb
ti
tia
tibagi
tica
ticas
ticio
tico
ticos
tie
tiempo
tiempos
tienda
tiene
tierra
tierras
tiete
tigre
tigrinum
tigris
tika
tikal
tiko
tikore
tikrinta
tim
tima
timbo
time
times
timor
timothy
tina
tinfunque
tini
tio
tipo
tipos
tira
tiradentes
tiro
tis
tita
titi
title
tito
titular
tivetano
tiveten
tlaxcala
tnico
to
toba
tobago
tobati
toby
toda
today
todd
todo
todos
togo
togole
togue
toike
toiko
tojejapo
tokio
tokugawa
toledo
tolkien
tolteca
tom
toma
tomas
tomate
tome
tommy
tomo
tomos
ton
tonela
tonga
toni
tono
tony
top
tope
topyta
tora
torales
toranzos
tordesillas
tore
torero
torga
tori
toribio
torneo
toro
toronto
torre
torres
torta
tory
tos
toscana
toscano
total
toulouse
toure
tova
tovakeo
tovati
tove
tovy
tower
town
towson
tra
trabajo
trabajos
tract
tracy
trade
tradicio
tradicional
tradicionales
tradiciones
traduccio
traducciones
traductor
tragedia
trama
trans
transchaco
transformacio
transicio
translation
transmisio
transporte
transportes
tranvi
traquei
tras
tratado
tratamiento
trave
travel
trayectoria
tre
treatment
treaty
trece
tree
treinta
tren
trends
trenzado
trepatroncos
tres
trevor
tri
tribu
tribuna
tribunal
tribus
tributo
trico
trigo
trinidad
trio
triple
triste
triunfo
tro
troche
trofe
trofeo
trompeta
trompetista
trono
tropa
tropical
tropicalismo
trujillo
trump
trust
truth
trypanosomiasis
tte
tu
tuberculosis
tucuma
tudor
tugua
tuguaiko
tuguaipopo
tuguy
tuguyasuka
tuicha
tuichaha
tuichaicha
tuichaite
tuichaiterei
tuichaiteve
tuichakue
tuichamba
tuichapa
tuichapajepe
tuichava
tuichave
tuichaveva
tuja
tujaite
tujakue
tujami
tujave
tuju
tujuju
tujuti
tuka
tuku
tukumbo
tulo
tulos
tumby
tume
tumingue
tuna
tung
tungusu
tuni
tupa
tupao
tupi
tupin
tupinamba
turco
turi
turing
turismo
turista
turistakue
turkey
turkish
turner
turqui
turu
turun
turyki
tus
tutsi
tuva
tuvakue
tuvalu
tuvicha
tuyki
tuykia
tuykian
tuykomenita
tuyuti
tv
twain
twentieth
twitter
two
ty
tyapu
tyasy
tyba
tye
tyeguasu
tyeguy
tyepy
tyerasy
tyke
tykue
tyler
tymba
tymbachu
typycha
typyraty
tyre
tyru
tyryryha
tysy
tyvy
tyvykue
tyvyty
u
ua
uahe
uaicha
uaig
uakari
uara
uata
uati
ubaldo
ucraniano
udia
udio
ue
uefa
uefs
uetersen
uga
uganda
ugua
uguasu
uha
uhagua
uhe
uhi
ui
uiete
uiva
uive
uk
uka
ukaso
ukuaa
ukuaaty
ukue
ukya
ukyan
ul
ulo
ulrich
ult
ultima
um
uma
umberto
umbu
umby
umi
umiva
un
una
unam
und
understanding
undp
une
unesco
uni
unidad
unidades
unidas
unido
unidos
uniforme
unio
union
unirioja
united
universal
universe
universidad
universidade
universitaria
universitario
university
universo
unlp
uno
unos
uol
up
upa
upaite
update
upe
upehague
upei
upeicha
upeichaha
upeichaite
upeichave
upeigua
upekue
upepe
upepegua
uperamo
uperire
uperiregua
uperiremi
upero
uperupigua
upete
upeva
upevakue
upevara
uploads
upon
upper
upuku
upy
upyra
upyrusu
ura
ural
urano
urban
urbana
urbano
urdu
ure
uriarte
uribe
url
urna
uro
urss
uru
urugua
uruguaigua
uruguay
uruguaya
uruguayo
uruku
urumbe
urunde
urupe
urutau
us
usa
use
usete
useterei
useve
usgs
usina
using
uso
utah
uteria
utico
uttar
uu
uva
uve
uvei
uvekita
uvo
uwe
uy
uzbekista
v
va
vaca
vacuna
vaduz
vae
vaekue
vaera
vaesken
vagua
vaguasu
vagui
vahi
vai
vaicha
vaieta
vaiete
vaiha
vaikue
vaipa
vaivai
vaive
vajepi
vaka
vakakue
vakapi
vakapipopo
vakapipopora
vakara
vako
vaku
vakue
vakyte
val
valde
valdez
valdovinos
vale
valencia
valenti
valentino
valenzuela
valha
valladolid
valle
vallejo
vallejos
vallemi
vallverdu
valois
valor
valos
valparai
valverde
van
vancouver
vandi
vangalande
vango
vangu
vanguardia
vangylade
vaniko
vano
vante
vanua
vanuatu
vapa
vape
vapor
var
vara
varamo
vare
varela
vargas
variety
varios
varo
varro
varso
varsovia
varvado
vasco
vasconcellos
vasconcelos
vasi
vasili
vateri
vaticano
vatika
vatikano
vato
vava
vave
vavilo
vayguakue
vayka
vda
ve
veces
ved
vedette
vega
veha
vei
veinticinco
veja
vek
vel
vela
velarde
velasco
velazco
vele
velha
velho
velilla
velloso
veloso
venancio
vene
venecia
veneciano
veneno
venes
venesue
venezolana
venezolano
venezuela
venga
vengali
venganza
vente
vepe
ver
vera
verano
verapy
verb
verbo
verdad
verdadera
verdadero
verde
verdes
vere
verest
vereve
verevekue
vergara
vermont
vernon
vero
versio
version
verso
versos
vertebrados
vestuario
vete
veva
veve
vevehajere
vevu
vevuimi
vez
vi
via
viaje
viama
viana
vianna
viape
vica
vice
vicente
vicepresidente
vich
vicho
vico
victor
victoria
victoriano
vida
vidal
vidas
video
videos
vidrio
vie
vieillot
vieira
viejo
vielorru
vielorrusian
viena
viento
vientos
vietnam
vietnampe
view
vih
vii
viii
vikin
vikipeta
viktor
vil
vila
viles
villa
villagra
villalba
villamayor
villanueva
villar
villarica
villarri
villarrica
villarrika
ville
villeta
vimba
vin
vincent
vinci
vino
vinyard
vio
viola
violeta
violi
violinista
violonchelista
vira
viral
virgen
virgilio
virginia
viriato
virreinato
virreirenda
virrey
virtual
virtud
viru
virurekokuaa
viruro
virus
viruses
visa
visanti
visio
visita
visitante
visitantes
vista
visual
visuales
vito
vittorio
viuda
viva
vivaldi
vive
viver
vivero
viveros
vives
vivienda
vivir
vivo
vladi
vladimir
vo
vocabulario
vocal
vocalista
voce
voi
voko
vokuarahy
vol
vola
volga
volgogrado
voli
volivia
voliviaygua
volta
voltaire
volu
volume
volumen
voma
von
vone
vonia
vonnegut
vora
vore
vorekue
voremi
vorengue
vorepe
vori
vosa
voto
votusuana
vove
voy
voz
vrasil
vrasilpe
vu
vuda
vue
vuelo
vuelta
vuga
vugaria
vuki
vuku
vurei
vurundi
vuruse
vusu
vuta
vy
vyma
vyreta
vyretan
vyrorei
w
wa
waddington
wagner
wales
walker
walking
wall
wallace
wallis
walsh
walt
walter
walther
wang
war
ward
warhol
warner
warren
warrior
was
washington
watch
water
watson
way
wayback
wayne
we
web
webb
weber
website
webster
weekly
welle
wenceslao
werner
wesley
west
western
wey
what
whatsapp
when
where
which
white
who
why
wikcionario
wiki
wikiespecies
wikimedia
wikipedia
wikiquote
wikispecies
wild
wilde
wiley
wilfred
wilfrido
wilhelm
wilker
wilkins
wilkinson
will
willem
william
williams
williamson
willis
willy
wilson
wim
wind
windows
windsor
wing
wings
winston
winter
wisconsin
with
within
without
wo
wolf
wolfgang
woman
women
wonder
wood
woodard
wordpress
work
world
worldbank
worldcat
worldwide
wp
wpp
wright
writing
wu
wuhan
www
x
xavier
xela
xi
xia
xianfan
xica
xico
xido
xii
xiii
xima
ximenes
ximo
xito
xiv
xix
xls
xv
xvi
xvii
xviii
xx
xxi
xxiii
y
ya
yabebyry
yacare
yacyreta
yaguaro
yaka
yale
yambay
yampey
yanga
yangtze
yann
yasyreta
yataity
yave
yaya
yby
ybycui
ybytymi
ybytyrusu
yde
ye
year
years
yegros
yekou
yerba
yete
yeterei
yev
yg
yga
ygaguahe
ygaguy
ygakue
ygape
ygapytaha
ygarata
ygarenda
ygarupa
ygarusu
ygary
ygatimi
ygua
yguakue
yguangue
yguarekua
yguasu
yguazu
ygue
ygui
yguy
yha
yhaguy
yhaka
yhika
yi
yikue
yjere
yjoko
yju
yjua
yjungy
yjuva
yka
yke
ykeregua
ykua
ykuamandyju
ykue
yky
yma
ymagua
ymaguare
ymaguareite
ymaite
ymaiteguare
ymave
ymaveguare
yme
ymi
yn
ynambu
yno
yo
yoguireko
yoguirekovae
yolanda
yoo
york
you
young
your
youth
youtube
ypa
ypacarai
ypaka
ypakarai
ypane
ypanunga
ype
ypegua
ypeku
ypekua
ypeky
ypenaro
yperana
ypety
ypiau
ypo
ypoa
ypy
ypygua
ypyguakue
ypykatu
ypykue
ypykuegua
ypykuekue
ypytu
ypyva
yra
yrakue
yrape
yrary
yraryimboypy
yre
yrembe
yro
yru
yruguata
yruguatakue
yrukue
yrumy
yrupa
yrupe
yruti
yruveve
yrypy
yrysy
yryvu
ysa
ysaja
ysajakatu
ysajakuaa
ysajapuru
ysajarekokuaa
ysapu
ysapy
ysau
yse
ysia
yso
ysy
ysypo
ysyry
ysyryguasu
ysyryguasukue
ysyrykue
ysyrymi
ysyvo
yta
ytaha
ytaku
ytasa
ytororo
ytu
yty
yu
yuan
yucata
yudoca
yugoslavo
yun
yuri
yva
yvagamba
yvaja
yvakue
yvapo
yvapovo
yvapuru
yvate
yvateame
yvategua
yvategui
yvateite
yvatekorea
yvatekuarahyreike
yvatekuarahyrese
yvatekuarahyse
yvatekue
yvatete
yvateve
yvatevogua
yve
yvera
yves
yvo
yvoragua
yvorakue
yvorasa
yvoreva
yvoty
yvotykue
yvotyrope
yvotyty
yvu
yvy
yvya
yvyafrika
yvyame
yvyapasusu
yvyape
yvyapekuaa
yvyapy
yvyate
yvygua
yvyguasu
yvyguy
yvyjyva
yvykorea
yvyku
yvykua
yvykue
yvymbovoha
yvypave
yvype
yvypehe
yvypo
yvypora
yvyporakue
yvyra
yvyrakua
yvyrakue
yvyrama
yvyramata
yvyrapa
yvyrape
yvyrapuku
yvyrapyta
yvyraraka
yvyraro
yvyrata
yvyraty
yvyrei
yvyrekokuaa
yvyrusu
yvyryry
yvyrysy
yvysyry
yvytenda
yvytimbo
yvytu
yvyturusu
yvytuvai
yvyty
yvytykue
yvytymi
yvytypo
yvytyrata
yvytyrusu
yvytyrysy
yvytyrysyi
yvyvore
yvyvy
z
za
zacari
zambia
zamora
zanja
zapata
zar
zaragoza
zaro
zarratea
zarza
zarzuela
zavala
zayas
ze
zea
zedong
zef
zero
zg
zhi
zho
zhou
zhu
zhuang
zi
zika
zinc
zolta
zona
zonas
zoo
zoolo
zorro
zquez
zsef
zu
zubizarreta
zuckerberg
{
|
}
~
¡
¤
¥
§
¨
©
ª
«
¬
®
°
²
³
´
µ
·
º
»
¿
×
ı
łobez
ɨ
ʰ
ʲ
ʻ
ʼ
ʾ
ʿ
ˀ
ˁ
ˈ
ˌ
ː
̀
́
̂
̃
̄
̆
̇
̈
̉
̊
̋
̌
̑
̓
̔
̛
̣
̥
̦
̧
̨
̯
̱
͂
͡
α
ε
η
θ
ι
ν
ο
π
ρ
ς
ω
а
д
для
и
і
։
ְ
ִ
ֵ
ַ
ָ
ֹ
ּ
א
ב
י
ל
מ
ר
ש
ת
ا
الا
ة
َ
ّ
ٔ
ٕ
ހ
ރ
އ
މ
ޖ
ާ
ި
ު
ެ
ް
ं
क
ज
त
द
न
य
र
ल
व
श
स
ा
ि
ी
ु
े
्
ত
া
ੀ
க
ச
ட
ண
த
ந
ன
ப
ம
ர
ள
ழ
ா
ி
ு
ெ
ே
ை
்
ട
ක
ත
ර
්
ා
ී
ັ
་
ཁ
ག
ང
ཇ
ད
ན
པ
ཕ
བ
མ
ཞ
ཟ
ཡ
ར
ལ
ཤ
ས
ི
ུ
ེ
ོ
ྐ
ྒ
ྱ
ྲ
ླ
ជ
ព
ភ
រ
ា
្
​
‍
‎
‏
–
—
―
‘
’
“
”
„
†
‡
•
…
′
″
™
↔
↷
−
③
④
⑦
☉
⯓
ⴰ
ⴳ
ⴷ
ⴻ
ⴼ
ⴽ
ⵉ
ⵎ
ⵏ
ⵓ
ⵔ
ⵖ
ⵗ
ⵜ
ⵟ
ⵢ
ⵣ
⺀
⺄
⺆
⺈
⺊
⺌
⺕
⺝
⺸
⺼
⿰
⿱
⿲
⿳
⿴
⿵
⿶
⿷
⿸
⿹
⿺
⿻
、
「
」
〢
い
う
え
か
き
こ
さ
た
て
と
な
の
は
ひ
ま
み
も
や
ら
れ
ん
゙
゚
ア
ウ
オ
カ
キ
ク
ケ
コ
サ
シ
ス
タ
チ
ト
ニ
ヒ
ホ
モ
ユ
ラ
ン
ヶ
ー
㇁
㇂
㇄
㇇
㇈
㇉
㇓
㐁
㐄
㐅
㐌
㐫
㐬
㐭
㐮
㐱
㑒
㒵
㒸
㒼
㓁
㓞
㔾
㕛
㕣
㖾
㘝
㚅
㚇
㚔
㚘
㝉
㝡
㝴
㝵
㞋
㞢
㞷
㠩
㠭
㠯
㡀
㡭
㡿
㢲
㢴
㣇
㣺
㥯
㪅
㫄
㫐
㫒
㫺
㬅
㬎
㬥
㬰
㲋
㳄
㷠
㸒
㸚
㸦
㼌
㼲
㽞
㿟
䀠
䂞
䍃
䏍
䒑
䖍
䖒
䖝
䖵
䙴
䚻
䜌
䝿
䡛
䧹
䪞
一
丁
丂
七
丄
丅
丆
万
丈
三
上
下
丌
不
与
丏
丐
丑
专
且
丕
世
丘
丙
业
东
丞
丢
丣
两
严
並
丨
丩
个
丫
丬
中
丮
丰
丱
串
丵
丶
丷
丸
丹
为
主
丽
丿
乀
乂
乃
久
乆
乇
么
义
之
乌
乍
乎
乏
乐
乑
乔
乖
乗
乘
乙
乚
乛
乜
九
乞
也
习
乡
乳
乾
亀
亅
了
亇
予
争
事
二
亍
于
亏
亐
云
互
亓
五
井
亘
亚
亜
亞
亟
亠
亡
亢
交
亥
亦
产
亨
亩
享
京
亭
亮
亯
亰
亲
亳
亶
亷
人
亻
亼
亾
仁
今
介
仌
从
仐
仑
仒
仓
仕
他
付
仝
代
令
以
任
企
伊
伏
伐
休
会
伯
但
位
何
佘
余
作
佥
使
來
侈
侌
侖
侯
侵
便
保
俞
信
修
倉
倍
候
倠
備
僉
僕
儿
兀
允
兂
元
兄
充
兆
兇
先
光
兊
克
兌
免
兑
兒
兓
兔
党
兜
兟
入
全
兩
兪
八
公
六
兮
兰
共
关
兵
其
具
典
兹
兼
冀
冂
冃
冄
内
冈
冉
冊
冋
册
再
冎
冏
冐
冒
冓
冖
冗
冘
军
农
冝
冡
冥
冫
冬
冷
几
凡
凢
凵
凶
凷
凸
凹
出
函
凾
刀
刁
刂
刃
刄
刅
分
切
刍
刑
刕
刖
列
刘
则
初
別
利
别
到
制
刺
則
削
剌
前
剡
剽
劉
力
功
加
劦
助
劫
劳
劵
勃
勇
勉
勒
動
務
勞
勤
勹
勺
勻
勾
勿
匀
匂
包
匆
匈
匊
匋
匍
匕
化
北
匚
匝
匡
匪
匱
匸
匹
区
医
匽
匿
區
十
卂
千
卄
卅
卆
升
午
卉
半
卌
华
卑
卒
卓
单
卖
南
卜
卝
卞
占
卡
卢
卣
卤
卦
卩
卪
卬
卯
印
危
即
却
卵
卷
卸
卻
厂
厃
厄
历
厈
厉
厌
厓
厘
厚
原
厤
厥
厨
厭
厲
厶
厷
厸
去
厼
厽
叀
参
參
叅
又
叉
及
友
双
反
叐
发
叒
叔
叕
取
受
叚
叜
叟
口
古
句
另
叩
只
召
可
台
叱
史
右
叵
号
司
叹
吂
各
吅
合
吉
吊
吋
同
名
后
吏
向
吕
君
吝
吞
否
含
启
吳
吴
吹
吾
呂
呆
呈
告
员
呙
周
命
咅
和
咎
咠
咢
咨
咸
咼
哀
品
哉
員
哥
哲
唐
商
啇
問
啚
啬
啻
善
喜
喬
單
喿
嗇
噩
嚴
囊
囗
囘
囙
囚
四
回
囟
因
囧
囬
困
囱
囷
固
国
圂
圅
國
圍
圓
土
圡
圣
圥
在
圭
地
圶
圼
坐
坒
坚
坡
坴
垂
垔
垚
埀
埋
埶
執
基
堂
堅
堆
堇
堯
塞
墨
壘
士
壬
壯
声
壳
壴
壹
壺
壽
夂
处
夅
夆
备
夊
夋
夌
复
夏
夒
夕
外
夗
夘
多
夜
夢
大
夨
天
太
夫
夬
夭
央
失
夲
头
夷
夸
夹
夻
夾
奂
奄
奇
奈
奉
奎
奏
奐
契
奓
奔
奚
奞
奠
奢
奥
奧
奭
女
奴
奻
好
如
妄
妙
妟
妥
妻
妾
姑
委
姜
威
娄
婁
婴
嬰
嬴
子
孑
孔
孕
孖
字
存
孚
孛
孝
孟
季
孤
学
孫
孱
學
宀
宁
宂
它
宅
宇
守
安
宋
完
宏
宓
宗
官
定
宛
宜
宝
客
宣
室
宮
宰
害
家
容
宾
宿
寄
寅
密
富
寒
察
寧
審
寫
寬
寮
寸
对
寺
寻
寽
対
寿
封
尃
射
将
將
專
尉
尊
尋
尌
對
小
少
尒
尓
尔
尖
尗
尚
尞
尢
尣
尤
尧
尨
尭
就
尸
尹
尺
尻
尼
尽
尾
尿
局
层
居
屈
屋
屎
屏
屑
展
屖
屚
属
屠
屡
屬
屮
屯
屰
山
屵
屾
岁
岂
岐
岑
岡
岩
岳
岸
峯
島
崇
崑
崔
崖
崙
崩
嵬
嶲
巂
巛
川
州
巟
巠
巢
巤
工
左
巧
巨
巩
巫
差
己
已
巳
巴
巷
巸
巽
巾
巿
帀
市
布
希
帚
帛
帝
带
師
席
帶
常
干
平
年
幵
并
幷
幸
幺
幻
幼
幽
幾
广
広
庄
床
底
店
庚
府
度
庫
庭
庶
康
庸
廉
廌
廛
廣
廩
廴
延
廷
建
廾
廿
开
弁
弃
弄
弇
弋
式
弓
弔
引
弗
弘
弜
弟
弥
弦
弱
張
強
强
彊
彌
彎
彐
彑
当
彔
录
彖
彗
彡
形
彥
彦
彧
彭
彳
役
彼
往
待
律
徒
得
徙
從
御
復
微
徵
心
忄
必
忌
忍
志
忝
忠
忩
快
念
忽
忿
思
怠
急
怱
恆
恒
恩
恭
息
悉
患
悤
悲
悶
惠
惡
惢
愁
愈
意
愛
感
慈
慧
慮
憂
憲
應
戀
戈
戉
戊
戋
戌
戍
戎
成
我
戒
戔
或
戚
戠
戢
截
戲
戶
户
戹
戼
戾
房
所
扁
扇
手
扌
才
打
托
执
承
折
拉
拜
拝
拿
掌
推
提
摩
支
攴
攵
收
攸
改
放
政
敄
敏
敕
敖
敗
敝
敞
敢
散
敦
敫
敬
数
敷
數
斂
文
斉
斊
斗
斤
斥
斩
斬
斯
新
方
於
施
斿
旁
旋
族
无
旡
既
旣
日
旦
旧
旨
早
旬
旱
旲
时
旾
昆
昇
昌
昍
明
昏
易
昔
昗
昜
星
春
昬
是
昱
昴
昷
時
晃
晋
晏
普
景
晶
智
暑
暴
曇
曩
曰
曲
曳
更
曷
書
曹
曼
曾
替
最
朁
會
月
有
朋
服
朔
朕
朗
望
朝
木
朩
未
末
本
札
朮
术
朱
朵
朶
朿
杀
杏
村
杜
束
条
来
東
杲
杳
松
析
林
枚
果
枝
枲
枼
某
柔
查
柬
柰
柴
栗
桀
桑
桼
梁
條
梟
梨
棘
棠
棥
森
楚
業
楽
榮
樂
樊
欠
次
欣
欮
欲
欶
欽
款
歆
歇
歛
止
正
此
步
武
歨
歪
歮
歯
歰
歲
歴
歷
歸
歹
歺
死
殳
段
殷
殸
殹
殺
殻
殿
毋
毌
母
每
毒
比
毕
毚
毛
毳
氏
氐
民
气
氣
水
氵
氶
氷
永
氺
氾
求
汝
汞
江
沃
沓
沖
沙
沝
河
泉
法
波
泣
泥
泰
洛
洪
活
派
流
浦
浪
浮
海
淡
淮
清
渚
渠
湯
湾
滿
漸
灣
火
灬
灭
灰
灵
灷
炅
炎
炏
炗
炙
炭
為
烈
烏
烝
焉
無
焦
焱
然
煞
熊
熏
燕
營
燮
爪
爫
爭
爯
爰
爱
爲
爵
父
爻
爽
爾
爿
片
牙
牚
牛
牜
牟
牢
牧
物
牪
牽
犀
犬
犭
犮
狂
狄
狊
独
狺
猋
猒
猪
献
獻
玄
率
玉
王
玟
玨
珎
班
琴
瑟
瑩
瓜
瓦
甘
甚
生
産
用
甫
甬
田
由
甲
申
电
甶
男
甸
甹
町
画
甾
畀
界
畏
畐
留
畜
畟
畢
畧
畨
番
畫
異
畱
當
畺
畾
疊
疋
疌
疑
疒
疾
癶
癸
癹
登
發
白
百
皀
皃
的
皆
皇
皋
皐
皕
皮
皷
皿
盃
盆
盇
盈
益
盍
盎
监
盒
盖
盛
盡
監
盤
盧
目
直
相
盾
省
眇
眉
看
県
眔
眞
真
眷
眼
眾
着
睘
睪
睿
瞏
瞢
瞿
矍
矛
矞
矢
矣
知
矦
短
石
破
碎
磊
磨
示
礻
礼
神
祟
票
祭
禀
禁
禸
禹
禺
离
禽
禾
禿
秀
秃
秉
秋
科
秝
秦
移
稟
穀
穌
穴
究
穹
空
穿
突
窄
窒
立
竒
竜
竝
竟
章
童
竹
笑
笠
第
筆
等
答
箕
算
箴
節
篤
篭
米
粉
粛
粟
粤
粦
粲
糞
糸
糹
系
約
納
素
索
紫
累
細
絜
絫
絲
絵
維
綿
縄
縣
繇
纍
纟
缶
网
罒
罔
罕
罗
罙
罡
罢
罪
署
罷
羅
羊
羌
羍
美
羔
羕
羗
羞
羡
羣
群
義
羲
羸
羽
翁
翏
習
翕
翟
翠
翼
老
耂
考
者
耆
而
耎
耑
耒
耳
耴
耶
耷
聂
聊
聖
聚
聶
聿
肀
肃
肅
肉
肖
肙
肥
肩
肯
育
肴
胃
背
胡
胥
能
脊
脩
膚
臣
臤
臧
自
臬
臭
臯
臱
至
致
臺
臼
臽
臾
臿
舀
舂
舄
與
興
舉
舌
舍
舛
舜
舞
舟
般
艮
良
色
艸
艹
艾
芒
芔
芬
芮
花
芳
芺
芻
芽
苔
苗
苟
若
苦
英
茶
茸
荅
草
荒
荣
荼
莆
莧
莫
莽
菆
菊
菐
華
萌
萬
落
葉
著
葛
董
葵
蒙
蒦
蒼
蓋
蓬
蓺
蔑
蔡
蕉
蕭
薄
薛
薦
薰
藍
藏
藥
蘭
虍
虎
虐
虒
虔
處
虖
虗
虘
虚
虛
虜
虞
虫
虽
蚤
蚩
蜀
蜜
蟲
蠡
血
行
衍
衛
衣
衤
表
衮
衰
袁
袞
褭
褱
襄
襾
西
覀
要
覃
見
規
覓
覧
親
覽
见
角
解
言
訁
訇
計
話
詹
語
誩
諸
讠
论
谷
豆
豈
豊
豐
豕
豖
豙
象
豦
豩
豪
豸
貇
貝
貞
貟
負
貢
貧
貪
貫
責
貳
貴
買
費
賁
資
賈
賏
賓
賔
賛
賞
賢
賣
質
賴
贊
贝
贡
责
贯
贲
贵
资
赖
赞
赤
赦
走
越
足
路
蹇
身
躬
車
軍
軎
軟
輦
车
辛
辜
辟
辥
辰
辱
農
辵
辶
边
达
过
运
近
连
迷
追
退
送
逆
逐
通
速
造
逢
連
逮
進
遀
遂
運
過
道
達
遣
適
遷
遺
邊
邑
邕
那
邦
邪
郎
郡
部
郭
都
鄉
酉
酋
配
酓
釆
采
里
重
野
量
金
釒
錢
钅
長
镸
长
門
閃
閉
開
閏
閑
閒
間
閔
関
閵
閻
闌
门
间
闷
阑
阜
阝
阶
阿
降
陳
隆
隊
隋
隡
隨
隱
隶
隹
隺
隻
隼
隽
难
雀
雁
集
雈
雋
雍
雐
雔
雙
雚
雜
雝
離
難
雨
雩
雪
雲
零
雷
需
霍
霜
霝
霞
霸
靈
靑
青
非
靡
面
靣
革
韋
韦
韭
韯
韱
音
頁
頃
項
須
頗
頡
頻
顛
页
風
风
飛
飞
食
飠
養
饣
首
香
馬
馮
駦
马
骨
高
髟
鬥
鬯
鬲
鬼
魚
魯
鮮
鱼
鲁
鳥
鳳
鸟
鹵
鹿
麃
麗
麥
麦
麻
黃
黄
黍
黎
黑
黒
黨
黹
黽
黾
鼎
鼓
鼠
鼻
齊
齋
齐
齒
齿
龍
龙
龜
龟
龠
龰
龱
龴
龵
龶
龷
龸
龹
ꞌ



者
艹
﻿
（
）
？
￼
🇧
🇷
🇾
😂
🜨
𠀁
𠀃
𠀆
𠀉
𠀎
𠀐
𠁁
𠁣
𠂆
𠂇
𠂈
𠂉
𠂊
𠂋
𠂎
𠂒
𠂔
𠂛
𠂡
𠂢
𠂤
𠂬
𠂭
𠂹
𠃊
𠃋
𠃌
𠃍
𠃎
𠃑
𠃓
𠃔
𠃜
𠄌
𠄎
𠄠
𠄢
𠆢
𠆥
𠇍
𠈌
𠌵
𠓜
𠔉
𠔥
𠔼
𠔽
𠔿
𠕀
𠕁
𠕋
𠘧
𠘨
𠙻
𠙼
𠚏
𠚒
𠚤
𠚪
𠣏
𠤎
𠤕
𠥓
𠦄
𠦑
𠦝
𠧒
𠧗
𠧪
𠩺
𠪚
𠫓
𠫔
𠫤
𠬛
𠬝
𠬞
𠬢
𠬤
𠬶
𠮛
𠮦
𠮷
𠯑
𠱠
𠳮
𠷎
𡈼
𡉀
𡉵
𡌥
𡍮
𡏳
𡕒
𡕩
𡕰
𡖅
𡗗
𡗜
𡘆
𡘤
𡧱
𡨄
𡩧
𡬠
𡭽
𡰣
𡰥
𡰪
𡰯
𡰱
𡷈
𡸁
𡿨
𡿩
𡿪
𡿺
𢀖
𢀛
𢀩
𢁙
𢆉
𢆰
𢆶
𢇁
𢇇
𢉖
𢌬
𢌿
𢏚
𢑑
𢑚
𢖻
𢙣
𢛳
𢦏
𢦒
𢧵
𢼄
𢾕
𣁋
𣄼
𣅀
𣅽
𣍘
𣎳
𣎵
𣏋
𣏼
𣗥
𣥂
𣥖
𣦵
𣦼
𣧄
𣪊
𣪠
𣬉
𣳾
𣶒
𤇾
𤊽
𤐫
𤓰
𤔔
𤕨
𤣩
𤰇
𤰔
𤰞
𤴓
𤴔
𤽄
𥁑
𥁕
𥃦
𥃩
𥃭
𥇡
𥑟
𥘅
𥘈
𥝢
𥫗
𥱡
𦈢
𦉪
𦉬
𦉼
𦍌
𦍒
𦎧
𦐇
𦓔
𦔮
𦘒
𦙃
𦚏
𦣝
𦣞
𦣻
𦥑
𦥔
𦥯
𦨉
𦭝
𦰩
𧆞
𧈧
𧘇
𧰨
𧴪
𧴮
𧵩
𧾷
𨸏
𨾴
𩙿
𩠐
𩫏
𩵋
𪉷
𪜀
𪟽
𪠲
𪩲
𫇦
𫔭
𫜸
𫝀
𫠣
𫠩
𫢉
𫥞
𫩏
𫩠
𫪡
𫲽
𫶧
𬀷
𬐘
𬗌
𬙙
𬛸
𬜯
𬟩
𬯁
𬴘
𬺻
𬼉
𬼖
𭀰
𭁈
𭁨
𭅰
𭑈
𭕄
𭗼
𭤨
𭥫
𭻾
𮅕
𮊿
𮍌
𮍏
𮓗
𮥼
𮧮
廾
𰀁
𰀄
𰀈
𰀉
𰀕
𰀠
𰀡
𰀢
𰀪
𰁜
𰃮
𰆊
𰆘
𰋙
𰕎
𰢴
𰧭
𰯲
00--
000--
006--
136--
41--
42--
61--
75--
76--
83--
98--
a--
aa--
ab--
abdo--
abdul--
abi--
abu--
ac--
aca--
ace--
ad--
administ--
ae--
aero--
af--
afi--
ag--
age--
aglu--
agri--
ahu--
ai--
aja--
aje--
ajo--
aju--
aka--
aku--
al--
ala--
ale--
alfa--
ali--
all--
aly--
am--
ama--
ambo--
ame--
ami--
amo--
an--
ana--
anar--
anchi--
and--
ande--
andu--
ane--
anemo--
ang--
anga--
ani--
anti--
ao--
ape--
aplic--
apo--
apouka--
app--
apre--
apy--
apyka--
ar--
ara--
arbi--
arc--
archi--
are--
argu--
ari--
as--
asa--
ase--
ash--
asi--
aso--
asy--
at--
ata--
ate--
ati--
atri--
aty--
au--
aure--
austra--
auto--
ava--
ave--
avi--
ay--
az--
azu--
b--
ba--
bad--
bag--
bal--
ban--
bar--
batt--
be--
beau--
bel--
ben--
ber--
bi--
bielor--
bio--
bir--
bis--
bl--
bla--
blo--
bo--
bol--
bom--
bon--
boo--
bor--
bot--
boul--
br--
bre--
bri--
briga--
bro--
bru--
brun--
bu--
bul--
bur--
buru--
bus--
c--
ca--
cac--
cal--
cali--
camp--
can--
cap--
car--
cara--
cast--
cat--
cau--
cc--
cd--
ce--
cel--
cer--
ch--
cha--
che--
chi--
cho--
chong--
chu--
ci--
cin--
cir--
cl--
cla--
cle--
clo--
co--
coch--
col--
coll--
com--
complic--
computa--
con--
confe--
consi--
const--
construct--
conta--
conti--
cor--
corne--
cou--
cri--
cro--
cru--
ct--
cu--
cua--
cue--
cy--
d--
da--
dal--
daw--
de--
dec--
del--
denun--
der--
des--
descu--
dex--
di--
dia--
die--
dimit--
dio--
dis--
do--
domi--
dor--
dr--
du--
dyn--
e--
ea--
eag--
ec--
ed--
edi--
eff--
eg--
eguero--
eha--
ei--
eje--
ejemp--
ek--
eko--
el--
elep--
em--
embo--
emo--
emu--
emy--
en--
encycl--
enfer--
eo--
ep--
epe--
eph--
epy--
equa--
er--
ere--
es--
esc--
espi--
est--
estu--
et--
eu--
eva--
ex--
existen--
expan--
expl--
f--
fa--
fal--
far--
fe--
feder--
felic--
fi--
figue--
fin--
fla--
flau--
fle--
fo--
fonta--
for--
fr--
fran--
fred--
fri--
fru--
fu--
fur--
g--
ga--
gal--
gar--
garri--
gas--
gau--
gay--
ge--
gene--
geo--
geoff--
ger--
gi--
gio--
giul--
go--
gor--
gra--
gre--
gri--
gro--
gu--
gua--
guadal--
guber--
gue--
guero--
gui--
gur--
guy--
h--
ha--
hab--
hai--
ham--
han--
hand--
har--
hasy--
he--
hei--
heko--
hen--
her--
hered--
hi--
hidr--
hil--
ho--
hoff--
hol--
hor--
hova--
hu--
hur--
hy--
i--
ia--
ibr--
ic--
icha--
id--
ign--
iha--
ij--
ija--
ije--
ijo--
ijuehe--
ika--
ikaru--
ike--
iko--
il--
ilus--
ima--
imb--
imbo--
imp--
in--
inc--
inclu--
indi--
infa--
info--
instru--
int--
inte--
inter--
inva--
io--
ipa--
ipe--
ipi--
ipo--
ipu--
ipy--
ir--
iru--
is--
isa--
ita--
itame--
ite--
iva--
iya--
iz--
j--
ja--
jai--
jasy--
je--
jei--
jen--
jey--
ji--
jo--
ju--
jun--
jy--
k--
ka--
kampu--
kan--
kar--
kara--
kat--
kath--
ke--
ki--
kilo--
kim--
kin--
ko--
kon--
koty--
ku--
kuaa--
ky--
l--
la--
laje--
lau--
lava--
le--
lea--
lect--
legis--
leo--
les--
lev--
li--
liber--
licen--
lin--
ll--
lla--
llo--
lo--
lu--
ly--
m--
ma--
mac--
mad--
mag--
mai--
mal--
mala--
man--
mar--
mara--
mas--
mat--
mathe--
matri--
max--
mazz--
mb--
mba--
mbo--
mbu--
mby--
mc--
me--
mega--
meh--
mel--
men--
mer--
mez--
mi--
mik--
mil--
mir--
mit--
mita--
mo--
moa--
modi--
moi--
mon--
mont--
mor--
mos--
mou--
mp--
mu--
mul--
mur--
my--
myeng--
n--
na--
nan--
nati--
nda--
ndaja--
nde--
ndere--
ndo--
ndoje--
ne--
nega--
nemo--
neo--
neu--
neuro--
new--
ng--
nga--
ni--
nia--
nig--
nik--
no--
noi--
nombo--
nomo--
nor--
nos--
nov--
nt--
nu--
num--
ny--
o--
oa--
obje--
obliga--
obser--
observa--
oce--
oct--
odo--
oe--
of--
og--
oga--
ogue--
oha--
ohe--
oho--
ohu--
oi--
oiko--
oja--
oje--
ojegue--
ojei--
ojo--
oju--
ojuka--
oka--
oko--
oky--
ol--
old--
oli--
om--
ombo--
omby--
omo--
omon--
omy--
on--
op--
opa--
ope--
opi--
opo--
oporo--
oporomo--
opy--
or--
ora--
ore--
ori--
os--
ose--
ota--
oti--
ou--
out--
ova--
ove--
ovi--
oye--
p--
pa--
pai--
paja--
pal--
pan--
par--
para--
parla--
pasar--
pat--
pavi--
pe--
pedia--
pen--
per--
peri--
pet--
phy--
pi--
pin--
pira--
pire--
pl--
pla--
po--
poi--
por--
port--
poty--
pra--
pre--
pregu--
pri--
princi--
pro--
provi--
psy--
pt--
pu--
pul--
puru--
py--
q--
qua--
quar--
que--
qui--
r--
ra--
rad--
radia--
rai--
ramo--
ran--
rape--
ras--
re--
rea--
real--
recha--
recom--
ref--
reg--
rei--
reko--
rembo--
remo--
ren--
represen--
res--
respira--
rho--
ri--
rie--
riy--
ro--
rombo--
romo--
rs--
ru--
ry--
ryepy--
s--
sa--
sal--
sam--
san--
santu--
sar--
sch--
sco--
se--
semm--
sen--
ser--
sha--
she--
sher--
si--
sigui--
sil--
sin--
sla--
slo--
so--
sober--
socio--
son--
sor--
sp--
sr--
ss--
st--
sta--
stra--
struct--
stu--
su--
sub--
sue--
sui--
sun--
super--
sur--
sut--
sw--
swe--
sy--
syl--
t--
ta--
tai--
tambu--
tan--
tarj--
tat--
tata--
tax--
te--
tech--
tei--
teko--
tekochauka--
tele--
tem--
tembi--
ten--
ter--
teres--
testa--
tete--
th--
the--
theolo--
thi--
thor--
ti--
to--
tol--
tom--
tor--
tou--
tra--
tradi--
tran--
trans--
tre--
tri--
tro--
tru--
tu--
tuku--
tur--
ty--
tye--
u--
ua--
ue--
ui--
uk--
ul--
um--
un--
uni--
up--
upe--
ur--
ura--
ure--
us--
usua--
uti--
uva--
v--
va--
vacc--
val--
valdi--
van--
ve--
vege--
vence--
ver--
vero--
vi--
via--
vir--
viru--
vis--
vita--
vo--
vol--
vu--
vy--
w--
wa--
we--
whit--
wiki--
wil--
wis--
wo--
woj--
wol--
wri--
x--
xi--
y--
ya--
yby--
ye--
yma--
yo--
ypy--
yru--
yso--
yta--
yu--
yva--
yvy--
z--
za--
ze--
zi--
zimba--
zu--
--0
--1
--2
--28
--3
--4
--5
--6
--7
--8
--9
--a
--aa
--ac
--acio
--aciones
--ad
--ada
--ade
--ado
--ae
--aha
--ahu
--ai
--ak
--aku
--akue
--al
--am
--an
--ano
--ao
--ap
--ape
--apu
--apy
--ar
--ara
--ard
--ardo
--are
--ario
--aru
--as
--asa
--ata
--atia
--ation
--ato
--aty
--au
--avy
--ay
--ayhu
--b
--ba
--be
--berg
--bes
--ble
--bo
--bs
--burg
--c
--ca
--cal
--ccio
--ce
--ces
--ch
--cha
--chauka
--che
--chi
--cht
--chy
--ci
--cia
--cida
--cies
--cio
--ck
--co
--cott
--craft
--cs
--ct
--cta
--cto
--cu
--cy
--d
--da
--dad
--dade
--dae
--dall
--dard
--das
--day
--dd
--de
--demic
--des
--di
--dio
--dita
--do
--dor
--dores
--ds
--dt
--du
--dy
--e
--ea
--ec
--eca
--ech
--ed
--edo
--ee
--ef
--eh
--ei
--ek
--ekua
--el
--ela
--ello
--en
--ena
--ence
--encia
--ens
--ensis
--enta
--ento
--eo
--er
--era
--eri
--ers
--eru
--es
--est
--et
--eta
--ete
--eterei
--ett
--ette
--etti
--ey
--f
--fa
--fe
--ff
--fi
--ficial
--ft
--g
--ga
--gas
--gata
--ge
--gea
--gel
--gele
--gem
--gh
--gi
--gia
--gical
--gn
--go
--gon
--gos
--gra
--grafi
--gs
--gu
--gua
--guasu
--guata
--gue
--guer
--gui
--guigua
--guio
--guy
--guyguy
--gy
--h
--ha
--hague
--hai
--ham
--he
--head
--hegua
--heha
--hi
--hima
--hing
--hiro
--hn
--ho
--hoja
--hu
--hy
--hyje
--i
--ia
--ial
--ian
--iano
--iar
--ias
--ible
--ic
--ica
--icha
--icio
--ick
--ico
--ics
--id
--ida
--idad
--idades
--ides
--ido
--ie
--ied
--ier
--iete
--ig
--iha
--ijey
--iki
--ikue
--il
--illa
--im
--ima
--in
--ina
--inda
--ine
--ing
--ingo
--ini
--ino
--io
--ion
--ions
--ipa
--ir
--ira
--iro
--is
--ise
--ism
--ismo
--ista
--it
--ita
--ite
--iterei
--ito
--ity
--ium
--iva
--ive
--ix
--izacio
--izada
--izado
--izo
--j
--ja
--je
--jepe
--jey
--jo
--joa
--joja
--ju
--juhu
--jy
--k
--ka
--kaja
--kan
--kapa
--katu
--ke
--kh
--ki
--ko
--kri
--ks
--ku
--kua
--kuaa
--kuaaha
--kuavo
--kue
--kuke
--kun
--ky
--kyty
--l
--la
--lacio
--lan
--lativo
--ld
--lda
--ldo
--le
--ler
--lero
--les
--lf
--li
--lia
--lis
--lk
--ll
--lla
--lle
--lli
--llo
--llus
--lly
--lm
--lo
--logi
--logy
--lon
--ls
--lt
--ltz
--lu
--lulu
--lva
--ly
--lyn
--m
--ma
--man
--mbe
--mbei
--mbi
--mbo
--mbu
--mby
--me
--meme
--ment
--mente
--mer
--mes
--mi
--miento
--mii
--mimi
--mo
--mos
--moso
--mphus
--mpo
--ms
--mus
--my
--n
--na
--nado
--nal
--naldo
--name
--naria
--nas
--nata
--nc
--nca
--nce
--nco
--nd
--nda
--nde
--ndi
--ndo
--ndra
--ndu
--ndy
--ne
--ned
--ner
--nera
--neri
--nero
--nes
--ney
--ng
--nga
--nge
--ngo
--ngove
--ngue
--ngy
--nha
--nho
--ni
--nia
--nic
--nie
--nillo
--nio
--nismo
--nista
--njo
--nn
--nne
--no
--nohe
--noke
--nologi
--nor
--ns
--nsis
--nt
--nta
--ntal
--nte
--ntes
--ntia
--nto
--ntro
--nts
--nunga
--nus
--ny
--nza
--o
--od
--ode
--oe
--oi
--ok
--ol
--on
--oni
--ons
--or
--ord
--os
--ot
--ous
--ov
--p
--pa
--paite
--panema
--par
--pave
--pe
--pegua
--pekue
--pes
--pete
--phy
--pi
--pio
--pire
--po
--poha
--pora
--poru
--pota
--pt
--pu
--puka
--puku
--py
--pyre
--pyty
--pyvu
--r
--ra
--rada
--rago
--rahe
--rakue
--ral
--ramo
--rano
--rao
--ras
--rasa
--rd
--rda
--rde
--rdo
--re
--rehe
--rei
--rejakue
--reko
--rekue
--rero
--res
--ret
--rete
--rg
--rgo
--rha
--ri
--ria
--riano
--ricano
--ries
--rin
--rina
--rino
--rio
--rire
--ris
--rn
--rna
--rnal
--rne
--rno
--ro
--rqui
--rro
--rry
--rs
--rse
--rt
--rta
--rte
--rth
--rto
--ru
--ruha
--rum
--rundy
--rupi
--rusu
--ry
--ryru
--ryry
--rz
--rza
--s
--sa
--sacio
--sada
--saka
--sape
--sar
--sas
--sby
--sco
--se
--sen
--sh
--sha
--si
--sia
--sio
--sis
--sk
--slav
--sm
--so
--son
--sos
--ss
--sse
--sso
--sson
--st
--sta
--ste
--sti
--stic
--ston
--stra
--style
--su
--sy
--syry
--t
--ta
--taha
--tal
--tar
--tary
--tas
--taso
--tata
--tavy
--te
--ted
--tee
--tei
--ter
--terei
--teri
--tes
--th
--ti
--tia
--tic
--tidae
--ties
--til
--tino
--tion
--tions
--tista
--tiva
--tive
--tivo
--tle
--to
--ton
--tos
--tr
--ts
--tt
--tta
--tte
--tti
--tts
--tu
--tua
--tura
--tus
--ty
--typeka
--tz
--u
--ua
--ud
--ue
--ues
--ui
--uka
--ukapy
--uke
--um
--ur
--ura
--urt
--us
--usu
--ut
--uta
--uto
--ux
--v
--va
--vac
--vae
--vai
--var
--ve
--veha
--ves
--vete
--vi
--vic
--ville
--viviente
--vo
--voi
--vos
--vu
--vusu
--vy
--w
--wa
--wer
--wers
--witz
--wn
--x
--xo
--y
--ya
--ygua
--yhe
--yhu
--yi
--yke
--yo
--ypy
--yry
--ys
--ysy
--yty
--yvi
--yvy
--z
--za
--zada
--zaje
--ze
--zer
--zi
--zie
--zinho
--zio
--zo
--я
