!
"
#
##0
##1
##10
##11
##12
##13
##14
##15
##16
##17
##18
##19
##2
##20
##21
##22
##23
##24
##25
##26
##27
##28
##29
##3
##30
##31
##32
##33
##34
##35
##36
##37
##38
##39
##4
##40
##41
##42
##43
##44
##45
##46
##47
##48
##49
##5
##50
##51
##52
##53
##54
##55
##56
##57
##58
##59
##6
##60
##61
##62
##63
##64
##65
##66
##67
##68
##69
##7
##70
##71
##72
##73
##74
##75
##76
##77
##78
##79
##8
##80
##81
##82
##83
##84
##85
##86
##87
##88
##89
##9
##90
##91
##92
##93
##94
##95
##96
##97
##98
##99
$
%
&
'
(
)
*
+
,
-
.
/
0
00
000
001
003
005
01
02
03
04
05
050
06
07
08
09
1
10
100
1000
1001
101
1012
102
1025
103
1035
104
1040
1046
1050
106
1060
1066
107
1076
108
1085
109
1095
1096
1099
11
110
1100
1101
111
112
113
1130
1139
114
1140
115
1150
1155
116
117
1170
1174
118
1180
1185
119
1190
1198
12
120
1200
1204
1206
121
1215
122
1220
1225
1229
123
1230
1240
125
1250
126
1260
1261
1265
127
1270
1274
1275
128
1282
129
1297
13
130
1300
1304
131
132
1321
133
1347
1348
135
1350
1351
1360
1368
1370
1377
138
139
14
140
1400
1401
1405
1410
1415
143
1431
1433
1435
144
1440
145
1450
1451
1452
1453
1454
1455
1456
146
1460
1466
1467
1468
1469
147
1470
1475
1476
1478
148
1480
1481
1482
1483
1485
1488
149
1490
1492
1493
1494
1497
1498
1499
15
150
1500
1501
1502
1503
1504
1505
1506
1509
151
1511
1512
1513
1515
1516
1517
1519
1520
1521
1522
1524
1525
1526
1528
153
1530
1533
1534
1535
1536
1539
1540
1541
1542
1543
1546
1547
155
1550
1553
1554
1555
1556
1558
1560
1562
1563
1564
1569
1570
1571
1572
1573
1577
1578
1580
1581
1584
1585
1588
159
1590
1592
1593
1595
1596
1597
1598
1599
16
160
1600
1601
1602
1603
1604
1605
1606
1607
1608
1609
161
1610
1612
1613
1614
1615
1616
1618
1620
1622
1623
1626
1628
1630
1632
1634
1635
1636
1638
1640
1642
1643
1644
1647
1648
165
1650
1651
1652
1658
1659
1660
1661
1662
1668
1669
167
1670
1672
1673
1675
1678
1679
168
1680
1682
1683
1685
1688
1689
169
1690
1694
1696
1697
17
170
1700
1701
1703
1704
1707
1708
1710
1711
1713
1715
1717
1720
1721
1724
1727
1732
1734
1738
1741
1749
175
1750
1751
1752
1759
176
1760
1762
1763
1764
1766
1768
177
1770
1773
1774
1775
1776
1777
1778
178
1780
1781
1782
1783
1784
1785
1786
1787
1788
1789
1790
1791
1792
1793
1794
1795
1796
1797
1798
1799
18
180
1800
1801
1802
1803
1804
1805
1806
1807
1808
1809
1810
1811
1812
1813
1814
1815
1816
1817
1818
1819
1820
1821
1822
1823
1824
1825
1826
1827
1828
1829
183
1830
1831
1832
1833
1834
1835
1836
1837
1838
1839
1840
1841
1842
1843
1844
1845
1846
1847
1848
1849
185
1850
1851
1852
1853
1854
1855
1856
1857
1858
1859
186
1860
1861
1862
1863
1864
1865
1866
1867
1868
1869
187
1870
1871
1872
1873
1874
1875
1876
1877
1878
1879
188
1880
1881
1882
1883
1884
1885
1886
1887
1888
1889
189
1890
1891
1892
1893
1894
1895
1896
1897
1898
1899
19
190
1900
1901
1902
1903
1904
1905
1906
1907
1908
1909
1910
1911
1912
1913
1914
1915
1916
1917
1918
1919
192
1920
1921
1922
1923
1924
1925
1926
1927
1928
1929
193
1930
1931
1932
1933
1934
1935
1936
1937
1938
1939
194
1940
1941
1942
1943
1944
1945
1946
1947
1948
1949
195
1950
1951
1952
1953
1954
1955
1956
1957
1958
1959
196
1960
1961
1962
1963
1964
1965
1966
1967
1968
1969
1970
1971
1972
1973
1974
1975
1976
1977
1978
1979
1980
1981
1982
1983
1984
1985
1986
1987
1988
1989
1990
1991
1992
1993
1994
1995
1996
1997
1998
1999
2
20
200
2000
2001
2002
2003
2004
2005
2006
2007
2008
2009
201
2010
2011
2012
2013
2014
2015
2016
2017
2018
2019
202
2020
2021
2022
204
205
206
207
209
21
210
2100
211
212
214
216
217
218
219
22
220
2200
221
222
223
224
225
228
23
230
2300
231
232
234
235
2350
239
24
240
2400
241
244
245
246
247
25
250
2500
252
256
257
258
26
260
2600
261
262
263
264
265
267
268
2686
27
270
2700
271
272
273
274
275
28
280
2800
281
283
284
287
29
290
2900
293
298
3
30
300
3000
301
305
306
308
31
310
3100
312
313
314
315
316
32
320
3200
321
322
323
324
325
33
330
3300
331
332
333
334
336
337
338
339
34
341
343
347
349
35
350
3500
353
354
356
358
36
360
3600
361
365
366
369
37
370
3700
371
375
379
38
380
3800
382
384
385
386
387
39
390
391
393
394
395
396
397
399
4
40
400
4000
403
404
405
406
409
41
410
411
412
415
419
42
420
4200
421
425
43
430
4300
431
435
437
44
440
442
445
446
45
450
4500
452
454
455
456
46
460
466
47
470
475
476
479
48
480
485
486
49
490
495
496
5
50
500
5000
501
508
509
51
510
512
52
520
5200
521
527
53
530
5300
534
535
537
538
539
54
540
546
549
55
550
5500
551
553
56
560
57
570
5700
575
58
580
5800
581
582
59
590
594
599
6
60
600
6000
605
609
61
610
612
618
62
620
622
624
626
628
63
630
632
634
64
640
641
642
65
650
6500
651
66
660
661
67
678
68
680
683
69
7
70
700
7000
705
706
71
710
711
714
72
722
725
73
731
732
735
74
740
75
750
751
753
756
76
768
77
770
773
78
780
784
79
790
793
8
80
800
8000
801
806
808
81
813
814
82
83
830
84
840
843
85
850
86
860
868
87
870
874
88
880
881
882
89
9
90
900
9000
907
91
910
911
92
925
929
93
94
940
95
958
96
960
963
965
966
969
97
970
976
978
98
980
981
983
988
99
996
997
:
;
<
=
>
?
@
[
\
]
^
_
`
a
aa
aaa
aachen
aan
aau
ab
ababa
abaco
abade
abaderia
abanda
abandona
abandonada
abaxevo
abaza
abba
abc
abcaz
abcazia
abd
abea
abeas
abelard
aberdeen
abeto
abi
abita
abitable
abitada
abitadas
abital
abitante
abitantes
abitas
abiteria
abiterias
abitor
abitores
abitua
abituada
abitual
abituas
abjad
abjades
abkhaz
ablativa
ablaut
aboli
abolida
aboliste
about
abraham
abrasa
abri
abrida
abril
abrinte
abrivia
absoluta
abu
abugida
abunda
abundante
ac
acaba
acad
acade
academia
academial
academias
academic
academistes
academy
acadian
acaros
acasia
acaso
acasos
acc
accra
ace
acean
aceanes
acel
aceles
acemenan
acenaten
ache
acid
acile
aciles
acompania
acompaniada
acompaniante
acompanior
acompaniores
aconcagua
acorda
acordada
acordante
acordas
acre
acres
acrete
acronim
acsum
act
acte
action
acu
acua
acuaduto
acual
acuas
acumula
acuosa
acusa
acusada
acusas
acusativa
acustica
acuta
ad
ada
adam
adams
adan
adata
adatada
addams
addis
ade
aden
adenina
adere
aderente
aderentes
aderores
adigabze
adige
adio
adirije
adjuvilo
adler
adn
adobe
adolese
adolesente
adolesentes
adolf
adolfo
adomen
adomenal
adominal
ador
adora
adorada
adormi
adorores
adota
adotada
adotante
adrian
adriano
adriatica
adriatico
adulta
adulte
adultera
adultes
adultia
adv
adzoa
ae
aec
aeneid
aes
aesir
af
afanasevo
afar
afasia
afeta
afetada
afetante
afganistan
afi
afin
afirma
afirmante
afisa
afisada
afisas
afluente
afluentes
afoca
afonda
afonso
aforismes
africa
african
africanes
africans
africanses
africante
africantes
afrihili
afro
afroamerican
afroasiatica
afrodita
afrodite
after
ag
against
agamemnon
agave
agble
age
ages
agila
agilas
agincourt
aglutina
aglutinante
agnostica
agnosticisme
ago
agorafobia
agos
agosto
agreda
agresiva
agresivia
agu
agua
agus
ah
aha
ahmad
ahmed
ahse
ahura
ai
aias
aida
aidada
aidante
aidor
aidores
ailill
ailnge
aimara
ain
aingelja
ainu
air
aira
airal
aires
airocompania
airoporto
airport
ais
aise
aiti
aitian
aitianes
aj
ajenda
ajente
ajenteria
ajentes
ajetival
ajetivin
ajetivo
ajetivos
ajita
ajunta
ajuntable
ajuntada
ajuntal
ajuntante
ajuntas
ajusta
ajustada
ajustante
ajustas
ak
aka
akbar
akesi
aki
akɔsua
al
ala
alabama
alah
alain
alan
alanes
alas
alaska
alativa
alauistes
alba
albania
albanian
albany
albatroses
albert
alberta
alberti
alberto
albino
alboran
album
albumes
alcalin
alce
alces
alcimica
alcol
alcolosa
ale
alef
alega
alegada
alegas
alegoria
alegrett
alessandro
aletas
aleut
alex
alexander
alexandra
alexandria
alexandro
alfa
alfabeta
alfabetal
alfabetas
alfabetisme
alfabetiste
alfonso
alfred
alfredo
alga
algas
alge
alges
algoncian
algoncianes
algoritmo
algun
alhambra
ali
alia
aliada
aliadas
alias
alice
aliena
alienable
alighieri
alinia
aliniada
alio
alisia
aliya
aljebra
aljebral
aljeria
alkmaar
all
alla
allah
allan
allen
almagest
almaza
almazan
almirall
almohades
almoravide
alo
alofon
alofones
along
alor
alora
alpes
already
als
also
alt
alta
altai
altaica
altar
altas
altera
alterada
alterante
alterantes
alteras
alterna
alternante
alternativa
alternativas
alti
altia
altias
altiplano
alto
altruisme
aluminio
alusina
alvastra
alveolal
alvi
alzheimer
am
ama
amable
amada
amadeus
amalfi
amandas
amante
amar
amare
amarga
amargia
amat
amator
amatores
amazon
amazona
amazonas
ambar
ambasador
ambie
ambiental
ambiente
ambientes
ambientisme
ambigua
ambos
ambros
ambrose
ambrosio
amburger
ame
ameba
amed
amen
america
american
americanes
americas
amerindian
amfibio
amfibios
amfiteatro
amforas
ami
amia
amico
amidon
amin
aminoasida
aminoasidas
amir
amira
amirada
amiral
amiria
amirias
amiror
amis
amix
amo
amon
amor
amores
amos
amosia
amour
amsterdam
amtrak
amun
amur
an
ana
anakin
anal
analisal
analise
analiseda
analises
analoja
analojia
analysis
anarcia
anarcisme
anatolia
anatolian
anatomia
anatomial
anatomica
anatomy
anaximandro
anca
ancas
ance
ancien
ancient
ancilosante
ancise
ancona
ancor
ancora
ancori
and
andalus
andalusia
andaman
ande
andersen
anderson
andersson
andes
andora
andorra
andre
andrea
andreas
andreo
andrew
androjine
andromaca
andromeda
andronico
andronovo
ane
anela
anelidos
anelo
anelos
anemia
anestese
anexo
ang
angaur
angela
angeles
angels
angila
angilas
angkor
anglia
anglican
anglicanisme
anglo
anglosason
anglosasones
angola
angra
anguila
angulo
angulos
angusa
anial
anima
animada
animal
animales
animals
animas
animisme
animiste
anio
anios
aniversario
anjel
anjeles
anjiospermas
anjou
ankau
anke
ann
anna
annales
anne
anni
ano
anomales
anonim
anos
ans
ansan
anseong
ansia
ansiosa
ant
antalya
antartica
ante
antenas
anterior
antesedente
antesedentes
anthony
anti
antica
anticas
anticia
anticin
anticorpos
antigonan
antigua
antiiudisme
antiiudiste
antiles
antilopes
antimicrobiales
antioc
antiocia
antioco
antiquity
antistene
antitese
anto
antofagasta
antoine
antoinette
anton
antonim
antonino
antonio
antropolojia
antropolojial
antropolojiste
antropolojistes
antwerp
anu
anunsia
anunsiada
anunsias
anxas
anyang
ao
aora
aoriste
aos
ap
apa
apalatxia
aparata
aparatas
aparato
aparatos
apare
aparente
apares
aparte
aparteni
apartes
apatia
apatxe
apela
apena
apendis
apetito
api
apia
apico
apicos
aplica
aplicable
aplicada
aplicas
aplogrupo
aplogrupos
aploide
apo
apocalise
apocrifa
apofonia
apoia
apoiada
apoiante
apollo
apolo
apolonio
apoptose
aposada
aposadal
aposadas
aposta
apostol
apostolal
apostoles
apple
approach
aprende
aprendeda
aprendente
aprendor
aprendores
april
apriori
aproba
aprobada
aprosima
aprosimi
aps
aquino
aquitaine
ar
ara
arabi
arabia
arabic
arabis
aracnido
aradida
arado
arados
arafat
arago
aragon
aragones
arami
aran
aranes
arania
aranias
ararat
arauac
arauacan
arauaces
araxes
arbe
arbor
arboral
arbores
arboreta
arboretas
arbuto
arc
arca
arcaica
arcana
arcanjel
arceas
arceolojia
arceolojial
arceolojiste
arceolojistes
arcetipo
arcetipos
archaeological
archaeology
architecture
archive
arcibispia
arcibispo
arcida
arcimede
arcipelago
arcipelagos
arciteta
arcitetal
arcitetor
arcitetores
arciveria
arcivi
arcivida
arcivo
arcivos
arco
arconte
arcos
arcosauros
arde
ardeda
ardente
are
area
areal
areas
arena
arenge
arenges
arenito
arenosa
ares
aresta
arestada
argentina
argonautica
argos
arguments
argumentum
ari
aria
arian
arianes
arianisme
arias
aricara
ariel
ario
aristocrata
aristocratas
aristocratia
aristofane
aristotele
aristotelisme
aritmetica
aritmetical
ariva
arivante
arizona
arjentin
arjentina
arjento
arjila
arkansas
arma
armada
armadas
armadilo
armadilos
armagh
armas
armenia
armenian
armida
arminio
armonia
armoniosa
armstrong
armur
army
arn
arno
arnold
aromanian
arpa
arpanet
arpia
arpias
ars
arsinoe
art
artal
arte
arteria
arterias
artes
arthur
arti
artica
article
articles
artifis
artifisal
artifisia
artifisial
artileria
artisan
artisanes
artisania
artiste
artistes
artrite
artropodos
arts
artur
aru
aruba
as
asa
asaf
asam
asasina
asasinada
ascanio
asconde
ascondeda
ase
asedable
asede
asedente
aseja
asejada
aselera
aselerada
asembla
asemblada
asemblas
asende
asendente
asendentes
asenta
asente
asentia
asentua
asentuada
asentuante
asentuas
aser
asero
aseros
aserta
ases
aseta
asetable
asetada
asetante
asetica
ashoka
asi
asia
asian
asianes
asida
asidas
asidente
asidua
asimov
asinia
asiniada
asino
asinos
asioneria
asiria
asirian
asirianes
asoluta
asolutisme
asolutiva
ason
asones
asorbada
asorbe
asorbeda
asorbente
asosia
asosiada
asosiante
asosias
asosior
asosiores
aspects
aspeta
aspetas
aspetisme
aspira
aspirada
aspirante
aspiras
aspiror
aspirores
association
ast
asta
asteca
astecas
asteni
asteninte
asteroide
asteroides
astrata
astratas
astrea
astrofisica
astrolojia
astronomia
astronomial
astronomiste
astronomistes
asturian
asturiana
asturianes
asturias
asturleones
astuta
astutia
asur
asurda
asurdia
asusta
asustante
at
ata
atabascan
ataca
atacada
atacante
atacas
atacor
atacores
atante
ataraxia
atari
atas
ate
ateisme
ateiste
ateistes
aten
atena
atenda
atende
atendeda
atendente
atendores
atendosa
ateni
atenida
ateninte
atenis
atenta
atentada
atentante
atentas
atera
atesta
atestada
atestante
atestas
atestor
atestores
athena
ati
atia
atica
atila
atina
atinan
atinanes
ativa
ativi
ativia
ativias
ativisme
ativiste
ativistes
atkinson
atlanta
atlantica
atlantida
atlas
atletas
atletisme
atman
atmosfera
atmosferal
atol
atoles
atom
atomal
atomes
ator
atores
atrae
atraeda
atraente
atraes
atraosa
atribui
atribuida
atribuis
atrio
atrios
attenborough
au
audubon
august
augusta
auguste
augustin
augustino
augusto
aumenta
aumentada
aumentante
aurelian
aureliano
aurelio
auriniasian
aus
austen
austin
australasia
australia
australian
australianes
austri
austria
austroasiatica
austronesian
autentica
autisme
auto
autoanticorpos
autobiografia
autobiografial
autoconsensa
autocrata
autocratia
autodefende
autodetermina
autoevidente
autogoverna
autoimune
automata
automatida
autono
autonom
autonomi
autonomia
autonomial
autor
autoreali
autores
autorespeta
autoria
autorias
autorida
autoriosa
autoriosas
autoritar
autoritarisme
autoritariste
autos
autosufisinte
autovia
autovias
autres
aux
auxiliary
av
ava
avansa
avansada
avansante
avansas
avar
avares
avaria
avatares
ave
avec
avena
aveni
aveninte
avenis
avente
aventura
aventuras
aventures
aventuror
averbal
averbales
averbin
averbo
averbos
averti
avertis
aves
avestan
avi
avia
avias
avignon
avila
avion
aviones
avioni
avionor
avis
avisa
avo
avocado
avocato
aw
awa
away
ax
axa
axas
axcenazi
axi
axiom
axiomal
axiomes
axis
axoca
axur
ay
ayi
ayllo
ayolas
az
azerbaidjan
azerbaidjani
azerbaidjanis
azerbaijan
azerbaijani
azeri
azor
azov
azu
azul
azərbaycan
aƒe
aʔ
b
ba
baba
babbage
babel
babilon
babilonia
babilonian
babilonianes
bable
baca
bacas
bach
back
bacon
bactria
bactrian
bacu
bad
baden
badhoevedorp
bae
baffin
bagdad
bagete
baghdad
bahai
bahais
bahaisme
bahamas
bahia
bai
baia
baias
baical
baieres
baiern
baieta
bain
baining
baja
baker
bal
balada
baladas
balaenoptera
balanovo
balansa
balcan
balcanes
balcano
balcon
balcones
balde
balder
balear
baleare
baleares
balena
balenas
bales
baleta
baleto
balgares
balgaria
balgarsce
balgarsces
bali
balsa
baltica
balticas
baltimore
balto
bamako
bambara
bambu
ban
banana
bananas
banca
banceta
bancetas
banco
bancor
bancos
banda
bandas
bande
bandera
banderas
bandura
bang
bangla
bangladex
bangui
bani
banieria
banio
banios
bank
bantu
baobab
baobabes
baptiste
bar
bara
barack
barain
baras
barat
barata
barati
barba
barbados
barbar
barbara
barbares
barbaria
barbas
barbida
barbuda
barca
barcelona
barco
barcon
barcones
barcos
bargalsce
bari
barilin
barnes
baroca
baron
barones
barre
barrow
barselona
bartolomeo
baruch
bas
basa
basada
basal
basas
bascetbal
base
basebal
baseda
basel
bases
basi
basic
basida
basil
basilica
basin
basines
baso
basque
bastante
basteta
bastetas
bastilia
basto
baston
bastones
bat
bata
batalia
batalias
batalla
batavianes
bate
bateda
bateria
baterial
baterias
bath
batisme
batiste
batistes
batiza
batizada
battista
baudelaire
baxni
bay
bayern
bbc
bc
be
beagle
bealtaine
beatles
beatrice
beatrix
beau
beaufront
beaverton
bebe
bebes
bec
because
beco
become
becos
beda
been
beethoven
before
begin
behind
beida
beijing
beillac
being
beitra
bel
bela
belarus
belau
belaus
belfast
belgian
beli
belia
beliz
belizan
belizanes
belize
beljes
beljia
bell
belle
belles
belli
bello
bellum
belmopan
belo
belong
beluga
belugas
ben
bend
benedito
benefia
benefica
beneficada
beneficante
beneficas
benelux
beneria
benes
bengal
bengala
benin
benito
benjamin
bentham
benz
beograd
beotuc
beotuces
beowulf
ber
berber
berberes
berceo
bergen
bering
beringia
berkeley
berlanga
berlin
bermuda
bernard
bernardo
berners
berry
berta
bertalanffy
bertha
berting
bertolt
bertrand
bes
besa
besarabia
best
bestas
bestia
bestias
bet
beta
bethlehem
betlehem
beton
better
betul
between
bevable
bevi
bevida
bevidas
bevis
bh
bi
bia
bible
biblia
biblial
biblio
bibliografia
biblioteca
bibliotecas
bid
biden
bielarus
bielarusce
bien
big
bijoux
bil
biladal
bilal
bile
bileta
biletas
biliardo
bilingual
bilingualisme
bilion
biliones
bill
bilong
bin
bina
binaria
binet
bingen
bini
binid
biocimica
biodiversia
biografia
biografial
biografias
biografiste
biography
bioinformatica
biological
biolojia
biolojial
biolojiste
biolojistes
biomasa
biomolecula
biomoleculas
biopsia
bipolal
bir
bird
birmingham
bisau
biscaia
biscoto
bisicle
bisicles
bislama
bismarck
bison
bisones
bispal
bispia
bispias
bispo
bispos
bissau
bit
bitios
bivalvo
bivalvos
bixcec
bizantia
bizantian
bizantianes
bizantio
bizantion
bizara
bjo
bla
black
blackwell
blaeve
blaise
blanc
blanca
blancaneva
blancas
blanci
blanco
blanda
blench
bleni
bleu
bleue
bli
blica
blindada
bloci
blocida
blocinte
bloco
blocos
blog
blonde
blong
blood
blu
blue
blus
bo
boa
bob
bobo
boca
bocal
bocas
boccaccio
bod
bodmer
bodo
boemia
boer
boeree
bogomiles
bogota
boian
bol
bolak
bolas
boles
bolevar
boli
bolida
bolivia
bollack
bologna
bolonia
bolsa
bolsas
bolxevic
bolxevices
bomba
bombarda
bombas
bombi
bon
bona
bonaire
bonaparte
bondise
bondiseda
bondises
bone
bones
bong
boni
bonia
bonida
bonifacio
bonis
bono
bonparlante
bonstate
bonvendeda
bonveni
bonvenida
bonveninte
bonvole
bonvolente
bonvolores
book
books
boole
bopomofo
borda
bordada
bordante
bordas
bordeaux
bordida
boris
borneo
borry
bos
bosca
boscas
bosce
bosces
bosnia
bosnian
bosnianes
boston
botai
botanica
botanical
botaniste
botas
boteca
botecas
botela
botelin
both
boton
botones
botsuana
botticelli
bougainville
bouillon
bourbon
bourre
bove
boves
boveta
boxe
boxores
boy
boyle
br
bra
braakman
brabant
braciopodos
bradipo
bradipode
bradipos
brae
brahma
brahmi
braies
brain
brama
braman
brami
brancias
brandenburg
brandi
brasaleta
brasetas
brasi
brasil
brasilera
braso
brasos
braunschweig
bread
break
brecht
breizh
bremen
brentano
bres
bresonica
breton
breuer
brices
brie
briggs
brigham
brigid
brilia
briliada
briliante
brill
briseida
briseis
bristol
britain
britan
britania
britannica
brites
briteses
brithenig
british
britones
britonica
bro
broca
brode
broma
bromas
bronze
bronzes
brood
brooklyn
brosa
brother
brothers
brown
broxes
bruce
bruegel
bruje
brun
brune
bruno
brunswick
brusca
brut
bruta
bruto
bruxelles
bu
buck
buco
bucos
bucuresti
buda
budapest
budisme
budiste
budistes
buenos
bufalo
bufon
bug
bujeta
buk
bulaka
bulbo
bulgaria
bulion
buliones
bull
bulto
bultos
buma
bunita
buonarroti
buos
bur
burcina
bureau
burgess
burgo
burgonia
burgos
burgunda
burgundas
burgundia
buriat
burjesia
burla
burma
burman
burocratia
bursa
burundi
bus
busan
buses
bush
business
but
butan
butler
by
byrd
byzantine
c
ca
caa
caba
caballero
cabana
cabanas
cabe
cabinda
cabo
cacau
caci
cacto
cada
cade
cadeda
cadena
cadenas
cadeno
cadente
cadi
cadiz
cadoan
cadu
caduca
cadun
caesar
cafe
caicos
caiman
caio
caioua
cairo
caje
cal
calahari
calalitnunat
calamar
calamares
calatan
calcario
calce
calcolitica
calcula
calculada
calculador
calculadores
calculas
calculo
calculos
calda
calderon
caldi
caldia
caldida
caledonia
calendar
calendario
calendarios
calgary
califa
califia
california
caligula
calix
calma
calmi
calmia
calo
calpe
calsas
calsinose
calsio
calsones
calva
calvin
calvinisme
calviniste
cama
camaleon
camaleones
cambia
cambiada
cambiante
cambias
cambrian
cambridge
came
camel
cameles
camera
camerada
cameradas
cameras
camerun
cami
camilo
camion
camisa
camisas
camiseta
camisetas
camison
camisones
camofla
camp
campa
campana
campanas
campania
campanial
campanian
campanianes
campanias
campanin
campaniores
campas
campbell
campion
campo
campos
camputxa
camtxatca
camtxatcan
camus
can
cana
canaba
canada
canadian
canadianes
canal
canales
canamon
canan
canario
canas
canberra
cancer
candela
candelas
candida
candide
cane
canes
cangarin
cangaru
cangarus
canido
canidos
canin
canion
caniones
canis
canji
cano
canoa
canoas
canon
canonal
canones
cansela
canselada
canselor
canseloreria
canser
canseres
canta
cantabria
cantada
cantante
cantar
cantas
canterbury
canti
canto
canton
cantones
cantor
cantores
cantos
cao
caos
caososa
cap
capa
capas
capasi
capasia
capasias
cape
capel
capelas
capeles
capelin
capelosa
capet
capeta
capibara
capilares
capital
capitales
capitalisme
capitaliste
capitan
capitol
capitoles
capo
capoverdean
capra
capras
caprisal
capsula
car
cara
caracas
caracoles
carate
carater
carateres
caratxai
carboidratos
carbon
carbonato
carboniferosa
carbono
carboxamide
cardial
cardinal
cardinales
cardiovascular
carducci
carelia
carera
careras
caresa
carga
cargada
cargas
cari
carib
caribe
caribes
caricom
carita
carital
carl
carlo
carlos
carluc
carlyle
carma
carmen
carmesi
carnataca
carnaval
carne
carnivor
carnivores
caro
carolan
carolina
carolingian
caron
caros
carota
carotas
carpatian
carpentor
carroll
carta
cartagena
cartago
cartas
carte
carter
cartes
cartier
carton
cartuli
cartunes
casa
casandra
casas
casca
cascade
cascades
cascadia
cascas
casco
case
casi
casino
casinos
caso
casos
caspian
caspio
castalia
caste
castel
casteles
castelia
castello
castes
castilia
castilian
castilla
castillo
castle
castor
castores
castra
castro
casual
cat
catacana
catacombas
catala
catalan
catalana
catalanes
catalanisme
catalogo
catalun
catalunia
catalunya
catar
catares
catecisme
catedral
catedrales
categori
categoria
categorias
categorida
category
caterina
cathedral
catholic
catlin
cato
catolica
catolicas
catolicisme
catran
catulo
catura
caturada
caturante
caturas
caucasian
caucaso
caucasos
caudata
causa
causada
causal
causante
causas
causativa
cauta
cautia
cauxo
cava
cavaleria
cavalero
cavaleros
cavalo
cavalores
cavalos
cavas
caveta
cavetas
cavia
caxa
caxalote
caxalotes
caxas
caxi
caxida
caxin
caxon
cazac
cazaces
cazacstan
cazan
cc
ccppx
cd
ce
cecile
cel
celestina
cell
celsius
celta
celtas
celtiberia
celtiberian
celtic
celtica
cen
cenia
censo
census
cent
centauri
center
central
centre
centro
centum
century
ceratin
ceres
cern
cernoica
cerro
cervantes
cervus
ces
cesar
cesare
ceso
cesos
cet
cetinje
cetxua
ceuta
cexa
cf
ch
cha
chaco
chagas
chan
chandragupta
change
channel
channels
chanson
chansons
chapman
chapter
charcot
charlemagne
charles
charlotte
chartres
chase
chaturanga
chaucer
che
chen
cher
chesapeake
chez
chi
chicago
chico
chiesa
child
childe
children
chile
china
cho
chomsky
chou
chre
christ
christian
christianity
christina
christmas
christoph
christopher
chronicle
chubut
chulainn
church
churchill
ci
cia
cibele
cicero
cid
cielo
cihua
ciiv
cil
cilicia
cilogrames
cilometre
cilometres
cimerianes
cimica
cimical
cimicales
cimicas
cimiciste
cimri
cimrica
cimricas
cinestesia
cios
cioua
ciprian
cipros
circa
cirgistan
cirgiz
ciria
ciribas
ciril
cirilica
ciroteros
cis
cisa
cita
citanes
citation
cite
cities
city
ciudad
civilization
cl
cla
clackamas
claes
clama
clamada
clamante
clan
clanes
clar
clara
clare
clari
claria
clarida
clark
clase
clases
clasi
clasic
clasica
clasical
clasicas
clasicisme
clasida
clasinte
clasintes
clasis
class
classical
classics
classification
claude
claudio
claus
clave
claves
clavesimbal
clavin
cle
clemente
cleopatra
cleveland
clica
clicas
cliente
clientes
clifford
clima
climas
climatolojia
clinica
clinical
clinton
cliticas
cliticos
clo
cloaca
clos
clovis
club
clui
cluida
cluinte
cm
cmer
cmyk
cnoso
co
coabita
coarde
coaveni
cobalto
coburg
coc
coca
cocaina
cocboroc
coce
coceda
coclea
coco
cod
coda
codal
codas
code
codex
codigi
codigida
codigo
codigos
codo
coe
coecoe
coere
coerente
coesiste
cognisial
cognisio
coicoi
coimbra
coiote
coiotes
coisan
col
cola
colabora
colaboror
colaborores
coladal
colar
colaretas
colas
colasa
cole
colejio
coler
coleria
colerida
colesterol
coletiva
coletivisme
colide
colides
colie
colieda
coliente
colies
colin
colina
colinas
colinetas
colior
coliores
colite
collection
college
colo
cologne
colombia
colombo
colon
colona
colonas
colones
coloni
colonia
colonial
colonialisme
colonias
colonida
coloninte
coloniste
colonistes
color
colorado
colores
colorida
colorosa
colos
coloseo
colpa
colpada
colpas
columbia
columbus
com
coma
comable
comables
comanda
comandada
comandante
comandas
comandor
comandores
comarca
combata
combate
combates
combatosa
combina
combinada
combinante
combinas
combinatoria
combusta
combustable
combustables
come
comeda
comedas
comedia
comedias
comensa
comensada
comensante
comensas
comensor
comenta
comentas
comente
comentor
comentores
comersa
comersia
comersial
comersior
comersiores
comes
cometa
cometas
comforta
comfortable
comfortosa
comi
comica
coming
comision
comite
comites
comitia
comme
commentary
commission
commodo
common
commons
como
comori
compact
compania
companias
companion
company
compara
comparable
comparada
comparante
comparas
comparativa
comparative
compare
comparte
comparti
compartida
compata
compati
compatia
compatiosa
compensa
competa
compete
competente
competes
competor
competores
competosa
compila
compilada
compilador
compiladores
complesal
compleso
complesos
completa
completada
completante
completas
complete
completi
completida
completinte
completintes
complica
complicada
complicas
composa
composada
composadas
composante
composantes
composas
composor
composores
compostela
compra
comprada
comprendable
comprende
comprendeda
compresada
compromete
compulsa
computa
computador
computadores
computer
comte
comun
comunes
comunia
comunial
comunias
comunica
comunicable
comunicada
comunicas
comunisme
comuniste
comunistes
comuta
con
conaseda
conasedas
conca
concas
concept
concista
concistada
concistante
concistas
concistor
concistores
conclui
concluis
concombres
concreta
concubina
concurso
conde
condena
condenada
condensa
condisiona
condisionada
condita
condui
conduida
conduinte
conduis
conduisme
conduiste
conduistes
coneo
coneos
confedera
confere
conferes
confesa
confesas
confirma
confirmada
conflue
conforma
confusa
confusada
confusante
confuzi
confuzisme
confuziste
confuzistes
congo
congrega
congregas
congresa
congros
conifer
coniferes
conio
conj
conjuga
conjugada
conjugas
conjunta
conjuntas
connecticut
cono
conos
conose
conoseda
conosente
conrad
consela
conselor
conselores
consensa
consensia
consenta
consentra
consentrada
consentras
consepi
conserna
consernada
consernante
consernas
conserta
consertas
conserva
conservada
conservalisme
conservaliste
conservalistes
conservante
conserveria
conserviste
conservor
conseta
consetal
consetas
conseti
consetida
considera
considerada
consideran
considerante
consideras
consiensa
consilia
consilio
consilios
consiste
consola
consonantal
consonante
consonantes
conspira
constante
constantin
constantino
constantinopla
constantinople
constantinopoli
constantinopolis
constela
constitual
constitui
constituida
constituinte
constituis
constrinje
constrinjeda
constrinjes
construi
construida
construidas
construinte
construis
construores
consul
consules
consulta
consuma
consumada
conta
contable
contada
contamina
contaminada
contar
contas
contata
contatante
contatas
conte
contempla
contempora
contemporas
contenador
conteni
contenida
contenidas
conteninte
contenis
contente
contes
contesto
contestos
contia
contias
continental
continente
continentes
continua
continuada
continual
continuante
continui
contorni
contorse
contorseda
contra
contradise
contradisente
contradises
contrafortes
contrasta
contrastada
contrastante
contraste
contrata
contratas
contribui
contribuinte
contribuis
contribuor
contribuores
control
controla
controlada
controlas
controversa
controversal
controversas
controversia
controversial
conveni
conveninte
converje
converjente
conversa
conversas
converti
convertida
convertidas
convesa
convinse
convinseda
convinsente
coofisial
cook
coopera
cooperante
coordina
coordinada
coordinante
coordinas
copa
copas
copepodos
copernico
copernicus
copia
copiada
copias
copta
copula
copulas
cor
coraje
coraji
corajida
corajosa
coral
corales
corda
cordas
cordetas
cordida
cordoba
cordon
core
corea
corean
coreanes
coredor
corelata
corelatada
corelatas
corente
corentes
cores
coresponde
corespondente
corespondentes
corespondes
coreta
coretador
coreti
coriac
corinth
corintianes
corinto
cornelio
cornelis
cornell
corno
cornos
coro
corode
coromines
corona
coronel
coroni
coronida
corozal
corpal
corpi
corpida
corpo
corpora
corporada
corporas
corporation
corporations
corpos
corpus
corre
corsa
corse
corseta
corsetas
corsica
corsican
corsu
corta
corte
cortea
cortes
cortesia
cortex
corti
corticosteroides
cortida
cortinas
cortis
corvatsca
corvatsce
corvatsces
corvo
corvon
corvones
corvos
corvus
cos
cosa
cosador
cosadores
cosas
cose
coseda
cosina
cosinas
cosini
cosinis
cosmolojia
cosmopolitan
cosmopolitanisme
cosovo
cost
costa
costal
costalago
costas
costelas
costelin
costum
costumal
costumes
cot
cotan
cotel
cotela
cotelas
coteles
coton
coturnixes
could
council
country
county
court
cousin
couturat
covre
covreda
covrente
covreseso
covresesos
cow
coxa
crabe
crai
cranio
cranios
craps
crase
craseda
crasnoiarsc
crasso
crater
crateres
cray
cre
crea
creada
creante
creas
creda
crede
crededa
credente
credes
credito
credor
credores
creek
creisme
crema
creol
creoles
creor
creores
creosa
creosia
crepe
crepes
crese
creseda
cresente
creses
cresta
crestas
crestida
creta
cretasica
cri
cria
crias
cric
criceta
criceto
cril
crim
crimin
criminal
criminales
crimines
criminor
criminores
cris
crise
criseida
crises
crisis
cristal
cristales
cristian
cristianes
cristiani
cristiania
cristianida
cristianisme
cristianiste
crististe
cristo
cristoforo
criterios
criti
critica
criticada
critical
criticante
criticas
criticiste
criticistes
criticores
crixna
crna
cro
crocodil
crocodiles
crocodilias
crohn
cromosoma
cromosomal
cromosomas
cromosomes
crone
cronica
crono
cronolojia
cronolojial
crosta
cru
cruel
crufio
crus
crusa
crusada
crusadas
crusadores
crusas
crusi
crusida
crustaseos
cruz
cs
css
cu
cua
cuadral
cuadrida
cuadro
cuadros
cuailnge
cuait
cual
cualce
cualcun
cuali
cualia
cualial
cualias
cualis
cualnia
cuande
cuando
cuantal
cuantia
cuantial
cuantias
cuanto
cuarces
cuasi
cuatri
cuatris
cuatro
cuatrodes
cuatropedes
cuatruple
cuba
cuban
cubo
cucuteni
cuecer
cuenca
cuercas
cuerco
cuercos
cueva
cuevas
cuieta
culier
culieres
culmina
culminante
culminas
culmine
culo
culpa
culpable
culpablia
cultiva
cultivable
cultivada
cultivadas
cultival
cultivante
cultivas
cultiveria
cultiverias
cultivor
cultivores
culto
cultos
cultur
cultura
cultural
culture
cultures
cum
cumas
cumula
cuna
cuneforma
cuneo
cuoca
cuocas
cuoro
cupola
cupre
cura
curac
curan
curante
curasau
curcuma
curdi
curdis
curdistan
curgan
curganes
curia
curias
curiosa
curiosia
curso
cursos
curva
curvada
curvas
curvi
curvida
cusin
cusina
cusines
custa
custas
custer
custosa
cut
cutenai
cux
cuxitica
cuzco
cv
cvc
cvcv
cy
cybermen
d
da
dabi
dacia
dacota
dado
dados
daejeon
dag
daga
dagas
dagestan
dagh
dai
dakar
dakota
dal
dale
daleces
daleks
dall
dalmatia
dam
dama
damadian
damas
dame
dan
dana
danada
danann
danante
dance
daniel
danmarc
dans
dansa
dansas
dansce
dansces
dansor
dante
danu
danubian
danubio
danzig
dardano
dari
dario
darma
darwin
darwinisme
das
dat
data
datas
date
dati
datida
datinte
dativa
dato
datos
daughter
dauisme
dauiste
david
davies
davis
day
dc
de
dea
dead
deal
dearborn
death
debata
debatada
debate
debateda
debates
debe
debes
debil
debili
debilia
debilida
debitores
dec
deca
decade
december
decl
declara
declarada
declarante
declaras
declina
declinante
declinas
deco
decora
decorada
decoras
decrese
ded
dedica
dedicada
dedui
deduida
deduinte
deep
defende
defendeda
defendente
defendes
defendor
defendores
defeta
defetada
defetas
defetos
defia
defias
defina
definada
defini
definida
defininte
definis
degrada
degradada
degradante
dei
deifobo
deisme
dejenera
dejenerada
dejeta
dejetada
dejetadas
dejetas
dek
del
delaware
delega
delegada
delegadas
deleta
delfi
delfin
delfines
delft
delhi
delicata
dell
della
delle
dels
delta
delude
deluvia
deluvias
dem
demanda
demandada
demandante
demandas
demente
dementeria
dementia
demeter
demetre
democrata
democratas
democratia
democratial
democrito
demografi
demografia
demografial
demon
demones
demostra
demostrada
demostras
demotica
den
denali
dendrites
dene
denis
denisovanes
dennis
denova
densa
densia
dental
dente
dentela
dentes
denton
dentones
dentro
denunsia
deo
deos
departe
departes
departi
depende
dependente
dependentes
dependes
depinta
depintada
depintas
depinti
depintor
depintores
depone
deponeda
deponedas
depones
depresa
depresada
der
deriva
derivada
derivadas
derivante
derivas
derma
dermatite
dermatolojia
des
desacorda
desacordante
desacordas
desapare
desapareda
desaparente
desastre
desastres
desastrosa
descapasia
descapasida
descarga
descartes
descoloni
descomforta
descomposa
descontinuada
descoraji
descorajida
descovre
descovreda
descovres
descrese
descrive
descriveda
descrivente
descrives
descura
desde
desembarca
desembla
desemblada
desemblante
desembre
desemplea
desende
desendeda
desendente
desendentes
desenio
desenios
desentrida
deser
deseret
desert
deserti
deserto
desertos
deses
desforesti
desgusta
desi
deside
desideda
desidente
desides
desifri
desifrida
design
desimal
desinia
desiniada
desinias
desinior
desiniores
desintegra
desira
desirable
desirada
desirante
desiras
desloca
deslocada
desmaia
desonora
desordina
desordinada
despera
despersonali
despeta
despetada
despetante
desplasente
despone
desponeda
despopla
desprende
desprendeda
destensa
destesti
destestida
destina
destinada
destinas
destra
destrisme
destriste
destrui
destruida
destruinte
desu
desusada
desvalua
desvesti
det
deta
detalia
detaliada
detalias
detaliosa
detas
detenida
determina
determinada
determinante
determinantes
determinisme
deterministe
deteta
detetada
detetor
detrito
detroit
deus
deuteronomio
deutsch
deutsche
deutsches
deutx
deutxes
deutxland
devanagari
deve
developa
developada
developante
developas
development
developores
deveni
deveninte
devi
devia
devolui
devonian
dewey
dh
dhe
di
dia
diabete
diablo
diablos
diacritos
diafana
diaframa
diagnose
diagnoseda
diagnostic
diagonal
dial
dialetal
dialetica
dialeto
dialetos
dialogo
dialogos
diamante
diamantes
diametre
diarea
dias
diaspora
dic
diccionari
diccionario
dice
dickens
dictionary
did
diderot
didi
didn
dido
die
diego
dieta
dietrich
dieux
difere
diferensial
diferente
diferes
difisil
difisiles
difisilia
difisilias
diftongo
diftongos
difusa
difusada
digital
digram
digrames
dijesta
dijital
dijito
dijitos
diligente
dimashq
dimension
dimensiones
dimini
diminui
diminuida
diminuinte
din
dinamica
dinamical
dinamicas
dinastia
dinastial
dinastias
dinastio
dine
dinia
dinosauros
dio
diocletiano
diogene
diogo
diomede
dioniso
dios
diosido
diosijen
diploide
diploma
diplomas
diplomata
diplomatia
diputacio
dire
direta
direto
diretoi
diretos
dirijal
dirije
dirijeda
dirijente
dirijes
dirijor
dirijores
dirk
dis
disco
discos
discourses
discrimina
discute
discuteda
discutes
dise
diseda
disente
dises
disesioni
disionario
disionarios
disiplina
disiplinas
disiplo
disiplos
disney
disolve
disolveda
displaystyle
disponable
dispone
disposa
disposas
disputa
disputada
disputas
distante
distantes
distantia
distantias
distinguable
distingue
distingui
distinguida
distinguinte
distinguis
distrae
distribui
distribuida
distribuor
district
distrito
distritos
disturba
disturbada
disturbas
dit
diterrane
dition
ditions
dito
diton
ditones
ditos
ditt
div
diva
divas
diverje
diverjente
diversa
diversi
diversia
diversida
diverti
divertinte
divertis
dividable
divide
divideda
dividente
divides
divin
divina
divinas
divines
divinia
divorsa
divorsada
dj
djava
djibuti
djini
djinis
dju
dm
dnepr
dniester
dnistr
do
doctor
documenti
documentida
documento
documentos
dodgson
does
dog
dogma
dogmas
dogs
doi
dokuchaev
dolar
dolares
dole
dolente
doles
dolmen
dolmenes
dolor
dolosa
dom
doma
domada
doman
domenico
domina
dominada
dominante
dominas
domingo
dominica
dominican
dominio
dominique
dominos
domitiano
domo
don
dona
donada
donadas
donald
donante
donar
donas
donatello
donato
donce
donets
doni
donn
donor
doon
dopamina
dormi
dorminte
dorothea
dorsa
dorsal
dorso
dorsos
dos
dote
dothraki
dotor
dotoral
dotores
dotrina
douglas
down
doyle
dr
dragon
dragones
drake
drama
dramal
dramas
dramatosa
dramiste
dramosa
dravidian
dravidianes
dream
drebber
drena
dreni
dresden
drink
droga
drogas
druid
druidas
drunk
du
dua
dual
dualisme
duava
dublin
duc
dudes
due
duel
duero
dug
dui
duis
duisore
duke
duklja
dulse
dum
dumas
dume
dun
duna
dunas
duneta
duneto
duo
duodeno
duple
duples
dupli
duplida
dur
dura
durante
durida
duta
dutable
dutada
dutas
duto
dutos
dux
duxal
duxanbe
duxe
duxesa
duxia
dx
dy
dyck
dylan
dz
dzap
dzi
dzo
dzongca
dɔ
də
dʒ
e
ea
eaa
early
earth
east
eastern
eat
eaten
eb
ebo
ebro
ec
ecclesia
ecidna
ecidnas
ecinodermatos
ecipo
ecipos
eckert
eclesiaste
eclises
eco
ecoloca
ecolojia
ecolojial
econo
economia
economial
economias
economic
economica
economical
economiste
economistes
ecosistem
ecosistemes
ectares
ecuador
ecuator
ecuatoral
ecuilibra
ecuilibrada
ecuilibria
ecuinote
ecuinotes
ecuo
ed
eda
edad
edas
edda
eddas
eddy
ede
eden
edgar
edicio
edicions
edinburgh
edipo
edison
edita
editada
editador
editas
edition
editor
editores
editorial
edmonton
edmund
edo
edonisme
edoniste
eds
edu
eduard
eduardo
educa
educada
educal
education
educational
edward
edwin
ee
efate
efemera
efemeras
efeta
efeto
efetos
efetosa
efetosia
eforta
efortas
efv
egal
egales
egali
egalia
egalis
egalisme
egaliste
egipsianes
egipte
egiptian
egiptianes
eglesa
eglesal
eglesas
egleseta
eglesia
eglesor
eglesores
ego
egoisme
egoiste
eh
ei
eiac
eiffel
ein
eine
einer
einstein
ej
ejean
ejemonia
ejeo
ejeta
ejetada
ek
eko
ekwo
el
ela
elam
elas
elativa
elbe
ele
elea
electric
elefa
elefante
elefantes
elefantin
elefanto
elefen
elefeniste
elejable
elejal
eleje
elejeda
elejente
elejes
elemento
elementos
elena
elenica
eleniste
eletrica
eletrical
eletromagnetal
eletron
eletrones
eletronica
eletronical
eleusis
eleva
elevada
elfica
elfo
elfos
eli
eliade
elias
elica
elicotor
elidi
eliezer
elimina
eliminada
eliminante
elinica
elinicas
eliniste
elio
eliot
elisabeth
elise
elite
elites
elitisme
elizabetan
elizabeth
ella
ellen
ellesmere
ellice
elmo
elmos
elo
elohim
elp
els
elsevier
em
emanuel
embarasante
embrio
embutin
emergo
emerje
emerjente
emerji
emerjinte
emete
emeteda
emetes
emi
emil
emile
emiliano
emilio
emion
emisfera
emisferas
emisfero
emma
emmanuel
emmanuele
emoglobina
emosia
emosial
emosias
empire
empirical
empiricalisme
emplea
empleada
empleadas
empleas
empleor
emporta
emportada
emprende
empresta
emprestada
emprestas
emu
en
ena
enamada
enata
encanta
encantada
encantante
encantas
encarga
encargada
enciclope
enclave
enclaves
enclui
encluida
encontra
encontras
encyclopedia
end
endemica
endocrin
endoreica
ene
enea
eneas
enebriada
eneida
enemi
enemia
enemin
enemis
enerjia
enerjiosa
enero
enets
enfances
enfantal
enfante
enfantes
enfantia
enfantin
enferno
enflue
enflues
enforsa
enforsada
eng
engana
engels
engl
england
engles
engleses
english
engoli
engrana
engranada
eniac
enigma
enlinia
enne
enoch
enorme
enrico
enrola
enrolada
enrolas
ens
enscrive
enscriveda
enscrives
ensende
ensendeda
ensenia
enseniada
ensenias
ensenior
enseniores
ensiclopedia
ensinta
ensirca
ensircada
ensircante
ensircas
ent
entera
enterada
enteras
entero
enteros
entra
entrada
entrante
entre
entretempo
entretexeda
envelopa
envia
enviada
environment
envolve
envolveda
envolvente
enzimas
enzimolojia
eo
eolo
eon
eosene
epatica
epaticas
epi
epic
epica
epicas
epictetus
epicuristes
epicuro
epicurus
epidemica
epidemicas
epiderma
epilesia
epiro
episodio
episodios
epistemolojia
epistola
epiteto
epitetos
epoca
eposta
equus
er
era
eraldia
eraldial
erante
eras
erasmo
erasmus
erba
erbas
erbivor
erbivores
ere
erectus
eremiteria
eres
erese
eresia
eresias
ergane
ergativa
ergo
eri
eria
eric
erich
erie
erije
erijeda
erik
eril
eris
eriso
erisos
erita
eritable
eritada
erital
eritema
eritor
eritores
eritrea
erlitou
ernest
ernst
erode
erodeda
eroe
eroes
eroin
eros
erotica
ertebolle
ertra
erudita
eruditas
eruditia
eruta
erutas
erđ
es
esa
esagon
esagones
esaia
esaias
esajera
esajerada
esajiste
esajo
esajos
esamina
esaminada
esaminas
esata
esatia
escava
escavada
escavas
esce
escilo
esclama
esclamante
esclamas
esclave
esclui
escluida
escluinte
escorial
escrete
escusa
escuta
escutor
escutores
ese
esecuta
esecutada
esecutante
esecutor
esede
esedente
esele
eselente
eselentia
esempli
esemplida
esemplo
esemplos
esensal
esense
esente
esentes
eserse
eserseda
esesente
eseta
esetante
esetas
eseva
esflue
esi
esia
esibi
esibida
esije
esijeda
esijente
esijes
esistal
esiste
esistente
esistentialisme
esistentialiste
esita
esodo
esofagal
esofago
esopo
espan
espande
espania
espaniol
espanioles
espasa
espera
esperante
esperantiste
esperantistes
esperanto
esperas
esperi
esperia
esperiada
esperias
esperimenta
esperimental
esperimentas
esperimente
esperimentes
esperiosa
esperta
espertas
espeta
espetada
espetante
espetas
espia
esplica
esplicada
esplicante
esplicas
esplode
esplodente
esplodentes
esplora
esplorada
esploror
esplorores
esplota
esplotada
esplotante
esporta
esportada
esportas
esportor
esposa
esposada
espresa
espresada
espresas
espreseda
espulsa
espulsada
essai
essais
essays
esse
esser
essex
est
esta
establida
estado
estas
estate
estates
este
esteban
estende
estendeda
estendente
estendes
estendosa
ester
esterna
esternas
estetica
estetical
esti
estima
estimacio
estimada
estimas
estingui
estinguida
estinguis
estis
estmi
esto
estra
estracomun
estrae
estraeda
estraedas
estrasolal
estrateran
estravagante
estrema
estremadura
estremaduran
estremas
estremisme
estremiste
estremistes
estu
estuario
estuarios
estudiantes
estudio
estudios
esuan
et
eta
etc
eter
eterna
eternia
ethnologue
etica
etical
eticeta
eticetas
etimolojia
etimolojial
etiopia
etnica
etnical
etnicas
etnicia
etnico
etnicos
etnojenese
etruria
etrusca
etruscas
etɔ
eu
eubalaena
eucalipto
eucariota
eucariotal
eucariotas
eucaristia
euclidal
euclide
eudiptes
eue
eufonia
eufrates
euge
eugen
eugene
eujenetica
eulalia
eunucos
eurasia
eurasian
euripide
euro
eurobaro
euromed
europa
europe
european
europeanes
eurostat
eurozona
euscadi
euscaleria
euscara
euscaras
eusebio
eustatius
eux
ev
eva
evade
evalua
evanjelial
evanjelio
evanjelios
evans
eve
even
evenci
ever
everest
every
evi
evidence
evidente
evidentes
evidentia
evita
evitante
evo
evoca
evola
evolual
evolui
evoluida
evoluinte
evos
ewo
ex
exadesimal
exagon
express
exupe
ey
eye
ez
ezidis
ezra
f
fa
fabius
fable
fables
fabrica
fabricada
fabricadas
fabricas
fabriceria
fabricerias
fabricor
fabricores
facebook
facila
facts
fada
fago
fairy
faisal
faith
fala
falange
falasia
falasias
falcon
falcones
falda
faldas
faldeta
faldetas
falesas
fali
falida
falinte
falion
faliones
falis
falkland
fall
fallen
falsa
falsi
falsida
falxetin
fama
fame
fami
famia
familia
familial
familiar
familias
family
famion
famiones
famosa
fanes
fango
fangosa
fanoron
fantasia
fantasin
fantasma
fantasmas
fante
far
faraon
faraones
farina
farinjal
farinje
farmacolojia
faro
faroisce
farsi
fas
fasa
fasada
fasante
fase
fases
fasianes
fasil
fasili
fasilia
faso
fat
fatal
father
fatianovo
fatiga
fatigada
fatima
fato
fator
fatores
fatos
faust
fava
favas
favorable
favore
favoreda
favorente
favorida
faxisme
faxiste
faxistes
faxon
faxos
fayard
fe
fea
febre
febrero
february
feces
fechner
feci
federa
federada
federal
federalismo
federas
federico
fehe
fein
felidos
felipe
felis
felisia
felix
fellow
fem
fema
femal
femas
femes
femin
femina
femisme
femiste
femistes
fende
fendeda
fenetra
fenetras
fenian
fenisia
fenisian
fenisianes
fenisias
fenix
feno
fenomenal
fenomeno
fenomenolojia
fenomenolojial
fenomenos
fenrir
ferdinand
fergus
ferguson
feri
feria
ferida
feris
fermat
fermenta
fermentada
fermentante
fermento
fermentos
ferna
fernando
fero
ferosa
ferose
ferovia
ferovial
ferovias
ferrier
ferry
fers
fertil
fertili
fertilia
fertilintes
fes
festa
festas
festival
fesur
fesures
fetal
feto
fetones
feudal
feudalisme
feudo
feudos
ffel
fi
fia
fial
fianna
fias
fibre
fibres
fibromialjia
fibrosa
ficas
fichte
fico
fictional
fida
fidable
fidante
fide
fidel
fidosa
fidusial
fie
fies
fiesta
figato
figur
figuras
figures
fiji
filastin
filastini
file
filetas
fili
filipe
filipinas
filipo
filippo
filises
filma
filmas
filo
filolojia
filolojiste
filos
filosofia
filosofial
filosofias
filosofiste
filosofistes
filtri
fin
final
finansia
finansiada
finansial
find
fine
fini
finica
finida
fininte
finis
finita
finje
finjente
finland
fino
fio
fionn
fiordos
fiorentin
fios
fire
firenze
firma
firmament
first
fisa
fisada
fisador
fisadores
fisahn
fischer
fish
fisher
fisica
fisical
fisiciste
fisicistes
fisiolojia
fisiolojial
fisiolojiste
fitocimica
five
fix
fixes
fl
flajelatas
flajeli
flajelo
flajelos
flama
flamas
flames
flandre
flapper
flapperes
flauta
flautas
flavio
fletcher
fleur
flexa
flexable
flexas
flexione
flight
flocos
flojisto
flor
flora
floral
florence
flores
flori
florida
florinte
flota
flotante
flotila
floyd
flue
fluente
fly
fm
fo
fobia
fobias
foca
focada
focas
foco
focon
focones
focos
focosa
foias
fol
fola
folas
folclor
folcloral
foles
folia
folias
folin
folk
folkspraak
fon
fonda
fonde
fondeda
fondo
fondos
fonem
fonemal
fonemes
fonemica
fonetica
fonetical
fong
fonograf
fonolojia
fonolojial
fonotatica
fontaine
fonte
fontes
food
foot
for
fora
foraje
foras
force
forces
ford
fore
foreda
forest
foresta
forestas
forestosa
forja
forjada
forjores
form
forma
formacio
formada
formal
formali
formas
formation
formi
formica
formicas
formicores
formida
forminte
formosa
formosan
formula
formulada
formulas
forni
fornida
forno
foro
forsa
forsada
forsante
forsas
forsyte
fort
forte
fortes
forti
fortia
fortias
fortida
fortis
fortres
fortreses
fortuna
fortunas
fortuno
fortunosa
forum
fosena
fosenas
fosfato
fosfor
fosil
fosiles
fosilida
foso
fosos
foto
fotografi
fotografia
fotografial
fotografiste
fotones
fotos
fotosintese
foucault
found
foundation
four
fox
fr
fra
frac
frajil
fraktur
franc
franca
francas
france
frances
francesc
francesca
francesco
francese
francia
franciae
francis
francisco
francisme
franco
francofonia
francos
franjes
frank
franka
frankfurt
frankl
franklin
frans
franses
fransesco
franseses
fransiscan
fransisco
franz
frase
frases
fratal
fratas
frate
fratercula
fraterculas
frateria
frates
frati
fratia
fratida
frato
fratos
fre
frecuente
frecuentia
frecuentias
freda
frederic
frederick
free
freeling
freeman
freetown
frei
freia
french
frenkisch
frente
fresca
fresco
frescos
fresno
freta
fretante
freud
freudenthal
freudian
fri
fria
frica
fricante
fricantes
friedman
friedrich
frigg
frigian
frisce
frisces
frisia
frisland
fritada
froda
from
fromm
frontal
fronte
frontera
fronteras
frontes
fronti
frontinte
frota
frustra
frustrada
fruta
frutas
fryslan
ft
fu
fuca
fueros
fuji
fujikawa
fujinte
fulani
fuma
fumas
fumi
fumida
funan
funda
fundada
fundal
fundalisme
fundaliste
fundalistes
fundas
fundi
fundida
fundinte
fundor
fundores
funera
funeral
funeras
fungo
fungos
funsion
funsiona
funsional
funsionalisme
funsionas
funsiones
fura
furada
furia
furiosa
furlan
furni
furnida
furninte
furnis
furnor
furor
fusa
fusada
fusante
fusiles
fusili
futbal
futbol
futil
futuna
futur
future
g
ga
gaba
gabon
gabriel
gabriela
gabriele
gado
gaeta
gaia
gailica
gaio
gaius
gajdusek
gal
galapagos
galasia
galasial
galasias
galaxia
galbijim
galega
galego
galen
galeno
galeria
gales
galfridus
galia
galian
galilea
galilei
galileo
galisia
galisian
gallico
gallimard
gallo
galo
galos
galton
gama
gamas
gamba
gambas
gambia
game
games
gametas
gametica
gan
gana
gandhi
ganga
ganges
ganglios
gania
ganiada
ganiante
ganior
ganso
gansos
gansu
gao
garantia
garas
garc
garci
garcia
gard
garda
gardada
gardner
gardor
gardores
garga
garibaldi
garifuna
garin
garlandas
garnier
garnison
garo
garray
garry
garuda
gas
gases
gasosa
gaston
gastrointestinal
gates
gato
gatos
gaulle
gauss
gave
gavias
gaxa
gaxas
gay
gaz
gaza
gazebo
gbe
gbɔ
ge
geese
gemaak
gemeinschaft
gene
general
generalitat
genesis
genetics
genev
geneva
geneve
genoa
genou
genoux
genova
genoves
gens
gente
geo
geoffrey
geografi
georg
george
georges
georgia
gera
gerais
geral
gerante
gerard
geras
gerd
gerilias
germanes
germania
germanica
germanicas
germany
geror
gerores
gerosa
gervasoni
gerðr
ges
gesellschaft
gesta
gestalt
gestaltes
geste
get
geto
getos
gh
ghirlandaio
gi
giacomo
gibbon
gibran
gibson
gica
gida
gidada
gidante
gidas
gidor
gidores
gilbert
gildas
giles
gilman
gimbutas
gime
gimnospermas
gina
gincos
gine
giorgio
giovanni
giovinezza
girart
girl
girls
girona
gitar
giuseppe
given
glagolitica
gland
glande
glandes
glasa
glasi
glasia
glasial
glasias
glifo
glifos
glisa
global
globali
globalisme
globin
globo
gloria
gloriosa
glosa
glot
glotal
glu
glucosa
gluteos
gm
gnostica
gnosticisme
go
goa
gobi
gocturces
god
goddard
godefroi
godiva
gods
goethe
gogh
goia
goidelica
goig
going
gol
goldstein
goles
golf
golfo
golfos
golson
gombo
gon
gonduana
gonza
gonzalo
good
google
goose
gora
gorbatxov
gordon
gore
gorila
gorilas
gormaz
goryeo
got
gota
gotas
gotha
gotica
goto
gotos
gott
gottfried
gottingen
gov
governa
governada
governal
governante
governas
government
governor
governores
governoria
gozo
gp
grad
gradal
gradi
gradida
grado
grados
gradua
graduada
graduadas
graecia
grafica
grafical
grafiti
grafito
graham
grama
gramatica
gramatical
gramaticas
grames
grammaire
grammar
gran
granada
grand
granda
grande
grandes
grandfather
grandi
grandia
grandias
grandida
granes
graniza
granos
grant
gras
grasia
grasias
grasiosa
grava
gravada
grave
gravetian
gravita
gravital
gray
great
greci
greco
greda
greece
greek
green
gregorian
gregorio
gregory
gregson
gren
grenada
grenadines
greuges
greve
grid
grilia
grimm
gripe
gris
groningen
gronland
gronlandes
gros
grosso
ground
group
grouping
grove
gru
grupi
grupida
grupo
grupos
gu
gua
guadalajara
guadelupe
guam
guangdong
guangzhou
guanina
guanyin
guarani
guatemala
guatemalteca
gudrun
guez
guglielmo
gui
guian
guiana
guide
guido
guillain
guillaume
gulf
gunpo
guo
guosa
gupta
guptan
gurmuci
guru
gusta
gustas
gustav
gustavo
gutenberg
gw
gwangyang
gyeonggi
gylfaginning
gymreig
h
ha
haag
haarlem
haarlemmermeer
habe
habla
hablantes
habsburg
had
hade
hades
hadriano
hadza
hae
haenir
haga
hagania
hai
haiastan
haicu
haida
haieren
haifa
hainan
halatafl
halewijn
hall
halle
hallstatt
halma
hamangia
hamburg
hamilton
hamlet
hampshire
han
hana
hand
hanes
hangul
hania
hanias
hannibal
hanoi
hans
hansa
haos
har
harald
harappa
harappan
harbour
hard
hare
harold
harper
harris
harrison
harry
harvard
harvey
has
hasan
hasmonean
hasta
hastings
hattusa
hausa
havannah
have
haven
havi
hawai
hawaii
haws
hay
hayu
hazar
hazard
hazares
he
head
heart
heath
heaven
hebb
hebrides
hector
hecuba
hefesto
hegel
heidegger
heimdall
heimskringla
hein
heinrich
hel
helena
helgi
helmholtz
heloise
helsinki
hem
hemel
hemingway
hen
henan
henderson
henri
henrico
henry
her
hera
heracles
heraclito
herbert
hercule
hercules
herder
heritage
herman
hermann
hermes
herna
hero
herodoto
heroi
heroine
hersegovina
hervarar
herzl
hesiodo
hesse
hestia
het
hewlett
hex
heyerdahl
hi
hibou
hibris
hic
hidalgo
hidatsa
hide
hifas
high
hildegard
hill
hillel
hills
hillsboro
hilversum
him
himalaia
himalaias
hindi
hindu
hiparco
hipocrate
hipon
hiragana
hiroshima
his
hispania
hispano
hispanos
histo
histoire
histoires
historia
historical
histories
history
hit
hitita
hititas
hitler
hms
hnefatafl
ho
hobbes
hobbit
hobites
hoc
hocan
hoci
hodie
hogben
hoi
hojin
holbein
holger
holland
hollandes
hollywood
holmes
holstein
home
homer
homeral
homero
homes
hominidos
homme
hommes
homo
hon
hong
hongkong
honorio
hoo
hood
hooke
hope
hopewell
hopi
hopis
hopkins
horatio
horney
horses
hospital
hot
house
how
howard
hoy
hp
htm
html
http
https
hu
hua
huang
hubble
hubilai
hudson
huerta
hugh
hugo
hugues
hui
huis
hull
human
humanitas
hume
hun
hunes
hunspell
hunt
hunter
hurt
hus
husserl
hutchins
huxley
huy
hw
hyde
hyva
i
ia
iaga
iaman
iamna
ian
iason
iata
iau
iaue
iberia
iberian
iberianes
ibero
ibm
ibn
ibride
ic
ica
icao
ich
icon
icones
iconin
id
ida
idaho
ide
idea
ideal
ideales
idealida
idealisme
idealiste
ideas
identia
identias
identica
identical
identifia
identifiada
ideolojia
ideolojial
ideolojias
ides
idiom
idiomal
ido
idoles
idroeletrical
idrografial
idrojen
idromel
idrosfera
idrosido
ie
iena
ienas
ienesei
ienisei
ieniseian
ier
ierarcia
ierarcial
ierarcias
ieroglifal
ieroglifos
ieruxalim
ies
iexu
iexua
if
ifen
ifenes
ig
igbo
ignacio
igor
ii
iii
ijenia
ijo
ik
ike
iku
il
ila
ilativa
ile
ilex
ili
iliada
ilial
iliria
ilirian
ilirianes
ill
illa
ille
illes
illinois
illo
ilmarinen
ilo
ilude
im
ima
image
imaje
imajes
imaji
imajida
imajina
imajinada
imajinal
imajinas
imam
imbolc
imita
imitada
immanuel
imno
imnos
imobila
imobilas
impe
impedi
impedida
impedinte
imperal
imperalisme
imperativa
imperial
imperii
imperio
imperium
impero
imperor
imperores
imperoresa
imperos
implica
implicada
implicas
importa
importada
importante
importantes
imposa
imposta
impostas
impresa
impresada
impresante
impresas
impulsa
impulsas
imunal
imune
imunia
imunial
imunodebilia
imunolojia
in
ina
inata
inc
inca
incarne
incas
incheon
incl
inclina
inclinada
inclinas
inclui
incluida
incluinte
incoativa
incorpora
incorporada
incuba
incuisisio
index
indi
india
indian
indiana
indianes
indias
indica
indicada
indicante
indicantes
indicas
indicativa
indise
individua
individual
individuas
individuisme
indo
indoeuropean
indoeuropeanes
indogermanisches
indoiranian
indoiranianes
indonesia
indonesian
indoxina
indra
indu
indui
induida
induisme
induiste
induistes
indus
industri
industria
industrial
industrias
industrida
ine
inen
inerente
inesiva
infantria
infarta
inferior
inferioria
inferno
infeta
infetada
infetante
infetas
infetosa
infiltra
infinita
infinitia
infinitiva
infinitivas
infinitivo
infinitivos
infla
inflama
inflamada
inflamante
infleta
infletada
infletante
infletas
influe
influeda
influente
influes
influi
influida
influis
influosa
info
informa
informada
informas
informatica
information
infra
infraclase
infraordina
infrastrutur
ing
ingersoll
ingle
inglish
ingrediente
ingredientes
ingux
ini
inibi
inibinte
iniora
iniorada
iniorante
inisia
inisiada
inisial
inisiales
injenia
injenior
injeta
inn
inonda
inondada
inondante
inondas
inosente
inova
inovas
inovosa
inserta
insertada
insetas
insetisides
insetivor
insetivores
inseto
insetos
insiste
insistente
inspira
inspirada
instala
instalada
instinto
instintos
instintosa
institui
instituida
instituidas
instituinte
instituis
institut
institute
instituto
instrui
instruida
instruinte
instruis
instruor
instruores
insula
insulin
insulta
insultada
insultas
int
intal
intata
inte
integra
integrada
integral
intel
inteletal
inteletalisme
inteleto
inteletos
inteletosa
inteletosas
intelijente
intelijentia
intende
intendeda
intendente
intendes
intensa
intensi
intensia
inter
intera
interata
interatante
interatas
intercambia
intercambiable
intercambiada
intercambias
intercampal
intercomprendable
intere
interede
interelata
interesa
interesada
interesante
interesas
interese
intereses
interfas
interfere
interglasial
interglossa
intergovernal
interior
interliada
interlingua
interna
internal
internas
internasional
internasionalisme
international
internationale
internet
interoga
interompe
interompeda
interpersonal
interpreta
interpretada
interpretador
interprete
interpreteda
interpretes
interregional
interslavica
intersposi
interstatal
interstelal
interstisial
interurban
interval
intervales
interveni
interveninte
intervisa
intestin
intestines
intima
into
intravenal
introduction
introdui
introduida
introduinte
introspeta
intrui
intui
intuis
inuit
inuites
inuktitut
invade
invadeda
invadente
invades
invadores
invasion
inventa
inventada
inventas
inventor
inventores
inventosa
invernal
invernerial
inverni
inverno
invernos
inversa
inversada
investi
investiga
investigada
investigas
investigores
investis
investor
investores
invia
invictus
invita
invitada
io
ioga
iogurte
iom
ion
iones
ionia
ionian
ionio
ioruba
iowa
ipa
ipnose
ipo
ipopotamo
ipopotamos
ipotenusa
ipotesa
ipotesal
ipotese
ipoteses
ipsum
iqbal
ir
ira
irac
iraci
iran
irani
iranian
iranianes
iranica
ireland
iriga
iris
irish
irita
iritada
iritante
irocuoi
iron
ironiosa
iru
is
isa
isaac
isabel
isabella
isaia
isbn
ise
isis
iskandariya
islam
islamiste
island
islands
islansce
islas
isme
isn
iso
isola
isolada
isolal
isolante
isolas
isoletas
isoli
isolida
isolinte
isotopo
isotopos
ispaniola
israel
israeli
israelis
ist
ista
istamina
istanbul
iste
isteria
istmo
isto
istolojia
istoria
istorial
istorias
istoriografia
istoriografial
istoriste
istoristes
it
ita
italia
italian
italiana
italianes
italiano
italica
italicas
italo
italy
iti
itiopia
itiopian
its
itta
itu
iu
iuan
iucagir
iuci
iudea
iuderia
iuderias
iudi
iudis
iudisme
iudiste
iudistes
iugoslavia
iugoslavian
iul
iuman
iv
iva
ivan
ivor
ivri
ivris
ix
iyo
iz
j
ja
jaca
jacas
jaceta
jack
jackson
jacob
jacobo
jacon
jacques
jah
jai
jain
jaines
jainisme
jaipur
jak
jakob
jala
jalin
jam
jamaica
james
jamestown
jan
jane
janeiro
janero
janet
jani
jano
january
japan
japanes
japonica
jardin
jardines
jarl
jarles
jaroslav
jaume
java
jay
jaz
jazair
jazairi
je
jean
jeanne
jedi
jedis
jefferson
jeffrey
jehova
jeju
jela
jelada
jelo
jelosa
jelosia
jemelo
jemelos
jen
jena
jenas
jendeh
jenealojia
jenera
jenerada
jeneral
jenerales
jenerali
jenerante
jeneras
jenero
jeneros
jenerosa
jenerosia
jenes
jenese
jenetica
jenetical
jenetiva
jenio
jenita
jenitales
jenitiva
jenitor
jenitores
jeno
jenoa
jenom
jenomes
jenos
jenoside
jenoveva
jentil
jeografia
jeografial
jeografiste
jeolojia
jeolojial
jeometria
jeometrial
jeopolitica
jeopolitical
jeremia
jeremy
jergo
jeronimo
jersey
jersi
jerundio
jerundios
jerusalem
jes
jeso
jespersen
jesta
jesti
jesu
jesuita
jesuitas
jesus
jeta
jeu
jewish
jezik
ji
jia
jiang
jiba
jibraltar
jigante
jigantes
jime
jin
jing
jinhae
jini
jinjer
jira
jirafa
jirante
jo
joachim
joalas
joan
joana
job
joe
johan
johann
johannes
john
johns
johnson
joia
joints
joiosa
jon
jonathan
jones
jonguo
jord
jordi
jorge
jorj
jorjia
jorjio
jornal
jornales
jornalisme
jornaliste
jornalistes
jose
josef
josep
joseph
josia
jotun
jotunes
joujou
joukahainen
journal
jovedi
joven
jovenes
jovenia
joxua
jpg
jr
jt
ju
jua
juada
juan
juante
juas
jubila
juda
judal
judas
judea
juderia
judi
judida
judinte
judis
judita
judor
judores
juegos
jueta
juetas
jul
julia
julian
julieta
julio
julius
july
jumis
juna
june
jung
jungla
junglas
junio
juniper
juniperes
juno
junta
juntada
juntante
juntas
juor
juores
jupiter
jura
juras
jurasica
jus
just
justa
justi
justia
justinian
justiniano
jutland
jy
k
ka
kabul
kafka
kah
kai
kainos
kaj
kakae
kal
kalama
kalevala
kali
kalinga
kam
kama
kampf
kan
kanji
kansas
kant
kapralov
kaqchikel
kara
karamazov
karanovo
kare
karel
karen
karl
karno
kasi
kasparov
kata
kate
katharina
kawasaki
kay
kazakh
ke
kel
kelly
ken
kena
keninkryk
kennedy
kenneth
kent
kepeken
kepler
kere
ket
kevin
kg
kh
khan
khare
khata
khayyam
khwarizmi
ki
kiel
kierkegaard
kil
kili
kilimanjaro
kilo
kim
king
kingdom
kini
kipling
kiribati
kisi
kissinger
kitab
kitts
kk
kl
klatawa
klein
klemperer
klingon
klu
klush
km
knife
know
known
ko
kobenhavn
koestler
koffka
kohler
koln
kolpen
kom
komme
komo
kon
kong
kongemose
kongzi
konrad
kore
koror
koros
korsakov
kotava
kotor
kpg
kr
kre
kriegspiel
ks
kte
ku
kubla
kucinich
kuhn
kukum
kullervo
kun
kuna
kupa
kura
kurow
kurt
kuwamo
kv
kvarner
kw
kwe
ky
kyi
kɔ
kɔdzo
kɔkɔ
kɔsi
l
la
laat
labial
labio
labios
labirinto
labor
labora
laborante
laboras
laboreria
laborerias
laboro
laboror
laborores
laborosa
labrador
labs
lacota
lacotas
ladal
ladin
ladino
lado
lados
lady
lagetas
lago
lagon
lagones
lagos
lai
laima
lait
laita
lake
lakota
lakshmi
lam
lama
lamaria
lamas
lambeth
lamenta
lamina
laminas
lampa
lampas
lampo
lana
lancaster
lancelot
land
lane
langdon
langobarda
langobardas
langosto
language
languages
langue
langues
lanosa
lansa
lansada
lansas
lansia
lansias
laozi
lape
lapis
lardo
larga
largi
largia
larinjal
larinjales
larinje
larix
larmas
larva
larvas
las
lasa
lasada
lasante
laser
lasera
lasker
last
late
later
latgalian
latin
latina
latinas
latinesce
latino
latio
latitude
latitudes
latium
latvia
latvisce
lau
lauda
laura
laural
laurasia
laurens
laurent
laurentia
lauro
laurusia
lava
lavinia
lavoisier
law
lawrence
laxe
lay
laz
lazio
lbk
le
leabhar
lear
leau
leca
led
lee
left
lega
legal
legali
legalia
legalida
legalisme
lege
legends
legeria
legerias
leges
legi
leginte
legiste
lego
legumes
leibniz
leiden
leif
leinster
leipzig
lejador
leje
lejeda
lejenda
lejendal
lejendas
lejendes
lejente
lejera
lejeri
lejeria
lejes
lejiones
lejor
lejores
lemminka
lemur
len
lena
lenape
lenapes
lengua
lenguas
lenin
leniniste
lenio
lenios
leniosa
lent
lenta
lente
lentes
lenti
lentiles
leo
leon
leona
leonard
leonardo
leones
leopardi
leopardo
leopold
leopoldo
lepido
lepre
lepres
leprosia
les
leson
lesones
lesonor
lessing
lestrade
let
lete
letera
leteral
leteras
leteratur
leteratural
leteratures
letin
leto
letos
letras
lettres
leucemia
leucipo
lev
leva
levada
levante
levas
levi
levy
lewis
lex
lexemes
leyba
lez
lezardo
lezardos
lfn
lhasa
li
lia
liada
liaison
liante
liao
lias
libelulas
liber
libera
liberal
liberia
libi
libia
libian
libral
libralisme
libraliste
libralistes
library
libre
libreria
libreta
libri
libria
librias
librida
libro
libros
lica
lictenstain
licuida
licuidas
liddell
lidia
lie
lietuva
lietuvisce
life
liga
ligamentos
light
lightning
ligure
liguria
like
lil
lili
lilit
lima
limb
limburgan
limes
limfa
limfal
limfosite
limfosites
limina
limita
limitada
limitas
limited
limon
limpa
limpi
lincoln
lincos
linga
lingu
lingua
linguag
linguaje
lingual
linguas
lingue
linguiste
linguistes
linguistic
linguistica
linguistical
linguistics
linguo
lingwa
linia
linial
linias
lino
linux
lipidos
lippi
lira
lirica
lis
lisa
lisboa
lisbon
lisca
liscante
liscas
liscor
liscores
lisensa
liseo
liseos
list
lista
listada
listas
lit
literary
literatura
literature
literaturii
litha
litiga
litosfera
litres
little
liturjia
liturjial
liturjias
liu
liv
live
liverpool
living
livio
livonia
livre
livy
lix
ll
lla
llengua
ller
llibre
llingua
lloyd
lluis
llull
ln
lo
lobo
lobos
lobotomia
lobotomias
loc
loca
locada
local
localida
locas
locativa
locida
locke
loco
locustas
loda
lodable
lodada
lodas
loeb
logaritmos
loglan
logo
logogrames
logos
loi
loire
lojban
lojica
lojical
loki
lolo
lombal
lombard
lombardia
lome
lon
lona
london
long
longa
longas
longe
longi
longia
longias
longida
longo
lonjitude
lonjitudes
lope
lorca
lord
lorem
lorenzo
lorin
loro
lorraine
los
lost
louhi
louis
louisiana
loukotka
louverture
louvre
love
lovi
lovo
lower
ltd
lti
ltskog
lu
lua
lubeck
lublin
lubnan
lubnani
luca
lucas
luce
lucio
lucretio
lucy
ludovico
ludwig
ludwik
luer
lug
lugh
lui
luis
luisa
luka
lumina
luminada
luminosa
luna
lunal
lunas
lunasa
lundi
lunlotra
lupo
lupos
lupulo
lupus
lus
lusaka
lusia
lusio
lusitania
luso
lusosa
luta
lutada
lutante
lutas
luteran
luteranisme
luther
luto
lutra
lutras
lutwidge
luvian
luxemburg
luy
luzon
lvaro
ly
lyell
lyngstad
lyon
m
ma
maa
mac
maca
macaroni
macau
macbeth
macdonald
macedon
macedonia
macedonian
macedonsce
macedonsces
machaut
machiavelli
machine
machines
macia
macina
macinal
macinas
macini
macintosh
macmillan
macro
macromoleculas
macron
madagascar
madagasicara
made
madison
madona
madral
madre
madres
madria
madrid
madrin
madryn
mae
mafia
maga
magallan
magazine
magdalena
magdalenian
magiar
magiares
magna
magnetal
magra
magrib
magyar
mahabharata
mahaiana
mahal
mahatma
mai
maia
maian
maias
maicop
maidu
main
maine
mainz
maio
maior
maiorca
mais
maison
maisonneuve
majel
majenta
majia
majial
majiosa
major
majoria
make
mal
malacusa
malada
maladas
maladia
maladias
malagasi
malaialam
malaian
malaio
malaisia
malaria
malaui
malcolm
malcomprende
malcomprendeda
maldise
maldises
maldives
male
malfamosa
malfortuna
malfunsiona
malgidante
mali
malia
malida
mallory
malo
malta
malthus
malti
maltrata
maltratada
malucu
malusa
malvole
malvolente
mam
mama
mamal
mamales
mamluc
mamluces
mamute
mamutes
man
mana
manada
manadas
manaje
manas
manati
manatis
manca
mancala
mancante
manchester
manco
mandaia
mandan
mandanes
mande
mandibula
mandibulas
mandinca
manding
mandju
mandjus
mandragora
mane
maneja
manejada
manejal
manejor
manera
maneras
manes
manga
mangas
mangean
manhattan
mani
mania
manica
manico
manicos
manila
manioca
manipula
manisme
maniste
manitoba
mann
mannheim
mano
manobra
manos
manoscrito
manoscritos
mansi
manteni
mantenida
manteninte
mantenor
mantra
mantua
manual
manuel
manxa
manxada
manxas
many
mao
maori
mapa
mapas
mar
mara
maral
maraton
marburg
marc
marca
marcada
marcante
marcas
marcelino
marcesa
march
marche
marci
marcia
marco
marcos
marcus
mare
marea
mareal
mareas
mares
marexal
margaret
margarita
mari
maria
mariana
marie
marija
marilyn
marin
marina
marinal
marinas
marino
marinor
marinores
mario
marion
marjinal
mark
marmara
marmo
maroc
maroco
marruecos
mars
marseille
marseilles
marshall
marsupial
marsupiales
marsupio
marte
martedi
martel
marten
martha
marti
martin
martinic
martino
martinus
martir
martiria
marto
marx
marxa
marxism
marxisme
marxiste
marxistes
mary
maryland
mas
masa
masacra
masacrada
masacras
masan
masas
masca
mascita
mascitas
mases
masia
masima
masimi
masin
masosa
masq
massachusett
massachusetts
mastosites
mata
matada
matante
matas
mate
matematica
matematical
matematiciste
matematicistes
matematiste
mateo
mater
materia
material
materiales
materialisme
materialiste
materias
mathe
mathematical
matina
matino
mato
mator
matrilinia
matrilinial
matris
matthew
matur
matura
maturi
maturia
mau
mauchly
maurian
maurice
mauris
maurya
max
maxada
maxentio
maxes
maxia
maximilian
may
mayflower
mayka
mayor
mayores
mayotte
mazama
mazda
mb
mbe
mccarthy
mcdonald
mcdougall
mcgill
me
mea
meadows
meaning
meca
mecanica
mecanical
mecanicas
mecanicisme
mecanicismes
mecanisme
mecca
mecklenburg
mecong
med
medalia
medb
medda
medea
medford
media
mediadia
mediaestate
medial
medianote
medias
medica
medical
medici
medicine
medicis
mediciste
medicistes
medieval
medina
medinaceli
medio
mediopasiva
medisin
medisinal
medisines
medita
meditas
mediteranean
mediteraneanisme
mediteraneo
mediterranean
mediterraneo
medjusloviansce
medula
medusa
meg
mega
megalital
megalitica
megalitos
megateros
mei
meie
mein
meiose
mek
mel
melaiu
melanesia
melanesian
melanin
melanoma
mele
melek
meli
melilla
melior
melodia
melodias
melon
melzi
membrana
membranas
membria
membro
membros
memori
memoria
memorial
memorias
men
mena
menandro
menasa
menasada
menasante
menasas
menchu
mendel
mendica
mendoza
mene
menelao
menestreles
meng
meno
menonitas
mensa
mensal
mensas
mense
menses
ment
menta
mental
mente
mentes
menti
mento
menu
menyo
mer
mera
mercatal
mercato
mercator
mercatores
mercatos
mercedes
mercurdi
mercurio
merita
meritada
meritante
merkel
meroitica
merovian
merovingian
mersenarios
mervelia
mervelias
merveliosa
mes
mesa
mesaje
mesajes
mesajor
mesma
mesmas
mesme
mesmer
mesoamerica
mesoamerican
mesohil
mesolitica
mesopotamia
mesopotamian
mesozoica
messina
mester
mestral
mestre
mestres
mesura
mesurable
mesurada
mesuras
met
metabolal
metaboli
metafisica
metafisical
metafor
metaforal
metafores
metal
metales
metalurjia
metano
meteorolojia
metodo
metodolojia
metodos
metral
metre
metres
metro
metropolitan
metta
metz
metzeltin
mexican
mexicano
mexico
mey
mez
mi
mia
miama
miami
mianmar
miastenia
miau
mica
micenan
michael
michel
michelangelo
michigan
micmac
micmaces
microbios
micronesia
microprosedador
microscopial
microscopio
microscopios
microsoft
microtelia
middle
mie
miel
mielin
migra
migrania
migrante
migrantes
migras
migrores
miguel
mihail
mike
mikhail
mil
mila
milan
milanes
milano
mile
milenia
milenias
milenio
milenios
miles
mileto
mili
milia
milias
milimetre
milio
milion
miliones
militar
militares
militari
militaria
militarisme
militia
mill
milla
miller
million
millo
millones
milton
milwaukee
min
mina
minada
minas
mind
mindanao
mine
mineral
minerales
minerva
minet
ming
mini
miniatur
minim
minima
minimal
minimi
ministreria
ministro
ministros
minneapolis
minnesota
mino
minoan
minoanes
minor
minoria
minorias
minus
minuto
minutos
mio
miosene
mipela
mira
miracle
miracles
miraclosa
miranda
mirandes
mircea
miror
mirorida
mis
misa
misca
miscada
miscadas
miscito
misenean
misera
miseria
mision
misiones
misionor
misionores
misre
misri
mississippi
missouri
misterio
misterios
misteriosa
mistica
misticisme
mistral
mit
mital
mitlayt
mito
mitocondrial
mitocondrios
mitolojia
mitolojial
mitolojias
mitos
mitose
mitra
mitraisme
mitraiste
mitsi
mixe
mm
mme
mo
mobilas
mocasines
mocox
mocxa
moda
modal
modas
mode
model
modeles
modeli
modelida
modera
moderada
modern
moderna
moderne
moderni
modernia
modernisme
modo
modos
modosa
modu
mofo
mofos
mogano
moi
moiada
moisme
moistes
moksha
moku
mol
molda
moldavia
moldi
moldida
moldova
mole
molecula
moleculal
moleculas
moleda
moli
molida
molie
moliere
molin
molina
molines
molini
molotov
molusco
moluscos
momento
momentos
mommsen
mon
mona
monaces
monaco
monal
monarca
monarcas
monarcia
monarcias
monarcisme
monarciste
moncal
monce
monceria
moncerias
monces
moncisme
monde
mondial
mondo
mone
mones
moneta
monetas
monglane
mongol
mongoles
mongolica
monisme
monitori
monmouth
mono
monolatrisme
monolingual
monologo
monopolio
monosilabal
monoteisme
monoteiste
monotrematos
monroe
monsones
monstrin
monstro
monstros
monta
montada
montaigne
montana
montania
montanial
montanias
montaniosa
monte
montenegro
montes
monticello
monton
montones
montreal
montserat
montur
montures
monument
monumental
monumento
monumentos
moon
moore
mor
mora
moral
morales
moralia
moravia
morde
mordes
more
morero
mores
morfem
morfeme
morfemes
morfolojia
morfolojial
morgan
mori
moria
morida
morinte
moris
mormon
mormones
mormonisme
mormoniste
mormonistes
moro
moroni
moros
moroz
morsa
morse
mortal
mortales
morte
mortero
mos
mosaica
mosambic
mosca
moscas
moscito
moscitos
moscow
moscva
mose
moses
most
mostra
mostrada
mostral
mostrante
mostrantes
mostras
mother
motif
motifes
motiva
motivada
motivas
motor
motores
motorwagen
mousterian
movable
movablia
move
moveda
movente
moves
moxe
mozarabis
mozart
mozi
mp
ms
mt
mte
mtv
mu
mucha
mucho
muco
mucosa
mugul
muhammad
muhammed
muisca
mules
muller
mulos
multa
multe
multes
multia
multicultural
multietnical
multilingual
multinasional
multipartital
multiple
multiples
multipli
multipliada
multiplida
multiselulal
multnomah
mun
munchen
munda
mundal
mundial
mundo
mundolinco
mundolingue
mundos
munich
municipal
munisipa
munisipal
munisipas
muntiaco
muntiacus
mur
mural
murcia
mures
muritania
muron
murones
murray
mursia
mus
musa
musarania
musaranin
muscles
muscocean
musculal
musculo
musculos
musculosa
muse
museo
museos
muses
museum
music
musica
musical
musiciste
musicistes
muslim
muslimes
mussolini
must
mustela
mustelidos
muta
mutada
mutaformi
mutas
mute
mutua
mutual
my
myers
mythologie
mɔ
n
na
nabatea
nacional
nada
nadsat
nadu
nah
nahali
nai
nairobi
naive
nam
nama
name
namib
namibia
nan
nana
nanak
nanas
nanich
nanin
nanjing
nanna
nano
nanometres
nanos
nantes
nanteuil
napole
napoleon
napoli
nar
nara
narada
naradas
naral
naras
nareta
naretas
narita
naror
narva
narvales
nas
nasa
nasal
nasales
nasali
nasalida
nase
naseda
nasente
naser
nases
nash
nasion
nasional
nasionali
nasionalia
nasionalias
nasionalisme
nasionaliste
nasionalistes
nasiones
nassau
natal
nation
national
nationalism
nations
nativa
nativas
native
natur
natura
natural
naturalis
naturaliste
nature
natures
naturin
naturiste
nauatl
nauero
nausea
nauta
nautilos
navaho
navara
navarra
navas
navidad
naviga
navigable
navigor
nayka
nazarbayev
nazca
nazi
nazis
nazisme
nchen
nchez
nchi
ncia
nd
nde
nder
ndez
ne
nea
neandertal
neandertales
neanderthalensis
nebla
neblosa
nebraska
nebrija
nebulosa
nebulosas
nederland
nederlandes
nederlandeses
nefi
neg
nega
negada
negante
negas
negativa
negativas
negociante
negosia
negosias
negosiores
negra
neher
neill
neisser
nel
nelson
nelumbo
nematodo
nematodos
nen
nenets
neo
neoasirian
neoclasica
neolitica
neopaganisme
neoplatonisme
neoplatoniste
nepal
nepali
nero
neron
neruda
nerva
nerval
nervo
nervos
nes
nesesa
nesesada
nesesadas
nesesante
nesesas
nesese
nesesia
nestor
net
neta
netar
nete
netes
netflix
neto
netuno
network
neuchatel
neue
neumann
neural
neurolojia
neurolojial
neurolojiste
neuron
neuronal
neurones
neurose
neurosica
neurosiensa
neutra
neutral
neutri
neutria
neutron
neutrones
neva
nevada
never
neville
nevis
new
newfoundland
news
newspeak
newton
nez
ng
nga
nh
nha
ni
nia
niagara
niama
niasaland
nic
nica
nicaragua
niccolo
nice
nicea
nicholas
nico
nicola
nicolai
nicolas
nido
nidos
nie
niemeyer
niet
nietzsche
niflheim
night
nigra
nigsberg
nihil
nijer
nijeria
nik
nilo
nilon
nimboran
nimfas
nimo
nin
nio
nioci
nion
niones
niord
nipe
nire
nirvana
nitrato
nitratos
nitrojen
niue
niungan
nivel
niveles
nivhi
nix
nixon
nj
nja
nk
nke
nmr
nn
nnes
nnrot
no
noam
nobel
nobil
nobiles
nobilia
nobis
noda
nodas
nodos
nogai
noi
noia
nom
nomada
nomadas
nomal
nome
nomen
nomes
nometa
nomi
nomida
nomin
nomina
nominalisme
nominativa
nominative
nomine
nomines
nominte
nomo
non
nonabitada
nonacorda
nonairobial
nonalfabetiste
nonalienable
nonanimada
nonasal
nonasentuada
nonasetable
nonaspirada
nonativa
noncambiada
noncambiante
noncapas
noncapasia
nonclar
nonclasida
noncoerente
noncoerentes
noncomable
noncompleta
noncomprendable
noncomun
noncondisionada
nonconosable
nonconoseda
nonconsensa
noncontable
nonconveninte
noncoreta
noncorporada
noncortesia
nondefinada
nondefini
nondefinida
nondefininte
nondepende
nondependente
nondesirada
nondeterminada
nondireta
nondisputada
nonegal
nonegalia
nonegalias
nonemplea
nonesiste
nonesistente
nonespetada
nonesplicada
nonestrema
noneuclidal
nonevitable
nonfasil
nonfelis
nonfida
nonfidable
nonfinita
nonformal
nonfortunosa
nonimportante
nonintendeda
nonjusta
nonjustia
nonlegal
nonlevada
nonliada
nonlimitada
nonlojical
nonmarcada
nonmatur
nonmoral
nonmortal
nonmortalia
nonmovente
nonobligante
nonofisial
nonormal
nonosiva
nonpasada
nonperfeta
nonperfetida
nonperfetiva
nonperiodal
nonperosa
nonpersonal
nonplasente
nonposible
nonpredisable
nonprobable
nonprofitante
nonproportial
nonpublicida
nonramal
nonrazonal
nonrazonante
nonreal
nonregulada
nonregulal
nonrelatada
nonrelijiosa
nonsabe
nonsasia
nonsasiante
nonscriveda
nonserta
nonsertia
nonsesal
nonspesifada
nonsposida
nonstable
nonstablia
nonsteroidal
nonsufisi
nonsufisinte
nonsusedosa
nontolera
nontransitiva
nonumana
nonusa
nonusual
nonvantaje
nonvariable
nonvariante
nonvertebratos
nonvidable
nonviolente
nonvosida
nor
norbert
norde
nordica
nordwestblock
noria
norma
normal
normali
normalida
normande
normandes
normandia
normas
normes
normi
normida
norn
norsce
norsces
norte
north
northern
norway
nos
nosa
nosi
nosiva
nostre
nostri
nostro
not
nota
notable
notables
notada
notas
note
notes
notre
noturna
nou
nous
nouveau
nouvelle
nova
novas
nove
novel
novela
novelas
noveleta
noveliste
novelor
november
novembre
novgorod
novial
novo
now
noyon
noza
nozas
nozes
nozeto
nozo
np
ns
nt
nta
nte
nter
nu
nube
nubes
nubia
nucleal
nucleo
nucleos
nucleotidos
nuda
nudia
nuestra
nueva
nuevo
nui
nul
nula
nuli
nulo
num
numa
numancia
numansia
numantia
numbers
numeno
numeral
numerida
numero
numeros
numitor
nun
nuna
nunavut
nunca
nuo
nuova
nup
nur
nurages
nural
nuremberg
nuri
nurida
nurinte
nurintes
nus
nusen
nut
ny
nye
nyi
nyɔnu
nɔ
o
oakley
ob
obama
obedi
obedinte
obesa
obesia
obi
obl
oblast
oblastes
oblica
oblida
oblidada
obliga
obligada
obligante
obligas
obra
obras
observa
oc
occidental
ocde
oce
ocer
och
oclc
ocrug
ocruges
octavian
october
octubre
oculo
oculos
ocupa
ocupada
ocupante
ocupas
od
odenato
oder
odi
odia
odiada
odin
odisea
odiseo
odor
odores
odul
oe
oeste
of
ofende
ofendeda
ofendente
off
office
oficial
ofisia
ofisial
ofisiales
ofisias
ofisior
ofisiores
ofre
ofreda
ofres
ofte
og
ogier
oguz
oh
ohio
ohthere
oi
oia
oiada
oietas
oif
oil
oio
oioi
oios
ois
oise
oj
ojeta
ojetal
ojeto
ojetos
oji
ojibue
ok
oklahoma
ol
ola
olaf
old
ole
oles
oli
oligarcia
oligosene
olimpial
olimpian
olin
olio
oliste
oliva
olivas
oliver
olivo
olla
olmos
olocausto
olosene
oluga
olvega
om
omaha
omar
ombra
omeostase
omerta
omes
omete
ometeda
ominidos
omiside
omisides
omisidor
omne
omnipotente
omnipotios
omnisiente
omnivor
omnivores
omo
omofon
omofones
omojen
omosesal
omosesales
omosesalia
omotica
oms
on
ona
oncas
once
onda
ondas
onde
onduras
one
onestia
oni
onion
oniones
online
only
onomatopea
onondaga
onor
onora
onorable
onorada
onoral
onorante
onoras
ons
ont
ontario
onu
onze
op
opcit
open
opera
operable
operada
operante
operas
opina
opinas
opio
opla
oportun
oportunes
oportunia
oposa
oposada
oposante
oposantes
oposas
oposor
oposores
oposum
oposumes
opresa
opus
or
ora
oraculo
oral
orange
orania
oranias
oras
orbita
orbital
orbitas
orcas
orcestra
orcos
orden
order
ordina
ordinada
ordinal
ordinales
ordinas
ordos
ordovician
ore
orea
oreas
oregon
orfan
org
organal
organeta
organica
organisme
organismes
organiza
organizada
organizante
organizas
organization
organo
organos
orgulo
orgulosa
orhon
ori
orienta
orientada
orientale
origen
origin
original
origini
orijin
orijina
orijinal
orijinante
orijinas
orijines
orinoco
oriol
orion
orizon
orizonal
orizones
orkney
orle
orleans
ormon
ormones
orna
ornada
ornal
ornas
ornitorinco
ornosa
oro
orolojia
orolojo
oromo
orosa
ortativa
orticultur
ortodox
ortodoxa
ortodoxia
ortodoxisme
ortogonal
ortogra
ortografia
ortografial
orwell
orzo
os
osa
osaca
osan
osborne
oscar
oscur
oscura
oscuri
oscuria
oseania
oserva
oservable
oservada
oservas
oserveria
oservor
oservores
oseta
osetia
osidi
osidinte
osido
osijen
osio
osiris
ositan
ositano
oslo
osma
osman
osmanan
osmanian
osmanianes
oso
osos
ososa
ospita
ospital
ospitales
ospitante
ospitor
ospitores
oss
ostaculo
ostaculos
ostaje
osteraic
osteraices
ostras
ostrasidos
ostrogotos
oswald
oswego
ot
ota
otagon
otan
otavio
otel
oteles
otenable
oteni
otenida
oteninte
othello
other
otica
otical
otimisme
otimiste
oto
otobre
otra
otranto
otras
otta
ottawa
otto
ou
our
ous
out
ov
ova
oval
ovarios
ovea
oveas
over
oveta
ovidio
oviedo
oviparinte
ovo
ovos
ow
owis
oxford
oy
oz
ozon
p
pa
pablo
paceta
pacetas
pacific
pacistan
packard
paco
pacos
padela
pademelones
padral
padre
padres
padron
padronal
padrones
padua
paez
pagan
paganes
paganisme
pagasetic
page
pages
pahoa
pai
paia
paiada
paideia
painted
pais
paises
paje
pajeria
pajes
pajo
paju
pakam
pal
palante
palas
palasio
palasios
palatal
palatali
palati
palatida
palato
palau
palencia
paleoeuropean
paleojen
paleolitica
paleontolojia
paleosene
paleozoica
palermo
pali
palia
pallas
palma
palmas
palmira
palmiran
palo
palos
pama
pamir
pamplona
pan
panama
pancreas
panda
pandemica
pandjab
pane
panel
panes
pangea
panica
pano
panon
panonia
panorama
panpsicisme
panromanica
pantala
pantalas
pantaletas
pantalon
pantalones
pantan
pantanes
pantanosa
panteisme
panteiste
panteon
panthera
panto
paolo
papa
papal
papavera
pape
paper
paperes
papes
papia
papiamento
papiamentu
papilio
papilios
papiro
papua
papuan
par
para
parabola
paracas
parada
paradiso
parador
paradores
paradox
paragraf
paraguai
paralel
paraleles
paralise
parametres
paramilitar
paranoica
parapluve
parario
pararios
parasital
parasito
parasitos
parce
parces
pardo
pardona
pardonas
pare
parente
parentes
pares
pari
paris
park
parker
parkinson
parla
parlada
parladas
parlamental
parlamento
parlamentos
parlante
parlas
parlen
parleta
parlor
parlores
parmenide
parocia
parocias
parocior
parola
parolas
paroleta
paroletas
parsa
part
partal
parte
parteni
parteninte
partenon
partes
parti
partia
partian
particle
particles
particula
particulas
particulos
partida
partisipa
partisipante
partisipantes
partisipio
partisipios
partisipor
partisipores
partitiva
partito
partitos
parto
parvati
pas
pasa
pasada
pasadas
pasaje
pasajes
pasajores
pasante
pasaro
pasaros
pasatempo
pascal
pascua
pascual
pasea
paseante
paseas
paseria
pasi
pasiente
pasientes
pasifica
pasion
pasiones
pasiva
paso
pasos
pasosa
passe
past
pasta
pasto
pastor
pastoral
pastores
pastori
pastoria
pastos
pasts
patagonia
patajio
patata
patatas
patavium
patenta
patentada
pater
patini
patio
pato
patojenes
patolojia
patos
patre
patriarca
patriarcas
patrick
patrilinial
patriota
patriotisme
patrisio
patro
patroclo
patrulia
pau
paul
paulo
pausa
pavlov
pavo
pavos
pawley
pax
pay
payot
pays
pbs
pc
pd
pdf
pdu
pe
peano
pearl
pearson
peca
pecas
pecosa
pede
pedes
pedi
pedro
pel
pelayo
peleliu
peleo
peles
pelo
peloponeso
pelos
pelosa
pelvis
pelvisal
pemfigo
pen
pende
pendeda
pendente
pendentes
pendulo
penes
penetra
penguin
penis
penisola
penisolal
pennsylvania
penrose
pensa
pensada
pensante
pensas
pensor
pensores
penutian
peon
peones
people
peoples
peper
peperon
pepin
per
pera
perca
perce
percunas
percute
perde
perdeda
perdente
perdes
perdida
pere
peregrina
peregrinas
peregrinores
peren
perene
perf
perfeta
perfeti
perfetia
perfetida
perfetisme
perfetiva
perfora
perforada
pergola
peri
perielio
perifera
periferal
periferial
peril
periles
perilida
perilosa
perimetre
period
periodal
periodo
periodos
peristalsia
peritoneo
perla
perlas
perletas
permajelada
permane
permanente
permea
permeable
permeante
permete
permeteda
permetente
permian
permica
pero
perosa
persefone
persegue
persegueda
persento
persentos
perseo
persepi
persepida
persepinte
persepis
persia
persian
persianes
persiste
persistente
person
persona
personal
personalia
personalias
personality
personas
persones
personi
personida
perspetiva
perspetivas
perth
pertine
pertinente
peru
perugino
perun
pesa
pesante
pesas
pesetas
pesimisme
pesimiste
pesimistes
peso
pesos
pesosa
pesta
pestas
peste
pet
peten
petenes
petenida
peter
peterburg
petersburg
peti
petida
petis
petit
peto
petra
petrarca
petras
petrea
petreles
petro
petrogrames
petrolio
petrus
pex
pexa
pexerias
pexes
pexor
pexores
pez
ph
philadelphia
philip
philippe
phillips
philosophy
phocoena
phoenix
phonetic
php
physics
physiology
pi
pia
piaget
piano
pica
picasso
pick
pico
picos
pictor
pidal
pidgin
pie
pied
piemonte
piemontes
piemontese
piero
pierre
piet
pieter
pietro
pigmento
pigmentos
pigmeo
pigmeos
pigria
pijin
pijines
pijon
pijones
pil
pila
pilas
pilato
pilipina
pilipinas
pilote
pin
pina
pinar
pinas
pineal
pinel
pinguin
pinguines
piniin
pino
pinos
pinta
pintada
pinti
pintida
pintor
pinus
pinyin
pio
piotr
pipa
piramide
piramides
pirandello
pirata
piratas
piratia
pirene
pirineo
pirineos
piro
pirogi
pisa
piscolithax
pisea
piseas
pisin
piso
pit
pitagora
pitaka
pitcairn
pitur
pitures
piza
pizarro
pizas
pke
pl
placa
placas
place
plaia
plaias
plan
plana
planas
plancton
planet
planeta
planetas
plano
planos
plant
planta
plantada
plantas
plants
plase
plasenta
plasental
plasentales
plasente
plaser
plaseres
plasir
plasma
plasmaferese
plastica
plata
plataforma
platas
platdeutx
plato
platon
platonica
platos
plays
plaza
ple
plej
plen
plena
pleni
plenida
plesiosauros
plestosene
pli
plia
pliada
plias
plinio
pliosene
plo
plomo
plora
plorante
plotino
plu
pluma
plumas
plumin
pluperfeta
plur
plural
plurales
plurali
pluralia
pluralida
pluralinte
pluralisme
plus
plutarco
pluto
pluva
pluve
pluvosa
plymouth
pm
pn
pneumonia
png
po
poblacio
poblacional
poca
pocer
poco
podgorica
poe
poema
poemas
poesia
poesial
poesias
poesior
poesiste
poesistes
poetas
poetry
pohjola
point
poitiers
polal
polen
poleni
poli
poligon
polinesia
polinesian
polinesianes
polio
polis
polisia
polisintesal
polisior
polisiores
polite
politeisme
politeiste
politica
political
politicas
politiciste
politicistes
politics
politique
polo
polos
polpos
polsca
polsce
polsces
polso
poltavca
polvida
polvo
polygram
poma
pomas
pomo
pomoan
pompa
pompei
pompeii
pompeio
pona
pone
poneda
poni
ponte
pontes
pontica
pop
popa
pope
poperinge
popiaro
popla
poplada
popladas
poplal
poplas
popli
poplida
poplo
popolo
popper
popula
popular
populares
populari
popularia
popularida
population
por
porco
porcos
porcospina
porcospinas
pornografia
porselana
port
porta
portable
portada
portal
portamone
portante
portas
portaseno
portasenos
porte
portes
portland
porto
porton
portones
portor
portores
portos
portugal
portuges
portugeses
portugues
portuguesa
pos
posa
posable
posas
posclasica
posedon
poseidon
posesal
posese
poseseda
posesedas
posesente
poseses
posesor
posesores
posi
posible
posibles
posiblia
positiva
positivisme
posmedia
posmodernisme
posmori
poso
posos
pospone
posposada
posposadal
posposadas
posroman
post
posta
postal
posterior
posto
postos
postraumal
postumo
potasio
pote
potensia
potensial
potia
potias
potiosa
potiosas
potsdam
potter
pou
pour
poux
povre
povres
povria
powell
power
pox
poxe
poxes
pozo
pp
pr
pra
practice
pradesh
prado
prados
praha
prami
pratica
praticada
pratical
praticalisme
praticas
praticores
pre
prea
preas
precristian
preda
predas
predestina
predeterminisme
predica
predical
predicas
predicativa
predisable
predise
prediseda
predises
predor
predores
preesistente
prefasa
prefere
prefereda
preferes
prefetia
prefis
prefisa
prefisada
prefisas
pregraduada
preindoeuropean
preistoria
preistorial
prejudi
prejudis
preliminary
prematur
premio
premios
premostra
premuslim
prende
prendeda
prendente
prenom
prenomes
preocupa
prepara
preparada
preparante
preparas
preposada
preposadal
preposadas
preroman
presa
presada
presas
presbiterian
prescrive
prescriveda
presede
presededa
presedente
presedentes
presedor
presedores
presendente
present
presenta
presentada
presentante
presentas
presente
presentia
preserva
preservada
preside
president
presidental
presidente
presidentes
presidentia
presidio
presipe
presipes
presipita
preso
presocratal
press
presses
presta
prestada
prestas
prestijia
prestijiosa
prete
preteme
pretes
pretia
preveni
preveninte
preverbo
preverbos
previde
prevideda
pri
priamo
price
prima
primador
primadores
primal
primas
primates
primavera
prime
primer
primeria
primeval
primi
primida
primitiva
primo
primores
prince
princeton
principes
principles
prinse
prinses
prinsesa
prinsia
prinsias
prinsipe
prinsipes
prinsipia
priori
prison
prisones
prisoni
prisonida
prisonidas
pristina
priva
privada
privata
pro
proa
proba
probable
probablia
probada
probas
problem
problemes
problemosa
problems
proclama
proclamada
proclamas
procopio
produi
produida
produidas
produinte
produis
produor
produores
produosa
produosia
profesa
profesal
profesas
profesor
profesores
profeta
profetas
profil
profita
profitas
profitosa
profonda
profondas
profondia
profunda
profundia
program
programa
programas
programes
programi
programme
progresa
progresante
progresisme
progresiste
proibi
proibida
project
projenia
projeta
projetada
projetas
prolativa
promedia
promete
prometeda
prometes
promiscua
promove
promoveda
promovente
promoves
promovor
promovores
pron
pronom
pronomal
pronomes
pronouns
pronto
pronunsia
pronunsiada
pronunsias
propaganda
propensa
propensada
proportial
proportio
proportios
proposa
proposada
proposas
propre
propri
propria
proprias
proprida
proprior
propriores
propulsa
propulsada
prosa
prosal
prosedador
prosede
prosededa
prosedes
prosima
prosimi
prosimia
prosiminte
prostitui
prostituida
prostituidas
protagora
protea
proteje
protejeda
protejente
protejor
protejoria
protena
protenas
protende
protendente
proterozoica
protesta
protestante
protestantes
protestantisme
protestantiste
protestas
protestores
protistas
proto
protoalgoncian
protobalgares
protocelta
protocol
protocoles
protodravidian
protogermanica
protoindoeuropean
protoindoeuropeanes
protolingua
proton
protones
protoslavica
prototipal
prototipo
protouralica
provensal
proverbos
provincia
provincial
provinsal
provinse
provinses
provinsia
provinsial
provoca
provocante
proxima
prt
pruri
prus
prusen
ps
psice
psiciatria
psiciatriste
psiciatristes
psicoanalise
psicoativa
psicolinguistica
psicolojia
psicolojial
psicolojiste
psicolojistes
psicopatolojia
psicose
psicosica
psicoterapia
pst
psychology
pt
pterosauros
ptolemean
ptolemeo
pu
public
publica
publicada
publications
publici
publicida
publicis
publicor
publio
publique
publisher
publishers
publishing
pudu
pueblo
pueblos
puer
puerto
puia
puiada
pulgas
pulitzer
pullman
pulmon
pulmonal
pulmones
pun
puni
punica
punicas
punida
punis
punjab
punt
punta
puntal
puntas
puntida
punto
puntos
puntua
pup
pupa
pupetin
pur
pure
purepetxa
purga
purgatorio
puri
puria
puritan
puritanes
purpur
pus
put
putamen
putong
putri
putrida
puxa
q
qahira
qanto
qe
qi
qin
qing
qo
qu
qua
qual
quale
quam
quant
quarter
que
quebec
queen
queensland
quenya
qui
quijote
quintana
quinto
quintus
quito
quixote
quo
qwe
r
ra
rabelais
rabi
rabin
rabis
race
raconta
racontas
radia
radical
radio
radioativa
radiocarbonal
radis
radisal
radises
raes
rafael
rafaello
ragnarok
ragu
ragusa
rai
railway
raio
raios
raiosa
raja
ram
rama
rametas
rami
raminte
ramo
ramon
ramos
rampa
ramu
rana
ranas
rand
random
ranur
ranures
rapa
rapida
rapidia
rara
rarida
ras
rasa
rascasielo
rascasielos
rashi
rasional
rasmus
rasolnic
rata
ratas
ration
ravenna
ray
raymond
raynaud
raza
razal
razas
razisme
raziste
razona
razonable
razonada
razonal
razonalisme
razonaliste
razonante
razonas
rd
rdd
rdoba
rdpc
re
rea
read
reading
reafirma
real
reali
realia
realias
realida
realis
realisme
realiste
reapare
reas
reata
reatante
reatas
rebela
rebelante
rebelas
rebelores
recambia
recambiada
recambiante
recatura
reclama
reclamada
reclamas
recolie
recolieda
recolies
recombina
recomenda
recomendada
recomensa
recompensa
recompensada
recompensas
reconcista
reconosable
reconose
reconoseda
reconsilia
reconstrui
reconstruida
reconstruis
reconta
recontas
recorda
recordada
recordante
recordas
records
recorente
recovre
recovreda
recrea
recreal
recurso
recursos
red
rede
redes
redescovre
redescovreda
redirije
redistribui
redona
redonada
redonda
redui
reduida
reduinte
reduisme
redupli
reemerji
reenvia
ref
refere
refereda
reference
referendo
referente
referes
referi
refina
refinada
refleta
refletada
refletante
refletas
reflexe
reflexes
reform
reforma
reformas
reformi
reformida
reformis
reformisme
reformiste
reformor
reforti
refortinte
refortis
refuja
refujadas
refujeria
refusa
refusada
refuta
reg
regala
regania
reganiada
regarda
regardada
regardante
regardores
rege
regina
region
regional
regius
regla
regno
regnum
regrete
regula
regulada
regulal
regular
regulas
reich
reims
reincarne
reino
reinstitui
reinstituida
reintrodui
reintroduida
reinventa
rejenera
rejeta
rejetada
rejetante
rejimento
rejio
rejion
rejional
rejiones
rejistra
rejistrada
rejistras
relasa
relasada
relata
relatada
relatadas
relatante
relatas
related
relativa
relativia
relativisme
reles
releva
relevas
religio
religion
religious
relijial
relijio
relijios
relijiosa
relijiosia
reloca
reloj
rem
rembrandt
remedia
remente
remete
remi
remo
remos
ren
rena
renada
renaissance
renaixenc
renal
renante
renara
renas
renasa
renase
renaseda
renaud
rene
renes
renfrew
renia
reno
renomi
renomida
renor
renores
renos
renovi
renovida
renunsia
renuri
reorganiza
repara
repenti
repete
repeteda
repetente
repetes
repone
reponeda
repopli
report
reporta
reportada
reportas
reportor
reposa
reposante
reprende
represa
representa
representada
represental
representante
representas
represente
representor
representores
reprodui
reproduida
reproxa
repu
repubblica
republic
republica
republican
republicas
republicisme
republiciste
republicistes
repulsa
repulsante
reputa
reputada
res
rescate
research
resente
reserva
reservada
reservas
reseta
resetada
resetadores
resetante
resetas
resetor
resiclida
resife
resifes
resinia
resiproca
resista
resiste
resistente
resita
resitada
resolution
resolve
resoma
resomada
resona
resonante
respeta
respetada
respira
respiral
responda
responde
respondente
respondes
responsabilia
resposi
resta
restante
restas
restora
restorada
restorante
restorantes
restrinje
restrinjeda
restrinjente
restrinjes
restruturida
resulta
resultante
resultas
reta
retangulo
retangulos
retarda
retardada
reteni
retenida
reteninte
retica
retil
retiles
retira
retirable
retirada
retirante
reto
retorica
retoriciste
retoromanica
retortillo
retrae
retraeda
retrieved
retro
retrosede
reumatica
reumatoide
reuni
reunida
reunion
reunis
reusa
reusada
rev
revade
revela
revelada
revelante
revelas
reveni
reveninte
revenu
revenus
reversa
reversada
reversi
revide
review
revisa
revisada
revised
revista
revive
reviveda
revives
revolta
revoltas
revolui
revoluinte
revoluis
revoluiste
revue
rex
rexerca
rexercada
rexercas
rexercor
rexercores
reykjavi
rez
rg
rgb
rh
rhode
ri
ria
riable
ribbentrop
ribofuranosyl
rica
ricardo
ricas
rich
richard
richmond
rici
ricia
ricias
ricida
rico
ride
ridim
rie
rieta
rietas
rig
riga
right
rights
rigor
rigveda
rijida
rijidia
rijn
rima
rimada
rimante
rin
ring
rinosero
rinoseros
rio
rioja
rios
ris
risa
risc
risca
riscas
rise
ritchie
ritmo
ritmos
ritual
rituales
rituas
rituo
rituos
ritz
riva
rivas
river
rivera
rivergrove
rizoforas
rk
rmt
rn
ro
roald
roba
robas
robert
roberto
robin
robins
robinson
robot
robotes
roc
roca
rocas
rock
rocosa
rode
rodente
rodentes
rodesia
rodri
rodrigo
rodrigues
roe
roger
rogers
roi
roja
roji
rojin
rol
rola
roland
rolante
roles
roll
roly
rom
roma
romaines
romaji
roman
romana
romanc
romance
romane
romanes
romani
romania
romanian
romanianes
romanica
romanid
romanida
romanis
romano
romans
romantica
romanticisme
romanticiste
romanze
romanzo
rome
romeo
rompe
rompeda
rompetesta
rompetestas
romulo
ron
ronald
ronda
rondin
roo
roosevelt
rorcual
rorcuales
ros
rosa
rosario
rosas
rosci
rose
rosenberger
rosin
rosio
ross
rosta
rostada
rota
rotas
rotterdam
rouen
rouran
rousseau
routledge
roy
rozzi
rr
rra
rsml
rt
rterbuch
ru
rua
ruanda
ruas
rubic
rubik
rudolph
rueta
ruetas
rufo
rugbi
ruido
ruina
ruinada
ruinante
ruinas
ruiz
rukh
rule
rumans
rumi
run
runa
runas
rural
rus
rusa
rusce
rusces
rushd
rusia
russell
ruta
rva
rw
ry
rð
s
sa
saba
sabe
sabeda
sabente
sabes
sabia
sabinas
sabir
sabor
sabores
saborosa
sabre
sabres
saca
sacada
sacartvelo
sacas
sachsen
saco
sacos
sacra
sacrifia
sacrifias
sadat
saga
sagarmata
sagas
saha
sahalin
sahara
saharan
sahel
saian
said
saint
sainte
saisi
saisida
saison
saisonal
saisones
saja
sajas
sajia
sajias
sal
sala
salada
saladin
salai
salamanca
salario
salarios
salas
salem
salerno
sales
saleta
salin
saliva
salival
salix
salmo
salmon
salmones
salmos
salomon
salon
salones
salosa
salosia
salsa
salsas
salse
salsix
salta
saltante
saltas
salustio
saluta
salute
salva
salvada
salvador
salvante
salvor
salzburg
sam
sama
samara
samba
same
samhain
sami
samnita
samnitas
samo
samoa
samoan
samoanes
samodeica
samos
sampo
samuel
san
sana
sancho
sanct
sanctuary
sandales
sandaue
sandro
sang
sango
sangual
sangue
sangui
sanguosa
sani
sania
sanscrito
sant
santa
santas
sante
santeria
santerias
santi
santia
santiago
santida
santo
sao
sapato
sapator
sapatos
sapiens
sapiente
sapmi
saponi
sar
sara
sarah
sarajevo
saraseno
sarasvati
sarcoidose
sarda
sardinia
sardinian
sardinianes
sardo
sargon
sarmatian
sarmatianes
saronic
sartre
sas
sasanan
sasanian
sasia
sasiada
sasiante
saskatchewan
sason
sasones
sasonia
sat
satan
satchmo
satelite
satelites
satem
satira
satiras
satura
saturada
saturdi
saturno
saudi
sauniere
sauropodos
saussure
sava
savaje
savajes
savana
savanas
save
saxe
saxon
saying
sc
scafal
scala
scalas
scalera
scaleras
scamandro
scamas
scamosa
scandalosa
scandinavia
scandinavian
scandinavianes
scarabe
scarabes
scaramuxa
scarlata
sce
sceletal
sceleto
sceletos
scema
scemas
scermo
scermos
scha
scheele
schengen
schiller
schleicher
schleswig
schliemann
scholz
school
schopenhauer
schulten
sci
science
sciences
scientific
scipio
scitia
scitian
scitianes
scizofrenia
sclavi
sclavia
sclavida
sclavin
sclavo
sclavos
sclerodatilia
scleroderma
sclerose
scola
scolal
scolas
scolastica
scolor
scolores
scorpiones
scotes
scotia
scotland
scott
scrive
scriveda
scrivedas
scrivente
scrives
scrivor
scrivores
sculta
scultas
scultor
scural
se
sea
search
seattle
sebastian
sebuano
seca
seci
secia
secida
seco
second
secondo
secondos
secret
secreta
secretas
secrete
secreteria
secretes
secretor
secular
secularisme
secuoia
secur
securi
securia
securida
security
secute
sed
seda
sede
sededa
sedente
sedes
sedro
sedui
see
seeman
sefalopodos
sefardi
segal
segovia
segregada
segu
segue
segueda
seguente
seguentes
segues
segun
segunda
seguor
seguores
sei
seine
seja
sejas
selacantos
selaco
selacos
selcup
selebra
selebrada
selebras
selected
seleri
seleucan
self
seli
selo
selos
selula
selulal
selulas
sem
semana
semanal
semanas
semantic
semantica
semantical
sembla
semblante
semble
seme
semes
semetero
semeteros
semi
semida
seminario
seminomada
semiotica
semipresidental
semirefletante
semiseca
semisirculo
semita
semitica
semivocal
semivocales
semper
sempre
sempreverde
sen
sena
senas
senato
senator
senatores
sene
seneca
senegal
senerela
senes
senesentes
senet
senglar
senglares
seni
senida
senior
seniora
seniores
seno
senos
senozoica
sens
sensa
sensal
sensante
sensas
sense
sensosa
sensosia
sensura
sent
senta
sentani
sentante
sentauro
sentenio
sentenios
sententio
senti
sentida
sentimetres
sentinte
sentis
sento
sentos
sentra
sentrafrica
sentral
sentri
sentrida
sentrisme
sentriste
sentro
sentromero
sentros
seoul
separa
separada
separante
sepawa
sepe
sepic
sepida
september
septembre
ser
sera
seramica
seramicas
serbia
serbsce
serbsces
serca
sercas
sereal
sereales
serebral
serebro
serebros
serebrospinal
serfos
seri
seria
serial
serie
series
sermon
sermones
sermonor
sero
serotonina
serpente
serpentes
serpentin
serrano
serta
serti
sertia
sertida
servador
servadores
servi
service
servida
servinte
servintes
servis
servo
servor
servores
servos
ses
sesa
sesal
sesalia
sesaspara
sesclo
sesdes
sesion
sesiones
sesioni
sesionida
sesisme
seso
sesos
sesto
sestos
set
seta
setas
setaseo
setaseos
setasios
sete
setedes
setembre
seti
setica
seticisme
seto
setor
setos
setro
sevastopol
seven
sever
several
severia
severo
sevilla
sex
sexeles
sexelua
seychelles
sfera
sferas
sfero
sferos
sfinter
sforza
sg
sh
sha
shaanxi
shaftesbury
shah
shahrazad
shakespeare
shall
shang
shanghai
shanxi
shatranj
shaw
shawqi
she
sheep
shelta
shetland
shi
shiva
shlomo
shogi
short
should
shtetl
si
sia
sian
sibernetica
siberomes
sibila
sibir
sic
sicadas
sices
sichuan
sicisme
sicle
sicles
siclo
siclon
siclones
sicut
side
sido
sidra
sidwell
sie
sieca
siegfried
sielal
sielo
sielos
siena
siensa
siensal
siensas
siensia
siensiste
siensistes
siera
sierra
sif
sifra
sigar
siglo
sigmoide
sigmund
sigurd
siil
sik
sil
sila
silaba
silabal
silabario
silabarios
silabas
silente
silenti
silentia
silica
silindre
silurian
silva
sima
simbol
simbolal
simbole
simboles
simboli
simbolin
simbolisme
simetre
simetria
simia
simias
simil
simila
simile
similes
simili
similia
similias
simo
simon
simone
simpatia
simple
simpli
simplia
simplida
simultan
sin
sina
sinagoga
sinai
sinapse
sinapses
since
sinci
sinco
sincodes
sindarin
sindi
sindicato
sindicatos
sindrom
sindromes
sine
sinema
sinemas
sing
singapor
singer
single
singles
singular
sinhala
sinia
sinial
siniales
siniali
sinias
sinica
sinicisme
sinie
sinies
sinieta
sinietas
sinifa
sinifia
sinifiante
sinifias
sinifiosa
sinistra
sinistrisme
sinistriste
sink
sino
sinonim
sinonimes
sint
sintagma
sintagmas
sintatica
sintatical
sintaxta
sinterklaas
sintesal
sintese
sinteseda
sintom
sintomes
sintur
sinu
sio
sion
sionisme
siperos
sipres
sipunculos
sir
sira
siracha
siracusa
sirca
sirco
sircoflexe
sircuito
sircuitos
sircula
sirculi
sirculo
sirculos
siria
sirurjia
sirurjial
sirurjiste
sis
sisa
siseli
siselida
siselidas
sisifo
sisilia
sisilian
sisilianes
sistem
sistema
sistemal
sistemes
sistemosa
sister
sit
sita
sitada
sitadan
sitadanes
sitadania
sitas
site
sites
sitizanes
sitoplasma
sitting
situa
situada
situas
situida
siu
sivil
siviles
sivilia
sivilias
sivilida
sj
sjo
sk
skadi
skaldes
skaldskaparmal
skara
skaði
skenderun
ski
skinner
skirnir
skopje
slavica
slavicas
slavonica
slogan
slovacia
slovenia
slovenian
slovenianes
slovensce
slovensco
sloviansce
slovianto
sm
small
smetana
smilodon
smith
sneguroxca
snorri
so
sobre
sobrin
sobrina
sobrines
sobrino
social
socie
sociedad
society
socratal
socrate
sodio
sodomia
sofia
sofie
sofiste
sofistica
sofisticada
sofito
sofla
sofocle
soft
sogdian
soia
sol
sola
solal
sold
soldatas
soldato
soldatos
soldi
sole
soler
solianca
solida
solidi
solisita
solitar
solitaria
solitreo
solo
solomon
solos
solosa
solresol
solstisio
solstisios
solutrean
solve
solveda
solves
som
soma
somali
somalia
somas
sombre
some
son
sona
sonas
sonda
sondas
sonetos
song
songai
songs
sonia
sonias
sonja
sons
sony
sopa
sopas
sor
sorbo
sorbonne
sore
soreria
sores
sorgo
soria
sorian
soriano
sorsor
sorsores
sorsoria
sorti
sortinte
sosia
sosial
sosialisme
sosialiste
sosialistes
sosias
sosiobiolojia
sosiobiolojistes
sosioeconomial
sosiolojia
sosiolojiste
sosiolojistes
soter
soul
soup
south
sov
soviet
sp
spa
space
spada
spadas
spageti
spagna
spain
spala
spalas
spanish
sparta
spartan
spartanes
spasial
spasio
spasios
spasiosa
spasiotempo
spasmas
spe
speak
speaking
species
spectrum
speer
spele
speleda
speling
spencer
spende
spengler
sperde
sperdeda
sperdente
sperma
spermas
spesa
spesia
spesial
spesiali
spesialida
spesialis
spesialiste
spesialistes
spesie
spesies
spesifa
spesifada
spesifiada
spetaculo
spetaculos
spetro
spina
spinal
spinas
spinax
spinos
spinosa
spinoza
spior
spiral
spirales
spirital
spiritalia
spirito
spiritos
spise
spises
spleno
spokil
spondilite
spondilo
spondilos
sponjes
sponsor
spontan
sporas
sporte
sportes
spos
sposa
sposable
sposas
sposes
sposi
sposia
sposida
sposis
sposo
sposos
sprachbund
sputa
square
squillace
sr
sra
sranan
sredny
sri
srilanca
srubna
ss
sse
st
sta
stable
stabli
stablia
stablida
stadio
stadion
stadios
stalin
stamford
stan
stand
standard
stanford
stange
stangerson
stania
stanio
stanley
stante
stap
star
starc
stasion
stasiones
statal
state
states
statia
statica
station
statiste
statistica
statistical
statisticas
statistics
stativa
stato
statos
ste
steenbergen
stefan
steinbach
steinbeck
steiner
steinmeier
stela
stelal
stelas
stendhal
stenografia
step
stepe
stepes
stephen
stereotipos
steril
sterili
steroides
steven
stevens
stevenson
sti
stica
stico
sticos
stilida
stilo
stilos
stimula
stimulada
stimulante
stimulas
sto
stockholm
stofa
stofas
stog
stoic
stoicas
stoicisme
stomaco
stona
stonante
stonehenge
stop
storia
stories
story
strabo
strada
stradas
strait
strana
stranjer
stranjeres
stranjeri
strasbourg
stratego
stratejia
stratejial
stratejias
strati
stratida
strato
stratos
stratosfera
strauss
street
stresa
streta
stretas
stribo
strofe
strofes
strumental
strumento
strumentos
strutur
strutural
struturalisme
strutures
struturida
stuart
studen
studentes
studi
studia
studiada
studiante
studiantes
studias
studies
studio
study
stumpf
stupida
sturluson
sturm
stuttgart
su
sua
suahili
suais
suartica
suatomal
suave
suaziland
sub
subita
subject
subjonctif
suburban
suburbes
suca
sucampos
such
suclase
suconsensa
sucontinente
sucre
sud
suda
sudafrica
sudafrican
sudan
sudani
sude
sudevelopada
sudivide
sudivideda
sudivides
sudui
sue
sueba
suebas
sufamilia
sufamilias
sufilo
sufis
sufisa
sufisada
sufisas
sufisi
sufisinte
sufri
sufrinte
sugrupo
sugrupos
sui
suiside
suit
suiz
sujesta
sujestada
sujestante
sujestas
sujeste
sujesteda
sujestente
sujestes
sujetal
sujeto
sujetos
sujunta
sujuntal
sujuntas
sujuntiva
sula
sulauesi
suli
sulla
sultan
sultania
sum
sumatra
sumer
sumeres
sumerianes
sumerji
sumerjida
summa
sumundo
sun
sunda
sung
suni
sunis
sunnah
suno
suo
suomi
suomis
suordina
suordinada
suordinante
suordinas
super
superior
superioria
superlativa
superordina
superstisio
superstisios
suplica
suplicas
suporta
suportada
suportante
suportas
suportor
suportores
suposa
suposable
suposada
suposas
supra
supracomputador
supracontinente
suprafamilia
suprafilo
supranatural
supraordina
suprapasa
suprapasada
suprapasante
suprapone
supraponeda
suprasiles
suprastrato
supraumana
supravide
suprema
supremia
supresa
supresada
suproposa
suproposas
sur
sura
surealiste
surfador
surfas
surfasal
surfases
suri
suria
surie
suriname
surprende
surprendeda
surprendente
survive
survivente
survivores
sus
susaharan
susan
suscrive
suscriveda
susede
susededa
susedente
susedentes
susedes
susedores
susedosa
susia
susiste
suspende
suspendeda
suspesie
suspesies
suspeta
suspetada
sussex
susta
sustantia
sustantial
sustantias
sustantivo
sustantivos
sustitui
sustituida
sustituinte
sustituis
sustrato
sustratos
sutera
suteran
suteto
sutil
sutra
sutrae
sutraeda
sutral
sutropical
sutton
suventa
suverti
suvertida
svan
svensce
svensces
sveria
svo
swedenborg
swift
swifterbant
sydney
synthesis
system
t
ta
tabaco
tabla
table
tables
tableta
tabletas
tablut
tabu
tacito
tadjic
tadjici
tadjicistan
tae
taekwondo
tafelberg
tafl
tag
tagalog
tahiti
tai
taie
taies
taifas
taiga
tain
taino
taiuan
tak
take
tal
talamo
tale
talento
talentos
talentosa
tales
talia
taliada
taliante
talias
talib
talietas
talk
talking
tallinn
talmud
talo
talon
talones
talos
tam
tama
tambur
tamil
tan
tanakh
tance
tang
tanganyika
tango
tanjente
tanoan
tanto
tanzania
tapador
tapetos
taq
tar
tara
taranto
tarcinio
tarda
tarde
tarifas
tarim
tariq
taro
taroci
tarso
tarte
tartes
tartesian
tartessos
tartu
tas
tasmania
tasmanian
taso
tasonomia
tasonomial
tasso
tatar
taticas
taus
tause
tavo
tawa
taxe
taxes
taxi
taxiste
taxo
taxonomista
taylor
taz
te
teatral
teatrales
teatre
teatro
teatros
teau
teba
tebas
tebes
technology
tecla
teclador
teclas
tecnica
tecnical
tecnicas
tecnolojia
tecnolojial
tecnolojias
ted
tei
teisme
tel
tela
telanjectasia
telas
tele
telecomunica
telefon
telefones
telefoni
telegraf
telegrafia
teleolojia
teleolojial
telescopio
teletas
televide
televisa
televisada
televisador
televisadores
television
telia
telias
tell
telo
telugu
tem
tema
temas
teme
temeda
temente
temes
tempal
tempera
temperada
temperatur
temperatures
tempesta
tempestas
temple
templo
templos
tempo
tempora
temporal
tempos
temprana
ten
tena
tenda
tendas
tende
tendente
tendes
tene
tengrisme
tengwar
teni
tenid
tenida
teninte
tenintes
tenis
tennessee
tennyson
teno
tensa
tensada
tensas
tenta
tentaculos
teocratia
teodosio
teolojia
teolojial
teolojiste
teolojistes
teorem
teoremes
teori
teoria
teorial
teorias
teorida
teoriste
teoristes
tepe
tepehua
tepida
ter
tera
teracota
teral
teran
terapia
terapiste
teras
teravada
teraza
terazas
tereno
terenos
terentio
teresa
teritoria
teritorial
teritorio
teritorios
terma
termal
termas
termina
terminologia
terminolojia
termites
termodinamica
terms
ternate
tero
teror
teroriste
teroristes
terra
terre
terror
terry
tertii
tes
tesalia
tese
teseda
teses
tesoro
tesoros
test
testa
testas
testiculos
testo
testos
testosterona
teti
tetis
teto
tetonica
tetonical
tetos
tetrarcia
teua
teucro
teutoburg
teutonica
texas
texe
texeda
texedas
text
texts
tf
th
tha
thames
than
that
the
their
them
then
theodor
theodore
theory
there
therese
thermaic
they
thin
thing
think
third
this
thomas
thompson
thor
thought
three
through
thy
ti
tia
tian
tiber
tiberio
tibet
tibetan
tibetanes
tica
tico
ticos
tictacto
tie
tiel
tien
tiermes
tierra
tifinagh
tigre
tigres
tigrinia
tigris
tihany
tiki
tikunov
tim
timbuctu
time
timeo
times
timida
timo
timor
timur
tin
ting
tinges
tinje
tinjentes
tinjes
tintin
tio
tios
tipal
tipi
tipis
tipo
tipografia
tipografial
tipolojial
tipos
tique
tir
tira
tirada
tirana
tirania
tirano
tiranos
tirant
tireno
tiro
tiroide
tirol
tis
titchener
titicaca
tito
titulida
titulo
titulos
tiu
tiua
tiwi
tl
tla
tli
tlingit
tn
to
tobago
tobias
toca
tocada
tocarian
tocarianes
tocelau
tocipona
tod
today
togo
tok
toki
tokyo
told
toledo
tolera
tolerada
tolerante
tolkien
tolman
tolosa
tolstoy
tom
tomas
tomaso
tomate
tomates
tomba
tombas
tome
tomo
tomson
ton
tona
tonal
tones
tonga
tonnies
tono
tonos
tonsiles
tooth
top
tope
topica
topografia
topolojia
toponimes
toponimia
tor
tora
torax
toraxal
tore
tores
torneo
torneos
toronto
torricelli
torse
torseda
torta
tortilia
tortilias
tortuga
tortugas
tortura
torturada
toscana
tose
tot
tota
total
totas
tote
toto
totonac
totonacan
tou
toua
toulouse
tour
tours
town
toxinas
tr
tra
tracia
tracianes
trad
trade
tradi
tradision
tradisional
tradisiones
tradition
tradui
traduida
traduis
traduor
traduores
trae
traeda
traente
trafica
train
training
trajano
trajedia
trajedial
trajedias
tram
trama
trames
tran
trans
transatlantica
transcaucasian
transcrive
transcriveda
transcrives
transende
transendente
transfere
transforma
transilvania
transistor
transit
transita
transitiva
transitivia
translated
translatio
translation
transmete
transmeteda
transparente
transplanta
transporta
transportada
trapa
trapida
trasa
trasada
trasas
trata
tratada
tratante
tratas
trauma
traumal
travail
traversa
traversada
traversal
traversante
travua
travuas
tre
tredes
trefolia
trefolias
trek
trelew
trema
trematera
tremateras
tren
trenes
treno
trento
trepa
tres
tresento
tri
tria
triangulo
triangulos
triasica
triazole
tribal
tribu
tribui
tribuis
tribuno
tribus
trictrac
tridevi
trieste
trifosfato
trigo
trigonometria
trigonometrial
trilion
trilobitos
trilojia
trimestre
trimet
trimurti
trinia
trinidad
tripitaka
tris
trisomia
tristan
triste
tristia
triumvirato
trivial
trivium
tro
trobadores
troia
troian
troianes
troilo
trompa
trompas
trompeta
tronceta
troncetas
tronco
troncos
trono
tropical
tropicos
trotski
trotsky
trouve
trova
trovable
trovada
trovante
trovas
troyes
tru
truco
trucos
trumfo
trump
truple
trypillia
ts
tsa
tsalagi
tsar
tse
tsernagora
tsernagorsce
tsi
tsimxian
tt
ttr
tu
tua
tualatin
tuareg
tuatara
tuatha
tuber
tuberculose
tubo
tubos
tucidide
tude
tue
tufa
tufante
tui
tulio
tullio
tumores
tumulo
tumulos
tumulta
tumultas
tumultosa
tundra
tunel
tuneles
tungus
tungusica
tunica
tunis
tunisia
tuo
tuoba
tupi
tupian
tur
turba
turbada
turbante
turbas
turbosa
turces
turcesa
turceses
turcestan
turcia
turcica
turcicas
turcmen
turcmenistan
turcs
turi
turin
turing
turisme
turistes
turna
turno
turnos
tutancamun
tutankhamun
tute
tutsis
tuva
tuvalu
tv
tw
twain
twaʔ
two
tx
txa
txad
txavax
txecia
txerces
txercesia
txesce
txesces
txesco
txescoslovensco
txetxen
txetxnia
txibtxa
txibtxan
txilan
txile
tximacuan
txin
txingis
txoson
txucotca
txuctxi
ty
tɔ
tʃ
u
ua
uacaxan
ualabi
ualabis
ualon
ualonia
uapo
uarao
uau
ubangi
ucero
uci
ucla
ucraina
ucrainsce
udmurt
ue
ueb
ueste
uffizi
uganda
ugarit
ugaritica
ugonote
ugonotes
ugrica
uh
uha
ui
uica
uicanes
uigur
uigures
uintuan
uit
uk
ukuk
ula
ulaid
ulsan
ulseras
ulster
ultima
ultra
ultramar
ultramaral
ultravioleta
ulvaeus
ulysses
um
umaian
uman
umana
umanai
umanas
umanes
umani
umania
umanin
umanisme
umaniste
umanistes
umbra
umida
umidia
umil
umilia
uml
umlaut
umor
umores
umorosa
un
una
unal
und
under
une
unesco
unetice
ungia
ungias
ungulas
ungulato
ungulatos
uni
unia
unial
unias
unica
unicode
unicorno
unida
uniforma
uniformas
uninte
union
uniselulal
unitarian
unitarianes
united
univ
universa
universal
universala
universales
universalisme
universalistes
universelle
universia
universias
universidad
universidade
universita
universitaires
university
universo
unix
uno
uns
unu
uo
uolof
uombata
uombatas
up
uple
upon
upper
ur
ura
ural
urales
uralica
uranio
urano
urartu
urban
urbani
urbanisme
urbe
urbes
urbio
urbion
urdu
urdun
ureter
ureteres
uretra
urgell
urina
urinal
urje
urjente
uropi
uros
urso
ursos
urss
uruc
uruguai
us
usa
usable
usada
usante
usas
used
uso
usor
usores
usos
usosa
usosia
uss
ustaxa
usual
ut
utah
utc
utero
utf
utian
util
utiles
utilitarisme
uto
utopia
utrecht
uu
uv
uva
uvas
uvea
uvie
uvo
uvos
uvulal
uw
uxama
uy
uzbec
uzbecistan
v
va
vacanse
vacanses
vacua
vacui
vacuida
vada
vadas
vade
vadente
vae
vafþru
vaga
vagante
vagon
vagones
vagor
vai
vajina
vajinal
val
valahia
valde
vale
valencia
valencian
valenciana
valensia
valensian
valenti
valerian
valeriana
valerio
vales
valhalla
valida
validi
validia
validida
valkyrias
valladolid
valle
valois
valonsadero
valua
valuable
valuada
valuas
valuosa
valvas
vampires
van
vana
vanaheim
vancouver
vandal
vandales
vania
vanir
vano
vantaje
vantajes
vantajosa
vanuatu
vapor
vapori
var
varia
variable
variables
variada
variante
varias
variola
varios
variosa
varo
varro
varuna
vasa
vasal
vasales
vasari
vasco
vascones
vasculal
vascular
vasina
vasini
vaso
vasos
vasta
vatican
ve
vea
veas
veculo
veculos
veda
vedal
vedas
vega
veia
vejetal
vejetales
vel
vela
velal
velales
velas
velcro
veli
velia
vella
velnias
velo
ven
vena
venas
vende
vendeda
vendel
vendente
vendor
venena
veneni
venenosa
venerdi
veneto
venezia
venezian
venezuela
venezuelan
veni
venice
veninte
venir
venja
venner
veno
venos
venta
ventas
venti
ventral
ventre
ventriculo
venture
venus
ver
vera
veras
verb
verbal
verbin
verbo
verbos
vercingetorix
verdaguer
verde
verdi
verga
vergil
vergilio
vergonia
veria
verias
verje
verlag
verlan
verme
vermeer
vermes
vermont
verner
vero
verona
verrocchio
versa
versailles
version
verso
vertebral
vertebras
vertebrato
vertebratos
vertical
very
ves
veses
vesica
vesta
vestas
veste
vestes
vesteta
vestetas
vesti
vestida
vestijial
veteranes
vetoral
vez
vi
via
viable
viaja
viajante
viajas
viajor
viajores
vias
vibra
vibras
vicente
vici
vicia
vicing
vicinges
vicipedia
vicis
victor
victoria
victorian
vida
vidable
vidal
vide
videda
vidente
video
videos
vides
vidi
vidores
vidua
vie
viet
vietnam
vieux
vigo
vii
viii
vijila
viktor
vil
vila
vilas
vileta
viletas
vili
vilia
villa
village
villar
ville
vim
vin
vinagra
vinc
vincent
vinci
vino
vinos
vinsal
vinse
vinseda
vinsent
vinsente
vinses
vinsor
vio
viola
viole
violente
violentia
violes
violeta
vir
virazole
virgilio
virginia
virgula
virgulas
virjin
virjines
virjinia
viro
virtua
virtual
virtuas
virtuosa
virus
viruses
vishnu
visia
visigotas
visigoto
visigotos
visin
visina
visinas
visineria
visinerias
visinia
visita
visitada
visitante
visitas
visitores
vispresidente
visre
vista
vistas
vistula
vita
vitamina
vitelo
viti
vitim
vitimes
vitro
vitruvio
vittorio
viu
vivaldi
vive
vivente
viventes
vives
vivin
vivosa
vixnu
vizir
vladimir
vo
vocabula
vocabulal
vocabulario
vocabulo
vocabulos
vocal
vocale
vocales
vocativa
vogue
voir
vol
vola
volante
volapu
volapuk
volas
volcan
volcanal
volcanes
vole
voleda
volelibriste
volente
voles
volga
volo
volodimir
volpe
volpes
vols
volt
volta
voltaire
voltas
volum
volume
volumes
volunta
vomita
von
vonnegut
vor
vorpommern
vos
vosa
vosal
vose
voses
vosi
vosida
vosis
vota
votas
votores
vous
vs
vso
vu
vudu
vulgar
vultures
vun
vɔ
w
wa
wace
wagner
wahl
waka
wales
walk
walker
wall
wallace
wallis
walter
wampanoag
wan
wang
want
war
warm
wars
warszawa
was
washington
wasi
waskeeto
wasserman
wat
watashi
water
waterloo
watson
wawa
way
waʔ
we
web
weber
webpage
weferling
wegener
wehrmacht
wei
weimar
welsh
went
were
wernicke
wertheimer
wessex
west
western
westminster
wh
what
when
where
which
white
who
whom
whose
why
wi
wicha
wide
wien
wiener
wierzbicka
wife
wik
wiki
wikia
wikimedia
wikipedia
wil
wilde
wiley
wilhelm
will
willamette
willem
william
williams
willibrord
wilson
wilsonville
win
winchester
wind
windows
windsor
winnipeg
winter
wisconsin
with
within
witkowski
wo
wodan
woden
wolf
wolfgang
woman
women
won
woods
word
wordle
work
works
world
worms
would
wrare
wright
write
writing
written
wrong
wu
wundt
www
wyoming
x
xa
xacal
xacales
xace
xacemata
xamanes
xamanisme
xampiniones
xan
xang
xapeta
xapo
xapos
xaria
xarnier
xasa
xasada
xasante
xasas
xasor
xasores
xavacano
xavier
xcip
xciperia
xef
xeferia
xefes
xefia
xefias
xenofane
xerca
xercada
xercante
xerox
xevi
xi
xia
xian
xianbei
xiang
xiangqi
xias
xica
xicas
xico
xicos
ximine
ximineria
ximinerias
ximpanze
ximpanzes
xin
xina
xines
xineses
xinjiang
xinotibetan
xinto
xinuc
xiongnu
xiva
xml
xoca
xocante
xocolada
xose
xs
xtetl
xtetles
xu
xuan
xuta
xv
xva
xx
xɔ
y
ya
yada
yagu
yaka
yale
yam
yan
yang
yangzi
ye
years
yehuda
yes
yesterday
yev
yggdrasil
yi
yin
ymir
yn
yo
yod
yoq
york
you
young
your
yu
yuan
yucatan
yue
yuezhi
yukon
yumi
yunnan
yusuf
yves
z
za
zaandam
zagreb
zambia
zamboanguenio
zamenhof
zamora
zan
zaragoza
zaratustra
ze
zealand
zebra
zeit
zeland
zelensci
zelo
zelosa
zen
zeno
zenobia
zero
zeta
zeus
zh
zhang
zhao
zhe
zheng
zhi
zhou
zhu
zi
zifido
zifidos
zigotica
zigoto
zil
zimbabue
zion
zipe
zipes
zo
zoce
zolojia
zolta
zona
zonal
zonas
zoroastra
zoroastrisme
zoroastristes
zu
zuca
zucar
zucarosa
zucas
zulu
zuni
zur
zuri
zurich
zuse
zwingli
{
|
}
~
¡
£
¨
©
ª
«
­
¯
°
±
²
³
´
·
º
»
½
¾
×
ß
æ
ð
ðr
ø
þ
þa
þo
þru
đa
đe
ħ
ı
ĳ
ł
ŋ
ŋutsu
ŋutsua
œ
ƒe
ƒle
ƕ
ƿ
ɐ
ɑ
ɒ
ɓ
ɔ
ɕ
ɖe
ɖeka
ə
əh
ən
ɛ
ɟ
ɡ
ɣ
ɨ
ɪ
ɫa
ɬ
ɲ
ɸ
ɾ
ʁ
ʂ
ʃ
ʊ
ʌ
ʍ
ʎ
ʒ
ʔ
ʕ
ʝ
ʢ
ʤ
ʧ
ʰ
ʲ
ʷ
ʹ
ʻ
ʼ
ʾ
ʿ
ˆ
ˇ
ˈ
ˌ
ː
˜
ˠ
ˤ
ˮ
̀
́
̂
̃
̄
̆
̇
̈
̉
̊
̋
̌
̏
̑
̓
̔
̛
̞
̠
̢
̣
̥
̦
̧
̨
̩
̪
̮
̯
̰
̱
̲
͂
͗
͡
α
αι
ας
β
γ
δ
δης
ε
η
θ
ι
κρη
μ
μα
με
μη
ν
να
νη
νο
νος
ο
οι
ος
π
πε
ρ
ρας
ς
σος
τη
της
υ
φ
χ
ω
а
в
вал
во
вылэм
г
да
е
ж
з
и
к
как
кырз
л
м
н
на
наш
не
о
р
с
си
твое
у
ф
ч
ш
щи
ы
э
і
ӈ
եւ
ի
։
ְ
ִ
ֵ
ֶ
ַ
ָ
ֹ
ּ
־
ֿ
ׁ
א
ב
ד
ה
ו
ז
ח
י
ל
ם
מ
ן
נ
ס
ע
פ
צ
ק
ר
ש
ת
ا
الا
ب
بن
ة
ت
ج
ح
ذ
ر
ز
ش
ع
ل
م
ن
ه
و
ي
ٍ
َ
ُ
ِ
ّ
ْ
ٓ
ٔ
ٕ
ی
ं
क
ग
त
द
न
प
म
य
र
व
श
ष
स
ह
ा
ि
ी
ु
ृ
े
्
॥
ং
গ
ত
দ
ব
র
ল
শ
া
ি
ী
ে
্
ਕ
ਗ
ਦ
ਨ
ਪ
ਭ
ਮ
ਰ
ਸ
ਹ
ਾ
ਿ
ੀ
ੁ
ੂ
ੈ
੍
ੰ
જ
ર
હ
િ
ી
ୀ
େ
ச
த
ம
ய
ர
ழ
ி
ு
ெ
்
గ
త
ల
ి
ు
ె
ು
ා
ก
น
ี
ุ
้
་
།
ཀ
ག
ང
ད
ན
པ
ཕ
བ
མ
ཚ
འ
འད
ཡ
ར
ལ
ས
ཨ
ི
ུ
ེ
ོ
ྒ
ྱ
ྲ
်
᛫
ជ
ព
រ
ា
ុ
្
ᵃ
ᵉ
ᵒ
ᵘ
​
‌
‎
‏
–
—
‘
’
“
”
„
†
‡
•
…
‬
′
‹
›
‿
⁡
ⁱ
₁
₂
₃
℃
ℓ
ℝ
←
↑
→
↓
↔
↷
∅
−
√
∼
⋅
③
④
⑦
─
│
└
├
▫
♠
♣
♥
♦
⟨
⟩
ⵉ
ⵊ
ⵏ
ⵗ
ⵜ
⺀
⺄
⺆
⺈
⺊
⺌
⺕
⺝
⺸
⺼
⿰
⿱
⿲
⿳
⿴
⿵
⿶
⿷
⿸
⿹
⿺
⿻
、
。
〢
あ
い
う
か
き
く
こ
さ
し
す
た
っ
て
と
な
に
の
は
へ
ま
ょ
よ
ら
り
る
ろ
を
゙
ア
イ
オ
キ
ケ
コ
タ
ト
ユ
ラ
レ
ン
ー
ㄅ
ㄆ
ㄇ
ㄚ
ㄥ
㇁
㇂
㇄
㇇
㇈
㇉
㇓
㎢
㐁
㐄
㐅
㐌
㐫
㐬
㐭
㐮
㐱
㑒
㒵
㒸
㒼
㓁
㓞
㔾
㕛
㕣
㖾
㘝
㚅
㚇
㚔
㚘
㝉
㝡
㝴
㝵
㞋
㞢
㞷
㠩
㠭
㠯
㡀
㡭
㡿
㢲
㢴
㣇
㣺
㥯
㪅
㫄
㫐
㫒
㫺
㬅
㬎
㬥
㬰
㲋
㳄
㷠
㸒
㸚
㸦
㼌
㼲
㽞
㿟
䀠
䂞
䍃
䏍
䒑
䖍
䖒
䖝
䖵
䙴
䚻
䜌
䝿
䡛
䧹
䪞
一
丁
丂
七
丄
丅
丆
万
丈
三
上
下
丌
不
与
丏
丐
丑
专
且
丕
世
丘
丙
业
东
丞
丢
丣
两
严
並
丨
丩
个
丫
丬
中
丮
丰
丱
串
丵
丶
丷
丸
丹
为
主
丽
丿
乀
乂
乃
久
乆
乇
么
义
之
乌
乍
乎
乏
乐
乑
乔
乖
乗
乘
乙
乚
乛
乜
九
乞
也
习
乡
乳
乾
亀
亅
了
亇
予
争
事
二
亍
于
亏
亐
云
互
亓
五
井
亘
亚
亜
亞
亟
亠
亡
亢
交
亥
亦
产
亨
亩
享
京
亭
亮
亯
亰
亲
亳
亶
亷
人
亻
亼
亾
仁
今
介
仌
从
仐
仑
仒
仓
仕
他
付
仝
代
令
以
们
任
企
伊
伏
伐
休
会
伯
但
位
何
佘
余
作
你
佥
使
來
侈
侌
侖
侨
侯
侵
便
保
俞
信
修
倉
個
倍
候
倠
備
僉
僕
儿
兀
允
兂
元
兄
充
兆
兇
先
光
兊
克
兌
免
兑
兒
兓
兔
党
兜
兟
入
全
兩
兪
八
公
六
兮
兰
共
关
兵
其
具
典
兹
兼
冀
冂
冃
冄
内
冈
冉
冊
冋
册
再
冎
冏
冐
冒
冓
冖
冗
冘
军
农
冝
冡
冥
冫
冬
冷
几
凡
凢
凵
凶
凷
凸
凹
出
函
凾
刀
刁
刂
刃
刄
刅
分
切
刍
刑
刕
刖
列
刘
则
初
別
利
别
到
制
刺
刻
則
削
剌
前
剛
剡
剽
劉
力
功
加
劦
助
劫
劳
劵
勃
勇
勉
勒
動
務
勞
勤
勹
勺
勻
勾
勿
匀
匂
包
匆
匈
匊
匋
匍
匕
化
北
匚
匝
匡
匪
匱
匸
匹
区
医
匽
匿
區
十
卂
千
卄
卅
卆
升
午
卉
半
卌
华
协
卑
卒
卓
協
单
卖
南
卜
卝
卞
占
卡
卢
卣
卤
卦
卩
卪
卬
卯
印
危
即
却
卵
卷
卸
卻
厂
厃
厄
历
厈
厉
厌
厓
厘
厚
原
厤
厥
厨
厭
厲
厶
厷
厸
去
厼
厽
县
叀
参
參
叅
又
叉
及
友
双
反
叐
发
叒
叔
叕
取
受
叚
叜
叟
口
古
句
另
叩
只
召
可
台
叱
史
右
叵
号
司
叹
吂
吃
各
吅
合
吉
吊
吋
同
名
后
吏
向
吕
吗
君
吝
吞
否
含
听
启
吳
吴
吹
吾
呂
呆
呈
告
员
呙
周
味
命
咅
和
咎
咠
咢
咨
咸
咼
哀
品
哉
員
哥
哲
唐
商
啇
問
啚
啬
啻
善
喜
喝
喬
單
喿
嗇
噩
嚴
囊
囗
囘
囙
囚
四
回
囟
因
団
囧
囬
园
困
囱
囷
固
国
圂
圅
國
圍
圓
土
圡
圣
圥
在
圭
地
圶
场
圼
坐
坒
坚
坴
垂
垔
垚
埀
埋
埶
執
基
堂
堅
堆
堇
堯
塞
墨
壘
士
壬
壯
声
壳
壴
壹
壺
壽
夂
处
夅
夆
备
夊
夋
夌
复
夏
夒
夕
外
夗
夘
多
夜
夢
大
夨
天
太
夫
夬
夭
央
失
夲
头
夷
夸
夹
夻
夾
奂
奄
奇
奈
奉
奎
奏
奐
契
奓
奔
奚
奞
奠
奢
奥
奭
女
奴
她
奻
好
如
妄
妈
妙
妟
妥
妻
妾
姑
委
姜
威
娄
婁
婴
嬰
嬴
子
孑
孔
孕
孖
字
存
孚
孛
孝
孟
季
孤
学
孫
孱
學
宀
宁
宂
它
宅
宇
守
安
宋
完
宏
宓
宗
官
定
宛
宜
宝
客
宣
室
宮
宰
害
家
容
宾
宿
寄
寅
密
富
寒
察
寧
審
寫
寬
寮
寸
对
寺
寻
寽
対
寿
封
尃
射
将
將
專
尉
尊
尋
尌
對
小
少
尒
尓
尔
尖
尗
尚
尞
尢
尣
尤
尧
尨
尭
就
尸
尹
尺
尻
尼
尽
尾
尿
局
居
屈
屋
屎
屏
屑
展
屖
屚
属
屠
屡
屬
屮
屯
屰
山
屵
屾
岁
岂
岑
岡
岩
岳
岸
峯
島
崇
崑
崔
崖
崙
崩
嵬
嶲
巂
巛
川
州
巟
巠
巢
巤
工
左
巧
巨
巩
巫
差
己
已
巳
巴
巷
巸
巽
巾
巿
帀
市
布
希
帚
帛
帝
带
師
席
帰
帶
常
干
平
年
幵
并
幷
幸
幺
幻
幼
幽
幾
广
広
庄
床
底
店
庚
府
度
庫
庭
庶
康
庸
廉
廌
廛
廣
廩
廴
延
廷
建
廾
廿
开
弁
弃
弄
弇
弋
式
弓
弔
引
弗
弘
弜
弟
弥
弦
弱
張
強
强
彊
彌
彎
彐
彑
当
彔
录
彖
彗
彡
形
彥
彦
彧
彭
彳
役
彼
往
待
很
律
徒
得
徙
從
復
微
徵
德
徽
心
忄
必
忌
忍
志
忝
忠
忩
快
念
忽
忿
怒
思
怠
急
怱
恆
恒
恩
恭
息
悉
患
悤
悲
悶
惠
惡
惢
愁
愈
意
愛
感
慈
慧
慮
憂
憲
懂
應
戀
戈
戉
戊
戋
戌
戍
戎
成
我
戒
戔
或
戚
戠
戢
戦
截
戲
戶
户
戹
戼
戾
房
所
扁
扇
手
扌
才
打
托
执
承
把
折
拉
拜
拿
挂
掌
推
提
摩
支
攴
攵
收
攸
改
放
政
敄
敏
敕
敖
敗
教
敝
敞
敢
散
敦
敫
敬
数
敷
數
斂
文
斉
斊
斗
斤
斥
斩
斬
斯
新
方
於
施
斿
旁
旅
旋
族
无
旡
既
旣
日
旦
旧
旨
早
旬
旱
旲
时
旾
昆
昇
昌
昍
明
昏
易
昔
昗
昜
星
春
昨
昬
是
昱
昴
昷
時
晃
晉
晋
晏
普
景
晶
智
暑
暴
曇
曩
曰
曲
曳
更
曷
書
曹
曼
曾
替
最
朁
會
月
有
朋
服
朔
朕
朗
望
朝
木
朩
未
末
本
札
朮
术
朱
朵
朶
朿
杀
杏
杜
束
条
来
東
杲
杳
松
析
林
枚
果
枝
枲
枼
某
柔
查
柬
柰
柴
栗
校
桀
桑
桼
梁
條
梟
梨
棋
棘
棠
棥
森
楚
業
楽
榮
樂
樊
欠
次
欣
欮
欲
欶
欽
款
歆
歇
歌
歛
止
正
此
步
武
歨
歪
歮
歯
歰
歲
歴
歷
歸
歹
歺
死
殳
段
殷
殸
殹
殺
殻
殿
毋
毌
母
每
毒
比
毕
毚
毛
毳
氏
氐
民
气
氣
水
氵
氶
氷
永
氺
氾
求
汉
汝
汞
江
沃
沓
沙
沝
没
河
治
泉
法
波
泣
泥
注
泰
洋
洛
洪
活
派
流
浦
浪
浮
海
淡
淮
清
渚
渠
港
湖
湘
湯
湾
滿
漂
漢
漸
潮
澳
火
灬
灭
灰
灵
灷
炅
炎
炏
炗
炙
炭
為
烈
烏
烝
焉
無
焦
焱
然
煞
熊
熏
燕
營
燮
爪
爫
爭
爯
爰
爱
爲
爵
父
爻
爽
爾
爿
片
牙
牚
牛
牜
牟
牢
牧
牪
特
牽
犀
犬
犭
犮
狂
狄
狊
狗
独
狺
猋
猒
猪
猫
献
獻
玄
率
玉
王
玟
玨
珎
班
現
球
琴
瑟
瑩
瓜
瓦
甘
甚
生
産
用
甫
甬
田
由
甲
申
电
甶
男
甸
甹
町
画
甾
畀
界
畏
畐
留
畜
畟
畢
畧
畨
番
畫
異
畱
當
畺
畾
疆
疊
疋
疌
疑
疒
疾
癶
癸
癹
登
發
白
百
皀
皃
的
皆
皇
皋
皐
皕
皮
皷
皿
盃
盆
盇
盈
益
盍
盎
监
盒
盖
盘
盛
盡
監
盤
盧
目
直
相
盾
省
眇
眉
看
眔
眞
真
眷
眼
眾
着
睘
睡
睪
睿
瞏
瞢
瞿
矍
矛
矞
矢
矣
知
矦
短
石
破
碁
碎
磊
磨
示
礻
礼
社
神
祟
票
祭
禀
禁
福
禸
禹
禺
离
禽
禾
禿
秀
私
秃
秉
秋
科
秝
秦
移
稟
穀
穌
穴
究
穹
空
穿
突
窄
窒
立
竒
竜
竝
竟
章
童
竹
笑
笠
筆
等
答
箕
算
箴
節
篤
篭
籍
米
粉
粛
粟
粤
粦
粲
粵
糞
糸
糹
系
約
納
素
索
紫
累
細
絜
絫
絲
經
維
綿
縣
繇
纍
纟
级
给
缶
网
罒
罔
罕
罗
罙
罡
罢
罪
署
罷
羅
羊
羌
羍
美
羔
羕
羗
羞
羡
羣
群
義
羲
羸
羽
翁
翏
習
翕
翟
翠
翼
老
耂
考
者
耆
而
耎
耑
耒
耳
耴
耶
耷
聂
聊
聖
聚
聶
聿
肀
肃
肅
肉
肖
肙
肥
肩
肯
育
肴
胃
背
胞
胡
胥
能
脊
脩
膚
臣
臤
臧
自
臬
臭
臯
臱
至
致
臺
臼
臽
臾
臿
舀
舂
舄
與
興
舉
舌
舍
舛
舜
舞
舟
般
艮
良
色
艸
艹
艾
芒
芔
芬
芮
花
芳
芺
芻
苏
苔
苗
苟
若
苦
英
茶
茸
荅
草
荒
荣
荼
莆
莧
莫
莽
菆
菊
菐
華
萬
落
葉
著
葛
董
葵
蒙
蒦
蒼
蓋
蓬
蓺
蔑
蔡
蕉
蕭
薄
薛
薦
薰
藍
藏
藥
蘭
虍
虎
虐
虒
虔
處
虖
虗
虘
虚
虛
虜
虞
虫
虽
蚤
蚩
蜀
蜜
蟲
蠡
血
行
衍
衛
衣
衤
表
衮
衰
袁
袞
被
褭
褱
襄
襾
西
覀
要
覃
見
規
覓
覧
親
覽
见
觉
角
解
言
訁
訇
計
話
詹
語
誩
諸
議
讠
话
谷
豆
豈
豊
豐
豕
豖
豙
象
豦
豩
豪
豸
貇
貝
貞
貟
負
貢
貧
貪
貫
責
貳
貴
買
費
賁
資
賈
賏
賓
賔
賛
賞
賢
賣
質
賴
贊
贛
贝
贡
责
贯
贲
贵
赖
赛
赞
赣
赤
赦
走
越
足
路
蹇
身
躬
車
軍
軎
軟
輦
车
辆
辖
辛
辜
辟
辥
辰
辱
農
辵
辶
边
达
迄
过
近
连
迷
追
退
送
逆
逐
這
通
速
造
逢
連
逮
進
遀
遂
遊
過
道
達
遣
適
遷
遺
邊
邑
邕
那
邦
邪
郎
部
郭
都
鄉
酉
酋
配
酓
釆
采
里
重
野
量
金
釒
錢
钅
長
镸
长
門
閃
閉
開
閏
閑
閒
間
閔
関
閩
閵
閻
闌
门
间
闷
闽
阑
阜
阝
阿
降
陳
隆
隊
隋
際
隡
隨
隱
隶
隹
隺
隻
隼
隽
难
雀
雁
集
雈
雋
雍
雐
雔
雙
雚
雜
雝
離
難
雨
雩
雪
雲
零
雷
電
需
霍
霜
霝
霞
霸
靈
靑
青
非
靡
面
靣
革
韋
韦
韭
韯
韱
音
頁
頃
項
須
頗
頡
頻
顛
页
風
风
飛
飞
食
飠
養
饣
饿
首
香
馬
馮
駦
马
骨
高
髟
鬥
鬯
鬲
鬼
魚
魯
鮮
鱼
鲁
鳥
鳳
鸟
鸡
鹵
鹿
麃
麗
麥
麦
麻
黃
黄
黍
黎
黑
黒
黨
黹
黽
黾
鼎
鼓
鼠
鼻
齊
齋
齐
齒
齿
龍
龙
龜
龟
龠
龰
龱
龴
龵
龶
龷
龸
龹
ꜣ
ꜥ
ꮙ
ꮝ
ꮟ
ꮿ
者
艹
︢
ﺑ
ﻲ
（
）
？
￼
𐀐
𐀩
𐎓
𐐯
𐤍
𐬀
𐬭
𠀁
𠀃
𠀆
𠀉
𠀎
𠀐
𠁁
𠁣
𠂆
𠂇
𠂈
𠂉
𠂊
𠂋
𠂎
𠂒
𠂔
𠂛
𠂡
𠂢
𠂤
𠂬
𠂭
𠂹
𠃊
𠃋
𠃌
𠃍
𠃎
𠃑
𠃓
𠃔
𠃜
𠄌
𠄎
𠄠
𠄢
𠆢
𠆥
𠇍
𠈌
𠌵
𠓜
𠔉
𠔥
𠔼
𠔽
𠔿
𠕀
𠕁
𠕋
𠘧
𠘨
𠙻
𠙼
𠚏
𠚒
𠚤
𠚪
𠣏
𠤎
𠤕
𠥓
𠦄
𠦑
𠦝
𠧒
𠧗
𠧪
𠩺
𠪚
𠫓
𠫔
𠫤
𠬛
𠬝
𠬞
𠬢
𠬤
𠬶
𠮛
𠮦
𠮷
𠯑
𠱠
𠳮
𠷎
𡈼
𡉀
𡉵
𡌥
𡍮
𡏳
𡕒
𡕩
𡕰
𡖅
𡗗
𡗜
𡘆
𡘤
𡧱
𡨄
𡩧
𡬠
𡭽
𡰣
𡰥
𡰪
𡰯
𡰱
𡷈
𡸁
𡿨
𡿩
𡿪
𡿺
𢀖
𢀛
𢀩
𢁙
𢆉
𢆰
𢆶
𢇁
𢇇
𢉖
𢌬
𢌿
𢏚
𢑑
𢑚
𢖻
𢙣
𢛳
𢦏
𢦒
𢧵
𢼄
𢾕
𣁋
𣄼
𣅀
𣅽
𣍘
𣎳
𣎵
𣏋
𣏼
𣗥
𣥂
𣥖
𣦵
𣦼
𣧄
𣪊
𣪠
𣬉
𣳾
𣶒
𤇾
𤊽
𤐫
𤓰
𤔔
𤕨
𤣩
𤰇
𤰔
𤰞
𤴓
𤴔
𤽄
𥁑
𥁕
𥃦
𥃩
𥃭
𥇡
𥑟
𥘅
𥘈
𥝢
𥫗
𥱡
𦈢
𦉪
𦉬
𦉼
𦍌
𦍒
𦎧
𦐇
𦓔
𦔮
𦘒
𦙃
𦚏
𦣝
𦣞
𦣻
𦥑
𦥔
𦥯
𦨉
𦭝
𦰩
𧆞
𧈧
𧘇
𧰨
𧴪
𧴮
𧵩
𧾷
𨸏
𨾴
𩙿
𩠐
𩫏
𩵋
𪉷
𪜀
𪟽
𪠲
𪩲
𫇦
𫔭
𫜸
𫝀
𫠣
𫠩
𫢉
𫥞
𫩏
𫩠
𫪡
𫲽
𫶧
𬀷
𬐘
𬗌
𬙙
𬛸
𬜯
𬟩
𬯁
𬴘
𬺻
𬼉
𬼖
𭀰
𭁈
𭁨
𭅰
𭑈
𭕄
𭗼
𭤨
𭥫
𭻾
𮅕
𮊿
𮍌
𮍏
𮓗
𮥼
𮧮
廾
𰀁
𰀄
𰀈
𰀉
𰀕
𰀠
𰀡
𰀢
𰀪
𰁜
𰃮
𰆊
𰆘
𰋙
𰕎
𰢴
𰧭
𰯲
12--
13--
14--
15--
16--
17--
a--
aa--
ab--
abd--
abi--
abri--
ac--
acu--
ad--
adv--
advent--
adver--
ae--
af--
afrika--
ag--
agri--
ah--
ai--
air--
aj--
ajet--
ajiogra--
ak--
al--
ala--
albig--
ale--
aleks--
aler--
ali--
all--
alph--
als--
alta--
alve--
am--
ama--
ame--
ami--
an--
ana--
anaxa--
and--
aneur--
ang--
anglo--
ano--
ant--
ante--
anti--
ao--
ap--
apo--
aqui--
ar--
ara--
arau--
arc--
argonau--
ari--
arn--
arte--
as--
asa--
ash--
asi--
ast--
astra--
at--
ata--
atla--
au--
augs--
aure--
aus--
auto--
ax--
ay--
az--
b--
ba--
bai--
bal--
balus--
ban--
bar--
barto--
bas--
bat--
bau--
be--
beau--
bec--
bel--
ben--
ber--
bet--
bh--
bi--
bil--
biodi--
bios--
blas--
bo--
bol--
bon--
bor--
bos--
botanic--
bou--
br--
bra--
bro--
bron--
bu--
bud--
bul--
bur--
bus--
by--
byzan--
c--
ca--
cag--
cal--
camb--
can--
canci--
cani--
cap--
car--
cardio--
cat--
cax--
ce--
cel--
cet--
ch--
cha--
char--
che--
chi--
cho--
chu--
ci--
cimb--
cir--
cl--
clau--
cle--
clo--
cni--
co--
coc--
cog--
cogni--
col--
com--
commun--
con--
contra--
cor--
cos--
cra--
cre--
cri--
cro--
cromag--
cu--
cua--
cuadr--
cum--
cur--
curr--
cut--
cux--
cv--
cy--
d--
da--
dal--
dan--
dang--
dar--
de--
dei--
del--
dem--
den--
depart--
des--
dh--
di--
dia--
dic--
dimit--
din--
dio--
dioni--
dis--
dj--
do--
docum--
dom--
dor--
doub--
dr--
du--
dui--
dul--
dur--
dy--
dzo--
e--
eb--
ec--
eco--
ectop--
ecui--
ecumen--
ed--
ee--
ef--
ego--
egy--
ei--
ek--
el--
ele--
eletro--
eli--
elio--
em--
en--
ency--
ens--
ense--
ent--
eo--
epa--
epi--
epicur--
er--
eritro--
eru--
es--
esca--
esos--
espe--
esqui--
estra--
estro--
et--
eth--
eu--
euri--
euro--
eusta--
eva--
evanj--
evi--
evolu--
ex--
ey--
f--
fa--
falx--
far--
fas--
fe--
feno--
fer--
fes--
fi--
fil--
fila--
fili--
filo--
fitz--
fl--
fo--
fol--
fon--
for--
fr--
fra--
fragm--
framb--
fre--
fri--
frons--
fru--
fu--
ful--
furt--
g--
ga--
gal--
gan--
garda--
gas--
gaut--
ge--
gent--
ger--
ges--
gh--
gi--
gil--
giu--
gli--
glo--
glos--
go--
god--
gon--
got--
gotis--
gra--
gran--
gre--
gri--
grie--
gro--
gru--
gu--
gudj--
guer--
gui--
gw--
h--
ha--
had--
hai--
hal--
han--
happ--
har--
has--
haupt--
haw--
he--
heidel--
hel--
hem--
hen--
her--
hi--
him--
ho--
hof--
home--
hor--
hous--
hu--
hun--
hus--
hy--
i--
ia--
ianom--
ic--
id--
idrau--
idro--
ie--
if--
ig--
ik--
ilus--
im--
impre--
in--
ini--
insti--
inter--
intro--
io--
ion--
iper--
ipo--
ir--
is--
iso--
it--
iu--
iz--
j--
ja--
je--
jen--
jeoloji--
jeom--
jer--
ji--
jin--
jo--
ju--
jug--
jun--
k--
ka--
kai--
kal--
ke--
ken--
kh--
ki--
kilo--
kir--
kl--
km--
ko--
kon--
kr--
ku--
kul--
kv--
kw--
ky--
l--
la--
lam--
lang--
lar--
lau--
le--
les--
let--
leu--
ley--
li--
licopo--
lin--
lis--
lit--
ll--
lo--
logogra--
look--
lu--
luc--
ly--
m--
ma--
mac--
mad--
mag--
mage--
magno--
mah--
mai--
maji--
mal--
mam--
man--
mans--
manus--
mar--
mas--
mat--
mau--
maxim--
may--
maza--
me--
med--
mega--
meh--
mel--
mem--
memb--
membra--
men--
mer--
mes--
met--
mi--
micro--
mid--
mig--
mini--
mio--
mis--
mit--
mix--
mo--
moha--
mol--
mole--
mon--
mono--
mor--
move--
mt--
mu--
multi--
mun--
mus--
muta--
my--
n--
na--
nano--
nar--
nd--
ne--
neo--
neurotransmet--
new--
ng--
ni--
nij--
nik--
nilo--
nim--
no--
non--
nonom--
nor--
nos--
np--
nt--
nu--
nuku--
num--
nɔ--
o--
ob--
oc--
od--
og--
oi--
ok--
ol--
oli--
olimp--
oly--
om--
omni--
on--
op--
or--
ore--
org--
organ--
ori--
os--
ot--
otima--
ou--
ova--
p--
pa--
paint--
pal--
paleo--
pan--
par--
para--
pas--
paseri--
pe--
pel--
pen--
pente--
per--
perga--
peri--
pet--
petx--
ph--
phy--
pi--
pic--
pig--
pil--
pin--
pina--
pit--
pl--
plati--
ple--
pn--
po--
poe--
pol--
poli--
pomp--
pont--
popu--
por--
pos--
pr--
pra--
pragm--
pre--
pri--
pro--
profes--
prog--
proto--
ps--
psy--
pu--
pul--
pup--
pur--
pus--
puzz--
q--
qi--
qo--
qua--
que--
quo--
r--
ra--
rab--
radio--
ram--
ras--
re--
rea--
recla--
recor--
red--
rede--
ref--
refu--
reg--
ren--
repet--
res--
retro--
rev--
revis--
rh--
ri--
ribonu--
rid--
rizo--
ro--
ron--
ru--
rus--
s--
sa--
sal--
sam--
san--
sar--
sarco--
sat--
sc--
sch--
schw--
sci--
scor--
scua--
se--
sea--
secu--
sefa--
seg--
sel--
selu--
sem--
semi--
ser--
serem--
ses--
sfeni--
sh--
sha--
si--
sic--
sient--
sig--
sil--
sim--
simb--
sin--
sis--
sitoc--
sk--
sla--
sm--
so--
sol--
son--
sor--
sosio--
sp--
spa--
spe--
spir--
sr--
ss--
st--
sta--
ste--
stra--
struc--
stur--
su--
sua--
sub--
sue--
suje--
sul--
supra--
sur--
sus--
sve--
swe--
t--
ta--
tai--
tal--
tan--
tar--
tay--
te--
tem--
tempe--
ten--
ter--
terri--
tes--
tex--
th--
the--
ti--
tig--
tim--
tir--
tla--
tlax--
to--
tom--
top--
tor--
tra--
trans--
tre--
tri--
tro--
tru--
ts--
tu--
tui--
tur--
tuscar--
tv--
tw--
tx--
txa--
txima--
ty--
tɔ--
u--
ua--
ue--
ui--
uit--
ul--
uln--
um--
un--
uni--
up--
ur--
us--
ut--
uy--
v--
va--
vai--
val--
van--
var--
ve--
ven--
ver--
verte--
ves--
vi--
vil--
vin--
vir--
visi--
vo--
vor--
vougioukl--
vul--
w--
wa--
wal--
war--
way--
we--
web--
wed--
wert--
wh--
wi--
wo--
wor--
wu--
wycl--
x--
xa--
xec--
xei--
xer--
xi--
xox--
xu--
y--
ya--
ye--
yi--
yng--
yo--
yu--
z--
za--
ze--
zi--
zo--
ð--
þ--
ŋ--
ƒ--
ɖ--
ɖe--
ɖok--
ə--
ʔ--
γ--
δ--
θ--
θη--
κ--
λ--
μ--
ν--
ο--
π--
ρ--
σ--
τ--
ω--
г--
к--
л--
н--
с--
тод--
у--
י--
ا--
ع--
ـ--
م--
--0
--1
--2
--3
--4
--5
--6
--7
--8
--9
--a
--able
--ac
--aca
--ad
--ada
--ae
--aga
--ah
--ai
--ak
--al
--ales
--am
--an
--anes
--ano
--aq
--ar
--ard
--as
--at
--ato
--au
--awo
--ay
--b
--ba
--bal
--be
--bi
--bie
--bis
--ble
--blia
--bly
--bo
--bre
--burg
--by
--c
--ca
--cas
--ce
--ceae
--ces
--ch
--che
--chfa
--chte
--ci
--cia
--cin
--cino
--cio
--cion
--cions
--ck
--co
--coan
--cor
--cos
--ct
--cto
--cu
--cula
--culal
--cus
--cy
--d
--da
--dae
--dan
--das
--dd
--de
--des
--di
--dia
--dio
--disme
--diste
--do
--don
--dor
--dores
--doro
--dos
--dre
--dres
--dro
--ds
--dt
--du
--dy
--e
--ea
--ean
--ec
--ed
--edro
--ef
--ego
--ei
--ek
--el
--em
--en
--ence
--eno
--ente
--eo
--er
--eria
--ero
--ers
--erse
--es
--eso
--et
--eta
--etas
--etia
--eto
--etos
--eur
--eus
--ev
--evo
--ew
--ey
--ez
--f
--fa
--fait
--fe
--ferable
--ffe
--fi
--field
--fisme
--fita
--ft
--fu
--g
--ga
--gar
--ge
--gen
--ger
--ges
--gh
--gi
--gia
--gie
--gin
--gio
--gne
--gnola
--go
--gos
--gra
--grafia
--graphy
--gs
--gu
--gy
--h
--ha
--hai
--ham
--he
--hl
--ho
--holm
--hra
--ht
--hu
--i
--ia
--iad
--iade
--ial
--ian
--ianes
--ias
--ic
--ica
--ick
--ico
--icum
--id
--ida
--ide
--idia
--ie
--iel
--ieta
--ifero
--ik
--il
--im
--imi
--imo
--in
--ina
--ine
--ing
--ini
--ino
--io
--ion
--ior
--ios
--iosa
--ip
--ir
--ire
--is
--isi
--ism
--isme
--ist
--iste
--istes
--it
--ita
--itatis
--ite
--ites
--ith
--ities
--ity
--iu
--ius
--ive
--ix
--j
--ja
--jas
--je
--jen
--jia
--jio
--jn
--jo
--jor
--josa
--ju
--k
--ka
--ke
--ker
--kes
--ki
--kins
--ko
--kti
--ku
--kviða
--ky
--l
--la
--lal
--land
--ld
--le
--ler
--les
--ley
--lf
--li
--lia
--lido
--lier
--lin
--line
--ling
--lio
--lion
--lios
--lis
--lisme
--liste
--ll
--lla
--lle
--lli
--llo
--lly
--lo
--logie
--lojia
--lojiste
--los
--low
--ls
--lt
--ly
--m
--ma
--maco
--man
--mas
--mba
--me
--ment
--mes
--mi
--mis
--miste
--mo
--mos
--mple
--mpo
--ms
--mu
--n
--na
--nah
--nal
--nam
--nas
--nca
--ncas
--nce
--ncy
--nd
--nda
--nde
--ndo
--ndong
--ndor
--ndre
--ne
--ned
--ner
--nes
--ney
--ng
--ni
--nia
--nida
--nie
--ning
--nio
--nis
--nius
--nje
--nn
--nne
--no
--nol
--nor
--nos
--nosa
--ns
--nsa
--nsc
--nse
--nsil
--nsis
--nt
--nta
--nte
--ntes
--nti
--ntia
--ntial
--nto
--nts
--nx
--ny
--o
--oa
--oco
--ografia
--oi
--ojia
--ol
--olo
--olojia
--om
--on
--ong
--ono
--ons
--op
--or
--ores
--orum
--os
--osa
--ose
--ot
--ov
--ova
--p
--pa
--pe
--pes
--pi
--pira
--po
--podo
--podos
--ps
--pt
--pus
--que
--r
--ra
--rada
--ral
--ran
--ras
--rati
--rato
--rbas
--rc
--rce
--rd
--rdia
--rdo
--re
--rell
--rera
--res
--rfos
--ri
--ria
--rias
--ric
--rida
--rido
--rie
--rio
--rius
--rk
--rm
--rn
--rno
--ro
--ron
--ropodo
--ror
--ros
--rs
--rt
--ru
--rum
--rve
--ry
--s
--sa
--sada
--san
--sas
--sc
--sch
--se
--sel
--sen
--shire
--si
--sia
--sian
--sida
--siva
--sk
--sky
--sma
--sme
--so
--son
--sos
--sosa
--ss
--ssa
--st
--sta
--ste
--ster
--stes
--sto
--ston
--stro
--t
--ta
--tad
--tadt
--tal
--tas
--te
--ted
--teo
--ter
--tes
--th
--ti
--tia
--tic
--tida
--tin
--tina
--tinte
--tio
--tion
--tione
--tions
--tiva
--tle
--to
--ton
--tor
--tos
--tosa
--tov
--tr
--ts
--tsu
--tt
--tta
--tte
--tu
--tula
--tum
--tun
--tus
--ty
--tz
--u
--ua
--ual
--uan
--uas
--uc
--uck
--uco
--ud
--ue
--ug
--uga
--ui
--uk
--ul
--ula
--uli
--ulo
--ult
--um
--un
--ung
--uo
--uosa
--ur
--ure
--ures
--uri
--urs
--us
--ut
--ute
--uth
--uti
--ux
--uz
--v
--va
--vable
--van
--vas
--vaux
--ve
--ved
--vi
--via
--vidor
--vik
--vise
--vo
--vre
--vy
--w
--wa
--way
--well
--wo
--wood
--x
--xe
--xi
--xo
--y
--ya
--yer
--ys
--yu
--yz
--z
--za
--zar
--zation
--ze
--zi
--zo
--zon
--ɔ
--ə
--ɾ
--α
--ι
--ς
--ω
--а
--в
--и
--м
--р
--с
--ل
