!
"
#
##0
##1
##10
##11
##12
##13
##14
##15
##16
##17
##18
##19
##2
##20
##21
##22
##23
##24
##25
##26
##27
##28
##29
##3
##30
##31
##32
##33
##34
##35
##36
##37
##38
##39
##4
##40
##41
##42
##43
##44
##45
##46
##47
##48
##49
##5
##50
##51
##52
##53
##54
##55
##56
##57
##58
##59
##6
##60
##61
##62
##63
##64
##65
##66
##67
##68
##69
##7
##70
##71
##72
##73
##74
##75
##76
##77
##78
##79
##8
##80
##81
##82
##83
##84
##85
##86
##87
##88
##89
##9
##90
##91
##92
##93
##94
##95
##96
##97
##98
##99
$
%
&
'
(
)
*
+
,
-
.
/
0
00
000
000161804
001
002
0022
004
006
007
01
010
0116498
012
013
014
02
021
023
027
028
03
030
033
034
038
04
040
047
0471238961
0486
05
054
055
06
060
069
07
070
0701190508230114
072
073
077
08
0849304814
085
086
09
090
095
098
1
10
100
1000
1002
1003
1007
101
1016
102
1021
1024
103
1038
104
1046
1048
105
1058
106
1063
107
108
1080
1088
109
11
110
1103
111
1119
112
113
1130
113104
114
115
116
117
1177
118
1181
1185
1186
1187
119
12
120
1200
121
12148
122
1227
123
124
125
126
127
1276
128
129
13
130
1300
1303
131
132
133
134
135
136
1368
137
138
139
14
140
1400
141
142
143
144
145
146
147
148
149
1492
15
150
1500
1503
1505
150609
151
1512
1519
152
1521
153
154
155
1555
156
157
158
1585
159
1590
1591
16
160
1600
1605
161
1619
162
1620
1621
1623
163
164
1644
165
166
1660
1661
1667
167
1670
168
1681
1683
169
17
170
1700
1707
171
172
1722
173
174
175
1758
176
1760
1769
177
1774
178
1781
1782
1783
1787
1789
179
1790
1793
1799
18
180
1800
1801
1802
1807
1809
181
1813
1815
1817
1819
182
1820
1821
1824
1825
1829
183
1830
1831
1832
1833
1835
1837
184
1840
1841
1842
1844
1845
1846
1847
1849
185
1850
1851
1852
1853
1854
1855
1856
1857
1858
1859
186
1860
1861
1862
1864
1865
1866
1867
1868
1869
187
1870
1871
1872
1874
1875
1876
1877
1878
1879
188
1880
1881
1882
1883
1884
1885
1886
1887
1888
1889
189
1890
1891
1892
1893
1894
1895
1896
1897
1898
1899
19
190
1900
1901
1902
1903
1904
1905
1906
1907
1908
1909
191
1910
1911
1912
1913
1914
1915
1916
1917
1918
1919
192
1920
1921
1922
1923
1924
1925
1926
1927
1928
1929
193
1930
1931
1932
1933
1934
1935
1936
1937
1938
1939
194
1940
1941
1942
1943
1944
1945
1946
1947
1948
1949
195
1950
1951
1952
1953
1954
1955
1956
1957
1958
1959
196
1960
1961
1962
1963
1964
1965
1966
1967
1968
1969
197
1970
1971
1972
1973
1974
1975
1976
1977
1978
1979
198
1980
1981
1982
1983
1984
1985
1986
1987
1988
1989
199
1990
1991
1992
1993
1994
1995
1996
1997
1998
1999
2
20
200
2000
2001
2002
2003
2004
2005
2006
2007
2008
2009
201
2010
2011
2012
2013
2014
2015
2016
2017
201703
2018
2019
202
2020
2021
2022
2024
203
204
205
206
207
208
209
21
210
211
212
213
214
215
216
217
218
219
22
220
221
222
223
224
225
226
227
228
229
23
230
231
232
233
234
235
236
237
238
239
24
240
241
242
243
244
245
246
247
248
249
25
250
2500
251
252
253
254
255
256
257
258
259
26
260
261
262
263
264
265
266
267
268
269
27
270
271
272
273
274
275
276
277
278
279
28
280
281
282
283
284
285
286
287
288
29
290
291
292
293
294
295
296
297
298
299
3
30
300
3000
301
302
303
304
305
306
307
308
309
31
310
3104
311
312
313
314
315
316
317
318
319
32
320
321
322
323
324
325
326
327
328
329
33
330
331
332
333
334
335
336
337
338
339
34
340
341
342
343
344
345
346
347
348
349
35
350
351
352
353
354
355
3555
356
357
358
359
36
360
361
362
363
364
365
366
367
368
37
370
371
373
375
377
378
379
38
380
381
383
384
386
387
388
39
390
392
395
397
399
4
40
400
4000
401
402
4020
403
404
405
406
407
408
409
41
410
411
412
415
417
418
42
420
422
423
427
43
430
431
432
434
435
438
439
44
440
441
442
443
444
445
448
449
45
450
452
453
456
457
46
460
461
465
468
47
471
473
474
476
478
479
48
480
483
484
485
486
487
488
49
490
491
492
494
498
499
5
50
500
5000
502
504
505
506
507
508
509
51
510
511
512
514
52
520
521
523
524
526
527
529
53
530
531
532
534
535
536
537
539
54
540
548
549
55
550
551
553
554
555
556
557
56
560
561
562
564
565
566
569
57
570
571
572
574
575
578
579
58
580
582
583
586
587
59
590
594
595
597
598
6
60
600
6000
602
603
604
605
606
608
609
61
610
614
615
618
619
62
620
621
623
624
626
628
63
630
635
639
64
640
641
642
643
647
649
65
650
651
652
655
657
658
659
66
660
665
666
667
668
67
670
671
672
673
676
678
68
681
682
685
686
687
688
69
690
695
696
698
7
70
700
701
702
705
706
708
71
711
712
713
715
716
717
718
72
722
73
731
732
735
736
737
738
74
740
741
742
743
745
746
747
749
75
750
751
752
753
755
756
757
758
76
760
761
762
763
767
768
769
77
770
771
772
775
776
777
78
780
781
783
784
786
79
790
793
795
796
797
8
80
800
8000
801
802
804
81
811
812
813
815
816
817
818
82
820
822
823
824
827
828
829
83
830
834
835
836
837
84
840
841
842
844
848
849
8493
85
850
851
852
853
855
858
86
860
863
865
867
868
87
870
872
873
874
876
878
88
880
882
884
885
886
88888888
889
89
891
892
895
896
897
9
90
900
903
905
907
909
91
910
911
912
913
914
915
917
92
921
925
926
928
93
931
934
935
939
94
940
941
942
944
946
95
952
955
957
96
962
965
966
97
970
977
978
98
980
985
988
99
990
996
999
:
;
<
=
>
?
@
[
\
]
^
_
a
aa
aage
aaron
abbey
abdulrazak
abdus
aberdeen
about
abraham
abrikosov
abruzzo
absolute
abu
abundances
ac
academy
access
aceh
actinide
actinium
ada
adam
add
adeline
adige
adolf
adolph
adriatic
adygea
ae
afghanistan
ag
age
agnon
ah
ahmed
ai
aioi
air
airbus
aires
airport
ais
aise
ak
akira
akita
al
alabama
alain
alan
albania
albert
alberta
alder
alegre
aleixandre
aleksandr
alemanni
alex
alexander
alexandros
alexei
alexeyevich
alexievich
alferov
alfred
alfve
algeria
alicante
alice
all
allan
allen
allier
alloc
allocator
almaza
almeri
alpes
alsace
altai
altman
alto
alvarez
am
america
american
amiens
amis
amour
amsterdam
an
anastasius
anatole
anatolia
and
andaluci
andaman
anderson
andhra
ando
andorra
andre
andrea
andrew
andric
android
anfinsen
ang
angeles
angewandte
angola
anie
anne
annie
ans
anthony
antigua
antilles
anton
antonio
antonius
antony
ao
aosta
ap
api
apm
append
appendutf
apple
appleton
approx
aquila
aquitaine
ar
aragon
architecture
archive
archived
ardenne
are
area
arg
argc
argentina
args
argument
arguments
argv
ark
arkhangelsk
armenia
arne
arno
arnold
arrhenius
art
arte
arthur
article
articles
arts
artturi
aruba
arya
as
ashikaga
ashkin
asia
asm
aspect
aspx
assign
assignments
aston
asturias
at
atayal
athens
atlanta
atlantique
atomic
attr
attribute
attributes
atv
au
auckland
august
augustus
aurelius
auteurs
auto
auvergne
avar
avignon
ax
axa
axel
azerbaijan
aziz
azur
b
ba
baak
baau
back
backup
badajoz
baden
baeyer
bahamas
bahasa
bahia
bahrain
bahru
bak
bakufu
balkan
balkar
baltic
ban
bangka
bangladesh
banten
barack
barat
barbados
barbuda
barcelona
bardeen
baroque
barry
barton
bas
basa
base
basel
bashevis
bashkir
bashkortostan
basic
basilicata
basque
batavia
bay
bayern
bbc
be
bec
beckett
begin
behaviour
belarus
belfort
belitung
belize
bellow
ben
benavente
benedictus
bengal
benjamin
berg
bergius
bergson
berkshire
berlin
bernath
bert
bertozzi
bertrand
besanc
best
bethe
betzig
bf
bfb
bh
bharu
bhutan
bi
biała
bibcode
bibsys
bie
bildid
bill
bin
bio
biography
birdlife
birmingham
birthday
bissau
bjørnson
bjørnstjerne
blackett
blanc
blica
bloch
block
bloembergen
bloemfontein
bnf
bo
bob
boca
boeing
bohr
bonaire
bonchev
bonding
bonifacius
book
books
bool
bordeaux
boris
born
borneo
bosch
bosnia
boston
bothe
botswana
boyer
br
brandenburg
braunschweig
break
bremen
brian
bridge
bridgman
brisbane
britain
britannica
british
brittany
brockhaus
brodsky
brown
bruce
bruno
bs
bts
bu
buchner
budapest
buf
buffer
bulgaria
bunin
bunun
burgundy
burkhard
burkina
burns
burton
burundi
buryat
busan
bush
business
butenandt
bw
bx
by
byte
c
ca
cabo
caelestinus
caesar
cai
calais
calculation
california
call
calvin
cambridge
camilo
campania
campo
camus
can
canada
canal
canberra
candi
canetti
canonical
cao
cape
capital
carbon
carducci
caribe
carl
carlo
carlos
carolina
carolyn
carter
case
cast
castejo
castilla
castle
catalonia
catalunya
category
cathedral
catherine
cavaliers
cb
cctld
cd
cdot
cdots
ce
cech
cecil
cela
celt
census
central
centre
century
cfilename
cg
ch
cha
chad
chai
chak
cham
chamberlain
champagne
chan
chandrasekhar
chang
chap
char
character
charente
charentes
charles
charlotte
charpak
charpentier
chart
chat
chau
che
chechen
chechnya
check
chelpin
chem
chemical
chemie
chemist
chemistry
chen
cher
cherkessia
chet
cheu
cheung
chha
chhai
chhak
chham
chhan
chhang
chhat
chhau
chhe
chhet
chheu
chhi
chhia
chhiam
chhiang
chhie
chhien
chhiet
chhim
chhin
chhio
chhiok
chhiong
chhit
chhiu
chhiuk
chho
chhoi
chhon
chhong
chhu
chhui
chhuk
chhun
chhung
chhut
chi
chia
chiak
chiam
chiap
chiau
chiba
chicago
chien
chiet
chiho
chile
chim
chin
china
chinese
chio
chiok
chiong
chit
chiu
chiuk
cho
choi
chok
chon
chong
chris
christian
christoph
chrono
chu
chui
chuk
chukotka
chun
chung
chungcheong
church
churchill
chuvash
ci
cia
cid
ciliwung
cinca
cing
cite
citeweb
cities
city
ck
cl
clair
clara
class
claude
claudius
clayderman
cle
clear
clemens
cleveland
clinton
clock
close
closehandle
clyde
cm
co
cockcroft
code
codepoint
coetzee
cohen
cola
coleman
collection
college
colombia
columbia
com
commission
commons
comoros
comp
company
compare
comparison
compound
compounds
computer
comte
concat
conference
congo
const
constant
constantine
constantinus
constantius
constexpr
constructors
consumeutf
content
continue
conventional
cook
cooper
copy
copytodirentry
corey
corporation
corse
corsica
cos
costa
cot
count
county
cov
covid
cplusplus
cpp
cram
crc
create
createfilew
creuse
croatia
cronin
cross
cruise
crutzen
cruz
crystal
cs
cstr
cuba
curac
curie
current
cyprus
cyril
cz
czesław
d
da
daau
daejeon
dagestan
dalai
dame
dan
danail
dang
daniel
danyang
dario
darleane
darmstadt
data
date
david
davis
day
db
de
dead
debye
decay
december
default
define
defined
dehmelt
del
delaware
deledda
delete
dell
den
denied
dennis
depth
der
derek
des
dest
destructor
detail
detroit
development
df
dhabi
di
diagnostic
diamond
diana
dicis
dictionary
diels
dies
difference
digital
dik
dir
directories
directory
dirent
dirhandle
disable
discovery
disney
displaystyle
division
diz
djibouti
dna
do
doh
doi
dollar
dominica
don
donald
dong
doraemon
dordogne
dordrecht
doris
dorothy
double
doubs
doudna
douglas
dr
drama
dravida
dt
du
dublin
dudley
dung
duration
dwfileattributes
dwhighdatetime
dwlowdatetime
dword
dx
dylan
dz
dztwo
e
early
earnshaw
earth
east
ebchecked
ec
echart
echegaray
ecs
ecuador
ed
edelstein
edinburgh
edition
edo
edu
eduard
education
edward
edwin
eemil
eigen
einstein
eisa
eki
el
element
elements
elfriede
elias
elif
eliot
elizabeth
else
elytis
emil
emilia
emilio
emission
emmanuelle
empty
en
enable
enablebitmask
encyclopedia
encyclopædia
end
endif
ending
energy
enforce
england
englert
english
entry
enum
equals
equivalent
er
eric
erik
ernaux
ernest
ernst
err
errc
errno
error
errors
es
esas
esperanto
estonia
et
ethiopia
eu
eucken
euclid
eugene
eugenio
euler
eure
europe
european
eustatius
ex
exceptions
exec
existing
exists
expand
experimental
explicit
ext
extension
eyvind
f
fa
faa
faat
facebook
fact
facts
falkland
false
fam
family
fan
fap
faroe
faso
fat
faulkner
fe
february
federal
federico
felix
fense
feynman
fi
fifa
fifo
fiji
file
filebuf
filename
files
filestat
filesystem
find
finddata
firenze
first
fischer
fitch
fl
flag
flavius
flevoland
florida
flory
fmt
fn
fo
fong
for
format
former
foster
found
fowler
fp
fr
frac
fragment
franc
france
frances
franche
francis
francisco
frank
frankfurt
franklin
frans
fraser
fre
frederick
free
freebase
french
fricke
friedrich
friend
friesland
frisia
frits
fritz
friulia
from
fromutf
fromwchar
fs
fstream
ft
ftlastwritetime
fu
fuger
fui
fuji
fuk
fukui
fukuoka
fukushima
fun
function
functions
fung
fut
future
g
ga
gaa
gaai
gaau
gabor
gabriel
gabriela
gael
gaius
gal
galicia
galsworthy
game
games
gang
gangwon
garci
gard
garden
garonne
gas
gases
gaspe
gaulle
gcc
gdan
gdp
ge
geh
geim
gelderland
gell
gen
general
generic
gennes
geo
geoffrey
georg
george
georges
georgia
ger
gerais
gerard
gerhard
gerhart
german
get
getlasterror
ghana
ghc
gi
gia
giacconi
giaever
giang
giauque
gibraltar
gide
gie
gifu
gilaki
gilbert
gilles
gim
ging
ginzburg
giorgio
giorgos
giosue
girona
gironde
giu
giulio
gjellerup
glasgow
glashow
glenn
glibcxx
global
glu
gnuc
go
goeppert
goh
gok
goku
gold
golden
golding
gon
gong
goodenough
google
gordimer
gov
government
grand
grande
graph
grass
grazia
great
greenland
greenwood
gregorius
grenada
grignard
gross
group
gru
grubbs
gruzia
gu
guadeloupe
guatemala
gui
guide
guinea
gujarat
gung
gurnah
gwangju
gwui
gyeonggi
gyeongsang
h
ha
haa
haag
haak
haau
haber
hadrianus
hahn
hai
haiti
hak
hakka
half
hall
halldo
ham
hamberg
hamgyo
hampshire
hamsun
han
handbook
handke
handle
hang
hannes
hanover
hans
hanzawa
hap
happy
hard
harden
hardlink
haroche
harold
harry
harvard
has
hasbrouck
hassel
hasselmann
hau
hauptman
hauptmann
haute
hauts
have
hawaii
haworth
hbo
he
health
heaney
heck
heeger
heh
heidenstam
heinrich
helena
hello
help
helper
hen
henderson
henri
henricus
henrik
henry
henryk
herbert
hermann
herschbach
herta
herzberg
herzegovina
hesse
het
heu
heung
hevesy
hewish
heyrovsky
heyse
hi
hia
hie
hien
hiet
higgs
high
hildburghausen
hill
him
himalaya
hindi
hinshelwood
hio
hiong
hiroshima
historic
history
hitler
hiu
hiuk
hiun
hk
ho
hoa
hodgkin
hoff
hoffman
hoffmann
hoi
hok
hokkaido
hon
hong
honolulu
honshu
hooft
horn
hot
hotel
house
houston
howard
hrd
htm
html
http
https
hu
hua
huang
huber
hudson
hue
huesca
hugh
hwang
hwanghae
hyo
i
ia
iata
ibaraki
iberia
ic
icao
id
ido
if
ifdef
ifndef
ifstream
igor
ii
iii
il
illegal
illinois
ilmari
ilya
imac
image
imdb
impact
impl
implementation
implemented
imre
in
ina
inc
include
increment
incubator
independent
india
indiana
indonesia
indre
inf
info
infobox
information
ing
ingushetia
inline
innocentius
inorganic
input
inputiterator
insensitive
instagram
instead
institute
int
integer
intel
international
internet
invalid
io
ioannes
iodide
ionia
ionization
ios
ipad
iphone
ipoh
iprage
iran
iraq
ire
ireland
irving
is
isaac
isabart
isbn
ishikawa
isidor
island
islands
iso
isotopic
isvalid
it
ita
iter
iterator
iterators
itr
its
iu
iucn
iv
ivan
ivar
ivo
ivoire
j
ja
jacinto
jack
jackson
jacobus
jacques
jae
jakarta
jamaica
james
jan
january
japan
japanese
jaroslav
jawa
jayakarta
jayawikarta
je
jean
jefferson
jelinek
jennifer
jensen
jeolla
jerome
jersey
ji
jim
jime
jo
jobs
joe
johann
johannes
john
johnson
johor
joliot
jong
jose
joseph
josephson
journal
jp
jpg
jr
jst
juan
julex
julian
julius
july
jump
jun
june
jung
jura
justin
justinian
k
ka
kaau
kaeso
kagawa
kagoshima
kai
kak
kalimantan
kalmyk
kalmykia
kam
kamakura
kamenska
kampuchea
kanagawa
kang
kap
kapitsa
karabakh
karachay
karelia
karl
karle
karlfeldt
karnataka
karrer
kary
kastler
kat
katalogisering
kau
kavkaz
kazakh
kazakhstan
kb
kbs
ke
kedah
kelantan
ken
kendall
kendrew
keng
kenneth
kent
kenya
kerala
kerte
ket
kevin
keynes
kha
khak
khakassia
kham
khan
khap
khat
khe
khek
khet
khi
khia
khiam
khie
khien
khiet
khieu
khin
khio
khip
khiu
khiuk
khiun
khiung
khiut
khmer
kho
khoa
khoai
khok
khon
khong
khota
khu
khuai
khui
khun
khut
khwu
khwui
ki
kia
kiaau
kiam
kian
kiang
kiap
kie
kien
kiet
kil
kim
kin
king
kings
kinki
kio
kiok
kiong
kip
kipling
kirk
kit
kitts
kiu
kiung
klaus
klug
km
kng
knowledge
known
knut
ko
koa
koan
koat
koet
kohn
koi
kok
komi
kon
kong
konstantin
kot
kota
koteka
krasnodar
kreis
kroto
ku
kuala
kuet
kuhn
kui
kujawski
kuk
kumamoto
kung
kurd
kurdi
kurt
kut
kwet
kwo
kwok
kwu
kwui
kyo
kyrgyz
kyrgyzstan
kyril
kyrkoarkiv
kyu
l
la
laai
laan
laap
labrador
lac
lagerkvist
lagerlo
lai
lak
lake
lama
lamb
lan
lanaudie
lancashire
land
landau
lang
langmuir
language
languages
languedoc
lanka
large
lars
las
last
latvia
lau
laureate
laureates
laurent
lausanne
lawrence
laxness
lazio
le
lechler
lederman
lee
left
leggett
lehn
leibniz
leloir
len
length
lenin
leo
leon
leonard
leonardo
leone
leopold
les
lesotho
lessing
let
letters
leu
leui
lev
levitt
lewis
lexically
lhasa
lhs
li
lia
liang
liau
lib
libby
libcpp
libris
libya
lide
lie
liechtenstein
lien
life
light
liguria
lille
lim
limburg
limousin
lin
lindahl
line
link
linus
lio
liong
lip
lipscomb
list
lists
lit
literal
lithuania
little
liu
liuk
ll
ller
llosa
ln
lo
loc
local
locname
logsdon
loir
loire
loiret
lok
lombardia
lon
london
long
lord
lorraine
los
lot
louis
louise
love
low
lp
ltd
lu
lublin
lucia
ludwig
lui
luigi
luis
luk
lumpur
lun
luther
luxembourg
lwg
lwt
ly
lyon
m
ma
maan
maarten
mac
macbook
macdiarmid
macedonia
macintosh
maciver
madagascar
madeleine
madonna
madrid
maeterlinck
magazine
magic
magnetic
maharashtra
mahfouz
mai
maidenhead
main
maine
maint
mak
make
malacca
malagasy
malawi
malayalam
malaysia
maldives
mali
maluku
man
manchester
manfred
mang
manhattan
manitoba
mann
many
map
mar
marathi
marc
march
marche
marcus
mari
maria
mariana
marie
marino
mario
maritime
mark
market
marne
marseille
marshall
martin
martinson
martinus
marx
mary
masato
mass
massachusetts
mather
mau
mauriac
maurice
mauricie
mauritius
max
may
maya
mayer
mayor
mazowiecki
mbox
mcdonald
mcgill
me
media
mediawiki
meer
melaka
melbourne
melvin
member
members
meme
men
mer
meredith
merrifield
metal
metals
metro
metropolitan
metz
meu
mf
mh
mi
mia
miang
michael
michel
michelangelo
microsoft
mid
midi
midlands
mie
mien
miguel
mikhail
milano
min
minamoto
minangkabau
minas
minh
minneapolis
minnesota
mio
mission
mississippi
mistral
mitchell
mittelfranken
miu
miyazaki
miłosz
mm
mo
mode
modiano
modifiers
moerner
moi
moissan
mok
moldova
molise
mommsen
mon
monaco
mong
mont
montale
monte
montenegro
montgomery
montpellier
montre
monts
monuments
moon
more
morgan
morocco
morrison
morss
moselle
moskva
most
mott
mottelson
move
mozambique
mp
msvc
mt
mtr
mu
mui
muk
mulliken
mullis
mumbai
mun
mung
munro
muromachi
murray
music
mv
my
n
na
naam
nad
nadine
nagano
nagasaki
nagorno
naguib
naha
nahuatl
nai
naipaul
nairobi
najib
nam
name
namespace
namibia
nan
nang
nantes
naoki
napie
napoleon
napoli
nara
national
native
nativewp
natta
nature
nauru
nazi
nba
nberg
ncbi
nchen
nd
ne
near
nederland
negeri
neill
nela
nelly
nen
nenets
nepal
nernst
neruda
net
netherlands
network
nevill
nevis
new
newar
news
newton
nez
nfilesizehigh
ng
nga
ngai
ngan
ngang
ngawa
ngel
nghi
ngi
ngia
ngiak
ngiam
ngiap
ngiau
ngie
ngien
ngiet
ngim
ngin
ngio
ngiong
ngit
ngiu
ngiuk
ngo
ngoi
ngok
ngu
ngui
nguye
nh
nha
nhl
ni
nia
nicaragua
nicolaas
nicolaus
nie
nieuw
niger
nigeria
night
nih
niigata
nikolay
nin
ninh
nip
nist
nit
niue
nizhny
nl
nlm
nndb
no
nobel
nobelprize
noexcept
nofollow
nok
non
none
noordoostpolder
nord
norman
normandie
normandy
norse
north
northern
northrop
not
note
noteta
notre
novel
november
novgorod
novoselov
now
nowy
np
npos
nsch
nsec
nter
ntova
nu
nuclear
nui
null
nullptr
number
nun
nung
nusa
nya
nye
nyi
nytimes
o
obama
obs
observers
octavio
october
odd
odysseas
of
office
official
ofstream
oganessian
oi
ois
oise
ok
okayama
okinawa
oklahoma
olah
old
oldattr
olga
olympic
on
one
online
onlinelibrary
only
onsager
ontario
op
open
openmode
openmopac
operator
option
options
opts
or
orenburg
org
organization
orhan
ori
original
orissa
oriya
orlando
orle
os
ossetia
osta
ostwald
other
others
othmer
ottawa
otto
our
out
outaouais
over
overijssel
override
overwrite
owen
owner
oxford
p
pa
pablo
page
pahang
pai
pak
pakistan
palace
palau
palestine
pamuk
pan
panama
pang
papua
paraguay
parent
paris
parisi
park
part
party
pas
pashto
pasternak
pat
path
pathbuffer
pathlen
patrick
pau
paul
pauli
pauling
paulo
paulus
pays
paz
pdf
pe
pedersen
peebles
pen
pending
pennsylvania
penrose
penzias
people
perak
percy
perl
perlmutter
perm
permission
permissions
perms
perse
pershina
persian
person
perth
peru
perugia
perutz
pet
peter
peu
ph
pha
phai
phan
phat
phau
phe
phi
phia
phiang
phie
phien
philadelphia
philip
phillips
phit
pho
phok
phone
phong
php
phrvb
phu
phun
physical
physicist
physics
physrevb
physrevc
physrevlett
pi
pia
piak
pian
piang
picardie
picardy
pie
piemonte
pien
pierre
pin
pinang
ping
pinter
pio
piong
pirandello
pit
pittsburgh
pius
pl
place
platform
platon
pmatrix
pmc
pmid
po
podlaski
poi
point
pointer
poitou
pok
polanyi
politzer
polynesia
pong
pontoppidan
pop
pople
population
port
portable
porte
porter
porto
pos
postprocess
pot
pour
powell
power
pp
pr
pradesh
pragma
pre
predicting
prediction
preferred
prefix
prefixes
prefixlength
pregl
prelog
presbyterian
press
prigogine
prince
princeto
princeton
principles
prison
private
prix
prize
prizes
prms
pro
profile
prokhorov
properties
provence
province
provincia
proximate
proxy
prudhomme
pt
ptr
pu
public
publique
puerto
puglia
puk
pulau
pun
punjab
punjabi
purcell
push
put
putin
putrajaya
pyotr
pyre
q
qatar
qua
quadpart
quasimodo
que
quebec
queensland
query
quo
quora
r
ra
rabi
rabindranath
rail
raise
ramo
ramsay
ramsey
range
raton
rault
ray
razak
rc
rd
re
read
readonly
rec
recent
recursion
recursive
rediffusion
ref
reference
refresh
regina
regular
reines
reinhard
reinterpret
relative
relativistic
release
remove
ren
rename
rene
reparse
reparsedata
reparsetag
replace
replacement
repu
republic
republika
required
research
reserve
resize
result
return
review
reymont
rhin
rhine
rho
rhs
ri
riau
ric
rica
riccardo
rice
richard
richards
richardson
richter
rico
rida
riess
right
rio
river
rivie
rjct
rna
rnc
rnl
ro
roald
robert
robinson
rockets
rocky
roger
rolland
roma
romagna
romain
roman
romania
ronald
root
rootpathlen
rostov
rotterdam
roussillon
route
rowland
roy
royal
rquez
rttemberg
ru
rubberbible
rubbia
rudolf
rudolph
rudyard
rue
running
russell
russia
russian
ruthenia
ruz
rwanda
ry
ryazan
ryle
ryukyu
rz
s
sa
saa
saam
saan
saang
saba
sabah
sabatier
sachs
saga
sai
saint
sainte
saitama
sak
sakai
sakha
salam
salamanca
salvador
salvatore
sam
samara
same
samoa
samuel
san
sancar
sang
sanger
santa
sao
sapporo
saramago
saratov
sarawak
sardegna
sars
sartre
saskatchewan
sat
saturday
sau
saudi
saul
sauvage
savoie
saxon
saxony
scan
scandinavia
schmidt
school
schrieffer
schwartz
schwinger
science
sciences
scotland
scriptstyle
se
sea
seaborg
seamus
seattle
sec
seen
seferis
segre
seifert
seine
selangor
selma
semantics
sembilan
semyonov
sen
senegal
seng
seo
seoul
separator
september
sequence
serbia
seremban
serge
series
serpento
service
session
set
seu
sevilla
sf
sfs
sh
sha
shakespeare
sham
shan
share
shared
she
sheldon
sherwood
shi
shiga
shikoku
shimane
shin
shizuoka
shmuel
sho
shockley
sholokhov
show
shu
shuen
shui
si
sia
siak
siang
siau
sicilia
sidney
sie
siegbahn
sien
sienkiewicz
sierra
siet
sigrid
silicon
sillanpa
sim
simon
simple
sin
sinclair
singer
single
sinhala
sint
sio
siong
sip
sir
sit
site
siu
siuk
siung
sixtus
size
sizeof
sk
ska
ski
skie
skip
slash
slav
slovakia
slovenia
sls
smalley
smith
smolensk
smoot
so
society
socket
soddy
software
soi
sok
solvay
solzhenitsyn
somalia
some
somme
son
song
sorbia
soria
sot
source
south
soyinka
space
spectroscopy
spitteler
springer
sqrt
square
sri
st
stability
stack
stalin
standard
stanford
stanley
star
startswith
stat
state
states
static
station
statistics
status
staudinger
std
stefan
stein
steinbeck
steinberger
steitz
stem
stephanus
stephen
stern
steve
steven
stlin
sto
stockholm
stoddart
story
str
strasbourg
street
strerror
string
stringtype
strt
struct
structural
structure
stub
studies
style
su
subrahmanyan
substr
sudan
sui
suk
sul
sulawesi
sully
sumatera
sumatra
sumner
sun
sunda
sung
superheavy
support
supported
sur
suriname
surrogate
susceptibility
sut
svante
svedberg
sverdlovsk
svetlana
swahili
swap
switch
sydney
symboliclinkreparsebuffer
symlink
symlinks
syndict
synthesis
sys
system
systemerrortext
sz
szymborska
t
ta
table
tag
tagalog
tagore
tai
taipei
taiwan
tajik
tajikistan
tak
tambov
tamil
tamm
tan
tang
tannoudji
tanzania
tap
target
tarn
tarragona
tat
tatar
tatarstan
taube
taylor
tbilisi
tbs
te
tea
teau
tec
tech
technology
tel
television
telugu
temp
template
temujin
ten
tenggara
tenno
terengganu
tero
tes
test
tet
teu
texas
th
tha
thaai
thai
tham
than
thanh
thap
that
the
their
then
theodor
theodore
theodosius
thet
theu
theui
they
thi
thia
thiap
thiau
thie
thiele
thien
thiet
thin
this
thit
tho
thoi
thok
thomas
thon
thong
thorne
thot
thouless
threeway
thrich
throw
thu
thua
thui
thunder
thung
thuringia
thut
ti
tia
tiam
tiau
tiberius
tie
tienne
time
times
timor
tin
tiselius
tit
tl
tmdb
tmp
to
tobago
tochłowice
today
todd
togo
tokarczuk
tokugawa
tokushima
tolkien
tom
tomas
tome
tomsk
ton
tong
tonga
toni
top
topic
torino
toronto
toscana
tottori
tous
toutf
towchar
town
townes
tra
tracy
traianus
traits
transactinide
transactinides
transition
transtro
tre
trentino
trieste
trinidad
tripura
trois
true
trump
trung
ts
tsa
tsai
tsak
tsam
tsan
tsang
tsat
tse
tsen
tset
tseu
tseui
tsha
tshai
tshak
tshat
tshe
tshet
tshi
tshia
tshiam
tshie
tshin
tshio
tshit
tshiu
tshiuk
tsho
tshoi
tshon
tshong
tshu
tshui
tshuk
tshung
tshut
tsi
tsia
tsiak
tsiap
tsiet
tsim
tsin
tsio
tsiok
tsit
tsiu
tsiuk
tso
tsoi
tsok
tson
tsong
tsou
tsu
tsui
tsuk
tsun
tsung
tsut
tter
tu
tui
tuk
tula
tun
tung
tunisia
turin
turk
turkic
turkmen
turkmenistan
tuva
tv
tvbs
tver
tw
twitter
two
type
typedef
typename
tyrrhenian
tyu
tyumen
u
ua
uckermark
uganda
ugria
ui
uielem
uint
uintmax
uk
ukraina
ull
ulong
ulyanovsk
umbria
un
und
underlying
undset
unicode
unicodestring
union
united
universita
universite
university
unknown
unrecognized
unsigned
up
updatecurrent
ural
urbanus
urbino
urdu
urey
url
uruguay
us
use
ushort
using
utah
utc
utf
uyghur
uzbek
uzbekistan
v
va
val
valencia
valentinian
valeria
valerius
valle
value
values
van
vancouver
vargas
vatican
vaucluse
ve
vector
veltman
veneto
venezia
venezuela
ver
verginia
verner
version
vet
vi
vicente
victor
victoria
video
vienne
view
village
villagers
villages
vincent
vinci
virgin
virginia
virtanen
vis
vitaly
vitos
vladimir
vleck
vo
voi
void
vok
volga
volgograd
vologda
von
vong
voronezh
vu
vuk
vun
vung
vut
w
wa
waak
waan
wai
wakayama
walcott
wales
walker
wall
wallach
walon
walt
walter
walther
walton
wan
wang
wars
was
washington
washingtonpost
way
wayback
wchar
we
weakly
web
website
week
weights
weinberg
wendell
were
werner
west
westphalia
what
when
where
which
while
white
who
wi
wie
wieland
wieman
wien
wigner
wiki
wikimedia
wikipedia
wikiquote
wikisource
wiktionary
wilczek
wilde
wiley
wilhelm
wilkinson
willard
willem
william
williams
willis
willsta
wilson
win
windows
windsor
winner
winning
winston
winter
wisława
with
wojewo
wole
wolfgang
wolfsburg
wong
woodrow
woodward
work
world
write
wstring
wu
wui
wun
wut
www
wylie
władysław
x
xfffd
xy
y
ya
yakut
yam
yamagata
yamaguchi
yamato
yan
yang
yaroslavl
yau
ye
year
yeats
yen
yet
yeu
yew
yi
yim
yin
yit
yiu
yo
yok
yong
york
yorkshire
yoruba
yosef
you
young
your
youtube
yu
yucata
yuk
yun
yung
yves
z
zaap
zai
zak
zambia
zamenhof
zan
zaragoza
zau
zazaki
zdro
ze
zealand
zeilinger
zeng
zernike
zewail
zhang
zhi
zhores
zi
zim
zio
zit
ziu
zoi
zong
zsigmondy
zu
zui
zuk
zung
{
|
}
~
£
«
­
°
²
·
»
×
÷
đa
đi
đie
đo
ło
ŋ
ſ
ɔ
ə
ɛ
ɤ
ɿ
ʃ
ʦ
ʧ
ʰ
ʻ
ʾ
ˇ
ˈ
ˊ
ˋ
ˌ
ː
̀
́
̂
̃
̄
̆
̇
̈
̉
̊
̌
̍
̓
̔
̛
̣
̤
̥
̧
̨
̿
͂
΄
α
β
γ
δ
ε
ν
ο
π
ς
бласть
в
вская
года
д
дская
и
л
н
нская
о
р
республика
с
у
ч
я
ְ
ִ
ַ
ָ
ֹ
ּ
ׁ
א
ב
ד
ה
הו
ח
י
כ
ל
ם
מ
נ
ע
ר
ש
ת
ا
استان
م
و
ي
َ
ُ
ّ
ٓ
ٔ
ٕ
ި
ं
क
ग
ट
ठ
त
द
न
प
ब
भ
म
य
र
ल
व
श
ष
स
ह
ा
ि
ी
ु
ृ
े
ो
्
ং
প
ব
র
ল
া
ি
ী
ু
্
ਜ
ਦ
ਪ
ਬ
ਾ
ੀ
ੰ
ગ
ત
ા
ી
ુ
ଆ
଼
ି
ழ
ி
்
ం
గ
త
ల
ా
ు
ె
్
ನ
್
ം
ക
ന
ാ
ു
്
ං
ක
න
ප
ය
ර
ව
ස
්
ා
ැ
ි
ු
ෙ
ช
ั
ิ
໊
་
ཁ
ག
ང
ཉ
ད
ན
བ
མ
ཡ
ར
ལ
ས
ི
ུ
ེ
ོ
ྐ
ྫ
ྱ
ྲ
ླ
ྷ
မ
သ
ာ
ႃ
ႇ
동구
서구
중구
현대
ខ
ភ
ម
រ
ស
ា
ែ
្
ᠬᠣᠲᠠ
​
‍
‎
–
—
‘
’
“
”
„
•
…
‧
‰
′
″
‹
›
⁡
ⁿ
℃
№
→
↔
↦
↷
∑
−
∗
∞
∫
∶
≈
⋅
⋯
①
②
③
④
⑦
─
△
⺀
⺄
⺆
⺈
⺊
⺌
⺕
⺝
⺸
⺼
⿰
⿱
⿲
⿳
⿴
⿵
⿶
⿷
⿸
⿹
⿺
⿻
、
。
〈
〉
《
》
「
」
『
』
【
】
〔
〕
〢
あ
い
う
え
お
か
き
く
け
こ
さ
し
す
せ
そ
た
ち
っ
つ
て
と
な
に
ぬ
ね
の
は
ひ
ふ
へ
ほ
ま
み
む
め
も
ゃ
や
ゅ
ょ
よ
ら
り
る
れ
ろ
わ
を
ん
゙
゚
ァ
ア
ィ
イ
ウ
ェ
エ
オ
カ
キ
ク
ケ
コ
サ
シ
ス
セ
ソ
タ
チ
ッ
ツ
テ
ト
ナ
ニ
ネ
ノ
ハ
ヒ
フ
ヘ
ホ
マ
ミ
メ
モ
ャ
ヤ
ユ
ョ
ラ
リ
ル
レ
ロ
ワ
ン
・
ー
ㄉ
ㄏ
ㄓ
ㄔ
ㄕ
ㄖ
ㄤ
ㄨ
㇁
㇂
㇄
㇇
㇈
㇉
㇓
㐁
㐄
㐅
㐌
㐫
㐬
㐭
㐮
㐱
㑒
㒵
㒸
㒼
㓁
㓞
㓾
㔾
㕛
㕣
㖾
㘝
㚅
㚇
㚔
㚘
㝉
㝡
㝴
㝵
㞋
㞢
㞷
㠩
㠭
㠯
㡀
㡭
㡿
㢲
㢴
㣇
㣺
㥯
㪅
㫄
㫐
㫒
㫺
㬅
㬎
㬥
㬰
㲋
㳄
㷠
㸒
㸚
㸦
㼌
㼲
㽞
㿟
䀠
䂞
䍃
䏍
䒑
䖍
䖒
䖝
䖵
䙴
䚻
䜌
䝿
䡛
䧹
䪞
一
丁
丂
七
丄
丅
丆
万
丈
三
上
下
丌
不
与
丏
丐
丑
专
且
丕
世
丘
丙
业
东
丞
丢
丣
两
严
並
丨
丩
个
丫
丬
中
丮
丰
丱
串
临
丵
丶
丷
丸
丹
为
主
丼
丽
举
丿
乀
乂
乃
久
乆
乇
么
义
之
乌
乍
乎
乏
乐
乑
乔
乖
乗
乘
乙
乚
乛
乜
九
乞
也
习
乡
书
乳
乾
亀
亂
亅
了
亇
予
争
事
二
亍
于
亏
亐
云
互
亓
五
井
亘
亚
些
亜
亞
亟
亠
亡
亢
交
亥
亦
产
亨
亩
享
京
亭
亮
亯
亰
亲
亳
亶
亷
人
亻
亼
亾
亿
什
仁
仄
今
介
仌
仍
从
仐
仑
仒
仓
仔
仕
他
付
仙
仝
代
令
以
们
仮
仰
仲
件
任
份
企
伊
伍
伏
伐
休
优
伙
会
传
伦
伪
伯
估
伴
伸
似
佃
但
佇
佈
位
低
住
佐
佑
体
佔
何
佘
余
佛
作
你
佢
佥
佩
佬
佳
併
使
侄
來
侈
例
侌
侖
供
依
侯
侵
便
係
促
俄
俊
俐
俗
保
俞
信
俫
修
俱
倈
倉
個
倍
們
倒
候
借
倠
倡
倫
倭
值
假
偉
偏
做
停
健
側
偵
偶
傅
傑
備
傢
傣
傳
債
傷
傾
僅
僉
像
僑
僕
價
儀
億
儒
儕
儘
優
儲
儿
兀
允
兂
元
兄
充
兆
兇
先
光
兊
克
兌
免
兑
兒
兓
兔
党
兜
兟
入
內
全
兩
兪
八
公
六
兮
兰
共
关
兴
兵
其
具
典
兹
养
兼
冀
冂
冃
冄
内
冇
冈
冉
冊
冋
册
再
冎
冏
冐
冒
冓
冕
冖
冗
冘
军
农
冝
冠
冡
冥
冫
冬
冰
况
冷
准
凉
凌
凍
凝
几
凡
凢
凰
凱
凵
凶
凷
凸
凹
出
函
凾
刀
刁
刂
刃
刄
刅
分
切
刊
刍
刑
划
刕
刖
列
刘
则
初
判
別
利
别
到
制
券
刺
刻
則
削
剌
前
剑
剛
剡
剧
副
割
創
剽
劃
劇
劉
劍
力
办
功
加
劦
动
助
努
劫
劳
劵
勁
勃
勇
勉
勒
動
務
勝
勞
勢
勤
勳
勵
勹
勺
勻
勾
勿
匀
匂
包
匆
匈
匊
匋
匍
匕
化
北
匙
匚
匝
匠
匡
匣
匪
匯
匱
匸
匹
区
医
匽
匿
區
十
卂
千
卄
卅
卆
升
午
卉
半
卌
华
卑
卒
卓
協
单
卖
南
博
卜
卝
卞
占
卡
卢
卣
卤
卦
卩
卪
卫
卬
卯
印
危
即
却
卵
卷
卸
卻
厂
厃
厄
历
厈
厉
厌
厓
厘
厚
厝
原
厤
厥
厨
厭
厲
厶
厷
厸
去
厼
厽
县
叀
参
參
叅
又
叉
及
友
双
反
叐
发
叒
叔
叕
取
受
变
叚
叜
叟
口
古
句
另
叩
只
叫
召
可
台
叱
史
右
叵
叶
号
司
叹
叺
吂
吃
各
吅
合
吉
吊
吋
同
名
后
吏
吐
向
吕
君
吝
吞
吟
否
吧
含
启
吳
吴
吵
吸
吹
吾
呂
呆
呈
告
呎
员
呙
周
味
呵
呸
呼
命
咀
咁
咅
和
咎
咖
咠
咢
咨
咬
咸
咼
哀
品
哆
哇
哈
哉
响
員
哥
哩
哪
哭
哲
哺
唇
唐
唔
唧
售
唯
唱
商
啇
問
啚
啟
啡
啤
啦
啬
啻
善
喉
喊
喜
喝
喪
喬
單
喺
喿
嗇
嗎
嗟
嘀
嘅
嘉
嘔
嘛
嘯
嘴
噂
噍
器
噩
噪
嚴
囊
囗
囘
囙
囚
四
回
囟
因
団
囧
囬
园
囯
困
囱
囷
固
国
图
圂
圅
圈
國
圍
園
圓
圖
團
土
圡
圣
圥
在
圩
圭
地
圳
圶
场
圼
址
坂
均
坊
坎
坐
坑
坒
坚
坟
坡
坦
坪
坳
坴
坵
垂
型
垌
垔
垚
垣
埀
埃
埋
城
埔
埗
域
埠
埤
埶
執
培
基
埼
堂
堅
堆
堇
堡
堤
堯
堰
報
場
堵
堺
塊
塌
塑
塔
塗
塘
塚
塞
填
塵
塾
境
墓
增
墟
墨
墩
墮
壁
壇
壓
壘
壞
壤
壩
士
壬
壯
声
壳
壴
壹
壺
壽
夂
处
夅
夆
备
夊
夋
夌
复
夏
夒
夕
外
夗
夘
多
夜
夠
夢
大
夨
天
太
夫
夬
夭
央
失
夲
头
夷
夸
夹
夻
夾
奂
奄
奇
奈
奉
奎
奏
奐
契
奓
奔
奕
奖
套
奚
奞
奠
奢
奥
奧
奪
奭
奮
女
奴
奶
她
奻
好
如
妄
妙
妝
妟
妥
妮
妹
妻
妾
姆
姊
始
姑
姓
委
姚
姜
姻
威
娄
娘
娛
娜
婁
婆
婚
婦
婭
婴
婿
媒
媽
嫩
嫲
嬛
嬰
嬴
子
孑
孔
孕
孖
字
存
孙
孚
孛
孝
孟
季
孤
学
孩
孫
孱
孵
學
宀
宁
宂
它
宅
宇
守
安
宋
完
宏
宓
宕
宗
官
宙
定
宛
宜
宝
实
客
宣
室
宮
宰
害
家
容
宾
宿
寄
寅
密
富
寒
寓
察
實
寧
寨
審
寫
寬
寮
寶
寸
对
寺
寻
导
寽
対
寿
封
尃
射
将
將
專
尉
尊
尋
尌
對
導
小
少
尒
尓
尔
尖
尗
尙
尚
尞
尢
尣
尤
尧
尨
尭
就
尸
尹
尺
尻
尼
尽
尾
尿
局
层
居
屆
屈
届
屋
屎
屏
屐
屑
展
屖
屚
属
屠
屡
層
屬
屮
屯
屰
山
屵
屾
岁
岂
岐
岑
岗
岛
岡
岩
岭
岳
岸
峒
峡
峨
峯
峰
島
峻
峽
崇
崎
崑
崔
崖
崗
崙
崧
崩
嵌
嵬
嶲
嶺
嶼
嶽
巂
巖
巛
川
州
巟
巠
巢
巤
工
左
巧
巨
巩
巫
差
己
已
巳
巴
巷
巸
巽
巾
巿
帀
市
布
帆
师
希
帕
帖
帚
帛
帜
帝
帥
带
師
席
帳
帶
常
帽
幅
幕
幢
幣
幫
干
平
年
幵
并
幷
幸
幹
幺
幻
幼
幽
幾
广
広
庄
庆
庇
床
序
库
底
店
庚
府
度
座
庫
庭
庶
康
庸
廂
廈
廉
廊
廌
廖
廛
廟
廠
廢
廣
廩
廬
廳
廴
延
廷
建
廾
廿
开
弁
弃
弄
弇
弋
式
弓
弔
引
弗
弘
弜
弟
弥
弦
弧
弱
張
強
弹
强
弼
弾
彈
彊
彌
彎
彐
彑
当
彔
录
彖
彗
彙
彝
彡
形
彥
彦
彧
彩
彭
彰
影
彳
役
彼
往
征
待
很
律
後
徐
徑
徒
得
徙
從
徠
御
復
循
微
徳
徵
德
徹
徽
心
忄
必
忌
忍
忒
志
忙
忝
忠
忩
快
念
忽
忿
态
怒
怕
思
怠
怡
急
性
怨
怪
怱
总
恁
恃
恆
恐
恒
恥
恨
恩
恪
恭
息
恰
悅
悉
悠
患
悤
您
悪
悲
悶
情
惜
惟
惠
惡
惢
想
惹
愁
愈
愉
意
愛
感
愷
慈
態
慎
慕
慘
慢
慣
慧
慮
慶
憂
憑
憤
憲
懂
應
懲
懷
懸
戀
戈
戉
戊
戋
戌
戍
戎
成
我
戒
戔
或
战
戚
戠
戢
截
戰
戲
戴
戶
户
戹
戼
戾
房
所
扁
扇
手
扌
才
打
托
扣
执
扮
扶
批
找
承
技
把
抑
投
抗
折
报
抱
抵
押
抽
担
拆
拉
拋
拍
拒
拔
拖
拘
招
拜
括
拯
拳
拼
拾
拿
持
指
按
挑
挨
挪
振
捉
捐
捕
捞
换
捧
据
捱
捲
捷
掃
授
掉
掌
排
掛
採
探
掣
接
控
推
措
掷
描
提
插
揚
換
握
揪
揭
揮
援
損
搖
搜
搞
搬
搭
搶
摄
摎
摩
摸
撇
撈
撐
撒
撤
撥
播
撮
擁
擂
擇
擊
操
擎
擔
據
擠
擦
擬
擱
擴
擺
擾
攀
攜
攝
支
攴
攵
收
攸
改
攻
放
政
敄
故
效
敏
救
敕
敖
敗
敘
教
敝
敞
敢
散
敦
敫
敬
数
整
敵
敷
數
斂
斃
文
斉
斊
斗
料
斜
斡
斤
斥
斩
斬
斯
新
斷
方
於
施
斿
旁
旅
旋
旌
族
旗
无
旡
既
旣
日
旦
旧
旨
早
旬
旮
旯
旱
旲
时
旺
旾
昂
昆
昇
昊
昌
昍
明
昏
易
昔
昗
昜
星
映
春
昬
昭
是
昱
昴
昷
時
晃
晉
晋
晏
晓
晚
晡
晨
普
景
晴
晶
智
暂
暑
暖
暗
暨
暫
暴
曆
曇
曉
曙
曜
曝
曩
曰
曲
曳
更
曷
書
曹
曼
曾
替
最
朁
會
月
有
朋
服
朏
朔
朕
朗
望
朝
期
木
朩
未
末
本
札
朮
术
朱
朴
朵
朶
朿
杀
权
杉
李
杏
材
村
杜
束
条
来
杭
杰
東
杲
杳
松
板
析
林
枚
果
枝
枲
架
枼
柄
柏
某
柑
染
柔
查
柬
柯
柰
柱
柳
柴
柿
标
栗
校
株
核
根
格
桀
桂
桃
案
桌
桐
桑
桔
桶
桼
桿
梁
梅
梓
梗
條
梟
梧
梨
梭
梯
械
梵
棄
棉
棋
棍
棕
棘
棟
棠
棣
棥
森
棱
棲
椅
植
椏
椒
椚
楊
楓
楚
楠
業
極
楽
概
榕
榜
榮
榴
構
槍
樂
樊
樓
標
樟
模
樣
横
樵
樸
樹
樺
橋
橘
橙
機
橫
檔
檢
檨
檸
櫃
櫻
欄
權
欖
欠
次
欣
欧
欮
欲
欶
欸
欺
欽
款
歆
歇
歌
歐
歛
歡
止
正
此
步
武
歧
歨
歪
歮
歯
歰
歲
歴
歷
歸
歹
歺
死
殇
殊
殖
殘
殳
段
殷
殸
殹
殺
殻
殼
殿
毀
毅
毋
毌
母
每
毒
毓
比
毕
毗
毚
毛
毫
毳
氏
氐
民
氓
气
氣
氧
氨
氫
水
氵
氶
氷
永
氺
氾
汀
汁
求
汉
汐
汕
汗
汛
汝
汞
江
池
污
決
汽
沃
沈
沉
沐
沒
沓
沖
沙
沛
沝
沢
沫
河
油
治
沼
沿
況
泉
泊
法
泗
泛
泡
波
泣
泥
注
泰
泳
泽
洋
洗
洛
洞
津
洪
洲
活
派
流
浊
济
浙
浦
浩
浪
浮
海
浸
涂
消
涉
涌
涪
涯
液
涵
涼
淆
淑
淞
淡
淨
淩
淮
深
淳
淵
混
淸
淺
添
清
渋
渚
減
渠
渡
渥
温
測
港
渴
游
湖
湘
湛
湧
湮
湯
源
準
溝
溢
溪
溫
溯
滅
滋
滑
滲
滴
滾
滿
漁
漂
漆
漏
演
漢
漫
漳
漸
漿
潔
潘
潛
潟
潤
潭
潮
澀
澎
澤
澧
澳
激
濁
濃
濕
濛
濟
濤
濫
濯
濱
瀏
瀘
瀛
瀝
瀧
瀨
瀰
灌
灘
灣
火
灬
灭
灰
灵
灶
灷
災
炅
炎
炏
炗
炙
炭
炸
点
為
烈
烏
烘
烝
烤
焉
焚
無
焦
焱
然
煙
煞
照
煮
熄
熊
熏
熙
熟
熱
燈
燒
燕
燜
營
燭
燮
爆
爐
爛
爧
爪
爫
爬
爭
爯
爰
爱
爲
爵
父
爸
爺
爻
爽
爾
爿
牆
片
版
牌
牙
牚
牛
牜
牟
牢
牧
物
牪
牲
特
牽
犀
犁
犬
犭
犮
犯
状
狀
狂
狄
狊
狐
狗
狡
独
狹
狺
狼
猋
猒
猛
猪
猫
献
猴
猶
獄
獅
獎
獨
獲
獵
獻
玄
率
玉
王
玕
玟
玨
玩
环
现
玲
玻
珀
珂
珍
珎
珠
班
現
球
琅
理
琉
琦
琳
琴
琹
瑋
瑜
瑞
瑟
瑤
瑩
瑪
璃
璋
璘
環
璽
瓊
瓜
瓣
瓦
瓶
甄
甌
甘
甚
甜
生
產
産
用
甫
甬
甯
田
由
甲
申
电
甶
男
甸
甹
町
画
甾
畀
界
畏
畐
畑
畔
留
畜
畝
畟
畢
略
畧
畨
番
畫
異
畱
畲
當
畺
畾
畿
疆
疊
疋
疌
疏
疑
疒
疔
疫
疲
疾
病
症
痔
痛
痢
瘓
瘡
療
癱
癶
癸
癹
発
登
發
白
百
皀
皃
的
皆
皇
皋
皐
皕
皮
皷
皺
皿
盃
盆
盇
盈
益
盍
盎
监
盒
盖
盛
盜
盟
盡
監
盤
盧
目
直
相
盾
省
眇
眉
看
県
眔
眞
真
眠
眷
眼
眾
着
睇
睘
睞
督
睦
睪
睭
睹
睿
瞏
瞢
瞭
瞿
矍
矛
矞
矢
矣
知
矦
矩
短
矮
石
矽
矿
砂
研
砦
破
硅
硬
硯
碇
碎
碑
碗
碩
碳
確
碼
磁
磊
磚
磡
磨
磯
礎
礙
礦
示
礻
礼
社
祈
祐
祖
祛
祝
神
祟
祠
祥
票
祭
禀
禁
福
禧
禪
禮
禱
禸
禹
禺
离
禽
禾
禿
秀
私
秃
秉
秋
种
科
秒
秘
秝
租
秦
秧
秩
积
称
移
稀
稅
程
稍
稚
稟
種
稱
稻
稽
稿
穀
穆
穌
積
穩
穴
究
穹
空
穿
突
窄
窒
窗
窩
窮
窰
竄
立
竒
站
竜
竝
竞
竟
章
竣
童
端
競
竹
竿
笑
笠
符
第
筆
等
筋
筍
筑
答
策
筲
简
箇
箕
算
管
箭
箱
箴
節
範
篇
築
篠
篡
篤
篭
簡
簧
簽
籍
籠
籤
籲
米
粄
粉
粒
粛
粟
粤
粦
粲
粵
粽
精
糕
糖
糞
糧
糯
糸
糹
系
紀
約
紅
紋
納
紐
純
紙
級
紛
素
紡
索
紫
累
細
紹
終
組
結
絕
絜
絡
給
絫
統
絲
綏
經
綜
綠
綢
綫
維
綱
網
綿
緊
緋
緑
緒
線
緣
編
緩
緬
緯
練
緻
縣
縫
縮
縱
總
績
繁
繆
繇
織
繞
繩
繪
繹
繼
纂
續
纍
纖
纜
纟
红
约
级
纳
纸
线
组
细
织
终
绍
经
绝
统
缓
编
缶
缺
网
罒
罔
罕
罗
罙
罡
罢
罩
罪
置
署
罷
羅
羊
羌
羍
美
羔
羕
羗
羞
羡
羣
群
義
羯
羲
羸
羽
翁
翏
習
翔
翕
翟
翠
翩
翰
翹
翻
翼
耀
老
耂
考
者
耆
而
耎
耐
耑
耒
耕
耗
耳
耴
耶
耷
聂
聊
联
聖
聚
聞
聯
聰
聲
聶
職
聽
聿
肀
肃
肅
肆
肇
肉
肖
肙
肚
肝
股
肢
肥
肩
肯
育
肴
肺
胃
背
胚
胞
胡
胥
胲
胸
能
脂
脈
脉
脊
脩
脫
腎
腐
腓
腔
腦
腰
腳
腹
腾
腿
膚
膜
膝
膠
膨
臂
臘
臟
臣
臤
臥
臧
臨
自
臬
臭
臯
臱
至
致
臺
臻
臼
臽
臾
臿
舀
舂
舄
舅
與
興
舉
舊
舌
舍
舒
舖
舛
舜
舞
舟
航
般
船
艮
良
色
艸
艹
艺
艾
芈
芎
芒
芔
芙
芝
芦
芬
芮
花
芳
芷
芺
芻
芽
苑
苔
苗
苟
若
苦
英
茂
范
茄
茅
茨
茲
茵
茶
茸
荃
荅
草
荒
荔
荣
荷
荼
莆
莉
莊
莎
莓
莞
莧
莫
莱
莽
菆
菇
菈
菊
菐
菜
菩
華
菱
菲
菻
萄
萊
萍
萎
萩
萬
落
葉
著
葛
葡
董
葫
葬
葵
蒂
蒙
蒜
蒦
蒲
蒸
蒼
蓄
蓉
蓋
蓬
蓮
蓺
蔑
蔗
蔚
蔡
蔣
蔥
蔬
蔭
蕃
蕉
蕭
薄
薇
薑
薛
薦
薩
薯
薰
藉
藍
藏
藝
藤
藥
藩
蘆
蘇
蘋
蘭
蘼
虍
虎
虐
虒
虔
處
虖
虗
虘
虚
虛
虜
虞
號
虧
虫
虹
虽
蚌
蚤
蚧
蚩
蚻
蛄
蛇
蛋
蛙
蛛
蛟
蛤
蜀
蜂
蜃
蜆
蜊
蜍
蜓
蜘
蜜
蜞
蝕
蝙
蝠
蝦
蝨
蝲
蝴
蝶
融
螺
蟆
蟲
蟹
蟻
蟾
蠅
蠔
蠟
蠡
蠣
蠻
血
衆
衊
行
衍
術
街
衙
衛
衝
衡
衣
衤
表
衮
衰
衿
袁
袋
袒
袖
袞
被
裁
裏
裔
裕
補
裝
裡
裸
製
複
褒
褭
褱
襄
襲
襾
西
覀
要
覃
覆
見
規
覓
視
覧
親
覺
覽
觀
见
视
角
解
觸
言
訁
訂
訇
計
訊
討
訓
託
記
訟
訪
設
許
訴
診
註
詐
詔
評
詞
詢
試
詩
詰
話
該
詳
詹
誌
認
誕
誘
語
誠
誣
誤
誦
誩
說
読
誰
課
誼
調
談
請
論
諦
諸
諾
謀
謂
謎
謙
講
謝
謹
證
識
譜
警
譯
議
譲
護
譽
讀
變
讌
讓
讠
计
认
议
讯
记
讲
讷
话
该
语
诺
读
调
谥
谱
谷
豆
豈
豊
豐
豕
豖
豙
象
豦
豩
豪
豬
豸
豹
豺
貇
貌
貓
貝
貞
貟
負
財
貢
貧
貨
販
貪
貫
責
貳
貴
買
費
貼
貿
賀
賁
賄
資
賈
賏
賓
賔
賛
賜
賞
賢
賣
質
賴
購
賽
贈
贊
贖
贛
贝
贡
责
质
贯
贲
贵
资
赖
赛
赞
赤
赦
赫
走
赵
起
趁
超
越
趕
趙
趣
足
趾
跌
距
跟
跡
跨
路
跳
踏
踐
踯
蹄
蹇
蹈
蹟
蹤
躁
躍
身
躬
車
軌
軍
軎
軒
軟
較
載
輋
輔
輕
輛
輝
輦
輪
輯
輸
輾
轄
轉
车
轨
较
辖
辛
辜
辟
辣
辥
辦
辭
辰
辱
農
辵
辶
边
达
迁
迅
过
迎
运
近
返
还
这
远
连
迦
迩
迪
迫
述
迴
迷
追
退
送
逃
逆
选
透
逐
途
這
通
逝
速
造
逢
連
逮
週
進
逸
逼
逾
遀
遂
遇
遊
運
遍
過
道
達
違
遙
遜
遠
遣
適
遭
遮
遲
遵
遷
選
遺
遼
遽
避
邁
還
邇
邊
邏
邑
邕
那
邦
邨
邪
邱
邵
郁
郅
郊
郎
郝
郡
部
郭
郵
都
鄂
鄉
鄒
鄧
鄭
鄰
酉
酋
配
酒
酓
酬
酱
酷
酸
醃
醉
醍
醐
醒
醫
醬
釀
釆
采
釋
里
重
野
量
金
釒
釜
針
鈞
鈰
鈴
鉉
鉛
銀
銅
銘
銨
銷
鋒
鋪
鋼
錄
錢
錦
錫
錯
鍋
鍥
鍵
鍶
鍾
鎖
鎮
鏗
鏡
鐘
鐵
鑊
鑑
鑼
鑽
钅
钟
铁
镇
長
镸
长
門
閃
閉
開
閏
閑
閒
間
閔
閘
関
閣
閩
閱
閲
閵
閻
闊
闌
關
门
间
闷
闻
闽
阑
阜
阝
阪
防
阳
阶
阻
阿
陀
陂
附
际
陆
陈
降
限
陝
院
陣
除
陰
陳
陵
陶
陸
陽
隆
隊
隋
階
隔
隙
際
障
隡
隧
隨
險
隱
隴
隶
隸
隹
隺
隻
隼
隽
难
雀
雁
雄
雅
集
雈
雉
雋
雌
雍
雐
雔
雕
雖
雙
雚
雜
雝
雞
離
難
雨
雩
雪
雯
雲
零
雷
雹
雺
電
需
霄
震
霍
霖
霜
霝
霞
霧
霰
露
霸
霾
靁
靈
靑
青
靖
静
靚
靜
非
靠
靡
面
靣
革
鞍
鞠
韋
韓
韦
韩
韭
韯
韱
音
韶
韻
響
頁
頂
頃
項
順
須
預
頓
頗
領
頡
頭
頸
頻
顆
題
額
顏
願
顛
類
顯
页
项
顺
顿
领
频
颖
風
风
飛
飞
食
飠
飯
飲
飾
餅
養
餐
餘
館
饒
饣
饼
首
香
馬
馮
馳
駁
駅
駒
駕
駛
駦
騰
騷
驅
驗
驚
驛
马
验
骨
髀
體
高
髟
髮
鬚
鬥
鬧
鬯
鬲
鬼
魁
魂
魅
魏
魔
魚
魯
鮑
鮫
鮮
鯉
鯨
鰂
鰍
鰱
鱔
鱷
鱼
鲁
鳥
鳳
鳴
鴉
鴨
鴻
鵝
鵬
鵰
鵲
鶯
鶴
鷲
鷹
鷺
鸛
鸟
鹵
鹹
鹼
鹽
鹿
麃
麒
麗
麟
麥
麦
麵
麻
麼
黃
黄
黍
黎
黑
黒
默
黛
點
黨
黹
黽
黾
鼎
鼓
鼠
鼻
齊
齋
齐
齒
齡
齿
龍
龔
龙
龜
龟
龠
龰
龱
龴
龵
龶
龷
龸
龹
ꀒ
ꁌ
ꂿ
ꃆ
ꅉ
ꆈ
ꇉ
ꊨ
ꌠ
ꏦ
ꏱ
ꐭ
ꑤ
者
艹
﹑
﹝
﹞
﻿
！
％
（
）
，
－
．
／
：
；
＝
＞
？
｜
～
𠀁
𠀃
𠀆
𠀉
𠀎
𠀐
𠁁
𠁣
𠂆
𠂇
𠂈
𠂉
𠂊
𠂋
𠂎
𠂒
𠂔
𠂛
𠂡
𠂢
𠂤
𠂬
𠂭
𠂹
𠃊
𠃋
𠃌
𠃍
𠃎
𠃑
𠃓
𠃔
𠃜
𠄌
𠄎
𠄠
𠄢
𠆢
𠆥
𠇍
𠈌
𠊎
𠌵
𠓜
𠔉
𠔥
𠔼
𠔽
𠔿
𠕀
𠕁
𠕋
𠘧
𠘨
𠙻
𠙼
𠚏
𠚒
𠚤
𠚪
𠣏
𠤎
𠤕
𠥓
𠦄
𠦑
𠦝
𠧒
𠧗
𠧪
𠩺
𠪚
𠫓
𠫔
𠫤
𠬛
𠬝
𠬞
𠬢
𠬤
𠬶
𠮛
𠮦
𠮷
𠯑
𠱠
𠳮
𠷎
𡈼
𡉀
𡉵
𡌥
𡍮
𡏳
𡕒
𡕩
𡕰
𡖅
𡗗
𡗜
𡘆
𡘤
𡧱
𡨄
𡩧
𡬠
𡭽
𡰣
𡰥
𡰪
𡰯
𡰱
𡷈
𡸁
𡿨
𡿩
𡿪
𡿺
𢀖
𢀛
𢀩
𢁙
𢆉
𢆰
𢆶
𢇁
𢇇
𢉖
𢌬
𢌿
𢏚
𢑑
𢑚
𢖻
𢙣
𢛳
𢦏
𢦒
𢧵
𢼄
𢾕
𣁋
𣄼
𣅀
𣅽
𣍘
𣎳
𣎵
𣏋
𣏼
𣗥
𣥂
𣥖
𣦵
𣦼
𣧄
𣪊
𣪠
𣬉
𣳾
𣶒
𤇾
𤊽
𤐫
𤓰
𤔔
𤕨
𤣩
𤰇
𤰔
𤰞
𤴓
𤴔
𤽄
𥁑
𥁕
𥃦
𥃩
𥃭
𥇡
𥍉
𥑟
𥘅
𥘈
𥝢
𥫗
𥱡
𦈢
𦉪
𦉬
𦉼
𦍌
𦍒
𦎧
𦐇
𦓔
𦔮
𦘒
𦙃
𦚏
𦣝
𦣞
𦣻
𦥑
𦥔
𦥯
𦨉
𦭝
𦰩
𧆞
𧈧
𧘇
𧰨
𧴪
𧴮
𧵩
𧾷
𨸏
𨾴
𩙿
𩠐
𩫏
𩵋
𪉷
𪜀
𪟽
𪠲
𪩲
𫇦
𫔭
𫜸
𫝀
𫠣
𫠩
𫢉
𫥞
𫩏
𫩠
𫪡
𫲽
𫶧
𬀷
𬐘
𬗌
𬙙
𬛸
𬜯
𬟩
𬯁
𬴘
𬺻
𬼉
𬼖
𭀰
𭁈
𭁨
𭅰
𭑈
𭕄
𭗼
𭤨
𭥫
𭻾
𮅕
𮊿
𮍌
𮍏
𮓗
𮥼
𮧮
廾
𰀁
𰀄
𰀈
𰀉
𰀕
𰀠
𰀡
𰀢
𰀪
𰁜
𰃮
𰆊
𰆘
𰋙
𰕎
𰢴
𰧭
𰯲
a--
ab--
ac--
adminis--
ag--
ai--
air--
ak--
al--
alig--
alu--
am--
an--
ap--
ar--
as--
asso--
at--
au--
b--
ba--
bar--
bayeris--
be--
bel--
ber--
bi--
bo--
bou--
bour--
boy--
br--
brat--
bro--
bu--
bucking--
bur--
by--
c--
ca--
cal--
camp--
car--
ce--
cha--
ci--
ck--
cl--
co--
com--
con--
cor--
corn--
cou--
cultu--
cz--
d--
da--
dai--
dar--
de--
den--
di--
dmit--
do--
dr--
du--
dur--
dz--
e--
ec--
el--
elect--
en--
er--
es--
eu--
ex--
exce--
f--
fe--
fi--
fo--
fr--
fu--
g--
ga--
gal--
ge--
geo--
get--
getfile--
getfullpath--
giu--
go--
gor--
gra--
gran--
gre--
gro--
gu--
h--
ha--
haw--
he--
hea--
her--
hera--
hi--
ho--
hu--
i--
ic--
if--
il--
in--
inter--
ir--
is--
it--
ita--
iu--
j--
ja--
jam--
je--
ji--
jo--
ju--
k--
ka--
kan--
ke--
ker--
ki--
ko--
ku--
kur--
l--
la--
lan--
le--
les--
li--
lim--
liq--
lis--
lo--
lu--
lubel--
m--
ma--
mac--
mal--
man--
map--
mat--
małopol--
mcg--
me--
measure--
med--
mel--
melano--
mes--
mi--
mis--
mo--
mor--
mu--
my--
n--
na--
nam--
nas--
ne--
ner--
new--
ng--
ni--
nico--
no--
non--
nor--
nou--
nu--
ny--
o--
op--
or--
os--
p--
pa--
pas--
pe--
pi--
pic--
pl--
po--
pol--
pr--
pre--
presi--
print--
pu--
q--
r--
ra--
re--
reac--
ref--
ro--
ru--
s--
sa--
sam--
san--
sard--
sch--
se--
sea--
shi--
si--
so--
spe--
st--
su--
substitu--
sven--
t--
ta--
tae--
terri--
th--
ti--
to--
tor--
tou--
tran--
tri--
tru--
tu--
u--
un--
up--
ur--
v--
val--
ve--
vi--
vig--
vo--
w--
wa--
war--
we--
wi--
wiki--
wo--
wy--
x--
xf--
y--
ya--
ye--
yo--
yoko--
yu--
z--
ze--
ł--
π--
и--
мо--
н--
о--
י--
ག--
--0
--1
--2
--3
--4
--5
--6
--7
--8
--9
--a
--ac
--ad
--ah
--al
--am
--an
--ana
--ar
--ary
--as
--ate
--ation
--au
--b
--ba
--ber
--bes
--burg
--by
--c
--ca
--cal
--ce
--ch
--ck
--co
--cs
--d
--da
--de
--do
--ds
--dy
--e
--ea
--ed
--eg
--ek
--el
--eld
--en
--eong
--er
--erature
--ered
--ern
--ert
--es
--est
--et
--ey
--f
--ff
--g
--ga
--gan
--ge
--ght
--gi
--go
--gue
--h
--hae
--her
--hi
--i
--ia
--ian
--ic
--ical
--ich
--ics
--id
--ie
--ied
--ien
--ies
--igan
--il
--in
--ine
--ing
--ion
--is
--ite
--ito
--ium
--ius
--ix
--j
--ja
--ju
--k
--ka
--kel
--ki
--ko
--l
--la
--land
--le
--li
--lk
--lka
--ll
--lla
--lles
--lo
--ls
--lsk
--lt
--lu
--ly
--m
--ma
--me
--ment
--mi
--n
--na
--ncy
--nd
--ne
--ner
--nes
--ng
--ni
--no
--ns
--nt
--nto
--nus
--ny
--o
--ok
--omy
--on
--onds
--ong
--or
--os
--ov
--ovo
--p
--pa
--pe
--ps
--pter
--r
--ra
--rage
--rd
--re
--res
--rg
--ri
--ria
--ries
--rk
--rn
--ro
--rs
--rt
--rto
--rus
--ry
--rz
--s
--sa
--san
--se
--sh
--shire
--sk
--ss
--st
--t
--ta
--te
--ted
--ter
--th
--ti
--tic
--tion
--tive
--to
--ts
--tt
--ty
--u
--ue
--um
--ur
--uri
--us
--ux
--v
--va
--ville
--vin
--w
--wo
--ws
--x
--xt
--y
--ya
--yer
--z
--zo
--zyn
--а
--в
--е
--и
--ии
--ки
--ч
