!
"
#
##0
##1
##10
##11
##12
##13
##14
##15
##16
##17
##18
##19
##2
##20
##21
##22
##23
##24
##25
##26
##27
##28
##29
##3
##30
##31
##32
##33
##34
##35
##36
##37
##38
##39
##4
##40
##41
##42
##43
##44
##45
##46
##47
##48
##49
##5
##50
##51
##52
##53
##54
##55
##56
##57
##58
##59
##6
##60
##61
##62
##63
##64
##65
##66
##67
##68
##69
##7
##70
##71
##72
##73
##74
##75
##76
##77
##78
##79
##8
##80
##81
##82
##83
##84
##85
##86
##87
##88
##89
##9
##90
##91
##92
##93
##94
##95
##96
##97
##98
##99
$
%
&
'
(
)
*
+
,
-
.
/
0
00
000
0004
01
02
03
04
05
06
07
08
09
1
10
100
1007
101
1016
1051
1086
11
110
1111
12
120
13
135
136
137
139
14
140
15
150
16
17
18
19
1925
1960
1967
1970
1972
1975
1976
1977
1978
1979
1980
1981
1982
1983
1984
1985
1986
1987
1988
1989
1990
1991
1992
1993
1994
1995
1996
1997
1998
1999
2
20
200
2000
2001
2002
2003
2004
2005
2006
2007
2008
2009
2010
2011
2012
2013
2014
2015
2016
2017
2018
2019
2020
2021
2022
21
22
23
2305
24
25
250
26
27
28
29
3
30
300
31
32
33
34
35
36
37
38
39
4
40
400
41
42
43
44
45
46
47
48
49
5
50
500
51
52
521
53
54
55
56
57
58
59
6
60
61
62
63
6361
64
65
66
67
68
69
7
70
71
72
73
74
75
76
77
78
79
8
80
81
82
84
85
86
87
88
89
9
90
91
92
94
95
96
97
978
98
99
:
;
<
=
>
?
@
[
\
]
^
_
`
a
abc
about
above
abstract
ac
academy
access
accessed
according
account
acid
act
action
active
actor
ad
address
adj
adjective
adjectives
administration
adv
adverb
adverbs
afc
affairs
affix
africa
african
after
again
against
age
agency
agreement
agriculture
ah
ai
air
aircraft
airlines
airport
aj
al
alan
albert
album
alexander
alfred
all
allen
along
alpha
alphabet
also
alternate
alternative
am
america
american
among
an
analysis
ancient
and
andrew
android
angeles
animal
animals
anime
annual
another
anthropology
anti
any
apj
apollo
app
apple
application
applied
april
arab
archaic
architecture
archive
archived
archivedate
archives
archiveurl
are
area
areas
army
around
art
arthur
article
articles
arts
arxiv
as
asean
asia
asian
assembly
associated
association
astronomical
astronomiques
astronomy
astrophysical
astrophysics
at
atlas
atomic
attack
attributive
au
august
aun
aung
australia
australian
author
authority
available
award
awards
away
aye
b
ba
baby
back
background
bad
bamboo
ban
band
bangkok
bank
bar
base
based
basic
battle
bau
baun
bay
bb
bbc
bc
bd
be
bear
bearing
beat
became
because
become
been
beer
before
behind
bei
being
bengal
best
between
beyond
bha
bi
bibcode
big
bill
billboard
billion
bin
biography
bird
birdlife
birds
birth
bja
black
blog
blood
blue
blues
bo
board
boat
boca
body
bomb
book
books
border
born
both
bou
boun
box
boy
break
brian
bridge
brief
bright
bring
britain
britannica
british
brown
browser
brunei
bu
buddha
buddhism
buddhist
building
bulletin
bureau
burma
burmese
business
but
bwe
by
c
ca
calendar
california
call
called
cambodia
cambridge
can
canada
canadian
cany
cap
capital
car
card
care
case
cases
cast
cat
catalog
catalogue
causative
cause
cdc
ce
census
center
central
centre
century
ceo
certain
ch
cha
chan
change
channel
chapter
character
charles
chart
chaung
che
chei
chemical
chemistry
chi
chicago
chief
child
children
chin
china
chinese
cho
chou
chris
christian
christopher
chronicle
chu
church
ci
cia
circle
cite
cities
city
civil
class
classical
classification
classifier
clear
climate
close
cloth
cloud
club
cluster
clusters
cm
cnn
co
code
codes
cold
collection
collective
college
colloquial
color
columbia
com
come
commission
committee
common
commons
communication
community
company
comparable
complete
complex
compound
comprehensive
computer
condition
conference
congress
conj
conservation
constellation
constitution
construction
content
control
copy
core
coronavirus
corporation
could
council
countries
country
county
coup
course
court
cover
covid
crc
crisis
cross
cs
cseligman
cu
cultural
culture
cup
current
cut
d
da
dagon
dai
daily
dain
dan
dance
daniel
dar
dark
data
database
date
daun
david
davis
day
days
dc
de
dead
death
dec
december
deep
defence
defense
defined
definition
degree
dei
del
delhi
delta
democracy
democratic
department
der
des
design
details
development
device
dha
dhamma
dhi
di
dictionary
did
die
dies
different
digital
din
direct
director
discovery
disease
display
displaystyle
distance
district
division
divisions
dmnl
do
doc
doctor
does
dog
doi
domain
don
donald
donne
door
dou
double
down
download
dr
drama
dream
drive
drug
drum
dss
du
due
during
dutch
dvb
dwarf
dynasty
e
each
ear
early
earth
earthquake
east
eastern
economic
economy
ed
edge
edition
eds
edu
education
edward
effect
egypt
ei
ein
el
election
elections
electric
electronic
element
elements
elephant
eleven
elizabeth
empire
empty
en
encyclopedia
encyclopædia
end
energy
eng
engine
engineering
england
english
enpr
entertainment
entry
environment
environmental
ep
equal
equivalent
era
eric
error
es
especially
et
etc
ethnic
ethnologue
eu
europe
european
even
event
events
ever
every
evidence
evil
evolution
evolutionary
ex
example
exchange
executive
exist
explorer
express
extragalactic
eye
eyes
f
fa
face
facebook
fact
factbook
facts
fall
falls
family
far
fast
father
fe
features
feb
february
federal
federation
feel
female
festival
fi
field
fifa
fight
figurative
figure
figures
file
film
final
financial
find
fire
first
fish
five
flag
flight
florida
flowers
fm
folk
following
food
foot
football
for
forbes
force
forces
foreign
forest
form
formal
former
forum
found
foundation
four
fourth
fox
fr
frac
france
francis
frank
free
freedom
french
from
front
frontier
fruit
ft
full
function
fund
future
g
ga
gad
gain
galaxies
galaxy
galex
game
games
gan
gardenia
gas
gaun
gazette
gb
gdp
ge
general
generation
genus
geographic
geological
george
german
germany
get
giant
girl
give
given
gja
gje
gji
gjin
gjou
glass
global
gm
gmmtv
go
god
gold
golden
good
google
goun
gov
government
grand
great
greek
green
ground
group
groups
growth
grunge
gu
guardian
guide
guitar
gun
gwe
gyi
h
ha
had
hair
half
hall
han
hand
handbook
hard
hardcore
harris
harv
harvard
harvey
has
have
having
hca
hce
he
head
health
heart
heat
heavy
held
help
henry
her
herald
here
heritage
hi
hibiscus
hide
high
higher
hill
him
hindi
hindu
hinthada
hip
his
historical
history
hit
hiv
hka
hkam
hkaung
hkya
hla
hlaing
hle
hma
hman
hmannan
hmu
hna
hni
ho
hold
home
hong
horse
hospital
hot
hotel
house
how
however
hpa
hpan
hpe
hpja
hpji
hpu
hpyu
hsa
hsan
hsaun
hse
hsei
hsi
hsin
hsou
hsu
hta
htan
htaung
hte
hti
htin
html
htou
http
https
htu
htui
htwe
hu
hubble
human
hydrogen
hyun
i
iana
ic
ice
id
if
ignored
ii
iii
il
im
image
images
impact
imperial
in
inc
including
incorporating
independence
independent
index
india
indian
indicating
indicative
indonesia
industrial
industry
info
informal
information
inn
inside
institute
instrument
int
intelligence
international
internationale
internet
interposed
interview
into
introduction
invalid
ios
ip
ipa
ipac
iphone
iran
iras
iron
irrawaddy
is
isbn
islam
islamic
island
islands
iso
isp
issn
issue
it
its
iucn
iv
j
ja
jack
james
jan
jane
january
japan
japanese
jaun
java
je
jean
jei
ji
jin
jo
john
johnson
joint
jones
joseph
jou
joun
journal
journey
jpg
jr
ju
july
june
jung
junta
jupiter
just
justice
k
ka
kachin
kai
kaing
kan
kang
karate
karen
kau
kaun
kaung
kawng
ke
keep
key
kg
kha
khan
khe
khin
khou
khu
khun
ki
killed
kim
kin
kind
king
kingdom
kja
kjan
kjau
kjaun
kje
kjei
kji
kjin
kjo
kjou
km
know
knowledge
known
knu
ko
kone
kong
korea
korean
kou
koun
kra
kraung
kri
krui
ku
kun
kwe
kwin
kya
kyar
kyauk
kyaukpadaung
kyaung
kyaw
kyi
kyin
kyo
kyun
kywe
l
la
label
lady
lai
lake
lakes
lam
lan
land
lang
language
languages
lanka
laos
lar
large
largest
last
late
later
latin
lau
laun
launch
laung
law
lay
le
lead
leader
leaf
league
learning
least
leave
leaves
led
lee
left
legal
lei
lein
lel
length
less
let
letter
letters
level
lewis
li
library
life
light
like
limited
lin
line
linguistics
link
linux
list
lit
literary
literature
little
live
living
lo
local
location
loi
london
long
look
lord
los
lose
lost
lou
louis
loun
love
low
lower
ltd
lu
lum
lun
lunar
lwin
m
ma
mac
machine
made
magazine
maha
mai
mail
main
mainstream
maint
major
make
making
malaysia
male
malformed
man
management
mandalay
mang
manner
many
map
maps
mar
march
marine
mark
market
martin
mary
mass
master
match
material
materials
mathematics
matter
maun
maung
maw
mawlamyinegyun
max
may
me
mean
meaning
means
measure
med
media
medical
medicine
meditation
meet
meeting
mei
member
members
memory
men
metal
method
mg
mi
michael
microsoft
mid
middle
mike
military
million
mimu
min
mind
minister
ministry
minor
mir
miss
missing
mission
mizzima
mja
mje
mjei
mji
mjin
mjou
mlcts
mm
mmr
mo
mobile
model
modern
module
moe
mon
monastery
money
mong
monitor
monk
monks
month
monthly
months
monywa
moon
more
morning
morrissey
moscow
most
mother
motion
mou
mount
mountain
move
movement
movie
mp
mr
mrauk
mu
much
mui
multiple
mun
museum
music
musical
muslim
must
mwei
my
mya
myan
myanmar
myaungmya
myay
myint
myo
myothit
myth
mythology
n
na
nam
name
named
names
nan
nar
naruto
nasa
nat
nation
national
nations
natural
nature
nau
nauk
naung
nawng
nd
ne
near
nebula
ned
need
nei
nepal
net
network
never
new
news
next
ng
nga
ngan
ngc
nge
nhk
ni
night
nin
nine
nja
nld
no
nobel
noise
non
north
northern
not
note
notes
noun
nouns
novel
november
now
nu
nuclear
number
numbers
numerical
nya
nyaung
o
object
objects
observatory
obsolete
ocean
oclc
october
of
off
office
officer
official
often
oil
oke
old
olympic
on
once
one
oneself
online
only
open
opening
operation
or
orbit
order
org
organization
origin
original
orthography
os
other
others
ou
oun
our
out
outlook
over
overview
own
oxford
p
pa
pacific
paddy
page
pages
pagoda
pai
pain
paing
palace
pale
pali
palm
pan
pang
paper
par
parameter
parameters
paris
park
parliament
part
participle
particle
particles
parts
party
pass
past
pat
path
pau
pauk
paul
paung
pay
pc
pcodes
pdf
pe
peace
pei
people
per
performance
period
person
personal
persons
peter
pg
ph
philippine
philippines
philosophy
phone
phonetic
php
phra
physical
physics
pi
picture
piece
pin
pinyin
pja
pjan
pji
pjin
pjo
pju
place
plan
planet
planetary
planets
plant
plants
platform
play
pm
pmid
po
point
poke
police
policy
political
politics
pop
popular
population
port
position
post
pou
poun
power
pp
ppm
pra
practice
pre
present
president
press
price
prime
prince
princeton
principles
prison
private
prize
proceedings
process
production
profile
program
programme
programming
progressive
project
pron
pronoun
pronunciation
proper
properties
property
protocol
provided
province
provisional
pt
pu
public
publications
published
publisher
publishers
publishing
pui
punk
put
pwai
pwe
pyay
pyi
pyin
q
qatar
quality
quantity
queen
questions
r
ra
race
radio
rai
railway
rain
ram
rang
range
rangoon
rap
rate
ration
raton
raw
ray
rd
re
real
record
records
red
reduplicated
ref
reference
refs
region
regional
regions
related
relations
release
religion
religious
report
reports
republic
required
research
resources
result
results
retrieved
return
reuters
review
revised
revolution
rhymes
ri
rice
richard
right
rights
ring
rings
rise
river
rkbexplorer
rlts
road
robert
rock
role
roll
roman
room
round
routledge
royal
rp
ru
rui
rule
rules
run
russia
russian
s
sa
safety
sai
said
saint
sam
same
sampa
san
sang
sans
sanskrit
sar
satellite
satellites
saturn
saw
say
says
sb
sbs
sc
school
science
sciences
scientific
scott
screen
script
se
sea
search
season
sebastian
second
secret
secretary
section
security
see
sei
seik
sein
selected
self
senior
sense
sep
september
series
server
service
services
set
seven
sex
sexual
sha
shan
shape
share
she
sheet
shei
shenzhen
shey
shi
shin
ship
shit
sho
short
should
show
shu
shwe
si
side
sign
simbad
simon
simple
sin
since
singapore
single
singular
sinological
sir
sit
site
sites
six
size
sky
slang
small
smith
snooker
so
social
society
soft
software
solar
some
someone
something
son
song
sony
sou
sound
source
south
southeast
southern
soyuz
space
spacecraft
spanish
speak
speaking
special
species
specify
speech
speed
spelling
spirit
sport
sports
spring
springer
sq
square
sri
ssa
st
staff
stage
stand
standard
star
stars
start
state
statement
states
station
statistical
statistics
stative
status
stephen
steve
sth
still
stock
stone
stop
store
story
strasbourg
street
strong
structure
studies
studio
study
style
su
sub
such
suffer
suffixed
sum
summer
sun
sunday
super
support
surface
survey
suu
swe
syn
syns
system
systems
t
ta
tab
table
tag
tai
tain
taing
taiwan
take
takes
talk
tan
tang
tar
tau
taun
taung
taw
taylor
tds
te
tea
team
tech
technical
technology
tei
telegraph
telescope
television
temple
ten
tense
term
terms
test
texas
text
th
tha
thai
thailand
than
thar
that
the
thei
thein
their
them
then
theory
there
these
they
thi
thin
thing
things
third
this
thit
thomas
those
thou
thought
threatened
three
through
thu
thwei
ti
tim
time
times
tin
title
to
today
together
tokyo
tolkien
tom
tone
too
top
total
tou
tour
tourism
tower
town
township
trade
traditional
training
transitive
translation
travel
tree
true
tu
tui
tuing
tun
turn
tv
twe
twin
twitter
two
type
u
uae
ui
uk
un
under
unesco
union
unit
united
universal
universe
university
unknown
until
up
update
upon
upper
urban
url
us
usa
usage
use
used
using
usually
utc
v
va
valley
value
van
variety
various
verb
verbal
verbs
version
very
vi
via
video
vietnam
view
village
virus
visit
visual
voice
vol
volume
von
vowel
vs
vulgar
w
wa
wakema
wales
wall
walter
wan
wang
war
ward
was
washington
wat
watch
water
wave
way
wayback
we
web
website
webster
week
weekly
wei
weight
weights
well
were
west
western
wet
what
when
where
which
while
white
who
whole
why
wi
wide
wife
wiki
wikimedia
wikipedia
wikisky
wild
will
william
williams
wilson
win
wind
windows
winners
with
within
without
woman
women
won
woo
wood
word
words
work
working
works
world
would
writing
written
wu
wuhan
wun
www
x
y
ya
yae
yahoo
yan
yang
yangon
yar
yat
ye
year
years
yellow
yet
yi
yin
yo
york
you
young
your
youtube
yu
ywar
ywarthit
z
za
zan
zay
ze
zee
zei
zh
zi
zin
zone
zu
{
|
}
~
£
§
«
°
±
²
³
´
·
»
×
æ
ŋ
ɑ
ɔ
ɕ
ə
ɛ
ɪ
ɴ
ɹ
ʊ
ʔ
ʰ
ʲ
ʹ
ʻ
ʼ
ʿ
ˀ
ˈ
ˊ
ˋ
ˌ
ː
˥
˦
˧
˨
˩
̀
́
̂
̃
̄
̆
̇
̈
̉
̊
̌
̍
̏
̓
̔
̚
̛
̝
̞
̟
̠
̣
̤
̥
̧
̨
̩
̯
̰
̱
͂
͡
α
β
δ
θ
ο
π
ς
ω
в
г
и
м
н
с
т
׃
،
ا
ب
ت
ج
ح
د
ر
ص
ع
ق
ل
م
ن
ه
و
ي
َ
ُ
ِ
ّ
ْ
ٓ
ٔ
ٕ
ی
۱
ं
क
त
न
प
म
य
र
स
ा
ि
ी
ु
े
्
র
া
ি
ে
্
க
த
ந
ப
ல
ா
ி
ு
ெ
ை
்
ක
ත
ද
න
ප
ම
ය
ර
ව
ස
හ
්
ා
ි
ු
ෙ
ก
ข
ค
ง
จ
ช
ซ
ด
ต
ถ
ท
ธ
น
บ
ป
ผ
พ
ภ
ม
ย
ร
ล
ว
ศ
ส
ห
อ
ั
า
ิ
ี
ึ
ื
ุ
ู
็
่
้
๊
๋
์
ັ
ິ
ີ
່
້
་
က
ကက
ကခ
ကဂ
ကင
ကစ
ကစပ
ကဆ
ကဆက
ကဇ
ကည
ကညင
ကဋ
ကဏ
ကဏန
ကတ
ကတက
ကတစ
ကတည
ကထ
ကထက
ကဒ
ကဓ
ကန
ကနန
ကနဥ
ကပ
ကပင
ကဖ
ကဗ
ကဘ
ကမ
ကမင
ကမန
ကယ
ကရ
ကရက
ကရင
ကရစ
ကရဏ
ကရန
ကရဝ
ကလ
ကလက
ကလင
ကလစ
ကလည
ကလတ
ကလန
ကလပ
ကလမ
ကဝ
ကဝဂ
ကဝတ
ကဝမ
ကသ
ကသစ
ကသည
ကဟ
ကအ
ကအက
ကအခ
ကအစ
ကအတ
ကအဖ
ကအမ
ကအသ
ကဿပ
ခ
ခက
ခခ
ခခရ
ခင
ခစ
ခဆ
ခဏ
ခတ
ခဒ
ခန
ခပ
ခဖ
ခဗ
ခဘ
ခမ
ခမည
ခယ
ခရ
ခရစ
ခရမ
ခလ
ခလရ
ခဝ
ခသ
ခသည
ခအ
ခအဖ
ဂ
ဂက
ဂင
ဂစ
ဂဇ
ဂဇင
ဂဏ
ဂဏန
ဂတ
ဂဒ
ဂန
ဂပ
ဂဗ
ဂမ
ဂမဟ
ဂယ
ဂယက
ဂရ
ဂရက
ဂရင
ဂရစ
ဂရန
ဂရပ
ဂရမ
ဂလ
ဂလက
ဂလင
ဂလန
ဂဝ
ဂသ
ဂဟ
ဂဠ
ဃ
ဃန
ဃရ
င
ငက
ငင
ငတ
ငန
ငပ
ငဖ
ငမ
ငယ
ငရ
ငလ
စ
စက
စကက
စကတ
စကန
စကလ
စခ
စခန
စခမ
စဂ
စင
စစ
စဉ
စည
စတ
စတက
စတင
စတစ
စတန
စထ
စထရ
စန
စနစ
စပ
စပယ
စဖ
စဗ
စဘ
စမ
စမစ
စမတ
စမမ
စယ
စရ
စရစ
စရပ
စလ
စလင
စလန
စလမ
စဝ
စသ
စသည
စသဖ
စအ
ဆ
ဆက
ဆခ
ဆင
ဆစ
ဆည
ဆဋ
ဆတ
ဆထ
ဆဒ
ဆန
ဆပ
ဆမ
ဆယ
ဆရ
ဆရသည
ဆလ
ဆလင
ဆသ
ဆသည
ဆဟ
ဇ
ဇက
ဇဂ
ဇင
ဇစ
ဇဉ
ဇတ
ဇန
ဇပ
ဇဗ
ဇဘက
ဇမ
ဇယ
ဇရ
ဇရစ
ဇရပ
ဇလ
ဇဝ
ဇဝင
ဇဝတ
ဇသ
ဇဟ
ဈ
ဈင
ဉ
ည
ညက
ညင
ညစ
ညဉ
ညည
ညတ
ညန
ညပ
ညဘက
ညမ
ညရ
ညအခ
ဋ
ဋက
ဋကတ
ဌ
ဌက
ဌကထ
ဌဂ
ဌန
ဌဖ
ဌမ
ဌမမ
ဌသ
ဌသည
ဌအဖ
ဍ
ဍက
ဍတ
ဍန
ဍပ
ဍမ
ဍရ
ဎ
ဏ
ဏက
ဏတ
ဏန
ဏဗ
ဏဘ
ဏမ
ဏဝ
ဏသ
ဏသည
တ
တက
တကမ
တကယ
တခ
တခရ
တဂ
တင
တစ
တစက
တစင
တဆ
တဆက
တဆင
တဆယ
တဇ
တဉ
တည
တဏ
တတ
တထ
တဒ
တန
တနင
တနည
တပ
တပင
တပစ
တပည
တပတ
တဖ
တဖက
တဖန
တဗ
တဘ
တဘက
တမ
တမက
တမင
တမန
တမဗ
တမဘ
တမမ
တမလ
တယ
တယမ
တရ
တရက
တရန
တရပ
တရဖ
တရမ
တလ
တလက
တလင
တလည
တလန
တဝ
တဝက
တဝဂ
တဝင
တဝန
တသ
တသက
တသည
တသတ
တသမ
တဟ
တအ
တအဖ
တအမ
တဥ
ထ
ထက
ထင
ထစ
ထည
ထတ
ထန
ထပ
ထဘ
ထမ
ထမင
ထယ
ထရ
ထရစ
ထရန
ထရပ
ထရမ
ထလ
ထဝင
ထသ
ထအက
ဒ
ဒက
ဒကမ
ဒခ
ဒဂ
ဒင
ဒစ
ဒဆ
ဒဌ
ဒဏ
ဒတ
ဒထ
ဒန
ဒနယ
ဒပ
ဒပည
ဒဖ
ဒဗ
ဒဘ
ဒမ
ဒယ
ဒရ
ဒရင
ဒရစ
ဒရမ
ဒရယ
ဒလ
ဒလက
ဒဝ
ဒသ
ဒသည
ဒသန
ဒသမ
ဒဟ
ဒအ
ဒအမည
ဒအရ
ဒအလ
ဒဿန
ဓ
ဓက
ဓဂ
ဓစ
ဓညဝတ
ဓတ
ဓန
ဓနသဟ
ဓပ
ဓဘ
ဓမ
ဓရ
ဓလ
ဓဝ
ဓဝင
ဓသ
ဓဟ
ဓအယ
န
နက
နခ
နဂ
နင
နစ
နဆ
နဉ
နည
နတ
နတစ
နထ
နဒ
နန
နပ
နပန
နဖ
နဗ
နဘ
နမ
နယ
နရ
နရပတ
နရသ
နလက
နဝ
နဝဒ
နသ
နသည
နဟ
နအ
နအဖ
ပ
ပက
ပကတ
ပခ
ပခန
ပဂ
ပင
ပစ
ပဆ
ပဇ
ပဉ
ပည
ပညတ
ပဋ
ပဏ
ပတ
ပထ
ပထမ
ပထမက
ပထမကမ
ပထမဆ
ပထမဆင
ပထမတ
ပထမတန
ပထမန
ပထမပ
ပထမမ
ပထမအက
ပထမအဆင
ပထမဥ
ပထဝ
ပဒ
ပဓ
ပန
ပပ
ပဗ
ပဘ
ပမ
ပမည
ပယ
ပယင
ပရ
ပရက
ပရင
ပရန
ပရပ
ပရမ
ပရမတ
ပရဟ
ပလ
ပလက
ပလင
ပလတ
ပလပ
ပဝ
ပသ
ပသည
ပသမဂ
ပဟ
ပအ
ပဿန
ဖ
ဖက
ဖခင
ဖဂန
ဖင
ဖစ
ဖဆပလ
ဖည
ဖတ
ဖန
ဖပ
ဖမ
ဖယ
ဖရ
ဖရက
ဖရင
ဖရန
ဖလ
ဖလင
ဖလန
ဖလမ
ဖဝ
ဗ
ဗက
ဗကပ
ဗကပတ
ဗဂ
ဗင
ဗစ
ဗဆ
ဗည
ဗတ
ဗထ
ဗဒ
ဗန
ဗပ
ဗမ
ဗယ
ဗရ
ဗရင
ဗရမ
ဗလ
ဗသ
ဗဟ
ဗဟန
ဘ
ဘက
ဘခ
ဘဂ
ဘင
ဘစ
ဘဆ
ဘဇ
ဘဏ
ဘတ
ဘတင
ဘထ
ဘဒ
ဘန
ဘဖ
ဘဘ
ဘမ
ဘယ
ဘရ
ဘရင
ဘရစ
ဘရန
ဘရယ
ဘလ
ဘလက
ဘဝ
ဘဝက
ဘဝင
ဘဝတ
ဘဝတစ
ဘဝန
ဘဝပ
ဘဝဖ
ဘဝမ
ဘဝရ
ဘဝသ
ဘသ
ဘသန
ဘဟ
ဘအ
ဘဥ
မ
မက
မကင
မကထ
မကန
မကပ
မကဘ
မကသ
မခ
မခင
မခန
မခရ
မဂ
မဃ
မင
မငယ
မစ
မစက
မစင
မစပ
မဆ
မဆက
မဆင
မဆန
မဆလ
မဇ
မဉ
မည
မဋ
မဌ
မဏ
မတ
မတက
မတင
မတစ
မတည
မတတ
မတန
မတဖ
မတမ
မတရ
မတလ
မတသည
မတဟ
မတအ
မတအဖ
မထ
မထင
မဒ
မဓ
မန
မနက
မနည
မနပ
မပ
မပင
မဖ
မဗ
မဘ
မမ
မမင
မမည
မယ
မရ
မရက
မရခ
မရင
မရတ
မရန
မရပ
မရဘ
မရမ
မရရ
မရသ
မလ
မလက
မလင
မလည
မဝ
မဝင
မဝတ
မဝန
မသ
မသက
မသင
မသည
မသတ
မသန
မသမ
မဟ
မအ
မအက
မအင
မအထ
မအပ
မအဖ
မအမ
ယ
ယက
ယကထ
ယကမ
ယကအဖ
ယခ
ယခင
ယဂ
ယင
ယစ
ယစက
ယစစ
ယဆ
ယဇ
ယဉ
ယတ
ယတန
ယထ
ယဒ
ယန
ယပ
ယဖ
ယဗ
ယဘ
ယမ
ယမက
ယမင
ယမန
ယယ
ယရ
ယလ
ယဝ
ယဝန
ယသ
ယသည
ယသမ
ယဟ
ယအ
ယအက
ယအဆင
ယအမ
ယဥက
ရ
ရက
ရကန
ရခ
ရခက
ရဂ
ရဂန
ရင
ရစ
ရစက
ရစဉ
ရဆ
ရဇ
ရည
ရဋ
ရဌ
ရဏ
ရတ
ရတစ
ရတတ
ရတန
ရတပ
ရတယ
ရထ
ရဒ
ရဓ
ရန
ရပ
ရဖ
ရဗ
ရဘ
ရမ
ရမင
ရမစ
ရမည
ရမယ
ရမဟ
ရယ
ရရ
ရရင
ရရန
ရလ
ရလက
ရလဒ
ရဝ
ရဝန
ရဝမ
ရသ
ရသက
ရသစ
ရသည
ရသဖ
ရသမ
ရသလ
ရဟ
ရဟတ
ရဟန
ရအ
ရအတ
ရအထက
ရအပ
ရအဖ
ရအမ
ရဥ
လ
လက
လကတ
လကမ
လခ
လခန
လဂ
လင
လစ
လစဉ
လဆ
လဆန
လဇ
လည
လတ
လတစ
လတန
လထ
လဒ
လန
လပ
လပတ
လဖ
လဗ
လဘ
လမ
လမင
လယ
လရ
လလ
လဝ
လဝတ
လသ
လသည
လသမဂ
လဟ
လဟယ
လအ
လအက
လအခ
လအတ
လအထ
လအပ
ဝ
ဝက
ဝကမ
ဝခ
ဝဂ
ဝင
ဝစ
ဝဆ
ဝဇ
ဝဋ
ဝဏ
ဝတ
ဝတရ
ဝထ
ဝဒ
ဝဓ
ဝန
ဝနယ
ဝပ
ဝပတ
ဝဖ
ဝဗ
ဝဘ
ဝမ
ဝမင
ဝမရ
ဝယ
ဝရ
ဝရမ
ဝလ
ဝဝ
ဝဝဝ
ဝဝဝဝ
ဝသ
ဝသည
ဝသန
ဝဠ
ဝအ
ဝအတ
ဝအထ
ဝအလ
သ
သက
သကရ
သခ
သခင
သဂ
သင
သစ
သဆ
သဇ
သဇင
သဉ
သည
သဏ
သတ
သတင
သတစ
သတည
သထ
သဒ
သဓ
သန
သနက
သနစ
သနည
သနဌ
သနန
သနပ
သနပည
သနမ
သနလ
သပ
သပတ
သဖ
သဖန
သဗ
သဘ
သဘင
သမ
သမက
သမဂ
သမင
သမန
သမပ
သမဝ
သယ
သယရ
သရ
သရက
သရင
သရဏဂ
သရန
သရဖ
သရမ
သရသ
သလ
သလက
သလင
သလစ
သဝ
သသ
သသည
သဟ
သအ
သအခ
သအတ
သအဖ
သအမ
သအလ
ဟ
ဟက
ဟခ
ဟဂ
ဟင
ဟစ
ဟစန
ဟစနစ
ဟတ
ဟဒ
ဟန
ဟပ
ဟပတ
ဟမ
ဟယ
ဟရ
ဟသ
ဠ
အ
အက
အကန
အကမ
အကယ
အခ
အခက
အခင
အခတ
အခန
အခမ
အဂ
အဂတ
အင
အငယ
အစ
အစက
အစခ
အစင
အစစ
အစဉ
အစည
အစတ
အစပ
အစမ
အစရ
အဆ
အဆက
အဆင
အဆစ
အဆန
အဆပ
အဆမ
အဆမတန
အဇ
အည
အညစ
အဋ
အဏ
အတ
အတက
အတင
အတည
အတတ
အတန
အထ
အထက
အထင
အထစ
အထည
အထန
အထပ
အထမ
အဒ
အဓ
အဓမ
အန
အနက
အနည
အနတ
အနန
အနယ
အပ
အပင
အပစ
အပတ
အပန
အဖ
အဖက
အဖတ
အဖန
အဖမ
အဗ
အဘ
အဘက
အဘယ
အမ
အမက
အမင
အမည
အမတ
အမမ
အမယ
အမရပ
အယ
အရ
အရက
အရင
အရစ
အရဆ
အရည
အရတ
အရန
အရပ
အရဖ
အရမ
အရလည
အရသ
အရဟ
အရဟတ
အလ
အလက
အလင
အလည
အလတ
အလန
အလမ
အလယ
အဝ
အဝက
အဝင
အဝတ
အဝန
အဝယ
အဝလ
အသ
အသက
အသင
အသစ
အသည
အသတ
အသန
အသပ
အသရ
အဟ
အဟန
အအ
အဥ
ဣ
ဣတ
ဣဒ
ဣန
ဣသရ
ဤ
ဤက
ဤကန
ဤကဗ
ဤခ
ဤင
ဤစ
ဤစက
ဤဆ
ဤဇ
ဤတ
ဤတရ
ဤဒ
ဤန
ဤနည
ဤပ
ဤဖ
ဤဘ
ဤဘဒ
ဤမ
ဤရ
ဤလ
ဤဝ
ဤသ
ဤသည
ဤအ
ဤအက
ဤအခ
ဤအတ
ဤအမ
ဤအမည
ဤအရ
ဤဥပဒ
ဥ
ဥက
ဥစ
ဥတ
ဥဒ
ဥန
ဥပ
ဥပစ
ဥပဇ
ဥပဒ
ဥပမ
ဥပရ
ဥမ
ဥမင
ဥယ
ဥရ
ဥသ
ဧ
ဧက
ဧကန
ဧကပ
ဧကရ
ဧခ
ဧည
ဧတဒဂ
ဧပ
ဧရ
ဧဝ
ဩ
ဩက
ဩဂ
ဩစတ
ဩဇ
ဩဒ
ဩဖ
ဩဘ
ဩမ
ဩဝ
ဪ
ါ
ာ
ိ
ီ
ု
ူ
ေ
ဲ
ဳ
ဴ
ဵ
ံ
့
း
္
်
ျ
ြ
ွ
ှ
ဿ
ဿတ
ဿဒ
ဿန
ဿယ
၀
၀၀
၀၀၀
၀၇
၀၉
၁
၁၀
၁၀၀
၁၀၀၀
၁၀၁
၁၀၂
၁၀၃
၁၀၄
၁၀၅
၁၀၆
၁၀၇
၁၀၈
၁၀၉
၁၁
၁၁၀
၁၁၁
၁၁၂
၁၁၃
၁၁၄
၁၁၅
၁၁၆
၁၁၇
၁၁၈
၁၁၉
၁၂
၁၂၀
၁၂၀၀
၁၂၁
၁၂၂
၁၂၃
၁၂၄
၁၂၅
၁၂၆
၁၂၇
၁၂၇၈
၁၂၈
၁၂၉
၁၃
၁၃၀
၁၃၀၀
၁၃၁
၁၃၂
၁၃၃
၁၃၄
၁၃၅
၁၃၆
၁၃၇
၁၃၈
၁၃၉
၁၃၉၂
၁၄
၁၄၀
၁၄၁
၁၄၂
၁၄၃
၁၄၄
၁၄၅
၁၄၆
၁၄၇
၁၄၈
၁၄၉
၁၅
၁၅၀
၁၅၀၀
၁၅၁
၁၅၂
၁၅၃
၁၅၄
၁၅၅
၁၅၆
၁၅၇
၁၅၈
၁၅၉
၁၆
၁၆၀
၁၆၁
၁၆၂
၁၆၃
၁၆၄
၁၆၅
၁၆၆
၁၆၇
၁၆၈
၁၆၉
၁၇
၁၇၀
၁၇၁
၁၇၂
၁၇၄
၁၇၅
၁၇၆
၁၇၇
၁၇၈၂
၁၇၈၄
၁၈
၁၈၀
၁၈၀၀
၁၈၁
၁၈၁၉
၁၈၂
၁၈၂၄
၁၈၂၆
၁၈၃
၁၈၃၆
၁၈၃၇
၁၈၄၆
၁၈၅
၁၈၅၀
၁၈၅၂
၁၈၅၃
၁၈၅၄
၁၈၅၆
၁၈၅၇
၁၈၅၉
၁၈၆
၁၈၆၁
၁၈၆၃
၁၈၆၄
၁၈၆၆
၁၈၆၇
၁၈၆၈
၁၈၆၉
၁၈၇
၁၈၇၁
၁၈၇၂
၁၈၇၃
၁၈၇၆
၁၈၇၈
၁၈၇၉
၁၈၈
၁၈၈၁
၁၈၈၂
၁၈၈၄
၁၈၈၅
၁၈၈၆
၁၈၈၇
၁၈၈၈
၁၈၈၉
၁၈၉
၁၈၉၁
၁၈၉၂
၁၈၉၃
၁၈၉၄
၁၈၉၅
၁၈၉၆
၁၈၉၇
၁၈၉၈
၁၈၉၉
၁၉
၁၉၀
၁၉၀၀
၁၉၀၁
၁၉၀၃
၁၉၀၄
၁၉၀၅
၁၉၀၆
၁၉၀၇
၁၉၁
၁၉၁၀
၁၉၁၁
၁၉၁၂
၁၉၁၃
၁၉၁၄
၁၉၁၅
၁၉၁၆
၁၉၁၇
၁၉၁၈
၁၉၁၉
၁၉၂
၁၉၂၀
၁၉၂၁
၁၉၂၂
၁၉၂၃
၁၉၂၄
၁၉၂၅
၁၉၂၆
၁၉၂၇
၁၉၂၈
၁၉၂၉
၁၉၃
၁၉၃၀
၁၉၃၁
၁၉၃၂
၁၉၃၃
၁၉၃၄
၁၉၃၅
၁၉၃၆
၁၉၃၇
၁၉၃၈
၁၉၃၉
၁၉၄
၁၉၄၀
၁၉၄၁
၁၉၄၂
၁၉၄၃
၁၉၄၄
၁၉၄၅
၁၉၄၆
၁၉၄၇
၁၉၄၈
၁၉၄၉
၁၉၅
၁၉၅၀
၁၉၅၁
၁၉၅၂
၁၉၅၃
၁၉၅၄
၁၉၅၅
၁၉၅၆
၁၉၅၇
၁၉၅၈
၁၉၅၉
၁၉၆
၁၉၆၀
၁၉၆၁
၁၉၆၂
၁၉၆၃
၁၉၆၄
၁၉၆၅
၁၉၆၆
၁၉၆၇
၁၉၆၈
၁၉၆၉
၁၉၇
၁၉၇၀
၁၉၇၁
၁၉၇၂
၁၉၇၃
၁၉၇၄
၁၉၇၅
၁၉၇၆
၁၉၇၇
၁၉၇၈
၁၉၇၉
၁၉၈
၁၉၈၀
၁၉၈၁
၁၉၈၂
၁၉၈၃
၁၉၈၄
၁၉၈၅
၁၉၈၆
၁၉၈၇
၁၉၈၈
၁၉၈၉
၁၉၉
၁၉၉၀
၁၉၉၁
၁၉၉၂
၁၉၉၃
၁၉၉၄
၁၉၉၅
၁၉၉၆
၁၉၉၇
၁၉၉၈
၁၉၉၉
၂
၂၀
၂၀၀
၂၀၀၀
၂၀၀၁
၂၀၀၂
၂၀၀၃
၂၀၀၄
၂၀၀၅
၂၀၀၆
၂၀၀၇
၂၀၀၈
၂၀၀၉
၂၀၁
၂၀၁၀
၂၀၁၁
၂၀၁၂
၂၀၁၃
၂၀၁၄
၂၀၁၅
၂၀၁၆
၂၀၁၇
၂၀၁၈
၂၀၁၉
၂၀၂၀
၂၀၂၁
၂၀၂၂
၂၀၅
၂၁
၂၁၀
၂၁၂
၂၂
၂၂၀
၂၂၅
၂၂၇
၂၃
၂၃၀
၂၄
၂၄၀
၂၅
၂၅၀
၂၆
၂၇
၂၈
၂၈၀
၂၉
၃
၃၀
၃၀၀
၃၀၀၀
၃၁
၃၂
၃၃
၃၄
၃၅
၃၅၀
၃၆
၃၇
၃၈
၃၈၉
၃၉
၄
၄၀
၄၀၀
၄၀၀၀
၄၁
၄၂
၄၃
၄၄
၄၅
၄၆
၄၇
၄၈
၄၉
၅
၅၀
၅၀၀
၅၀၀၀
၅၁
၅၂
၅၃
၅၄
၅၅
၅၅၀
၅၆
၅၇
၅၈
၅၉
၆
၆၀
၆၀၀
၆၁
၆၂
၆၃
၆၄
၆၅
၆၆
၆၇
၆၈
၆၉
၆၉၀
၇
၇၀
၇၀၀
၇၁
၇၂
၇၃
၇၄
၇၅
၇၆
၇၇
၇၈
၇၈၁
၇၉
၈
၈၀
၈၀၀
၈၁
၈၂
၈၃
၈၄
၈၄၂
၈၅
၈၆
၈၇
၈၈
၈၉
၉
၉၀
၉၀၀
၉၁
၉၂
၉၃
၉၄
၉၅
၉၆
၉၇
၉၈
၉၉
၊
။
၌
၍
၎
၏
ၐ
ၑ
ၖ
ၚ
ၜ
ၞ
ၠ
ၢ
ၣ
ၤ
ၥ
ၪ
ၫ
ၱ
ၵ
ၸ
ၼ
ႃ
ႆ
ႇ
ႈ
ႉ
ႏ
႔
႕
ត
ន
រ
ស
ា
ិ
ុ
្
ᴬ
ᴮ
ᵝ
​
‌
‍
‎
–
—
―
‘
’
“
”
†
‡
•
…
‧
′
″
⁄
⁠
⁻
€
₹
№
™
→
↔
↷
∆
−
⋅
③
④
⑦
◌
♠
⟨
⟩
⺀
⺄
⺆
⺈
⺊
⺌
⺕
⺝
⺸
⺼
⿰
⿱
⿲
⿳
⿴
⿵
⿶
⿷
⿸
⿹
⿺
⿻
、
。
《
》
「
」
『
』
【
】
〢
あ
い
う
え
お
か
き
く
け
こ
さ
し
す
せ
そ
た
ち
っ
つ
て
と
な
に
の
は
ひ
ふ
へ
ほ
ま
み
む
め
も
ゃ
や
ゅ
ゆ
ょ
よ
ら
り
る
れ
ろ
わ
を
ん
゙
゚
ア
ィ
イ
ウ
エ
オ
カ
キ
ク
ケ
コ
サ
シ
ス
セ
タ
ッ
ツ
テ
ト
ナ
ニ
ネ
ノ
ハ
ヒ
フ
ヘ
ホ
マ
ミ
ム
メ
モ
ャ
ュ
ユ
ョ
ラ
リ
ル
レ
ロ
ワ
ン
ヶ
・
ー
ㄧ
㇁
㇂
㇄
㇇
㇈
㇉
㇓
㐁
㐄
㐅
㐌
㐫
㐬
㐭
㐮
㐱
㑒
㒵
㒸
㒼
㓁
㓞
㔾
㕛
㕣
㖾
㘝
㚅
㚇
㚔
㚘
㝉
㝡
㝴
㝵
㞋
㞢
㞷
㠩
㠭
㠯
㡀
㡭
㡿
㢲
㢴
㣇
㣺
㥯
㪅
㫄
㫐
㫒
㫺
㬅
㬎
㬥
㬰
㲋
㳄
㷠
㸒
㸚
㸦
㼌
㼲
㽞
㿟
䀠
䂞
䍃
䏍
䒑
䖍
䖒
䖝
䖵
䙴
䚻
䜌
䝿
䡛
䧹
䪞
一
丁
丂
七
丄
丅
丆
万
丈
三
上
下
丌
不
与
丏
丐
丑
专
且
丕
世
丘
丙
业
东
丞
丢
丣
两
严
並
丨
丩
个
丫
丬
中
丮
丰
丱
串
丵
丶
丷
丸
丹
为
主
丽
丿
乀
乂
乃
久
乆
乇
么
义
之
乌
乍
乎
乏
乐
乑
乔
乖
乗
乘
乙
乚
乛
乜
九
乞
也
习
乡
乳
乾
亀
亅
了
亇
予
争
事
二
亍
于
亏
亐
云
互
亓
五
井
亘
亚
亜
亞
亟
亠
亡
亢
交
亥
亦
产
亨
亩
享
京
亭
亮
亯
亰
亲
亳
亶
亷
人
亻
亼
亾
仁
今
介
仌
从
仏
仐
仑
仒
仓
仕
他
付
仝
代
令
以
任
企
伊
伏
伐
休
会
伯
但
位
体
何
佘
余
佛
作
佥
使
來
侈
侌
侖
侯
侵
便
保
俞
信
修
倉
倍
候
倠
備
傣
僉
僕
儿
兀
允
兂
元
兄
充
兆
兇
先
光
兊
克
兌
免
兑
兒
兓
兔
党
兜
兟
入
全
兩
兪
八
公
六
兮
兰
共
关
兵
其
具
典
兹
兼
冀
冂
冃
冄
内
冈
冉
冊
冋
册
再
冎
冏
冐
冒
冓
冖
冗
冘
军
农
冝
冡
冥
冫
冬
冷
几
凡
凢
凵
凶
凷
凸
凹
出
函
凾
刀
刁
刂
刃
刄
刅
分
切
刍
刑
刕
刖
列
刘
则
初
別
利
别
到
制
刺
則
削
剌
前
剡
剽
劉
力
功
加
劦
助
劫
劳
劵
勃
勇
勉
勒
動
務
勞
勢
勤
勹
勺
勻
勾
勿
匀
匂
包
匆
匈
匊
匋
匍
匕
化
北
匚
匝
匡
匪
匱
匸
匹
区
医
匽
匿
區
十
卂
千
卄
卅
卆
升
午
卉
半
卌
华
卑
卒
卓
单
卖
南
博
卜
卝
卞
占
卡
卢
卣
卤
卦
卩
卪
卬
卯
印
危
即
却
卵
卷
卸
卻
厂
厃
厄
历
厈
厉
厌
厓
厘
厚
原
厤
厥
厨
厭
厲
厶
厷
厸
去
厼
厽
县
叀
参
參
叅
又
叉
及
友
双
反
叐
发
叒
叔
叕
取
受
叚
叜
叟
口
古
句
另
叩
只
召
可
台
叱
史
右
叵
号
司
叹
吂
各
吅
合
吉
吊
吋
同
名
后
吏
向
吕
君
吝
吞
否
含
启
吳
吴
吹
吾
呂
呆
呈
告
员
呙
周
味
命
咅
和
咎
咠
咢
咨
咸
咼
哀
品
哉
員
哥
哲
唐
商
啇
問
啚
啬
啻
善
喜
喬
單
喿
嗇
噩
嚴
囊
囗
囘
囙
囚
四
回
囟
因
囧
囬
困
囱
囷
固
国
圂
圅
國
圍
園
圓
土
圡
圣
圥
在
圭
地
圶
圼
坂
坐
坒
坚
坴
垂
垔
垚
埀
埋
城
埶
執
基
堀
堂
堅
堆
堇
堯
報
場
塞
墨
壘
士
壬
壯
声
壳
壴
壹
壺
壽
夂
处
夅
夆
备
夊
夋
夌
复
夏
夒
夕
外
夗
夘
多
夜
夢
大
夨
天
太
夫
夬
夭
央
失
夲
头
夷
夸
夹
夻
夾
奂
奄
奇
奈
奉
奎
奏
奐
契
奓
奔
奚
奞
奠
奢
奥
奭
女
奴
奻
好
如
妄
妙
妟
妥
妻
妾
姑
委
姜
威
娄
婁
婴
嬰
嬴
子
孑
孔
孕
孖
字
存
孚
孛
孝
孟
季
孤
学
孫
孱
學
宀
宁
宂
它
宅
宇
守
安
宋
完
宏
宓
宗
官
定
宛
宜
宝
客
宣
室
宮
宰
害
家
容
宾
宿
寄
寅
密
富
寒
察
寧
寨
審
寫
寬
寮
寸
对
寺
寻
寽
対
寿
封
尃
射
将
將
專
尉
尊
尋
尌
對
小
少
尒
尓
尔
尖
尗
尚
尞
尢
尣
尤
尧
尨
尭
就
尸
尹
尺
尻
尼
尽
尾
尿
局
居
屈
屋
屎
屏
屑
展
屖
屚
属
屠
屡
屬
屮
屯
屰
山
屵
屾
岁
岂
岑
岡
岩
岳
岸
峯
島
崇
崎
崑
崔
崖
崙
崩
嵬
嶲
巂
巛
川
州
巟
巠
巢
巤
工
左
巧
巨
巩
巫
差
己
已
巳
巴
巷
巸
巽
巾
巿
帀
市
布
希
帚
帛
帝
带
師
席
帶
常
干
平
年
幵
并
幷
幸
幺
幻
幼
幽
幾
广
広
庄
床
底
店
庚
府
度
庫
庭
庶
康
庸
廉
廌
廛
廣
廩
廴
延
廷
建
廾
廿
开
弁
弃
弄
弇
弋
式
弓
弔
引
弗
弘
弜
弟
张
弥
弦
弱
張
強
强
彊
彌
彎
彐
彑
当
彔
录
彖
彗
彡
形
彥
彦
彧
彭
影
彳
役
彼
往
待
律
後
徒
得
徙
從
御
復
微
徵
德
心
忄
必
忌
忍
志
忝
忠
忩
快
念
忽
忿
思
怠
急
怱
恆
恒
恩
恭
息
恵
悉
患
悤
悲
悶
情
惠
惡
惢
愁
愈
意
愛
感
慈
慧
慮
憂
憲
應
戀
戈
戉
戊
戋
戌
戍
戎
成
我
戒
戔
或
战
戚
戠
戢
截
戲
戶
户
戸
戹
戼
戾
房
所
扁
扇
手
扌
才
打
托
执
承
折
报
拉
拜
拿
掌
推
提
摩
播
支
攴
攵
收
攸
改
放
政
敄
敏
敕
敖
敗
教
敝
敞
敢
散
敦
敫
敬
数
敷
數
斂
文
斉
斊
斗
斤
斥
斩
斬
斯
新
方
於
施
斿
旁
旋
族
无
旡
既
旣
日
旦
旧
旨
早
旬
旱
旲
时
旾
昆
昇
昌
昍
明
昏
易
昔
昗
昜
星
春
昬
是
昱
昴
昷
時
晃
晋
晏
普
景
晶
智
暑
暴
曇
曩
曰
曲
曳
更
曷
書
曹
曼
曾
替
最
朁
會
月
有
朋
服
朔
朕
朗
望
朝
期
木
朩
未
末
本
札
朮
术
朱
朵
朶
朿
杀
李
杏
村
杜
束
条
来
東
杲
杳
松
析
林
枚
果
枝
枲
枼
某
柔
查
柬
柰
柴
栗
校
根
桀
桑
桼
梁
條
梟
梨
棘
棠
棥
森
楊
楚
業
楽
榮
樂
樊
橋
欠
次
欣
欮
欲
欶
欽
款
歆
歇
歌
歛
止
正
此
步
武
歨
歪
歮
歯
歰
歲
歴
歷
歸
歹
歺
死
殳
段
殷
殸
殹
殺
殻
殿
毋
毌
母
每
毒
比
毕
毚
毛
毳
氏
氐
民
气
氣
水
氵
氶
氷
永
氺
氾
求
汉
汝
汞
江
池
沃
沓
沙
沝
沢
河
治
泉
法
波
泣
泥
泰
洛
津
洪
活
派
流
浜
浦
浪
浮
海
淡
淮
深
清
渚
渠
港
湖
湯
滝
滿
演
漢
漸
瀬
灣
火
灬
灭
灰
灵
灷
炅
炎
炏
炗
炙
炭
為
烈
烏
烝
焉
無
焦
焱
然
煞
熊
熏
燕
營
燮
爪
爫
爭
爯
爰
爱
爲
爵
父
爻
爽
爾
爿
片
版
牙
牚
牛
牜
牟
牢
牧
物
牪
特
牽
犀
犬
犭
犮
狂
狄
狊
独
狺
猋
猒
猪
献
獻
玄
率
玉
王
玟
玨
珎
班
理
琴
瑟
瑩
瓜
瓦
甘
甚
生
産
用
甫
甬
田
由
甲
申
电
甶
男
甸
甹
町
画
甾
畀
界
畏
畐
留
畜
畟
畢
畧
畨
番
畫
異
畱
當
畺
畾
疊
疋
疌
疑
疒
疾
癶
癸
癹
発
登
發
白
百
皀
皃
的
皆
皇
皋
皐
皕
皮
皷
皿
盃
盆
盇
盈
益
盍
盎
监
盒
盖
盛
盡
監
盤
盧
目
直
相
盾
省
眇
眉
看
県
眔
眞
真
眷
眼
眾
着
睘
睪
睿
瞏
瞢
瞿
矍
矛
矞
矢
矣
知
矦
短
石
研
破
碎
磊
磨
示
礻
礼
社
祖
神
祟
票
祭
禀
禁
福
禸
禹
禺
离
禽
禾
禿
秀
秃
秉
秋
科
秝
秦
移
稟
稲
穀
穌
穴
究
穹
空
穿
突
窄
窒
立
竒
竜
竝
竟
章
童
竹
笑
笠
第
筆
等
答
箕
算
箴
節
篤
篭
米
粉
粛
粟
粤
粦
粲
糞
糸
糹
系
紀
約
納
素
索
紫
累
細
絜
絫
絲
維
網
綿
総
縣
繇
纍
纟
缶
网
罒
罔
罕
罗
罙
罡
罢
罪
署
罷
羅
羊
羌
羍
美
羔
羕
羗
羞
羡
羣
群
義
羲
羸
羽
翁
翏
習
翕
翟
翠
翼
老
耂
考
者
耆
而
耎
耑
耒
耳
耴
耶
耷
聂
聊
聖
聚
聶
聿
肀
肃
肅
肉
肖
肙
肥
肩
肯
育
肴
胃
背
胡
胥
能
脊
脩
膚
臣
臤
臧
自
臬
臭
臯
臱
至
致
臺
臼
臽
臾
臿
舀
舂
舄
與
興
舉
舌
舍
舛
舜
舞
舟
般
船
艮
良
色
艸
艹
艾
芒
芔
芬
芮
花
芳
芺
芻
苔
苗
苟
若
苦
英
茶
茸
荅
草
荒
荣
荼
莆
莧
莫
莽
菆
菊
菐
菜
華
萬
落
葉
著
葛
董
葵
蒙
蒦
蒼
蓋
蓬
蓺
蔑
蔡
蕉
蕭
薄
薛
薦
薰
藍
藏
藤
藥
蘭
虍
虎
虐
虒
虔
處
虖
虗
虘
虚
虛
虜
虞
虫
虽
蚤
蚩
蜀
蜜
蟲
蠡
血
行
衍
衛
衣
衤
表
衮
衰
袁
袞
褭
褱
襄
襾
西
覀
要
覃
見
規
覓
覧
親
覽
见
角
解
言
訁
訇
計
記
詹
語
誩
諸
讠
语
谷
豆
豈
豊
豐
豕
豖
豙
象
豦
豩
豪
豸
貇
貝
貞
貟
負
貢
貧
貪
貫
責
貳
貴
買
費
賀
賁
資
賈
賏
賓
賔
賛
賞
賢
賣
質
賴
贊
贝
贡
责
贯
贲
贵
赖
赞
赤
赦
走
越
足
路
蹇
身
躬
車
軍
軎
軟
輦
车
辛
辜
辞
辟
辥
辰
辱
農
辵
辶
边
达
过
近
连
迷
追
退
送
逆
逐
通
速
造
逢
連
逮
進
遀
遂
過
道
達
遣
適
遷
遺
邊
邑
邕
那
邦
邪
郎
部
郭
郷
都
鄉
酉
酋
配
酓
釆
采
里
重
野
量
金
釒
錢
钅
長
镸
长
門
閃
閉
開
閏
閑
閒
間
閔
閵
閻
闌
门
间
闷
阑
阜
阝
阿
降
院
陳
隆
隊
隋
隡
隨
隱
隶
隹
隺
隻
隼
隽
难
雀
雁
集
雈
雋
雍
雐
雔
雙
雚
雜
雝
離
難
雨
雩
雪
雲
零
雷
電
需
震
霍
霜
霝
霞
霸
靈
靑
青
非
靡
面
靣
革
韋
韓
韦
韭
韯
韱
音
頁
頃
項
須
頗
頡
頻
顛
页
風
风
飛
飞
食
飠
飯
養
館
饣
首
香
馬
馮
駅
駦
马
骨
高
髟
鬥
鬯
鬲
鬼
魚
魯
鮮
鱼
鲁
鳥
鳳
鸟
鹵
鹿
麃
麗
麥
麦
麻
黃
黄
黍
黎
黑
黒
黨
黹
黽
黾
鼎
鼓
鼠
鼻
齊
齋
齐
齒
齿
龍
龙
龜
龟
龠
龰
龱
龴
龵
龶
龷
龸
龹
ꜜ
ꤛ
ꤜ
ꤞ
ꤟ
ꤢ
ꤤ
ꤧ
ꤩ
꤬
꤭
ꩻ
者
艹
﻿
！
（
）
，
－
：
？
￼
𠀁
𠀃
𠀆
𠀉
𠀎
𠀐
𠁁
𠁣
𠂆
𠂇
𠂈
𠂉
𠂊
𠂋
𠂎
𠂒
𠂔
𠂛
𠂡
𠂢
𠂤
𠂬
𠂭
𠂹
𠃊
𠃋
𠃌
𠃍
𠃎
𠃑
𠃓
𠃔
𠃜
𠄌
𠄎
𠄠
𠄢
𠆢
𠆥
𠇍
𠈌
𠌵
𠓜
𠔉
𠔥
𠔼
𠔽
𠔿
𠕀
𠕁
𠕋
𠘧
𠘨
𠙻
𠙼
𠚏
𠚒
𠚤
𠚪
𠣏
𠤎
𠤕
𠥓
𠦄
𠦑
𠦝
𠧒
𠧗
𠧪
𠩺
𠪚
𠫓
𠫔
𠫤
𠬛
𠬝
𠬞
𠬢
𠬤
𠬶
𠮛
𠮦
𠮷
𠯑
𠱠
𠳮
𠷎
𡈼
𡉀
𡉵
𡌥
𡍮
𡏳
𡕒
𡕩
𡕰
𡖅
𡗗
𡗜
𡘆
𡘤
𡧱
𡨄
𡩧
𡬠
𡭽
𡰣
𡰥
𡰪
𡰯
𡰱
𡷈
𡸁
𡿨
𡿩
𡿪
𡿺
𢀖
𢀛
𢀩
𢁙
𢆉
𢆰
𢆶
𢇁
𢇇
𢉖
𢌬
𢌿
𢏚
𢑑
𢑚
𢖻
𢙣
𢛳
𢦏
𢦒
𢧵
𢼄
𢾕
𣁋
𣄼
𣅀
𣅽
𣍘
𣎳
𣎵
𣏋
𣏼
𣗥
𣥂
𣥖
𣦵
𣦼
𣧄
𣪊
𣪠
𣬉
𣳾
𣶒
𤇾
𤊽
𤐫
𤓰
𤔔
𤕨
𤣩
𤰇
𤰔
𤰞
𤴓
𤴔
𤽄
𥁑
𥁕
𥃦
𥃩
𥃭
𥇡
𥑟
𥘅
𥘈
𥝢
𥫗
𥱡
𦈢
𦉪
𦉬
𦉼
𦍌
𦍒
𦎧
𦐇
𦓔
𦔮
𦘒
𦙃
𦚏
𦣝
𦣞
𦣻
𦥑
𦥔
𦥯
𦨉
𦭝
𦰩
𧆞
𧈧
𧘇
𧰨
𧴪
𧴮
𧵩
𧾷
𨸏
𨾴
𩙿
𩠐
𩫏
𩵋
𪉷
𪜀
𪟽
𪠲
𪩲
𫇦
𫔭
𫜸
𫝀
𫠣
𫠩
𫢉
𫥞
𫩏
𫩠
𫪡
𫲽
𫶧
𬀷
𬐘
𬗌
𬙙
𬛸
𬜯
𬟩
𬯁
𬴘
𬺻
𬼉
𬼖
𭀰
𭁈
𭁨
𭅰
𭑈
𭕄
𭗼
𭤨
𭥫
𭻾
𮅕
𮊿
𮍌
𮍏
𮓗
𮥼
𮧮
廾
𰀁
𰀄
𰀈
𰀉
𰀕
𰀠
𰀡
𰀢
𰀪
𰁜
𰃮
𰆊
𰆘
𰋙
𰕎
𰢴
𰧭
𰯲
00--
00100--
00101--
0090--
01--
03--
04--
10--
11--
12--
13--
14--
15--
16--
17--
18--
19--
20--
22--
23--
25--
55--
70--
76--
8--
80--
81--
82--
9--
a--
ab--
aba--
abi--
abu--
ac--
acr--
acu--
ad--
addi--
ado--
adv--
af--
ag--
ah--
ai--
air--
al--
all--
am--
amaz--
an--
ang--
anim--
any--
app--
appo--
ar--
ara--
argu--
ari--
arre--
arse--
as--
astro--
at--
au--
aung--
av--
b--
ba--
bal--
bangla--
bar--
bat--
be--
beg--
bel--
ben--
ber--
bet--
bi--
bio--
bit--
bo--
br--
bra--
bran--
bre--
bri--
broad--
bru--
bu--
buf--
bul--
bur--
by--
c--
ca--
cal--
calcu--
can--
cap--
car--
cas--
ce--
cel--
celeb--
cen--
cere--
ch--
challe--
champion--
cho--
ci--
circu--
cle--
cli--
co--
col--
com--
comp--
con--
concer--
conf--
confir--
consi--
const--
cont--
conte--
contri--
conven--
coo--
coor--
cor--
cos--
cot--
coun--
cr--
cra--
cre--
cri--
cro--
cru--
cu--
cur--
cy--
cyc--
d--
da--
de--
dec--
defi--
den--
depre--
des--
develo--
di--
dif--
dig--
dis--
disc--
dist--
distri--
diver--
do--
docu--
dr--
dra--
du--
dy--
e--
eco--
econo--
ed--
ef--
ei--
el--
em--
emer--
emp--
emper--
en--
enco--
enterp--
ep--
equi--
es--
et--
eu--
every--
ex--
exp--
explo--
ext--
f--
fa--
fal--
fan--
fav--
fe--
fel--
fer--
fi--
fil--
fin--
flo--
flu--
fo--
fol--
for--
fore--
fr--
frequ--
fri--
fu--
fuc--
fur--
g--
ga--
gal--
gar--
ge--
geo--
ger--
gi--
gil--
glo--
go--
gr--
gra--
gre--
gro--
gu--
gua--
guang--
h--
ha--
har--
hc--
he--
hea--
hel--
her--
hi--
hk--
hl--
hm--
hn--
ho--
hol--
hor--
hp--
hpa--
ht--
hu--
hun--
hy--
i--
ic--
id--
iden--
il--
illust--
im--
in--
indi--
infec--
influ--
inst--
int--
integ--
inter--
inv--
ire--
is--
iso--
it--
j--
ja--
je--
jen--
ji--
jo--
ju--
k--
ka--
kan--
kaw--
ke--
ken--
key--
kh--
ki--
kil--
kj--
ko--
kr--
ku--
kun--
ky--
l--
la--
lak--
le--
let--
li--
lit--
lo--
loi--
lu--
luxem--
ly--
m--
ma--
mac--
mag--
magyi--
mal--
man--
map--
mar--
mat--
mau--
maw--
mc--
me--
mel--
memo--
mer--
mes--
mex--
mi--
micro--
mid--
mil--
min--
mit--
mix--
mn--
mo--
mon--
mor--
mr--
mu--
mul--
my--
myit--
n--
na--
nam--
nan--
nar--
nat--
ne--
nether--
news--
ng--
ni--
no--
nor--
not--
nu--
o--
ob--
observa--
oc--
off--
offe--
ok--
on--
opp--
opt--
or--
ori--
os--
out--
over--
p--
pa--
pac--
pan--
pang--
par--
pay--
pe--
pen--
per--
ph--
phil--
pho--
photog--
phy--
pi--
pier--
pin--
pit--
pla--
play--
ple--
plu--
po--
pon--
pos--
post--
pr--
pra--
pre--
pri--
prin--
pro--
prob--
produ--
prof--
profes--
propo--
pros--
protec--
provi--
psy--
pu--
pul--
pur--
pya--
q--
qu--
qui--
quo--
r--
ra--
ran--
re--
rec--
rece--
recog--
reg--
regu--
rela--
res--
resi--
rest--
rev--
reve--
rf--
ri--
ro--
ron--
ros--
ru--
run--
s--
sa--
sac--
sal--
san--
sat--
sau--
sc--
sch--
scho--
scien--
se--
sen--
sepa--
ser--
sev--
sh--
sha--
shwe--
si--
simi--
sin--
sit--
sli--
sna--
so--
sol--
some--
sp--
spe--
spi--
spo--
squ--
st--
stan--
ste--
str--
stre--
stu--
su--
sub--
suc--
sul--
sum--
sun--
super--
sur--
sut--
swi--
sym--
symp--
t--
ta--
tac--
tai--
tar--
tat--
tax--
te--
tea--
tele--
temp--
ten--
ter--
terr--
terri--
th--
tha--
thayet--
ti--
to--
ton--
tor--
tr--
tra--
tradi--
tran--
trans--
tre--
tri--
tro--
tropi--
tru--
tu--
tur--
twi--
ty--
u--
ul--
un--
under--
up--
ur--
ura--
v--
va--
vac--
ve--
velo--
ven--
ver--
ves--
vi--
vic--
vio--
vir--
virg--
vo--
vol--
voya--
w--
wa--
wal--
wan--
war--
we--
wea--
web--
wel--
wet--
whe--
wi--
wil--
wo--
wor--
wr--
wri--
x--
y--
ya--
yae--
yawng--
ye--
yo--
yu--
ywar--
z--
za--
ze--
zee--
zh--
zhu--
zi--
ə--
ɪ--
ا--
ก--
ง--
ด--
น--
ย--
อ--
า--
เ--
က--
ကရ--
ခ--
ခဏ--
ဂ--
ဂတ--
ဃ--
င--
စ--
စပ--
စမ--
စအ--
ဆ--
ဇ--
ဇန--
ဈ--
ည--
ဋ--
ဋက--
ဌ--
ဌမ--
ဍ--
ဏ--
တ--
တစ--
တမ--
တရ--
ထ--
ဒ--
ဒဿ--
ဓ--
န--
နဝ--
ပ--
ဖ--
ဗ--
ဘ--
ဘဝ--
မ--
မဂ--
မစ--
မတ--
မဒ--
ယ--
ယက--
ယမ--
ယသ--
ယအ--
ရ--
ရသ--
လ--
လက--
လအ--
ဝ--
ဝရ--
သ--
သန--
သမ--
သရ--
သလ--
ဟ--
ဠ--
အ--
အက--
အစ--
အဆ--
အပ--
အမ--
အရ--
အဝ--
ဣ--
ဤ--
ဤအ--
ဥ--
ဥပ--
ဧ--
ဩ--
ဿ--
၀--
၁၇--
၁၈--
၂၀--
၂၁--
၂၂--
၂၃--
၂၄--
၂၅--
၂၆--
၂၇--
၂၈--
၂၉--
၃၀--
၃၁--
၃၂--
၃၃--
၃၄--
၃၅--
၃၆--
၃၇--
၃၈--
၃၉--
၄၀--
၄၁--
၄၂--
၄၃--
၄၄--
၄၅--
၄၆--
၄၇--
၄၈--
၄၉--
၅၀--
၅၁--
၅၂--
၅၃--
၅၄--
၅၅--
၅၆--
၅၇--
၅၈--
၅၉--
၆၀--
၆၁--
၆၂--
၆၃--
၆၄--
၆၅--
၆၆--
၆၇--
၆၈--
၆၉--
၇၀--
၇၁--
၇၂--
၇၃--
၇၄--
၇၅--
၇၉--
၈၀--
၈၈--
--0
--1
--2
--3
--4
--5
--6
--7
--8
--9
--93
--a
--able
--ad
--ade
--ae
--age
--ah
--ai
--ak
--al
--als
--am
--an
--ana
--ance
--ang
--anic
--ant
--ao
--ap
--ar
--ard
--ary
--as
--at
--ate
--ated
--ates
--atic
--ating
--ation
--ations
--ative
--au
--aw
--ay
--b
--ball
--ber
--berg
--ble
--bo
--bs
--by
--c
--ca
--cal
--ce
--ced
--cent
--cer
--ces
--ch
--cing
--ck
--cks
--cky
--co
--cs
--ct
--cted
--ction
--ctions
--ctive
--cts
--cy
--d
--da
--daw
--day
--dd
--ddy
--de
--ded
--den
--der
--di
--do
--ds
--dy
--e
--ea
--ed
--ee
--ef
--ek
--el
--em
--emic
--en
--ence
--ency
--ens
--ent
--ents
--er
--ere
--ern
--ers
--ert
--ery
--es
--ese
--ess
--est
--et
--eve
--ey
--f
--ff
--ft
--ful
--fy
--g
--ga
--ge
--ged
--ger
--ges
--gh
--ght
--ghty
--gical
--ging
--gle
--go
--gon
--gs
--gy
--gyi
--h
--ha
--he
--hi
--hic
--hing
--hood
--hu
--hy
--i
--ia
--ial
--ian
--ic
--ica
--ical
--ics
--id
--ide
--ie
--ied
--ience
--ies
--ight
--ign
--ik
--il
--ile
--in
--ina
--ine
--ing
--ings
--io
--ion
--ions
--ir
--ire
--is
--ise
--ish
--ism
--ist
--ists
--it
--ite
--ities
--ity
--ium
--ive
--ivity
--ix
--ization
--ize
--ized
--j
--ja
--k
--ka
--kan
--kaw
--ke
--ker
--ki
--kone
--ks
--ku
--l
--la
--ld
--le
--led
--ler
--les
--ley
--lf
--li
--lis
--list
--lk
--ll
--lla
--lle
--lls
--lly
--lm
--lo
--log
--logy
--lon
--lor
--ls
--lt
--lty
--lve
--ly
--m
--ma
--man
--mb
--me
--ment
--mer
--mit
--ms
--my
--n
--na
--nce
--ncy
--nd
--ne
--nel
--ner
--nes
--ness
--ng
--ni
--ning
--nk
--nn
--nny
--ns
--nse
--nt
--nts
--ny
--o
--od
--oe
--og
--ok
--ol
--ology
--om
--ome
--omy
--on
--onal
--ons
--ony
--oo
--op
--ops
--or
--orary
--ors
--ory
--os
--ose
--ot
--oto
--ou
--ous
--ow
--p
--pa
--paw
--pe
--ped
--pin
--ple
--ps
--pt
--pu
--q
--que
--r
--ra
--ral
--rd
--re
--red
--ree
--res
--ress
--rg
--rge
--ri
--ria
--ric
--rick
--ried
--ries
--ris
--rk
--rl
--rm
--rma
--rn
--ro
--ron
--rous
--row
--rry
--rs
--rt
--rta
--rty
--rus
--rve
--ry
--s
--sa
--scape
--se
--sed
--sen
--ser
--ses
--sh
--si
--sia
--sion
--sis
--sk
--sm
--son
--sor
--ss
--ssy
--st
--ster
--sts
--sty
--su
--sy
--t
--ta
--tal
--tan
--tary
--taw
--tch
--te
--ted
--ter
--tes
--th
--ti
--tial
--tic
--ties
--tion
--tions
--tive
--tle
--tly
--to
--ton
--tor
--tory
--tro
--ts
--tt
--ttle
--tty
--tu
--ture
--ty
--tz
--u
--ual
--uation
--ue
--uel
--uk
--ula
--ult
--um
--un
--ung
--up
--ur
--ure
--ures
--us
--ut
--ute
--ution
--v
--va
--ve
--vely
--ver
--vy
--w
--wa
--way
--wn
--wng
--ws
--wt
--x
--y
--ya
--yar
--ys
--z
--ze
--zz
--а
--ه
--น
--ร
--က
--ခ
--ဂ
--င
--စ
--ဆ
--ဇ
--ဉ
--ည
--ဋ
--ဏ
--တ
--ထ
--ဒ
--ဓ
--န
--ပ
--ဖ
--ဗ
--ဘ
--မ
--မင
--ယ
--ရ
--လ
--ဝ
--သ
--ဟ
--အ
--အစ
--အဖ
--ဥ
--ဿ
--၀
--၀၀
--၀၁
--၀၂
--၀၃
--၀၄
--၀၅
--၀၆
--၀၈
--၁
--၂
--၃
--၄
--၅
--၆
--၇
--၈
--၉
