!
"
#
##0
##1
##10
##11
##12
##13
##14
##15
##16
##17
##18
##19
##2
##20
##21
##22
##23
##24
##25
##26
##27
##28
##29
##3
##30
##31
##32
##33
##34
##35
##36
##37
##38
##39
##4
##40
##41
##42
##43
##44
##45
##46
##47
##48
##49
##5
##50
##51
##52
##53
##54
##55
##56
##57
##58
##59
##6
##60
##61
##62
##63
##64
##65
##66
##67
##68
##69
##7
##70
##71
##72
##73
##74
##75
##76
##77
##78
##79
##8
##80
##81
##82
##83
##84
##85
##86
##87
##88
##89
##9
##90
##91
##92
##93
##94
##95
##96
##97
##98
##99
$
%
&
'
(
)
*
+
,
-
.
/
0
00
000
00056
001
002
00278
003
004
00472
005
00583
006
00639
00667
00694
007
00778
008
00889
009
00972
01
010
01028
01056
011
01194
012
01222
01278
013
01306
01389
014
015
016
01694
017
01722
01778
018
01889
019
01944
02
020
02056
021
02194
022
02278
023
024
02417
02444
025
02528
02583
026
027
02778
028
02861
02889
029
02944
03
030
03056
03083
031
03194
032
03278
033
03389
034
035
03583
036
03667
03694
037
03778
038
03861
03889
039
03944
03972
04
040
04083
041
04111
04167
04194
042
04278
043
04306
04361
04389
044
04417
045
04583
046
04639
047
04722
048
04833
04889
049
05
050
05083
051
05167
052
05222
05278
053
05333
05389
054
055
056
05611
05667
05694
057
05778
058
05889
059
06
060
061
062
06222
06278
063
06389
064
065
06556
06583
066
06694
067
06778
068
06889
069
07
070
07056
07083
071
07167
072
07278
073
07389
074
075
07528
076
07611
07639
07667
07694
077
078
07806
079
07944
08
080
08056
08083
081
08167
08194
082
08278
083
08333
08389
084
085
08583
086
08694
087
0875
08778
088
08861
08889
089
08917
08972
09
090
09083
091
09167
09194
092
0925
09278
093
09389
094
095
09583
096
09611
09694
097
09778
098
09889
099
1
10
100
1000
10028
10083
101
10194
102
10222
10278
103
10389
104
105
10556
10583
106
10694
107
10722
108
10889
109
10917
10972
11
110
111
11167
112
113
11306
114
11444
115
11583
116
11667
11694
117
11722
1175
11778
118
119
11917
12
120
12083
121
122
123
12333
12361
12389
124
12410
12444
125
12583
126
127
128
12889
129
12917
12944
13
130
13056
13083
131
13139
13194
132
13278
133
13389
134
13472
135
13583
136
13694
137
138
13806
13833
13889
139
13944
13972
14
140
14028
141
14194
142
14278
143
14389
144
145
14556
146
14694
147
14722
1475
148
14889
149
15
150
151
15194
152
15278
153
15306
154
15472
155
15583
156
1564
15667
157
15722
15778
158
15833
15861
159
16
160
1600
16028
16083
161
16194
162
16278
163
16389
164
1642
165
16528
166
16667
16694
167
16778
168
16833
16889
169
16917
16972
17
170
17028
17083
171
17111
17139
17167
17194
172
173
17389
174
17444
175
17556
17583
176
17694
177
1770
1775
17778
1778
178
1783
17889
179
1791
1797
1799
18
180
1800
1801
1802
18028
1803
1804
1805
1806
1807
1808
18083
1809
181
1810
1811
1812
1813
1814
1815
1816
1817
1818
1819
18194
182
1820
1821
1822
1823
1824
1825
1826
1827
18278
1828
1829
183
1830
1831
1832
1833
1834
1835
1836
1837
1838
18389
1839
184
1840
1841
1842
1843
1844
1845
1846
1847
18472
1848
1849
185
1850
1851
1852
18528
1853
1854
1855
1856
1857
1858
18583
1859
186
1860
1861
1862
1863
18639
1864
1865
1866
1867
1868
1869
187
1870
1871
1872
18722
1873
1874
1875
1876
1877
18778
1878
1879
188
1880
18806
1881
1882
1883
18833
1884
1885
1886
18861
1887
1888
18889
1889
189
1890
1891
1892
1893
1894
1895
1896
1897
1898
1899
19
190
1900
1901
1902
1903
1904
1905
1906
1907
1908
19083
1909
191
1910
1911
1912
1913
1914
1915
1916
1917
1918
1919
192
1920
1921
1922
1923
1924
1925
1926
1927
19278
1928
1929
193
1930
1931
1932
1933
1934
1935
1936
19361
1937
1938
19389
1939
194
1940
1941
1942
1943
1944
19444
1945
1946
1947
19472
1948
1949
195
1950
1951
1952
1953
1954
1955
1956
1957
1958
19583
1959
196
1960
1961
1962
1963
1964
1965
1966
1967
1968
1969
19694
197
1970
1971
1972
1973
1974
1975
1976
1977
19778
1978
1979
198
1980
1981
1982
1983
1984
1985
1986
1987
1988
19889
1989
199
1990
1991
19917
1992
1993
1994
1995
1996
1997
1998
1999
2
20
200
2000
2001
2002
2003
2004
2005
2006
2007
2008
20083
2009
201
2010
2011
2012
2013
20139
2014
2015
2016
2017
2018
2019
20194
202
2020
2021
2022
2025
20278
203
204
20444
20472
205
20583
206
20639
20667
20694
207
20722
20778
208
20806
20861
20889
209
21
210
21083
211
21111
21139
21167
21194
212
21222
21278
213
21333
21389
214
21472
215
21583
216
21639
21667
21694
217
2175
21778
218
21806
219
21944
22
220
22083
221
22194
222
22278
223
22333
22389
224
22417
22444
225
22583
226
22667
22694
227
22778
228
22833
22889
229
23
230
231
23194
232
23278
233
23306
23333
234
23417
235
23583
236
23639
237
23722
23778
238
23833
23889
239
24
240
24028
24056
24083
241
24167
242
243
24389
244
24444
245
24583
246
24667
247
24778
248
24889
249
24944
25
250
25056
25083
251
25167
252
253
254
255
256
25694
257
25778
258
25833
259
25917
25972
26
260
26028
26056
26083
261
26111
262
26278
263
26333
26389
264
265
26556
26583
266
26611
267
268
26833
26889
269
26972
27
270
271
27111
27194
272
27278
273
27389
274
27417
275
27528
276
27694
277
27722
27778
278
27806
279
28
280
281
28111
28194
282
28278
283
28306
28333
28389
284
28417
285
286
28611
28639
287
288
28833
289
28972
29
290
29056
291
29139
29167
29194
292
29278
293
29306
29389
294
29417
295
29583
296
29694
297
2975
29778
298
29833
29889
299
29972
3
30
300
301
30194
302
303
30306
30333
30361
30389
304
30417
30444
305
30528
30556
306
30639
30694
307
30778
308
309
30917
31
310
31083
311
31111
31194
312
3125
313
31361
31389
314
31444
315
31528
31583
316
317
3175
31778
318
31889
319
31917
32
320
32028
32083
321
32139
32194
322
32222
323
32389
324
32417
32444
325
32528
32583
326
32667
32694
327
328
32833
32889
329
32917
33
330
331
33111
33194
332
33278
333
33333
33389
334
33417
335
33528
336
33611
33639
33694
337
33778
338
33889
339
34
340
34083
341
34167
34194
342
34278
343
34361
34389
344
34444
345
34528
34556
34583
346
347
3475
34778
348
349
35
350
351
35139
35167
35194
352
35278
353
35389
354
35417
355
35583
356
35611
35667
35694
357
35778
358
35833
35889
359
36
360
36083
361
36111
36167
362
36278
363
364
365
36583
366
36639
36667
367
3675
36778
368
36806
36861
36889
369
36972
37
370
37083
371
37194
372
37222
37278
373
37333
37361
374
375
37583
376
37611
37639
377
37778
378
37889
379
37972
38
380
38083
381
38111
38167
38194
382
38278
383
38306
38389
384
385
38556
386
38639
38667
387
38722
38778
388
38861
38889
389
38917
39
390
39083
391
39111
39139
39167
39194
392
3925
39278
393
394
395
39528
39583
396
397
39722
39778
398
39861
399
39917
4
40
400
40028
40083
401
40139
40167
402
403
40389
404
405
40583
406
407
40722
40778
408
40889
409
41
410
411
41194
412
41222
4125
41278
413
41389
414
41472
415
41583
416
41667
417
41778
418
41861
41889
419
42
420
42083
421
42139
42167
422
42278
423
42333
42389
424
425
42583
426
42667
427
42778
428
42806
42889
429
43
430
431
432
43278
433
43306
43333
43361
43389
434
43417
43472
435
436
43611
437
4375
43778
438
43889
439
43972
44
440
44028
441
442
44278
443
44306
44389
444
44444
445
44583
446
44639
44667
44694
447
44722
4475
44778
448
44806
44861
44889
449
44917
45
450
45056
45083
451
45194
452
45222
45278
453
45389
454
45417
455
45583
456
45639
45694
457
4575
45778
458
45889
459
46
460
46028
46056
46083
461
46111
46167
46194
462
4625
46278
463
46333
46361
46389
464
465
466
46694
467
46778
468
46833
46889
469
46944
47
470
47083
471
47167
472
47278
473
47361
474
475
47528
476
47611
477
47778
478
47889
479
48
480
48083
481
48194
482
48278
483
48306
48361
48389
484
48417
48444
485
48583
486
48667
48694
487
4875
488
48889
489
48917
49
490
49028
49056
49083
491
49194
492
49278
493
49361
49389
494
495
49583
496
49694
497
49778
498
499
5
50
500
50083
501
50139
50194
502
50278
503
50306
50389
504
50417
505
50583
506
507
508
50861
50889
509
50917
51
510
51028
51083
511
51139
51167
51194
512
51278
513
514
51472
515
51528
51583
516
517
51722
51778
518
51861
51889
519
51944
52
520
52056
52083
521
522
52278
523
52306
52333
52361
524
52417
52472
525
52556
52583
526
527
52778
528
52806
52889
529
52972
53
530
53028
53056
53083
531
532
53278
533
53306
534
53472
535
53556
53583
536
53667
53694
537
5375
53778
538
53806
53889
539
53917
54
540
541
54111
54167
54194
542
54278
543
54389
544
545
54556
54583
546
54694
547
54778
548
54833
54889
549
54944
55
550
55083
551
552
55278
553
55389
554
55417
555
55556
55583
556
557
55778
558
55806
55833
559
56
560
56028
561
56139
56167
56194
562
563
56389
564
56444
565
56556
56583
566
56694
567
5675
56778
568
569
56917
56972
57
570
57083
571
572
57278
573
57389
574
57444
575
57583
576
577
578
57833
579
58
580
58083
581
58167
58194
582
58278
583
58333
58389
584
585
58556
58583
586
58667
58694
587
58778
588
58861
589
58917
59
590
59028
59056
59083
591
59167
592
59222
59278
593
59333
59389
594
59417
595
59583
596
59639
59694
597
598
59861
59889
599
59972
6
60
600
601
60194
602
6025
60278
603
60306
60389
604
605
60528
60583
606
60611
607
60722
6075
60778
608
609
60917
60944
61
610
61083
611
61111
61139
61194
612
61278
613
61389
614
615
61528
61583
616
61667
61694
617
61778
618
61833
61889
619
61972
62
620
62083
621
62111
622
62278
623
62333
62361
62389
624
62417
625
62528
62583
626
62694
627
62722
62778
628
62806
62889
629
63
630
63083
631
63167
63194
632
63278
633
63306
63333
63389
634
635
63556
636
63639
63694
637
6375
63778
638
63861
63889
639
63944
64
640
64028
64056
64083
641
64111
64167
642
6425
64278
643
64306
64389
644
645
64583
646
64611
64694
647
64722
64778
648
64833
64889
649
64944
64972
65
650
65083
651
65139
65194
652
6525
65278
653
654
655
65583
656
65667
657
65778
658
65833
65889
659
66
660
66083
661
66139
66167
66194
662
66222
6625
66278
663
664
66444
665
66583
666
66667
66694
667
66722
66778
668
66806
66861
669
66972
67
670
67028
67083
671
672
6725
67278
673
674
675
67528
67583
676
67611
67639
677
67778
678
67833
67861
67889
679
67917
68
680
681
68111
68139
68194
682
683
68333
684
685
68528
68583
686
68611
68694
687
68778
688
68889
689
69
690
69083
691
692
693
69389
694
69417
69472
695
69583
696
69639
697
69722
6975
698
69861
69889
699
69972
7
70
700
70083
701
70167
702
70278
703
70306
70333
70389
704
70417
70444
705
70556
70583
706
707
70722
70778
708
70861
709
70917
71
710
71083
711
71194
712
7125
713
71389
714
71417
715
71583
716
71639
71694
717
71778
718
71889
719
72
720
721
72194
722
7225
723
72389
724
725
72528
726
72639
72667
72694
727
72778
728
729
73
730
73083
731
73167
73194
732
73278
733
73389
734
73472
735
73583
736
73611
73694
737
738
73806
73833
73889
739
73944
74
740
74083
741
74111
74194
742
7425
74278
743
74306
74389
744
745
74583
746
74639
74667
74694
747
74778
748
749
74972
75
750
75028
75056
75083
751
75139
752
7525
75278
753
75389
754
75444
755
75583
756
75639
75694
757
758
75806
75889
759
75917
76
760
76028
76083
761
76194
762
7625
76278
763
76361
76389
764
76417
765
76528
76583
766
767
76722
76778
768
76889
769
77
770
77083
771
77139
77194
772
7725
77278
773
77306
77389
774
775
77528
776
777
77778
778
77806
77861
77889
779
77917
78
780
78056
78083
781
78194
782
78278
783
78389
784
785
78583
786
78694
787
78722
78778
788
78833
78861
78889
789
79
790
79083
791
79139
79194
792
793
79389
794
795
796
79667
797
79778
798
799
79917
8
80
800
80083
801
80139
80194
802
8025
80278
803
80389
804
80417
805
80583
806
80694
807
80722
808
80806
809
81
810
81083
811
81139
812
81278
813
814
815
81583
816
81667
81694
817
81778
818
81833
81889
819
81972
82
820
82083
821
82194
822
823
82306
82389
824
825
826
82667
82694
827
82778
828
82889
829
83
830
83083
831
83194
832
833
83361
83389
834
835
83556
836
83639
83694
837
83778
838
83889
839
83972
84
840
84028
84083
841
84111
84194
842
84278
843
84333
844
84444
845
84583
846
84694
847
84722
848
84833
84889
849
84944
85
850
85083
851
85194
852
85278
853
85333
85389
854
85417
855
85556
85583
856
85694
857
85722
8575
85778
858
85833
85889
859
85972
86
860
861
862
8625
86278
863
86333
86389
864
865
866
86639
86694
867
86778
868
869
86917
87
870
87083
871
87111
872
873
87361
87389
874
87444
875
87528
87556
87583
876
87639
877
8775
87778
878
87806
87833
87889
879
88
880
88028
881
88194
882
8825
88278
883
88306
88333
88361
884
88444
885
88583
886
88694
887
88778
888
88833
88889
889
89
890
89083
891
892
893
89389
894
89417
895
89583
896
89694
897
8975
898
89889
899
89917
9
90
900
90083
901
90111
90194
902
90278
903
90306
90389
904
90472
905
90556
90583
906
90667
90694
907
90778
908
90889
909
91
910
91028
911
912
91222
91278
913
91333
91389
914
915
91583
916
917
9175
91778
918
91806
91889
919
92
920
92083
921
92111
92194
922
923
92361
92389
924
925
92583
926
92694
927
9275
92778
928
92806
92861
92889
929
93
930
93083
931
93167
93194
932
93278
933
93333
93389
934
935
93583
936
93611
937
93722
9375
938
93806
939
94
940
94028
94056
94083
941
94139
94194
942
94278
943
94389
944
945
94583
946
94694
947
948
94833
94861
94889
949
95
950
951
952
95278
953
954
955
95528
95583
956
95667
957
9575
95778
958
95833
95889
959
96
960
96083
961
96167
96194
962
96278
963
96306
96333
964
96444
96472
965
96583
966
96694
967
96778
968
96806
96889
969
97
970
97083
971
972
97278
973
97306
974
97417
975
97556
97583
976
97611
97694
977
97778
978
97833
97889
979
97917
97972
98
980
98083
981
98111
98139
982
983
98306
98333
983333
98389
984
98472
985
98583
986
98667
987
988
98833
989
98944
99
990
99028
99083
991
99194
992
9925
99278
993
99333
994
99417
99472
995
99583
996
99639
99667
99694
997
9975
99778
998
999
99917
:
;
<
=
>
?
@
[
\
]
^
_
`
a
aachen
aalborg
aalst
aan
aaron
ab
aba
abbe
abbeville
abbotsford
abbott
abc
abdul
abegglen
abel
abelisauridae
aber
aberdeen
abi
abidjan
abilene
about
abraham
abreu
abruzzo
ac
academia
academy
acc
acevedo
aci
acosta
acquaviva
acre
acres
action
acton
actor
actress
ad
ada
adam
adamczyk
adams
adas
adda
addio
addison
adel
adelaide
adelo
adige
adj
adolf
adour
adria
adrian
adriana
adrien
adu
adult
af
afonso
africa
afs
after
ag
agata
age
aged
agius
agnes
agnieszka
agram
ahmed
ai
aiello
aignan
aigues
aime
ain
aiplu
air
aire
aires
ais
aise
aisne
aix
ajaccio
ak
akadapu
akira
akron
al
alabama
alagoas
alain
alameda
alamo
alamos
alan
alarco
alba
alban
albano
albans
albany
albert
alberta
alberto
albertville
alberweiler
albin
albino
albion
albrecht
album
albuquerque
alca
alcobac
alda
aldelik
ale
alec
alegre
alejandro
aleksander
aleksandr
aleksandra
aleksandrovic
aleksei
aleksey
alekseyevic
alentejo
alessandria
alessandro
alessio
alex
alexander
alexandra
alexandre
alexandria
alexis
alfonso
alfred
alfredo
algarve
ali
alice
alicja
alik
alina
all
alla
allan
alle
allegheny
allen
allentown
alles
allga
alliance
allmovie
allmusic
allocine
allonnes
allosauridae
allosaurus
alma
almanach
almeirim
almodo
almulik
alo
alois
alpes
alpha
alphonse
alpine
als
alsace
alseimik
also
alt
alta
altamont
altaras
altavilla
altdorf
altenburg
altenkirchen
altenstadt
alter
alto
alton
altoona
altos
alves
alvin
alz
am
amadeus
amand
amanda
amapa
amarante
amazonas
amber
ame
america
american
americus
ames
amesbury
amherst
amin
amir
amiskwia
amo
amor
amos
amour
amoy
amsterdam
amu
amy
an
ana
anaheim
anai
analysis
anans
anastasia
anastasiya
anatoliy
anatolyevic
anchorage
ancien
ancient
and
andern
anders
andersen
anderson
andes
andover
andra
andre
andrea
andreas
andrei
andrew
andrews
andrey
andreyevic
andrzej
andy
aneta
angaturama
angel
angela
angeles
angelina
angelo
angers
angra
anha
ania
anik
anikna
aniks
animal
animals
anita
anja
anka
ankara
ankylosauria
ankylosauridae
ann
anna
annapolis
anne
annekathrin
annette
anni
annie
annika
announced
announces
anoka
anowska
ans
ante
antelope
anthony
antioch
antioquia
anto
antoine
anton
antoni
antonina
antonino
antonio
antonov
antwerpen
antwort
anu
ao
aosta
apache
aparecida
apofis
apple
applegate
appleton
april
aptian
aquinas
aquitaine
ar
ara
arac
araguaia
arbeit
arbresle
arc
arcadia
arcangelo
archaeopteryx
archer
archive
archives
arco
arcola
arcos
arda
arde
arden
ardenne
ardennes
ardmore
are
areia
argens
argentina
argentino
arie
ariel
aristoteles
arizona
arkadiusz
arkansas
arkimedes
arkin
arles
arlington
arm
armando
armas
armor
armstrong
arnaud
arndt
arne
arnhem
arno
arnold
arquette
arras
arroyo
ars
art
artesia
arthur
article
articles
artist
artur
aruku
arundel
as
asa
ash
ashby
ashford
ashland
ashley
asia
assemble
assis
association
asti
at
athens
athol
atim
atimik
atimo
atina
atkinson
atlanta
atlantic
atlantique
atlantiques
atle
atos
atosi
ats
attimo
au
aubin
auburn
aucasaurus
auch
auckland
aude
audrey
auf
aug
auge
augsburg
august
augusta
auguste
augustine
augusto
augustus
auray
aurora
aus
austin
australia
author
auvergne
aux
av
ava
avec
aveiro
aveyron
aviv
avn
avnawards
avon
avondale
award
awards
away
axel
ay
ayer
az
azhdarchidae
azul
azur
azzano
aʊ
b
ba
babelio
babu
baby
babylon
bach
back
bad
bada
baden
badia
badik
badminton
bado
bagaf
bagdad
bagni
bagnolo
bahia
bai
baia
baile
bailey
bain
bainbridge
bains
baiton
baitonu
baivo
baixo
bajo
bajor
bak
baka
baker
bakersfield
bakker
bakı
bal
bala
balaf
balan
balat
balatam
balatama
balatik
bald
baldwin
bali
balid
balidan
balidnaedo
balido
balik
baliko
balin
balion
balions
ball
balmil
balna
balo
balsam
baltimore
balu
balug
baluga
balugik
balugiko
bam
bamberg
ban
band
banffia
bang
bangladeja
bangor
bank
banks
banner
baonan
baptiste
bar
bara
barbadea
barbara
barbosa
barcelona
barcelos
bari
barin
barnes
barnstable
baron
barra
barraba
barraga
barras
barre
barrett
barrow
barry
barszczewska
bart
bartje
bartlett
bartolomeo
barton
bartosz
bartow
bartłomiej
baryonyx
bas
baseball
basel
basilicata
basin
basketball
bassano
basse
bastia
bastien
basto
bat
bataille
batalha
batavia
bateman
bath
batista
baton
batons
battaglia
battle
bauer
baum
baumann
baxter
bay
baya
bayer
bayern
bayeux
bayonne
bbc
bdfa
bdfutbol
be
beach
beachwood
bean
bear
beat
beata
beatrice
beatty
beaumont
beaune
beauty
beauvoir
beaver
beaverton
bec
beck
becker
beckett
bed
bedford
bedfordshire
been
beer
beethoven
before
beg
bego
begru
behrens
bei
being
beira
beja
bel
bela
belafonte
belberg
bele
belem
beleta
belfort
belga
belisa
bell
bella
bellaire
bellamy
belle
bellefontaine
belleville
bellevue
bellflower
bellingham
bellmore
belluno
belmont
belmonte
belo
beloit
belov
belton
beltra
belu
belvedere
bem
ben
bena
bend
bender
bene
benedetto
beni
benina
benito
benjamin
bennent
bennett
benning
bennington
benno
beno
benodistu
benoduga
benoi
benoko
benorepu
benosek
benoseki
benosekik
benosekiko
benosekiku
benson
bento
benton
bentonville
benu
benz
beograd
bepenam
bepeno
bepenom
bepenon
bepenons
ber
berben
berber
berea
berg
bergamo
bergen
berger
bergheim
bergisch
bergman
bergmann
berkeley
berkley
berkshire
berlin
berlingen
bern
bernabe
bernalillo
bernard
bernardino
bernardo
bernd
bernhard
bernstein
berry
bert
bertolt
bertragen
bertrand
beru
berwick
berwyn
bescha
bessemer
besson
best
beste
bestu
beta
bethany
bethel
bethesda
bethlehem
betru
betty
beverly
bevob
bevobo
bevu
beycing
bezu
bezzel
bi
biagio
bianco
biała
białystok
bib
bibik
bibliographie
bid
bida
bidas
bidos
bids
bie
bied
bieda
bielefeld
bielenia
bielska
bielsko
bien
bieta
big
bigik
bijop
bik
biko
bil
bila
bilbao
bill
billie
billings
billy
bim
bin
bina
binets
bing
bingen
bingo
bino
binob
binod
binodi
binof
binom
binoms
binon
binons
binos
binu
bio
biography
biomagodem
biomagodema
biomagodemas
biomagodemidilekan
biomagodemilautan
biomagodemiprodan
biomagodems
bioskopik
bioskopografan
bir
bird
birmingham
birnbaum
bis
bisarik
bisch
bishop
bismarck
bixby
bjo
bk
bla
black
blackburn
blad
blaine
blair
blaise
blake
blam
blamia
blanc
blanche
blandford
blasfa
ble
blebon
bled
blefik
bleg
blegik
blegu
bleibom
bleibtreu
blein
bleina
blekingia
bleu
bli
blibo
blibon
blig
bliga
blik
blika
bliks
blin
blinon
bliss
blo
block
blod
blodef
blog
blois
blon
blood
bloomfield
bloomingdale
bloomington
blu
blud
bludaro
bludia
blue
blues
bluf
bluff
bluffs
bluffton
blufo
blumenfeld
blun
bluned
bluv
bluvu
bly
bner
bo
boa
boad
boadabu
boadiko
boardman
boat
boateng
bob
boba
bobby
boca
bocholt
bochum
bock
bod
bodensee
body
boed
bof
bofik
bofikafs
bofiks
bogdan
bogota
bogusław
bohdan
bohm
bohosiewicz
bois
bolesław
boli
bolit
bolitan
bolitana
bolitik
boliva
bollack
bollmann
bologna
bolton
bom
bomas
bomem
bomema
bomems
boms
bon
bonaparte
bond
bone
bonet
bonifacio
bonita
bonito
bonn
bonnet
bonnie
bono
bons
book
books
boone
bor
bora
borba
bord
bordeaux
borges
borgo
borin
boris
borisov
borisovic
boron
borowski
borys
bos
bosco
bosi
bosilo
bosna
boso
boston
bot
botnia
boucher
bouches
boulder
boulogne
bound
bourg
bourgogne
bourne
bov
bova
bovu
bow
bowie
bowling
box
boxford
boy
boyarskiy
boyd
boys
boz
br
bra
braba
brabant
brad
bradenton
bradford
bradley
brady
braga
braganc
bragg
brahe
brahim
brahms
brain
braintree
brampton
branca
branch
branco
branda
brandenburg
brando
brandon
brandt
branford
brasil
brasila
bratislava
braun
braunschweig
bravo
bray
braye
brazil
bre
brecht
breda
bref
brefabu
brefik
brefo
brefod
brefu
breik
breiko
brein
brek
brekot
brekots
breku
bremen
brenner
brennicke
brent
brentwood
brescia
breslau
brest
bretagne
brett
breuer
breuil
brewster
brian
brianza
brice
brid
bridge
bridgeport
bridgeton
bridgetown
bridgewater
brie
briggs
brighton
brigitte
bringen
brinkmann
brisbane
bristol
brita
britain
britannica
british
brittany
brittney
brno
broadon
broadway
brockton
brod
brody
broken
brom
bronisław
bronso
brook
brooke
brookes
brookfield
brookhaven
brookings
brookline
brooklyn
brooks
brookside
brou
broward
brown
brownsville
browska
bru
bruce
bruch
bruhns
bruno
brunswick
brussel
bryan
bryant
bryn
bs
bsc
bska
bu
bub
buch
buchhandlung
buchholz
buckinghamshire
buckland
bucures
bucyrus
buczkowski
bud
budapest
bude
buena
buenos
buffalo
buffetaut
buikumo
buk
buka
bukas
bukem
bukeman
buki
bukis
bukitana
buks
bul
bula
bulgara
bulletin
bully
bum
buma
bumav
bumavan
bumo
bumot
bun
bundano
bundy
buo
buon
burbank
bureau
buren
burg
burgenland
burgess
buritis
burke
burkhard
burkina
burlington
burnsville
burton
bury
busch
bush
business
busto
but
buta
butler
butte
buu
buzek
by
bydgoszcz
byron
bø
bøda
bøn
błaszczyk
bə
bɛ
bɛd
bɛl
bɪn
bɾa
bɾe
bɾi
c
ca
caballero
cabo
cabrera
cac
cachoeira
cadore
cal
calabria
calabro
calais
calan
calcio
caldas
caldero
caldwell
caleb
caledonia
calero
calhoun
cali
california
calik
callaway
calo
calofik
calu
calumet
calvados
calvi
calvo
calw
cambridge
cambridgeshire
camden
camekea
cameron
camp
campania
campanian
campbell
campo
campos
camus
can
canaan
canada
canadian
canavese
canby
cancer
candy
cantal
canterbury
canton
cantor
canyon
capa
cape
capita
capital
capo
capri
car
caracas
caradoc
carcharodontosauridae
carcharodontosaurus
carl
carla
carlisle
carlo
carlos
carlsbad
carmel
carmen
carmichael
carmo
carney
carnosauria
carnotaurus
carol
carolina
caroline
carpenter
carrera
carrie
carroll
carrollton
carson
carter
carteret
carthage
carver
cary
casa
casal
casale
casanova
cascade
cascavel
case
caselle
caspar
casper
cassano
castan
castel
castelfranco
castell
castella
castellammare
castellana
castellar
castello
castelnau
castelnovo
castelnuovo
castelo
castiglion
castiglione
castilla
castle
castlewood
castro
catala
catalana
catalina
catania
catarina
category
caterina
cathedral
catherine
catholic
cattolica
caux
cava
caxias
cd
ce
ceara
cecil
cecina
ced
cedar
cedom
cedons
ceds
cedu
cees
cehov
celina
celle
cem
cemamusigalef
cen
ceno
census
centauri
center
centerville
central
centralia
centre
centreville
centro
century
ceratopsia
ceratosauria
ceratosaurus
ceres
cerreto
cerrito
cerro
cervantes
ces
ceti
cetiosaurus
cezary
cf
ch
cha
chambly
champ
champagne
champaign
champigny
championship
chandler
channel
chantal
chantilly
chapel
chapelle
chapko
chaplin
character
charente
charentes
charles
charleston
charlie
charlotte
chartres
chase
chatham
chattanooga
chaumont
chaux
chaves
chc
che
chef
chelmsford
chelsea
chemnitz
chen
cher
chesapeake
cheshire
chester
chesterfield
cheyenne
chi
chiana
chianti
chicago
chico
chiemsee
chiesa
chiesanuova
child
children
chile
chillicothe
chin
china
chino
chis
chiusa
cho
chopin
chris
christ
christa
christchurch
christensen
christian
christiane
christina
christine
christmas
christoph
christophe
christopher
chter
chtig
church
ci
cia
cibuta
cicero
cie
ciel
cies
cif
cifadilo
cifal
cifala
cifamu
cifaroul
cifayeged
cifazif
cifazifa
cifik
cifuentes
cigliano
cil
cila
cilas
cilis
cils
cilu
cin
cina
cincinnati
cine
cinema
cio
cipriano
circleville
citrus
citta
city
ciudad
ciutat
civitella
ck
cka
cke
cken
cker
cki
ckner
cl
cla
clackamas
clair
claire
clara
claremont
clarin
clark
clarke
clarksburg
clarksdale
clarksville
claro
classical
claude
claudia
claus
clausen
clay
clayton
cle
clear
clearfield
clearwater
clement
clemente
clermont
cleveland
cliath
clichy
clifton
clinton
clive
clooney
cloud
clovis
club
cluj
cnn
co
coast
coatesville
coburg
cock
cocoa
cody
coelurosauria
coeur
cog
coged
cohasset
cohen
coimbra
col
colchester
cole
coleman
colin
colle
collection
college
collin
collins
collinsville
colo
colombes
colombo
colonia
colonial
colorado
colton
columbia
columbus
com
come
comiclopedia
commerce
commerciale
commons
como
company
complete
composer
compostela
compton
computer
comte
con
conceic
concepcio
concord
conde
connecticut
connor
conrad
constant
constructed
conte
contra
converse
conway
cook
coolidge
cooper
cope
copernicus
coppola
corac
coral
coram
cordova
corey
corinna
corinth
cornelia
cornelis
cornelius
cornell
corners
corning
cornwall
corona
coronavirus
coronel
corpus
corre
corrientes
corriere
corse
corte
costa
costalago
cottage
cottbus
cottonwood
countries
country
county
courcelles
couronne
cours
court
courtenay
cove
coventry
covid
covina
covington
craig
cramer
cranbrook
crato
cre
creek
cremasco
crest
crestwood
cretaceous
creuse
cristal
cristo
croce
crofton
croix
cromwell
cross
crosse
crowley
crown
cruz
cruzeiro
crystal
cs
csik
ct
ctor
cu
cudahy
culture
cumberland
cumbria
cunault
cunha
cup
curie
curitiba
currie
curry
curt
curtis
cusano
cutler
cuyahoga
cycling
cymbospondylus
cypress
cyr
cz
cze
czerwin
czesław
d
da
dab
dabin
dabina
dabini
dabino
dabinoms
dabinon
dabinons
dabu
dabuk
dabuki
dade
dadeadamajenot
dadila
dadilo
daem
dafrika
dag
dageto
dagetom
dagmar
dahn
dai
daif
dail
daily
daisy
dajon
dajona
dakepia
dakip
dakipia
dakipo
daklub
dakluba
dako
dakota
dal
dala
dalab
dalaban
dalabon
dalarnia
dale
dalebu
dalef
dalekas
daleks
dali
dallas
dalo
dalofu
dalton
dam
damascus
dame
damie
dan
dana
danadensit
danas
danbury
dance
danef
danefa
dani
danie
daniel
daniela
daniels
danis
dank
danny
dano
dans
dante
danu
danuta
danvers
danville
dapan
daphne
dapomera
dapu
dare
daria
darien
darina
darius
dariusz
darlington
darmstadt
darren
dartmouth
darwin
darya
das
dasa
dasbuk
daseva
daslavik
daso
daspletosaurus
dasu
dasum
dasz
dat
data
database
date
datikom
datuv
datuval
datuvan
dau
daughter
daut
dav
dava
davan
dave
daved
davedons
davedu
davenport
davesu
david
davide
davidson
davies
davik
davis
davison
davo
dawson
day
daya
dayton
daytona
daza
dbu
de
dea
dead
deadam
deadama
deadik
deadline
deado
deadof
deadom
dean
death
deb
deba
debu
decatur
december
ded
dedham
dee
deep
deer
deerfield
def
defa
defiance
defo
defomamavo
deg
degbal
degbalid
degid
degjo
degkilid
degli
deglulid
degma
degtel
degtelid
degyel
degyels
degzu
dei
deido
deinonychosauria
deinonychus
dek
deka
dekalb
deklin
deko
dekul
del
dela
delano
delaware
dele
delgada
delgado
delhi
deli
delik
delis
dell
della
delle
dello
delo
dels
delta
delu
dem
dema
demi
deming
demis
demo
demokratik
dems
demu
den
denis
denise
denison
dennis
densit
denton
dentro
denver
departamento
deportivo
depu
der
derby
derbyshire
derek
dermanla
derrick
des
descartes
dese
desert
desi
desin
desir
desoto
dessau
det
details
deto
detroit
detu
deut
deuta
deutsch
deutsche
deutschen
deutschland
deux
devant
devon
devrient
dewhurst
deɡ
di
dia
diab
diaba
dial
diamante
diamet
dian
diana
diane
diano
dias
dib
diba
dibo
dick
dickens
dickinson
dickson
dictionary
dictionnaire
didier
didra
die
died
diego
dientif
dientifu
dieppe
dies
dieser
dieter
dietmar
dietrich
diez
dif
difik
difon
difons
dig
digital
dijonan
dik
dikam
dikans
dikas
diki
dikis
dikna
diko
dikom
dikon
dikons
dikos
dikosi
diks
diku
dikum
dikums
dil
dila
dilam
dilekan
dilekana
dilekanefa
dilet
diletam
dili
dilis
dilo
dilod
dils
dim
dima
dimik
din
dina
dinas
dingolfing
dinis
dinit
diniti
dinits
dino
dinodata
dinoruss
dinosaur
dinosaura
dinosauras
dinosaurasikloped
dinosauria
dinosauris
dinosaurs
dins
dio
dipan
diplomi
dir
director
directory
dirichlet
dirk
dis
discogs
disein
disevans
disin
disinan
disney
disparition
displaystyle
dissel
dist
distik
disto
distu
dixon
dje
dmitriy
dmitriyevic
do
doat
doatis
dob
dobrowolska
dobu
doc
doch
doctor
dod
dodge
dodson
dof
dog
dohm
dois
dok
dokan
dokana
dokans
doku
dol
dolo
dolton
dom
domenico
domi
domingo
domingos
dominik
dominika
dominique
doms
domu
don
dona
donaja
donald
donamaxu
donato
donau
donazila
donezk
dong
donik
donio
donna
dono
donovan
dons
donu
door
dora
dorado
dorchester
dordogne
doris
dorota
dorothea
dorothy
dorset
dortmund
dos
dot
dota
doti
dotik
dotis
doton
dots
douaumont
double
doubs
douglas
douro
dov
dover
dovik
down
downey
dr
dra
drachten
dracorex
dragon
drake
drama
dramat
dramatan
dramatana
dramatanas
dramatans
dramatavan
dramats
dran
draper
drat
dream
dred
dreda
dredo
drei
drenthe
dresden
drew
drexel
dric
drim
drima
drims
drin
dro
dromaeosauridae
dromaeosaurus
dru
druid
drummond
ds
dtirol
du
duarte
dub
duba
dubium
dublin
dudelange
dudley
dug
duga
dugan
dugo
dugom
dugon
dugons
duino
duisburg
dul
dulo
dulon
duluth
dumas
dumont
dun
duna
duncan
dundee
dunedin
duno
dunom
dunon
dunstable
dupage
durand
durango
durant
durch
durham
dustod
dut
duta
duto
duton
dutons
dwayne
dy
dyer
dyk
dyl
dylan
dz
dziewon
dø
død
døf
døn
døp
dɛ
dɛd
dɛl
dɛn
dɾe
dɾi
e
ea
eagle
earl
early
earth
east
eastlake
easton
eau
eaux
ebert
ebinon
ebo
ec
eccleston
ed
edadeado
eddie
edeado
eden
edgar
edge
edgewater
edgewood
edicions
edinburg
edinburgh
edison
edith
edition
editions
edmond
edmonton
edmund
edo
eds
edu
eduard
eduardo
edward
edwardsville
edwin
edyta
ee
eeden
ef
efe
egafd
egg
egypt
eh
ehfc
ehrenfest
ei
eichhorn
eichinger
ein
einander
eindhoven
eine
einem
einen
einer
eines
einstein
eisenach
eisleben
ek
eke
eki
eko
el
ela
elaf
elafa
elafas
elafs
elaine
elanas
elas
elautom
eldorado
ele
elena
elgin
eli
elia
elias
eliot
elis
elisabeth
eliza
elizabeth
elizabethtown
elk
elkhart
elko
elkton
elle
ellen
ellington
elliot
elliott
ellis
elmhurst
elmira
elmwood
elo
els
elsa
else
elsholtz
elster
elvis
elyria
elz
em
emanuele
emden
emerson
emi
emil
emilia
emiliano
emily
emma
emmanuel
emmanuelle
emmy
emporia
en
ena
encinitas
encyclopaedia
encyclopedia
encyclopædia
end
ende
ending
enfield
eng
engel
england
englert
englewood
english
enna
ennepe
ennis
enrico
enterprise
entre
entu
entzu
enza
enzo
eoraptor
ep
epsilon
er
era
erdog
erfurt
erhardt
eric
erica
erich
eridani
erie
erik
erika
erlernung
ernest
ernesto
ernst
error
erste
ersten
erwin
es
esa
escambia
escaut
esch
escondido
eske
esp
espan
esperanc
esperanto
espi
espn
espncricinfo
essen
essex
essonne
est
esta
estates
este
estelle
estero
estremadura
et
etc
ethnologue
ettimik
ettimo
etwas
eu
euclid
eugen
eugene
eugeniusz
eukleides
euler
eunice
eure
eureka
euro
eurobabeindex
eurohandball
europa
europe
european
eustis
eustreptospondylus
eva
evans
evanston
evansville
evelyn
evening
everett
evert
evic
evil
evolution
ewa
ewald
ewska
ex
excelsior
exclusive
exeter
experience
expression
exsudo
ez
ezequiel
ezra
f
fa
fab
faber
fabian
fabrice
fabrik
facebook
fad
fag
fagot
fagotu
fahren
fair
fairfax
fairfield
fairhaven
fairland
fairmont
fairview
fal
falims
falk
fall
fallece
fallen
fallon
falls
falmouth
fam
fame
famik
famiku
familia
family
famu
fan
fana
fano
fantasy
far
fara
faraday
fargo
farm
farmersville
farmington
farms
farnham
faro
fas
fashion
fasilu
fasoliad
fat
fata
fatan
father
fatu
faulkner
fav
fayetteville
fc
fe
fealota
feb
febul
fed
feda
fedala
federal
federico
fedik
fedorowicz
fee
fefik
fei
feil
feila
feira
feit
feje
fel
feld
felice
feliks
felipe
felix
felmy
fels
femur
fen
fena
fer
ferdinand
ferdinando
ferguson
ferin
fermo
ferna
fernando
ferndale
ferraz
ferreira
ferrell
ferry
fest
festlibro
festschrift
feyel
feɾ
fff
fi
fib
fiba
fibo
fiction
fid
fida
fidi
fido
fidon
fidons
fidot
fiedik
fiedler
field
fien
fif
fifa
figaro
fight
figurasketan
figure
fik
fikam
fikama
fiko
fiks
fiku
fikulik
fikum
fil
fila
filho
fili
filip
filipua
fillmore
film
filma
filmadilekan
filmadramatan
filmot
filmpolski
filmportal
films
filmweb
filo
filosop
filosopa
filosopan
filosopans
filosopi
filosopik
filu
fim
fima
fimik
fin
fina
finale
find
findlay
fini
finik
finiko
finiste
fino
finu
finzi
fio
fiorentino
fire
firenze
first
fis
fischer
fisher
fit
fita
fitchburg
fitis
fits
fitz
five
fizir
fk
fla
flab
flabu
flag
flam
flan
flana
flans
flanu
flap
flapo
flat
fle
fled
fleg
flek
flen
flena
flenas
flenef
fleno
flens
flensburg
fletcher
fleury
flif
flifa
flint
flit
flita
flito
flmap
flo
flod
flodo
flor
flora
florence
florent
flores
floresta
florian
floriano
florida
florin
floru
floyd
flu
fluk
fluko
fluku
flum
flumed
flumeda
flumo
flumon
flun
fluni
flunilabik
flunilabiku
fluno
flunom
flunon
flunons
fluor
flut
flynn
fo
fod
fodo
fog
fogin
fogina
foginik
fogu
fol
foldil
folfutik
folid
folk
follo
fols
folsom
fom
foma
fomam
fomaxu
fomi
fomis
fomo
fomon
fomons
foms
fomu
fon
fona
fonda
fonds
fonetik
fons
fonseca
fontaine
fontaines
fontana
fontenay
football
footballdatabase
footballers
foothills
fop
for
forbach
forbes
force
ford
fore
forest
forestville
forges
fork
forks
forli
form
formation
formed
former
formosa
formoso
formula
forrest
forst
fort
forte
fortuna
fosf
fossil
foster
fot
fotografan
fotografot
fotografots
founder
fountain
four
fourier
fov
fovik
fovo
fowler
fox
foy
foyu
fr
fra
frac
fran
franc
franca
francavilla
france
frances
francesco
franche
francis
francisco
franciszek
franck
franco
franconia
frank
frankfort
frankfurt
franklin
frans
fransa
franz
franziska
franzo
fre
fred
freda
fredadramatan
frederick
fredericksburg
frederik
free
freedom
freehold
freeman
freeport
freetown
freiberg
freiburg
freire
freitas
fremont
french
frey
fricsay
fridel
friedberg
friederike
friedl
friedrich
friedrichshafen
friend
friendly
friends
frikop
frikopa
frikopapu
frikopik
frisa
frisco
fritsch
fritz
friuli
fro
from
frost
fru
frut
frycz
fs
ft
fu
ful
fulda
full
fullerton
fulton
fulu
funchal
furmid
fussballdaten
fusz
fut
futaglo
futs
future
fy
fyodor
fyodorovic
fø
føfa
føn
fɛ
fɛd
fɾe
g
ga
gaal
gabe
gabriel
gabriela
gabuna
gad
gadramatan
gadsden
gae
gaeno
gaf
gail
gainesville
gaita
gal
gala
galesburg
galileo
galizia
gallatin
gallen
galt
galton
galveston
gam
gambiya
game
gan
gana
ganim
gans
gantt
ganz
garci
gard
garda
garde
garden
gardens
gardner
garenne
garfield
garland
garlicki
garmisch
garner
garonne
garrido
gary
gas
gased
gaseda
gasedem
gasedi
gasedil
gasediman
gaseds
gaston
gate
gauss
gautier
gav
gavan
gay
gayeroticvideoindex
gdan
gdynia
ge
geb
geba
gebi
gebidon
gebo
gebom
gebon
gebons
geboy
gebs
gebu
geburtstag
ged
gef
gefa
gegen
gehen
geht
geid
geil
geilik
geiloti
geilotu
geko
gel
gelderland
gelsenkirchen
gem
gemini
gen
gene
genera
general
genesis
genest
geneva
genik
genis
gennadiy
genova
gent
genus
genyodectes
genzano
geo
geoffrey
geol
geological
geomet
geometik
georg
georga
george
georges
georgetown
georgia
georgiy
georgiyevic
ger
gera
gerais
gerald
geraldine
gerard
gerd
gerhard
germa
germain
german
germantown
germik
gers
gerson
gert
gertrud
gescha
geschichte
geschonneck
gespik
gespiko
gestorben
get
geta
geto
getof
getom
geton
getons
geva
gevon
gge
ghent
ghil
gi
giacomo
gian
gianagretik
gianni
giant
gid
gidu
gien
gierszał
giese
gießen
gif
gijo
gik
giko
gil
gilbert
gilda
gildo
giles
gilles
gin
gina
gineya
ginneken
gino
gioia
gioiosa
gion
giorgio
giovanni
girard
girardeau
girl
girls
giro
gironde
gis
gisela
git
gita
gitaran
gitav
gitavan
gito
gitod
giulia
giuliano
giuseppe
giusto
giv
give
givo
givom
givon
givu
gla
glad
gladatima
gladbach
gladstone
glamat
glas
glasgow
glastonbury
glatik
gleip
gleipo
glen
glendale
glendora
glenn
glenview
glep
glich
glin
glinka
gliwice
glo
global
glof
glofo
glofon
glofons
glok
glor
gloria
gloucester
gloucestershire
glu
glum
glun
go
god
goda
godav
godavan
godo
goes
goethe
gogh
gohelle
goia
gok
gol
gola
gold
goldberg
golden
goldik
goldin
goldsboro
goldstein
golo
golom
gom
gon
gonc
gondwanop
gons
gonza
gonzaga
good
google
goose
gordon
gorre
gory
gos
goshen
got
gotla
gott
gottfried
gould
gouveia
gov
goya
gra
grabowska
grabowski
grace
grad
graf
grafa
grafton
graham
gramat
gramata
gramati
gramatik
grammaire
grammar
grammatica
grammatik
gran
granada
granby
grand
grande
grandview
grange
granger
granite
grant
granville
grappa
graubu
gravatai
grave
gravenhage
gray
graz
gre
great
greater
gred
greda
greeley
green
greencastle
greendale
greenfield
greensboro
greensburg
greenville
greenwich
greenwood
greer
gregorio
gregorius
gregory
grenada
gresham
gret
greta
gretadilo
gretik
gretikis
gretiks
gretiku
gretikum
gretna
gretot
gretu
griffin
grigoriy
grigoryevic
grika
grimm
gro
grob
gronau
groningen
gross
grosso
groton
grotte
group
grove
groveton
gru
grup
grupa
grupas
grupi
grups
grusiya
grzegorz
gs
gu
gua
guac
guadalajara
guai
guarda
guardian
guayaquil
guban
gud
guda
gudik
gudiko
gudiku
gudikum
gudikumo
gudo
gudrun
gudu
gue
guerche
guez
guide
guiler
guilford
guillaume
guillermo
guimara
gul
gulf
gulfport
gun
gung
gustav
gustavo
gustaw
gustl
gustul
gut
gutenberg
guttenberg
guvan
guver
guveran
guy
guð
gvatema
gvaya
gwisdek
gyo
h
ha
haag
haar
haarlem
haas
haba
habana
haben
hackensack
had
hadley
hadrosauridae
haeckel
hagen
hail
hainaut
haitiya
halberstadt
halfway
halifax
halina
hall
halla
halle
hallervorden
halstead
ham
hamburg
hamilton
hamm
hammond
hampden
hampshire
hampstead
hampton
han
hancock
hand
hands
hanka
hanks
hanna
hanne
hannelore
hannes
hannibal
hanno
hannover
hanns
hanover
hans
hansen
hansi
happy
har
harald
harbor
harding
hardy
hari
harju
harkiv
harlan
harlingen
harmony
harold
harper
harris
harrisburg
harrison
harrisonburg
harry
hart
hartford
hartnell
harvard
harvey
harwich
harz
has
hasse
hastings
hat
hatfield
hattiesburg
haupenthal
haupt
haus
hausdorff
haut
haute
hautes
hauts
havayua
have
havel
haven
haverhill
havre
hawkins
hawley
hawthorne
haydn
hayesville
hays
hayward
hazleton
he
head
health
heart
heather
hebreyapu
heesters
hegel
heiberg
heide
heidelberg
heidi
heights
heike
heilbronn
heinrich
heinz
hela
held
helen
helena
helene
helga
hella
hellberg
hellmuth
helmut
helmuth
helsinki
hemet
hempstead
hen
henderson
hendersonville
hendrik
hendrix
henley
hennepin
henning
henri
henriette
henrik
henry
henryk
her
herald
herbert
herbst
here
hereford
herefordshire
herman
hermann
hermine
hermitage
herna
herndon
herne
herrera
herrmann
herrn
hertfordshire
hertha
herum
hesa
het
heute
hewitt
hg
hi
hialeah
hiba
hibo
hibolitan
hicil
hicksville
hidalgo
hidr
hidramatan
hidrarg
hidrargin
hidrin
hiel
hiela
hielas
hiele
hieli
hiels
hier
hieroglif
hierusalem
hifutaglo
hig
high
highland
highlands
higladahokiyan
hikanitan
hikrika
hilaire
hilary
hilde
hildegard
hildesheim
hill
hillary
hilliard
hills
hillsboro
hillsborough
hillsdale
hilltop
hilton
himatan
himusigan
hin
hindiy
hindurch
hingham
hinrichs
hinsdale
hinz
hipijun
hipledan
hipul
hireg
hirsch
his
historia
history
hit
hitchcock
hitler
hitu
hl
hlen
hlingen
hm
hme
hn
hne
ho
hobart
hobbs
hof
hoffman
hoffmann
hofmann
hogu
hola
holbrook
holden
holger
holiday
holland
hollister
holly
hollywood
holm
holmes
holoubek
holsta
holstein
holtz
holyoke
homburg
home
homer
homestead
homewood
homme
hon
hondura
honed
hongkong
honkea
honolulu
hoover
hope
hopedale
hopewell
hopkins
hopkinton
hoppe
horizonte
horn
horney
horse
horsham
horst
hospital
hoss
hot
house
houston
hove
how
howard
hr
hren
hrend
hrer
hrig
hrujevsku
hrung
htm
html
http
https
hu
hua
huber
hubert
hudson
huene
hugh
hugman
hugo
huk
hull
human
humboldt
hummels
hunt
huntersville
huntington
huntsville
hurley
huron
hurst
hut
hutchinson
hutt
i
ia
iafd
ian
ias
iauliai
iba
ibinom
ibo
ibsen
ic
ice
ich
ichthyopterygia
ichthyosauria
ichthyosaurus
id
ida
idaho
idiom
ido
ie
if
ig
iga
igarape
iglesias
ignacy
igo
igor
igorevic
iguac
iguanodontia
ihm
ihn
ihre
ii
iii
ijenot
ijenots
ik
iko
il
ila
ili
ill
ille
illinois
ilmap
ilona
ilse
iltis
ilya
ilyic
im
imdb
immanuel
immer
imperial
implications
in
ina
inc
independence
index
india
indian
indiana
indianapolis
indianola
indre
ine
inem
inf
inferiore
info
information
infraordo
inge
ingeborg
inglewood
ingolstadt
ingrid
ini
inn
innsbruck
ins
interlaken
interlingua
interlingue
internacia
internacional
international
internationale
internationalen
internet
interslavic
interview
interviews
into
introduction
inverness
io
ion
iona
ionica
iowa
iparraguirre
ipswich
ipu
ir
irena
irene
irina
irma
irondale
ironton
irpino
irritator
irvine
irving
is
isa
isaac
isabel
isaiah
isaksen
isaku
isbn
ischia
ise
isio
island
isle
islip
isola
isonzo
israel
israeli
issn
ist
it
ita
itabaiana
italia
italiano
itaporanga
itf
ithaca
itja
ito
itreigik
its
itu
iv
iva
ivan
ivanovic
ivanovna
ives
iwona
iz
izabela
izabella
iɡ
j
ja
jacek
jacinto
jack
jackie
jackson
jacksonville
jacob
jacobin
jacobs
jacqueline
jacques
jad
jadwiga
jae
jaenicke
jaf
jafa
jafam
jafan
jafo
jafom
jafon
jafons
jahren
jahrgang
jahrzehnt
jain
jakarta
jake
jakob
jakub
jal
jalgpall
james
jamestown
jamie
jan
jane
janeiro
janet
janina
jankowska
jankowski
jansen
janssen
janusz
jap
japan
japik
jardim
jardin
jarosław
jasin
jason
jasper
javi
javier
jay
jazz
jcerbu
jcik
je
jean
jeanette
jeannette
jed
jeff
jefferson
jeffersonville
jeffrey
jeik
jek
jel
jela
jelo
jelodo
jem
jen
jena
jenav
jenava
jenavan
jenavans
jenavik
jenet
jenets
jennifer
jennings
jenny
jeno
jenon
jenons
jenot
jenotas
jenotem
jenotema
jenotemi
jens
jensen
jenu
jeremy
jerome
jerry
jersey
jerzy
jessica
jest
jesu
jesus
jev
jevcenko
jevod
jevodu
jeziorna
jfalu
ji
jibo
jidramatan
jidramatana
jidu
jiel
jiela
jim
jimatan
jime
jimmy
jin
jiniko
jinon
jinos
jip
jipul
jireg
jlesa
jlesviga
jo
joa
joachim
joan
joanna
joaquim
jochen
joe
joel
joey
joh
johan
johann
johanna
johannes
johannesburg
johansson
john
johnny
johns
johnson
johnston
johnstown
jol
jolanta
joliet
jon
jonas
jonathan
jones
jonesboro
jong
jono
jonom
jonon
jonons
jonu
joplin
jordan
jorge
joris
jos
jose
josef
joseph
josephine
josh
joshua
journal
joy
joyce
jpg
jr
ju
jua
juan
juanma
judith
jujuy
jul
jules
juli
julia
julian
juliane
julie
julien
julio
julius
juliusz
juls
july
jun
junction
june
juneau
jung
juni
jura
jurassic
jurgen
just
justin
jutta
jveiza
jviza
jæ
jɛn
k
ka
kabled
kabom
kada
kadare
kaenal
kaenavik
kafa
kagased
kagaseds
kai
kaiser
kaiserslautern
kaj
kaklub
kakluba
kaklubas
kaklubi
kaklubs
kakongred
kal
kalad
kaladik
kalamazoo
kaled
kaleda
kaleod
kaliforna
kaliningrad
kalisz
kalkulam
kalkulav
kallaste
kalmar
kalmaria
kam
kama
kamala
kamas
kamboca
kambrium
kambriuma
kambriumik
kamen
kameruna
kami
kamil
kamin
kamp
kams
kamu
kamuf
kamufa
kamufi
kan
kana
kanada
kanas
kane
kanef
kanefa
kangur
kanis
kanit
kanitan
kanitana
kanitilautan
kankakee
kann
kanol
kanom
kanon
kanono
kanons
kanoy
kans
kansas
kant
kanton
kantons
kap
karel
karen
karier
karieri
karin
karina
karl
karla
karlheinz
karlsruhe
karol
karolina
kas
kasaka
kassel
kat
kata
katalona
katarzyna
kate
katharina
katherine
kathleen
katia
katja
katowice
katrina
katulik
katy
kaufmann
kaunas
kausch
kav
kavan
kavik
kavol
kay
kaye
kazan
kazimierz
ke
keblu
ked
keene
kef
keita
keith
keizer
kel
kela
kelas
kele
keli
kelik
kelis
keller
kellner
kellogg
kelly
kelos
kelosi
kels
kelso
kemal
ken
kendall
keninu
kenmore
kennedy
kenneth
kenosha
kent
kentucky
kenya
kepler
kerckhoffs
kesena
kessel
kettering
kevin
kevo
kevoban
key
keynes
keystone
kg
khan
ki
kian
kiefer
kiel
kielce
kiemav
kiemavan
kiemavik
kierczyn
kiewicz
kik
kiko
kikodo
kil
kildeg
kilid
kilna
kim
kimberly
kin
kind
king
kingman
kings
kingston
kingstown
kingsville
kinik
kino
kinshasa
kinski
kinston
kio
kion
kip
kiped
kipo
kirchberg
kirilik
kirill
kirk
kirkland
kirkwood
kirsten
kis
kisten
kit
kivo
kla
klad
klada
klagenfurt
klaipe
klara
klata
klaus
kleilik
kleilu
klein
kleinmachnow
klifs
klimat
klino
klinu
klo
klor
klorid
klorin
klot
klu
klub
kluba
kludo
kluo
kluv
km
kniele
knight
knox
knoxville
knuth
ko
koap
koba
kobikam
koblenz
kobo
kobolo
koboyu
kobu
koch
kociniak
kocsis
kod
koda
kodon
kodons
kods
kodu
koedo
koedon
kof
kohtla
kol
kola
kolberger
kolda
koldik
koldu
kolkata
kolko
kolovrat
kolumba
koluna
kom
koma
komip
komipan
komipinoganu
komitetan
komiy
komiyanas
komm
komorowska
komorua
komot
komota
komotanef
komotazila
komots
kompad
kompena
kompeno
kompenom
kompenon
komplitik
komunik
kon
kona
konarowska
kondo
kondrat
kondratiuk
koned
konflit
konfrontacja
kongoa
kongred
konlet
konletateor
kono
konot
konots
konrad
kons
konsa
konstancin
konstantin
konstantinovic
konstanz
kontina
konzedan
koordinats
kop
kor
kora
korcz
koreya
kornido
korsikea
korte
kos
kosa
kosmopolan
kosova
kossobudzka
kostarika
kostas
kot
kotenu
koterski
kots
kov
kova
kowalewski
kowalski
koz
kozak
kp
kr
kra
krako
kramer
kran
krana
krani
krasnoyarsk
krause
kravcuk
krawczyk
kred
kredons
kredoy
krefeld
kreis
kretat
kretata
kretatik
krig
kriga
krigik
krika
kristian
kristina
kristus
krit
kritid
kritik
kro
kroasa
kroll
kru
krug
krugu
kruko
krukowski
krupa
krystyna
krzysztof
krzyz
ks
kseniya
ksid
kt
ktronik
ktu
ku
kubea
kubrick
kujo
kul
kuliv
kuliva
kulivik
kult
kultan
kumam
kumar
kumo
kun
kunamilig
kundera
kuopio
kuradu
kuratik
kuratiko
kurda
kurmanciy
kurt
kurze
kuznezov
kva
kvisinan
kwiatkowska
kyl
kyle
kz
københavn
køl
køn
kə
kɛd
kɛn
l
la
lab
labo
labof
labom
laboms
labon
labons
labots
labu
lac
lach
lad
lada
ladel
ladik
ladu
ladv
ladva
lady
laf
lafab
lafaba
lafabs
lafayette
lafganista
lafik
lag
laga
lagaya
lage
lago
lagoa
lagos
lagrange
laguna
lahm
laid
laidu
lailifons
lair
lajos
lak
lakdaria
lake
lakeland
lakes
lakeside
lakeville
lakewood
laks
lalaska
lalbana
laljera
lam
lamar
lambert
lambiek
lambro
lamerika
lamont
lampertheim
lampo
lan
lana
lancashire
lancaster
land
landau
landes
landora
landry
lane
lanem
lang
lange
langen
langhoff
langley
langola
language
languages
langue
languedoc
lanhalta
lanka
lans
lansdowne
lansing
lanta
lapa
lapena
lara
laraba
larabik
larga
largaua
large
largentik
largentin
largo
lario
larisa
larmeniya
larry
lars
larsen
las
lasa
lassen
last
lasu
lasumom
lasumon
lat
lata
late
latest
latik
latikumo
latin
latina
latinans
latinik
latino
latlantean
lato
latviya
lauderdale
lauf
laura
laurel
lauren
laurence
laurent
lauro
laustrala
lautan
lautana
lautanas
lautans
lauto
lautom
lauton
lautot
lautotis
lautots
lav
laval
lavey
lavogan
lawn
lawrence
lawrenceburg
lawrenceville
lawson
lawton
lazio
lazorua
lbf
ld
ldik
ldiku
ldot
ldoti
ldotu
le
lea
leader
league
leandro
leavenworth
lebanon
leben
lebu
lebuk
lebuka
lebukas
lebuks
leca
leced
lecedis
lecedom
lecedon
lecedons
leceds
lech
led
lederer
ledino
lee
leeds
leesburg
lefa
lefamu
lefat
lefil
left
legacy
legad
legal
legend
legendary
legik
leglu
legretik
legudik
lehigh
lehmann
leibnitz
leibniz
leicester
leiden
leiga
leigh
leigo
leigodu
leigon
leigu
leimen
leipzig
leiria
leisure
leitmeritz
lejeno
leka
lekaled
lekan
lekana
lekanan
lekananas
lekanas
lekanik
leko
lekomip
lekoned
lekoneda
lekonedas
lekoneds
lekontina
lekvadora
lel
lelo
leloga
lem
lemesed
lemesedi
lemira
lemo
len
lena
lenik
leningrad
lenla
leno
lenola
lens
leo
leodu
leominster
leon
leonard
leonardo
leonhard
leonid
leonidovic
leonie
leontovu
leopold
leopoldo
lep
lepa
lepleds
les
lesag
lesagom
leset
lesien
lesil
lesio
lesley
leslie
lespad
lester
lestiya
lestu
leszczyn
leszek
let
leta
letaf
letafs
letan
letik
leto
letruska
letters
leu
lev
leval
levala
levemo
leverkusen
levittown
levolut
levolutan
lewis
lewisburg
lewiston
lewisville
lex
lexington
lez
leza
lezenodik
lfb
lfo
li
lia
liam
liaoning
lib
libana
libera
liberal
liberty
libik
librairie
library
libu
licin
licina
licinon
lid
lidia
lido
lids
lie
liebe
lied
lieder
liedo
lieg
liegik
lien
lietuva
lif
lifa
lifajena
lifav
lifavan
lifavik
lifayelas
lifayels
life
lifi
lifik
lifo
lifon
lifons
lifu
lig
light
ligta
ligueil
ligure
liguria
lijst
lik
like
liko
likowski
liktiosaur
liktiosauras
liktiosaurs
liku
lil
lila
liliana
lille
lim
lima
limaf
limafs
liman
limanas
limans
limatat
limburg
limburga
limousin
lin
linas
lincoln
lincolnshire
linda
lindemann
linden
lindenhurst
lindiyans
lindner
lingen
lingl
lingla
lingua
lingvo
linn
linnaeus
lins
lint
lintelekamalu
linz
lio
liomo
lion
lira
liraka
lireya
liri
lis
lisa
lisboa
lised
lisedi
lisladea
lisle
list
listkiewicz
lit
litaliya
litayels
litchfield
literat
literata
literatik
literature
litoral
little
littleton
liv
liva
live
livenza
livermore
liverpool
livingston
livorno
livu
lix
liza
ljubljana
lk
ll
lla
llen
ller
lloyd
llung
ln
lo
lob
lobu
lockhart
lockport
lod
loda
lodi
lodigiano
lodik
lof
lofu
log
loga
logam
logan
logis
logo
logod
logolo
logs
loi
loing
loir
loire
loiret
lois
loja
lok
lola
lom
loma
lomanef
lomanefa
lomanefas
lomanefs
lombardia
lombardo
lommel
lomo
lon
lona
london
long
longmeadow
longview
loni
lono
lons
loos
lop
lopez
lopik
lora
lorain
lord
lordovig
lordovigik
lorenz
lorenzo
loreto
lorraine
los
losfeld
lost
lot
lota
lothar
lothe
lotido
lotograf
lots
lou
louis
louisa
louise
louisiana
louisville
loup
lourenc
lov
love
lovea
loveland
loves
lovik
low
lowell
lower
lox
loxid
loxin
loxita
loze
ls
lsejo
lska
lt
ltum
lu
lubaszenko
lubbock
lublin
luc
luca
lucania
lucas
lucca
lucie
lucien
lucy
ludlow
ludwig
ludwigshafen
ludwik
lufamu
lugandaya
lugano
lugo
lui
luigi
luimo
luis
luise
luka
lukas
luke
lukiem
lukraya
lukru
lul
lulid
luls
lulu
lun
luna
lund
lunel
lunenburg
lunetu
lunik
luniku
lunikum
lunomiko
lunot
lunoti
lunotu
lunu
lup
lupsalia
luray
lurduvo
lurood
lurooda
luruguya
lusbeka
lustelav
lut
luta
lutapof
lutz
luveratiko
luxa
luxemburg
luz
luzern
luzia
lva
lvarez
lvaro
ly
lya
lyatoju
lydia
lyl
lyme
lynchburg
lynn
lynnwood
lynwood
lyon
lys
lyudmila
lø
løf
løn
lɛ
lɛb
lɛd
lɛn
m
ma
maastricht
maastrichtian
mab
mabik
mac
macara
macau
macerata
machado
machalica
machen
machulska
machulski
maciej
maciejewski
macomb
macon
mactutor
mad
mada
maddaloni
made
madison
madisonville
madonna
madrid
maf
mafa
mafam
mafo
mafra
mag
maga
magalha
magazine
magda
magdalena
magdeburg
maggiore
magic
magliano
magnetik
magnolia
magnus
magny
magod
magodan
magodis
magods
magot
magyar
maher
mai
maidla
maidstone
maifu
mailing
main
maine
mainstream
mainz
maior
maire
mais
maisons
maja
major
makedona
makedoniya
maker
makowska
maks
maksim
mal
mala
malagasea
malanowicz
malas
malat
malaysiya
malcolm
malden
male
malibu
malik
maliya
mallorca
malo
malon
mals
maltea
malu
mam
man
mana
manas
manassas
manche
manchester
mandy
manfred
manga
manhattan
manik
maniraptora
manitoba
mankato
mann
mannheim
mano
manor
mans
mansfield
mantova
mantua
manuel
manville
many
maple
maplewood
maps
mar
mara
maranha
marano
marathon
marblehead
marc
marcel
marcellin
march
marche
marcin
marco
marcos
marcus
mare
marek
maren
margaret
margarete
margarita
margate
margherita
margit
margot
marguerite
mari
maria
marian
mariana
marianne
mariano
maricopa
marie
marietta
marijampole
marilyn
marin
marina
marino
marinus
mario
marion
maritime
maritimes
marittima
marius
mariusz
mariya
mark
market
markham
marko
markus
marlborough
marlene
marlon
marly
marne
maroka
marolles
marque
marquette
mars
marsan
marseille
marsh
marshall
marshfield
marsi
marta
martha
marti
martill
martin
martina
martinez
martinikea
martino
martinsburg
martinsville
martu
marvin
marx
mary
maryland
marys
marysville
maryville
marzena
mas
masat
mascheroni
masiakasaurus
mason
mass
massa
massachusetts
massapequa
mastan
mastani
master
mastroianni
mat
mata
matan
matans
matemat
matemata
matematan
matematanas
matematans
matemati
matematik
matenot
matenoti
mateo
mater
matera
mateus
mateusz
mathematical
mathematics
mathias
mathieu
mathilde
mati
matikof
matikom
mato
mats
matt
matthew
matthews
matthias
matthieu
matti
mattia
mau
maur
maurice
mauricio
maurizio
mauro
mav
mava
mavan
mavik
mavo
max
maxi
maxime
maximilian
maxu
maxwell
may
maya
mayenne
mayer
mayfield
maynard
mayo
mayr
mays
mayul
maywood
mazowiecki
mazur
małgorzata
mbol
mburga
mccoy
mcdonald
mchenry
mclean
mcminnville
me
meadow
meadows
meadville
meaux
mechanicsville
med
meda
medford
media
medina
medo
medu
medway
meet
megalosauridae
megalosauroidea
megalosaurus
mehdi
mehr
meina
meine
meiningen
mek
meka
mekavapu
mekavik
mel
mela
melara
melbourne
melik
melle
melrose
mels
mem
memorial
memphis
men
mena
menade
menas
menav
mendon
mendoza
mendy
menef
menik
menis
menlo
mens
mensch
ment
mentor
mer
merced
mercedes
mercer
mercury
meredith
meriden
meridian
merle
merop
meropa
meropik
merrill
merrimack
meru
merunka
mes
mesa
mesnil
mesopota
mesquite
met
meta
metafu
metal
metas
metod
metodas
metodi
metodis
metods
mets
metsaku
metz
meu
meurthe
meuse
mexico
meyer
mez
mfon
mfoni
mfonik
mfons
mi
mia
miami
mich
michael
michalska
michał
michel
michelangelo
michele
michelle
michigan
michou
mickey
mico
microraptor
mid
middle
middleburg
middlefield
middlesex
middleton
middletown
midgley
midi
midland
midlands
midnight
midvale
mie
mieczysław
mied
miedet
miedeton
miedu
mies
mifa
mig
miguel
mihai
mihail
mihaylovic
mik
mika
mike
miko
mikołajczak
miks
mil
milan
milanese
milano
mile
miles
milford
milgramas
milgrams
milig
milit
milita
militello
militik
mill
millbrook
millcreek
milledgeville
miller
millington
mills
millville
milmets
milton
milwaukee
min
minas
mind
minden
mines
minh
minho
minister
ministeran
minmi
minneapolis
minnesota
minot
mins
minsk
mint
minut
mir
mira
mirabel
mirage
miranda
miriam
mirim
mirosław
mirosława
mis
mission
mississippi
missouri
mit
mitchel
mitchell
mitifidaf
mitifidafs
mitifidik
mitifido
mixosaurus
mjo
mkrtchyan
mma
mme
mna
mnad
mo
mob
mobile
mobom
mobon
mobons
mobs
mod
model
models
modena
moder
modern
modesto
mods
mof
moffat
mogi
mohamed
mohammad
mohave
mohr
moines
mojo
mola
moldava
molie
molik
moline
molise
moll
mom
mon
mona
monaco
monaka
monc
monde
mondo
monferrato
mongola
mongolia
moni
monica
monika
monmouth
monroe
monroeville
monrovia
mons
mont
montabaur
montagne
montague
montalto
montana
montano
montclair
monte
montebello
montecchio
montenegra
monterey
montes
montevideo
montgomery
montigny
montpelier
montpellier
montre
montreuil
montrose
montville
moon
moore
mooresville
moorhead
mor
moran
morawski
morbihan
more
moreno
morgan
morgantown
morisea
morita
moritz
morning
moro
morrinhos
morris
morrison
morristown
morrisville
morro
mort
morte
mortimer
morto
morton
mos
moscow
moselle
moses
moskva
moss
most
mostar
mosyenko
mot
mota
motani
moted
motedadel
motedo
mother
moto
motof
motom
mots
motta
motte
mou
mounds
mount
mountain
moura
mouskouri
mov
movie
movies
mozambika
mozart
mpik
mr
mrozowska
ms
mt
mtla
mu
much
mud
mudel
muere
muf
mufa
mufi
mufs
mufu
muhammad
muik
mul
mulhouse
mulik
muls
mumbai
mun
muna
mundo
municipality
munster
munzinger
mure
murfreesboro
muri
muriel
murio
murray
mus
musa
mused
museda
museum
musiał
music
musical
musig
musiga
musigakada
musigalef
musigan
musiganef
musiganefa
musiganefas
musigi
musigik
musigo
musik
mutom
muton
mutons
my
myers
myl
myrtle
møn
møp
mɛd
mɛl
mɛn
n
na
naa
naatom
nabo
nabu
nach
nacional
nad
nadja
naed
naf
nafa
nafeda
nafo
nai
nam
nama
namaglo
namapena
name
named
namen
namibiya
namur
nan
nana
nanas
nancy
nanef
nanik
nans
nantes
nantucket
naoloveik
napa
naperville
napier
naples
napoli
napu
narva
nas
nash
nashua
nashville
naskig
nassau
nat
nata
natajenava
natal
natalia
natalya
natavan
nateurs
nathan
natik
nation
national
nationale
nato
natopa
natopad
natural
nature
nau
naumburg
nav
navajo
navarre
navas
navayovo
naviglio
nazaire
nazare
nba
nburga
nchen
nchengladbach
nchez
ncia
nd
nde
nden
nder
ndez
ndia
ndido
ndig
ndisch
ndler
ndor
ne
nea
neai
neal
nebraska
neckar
ned
neda
nedabinotik
nederland
nedetik
nedibik
nedik
nedo
needham
nef
nefa
nefinik
neflen
nefo
nefu
nego
negro
nehmen
neil
neit
neito
nek
neko
nel
nela
nelaidu
nell
neloga
nelov
nelson
nelsonville
nem
nema
nemanja
nemi
nemo
nemom
nemon
nemons
nems
nemu
nen
nenberg
nendoto
nenpalano
nenpo
nentutik
nepala
neplu
nepo
nepomuceno
nes
nesekidik
nesekidiko
neseva
nestedo
nesu
net
neta
netahu
netasoga
netik
neto
network
neu
neuburg
neucha
neudik
neuilly
neumann
neumarkt
neunkirchen
neuque
neuss
neustadt
neutral
neuville
nevada
nevera
neves
new
newark
newberry
newburgh
newbury
newcastle
newport
news
newton
newtown
nez
nff
ng
ngala
nge
ngel
ngen
nger
nguez
nh
ni
nia
niagara
niak
nica
nice
nicholas
nicholson
nicht
nick
nicky
nico
nicola
nicolae
nicolas
nicole
nid
nie
niedero
nielsen
niemczyk
nietzsche
niewska
nifu
nig
nigera
nigeriya
night
nigsberg
nijmegen
nijniy
nik
nika
nikaraguva
nikita
nikiya
niklas
niko
nikola
nikolai
nikolay
nikolayevic
nikolayevna
niks
nil
nila
niles
nilik
niliku
nilo
nils
nilu
nilud
nim
nima
nimas
nimik
nimis
nims
nimu
nin
nina
ninik
ninon
ninsadabled
ninu
nio
nioto
niotof
niotom
nioton
niotons
nis
nisa
nisul
nisulans
nisuls
nitan
niteda
nitedik
nitr
niva
niver
nivera
niverik
nivers
nivod
nixon
nk
nko
nl
nm
nn
nnchen
nneke
no
noa
noata
noateds
nobel
noble
nocera
nod
noda
nodatima
nodik
nodu
noe
noet
nof
nog
nogan
noganu
nogaro
nogent
nogna
noisy
nol
nola
nolan
nolav
nolava
nolavan
nolavans
nolavas
nolavik
nolavs
noli
nolik
nolu
nom
noma
nome
nomen
nomik
nomiko
nominations
nominees
nomo
noms
nomu
non
none
nonik
nons
nop
nops
nora
norbert
nord
norell
norfolk
norga
norla
norma
normal
norman
normandie
norriton
norte
north
northampton
northamptonshire
northbrook
northfield
northport
northumberland
norton
norwalk
norwich
norwood
nos
nosde
nosi
nossa
nosse
nosu
not
nota
notav
notidik
notodo
notre
nots
nottingham
nottinghamshire
notu
noun
nous
nouvelle
nouvelles
nov
nova
novarese
novas
noventa
novgorod
novi
novial
novik
novo
novos
novosibirsk
novul
now
nowak
nowakowska
nowe
nowy
ns
nsapu
nsdap
nsku
nsson
nsta
nster
nt
nta
nter
nther
ntner
nu
nua
nuam
nuastrof
nud
nuda
nuik
nul
nula
nulifo
nulik
nuliku
nulu
num
numa
numam
numas
numateor
number
numi
numminen
nums
nun
nuna
nunal
nunes
nunom
nunon
nuns
nuova
nuovo
nupu
nur
nurme
nutimik
nutimo
ny
nya
nyctosaurus
nyl
nymap
nz
nø
nøf
nøn
nøp
nɛ
nɛd
nɛn
o
oak
oakdale
oakham
oakland
oakley
oaks
oakville
ob
oba
obas
obe
oberhausen
obero
oberpfalz
obhlidal
obik
obispo
obituary
obs
obsik
occidental
ocean
oceanside
od
odd
oder
odesa
odessa
odi
ods
odu
oeiras
oeste
of
ofa
ofe
off
office
official
ofi
ofik
og
ogden
oglio
oh
ohio
oil
oin
ois
oise
oj
ok
oka
okas
oke
oki
okik
okiks
okis
oklahoma
okreigo
oksik
ol
ola
olaf
old
oldenburg
ole
oleg
olga
olgiate
oli
olik
olive
oliveira
oliver
oliveto
olivia
olivier
olms
olmsted
olney
olona
ols
olsen
olsztyn
olympedia
olympia
olympique
om
oma
omaha
omar
ome
omeisaurus
omi
omik
omiks
oms
omsik
omsk
on
ona
onalaska
onas
one
ones
oni
onik
onis
online
only
ons
onsik
ontario
oost
op
opabinia
opania
opera
operator
ophthalmosaurus
or
orange
orangeburg
orb
order
oregon
org
orge
oric
orientales
original
orlando
orle
orleans
orne
ornithischia
ornithopoda
oro
orska
orson
ort
ortega
orwid
orłos
os
osa
oscar
oskar
oslo
osmo
osnabru
osteology
ostrowska
oswego
ot
otgenia
other
ottawa
otto
ou
oud
ouen
ouest
our
ouro
out
ov
ovce
over
overland
overleden
oviedo
oviraptorosauria
owen
oxford
oxfordshire
oy
oya
oz
ozark
p
pa
pabevobons
pablo
pachycephalosauria
pacuła
pad
padi
padila
padilon
pado
padova
padovana
pads
page
pagebo
pagebon
pagebons
pages
pagiku
pai
painted
paja
pakam
pakista
pal
pala
palace
palaeontology
palais
palazzo
palazzolo
palecedo
palecedom
palecedon
palelogo
palelogom
palelogon
palelogons
paleontology
palermo
palestine
palet
paleta
palets
palisedons
palm
palma
palmas
palmeira
palmer
palmetto
palo
palos
pals
palza
pam
pama
pamela
pampa
pan
panama
panaro
panemo
panemon
panemons
panorama
paolo
papal
papeno
papenon
papladon
paplo
papu
par
para
paradis
paradise
paragva
parai
paramaribo
parana
pardo
paris
park
parker
parkersburg
parkland
parkville
parma
parsons
part
partenkirchen
party
pas
pasadena
pascal
pasco
paset
pasevon
pasifeana
paso
paspiko
paspikon
pass
passaic
passau
passed
passes
passiria
past
pat
pata
patagonia
pated
patedik
paterson
patik
patiko
patis
pato
patos
patricia
patrick
patrycja
pats
patterson
patti
patuvon
patuvons
pau
paul
paula
pauli
paulina
paulista
paulo
pavel
pavia
pavlovic
paweł
pawlikowski
pawłowski
paxton
payne
pays
payson
paz
pazura
pdf
pe
peabody
peace
peano
pearl
pebalo
pebepeno
pebepenon
pebrefu
pebumon
ped
pedadila
pedatiko
pededieto
pedik
pedistuko
pedo
pedra
pedras
pedro
pefu
peirce
pejafo
pekin
pekonsulton
pel
pela
pelauto
pelham
pelo
pelovepolo
pema
pembroke
pemobos
pemoto
pemou
pen
pena
penam
penan
pendleton
pened
peneds
penemo
penemon
penemons
penn
penne
pennsylvania
peno
penom
penon
penot
pensacola
pensu
penuma
people
peoria
pepeno
pepero
pepper
pepu
per
percy
pereira
perepeczko
perevido
performer
perik
period
perioda
periodapena
periods
pernambuco
pero
perom
perry
person
persons
perth
pertwee
peru
peruva
peschiera
pestabo
pestabon
peszek
pet
pete
peter
peterburg
peters
petersburg
petersen
peterson
petit
petraduto
petro
petrovic
petu
petuvo
petuvon
petuvons
pevotu
pez
pfalz
pfen
pforzheim
ph
phan
phane
phil
philadelphia
philip
philipp
philippe
philipps
phillips
phillipsburg
philosophy
phoenix
php
phylogenetic
pi
pia
piacentino
pian
pianiko
piano
pianod
pianodan
piaui
piave
piazza
picardie
piceno
pico
pid
pie
pieczyn
piemonte
pierce
piero
pierre
piet
pieter
pietro
pieve
pifu
pigeon
pijun
pijunibridan
pik
pikam
pike
piko
piku
pil
pila
piltdown
pima
pin
pina
pinal
pine
pinellas
pinerolo
pines
pineville
ping
pingia
pino
pins
pinumam
pinumamabu
pio
piosenki
piotr
pirai
pirmasens
piro
pis
pisa
pit
pitidel
pitidels
pittsburg
pittsburgh
pittsfield
pitu
piŋ
pl
pla
plaa
place
plad
pladi
plado
pladon
pladons
pladotayels
plage
plagik
plaine
plaines
plainfield
plains
plainview
plainville
plan
planav
planavan
planet
planeta
planets
planifidaf
planifido
plano
plans
plant
plantation
plat
plata
platon
platot
platte
player
players
pleasant
pleasanton
pleasantville
pled
pledan
pledom
pledon
pleno
plesiosaur
plessis
plin
plina
plo
plu
pluamanum
plucin
pluik
plunum
plur
plus
plymouth
pm
pn
png
po
poa
poc
pod
podlaski
poe
poed
poedan
poedik
poedot
poedotas
poedots
poemas
poesi
poggio
point
poitou
pol
pola
poldan
polesine
poletti
poli
polis
polk
polo
polu
pom
pombal
pomona
pon
pons
pont
ponta
ponte
ponts
poole
pop
popabled
pope
popiel
por
pordenone
porn
pornabioskopik
pornadramatan
pornafilmot
porno
port
porta
portage
portalegre
portales
porte
portel
porter
portland
porto
portogruaro
portsmouth
portuga
portugal
pos
posa
posik
poso
posse
post
pot
potenza
potomac
potsdam
potter
pour
powell
power
powski
poyu
poznan
pp
pr
pra
praha
praia
prairie
prata
prato
prattville
pre
prefix
prem
prema
premi
premier
preminuo
premio
pres
presa
prescott
present
presidal
presidan
presidana
president
presidente
presley
press
preston
preto
preusa
price
priest
prilul
prim
prima
primanumaleset
primanumas
prime
primik
primo
primof
primom
primon
primons
primu
prince
princeton
prinsip
prinsipis
priori
privatik
prix
pro
probe
proceedings
prodan
prof
profa
professor
project
pron
pronimag
prono
pronon
pronouns
propagation
propagid
propagido
prosauropoda
prota
provence
providence
provin
provina
provinas
provinik
provins
proxima
proyeg
pru
przeboje
przemysław
ps
pta
pteranodon
pterodactyloidea
pterodactylus
pterodaustro
pterosaur
pterosauria
pterosaurs
ptul
ptuls
pu
pub
publications
publishing
publu
pubon
pubons
pueblo
puente
puerto
puertorikea
puglia
pujkin
pul
pullman
punakomipan
punctuation
punta
pute
putnam
puy
py
pyk
pyotr
pyre
pø
pøn
pɾy
q
qu
quatro
que
queen
queens
queensland
queimadas
quentin
quetzalcoatlus
qui
quiet
quincy
quinn
quinta
quinto
quipe
quirico
quite
r
ra
raceland
rachel
racine
racing
radio
radionaparatik
radom
radosław
radovanovic
rae
rafael
rafał
raffaele
ragiv
ragivis
ragivs
rai
rain
rainer
raleigh
ralph
ram
rami
ramo
ramon
ramona
ramsey
ran
ranch
rancho
randolph
randy
rang
raoul
rapid
rapids
rapla
rard
rasmus
rat
raton
rau
rauhut
rault
ravenna
ravensburg
ray
raymond
rb
rba
rbara
rber
rbiger
rbs
rc
rd
rde
rdeland
rdoba
re
rea
read
reading
real
rebecca
rebroia
recht
recka
record
records
red
redakan
redakom
redaku
redding
redenc
redik
redland
redmond
redon
redondo
reed
ref
reference
reg
rega
regensburg
reggie
reggio
regik
regina
regis
reid
reido
reig
reiga
reiganef
reiganefa
rein
reinhard
reinhold
rel
release
releases
relik
relo
rels
rem
reman
remo
ren
renata
renate
rene
reno
renton
renzo
reporter
reptilia
repu
repubblica
republic
rer
res
research
resende
resod
resodadelabukan
resodapad
resodapadem
resodatopa
resodatoped
resodik
resodo
ret
retrieved
rets
retz
revere
revid
revido
review
reviews
revuzku
rex
rey
reyes
reykjavi
reynders
rez
rfat
rfati
rg
rgen
rgens
rhabdodon
rhamphorhynchus
rhein
rheinfelden
rhin
rho
rhode
ri
ria
riacha
ribatejo
ribeira
ric
rica
ricardo
rice
rich
richard
richardson
richfield
richland
richmond
richter
rick
ricky
rico
rida
ridge
ridgefield
ridgeland
rie
riemann
rieux
rig
riga
rigavo
right
rigik
rigiko
rik
riley
rin
rina
ring
ringwood
rinus
rio
rioja
rios
ris
riska
rita
rito
ritter
riva
rivadavia
river
rivera
riverdale
rivers
riverside
riverton
riverview
rivie
riviera
rivo
rivom
rivon
rivons
riya
rk
rka
rlitz
rloxid
rm
rme
rmig
rmik
rmla
rmu
rn
rna
rnberg
rner
rno
rnom
rnten
rnu
ro
roanoke
rob
robbie
robert
roberto
roberts
robertson
robin
robinson
robson
rocca
rocco
rocha
roche
rochefort
rochelle
rochester
rock
rockford
rockingham
rockland
rockledge
rockport
rockville
rocky
rod
rodez
rodney
rodri
rogalski
roger
rogers
rohr
roi
roland
rolf
roll
rolla
rolling
rolo
rom
roma
romagna
romain
romakatulik
roman
romano
romans
romatik
rome
romenik
romero
romuald
ron
ronald
ronco
rondo
ronnie
rooda
rooney
roosevelt
roots
roque
roraima
ros
rosa
rosario
rosati
rose
rosedale
roselle
rosemont
rosenberg
rosenberger
rosenheim
roses
roseville
ross
rossi
rossville
rostock
rostov
roswell
roth
rothenburg
rotterdam
rouen
rouge
rough
roul
rouli
round
rousseau
roussillon
roux
rovigo
rovik
rowing
roy
royal
roßlau
rs
rsa
rska
rt
rta
rten
rter
rterbuch
rth
rtlich
rts
ru
ruanda
rube
ruda
rudd
rudolf
rudy
rufus
rugby
ruhr
ruiz
rujenavik
rula
ruma
rummu
rung
rupert
rus
rusa
russ
russell
russellville
russian
rut
ruth
rutherford
rutland
ruy
rva
rvi
rvig
rvigi
ry
ryan
rye
ryen
ryszard
rzburg
rze
rzea
rzegova
rzen
rzeszo
rður
rə
s
sa
saarbru
saare
saarla
sabina
sabine
sacco
sache
saco
sacramento
sad
sag
saga
saginaw
sago
sagom
sagoy
sahara
said
saikulan
sail
saint
sainte
sair
saka
saksa
sal
sala
salamanca
sale
salem
salina
salinas
salisbury
salmon
salo
salt
salto
salu
saluda
saludik
saludu
salvador
salvadora
salvatore
salvo
salzburg
sam
samafomot
samara
sammy
samo
sams
samuel
san
sanan
sanav
sand
sandomina
sandra
sands
sandusky
sandwich
sandy
sanford
sanger
sangro
sankt
sanmarina
sant
santa
santana
santander
santare
santbergen
santi
santiago
santo
santos
sao
sap
sar
sarah
sarajevo
sarasota
saratoga
saratov
sardegna
sardinea
sarthe
sasha
saskatchewan
sasso
satiran
saturnin
sauda
saulgau
sault
saun
saurischia
sauropod
sauropoda
sauropodomorpha
sauropterygia
sauveur
savage
savigny
savoie
savoy
saxa
sbandoindex
sc
scar
scarborough
scene
scha
schall
schen
schenectady
schiff
schiller
schla
schlagen
schleswig
schleyer
schlu
schmid
schmidt
schneider
scho
schola
school
schoy
schro
schroth
schu
schultz
schumann
schwa
schwarz
schwerin
science
sciences
scott
scottish
scottsdale
scranton
scrivia
se
sea
sead
seado
seal
sean
seanop
seanua
search
seaside
seat
seattle
sebastia
sebastian
seborga
sec
secaucus
secondo
sed
sedalia
sedan
sedom
see
segundo
sei
seimik
sein
seine
seinem
seit
seite
sejm
sek
seka
sekidon
sekis
seko
sekretan
seks
seku
sekun
sel
sela
selbstverl
selden
selea
selma
selo
sem
semik
semikna
seminole
semitik
semyon
sen
sena
senador
senan
senegala
senhora
seno
sens
sep
sepp
sepu
ser
sereno
serge
sergey
sergeyevic
sergio
sergipe
series
serio
serra
serravalle
serta
sessions
sesto
set
seta
setaglo
setu
setul
setzen
sev
seva
sevabo
seven
severino
severn
sevilla
sevo
sevom
sevoy
seward
seweryn
sex
seymour
shakespeare
shale
shane
shanghai
sharma
sharon
shaun
shaw
shawnee
she
sheboygan
sheffield
shelburne
shelby
shelbyville
shelley
shelton
shenandoah
sherdog
sheridan
sherman
sherwood
shiloh
shirley
shonisaurus
shore
shores
shorewood
short
show
shreveport
shrewsbury
shropshire
shtml
si
sia
siama
sibelius
sibira
sibiu
sica
sich
sicilia
sicula
sid
sidan
sidney
sie
siegen
siegfried
siemion
siena
sienkiewicz
sieraleona
sierra
sifal
sigmaringen
sigmund
sikilea
sikloped
sikora
sil
sila
silas
silav
silava
silavan
silavans
silik
silis
sils
silur
silurik
silva
silver
silverdale
sim
sima
simo
simon
simone
simpson
sin
sinan
sing
singapura
singer
sings
sinif
sinifo
sinifon
sinifu
sinot
sinotan
sinots
sint
sintra
sio
sioux
siprea
sir
sirku
sis
siso
sissoko
sit
site
siti
sito
sits
siu
siyop
siyopans
siyopik
sk
ska
skandina
skania
skar
ski
skin
sko
skopje
skoru
skota
skra
skull
skulturan
sky
skye
sla
slamik
slav
slava
slavik
slenik
slet
sleumer
slopan
slovakiya
sloveniya
slu
sludom
sm
smalik
smaliks
smaliku
smalikum
small
smalu
smaplanet
smet
smilo
smit
smith
smithfield
smo
smyrna
snek
snohomish
snud
snyder
so
soa
soar
sobre
soccerbase
soccerway
soci
society
socorro
sod
sodas
sodik
sodo
sods
soelo
sofia
soga
soik
sol
sola
solana
solano
solasit
solasita
soldat
soldats
sole
solidik
solingen
solo
solomonua
solon
soloturna
som
somala
some
somers
somerset
somerville
somik
somme
sommer
son
sonemik
song
songs
sonja
sonneberg
sons
sophie
sopra
soran
sori
soria
soriano
sorrento
sosnowiec
sot
sotto
soudier
soul
sound
soure
sous
sousa
south
southampton
southborough
southern
sovya
sp
spa
space
spad
spadi
spanish
spanya
sparks
special
species
speicher
spencer
sperantamuf
sperantapu
sperima
spielmann
spik
spika
spikans
spiko
spikons
spikot
spikoy
spinosauridae
spinosauroidea
spinosaurus
split
splodu
spodo
spokane
sport
sporting
sports
spotavabistiran
sprache
sprague
sprenger
spring
springdale
springfield
springs
springville
square
sr
sri
ssel
sseldorf
ssia
st
sta
stab
staba
stabalona
stabik
stabo
stabon
stabs
stabu
stad
stade
stadi
stadt
staf
stafford
staffordshire
stalin
stama
stamford
stan
stanbul
stand
stanford
stanislav
stanisław
stanisława
stanko
stanley
stano
stanton
stapledon
star
stark
starnberg
stars
state
states
station
statitabu
stats
staunton
ste
steda
stedo
steel
steenbergen
stef
stefan
stefano
steffen
stehen
steiermark
steifa
steifu
stein
steiner
stel
stela
stelav
stelavan
stelavi
stelavik
stella
stels
sten
step
stepan
stephan
stephen
ster
stera
sterling
stern
sterreich
steve
steven
stevens
stewart
sti
stig
stiga
stillwater
stimu
stira
stiravikanas
stiravikanis
stitod
stitoda
stmanla
sto
stochowa
stockbridge
stockholm
stockton
stoke
stokholmia
ston
stone
stoneham
stones
stonington
stono
storm
stormy
story
stoughton
stow
stra
strada
strasbourg
stratford
strausberg
stravinsky
stream
street
striptease
stro
strof
stromer
stu
stuart
stud
studan
studans
studi
studies
studo
studom
studon
studs
stuff
stuhr
stum
stuttgart
su
sua
subs
subsat
suchomimus
sud
suda
sudbury
sudel
suemo
suemod
suemodas
suemodis
suemods
sufa
suffix
suffolk
sugar
sui
suicide
suk
suko
sul
sulf
sulfin
sull
sulla
sullivan
sulphur
sulpice
sulu
sum
suma
summer
summit
sumter
sun
suna
sund
sunderland
sung
sunnyside
suno
sunrise
suns
sunset
suomiya
super
superfamilia
superior
superiore
sur
surina
surprise
surrey
survey
sus
susa
susan
susanna
susanne
sussex
sutton
sutuva
suvo
suvu
suzanna
svasiya
sveda
sven
sverdlovsk
svetlana
svimo
svislando
swansea
sweetwater
sy
sycamore
sydney
sygietyn
sylvain
sylvania
sylvester
sylwester
sylwia
sym
syracuse
system
sz
sza
szczecin
szczepanik
sze
szewczyk
szig
sztuk
szyc
szymon
søren
sławomir
sɛ
t
ta
taa
tab
tabalatam
tabalatama
tablo
tabs
tabu
tacoma
tadeusz
tag
tago
taib
tako
tal
tala
talav
talavik
taled
taledav
taledavi
taledavik
talik
tallinn
talmage
tam
tamara
tampa
tamworth
tan
tana
tango
tanner
tans
tansana
tapa
tappen
tara
tarabulusia
taras
tarepu
tarn
taro
tarrant
tartu
tas
tat
tata
tatak
tatas
tatik
tatjana
tats
tatyana
tau
taube
tauber
taumanum
taumik
taunton
taunus
tav
tavernier
taya
taylor
taylorsville
tayva
taʊ
tbilisi
te
team
teams
teata
teatadramatan
teatidilekan
teato
teatr
teau
teborg
technology
ted
teda
tedan
tedelik
tedik
tef
tefa
tefan
tefik
tefis
tefo
tefon
tefons
tefs
tefu
tegon
tehran
teik
teiko
teil
teilamalu
teixeira
tek
tel
tela
teldeg
teldegbalid
teldegid
teldegtelid
teldilakonot
telefono
televid
televida
televidadanunan
televidadramatan
televidalekoned
televidaso
televidik
telfutik
telid
telna
telpla
tels
telspikot
tem
temple
templeton
temps
ten
tennant
tennessee
teo
teor
teorik
teorod
teorodi
teorodis
tequixquiac
ter
terence
teresa
terme
terra
terrace
terrance
terre
terrell
terri
terry
tes
tesla
tet
teu
texarkana
texas
text
th
tha
thagoras
thames
than
that
the
thea
theater
theatre
their
then
theo
theodor
theodore
theory
there
therese
therialtoreport
theropod
theropoda
thescelosaurus
these
they
thierry
thijs
thionville
this
thomas
thomasville
thompson
thornton
thousand
through
thu
ti
tia
tica
ticino
tico
tid
tida
tidabuk
tidal
tidan
tidana
tidels
tido
tidom
tiele
tienne
tierra
tif
tiffany
tig
tik
tika
tikama
tikamagot
tikamagotis
tikamagots
tikav
tikavik
tiki
tiko
tikodu
tiks
tiku
tikum
til
tille
tim
tima
timapena
time
times
timi
timik
timis
timo
timothy
tims
timu
timur
tin
tina
tio
tiopa
tipot
tir
tira
tirol
tis
tisbury
titanosauria
tithonian
titusville
titz
tiverton
tjada
tla
tmdb
to
tobias
tobul
toby
tocantins
tod
todan
today
todo
tof
togoa
tokyo
tola
toledo
tolkien
tolland
tolstoy
tom
toma
tomas
tomasz
tome
tommasi
tommy
ton
tona
tonat
tonata
tonati
tonats
tonawanda
toni
tons
tony
too
top
topa
topam
topeka
topi
topik
topo
topon
topons
tops
tor
torinese
torino
toronto
torre
torres
torun
toscana
tot
touch
toulon
toulouse
toum
toums
touns
tour
toure
tours
tov
tower
towers
town
townsend
township
tr
tra
tracy
tradutan
tradutod
tradutods
tradutom
traduton
trail
trans
transfermarkt
transilva
trapani
trauer
trava
tre
treccani
trek
trela
trent
trentino
trento
trenton
tres
treviso
tria
triat
triata
tribu
trier
triest
trieste
trinidad
trinidadea
trintignant
tro
tronto
troodontidae
trostberg
troughton
troy
tru
trude
truman
trumbull
trump
ts
tse
tsyega
tsyina
tt
tten
ttingen
tu
tubepornclassic
tuckahoe
tucker
tucson
tucuma
tula
tulare
tulsa
tum
tumo
tumyel
tumyela
tumyels
tun
tunis
tur
turkow
turn
turner
tustin
tut
tutas
tutis
tuts
tuttocalciatori
tuu
tuv
tuvedo
tuvo
tuvom
tuvon
tuvons
tv
twain
two
ty
tycho
tyl
tyler
tyne
tyrannosauridae
tyrannosauroidea
tyrannosaurus
tz
tze
tzebuerg
tzen
tæ
tøn
tɛd
tɛn
tʃa
tʃan
tʃe
tʃi
tʃø
tʃɛ
u
ua
uber
ud
udine
udio
udo
ueberlingen
uefa
uelzecht
ufc
ug
ugo
uhlen
uk
ukowski
ul
ulm
ulrich
um
uma
umberto
umbria
umer
un
una
und
under
une
unexpected
unia
union
uniontown
united
universal
universala
universalsprache
universelle
university
unrecognized
unter
unwin
up
upchurch
upland
upon
upper
uppsala
upton
ur
urawski
urbana
ure
uri
ursula
urszula
us
usa
use
used
usio
ut
uta
utah
utahraptor
utan
utanas
utans
ute
uti
utica
utmap
uto
utos
utosi
utrecht
uts
uwe
uławski
v
va
vab
vadim
val
vala
valains
valasotik
vale
valem
valemapu
valemik
valemo
valenc
valence
valencia
valenciennes
valentin
valentina
valeriy
valery
valeryevic
valga
vali
valik
valikos
valiks
valisa
valle
vallejo
valley
vallo
valo
valodik
valodo
valparai
valparaiso
valu
vam
vamap
vamik
vamu
van
vancouver
vandalia
vanessa
vanguard
vannes
var
varennes
vargem
variety
vas
vasiliy
vasilyevic
vat
vata
vati
vatika
vaucluse
vaughan
vaughn
ve
vecchio
vectomov
ved
vedo
vedof
vedom
vedon
vedons
veg
vega
vegas
vegi
vego
veig
veit
vel
velay
velha
velho
velid
velociraptor
velsa
vemik
vemo
ven
vende
venesola
veneta
veneto
venezia
venice
ventu
ventura
venus
ver
vera
verano
verat
veratik
veraton
verb
verbs
verbu
vercelli
verde
verdes
verdun
verfasst
verfu
verl
verlag
vermilion
vermillion
vermont
verne
verneuil
vernon
vero
verona
veronese
veronica
veronika
versailles
versehen
vert
vertebrate
very
vesfala
vestig
vestigam
vestigams
vestigans
vestigo
vestigom
vestigon
vesu
vetik
vetoti
vetotu
veu
veɡ
vi
via
viana
vic
vice
vicente
vicentina
vicentino
vicenza
vicksburg
vico
victor
victoria
vid
vida
vidal
video
videtu
vie
vieira
viejo
vienna
vienne
vieta
vietans
vietik
vietnama
vieux
view
vifik
vifiko
vig
vigadel
vignes
vik
viktor
viktorovic
vil
vila
vilag
vilagas
vilags
vilaine
viljandi
villa
villafranca
village
villar
villas
ville
villefranche
villeneuve
villers
villiers
vilnius
vilo
vilom
vilons
vin
vincennes
vincent
vincenzo
vinci
vineland
vino
vio
violet
viorajola
vipabidir
vipresidan
virebas
virebs
virgina
virginia
virginie
viru
vis
viseu
vision
visitom
vista
vita
vitaliy
vitalyevic
viterbo
vitidaba
vito
vitry
vittoria
vitu
viv
vivian
vkar
vlaanderen
vladimir
vladimirovic
vladimirovna
vladislav
vleborgia
vo
vob
voba
vobi
vobis
vobo
vobod
vobom
vobot
vobotas
vobotem
vobotis
vobots
vod
voda
vof
voga
vogel
voice
voik
vojte
voka
vokat
vol
vola
volakrig
volapu
volfam
volfama
volfami
volfo
volfons
voli
volik
volker
volleyball
vollsta
volodu
volta
voltaire
volu
volusia
vom
vomas
vomik
voms
von
vons
voor
voorburg
vor
vora
vorarlberg
voronej
vortrag
vos
vosges
vot
votaflano
votans
votik
votikami
votikams
votikans
votiko
votiks
votu
vp
vpa
vre
vres
vs
vsevolod
vu
vua
vy
vyaceslav
vøn
w
wa
wabash
waco
wacław
wade
wadsworth
wagner
wahl
wajda
wake
wakefield
wald
waldemar
waldmohr
waldorf
wales
walk
walker
walki
walking
wall
walla
wallingford
walnut
walt
walter
waltham
walton
wanda
wang
war
ware
warner
warren
warrensburg
warrington
warsaw
warszawa
warwick
warwickshire
was
wasco
washington
waterbury
waterford
waterloo
watertown
waterville
watson
watt
waukesha
way
wayland
wayne
we
web
weber
website
webster
wedel
wegen
weiden
weil
weimar
weise
weishampel
weiss
weißkirchen
welles
wellington
wells
welt
weltsprache
weltspracheverein
weltsprachliche
wenatchee
wenceslau
wendel
wendell
wenlock
wenn
wera
werden
werder
were
wereldtaal
werner
weronika
wert
wes
wesen
wesley
west
westbrook
westchester
western
westfield
westlake
westminster
westmont
weston
westport
westwood
wethersfield
wetter
weymouth
what
wheaton
wheeling
when
where
which
whitaker
white
whitehall
whitehouse
whitewater
whitney
whittier
who
why
wichita
widerski
wie
wieder
wiel
wien
wiener
wiesbaden
wiesław
wiesława
wight
wikipedia
wiktor
wilczyn
wild
wildwood
wilfred
wilfried
wilhelm
will
willem
willi
william
williams
williamsburg
williamson
williamsport
williamstown
williston
willoughby
willowbrook
willy
wilmington
wilson
wilsonville
wilton
wiltshire
winchester
windham
windsor
winfield
wing
winner
winners
winnicka
winning
winnipeg
winona
winslow
winston
winter
winthrop
winton
wir
wis
wisconsin
with
witold
wittenberg
wittgenstein
wiwaxia
wna
wo
wohl
wojciech
wolcott
wolf
wolfgang
wolfram
woman
women
wood
woodbridge
woodburn
woodbury
woodland
woodlawn
woodmere
woodridge
woods
woodstock
woodward
woordenboek
worcester
worcestershire
word
words
work
works
world
worldfootball
worms
wort
worth
worthington
wright
writer
wrocław
wu
wuhan
wuppertal
www
wyoming
wysocka
wysocki
wyszyn
władysław
włodarczyk
włodzimierz
x
xa
xasa
xavier
xbiz
xcritic
xenia
xets
xi
xico
xika
xil
xls
xprovin
xu
xxxx
y
ya
yag
yago
yagon
yahoo
yakima
yakovlevic
yan
yann
yannick
yanul
yaounde
yapa
yarmouth
ye
year
years
yeb
yeg
yega
yegas
yeged
yegedis
yegeds
yegor
yegs
yekaterina
yel
yela
yelabuk
yelas
yelasa
yelena
yelods
yelov
yels
yelu
yerevan
yes
yesus
yevgeniy
yevgenyevic
yisraela
yiv
yl
yn
yna
yo
yon
yonkers
yonne
yorda
york
yorkshire
you
young
youngstown
your
youtube
yrut
yu
yuba
yud
yudik
yuf
yufapu
yufo
yufom
yufu
yukon
yul
yuliya
yulul
yum
yuma
yumed
yumo
yun
yunan
yunik
yunu
yunul
yupita
yurat
yurata
yuratik
yuriy
yurop
yuropa
yuropan
yuropik
yuryevic
yutop
yvelines
yves
yvette
yvonne
z
za
zabrze
zachary
zad
zagreb
zaja
zambiya
zamenhof
zan
zanesville
zao
zaorski
zaragoza
zaucha
zawadzki
zbigniew
zdro
zdzisław
ze
zealand
zedel
zef
zefowicz
zehn
zeil
zeils
zeit
zeitung
zelnik
zen
zenodik
zentralbu
zepon
zersto
zesu
zhang
zi
zib
zichyu
zie
ziehen
zielin
zif
zifa
zifi
zifil
zifs
zil
zila
zim
zimbabiya
zimmetas
zimmets
zink
zinkin
zio
zion
zo
zofia
zog
zola
zquez
zu
zuckermann
zukunft
zul
zula
zum
zun
zuo
zur
zuru
zvana
zwolle
zygmunt
{
|
}
~
¡
«
°
±
²
·
º
»
×
ß
æ
æl
ð
ø
ørsted
þu
ħ
ı
ła
łapin
łazarkiewicz
ło
łoza
łukasz
ŋ
œ
ɐ
ɑ
ɒ
ɔ
ɕ
ə
ən
ɛ
ɛl
ɛn
ɛns
ɡa
ɡam
ɡan
ɡe
ɡed
ɡi
ɡik
ɡli
ɡlu
ɡlø
ɡo
ɡod
ɡol
ɡot
ɡu
ɡy
ɡø
ɡøn
ɡɛn
ɡɾa
ɡɾe
ɨ
ɪ
ɫ
ɾ
ɾan
ɾid
ɾik
ɾin
ɾo
ɾæ
ɾøn
ɾɛn
ʀ
ʃ
ʃa
ʃe
ʃi
ʃun
ʃɛ
ʊ
ʌ
ʏ
ʒ
ʔ
ʕ
ʤ
ʦ
ʦe
ʦi
ʦim
ʦy
ʦyd
ʦø
ʦɛ
ʰ
ʲ
ʷ
ʻ
ʼ
ʿ
ˀ
˅
ˈ
ˌ
ː
ːˈ
ˑ
ˠ
˥
˧
̀
́
̂
̃
̄
̆
̇
̈
̉
̊
̋
̌
̓
̔
̛
̝
̞
̣
̥
̦
̧
̨
̩
̪
̯
̹
͂
͡
α
β
γ
ε
η
θ
ι
κ
λ
μ
ν
ο
π
ς
σ
τ
υ
φ
χ
ψ
ω
а
александр
александрович
алексеевич
алексеи
анатолии
анатольевич
андреевич
андреи
б
борис
борисов
борисович
в
валентин
валерии
валерьевич
васильевич
виктор
викторович
витальевич
владимир
владимирович
владимировна
вячеслав
геннадии
георгиевич
георгии
григорьевич
дмитриевич
дмитрии
дор
дорович
евгении
евгеньевич
з
за
и
иван
иванович
ивановна
игоревич
игорь
к
коми
константин
константинович
кузнецов
л
лев
леонид
леонидович
лович
м
михаи
михаил
н
на
наталья
не
ни
николаевич
николаевна
николаи
о
олег
п
павел
павлович
пе
петрович
р
с
семе
сергеевич
сергеи
т
татьяна
тр
у
украі
фе
ь
ю
юрии
юрьевич
я
языка
яковлевич
і
։
ַ
ָ
ֽ
،
ا
ب
ة
ت
د
ر
س
ف
ك
ل
م
محمد
ن
ه
و
ي
َ
ُ
ِ
ّ
ْ
ٓ
ٔ
ڠ
ڤ
ی
߬
ं
क
ज
ड
ण
त
द
न
प
ब
म
य
र
ल
व
श
स
ह
ा
ि
ी
ु
ू
े
ो
ौ
्
ক
গ
ট
ত
দ
ধ
ন
প
ব
ম
য
র
শ
স
়
া
ি
ু
ে
্
ા
க
த
ன
ர
ா
ி
ே
்
ా
ං
ක
ත
න
ම
ර
ල
ස
්
ා
ි
ු
ෙ
་
ི
တ
ာ
ေ
္
​
‌
‎
‑
–
—
‘
’
‚
‛
“
”
„
†
•
…
′
″
⁡
€
→
↔
↷
∈
∑
−
∞
∣
∼
≥
⋅
③
④
⑦
►
◄
☉
☞
⯓
⸗
⺀
⺄
⺆
⺈
⺊
⺌
⺕
⺝
⺸
⺼
⿰
⿱
⿲
⿳
⿴
⿵
⿶
⿷
⿸
⿹
⿺
⿻
、
〢
い
う
え
か
こ
さ
し
た
て
の
は
み
も
り
る
ん
゙
゚
ア
ィ
イ
ウ
キ
ク
コ
シ
ス
タ
テ
ト
ナ
ニ
ノ
ハ
ヒ
フ
ヘ
メ
モ
ュ
ユ
ラ
リ
ル
ロ
ワ
ン
・
ー
㇁
㇂
㇄
㇇
㇈
㇉
㇓
㐁
㐄
㐅
㐌
㐫
㐬
㐭
㐮
㐱
㑒
㒵
㒸
㒼
㓁
㓞
㔾
㕛
㕣
㖾
㘝
㚅
㚇
㚔
㚘
㝉
㝡
㝴
㝵
㞋
㞢
㞷
㠩
㠭
㠯
㡀
㡭
㡿
㢲
㢴
㣇
㣺
㥯
㪅
㫄
㫐
㫒
㫺
㬅
㬎
㬥
㬰
㲋
㳄
㷠
㸒
㸚
㸦
㼌
㼲
㽞
㿟
䀠
䂞
䍃
䏍
䒑
䖍
䖒
䖝
䖵
䙴
䚻
䜌
䝿
䡛
䧹
䪞
一
丁
丂
七
丄
丅
丆
万
丈
三
上
下
丌
不
与
丏
丐
丑
专
且
丕
世
丘
丙
业
东
丞
丢
丣
两
严
並
丨
丩
个
丫
丬
中
丮
丰
丱
串
丵
丶
丷
丸
丹
为
主
丽
丿
乀
乂
乃
久
乆
乇
么
义
之
乌
乍
乎
乏
乐
乑
乔
乖
乗
乘
乙
乚
乛
乜
九
乞
也
习
乡
乳
乾
亀
亅
了
亇
予
争
事
二
亍
于
亏
亐
云
互
亓
五
井
亘
亚
亜
亞
亟
亠
亡
亢
交
亥
亦
产
亨
亩
享
京
亭
亮
亯
亰
亲
亳
亶
亷
人
亻
亼
亾
仁
今
介
仌
从
仐
仑
仒
仓
仕
他
付
仝
代
令
以
任
企
伊
伏
伐
休
会
伯
但
位
何
佘
余
作
佥
使
來
侈
侌
侖
侯
侵
便
保
俞
信
修
倉
倍
候
倠
備
僉
僕
儿
兀
允
兂
元
兄
充
兆
兇
先
光
兊
克
兌
免
兑
兒
兓
兔
党
兜
兟
入
全
兩
兪
八
公
六
兮
兰
共
关
兵
其
具
典
兹
兼
冀
冂
冃
冄
内
冈
冉
冊
冋
册
再
冎
冏
冐
冒
冓
冖
冗
冘
军
农
冝
冠
冡
冥
冫
冬
冷
凌
几
凡
凢
凵
凶
凷
凸
凹
出
函
凾
刀
刁
刂
刃
刄
刅
分
切
刍
刑
刕
刖
列
刘
则
初
別
利
别
到
制
刺
則
削
剌
前
剡
剽
劉
力
功
加
劦
助
劫
劳
劵
勃
勇
勉
勒
動
務
勞
勤
勹
勺
勻
勾
勿
匀
匂
包
匆
匈
匊
匋
匍
匕
化
北
匚
匝
匡
匪
匱
匸
匹
区
医
匽
匿
區
十
卂
千
卄
卅
卆
升
午
卉
半
卌
华
卑
卒
卓
单
卖
南
卜
卝
卞
占
卡
卢
卣
卤
卦
卩
卪
卬
卯
印
危
即
却
卵
卷
卸
卻
厂
厃
厄
历
厈
厉
厌
厓
厘
厚
原
厤
厥
厨
厭
厲
厶
厷
厸
去
厼
厽
叀
参
參
叅
又
叉
及
友
双
反
叐
发
叒
叔
叕
取
受
叚
叜
叟
口
古
句
另
叩
只
召
可
台
叱
史
右
叵
号
司
叹
吂
各
吅
合
吉
吊
吋
同
名
后
吏
向
吕
君
吝
吞
否
含
启
吳
吴
吹
吾
呂
呆
呈
告
员
呙
周
命
咅
和
咎
咠
咢
咨
咸
咼
哀
品
哉
員
哥
哲
唐
商
啇
問
啚
啬
啻
善
喜
喬
單
喿
嗇
噩
嚴
囊
囗
囘
囙
囚
四
回
囟
因
囧
囬
困
囱
囷
固
国
圂
圅
國
圍
園
圓
土
圡
圣
圥
在
圭
地
圶
圼
坐
坒
坚
坴
垂
垔
垚
埀
埋
埶
執
基
堂
堅
堆
堇
堯
塞
墨
壘
士
壬
壯
声
壳
壴
壹
壺
壽
夂
处
夅
夆
备
夊
夋
夌
复
夏
夒
夕
外
夗
夘
多
夜
夢
大
夨
天
太
夫
夬
夭
央
失
夲
头
夷
夸
夹
夻
夾
奂
奄
奇
奈
奉
奎
奏
奐
契
奓
奔
奚
奞
奠
奢
奥
奭
女
奴
奻
好
如
妄
妙
妟
妥
妻
妾
姑
委
姜
威
娄
娜
婁
婴
嬰
嬴
子
孑
孔
孕
孖
字
存
孚
孛
孝
孟
季
孤
学
孫
孱
學
宀
宁
宂
它
宅
宇
守
安
宋
完
宏
宓
宗
官
定
宛
宜
宝
客
宣
室
宮
宰
害
家
容
宾
宿
寄
寅
密
富
寒
察
寧
審
寫
寬
寮
寶
寸
对
寺
寻
寽
対
寿
封
尃
射
将
將
專
尉
尊
尋
尌
對
小
少
尒
尓
尔
尖
尗
尚
尞
尢
尣
尤
尧
尨
尭
就
尸
尹
尺
尻
尼
尽
尾
尿
局
居
屈
屋
屎
屏
屑
展
屖
屚
属
屠
屡
屬
屮
屯
屰
山
屵
屾
岁
岂
岑
岡
岩
岳
岸
峯
島
崇
崑
崔
崖
崙
崩
嵬
嶋
嶲
巂
巛
川
州
巟
巠
巢
巤
工
左
巧
巨
巩
巫
差
己
已
巳
巴
巷
巸
巽
巾
巿
帀
市
布
师
希
帚
帛
帝
带
師
席
帶
常
干
平
年
幵
并
幷
幸
幺
幻
幼
幽
幾
广
広
庄
床
底
店
庚
府
度
庫
庭
庶
康
庸
廉
廌
廛
廣
廩
廴
延
廷
建
廾
廿
开
弁
弃
弄
弇
弋
式
弓
弔
引
弗
弘
弜
弟
张
弥
弦
弱
張
強
强
彊
彌
彎
彐
彑
当
彔
录
彖
彗
彡
形
彥
彦
彧
彭
影
彳
役
彼
往
待
律
徒
得
徙
從
復
微
徳
徵
心
忄
必
忌
忍
志
忝
忠
忩
快
念
忽
忿
思
怠
急
怱
恆
恒
恩
恭
息
悉
患
悤
悲
悶
惠
惡
惢
愁
愈
意
愛
感
慈
慧
慮
憂
憲
應
戀
戈
戉
戊
戋
戌
戍
戎
成
我
戒
戔
或
戚
戠
戢
截
戲
戶
户
戹
戼
戾
房
所
扁
扇
手
扌
才
打
托
执
承
折
拉
拜
拿
掌
推
提
摩
支
攴
攵
收
攸
改
放
政
敄
敏
敕
敖
敗
敝
敞
敢
散
敦
敫
敬
数
敷
數
斂
文
斉
斊
斗
斤
斥
斩
斬
斯
新
方
於
施
斿
旁
旋
旌
族
无
旡
既
旣
日
旦
旧
旨
早
旬
旱
旲
时
旾
昆
昇
昌
昍
明
昏
易
昔
昗
昜
星
春
昬
是
昱
昴
昷
時
晃
晋
晏
晓
普
景
晶
智
暑
暴
曇
曩
曰
曲
曳
更
曷
書
曹
曼
曾
替
最
朁
會
月
有
朋
服
朔
朕
朗
望
朝
木
朩
未
末
本
札
朮
术
朱
朵
朶
朿
杀
李
杏
村
杜
束
条
来
杨
東
杲
杳
松
析
林
枚
果
枝
枲
枼
某
染
柔
查
柬
柰
柴
栗
桀
桑
桼
梁
條
梟
梨
棘
棠
棥
森
楚
楠
業
楽
榮
樂
樊
樹
欠
次
欣
欮
欲
欶
欽
款
歆
歇
歛
止
正
此
步
武
歨
歪
歮
歯
歰
歲
歴
歷
歸
歹
歺
死
殳
段
殷
殸
殹
殺
殻
殿
毋
毌
母
每
毒
比
毕
毚
毛
毳
氏
氐
民
气
氣
水
氵
氶
氷
永
氺
氾
求
汉
汝
汞
江
沃
沓
沙
沝
河
泉
法
波
泣
泥
泰
洋
洛
洪
活
派
流
浦
浪
浮
涂
淡
淮
清
渚
渠
渡
湖
湯
滿
演
漸
灣
火
灬
灭
灰
灵
灷
炅
炎
炏
炗
炙
炭
為
烈
烏
烝
焉
無
焦
焱
然
煞
熊
熏
燕
營
燮
爪
爫
爭
爯
爰
爱
爲
爵
父
爻
爽
爾
爿
片
牙
牚
牛
牜
牟
牢
牧
牪
牽
犀
犬
犭
犮
狂
狄
狊
独
狺
猋
猒
猪
献
獻
玄
率
玉
王
玟
玨
珎
班
琴
瑟
瑩
璠
瓜
瓦
甘
甚
生
産
用
甫
甬
田
由
甲
申
电
甶
男
甸
甹
画
甾
畀
界
畏
畐
留
畜
畟
畢
畧
畨
番
畫
異
畱
當
畺
畾
疊
疋
疌
疑
疒
疾
病
癶
癸
癹
登
發
白
百
皀
皃
的
皆
皇
皋
皐
皕
皮
皷
皿
盃
盆
盇
盈
益
盍
盎
监
盒
盖
盛
盡
監
盤
盧
目
直
相
盾
省
眇
眉
看
眔
眞
真
眷
眼
眾
着
睘
睪
睿
瞏
瞢
瞿
矍
矛
矞
矢
矣
知
矦
短
石
破
碎
磊
磨
示
礻
礼
祟
票
祭
禀
禁
福
禸
禹
禺
离
禽
禾
禿
秀
秃
秉
秋
科
秝
秦
移
稟
穀
穌
穴
究
穹
空
穿
突
窄
窒
立
竒
竜
竝
竟
章
童
竹
笑
笠
筆
等
答
箕
算
箴
節
篤
篭
米
粉
粛
粟
粤
粦
粲
糞
糸
糹
系
約
納
素
索
紫
累
細
結
絜
絫
絲
維
綿
縣
繇
纍
纟
红
缶
网
罒
罔
罕
罗
罙
罡
罢
罪
署
罷
羅
羊
羌
羍
美
羔
羕
羗
羞
羡
羣
群
義
羲
羸
羽
翁
翏
習
翕
翟
翠
翼
老
耂
考
者
耆
而
耎
耑
耒
耳
耴
耶
耷
聂
聊
聖
聚
聶
聿
肀
肃
肅
肉
肖
肙
肥
肩
肯
育
肴
肺
胃
背
胡
胥
能
脊
脩
膚
臣
臤
臧
自
臬
臭
臯
臱
至
致
臺
臼
臽
臾
臿
舀
舂
舄
與
興
舉
舌
舍
舛
舜
舞
舟
般
艮
良
色
艸
艹
艾
芒
芔
芬
芮
花
芳
芺
芻
苔
苗
苟
若
苦
英
茶
茸
荅
草
荒
荣
荼
莆
莧
莫
莽
菆
菊
菐
菜
華
萬
落
葉
著
葛
董
葵
蒙
蒦
蒼
蓋
蓬
蓺
蔑
蔡
蕉
蕭
薄
薛
薦
薰
藍
藏
藤
藥
蘭
虍
虎
虐
虒
虔
處
虖
虗
虘
虚
虛
虜
虞
虫
虽
蚤
蚩
蜀
蜜
蟲
蠡
血
行
衍
衛
衣
衤
表
衮
衰
袁
袞
褭
褱
襄
襾
西
覀
要
覃
見
規
覓
覧
親
覽
见
角
解
言
訁
訇
計
詹
語
誩
諸
讠
话
谷
豆
豈
豊
豐
豕
豖
豙
象
豦
豩
豪
豸
貇
貝
貞
貟
負
貢
貧
貪
貫
責
貳
貴
買
費
賁
資
賈
賏
賓
賔
賛
賞
賢
賣
質
賴
贊
贝
贡
责
贯
贲
贵
赖
赞
赤
赦
走
越
足
路
蹇
身
躬
車
軍
軎
軟
輦
车
辛
辜
辟
辥
辰
辱
農
辵
辶
边
辺
达
过
近
连
迷
追
退
送
逆
逐
通
逝
速
造
逢
連
逮
進
遀
遂
過
道
達
遣
適
遷
遺
邊
邑
邕
那
邦
邪
郎
部
郭
都
鄉
酉
酋
配
酓
釆
采
里
重
野
量
金
釒
錢
钅
铜
铭
長
镸
长
門
閃
閉
開
閏
閑
閒
間
閔
閵
閻
闌
门
间
闷
阑
阜
阝
阿
陈
降
院
陳
隆
隊
隋
隡
隨
隱
隶
隹
隺
隻
隼
隽
难
雀
雁
集
雈
雋
雍
雐
雔
雙
雚
雜
雝
離
難
雨
雩
雪
雲
零
雷
需
霍
霜
霝
霞
霸
靈
靑
青
非
靡
面
靣
革
韋
韦
韭
韯
韱
音
頁
頃
項
須
頗
頡
頻
顛
页
風
风
飛
飞
食
飠
養
饣
首
香
馬
馮
駦
马
骨
高
髟
鬥
鬯
鬲
鬼
魚
魯
鮮
鱼
鲁
鳥
鳳
鸟
鹵
鹿
麃
麗
麥
麦
麻
黃
黄
黍
黎
黑
黒
黨
黹
黽
黾
鼎
鼓
鼠
鼻
齊
齋
齐
齒
齿
龍
龙
龜
龟
龠
龰
龱
龴
龵
龶
龷
龸
龹
ꞟ
ꭹ
ꭿ
ꮃ
ꮳ
者
艹
﻿
，
？
🜨
𠀁
𠀃
𠀆
𠀉
𠀎
𠀐
𠁁
𠁣
𠂆
𠂇
𠂈
𠂉
𠂊
𠂋
𠂎
𠂒
𠂔
𠂛
𠂡
𠂢
𠂤
𠂬
𠂭
𠂹
𠃊
𠃋
𠃌
𠃍
𠃎
𠃑
𠃓
𠃔
𠃜
𠄌
𠄎
𠄠
𠄢
𠆢
𠆥
𠇍
𠈌
𠌵
𠓜
𠔉
𠔥
𠔼
𠔽
𠔿
𠕀
𠕁
𠕋
𠘧
𠘨
𠙻
𠙼
𠚏
𠚒
𠚤
𠚪
𠣏
𠤎
𠤕
𠥓
𠦄
𠦑
𠦝
𠧒
𠧗
𠧪
𠩺
𠪚
𠫓
𠫔
𠫤
𠬛
𠬝
𠬞
𠬢
𠬤
𠬶
𠮛
𠮦
𠮷
𠯑
𠱠
𠳮
𠷎
𡈼
𡉀
𡉵
𡌥
𡍮
𡏳
𡕒
𡕩
𡕰
𡖅
𡗗
𡗜
𡘆
𡘤
𡧱
𡨄
𡩧
𡬠
𡭽
𡰣
𡰥
𡰪
𡰯
𡰱
𡷈
𡸁
𡿨
𡿩
𡿪
𡿺
𢀖
𢀛
𢀩
𢁙
𢆉
𢆰
𢆶
𢇁
𢇇
𢉖
𢌬
𢌿
𢏚
𢑑
𢑚
𢖻
𢙣
𢛳
𢦏
𢦒
𢧵
𢼄
𢾕
𣁋
𣄼
𣅀
𣅽
𣍘
𣎳
𣎵
𣏋
𣏼
𣗥
𣥂
𣥖
𣦵
𣦼
𣧄
𣪊
𣪠
𣬉
𣳾
𣶒
𤇾
𤊽
𤐫
𤓰
𤔔
𤕨
𤣩
𤰇
𤰔
𤰞
𤴓
𤴔
𤽄
𥁑
𥁕
𥃦
𥃩
𥃭
𥇡
𥑟
𥘅
𥘈
𥝢
𥫗
𥱡
𦈢
𦉪
𦉬
𦉼
𦍌
𦍒
𦎧
𦐇
𦓔
𦔮
𦘒
𦙃
𦚏
𦣝
𦣞
𦣻
𦥑
𦥔
𦥯
𦨉
𦭝
𦰩
𧆞
𧈧
𧘇
𧰨
𧴪
𧴮
𧵩
𧾷
𨸏
𨾴
𩙿
𩠐
𩫏
𩵋
𪉷
𪜀
𪟽
𪠲
𪩲
𫇦
𫔭
𫜸
𫝀
𫠣
𫠩
𫢉
𫥞
𫩏
𫩠
𫪡
𫲽
𫶧
𬀷
𬐘
𬗌
𬙙
𬛸
𬜯
𬟩
𬯁
𬴘
𬺻
𬼉
𬼖
𭀰
𭁈
𭁨
𭅰
𭑈
𭕄
𭗼
𭤨
𭥫
𭻾
𮅕
𮊿
𮍌
𮍏
𮓗
𮥼
𮧮
廾
𰀁
𰀄
𰀈
𰀉
𰀕
𰀠
𰀡
𰀢
𰀪
𰁜
𰃮
𰆊
𰆘
𰋙
𰕎
𰢴
𰧭
𰯲
510--
a--
ab--
abi--
abing--
able--
absen--
ac--
acc--
acti--
ad--
af--
ag--
aga--
agu--
ai--
aigu--
aj--
aju--
ak--
akad--
al--
ale--
ali--
all--
allgem--
aloy--
alt--
alta--
altis--
alvarezsa--
am--
amar--
ame--
ameg--
an--
ana--
and--
ang--
ann--
anne--
ans--
ant--
anth--
antro--
ao--
apa--
app--
ar--
ara--
arc--
are--
arm--
art--
as--
ash--
astro--
at--
athl--
attle--
au--
auber--
auf--
aus--
av--
avel--
aves--
avig--
ay--
az--
b--
ba--
bad--
bag--
bai--
bal--
balid--
ban--
bar--
bargiełow--
bas--
bat--
bau--
bay--
be--
beau--
bec--
bed--
beec--
beg--
bei--
bel--
bela--
bele--
bell--
ben--
beno--
ber--
beras--
berein--
bern--
bes--
beson--
beth--
bett--
beuv--
bi--
bib--
biblio--
bid--
bie--
bieli--
big--
bij--
bil--
bio--
bir--
bis--
bismu--
bit--
bla--
ble--
blei--
blu--
blø--
bo--
bob--
bod--
bog--
bol--
bolog--
bolt--
bom--
bon--
bonn--
bor--
borg--
bos--
bot--
bou--
boul--
bour--
bov--
bow--
box--
br--
bra--
brac--
bras--
bre--
brem--
bremer--
bres--
brig--
brin--
brit--
bro--
broad--
bru--
brus--
bu--
buc--
bud--
bug--
buka--
buki--
bun--
bur--
burn--
bus--
but--
by--
bæ--
bʊ--
c--
ca--
caenag--
cag--
caja--
cal--
cam--
can--
capi--
capis--
capo--
capp--
car--
carig--
cas--
casal--
casc--
cast--
cau--
cd--
ce--
ceg--
cen--
cer--
ces--
ch--
cha--
cham--
char--
chas--
che--
ches--
chi--
chiara--
chil--
chmurkow--
cho--
chrzanow--
chu--
ci--
cia--
cicl--
cie--
cin--
cis--
citi--
ck--
ckel--
cl--
cla--
cle--
cly--
co--
cog--
col--
com--
con--
cor--
corb--
corc--
coren--
corn--
cort--
cos--
cosmo--
cou--
coul--
cour--
cra--
cran--
cre--
creat--
cri--
cris--
cro--
cru--
cu--
cug--
cul--
cull--
cur--
cy--
cycl--
cz--
cze--
d--
da--
dade--
dag--
dal--
dam--
dan--
dar--
das--
dat--
daw--
de--
deb--
dedie--
deg--
dei--
dek--
del--
dela--
dele--
dem--
den--
der--
des--
dev--
di--
dia--
die--
dif--
dik--
dil--
din--
dio--
diplo--
dis--
do--
dob--
dol--
dom--
don--
dona--
dor--
dr--
dra--
dro--
dromae--
dru--
dry--
du--
dul--
dum--
dun--
dut--
dy--
dz--
dł--
dɛ--
dɾ--
e--
ea--
east--
eb--
ec--
ed--
edav--
ef--
eh--
ehr--
ei--
eich--
ein--
ek--
el--
ele--
eli--
elms--
em--
en--
eng--
ent--
ep--
er--
es--
esp--
ess--
est--
et--
eu--
ev--
ewe--
ex--
ey--
f--
fa--
fab--
fag--
fair--
fal--
falken--
fam--
fan--
far--
fas--
fe--
fea--
feat--
fed--
fel--
felic--
fen--
fer--
fest--
feu--
fey--
fi--
fijew--
fil--
fin--
fio--
fis--
fisch--
fita--
fla--
fle--
fli--
flo--
fo--
fog--
fol--
fon--
for--
fos--
fou--
foundat--
fr--
fra--
fre--
fred--
freda--
fres--
fri--
frie--
fro--
ft--
fu--
ful--
fy--
fɛ--
g--
ga--
gad--
gag--
gajew--
gal--
galle--
gam--
gan--
gar--
garg--
gari--
gas--
gaw--
gaz--
ge--
geb--
ged--
gem--
gen--
ger--
gge--
ghe--
gi--
gian--
gif--
gig--
gil--
gis--
gius--
gla--
gle--
glo--
go--
god--
gol--
gold--
gon--
gor--
gos--
got--
gou--
gour--
gra--
grand--
gras--
gre--
gri--
grie--
grif--
gris--
gro--
gru--
grund--
gry--
gu--
gua--
guara--
gue--
guig--
gum--
gun--
gus--
gw--
h--
ha--
haber--
had--
hal--
ham--
han--
hand--
har--
has--
hat--
hau--
hay--
he--
heer--
heili--
heiligen--
hel--
hen--
her--
herota--
hes--
hi--
hib--
hil--
hill--
hin--
hipa--
his--
hl--
hn--
ho--
hoch--
hof--
hog--
hol--
holl--
hom--
hon--
hor--
horn--
hou--
houd--
hr--
hu--
huis--
hum--
humph--
hus--
hy--
i--
ia--
ibi--
ic--
id--
if--
ig--
ik--
il--
ila--
illus--
ily--
im--
in--
inc--
inf--
ing--
insti--
inter--
inver--
ir--
is--
ist--
it--
ita--
itu--
iv--
iz--
j--
ja--
jae--
jal--
jan--
jar--
jara--
jay--
je--
jen--
jer--
jes--
ji--
jimag--
jipi--
jo--
joa--
jon--
ju--
jue--
jul--
jun--
jy--
k--
ka--
kacz--
kahraman--
kaj--
kal--
kam--
kan--
kap--
kar--
kara--
karl--
kars--
kas--
kat--
kata--
kathm--
kauf--
kauk--
kaza--
kaze--
ke--
kem--
kemp--
ken--
ker--
kes--
kha--
khay--
ki--
kijow--
kil--
kim--
kirc--
kirch--
kirg--
kis--
kit--
kla--
kle--
klin--
klo--
ko--
kohl--
koina--
kol--
kom--
komota--
kon--
konke--
kor--
kos--
kot--
kow--
kr--
kra--
kras--
kre--
kreuz--
krist--
kro--
kru--
kry--
ks--
kt--
ku--
kun--
kup--
kur--
kusa--
kuz--
kva--
kve--
kwiatkow--
ky--
kło--
l--
la--
lab--
lac--
lad--
lai--
lak--
lal--
lam--
lan--
land--
lang--
lans--
lark--
las--
lat--
lau--
laura--
laute--
lav--
law--
lay--
laz--
laza--
ld--
le--
lea--
lec--
lect--
led--
lee--
lef--
leg--
lehr--
lei--
leks--
lekt--
lektina--
lelo--
lem--
len--
leo--
lero--
les--
let--
leu--
lev--
ley--
li--
lib--
liber--
lich--
lie--
lieb--
lifa--
lig--
lil--
lim--
lin--
lingu--
lint--
lipp--
lis--
liv--
liz--
lk--
ll--
ln--
lo--
log--
loj--
lom--
lon--
long--
lor--
los--
lou--
love--
ls--
lt--
lu--
luc--
lud--
lul--
lum--
lun--
lup--
lut--
luther--
luz--
ly--
lyu--
m--
ma--
mac--
mad--
mag--
mah--
mai--
maj--
maka--
mal--
mam--
man--
mande--
mar--
mara--
mas--
mat--
may--
mc--
mca--
mcal--
mcna--
me--
med--
medic--
mel--
mela--
mem--
men--
menom--
mer--
mes--
met--
metro--
meu--
mey--
mi--
mich--
mid--
mie--
mig--
miha--
mik--
mil--
min--
mir--
mira--
miros--
mis--
mit--
mo--
mod--
mog--
mol--
mom--
mon--
mont--
monte--
moor--
mor--
mos--
mot--
mou--
moz--
mr--
mu--
mug--
mul--
mun--
mur--
mura--
mus--
my--
młod--
mɪ--
n--
na--
nach--
nad--
nan--
nas--
nat--
nata--
nau--
naw--
nd--
ne--
neda--
nef--
neg--
nel--
nen--
neod--
nes--
net--
neta--
neu--
new--
ng--
ni--
nie--
nieder--
nigs--
nik--
nikif--
nima--
nis--
nn--
no--
noa--
nod--
noda--
nog--
nom--
non--
nor--
nord--
north--
not--
nou--
ns--
nt--
nu--
num--
ny--
nz--
o--
oak--
ob--
obe--
ober--
oc--
oct--
od--
odi--
offen--
og--
oh--
oj--
ok--
oka--
ol--
ola--
old--
ole--
olym--
on--
op--
or--
ord--
ornith--
ornithomi--
oro--
ort--
os--
ot--
ott--
ou--
ov--
ow--
ox--
oy--
oz--
p--
pa--
pad--
pag--
pai--
pal--
palo--
pamie--
pan--
paos--
par--
para--
pas--
pat--
pau--
pav--
paw--
pe--
ped--
pel--
pelleg--
pen--
peneda--
per--
pes--
pet--
pfaffen--
ph--
phyl--
pi--
pia--
pic--
pie--
pig--
pin--
pine--
pio--
pira--
pis--
pl--
pla--
play--
pleu--
plo--
plou--
plu--
po--
pod--
podgo--
pog--
pol--
poly--
pom--
pon--
pont--
pop--
por--
pos--
pot--
potts--
pou--
poul--
pous--
poz--
pozzo--
pp--
pr--
pra--
pras--
pre--
prin--
pro--
pru--
prze--
ps--
pu--
pub--
puy--
py--
pø--
q--
qu--
que--
qui--
r--
ra--
rad--
rai--
ram--
ran--
ras--
rat--
raw--
ray--
rb--
rc--
rd--
re--
red--
ref--
reg--
rem--
ren--
rep--
repu--
res--
ret--
rg--
rhe--
ri--
ric--
ridge--
rie--
rig--
rin--
ris--
riz--
rk--
rm--
rn--
ro--
rob--
roc--
rocca--
rock--
rod--
rog--
ron--
ros--
rose--
rou--
row--
roy--
rs--
rsten--
rt--
ru--
rubi--
rus--
rut--
ry--
s--
sa--
sabbat--
sach--
sag--
sal--
salz--
sam--
san--
sar--
sas--
sau--
savig--
saw--
say--
sc--
scand--
sch--
scha--
sche--
schemme--
schi--
schl--
schlie--
schme--
schrie--
schu--
scie--
scor--
se--
sea--
sec--
sed--
see--
seg--
sei--
sek--
sel--
sem--
sen--
sep--
ser--
set--
sey--
sha--
shi--
sho--
shqi--
si--
sia--
sid--
sie--
sig--
sil--
sim--
sin--
sinrap--
sk--
ska--
ski--
sko--
skul--
sla--
sle--
sli--
slov--
slu--
sm--
smo--
so--
soa--
sol--
som--
son--
sor--
sou--
south--
sow--
sp--
spa--
spea--
spec--
speranta--
spie--
spir--
spo--
squi--
sr--
ss--
st--
sta--
stadt--
stall--
stati--
ste--
sti--
stie--
sto--
stra--
stre--
stri--
stu--
su--
sub--
sui--
sul--
sum--
sun--
sur--
sve--
svi--
sy--
syl--
sz--
sza--
szczepkow--
sło--
t--
ta--
tab--
tag--
tal--
tam--
tan--
taquar--
tar--
tarb--
tas--
tau--
tav--
tax--
te--
teau--
tel--
tele--
tem--
ten--
ter--
tes--
tet--
teu--
th--
the--
thor--
thu--
ti--
tid--
tido--
tif--
tig--
til--
tim--
tima--
timber--
tin--
tipo--
tir--
tit--
titan--
to--
tom--
ton--
too--
tor--
tot--
tou--
toul--
tr--
tra--
tre--
trem--
tri--
trin--
tro--
trom--
tru--
try--
ts--
tt--
tu--
tum--
tun--
tur--
tw--
ty--
tyran--
tz--
tɾ--
u--
ud--
ug--
uk--
ul--
um--
un--
univer--
unter--
ur--
us--
v--
va--
val--
vala--
valda--
van--
var--
vas--
vau--
ve--
vel--
ven--
ver--
verb--
vey--
vi--
via--
vie--
vig--
vik--
vil--
villa--
vin--
vio--
vis--
viz--
vo--
voba--
voca--
vog--
vol--
vola--
volks--
vor--
vorder--
vot--
votaf--
vre--
vu--
vɛ--
w--
wa--
wal--
wallen--
wals--
war--
was--
wat--
water--
we--
weibli--
wein--
weins--
weißen--
wel--
well--
wes--
west--
wester--
wey--
whe--
whit--
wi--
wich--
wick--
wid--
wie--
wik--
wil--
wim--
win--
wind--
wir--
wis--
wit--
wo--
wolfs--
wu--
wy--
wyl--
x--
xa--
xet--
xi--
y--
ya--
yag--
yaros--
ye--
yela--
yo--
yu--
yun--
z--
za--
zam--
zan--
ze--
zen--
zi--
zie--
zifa--
zil--
zim--
zo--
zu--
zwe--
zwis--
zy--
æ--
ð--
ø--
þ--
đ--
ı--
ła--
ło--
ɑ--
ɛ--
ɡ--
ɡa--
ɡe--
ɡi--
ɡlɛ--
ɪ--
ɾ--
ʃ--
ʃe--
ʃi--
ʃɛ--
ʋ--
ʤ--
ʦ--
ʦɛ--
κ--
λ--
μ--
ν--
σ--
τ--
а--
ар--
в--
вас--
ил--
к--
л--
м--
ма--
н--
но--
о--
п--
пе--
респу--
рос--
с--
ста--
у--
я--
ا--
ب--
--0
--06
--1
--11
--17
--2
--22
--28
--3
--33
--39
--4
--44
--5
--56
--6
--61
--67
--7
--72
--78
--8
--83
--89
--9
--94
--a
--aar
--ab
--aba
--abo
--ac
--aca
--ach
--acht
--aco
--ad
--ade
--ades
--adil
--adisinan
--ado
--adom
--ads
--ae
--af
--afa
--afs
--ag
--age
--ages
--agik
--agna
--ago
--ah
--ai
--aia
--ais
--aja
--aju
--ak
--ako
--al
--ala
--ale
--alu
--am
--ama
--aman
--an
--ana
--anan
--anas
--and
--ane
--anem
--anga
--ani
--ano
--ans
--ant
--ap
--apu
--ar
--ara
--ard
--ardo
--are
--ari
--aria
--ario
--aro
--arolo
--ary
--as
--asaurus
--asco
--asu
--at
--ata
--ate
--ated
--ati
--atinga
--ative
--ato
--atop
--au
--aud
--auria
--aurus
--aux
--av
--ava
--aw
--ay
--aya
--aye
--az
--aza
--azzo
--b
--ba
--bach
--bar
--bbe
--be
--beau
--bek
--bello
--ben
--ber
--berg
--bergia
--bes
--bet
--bi
--bia
--biate
--bid
--bik
--bito
--bleau
--bo
--bom
--bon
--bonne
--born
--boro
--borough
--bris
--bro
--broich
--bs
--bst
--bu
--buk
--burn
--by
--c
--ca
--cate
--cco
--ce
--cella
--cey
--ch
--chaft
--chaften
--che
--cht
--chy
--ci
--cia
--cial
--cil
--cio
--cita
--cito
--ck
--cka
--cks
--co
--core
--corvino
--cq
--cs
--ct
--cus
--cy
--cz
--czyk
--czyn
--d
--da
--dad
--dae
--dale
--dam
--dan
--das
--day
--dd
--dda
--de
--del
--den
--der
--des
--di
--die
--dik
--dito
--dl
--do
--don
--dor
--dorf
--dre
--dres
--ds
--dt
--du
--dy
--e
--ea
--eado
--eau
--eb
--ec
--echt
--eck
--ed
--eda
--edan
--edi
--edik
--edo
--ee
--ef
--efa
--efo
--efomon
--eg
--ega
--egg
--ego
--ehen
--ei
--eil
--eim
--eiras
--eit
--ek
--el
--eld
--ell
--ella
--elli
--ello
--eln
--ely
--em
--ema
--eman
--eme
--emo
--emom
--emont
--en
--ena
--enbu
--enc
--ence
--ene
--enia
--enik
--enko
--enne
--eno
--ens
--ensac
--ent
--enta
--ento
--eo
--epu
--er
--erd
--ere
--eren
--erg
--eri
--eria
--erly
--ern
--erno
--ero
--erode
--ers
--ersdorf
--ert
--es
--escu
--ese
--esi
--esino
--eso
--esse
--est
--et
--eta
--etan
--ete
--eti
--etik
--etis
--eto
--ets
--ett
--ette
--etti
--etto
--etz
--eu
--euil
--eur
--eux
--ev
--eve
--evna
--evo
--ewicz
--ewski
--exa
--ey
--eyer
--ez
--ezia
--ezzo
--f
--fa
--fe
--fect
--feld
--fen
--ff
--fi
--field
--fo
--fs
--ft
--fu
--g
--ga
--gaden
--gan
--gar
--garo
--gau
--ge
--gel
--gen
--ger
--ges
--ggio
--gh
--gham
--ght
--gi
--gia
--gie
--gik
--gio
--glia
--glo
--gna
--gnac
--gne
--gner
--gni
--gno
--gny
--go
--goa
--gom
--gon
--gra
--gs
--gt
--gton
--gu
--gue
--gues
--gus
--gy
--h
--ha
--hagen
--hal
--ham
--han
--has
--haw
--he
--heim
--heiro
--heit
--hen
--her
--hi
--hl
--hm
--hmen
--ho
--hoe
--hol
--holz
--horn
--hos
--hr
--ht
--hu
--hy
--i
--ia
--iac
--iak
--ian
--iano
--ib
--ibe
--ibrid
--ic
--ica
--ical
--ice
--ich
--ici
--icia
--ick
--icka
--icki
--icle
--ico
--icon
--ics
--icz
--id
--idae
--ide
--idik
--idilekan
--idir
--ido
--idu
--ie
--ied
--iel
--ien
--ier
--iera
--ieri
--iers
--ies
--iet
--ieu
--ieux
--iewicz
--if
--ifa
--ifal
--ifo
--ifu
--ig
--iga
--ige
--igen
--ight
--igi
--igny
--igo
--ij
--ija
--ik
--ika
--ikam
--ikan
--iko
--iku
--ikum
--il
--ilautan
--ile
--illo
--illon
--ilo
--ils
--im
--ima
--iman
--imik
--in
--ina
--ine
--ing
--inga
--ington
--inho
--ini
--inia
--ino
--io
--iol
--ion
--ions
--ious
--ip
--ipe
--ir
--ira
--iras
--ire
--iro
--is
--isaurus
--isch
--ische
--ish
--isi
--ising
--isse
--ist
--isy
--it
--ite
--iti
--itik
--itive
--ito
--itt
--ity
--itz
--iu
--iuk
--ium
--ius
--iv
--ive
--ivu
--ix
--iy
--iya
--iyop
--iz
--ize
--iɛ
--j
--ja
--je
--jewski
--ji
--jn
--jo
--js
--ju
--k
--ka
--kam
--kau
--ke
--keit
--ker
--ki
--kie
--kirch
--kirchen
--kis
--kiy
--kle
--ko
--kon
--kov
--ks
--ku
--ky
--l
--la
--labik
--lais
--lake
--lan
--land
--lar
--lard
--lau
--lav
--lay
--lco
--ld
--lda
--ldo
--le
--lec
--len
--ler
--les
--let
--ley
--lf
--li
--lia
--liano
--lic
--lich
--lik
--lin
--lina
--line
--ll
--lla
--lle
--lli
--llino
--llo
--lly
--lm
--lo
--lock
--lois
--lon
--los
--ls
--lski
--lt
--lto
--lton
--lu
--lud
--luds
--luk
--lung
--ly
--lyn
--lz
--m
--ma
--man
--mann
--mar
--mb
--mbe
--mbo
--me
--mead
--mee
--mer
--mi
--min
--mis
--mm
--mo
--mod
--mon
--mor
--ms
--mu
--mut
--my
--mɛ
--n
--na
--nac
--naed
--nago
--nai
--nano
--nara
--nard
--nas
--nay
--nc
--nce
--ncy
--nd
--nda
--nde
--ndez
--ndo
--ndro
--nds
--ndt
--ne
--nec
--ner
--nero
--nes
--ness
--ney
--ng
--nga
--nge
--ngo
--nha
--nham
--nheim
--ni
--nia
--nier
--nik
--nis
--nk
--nka
--nko
--nn
--nna
--nne
--nnen
--nnes
--no
--nor
--notte
--nov
--nova
--nque
--ns
--nsa
--nse
--nt
--nta
--nte
--nti
--ntia
--ntina
--ntino
--nto
--nton
--nu
--nus
--ny
--nz
--nza
--nzano
--nzo
--o
--oa
--ob
--oc
--ock
--od
--oda
--odas
--ode
--odo
--odon
--oedan
--of
--og
--ogie
--ogne
--ogo
--ogy
--oi
--oia
--oire
--ois
--ok
--ol
--olo
--ology
--om
--on
--ond
--one
--ono
--ons
--ont
--oo
--ops
--or
--ora
--ord
--ore
--orf
--ori
--orn
--orphodon
--orre
--ors
--ort
--ory
--os
--osaurus
--osi
--ot
--otis
--ots
--ou
--ough
--ous
--oux
--ov
--ova
--ovic
--ovik
--ovna
--ovo
--ow
--owicz
--owska
--owski
--oy
--oz
--p
--pa
--pad
--pe
--pea
--peva
--ph
--phie
--pi
--ple
--po
--port
--pp
--pt
--pu
--pus
--q
--que
--r
--ra
--rad
--rada
--rae
--rag
--ram
--rano
--rara
--rare
--ras
--rborn
--rch
--rczuk
--rd
--rdo
--rds
--re
--reale
--reau
--rek
--ren
--res
--rev
--rewicz
--rf
--rg
--rge
--ri
--ria
--rie
--rino
--rio
--rit
--rk
--rl
--rn
--rno
--ro
--rola
--rosso
--rot
--rov
--row
--rowicz
--rra
--rre
--rs
--rson
--rstein
--rt
--rta
--rto
--ru
--rville
--ry
--rz
--rza
--rzak
--rzyn
--s
--sa
--sac
--sano
--sas
--sau
--sauria
--saurus
--say
--sboro
--sborough
--sburg
--sch
--sche
--scheid
--schrift
--sco
--sdorf
--se
--sed
--see
--sen
--ses
--sey
--sh
--sha
--sheim
--shut
--si
--sik
--sini
--sio
--sit
--sita
--sk
--ska
--ski
--skiy
--sl
--sno
--so
--son
--sos
--sov
--ss
--ssa
--sse
--ssen
--ssi
--ssic
--sso
--ssol
--sson
--ssy
--st
--sta
--stad
--ston
--stone
--stu
--su
--sua
--sumon
--sville
--swil
--sy
--sz
--szewski
--szka
--t
--ta
--tad
--tadt
--tal
--tan
--tar
--tard
--tas
--tazu
--te
--tea
--ted
--tein
--tel
--ten
--ter
--tes
--th
--thal
--ti
--tiba
--tic
--tie
--tier
--tiers
--tig
--tik
--tim
--tino
--tion
--tis
--tive
--tl
--tley
--tlich
--tner
--to
--toire
--tok
--ton
--tos
--tosaurus
--towicz
--town
--tri
--tro
--try
--ts
--tsch
--tt
--tta
--tte
--tti
--tto
--tu
--tuba
--tus
--ty
--tz
--tɛ
--u
--ua
--ual
--uay
--ub
--uba
--uc
--uca
--uch
--uco
--ud
--ude
--udik
--udu
--ue
--ueil
--uen
--uer
--ues
--ueux
--uf
--ug
--uga
--ui
--uil
--uin
--uk
--ul
--ula
--ulan
--ular
--ulo
--ult
--ulu
--ulus
--um
--umba
--umi
--umo
--un
--ung
--unga
--uno
--uo
--up
--ur
--ura
--uria
--urid
--uridae
--urs
--urt
--urus
--us
--usaurus
--ust
--ut
--uvo
--ux
--uy
--uya
--uze
--v
--va
--van
--ve
--veen
--veg
--ves
--vestre
--vet
--vi
--viano
--vic
--view
--vik
--ville
--vn
--vna
--vo
--vskiy
--vu
--w
--wa
--well
--wer
--wick
--wicz
--wig
--wil
--win
--wo
--wold
--wood
--wska
--wski
--x
--xa
--xes
--xid
--xy
--y
--ya
--yan
--yard
--yd
--ye
--yer
--yev
--yik
--yim
--yk
--yn
--yna
--yo
--yr
--ys
--yx
--z
--za
--zac
--zago
--zanka
--zano
--zato
--ze
--zeiro
--zel
--zer
--zes
--zewska
--zewski
--zi
--zia
--zig
--zin
--zisz
--zka
--zke
--zno
--zo
--zov
--zu
--zug
--zy
--zyk
--zyn
--zz
--zzi
--zzo
--ß
--ße
--ø
--ın
--ł
--ła
--łe
--ŋ
--ɑ
--ə
--ɛ
--ɡ
--ɪ
--ɾ
--ɾa
--ɾe
--ɾi
--ʃo
--ʊ
--ʏ
--ς
--υ
--а
--в
--вич
--ер
--и
--ии
--ин
--ич
--ия
--к
--ко
--ков
--лав
--лии
--н
--нов
--о
--ов
--ович
--овна
--ра
--ы
--я
--ن
--ي
