!
"
#
##0
##1
##10
##11
##12
##13
##14
##15
##16
##17
##18
##19
##2
##20
##21
##22
##23
##24
##25
##26
##27
##28
##29
##3
##30
##31
##32
##33
##34
##35
##36
##37
##38
##39
##4
##40
##41
##42
##43
##44
##45
##46
##47
##48
##49
##5
##50
##51
##52
##53
##54
##55
##56
##57
##58
##59
##6
##60
##61
##62
##63
##64
##65
##66
##67
##68
##69
##7
##70
##71
##72
##73
##74
##75
##76
##77
##78
##79
##8
##80
##81
##82
##83
##84
##85
##86
##87
##88
##89
##9
##90
##91
##92
##93
##94
##95
##96
##97
##98
##99
%
&
'
(
)
*
+
,
-
.
/
0
00
000
004
01
012
016
02
03
04
05
06
07
08
087
09
1
10
100
1000
1001
101
1015
102
1024
103
1031
104
1045
105
106
1063
1066
107
1077
108
1080
1089
109
11
110
1100
1103
111
1119
112
113
1130
1136
114
1147
115
1156
116
117
118
1180
1184
119
12
120
1200
1204
121
1218
122
123
1232
1236
124
1247
125
1250
1251
1252
1254
126
1269
127
1273
128
129
1291
1296
1298
1299
13
130
1300
131
1314
1318
132
133
1330
1331
1334
134
1347
1348
135
1350
1353
136
1365
1366
137
138
1380
1381
1382
139
14
140
1400
1402
1409
141
1411
1412
1419
142
1420
1425
143
1439
144
1445
1448
145
1450
1451
1452
1453
1455
1459
146
1462
1465
147
1470
1472
1473
1474
1475
1477
1478
1479
148
1481
1483
1484
1485
1487
1488
149
1490
1491
1492
1493
1494
1495
1497
1498
1499
15
150
1500
1501
1502
1503
1504
1505
1506
1507
1508
1509
151
1510
1511
1512
1513
1514
1515
1516
1517
1519
152
1520
1521
1524
1525
1526
1527
1528
1529
153
1530
1531
1532
1533
1534
1535
1536
1539
154
1540
1542
1545
1546
1547
1548
155
1550
1552
1554
1555
1556
1557
1558
1559
156
1560
1561
1562
1564
1565
1567
157
1570
1571
1572
1574
158
1580
1582
1583
1584
1585
1587
1588
1589
159
1590
1591
1592
1593
1594
1595
1596
1597
1598
16
160
1600
1601
1602
1604
1605
1608
1609
161
1614
1615
1616
1618
1619
162
1620
1621
1622
1623
1626
1629
163
1631
1632
1634
1635
164
1643
1646
1647
1648
1649
165
1650
1652
1654
1655
1656
1658
166
1665
1666
1667
167
1671
1673
1674
1676
1677
1678
168
1685
1686
169
1691
1692
1693
1696
1699
17
170
1700
1701
1703
1704
1705
1706
1707
1708
1709
171
1710
1711
1713
1714
1715
1716
1717
1719
172
1720
1721
1722
1723
1724
1725
1726
1727
1728
1729
173
1730
1731
1732
1734
1735
1736
1737
1738
1739
174
1740
1741
1742
1743
1744
1745
1747
1748
1749
175
1750
1751
1752
1753
1754
1755
1756
1757
1758
1759
176
1760
1761
1762
1763
1765
1766
1767
1768
1769
177
1770
1772
1773
1774
1775
1776
1777
1779
178
1781
1782
1783
1784
1785
1786
1787
1788
1789
179
1790
1791
1792
1793
1794
1795
1796
1797
1798
1799
18
180
1800
1801
1802
1803
1804
1805
1806
1807
1808
1809
181
1810
1811
1812
1813
1814
1815
1816
1817
1818
1819
182
1820
1821
1822
1823
1824
1825
1826
1827
1828
1829
183
1830
1831
1832
1833
1834
1835
1836
1837
1838
1839
184
1840
1841
1842
1843
1844
1845
1846
1847
1848
1849
185
1850
1851
1852
1853
1854
1855
1856
1857
1858
1859
186
1860
1861
1862
1863
1864
1865
1866
1867
1868
1869
187
1870
1871
1872
1873
1874
1875
1876
1877
1878
1879
188
1880
1881
1882
1883
1884
1885
1886
1887
1888
1889
189
1890
1891
1892
1893
1894
1895
1896
1897
1898
1899
19
190
1900
1901
1902
1903
1904
1905
1906
1907
1908
1909
191
1910
1911
1912
1913
1914
1915
1916
1917
1918
1919
192
1920
1921
1922
1923
1924
1925
1926
1927
1928
1929
193
1930
1931
1932
1933
1934
1935
1936
1937
1938
1939
194
1940
1941
1942
1943
1944
1945
1946
1947
1948
1949
195
1950
1951
1952
1953
1954
1955
1956
1957
1958
1959
196
1960
1961
1962
1963
1964
1965
1966
1967
1968
1969
197
1970
1971
1972
1973
1974
1975
1976
1977
1978
1979
198
1980
1981
1982
1983
1984
1985
1986
1987
1988
1989
199
1990
1991
1992
1993
1994
1995
1996
1997
1998
1999
2
20
200
2000
2001
2002
2003
2004
2005
2006
2007
2008
2009
201
2010
2011
2012
2013
2014
2015
2016
2017
2018
2019
202
2020
2021
2022
203
204
205
206
207
208
209
21
210
2100
211
212
213
214
215
216
217
218
219
22
220
221
222
223
224
225
226
227
228
229
23
230
231
232
233
234
235
236
237
238
239
24
240
241
242
243
244
245
246
247
248
249
25
250
2500
251
252
253
254
255
256
257
258
259
26
260
261
262
263
264
265
266
267
268
269
27
270
271
272
273
274
275
276
277
278
279
28
280
281
282
283
284
285
286
287
288
289
29
290
291
292
293
294
295
296
297
298
299
3
30
300
3000
301
302
303
304
305
306
307
308
309
31
310
311
312
313
314
315
316
317
318
319
32
320
321
322
323
324
325
326
327
328
329
33
330
331
332
333
334
335
336
337
338
339
34
340
341
342
343
344
345
346
347
348
349
35
350
351
352
353
354
355
356
357
358
359
36
360
361
362
363
364
365
366
369
37
373
374
376
38
380
381
384
387
388
39
390
392
393
394
395
396
399
4
40
400
4000
402
404
405
406
407
408
41
410
413
414
418
42
420
421
426
427
43
431
434
435
438
439
44
441
442
443
444
445
447
448
45
450
451
452
453
454
458
46
460
461
462
463
464
465
47
472
474
476
478
48
482
485
486
489
49
490
492
495
496
497
5
50
500
503
509
51
510
512
515
518
52
525
526
53
530
534
536
539
54
540
541
545
548
55
550
551
555
556
557
56
560
567
568
569
57
570
571
579
58
580
582
583
585
586
587
59
598
6
60
600
6000
601
602
604
605
606
607
608
609
61
610
611
612
613
614
615
616
617
62
620
622
623
626
627
628
63
630
631
634
637
638
639
64
640
642
643
644
645
646
648
649
65
650
651
652
655
659
66
661
666
67
670
672
673
674
676
677
678
679
68
680
685
686
687
69
690
694
695
698
699
7
70
700
702
703
704
706
71
710
711
713
714
715
716
717
719
72
720
721
726
729
73
730
732
734
74
742
7448
745
747
748
749
75
750
753
754
76
760
764
765
768
77
770
772
774
775
776
777
778
78
780
788
79
792
795
796
798
8
80
800
802
804
81
810
811
812
813
814
815
82
820
825
826
83
830
833
84
844
848
85
850
854
855
86
863
87
870
872
875
876
878
88
880
888
889
89
890
892
893
899
9
90
900
901
903
905
906
907
908
91
911
914
918
92
923
924
93
932
936
94
944
95
951
952
953
954
955
959
96
963
968
97
970
978
98
980
984
985
988
99
996
:
;
<
=
>
?
@
[
\
]
^
_
`
a
aa
ab
aba
abandona
abat
abazie
abdicazion
abilita
abita
abitade
abitans
abitants
abitazions
abitudin
aboli
abolizion
aboriginal
about
abram
abreviazion
abruc
abside
abur
ac
academia
academic
academiche
academie
academiuta
academy
accademia
ace
acent
acer
acet
aceta
acetade
acete
acetin
ach
acheus
achi
achil
achille
acit
acjade
acjadiment
acjadiments
acompagna
acronim
acuardi
acuardis
acuart
acuarts
acuile
acuilee
acuilis
acuist
acurade
acusa
acuse
acusis
acustiche
ad
adalt
adam
adams
adat
adata
adatament
addio
ade
adelaide
adestrament
adieti
adis
ado
adolf
adora
adorazion
adore
adota
adozion
adria
adrian
adriano
adriatic
adulteri
adults
adun
ae
aequo
aeropuart
aeropuarts
aes
af
afa
aferma
afermazion
afida
afidade
afiet
afluent
afluents
afrescs
africa
african
africane
afriche
afro
afrodite
aga
agamenon
agency
aghe
aghis
agjenzie
agji
agn
agne
agnel
agnorums
agns
agnui
agnul
agostini
agostino
agosto
agrarie
agricola
agricolture
agricui
agricul
agricule
agriculis
agriculture
ah
ai
aiar
aich
aier
aigen
aigns
ains
aires
aiu
aje
al
alan
alba
albanie
albe
albeck
albergo
albert
alberto
album
albums
alc
alcul
alcun
alcuni
alcunis
aldo
ale
alea
aleade
aleadis
aleance
alenado
alesandri
alessandra
alessandri
alessandrie
alessandrine
alessandro
alexander
alfa
alfabet
alfabetic
alfabets
alfred
alfredo
alghero
algjebre
ali
alias
alice
alighieri
aliment
alimenta
alimentazion
alis
all
alla
alle
allen
allmusic
alm
almancul
alore
alpha
alpin
alpine
alpinis
alpins
alps
als
alt
alta
alte
altece
altenmarkt
alternati
alternative
alternativis
altichero
altiplan
altis
altitudin
alto
altre
altri
altris
altro
alts
alumini
alvise
alzette
am
ama
amade
amadeus
amancul
amant
amare
amatoria
amazon
amberg
ambient
ambienta
ambientadis
ambients
ambit
ambits
amburc
ame
amedeo
amen
ament
american
americane
americanis
americans
americhe
americhis
amet
ami
amicizie
aministra
aministrado
aministrati
aministrative
aministrativis
aministrazion
aministrazions
amira
amo
amon
amor
amore
ampe
ampere
amplia
amsterdam
an
ana
anabolisim
analisi
analitiche
analiza
anatomie
anche
ancje
ancjemo
ancjimo
ancjmo
ancora
and
andament
andis
andore
andra
andre
andrea
andreas
andree
andreuzzi
androni
anduins
ane
anel
anesion
anession
anetu
anetude
aneu
angel
angeles
angeli
angelo
angstrom
angul
anibal
anima
animado
animai
anime
animis
anis
anna
anne
anni
anno
anonim
ans
ant
antagonist
antartic
antena
anthology
anthony
anti
antic
antiche
antichita
antighe
antighis
antighita
antognan
antoine
antologia
anton
antoni
antonini
antonio
antropolic
antropolics
antropologjie
anua
anula
anunziade
anunziazion
anzit
aosta
aoste
apara
aparent
aparizion
aparten
apassiona
apelati
apene
apenins
aplica
aplicade
aplicadis
aplicazion
aplicazions
apocali
apocrifs
apol
apont
appert
apple
aprendiment
april
aprofondi
aprova
aprovade
aprovazion
apueste
apuestui
apuestul
aquila
aquilee
aquileia
aquileie
ar
ara
arabe
arabie
aragone
aramaic
aran
arap
araps
arbe
arbitri
arbui
arbul
arc
arcaic
arcaiche
archeolic
archeologjics
archeologjie
archimede
architet
architetonic
architeture
archive
archived
archivi
archivio
arcidiocesi
arciduche
arcivescul
arcjan
arcje
arcs
ardit
ardito
are
aree
areis
aresta
argagn
argagns
argjentin
argjentine
argoment
argoments
argument
ari
aria
arie
ariis
arin
arint
ariosto
aristocratics
aristocrazie
aritmetiche
arle
arlef
arlevament
arma
armade
armadis
armate
arme
armen
armi
armis
armistizi
armonic
armoniche
armonie
arnold
arnoldstein
arola
aromai
aronco
arrigo
ars
art
arte
artesana
arthur
arti
artic
articui
articul
artificia
artiliarie
artilierie
artiscj
artist
artiste
artistic
artistiche
artistichis
arts
arturo
arvignan
arzin
as
asburc
asburcs
asburgjic
aschaffenburg
ascoli
ase
asi
asian
asie
asini
aspiet
aspiets
aspx
assalt
asse
assedi
assegna
assegnade
assemblee
assence
assesso
assi
assie
assiomis
assistent
associa
association
associative
associazion
associazions
assolu
assolude
assolutamente
assorbi
assorbiment
astrats
astrologjie
astronom
astronomic
astronomie
at
ata
atac
atacs
atene
atent
atents
atenzion
ati
atigni
atile
atimis
ative
ativita
atlant
atlante
atlantic
atmosfere
atmosferiche
ato
atom
atomic
atomiche
atoms
ator
atore
atre
atri
atribui
atris
ats
attersee
atua
atualita
atuazion
au
audio
auerbach
augsburg
august
augusta
auguste
augusto
augustus
aule
aulis
aument
aumenta
aumente
aupe
aur
aureli
auschwitz
ausse
aussee
austra
australia
australian
australie
austri
austria
austriac
austriache
austriachis
austriacs
austrian
austriancharts
austrie
austro
auto
autobus
automobilistic
automobilistiche
autonom
autonome
autonomia
autonomie
autonomis
autoproduzion
autore
autorita
autoritrat
autoriza
autostrada
autostrade
autostradis
autun
avampuest
avanza
avanzade
avanzadis
ave
aveniment
aveniments
avent
aventure
aventuris
aversari
avi
aviazion
avigniments
avignude
avin
avion
avo
avoca
avocat
avoda
avoltri
avonde
avost
avri
avril
avua
award
awards
azienda
aziende
aziendis
azion
azione
azions
azo
b
ba
babilone
babilonie
bac
bach
bacin
back
bad
baden
badia
badie
baghdad
bagn
bagna
bagnade
bagnarie
bahia
bahn
bai
bal
bala
balarins
balcaniche
balcans
balcons
bale
balearis
balon
baltic
bamberghe
bambin
banach
bancje
bancnotes
bancs
band
bandcamp
bande
bandiera
bandiere
bandieris
bandis
bando
bandona
bandonade
bandonant
bandone
bang
bant
bar
barat
baratta
barbara
barbarichis
barbaro
barbars
barbe
barcelona
barcelone
barcis
barcjis
barcons
bari
barngarla
baroc
baroche
barocs
bartolini
bartolomeo
bartolomiu
baruch
barufe
barufis
bas
basa
basade
basadis
basament
basandiele
basc
basche
bascs
base
baseball
basic
basilee
basilian
basilica
basiliche
basin
basis
basket
bass
bassa
basse
bassis
baste
baston
bat
batae
bataie
bataiis
bataion
bataions
batais
batajon
batajons
batarie
baterie
bati
batia
batie
batint
batisim
batisims
batiste
batisteri
battaglia
battista
battisti
batu
batude
baumgarten
bavare
baviere
bay
bayreuth
bb
be
bea
beade
bearzot
beatles
bec
beethoven
bei
bela
belanc
belga
belgjiche
belgjio
belgjo
belgra
belin
beline
bellavitis
bello
bellum
belo
beltram
belun
ben
benandant
benandants
benedet
benedete
benedetto
benedict
benedizion
benito
benny
benon
bens
bensta
benvignu
benz
berdei
berengari
berg
bering
berlin
bernard
bernardo
bernart
bernhard
berni
bersali
bertiu
bertossi
bertrant
besso
bessole
best
bestie
bestiis
beta
bettembourg
betzdorf
bevande
bevandis
bevi
bezirke
bgld
bianchini
bianco
bibie
biblic
biblie
bibliografia
biblioteca
bibliotecari
biblioteche
bici
biciclete
bicicletis
bicinins
biei
biel
biele
bielece
bielestele
bielis
bielorussie
bielza
bigl
bigr
bike
bilbo
bilenga
biliets
bilinguisim
billboard
binari
bindi
biochimiche
biografico
biografie
biografiis
biologjic
biologjiche
biologjie
biosfere
bire
birman
bis
bisescj
bisest
bisiac
bisiacarie
bistrica
bisugne
bit
bizantin
bizantins
bl
bla
blanc
blancje
blancjis
blancs
blave
bleiberg
bleiburg
bleu
bloc
bloca
blog
blu
bludenz
blue
blues
bming
bo
bob
boccaccio
bocje
boemie
bogna
bogns
bolc
bole
boli
bolivie
bologna
bologne
bolzan
bombardaments
bombay
bon
bona
bonaldo
bonaparte
bonifiche
bonn
bons
bonta
bonus
book
boozy
borc
borcs
bordan
borea
borgadis
borghe
borghese
borghesie
borgia
boris
borse
bosc
boscs
bosgne
bosnia
bosnie
boston
bot
botanic
botaniche
boto
boton
botons
bottecchia
botticelli
boxing
bpi
bra
brac
braca
braide
brame
branc
brand
brandis
brasi
brasil
brasilian
braunau
braure
bravure
brazza
brec
bregenz
bresse
bretagne
breton
breve
brevet
brian
briciole
brigade
brigadis
britanic
britaniche
britanie
british
bro
broade
brollo
bronc
brown
broz
bru
bruce
bruck
brun
brunn
bruno
brunswick
brusa
brussel
brussels
brut
brute
bruxelles
bu
buch
bucoliche
bucolichis
buddha
budisim
buenos
buie
buine
buinis
buje
bulgarie
bundesla
bundesland
bundesrat
bundestag
buonarroti
bur
burgenland
buri
buride
buris
bus
buse
bush
busis
bussa
bussade
buta
butadis
butant
bute
buteghe
buteghis
butin
bwv
by
bz
c
ca
cadavar
cadel
caderis
cadore
caesar
cagliari
cai
caimo
cairo
cal
cala
calabria
calabrie
calade
calasanz
calci
calcio
calcola
calcolade
calcolado
calcole
calcui
calcul
cale
calendari
calendaris
california
californie
caligule
calimac
calo
calvin
cambi
cambia
cambiade
cambiament
cambiaments
cambiant
cambie
cambiin
cambrai
cambridge
camera
camillo
camion
campade
campagne
campagnis
campanie
campanotto
campion
campiona
campo
can
cana
canada
canadese
canadian
canai
candida
candido
cane
canon
canonic
canonics
canta
cantante
cantarutti
canti
canto
cantus
canul
canussio
canzian
canzone
canzoni
cap
capacita
cape
capele
capi
capita
capital
capitale
capitalisim
capitaliste
capitan
capite
capo
capolavo
cappello
caprere
caprive
caraips
caratar
caratars
carateristic
carateristiche
carateristichis
carateristics
carateriza
caraterizade
caraterizadis
carbonera
carboni
cardina
cardinalita
carducci
carghe
cariche
cariere
carintie
carinzie
carita
carl
carla
carletti
carli
carlo
carlos
carlotte
carmen
carmina
carnera
carneva
carnia
carnicats
carniche
carols
caroya
carrara
carrozzo
carta
cartagine
cartagjin
cartei
cartesian
cartier
cartufulis
cas
casa
case
casse
castel
castello
castelvecchio
castilian
castiliane
castilie
castro
catala
catalan
catalana
catalane
catalans
catalic
catalogne
catanie
catarine
cate
catedra
catedre
categorie
categoriis
caterina
catholic
catiline
cato
catolic
catoliche
catolichis
catolics
caton
cattolica
catul
catura
cauchy
causa
causade
cause
causiona
causis
cavalarie
cavali
cc
cd
cdot
ce
cec
ceche
cechie
cecili
cecilia
ceconi
cecoslovachie
cedilie
cedu
ceesa
celebra
celebrazion
celebrazions
celebre
celest
celeste
celi
celina
celine
cella
celona
cels
celsius
celso
celtic
celtiche
celtichis
celtics
celts
celula
celulis
celulose
cemu
cence
cene
cengla
censiment
censo
cent
centa
centena
center
centesime
centimetris
centra
central
centri
centris
centro
ceramiche
cercli
cerclis
cerea
cergneu
cerimonie
cerneglons
cert
certifications
cerviel
cesar
cesare
cesene
cessa
cetancj
cetant
cetantis
cetinski
cf
ch
cha
chaco
change
chapter
charles
chart
charter
charts
chartstats
chartverfolgung
che
checo
chei
chel
cherokee
ches
chescj
chest
cheste
chestis
chests
chi
chiandetti
chiara
chicago
chilogram
chilometri
chilometris
chimic
chimiche
chimichis
chimics
china
chist
chiste
chitare
choi
christian
christmas
chu
ci
cic
ciceron
cicli
ciclist
cidulis
ciel
cielo
cierf
ciert
cierte
ciertis
cierts
cifra
cifre
cifris
cile
ciline
cimabue
cime
cimis
cimitieri
cimolais
cinausero
cinc
cinccent
cincuante
cine
cinematografics
cines
cinese
cinise
cint
cio
cipri
circ
cirche
circola
circolazion
circolo
circonda
circondade
circondari
circondaris
circonference
circoscrizions
circui
circuit
circul
circula
ciri
cirilic
cirin
cirint
cirive
cirivis
ciru
cisalpine
cisilino
cita
citade
citadin
citadinance
citadine
citadins
citat
cite
citta
city
civi
civic
civiche
civics
civida
cividale
civil
civilta
civole
cj
cja
cjabie
cjac
cjacara
cjacare
cjacarin
cjace
cjadene
cjadenis
cjadovri
cjaf
cjala
cjalade
cjalant
cjalave
cjalc
cjalde
cjalderie
cjale
cjalt
cjama
cjamare
cjamaris
cjamin
cjamina
cjamp
cjampanili
cjampanis
cjampfuarmit
cjamplunc
cjamps
cjan
cjana
cjanc
cjanine
cjant
cjanta
cjantade
cjantadis
cjantant
cjantante
cjantants
cjantauto
cjantautore
cjantave
cjantavin
cjante
cjanton
cjantons
cjants
cjapa
cjapade
cjapadis
cjapant
cjapara
cjaparin
cjapave
cjapavin
cjape
cjapiel
cjapin
cjapitani
cjapitui
cjapitul
cjar
cjarbon
cjargne
cjargnei
cjargnel
cjargnele
cjargnelis
cjaria
cjarie
cjariesa
cjarlins
cjarna
cjars
cjarso
cjarte
cjartis
cjas
cjasa
cjasade
cjasarse
cjase
cjasegnove
cjasis
cjassa
cjasteons
cjasti
cjastina
cjata
cjatade
cjatadis
cjatant
cjatave
cjatavin
cjate
cjati
cjatin
cjaulu
cjaure
cjava
cjavac
cjavai
cjaval
cjavei
cjiscjei
cjiscjel
cjistiel
cjoc
cjol
cjoli
cjolt
cjonc
cjopris
cjscjel
cken
cla
clama
clamade
clamadis
clamara
clamave
clamavin
clame
clami
clamin
clanfurt
clap
clape
clapis
clara
clare
clarementri
claris
classe
classic
classiche
classichis
classics
classifica
classificazion
classis
claudi
claudio
clause
claut
clavicembal
clement
cleopatre
clerica
clero
clime
close
club
cm
cn
co
coalizion
cobain
coca
coce
code
codic
codifiche
codis
codroip
cogno
cognon
cognos
cognosse
cognosseve
cognossevin
cognossi
cognossin
cognossince
cognossincis
cognossint
cognossu
cognossude
cognossudis
cohen
coinci
coincidence
coine
col
cola
colabora
colaborado
colaborazion
colaborazions
colabore
colade
cole
colec
colega
colegade
colegadis
colegament
colegaments
coleghe
coleti
coletive
coletivita
colezion
colezions
colians
colin
colina
colle
college
collegium
colm
colo
colombie
colomp
colone
colonel
colonia
colonie
coloniis
colonis
coloniza
colonizado
colonizazion
colonna
colonos
colora
colore
colosse
colp
colpe
colpi
colps
colta
coltiva
coltivazion
coltivazions
colus
colvare
com
coma
comanda
comandade
comandaments
comandant
comandants
comandave
comande
comant
combate
combatents
combaterin
combati
combatiment
combatiments
combatu
combatude
combina
combinazion
come
comeda
comedie
comediis
comelians
comenc
comence
comencin
comenta
comerci
comercia
comete
cometis
comic
comissari
comission
comita
comitive
commercio
commons
commonscat
commonwealth
como
compagn
compagna
compagne
compagnie
compagnis
compagns
companie
companiis
company
comparati
compari
compartimento
competence
competencis
competizion
compit
compits
comple
complementa
complessis
complessita
complet
completa
completament
completamentri
complete
completece
completes
compon
compone
component
components
componi
componiment
componiments
componin
componu
componude
composcj
composido
composito
composizion
composizions
compost
compra
compre
comprendeve
comprendi
comprendu
comprension
comprent
comprindi
comprindu
comprindude
comprint
comprome
compromes
compton
compuarta
compuartament
compuartaments
compuarte
computer
comu
comun
comuna
comune
comunica
comunicazion
comunicazions
comunion
comunis
comuniscj
comunisim
comunism
comunist
comunistis
comunita
comuns
con
concedu
concentra
concentrament
concentrazion
concentre
concert
concerto
concerts
concession
concet
concets
concezion
conciert
concierts
concili
conclu
conclusion
concors
concuardie
concuista
concuistade
concuistado
concuiste
condana
condane
condiplui
condita
condizion
condiziona
condizions
condo
condomini
condominia
condote
conduto
conean
confederazion
conference
conferencis
conferi
conferma
confermade
conferme
confermin
confession
confessions
confin
confinants
confine
confins
conflit
conflits
confluence
confondi
confondu
conformazion
confraternite
confront
confronta
confronts
confucianisim
confusion
congo
congre
congregazion
congregazions
coniugazion
conquistadores
consacra
consacrazion
consee
consegne
conseguence
conseguencis
consei
conseis
consens
conserva
conservade
conservado
conservazion
considera
considerade
consideradis
considerant
considerave
considerazion
considerazions
considere
considerin
consist
consola
consolazion
consonant
consonants
consorzi
consui
consul
consulta
consum
consumado
cont
conta
contact
contade
contadin
contadine
contadins
contaminazion
contant
contarini
contat
contats
contave
conte
contee
contegnin
conteis
contemporanee
contemporanie
conten
content
contenta
contest
conti
contigni
contignive
contignu
contin
continent
continenta
continents
continua
continuant
continuazion
continue
continui
continuin
continuis
continuita
contis
conto
contrade
contradizions
contraposizion
contrari
contrarie
contraris
contrast
contrasta
contrat
contribu
contribui
contributori
contributors
contro
control
controla
controlade
controlave
conts
convent
convenzion
convenziona
convenzions
convergjence
conversion
converti
convinc
convince
convint
convocazion
conzura
conzure
cook
cooperative
cooperazion
coordenadis
copa
copade
copant
copasse
cope
copie
copiis
copis
cor
cora
corac
coragjo
coran
corbin
cordenons
cordove
corean
coree
coret
cori
corin
corint
corinti
corinto
corints
corispondence
corispondent
corispuindeve
corispuindin
corispuindint
corispuint
cormo
cormons
corneli
cornelio
cornelius
cornu
coro
corona
corone
corot
corpus
corriere
cors
corse
corsi
corsiche
cort
corte
coruzion
cos
cosa
cose
cosean
coseano
cosh
cosi
cost
costa
costant
costante
costantin
costantinopoli
costelazion
costituent
costitui
costituide
costituissin
costituzion
costituziona
costrets
costrui
costruide
costruidis
costruto
costruzion
costruzions
costum
costuma
costums
coulomb
coventa
coventave
covente
coventin
cpu
cracovie
cras
crate
crav
cravuat
cravuate
cravuats
cravuazie
crazy
cre
crea
creade
creadis
creant
creative
creativita
creato
creature
creaturis
creazion
cree
cremone
cres
cressi
cressin
cressint
cressite
cressu
cressude
cret
crete
cretis
creva
cria
crimee
cripte
crise
criseide
crisi
crist
cristal
cristian
cristiana
cristiane
cristianesim
cristianis
cristianisim
cristianita
cristiano
cristians
cristina
cristoforo
cristoful
criteri
criteris
critic
critica
critiche
critichis
critics
cro
croce
crodeve
crodevin
crodi
crodin
crodince
crodincis
crodint
crodints
crodu
cronache
cronachis
cronichis
crosade
crosere
cross
croste
crostis
crot
croz
crucifi
crude
cs
cu
cua
cuadra
cuadrade
cuadradis
cuadri
cuadrilenga
cuadris
cuai
cualchi
cualchidun
cualchidune
cualchit
cuale
cualifica
cualis
cualita
cualsisei
cuan
cuant
cuantita
cuar
cuarante
cuarde
cuardis
cuarlp
cuarnete
cuarp
cuarps
cuars
cuart
cuarte
cuartets
cuarti
cuasi
cuatri
cuatricent
cuba
cuban
cubane
cube
cubic
cuc
cuei
cuel
cueste
cuestion
cuestions
cuestis
cuete
cugnade
cui
cuiet
cuiete
cuindis
cuint
cuinte
cuintri
cuintripont
cuista
cuistion
cuistions
cul
cule
culi
culine
culinis
culis
cult
cultura
cultural
culturale
culture
culturis
cumierc
cumo
cumun
cun
cundiplui
cundizion
cundizions
cundut
cunfin
cunfine
cunfins
cuntent
cuntun
cuntune
cuote
cuotidian
cup
cupule
cur
cura
curade
cure
curint
curiosita
curitiba
curt
curte
curti
curtis
curtmetrac
curts
cusin
cusine
cussi
cussience
cutuardis
cuvierc
cuviert
cuvierte
cuvierzi
cuvierzin
d
da
dachstein
dacuardi
dade
dadis
dae
dael
dai
dal
dala
dale
dalis
dall
dalla
dalle
dalmazie
dam
dama
dams
dan
danau
dance
dancehall
dane
daniel
daniele
danimarche
danimarcje
danishcharts
dant
dante
danze
dapardut
dara
dario
darmstadt
darte
dartigne
darwin
darzin
das
daspo
data
date
dati
datis
dau
daur
daurman
dava
dave
davian
david
davide
davin
davo
davuelc
davuelze
davuelzin
day
de
dead
dean
death
debits
deceni
decenis
deci
decide
decidi
decidin
decidu
decidude
decim
decima
decime
decision
decisions
decjadence
decjadince
declara
declarazion
declare
declinazion
decora
decorade
decorazion
decorazions
decret
decreta
decretade
decrets
dedekind
dedica
dedicade
dedicadis
dediche
dedizion
dee
def
defini
definide
definidis
definis
definissin
definiti
definitivamentri
definitive
definizion
definizions
deganutti
degli
dei
dek
del
delega
deliberazion
deliberazions
delica
delimita
dell
della
dellach
delle
dello
deluxe
demo
democratic
democratiche
democratics
democrazie
den
denant
dene
denmark
denominazion
denominazions
densita
dentesano
dentri
dentro
deo
deposizion
deputa
der
derin
derit
deriva
derivade
derivadis
derivazion
derive
derivin
des
descri
descrit
descrivi
descrizion
descrizions
desert
deserts
desideri
designa
desinence
desio
destin
destina
destinade
destinazion
destino
det
detais
determina
determinant
deuteronomi
deutsch
devant
devasta
deve
deventa
deventade
deventadis
deventant
deventara
deventarin
deventave
devente
deventin
devi
devin
devozion
dfrac
di
diacun
diagona
dialet
dialeta
dialetiche
dialets
dialetti
dialic
diametri
diari
diaul
dibatit
dicembar
dicembre
didatiche
die
diego
dies
dieschitz
diestre
diete
difarence
difarencis
difarent
difarente
difarentis
difarents
difat
difenso
diference
diferencis
diferent
diferente
diferentis
diferents
diferenzia
diferenzie
difese
differdange
diffuso
dificii
dificil
dificile
dificolta
difindeve
difindi
difindisi
difindu
difondu
difondude
difu
difusion
dighe
digits
digjita
dignan
dignita
digram
digrams
diis
dilunc
diluvi
dimension
dimensions
diminuzion
dimostra
dimostrazion
dimostre
dimpec
din
dinamiche
dinamite
dinastie
dinastiis
dincj
dino
dio
diocesi
diocesis
diossit
dipartiment
dipendence
dipendents
dipent
dipint
diploma
diplomatic
diplomazie
diplome
dire
diret
direte
diretementri
direti
diretive
direto
direts
direzion
direzude
dirigjents
dirit
dirits
dis
disastri
disastrose
disavualita
disc
discjama
disco
discografiche
discographie
discography
discors
discos
discrete
discs
discussion
discussions
discut
discuvierte
dise
disegna
disen
disens
disenu
diseve
disevin
disevot
disfa
disfate
disgracie
disi
disin
disint
dismentea
disocupazion
disore
disot
dispe
dispes
dispiet
displaystyle
disponibil
disponibilita
disponu
disponudis
dispositi
disposizion
disposizions
dissendent
dissendents
dissens
dissepui
dissepul
dissiplina
dissipline
dissiplinis
dissoluzion
distaca
distance
distancis
distermina
distingui
distinguin
distinzion
distret
distrets
distribui
distribuzion
distrut
distruzion
distuda
disvilup
disvilupa
disvilupade
disvilupe
disvilups
dit
ditato
ditature
dite
ditoncs
dits
diu
dius
divegnin
diven
diventa
diventant
divente
divertiment
divi
dividi
dividin
dividu
dividude
dividudis
diviers
divierse
diviersis
diviersita
divigni
divignince
divignu
divignude
divin
divine
divinita
divise
divisibil
division
divisions
dizionari
dizionario
dj
dlh
dna
dnitz
do
doc
docent
document
documenta
documentade
documentari
documentazion
documents
dodi
dodis
dogne
doi
dolar
dolc
dolce
dole
dolegne
dolfin
dolina
dolo
dolomitan
dolomitic
dolomitis
doman
domanda
domandant
domandave
domande
domandis
dome
domeni
domenico
domenie
domina
dominant
dominante
dominazion
domine
domini
dominicane
dominis
domo
don
dona
donado
donald
donato
donau
donazion
dong
dongje
dons
dontri
dople
dopli
dopo
dopovuere
dopra
doprade
dopradis
doprant
doprave
dopravin
dopre
doprin
dora
dorf
dorino
doro
dos
dota
dotade
doto
dotrine
dotrinis
dots
douglas
dovaressin
dove
dovu
download
dra
dragon
dram
dramatiche
dramaturc
drams
drap
drau
drautal
dream
drec
dree
drencje
dresde
dret
drete
drets
dromensa
dt
dte
du
dua
duar
dub
dublin
duc
duca
duce
duche
duchis
ducj
due
duel
dula
dulintor
duncje
dura
durade
durant
durante
durara
dure
durece
duri
durkheim
durmi
dusinte
dut
dutca
dutchcharts
dute
dutis
dutrine
dutun
dvd
dvor
e
east
ebraic
ebraiche
ebraichis
ebraisim
ebreu
ebreus
ecc
ecezion
eceziona
ecidi
eclitic
eclitiche
ecologjie
economic
economiche
economichis
economics
economie
economiscj
economist
ecuador
ecuato
ecuazions
ecuilibrade
ecuilibri
ecuinozi
ed
eden
edge
edi
edicions
edifici
edificis
edit
edition
edito
editore
editrice
edizion
edizione
edizioni
edizions
edling
edt
educati
educazion
edward
eeprom
eferding
efeso
efiet
efiets
egg
egjit
egjizian
egjizians
egloghis
ei
ein
einaudi
ek
el
elabora
elaborazion
ele
elegiis
element
elementa
elements
elena
elenc
eleniscj
elenisim
elenistic
elenistiche
elet
eletora
eletric
eletriche
eletrichis
eletricita
eletrics
eletromagnetiche
eletromagnetichis
eletronic
eletroniche
eletrons
elets
elevade
elezion
elezions
elfs
eli
elimina
eliminazion
eline
elio
elipuart
elisa
elisabete
elizabeth
ellero
els
elvetiche
emancipazion
emergjence
emigra
emigrants
emigrazion
emile
emilia
emilie
emilio
emisferi
emission
emoglobine
emozion
emozions
emptyset
en
enciclopedia
enciclopedico
enciclopedie
encje
encyclopedia
end
enea
enee
eneide
enemonc
energjie
engels
english
eni
enns
enrico
ent
entita
entomologjie
entre
ents
enzo
ep
epatite
epic
epiche
epicureisim
epidemie
epifanie
epigrams
episcopa
episodi
epo
epoche
epsilon
era
ercole
ercul
ere
eredita
ereditarie
eren
eric
erin
ermacore
ermanno
ermes
ernest
ernst
ero
eroi
erois
erudizion
eruzion
eruzions
erzegovine
es
esam
esametris
esatementri
escarre
esch
escludu
esclusivementri
ese
esecuti
esecuzion
esegui
eseguide
esempio
esempla
esempli
esemplis
eserci
esercit
esercita
esercito
esercits
esercizi
esercizis
esili
esilia
esim
esiodi
esist
esiste
esistence
esisteve
esistevin
esisti
esistin
esistu
eso
esodi
espan
espansion
esperanto
esperience
esperiencis
esperienza
esperiments
espert
esperts
esplica
esplora
esplorado
esplorazion
esplorazions
esplosi
esplosion
espon
esponent
esponents
esposizion
espresion
espression
esprim
esprimi
essenzia
essere
est
esta
este
estension
esterne
esterni
esternis
esti
estinzion
estive
estonie
estrazion
estrem
estreme
estrems
estro
et
eta
etar
etars
etc
ete
eterne
eterni
eternita
ethnologue
etiche
etichete
etimologjie
etiopie
etis
etniche
etnografic
etrusc
etruscs
ettore
eu
eucarestie
eugenio
euler
eur
eurasie
euro
europe
european
europeane
europeanis
europeans
euros
eurostat
eurozone
eusebi
evan
evangjelist
evans
event
events
evidence
evident
evita
evoluzion
ex
exec
expositur
exposituren
ez
ezio
f
fa
fabi
fabian
fabio
fabrica
fabricazion
fabriche
fabrichis
fabris
fabrizio
fac
facebook
faci
facil
facile
facilita
facilmentri
facolta
fade
fadie
faedis
faggin
fagus
fai
fal
fala
fale
faliment
fals
falu
fame
famee
fameis
familia
famo
famose
famosis
fan
fana
fane
fantarie
fantasie
fantat
fantate
fantatis
fanzine
far
fara
faraon
faraons
fare
fari
farie
farine
fas
fasara
fasaran
fase
faserin
faseve
fasevin
fasi
fasin
fasint
fasintlu
fasis
fassa
fasse
fassis
fassiscj
fassisim
fassist
fassiste
fastidi
fastidis
fastu
fat
fate
fatis
fato
fats
faulis
faune
favetti
favo
favorevui
favori
favui
fc
fcent
fe
feagne
feat
fede
fedeli
fedelta
federa
federal
federalisim
federation
federazion
federazione
federico
fedri
feicht
feistritz
feldkirch
feldkirchen
fele
feletis
felic
felicita
felix
feltre
feltrinelli
femine
femini
feminin
femininis
feminis
fen
fenici
fenomen
fenomeni
fenomeno
fenomens
fer
ferade
feradis
ferare
ferdinand
ferdinant
feri
ferma
fermade
fermadis
ferme
fermentazion
fernando
feroviari
feroviarie
ferovie
feroviis
ferrari
ferraro
ferro
fersorie
fertilita
festival
feuda
feut
fevela
fevelade
feveladis
fevelant
fevelants
fevelave
fevelavin
fevele
fevelin
fevra
ff
fi
fia
fiabe
fiar
fibris
fiction
fide
fidel
fidri
fiducie
fie
fier
fiere
fieste
fiestis
fighting
figlio
figura
figurave
figure
figuris
fii
fiis
fil
file
filemon
files
filia
filip
filipets
filipinis
film
films
filologica
filologjiche
filologjie
filosof
filosofic
filosofichis
filosofie
filosofs
fimi
fin
fina
final
finalita
finalmentri
finance
financis
finanzia
finanziament
finanziaments
finanziari
finanziarie
finanziariis
finanziaris
fine
finece
fini
finide
finiment
finis
finissin
finland
finlande
finlandie
finnishcharts
fins
fint
fintramai
fintremai
fiorella
firefox
firenze
firma
firmatus
firme
firmin
first
fis
fisca
fisher
fisic
fisiche
fisichis
fisics
fisiologjie
fissa
fisse
fiume
flabe
flabis
flac
flag
flaiban
flambri
flambruc
flanc
flanders
flash
flavio
flk
flo
flore
florence
floride
flote
flottiglia
flu
flum
flumisel
flums
flus
fluvia
fo
foggie
fogola
foian
folclo
folk
folkest
fonda
fondade
fondadis
fondado
fondament
fondamenta
fondaments
fondant
fondato
fondazion
fonde
fondin
fondis
fondo
fonetic
foni
font
fontane
fonts
football
for
forall
foran
forcele
forescj
forest
foresta
foreste
forestis
forgjarie
forin
forli
forma
formade
formadi
formadis
formant
formazion
formazions
forme
forment
formin
formis
formula
formulazion
formule
formulis
fors
forsi
forsit
fortificazions
fortuna
fortune
forum
forza
fos
fossalte
fossii
fossin
foto
fotograf
fotografiche
fotografie
fotografiis
fotos
foundation
fr
fra
frac
fradi
fradis
framiec
franc
france
francesc
francesco
francese
francesis
francis
francisco
franco
francombat
franconie
francs
frank
franklin
frant
franti
franz
frari
frase
frasis
frattempo
frau
frazer
frazion
fraziona
frazions
fre
frece
frecuence
frecuent
frecuenta
frecuente
fred
frede
free
freedom
freestyle
fregul
freistadt
frenos
frente
fresc
frescje
frescs
friaul
frico
friedrich
frisanc
friu
friul
friulana
friulane
friulani
friulano
friuli
friulian
from
front
fronta
frontiere
fruc
frut
frute
frutis
fruts
fs
fu
fuarce
fuarcis
fuart
fuarte
fuartece
fuartis
fuarts
fueis
fughe
full
fulvio
fum
fumate
fumut
fumuts
funera
funerari
funzion
funziona
funzionament
funzione
funzions
fur
furio
furioso
furlan
furlana
furlane
furlanie
furlanis
furlanist
furlans
furni
fusine
fusion
futu
future
fvg
g
ga
gabriel
gabriele
gaelic
gaeltacht
gaetano
gai
gail
gailtal
gaio
gaius
gal
galarie
galassie
galassiis
gale
gales
galie
galilei
galileo
galizian
gallo
galo
galon
galuppi
gambia
gambiament
gambiaments
gambiant
gambie
ganch
gandalf
gangemi
garanti
garbe
garci
garde
gardena
gardiscje
gare
garibaldi
garis
garlatti
gas
gasso
gatti
gazzettino
gb
ge
gei
gelem
gemeinden
gena
genar
genars
genera
genie
gennep
gente
geografico
georg
george
georgen
georgia
georgichis
geq
gerais
germany
gfdl
ghet
ghil
ghitare
ghitaris
ghitarist
gi
gia
giacomini
giacomo
giampaolo
gian
giancarlo
gianfranco
gianluca
gianni
gilberto
gilez
gino
giobatta
giorgio
giornale
giorni
giorno
giosue
giotto
giovanna
giovanni
gioventu
girl
giro
girolamo
giulia
giulio
giuseppe
giusto
gj
gjai
gjal
gjalats
gjambe
gjambis
gjapon
gjapone
gjat
gjava
gjavade
gjavadis
gjavant
gjave
gjee
gjeloc
gjenar
gjenars
gjenera
gjeneralmentri
gjenerazion
gjenerazions
gjenesi
gjenetic
gjenetiche
gjeni
gjenito
gjenove
gjenue
gjeograf
gjeografic
gjeografiche
gjeografichis
gjeografics
gjeografie
gjeolic
gjeologjiche
gjeologjie
gjeometrie
gjermanic
gjermaniche
gjermanichis
gjermanie
gjerusalem
gjesti
gjestion
gjesu
gjesuits
gjir
gjiviane
gjoldi
gjolt
gjorna
gjornaliscj
gjornalist
gjuliani
glac
glace
glacia
glan
glanegg
glanz
gleisie
glemone
gleseute
glesie
glesiis
gli
globa
globalizazion
globui
glorie
gmt
gmunden
gn
gnece
gnesau
gno
gnocis
gnognosaurs
gnot
gnove
gnovis
gnu
gnuf
go
goia
gol
golaine
gold
goldberg
golf
gols
gome
gomis
gona
gonars
gone
gonfalon
good
gora
gori
goric
gorica
goritschach
gorizia
gortan
gortani
gotic
gotiche
gotis
gottfried
gousk
governa
governado
governati
governativis
governato
governi
governo
gra
graben
grac
gracie
graciis
gradenigo
gradisca
gradiscje
grafic
grafiche
grafie
grafiis
gram
gramatiche
grammatica
grams
gran
granade
grancj
grand
grande
grandece
grandecis
grandi
grandis
grandonone
granduca
granduche
grant
grappa
grasse
grassi
grati
gratis
grau
grave
gravita
graz
graziadio
grazie
graziis
gre
grec
greca
greche
grechis
grecie
greek
greghe
gregori
gregorian
gregoricchio
grevenmacher
gri
gries
griffen
grima
grimani
grise
grison
grisons
grisostomo
grivo
gro
groenlande
groenlandie
grop
grops
group
gru
grua
grues
gruesse
gruessis
grum
grup
grups
gu
guangxi
guarient
guart
gubane
guere
guerra
guglielmo
guida
guide
guido
guillaume
guinee
gurizan
gurize
gurk
gust
gusta
guvia
guvie
guvier
guvierna
guviers
h
ha
haag
habe
haiti
hall
hamferð
han
hanoi
hapkido
hard
harris
hart
hartberg
hausruck
have
hawaii
haydn
he
heart
heavy
hebrew
heinrich
helsinki
hemingway
henri
henry
herbert
hermagor
hermann
herzegovina
hex
hi
hindi
hinterberg
hip
hirschbach
historia
historiae
history
hitler
hitparade
hl
hlbach
hldorf
hlkreis
hmv
ho
hobby
hobit
hochrindl
hockey
hof
hofer
holz
home
homo
hong
honsell
hop
horizonte
hotel
htm
html
http
https
hu
huang
hudson
hundsdorf
hung
hutchinson
hyksos
i
ia
iberiche
iberichis
ibm
ic
ich
id
idea
idee
ideis
identifica
identifiche
identita
ideologie
idioms
idiu
idri
idrogjen
ie
ienfri
iessi
if
ifpi
ii
iii
ikurrin
il
iliade
ilimita
ill
ilustra
ilustrazions
im
imagjin
imagjina
imagjinarie
imagjine
imagjinis
imagjins
imberdeade
imdb
imigra
imigrazion
imita
imitazion
immagine
imni
imorta
imortalita
impara
impare
imparin
impast
impat
impedi
impegn
impegna
impegnade
impen
imperado
imperato
imperi
imperia
imperialisim
imperis
impia
implant
implanta
implants
implea
implei
impliche
imponent
imponi
important
importants
impostazion
imprendito
impresari
imprescj
imprese
impresis
impresona
impressiona
imprest
imprin
improibi
improibizion
impuarta
impuartance
impuartancj
impuartant
impuartante
impuartantis
impuartants
impuls
impussibil
in
ina
inamora
inaugura
inc
incarga
incarghe
incaric
incendi
incensa
inchieste
incident
incjarie
incjaroi
inclu
includeve
includin
includu
includude
incolpa
incoragja
incoragjament
incoragje
incorona
incoronazion
incressi
incressite
incrosa
incuinament
incuintri
inculurit
incursions
ind
indau
indenant
indevant
index
indi
indian
indians
indica
indicade
indicave
indicazion
indicazions
indiche
indichin
indie
indipendence
indipendent
indipendente
indipendentis
indipendents
individua
individui
individuis
indo
indoeuropeanis
indonesia
indonesie
indrec
indri
induisim
indula
industria
industrie
industriis
inedite
infanzie
inferio
inferiormentri
infezion
infier
infin
infini
influenc
influence
influencis
influenza
influi
info
informa
informatic
informatiche
informazion
informazions
infrastruturis
infty
infu
inghiltere
ingle
inglese
inglesis
ingletiere
inie
iniment
inizi
inizia
inizialmentri
iniziative
iniziativis
inmanea
inmaneade
inmo
inn
innkreis
inno
innomena
innomenade
innomenadis
innsbruck
inovative
inovazion
inovazions
inprin
insedia
insediament
insediaments
insegna
insegnament
insegnaments
insegnant
insegnants
insegne
inseri
insets
insieme
insiemi
insiemis
insiemit
insiora
insom
insomp
inspira
inspiradis
inspirazion
instala
inste
institui
institut
institute
instituto
insurezion
int
inta
intai
intal
intant
inte
integra
integrazion
integrita
inteletua
inteligjence
inten
intensita
intent
intenzion
intenzions
inter
interazion
interazions
interdinta
intere
interes
interessa
interessant
interessante
interessantis
interessants
interesse
interfacis
interie
interlingua
interna
international
internaziona
internazionale
interne
internet
interni
internis
interpreta
interpretazion
interpretazions
intersezion
interstela
intervai
interval
intervent
intervents
interview
interviste
intervistis
intes
intese
inti
intiere
intindi
intindin
intindu
intindude
intint
intire
intitula
intitulade
into
intor
introdot
introdusi
introdusu
introdusude
introduzion
intun
intune
invade
invadi
invadin
invadu
invadude
invasion
invasions
inventa
inventade
inventadis
invento
invenzion
inverna
investigato
investigazion
invezit
invia
invida
invidie
invie
invier
inviers
invuluc
inzegnerie
inzegni
inzirli
io
ion
ipotesi
ipotesis
ippolito
iprage
irachen
iran
iraq
iraziona
iregola
irish
irlande
irlandese
irma
iroche
iron
ironie
is
isaac
isabele
isac
isaia
isaie
isbn
iscrizion
ise
islam
islamic
islande
iso
isola
isolade
isolament
isole
isonzo
isotop
isotops
ispeto
ispira
ispirade
ispiradis
ispirazion
israe
israel
israeli
israelitis
ist
ista
istanbul
istat
iste
istes
istitu
istitui
istituide
istituto
istituzion
istituziona
istituzions
istmi
istorie
istoriis
istrie
istroments
istruzion
istruzions
isule
isulis
it
ita
italia
italian
italiana
italiancharts
italiani
italiano
italic
italiche
italics
italie
italo
italy
itinerari
itunes
iulia
iupac
iv
ivan
ix
j
ja
jackson
jacob
jacop
jacopo
jacques
jacum
jacuma
jae
jakob
jam
james
jan
janeiro
january
japan
jaroni
jazz
je
jean
jedi
jempla
jenfri
jentra
jentrade
jentradis
jentrant
jentre
jentri
jentrin
jeova
jerbis
jere
jeri
jerin
jeroglific
jeroni
jerusalem
jes
jessi
jessint
jessisi
jessu
jessude
jessudis
jesu
jesus
jet
jeva
jevade
jeve
jezeru
ji
jo
joachin
joan
joe
joh
johann
john
joi
joibe
jonathan
jone
jordan
jose
josef
joseph
josip
jouf
joule
journal
jpg
ju
juan
juda
jude
judenburg
judeus
judic
judica
judin
judite
judizi
judiziari
judizio
judiziose
judri
jugn
jugosla
jugoslave
jugoslavie
jules
juli
julia
julian
julie
juliis
julius
jump
juni
junon
jupitar
juridic
juridiche
jurie
jurisdizion
jurisprudence
jus
juscj
just
juste
justifica
justizie
jutori
juventus
k
ka
kai
kali
kappa
karate
karl
karma
kde
kelvin
kennedy
kenpo
kepler
kernel
kg
ki
kick
kim
king
kirchbach
kirchberg
klagenfurt
klo
km
kmq
knittelfeld
know
ko
koine
konarski
kong
konrad
kot
krappfeld
krasnodar
krems
krottendorf
ku
kulm
kuro
kurt
kv
kyodan
l
la
laboratori
laboratoris
labrador
lad
lade
ladin
ladina
ladine
ladini
ladinie
ladinis
ladino
ladins
ladis
lagnul
lago
lagune
lalli
lamuela
lance
land
landeshauptmann
landeshauptstadt
landkreis
landtag
lane
langobarde
langobardorum
langobart
langobarts
language
languages
lant
lara
larc
larcs
largje
largjece
largjis
larin
laris
las
lassa
lassade
lassant
lasse
lassin
lat
latarie
latera
latin
latina
latine
latinis
latins
latitudin
latschach
lauc
lauda
laura
laure
laurea
lauree
laurenzi
laurinc
lauro
lava
lavanttal
lave
lavin
lavo
lavora
lavorado
lavorant
lavorave
lavorazion
lavore
lavorin
lawrence
lazi
lazio
lazzarini
le
lea
leade
leader
leadis
leam
leams
lec
lech
lee
left
lega
legalmentri
legge
leggende
leghe
legjislati
legjislazion
legjon
legjons
legnam
lei
leibnitz
leibniz
leiende
lein
lelo
len
lenart
lenga
lengac
lenghe
lenghis
lenghistic
lenghistiche
lenghistichis
lenghistics
lenin
lens
leo
leoben
leon
leonard
leonardo
leonart
leone
leonhard
leopardi
leopold
leq
les
lesachtal
lescharts
lessic
let
letare
letaris
letera
leteradure
leteralmentri
leterari
leterarie
leteraris
leterature
leto
letonie
lets
letteraria
letteratura
lettere
leture
leturis
levan
leve
levi
levin
levitic
lexical
lez
lezions
li
libar
libare
libars
liber
libera
liberade
liberal
liberazion
liberta
liberty
libie
libret
libri
libris
libro
libruts
licence
licencis
liceu
licini
lico
licuit
licuits
lidri
lie
liechtenstein
liende
liendis
liet
liezen
life
light
lignan
ligure
ligurie
like
limit
limita
limitade
limitadis
limits
lin
lind
line
linea
linee
lingua
lingue
linguis
linguiscj
linguist
linguistic
linguistica
linguistiche
linguistichis
linguistics
linie
liniis
link
lino
linus
linux
linz
lipa
lipsie
lire
liriche
lis
lisbone
lise
lissandri
lista
liste
listis
listize
liti
litora
litosfere
litri
lituanie
liturgjie
liu
liussu
liuta
live
livel
livence
liverpool
livi
livinallongo
livio
livre
livri
lize
lizere
lkermarkt
ll
llengua
ller
lling
ln
lo
loc
loca
localita
localizazion
locomotive
lodris
loga
logade
logadis
logjiche
logos
logy
lombardie
lombardo
lombart
london
londre
long
lontan
lontane
lontanis
lontano
lor
lord
lore
loredan
lorenzen
lorenzo
loris
los
lost
lote
lotis
lotta
loud
louis
love
low
loze
lp
lr
ls
lt
lta
lu
lubiane
lublin
luca
lucan
lucanie
luche
luchini
luci
lucia
luciano
lucili
lucio
lucius
lucrezi
ludovi
ludui
ludwig
lui
luigi
luis
luj
luka
lumie
lumiei
luminose
luminosita
luna
lunc
luncmetrac
lune
lungau
lungje
lungjece
lungjis
lunis
luogo
lurinc
lus
lusazie
luse
lusemburc
lusemburghes
lusinc
luso
lussemburc
lussemburghe
lustri
luter
luterane
luteranisim
luterans
lutero
lutezi
luther
lutignint
luviee
luzie
lvov
lz
m
ma
mac
macedonie
machine
machinis
macmillan
madalene
made
madone
madrac
madrid
madure
maestre
maestro
magari
magazine
magdalensberg
magenta
maggio
magjic
magjie
magme
magn
magna
magnan
magnetic
magnitudin
magno
magre
maha
mahasz
mai
maian
maiden
maie
maieron
mainardis
maine
maio
maiorance
maiorant
maiorants
maiuscul
majo
making
mal
mala
malatie
malatiis
malborghe
malghe
malignani
malinowski
mallorca
malo
malta
malte
mame
mamifars
man
manchester
mancja
mancjance
mancje
mancjin
mancul
manda
mandade
mandadis
mandament
mande
mandi
mandola
mane
mangja
mangje
mangjin
mani
mania
maniacco
maniere
manieris
manifest
manifestazion
manifestazions
manifesto
manin
manitoba
mannheim
mannoia
manovre
mans
manten
manteniment
mantigni
mantignint
mantignu
mantignude
mantue
manua
manuela
manutenzion
manx
manzan
manzoni
maomet
map
mape
mar
maran
maranc
marangon
maraveo
marc
marca
marcel
marcello
march
marche
marchet
marchetta
marchi
marchis
marcja
marcjanziis
marcje
marco
marconi
marcus
mare
maree
mareis
maressial
margarethen
margo
mari
maria
marian
mariane
marida
maridade
marie
marilenghe
marin
marina
marine
marinelli
marino
marinoni
mario
marktgemeinden
marmul
maroc
marquart
mart
marta
martar
martare
martars
martigna
martin
martini
martiri
marx
marxisim
marxiste
mary
marzia
marzo
mas
mascare
mascaris
maschio
mascjo
mascjos
masculin
masculins
masse
massic
massim
massime
massimilian
massimiliano
massimo
massims
mat
matematic
matematica
matematiche
matematichis
matematics
materia
materialisim
materie
mateu
mathbb
mathcal
mathematics
mathrm
matieu
matine
matrimoni
matteo
mattighofen
maturita
mau
maur
mauri
maurizio
mauro
mausoleu
mauss
mauthen
max
maxwell
may
mazzini
mbox
mc
me
mead
mecanic
mecaniche
mecanisim
mecanizazion
mecca
mecena
medae
medaie
medi
media
mediane
mediant
mediawiki
mediche
medici
medie
medien
medieva
mediis
medisine
meditazion
mediterani
meets
meghiddo
mein
mekong
mela
melbourne
melodie
membri
membris
memorea
memoria
memorie
memoriis
memory
men
mena
menac
mene
meni
menocchio
menot
mensi
ment
menta
mentalita
mentri
menzon
meracul
merak
meran
merci
mercier
mercuri
mercury
mere
merecan
merecane
merecans
meridian
meridiona
merit
meroi
mese
mesolitic
mesopotamie
messa
messac
messaggero
messe
messeda
messedant
messede
messic
messico
messie
messine
mestre
mestri
mestris
met
meta
metai
metal
mete
meteorologjic
meterin
meteve
meti
metin
metint
metisi
metnitz
metodi
metodis
metri
metriche
metris
metropoli
metropolitane
metros
metrots
metu
metude
metudis
mezane
mezans
mff
mg
mi
mia
michael
miche
michel
michelangelo
michele
michelotti
micje
mickiewicz
microsoft
micura
midiant
midisine
midun
midune
miec
miedi
miedis
miei
mieli
miercus
mieze
miezegnot
mig
migjee
migrazion
mil
milan
milano
mile
mileni
milesims
miliarts
milion
milions
milita
militar
militarmentri
milizie
miller
million
millstatt
miluc
min
minado
minas
minera
minh
mini
minieris
minigutti
minim
minime
minis
ministeri
ministrazion
ministri
ministris
mino
minorance
minorancis
minorants
minoritarie
minoritariis
mintri
minu
minuscul
minuscule
mio
mion
miora
miorament
mirbeau
misclic
misdi
misericordie
miserie
mission
missionari
missionaris
missus
misterio
misti
mistiche
misture
misura
misurazion
misure
misuris
mita
miti
mitili
mitologjie
mitri
mitterberg
mitu
mitude
mixxtape
mm
mo
mobilita
modalita
mode
modei
model
modele
modera
modern
moderne
moderni
modernis
modifica
modificade
modificazions
modifiche
modifichis
modo
modotti
moise
mol
mola
moldavie
mole
molecola
moleculis
molise
moll
moltiplicazion
moment
moments
monaco
monai
monarchie
mondadori
mondia
mondial
mondiale
mondo
mondovi
monede
monedes
monedis
monetarie
monfalcon
mont
monta
montade
montagne
montagnis
montagno
montagnose
montalban
montane
monte
montello
montena
montevideo
montneri
montrea
monts
monument
monumenta
monuments
moore
moos
mora
morandini
morat
moravie
more
moretti
morfologjie
morgan
moro
morsan
morta
mortean
moru
mos
mosaic
mosaics
mosche
mose
moseley
mosse
most
mostra
mostrant
mostre
mostri
mostrin
mostris
mot
moti
motivazion
motivazions
moto
mots
mountain
moviment
movimento
moviments
movin
movisi
moz
mozart
mozilla
mp
ms
mt
mtv
mu
muart
muarte
muarts
muc
muda
mude
muec
mugle
muimans
muini
mulin
multimedia
munic
municipi
munisti
mur
muri
muririn
muris
mus
muse
museu
museus
music
musica
musical
musicale
musiche
musichis
musiciscj
musicist
musicline
musicologjie
musicoterapie
musik
musique
mussolini
musulman
musulmans
my
myles
myo
myricae
myspace
n
na
nada
nadison
naie
nam
nancje
nang
nanui
nape
napoleon
napoleonic
napoleoniche
napoleonichis
napoli
napul
narative
narazion
nas
nasave
nassara
nassau
nasse
nassi
nassin
nassite
nassu
nassude
nassudis
nati
national
natisone
natisse
nativita
nato
natura
naturalis
naturalist
naturaliza
naturalmentri
nature
nau
nava
navade
navadis
navarons
navigado
navigazion
nazareth
nazion
naziona
nazional
nazionale
nazionaliscj
nazionalisim
nazionalist
nazionaliste
nazionalita
nazions
naziscj
nazist
naziste
nazzi
ncia
nd
nder
ndi
ne
neare
necessari
necessarie
necessita
necker
necuito
negati
negative
negro
negrons
nei
nel
nell
nella
nelle
nema
nemi
neolitic
neologjisims
nere
neri
neris
neron
nert
nestre
nestri
nestris
net
neta
nete
network
neudorf
neuhaus
neukirchen
neumarkt
neutra
neutri
neutrons
nevi
nevo
new
news
newton
ng
nha
ni
nia
niccolo
nico
nicola
nicolas
nicolau
nicolo
niculau
nie
nielsen
nievo
night
nikolai
nimis
nin
ninine
nirva
nirvana
nissun
nissune
nivei
nivel
nl
nm
nn
no
noaltris
nobel
nobii
nobil
nobile
nobilia
nobilis
nobilta
noe
noemi
nogla
noia
nol
nole
nom
nome
nomena
nomenade
nomenadis
nomi
nomina
nomine
non
none
nono
nonostant
nons
nord
nordic
nordovest
norimberghe
norma
normale
normalizazion
normalmentri
normative
norme
normis
nort
north
norvegje
norwegian
norwegiancharts
nos
nostra
nostro
not
nota
notazion
note
notevul
notis
notizie
notiziis
notte
nova
novante
novara
nove
novella
novelle
novembar
november
novesim
novesime
novi
novita
now
nozions
ns
nster
nt
nts
nu
nubie
nuclea
nucli
nuer
nuie
nuje
numa
numar
numars
numerazion
numeri
numeriche
numerics
numero
numerosis
numidie
nunavut
nunciel
nuova
nuovi
nuovo
nus
nz
o
ob
obedience
oben
oberdorf
oberndorf
oberpfalz
obieti
obituary
oblea
oblic
obres
oc
ocasion
ocasions
occidenta
ocean
oceanie
oceans
ocident
ocidenta
ocitan
ocitane
ocje
ocjis
octave
ocula
ocupa
ocupade
ocuparin
ocupazion
ocupe
ocupin
odia
odio
odissee
odisseu
odo
of
ofensive
official
oggi
ogjet
ogjets
ogni
ognidun
ognidune
oh
oi
ois
ol
ola
olande
olandese
old
oldid
olee
olf
olimpiadis
olimpics
olinto
olmis
oloferne
oltre
oltri
om
ome
omonim
omonime
omp
omps
oms
on
oncolan
onde
ondis
one
ong
ongjare
ongjarese
ongjaresis
ongjarie
ongjars
oni
online
only
ono
onora
onore
ons
ontario
onu
op
opare
oparis
opec
open
openoffice
opera
operado
operari
operaris
operati
operazion
operazions
opere
operis
opinion
oponu
oposito
oposizion
opression
opuest
opule
or
ora
orari
orato
oratori
oratorie
orazi
orazion
orazions
orbite
orbitin
orchestra
orchestre
ordena
ordenade
ordenado
ordenari
ordene
ordin
ordinament
ordins
ore
oresin
org
organ
organic
organiche
organics
organisim
organisims
organist
organiste
organiza
organizade
organizadis
organizado
organizant
organization
organizazion
organizazions
orghin
orghins
orient
orienta
orientale
origin
origina
original
origins
origjin
origjina
origjinari
origjinarie
origjinaris
origjine
origjinis
origjins
origjne
oris
orizont
orizonta
orlando
orlant
orloi
orlois
ormai
oro
ors
ort
ortal
ortensi
ortodosse
ortodossie
ortografic
orut
os
oscar
oslavie
oso
osovans
ospeda
ospita
ospite
osserva
osservado
osservazion
osservazions
ossiach
ossigjen
ostarie
ostilita
oswald
ot
ota
otante
otave
otavian
otegni
oten
otic
otiche
otigni
otignint
otignu
otignude
otmar
otoman
ottawa
otto
otubar
ou
ova
over
overline
ovest
ovidi
ovidio
oxford
p
pa
pablo
pachelbel
pachis
pacific
pacifico
pacifist
pacuvi
padane
padre
padue
pae
paesac
paese
pag
pagane
pagans
pagine
pagjina
pagjine
pagjinis
pagna
pai
paia
paiament
paie
pais
paisac
paisut
paja
pal
pala
palac
palata
palatin
palatina
palazzo
pale
paleolitic
paleontologjie
palermo
palesa
palese
palestine
palladio
palme
palu
paluce
pan
panama
paname
pandi
pandu
pandude
pandudis
panel
panorame
panoramiche
pant
pantan
paoli
paolo
papa
pape
papis
par
para
parade
paradi
paragona
paraguay
parale
paraltri
paratore
parave
parc
parce
parceche
parcussion
pardabon
pardut
pare
pareve
parfin
pari
parie
parincj
parinta
paris
parisi
parita
parker
parlament
parlamenta
parme
paro
parochia
parochie
parochiis
parole
paron
paronance
parone
parons
parsore
part
partant
parte
partecipa
partecipant
partecipazion
partecipe
partecipin
partei
partence
partesans
parti
particola
particolarita
particolarmentri
particula
particularmentri
partide
partidis
partigjan
partigjane
partigjans
partint
partissin
partistagn
partito
parts
parvie
parzia
parzialmentri
pas
pasa
pasche
paschini
pascoli
pascutti
pasian
pasolini
passa
passac
passade
passant
passariano
passarin
passave
passe
passi
passin
passion
passions
passon
passons
paste
pasto
pastora
pat
patagonie
patatis
pati
patria
patriarca
patriarcja
patriarcje
patriarcjis
patrie
patrimoni
patriot
patron
patrons
pats
patui
paul
paula
paule
pauli
paulin
paulo
pavie
pc
pdf
pe
pec
pecja
pedagogjie
pedai
pedarc
pelegrin
pelegrinac
pelegrins
pelle
pellis
pena
penc
penco
pendence
pene
penisule
penitince
pensa
pensade
pensado
pensave
pense
pensi
pensin
pentateuc
penze
people
per
peralbe
peraule
peraulis
percentua
percezion
perche
percors
percoto
percude
perdere
perdon
peresson
perfect
perfete
pericolo
pericui
pericul
periferichis
periferie
periodi
periodic
periodiche
periodis
periodo
permanence
permanente
perme
permet
permete
permeterin
permeti
permetin
permetu
pero
perpendicola
persecuzion
persecuzions
perseguita
persi
persona
personac
personalita
persone
personis
persuasion
peru
pes
pesant
pesante
pesants
pesariis
pesarine
pescje
pessoa
peste
pet
petai
petec
peter
petracco
petrarca
petroli
petroni
petterle
pfaffing
pfs
phantoms
php
phu
pi
pia
pianist
piano
pianoforte
piardu
piazza
pic
piccola
piche
pichl
picja
pidade
pidadis
pie
piel
piemont
pier
piera
pierc
pierde
pierdi
pierdin
pierdite
pierdu
pierdude
pierdudis
piere
pieri
pieris
pierluigi
piero
pierre
piert
pieta
pietro
pieve
pighin
pignaru
pil
pilastris
pilote
pinc
pins
pinsi
pio
pioni
piore
pioris
pipins
piramide
piramidis
pirk
pirona
piruc
pise
piste
pistis
pitagore
pito
pitost
pittana
pittini
pitura
piturade
piture
pituris
piu
pivot
pizzul
pl
pla
plac
place
placerean
plan
planc
plane
planet
planetaris
planete
planets
planificazion
planis
plans
planta
plante
plantis
planure
plase
plaseve
plasme
plastiche
plat
plata
platin
platinum
platon
plats
plaut
ple
plea
plebe
plen
plene
plenis
plens
plevan
plini
plinio
plinius
ploie
ploiis
plomp
plui
pluitost
plume
plura
plurilenga
pluso
pluton
pm
pn
po
poc
poca
pocje
pocjis
podara
podaran
podare
podaressin
pode
podedi
podedin
podeve
podevin
podgora
podgrad
podi
podin
podopo
podrecca
podu
poe
poem
poeme
poemis
poems
poesia
poesie
poesiis
poete
poetic
poetiche
poetis
poi
poia
poie
pola
polac
polache
polche
pole
polea
polemiche
polemichis
polente
poli
polibi
polifonie
polion
politi
politic
politiche
politichis
politics
politische
polizie
polo
polonie
polpe
polsa
polse
polvar
pome
pomis
pompei
pompeo
pompeu
pomponi
pon
pongau
pont
pontaibe
ponte
pontebane
pontebe
pontefic
ponteibe
pontis
ponts
pop
popola
popolade
popolar
popolare
popolari
popolarita
popolazion
popolazions
popolo
popon
popui
popul
population
pordenon
pordenone
porpe
port
porta
portelis
porto
portogruaro
portugal
portughe
porzion
pos
poseidon
positi
positive
posizion
posiziona
posizions
posse
possent
possibil
possibilita
post
posta
potence
potencis
potent
potents
potenzia
pound
power
poz
pozzo
pp
pr
pra
pradaman
praghe
pramaio
pratica
praticade
praticants
pratiche
pratichis
pratics
pre
prea
prealps
preambul
prece
precedent
precedentis
precedents
precets
preci
precipitazions
precise
precisementri
precision
precisis
precurso
prede
predi
predia
predicazion
predicja
predicjado
predicje
predis
prefazion
preferi
prefet
prefi
preiere
preieris
preistorie
prelimina
premaria
premi
premia
premiade
premio
premis
premure
preon
prepara
preparazion
preposizions
prepot
pres
presbiteri
prese
presea
preseade
preseave
present
presenta
presentave
presentazion
presente
presentin
presepi
presi
presidence
president
presidents
presince
presinciste
presint
presinte
presintis
presints
presit
preson
presoni
presonie
press
pressac
pressegger
pression
pressions
presso
prest
presta
prestigjo
prestit
pretesis
preti
pretori
prevalence
prevalentementri
previodu
previodude
prevision
pri
prim
prima
primari
primarie
primaris
prime
primevere
primis
primitive
primo
prin
princip
principa
principai
principalmentri
principesse
principi
principis
princips
prins
prionte
prissinins
pritchard
priva
privade
privadis
privilec
pro
probabil
probabilmentri
problematichis
probleme
problemi
problemis
problems
proce
procediments
proces
procession
processo
proclama
proclamade
proclamazion
proclame
prodot
prodots
produ
produsi
produsin
produsu
produti
produtivis
produto
produzion
produzione
produzions
prof
profesiona
profeso
profession
professiona
professionist
professo
professor
profete
profetis
profezie
profeziis
profita
profitant
profonde
profondita
profont
progjet
progjeta
progjets
program
programazion
programe
programs
progre
progressi
progressive
proibi
project
proletaria
promesse
promet
prometu
prometude
promo
promovi
promovu
promovude
promozion
pronon
pronons
pront
pronta
pronte
pronts
pronuncia
pronuncie
pronunzie
propagande
propi
propie
propieta
propit
propite
propon
propone
proponu
proponude
proposit
propp
propri
proprie
proprieta
proprietaris
propris
propueste
propuestis
prorastar
prose
prosperita
prospetive
prossim
protagoniscj
protagonist
protagoniste
proteinis
protestant
protestante
protestantesim
protestants
proteste
protestis
proteto
protezi
protezion
protezude
protocol
protons
prototip
prova
prove
proverbis
providence
province
provincia
provincie
provinciis
provincis
provio
proviodeve
proviodi
proviodu
proviodude
provis
provisoriementri
provoca
provoche
prunus
prussie
pseudonim
psicologjie
pt
pu
puar
puare
puareta
puaris
puars
puart
puarta
puartade
puartadis
puartant
puartara
puartarin
puartave
puartavin
puarte
puarti
puartin
puartis
puarts
pubblica
publi
public
publica
publicade
publicadis
publicant
publicazion
publicazions
publiche
publichis
publicita
publics
publio
publius
puc
pucinie
pue
puedi
puedin
puerto
pues
puescj
puest
pueste
pugjil
pugjila
pugn
pui
puint
puints
puitost
pulfar
pulie
pulpit
puni
puniche
punizion
punk
punt
puppo
purc
purcit
pure
purece
purita
purpu
purtrop
pus
pussibil
pussibile
pussibilita
putrops
q
qarabag
qia
qquad
quadrivium
qualchi
quando
quant
quarin
quarto
quasi
quatre
quatri
quattro
que
quebec
queen
quella
quello
questione
questo
qui
quindi
quint
quinti
quintilian
quinto
quiz
quoc
r
ra
raab
rabi
rabie
racconti
rachele
racuelte
radcliffe
radi
radiazion
radiazions
radica
radio
radios
rafael
raffaele
ragazzi
rai
raimondo
raimont
rain
rais
ram
ramac
ramacul
ramon
randeck
rap
rapper
rapresenta
rapresentade
rapresentadis
rapresentance
rapresentant
rapresentants
rapresentave
rapresentazion
rapresentazions
rapresente
rapresentin
rapuart
rapuarts
rare
raris
rassegne
ratifica
ratisbone
ravascle
ravene
raviei
raze
razia
raziona
rca
rding
re
rea
real
realiza
realizade
realizazion
realta
ream
reams
reana
reane
reazion
reazions
recensione
recent
recita
recording
records
recuisi
recupera
red
redazion
reddarmy
reddkaa
redipulie
reedition
referendum
refuda
refude
rega
regala
reggae
reggio
regia
regina
regio
regione
registrazio
regj
regje
regjie
regjim
regjine
regjist
regjistra
regjistradis
regjistrazion
regjistri
regjistrin
regjon
regjona
regjons
regn
regna
regno
regola
regolament
regolaments
regolarita
regole
regule
regulis
reichstag
reith
relati
relative
relativita
relazion
relazions
relicuiis
religion
religjo
religjon
religjons
religjose
religjosis
remanza
remix
ren
renanie
renato
renzo
repart
reparts
repertori
reperts
repubblica
republican
republicane
republicanis
republiche
republichis
republika
requiem
rerum
res
rescj
residence
residents
residenzia
resie
resinte
resistence
resiute
reson
resona
resonament
resons
responsabil
responsabilita
rest
resta
restade
restant
restara
restarin
restaur
restaura
restaurazion
restave
reste
resti
restin
resurezion
ret
rete
reto
retor
retoriche
retoromanzis
retrieved
retrotabula
revoluzion
rex
reziment
rfl
rg
rgb
rhead
rho
ri
ria
riaa
riach
riaj
rianz
ribaltade
ribei
ribelion
ribis
ric
rica
riccardo
rice
ricerca
ricerche
ricercjado
ricercje
ricercjis
riceve
ricevi
ricevido
ricevu
richard
richieste
richiestis
richinvelde
richter
ricjece
riclama
riclame
rico
ricogno
ricognossi
ricognossiment
ricognossiments
ricognossin
ricognossu
ricognossude
ricognossudis
ricolte
ricompense
ricordi
ricostitui
ricostrui
ricostruzion
ricuarda
ricuardant
ricuarde
ricuardin
ricuart
ricuarts
ridi
ridot
ridusi
ridusu
riduzion
rie
ried
riedo
rientre
riferi
riferiment
riferiments
riferissin
riforma
riformato
riforme
riformis
right
rigo
rigoro
rigorose
rigula
riguladot
rihanna
riis
rile
rilevance
rime
rimini
rimis
rimits
rimonte
rimontin
rimplac
rin
rinassiment
rinassimenta
rinassite
rindi
rindin
rindu
rinfuarc
rinfuarce
ring
rino
rinovament
rint
rio
riparti
ripartizion
ripristina
ripuarta
ris
risalt
risan
riscat
riscjaldament
riscje
riserva
risierva
risiervade
risolvi
risonance
risorse
risorsis
rispetivementri
rispiet
rispieta
rispieti
rispueste
rispuinde
rispuindi
ristret
ristruturazion
risulta
risulte
risultive
risultivis
risuriment
ritegnin
ritignu
ritira
ritirade
ritmi
ritrat
ritrats
ritrovaments
ritua
riu
riul
riuni
riunificazion
riunion
riunions
riva
rivade
rivadis
rivant
rivara
rivarin
rivave
rivavin
rive
rivedi
rivelade
rivelazion
rivendicazions
riviel
riviere
rivignan
rivin
rivis
rivista
riviste
rivistis
rivolte
rivoluzion
rivoluzionari
rivuarde
rivuardin
rivuart
riz
rizzi
rizzoli
rl
rm
rna
rnten
ro
roba
robe
robert
roberti
roberto
robis
roc
rock
rodi
rodolf
rodul
roger
rogers
rohrbach
roia
rojale
roll
rom
roma
romagne
romale
roman
romanc
romane
romanichis
romanie
romanis
romano
romans
romantiche
romanze
romanzis
rome
romeo
romp
roms
romul
ronald
ronchi
roncjis
ros
rosa
rosacee
rosacis
rosari
rose
rosean
roseano
rosental
rosis
rosse
rossi
rossini
rossis
rosso
rossonoemi
rotazion
rote
rotis
rottenstein
roubaix
roy
royal
roz
rs
rt
rth
rther
rtschach
rttemberg
ru
rubriche
ruda
rude
rudolf
ruede
ruedis
rumen
runic
rura
rus
russe
russel
russia
russie
rute
ruth
ruvi
ruvigne
ruvina
rv
rz
rzburg
rztal
s
sa
sabide
sac
sacchis
sacerdot
sacerdozi
saci
sacrament
sacrari
sacre
sacri
sacrifica
sacrifici
sacrificis
sacris
sacs
sagjist
sagjistiche
sagra
sagre
sahara
sai
saint
sal
sala
salacor
salade
salam
sale
sales
salieri
salisburghe
salo
salomon
salon
salt
salta
salte
salu
saluda
salusti
salva
salvadi
salvadie
salvadiis
salvadis
salvado
salvador
salvament
salvece
salzburg
sam
samee
samein
samuel
samvat
san
sanc
sand
sandri
sandro
sanita
sankt
sanremo
sanscrit
sansoni
sant
santa
sante
santiago
santifica
santissim
santissime
santita
santo
sants
santuari
sapade
sapience
sara
sarajevo
saran
sardegne
sardegnu
sare
sares
saressin
sarpint
sarto
sartori
sassina
sassinament
sassonie
satane
sataris
satelit
satelits
satire
saturni
saul
sauran
sauris
savalon
save
saveve
savevin
savi
savint
savo
savogne
savoie
savorgnan
savu
sbrissa
sburt
sburta
sburte
scambi
scambia
scambis
scancela
scandinavie
scandul
scarlatti
scarpe
scarpis
scene
scent
scha
schattseite
schede
scheme
schene
scherc
schi
schiado
schirie
schisme
scho
school
schu
schwarze
schweizer
science
scjalda
scjale
scjali
scjalis
scjampa
scjampade
scjampe
scjampin
scjars
scjarse
scjarsis
scjefin
scla
sclari
sclavanie
sclave
sclavis
sclavitu
sclavons
sclet
sclete
sclizza
sclopa
scluse
scognossu
scognossude
scolta
scoltado
scolte
scombate
scombati
scomenc
scomence
scomencin
sconfite
scor
scossis
scott
scoze
scozie
screade
scri
scrit
scrite
scritis
scrito
scritore
scrits
scritti
scriture
scrituris
scrive
scriveve
scrivi
scrivint
scrovegni
scu
scuadre
scuadris
scuadriscj
scuasi
scuasit
scudets
scuegnin
scuela
scuele
scuelis
scuen
scugne
scugni
scugnin
scugnirin
scugnive
scugnu
scuintri
sculto
sculture
sculturis
scuola
scuole
scure
scurte
scusse
scuvierc
scuviert
scuvierte
scuviertis
scuvierts
sdramassa
sdruma
sdrume
se
sea
search
sebastian
sec
secola
secoli
secolo
second
secondari
secondariis
seconde
secondo
secont
seconts
secretari
secuals
secuence
secui
secul
sede
sedean
sedi
sedin
sedis
sedon
see
segn
segna
segnai
segnala
segnalazion
segnaletiche
segnalin
segnave
segne
segni
segns
segont
segret
segretari
segrete
segu
seguac
segui
seguint
seguis
seguissin
seguit
seguite
seguiti
seguitivis
sei
sele
selezion
selo
semee
semena
semence
semencis
semi
semiconduto
seminari
semitic
semitiche
semplic
semplice
semplicementri
semplicis
semplicita
sen
sena
senado
senat
senato
sene
seneca
seneche
senis
sens
sense
sensibil
sente
sentence
senza
seont
separa
separade
separadis
separatore
separazion
separe
sepe
sepis
september
sepulcri
sequoyah
sera
serafini
serbie
sere
seregno
seren
serenissime
serf
sergio
seria
serie
sermon
serp
server
servi
servido
servizi
servizis
ses
sespa
sessante
sessua
sest
seste
set
setante
setemana
setemane
setemanis
setembar
setentriona
setim
setime
setminus
seto
sette
settembre
settimana
sezion
sezions
sfanta
sfere
sfilade
sflando
sfola
sfont
sfrancja
sfrutament
sfuarc
sfuei
sfueis
sgarfado
sgja
sgorlon
sgrifis
shakespeare
si
sia
siara
siben
sibilant
sicilie
sicu
side
sidera
sie
siei
sielc
siele
sielte
sieltis
sielze
sielzi
sielzint
sielzu
sielzude
sience
siencia
siencis
siene
sientific
sientifiche
sientifichis
sientifics
sienzia
siera
sierade
siere
siest
siet
sietcent
sighiet
sigji
sigle
sign
significa
significati
significative
significativis
significave
significhe
signo
sigu
siguramentri
sigure
sigurece
sigurementri
siguris
sikhisim
silabari
silabe
silabis
sile
silici
silvestri
silvia
silvio
simbolic
simboliche
simbui
simbul
simii
simil
simile
similis
simon
simone
simpri
sin
sinai
sindic
sinfonie
single
singola
singui
singul
singule
sinis
sinistre
sinonim
sinonims
sint
sintesi
sintetiche
sinti
sintiment
sintiments
sintin
sintoisim
sintremai
sintu
sintude
sio
siore
sipion
sipions
siprage
siracuse
sirie
sis
sistema
sistematic
sisteme
sistemi
sistemis
sistine
site
sito
sitta
situade
situazion
situazions
sium
sivian
sivilotti
sj
sla
slambri
slanc
slargja
slargjade
slargje
slave
slavis
slesian
slisse
slontana
slontane
slov
slovac
slovachie
sloven
slovene
slovenia
slovenie
slovenis
slovens
slungje
smaug
smith
snait
snia
so
soc
socia
social
socialiscj
socialisim
socialist
socialiste
socialistis
societa
society
socio
sociolic
sociologjie
socle
socrat
soference
soferencis
sofit
sofle
software
sogjet
sogjets
soi
sol
sola
solda
sole
solit
solitari
solits
solo
solsburc
solstizi
soluzion
soluzions
some
someare
someave
somee
somein
somp
son
sonadis
sonets
song
sonnseite
sono
sonore
sonorita
sopran
sorabe
sorap
soraps
sore
soredu
soredut
soreli
sorenatura
sorenon
sorestants
sorevivu
soria
sorprese
sort
sorte
sorts
sos
sospension
sospensions
sostance
sostancis
sostanti
sostegn
sostegnin
sosten
sostenido
sostigni
sostignido
sostignu
sostignudis
sostitui
sostituzion
sot
sotan
sotanance
sotans
sotera
sotinsiemi
sotinsiemis
soul
soundcloud
source
sovietic
sovietiche
sovietics
sovran
sovranita
sovrans
space
spade
spagne
spagnole
spagnu
spagnule
spalis
spandu
sparagna
spari
sparnic
sparti
spartizion
spazi
spazia
spazis
specia
speciale
specialita
specializa
specialmentri
specie
species
specific
specifica
specifiche
specifichis
specifics
speciis
specis
spedizion
spedizions
spencer
sperance
sperancis
sperave
sperimenta
spes
spesis
spetacui
spetacul
spetra
spetri
spi
spie
spiega
spiegazion
spiegazions
spieghe
spieli
spieta
spietave
spiete
spietin
spilimberc
spin
spira
spirit
spirito
spiritua
spiritualita
spiritussant
spirt
spirts
spittal
spodnje
spongje
sporc
sport
sportel
sporti
sportiva
sportive
sports
sposa
spose
sposta
spostade
sqrt
ss
st
sta
stabil
stabili
stabilide
stabiliment
stabiliments
stabilis
stabilissin
stabilita
stade
stadi
stadis
stadt
stagioni
stagjon
stagjona
stagjons
stai
staiar
stale
stali
stalin
stallhofen
stamp
stampa
stampade
stampe
stan
standard
stanislaw
stant
stanzie
stargate
start
stat
stata
state
states
statistic
statistiche
statistichis
statiunitens
stato
stats
statu
statue
statuis
statunitens
status
statutarsta
stave
stavin
stazi
stazion
stazions
ste
stefan
stefano
steiermark
stein
steinberg
steindorf
steinhaus
stela
stele
stelis
stella
stellini
steme
sterline
stermini
sterp
sterreich
stes
stesse
stessis
steve
steyr
sti
stic
stiefin
stima
stime
stimul
stin
stirie
sto
stoic
store
storia
storic
storiche
storichementri
storichis
storico
storics
storie
stories
storiis
storiografie
stoy
stra
strac
strada
stradalte
strade
stradis
straight
stramanda
stramuda
strani
straordenari
straordenarie
straordenaris
strassolt
strategjiche
strategjie
strategjiis
straulino
strauss
straß
street
strent
stret
strete
stringher
strion
strolic
strolics
struc
strument
strumenta
struments
struture
struturis
stu
stuart
studene
student
students
studi
studia
studiade
studiadis
studiant
studie
studies
studiin
studiis
studio
studios
studis
su
sua
suald
suaze
sub
subi
subit
subite
subset
subseteq
suce
sucede
sucedi
sucedin
sucedu
suces
sucessi
sucession
sucessive
sucessivis
sucesso
sud
sudan
sudivision
sudri
sue
suetoni
suez
sufi
suha
sui
suia
suite
suites
sul
sule
sull
sulla
sulle
sume
sun
suna
sunade
sunadis
sunado
sunave
sune
sung
sunin
suno
suns
suntun
suntune
suo
sup
supa
supave
supera
superficia
superficie
superio
superiore
superiormentri
supernova
suplement
supuart
supuarts
sur
suri
susa
suspiet
sustigni
sut
suti
svaria
svariadis
svea
svede
svedese
svelt
svelte
svelts
sverigetopplistan
svezie
svilup
svilupa
svilupade
svilupadis
svoi
svualt
svuizar
svuizare
swedishcharts
swisscharts
switzerland
sydney
system
t
ta
taba
tabaie
tabele
tabelis
tac
taca
tacade
tacant
tacave
tace
tache
tachin
tacit
taekwondo
tai
taia
taiade
taie
tailandie
taipane
tal
tale
talent
talia
talian
taliane
talianis
talians
talis
talk
talmassons
tam
tamau
tampieste
tan
tanche
tancj
tango
tant
tantche
tante
tantis
taoisim
tape
tapis
tapoian
taramot
tarant
tarcint
tarcisio
tard
tarde
taresie
targhe
targhis
taronde
tart
tarvis
tarvos
tas
tassis
tastiere
tastieris
tatiche
tau
taule
taulis
tavagna
taviele
tay
taylor
te
teatra
teatri
teatris
teatro
tebe
technology
tecnic
tecniche
tecnichis
tecnics
tecnologjie
tecnologjiis
tegnin
tei
teil
tel
tela
tele
television
televisive
televisivis
telin
telis
tellini
tematiche
tematichis
teme
temis
tempera
temperadis
temperadure
temperaduris
templa
templi
templis
tempo
tempora
ten
tenco
tendis
tenent
tension
tenta
tentati
teo
teodo
teodosi
teologjie
teoreme
teori
teoria
teoric
teoriche
teorie
teoriis
tera
teren
terens
terenzi
teresa
terestre
terestri
teribil
teritori
teritoria
teritoris
termina
terminazion
termodinamiche
terra
territori
territoriale
territorio
terziari
terziarie
tes
tesaur
tescj
tesi
tesis
tessalonice
tessaloniche
tessitori
test
testament
testemonea
testemoneance
testemoneancis
testemoni
testemonis
testo
text
tg
th
thal
that
the
theodore
theory
there
this
tho
thomas
thorin
thu
ti
tiarc
tiarce
tiare
tiaris
tibar
tiberi
tibul
tic
tica
ticin
tiepolo
tierc
tierce
tiere
tieregnove
tieris
tiermin
tiermins
tiermit
tiessu
tigni
tignint
tignive
tignivin
tignu
tignude
tignudis
tiliment
tim
tima
timau
timave
time
times
timor
timoteu
timp
timps
tina
tintoretto
tip
tipic
tipiche
tipichis
tipics
tipo
tipografia
tipologjie
tips
tira
tirade
tiradis
tirant
tirave
tiravin
tire
tiren
tiro
tirol
tirole
tis
tisane
title
tito
titui
titul
titus
tiziano
tm
to
toc
tocai
tocja
tocjade
tocje
tocjin
tocs
tocuts
tod
todesc
todescje
todescjis
todescs
tof
toffoli
tokyo
tolazzi
tolkien
tolmezzo
tolomeu
tom
toma
tombe
tombis
tommaso
ton
tondo
toneladis
toni
tony
too
top
topologjie
toponim
toponims
toponomastiche
tor
torah
torean
torent
torian
torians
torin
torino
tormenta
torna
tornade
tornant
tornara
tornarin
tornave
torne
torneio
torni
tornin
toronto
torre
torretto
tors
torvalds
toscan
toscane
tota
totalita
totalmentri
toti
totis
tour
tower
tr
tra
tracks
tradi
tradiment
tradizion
tradiziona
tradizionalmentri
tradizions
traduto
traduzion
traduzions
trafic
tragediis
tragjedie
trai
trama
tramanda
trame
tramis
tramonc
tramontan
tramontane
transalpine
transizion
trasaghis
trascrivi
trascrizion
trasere
trasferi
trasferiment
trasforma
trasformazion
trasformazions
trasforme
trasfusions
trasmet
trasmeti
trasmetu
trasmission
trasmissions
traspuart
traspuarta
traspuarte
traspuarts
trastolons
trat
trata
tratament
tratativis
trate
trats
trave
traviers
traviersa
traviersade
travierse
trazion
tre
trebie
treccani
tredis
treffen
tremende
tren
trens
trent
trente
trentin
trep
tres
tresesin
tresinte
trevi
tri
triangola
triangul
tribu
tribun
tribuna
tricolo
tridentina
triest
trieste
triestin
trilenga
trilogjie
trinita
tris
triscj
tristan
triste
triumvira
trivignan
trivium
tro
troe
troi
troians
troie
trois
troll
trombe
tron
tronc
trop
tropica
troppo
trops
truc
trung
trupis
ts
tsch
tschach
tt
tten
tu
tualis
tubet
tullio
tulmin
tumiec
tun
tune
turc
turchie
turchine
turcs
turello
turin
turing
turint
turiscj
turisim
turism
turistic
turistiche
turni
turoldo
tuscul
tutela
tutele
tutta
tutti
tutto
tv
twitter
two
tylor
u
uanis
uc
ucei
uciei
ucraine
ud
udin
udine
udinese
ue
uere
ufici
uficia
uficialmentri
ufizi
ufizia
ufizialmentri
ufri
ufrissin
ufs
ugo
ui
uk
ul
ule
ulis
ulrich
ulteriormentri
ultim
ultime
ultimis
ultims
ultin
ultins
ultratop
ultratp
uma
uman
umane
umanis
umanisim
umanita
umans
umberto
umbrie
umgebung
umidita
umilta
umits
un
una
unapologetic
und
underground
undis
une
unesco
unevore
uni
unic
uniche
unichis
unicode
unide
unidis
unifica
unificazion
union
unita
unitari
united
unito
universa
universidad
universidade
universita
universitari
university
univiers
unix
uno
uns
unterbergen
unvier
uomini
uomo
up
upper
ur
uran
urban
urbanistiche
urbe
urbin
urc
url
urss
uruguay
urviel
us
usa
usade
usance
usancis
use
user
usmis
ut
utc
utent
utents
util
utilita
utiliza
utilizade
utilizadis
utopie
uvint
v
va
vacant
vacine
vadi
vai
vajont
val
valade
valadis
valantin
valbrune
valcjalda
valcjana
vale
valencia
valenciana
valentinis
valentino
valenzian
valeri
valerio
valerius
validis
validita
valin
valle
vallonia
valo
valor
valoriza
valorizazion
vals
valussi
valutazion
valzer
van
vanseli
vantac
vanzei
vanzeli
vanzelis
vapo
var
vara
varan
vare
varessin
vari
varia
variabil
variant
variante
variantis
variants
variazion
variazions
varie
varieta
variis
varis
varon
varsavie
vas
vasari
vasco
vatican
ve
vecje
vecjis
vecjo
vecjos
vedi
vedin
vedue
vegjeta
vegjetazion
vegni
vegnin
vegnivin
veicui
veicul
veis
veit
velden
vele
vellach
velocita
velu
ven
venc
vendi
vendite
vendu
vene
venerade
venere
venete
veneto
venezia
venezian
veneziane
venezians
venezuela
venier
venit
venite
venits
vent
vento
ver
vera
verba
verde
verdi
vere
verementri
vereta
vergjine
vergjinis
vergjne
veri
verifica
verifiche
veris
verlag
verona
verone
veronese
verp
verps
versailles
versant
version
versions
vert
vertica
vertigini
verts
verzegnis
ves
vescovo
vescui
vescul
vespasian
vespucci
vesuvi
veterans
vetoria
veve
vevin
vi
via
viabilita
viac
viars
viarte
viaza
viazado
vic
vicario
vice
vicende
vicendis
vicense
vicente
vicenza
vicenze
vichincs
vichipedie
vicin
vicinance
vida
video
vie
vieli
vielis
vielm
viene
vierc
viere
vieri
vieris
viers
viert
vierte
viertidure
viertis
vierts
vierze
vierzi
vietnam
vignara
vignaran
vignedi
vignerin
vignesians
vignesie
vigni
vignint
vignirin
vignive
vignivin
vignu
vignude
vignudis
vigo
vigoro
vii
viii
viis
vila
vilac
vildivar
vile
vilegnove
vilis
villa
villach
villas
ville
vilote
vin
vinars
vinc
vince
vincenzo
vinci
vincido
vincin
vincj
vincjecinc
vincjecuatri
vincjesim
vincjesime
vinizian
vins
vint
vints
vio
viodara
viode
viodeve
viodevin
viodi
viodile
viodin
viodint
viodu
viodude
viodudis
viole
violence
violencis
violente
violetta
violin
violinist
violins
virgili
virgilio
virginie
virtu
virtua
virtuo
virus
vis
visa
visc
viscon
viscosa
vise
visibil
visibilita
visintin
visintine
vision
visita
visitade
visitado
visite
vista
viste
visti
vistu
visua
vita
vitale
vitamine
vite
vitime
vitimis
vitis
vito
vitorie
vitoriis
vitorio
vittorio
viva
vivaldi
vive
vivent
vivents
viveve
vivevin
vivi
vivin
vivint
vivu
vizi
vizis
vladimir
vo
voaltris
voca
vocabolari
vocabolario
voe
voi
voie
voivoda
vol
volare
vole
voleson
voleve
volevin
volga
voli
volint
voll
volonta
volontarie
volontaris
volt
volta
voltade
voltadis
volte
voltis
volturara
volu
volum
volume
volums
von
vonde
vorarlberg
vore
voris
vos
vot
vota
votazion
votcent
vote
voto
vrba
vs
vu
vuadagn
vuadagna
vuardi
vuardie
vuari
vuarp
vude
vue
vuei
vueit
vueits
vueli
vuelin
vuere
vueri
vueris
vues
vuida
vuide
vul
vulcan
vulcaniche
vulcans
vunak
vuoto
vv
vyot
w
wagner
walde
wales
walter
war
washington
wat
watch
we
web
weber
week
weiden
weimar
weinberg
weinek
weiss
weißenbach
wels
weng
west
weston
what
white
who
wide
wiesbaden
wiesen
wiki
wikimedia
wikipedia
wilhelm
will
william
wilson
wind
windows
winkl
winklern
with
without
wo
wolfgang
wolfsberg
woodard
work
world
worms
wu
www
x
xavier
xi
xii
xiii
xiv
xix
xl
xml
xp
xv
xvi
xvii
xviii
xx
xxi
xxiii
xxv
y
ya
yo
york
you
youtube
yukon
z
za
zaidi
zal
zale
zampa
zanier
zannier
zanon
zar
zardin
zardins
zealand
zei
zeit
zelande
zell
zena
zenar
zenti
zermois
zero
zeus
zgornje
zi
zigaina
zion
zira
zire
zn
zo
zone
zonis
zonta
zontade
zontadis
zontant
zonte
zontin
zontis
zontraviers
zoologjie
zorc
zornade
zornadis
zorz
zovani
zove
zoventu
zovin
zovine
zovins
zpav
zu
zuan
zucar
zuckermann
zuf
zui
zuia
zuiado
zuie
zuign
zuin
zur
zuviel
{
|
}
~
¡
ª
«
¯
°
±
²
³
´
·
¹
º
»
¿
×
ß
đo
ƨ
ɡ
ʃ
ʒ
ʔ
ˁ
ˈ
ˌ
ː
̀
́
̂
̃
̄
̆
̇
̈
̊
̋
̌
̓
̔
̛
̣
̦
̧
̨
̯
̸
͂
͡
α
β
δ
ε
ζ
η
θ
μ
ο
π
ρ
ς
χ
ω
ϵ
ا
الا
ل
م
يوم
َ
ُ
ّ
ْ
ٓ
ٔ
ٕ
ल
ੀ
᛫
‎
–
—
‘
’
“
”
„
†
•
…
‪
‬
′
″
⁡
€
→
↔
↷
⇔
∀
∅
∈
∑
−
∖
∗
∞
∩
∪
∫
≤
≥
⊂
⊃
⊆
⋅
⋯
⌀
③
④
⑦
⺀
⺄
⺆
⺈
⺊
⺌
⺕
⺝
⺸
⺼
⿰
⿱
⿲
⿳
⿴
⿵
⿶
⿷
⿸
⿹
⿺
⿻
〢
゙
ア
キ
ク
コ
シ
ッ
ト
ミ
ュ
ユ
ラ
リ
ル
レ
ン
ー
㇁
㇂
㇄
㇇
㇈
㇉
㇓
㐁
㐄
㐅
㐌
㐫
㐬
㐭
㐮
㐱
㑒
㒵
㒸
㒼
㓁
㓞
㔾
㕛
㕣
㖾
㘝
㚅
㚇
㚔
㚘
㝉
㝡
㝴
㝵
㞋
㞢
㞷
㠩
㠭
㠯
㡀
㡭
㡿
㢲
㢴
㣇
㣺
㥯
㪅
㫄
㫐
㫒
㫺
㬅
㬎
㬥
㬰
㲋
㳄
㷠
㸒
㸚
㸦
㼌
㼲
㽞
㿟
䀠
䂞
䍃
䏍
䒑
䖍
䖒
䖝
䖵
䙴
䚻
䜌
䝿
䡛
䧹
䪞
一
丁
丂
七
丄
丅
丆
万
丈
三
上
下
丌
不
与
丏
丐
丑
专
且
丕
世
丘
丙
业
东
丞
丢
丣
两
严
並
丨
丩
个
丫
丬
中
丮
丰
丱
串
丵
丶
丷
丸
丹
为
主
丽
丿
乀
乂
乃
久
乆
乇
么
义
之
乌
乍
乎
乏
乐
乑
乔
乖
乗
乘
乙
乚
乛
乜
九
乞
也
习
乡
乳
乾
亀
亅
了
亇
予
争
事
二
亍
于
亏
亐
云
互
亓
五
井
亘
亚
亜
亞
亟
亠
亡
亢
交
亥
亦
产
亨
亩
享
京
亭
亮
亯
亰
亲
亳
亶
亷
人
亻
亼
亾
仁
今
介
仌
从
仐
仑
仒
仓
仕
他
付
仝
代
令
以
任
企
伊
伏
伐
休
会
伯
但
位
何
佘
余
作
佥
使
來
侈
侌
侖
侯
侵
便
保
俞
信
修
倉
倍
候
倠
備
僉
僕
儿
兀
允
兂
元
兄
充
兆
兇
先
光
兊
克
兌
免
兑
兒
兓
兔
党
兜
兟
入
全
兩
兪
八
公
六
兮
兰
共
关
兵
其
具
典
兹
兼
冀
冂
冃
冄
内
冈
冉
冊
冋
册
再
冎
冏
冐
冒
冓
冖
冗
冘
军
农
冝
冡
冥
冫
冬
冷
几
凡
凢
凵
凶
凷
凸
凹
出
函
凾
刀
刁
刂
刃
刄
刅
分
切
刍
刑
刕
刖
列
刘
则
初
別
利
别
到
制
刺
則
削
剌
前
剡
剽
劉
力
功
加
劦
助
劫
劳
劵
勃
勇
勉
勒
動
務
勞
勤
勹
勺
勻
勾
勿
匀
匂
包
匆
匈
匊
匋
匍
匕
化
北
匚
匝
匡
匪
匱
匸
匹
区
医
匽
匿
區
十
卂
千
卄
卅
卆
升
午
卉
半
卌
华
卑
卒
卓
協
单
卖
南
卜
卝
卞
占
卡
卢
卣
卤
卦
卩
卪
卬
卯
印
危
即
却
卵
卷
卸
卻
厂
厃
厄
历
厈
厉
厌
厓
厘
厚
原
厤
厥
厨
厭
厲
厶
厷
厸
去
厼
厽
叀
参
參
叅
又
叉
及
友
双
反
叐
发
叒
叔
叕
取
受
叚
叜
叟
口
古
句
另
叩
只
召
可
台
叱
史
右
叵
号
司
叹
吂
各
吅
合
吉
吊
吋
同
名
后
吏
向
吕
君
吝
吞
否
含
启
吳
吴
吹
吾
呂
呆
呈
告
员
呙
周
命
咅
和
咎
咠
咢
咨
咸
咼
哀
品
哉
員
哥
哲
唐
商
啇
問
啚
啬
啻
善
喜
喬
單
喿
嗇
噩
嚴
囊
囗
囘
囙
囚
四
回
囟
因
団
囧
囬
困
囱
囷
固
国
圂
圅
國
圍
圓
土
圡
圣
圥
在
圭
地
圶
圼
坐
坒
坚
坴
垂
垔
垚
埀
埋
埶
執
基
堂
堅
堆
堇
堯
塞
墨
壘
士
壬
壯
声
壳
壴
壹
壺
壽
夂
处
夅
夆
备
夊
夋
夌
复
夏
夒
夕
外
夗
夘
多
夜
夢
大
夨
天
太
夫
夬
夭
央
失
夲
头
夷
夸
夹
夻
夾
奂
奄
奇
奈
奉
奎
奏
奐
契
奓
奔
奚
奞
奠
奢
奥
奭
女
奴
奻
好
如
妄
妙
妟
妥
妻
妾
姑
委
姜
威
娄
婁
婴
嬰
嬴
子
孑
孔
孕
孖
字
存
孚
孛
孝
孟
季
孤
学
孫
孱
學
宀
宁
宂
它
宅
宇
守
安
宋
完
宏
宓
宗
官
定
宛
宜
宝
客
宣
室
宮
宰
害
家
容
宾
宿
寄
寅
密
富
寒
察
寧
審
寫
寬
寮
寸
对
寺
寻
寽
対
寿
封
尃
射
将
將
專
尉
尊
尋
尌
對
小
少
尒
尓
尔
尖
尗
尚
尞
尢
尣
尤
尧
尨
尭
就
尸
尹
尺
尻
尼
尽
尾
尿
局
居
屈
屋
屎
屏
屑
展
屖
屚
属
屠
屡
屬
屮
屯
屰
山
屵
屾
岁
岂
岑
岡
岩
岳
岸
峯
島
崇
崑
崔
崖
崙
崩
嵬
嶲
巂
巛
川
州
巟
巠
巢
巤
工
左
巧
巨
巩
巫
差
己
已
巳
巴
巷
巸
巽
巾
巿
帀
市
布
希
帚
帛
帝
带
師
席
帶
常
干
平
年
幵
并
幷
幸
幺
幻
幼
幽
幾
广
広
庄
床
底
店
庚
府
度
庫
庭
庶
康
庸
廉
廌
廛
廣
廩
廴
延
廷
建
廾
廿
开
弁
弃
弄
弇
弋
式
弓
弔
引
弗
弘
弜
弟
弥
弦
弱
張
強
强
彊
彌
彎
彐
彑
当
彔
录
彖
彗
彡
形
彥
彦
彧
彭
彳
役
彼
往
待
律
徒
得
徙
從
復
微
徵
心
忄
必
忌
忍
志
忝
忠
忩
快
念
忽
忿
思
怠
急
怱
恆
恒
恩
恭
息
悉
患
悤
悲
悶
惠
惡
惢
愁
愈
意
愛
感
慈
慧
慮
憂
憲
應
戀
戈
戉
戊
戋
戌
戍
戎
成
我
戒
戔
或
戚
戠
戢
截
戲
戶
户
戹
戼
戾
房
所
扁
扇
手
扌
才
打
托
执
承
折
拉
拜
拿
掌
推
提
摩
支
攴
攵
收
攸
改
放
政
敄
敏
敕
敖
敗
敝
敞
敢
散
敦
敫
敬
数
敷
數
斂
文
斉
斊
斗
斤
斥
斩
斬
斯
新
方
於
施
斿
旁
旋
族
无
旡
既
旣
日
旦
旧
旨
早
旬
旱
旲
时
旾
昆
昇
昌
昍
明
昏
易
昔
昗
昜
星
春
昬
是
昱
昴
昷
時
晃
晋
晏
普
景
晶
智
暑
暴
曇
曩
曰
曲
曳
更
曷
書
曹
曼
曾
替
最
朁
會
月
有
朋
服
朔
朕
朗
望
朝
木
朩
未
末
本
札
朮
术
朱
朵
朶
朿
杀
杏
杜
束
条
来
東
杲
杳
松
析
林
枚
果
枝
枲
枼
某
柔
查
柬
柰
柴
栗
桀
桑
桼
梁
條
梟
梨
棘
棠
棥
森
楚
業
楽
榮
樂
樊
欠
次
欣
欮
欲
欶
欽
款
歆
歇
歛
止
正
此
步
武
歨
歪
歮
歯
歰
歲
歴
歷
歸
歹
歺
死
殳
段
殷
殸
殹
殺
殻
殿
毋
毌
母
每
毒
比
毕
毚
毛
毳
氏
氐
民
气
氣
水
氵
氶
氷
永
氺
氾
求
汝
汞
江
沃
沓
沙
沝
泉
法
波
泣
泥
泰
洛
洪
活
派
流
浦
浪
浮
淡
淮
清
渚
渠
湯
滿
漸
火
灬
灭
灰
灵
灷
炅
炎
炏
炗
炙
炭
為
烈
烏
烝
焉
無
焦
焱
然
煞
熊
熏
燕
營
燮
爪
爫
爭
爯
爰
爱
爲
爵
父
爻
爽
爾
爿
片
牙
牚
牛
牜
牟
牢
牧
牪
牽
犀
犬
犭
犮
狂
狄
狊
独
狺
猋
猒
猪
献
獻
玄
率
玉
王
玟
玨
珎
班
琴
瑟
瑩
瓜
瓦
甘
甚
生
産
用
甫
甬
田
由
甲
申
电
甶
男
甸
甹
画
甾
畀
界
畏
畐
留
畜
畟
畢
畧
畨
番
畫
異
畱
當
畺
畾
疊
疋
疌
疑
疒
疾
癶
癸
癹
登
發
白
百
皀
皃
的
皆
皇
皋
皐
皕
皮
皷
皿
盃
盆
盇
盈
益
盍
盎
监
盒
盖
盛
盡
監
盤
盧
目
直
相
盾
省
眇
眉
看
眔
眞
真
眷
眼
眾
着
睘
睪
睿
瞏
瞢
瞿
矍
矛
矞
矢
矣
知
矦
短
石
破
碎
磊
磨
示
礻
礼
社
祟
票
祭
禀
禁
禸
禹
禺
离
禽
禾
禿
秀
秃
秉
秋
科
秝
秦
移
稟
種
穀
穌
穴
究
穹
空
穿
突
窄
窒
立
竒
竜
竝
竟
章
童
竹
笑
笠
筆
等
答
箕
算
箴
節
篤
篭
米
粉
粛
粟
粤
粦
粲
糞
糸
糹
系
約
納
素
索
紫
累
細
絜
絫
統
絲
維
綿
縣
繇
纍
纟
缶
网
罒
罔
罕
罗
罙
罡
罢
罪
署
罷
羅
羊
羌
羍
美
羔
羕
羗
羞
羡
羣
群
義
羲
羸
羽
翁
翏
習
翕
翟
翠
翼
老
耂
考
者
耆
而
耎
耑
耒
耳
耴
耶
耷
聂
聊
聖
聚
聶
聿
肀
肃
肅
肉
肖
肙
肥
肩
肯
育
肴
胃
背
胡
胥
能
脊
脩
膚
臣
臤
臧
自
臬
臭
臯
臱
至
致
臺
臼
臽
臾
臿
舀
舂
舄
與
興
舉
舌
舍
舛
舜
舞
舟
般
艮
良
色
艸
艹
艾
芒
芔
芬
芮
花
芳
芺
芻
苔
苗
苟
若
苦
英
茶
茸
荅
草
荒
荣
荼
莆
莧
莫
莽
菆
菊
菐
華
萬
落
葉
著
葛
董
葵
蒙
蒦
蒼
蓋
蓬
蓺
蔑
蔡
蕉
蕭
薄
薛
薦
薰
藍
藏
藥
蘭
虍
虎
虐
虒
虔
處
虖
虗
虘
虚
虛
虜
虞
虫
虽
蚤
蚩
蜀
蜜
蟲
蠡
血
行
衍
衛
衣
衤
表
衮
衰
袁
袞
褭
褱
襄
襾
西
覀
要
覃
見
規
覓
覧
親
覽
见
角
解
言
訁
訇
計
詹
認
誩
諸
讠
谷
豆
豈
豊
豐
豕
豖
豙
象
豦
豩
豪
豸
貇
貝
貞
貟
負
貢
貧
貪
貫
責
貳
貴
買
費
賁
資
賈
賏
賓
賔
賛
賞
賢
賣
質
賴
贊
贝
贡
责
贯
贲
贵
赖
赞
赤
赦
走
越
足
路
蹇
身
躬
車
軍
軎
軟
輦
车
辛
辜
辟
辥
辰
辱
農
辵
辶
边
达
过
近
连
迷
追
退
送
逆
逐
通
速
造
逢
連
逮
進
遀
遂
過
道
達
遣
適
遷
遺
邊
邑
邕
那
邦
邪
郎
部
郭
都
鄉
酉
酋
配
酓
釆
采
里
重
野
量
金
釒
錢
钅
長
镸
长
門
閃
閉
開
閏
閑
閒
間
閔
閵
閻
闌
门
间
闷
阑
阜
阝
阿
降
陳
隆
隊
隋
隡
隨
隱
隶
隹
隺
隻
隼
隽
难
雀
雁
集
雈
雋
雍
雐
雔
雙
雚
雜
雝
離
難
雨
雩
雪
雲
零
雷
需
霍
霜
霝
霞
霸
靈
靑
青
非
靡
面
靣
革
韋
韦
韭
韯
韱
音
頁
頃
項
須
頗
頡
頻
顛
页
風
风
飛
飞
食
飠
養
饣
首
香
馬
馮
駦
马
骨
高
髟
鬥
鬯
鬲
鬼
魚
魯
鮮
鱼
鲁
鳥
鳳
鸟
鹵
鹿
麃
麗
麥
麦
麻
黃
黄
黍
黎
黑
黒
黨
黹
黽
黾
鼎
鼓
鼠
鼻
齊
齋
齐
齒
齿
龍
龙
龜
龟
龠
龰
龱
龴
龵
龶
龷
龸
龹
ꮎ
ꮝ
ꮡ
ꮧ
者
艹
﻿
？
｜
𠀁
𠀃
𠀆
𠀉
𠀎
𠀐
𠁁
𠁣
𠂆
𠂇
𠂈
𠂉
𠂊
𠂋
𠂎
𠂒
𠂔
𠂛
𠂡
𠂢
𠂤
𠂬
𠂭
𠂹
𠃊
𠃋
𠃌
𠃍
𠃎
𠃑
𠃓
𠃔
𠃜
𠄌
𠄎
𠄠
𠄢
𠆢
𠆥
𠇍
𠈌
𠌵
𠓜
𠔉
𠔥
𠔼
𠔽
𠔿
𠕀
𠕁
𠕋
𠘧
𠘨
𠙻
𠙼
𠚏
𠚒
𠚤
𠚪
𠣏
𠤎
𠤕
𠥓
𠦄
𠦑
𠦝
𠧒
𠧗
𠧪
𠩺
𠪚
𠫓
𠫔
𠫤
𠬛
𠬝
𠬞
𠬢
𠬤
𠬶
𠮛
𠮦
𠮷
𠯑
𠱠
𠳮
𠷎
𡈼
𡉀
𡉵
𡌥
𡍮
𡏳
𡕒
𡕩
𡕰
𡖅
𡗗
𡗜
𡘆
𡘤
𡧱
𡨄
𡩧
𡬠
𡭽
𡰣
𡰥
𡰪
𡰯
𡰱
𡷈
𡸁
𡿨
𡿩
𡿪
𡿺
𢀖
𢀛
𢀩
𢁙
𢆉
𢆰
𢆶
𢇁
𢇇
𢉖
𢌬
𢌿
𢏚
𢑑
𢑚
𢖻
𢙣
𢛳
𢦏
𢦒
𢧵
𢼄
𢾕
𣁋
𣄼
𣅀
𣅽
𣍘
𣎳
𣎵
𣏋
𣏼
𣗥
𣥂
𣥖
𣦵
𣦼
𣧄
𣪊
𣪠
𣬉
𣳾
𣶒
𤇾
𤊽
𤐫
𤓰
𤔔
𤕨
𤣩
𤰇
𤰔
𤰞
𤴓
𤴔
𤽄
𥁑
𥁕
𥃦
𥃩
𥃭
𥇡
𥑟
𥘅
𥘈
𥝢
𥫗
𥱡
𦈢
𦉪
𦉬
𦉼
𦍌
𦍒
𦎧
𦐇
𦓔
𦔮
𦘒
𦙃
𦚏
𦣝
𦣞
𦣻
𦥑
𦥔
𦥯
𦨉
𦭝
𦰩
𧆞
𧈧
𧘇
𧰨
𧴪
𧴮
𧵩
𧾷
𨸏
𨾴
𩙿
𩠐
𩫏
𩵋
𪉷
𪜀
𪟽
𪠲
𪩲
𫇦
𫔭
𫜸
𫝀
𫠣
𫠩
𫢉
𫥞
𫩏
𫩠
𫪡
𫲽
𫶧
𬀷
𬐘
𬗌
𬙙
𬛸
𬜯
𬟩
𬯁
𬴘
𬺻
𬼉
𬼖
𭀰
𭁈
𭁨
𭅰
𭑈
𭕄
𭗼
𭤨
𭥫
𭻾
𮅕
𮊿
𮍌
𮍏
𮓗
𮥼
𮧮
廾
𰀁
𰀄
𰀈
𰀉
𰀕
𰀠
𰀡
𰀢
𰀪
𰁜
𰃮
𰆊
𰆘
𰋙
𰕎
𰢴
𰧭
𰯲
04--
a--
ab--
abon--
abori--
ac--
ace--
acus--
ad--
ade--
adi--
ae--
af--
afe--
age--
agj--
agri--
agro--
ai--
al--
alcol--
ale--
am--
amb--
ambi--
ame--
an--
ana--
anar--
and--
anti--
apart--
apl--
app--
ar--
arc--
ari--
arma--
as--
asi--
aspira--
aste--
astu--
at--
ategj--
ati--
atmos--
atti--
au--
aur--
auten--
auto--
av--
avertim--
avi--
avv--
b--
ba--
bal--
ban--
bar--
bat--
bate--
be--
bel--
bell--
ben--
ber--
berchtesga--
bert--
bi--
bia--
bian--
biblio--
bio--
bisugn--
bl--
bla--
bo--
bom--
bon--
bor--
bra--
bre--
bres--
bri--
bru--
bu--
bul--
bur--
c--
ca--
camp--
can--
cap--
car--
cara--
carinzi--
caro--
cart--
carto--
cas--
casa--
cata--
catt--
ce--
ced--
cent--
cer--
ceri--
ch--
cha--
che--
chi--
ci--
cita--
cj--
cja--
cjaud--
cla--
cland--
classif--
cle--
cli--
clo--
co--
col--
com--
comis--
compara--
complic--
computa--
con--
convin--
cor--
corpora--
cra--
cre--
cri--
cro--
cru--
cu--
cub--
cuc--
cui--
cumb--
cumbina--
cun--
d--
da--
dar--
data--
de--
deli--
den--
des--
det--
di--
dicti--
diff--
din--
dipe--
dis--
disco--
discu--
disti--
dit--
dj--
do--
dob--
dog--
dolo--
dome--
du--
e--
ec--
ece--
eclesia--
ecui--
ed--
edin--
edu--
efe--
eg--
egizi--
egj--
ei--
el--
elec--
elet--
eli--
emi--
empi--
en--
ene--
ent--
ep--
epist--
er--
eri--
erl--
ero--
es--
esc--
esibi--
et--
etim--
eu--
eucli--
eus--
ex--
f--
fa--
fan--
far--
fas--
fe--
fer--
ferb--
fi--
fie--
fil--
fis--
fla--
fo--
fog--
for--
fr--
fra--
fre--
fried--
fu--
g--
ga--
gal--
gand--
garg--
gas--
ge--
geo--
gerets--
germ--
ghi--
gi--
gia--
gj--
gje--
gjen--
gjeome--
gjermanof--
gle--
gn--
gnes--
gno--
go--
gor--
gos--
gra--
grafen--
gre--
gri--
gu--
guggen--
h--
ha--
hai--
ham--
han--
he--
her--
hi--
hl--
ho--
hu--
i--
icono--
id--
ideolo--
ie--
ient--
il--
ili--
illus--
ilu--
im--
ima--
in--
ina--
inc--
incja--
incon--
incuarda--
ind--
inde--
indo--
influ--
inn--
institu--
inter--
intra--
inves--
ir--
ired--
is--
isc--
ist--
it--
j--
ja--
je--
ji--
jo--
jonoko--
ju--
k--
ka--
kath--
ke--
ki--
kir--
kle--
ko--
krain--
kreuz--
ku--
l--
la--
lan--
laz--
le--
led--
leg--
legi--
lei--
len--
les--
let--
lez--
li--
lib--
lice--
lie--
lim--
lin--
litu--
ll--
lo--
logj--
lu--
lung--
m--
ma--
mad--
mag--
magj--
mal--
mam--
mami--
man--
mar--
mas--
mat--
me--
mel--
mem--
memoriz--
men--
mer--
met--
mez--
mi--
micro--
migra--
mira--
miss--
mito--
mitt--
mittel--
mitter--
mix--
mo--
mob--
mol--
mono--
monte--
moos--
mor--
morl--
mu--
muda--
mult--
multi--
mur--
n--
na--
nas--
nazional--
nd--
ne--
neolo--
neot--
neu--
neus--
ng--
ni--
nie--
nieder--
no--
nord--
nos--
nu--
nuc--
nud--
num--
nuß--
o--
ob--
obe--
ober--
obliga--
oc--
of--
ol--
olim--
om--
omb--
on--
ongja--
op--
or--
ornam--
os--
ot--
ota--
otta--
p--
pa--
pag--
pal--
pan--
papa--
par--
para--
pas--
pat--
pati--
pe--
peli--
pente--
per--
perfe--
pes--
pfaff--
phi--
pho--
pi--
pier--
pil--
pino--
pl--
plu--
pluril--
po--
pol--
poli--
pr--
pre--
pri--
pro--
proie--
pros--
prud--
psi--
pu--
puste--
q--
qu--
quad--
que--
r--
ra--
rag--
re--
recens--
red--
ren--
res--
ri--
ric--
rif--
rifles--
rimp--
rin--
ris--
risolu--
ristrutur--
rizzo--
ro--
rod--
ron--
ru--
rus--
s--
sa--
sab--
sag--
sal--
san--
sar--
sass--
sati--
sc--
scan--
sch--
schw--
sci--
scja--
sclo--
sco--
scola--
scru--
scu--
se--
sec--
see--
semi--
sen--
sene--
sens--
sgar--
sha--
shi--
sho--
si--
sicili--
sie--
sig--
simp--
sin--
sir--
sla--
smi--
so--
sob--
social--
sol--
som--
sor--
sore--
sos--
sot--
sotra--
spa--
spag--
spe--
specul--
sper--
st--
sta--
sti--
sto--
stris--
stro--
strom--
stru--
stu--
su--
sub--
sud--
sulz--
sup--
sve--
svu--
t--
ta--
tam--
taro--
tau--
te--
tech--
tele--
ten--
ter--
term--
tes--
th--
the--
ti--
tib--
to--
topo--
tor--
tr--
tra--
tran--
trans--
tras--
tre--
tri--
tro--
tu--
u--
uc--
uff--
ul--
un--
uni--
unte--
unter--
unun--
ur--
us--
usa--
ut--
v--
va--
val--
van--
vas--
ve--
veg--
ven--
ver--
ves--
vi--
via--
vic--
vign--
vik--
vile--
vin--
virg--
viva--
vo--
vol--
vu--
vul--
w--
wai--
wald--
we--
weit--
wie--
wiki--
wim--
wo--
wu--
x--
xx--
y--
ya--
z--
za--
zen--
zgorn--
zi--
ziga--
zo--
zu--
--0
--1
--2
--3
--4
--5
--6
--7
--8
--9
--a
--ac
--ade
--adi
--adis
--adure
--ai
--aia
--aie
--ak
--al
--am
--amentri
--an
--ance
--ancis
--ani
--ano
--ans
--ant
--ar
--ard
--ari
--aro
--ary
--as
--at
--ate
--atic
--ato
--au
--ay
--azie
--azion
--azions
--b
--ba
--be
--berg
--bi
--bie
--bii
--bil
--bo
--boa
--bre
--bs
--bu
--burg
--c
--ca
--car
--cara
--ce
--cei
--cele
--ces
--ch
--che
--chis
--cht
--ci
--cia
--cie
--cino
--cipa
--cis
--cisim
--cj
--cje
--ck
--cli
--co
--cs
--ct
--cta
--cu
--cul
--cus
--d
--da
--de
--dence
--di
--dia
--dic
--die
--diment
--diments
--din
--dini
--dis
--dita
--do
--dorf
--dot
--dova
--ds
--dt
--du
--dude
--dusu
--dy
--e
--ea
--ec
--ece
--ed
--ee
--ei
--ein
--el
--ela
--ele
--elli
--ello
--em
--ementri
--en
--enc
--ence
--encis
--ene
--ense
--ent
--eo
--er
--ere
--eri
--ern
--erne
--errat
--ers
--es
--esa
--ese
--esse
--et
--eta
--eti
--etic
--etics
--ets
--eu
--eus
--eve
--ey
--f
--fe
--feld
--fet
--fi
--fon
--fs
--fu
--furt
--g
--ga
--gan
--gau
--ge
--gen
--gg
--ggio
--gh
--gham
--ghe
--ghis
--gic
--gio
--gja
--gje
--gjic
--gjics
--gl
--gn
--gna
--gne
--gni
--gnin
--go
--gon
--gory
--graf
--gri
--gs
--gu
--gua
--gue
--h
--ham
--he
--hem
--her
--hete
--hi
--hia
--hin
--his
--hr
--i
--ia
--ial
--ian
--iane
--ibii
--ic
--ica
--iche
--ichis
--ico
--ics
--ide
--ie
--iel
--ieris
--ifica
--ifiche
--ified
--igo
--ii
--iis
--ija
--il
--ile
--ili
--ilo
--im
--ime
--iment
--imetri
--in
--ina
--ine
--ing
--ini
--inis
--ino
--ins
--io
--ion
--ions
--iot
--ir
--ire
--is
--isan
--iscj
--isim
--ism
--ist
--iste
--istic
--istiche
--istichis
--it
--ita
--ite
--iti
--ito
--its
--ium
--ius
--ive
--ivis
--iya
--iz
--iza
--izazion
--ize
--izia
--izie
--j
--ja
--je
--ju
--k
--ka
--ke
--ket
--ki
--kirchen
--ko
--l
--la
--lach
--lam
--ld
--le
--ler
--les
--let
--ley
--lfi
--li
--lia
--lic
--lie
--lio
--lis
--lisim
--lita
--liza
--lizade
--lizazion
--ll
--lla
--lle
--lli
--llo
--lmenti
--lmentri
--lo
--logjie
--logjiis
--lon
--ls
--lt
--lu
--ly
--m
--ma
--man
--mbo
--mbre
--me
--ment
--menti
--mentri
--ments
--mi
--mie
--mis
--mo
--mone
--ms
--mu
--n
--na
--nade
--nal
--nc
--nce
--ncis
--nd
--nda
--nde
--ndo
--ndorf
--ne
--ner
--nero
--nesie
--ney
--ng
--ni
--nic
--nics
--nie
--niis
--nis
--nita
--nitz
--nk
--nne
--no
--ns
--nsa
--nso
--nt
--nte
--nti
--ntin
--ntis
--nts
--ntsi
--nz
--nza
--nze
--nzi
--nzie
--o
--od
--oe
--ofons
--ogie
--ogjic
--ogjie
--oi
--ok
--olic
--olo
--ologjie
--olt
--om
--ome
--on
--onc
--one
--ones
--oni
--ons
--ont
--or
--orf
--ori
--os
--ot
--otti
--p
--pa
--pe
--pi
--pis
--pli
--po
--ps
--q
--qua
--que
--r
--ra
--rade
--ran
--rance
--rant
--rato
--rche
--rdo
--re
--rer
--ret
--ri
--ria
--rian
--rie
--riis
--rin
--rio
--ris
--rita
--rje
--rk
--rme
--rn
--rne
--ro
--ron
--rry
--rs
--rt
--rta
--rum
--ry
--s
--sa
--san
--sc
--sch
--scj
--se
--see
--ses
--sh
--si
--sim
--sime
--sion
--sis
--sita
--sive
--so
--son
--ss
--ssa
--sse
--ssi
--ssin
--ssion
--st
--sta
--ste
--stre
--su
--t
--ta
--tade
--tadt
--tae
--tal
--tant
--tarie
--te
--tea
--tem
--ten
--ter
--th
--ti
--tia
--tic
--tiche
--tichis
--tics
--til
--tin
--tinis
--tion
--tis
--tisim
--tive
--tivis
--to
--ton
--tore
--trative
--tri
--ts
--tti
--tto
--tu
--tura
--ture
--ty
--tz
--u
--ua
--uardi
--uc
--ud
--ude
--ue
--uel
--uele
--ugne
--ui
--ul
--ulo
--um
--un
--unzia
--ur
--ura
--ure
--uri
--uro
--us
--ut
--ute
--uth
--uti
--uts
--utti
--v
--va
--ve
--vi
--vie
--vin
--vis
--vo
--vre
--vul
--w
--wa
--wan
--wn
--x
--y
--ya
--ys
--z
--za
--zach
--zade
--zan
--zazion
--ze
--zen
--zi
--zia
--zie
--zio
--zion
--zione
--zions
--zis
--zo
--zon
--zu
--zza
--zzi
--zzo
