!
"
#
##0
##1
##10
##11
##12
##13
##14
##15
##16
##17
##18
##19
##2
##20
##21
##22
##23
##24
##25
##26
##27
##28
##29
##3
##30
##31
##32
##33
##34
##35
##36
##37
##38
##39
##4
##40
##41
##42
##43
##44
##45
##46
##47
##48
##49
##5
##50
##51
##52
##53
##54
##55
##56
##57
##58
##59
##6
##60
##61
##62
##63
##64
##65
##66
##67
##68
##69
##7
##70
##71
##72
##73
##74
##75
##76
##77
##78
##79
##8
##80
##81
##82
##83
##84
##85
##86
##87
##88
##89
##9
##90
##91
##92
##93
##94
##95
##96
##97
##98
##99
$
%
&
'
(
)
*
+
,
-
.
/
0
00
000
0004
001
01
02
03
04
05
06
07
08
09
1
10
100
1000
1002
1007
101
1016
1017
102
103
1038
104
105
106
107
108
1080
1086
109
1093
1098
11
110
111
1111
112
1126
113
1136
114
115
116
11609
117
118
119
12
120
1200
121
122
123
124
125
126
127
128
129
13
130
1300
131
13140
132
133
134
135
136
137
138
139
14
140
141
142
143
144
145
146
147
148
149
15
150
1500
151
152
153
154
155
156
157
158
159
16
160
1600
161
162
163
164
165
1654
166
167
168
169
17
170
1700
171
172
173
174
175
176
177
178
1789
179
1792
1796
1797
1798
1799
18
180
1800
1804
181
1814
1815
1818
1819
182
1820
1822
1824
1826
1828
1829
183
1830
1831
1832
1833
1834
1835
1836
1837
1838
1839
184
1840
1841
1842
1843
1844
1845
1846
1847
1848
1849
185
1850
1851
1852
1853
1854
1855
1856
1857
1858
1859
186
1860
1861
1862
1863
1864
1865
1866
1867
1868
1869
187
1870
1871
1872
1873
1874
1875
1876
1877
1878
1879
188
1880
1881
1882
1883
1884
1885
1886
1887
1888
1889
189
1890
1891
1892
1893
1894
1895
1896
1897
1898
1899
19
190
1900
1901
1902
1903
1904
1905
1906
1907
1908
1909
191
1910
1911
1912
1913
1914
1915
1916
1917
1918
1919
192
1920
1921
1922
1923
1924
1925
1926
1927
1928
1929
193
1930
1931
1932
1933
1934
1935
1936
1937
1938
1939
194
1940
1941
1942
1943
1944
1945
1946
1947
1948
1949
195
1950
1951
1952
1953
1954
1955
1956
1957
1958
1959
196
1960
1961
1962
1963
1964
1965
1966
1967
1968
1969
197
1970
1971
1972
1973
1974
1975
1976
1977
1978
1979
198
1980
1981
1982
1983
1984
1985
1986
1987
1988
1989
199
1990
1991
1992
1993
1994
1995
1996
1997
1998
1999
2
20
200
2000
2001
2002
2003
2004
2005
2006
2007
2008
2009
201
2010
2011
2012
2013
2014
2015
2016
2017
2018
2019
202
2020
2021
2022
203
204
205
206
207
208
209
21
210
211
212
213
214
215
216
2164
217
218
219
22
220
221
222
223
224
225
226
227
228
229
23
230
2307
231
232
233
234
235
236
237
238
239
24
240
241
242
243
244
245
246
247
248
249
25
250
251
252
253
254
255
256
257
258
259
26
260
261
262
263
264
265
266
267
268
269
27
270
271
272
273
274
275
276
277
278
28
280
281
282
283
284
285
286
287
288
29
290
291
292
295
297
3
30
300
3000
301
305
306
307
309
31
310
311
312
313
316
317
32
320
321
323
325
33
330
333
34
340
35
350
36
360
365
37
370
375
38
380
385
387
39
393
3966
4
40
400
4000
4051
41
415
42
420
43
44
45
450
46
47
48
49
5
50
500
5000
51
52
520
521
53
54
540
55
550
56
57
58
59
6
60
600
61
62
63
64
65
650
66
67
68
69
691
7
70
700
71
72
73
74
75
750
751
76
7690
77
78
79
7983
8
80
800
8009
81
82
83
84
85
86
87
88
89
9
90
900
91
92
929826
93
94
95
96
97
972
973
974
978
98
99
:
;
<
=
>
?
@
[
\
]
^
_
`
a
aa
abc
abdul
about
above
abstract
abu
ac
academic
academy
access
accessdate
accessed
according
account
acid
across
act
action
activist
activity
actor
actors
actress
ad
adam
adams
administration
advanced
ae
af
affairs
afghanistan
africa
african
after
again
against
age
agency
ages
agricultural
agriculture
ahmad
ahmed
air
airport
akademi
al
alan
alaska
albert
album
alex
alexander
alfred
ali
alice
all
allen
allmusic
allowed
alpha
alpinia
also
always
am
amazon
america
american
among
amp
amsterdam
an
analysis
anand
anatomy
ancient
and
anderson
andhra
andrew
android
angeles
angiosperm
animal
animals
ann
anna
annals
anne
anniversary
announced
announces
annual
another
anthony
anti
any
app
apple
application
applications
applied
approach
apr
april
ar
arab
arabia
arabic
archaeological
archaeology
architecture
archive
archived
archives
ardisia
are
area
areas
argument
armenia
armenian
army
arnold
around
art
arthur
article
articles
articleshow
artist
artists
arts
arxiv
as
asia
asian
asiatic
asp
aspx
assembly
assessment
associated
association
astronomical
astronomy
astrophysical
astrophysics
at
atlantic
atlas
attack
au
audio
aug
august
australia
australian
author
authority
authors
available
award
awarded
awards
away
azerbaijan
b
ba
baby
back
background
bad
bailey
baker
bangalore
bangladesh
bank
barbara
barcelona
base
based
basic
battle
bauhinia
bay
bbc
bc
be
beach
beautiful
beauty
became
because
become
becomes
been
before
behind
being
bell
ben
bengal
bengali
benjamin
berkeley
berlin
best
beta
better
between
beyond
bf
bharat
bhimtal
bhutan
bibcode
bible
bibliography
big
bill
billboard
bin
bio
biodiversity
biographical
biography
biological
biology
biotik
bird
birdlife
birds
birth
birthday
bjp
black
blackwell
blog
blogspot
blood
blue
bnhs
board
body
bold
bollywood
bombay
book
bookmyshow
books
born
boston
bot
botanic
botanical
botany
both
box
boy
br
brain
brand
brazil
break
breaking
brian
bridge
brief
brill
britain
britannica
british
broadcasting
brother
brothers
brown
bruce
buddhist
building
bulletin
bureau
burma
business
but
butterflies
butterfly
by
c
ca
calcutta
calicut
california
call
called
cambridge
came
campaign
campbell
can
canada
canadian
cancer
cape
capital
care
career
carl
carnatic
carolina
case
cases
cast
castle
cat
catalog
catalogue
category
catherine
catholic
cause
cave
cd
cdc
ce
cell
census
center
central
centre
centuries
century
ceo
ceylon
cf
cgi
ch
challenge
champions
chandra
change
changes
changing
channel
chapter
chapterurl
character
charles
chart
charts
check
checklist
chemical
chemist
chemistry
chen
chennai
chess
chicago
chief
child
children
china
chinese
choice
chris
christ
christian
christianity
christopher
chronicle
church
cia
cid
cinema
citation
cite
cities
city
civil
civilization
clark
class
classic
classical
classification
climate
clinical
close
club
cm
cms
cnn
co
coast
coauthors
code
codes
collected
collection
collections
college
collins
colonial
color
columbia
com
come
comes
coming
commentary
comments
commission
commissioner
commissions
committee
common
commons
commonwealth
communication
communications
community
companion
company
comparative
comparison
complete
complex
composition
comprehensive
computer
computing
concept
condition
conference
conflict
congress
conservation
constitution
construction
contemporary
content
control
convention
cook
coordinates
copy
core
cornell
coronavirus
corporation
could
council
countries
country
county
course
court
covid
crc
cricinfo
cricket
crisis
critical
critics
cross
cs
cultural
culture
cup
current
d
da
daily
dam
dan
dance
daniel
dark
darwin
das
data
database
date
dated
dates
daughter
david
davis
dawn
day
days
db
dc
de
dead
deadline
death
debut
dec
deccan
december
deep
defence
definition
del
delhi
delta
democracy
den
dennis
department
der
des
description
descriptions
desert
deshabhimani
design
detail
detailed
details
development
devi
di
diary
dictionary
did
die
died
dies
different
digital
dioscorea
directed
director
directorate
directory
discovery
discussion
disease
diseases
display
displaystyle
distance
distribution
district
diversity
division
djvu
dna
do
doc
doctor
document
documentary
documents
does
dog
doi
domain
don
donald
double
douglas
down
downloaded
dq
dr
draba
dragonflies
drama
dream
dreams
drug
drugs
du
due
duke
during
dutch
dynasty
e
each
eagle
early
earth
east
eastern
ebird
ece
ecology
economic
economics
economy
ed
edinburgh
edited
edition
editor
editorial
editors
eds
edu
education
educational
edward
effect
effects
egypt
eight
el
elected
election
electionhistory
elections
electric
electronic
elements
elephant
elizabeth
elsevier
empire
empty
en
encyclopaedia
encyclopedia
encyclopædia
end
endemic
energy
engineering
england
english
entertainment
entry
environment
environmental
era
eric
error
es
espn
espncricinfo
essay
essays
essential
estimates
et
etc
ethnic
ethnologue
eu
europe
european
evans
even
evening
event
events
ever
everest
every
evidence
evolution
ex
example
exchange
exclusive
executive
exhibition
expected
expedition
experience
expert
express
external
extra
eye
eyes
f
face
facebook
fact
factbook
factfinder
facts
faculty
fairy
faith
fall
falls
false
fame
families
family
famous
far
father
fauna
fc
fe
feature
features
feb
february
federal
federation
feed
fellow
fellows
female
feminist
festival
festivals
few
fi
fiction
field
fifa
fight
figures
file
files
film
filmfare
filmibeat
films
final
financial
find
fine
fire
first
firstpost
fish
five
flag
flight
flora
florence
florida
flower
flowering
flowers
focus
folk
folklore
following
food
football
for
forbes
force
forces
foreign
forest
forests
form
format
formation
former
forms
fort
forum
found
foundation
founder
four
fourth
fox
fr
frac
franc
france
francis
francisco
frank
franklin
fraser
frederick
free
freedom
french
friend
friends
frog
from
front
fruit
ft
fu
full
function
fund
future
g
gallery
game
games
gandhi
garden
gardens
gas
gay
gazette
gazetteer
ge
gender
gene
genera
general
genetic
genetics
genus
geographic
geography
geological
george
georgia
gerais
german
germany
germplasm
get
gets
giant
girl
girls
give
given
gives
glass
global
globe
go
goa
goal
god
goes
gold
golden
good
google
gordon
got
gov
government
governor
govt
grace
graham
gramapanchayat
grammar
grand
grant
gray
great
greater
greatest
greek
green
greenwood
gregory
grey
grimmett
grin
ground
group
groups
growth
gu
guardian
guide
guinea
gujarat
gulf
gundert
gupta
guru
h
ha
had
half
hall
hamilton
hand
handbook
hans
happy
harper
harris
harry
harv
harvard
has
have
having
hawaii
he
head
health
heart
heat
held
helen
help
henry
her
herald
here
heritage
hero
hide
high
higher
highest
hill
him
hindi
hindu
hinduism
hindustan
his
historic
historical
history
hit
ho
hockey
hollywood
holy
home
hong
honour
hope
hopkins
horse
hospital
host
hot
hotel
house
housing
how
howard
however
htm
html
http
https
hu
hugh
human
hungama
hyderabad
i
ian
ibn
ice
id
idea
identification
identity
ieee
if
ignored
ii
iii
il
illinois
illustrated
im
image
images
imdb
impact
imperial
important
in
inc
includes
including
incorporates
incorporation
independence
independent
index
india
indian
indiana
indianexpress
indians
indiatimes
indiayile
indica
indigenous
indigofera
indinov
indo
indonesia
indonesian
industrial
industry
influence
info
information
inside
inskipp
institute
institution
int
integrated
intelligence
interactive
international
internet
interview
into
introduction
ipa
iran
iranian
iraq
ireland
iris
irish
iron
is
isbn
islam
islamic
island
islands
israel
issn
issue
issues
ist
it
italian
italic
italy
itf
its
iucn
iv
ix
j
ja
jack
jackson
jacob
jain
james
jan
jane
january
japan
japanese
java
jean
jennifer
jerusalem
jesus
jewish
jim
jo
john
johns
johnson
joins
jonathan
jones
jordan
jose
joseph
jott
journal
journey
jpg
jr
jstor
jul
july
jun
june
just
justice
k
ka
kannada
karen
karl
karnataka
kashmir
kate
ke
kenneth
kerala
keralaassembly
keralakaumudi
kew
key
kg
khan
ki
killed
kim
king
kingdom
kl
kla
km
know
knowledge
known
ko
kochi
kolkata
kollam
kong
korea
korean
kottayam
krishna
kumar
l
la
lab
laboratory
lady
lake
lal
land
landscape
lang
language
languages
lanka
large
largest
last
late
later
latest
latin
launch
launches
laura
law
lawrence
laws
lb
le
lead
leader
leaders
leadership
league
learning
lecture
lee
left
legacy
legal
legend
leiden
lepidoptera
les
less
let
letter
letters
level
lewis
lg
li
library
life
light
like
limited
linda
line
lines
link
links
linnean
linux
lion
lisa
list
listen
lit
literary
literature
little
live
lives
living
ll
llc
local
location
lok
london
long
look
lord
los
loss
lost
louis
love
lovell
low
lower
lsgkerala
lt
ltd
m
ma
machine
macmillan
made
madhyamam
madonna
madras
madrid
magazine
magic
magnolia
maharashtra
mail
main
maint
major
make
makes
making
malabar
malayalachalachithram
malayalam
malayalasangeetham
malayalim
malaysia
male
mammals
man
management
manchester
mangalam
mani
manorama
manoramaonline
manual
many
map
maps
mar
march
margaret
maria
marie
marine
mark
market
markku
markup
marriage
mars
marshall
martin
mary
mass
massachusetts
master
match
material
materials
mathematical
mathematics
mathrubhumi
matt
matter
matthew
max
may
mayor
mcgraw
md
me
meaning
means
med
medal
media
medical
medicine
medieval
meet
meeting
melbourne
member
members
memoirs
memorial
memory
men
menon
merriam
message
messier
method
metro
metropolitan
mexico
mi
michael
michigan
microsoft
mid
middle
mike
military
miller
million
minas
mind
minister
ministry
mirror
miss
missing
mission
missouri
mit
ml
mm
mobile
model
models
modern
modi
mohan
mojo
molecular
money
month
monthly
moon
moore
more
morgan
morning
moscow
most
mother
motion
mount
mountain
mountains
movement
movie
movies
mp
mr
mrs
ms
msi
mtv
mu
much
muhammad
multiple
mumbai
municipal
murder
murray
museum
music
musical
muslim
muslims
must
my
mystery
n
na
nacional
nadu
nair
name
named
nameer
names
nasa
nat
nation
national
nations
native
natural
nature
nd
ndtv
ne
near
need
nelson
nepal
net
netherlands
network
never
new
newindianexpress
newrawmessage
news
newspaper
newspapers
next
ng
nh
ni
nic
nicholas
nigeria
nigerian
night
nih
nil
nithyaksharangngal
niyamasabha
nm
no
nobel
nollywood
nominations
nominees
non
norman
north
northern
norton
not
note
notes
nouns
nov
novel
november
now
nu
nuclear
number
numbers
numeric
ny
o
obituary
object
ocean
oclc
oct
october
odonata
of
off
office
officer
official
officials
oh
oil
old
olympic
olympics
on
once
oncidium
one
oneindia
online
only
open
opera
ophthalmology
opinion
option
or
oral
orange
order
org
organic
organization
oriental
origin
original
origins
ornithology
oru
os
oscar
other
others
our
out
outlook
over
overview
own
oxford
p
pa
pacific
padma
page
pagenum
pages
painting
paintings
pairs
pakistan
pakshikal
palace
palestine
pan
paper
papers
papilio
para
paralympic
parameter
parameters
paris
park
parks
parliament
part
participle
parts
party
passes
past
patel
patients
patrick
paul
pc
pdf
peace
penguin
pennsylvania
people
peoples
per
performance
period
persian
person
personal
perspective
perspectives
peter
pg
ph
phd
philadelphia
philip
philippines
philosophical
philosophy
photo
photos
php
phylogeny
physical
physics
physiology
pi
picture
pictures
pierre
pillai
pink
pioneer
pl
place
places
plan
planet
planetary
planning
plant
plants
play
played
player
players
please
plus
pm
pmc
pmid
pnas
poem
poems
poet
poetry
point
police
policy
polish
political
politics
poll
popular
population
portal
portrait
portuguese
position
possible
post
potential
power
pp
practice
pradesh
prakash
prasad
praveen
pre
premier
present
president
press
prevention
primary
prime
prince
princess
princeton
principles
print
printed
private
prize
pro
problem
problems
proceedings
process
product
production
products
prof
professor
profile
profiles
program
programme
programming
progress
project
pronunciation
properties
protected
protection
province
psychology
pt
pub
public
publication
publications
published
publisher
publishers
publishing
pulse
punctuation
punjab
punjabi
put
pvt
q
quarterly
que
queen
question
questions
quickfacts
r
ra
race
radio
rahman
railway
rain
raj
raja
rajasthan
ram
random
range
rao
rare
ravi
ray
rd
re
read
reader
reading
real
reality
recent
record
records
red
reddy
rediff
reeve
ref
reference
references
region
regional
register
related
relations
release
released
releases
religion
religious
renaissance
rep
report
reporter
reports
reprint
republic
required
requires
res
research
reserve
resistance
resolution
resource
resources
response
result
results
retrieved
return
reuters
rev
review
reviews
revised
revolution
rg
rhs
ri
rice
rich
richard
right
rights
rio
rise
risk
river
road
robert
robin
robinson
rock
roger
role
roman
rome
ronald
room
rose
ross
round
routledge
roy
royal
rs
ru
rule
rules
run
russell
russia
russian
ruth
s
sa
sabha
sacred
safety
sahitya
said
saint
same
samuel
san
sanctuary
sanskrit
santa
sarah
satellite
saudi
savela
say
says
sc
scholar
school
schools
sci
science
sciences
scientific
scientist
scientists
score
scotland
scott
screen
script
se
sea
search
season
second
secret
secretary
section
security
see
seen
selected
self
sen
sense
sep
september
series
service
services
set
seven
several
sex
sexual
sg
shah
share
shark
sharma
she
sheet
short
should
show
shows
shri
si
side
sify
silver
simon
simple
sin
since
singapore
singer
singh
single
singular
sir
sister
site
sites
six
size
sky
small
smetacek
smith
smithsonian
snake
snow
so
soc
social
society
software
solar
some
sometimes
son
song
songs
sons
sound
source
sources
south
southeast
southern
soviet
soyuz
sp
space
spain
spanish
special
species
specified
speech
spicyonion
spirit
sport
sports
spring
springer
square
sri
st
stadium
staff
stage
standard
stanford
stanley
star
stars
start
state
statement
states
station
statistical
statistics
status
stephen
steve
steven
still
stone
stop
stories
story
street
string
structure
struggle
sts
stuart
student
students
studies
study
style
su
sub
subramanian
subscription
subsp
success
such
suggested
sultan
summary
summer
sun
sunday
super
support
supreme
sur
surface
surgery
survey
susan
swami
swimming
sydney
symbols
synoptic
syria
system
systematic
systems
t
ta
table
taiwan
take
taken
takes
tale
tales
talk
talks
tamil
target
taxa
taxonomic
taxonomy
taylor
te
team
tech
technical
technology
telegraph
television
telugu
template
temple
temples
ten
tennis
term
terms
territory
test
testament
texas
text
texts
th
thai
thailand
than
that
the
theatre
thehindu
their
thekke
them
then
theory
there
these
they
things
think
third
thiruvananthapuram
this
thomas
thompson
those
thought
threatened
three
thrissur
through
thus
tiger
tikader
tim
time
timeline
times
timesofindia
title
to
today
together
tokyo
tom
too
top
topic
toronto
total
tour
tourism
towards
tower
town
tp
tr
trade
tradition
traditional
trans
translated
translation
travancore
travel
treatment
tree
trees
trend
trial
tribune
tribute
tropical
true
trust
truth
tu
turkey
turkish
tv
twenty
twitter
two
type
types
u
ubuntu
uefa
uganda
uk
ukraine
ukrainian
un
und
undefined
under
understanding
unesco
union
unit
united
universal
universe
university
unknown
up
update
updated
upon
upper
urban
url
us
usa
uscensusest
usda
use
used
user
uses
using
utilities
v
va
vaccine
vaccines
valley
value
values
van
var
variety
various
varshney
ve
verb
verlag
version
very
vi
via
vice
victoria
video
videos
vietnam
view
vii
viii
vijay
village
villages
vincent
violence
virgin
virginia
virtual
virus
vision
visual
voice
vol
vols
volume
volumes
von
vs
w
wales
walker
wall
walter
wang
want
war
wars
was
washington
watch
water
watson
way
wayback
we
weather
web
website
webster
week
weekly
welcome
well
wells
were
west
western
what
wheelchair
when
where
which
while
white
who
whole
why
wife
wiki
wikimedia
wikipedia
wikisource
wild
wildlife
wiley
will
willem
willey
william
williams
wilson
win
windows
winner
winners
wins
winter
wise
with
within
without
woman
women
won
wood
word
words
work
working
works
world
worldwide
would
wright
writer
writers
writing
writings
written
www
x
xi
y
yahoo
yale
year
years
yellow
york
you
young
your
youth
youtube
yukthibhasa
yuyomayam
z
zealand
zee
zone
{
|
}
~
£
§
©
«
­
®
°
±
²
´
µ
·
º
»
¼
½
¾
×
ƒ
ɑ
ə
ɪ
ʃ
ʰ
ʲ
ʻ
ʼ
ʾ
ʿ
ˈ
ˌ
ː
̀
́
̂
̃
̄
̆
̇
̈
̉
̊
̌
̐
̓
̔
̛
̣
̥
̦
̧
̨
̯
̱
̲
͂
͡
α
β
γ
δ
ε
η
θ
ι
λ
μ
ν
ο
π
ρ
ς
σ
τ
υ
φ
χ
ω
а
в
г
и
м
о
с
т
ָ
،
ا
ب
ة
ت
ح
د
ر
س
ع
ف
ق
ك
ل
م
ن
ه
و
ي
َ
ُ
ِ
ّ
ْ
ٓ
ٔ
ٕ
ँ
ं
ः
ई
ए
क
ख
ग
घ
ङ
च
छ
ज
ञ
ट
ठ
ड
ण
त
थ
द
ध
न
प
फ
ब
भ
म
य
र
ल
व
श
ष
स
ह
़
ा
ि
ी
ु
ू
ृ
े
ै
ॉ
ो
ौ
्
।
॥
ং
ক
গ
জ
ট
ত
দ
ন
প
ব
ম
য
র
ল
শ
স
হ
়
া
ি
ী
ু
ে
্
ਾ
ਿ
ੀ
ੰ
ર
ા
િ
ી
ે
ો
્
க
ங
ச
ட
ண
த
ந
ன
ப
ம
ய
ர
ற
ல
ள
ழ
வ
ா
ி
ீ
ு
ூ
ெ
ே
ை
்
ం
క
న
ర
ల
వ
ా
ి
ు
్
ಂ
ಕ
ಗ
ತ
ದ
ನ
ಪ
ಬ
ಮ
ಯ
ರ
ಲ
ವ
ಸ
ಾ
ಿ
ು
ೂ
ೆ
್
ೕ
ം
ഃ
അ
അക
അകത
അകന
അകപ
അകമ
അകറ
അകല
അകലത
അഖ
അഖണ
അഗ
അഗത
അഗസ
അഘ
അങ
അച
അഛ
അജ
അജയ
അഞ
അട
അടക
അടങ
അടച
അടഞ
അടയ
അടവ
അഡ
അണ
അണക
അണയ
അത
അതത
അതന
അതല
അഥ
അഥവ
അദ
അധ
അധർമ
അന
അനക
അനങ
അനധ
അനന
അനല
അനവധ
അനശ
അനസ
അനർത
അപ
അപക
അപകട
അപകടകരമ
അപകടങ
അപകടത
അപകടസ
അപഗ
അപമ
അപര
അപരന
അപവ
അപശ
അപസ
അപഹര
അഫ
അബ
അബദ
അഭ
അഭയ
അമ
അമര
അമല
അമർത
അയ
അയക
അയച
അയപ
അയയ
അയവ
അയർലണ
അയൽ
അയൽക
അര
അരക
അരങ
അരച
അരണ
അരന
അരയ
അരയന
അരവ
അറ
അറകള
അറബ
അറയ
അറവ
അറസ
അല
അലക
അലങ
അലഞ
അലറ
അലസ
അലഹബ
അലൻ
അലർജ
അള
അളക
അളന
അളവ
അഴ
അഴക
അവ
അവക
അവഗ
അവഗണ
അവങ
അവത
അവതര
അവതരണ
അവധ
അവന
അവബ
അവമ
അവയ
അവയവ
അവയവങ
അവര
അവരവര
അവറ
അവല
അവള
അവശ
അവസ
അവസര
അവസരങ
അവസരത
അവസരമ
അവൎക
അവൻ
അവൻറ
അവർ
അവർക
അവർകള
അവർകൾ
അവർകൾക
അവൾ
അവൾക
അശ
അഷ
അസ
അസത
അസന
അസമ
അസമത
അസറ
അസഹ
അസർബ
അഹ
അഹങ
അഹമ
അഹര
അൎത
അൎദ
അൻ
അൻഡ
അൻപത
അൻസ
അർക
അർച
അർജ
അർജന
അർത
അർഥ
അർഥത
അർദ
അർപ
അർബ
അർമ
അർഹ
അർഹന
അർഹസ
അൽ
അൽഗ
അൽപ
അൽഫ
അൽബ
അൽമ
അൾജ
അൾട
ആ
ആക
ആകക
ആകട
ആകപ
ആകയ
ആകസ
ആകർഷ
ആകർഷകമ
ആകർഷണ
ആഖ
ആഗ
ആഗത
ആഗമ
ആഗസ
ആഘ
ആങ
ആച
ആചര
ആജ
ആഞ
ആട
ആഡ
ആണ
ആണവ
ആത
ആദ
ആദര
ആദരവ
ആധ
ആന
ആനക
ആനകള
ആനകൾ
ആനന
ആനപ
ആനയ
ആപ
ആപത
ആഫ
ആബ
ആഭ
ആഭരണ
ആഭരണങ
ആമ
ആമത
ആമസ
ആയ
ആയത
ആയപ
ആയവൻ
ആര
ആറ
ആറന
ആല
ആലങ
ആലത
ആലപ
ആലയ
ആലയത
ആള
ആഴ
ആഴത
ആഴമ
ആവ
ആവരണ
ആവശ
ആവർത
ആശ
ആശങ
ആശയ
ആശയക
ആശയങ
ആശയത
ആശയമ
ആശയവ
ആഷ
ആസ
ആസന
ആഹ
ആൎക
ആൺ
ആൺക
ആൺത
ആൺമക
ആൻ
ആൻഡ
ആൻഡമ
ആൻറ
ആർ
ആർക
ആർച
ആർജ
ആർട
ആർഡ
ആർത
ആർതർ
ആർദ
ആർപ
ആർമ
ആർസ
ആൽ
ആൽക
ആൽപ
ആൽഫ
ആൽബ
ആൽബങ
ആൽബത
ആൽബർട
ആൾ
ആൾക
ആൾട
ഇ
ഇക
ഇഗ
ഇങ
ഇച
ഇഛ
ഇജ
ഇഞ
ഇട
ഇടക
ഇടങ
ഇടത
ഇടന
ഇടപ
ഇടമ
ഇടയ
ഇടയന
ഇടറ
ഇടവ
ഇഡ
ഇണ
ഇണക
ഇണങ
ഇണച
ഇത
ഇതന
ഇതര
ഇതറ
ഇതല
ഇദ
ഇന
ഇനങ
ഇനത
ഇനമ
ഇപ
ഇഫക
ഇബ
ഇമ
ഇയ
ഇയർ
ഇര
ഇരകള
ഇരട
ഇരപ
ഇരയ
ഇരവ
ഇറ
ഇറക
ഇറങ
ഇറച
ഇല
ഇലക
ഇലകള
ഇലകൾ
ഇലകൾക
ഇലഞ
ഇലപ
ഇലയ
ഇള
ഇളക
ഇളയ
ഇളയത
ഇളവ
ഇഴ
ഇവ
ഇവക
ഇവന
ഇവയ
ഇവര
ഇവറ
ഇവള
ഇവൻ
ഇവർ
ഇവർക
ഇവൾ
ഇഷ
ഇസ
ഇസബ
ഇഹ
ഇഹല
ഇൻ
ഇൻക
ഇൻട
ഇൻഡ
ഇൻഡക
ഇൻഡസ
ഇൻപ
ഇൻഫ
ഇൻഫർമ
ഇൻറർന
ഇൻവ
ഇൻഷ
ഇൻസ
ഇർവ
ഇൽ
ഈ
ഈക
ഈഗ
ഈച
ഈജ
ഈട
ഈഡ
ഈണ
ഈത
ഈദ
ഈന
ഈപ
ഈയ
ഈര
ഈറ
ഈവ
ഈശ
ഈസ
ഈർപ
ഉ
ഉക
ഉഗ
ഉച
ഉജ
ഉട
ഉടന
ഉടമ
ഉടമയ
ഉടമസ
ഉടയ
ഉടല
ഉടൻ
ഉഡ
ഉണ
ഉണക
ഉണങ
ഉണര
ഉണൎത
ഉണർത
ഉണർന
ഉത
ഉതക
ഉദ
ഉദയ
ഉദരത
ഉദരവശ
ഉന
ഉപ
ഉപക
ഉപകര
ഉപകരണ
ഉപകരണങ
ഉപകരണത
ഉപകരണമ
ഉപഗ
ഉപച
ഉപജ
ഉപത
ഉപദ
ഉപന
ഉപപ
ഉപഭ
ഉപമ
ഉപയ
ഉപര
ഉപവ
ഉപശ
ഉപസ
ഉബ
ഉഭ
ഉമ
ഉമർ
ഉയ
ഉയര
ഉയരത
ഉയരമ
ഉയരവ
ഉയൎത
ഉയൎന
ഉയർച
ഉയർത
ഉയർന
ഉര
ഉരഗങ
ഉരസ
ഉറ
ഉറക
ഉറങ
ഉറച
ഉറപ
ഉറയ
ഉറവ
ഉല
ഉലക
ഉള
ഉളവ
ഉഴ
ഉവ
ഉഷ
ഉസ
ഉർദ
ഉർവ
ഉൽ
ഉൽക
ഉൽപ
ഉൾ
ഉൾക
ഉൾന
ഉൾപ
ഉൾഭ
ഊ
ഊക
ഊട
ഊണ
ഊത
ഊന
ഊര
ഊറ
ഊഴ
ഊഷ
ഊഹ
ഊർജ
ഊർധ
ഋ
ഋഗ
ഋത
ഋഷ
ഌ
എ
എക
എകദ
എഗ
എങ
എച
എജ
എജമ
എഞ
എട
എടക
എടത
എഡ
എണ
എത
എദ
എന
എനർജ
എപ
എഫ
എബ
എമ
എയ
എയറ
എയർ
എയർപ
എയർല
എയർവ
എര
എറ
എറണ
എല
എള
എഴ
എവ
എവറസ
എസ
എൺപത
എൻ
എൻക
എൻജ
എൻട
എൻഡ
എൻറ
എൻവയ
എൻസ
എർത
എൽ
എൽസ
ഏ
ഏക
ഏകക
ഏകത
ഏകദ
ഏകന
ഏകവചന
ഏജന
ഏജൻസ
ഏഞ
ഏട
ഏണ
ഏണസ
ഏത
ഏതത
ഏതദ
ഏന
ഏപ
ഏര
ഏറ
ഏറന
ഏല
ഏഴ
ഏവ
ഏവമ
ഏവര
ഏഷ
ഏർപ
ഏൽക
ഏൽപ
ഐ
ഐഎസ
ഐക
ഐട
ഐഡ
ഐഡന
ഐത
ഐന
ഐപ
ഐബ
ഐയ
ഐര
ഐറ
ഐലന
ഐലൻഡ
ഐവ
ഐശ
ഐസ
ഐസക
ഐഹ
ഐൻസ
ഒ
ഒഎസ
ഒക
ഒച
ഒട
ഒഡ
ഒണ
ഒത
ഒന
ഒപ
ഒഫ
ഒബ
ഒമ
ഒയ
ഒര
ഒറ
ഒല
ഒള
ഒഴ
ഒസ
ഒഹ
ഒൻപത
ഒർ
ഓ
ഓക
ഓഗസ
ഓങ
ഓട
ഓടക
ഓഡ
ഓണ
ഓണററ
ഓത
ഓന
ഓപ
ഓഫ
ഓമന
ഓയ
ഓര
ഓറ
ഓറഞ
ഓല
ഓള
ഓവ
ഓവർ
ഓഷ
ഓസ
ഓഹര
ഓൎത
ഓൎമ
ഓൺ
ഓൺല
ഓർ
ഓർക
ഓർഗ
ഓർഗന
ഓർഡ
ഓർഡർ
ഓർത
ഓർബ
ഓർമ
ഓൾ
ഓൾഡ
ഔ
ഔട
ഔദ
ഔപച
ഔര
ഔറ
ഔഷധ
ഔഷധഗ
ഔഷധങ
ഔഷധമ
ഔഷധസസ
ഔസ
ക
കഎന
കക
കകത
കകപ
കകള
കകൾ
കഗ
കങ
കച
കജ
കഞ
കട
കടക
കടങ
കടത
കടന
കടപ
കടമ
കടയ
കടല
കടവ
കടൽ
കടൽക
കടൽത
കടൽപ
കഠ
കഡ
കണ
കണക
കണങ
കണത
കണമ
കത
കതക
കതകള
കതകൾ
കതന
കതയ
കതര
കഥ
കഥക
കഥകള
കഥകൾ
കഥയ
കദ
കധ
കന
കനക
കനത
കനല
കപ
കപട
കപര
കഫ
കബ
കബന
കബള
കഭ
കമ
കമണ
കമത
കമന
കമല
കമലഹ
കമഹ
കമൽ
കയ
കയച
കയത
കയറ
കയല
കയർ
കര
കരക
കരകള
കരങ
കരച
കരഞ
കരട
കരണ
കരണങ
കരണത
കരണമ
കരണവ
കരത
കരന
കരപ
കരഭ
കരമ
കരയ
കരള
കരവ
കരസ
കരൻ
കരൾ
കറ
കറക
കറങ
കറന
കറൻസ
കല
കലക
കലകള
കലകൾ
കലങ
കലണ
കലത
കലന
കലപ
കലമ
കലയ
കലര
കലവ
കലശ
കലശല
കലഹ
കലൎന
കലർത
കലർന
കള
കളക
കളകയ
കളങ
കളഞ
കളത
കളന
കളമ
കളയ
കളര
കളല
കളവ
കളർ
കഴ
കഴക
കവ
കവച
കവണ
കവന
കവയ
കവര
കവറ
കവല
കവർ
കവർച
കവർന
കശ
കശക
കഷ
കഷണ
കഷണങ
കസ
കസന
കസനത
കസഭ
കസഭയ
കസമ
കസസ
കഹ
കൎക
കൎണ
കൎത
കൎമ
കൺ
കൺട
കൺപ
കൺവ
കൺസ
കൺസർവ
കൺസൾട
കൻ
കൻഡ
കൻഡറ
കൻമ
കൻസ
കർ
കർക
കർണ
കർത
കർതവ
കർദ
കർപ
കർമ
കർമണ
കർശനമ
കർഷ
കർഷക
കർഷകര
കർഷകർ
കർഷണ
കൽ
കൽക
കൽന
കൽപ
കൽപന
കൽറ
കൽസ
കൾ
കൾക
കൾച
കൾപ
കൾഭ
ഖ
ഖക
ഖകന
ഖകരമ
ഖകള
ഖകൻ
ഖകൾ
ഖഗ
ഖങ
ഖച
ഖജ
ഖഡ
ഖണ
ഖത
ഖദ
ഖന
ഖനങ
ഖനത
ഖനന
ഖനമ
ഖനവ
ഖപ
ഖഭ
ഖമ
ഖയ
ഖര
ഖരങ
ഖരണ
ഖരത
ഖരന
ഖരമ
ഖരൻ
ഖല
ഖലകള
ഖലകൾ
ഖലയ
ഖവ
ഖസ
ഖൻ
ഖർ
ഖർജ
ഗ
ഗക
ഗങ
ഗച
ഗജ
ഗഞ
ഗഡ
ഗഢ
ഗണ
ഗണങ
ഗണത
ഗണന
ഗണപത
ഗത
ഗതക
ഗതത
ഗതന
ഗതമ
ഗതയ
ഗതവ
ഗദ
ഗധ
ഗന
ഗപ
ഗബ
ഗഭ
ഗമ
ഗമത
ഗമന
ഗമനങ
ഗമനത
ഗമമ
ഗമസ
ഗയ
ഗര
ഗറ
ഗല
ഗലക
ഗലത
ഗള
ഗവ
ഗവണ
ഗവത
ഗവൺമ
ഗവർണ
ഗവർണറ
ഗവർണർ
ഗവർമ
ഗശ
ഗസ
ഗസറ
ഗഹ
ഗൺ
ഗൻ
ഗർ
ഗർക
ഗർത
ഗർഭ
ഗർഭധ
ഗർഭപ
ഗർവ
ഗൽ
ഗൾ
ഗൾഫ
ഘ
ഘക
ഘങ
ഘട
ഘടക
ഘടകങ
ഘടകമ
ഘടന
ഘടനകള
ഘടനകൾ
ഘടനയ
ഘണ
ഘത
ഘന
ഘനത
ഘനമ
ഘമ
ഘര
ഘവ
ഘവൻ
ഘർഷ
ഘർഷങ
ങ
ങക
ങട
ങണ
ങത
ങന
ങപ
ങമ
ങയ
ങര
ങല
ങള
ങളടങ
ങളന
ങളല
ങഴ
ങൻ
ങൽ
ങൾ
ങൾക
ങൾതന
ങൾപ
ച
ചക
ചകക
ചകങ
ചകത
ചകന
ചകമ
ചകര
ചകള
ചകൻ
ചകൾ
ചകൾക
ചങ
ചച
ചഞ
ചട
ചടക
ചടങ
ചണ
ചത
ചതന
ചതല
ചദ
ചന
ചനക
ചനകള
ചനകൾ
ചനത
ചനമ
ചനയ
ചനവ
ചപ
ചബ
ചഭ
ചമ
ചമച
ചമഞ
ചമയ
ചമർത
ചയ
ചയക
ചയങ
ചയച
ചയത
ചയപ
ചയമ
ചയവ
ചര
ചരക
ചരട
ചരണ
ചരണത
ചരത
ചരന
ചരമ
ചരൻ
ചറ
ചറൽ
ചല
ചലച
ചലഞ
ചലന
ചലനങ
ചലനത
ചലമ
ചലസ
ചള
ചവ
ചവച
ചവട
ചവടക
ചവടത
ചവന
ചവയ
ചവര
ചവറ
ചവൻ
ചവർ
ചവർക
ചശ
ചസ
ചൎയ
ചൻ
ചർ
ചർച
ചർമ
ചൽ
ചൽസ
ഛ
ഛക
ഛത
ഛദ
ഛന
ഛമ
ഛയ
ഛസ
ഛൻ
ഛർദ
ജ
ജക
ജകമണ
ജകള
ജകൾ
ജഗ
ജഗണ
ജഗത
ജഗദ
ജഗന
ജഘ
ജങ
ജജ
ജട
ജഡ
ജഡത
ജത
ജദ
ജധ
ജന
ജനക
ജനങ
ജനത
ജനതയ
ജനന
ജനനത
ജനപ
ജനമ
ജനയ
ജനറ
ജനറല
ജനറൽ
ജനവ
ജനവര
ജനശ
ജനസ
ജനസമ
ജപ
ജപത
ജബ
ജഭ
ജമ
ജയ
ജയക
ജയകരമ
ജയങ
ജയചന
ജയത
ജയദ
ജയന
ജയപ
ജയഭ
ജയമ
ജയര
ജയറ
ജയവ
ജയശ
ജയസ
ജയൻ
ജര
ജറ
ജല
ജലക
ജലജ
ജലത
ജലദ
ജലധ
ജലന
ജലപ
ജലമ
ജലവ
ജലസ
ജവ
ജവഹർല
ജവർമ
ജശ
ജസ
ജഹ
ജൻ
ജൻസ
ജർ
ജർമ
ജർമന
ജർമൻ
ജർഷ
ഝ
ഞ
ഞക
ഞങ
ഞട
ഞണ
ഞത
ഞന
ഞപ
ഞമ
ഞയ
ഞയച
ഞര
ഞരമ
ഞല
ഞള
ഞവ
ഞവന
ഞവയ
ഞവര
ഞവൻ
ഞശ
ഞസ
ഞൻ
ഞർ
ഞൾ
ട
ടക
ടകക
ടകങ
ടകത
ടകന
ടകപ
ടകമ
ടകയ
ടകര
ടകള
ടകവ
ടകശ
ടകസ
ടകൻ
ടകർ
ടകൾ
ടഗ
ടങ
ടച
ടജ
ടഞ
ടട
ടഡ
ടണ
ടണങ
ടണത
ടണമ
ടണവ
ടത
ടതയ
ടതല
ടദ
ടധ
ടന
ടനക
ടനങ
ടനത
ടനവധ
ടപ
ടപര
ടബ
ടഭ
ടമ
ടമണ
ടമത
ടമയ
ടയ
ടയക
ടയച
ടയത
ടയർ
ടര
ടറ
ടറൽ
ടല
ടവ
ടവക
ടവന
ടവയ
ടവര
ടവറ
ടവൻ
ടവർ
ടവർക
ടശ
ടസ
ടഹ
ടൺ
ടൻ
ടൻപ
ടൻബർഗ
ടൻസ
ടർ
ടർക
ടർച
ടർട
ടർത
ടർന
ടർഫ
ടർബ
ടർമ
ടൽ
ഠ
ഠക
ഠകള
ഠങ
ഠത
ഠന
ഠപ
ഠഭ
ഠമ
ഠയ
ഠര
ഠവ
ഠശ
ഠസ
ഠൻ
ഡ
ഡക
ഡഗ
ഡങ
ഡച
ഡഡ
ഡണ
ഡത
ഡന
ഡനങ
ഡനത
ഡപ
ഡപത
ഡബ
ഡഭ
ഡമ
ഡയ
ഡയഗ
ഡയറ
ഡയറക
ഡര
ഡറ
ഡറൽ
ഡല
ഡലങ
ഡലത
ഡലമ
ഡവ
ഡവന
ഡവര
ഡവലപ
ഡവർ
ഡവർമ
ഡശ
ഡസ
ഡൺ
ഡൻ
ഡൻറ
ഡൻഷ
ഡൻസ
ഡർ
ഡൽ
ഡൽഹ
ഢ
ഢത
ഢന
ഢമ
ഢവ
ണ
ണക
ണകള
ണഗ
ണങ
ണച
ണജ
ണഞ
ണട
ണത
ണതയ
ണദ
ണധ
ണന
ണപ
ണഭ
ണമ
ണമല
ണയ
ണയങ
ണയത
ണര
ണറ
ണല
ണവ
ണവർ
ണശ
ണസ
ണഹ
ണൻ
ണർ
ണർത
ണർന
ണൽ
ത
തക
തകങ
തകത
തകന
തകമ
തകയ
തകര
തകരമ
തകല
തകള
തകഴ
തകവ
തകശ
തകൻ
തകർ
തകർക
തകർച
തകർത
തകർന
തകൾ
തകൾക
തഗ
തഗത
തങ
തച
തജ
തഞ
തട
തടങ
തടഞ
തടത
തടയ
തടവ
തടസ
തഡ
തണ
തണമ
തണല
തത
തതയ
തതസ
തഥ
തദ
തദന
തധ
തന
തനക
തനങ
തനത
തനന
തനപ
തനമ
തനയ
തനര
തനല
തനവ
തപ
തപക
തപത
തപദ
തപര
തപസ
തഫ
തബ
തബന
തഭ
തമ
തമഞ
തമണ
തമത
തമന
തമപ
തമമ
തമയ
തമല
തമസ
തമൻ
തയ
തയക
തയച
തയത
തര
തരക
തരങ
തരണ
തരണത
തരത
തരന
തരപ
തരബ
തരഭ
തരമ
തരയ
തരവ
തരവന
തരസ
തറ
തറക
തറച
തറയ
തറവ
തല
തലക
തലങ
തലച
തലത
തലന
തലപ
തലമ
തലയ
തലവ
തലവന
തലവൻ
തലശ
തലസ
തള
തളത
തളര
തളർച
തളർന
തഴ
തവ
തവക
തവണ
തവണയ
തവത
തവന
തവനങ
തവമ
തവയ
തവര
തവള
തവളയ
തവസ
തവൻ
തവർ
തവർക
തശ
തശര
തസ
തസമ
തഹ
തഹസ
തൎക
തൺ
തൻ
തൻക
തൻപ
തൻമ
തൻറ
തർ
തർക
തർജ
തർദ
തർപ
തർഭ
തർല
തർവ
തൽ
തൽക
തൽപ
തൽഫലമ
തൽമണ
ഥ
ഥക
ഥകള
ഥകർത
ഥകൾ
ഥഗ
ഥങ
ഥത
ഥതയ
ഥന
ഥനയ
ഥപ
ഥമ
ഥയ
ഥര
ഥല
ഥലങ
ഥലത
ഥലന
ഥലമ
ഥലവ
ഥവ
ഥശ
ഥസ
ഥൻ
ഥർ
ഥർക
ദ
ദക
ദകന
ദകര
ദഗ
ദഗത
ദങ
ദച
ദജ
ദണ
ദത
ദദ
ദദർശ
ദധ
ദന
ദനക
ദനങ
ദനത
ദനന
ദനപ
ദനമ
ദനയ
ദനവ
ദനൻ
ദപ
ദപരമ
ദബ
ദഭ
ദമ
ദമന
ദമയന
ദയ
ദയങ
ദയത
ദയന
ദയപ
ദയഭ
ദയമ
ദയയ
ദയവ
ദയസ
ദര
ദരങ
ദരന
ദരമ
ദരയ
ദരര
ദരവ
ദരൻ
ദറ
ദല
ദള
ദളങ
ദവ
ദശ
ദശകങ
ദശമ
ദശലക
ദസ
ദസഞ
ദഹ
ദഹന
ദൻ
ദൻക
ദർ
ദർപ
ദർബ
ദർഭ
ദർഭങ
ദർഭത
ദർശ
ദർശകര
ദർശന
ദർശനങ
ദർശനത
ദർശനമ
ദൽ
ദൾ
ധ
ധക
ധകന
ധകമ
ധകര
ധകൻ
ധകർ
ധഗ
ധങ
ധച
ധജല
ധത
ധതയ
ധതര
ധദ
ധന
ധനക
ധനകള
ധനകൾ
ധനങ
ധനഞ
ധനത
ധനന
ധനമ
ധനയ
ധനവ
ധനസ
ധനസഹ
ധനൻ
ധപ
ധബ
ധഭ
ധമ
ധമത
ധമതത
ധമന
ധമല
ധയ
ധര
ധരണ
ധരന
ധരൻ
ധവ
ധവന
ധവയ
ധവൻ
ധവൽക
ധശ
ധസ
ധസമയത
ധൎമ
ധൻ
ധർ
ധർമ
ധർമര
ധർമസ
ധർവ
ന
നക
നകത
നകമ
നകര
നകല
നകള
നകൾ
നഖ
നഖങ
നഗ
നഗര
നഗരങ
നഗരത
നഗരപ
നഗരമ
നഗരവ
നഗരസഭ
നഗരസഭയ
നഗറ
നഗർ
നങ
നച
നജ
നഞ
നട
നടക
നടത
നടന
നടപ
നടപട
നടയ
നടര
നടൻ
നഡ
നഡയ
നണ
നത
നതക
നതകള
നതത
നതന
നതമ
നതയ
നതര
നതല
നതവ
നഥ
നദ
നദണ
നധ
നന
നനഞ
നനന
നനയ
നനവ
നപ
നപക
നപത
നപര
നപരമ
നഫ
നബ
നഭ
നമ
നമത
നമന
നമനത
നമല
നമസ
നയ
നയങ
നയത
നയതന
നയന
നയമ
നയര
നയവ
നര
നരക
നരകത
നരചന
നരചയ
നരധ
നരന
നരപ
നരവ
നരസ
നറ
നല
നലക
നള
നളന
നഴ
നവ
നവക
നവജ
നവന
നവമ
നവയ
നവര
നവള
നവസ
നവൎക
നവൻ
നവർ
നവർക
നവൾ
നശ
നഷ
നസ
നസത
നസന
നസമ
നഹ
നഹദ
നൎത
നൻ
നർ
നർജ
നർജന
നർത
നർഥ
നർന
നർമ
നർവ
നൽ
നൽക
നൽകണ
നൽകണമ
നൽകപ
ഩ
പ
പക
പകന
പകമ
പകയ
പകര
പകരണ
പകരണങ
പകരമ
പകല
പകവ
പകശ
പകൻ
പകർ
പകർച
പകർത
പകർന
പകർപ
പകൽ
പകൽപ
പഗ
പഗത
പങ
പച
പജ
പഞ
പട
പടക
പടങ
പടച
പടത
പടന
പടപ
പടയ
പടയണ
പടര
പടവ
പടർന
പഠ
പഠന
പഠനക
പഠനങ
പഠനത
പഠനമ
പഠനവ
പണ
പണങ
പണത
പണന
പണമ
പണയ
പണവ
പത
പതത
പതന
പതനത
പതയ
പഥ
പഥങ
പഥത
പദ
പദങ
പദത
പദപ
പദമ
പദവ
പന
പനക
പനകള
പനങ
പനച
പനത
പനപ
പനമ
പനയ
പനവ
പപ
പബ
പഭ
പമ
പമല
പയ
പയന
പയറ
പയർ
പര
പരക
പരകള
പരത
പരദ
പരന
പരപ
പരബ
പരബന
പരമ
പരമപ
പരമശ
പരയ
പരല
പരവ
പരശ
പരസ
പറ
പറക
പറകയ
പറങ
പറച
പറഞ
പറത
പറന
പറപ
പറമ
പറയ
പറയണ
പറയപ
പറയര
പററ
പറവ
പല
പലക
പലങ
പലത
പലതര
പലതരത
പലതവണ
പലന
പലപ
പലഭ
പലമ
പലയ
പലര
പലവ
പലസ
പലഹ
പലർക
പള
പഴ
പഴക
പഴങ
പഴഞ
പഴത
പഴന
പഴമ
പഴയ
പഴയക
പഴയത
പഴയന
പഴവ
പഴശ
പവ
പവക
പവത
പവന
പവൻ
പവർ
പശ
പഷ
പസ
പസഫ
പസമ
പഹ
പൎയ
പൎവ
പൺ
പൻ
പർ
പർക
പർട
പർണ
പർന
പർപ
പർമ
പർവ
പർവത
പർവതങ
പർവതത
പർവതന
പർശ
പൽ
പൾസ
ഫ
ഫക
ഫങ
ഫട
ഫണ
ഫത
ഫന
ഫയ
ഫയല
ഫയർ
ഫയൽ
ഫര
ഫറ
ഫറവ
ഫറസ
ഫല
ഫലക
ഫലങ
ഫലത
ഫലന
ഫലപ
ഫലഭ
ഫലമ
ഫലവ
ഫലസ
ഫഷണൽ
ഫസ
ഫസറ
ഫസർ
ഫൻ
ഫൻസ
ഫർ
ബ
ബക
ബഗ
ബങ
ബച
ബജ
ബജറ
ബഞ
ബട
ബഡ
ബണ
ബത
ബദ
ബധ
ബന
ബപ
ബബ
ബഭ
ബമ
ബയ
ബര
ബരത
ബറ
ബറൽ
ബല
ബലക
ബലത
ബലപ
ബലമ
ബലര
ബലവ
ബലഹ
ബള
ബവ
ബഷ
ബസ
ബഹ
ബഹദ
ബൺ
ബൻ
ബർ
ബർക
ബർഗ
ബർട
ബർണ
ബർമ
ബർല
ബൽ
ബൽസ
ബൾഗ
ബൾബ
ഭ
ഭക
ഭഗ
ഭഗത
ഭഗവ
ഭഗവത
ഭഗവദ
ഭഗവന
ഭഗവൻ
ഭങ
ഭജ
ഭജന
ഭജനത
ഭട
ഭടന
ഭണ
ഭത
ഭദ
ഭന
ഭപ
ഭമ
ഭയ
ഭയങ
ഭയത
ഭയന
ഭയപ
ഭയമ
ഭയവ
ഭര
ഭരണ
ഭരണക
ഭരണകർത
ഭരണഘടന
ഭരണഘടനയ
ഭരണങ
ഭരണത
ഭരണന
ഭരണപരമ
ഭരണമ
ഭരണവ
ഭരണസ
ഭരണസമ
ഭരത
ഭരതന
ഭരതൻ
ഭരതർഷഭ
ഭരദ
ഭരമ
ഭല
ഭവ
ഭവങ
ഭവത
ഭവദ
ഭവന
ഭവനങ
ഭവനത
ഭവപ
ഭവമ
ഭവവ
ഭവസ
ഭവൻ
ഭസ
ഭൎത
ഭൻ
ഭർത
മ
മക
മകത
മകഥ
മകഥയ
മകന
മകമ
മകര
മകരണ
മകരമ
മകള
മകവ
മകൻ
മകൾ
മകൾക
മഖ
മഗ
മഘട
മങ
മച
മചന
മചര
മജ
മജന
മജൻ
മഞ
മട
മടക
മടങ
മഠ
മഠത
മഡ
മഡഗ
മണ
മണക
മണത
മണന
മണപ
മണമ
മണര
മണല
മണവ
മണസ
മണൻ
മണർ
മണർക
മണൽ
മണൽക
മത
മതക
മതങ
മതത
മതന
മതപ
മതപര
മതപരമ
മതമ
മതയ
മതല
മതലപ
മതലയ
മതവ
മതസ
മഥ
മദ
മദന
മദർ
മധ
മന
മനക
മനത
മനന
മനപ
മനമ
മനയ
മനശ
മനസ
മപ
മപഞ
മപര
മബ
മഭ
മമ
മമത
മയ
മയക
മയങ
മയത
മയന
മയമ
മര
മരക
മരങ
മരച
മരണ
മരണക
മരണങ
മരണത
മരണന
മരണപ
മരണമ
മരണമടഞ
മരണമടയ
മരണയ
മരണവ
മരണശ
മരത
മരന
മരപ
മരമ
മരയ
മരവ
മരശ
മറ
മറക
മറച
മറഞ
മറന
മറയ
മററ
മറവ
മല
മലക
മലകള
മലകൾ
മലങ
മലഞ
മലത
മലന
മലപ
മലബ
മലമ
മലയ
മലയൻ
മലര
മലവ
മള
മളമ
മഴ
മഴക
മഴയ
മഴവ
മവ
മവത
മവന
മവർമ
മശ
മഷ
മസ
മസക
മസങ
മസത
മസമ
മസസ
മഹ
മഹത
മഹദ
മഹന
മഹമ
മഹല
മഹർഷ
മഹൽ
മൎത
മൎയ
മൺ
മൺപ
മൺറ
മൺവ
മൺസ
മൻ
മൻക
മൻപ
മൻമ
മൻസ
മർ
മർക
മർത
മർഥ
മർദ
മർമ
മർശ
മർശങ
മർശന
മർശനങ
മർശനത
മർശമ
മൽ
മൽപ
മൽസ
മൽസര
മൾ
മൾട
യ
യക
യകക
യകത
യകതയ
യകന
യകമ
യകയ
യകര
യകരമ
യകല
യകള
യകവ
യകൻ
യകർ
യകർമ
യകൾ
യകൾക
യഗ
യഘട
യങ
യച
യചര
യജ
യജന
യജമ
യഞ
യട
യടക
യടന
യടനത
യഡ
യണ
യണഗ
യണത
യണന
യണപ
യണമ
യണൻ
യണൽ
യത
യതക
യതകള
യതകൾ
യതത
യതന
യതമ
യതയ
യതല
യഥ
യദ
യധ
യന
യനക
യനന
യനയ
യനല
യനശ
യനൻ
യപ
യപക
യപട
യപത
യപദ
യപര
യപരമ
യബ
യബന
യഭ
യമ
യമക
യമങ
യമണ
യമത
യമന
യമപ
യമപരമ
യമമ
യമര
യമറ
യമല
യമവ
യമസ
യമസഭ
യമസഭയ
യമൻ
യമർഹ
യയ
യയങ
യയത
യയന
യയമ
യയശ
യര
യരക
യറ
യറയ
യല
യലക
യഴ
യവ
യവക
യവത
യവന
യവയ
യവര
യവശ
യവസ
യവഹ
യവഹര
യവൻ
യവർ
യവർക
യവർഗ
യവൽക
യവൾ
യശ
യശക
യശര
യശസ
യഷ
യസ
യസന
യസഭ
യസഭയ
യസമ
യസമര
യസമരത
യസഹ
യഹ
യഹര
യൎക
യൎത
യൺ
യൻ
യൻക
യൻപ
യൻമ
യൻറ
യൻഷ
യൻസ
യർ
യർക
യർത
യർഥ
യർന
യർപ
യർമ
യൽ
യൽസ
ര
രക
രകങ
രകട
രകടന
രകടനങ
രകടനത
രകടമ
രകത
രകഥ
രകന
രകമ
രകയ
രകര
രകരണ
രകല
രകലയ
രകള
രകവ
രകൻ
രകൾ
രകൾക
രഖ
രഗ
രഗണ
രഗത
രഗല
രഘ
രങ
രച
രചക
രചന
രചനകള
രചനകൾ
രചനയ
രചയ
രചര
രചരണ
രജ
രജകള
രജന
രജനന
രജപ
രജസ
രജൻ
രഞ
രട
രഡ
രണ
രണക
രണകള
രണഗത
രണങ
രണത
രണന
രണപ
രണമ
രണയ
രണയത
രണവ
രണസ
രത
രതത
രതന
രതപ
രതമ
രതയ
രതര
രതല
രതലത
രഥ
രഥന
രഥമ
രഥമപ
രദ
രദക
രദന
രദമ
രദൻ
രദർശ
രദർശന
രദർശനങ
രദർശനത
രധ
രന
രനന
രനല
രപ
രപഞ
രപത
രപദ
രപര
രപരമ
രപരവ
രഫ
രബ
രബന
രബല
രബലമ
രഭ
രഭദ
രഭയ
രഭരണ
രഭവ
രമ
രമക
രമങ
രമണ
രമണക
രമണങ
രമണത
രമണപഥത
രമത
രമദ
രമന
രമപ
രമമ
രമയ
രമര
രമരഹ
രമല
രമവ
രമസ
രമൻ
രയ
രയത
രയന
രയമ
രയവ
രയൻ
രയൽ
രര
രരചന
രരചനയ
രറ
രല
രള
രളത
രളന
രളപ
രളമ
രളയ
രളവ
രളവർമ
രളസ
രവ
രവക
രവങ
രവച
രവചന
രവചനങ
രവട
രവണ
രവണത
രവത
രവധ
രവന
രവമ
രവര
രവവ
രവശ
രവസ
രവഹ
രവൎത
രവൻ
രവർ
രവർഗ
രവർത
രവർമ
രശ
രശക
രശറ
രശലഭങ
രശസ
രഷ
രഷന
രസ
രസക
രസകരമ
രസങ
രസത
രസതന
രസന
രസഭ
രസഭയ
രസമ
രസര
രസവ
രസവത
രസർക
രഹ
രഹങ
രഹണ
രഹത
രഹപ
രഹമ
രഹര
രഹവ
രഹസ
രൺ
രൻ
രൻമ
രൻസ
രർ
രർക
രർത
രൽ
റ
റക
റകള
റകൾ
റഗ
റങ
റച
റജ
റഞ
റട
റഡ
റണ
റത
റദ
റന
റനന
റപ
റഫ
റഫർ
റബ
റമ
റയ
റയൽ
റര
ററ
റല
റളവ
റഴ
റവ
റവന
റവര
റശ
റഷ
റസ
റഹ
റൺ
റൺസ
റൻ
റൻസ
റർ
റർജ
റർട
റർഡ
റർന
റർപ
റർഫ
റർമ
റർസ
റൽ
ല
ലഎന
ലക
ലകങ
ലകണ
ലകത
ലകന
ലകപ
ലകമ
ലകള
ലകൻ
ലകൾ
ലകൾക
ലഖ
ലഗ
ലഘ
ലഘട
ലങ
ലച
ലചന
ലജ
ലഞ
ലട
ലടങ
ലടച
ലടയ
ലഡ
ലണ
ലത
ലതയ
ലദ
ലധ
ലധന
ലന
ലനത
ലനവ
ലപ
ലഫ
ലബ
ലഭ
ലഭമ
ലമ
ലമത
ലമന
ലയ
ലയങ
ലയത
ലയന
ലയമ
ലയളവ
ലയവ
ലയൻ
ലയർ
ലര
ലറ
ലറയ
ലല
ലള
ലവ
ലവക
ലവണ
ലവണങ
ലവത
ലവന
ലവര
ലവഴ
ലവസ
ലവൻ
ലവർ
ലവർഷ
ലശ
ലസ
ലഹ
ലഹര
ലഹള
ലൻ
ലൻഡ
ലൻസ
ലർ
ലർക
ലർച
ലർത
ലൽ
ള
ളക
ളകള
ളകർത
ളകൾ
ളങ
ളച
ളചലച
ളജ
ളഞ
ളട
ളടക
ളണ
ളത
ളതല
ളതലത
ളദ
ളന
ളനങ
ളനത
ളപ
ളബ
ളഭ
ളമ
ളയ
ളയട
ളയത
ളര
ളറ
ളല
ളള
ളളത
ളവ
ളവന
ളവയ
ളവര
ളവള
ളവൎക
ളവൻ
ളവർ
ളവർക
ളവൾ
ളശ
ളസ
ളൻ
ളർ
ളർക
ളർന
ളർപ
ളർഷ
ളൽ
ഴ
ഴക
ഴകള
ഴകൾ
ഴങ
ഴച
ഴഞ
ഴടക
ഴടങ
ഴത
ഴന
ഴപ
ഴമ
ഴയ
ഴര
ഴറ
ഴല
ഴവ
ഴൽ
വ
വക
വകക
വകത
വകന
വകഭ
വകമ
വകയ
വകര
വകല
വകള
വകവ
വകൻ
വകർമ
വകൾ
വഗ
വങ
വച
വചന
വചനങ
വചനത
വചര
വജ
വജന
വഞ
വട
വടക
വടകര
വടങ
വഡ
വണ
വണക
വണങ
വണന
വണൻ
വത
വതകള
വതങ
വതത
വതന
വതമ
വതയ
വദ
വദത
വദന
വധ
വധശ
വന
വനക
വനകള
വനകൾ
വനകൾക
വനങ
വനത
വനദ
വനന
വനപ
വനമ
വനമന
വനയ
വനവ
വനസ
വപ
വപര
വബ
വഭ
വഭക
വമ
വമന
വമല
വമസ
വയ
വയത
വയന
വയമ
വയറ
വയല
വയലറ
വയവങ
വയസ
വയർ
വയൽ
വര
വരക
വരകള
വരകൾ
വരങ
വരച
വരട
വരണ
വരണങ
വരണത
വരണമ
വരത
വരദ
വരന
വരപ
വരമ
വരമന
വരയ
വരര
വരവ
വരശ
വരസ
വരൻ
വരൾച
വറ
വല
വലക
വലങ
വലഞ
വലത
വലന
വലപ
വലമ
വലയ
വള
വളങ
വളച
വളഞ
വളത
വളപ
വളമ
വളയ
വളര
വളവ
വളൎത
വളൎന
വളർച
വളർത
വളർന
വഴ
വഴക
വഴങ
വവ
വവർഗ
വശ
വശക
വശങ
വശത
വശപ
വശമ
വശവ
വഷള
വസ
വസങ
വസത
വസന
വസമ
വസവ
വഹ
വഹണ
വഹന
വൎക
വൎഗ
വൎണ
വൎത
വൎദ
വൎഷ
വൎഷത
വൺ
വൻ
വൻക
വൻകരയ
വൻത
വൻപ
വൻസ
വർ
വർക
വർഗ
വർഗങ
വർഗത
വർച
വർജ
വർട
വർണ
വർണവ
വർത
വർതത
വർദ
വർധ
വർധന
വർന
വർപ
വർമ
വർഷ
വർഷക
വർഷങ
വർഷത
വർഷമ
വർഷവ
വൽ
വൽക
വൽപ
വൾ
ശ
ശക
ശകന
ശകരമ
ശകലന
ശകലനത
ശകള
ശഗ
ശങ
ശച
ശജ
ശജന
ശജയ
ശജര
ശജർ
ശണ
ശത
ശതക
ശതകത
ശതമ
ശദ
ശദമ
ശന
ശനത
ശനമ
ശനഷ
ശപ
ശബ
ശബര
ശഭ
ശമ
ശമണ
ശമന
ശയ
ശയങ
ശയത
ശയന
ശയമ
ശയവ
ശര
ശരണ
ശരത
ശറ
ശല
ശലഭ
ശലഭങ
ശവ
ശവക
ശവത
ശവന
ശവപ
ശവസ
ശവൻ
ശവർഷ
ശശ
ശസ
ശൻ
ശർക
ശർമ
ഷ
ഷക
ഷകങ
ഷകന
ഷകനദ
ഷകയ
ഷകര
ഷകരമ
ഷകള
ഷകൻ
ഷകർ
ഷകർക
ഷകൾ
ഷകൾക
ഷഗ
ഷങ
ഷച
ഷജ
ഷട
ഷഡ
ഷണ
ഷണക
ഷണങ
ഷണത
ഷണന
ഷണപ
ഷണമ
ഷണയ
ഷണര
ഷണറ
ഷണല
ഷണവ
ഷണശ
ഷണസ
ഷണർ
ഷണൽ
ഷത
ഷതകള
ഷതകൾ
ഷതയ
ഷദ
ഷധ
ഷന
ഷനറ
ഷനൽ
ഷപ
ഷബ
ഷഭ
ഷമ
ഷമത
ഷമതയ
ഷമമ
ഷമയ
ഷയ
ഷയങ
ഷയത
ഷയമ
ഷയര
ഷയവ
ഷര
ഷരങ
ഷരത
ഷരമ
ഷരവ
ഷറ
ഷല
ഷവ
ഷശ
ഷഷ
ഷസ
ഷസന
ഷസൻ
ഷഹ
ഷൺ
ഷൻ
ഷൻമ
ഷൻസ
ഷർ
സ
സക
സകല
സകലത
സകലവ
സകള
സകൾ
സഖ
സഗ
സങ
സച
സജ
സഞ
സഡ
സഡറ
സണ
സണൽ
സത
സതത
സദ
സദസ
സന
സനങ
സനത
സനയ
സപ
സപദ
സപര
സഫ
സഫല
സഫലമ
സബ
സബത
സഭ
സഭക
സഭകള
സഭകൾ
സഭയ
സമ
സമക
സമഗ
സമചത
സമത
സമതലങ
സമതലത
സമന
സമഭ
സമമ
സമയ
സമയങ
സമയത
സമയമ
സമയവ
സമര
സമരങ
സമരത
സമരമ
സമവ
സമസ
സമർത
സമർപ
സയ
സയന
സയൻസ
സയൻസസ
സര
സരങ
സരണ
സരത
സരപ
സരമ
സരവ
സരസ
സറ
സല
സവ
സവക
സവങ
സവത
സവമ
സവസ
സവർണ
സശ
സസ
സഹ
സഹക
സഹകര
സഹകരണ
സഹകരണത
സഹജ
സഹജമ
സഹത
സഹദ
സഹനട
സഹപ
സഹമ
സഹവ
സഹസ
സൎക
സൎഗ
സൎപ
സൎവ
സൺ
സൺസ
സൻ
സൻസ
സർ
സർക
സർഗ
സർച
സർജ
സർജന
സർജറ
സർട
സർദ
സർപ
സർപഞ
സർമ
സർല
സർലൻഡ
സർവ
സർവകല
സർവത
സർവദ
സർവഭ
സർവവ
സർവശ
സർവസ
സൽ
സൽക
സൽമ
സൾഫ
സൾഫർ
ഹ
ഹക
ഹകന
ഹകള
ഹകൻ
ഹകൾ
ഹഗ
ഹങ
ഹച
ഹചര
ഹജ
ഹഡ
ഹണ
ഹത
ഹദ
ഹന
ഹനങ
ഹനത
ഹനന
ഹനമ
ഹനൻ
ഹപ
ഹബ
ഹബന
ഹഭ
ഹമ
ഹയ
ഹയർ
ഹയർസ
ഹര
ഹരജ
ഹരണ
ഹരണങ
ഹരണത
ഹരണമ
ഹരമ
ഹരൻ
ഹറ
ഹല
ഹള
ഹവ
ഹശ
ഹസ
ഹസൻ
ഹൻ
ഹൻല
ഹർ
ഹർജ
ഹർത
ഹർഷ
഼
ഽ
ഽഗ
ഽത
ഽഥ
ഽദ
ഽധ
ഽന
ഽപ
ഽബ
ഽഭ
ഽയ
ഽസ
ഽഹ
ാ
ി
ീ
ു
ൂ
ൃ
ൄ
െ
േ
ൈ
്
ൎ
ൎക
ൎഗ
ൎച
ൎജ
ൎണ
ൎത
ൎദ
ൎന
ൎപ
ൎബ
ൎഭ
ൎമ
ൎയ
ൎല
ൎവ
ൎസ
ൗ
ൟ
ൠ
ൡ
ൢ
൦
൧
൧൦
൧൧
൧൨
൧൩
൧൪
൧൫
൧൬
൧൭
൧൮
൧൯
൨
൨൦
൨൧
൨൨
൨൩
൨൪
൨൫
൨൬
൨൭
൨൮
൨൯
൩
൩൦
൩൧
൩൨
൩൩
൩൪
൩൫
൩൬
൩൭
൩൮
൩൯
൪
൪൦
൫
൬
൭
൮
൯
൹
ൺ
ൺക
ൺഗ
ൺട
ൺഡ
ൺത
ൺപ
ൺഫ
ൺഫറൻസ
ൺമ
ൺമക
ൺറ
ൺല
ൺവ
ൺഷ
ൺസ
ൺസന
ൺസൺ
ൻ
ൻഎന
ൻക
ൻകര
ൻകഴ
ൻഗ
ൻഗണന
ൻച
ൻജ
ൻട
ൻഡ
ൻഡറ
ൻഡർ
ൻത
ൻതന
ൻദ
ൻന
ൻപ
ൻപത
ൻപറഞ
ൻഫ
ൻബ
ൻബർഗ
ൻഭ
ൻമ
ൻയ
ൻറ
ൻല
ൻവ
ൻവല
ൻവശത
ൻഷ
ൻഷന
ൻഷൻ
ൻസ
ൻസന
ൻസറ
ൻസസ
ൻസൺ
ൻസർ
ൻഹ
ർ
ർആന
ർആൻ
ർക
ർഖ
ർഗ
ർഗങ
ർഗത
ർഗന
ർഗമ
ർഗരറ
ർഗവ
ർഗൻ
ർഘ
ർഘക
ർഘമ
ർഘവ
ർച
ർജ
ർജന
ർട
ർഡ
ർഡന
ർഡൻ
ർഡർ
ർണ
ർണമ
ർണയ
ർണല
ർണവ
ർണർ
ർണൽ
ർത
ർതര
ർഥ
ർഥങ
ർഥത
ർഥമ
ർഥസ
ർദ
ർദന
ർധ
ർന
ർപ
ർപറ
ർഫ
ർബ
ർബണ
ർബന
ർബറ
ർബല
ർബലമ
ർബൺ
ർബർ
ർഭ
ർഭവ
ർമ
ർമന
ർമറ
ർമസ
ർമൻ
ർമൽ
ർയ
ർര
ർറ
ർല
ർലഭ
ർലമ
ർലറ
ർള
ർവ
ർവച
ർവചന
ർവചനങ
ർവത
ർവന
ർവമ
ർവര
ർവറ
ർവഴ
ർവഹ
ർവർ
ർവർണ
ർശ
ർശന
ർഷ
ർഷൻ
ർഷൽ
ർസ
ർഹ
ർഹമ
ൽ
ൽഒര
ൽക
ൽഗ
ൽച
ൽജ
ൽട
ൽഡ
ൽത
ൽതന
ൽദ
ൽന
ൽനടയ
ൽപ
ൽപത
ൽപര
ൽപറഞ
ൽഫ
ൽബ
ൽഭ
ൽമ
ൽമക
ൽര
ൽറ
ൽവ
ൽവച
ൽവന
ൽവര
ൽവർ
ൽശ
ൽഷ
ൽസ
ൽസൺ
ൽഹ
ൾ
ൾക
ൾകയ
ൾഗ
ൾച
ൾട
ൾഡ
ൾഡൻ
ൾത
ൾതന
ൾന
ൾപ
ൾഫ
ൾബ
ൾമ
ൾവ
ൾഷ
ൾസ
ൿ
න
ර
්
ා
ි
ු
ෙ
น
อ
ั
ิ
ี
ุ
่
้
์
་
ོ
ာ
်
​
‌
‍
‎
‐
–
—
‘
’
“
”
„
†
•
…
‬
′
″
‹
›
⁄
⁡
₂
€
₹
№
™
↑
→
↔
↷
∈
∑
−
∞
∫
≈
≡
≤
⋅
③
④
⑦
▼
●
♀
✱
⟩
⺀
⺄
⺆
⺈
⺊
⺌
⺕
⺝
⺸
⺼
⿰
⿱
⿲
⿳
⿴
⿵
⿶
⿷
⿸
⿹
⿺
⿻
、
。
〢
あ
い
う
か
こ
し
た
と
に
の
は
る
ん
゙
゚
ア
イ
ウ
エ
カ
キ
ク
コ
シ
ス
タ
ッ
ト
ニ
ヒ
フ
メ
ユ
ラ
リ
ル
ン
・
ー
㇁
㇂
㇄
㇇
㇈
㇉
㇓
㐁
㐄
㐅
㐌
㐫
㐬
㐭
㐮
㐱
㑒
㒵
㒸
㒼
㓁
㓞
㔾
㕛
㕣
㖾
㘝
㚅
㚇
㚔
㚘
㝉
㝡
㝴
㝵
㞋
㞢
㞷
㠩
㠭
㠯
㡀
㡭
㡿
㢲
㢴
㣇
㣺
㥯
㪅
㫄
㫐
㫒
㫺
㬅
㬎
㬥
㬰
㲋
㳄
㷠
㸒
㸚
㸦
㼌
㼲
㽞
㿟
䀠
䂞
䍃
䏍
䒑
䖍
䖒
䖝
䖵
䙴
䚻
䜌
䝿
䡛
䧹
䪞
一
丁
丂
七
丄
丅
丆
万
丈
三
上
下
丌
不
与
丏
丐
丑
专
且
丕
世
丘
丙
业
东
丞
丢
丣
两
严
並
丨
丩
个
丫
丬
中
丮
丰
丱
串
丵
丶
丷
丸
丹
为
主
丽
丿
乀
乂
乃
久
乆
乇
么
义
之
乌
乍
乎
乏
乐
乑
乔
乖
乗
乘
乙
乚
乛
乜
九
乞
也
习
乡
乳
乾
亀
亅
了
亇
予
争
事
二
亍
于
亏
亐
云
互
亓
五
井
亘
亚
亜
亞
亟
亠
亡
亢
交
亥
亦
产
亨
亩
享
京
亭
亮
亯
亰
亲
亳
亶
亷
人
亻
亼
亾
仁
今
介
仌
从
仐
仑
仒
仓
仕
他
付
仝
代
令
以
任
企
伊
伏
伐
休
会
伯
但
位
何
佘
余
作
佥
使
來
侈
侌
侖
侯
侵
便
保
俞
信
修
倉
倍
候
倠
備
僉
僕
儿
兀
允
兂
元
兄
充
兆
兇
先
光
兊
克
兌
免
兑
兒
兓
兔
党
兜
兟
入
全
兩
兪
八
公
六
兮
兰
共
关
兵
其
具
典
兹
兼
冀
冂
冃
冄
内
冈
冉
冊
冋
册
再
冎
冏
冐
冒
冓
冖
冗
冘
军
农
冝
冡
冥
冫
冬
冷
几
凡
凢
凵
凶
凷
凸
凹
出
函
凾
刀
刁
刂
刃
刄
刅
分
切
刍
刑
刕
刖
列
刘
则
初
別
利
别
到
制
刺
則
削
剌
前
剡
剽
劉
力
功
加
劦
助
劫
劳
劵
勃
勇
勉
勒
動
務
勞
勤
勹
勺
勻
勾
勿
匀
匂
包
匆
匈
匊
匋
匍
匕
化
北
匚
匝
匡
匪
匱
匸
匹
区
医
匽
匿
區
十
卂
千
卄
卅
卆
升
午
卉
半
卌
华
卑
卒
卓
单
卖
南
卜
卝
卞
占
卡
卢
卣
卤
卦
卩
卪
卬
卯
印
危
即
却
卵
卷
卸
卻
厂
厃
厄
历
厈
厉
厌
厓
厘
厚
原
厤
厥
厨
厭
厲
厶
厷
厸
去
厼
厽
叀
参
參
叅
又
叉
及
友
双
反
叐
发
叒
叔
叕
取
受
叚
叜
叟
口
古
句
另
叩
只
召
可
台
叱
史
右
叵
号
司
叹
吂
各
吅
合
吉
吊
吋
同
名
后
吏
向
吕
君
吝
吞
否
含
启
吳
吴
吹
吾
呂
呆
呈
告
员
呙
周
命
咅
和
咎
咠
咢
咨
咸
咼
哀
品
哉
員
哥
哲
唐
商
啇
問
啚
啬
啻
善
喜
喬
單
喿
嗇
噩
嚴
囊
囗
囘
囙
囚
四
回
囟
因
囧
囬
困
囱
囷
固
国
圂
圅
國
圍
園
圓
土
圡
圣
圥
在
圭
地
圶
圼
坐
坒
坚
坴
垂
垔
垚
埀
埋
城
埶
執
基
堂
堅
堆
堇
堯
塞
墨
壘
士
壬
壯
声
壳
壴
壹
壺
壽
夂
处
夅
夆
备
夊
夋
夌
复
夏
夒
夕
外
夗
夘
多
夜
夢
大
夨
天
太
夫
夬
夭
央
失
夲
头
夷
夸
夹
夻
夾
奂
奄
奇
奈
奉
奎
奏
奐
契
奓
奔
奚
奞
奠
奢
奥
奭
女
奴
奻
好
如
妄
妙
妟
妥
妻
妾
姑
委
姜
威
娄
婁
婴
嬰
嬴
子
孑
孔
孕
孖
字
存
孚
孛
孝
孟
季
孤
学
孫
孱
學
宀
宁
宂
它
宅
宇
守
安
宋
完
宏
宓
宗
官
定
宛
宜
宝
客
宣
室
宮
宰
害
家
容
宾
宿
寄
寅
密
富
寒
察
寧
審
寫
寬
寮
寸
对
寺
寻
寽
対
寿
封
尃
射
将
將
專
尉
尊
尋
尌
對
小
少
尒
尓
尔
尖
尗
尚
尞
尢
尣
尤
尧
尨
尭
就
尸
尹
尺
尻
尼
尽
尾
尿
局
居
屈
屋
屎
屏
屑
展
屖
屚
属
屠
屡
屬
屮
屯
屰
山
屵
屾
岁
岂
岑
岡
岩
岳
岸
峯
島
崇
崑
崔
崖
崙
崩
嵬
嶲
巂
巛
川
州
巟
巠
巢
巤
工
左
巧
巨
巩
巫
差
己
已
巳
巴
巷
巸
巽
巾
巿
帀
市
布
希
帚
帛
帝
带
師
席
帶
常
干
平
年
幵
并
幷
幸
幺
幻
幼
幽
幾
广
広
庄
床
底
店
庚
府
度
庫
庭
庶
康
庸
廉
廌
廛
廣
廩
廴
延
廷
建
廾
廿
开
弁
弃
弄
弇
弋
式
弓
弔
引
弗
弘
弜
弟
弥
弦
弱
張
強
强
彊
彌
彎
彐
彑
当
彔
录
彖
彗
彡
形
彥
彦
彧
彭
彳
役
彼
往
待
律
徒
得
徙
從
復
微
徵
心
忄
必
忌
忍
志
忝
忠
忩
快
念
忽
忿
思
怠
急
怱
恆
恒
恩
恭
息
悉
患
悤
悲
悶
惠
惡
惢
愁
愈
意
愛
感
慈
慧
慮
憂
憲
應
戀
戈
戉
戊
戋
戌
戍
戎
成
我
戒
戔
或
戚
戠
戢
截
戲
戶
户
戹
戼
戾
房
所
扁
扇
手
扌
才
打
托
执
承
折
拉
拜
拿
掌
推
提
摩
支
攴
攵
收
攸
改
放
政
敄
敏
敕
敖
敗
敝
敞
敢
散
敦
敫
敬
数
敷
數
斂
文
斉
斊
斗
斤
斥
斩
斬
斯
新
方
於
施
斿
旁
旋
族
无
旡
既
旣
日
旦
旧
旨
早
旬
旱
旲
时
旾
昆
昇
昌
昍
明
昏
易
昔
昗
昜
星
春
昬
是
昱
昴
昷
時
晃
晋
晏
普
景
晶
智
暑
暴
曇
曩
曰
曲
曳
更
曷
書
曹
曼
曾
替
最
朁
會
月
有
朋
服
朔
朕
朗
望
朝
木
朩
未
末
本
札
朮
术
朱
朵
朶
朿
杀
杏
杜
束
条
来
東
杲
杳
松
析
林
枚
果
枝
枲
枼
某
柔
查
柬
柰
柴
栗
桀
桑
桼
梁
條
梟
梨
棘
棠
棥
森
楚
業
楽
榮
樂
樊
欠
次
欣
欮
欲
欶
欽
款
歆
歇
歛
止
正
此
步
武
歨
歪
歮
歯
歰
歲
歴
歷
歸
歹
歺
死
殳
段
殷
殸
殹
殺
殻
殿
毋
毌
母
每
毒
比
毕
毚
毛
毳
氏
氐
民
气
氣
水
氵
氶
氷
永
氺
氾
求
汝
汞
江
沃
沓
沙
沝
泉
法
波
泣
泥
泰
洛
洪
活
派
流
浦
浪
浮
海
淡
淮
清
渚
渠
湯
滿
漸
火
灬
灭
灰
灵
灷
炅
炎
炏
炗
炙
炭
為
烈
烏
烝
焉
無
焦
焱
然
煞
熊
熏
燕
營
燮
爪
爫
爭
爯
爰
爱
爲
爵
父
爻
爽
爾
爿
片
牙
牚
牛
牜
牟
牢
牧
牪
牽
犀
犬
犭
犮
狂
狄
狊
独
狺
猋
猒
猪
献
獻
玄
率
玉
王
玟
玨
珎
班
琴
瑟
瑩
瓜
瓦
甘
甚
生
産
用
甫
甬
田
由
甲
申
电
甶
男
甸
甹
画
甾
畀
界
畏
畐
留
畜
畟
畢
畧
畨
番
畫
異
畱
當
畺
畾
疊
疋
疌
疑
疒
疾
癶
癸
癹
登
發
白
百
皀
皃
的
皆
皇
皋
皐
皕
皮
皷
皿
盃
盆
盇
盈
益
盍
盎
监
盒
盖
盛
盡
監
盤
盧
目
直
相
盾
省
眇
眉
看
眔
眞
真
眷
眼
眾
着
睘
睪
睿
瞏
瞢
瞿
矍
矛
矞
矢
矣
知
矦
短
石
破
碎
磊
磨
示
礻
礼
社
祟
票
祭
禀
禁
禸
禹
禺
离
禽
禾
禿
秀
秃
秉
秋
科
秝
秦
移
稟
穀
穌
穴
究
穹
空
穿
突
窄
窒
立
竒
竜
竝
竟
章
童
竹
笑
笠
筆
等
答
箕
算
箴
節
篤
篭
米
粉
粛
粟
粤
粦
粲
糞
糸
糹
系
約
納
素
索
紫
累
細
絜
絫
絲
維
綿
縣
繇
纍
纟
缶
网
罒
罔
罕
罗
罙
罡
罢
罪
署
罷
羅
羊
羌
羍
美
羔
羕
羗
羞
羡
羣
群
義
羲
羸
羽
翁
翏
習
翕
翟
翠
翼
老
耂
考
者
耆
而
耎
耑
耒
耳
耴
耶
耷
聂
聊
聖
聚
聶
聿
肀
肃
肅
肉
肖
肙
肥
肩
肯
育
肴
胃
背
胡
胥
能
脊
脩
膚
臣
臤
臧
自
臬
臭
臯
臱
至
致
臺
臼
臽
臾
臿
舀
舂
舄
與
興
舉
舌
舍
舛
舜
舞
舟
般
艮
良
色
艸
艹
艾
芒
芔
芬
芮
花
芳
芺
芻
苔
苗
苟
若
苦
英
茶
茸
荅
草
荒
荣
荼
莆
莧
莫
莽
菆
菊
菐
華
萬
落
葉
著
葛
董
葵
蒙
蒦
蒼
蓋
蓬
蓺
蔑
蔡
蕉
蕭
薄
薛
薦
薰
藍
藏
藥
蘭
虍
虎
虐
虒
虔
處
虖
虗
虘
虚
虛
虜
虞
虫
虽
蚤
蚩
蜀
蜜
蟲
蠡
血
行
衍
衛
衣
衤
表
衮
衰
袁
袞
褭
褱
襄
襾
西
覀
要
覃
見
規
覓
覧
親
覽
见
角
解
言
訁
訇
計
詹
語
誩
諸
讠
谷
豆
豈
豊
豐
豕
豖
豙
象
豦
豩
豪
豸
貇
貝
貞
貟
負
貢
貧
貪
貫
責
貳
貴
買
費
賁
資
賈
賏
賓
賔
賛
賞
賢
賣
質
賴
贊
贝
贡
责
贯
贲
贵
赖
赞
赤
赦
走
越
足
路
蹇
身
躬
車
軍
軎
軟
輦
车
辛
辜
辟
辥
辰
辱
農
辵
辶
边
达
过
近
连
迷
追
退
送
逆
逐
通
速
造
逢
連
逮
進
遀
遂
過
道
達
遣
適
遷
遺
邊
邑
邕
那
邦
邪
郎
部
郭
都
鄉
酉
酋
配
酓
釆
采
里
重
野
量
金
釒
錢
钅
長
镸
长
門
閃
閉
開
閏
閑
閒
間
閔
閵
閻
闌
门
间
闷
阑
阜
阝
阿
降
陳
隆
隊
隋
隡
隨
隱
隶
隹
隺
隻
隼
隽
难
雀
雁
集
雈
雋
雍
雐
雔
雙
雚
雜
雝
離
難
雨
雩
雪
雲
零
雷
需
霍
霜
霝
霞
霸
靈
靑
青
非
靡
面
靣
革
韋
韦
韭
韯
韱
音
頁
頃
項
須
頗
頡
頻
顛
页
風
风
飛
飞
食
飠
養
饣
首
香
馬
馮
駦
马
骨
高
髟
鬥
鬯
鬲
鬼
魚
魯
鮮
鱼
鲁
鳥
鳳
鸟
鹵
鹿
麃
麗
麥
麦
麻
黃
黄
黍
黎
黑
黒
黨
黹
黽
黾
鼎
鼓
鼠
鼻
齊
齋
齐
齒
齿
龍
龙
龜
龟
龠
龰
龱
龴
龵
龶
龷
龸
龹
꠱
者
艹
﻿
（
）
，
：
？
￼
�
𠀁
𠀃
𠀆
𠀉
𠀎
𠀐
𠁁
𠁣
𠂆
𠂇
𠂈
𠂉
𠂊
𠂋
𠂎
𠂒
𠂔
𠂛
𠂡
𠂢
𠂤
𠂬
𠂭
𠂹
𠃊
𠃋
𠃌
𠃍
𠃎
𠃑
𠃓
𠃔
𠃜
𠄌
𠄎
𠄠
𠄢
𠆢
𠆥
𠇍
𠈌
𠌵
𠓜
𠔉
𠔥
𠔼
𠔽
𠔿
𠕀
𠕁
𠕋
𠘧
𠘨
𠙻
𠙼
𠚏
𠚒
𠚤
𠚪
𠣏
𠤎
𠤕
𠥓
𠦄
𠦑
𠦝
𠧒
𠧗
𠧪
𠩺
𠪚
𠫓
𠫔
𠫤
𠬛
𠬝
𠬞
𠬢
𠬤
𠬶
𠮛
𠮦
𠮷
𠯑
𠱠
𠳮
𠷎
𡈼
𡉀
𡉵
𡌥
𡍮
𡏳
𡕒
𡕩
𡕰
𡖅
𡗗
𡗜
𡘆
𡘤
𡧱
𡨄
𡩧
𡬠
𡭽
𡰣
𡰥
𡰪
𡰯
𡰱
𡷈
𡸁
𡿨
𡿩
𡿪
𡿺
𢀖
𢀛
𢀩
𢁙
𢆉
𢆰
𢆶
𢇁
𢇇
𢉖
𢌬
𢌿
𢏚
𢑑
𢑚
𢖻
𢙣
𢛳
𢦏
𢦒
𢧵
𢼄
𢾕
𣁋
𣄼
𣅀
𣅽
𣍘
𣎳
𣎵
𣏋
𣏼
𣗥
𣥂
𣥖
𣦵
𣦼
𣧄
𣪊
𣪠
𣬉
𣳾
𣶒
𤇾
𤊽
𤐫
𤓰
𤔔
𤕨
𤣩
𤰇
𤰔
𤰞
𤴓
𤴔
𤽄
𥁑
𥁕
𥃦
𥃩
𥃭
𥇡
𥑟
𥘅
𥘈
𥝢
𥫗
𥱡
𦈢
𦉪
𦉬
𦉼
𦍌
𦍒
𦎧
𦐇
𦓔
𦔮
𦘒
𦙃
𦚏
𦣝
𦣞
𦣻
𦥑
𦥔
𦥯
𦨉
𦭝
𦰩
𧆞
𧈧
𧘇
𧰨
𧴪
𧴮
𧵩
𧾷
𨸏
𨾴
𩙿
𩠐
𩫏
𩵋
𪉷
𪜀
𪟽
𪠲
𪩲
𫇦
𫔭
𫜸
𫝀
𫠣
𫠩
𫢉
𫥞
𫩏
𫩠
𫪡
𫲽
𫶧
𬀷
𬐘
𬗌
𬙙
𬛸
𬜯
𬟩
𬯁
𬴘
𬺻
𬼉
𬼖
𭀰
𭁈
𭁨
𭅰
𭑈
𭕄
𭗼
𭤨
𭥫
𭻾
𮅕
𮊿
𮍌
𮍏
𮓗
𮥼
𮧮
廾
𰀁
𰀄
𰀈
𰀉
𰀕
𰀠
𰀡
𰀢
𰀪
𰁜
𰃮
𰆊
𰆘
𰋙
𰕎
𰢴
𰧭
𰯲
00--
01--
02--
03--
04--
05--
06--
07--
08--
09--
29--
33--
34--
35--
36--
37--
39--
40--
41--
42--
43--
44--
45--
46--
47--
48--
49--
50--
51--
52--
53--
54--
55--
56--
57--
58--
59--
60--
61--
62--
63--
64--
67--
68--
70--
71--
72--
73--
74--
75--
76--
77--
78--
79--
80--
81--
82--
83--
84--
85--
86--
87--
88--
89--
90--
91--
92--
93--
978--
99--
a--
aa--
ab--
abra--
ac--
acc--
acce--
achieve--
ad--
ado--
adu--
ae--
af--
afg--
ag--
air--
aj--
ak--
al--
ala--
ali--
all--
alter--
am--
amend--
an--
ang--
anim--
ans--
ap--
app--
appo--
ar--
arch--
art--
as--
ash--
assi--
astr--
at--
ath--
ato--
au--
auto--
ave--
ay--
az--
b--
ba--
bal--
bala--
ban--
bar--
bat--
be--
beg--
begin--
ben--
ber--
bha--
bi--
bio--
bis--
bl--
bla--
bli--
bo--
bon--
bor--
bos--
br--
bra--
brah--
bre--
bro--
broad--
broo--
brow--
bu--
budd--
bur--
by--
c--
ca--
cal--
cale--
camp--
can--
car--
carb--
caro--
cas--
ce--
cele--
cen--
cer--
ch--
cha--
cham--
char--
che--
chi--
cho--
chr--
circ--
circu--
cit--
citeref--
citiz--
cl--
cla--
clau--
cle--
cli--
clo--
co--
col--
com--
comp--
compo--
con--
conc--
const--
cont--
contr--
contri--
conve--
coo--
cor--
corp--
correspon--
cou--
cr--
cra--
cre--
cri--
cro--
cru--
cryst--
cu--
cur--
cus--
cy--
cyc--
d--
da--
dam--
dar--
de--
deb--
deg--
democ--
dep--
deut--
develo--
dha--
di--
dia--
diag--
dif--
diffe--
dino--
dis--
disc--
dist--
do--
domi--
dr--
dra--
du--
dun--
dy--
dyna--
e--
ear--
ech--
eco--
ed--
el--
ele--
elec--
em--
eme--
emi--
en--
eng--
epi--
equ--
er--
es--
et--
ethi--
eu--
euro--
evalu--
ex--
exp--
expl--
f--
fa--
fal--
fan--
fashi--
fat--
fe--
fer--
fi--
film--
fin--
fl--
fla--
flo--
fly--
fo--
for--
fos--
fr--
fre--
fried--
fu--
fur--
g--
ga--
gabri--
gal--
gam--
gan--
gar--
gat--
gau--
ge--
geno--
geo--
ger--
gha--
gi--
gil--
git--
gl--
gla--
go--
god--
gr--
gra--
gre--
gri--
gro--
gu--
h--
ha--
hab--
han--
har--
hard--
has--
hay--
haz--
he--
hen--
her--
hi--
hid--
high--
hil--
ho--
hol--
holo--
home--
hoo--
hor--
hou--
hu--
hund--
hus--
hy--
hydro--
i--
ib--
id--
ident--
il--
ili--
illus--
im--
imag--
in--
indi--
india--
inf--
influ--
initi--
inspi--
inst--
instru--
int--
inte--
inter--
inva--
inve--
io--
ir--
is--
iso--
it--
ite--
iv--
j--
ja--
jac--
jag--
jas--
jay--
je--
jef--
jen--
jes--
jo--
ju--
judi--
k--
ka--
kan--
kar--
kath--
ke--
ken--
kerala--
kha--
ki--
ko--
kri--
ku--
kun--
l--
la--
lab--
lan--
lat--
lau--
le--
lea--
legis--
leon--
li--
libr--
life--
lim--
lin--
lingu--
lit--
lo--
lor--
lu--
ly--
m--
ma--
mac--
mad--
mag--
mah--
maha--
mal--
man--
mar--
mat--
mau--
mc--
me--
mech--
meg--
meh--
mem--
men--
mer--
mes--
mi--
mich--
micro--
mig--
min--
mo--
moh--
moham--
mon--
monu--
mor--
mos--
mu--
muk--
mur--
my--
n--
na--
nag--
nar--
nc--
ne--
neg--
neu--
new--
news--
ni--
no--
nob--
nomi--
nor--
not--
nu--
nutr--
ny--
o--
obser--
oc--
of--
oli--
on--
one--
opp--
opti--
or--
orb--
ori--
os--
ot--
out--
p--
pa--
pac--
pal--
pan--
par--
pas--
pat--
patri--
pe--
pear--
pen--
penin--
per--
pet--
ph--
phar--
phil--
phy--
phylo--
physi--
pi--
pin--
pit--
pl--
pla--
plat--
plu--
po--
pois--
pon--
por--
pos--
post--
pra--
pre--
pri--
pro--
psychi--
pu--
pun--
py--
q--
qu--
quan--
quo--
r--
ra--
radi--
raj--
ran--
rat--
re--
rece--
recog--
recom--
reg--
regu--
remo--
rep--
ri--
rid--
ro--
rock--
roh--
roll--
ros--
row--
ru--
ry--
s--
sa--
sal--
san--
sar--
sc--
sch--
sche--
se--
sec--
secu--
sen--
ser--
ses--
sh--
sha--
shan--
shi--
sho--
si--
sig--
signifi--
sil--
situ--
sket--
sla--
sli--
so--
soccer--
sol--
soluti--
sp--
spe--
spea--
spec--
spo--
spot--
squ--
st--
stat--
ste--
stef--
sto--
str--
stra--
stu--
su--
sub--
suffr--
sug--
sun--
supple--
sur--
susta--
sw--
swe--
sy--
symp--
syn--
t--
ta--
tas--
tax--
te--
teac--
temp--
ter--
terr--
terri--
tes--
text--
th--
the--
thi--
tho--
ti--
tit--
to--
tor--
tr--
tra--
trans--
tre--
tri--
tro--
tru--
tu--
tur--
twenti--
ty--
u--
ult--
un--
uni--
unive--
up--
us--
v--
va--
var--
ve--
ven--
ver--
vi--
vic--
vio--
vo--
vol--
voy--
w--
wa--
wal--
war--
we--
web--
wed--
wel--
whe--
wi--
wid--
wiki--
wil--
wis--
wit--
wo--
won--
wor--
wri--
x--
xi--
y--
ye--
yo--
yu--
z--
za--
ze--
zo--
zoo--
zoologi--
ا--
ال--
ب--
अ--
क--
ग--
ज--
त--
द--
ध--
न--
प--
भ--
म--
य--
र--
व--
श--
स--
க--
അ--
അക--
അഗ--
അട--
അഥ--
അധ--
അന--
അപ--
അമ--
അയ--
അര--
അല--
അൻ--
ആ--
ആദ--
ആയ--
ആള--
ആവ--
ആൺ--
ആർ--
ആൽ--
ഇ--
ഇവ--
ഇൻ--
ഈ--
ഉ--
ഉണ--
ഉദ--
ഉപ--
ഉഭ--
ഉൽ--
ഊ--
ഋ--
എ--
എട--
എവ--
എൻ--
എൽ--
ഏ--
ഏക--
ഐ--
ഒ--
ഒര--
ഓ--
ഔ--
ക--
കക--
കജ--
കഥ--
കന--
കപ--
കമ--
കര--
കള--
കവ--
കൺ--
കർ--
കൽ--
കൾ--
ഖ--
ഖര--
ഗ--
ഗപ--
ഗവ--
ഘ--
ങ--
ങള--
ങൾ--
ച--
ചക--
ചന--
ചപ--
ചമ--
ഛ--
ജ--
ജന--
ജഭ--
ജയ--
ജല--
ജസ--
ഝ--
ഞ--
ട--
ടന--
ടപ--
ടമ--
ടർ--
ഠ--
ഡ--
ഡയ--
ഢ--
ണ--
ണക--
ണത--
ണപ--
ണമ--
ണവ--
ത--
തക--
തജ--
തത--
തദ--
തന--
തപ--
തമ--
തര--
തള--
തവ--
തസ--
തൻ--
തർ--
തൽ--
ഥ--
ഥന--
ദ--
ദപ--
ദമ--
ദല--
ദവ--
ദശ--
ധ--
ധന--
ധവ--
ന--
നക--
നത--
നന--
നപ--
നമ--
നയ--
നര--
നള--
നവ--
നസ--
നർ--
പ--
പക--
പട--
പദ--
പര--
പല--
പവ--
ഫ--
ബ--
ബല--
ഭ--
ഭക--
ഭവ--
മ--
മക--
മദ--
മമ--
മല--
മവ--
മൺ--
മർ--
യ--
യക--
യഗ--
യദ--
യധ--
യന--
യപ--
യഭ--
യമ--
യര--
യവ--
യൻ--
യർ--
ര--
രക--
രഗ--
രഘ--
രച--
രജ--
രണ--
രത--
രദ--
രധ--
രന--
രപ--
രഫ--
രമ--
രര--
രള--
രവ--
രശ--
രസ--
രഹ--
രൻ--
റ--
റഫ--
റവ--
റൻ--
റർ--
ല--
ലക--
ലഗ--
ലന--
ലമ--
ലയ--
ലവ--
ള--
ഴ--
വ--
വക--
വത--
വദ--
വധ--
വന--
വഭ--
വമ--
വയ--
വര--
വള--
വവ--
വസ--
വൻ--
ശ--
ശക--
ശത--
ശന--
ശപ--
ശമ--
ശയ--
ശര--
ശവ--
ഷ--
ഷണ--
ഷപ--
ഷമ--
ഷയ--
ഷർ--
സ--
സക--
സന--
സബ--
സമ--
സര--
സല--
സവ--
സഹ--
ഹ--
ഽ--
ഽഭ--
ൎ--
ൟ--
൪--
൫--
൬--
൭--
൮--
൯--
ൺ--
ൻ--
ൻഡ--
ൻമ--
ൻസ--
ർ--
ർഘ--
ർണ--
ർഥ--
ർഭ--
ർമ--
ർവ--
ർഷ--
ൽ--
ൽക--
ൽന--
ൽപ--
ൽബ--
ൾ--
ൿ--
--0
--00
--1
--2
--3
--4
--5
--6
--7
--8
--9
--a
--able
--ace
--aceae
--ad
--ado
--ae
--ah
--ai
--ain
--aj
--ak
--al
--ala
--am
--aman
--an
--ana
--ance
--ang
--ani
--ans
--ant
--ants
--ap
--ar
--ara
--ard
--aries
--ary
--as
--at
--ata
--ate
--ated
--ates
--ath
--ation
--ations
--au
--av
--ax
--ay
--b
--ba
--be
--ber
--berg
--bert
--bi
--bia
--ble
--bo
--bs
--bu
--by
--c
--ca
--cal
--cca
--ce
--ceae
--ced
--cent
--cer
--ces
--ch
--cher
--chi
--ci
--ck
--cks
--co
--cology
--cope
--craft
--cs
--ct
--cted
--ction
--ctions
--ctive
--ctor
--cts
--cus
--cy
--d
--da
--dae
--day
--dd
--de
--ded
--di
--ding
--do
--dor
--dra
--ds
--du
--duced
--dy
--e
--ea
--eae
--eal
--eals
--ects
--ed
--ee
--eenth
--eer
--ees
--ef
--ei
--ein
--ek
--el
--ell
--ella
--em
--en
--ena
--ence
--ency
--ens
--ensis
--ent
--ents
--eo
--ep
--er
--eri
--ern
--ers
--ert
--ery
--es
--ese
--esh
--ess
--est
--et
--ett
--eus
--ew
--ey
--ez
--f
--fa
--fer
--ff
--ful
--g
--ga
--gal
--gar
--ge
--ged
--gen
--ger
--ges
--gh
--ght
--gi
--ging
--gle
--gn
--go
--graphy
--gs
--h
--ha
--ham
--han
--he
--hen
--hes
--hi
--hing
--hip
--hips
--hn
--hood
--ht
--i
--ia
--ial
--ian
--ias
--iation
--ic
--ica
--ical
--ick
--icle
--ics
--id
--idae
--ide
--ie
--ied
--ier
--ies
--ig
--ight
--ii
--ik
--ika
--il
--ila
--ill
--im
--in
--ina
--india
--ine
--ing
--ings
--ini
--ins
--io
--ion
--ional
--ions
--ior
--ir
--ira
--ire
--iro
--is
--ise
--ish
--ision
--ism
--ist
--ists
--it
--ita
--ite
--ities
--ition
--ity
--ium
--ius
--ive
--ix
--iya
--ization
--ized
--j
--ject
--ji
--k
--ka
--kar
--ke
--ker
--kh
--ki
--ko
--ks
--ku
--ky
--l
--la
--lal
--lar
--ld
--lds
--le
--led
--ler
--ley
--lf
--li
--lia
--lie
--lin
--line
--ling
--lis
--lk
--ll
--lla
--lle
--lly
--lm
--ln
--lo
--logy
--ls
--lt
--lu
--lude
--ly
--m
--ma
--man
--mas
--me
--ment
--mer
--mi
--mic
--mo
--mond
--ms
--my
--n
--na
--nal
--nam
--nce
--nces
--ncy
--nd
--nda
--ne
--ned
--ner
--nes
--ness
--news
--ng
--ngs
--ni
--nia
--ning
--nity
--nk
--nn
--no
--ns
--nse
--nsis
--nt
--nti
--ntly
--nts
--num
--ny
--o
--ock
--od
--ofindia
--ogy
--ok
--ol
--ole
--olia
--ological
--ology
--om
--on
--ond
--ons
--op
--or
--ora
--ore
--orm
--ors
--ory
--os
--osa
--ot
--ott
--ough
--ous
--ov
--ow
--ows
--p
--pe
--phic
--phy
--port
--ps
--pur
--q
--r
--ra
--ral
--ran
--rapy
--rar
--ration
--rd
--re
--red
--rey
--rg
--ri
--ria
--ric
--ries
--ring
--ris
--rity
--rk
--rm
--rn
--rns
--ro
--rol
--ron
--row
--rp
--rr
--rry
--rs
--rt
--rta
--rum
--rus
--ry
--s
--sa
--se
--sed
--ses
--sh
--shi
--ship
--si
--sia
--sion
--sis
--sity
--sk
--sm
--son
--ss
--st
--ster
--stic
--sus
--sy
--t
--ta
--tal
--tary
--tation
--te
--ted
--ten
--ter
--tes
--th
--tha
--thi
--thing
--thy
--ti
--tia
--tial
--tic
--tics
--ties
--times
--ting
--tion
--tions
--tive
--tle
--to
--tology
--ton
--tor
--tory
--tra
--try
--ts
--tt
--tta
--tte
--tty
--ture
--tus
--ty
--tz
--u
--ua
--ual
--ud
--ude
--ue
--ul
--ula
--ular
--um
--une
--ung
--up
--ur
--ura
--ure
--urs
--us
--ut
--v
--va
--ve
--ved
--ver
--vy
--w
--wa
--way
--ws
--x
--y
--ya
--yam
--yan
--yer
--yn
--ys
--z
--za
--ze
--zi
--и
--د
--त
--म
--എ
--ക
--കങ
--കന
--കമ
--കയ
--കര
--കള
--കൻ
--കർ
--കൾ
--ഖ
--ഗ
--ഗര
--ഘ
--ങ
--ച
--ഛ
--ജ
--ഞ
--ട
--ഠ
--ഡ
--ണ
--ണത
--ത
--തന
--തയ
--ഥ
--ദ
--ധ
--ന
--നത
--നമ
--നയ
--പ
--പര
--ഫ
--ബ
--ഭ
--മ
--മത
--മന
--മയ
--യ
--യത
--യന
--യറ
--ര
--രത
--രമ
--രവ
--റ
--റയ
--ല
--ലയ
--ലർന
--ള
--ഴ
--വ
--വന
--ശ
--ശക
--ഷ
--സ
--സമ
--സഹ
--ഹ
--ൎശ
--൦
--൦൦
--൧
--൨
--൩
--൪
--൫
--൬
--൭
--൮
--൯
--ൺ
--ൻ
--ൻഡ
--ൻസ
--ർ
--ർക
--ർഗ
--ർണ
--ർത
--ർമ
--ൽ
--ൽക
--ൾ
--ൾക
