!
"
#
##0
##1
##10
##11
##12
##13
##14
##15
##16
##17
##18
##19
##2
##20
##21
##22
##23
##24
##25
##26
##27
##28
##29
##3
##30
##31
##32
##33
##34
##35
##36
##37
##38
##39
##4
##40
##41
##42
##43
##44
##45
##46
##47
##48
##49
##5
##50
##51
##52
##53
##54
##55
##56
##57
##58
##59
##6
##60
##61
##62
##63
##64
##65
##66
##67
##68
##69
##7
##70
##71
##72
##73
##74
##75
##76
##77
##78
##79
##8
##80
##81
##82
##83
##84
##85
##86
##87
##88
##89
##9
##90
##91
##92
##93
##94
##95
##96
##97
##98
##99
$
%
&
'
(
)
*
+
,
-
.
/
0
00
000
01
02
03
04
05
06
07
08
09
090
0952
1
10
100
1000
1001
1002
1003
1004
1005
1006
1007
1008
1009
101
1010
1011
1012
1013
1014
1015
1016
1017
1018
1019
1020
1021
1022
1023
1024
1025
1026
1027
1028
1029
103
1030
1031
1032
1033
1034
1035
1036
1037
1038
1039
104
1040
1041
1042
1043
1044
1045
1046
1047
1048
1049
1050
1051
1052
1053
1054
1055
1056
1057
1058
1059
106
1060
1061
1062
1063
1064
1065
1066
1067
1068
1069
107
1070
1071
1072
1073
1074
1075
1076
1077
1078
1079
1080
1081
1082
1083
1084
1085
1086
1087
1088
1089
109
1090
1091
1092
1093
1094
1095
1096
1097
1098
1099
11
1100
1101
1102
1103
1104
1105
1106
1107
1108
1109
111
1110
1111
1112
1113
1114
1115
1116
1117
1118
1119
1120
1121
1122
1123
1124
1125
1126
1127
1128
1129
113
1130
1131
1132
1133
1134
1135
1136
1137
1138
1139
1140
1141
1142
1143
1144
1145
1146
1147
1148
1149
1150
1151
1152
1153
1154
1155
1156
1157
1158
1159
1160
1161
1162
1163
1164
1165
1166
1167
1168
1169
1170
1171
1172
1173
1174
1175
1176
1177
1178
1179
1180
1181
1182
1183
1184
1185
1186
1187
1188
1189
1190
1191
1192
1193
1194
1195
1196
1197
1198
1199
12
120
1200
1201
1202
1203
1204
1205
1206
1207
1208
1209
121
1210
1211
1212
1213
1214
1215
1216
1217
1218
1219
1220
1221
1222
1223
1224
1225
1226
1227
1228
1229
1230
1231
1232
1233
1234
1235
1236
1237
1238
1239
1240
1241
1242
1243
1244
1245
1246
1247
1248
1249
125
1250
1251
1252
1253
1254
1255
1256
1257
1258
1259
126
1260
1261
1262
1263
1264
1265
1266
1267
1268
1269
127
1270
1271
1272
1273
1274
1275
1276
1277
1278
1279
1280
1281
1282
1283
1284
1285
1286
1287
1288
1289
1290
1291
1292
1293
1294
1295
1296
1297
1298
1299
13
130
1300
1301
1302
1303
1304
1305
1306
1307
1308
1309
1310
1311
1312
1313
1314
1315
1316
1317
1318
1319
132
1320
1321
1322
1323
1324
1325
1326
1327
1328
1329
1330
1331
1332
1333
1334
1335
1336
1337
1338
1339
1340
1341
1342
1343
1344
1345
1346
1347
1348
1349
135
1350
1351
1352
1353
1354
1355
1356
1357
1358
1359
1360
1361
1362
1363
1364
1365
1366
1367
1368
1369
1370
1371
1372
1373
1374
1375
1376
1377
1378
1379
1380
1381
1382
1383
1384
1385
1386
1387
1388
1389
139
1390
1391
1392
1393
1394
1395
1396
1397
1398
1399
14
140
1400
1401
1402
1403
1404
1405
1406
1407
1408
1409
141
1410
1411
1412
1413
1414
1415
1416
1417
1418
1419
1420
1421
1422
1423
1424
1425
1426
1427
1428
1429
1430
1431
1432
1433
1434
1435
1436
1437
1438
1439
1440
1441
1442
1443
1444
1445
1446
1447
1448
1449
1450
1451
1452
1453
1454
1455
1456
1457
1458
1459
1460
1461
1462
1463
1464
1465
1466
1467
1468
1469
1470
1471
1472
1473
1474
1475
1476
1477
1478
1479
148
1480
1481
1482
1483
1484
1485
1486
1487
1488
1489
1490
1491
1492
1493
1494
1495
1496
1497
1498
1499
15
150
1500
1501
1502
1503
1504
1505
1506
1507
1508
1509
1510
1511
1512
1513
1514
1515
1516
1517
1518
1519
1520
1521
1522
1523
1524
1525
1526
1527
1528
1529
1530
1531
1532
1533
1534
1535
1536
1537
1538
1539
154
1540
1541
1542
1543
1544
1545
1546
1547
1548
1549
1550
1551
1552
1553
1554
1555
1556
1557
1558
1559
1560
1561
1562
1563
1564
1565
1566
1567
1568
1569
1570
1571
1572
1573
1574
1575
1576
1577
1578
1579
1580
1581
1582
1583
1584
1585
1586
1587
1588
1589
159
1590
1591
1592
1593
1594
1595
1596
1597
1598
1599
16
1600
1601
1602
1603
1604
1605
1606
1607
1608
1609
1610
1611
1612
1613
1614
1615
1616
1617
1618
1619
1620
1621
1622
1623
1624
1625
1626
1627
1628
1629
1630
1631
1632
1633
1634
1635
1636
1637
1638
1639
164
1640
1641
1642
1643
1644
1645
1646
1647
1648
1649
165
1650
1651
1652
1653
1654
1655
1656
1657
1658
1659
1660
1661
1662
1663
1664
1665
1666
1667
1668
1669
1670
1671
1672
1673
1674
1675
1676
1677
1678
1679
1680
1681
1682
1683
1684
1685
1686
1687
1688
1689
1690
1691
1692
1693
1694
1695
1696
1697
1698
1699
17
1700
1701
1702
1703
1704
1705
1706
1707
1708
1709
1710
1711
1712
1713
1714
1715
1716
1717
1718
1719
1720
1721
1722
1723
1724
1725
1726
1727
1728
1729
1730
1731
1732
1733
1734
1735
1736
1737
1738
1739
1740
1741
1742
1743
1744
1745
1746
1747
1748
1749
175
1750
1751
1752
1753
1754
1755
1756
1757
1758
1759
1760
1761
1762
1763
1764
1765
1766
1767
1768
1769
177
1770
1771
1772
1773
1774
1775
1776
1777
1778
1779
1780
1781
1782
1783
1784
1785
1786
1787
1788
1789
179
1790
1791
1792
1793
1794
1795
1796
1797
1798
1799
18
1800
1801
1802
1803
1804
1805
1806
1807
1808
1809
181
1810
1811
1812
1813
1814
1815
1816
1817
1818
1819
1820
1821
1822
1823
1824
1825
1826
1827
1828
1829
1830
1831
1832
1833
1834
1835
1836
1837
1838
1839
1840
1841
1842
1843
1844
1845
1846
1847
1848
1849
1850
1851
1852
1853
1854
1855
1856
1857
1858
1859
1860
1861
1862
1863
1864
1865
1866
1867
1868
1869
187
1870
1871
1872
1873
1874
1875
1876
1877
1878
1879
188
1880
1881
1882
1883
1884
1885
1886
1887
1888
1889
1890
1891
1892
1893
1894
1895
1896
1897
1898
1899
19
1900
1901
1902
1903
1904
1905
1906
1907
1908
1909
1910
1911
1912
1913
1914
1915
1916
1917
1918
1919
1920
1921
1922
1923
1924
1925
1926
1927
1928
1929
193
1930
1931
1932
1933
1934
1935
1936
1937
1938
1939
1940
1941
1942
1943
1944
1945
1946
1947
1948
1949
1950
1951
1952
1953
1954
1955
1956
1957
1958
1959
196
1960
1961
1962
1963
1964
1965
1966
1967
1968
1969
1970
1971
1972
1973
1974
1975
1976
1977
1978
1979
1980
1981
1982
1983
1984
1985
1986
1987
1988
1989
1990
1991
1992
1993
1994
1995
1996
1997
1998
1999
2
20
200
2000
2001
2002
2003
2004
2005
2006
2007
2008
2009
2010
2011
2012
2013
2014
2015
2016
2017
2018
2019
2020
2021
2022
2023
2024
2025
2026
2027
2028
2029
2030
2031
2032
21
210
219
22
222
225
23
238
24
240
242
244
25
250
26
260
27
28
29
295
3
30
300
31
32
324
33
330
336
34
340
346
35
36
360
365
37
374
38
39
390
4
40
400
41
410
42
422
43
44
45
46
47
471
48
480
49
495
499
5
50
500
51
518
52
53
539
54
55
56
57
58
59
6
60
600
601
61
62
63
65
66
67
675
68
69
7
70
700
71
713
72
73
74
742
75
76
77
78
79
7900
8
80
800
81
82
83
84
85
86
860
87
870
877333
88
880
89
890
895
896
897
898
899
9
90
900
901
902
903
904
905
906
907
908
909
910
911
912
913
914
915
916
917
918
919
92
920
921
922
923
924
925
926
927
928
929
93
930
931
932
933
934
935
936
937
938
939
94
940
941
942
943
944
945
946
947
948
949
95
950
951
952
953
954
955
956
957
958
959
96
960
961
962
963
964
965
966
967
968
969
97
970
971
972
973
974
975
976
977
978
979
98
980
981
982
983
984
985
986
987
988
989
99
990
991
992
993
994
995
996
997
998
999
:
;
<
=
>
?
[
\
]
^
_
`
a
aarhus
abboud
abd
abkhazia
aboriginal
about
ac
academia
academy
achaemenid
act
ad
add
added
adding
adelaide
af
affairs
africa
afrikaans
after
age
agency
aha
ahakoa
ahau
ahi
ahia
ahiahi
ahitereiria
ahitereiriana
ahititi
aho
ahorangi
ahu
ahua
ahuatanga
ahumahi
ahunga
ahupu
ahurea
ahuriri
ahuwhenua
ai
airangi
airani
aise
aitanga
aitua
ak
aka
akara
ake
akiaki
ako
akonga
akoranga
akuhata
al
alabama
alamos
alan
alaska
albany
albatross
albert
alexander
ali
all
allan
allen
alone
also
am
ama
ame
america
american
amerika
amini
amo
amos
amsterdam
amu
an
ana
anake
anakora
anas
ancient
and
andalusia
andorra
andre
andrew
anei
ang
anga
angeles
anime
anna
ano
anom
another
antarctic
antarctica
antonio
anuta
any
ao
aoraki
aorangi
aorere
aotea
aotearoa
apa
apakura
apanui
apirana
apolima
appendix
apple
apr
april
aquitaine
ar
ara
aragon
aramaic
aranga
arapeinia
arapi
arapu
arawa
arcachon
archive
archived
are
area
areas
arekaha
arero
arewhana
aria
ariki
arikinui
arikirangi
arizona
aro
aroaro
aroha
aronga
arorangi
arotahi
arrondissement
arrondissements
art
arthur
article
articles
arts
arumoni
as
asia
aspx
association
ast
asturias
at
ata
ataahua
ataata
atairangikaahu
atau
atawhai
ate
atea
atepaiha
ateria
atlas
atu
atua
au
aua
auaha
auau
auautia
auckland
audio
august
augusta
aukati
aupouri
austral
australia
australian
australis
aute
awa
awahou
awakairangi
awanui
awherika
awhina
awit
azerbaijan
b
ba
back
background
ballara
bandung
bank
bar
barlow
barngarla
baron
barraba
based
bay
bbc
bc
be
beach
beautiful
because
beech
been
before
being
ben
bengali
benin
berkshire
best
better
between
bg
bi
big
bill
biography
birdlife
birds
bit
black
blacks
blaye
blue
bo
board
bob
bois
book
books
bora
bordeaux
boston
both
br
brainyhistory
brian
bridge
bridget
brighton
britannica
british
brown
bruce
bu
buck
budapest
bureau
burger
burton
bush
but
buy
by
c
ca
calamus
california
cambridge
can
canada
canarias
canvastown
cape
capital
captain
caribbean
carl
case
castile
castillon
castle
category
cdo
ce
ceb
cel
cemetery
census
centennial
center
central
centre
century
ch
cha
changes
channel
charles
check
chengdu
chi
chicago
chicken
chin
china
chinese
chris
christian
christmas
church
ci
cia
cite
city
civrac
cl
claimed
claims
cn
co
coast
coastal
coligny
collection
college
colorado
columbia
column
com
combined
come
comment
commercial
commission
committee
common
commons
community
company
comparateur
complete
complex
compostela
conservation
considered
constituencies
contact
content
continent
continents
cook
cooper
coor
coord
coordinate
coordinates
coptic
copy
copyright
corner
corporation
corun
could
council
count
countries
country
counts
crassifolius
creek
crimea
criteria
cross
crossing
cruz
cs
css
cu
cultural
culture
cup
current
cy
d
da
daegu
dairy
danie
daniel
das
data
dataset
date
david
davis
day
dd
de
dead
deal
death
dec
december
decide
default
del
delaware
demographic
department
depok
der
des
descent
deuteronomium
deux
development
di
dici
dictionary
didn
diego
different
digest
disney
display
district
division
dix
dk
dms
do
doc
does
dog
doi
don
donetsk
dong
doraemon
dordogne
dos
douglas
dowling
down
downs
du
duck
duff
durian
dwellings
e
ea
each
early
earth
east
ecclesiastes
economic
ed
edit
edition
education
ehara
eikiai
either
eke
ekia
ekuatoa
el
elektron
element
elliott
emae
emepaea
emepaia
en
enana
enata
encyclopaedia
encyclopedia
encyclopædia
end
enei
engari
england
english
entire
enua
environmentalchemistry
eo
era
ere
error
eruini
es
esbjerg
esdras
esperanto
espoo
esra
essays
ester
esther
estimates
et
etahi
etehi
etita
eto
etonia
eu
eura
euro
europa
europe
european
excludes
exodus
ez
ezechiel
ezekiel
ezequiel
ezra
f
fa
factbook
facto
fairhall
faka
falls
family
fanau
far
faroe
farsi
fc
fe
february
fenua
ferrol
ferry
fi
figure
figures
fiji
file
filemon
final
find
first
fish
fitzroy
five
fið
fk
flat
flats
flo
flora
florida
fm
fo
following
for
force
forest
format
fort
fortuna
foundation
fox
fr
franc
france
francesa
francesco
francisco
frederick
free
french
friedrich
frisia
from
fronsac
fukuoka
futuna
future
fy
fyrsta
første
g
ga
gaga
gala
galicia
gambier
garci
gardiner
gaston
gau
gaul
gazette
gd
ge
gene
general
genesis
geo
geographic
geographical
geographx
geography
george
georgia
germain
germany
get
ghil
gi
gipps
girls
gironde
give
given
gives
gl
gla
glacier
glen
global
gmina
gn
go
gob
golden
good
google
gorge
gov
government
govt
gra
grace
graham
grammar
granity
grc
great
green
grey
group
gryfice
guanches
guangxi
guide
gulf
gully
gur
gurion
gv
h
ha
haast
habacuc
habakkuk
habakuk
had
hae
haere
haerenga
hagai
haggai
hahi
hahpt
hahuru
hai
haina
hainamana
hainatanga
hainatia
haipara
haiti
haka
haki
hakihea
hako
hamoa
han
hana
hanekariana
hanekeria
hanga
hangaia
hanganga
hangarau
hanuere
hao
haona
hapani
hapanihi
hapori
happy
hapu
hara
harakeke
haramai
haratua
hari
haria
haro
haruru
harvey
has
hata
hato
hatu
hau
haua
hauauru
hauhau
hauiti
haumaru
haumi
haunui
hauora
hauraki
haurongo
haute
hauwai
have
haw
hawai
hawaii
hawaiian
hawaiki
hawke
he
hea
head
heading
heads
health
hebrew
hei
heihei
heiko
heina
heinneman
heipu
heke
hekeheke
hekenga
help
hema
hemo
henare
henry
heoi
hepetema
hera
herald
here
herea
herehere
herekino
hereko
herenga
heretaunga
heritage
hetekia
heuheu
hi
hia
hiahia
hiahiatia
hiana
hiato
high
hihi
hika
hikairo
hiki
hiko
hikoi
hikurangi
hill
hills
himania
hina
hinaarangi
hinara
hindi
hine
hinemataroa
hinemihi
hinerangi
hinga
hingapoa
hini
hinonga
hinu
hinuhinu
hio
hiohio
hiotanga
hiotia
hipa
hiperu
hipi
hirahira
hiri
hiria
hirini
hiriwa
hiruharama
his
historical
history
hitori
hiva
hiwa
ho
hoa
hoani
hoatu
hobart
hoe
hohonu
hohoro
hoia
hoki
hokia
hokianga
hokinga
hoko
hokohoko
hokona
hokonga
holland
homai
home
hone
hong
hongipua
hono
honolulu
hononga
hopa
hopataone
hope
hopihona
hopu
hore
horetia
horo
horoeka
horoi
horomona
horopaki
horouta
horowa
horowhenua
horowi
horowinia
horsens
hosea
hoto
hotu
hotunui
hoturapa
hoturoa
hou
houhere
hourangi
hourua
house
housing
how
howete
however
hpt
hr
html
http
https
hu
hua
huahi
huahua
huaina
huaki
huaota
huarahi
huatanga
huhu
huhua
hui
huia
huiakama
huihui
huihuinga
huinga
huirangi
huitene
huiterangi
huka
human
huna
hune
hunga
hunter
hura
hurae
hurai
huri
huria
hurihia
huringa
hurricanes
huru
huruhuru
huts
hutukawa
hy
hyderabad
i
ia
iahiko
iams
ianei
iauliai
ic
ice
id
ido
ie
iem
if
ig
iharaira
ihirama
iho
ihowa
ihu
ii
iii
ik
ika
iki
il
image
in
ina
inaianei
inanga
inangahua
include
includes
including
independent
index
india
indigenous
indonesia
information
inga
ingarangi
ingarihi
ingoa
inia
iniani
initoni
inline
inoi
insee
institute
interlingua
international
internet
into
invalid
io
ioka
ipa
ipl
iprage
ipu
ipurangi
ir
ira
irirangi
is
isai
isbn
iseraela
isfahan
isla
island
islands
islas
isle
iso
israel
israeli
it
ita
italy
ite
iterangi
iti
itiiti
its
iu
iucn
iv
ivan
iwa
iwi
j
ja
jack
jackson
jakarta
jakob
jakobus
james
jan
january
japan
japanese
java
jaya
je
jean
jeremia
jeremias
jersey
jerusalem
jesaja
jewish
jo
job
joe
joel
johan
johannes
john
johnson
jona
jonas
jonava
jones
jose
joseph
josue
journal
jozua
jp
jpg
ju
juan
jubilee
jubilees
judas
july
junction
june
just
k
ka
kaa
kaahui
kabbalah
kaha
kahakawe
kahore
kahu
kahui
kahukura
kahungunu
kahurangi
kahuroa
kai
kaia
kaihanga
kaihau
kaihautu
kaihoahoa
kaihoko
kaikai
kaikawe
kaiko
kaima
kaimahi
kaimata
kainga
kainoho
kaipa
kaipara
kaipeita
kaipuke
kairo
kaita
kaitautoko
kaitiaki
kaitito
kaito
kaituhi
kaiwaiata
kaiwhakaako
kaiwhakaari
kaiwhakahaere
kaiwhakamahi
kaiwhakanoho
kaka
kakahu
kakaramea
kake
kakepuku
kaki
kako
kamehameha
kamo
kampala
kamupene
kana
kanikani
kano
kanohi
kansas
kaore
kapa
kapetaua
kapi
kapingamarangi
kaporeihana
kapu
kapua
kaputuhi
kara
karaiti
karaitiana
karaj
karaka
karakia
karana
karanga
karangatia
karapo
karapu
kararehe
karate
karauna
kareinga
kareto
karetu
kari
karihi
karihia
karihiana
kariki
karipiana
karo
karu
kas
kashubian
kata
katahi
katarana
katata
kati
katia
katoa
katoatia
katorika
katowice
kau
kaua
kauhau
kaukapakapa
kaukau
kauma
kaumatua
kaunihera
kaupapa
kauri
kaute
kautenui
kautetanga
kawa
kawai
kawakawa
kawana
kawanatanga
kawata
kawau
kawe
kawea
kawenata
kawerau
kawhi
kawiti
ke
kea
kebwano
keha
kehita
kei
keko
kemureti
kena
kene
keneteina
kenga
kent
kere
kerei
kerekori
kereru
kete
ketina
ketisi
key
kg
kharkiv
khorasan
ki
kia
kiato
kieu
kihi
kiko
kilometres
kimi
kina
kinakina
king
kingdom
kingi
kingitanga
kini
kino
kio
kiore
kiri
kiriata
kirihi
kirihimete
kirikiri
kirikiriroa
kirikiti
kirimana
kirinirana
kiritu
kirja
kiromita
kita
kite
kitea
kitenga
kitimu
kiwa
kiwi
kk
kl
km
know
knowledge
knyga
ko
koa
koe
koha
kohanga
kohatu
kohekohe
kohi
kohia
kohikohi
kohimarama
kohinga
kohu
kohukohu
koi
koia
koiara
koinei
koira
koko
kokonga
kokoraho
kolding
kolkata
komihana
komiti
kommune
kona
konae
konei
kong
konga
konganuku
konu
konukita
konukura
konuruke
kooti
kora
kore
korea
korero
korerohia
kori
korimako
koro
koroa
koroki
korokoro
koromiko
koromo
koroni
korora
koroua
koru
korukoru
kosovo
kota
kotahi
kotahitanga
kotenepara
kotiro
kou
koura
koutou
kołobrzeg
kr
kratom
krav
ksie
ku
kua
kuching
kuhata
kuhu
kui
kuia
kuini
kuiti
kuki
kumara
kupe
kupenga
kupu
kupumahi
kura
kurahaupo
kuraimonoa
kuraina
kuri
kuru
kuruta
kurutou
kuta
l
la
laboratory
laingholm
lais
lake
land
landing
lands
langon
language
languages
langue
lapita
las
last
laurent
laurie
lawrence
layal
layne
layout
le
leave
lee
left
legal
lelo
leningrad
leo
les
lesi
lesotho
lesoto
lesparre
less
lessons
let
leviticus
lexical
lg
li
libourne
library
life
light
like
lili
lima
limited
lincoln
line
lingua
linguanaut
linguist
linguistics
link
links
linz
list
listed
little
living
ll
lo
locality
london
long
longer
look
looks
lord
los
lost
louis
love
lower
loyalty
lt
lu
lucas
lugo
luka
lukas
lukereiniana
lv
lyon
m
ma
maara
macquarie
madagascar
made
madrid
maehe
maero
maga
maha
mahana
mahanga
mahara
mahere
mahi
mahia
mahinga
mahsa
mahuru
mahuta
mai
maihi
main
maire
maitai
maka
makau
makaurau
make
makero
makeroniana
maketu
maki
making
mako
makoare
malachi
malachia
malagasy
malaki
malay
mali
malmo
mamaku
man
mana
manaaki
manaakitanga
manaia
manako
manapori
manatu
manawa
manawatu
manchester
mandarin
mane
manene
manga
mangai
mangaka
mangamuka
mangareva
mango
mangu
mania
maniana
maniapoto
manihiki
mano
manono
manu
manual
manuhiri
manunui
manurere
many
mao
maori
maorinewzealanders
map
mar
mara
marae
maraka
marako
marama
maramara
maramataka
marara
marati
marcello
march
marco
marcos
mare
marei
margaret
mari
marie
mariehamn
marino
mario
mark
marko
markus
maroke
marquesas
marsden
martin
marton
maru
marutu
marutuahu
mashhad
massachusetts
mastroianni
mata
mataatua
matahua
matai
matakana
matanga
matanui
matapaia
matapihi
matarau
matariki
matatau
matatiki
matau
matauranga
matawa
matawhenua
mate
matematika
matenga
mateo
material
mati
matimati
matou
matteus
matu
matua
matuku
mau
mauao
mauhere
mauheretia
maui
maumau
maunga
maungakaramea
maungapo
maungatapere
maungatautari
mauri
mauria
mautanga
mautohe
mauwha
may
maybe
mayen
maz
me
mea
mead
meatia
mehemea
mehiko
mehopota
mei
mejid
meka
meke
melbourne
mele
melicytus
mema
meme
mene
menia
mer
mere
mereana
meremere
meri
meta
metcalf
metropolitan
mexico
mga
mi
mia
miami
micha
michael
michea
michel
michigan
mihana
mihi
mihinare
mihingare
mika
miki
mile
military
min
mina
ministry
minita
minsk
miraka
miriona
miro
mississippi
missouri
mita
mk
mm
mo
moa
moana
moananui
model
modern
moe
moea
moehau
moemoea
moenga
mohapiki
mohi
mohikau
mohio
mohiotia
mokemoke
moko
mokoia
mokopuna
momo
momopori
mona
mongo
moni
monte
montenegro
mooseksen
moosese
more
morning
morocco
moroko
morotawa
mos
mosebog
mosebok
moseboken
mosesi
most
moti
motoka
motu
motuhake
motuhaketanga
mou
moumou
mount
mouse
moutere
mt
mu
mua
muau
much
municipality
muri
murihiku
muriwai
murray
murupara
museum
must
mutu
mutunga
muturangi
my
n
na
naera
nagoya
nah
naha
nahe
nahia
nahinara
nahum
naianei
nama
name
named
names
nana
nanakia
nanchang
nanga
napera
nara
nare
nascar
nata
national
nations
native
nau
nauru
nawai
ne
nebraska
need
neemia
nehe
nehemia
nehemias
nei
neke
nelja
nelson
nene
nepo
nestegis
nestor
net
netflix
netherlands
network
new
newcastle
news
newzealanders
ng
nga
ngaa
ngaere
ngahere
ngai
ngaki
ngao
ngarau
ngaringari
ngaro
ngaru
ngata
ngati
ngatiawa
ngatitoa
ngenge
ngeru
ngi
ngia
ngitanga
ngo
ngohi
ngoikore
ngoingoi
ngongoi
ngongotaha
ngota
ngunguru
ngutu
ni
nia
niana
nic
nicholas
night
nihi
nina
niniho
niora
nipono
nippon
nirani
niu
niue
niuka
nl
no
noa
noatia
node
noema
nohanga
noho
nohoanga
nohoia
nonkilling
norfolk
north
northern
northland
norway
not
note
nothofagus
notice
noun
nouvelle
novaeseelandiae
november
now
nowi
npc
nu
nuere
nuguria
nui
nuinga
nuitanga
nuitia
nuka
nuku
nukumanu
nukuoro
number
numeri
nunui
nv
nyve
nz
nzdb
nzmss
o
oa
obadia
obadias
obadja
oblast
occitan
occupied
oce
ocean
october
oder
oea
of
office
official
ographie
ohio
oho
ohomairangi
ok
oketopa
oklahoma
oko
old
omaha
omata
omniglot
on
ona
once
one
onenui
oneone
onepu
online
only
ono
ontong
ope
opoa
opua
or
ora
oranga
ore
org
ori
original
orimipia
oritanga
oritia
oro
oromotu
oropuare
ororongo
os
osaka
oscar
oseas
ossetia
osta
ostrero
ota
otaika
other
otherwise
oti
otiia
otira
otto
ou
our
ourense
ous
out
ov
ovce
over
oxford
oxide
oystercatcher
p
pa
pacific
pae
paenga
paepae
paerangi
paerata
paerewa
paeroa
paetukutuku
page
pages
pagos
pahi
pahu
pahure
pai
paina
painga
paipera
pakanga
pakari
pakaru
pakatata
pakeha
pakeke
paki
pakihi
pakita
pakiwaitara
pakiwaituhi
paku
pakupaku
palembang
palm
pana
panahiko
panana
pane
paneve
panga
pango
panoni
paoa
paopao
paora
papa
papai
papakainga
papaki
papakupu
paparahi
papata
papatipu
papatu
pape
papua
papurona
para
parakai
parameters
paraoa
paratika
parau
parauri
pare
parekura
paremata
pareraukawa
pari
parihaka
parihitini
parirau
park
part
pashto
pass
pasvalys
pathways
pato
patterson
patu
patua
patupaiarehe
pau
paul
paulo
pdf
pe
pea
peari
pedro
pehiamu
pei
peihinga
peka
peke
pekerangi
pene
penei
penguin
people
pepa
pepeha
pera
pere
perehipitiriana
perehitini
perth
peru
pesiki
peter
peti
pez
philemon
philip
philippe
photographic
pi
pia
pierre
piha
pihanga
piho
piki
pikiao
pikinga
pikitia
piko
pileni
pine
pinehill
ping
pinyin
pio
pipi
pipiri
pire
piri
pirihia
pirihimana
pirihitini
pirimau
pirimia
piriniha
piriona
piripane
piripi
piritana
piritene
piritona
pita
pitcairn
piti
pitiroi
pito
pizza
pk
pl
place
plane
planet
plant
play
please
plymouth
png
po
poaka
poari
poata
poho
poi
poiha
poikiri
point
poipiripi
pokapu
poke
poki
poko
pokonga
poland
polandball
police
polinesia
polish
political
polyne
polynesian
pomeranian
pono
pononga
pontevedra
population
populations
poraka
pori
porini
porirua
poriwia
poro
poroni
poronihia
poropiti
poroporo
porotaka
poroti
porou
porouri
porowini
porphyrio
port
portal
portland
post
poti
poto
potukara
pou
pouaka
pounamu
pourewa
pourihi
poutini
poutu
pp
pre
press
printed
pro
prof
professor
prospects
provided
psalmi
pseudopanax
pt
pu
pua
publications
puhaorangi
puhi
pui
puia
puka
pukapuka
puke
puketapu
puku
puna
punaha
pune
punenga
punga
pungapunga
pungatara
puni
puninga
puoro
pupuri
pure
purua
puruhia
puruka
put
puta
putanga
putea
putiki
putiputi
putu
putuputu
q
qaem
qom
quality
quatre
queen
quickstats
quiet
r
ra
raa
raamat
radio
radius
rae
rahi
rahinga
rahu
rai
raiana
raiatea
raihana
raihi
raiona
raka
rakaia
rakapuo
rakau
rakauri
raki
rakiraki
rakiura
rama
ramatanga
ramiflorus
rana
ranana
ranatiki
ranei
ranga
rangahau
rangapu
rangatira
rangatiratanga
rangawaewae
rangi
rangia
rangiatea
rangihouhiri
rangika
ranginui
rangiora
rangita
rangitahua
rangiteaorere
rangitihi
rangitoto
rangitukua
rangiwewehi
rangona
rani
raoa
raorao
rap
rapa
rapanui
rapi
rapia
rapu
rapua
rara
rarahi
rarangi
raraunga
rarawa
raro
rarotonga
raruhiana
raruraru
rata
ratonga
ratou
rattan
rau
raua
rauemi
raukawa
raumati
raunui
raupapa
rauparaha
raupatu
raupatutia
raupo
rauriki
rauru
rautau
rawa
rawatia
rawe
rawhiti
rawiri
re
rea
reader
real
rearea
recent
reclamation
recognition
red
reed
ref
refers
refs
region
regional
rehe
rehu
rei
reinga
reipa
reira
reka
reko
remata
reneti
reni
rennell
reo
repo
report
reports
republic
republika
rera
rere
rereahu
rereke
rerenga
rererangi
reretia
rero
rerohia
rerotia
research
resident
responses
reta
reti
retrieved
reunions
rev
review
revival
revivalistics
revive
rewi
ri
ria
riana
rica
richard
rie
riga
right
rihi
riki
rima
rimu
ringa
ringaringa
rino
rio
ripanga
riperata
riri
ririki
riro
rite
ritenga
rito
ritua
riu
river
riverhead
ro
roa
road
roanga
robbie
robert
robertson
robin
rock
rocky
rodney
roger
rohe
roimata
roma
romani
romeinia
rongo
rongoa
rongomai
rongonui
rongowhakaata
roopu
rope
ropi
rori
roro
roroa
rorohiko
rotarota
roti
roto
rotorua
royal
rs
ru
rua
ruahine
ruakaramea
ruanui
ruapehu
ruarua
ruawa
ruhi
ruhia
rukai
ruki
ruku
runanga
runga
ruru
ruruku
russell
russia
rut
ruth
s
sa
saint
sainte
saitama
salelologa
salmon
samoa
samuel
san
santa
santiago
sapporo
savai
savaii
school
schools
scn
sco
scotland
scott
se
sea
search
sebo
section
see
sefanja
sei
seitsema
seoul
separately
september
serbia
series
service
settlement
seven
sex
shahr
shanghai
sharples
shiraz
sho
short
should
show
shown
si
sie
sihi
sikaiana
silver
silverdale
simpson
since
singapore
sir
sistema
site
six
sk
sky
sl
smith
so
society
solandri
solomon
some
something
sophora
soria
source
south
southern
spain
speak
spirit
split
spoken
spring
springs
sq
square
sr
st
stand
stanley
stanmore
start
state
states
statistical
statistics
status
stella
still
stop
story
stratford
street
studies
studio
style
su
submit
such
suez
sung
super
sur
sure
sv
svalbard
sw
sydney
syriac
system
szczecin
sɛ
t
ta
taahua
taatua
table
tabriz
tae
taea
taenga
taewhetu
tag
taga
taha
tahataha
tahatai
tahatika
tahi
tahinga
tahitanga
tahiti
tahu
tahua
tahuna
tahuri
tai
taiao
taieri
tainui
taipari
taipei
tairongo
taitama
taitamariki
taitara
taitokerau
taiwan
taiwana
taiwhenua
taka
takahe
takahi
takaparawhau
takaroko
takawaenga
take
takea
taken
taketake
taki
takitahi
takitaki
takitimu
takiwa
takoha
takoto
taku
takurua
takutai
takuu
talbot
talk
tallinn
tama
tamahine
tamainu
tamaiti
tamaki
tamaoho
tamara
tamariki
tamata
tamatea
tamatera
tamatoa
tame
tamil
tamworth
tana
tanga
tangaroa
tangata
tangi
tangihanga
tango
tangohia
tanguru
taniwha
tao
taone
taonga
tapa
tapaina
taparere
tapatoru
tapeke
tapu
tapuika
taputapu
taputapuatea
tara
taraita
taranaki
tararua
taratahi
taratara
tarawera
tari
tariana
taringa
taringamotu
taro
tata
tatai
tatau
tatauranga
tatimana
tatou
tatu
tau
taua
tauaki
tauha
tauihu
tauira
tauiwi
tauma
taumaha
taumata
taunaha
taunga
taungarangi
taungota
taupaki
taupiri
taupo
taupori
taupu
taura
taurage
tauranga
taurekareka
taurite
tauta
tautahi
tautau
tautika
tautohe
tautohetohe
tautohu
tautoko
tautokona
tauwhiro
tawa
tawake
tawhaki
tawhio
tawhiti
tawhito
tawhiuau
tbilisi
te
tea
team
teara
tegami
tehi
tehran
teide
teie
teihana
teina
teitei
tekau
television
temaru
template
tena
tene
tenei
tenema
tenerife
tennessee
teo
tepoti
tera
tere
tereina
terene
terenga
term
teroto
terra
territoire
territorial
territories
territory
tetahi
tete
tetehi
texas
text
th
than
that
the
their
them
then
there
these
they
think
this
thomas
those
three
ti
tia
tiakarete
tiaki
tiakina
tiamana
tianara
tianjin
tiapanihi
tihi
tika
tikanga
tiketike
tiki
tikitiki
tikopia
timana
timata
timatanga
time
times
timo
timoteo
timotheus
timothy
tina
tinana
tini
tinipara
tino
tio
tiorangi
tiorangiana
tipu
tipua
tipuaki
tipuna
tira
tirana
tirani
tireni
tiri
tiriti
tiro
tirohanga
tirohia
tirotiro
tita
titanga
titi
titia
titirangi
titiro
title
tito
titus
tiuka
tiwhatiwha
tkm
tl
to
toa
toarangatira
toe
toha
tohatoha
tohu
tohua
tohunga
tohungatanga
tohungia
tohuto
tohutohu
tohutoro
toi
toitu
toiwhitiiho
toka
toke
tokelau
tokerau
toki
tokimatawhaorua
toko
tokoiti
tokomaha
tokorua
tokotoko
tokyo
tomo
tomokanga
tona
tonga
tongariro
tono
tonoa
tonu
tonutia
tony
too
top
topito
torangapu
tori
toro
toroa
toru
total
totara
toto
totoru
tou
town
tr
transcontinental
tre
tree
trees
tres
tri
true
trust
tu
tua
tuakana
tuakoi
tuamatua
tuamotu
tuaono
tuara
tuarima
tuarua
tuatahi
tuatahitia
tuatoru
tuawaru
tuawha
tuawhenua
tuawhitu
tubuai
tuhi
tuhia
tuhinga
tuhipa
tuhituhi
tuhoe
tukanga
tukino
tuku
tukua
tukumanata
tukuna
tukunga
tukutuku
tumu
tumuaki
tuna
tupu
tupua
tupuna
turakina
turanga
ture
turi
turia
turkey
turu
tutu
tutuki
tuvalu
tuwharetoa
tuwhera
tv
tvnz
two
u
ua
uaua
ue
uenuku
uha
uhipeketa
ui
uk
uka
ukmerge
uku
ul
uma
umanga
un
una
under
unga
union
united
university
uno
unu
uokalani
up
updated
upoko
upolu
upper
uppsala
ur
ura
urdu
urewera
uri
url
uru
urupa
uruta
urutomo
us
used
usually
uta
utah
utc
ute
utena
utu
utua
utukore
v
va
vaita
valley
value
values
van
vanuatu
var
variable
vayres
ve
version
very
vi
victoria
vietnam
view
viking
village
vilnius
vingt
vinyard
virginia
visitors
vlamertinge
vn
vo
voivodeship
vol
volume
vuo
w
wa
waahanga
wae
waehere
waenga
waenganui
waewae
waha
wahanga
waharoa
wahi
wahine
wahinerua
waho
wai
waiariki
waiata
waiaua
waihanga
waiharakeke
waiho
waihopai
waihou
waikaremoana
waikato
waikawa
waima
waingongoro
wainui
waioneke
waipapa
waipounamu
waipuna
wairarapa
wairau
waireka
wairoa
wairua
waitaha
waitangi
waitara
waitohu
waitoki
waitoriki
waitotara
waituhi
waiu
waka
wakarere
wales
walker
wall
wallis
walt
wana
wananga
wanatanga
wano
want
wao
war
waray
ward
wari
waro
waru
was
washington
water
wawaea
wawe
way
we
wea
web
webelements
website
week
wehe
wehea
wehenga
wehi
wehiwehi
wei
welcome
well
wellington
wera
were
werewere
wero
west
western
wetereo
wewete
wh
wha
whaea
whai
whaiao
whaiaro
whaihoki
whaimana
whairangi
whaiti
whaka
whakaae
whakaaetia
whakaahua
whakaako
whakaari
whakaaro
whakaata
whakaatu
whakaaturanga
whakaaturia
whakaeke
whakahaere
whakahaerehia
whakahaerenga
whakahau
whakahe
whakaheke
whakahirahira
whakahoki
whakahokia
whakahua
whakahuatanga
whakahuatia
whakaingoatia
whakairo
whakaka
whakakake
whakakapi
whakakautengia
whakaki
whakakotahi
whakama
whakamahi
whakamahia
whakamana
whakamanahia
whakamanatia
whakamau
whakamihi
whakaminenga
whakamo
whakamutunga
whakanekenekehia
whakanohoia
whakanui
whakanuia
whakanukunukuhia
whakaora
whakaoranga
whakaoriori
whakapa
whakapae
whakapai
whakapaingia
whakapaipai
whakapakoko
whakapangia
whakapapa
whakapono
whakapu
whakapuaki
whakapumautia
whakaputa
whakaputaina
whakara
whakarahi
whakararo
whakarato
whakarereke
whakarite
whakaritea
whakaritenga
whakaro
whakarongo
whakarua
whakaruruhau
whakata
whakataetae
whakatairanga
whakatairangatia
whakatakitinitia
whakatakoto
whakatakotoranga
whakatapua
whakatau
whakatauki
whakataunga
whakatauranga
whakatere
whakatetonga
whakati
whakatika
whakatikatika
whakatipu
whakato
whakatu
whakatupuranga
whakaturia
whakatuwhera
whakatuwherahia
whakatuwheratia
whakau
whakaue
whakauru
whakauruuru
whakautu
whakawa
whakawha
whakawhanakehia
whakawhiti
whakawhitiwhiti
whakawhiwhia
whaki
whanake
whanaketanga
whanau
whanaunga
whanga
whanganui
whangaparaoa
whangarei
whangaruru
whanokao
whanonga
whara
whare
wharekai
wharekauri
wharekawa
wharenui
wharetoa
what
whati
whau
whawhai
whe
whea
wheao
wheke
whekeneta
when
whenua
whenuakura
whera
where
whererei
wherika
whero
wherowhero
whether
whetu
wheturangi
whi
whia
whiao
which
while
whina
whinihi
whinirana
whio
whiri
whirinaki
whiringa
whiritia
whiriwhiri
whiro
white
whiti
whitina
whitinamu
whitu
whiu
whiua
whiwhi
whiwhinga
who
whole
whutupaoro
whutupo
why
wi
wiki
wikimedia
wikipedia
wikitoria
will
william
williams
windsor
wini
winitana
wira
wiremu
wisconsin
with
without
witi
wiwi
wo
wolin
woman
woodard
woodhill
word
words
work
world
would
writing
www
x
xcb
xeronema
xi
y
ya
yazd
year
years
yerevan
yet
yhdeksa
yi
yiddish
yo
yokohama
york
you
your
youtube
ypres
ys
yu
z
zacari
zacharia
ze
zea
zealand
zes
zh
zhuang
zuckermann
{
|
}
~
«
°
²
´
·
º
»
æ
ı
ŋ
ɑ
ɕ
ə
ɪ
ɹ
ɾ
ʲ
ʻ
ʾ
ʿ
ˈ
ˌ
ː
ːˈ
̀
́
̂
̃
̄
̆
̇
̈
̊
̋
̌
̓
̔
̛
̣
̤
̦
̧
̨
̩
̪
̯
̱
͂
ͅ
͡
α
ας
β
ε
ι
λ
μ
ν
ους
ρ
ς
σμα
ω
а
бык
в
возможность
вы
да
для
е
его
и
игры
или
к
казино
как
л
лесото
м
н
на
не
но
о
плеи
пти
россии
с
саи
т
то
ты
ть
у
фортуна
э
это
я
ְ
ִ
ֵ
ַ
ָ
ֹ
ּ
ׂ
א
ב
ד
י
ל
מ
ר
ש
ת
ا
استان
ب
باد
ة
د
ر
س
ل
م
و
ي
َ
ُ
ِ
ّ
ْ
ٓ
ٔ
ٕ
ی
އ
ު
߬
क
ज
द
प
म
य
र
ल
़
ा
ि
ी
ु
े
्
ং
ড
ব
য
র
ল
শ
়
া
ি
ে
্
ਦ
ਲ
ਿ
ੀ
ੱ
ક
ન
ા
ଗ
ଡ
଼
ା
ି
ந
ன
ள
ா
ீ
்
ా
​
‌
‎
–
—
‘
’
“
”
†
•
′
″
€
→
↔
↷
−
③
④
⑦
►
◄
☉
⯓
ⲁ
ⲉ
ⲏ
ⲓ
ⲙ
ⲛ
ⲟ
ⲣ
⺀
⺄
⺆
⺈
⺊
⺌
⺕
⺝
⺸
⺼
⿰
⿱
⿲
⿳
⿴
⿵
⿶
⿷
⿸
⿹
⿺
⿻
〢
い
え
か
き
く
し
そ
た
の
へ
も
ん
゙
゚
ア
イ
エ
オ
カ
キ
ク
コ
サ
シ
ス
セ
タ
テ
ト
ナ
ニ
ネ
ハ
ヒ
フ
ヘ
ホ
マ
ミ
ム
モ
ヤ
ュ
ユ
ヨ
ラ
リ
ル
レ
ロ
ン
ー
㇁
㇂
㇄
㇇
㇈
㇉
㇓
㐁
㐄
㐅
㐌
㐫
㐬
㐭
㐮
㐱
㑒
㒵
㒸
㒼
㓁
㓞
㔾
㕛
㕣
㖾
㘝
㚅
㚇
㚔
㚘
㝉
㝡
㝴
㝵
㞋
㞢
㞷
㠩
㠭
㠯
㡀
㡭
㡿
㢲
㢴
㣇
㣺
㥯
㪅
㫄
㫐
㫒
㫺
㬅
㬎
㬥
㬰
㲋
㳄
㷠
㸒
㸚
㸦
㼌
㼲
㽞
㿟
䀠
䂞
䍃
䏍
䒑
䖍
䖒
䖝
䖵
䙴
䚻
䜌
䝿
䡛
䧹
䪞
一
丁
丂
七
丄
丅
丆
万
丈
三
上
下
丌
不
与
丏
丐
丑
专
且
丕
世
丘
丙
业
东
丞
丢
丣
两
严
並
丨
丩
个
丫
丬
中
丮
丰
丱
串
丵
丶
丷
丸
丹
为
主
丽
丿
乀
乂
乃
久
乆
乇
么
义
之
乌
乍
乎
乏
乐
乑
乔
乖
乗
乘
乙
乚
乛
乜
九
乞
也
习
乡
书
乳
乾
亀
亅
了
亇
予
争
事
二
亍
于
亏
亐
云
互
亓
五
井
亘
亚
亜
亞
亟
亠
亡
亢
交
亥
亦
产
亨
亩
享
京
亭
亮
亯
亰
亲
亳
亶
亷
人
亻
亼
亾
仁
今
介
仌
从
仐
仑
仒
仓
仕
他
付
仝
代
令
以
任
企
伊
伏
伐
休
会
伝
伯
但
位
何
佘
余
作
佥
使
來
侈
侌
侖
侯
侵
便
保
俞
信
修
倉
倍
候
倠
備
傳
僉
僕
儿
兀
允
兂
元
兄
充
兆
兇
先
光
兊
克
兌
免
兑
兒
兓
兔
党
兜
兟
入
全
兩
兪
八
公
六
兮
兰
共
关
兵
其
具
典
兹
兼
冀
冂
冃
冄
内
冈
冉
冊
冋
册
再
冎
冏
冐
冒
冓
冖
冗
冘
军
农
冝
冡
冥
冫
冬
冷
几
凡
凢
凵
凶
凷
凸
凹
出
函
凾
刀
刁
刂
刃
刄
刅
分
切
刍
刑
刕
刖
列
刘
则
初
別
利
别
到
制
刺
則
削
剌
前
剡
剽
劉
力
功
加
劦
助
劫
劳
劵
勃
勇
勉
勒
動
務
勞
勤
勹
勺
勻
勾
勿
匀
匂
包
匆
匈
匊
匋
匍
匕
化
北
匚
匝
匡
匪
匱
匸
匹
区
医
匽
匿
區
十
卂
千
卄
卅
卆
升
午
卉
半
卌
华
卑
卒
卓
单
卖
南
卜
卝
卞
占
卡
卢
卣
卤
卦
卩
卪
卬
卯
印
危
即
却
卵
卷
卸
卻
厂
厃
厄
历
厈
厉
厌
厓
厘
厚
原
厤
厥
厨
厭
厲
厶
厷
厸
去
厼
厽
叀
参
參
叅
又
叉
及
友
双
反
叐
发
叒
叔
叕
取
受
叚
叜
叟
口
古
句
另
叩
只
召
可
台
叱
史
右
叵
号
司
叹
吂
各
吅
合
吉
吊
吋
同
名
后
吏
向
吕
君
吝
吞
否
含
启
吳
吴
吹
吾
呂
呆
呈
告
员
呙
周
命
咅
和
咎
咠
咢
咨
咸
咼
哀
品
哈
哉
員
哥
哲
唐
商
啇
問
啚
啬
啻
善
喜
喬
單
喿
嗇
噩
嚴
囊
囗
囘
囙
囚
四
回
囟
因
囧
囬
困
囱
囷
固
国
圂
圅
國
圍
圓
土
圡
圣
圥
在
圭
地
圶
圼
坐
坒
坚
坴
垂
垔
垚
埀
埃
埋
埶
執
基
堂
堅
堆
堇
堯
塞
墨
壘
士
壬
壯
声
壳
壴
壹
壺
壽
夂
处
夅
夆
备
夊
夋
夌
复
夏
夒
夕
外
夗
夘
多
夜
夢
大
夨
天
太
夫
夬
夭
央
失
夲
头
夷
夸
夹
夻
夾
奂
奄
奇
奈
奉
奎
奏
奐
契
奓
奔
奚
奞
奠
奢
奥
奭
女
奴
奻
好
如
妄
妙
妟
妥
妻
妾
姑
委
姜
威
娄
婁
婴
嬰
嬴
子
孑
孔
孕
孖
字
存
孚
孛
孝
孟
季
孤
学
孫
孱
學
宀
宁
宂
它
宅
宇
守
安
宋
完
宏
宓
宗
官
定
宛
宜
宝
客
宣
室
宮
宰
害
家
容
宾
宿
寄
寅
密
富
寒
察
寧
審
寫
寬
寮
寸
对
寺
寻
寽
対
寿
封
尃
射
将
將
專
尉
尊
尋
尌
對
小
少
尒
尓
尔
尖
尗
尚
尞
尢
尣
尤
尧
尨
尭
就
尸
尹
尺
尻
尼
尽
尾
尿
局
居
屈
屋
屎
屏
屑
展
屖
屚
属
屠
屡
屬
屮
屯
屰
山
屵
屾
岁
岂
岑
岡
岩
岳
岸
峯
島
崇
崑
崔
崖
崙
崩
嵬
嶲
巂
巛
川
州
巟
巠
巢
巤
工
左
巧
巨
巩
巫
差
己
已
巳
巴
巷
巸
巽
巾
巿
帀
市
布
希
帖
帚
帛
帝
带
師
席
帶
常
干
平
年
幵
并
幷
幸
幺
幻
幼
幽
幾
广
広
庄
床
底
店
庚
府
度
庫
庭
庶
康
庸
廉
廌
廛
廣
廩
廴
延
廷
建
廾
廿
开
弁
弃
弄
弇
弋
式
弓
弔
引
弗
弘
弜
弟
弥
弦
弱
張
強
强
彊
彌
彎
彐
彑
当
彔
录
彖
彗
彡
形
彥
彦
彧
彭
彳
役
彼
往
待
律
徒
得
徙
從
復
微
徵
心
忄
必
忌
忍
志
忝
忠
忩
快
念
忽
忿
思
怠
急
怱
恆
恒
恩
恭
息
悉
患
悤
悲
悶
惠
惡
惢
愁
愈
意
愛
感
慈
慧
慮
憂
憲
應
戀
戈
戉
戊
戋
戌
戍
戎
成
我
戒
戔
或
戚
戠
戢
截
戲
戶
户
戹
戼
戾
房
所
扁
扇
手
扌
才
打
托
执
承
折
拉
拜
拼
拿
掌
推
提
摩
撒
支
攴
攵
收
攸
改
放
政
敄
敏
敕
敖
敗
敝
敞
敢
散
敦
敫
敬
数
敷
數
斂
文
斉
斊
斗
斤
斥
斩
斬
斯
新
方
於
施
斿
旁
旋
族
无
旡
既
旣
日
旦
旧
旨
早
旬
旱
旲
时
旾
昆
昇
昌
昍
明
昏
易
昔
昗
昜
星
春
昬
是
昱
昴
昷
時
晃
晋
晏
普
景
晶
智
暑
暴
曇
曩
曰
曲
曳
更
曷
書
曹
曼
曾
替
最
朁
會
月
有
朋
服
朔
朕
朗
望
朝
木
朩
未
末
本
札
朮
术
朱
朵
朶
朿
杀
杏
杜
束
条
来
東
杲
杳
松
析
林
枚
果
枝
枲
枼
某
柔
查
柬
柰
柴
栗
桀
桑
桼
梁
條
梟
梨
棘
棠
棥
森
楚
業
楽
榮
樂
樊
欠
次
欣
欮
欲
欶
欽
款
歆
歇
歌
歛
止
正
此
步
武
歨
歪
歮
歯
歰
歲
歴
歷
歸
歹
歺
死
殳
段
殷
殸
殹
殺
殻
殿
毋
毌
母
每
毒
比
毕
毚
毛
毳
氏
氐
民
气
氣
水
氵
氶
氷
永
氺
氾
求
汉
汝
汞
江
沃
沓
沙
沝
泉
法
波
泣
泥
泰
洛
津
洪
活
派
流
浦
浪
浮
淡
淮
清
渚
渠
湯
滿
漸
火
灬
灭
灰
灵
灷
炅
炎
炏
炗
炙
炭
為
烈
烏
烝
焉
無
焦
焱
然
煞
熊
熏
燕
營
燮
爪
爫
爭
爯
爰
爱
爲
爵
父
爻
爽
爾
爿
片
牙
牚
牛
牜
牟
牢
牧
牪
牽
犀
犬
犭
犮
狂
狄
狊
独
狺
猋
猒
猪
献
獻
玄
率
玉
王
玟
玨
珎
班
琴
瑟
瑩
瓜
瓦
甘
甚
生
産
用
甫
甬
田
由
甲
申
电
甶
男
甸
甹
画
甾
畀
界
畏
畐
留
畜
畟
畢
畧
畨
番
畫
異
畱
當
畺
畾
疊
疋
疌
疑
疒
疾
癶
癸
癹
登
發
白
百
皀
皃
的
皆
皇
皋
皐
皕
皮
皷
皿
盃
盆
盇
盈
益
盍
盎
监
盒
盖
盛
盡
監
盤
盧
目
直
相
盾
省
眇
眉
看
眔
眞
真
眷
眼
眾
着
睘
睪
睿
瞏
瞢
瞿
矍
矛
矞
矢
矣
知
矦
短
石
破
碎
磊
磨
示
礻
礼
祟
票
祭
禀
禁
福
禸
禹
禺
离
禽
禾
禿
秀
秃
秉
秋
科
秝
秦
移
稟
穀
穌
穴
究
穹
空
穿
突
窄
窒
立
竒
竜
竝
竟
章
童
竹
笑
笠
筆
等
答
箕
算
箴
節
篇
篤
篭
米
粉
粛
粟
粤
粦
粲
糞
糸
糹
系
約
納
紙
素
索
紫
累
細
結
絜
絫
絲
維
綿
縣
繇
纍
纟
约
缶
网
罒
罔
罕
罗
罙
罡
罢
罪
署
罷
羅
羊
羌
羍
美
羔
羕
羗
羞
羡
羣
群
義
羲
羸
羽
翁
翏
習
翕
翟
翠
翰
翼
老
耂
考
者
耆
而
耎
耑
耒
耳
耴
耶
耷
聂
聊
聖
聚
聶
聿
肀
肃
肅
肉
肖
肙
肥
肩
肯
育
肴
胃
背
胡
胥
能
脊
脩
腓
膚
臣
臤
臧
自
臬
臭
臯
臱
至
致
臺
臼
臽
臾
臿
舀
舂
舄
與
興
舉
舌
舍
舛
舜
舞
舟
般
艮
良
色
艸
艹
艾
芒
芔
芬
芮
花
芳
芺
芻
苔
苗
苟
若
苦
英
茶
茸
荅
草
荒
荣
荼
莆
莧
莫
莽
菆
菊
菐
華
萬
落
葉
著
葛
董
葵
蒙
蒦
蒼
蓋
蓬
蓺
蔑
蔡
蕉
蕭
薄
薛
薦
薰
藍
藏
藥
蘭
虍
虎
虐
虒
虔
處
虖
虗
虘
虚
虛
虜
虞
虫
虽
蚤
蚩
蜀
蜜
蟲
蠡
血
行
衍
衛
衣
衤
表
衮
衰
袁
袞
褭
褱
襄
襾
西
覀
要
覃
見
規
覓
覧
親
覽
见
角
解
言
訁
訇
計
記
詹
語
誩
諸
讠
记
语
谷
豆
豈
豊
豐
豕
豖
豙
象
豦
豩
豪
豸
貇
貝
貞
貟
負
貢
貧
貪
貫
責
貳
貴
買
費
賁
資
賈
賏
賓
賔
賛
賞
賢
賣
質
賴
贊
贝
贡
责
贯
贲
贵
赖
赞
赤
赦
走
越
足
路
蹇
身
躬
車
軍
軎
軟
輦
车
辛
辜
辟
辥
辰
辱
農
辵
辶
边
达
过
近
连
迦
迷
追
退
送
逆
逐
通
速
造
逢
連
逮
進
遀
遂
過
道
達
遣
適
遷
遺
邊
邑
邕
那
邦
邪
郎
部
郭
都
鄉
酉
酋
配
酓
釆
采
里
重
野
量
金
釒
錄
錢
钅
長
镸
长
門
閃
閉
開
閏
閑
閒
間
閔
閵
閻
闌
门
间
闷
阑
阜
阝
阪
防
阿
降
陳
隆
隊
隋
隡
隨
隱
隶
隹
隺
隻
隼
隽
难
雀
雁
雅
集
雈
雋
雍
雐
雔
雙
雚
雜
雝
離
難
雨
雩
雪
雲
零
雷
需
霍
霜
霝
霞
霸
靈
靑
青
非
靡
面
靣
革
韋
韦
韭
韯
韱
音
頁
頃
項
須
頗
頡
頻
顛
页
風
风
飛
飞
食
飠
養
饣
首
香
馬
馮
駦
马
骨
高
髟
鬥
鬯
鬲
鬼
魚
魯
鮮
鱼
鲁
鳥
鳳
鸟
鹵
鹿
麃
麗
麥
麦
麻
黃
黄
黍
黎
黑
黒
黨
黹
黽
黾
鼎
鼓
鼠
鼻
齊
齋
齐
齒
齿
龍
龙
龜
龟
龠
龰
龱
龴
龵
龶
龷
龸
龹
者
艹
﻿
？
𐎢
𐎲
𐎽
𐏁
𐡀
𐡁
𐤀
𒀭
𒆍
𒆠
𒊏
𒌓
𞤢
🜨
𠀁
𠀃
𠀆
𠀉
𠀎
𠀐
𠁁
𠁣
𠂆
𠂇
𠂈
𠂉
𠂊
𠂋
𠂎
𠂒
𠂔
𠂛
𠂡
𠂢
𠂤
𠂬
𠂭
𠂹
𠃊
𠃋
𠃌
𠃍
𠃎
𠃑
𠃓
𠃔
𠃜
𠄌
𠄎
𠄠
𠄢
𠆢
𠆥
𠇍
𠈌
𠌵
𠓜
𠔉
𠔥
𠔼
𠔽
𠔿
𠕀
𠕁
𠕋
𠘧
𠘨
𠙻
𠙼
𠚏
𠚒
𠚤
𠚪
𠣏
𠤎
𠤕
𠥓
𠦄
𠦑
𠦝
𠧒
𠧗
𠧪
𠩺
𠪚
𠫓
𠫔
𠫤
𠬛
𠬝
𠬞
𠬢
𠬤
𠬶
𠮛
𠮦
𠮷
𠯑
𠱠
𠳮
𠷎
𡈼
𡉀
𡉵
𡌥
𡍮
𡏳
𡕒
𡕩
𡕰
𡖅
𡗗
𡗜
𡘆
𡘤
𡧱
𡨄
𡩧
𡬠
𡭽
𡰣
𡰥
𡰪
𡰯
𡰱
𡷈
𡸁
𡿨
𡿩
𡿪
𡿺
𢀖
𢀛
𢀩
𢁙
𢆉
𢆰
𢆶
𢇁
𢇇
𢉖
𢌬
𢌿
𢏚
𢑑
𢑚
𢖻
𢙣
𢛳
𢦏
𢦒
𢧵
𢼄
𢾕
𣁋
𣄼
𣅀
𣅽
𣍘
𣎳
𣎵
𣏋
𣏼
𣗥
𣥂
𣥖
𣦵
𣦼
𣧄
𣪊
𣪠
𣬉
𣳾
𣶒
𤇾
𤊽
𤐫
𤓰
𤔔
𤕨
𤣩
𤰇
𤰔
𤰞
𤴓
𤴔
𤽄
𥁑
𥁕
𥃦
𥃩
𥃭
𥇡
𥑟
𥘅
𥘈
𥝢
𥫗
𥱡
𦈢
𦉪
𦉬
𦉼
𦍌
𦍒
𦎧
𦐇
𦓔
𦔮
𦘒
𦙃
𦚏
𦣝
𦣞
𦣻
𦥑
𦥔
𦥯
𦨉
𦭝
𦰩
𧆞
𧈧
𧘇
𧰨
𧴪
𧴮
𧵩
𧾷
𨸏
𨾴
𩙿
𩠐
𩫏
𩵋
𪉷
𪜀
𪟽
𪠲
𪩲
𫇦
𫔭
𫜸
𫝀
𫠣
𫠩
𫢉
𫥞
𫩏
𫩠
𫪡
𫲽
𫶧
𬀷
𬐘
𬗌
𬙙
𬛸
𬜯
𬟩
𬯁
𬴘
𬺻
𬼉
𬼖
𭀰
𭁈
𭁨
𭅰
𭑈
𭕄
𭗼
𭤨
𭥫
𭻾
𮅕
𮊿
𮍌
𮍏
𮓗
𮥼
𮧮
廾
𰀁
𰀄
𰀈
𰀉
𰀕
𰀠
𰀡
𰀢
𰀪
𰁜
𰃮
𰆊
𰆘
𰋙
𰕎
𰢴
𰧭
𰯲
6--
a--
ab--
ac--
accor--
ad--
ag--
aga--
ah--
ahi--
ahu--
ai--
air--
ak--
aka--
al--
all--
amo--
an--
ao--
apo--
ar--
ara--
arbo--
aro--
as--
ast--
at--
au--
auth--
ava--
awa--
ay--
b--
ba--
bar--
be--
ber--
bi--
bib--
bir--
bis--
bla--
blan--
bo--
bos--
br--
bro--
bu--
bur--
c--
ca--
camp--
can--
car--
cas--
cat--
ce--
cen--
ch--
ci--
cin--
cinq--
cl--
co--
con--
contri--
cou--
cri--
cu--
cur--
d--
da--
dar--
de--
den--
di--
die--
dis--
do--
dor--
dra--
du--
e--
ea--
ed--
efe--
eke--
eleva--
en--
es--
ex--
exclu--
eze--
f--
fa--
falkl--
fe--
fi--
fili--
fins--
flu--
fo--
for--
fr--
g--
ga--
gar--
ge--
gi--
gl--
go--
gor--
gro--
gua--
guang--
gui--
gus--
h--
ha--
hae--
ham--
har--
hara--
hau--
he--
hel--
hi--
hine--
hire--
ho--
hoa--
hou--
hu--
hua--
hui--
huka--
huri--
i--
id--
il--
im--
in--
inter--
io--
ir--
iriiri--
is--
isa--
iti--
j--
ja--
je--
jo--
ju--
k--
ka--
kae--
kai--
kaia--
kan--
kara--
kau--
ke--
ker--
ki--
kiko--
kiri--
kl--
ko--
koi--
koro--
kr--
krøni--
ku--
kuru--
la--
lar--
le--
levi--
li--
lo--
loca--
long--
lu--
ly--
m--
ma--
mai--
main--
male--
maru--
mat--
mata--
mawake--
me--
men--
mi--
mic--
mil--
miq--
mo--
moe--
mon--
mor--
mu--
mult--
mun--
mur--
my--
n--
na--
nau--
ne--
neke--
ng--
nga--
ni--
niu--
no--
nor--
norr--
nu--
nue--
nuku--
o--
of--
ok--
on--
one--
oro--
os--
p--
pa--
pae--
pan--
para--
pare--
patu--
pe--
peri--
pes--
phr--
pi--
piri--
pl--
plu--
po--
poho--
poi--
poro--
pou--
pri--
prin--
psal--
pu--
pua--
pub--
puke--
puta--
q--
qaz--
qua--
quat--
qui--
r--
ra--
raa--
rab--
ran--
rangi--
rau--
re--
reco--
reproduc--
rero--
ri--
ro--
rs--
ru--
rua--
s--
sa--
sal--
sci--
se--
ser--
set--
she--
si--
sk--
so--
sofo--
spa--
speci--
st--
ste--
su--
sw--
t--
ta--
tae--
tahi--
tai--
taka--
tan--
tangi--
tao--
tapa--
tari--
tas--
tau--
te--
tem--
th--
ti--
tia--
tii--
tiki--
tini--
tiz--
to--
toa--
toe--
toko--
top--
tr--
trad--
tu--
tua--
ty--
u--
ui--
ul--
un--
ur--
ura--
uru--
us--
v--
va--
ve--
ven--
ver--
vi--
vin--
vo--
w--
wa--
wai--
waka--
war--
we--
west--
wha--
whai--
whaka--
whare--
wi--
wil--
wo--
won--
wood--
x--
y--
yo--
z--
zaka--
ze--
μ--
ν--
τ--
де--
завед--
игр--
игрок--
к--
кор--
м--
о--
п--
с--
т--
у--
ц--
ч--
ای--
--0
--1
--2
--3
--4
--5
--6
--7
--8
--9
--a
--ac
--ah
--al
--am
--an
--ana
--anui
--ar
--ary
--as
--ation
--b
--ble
--bo
--by
--c
--ca
--ce
--ch
--ck
--co
--ct
--cts
--cu
--d
--da
--de
--dy
--e
--ea
--ed
--ef
--ehu
--el
--ela
--eld
--em
--en
--enga
--enta
--er
--ern
--ers
--erton
--es
--et
--ewa
--f
--ff
--g
--ga
--gan
--ge
--gen
--ger
--gh
--ght
--go
--gs
--gues
--h
--ha
--hama
--hara
--hau
--he
--her
--hi
--hia
--hiku
--hip
--ho
--homa
--hora
--hou
--hu
--hua
--i
--ia
--ian
--ic
--ie
--ies
--ile
--ille
--in
--ing
--io
--ion
--ions
--ir
--irangi
--ire
--iri
--is
--iti
--ity
--j
--ja
--ju
--k
--ka
--kaho
--ke
--ki
--ko
--ks
--ku
--l
--la
--ld
--le
--lent
--li
--lia
--ll
--lla
--lle
--lo
--ls
--ly
--m
--ma
--mai
--me
--ment
--mi
--mia
--mo
--mond
--mu
--n
--na
--nac
--nai
--nas
--nce
--nd
--nda
--nds
--ne
--nes
--ness
--ng
--nga
--nge
--ngi
--ni
--niti
--nna
--no
--ns
--nse
--nson
--nt
--nta
--nte
--nto
--nu
--nui
--o
--ock
--od
--oi
--ol
--on
--one
--ong
--ons
--or
--ors
--oru
--os
--ot
--oyd
--p
--pa
--pe
--pi
--po
--pu
--que
--r
--ra
--ral
--rary
--rau
--rb
--rc
--rd
--re
--rei
--rewa
--rg
--ri
--ria
--ris
--rja
--rm
--rn
--rne
--ro
--roa
--ronomi
--rry
--rs
--rt
--ru
--rua
--ry
--rz
--s
--se
--sh
--sia
--side
--sii
--sk
--son
--ss
--st
--sta
--stes
--sting
--ston
--sville
--t
--ta
--tai
--tanga
--te
--tea
--ted
--th
--thing
--ti
--tia
--tion
--to
--ton
--ts
--tt
--tta
--tu
--tuki
--tura
--ty
--u
--ua
--uku
--um
--und
--ur
--us
--v
--va
--ve
--ville
--vo
--w
--wa
--wai
--we
--wha
--wn
--x
--y
--yer
--z
--za
--ʁ
--ι
--μι
--ν
--а
--в
--е
--з
--и
--к
--м
--о
--т
--х
--ь
--ان
--ن
--ی
