!
"
#
##0
##1
##10
##11
##12
##13
##14
##15
##16
##17
##18
##19
##2
##20
##21
##22
##23
##24
##25
##26
##27
##28
##29
##3
##30
##31
##32
##33
##34
##35
##36
##37
##38
##39
##4
##40
##41
##42
##43
##44
##45
##46
##47
##48
##49
##5
##50
##51
##52
##53
##54
##55
##56
##57
##58
##59
##6
##60
##61
##62
##63
##64
##65
##66
##67
##68
##69
##7
##70
##71
##72
##73
##74
##75
##76
##77
##78
##79
##8
##80
##81
##82
##83
##84
##85
##86
##87
##88
##89
##9
##90
##91
##92
##93
##94
##95
##96
##97
##98
##99
$
%
&
'
(
)
*
+
,
-
.
/
0
00
000
0000
0001
001
002
003
004
005
006
007
008
009
01
012
013
0140
015
02
0261
03
0305
035
0362
04
040
05
050
06
07
08
09
0978
1
10
100
1000
1002
1004
1006
1007
101
1016
1017
102
1021
1025
1029
103
1038
1039
104
105
1050
1056
106
107
1073
108
1080
1086
109
1093
1097
109874
11
110
1100
1101
1103
1107
111
1111
112
1122
1126
113
1130
114
1146
115
116
117
1177
118
1186
119
12
120
1200
121
122
123
124
125
126
127
128
129
13
130
1300
131
1310
132
133
134
135
1350
1351
1357
136
137
1371
138
139
14
140
1400
141
142
143
144
145
1450
146
14644
14651858
147
1473
148
149
15
150
1500
151
1515
1517
152
1520
153
1532
154
1540
155
156
157
158
159
16
160
1600
1606
161
162
1626
163
1636
164
1642
165
1650
1651
166
1665
1667
167
168
169
1690
17
170
1700
1707
171
172
173
1730
1737
174
1740
1745
175
1750
1756
1758
176
1760
1763
177
1770
1774
1775
1776
1777
1778
178
1780
1782
1787
1788
1789
179
1790
1791
1792
1793
1794
1795
1796
1797
1799
18
180
1800
1801
1803
1804
1805
1806
1807
1808
1809
181
1810
1813
1814
1815
1816
1817
1819
1820
1821
1822
1823
1824
1825
1826
1827
1828
1829
183
1830
1831
1832
1833
1834
1835
1836
1837
1838
184
1840
1841
1842
1843
1844
1845
1846
1847
1848
1849
185
1850
1851
1852
1853
1854
1855
1856
1857
1858
1859
186
1860
1861
1862
1863
1864
1865
1866
1867
1868
1869
187
1870
1871
1872
1873
1874
1875
1876
1877
1878
1879
188
1880
1881
1882
1882893
1883
1884
1885
1886
1887
1888
1889
189
1890
1891
1892
1893
1894
1895
1896
1897
1898
1899
19
190
1900
1901
1902
1903
1904
1905
1906
1907
1908
1909
191
1910
1911
1912
1913
1914
1915
1916
1917
1918
1919
192
1920
1921
1922
1923
1924
1925
1926
1927
1928
1929
193
1930
1931
1932
1933
1934
1935
1936
1937
1938
1939
194
1940
1941
1942
1943
1944
1945
1946
1947
1948
1949
195
1950
1951
1952
1953
1954
1955
1956
1957
1958
1959
196
1960
1961
1962
1963
1964
1965
1966
1967
1968
1969
197
1970
1971
1972
1973
1974
1975
1976
1977
1978
1979
198
1980
1981
1982
1983
1984
1985
1986
1987
1988
1989
199
1990
1991
1992
1993
1994
1995
1996
1997
1998
1999
2
20
200
2000
2001
2002
2003
2004
2005
2006
2007
2008
2009
201
2010
2011
2012
2013
2014
2015
2016
2017
2018
2019
202
2020
2021
2022
2023
2025
203
204
205
206
207
208
209
2095
21
210
211
212
213
214
215
216
217
218
219
22
220
221
222
223
224
225
226
227
228
229
23
230
2307
231
232
23245604
233
234
235
236
237
238
239
24
240
241
242
243
244
245
246
247
248
249
25
250
251
252
253
254
255
256
257
258
259
26
260
261
262
263
264
265
266
267
269
27
270
271
272
273
274
275
276
277
278
279
28
280
281
282
283
284
285
286
287
288
289
29
290
291
292
293
294
295
296
297
29718
298
299
3
30
300
3000
301
302
303
304
305
306
307
3077
308
309
31
310
311
312
313
314
315
316
3166
317
318
319
32
320
3201
321
322
323
324
325
326
327
328
329
33
330
331
333
336
337
338
339
34
340
341
342
343
344
345
346
347
348
349
35
350
351
352
353
354
355
3555
356
357
359
36
360
361
362
365
368
369
37
370
371
373
375
376
377
378
38
380
381
382
383
384
385
386
387
389
39
391
393
395
4
40
400
4000
401
402
4020
403
405
407
41
411
413
415
416
417
419
42
420
427
428
429
43
430
4314
433
4331
434
435
437
44
440
441
442
446
45
450
452
454
457
46
460
462
47
470
471
475
479
48
480
481
488
49
490
493
495
499
5
50
500
5000
502
503
504
505
508
51
510
52
520
521
527
53
534
539
54
540
541
542
549
55
550
557
558
56
560
561
562
567
57
570
571
574
577
58
582
585
587
5898
59
594
595
597
6
60
600
601
603
61
610
612
61728
62
621
624
625
627
63
633
639
64
640
642
65
650
66
661
664
667
67
670
671
6736
674
679
68
683
684
69
691
694
697
7
70
700
702
71
710
717
72
720
73
732
733
74
7425
75
750
755
76
77
770
774
779
78
789
79
8
80
800
8028
8054
808
81
82
820
828
83
830
833
84
85
850
86
87
88
8859
89
9
90
900
91
917
9171
92
923
93
933
94
940
947
95
950
96
97
978
98
9859
99
990
9932200017
999
:
;
<
=
>
?
@
[
\
]
^
_
`
a
aa
aabo
aacocrinus
aado
aadota
aafin
aago
aajo
aaju
aala
aaliyah
aalo
aami
aanu
aare
aarin
aaron
aarun
aaya
aaye
ab
aba
ababa
abacavir
abacha
abagun
abah
abajade
abakaliki
abala
abandoned
abang
abarapa
abasi
abass
abawo
abayomi
abba
abbas
abbey
abbl
abbreviations
abc
abd
abdallah
abdel
abdi
abdul
abdullah
abdullahi
abdulrazak
abdur
abe
abebe
abel
abele
abeni
abeokuta
aberdeen
abi
abia
abibatu
abidemi
abidjan
abigail
abii
abike
abile
ability
abimbo
abimbola
abimboye
abina
abinibi
abio
abiodun
abiola
abishola
abiso
abiyamo
abkhazia
able
abo
aboard
abode
aboderin
abojuto
abortion
about
above
aboyu
abraham
abraka
abrams
abroad
abs
absent
absolute
abstract
abu
abubakar
abuda
abudu
abuja
abuke
abul
abule
abundance
abundant
aburo
abuse
abused
ac
academia
academic
academy
accent
accents
accept
accepted
access
accessdate
accessed
accident
accord
according
account
accountant
accountants
accounting
accounts
accra
accurate
accused
ace
acerentomidae
acerentomon
acerentulus
achebe
achieve
achieved
achievement
achievements
achievers
acholi
achour
aci
acid
acids
acn
acp
acquired
acre
across
acs
act
acta
acting
actinide
action
actions
active
activist
activists
activities
activity
activos
actor
actors
actress
actresses
actrice
acts
actual
actually
acute
ad
ada
adaba
adagun
adaji
adajo
adalu
adam
adama
adamawa
adams
adamu
adanida
adaobi
adaora
adapo
adaptation
adapted
adaptive
adari
adas
adayeba
adc
add
added
adding
addis
addition
additional
addo
address
addresses
adds
ade
adebayo
adebayor
adebisi
adebiyi
adebowale
adeboye
adedapo
adedayo
adedeji
adedimeji
adedoyin
adefarasin
adegbite
adegbola
adegboyega
adegoke
adehun
adejoke
adekola
adekoya
adekunle
adelabu
adelaja
adelana
adele
adeleke
ademiluyi
ademola
ademoyega
adeniji
adenike
adeniran
adeniyi
adenrele
adenuga
adeola
adeolu
adeosun
adeoye
aderemi
aderinokun
aderonke
adesanmi
adesanya
adesina
adesokan
adesola
adesua
adesuwa
adetiba
adetokunbo
adetona
adetunji
adewale
adewole
adeyemi
adeyemo
adeyeye
adeyinka
adi
adichie
adie
adiele
adigun
adigunjale
adil
adipo
adisa
adj
adjective
adjusted
adler
admin
administration
administrative
administrator
administrators
admiral
admire
admission
ado
adogba
adolescent
adolf
adolfo
adopted
adorable
adota
adp
adrawi
adrian
adrienne
adsabs
adu
adua
aduba
adugbo
adulawo
adult
adults
adun
adunni
adura
aduwak
aduwo
adv
advance
advanced
advancement
advances
adventure
adventures
advertising
advice
adviser
advisory
advocacy
advocate
advocates
adware
adwords
ae
aeag
aesthetics
af
afa
afara
afbe
afc
afe
afeez
afefe
afefeojuorun
affair
affairs
affect
afghan
afghani
afghanistan
afi
afida
afihan
afikpo
afikun
afin
afirica
afirika
afiwe
afo
afolabi
afolayan
afonifoji
afooc
afowo
afp
afraid
afri
africa
africaine
africaleurodes
africamagic
african
africana
africanews
africans
africanus
africas
africultures
afrik
afrika
afrikaans
afriko
afrima
afrimma
afrique
afro
afrobasket
afrobeat
afrobeats
afrocandy
afropop
after
afu
ag
aga
agaga
again
against
agba
agbabo
agbaboolu
agbada
agbaje
agbajo
agbala
agbalaaye
agbalagba
agbalejo
agbani
agbara
agbarajo
agbari
agbaye
agbe
agbebon
agbedemeji
agbega
agbegbe
agbejade
agbejo
agbejoro
agbekale
agbelebu
agbelewo
agbenuso
agbere
agberin
agbero
agbese
agbeyewo
agbo
agbofinro
agbogun
agbole
agbon
agboola
agboole
agbor
agbowo
age
aged
agege
agemo
agence
agencies
agency
agenda
agent
agents
ages
agi
aginju
agnes
ago
agodi
agogo
agolo
agony
agree
agreed
agreement
agricultural
agriculture
agu
aguebor
aguiyi
agunbiade
agusti
agutan
agwu
ah
ahamo
ahead
ahh
ahli
ahmad
ahmadiyya
ahmadu
ahmed
ahn
aho
ai
aibikita
aid
aide
aids
aigbe
aije
aiki
ailes
ailopin
aim
aime
aimo
aims
ain
aina
aini
aip
aipe
air
airborne
aires
airi
airlines
airport
airports
airtel
airways
ais
aisan
aise
aisha
ait
aito
aiye
aiyeola
aj
aja
ajagun
ajah
ajai
ajakale
ajakaye
ajala
ajale
ajani
ajasco
ajasin
ajax
ajayi
aje
ajegunle
ajeji
ajereh
aji
ajibade
ajibola
ajinde
ajisola
ajo
ajodun
ajogun
ajogunba
ajol
ajoni
ajose
aju
ajumo
ak
aka
akaaboune
akada
akade
akademi
akan
akanbi
akanda
akande
akanni
akans
akara
akariaye
ake
akede
akegbe
akeko
akeredolu
akerele
akero
akewi
akhigbe
aki
akikanju
akin
akindele
akindoju
akinlade
akinloye
akinmade
akino
akinola
akinrinade
akintayo
akintola
akintunde
akinwale
akinwumi
akinwunmi
akinyele
akinyelure
akinyemi
akinyi
akiolu
akite
akitiyan
akiyesi
akkadian
ako
akobere
akoewi
akogun
akojo
akojopo
akoka
akoko
akole
akon
akoni
akoole
akoonu
akopo
akoran
akori
akorin
akosile
akoso
akotan
akowe
akpan
akpororo
akpos
akran
aku
akudo
akun
akungba
akure
akuson
akwa
akwaeke
akwanga
al
ala
alaafia
alaafin
alaaye
alaba
alabama
alabapin
alabara
alabas
alabi
alabojuto
alabugbe
aladani
aladawa
alade
aladun
alafaramo
alafia
alaga
alagba
alagbara
alagbase
alagbata
alagbawi
alagbeka
alagbero
alagbese
alagbewo
alagedemeji
alaile
alain
alaini
alaisan
alaisi
alaja
alaje
alajo
alakada
alake
alakija
alakitiyan
alako
alakobere
alakoko
alakoso
alami
alamo
alamu
alan
alanga
alangba
alani
alao
alapere
alara
alariwisi
alaroko
alas
alase
alaska
alatako
alatise
alausa
alawada
alawo
alawodudu
alawofunfun
alawujo
alaye
alba
albania
albanian
albert
alberta
alberto
albion
album
albums
alcohol
aldehyde
aldh
ale
alec
alefa
alejandro
alejo
alele
aleqm
alert
alessandro
aleurocanthus
aleurocerus
aleuroclava
aleurodicus
aleurolobus
aleuromarginatus
aleuroparadoxus
aleuroplatus
aleuropleurocelus
aleurothrixus
aleurotrachelus
alex
alexa
alexander
alexandra
alexandre
alexandria
alexis
aleyrodes
aleyrodidae
alfa
alfonso
alfred
alfredo
alge
algebra
algeria
algerian
algiers
alhaja
alhaji
ali
alibo
alice
alichi
alicia
alien
aligarh
aligned
aliko
alimi
alimosho
alisatrice
alison
alive
aliyu
aljazeera
aljebra
alkali
alkaline
all
alla
allafrica
allah
allan
alleged
allegedly
allen
allergy
alli
alliance
allied
allison
allmusic
allow
allowed
allowing
allure
allyson
alma
almanac
almost
alo
alobo
alohu
aloma
alominira
alone
along
alonge
alongside
alordiah
alpha
alphabet
already
also
alter
alternative
although
alto
alu
alufa
aluko
aluma
aluminum
alumni
alumo
alumoni
alupupu
always
am
ama
amaa
amadi
amaechi
amaka
amal
amanda
amara
amarachi
amarteifio
amata
amateur
amayederun
amazing
amazon
ambassador
ambassadorial
ambassadors
amber
ambition
ambode
ambrose
ame
ameh
amelia
amen
amendment
amenities
america
american
americans
americas
amerika
ami
amid
amin
amina
amini
amino
aminu
amioro
ammad
ammonia
amnesty
amo
amofin
amohunmaworan
amojuto
among
amongst
amoo
amos
amosun
amotekun
amount
amour
amoye
amp
amphientulus
amstel
amsterdam
amu
amunisin
amusa
amusan
amusement
amusin
amuwo
amvca
amy
an
ana
anabi
anaesthesiologists
anafilasisi
analyses
analysis
analytical
analyzed
anambra
anand
anaphylaxis
anatomy
anc
ancestry
anchor
anchorage
ancient
and
anderson
andes
andorra
andre
andrea
andreas
andrew
andrews
android
andy
aneke
anfa
anfaani
anfani
ange
angel
angela
angeles
angelina
angels
anger
angewandte
angle
anglican
anglo
angola
angry
anguilla
ani
anie
anigunmeta
anikulapo
animal
animals
anime
anini
aniocha
anita
aniunoh
anjorin
ankara
ann
anna
annals
anne
annie
anniversary
announce
announced
announcement
announces
annual
annurev
ano
anoka
anonymous
another
anozie
anpp
ans
ansah
ansar
ansari
answer
answers
antar
antarctic
antarctica
antau
anthem
anthology
anthony
anthropology
anti
antibodies
antigua
antilles
antiquity
anto
antoine
antoinette
anton
antonio
anu
anunobi
anxiety
any
anyango
anymore
anyone
anything
ao
aofiyebi
aou
ap
apa
apaariwa
apaguusu
apailaorun
apaiwoorun
apakan
apako
apakokoro
apala
apanile
apapa
apapo
aparapo
apart
apartheid
apase
apata
apatow
apc
ape
apeere
apejo
apejuwe
apere
apilese
apinfunni
apis
apj
apo
apollo
apon
apor
aposteli
apostle
apostolic
apoti
app
apparent
appeal
appear
appearance
appearances
appeared
appears
appiah
apple
application
applications
applied
apply
appointed
appointment
appoints
approach
approaches
approval
approves
approximately
apr
april
aquereburu
ar
ara
araalu
arab
arabara
arabi
arabia
arabic
arabiki
arabinrin
arabs
arabu
arakunrin
aramada
aramaic
aramide
aramotu
aran
arare
arawa
arbitration
arc
archaeological
archaeology
archbishop
archibong
archipelago
architect
architects
architecture
archive
archived
archivedate
archives
archiveurl
are
area
areas
aregbesola
aremo
aremu
arena
arese
aretha
arewa
arge
argentina
argentine
argued
ari
arias
arin
aringbungbun
arinlofurufu
arinrin
arinze
aririn
arise
aristocratic
ariwa
ariwailaorun
ariwaiwoorun
ariwo
ariyanjiyan
arizona
ark
arkansas
arlington
arm
arme
armed
armenia
armenian
arms
armstrong
army
arnold
aro
aroko
aropin
aropo
aroso
around
arranged
arrangement
arrest
arrested
arrival
arrive
arrived
arrow
arsenal
arsenic
art
artandhistory
arte
arthur
article
articlerender
articles
articleshow
artid
artificial
artist
artiste
artistes
artists
arts
arturo
aru
aruba
arufin
arugba
arun
arxiv
as
asa
asaba
asale
asan
asante
asare
asayan
ascended
ascension
ase
asedeko
asefisiksi
aseku
aseoro
aseyori
ash
ashanti
ashcroft
asher
ashes
ashley
ashorkor
asi
asia
asialeyrodes
asian
aside
asiko
asimov
asir
asiri
asiwaju
ask
asked
askia
asking
asma
aso
asofin
asoju
asokan
asopo
asoro
asoyipo
asp
aspects
aspen
aspx
ass
assassination
assault
assembly
assessment
asset
assigned
assih
assistant
associate
associated
association
assyria
aste
asterobemisia
asteroid
asteroids
astro
astronomers
astronomical
astronomy
astrophysical
asu
asunder
asunra
asuu
asylum
at
ata
atako
atanna
atayo
ate
atete
athens
athlete
athletes
athletics
ati
atijo
atiku
atile
atilo
atipe
atla
atlanta
atlantic
atlantiki
atlantis
atlas
atmosphere
atmospheric
ato
atojo
atoko
atokun
atomic
atoms
atomu
atorawo
atp
atpworldtour
atta
attack
attacks
attempt
attend
attention
attitudes
attoh
attorney
attractions
atu
atuko
atumo
atun
atungba
atunko
atuns
atunse
atunye
au
auchi
audience
audio
audit
audrey
audu
aug
augie
augoye
august
augusta
auguste
augustine
augusto
augustus
auley
aurelius
aureus
austen
austin
austine
austra
australentulus
australia
australian
australopithecus
austri
austria
austrian
austro
austronesian
authentic
author
authorhouse
authorities
authority
authors
auto
autobiography
automated
automatically
autonomous
autumn
aux
auxiliary
av
available
avec
avenue
average
aviation
avoid
avril
aw
awa
awada
awako
award
awarded
awards
awareness
awari
away
awe
awin
awka
awo
awokose
awolowo
awon
aworan
awori
awos
awosika
awoyinfa
awu
awujale
awujo
awuyewuye
axis
ay
aya
ayaba
ayafi
ayan
ayaworan
aye
ayefele
ayeijoun
ayelujara
ayeraye
ayewo
ayeye
ayi
ayika
ayinde
ayinla
ayipada
aymara
ayo
ayobo
ayodeji
ayodele
ayoko
ayokunle
ayomide
ayoola
ayori
ayouch
az
azarenka
azerbaijan
azerbaijani
azikiwe
aziz
azu
b
ba
baa
baaaqbaj
baale
baalu
baba
babafemi
babajide
babala
babalawo
babalo
babalola
baban
babangida
babatunde
babcock
babes
babi
baby
babyface
babylonian
bach
bachelor
back
background
backs
bacon
bacteria
bacterial
baculentulus
bad
bada
badagary
badagry
badaki
badamasi
bade
badejo
baden
baderinwa
badminton
badmus
badore
bafta
bag
baghdad
bags
bahama
bahamas
bahia
bahrain
bai
bailey
bainter
baje
bajwa
bakam
bakan
bakana
bakanna
bakannaa
bakare
bakassi
baker
bakerius
bakite
bakiteria
bal
bala
balance
bald
baldwin
bale
balewa
bali
ball
ballet
balo
balogun
baltimore
balu
bamako
bamboo
bambusae
bamidele
bamiloye
ban
banana
band
banda
bandele
bands
bang
banga
bangalore
bangladesh
bani
banj
banjo
bank
banke
banker
banki
banking
banknotes
bankole
banks
banky
banner
bans
bantoid
bantu
baptist
baptiste
bar
bara
barack
baraka
barbados
barbara
barber
barbuda
barcelona
bari
bariga
barker
barnabas
barnes
baron
baroque
barre
barrister
barrow
barry
barrymore
bars
barter
barthe
bartlett
barycenter
bas
basa
base
baseball
based
basel
bases
basic
basil
basilica
basin
basis
basket
basketball
baso
basque
bassa
bassam
bassey
bat
bata
bath
battery
battle
battleground
bauchi
baum
bautista
bawo
baxandall
baxter
bay
bayelsa
bayern
bayero
bayi
bayii
bayo
bayreuth
bb
bba
bbc
bbi
bbnaija
bc
bce
bd
be
beach
bean
beans
bear
beard
beast
beat
beatrice
beats
beautiful
beauty
bebe
became
because
beck
become
becomes
becoming
bed
bedjaoui
bee
been
beer
beere
beesini
before
beg
began
begin
beginning
beginnings
begins
begum
begun
behalf
behavior
behaviour
behind
bei
beier
beijing
being
beji
belarus
belbey
belfast
belgian
belgium
belgrade
belief
believe
believed
belinda
belize
bell
bella
bellanaija
belle
bello
bells
beloved
below
belt
bemis
bemisia
ben
benavides
benchehida
bend
bendel
beneath
benedict
benefits
bengal
bengali
beni
benin
benito
benjamin
bennani
bennett
benning
benson
bensouda
bent
bentley
benue
benz
ber
berber
berberentulus
bere
berg
berger
berglund
berkeley
berlese
berlin
bermuda
bernard
bernardo
bernath
bernoulli
bernstein
berry
bertrand
best
bet
beta
bethlehem
better
bettinah
betty
between
beverly
bey
beyonce
beyond
bf
bfi
bfricke
bg
bh
bhm
bhutan
bi
biafra
biafran
bibcode
bibe
bibeli
bibi
bible
biblical
bibliography
bicycle
bid
bida
bie
biennale
biffot
big
biggest
bihar
bii
bijou
biju
biki
bilio
bilionu
bill
billboard
billie
billion
billionaire
bills
billy
billz
bilongo
bimbo
bin
bing
bini
bink
binrin
binta
binu
bio
biochem
biochemistry
biodun
biographical
biography
biol
biological
biology
bios
biotilejepe
bird
birds
birin
birmingham
birnin
birth
birthday
bis
bishop
bisi
bisola
bissau
bit
bitch
bitches
bitcoin
biti
bitter
biya
biyi
biz
bj
bl
black
blackberry
blackburn
blacks
blackwell
blade
blaise
blaize
blake
blame
blanche
blanco
blank
blaq
blast
blaze
bless
blessed
blessing
blew
blica
blige
blind
block
blockchain
blocked
blocks
bloemfontein
blog
blogger
blogs
blogspot
blood
bloody
bloom
bloomberg
bloomington
blossom
blow
blu
blue
blueprint
blues
blum
bm
bn
bo
boafo
board
boat
bob
bobby
bobo
bobrisky
bode
bodies
bodija
bodunrin
body
boeken
bogobiri
bogota
bohemia
boiling
bois
boity
boju
boko
bola
bolaji
bolanle
bole
boli
bolivia
bomb
bombu
bomi
bon
bona
bond
bondage
bondar
bonded
bonds
bone
bones
bonet
bongo
bongocinema
boni
boniface
bonnie
bonny
boo
booju
book
booker
books
boolu
boost
booth
bora
border
borders
bore
borha
bori
boris
born
borne
borno
bornu
boro
boron
bos
bose
bosnia
bosnian
boson
bosons
boss
boston
both
botile
botilejepe
botswana
bottle
bottom
bouchard
bought
boulder
boulevard
boulos
bound
boundaries
boundary
bounds
boushaki
bovi
bowe
bowen
bowie
box
boxa
boxer
boxing
boy
boya
boycott
boyd
boyfriend
boyland
boyle
boyo
boys
boyu
bp
br
bra
brace
brad
bradley
bradt
brady
braid
brain
branch
branches
brand
brasil
brass
braun
brave
bravo
brazil
brazilian
brazzaville
bre
bread
breadfruit
break
breakdown
breakfast
breaking
breaks
breast
breastfeeding
breed
breeze
brenda
bresch
brewer
bri
brian
bribery
bridal
bride
bridge
brief
briefly
brigade
brigadier
bright
brila
brill
brilliant
bring
bringing
brings
bristol
britain
britani
britannica
british
brittle
bro
broad
broadcast
broadcaster
broadcasters
broadcasting
broadcasts
broadway
broadwayworld
broke
broken
bronze
brood
brooklyn
brooks
broom
brother
brothers
brought
brown
browser
browsers
bruce
bruise
brunei
bruno
brunswick
brush
brussels
brute
bryant
brymo
bs
bsc
bt
bu
buari
buba
buburu
buchanan
buchi
buck
bucknor
bud
buddha
budget
budo
buenos
buffalo
buganda
buhari
build
building
buildings
builds
built
bujumbura
bukhari
bukky
bukola
bulgaria
bulgarian
bulge
bulk
bull
bullet
bulletin
bully
bulo
bump
bun
bunch
bundle
bunmi
bunyoro
bura
burden
bureau
burger
burial
buried
burity
burke
burkina
burkinabe
burma
burn
burna
burning
burns
burnt
burst
burton
buru
buruku
burundi
bus
busari
bush
business
businessday
businessdayonline
businesses
businessman
but
buta
butler
button
butylbenzene
buwo
buy
buzz
buzznigeria
bv
bw
bwfbadminton
by
bye
byron
byzantine
bɑ
c
ca
cabinet
cable
cabo
cac
cady
caesar
caf
cafe
caicos
cairo
cal
calabar
calabash
calculated
caldero
cale
caleb
calendar
california
caliphate
call
called
callie
calling
calls
calm
calvary
calvin
cambodia
cambridge
came
camera
cameron
cameroon
cameroons
cameroun
camille
camp
campaign
campbell
campus
can
canada
canadian
canal
canarias
canback
cancer
candidate
candidates
candy
cannes
cannot
canoe
cant
cantonese
canyon
cap
capable
capacity
cape
capita
capital
capitalism
capitals
capitol
cappella
captain
capture
car
carbon
carboxylic
card
cardiff
cardinal
cardoso
care
career
carey
cargo
caribbean
carl
carlin
carlito
carlo
carlos
carmen
carnival
caro
carol
carole
carolina
caroline
carpenter
carpet
carr
carrie
carried
carroll
carry
cars
carter
carthage
carvalho
carver
cas
casa
casablanca
case
cases
casey
cash
casino
casos
cassandra
cassava
cassidy
cast
castillo
casting
castle
castro
cat
catalan
catalog
catalogue
catalonia
catch
categories
category
catharine
cathedral
catherine
catholic
catid
cats
cattle
cauchy
caught
cause
caused
causes
causing
cave
cavendish
cay
cayman
cb
cbc
cbe
cbignore
cbn
cbs
cbsnews
cc
cctld
cd
cdc
cdq
ce
cecilia
cele
celeb
celebrate
celebrated
celebrates
celebrating
celebration
celebrities
celebrity
celebs
celeste
celestial
celestine
cell
cellba
cells
cellta
cellxba
cellxta
cemetery
cengage
censo
census
cent
centenary
center
centers
central
centre
centuries
century
ceo
ceramic
cerebral
ceremony
cern
certain
certificate
certification
ceuta
cf
cfa
cfm
cfr
cg
cgi
cgis
ch
cha
chabas
chabi
chad
chadic
chagas
chagoury
chain
chair
chairman
challenge
challenger
challenges
chamber
chambers
champaigne
champion
champions
championship
championships
chan
chance
chancellor
chances
chang
change
changed
changes
changing
channel
channels
channelstv
chano
chao
chapel
chapman
chappell
chappelle
chapter
character
characteristics
characterization
characters
charge
charges
charity
charles
charleston
charlie
charlize
charlotte
charming
chart
charter
chartered
charts
chase
chaste
chat
che
cheat
check
checkmate
cheddah
chef
cheick
cheikh
chekhov
chelsea
chem
chembox
chemical
chemie
chemist
chemistry
chen
cheney
chengdu
chester
chet
chi
chibok
chic
chicago
chicken
chico
chidinma
chidumga
chief
chiefs
chieftaincy
chigul
chika
chike
chikwakwa
child
childhood
children
chile
chilean
chima
chimamanda
chin
china
chinda
chinedu
chinese
ching
chinua
chinwo
chinyere
chioma
chip
chipewyan
chisholm
chiwetalu
chizzy
cho
chocolate
choice
choices
choir
chongqing
choose
chose
chosen
chou
chris
christ
christian
christiane
christianity
christians
christie
christina
christine
christmas
christoph
christophe
christopher
chronic
chronicle
chronicles
chronology
chu
chuck
chuks
chukwu
chukwudi
chukwujekwu
chukwuka
chukwuma
chukwura
chuma
church
churches
churchill
ci
cia
cid
cidade
cindy
cine
cinema
cinemas
cinnamomi
cio
circ
circle
circuit
circulation
cirrhosis
citation
citations
cite
cited
cities
citizen
citizens
citizenship
city
citypeopleonline
citypopulation
civic
civil
civilization
cj
cjn
ck
cl
claim
claimed
claims
claire
clara
clarendon
clarion
clark
clarke
clash
class
classes
classic
classical
classics
classification
classified
claude
clay
clayton
cle
clean
clear
clearly
clem
clement
cleopatra
clerk
cleveland
click
clifford
climate
clin
clinic
clinical
clinics
clinton
clio
clip
clock
clocks
cloke
cloris
close
closed
closely
closer
closes
closing
closure
cloth
clothes
clothing
cloud
club
clubs
cluster
cm
cms
cn
cnbc
cnn
co
coach
coal
coalition
coast
coastal
coat
coauthors
coca
cochrane
cockerell
cockerelliella
cocoa
coconut
code
codec
codes
coding
coffee
coffie
cohen
cohic
cohicaleyrodes
coin
coker
col
cola
cold
cole
coleman
colin
collaboration
collaborative
collapse
collapsed
collection
collections
collective
college
collins
cologne
colombia
colombian
colonel
colonia
colonial
colonization
colony
color
colorado
colour
coloured
colourful
columbia
columbus
column
columnist
com
combat
combined
come
comeback
comedian
comedians
comedienne
comedy
comes
comfort
comic
comics
coming
command
commander
comment
comments
commerce
commercial
commission
commissioner
commissions
commitment
committed
committee
common
commonly
commons
commonwealth
commune
communication
communications
communion
communist
communities
community
como
comoros
compact
companies
companion
company
comparative
compare
comparison
compass
compete
competed
competition
complete
completed
completely
complex
complexes
complicated
component
components
composed
composer
composition
compound
compounds
comprehensive
comptroller
compulsory
computational
computer
comte
con
conakry
concepcio
concept
concepts
concern
concerned
concerning
concerns
concert
concise
concord
conde
condei
condition
conditions
conduct
confederation
conference
confidential
confirm
confirme
confirmed
confirms
conflict
conflicts
confusion
congo
congress
connacht
connect
connected
connecticut
connection
connelly
conquest
conrad
conscience
consciousness
consejeri
consensus
consequence
consequences
conservation
conservatory
consider
considered
consists
consortium
constant
constantine
constantinople
constata
constituency
constituent
constitution
constitutional
constructed
construction
consulting
contact
contain
containing
contains
contemporary
content
contents
contest
context
contexts
continent
continental
continents
continue
continued
continues
contraception
contract
contrast
contribution
contributions
contributor
control
controlled
controversial
controversy
convent
convention
conversation
conversations
conversion
convert
cook
cooking
cool
cooli
coolidge
cooper
cooperation
coordinates
coordinating
cop
copeland
coplen
copper
copy
corbett
corbettia
core
corn
cornelius
cornell
corona
coronation
coronavirus
corporate
corporation
corps
correct
correspondent
corresponding
corruption
cosafa
cosmetics
cosmopolitan
cossy
cost
costa
costs
cote
cotonou
cougars
could
couldn
coulibaly
council
counsel
count
counter
counties
counting
countries
country
counts
county
coup
coupe
couple
courier
course
courses
court
courtney
courts
cousin
cov
cova
covenant
cover
coverage
covered
covers
covid
cow
cox
cp
cpc
cr
crack
cradle
craig
crash
crashes
crawford
crazy
crc
create
created
creating
creation
creative
creator
credit
credits
cree
creek
crenidorsum
creole
crew
cricketer
cries
crime
crimes
criminal
crisis
criteria
critic
critical
criticism
critics
croatia
croatian
croix
cross
croup
crow
crown
crowned
crowther
crucifixion
cruise
crunching
crush
cruz
cry
crypto
cryptocurrency
crystal
cs
css
cssc
ct
ctor
cu
cuba
cuisine
cult
cultural
culture
culturebene
cultures
cundall
cunha
cup
cuppy
curac
curated
cure
curfew
curie
currency
current
currently
curriculum
curtis
curve
cusco
cushitic
custom
customs
cut
cuzco
cv
cx
cy
cycle
cynthia
cyprian
cypriot
cyprus
cyril
cyrillic
cz
czech
czechoslovakia
d
da
daa
daada
daadaa
daba
dabaa
dabi
dabiri
dabo
dad
dada
daddy
dagba
dagbasoke
dagestan
dahiru
dahlberg
dahomey
dahun
daily
dailyindependentnig
dailymail
dailymedia
dailypost
dailytimes
dailytrust
daimler
dairo
daisy
daji
daju
dakar
dakolo
dakore
dakota
dala
dale
dali
dall
dallas
daly
dam
damage
damasus
damaturu
dame
damerel
dames
dami
damijo
damilare
damilola
damola
dan
dana
dance
dancer
dancing
dandan
dangel
danger
dangerous
dangote
dani
daniel
daniella
danielle
daniels
danish
danja
danjuma
danny
dans
danu
danzig
dapo
dar
dara
daradara
daramola
darandaran
darapo
dare
dari
dark
darkness
darleane
darling
darren
dart
daru
daruko
darul
darwin
das
dasile
dat
data
database
date
dated
dateformat
dates
dating
dauda
daughter
daughters
daura
dave
davenport
david
davido
davidson
davies
davis
dawn
dawo
dawodu
day
dayo
days
dazed
dazzling
db
dc
dd
de
dead
deadline
deadly
deaf
deal
deals
dean
dear
death
deaths
debate
debbie
debo
deborah
debt
debut
debuts
dec
decade
decades
decay
december
deception
decided
decision
declaration
declared
declares
decline
dede
dedicated
dee
deede
deen
deep
deeper
default
defeat
defeated
defeats
defence
defender
defending
defense
deficiency
define
defined
definition
definitions
defunct
degree
degrees
dehlavi
dehlawi
dehydrogenase
deity
dek
del
delano
delaware
delay
dele
delegation
delhi
delicacy
delicious
delight
deliver
delivered
delivers
delivery
della
delta
dem
demand
demandi
demandovorto
demands
dementia
demise
demo
democracy
democrat
democratic
democrats
demographic
demographics
demography
demons
demonstration
den
dena
dench
denial
denied
denies
denis
denise
denmark
dennis
denrele
density
denver
deo
deoband
deobandi
deolinda
department
departments
dependence
deposed
depth
deputy
der
derek
derived
dernier
des
desai
descartes
descendants
descent
describe
described
describes
description
desert
design
designated
designed
designer
designers
designs
desire
desk
desmond
desperate
despite
destination
destiny
destroy
destroyed
detail
detailed
details
detained
determine
determined
detroit
deutsche
deux
developed
developer
developing
development
developments
device
devil
dew
dey
deyemi
df
dg
di
dia
diagnosis
dialect
dialects
dialeurodes
dialeurodicus
dialeurolonga
dialeuropora
dialogue
diamita
diamond
diamonds
diana
diane
dianne
diary
diaspora
diawara
dibo
diboyan
dice
dick
dickson
dictator
dictionaries
dictionary
did
dida
didara
didarajulo
didasile
dide
didi
didiboyan
didn
didnt
didun
die
died
diedie
diego
dienne
dies
diet
differ
difference
differences
different
difficult
digest
diggers
digital
digits
digun
dije
dike
dikeh
dile
dima
dimanche
dime
dimeji
dimka
din
dina
dinar
dinku
dinner
dino
dio
diocese
dioxide
dip
dipe
diploma
diplomacy
diplomat
diplomati
diplomatic
dipo
dipu
dir
dirac
dire
direct
directed
direction
directions
directly
director
directorate
directors
directory
dirie
dirty
dis
disabilities
disability
disambiguation
disaster
disc
discipline
disco
discography
discogs
discount
discover
discovered
discovery
discrimination
discuss
discussion
disease
diseases
dish
dishes
disney
disorder
dispatch
dispatches
display
displaystyle
dispute
disputed
disrespect
distance
distances
distancing
distant
distinct
distinction
distinguished
distribution
district
districts
disu
diti
dition
diva
diverse
diversity
divided
divination
divine
division
divorce
diwo
dixon
diya
dj
djazairess
djenne
djibouti
djokovic
dk
dl
dm
dna
do
doc
docs
doctor
doctorate
doctors
document
documentary
documentation
documents
dodo
does
doesn
dog
dogba
dogon
dogrib
dogun
doha
doherty
doi
doing
doju
dojuko
dokita
dokubo
dola
dolapo
doll
dollar
dollars
dolly
dolo
dolphin
dolu
dom
domain
domestic
dominant
dominate
domingo
dominic
dominican
dominiki
dominion
domo
don
dona
donald
done
donga
doni
donie
donkey
donna
dont
doo
door
doors
dopes
dopin
dora
dorcas
dordrecht
doreen
doria
doris
dorothy
dorra
dos
dose
dosunmu
dot
douala
double
doubleday
doubles
doubt
doug
douglas
douglass
dove
down
download
doyin
doyle
dozier
dp
dq
dr
draft
dragon
drake
drama
dramatic
draogo
draw
drawing
draws
dream
dreams
dress
dresses
drew
drews
drink
drive
driver
driving
dro
drop
dropped
drops
drug
drugs
drum
drummer
dry
ds
dstv
du
dua
dual
dubai
dubey
dublin
dubule
duck
dudu
due
dufuna
dugbe
dukakis
duke
duki
dukia
dull
dumas
dumbleton
dumped
dumps
dun
dunar
duncan
dunn
duo
dupe
duplex
dupo
duration
durban
during
durkheim
duro
durosomo
durotoye
duru
dust
dutch
dutse
duty
duwa
dvd
dw
dwarf
dwight
dworkin
dx
dyana
dye
dying
dyn
dynamic
dynamics
dynasty
dz
də
e
ea
each
eagle
eagles
earl
earlier
earliest
early
earn
earned
earnest
earth
earthquake
ease
easily
east
easter
eastern
easy
eat
eaten
eating
eazi
eb
eba
ebe
ebele
ebenezer
ebere
ebeye
ebi
ebola
ebony
ebonyi
ebonylife
ebosele
ebu
ebube
ebun
ebute
ec
ece
echeruo
echo
eclipse
eclipsed
eco
ecology
ecomium
economic
economics
economist
economy
ecowas
ecuador
ed
eda
eddie
eddy
ede
edeede
edelstein
edem
eden
edewor
edgar
edge
edi
edinburgh
edison
edited
edith
edition
editions
editor
editorial
editors
edmonton
edmund
edo
edochie
edoro
edozien
eds
edu
eduardo
educarriere
education
educational
edun
eduro
edward
edwards
edwin
ee
eegun
eekanna
eerdmans
ees
eeyan
ef
efcc
efe
effect
effective
effectively
effects
efficacy
effort
efforts
efi
efik
efinifirini
efo
efon
efunsetan
efuufu
eg
egan
egba
egbe
egbeda
egbegberun
egberun
egbin
egbo
egbon
egbuson
egg
eggs
egipti
ego
egu
egun
egungun
egypt
egypti
egyptian
eh
ehi
ehoro
ehu
ei
eid
eight
eileen
ein
einstein
eisenhower
either
ej
eja
eje
ejenobor
eji
ejigbo
ejiofor
ejiro
ejo
eju
ek
eka
ekanem
eke
ekeinde
ekeji
eket
eketa
eki
ekine
ekiti
eko
ekpo
eku
ekuador
ekubo
ekun
ekunrere
ekwensi
ekwere
ekwunife
el
elaine
elbs
eldee
elders
ele
eleanor
elebun
elect
elected
election
elections
electoral
electric
electrical
electricity
electron
electronic
electronics
elects
elede
eleeyanmeji
elegbe
elegbogi
elegushi
elekeji
eleko
elektroni
elektronu
element
elementary
elements
elemi
elemosho
elena
elendu
elere
elero
elese
elesin
eleto
elevation
elevations
eleyameya
eleyi
eleyii
eli
elia
elias
elimenti
eliogu
eliot
elite
elizabeth
ella
elle
ellen
elliot
elliott
ellis
ellison
ellong
elmer
elo
elomiran
eloy
else
elsevier
elu
elumelu
em
ema
emade
emancipation
emanuel
embassy
eme
emecheta
emeji
emeka
emem
emerald
emerge
emerged
emergence
emergency
emerges
emerging
emeritus
emezi
emi
emil
emilio
emily
emin
eminem
emir
emirate
emirates
emireti
emission
emma
emmanuel
emmy
emmys
emo
emotional
emperor
emphasis
empire
empires
employment
empowering
empowerment
empress
empty
emu
en
enahoro
encarta
encephalitis
encomium
encounter
encourage
encyclopaedia
encyclopedia
encyclopædia
end
endeavour
ended
ending
endless
endorsement
ends
endsars
enebeli
enemy
energy
enforcement
eng
engage
engaged
engels
engine
engineer
engineering
engineers
england
english
engr
engvarb
eni
enia
enigma
enikan
enikeni
enimeji
eniola
eniti
eniyan
enjoy
enoch
enough
enquirer
enregistre
enrico
enter
entered
enterprise
entertainer
entertainers
entertainment
entire
entirely
entity
entrepreneur
entrepreneurs
entry
enu
enugu
enuwa
environment
environmental
enyinna
enzyme
enzymes
eo
eosentomidae
eosentomon
ep
epe
ephemeris
epic
epidemic
epidemiological
epidemiology
episode
episodes
episteli
epo
epoch
eq
equal
equality
equatorial
equiano
er
era
eradication
eran
eranko
ere
ereidaraya
erekusu
erewa
eri
eric
erica
erics
erik
erin
erinmi
eritrea
erivo
ernest
ernesto
ernst
ero
eroja
erongba
erosion
error
eru
eruku
eruwa
es
esa
esan
esc
escape
ese
eseese
esho
esi
esin
esinislam
esiri
eso
esoro
espan
especially
esperanto
espn
essay
essays
essence
essential
essentialmedicines
est
established
establishment
estadi
estas
estate
estates
estelle
esther
esti
estiano
estifanos
estimate
estimated
estimates
estonia
esu
esun
et
eta
etc
ete
ethel
ethics
ethio
ethiopia
ethiopian
ethnic
ethnicity
ethnologue
eti
etiko
etikun
etim
etiomi
etisalat
eto
etomi
etta
etteh
etymology
eu
euba
eucharia
euge
eugene
eugenia
euler
eun
eurasia
euro
europa
europe
european
europeans
eurosport
eurostat
ev
eva
evaluation
evangelist
evans
eve
evelyn
even
evening
event
events
eventsat
eventually
ever
every
everybody
everyday
everyone
everything
everywhere
evidence
evil
evolution
evolved
ew
ewa
ewadun
ewe
ewedu
eweko
ewi
ewing
ewo
ewon
ewu
ewure
ex
exact
exactly
examination
example
examples
exceed
excel
excellence
excellency
excellent
except
exceptionally
exchange
excited
exciting
exclusive
executive
exercise
exhibition
exhibits
exile
exist
existence
existing
exit
expanded
expansion
expected
expecting
expedition
expensive
experience
experiences
experimental
expert
experts
explain
explained
explains
explanation
explore
explorer
explores
exploring
explosion
export
exposed
exposure
express
expression
expressway
exquisite
extant
extended
extends
extensive
extensively
extent
external
extinct
extinction
extra
extraordinary
extremely
ey
eya
eyakenyi
eyan
eye
eyed
eyes
eyewitness
eyi
eyikeyi
eyin
eyiti
eyo
eyokan
eyun
ez
eze
ezra
ezuruonye
f
fa
faa
faagun
faaji
fab
faber
fabiola
fabulous
fabunmi
fabwoman
face
facebook
faces
facilities
facility
facing
fact
factbook
factfinder
facto
factor
factors
factory
facts
faculty
fadaka
fade
fader
fagi
fagile
fagunwa
fail
failed
faili
failure
faint
fair
fairo
faith
fake
fako
falae
falana
falcons
falkland
fall
fallen
falling
falls
falola
false
falz
fam
fame
familiar
families
family
familysearch
famous
fan
fancy
fani
fanimo
fans
fao
faq
far
fara
faragba
faraha
farahan
farajo
farakanra
faramo
faranse
farao
farapa
fares
fargas
farm
farmer
farmers
farming
faroe
fasanmi
fascinating
fash
fashek
fashion
fashola
fasiti
faso
fast
fastest
fat
fatai
fatal
fate
father
fathers
fathia
fati
fatima
fatou
fatoumata
fatwa
fault
favorite
favour
favourite
fawehinmi
fay
faye
fayehun
fb
fbref
fc
fcgi
fct
fd
fe
fear
feared
fears
feast
feat
feature
featured
features
featuring
feb
february
fed
federal
federalism
federalist
federation
federer
federico
fee
feed
feel
feelings
feels
feet
fela
felicia
felipe
felix
fell
fellow
fellows
fellowship
felt
female
femi
feminine
feminism
feminist
feminists
femme
femmes
fer
feran
ferdinand
fere
ferguson
fermions
ferna
fernando
ferrer
ferry
fese
fespaco
fest
festac
festival
festivals
festus
fever
few
feyinti
ff
fg
fgm
fi
fia
fiance
fiba
fiberesima
fiction
fid
fida
fidelis
fidi
fidio
fie
field
fields
fifa
fife
fifi
fifo
fifth
fifty
fifun
fig
figba
fight
fighter
fighting
figure
figures
figurine
fiha
fihan
fii
fiiapp
fiimu
fiisi
fiji
fikayo
fiku
fila
filani
file
files
filientomon
filip
filipi
filipino
filipinos
fill
fille
filled
film
filmmaker
filmmakers
filmography
filmreference
films
filmu
filo
filter
fin
fina
final
finale
finalists
finally
finals
finance
financial
find
finding
finds
fine
finger
finish
finished
finland
finmu
finnish
finro
fio
fipa
fipo
firans
fire
firm
firs
first
fis
fisayo
fischer
fish
fisher
fisherman
fishfm
fishing
fisi
fisiksi
fisiyiki
fit
fitafita
fiti
fito
fitzgerald
five
fiwe
fix
fixed
fiye
fl
flag
flags
flame
flash
flashscore
flat
flavia
flavour
flee
fleet
flesh
fleurbaey
flight
flights
flood
floor
flora
florence
flores
florida
flour
flow
flower
floyd
flu
fluoride
fly
flying
fm
fn
fo
focus
focused
focuses
fodio
fohu
foji
foju
fojusi
fola
folake
folarin
folasade
folashade
folawiyo
folayan
folk
follow
followed
following
follows
folorunsho
folorunso
folu
foluke
fon
foni
fono
fonseca
food
foods
fool
foonu
foot
football
footballer
footballers
footballkenya
footer
fopin
for
forbes
force
forced
forces
ford
fore
foreign
foreman
foremost
forensic
forest
forever
forget
forgiveness
forgotten
fori
form
formal
formally
format
formation
formed
former
formerly
forming
forms
formula
fort
forta
forte
forth
fortress
fortune
forty
foru
foruko
forum
forward
fossil
fossils
foster
foto
foucault
fought
found
foundation
foundations
founded
founder
founding
fountain
four
fourth
fowler
fowo
fox
fp
fr
fra
frac
fraction
frame
framework
franc
franca
france
frances
francesca
francesco
franchise
francia
francis
francisco
franco
francophone
francophonie
frank
frankfurt
franki
frankie
franklin
fransi
franz
fraser
fraud
frauen
frcn
fre
fred
frederick
free
freedom
freeman
freetown
freeze
french
frequent
frequently
fresh
freshwater
freud
fri
friday
fried
friedrich
friend
friendly
friends
fritz
fro
from
front
frontcover
frontier
frs
fruit
fruits
ft
fu
fuck
fuel
fufu
fuger
fuji
fujimori
fula
fulani
full
fullpage
fully
fun
function
functional
functionalism
functions
fund
fundamental
funding
fundraiser
funds
funeral
funfun
funk
funke
funlola
funmi
funmilayo
funni
funny
funra
funrarare
funsho
fura
furansi
furniture
further
furufu
fusion
futuna
future
fuurufu
fy
g
ga
gaa
gaara
gaari
gaasi
gaba
gabon
gabriel
gabrielle
gaelic
gage
gained
gaius
gaju
gajulo
gal
gala
galaxies
galaxy
gale
galileo
gallery
gama
gambari
gambia
game
games
gamma
gan
gana
gandhi
gang
gangan
gangohi
gangster
gani
ganiyu
gao
garawa
garba
garbin
garci
garcia
garden
gardens
gardner
gari
garki
garri
garrison
garros
gary
gas
gaspo
gassama
gate
gates
gateway
gather
gatherings
gave
gay
gaye
gazette
gazetteer
gb
gba
gbaa
gbadamosi
gbade
gbadun
gbafe
gbagada
gbagba
gbagbe
gbagbo
gbagede
gbagyi
gbaja
gbajabiamila
gbaju
gbajugbaja
gbajumo
gbale
gbalejo
gban
gbangan
gbangba
gbani
gbanini
gbapo
gbara
gbaradi
gbas
gbaye
gbayi
gbe
gbega
gbejade
gbekale
gbemi
gbenga
gbera
gbere
gberingberin
gbero
gberu
gbese
gbeya
gbeyin
gbi
gbigba
gbigbe
gbigbo
gbigbona
gbile
gbimo
gbin
gbiyanju
gbo
gbobgo
gbodo
gbogbo
gbogbogbo
gbogboni
gbogboo
gbogboogbo
gbogun
gbohu
gboko
gbolahan
gbolohun
gbomo
gbon
gbona
gbongan
gbongbo
gboogi
gbooro
gboro
gbowo
gboya
gboye
gboyega
gbs
gbu
gbufo
gbun
gbungbun
gbuuru
gc
gcmg
gdp
ge
gebe
gede
gedegbe
gedeme
gee
geena
geere
geesi
gege
gegebi
gen
gender
gene
genealogy
genera
general
generally
generation
generations
generic
genes
genesis
genetic
genetics
geneva
genevieve
genital
genius
genny
genome
gentleman
gentry
genus
geo
geoffrey
geographic
geographical
geography
geologic
geological
geology
geopolymer
georg
george
georges
georgetown
georgia
georgian
georgina
georgios
geos
ger
gerais
gerald
gerard
gerhard
german
germans
germany
get
gets
getting
gg
gh
gha
ghafla
ghana
ghanaian
ghanaweb
ghetto
ghost
gi
giant
gibbs
gibraltar
gibson
gichuru
gidd
giddens
gideon
gidi
gidigidi
gift
giga
gigajulo
gigatonnes
gigun
gil
gilbert
gile
gill
gilman
ginger
gini
gio
giovanni
girama
giri
giriki
girl
girlfriend
girls
gist
gistmania
gists
giuseppe
give
given
gives
giving
giwa
gladys
glam
glamour
glance
glasgow
glass
glenn
glitz
glo
globacom
global
globalsportsarchive
globe
globo
glock
gloria
glorious
glory
glover
gm
gnu
go
goal
goalkeeper
goals
goalzz
goat
gobir
god
goddard
goddess
godfrey
gods
godwin
goes
gofamint
goge
gogh
gogo
going
goke
gold
goldberg
golden
goldie
goldman
golf
gombe
gomes
gomina
gon
gone
gongola
gonza
good
goodbye
goodluck
goodman
goods
google
goolu
gordon
gori
gospel
gossip
got
gotel
gotta
gouvernement
gov
govern
governance
governing
government
governments
governor
governors
governorship
govt
gowon
gp
gq
gr
gra
grace
gracilentulus
grade
grades
graduate
graduates
graf
graham
grahame
grammar
grammy
gran
grand
granda
grande
grandfather
grandmother
grandson
grange
grant
granted
graphic
graphite
grass
grave
gray
gre
great
greater
greatest
greece
greed
greek
greeks
green
greenberg
greenland
greensboro
greenwood
greg
gregorian
gregory
grenada
grenadines
gretel
grew
grey
gri
griffin
grigory
griiki
griisi
grimes
grin
grind
gro
groove
gross
grossing
ground
group
groups
grove
grow
growing
growth
gs
gst
gu
guadeloupe
guam
guangxi
guangzhou
guarani
guarantco
guaranty
guard
guardian
guatemala
guber
gue
guernsey
guessan
guest
guevara
guez
guiana
guidance
guide
guidelines
guides
guild
guillaume
guillermo
guilty
guine
guinea
guinness
guitarist
gulf
gum
gun
gungun
gunle
gunmen
guns
gunta
gupta
gur
gurnah
guru
gus
gusau
gustaf
gusu
gutenberg
gutie
guusu
guusuilaorun
guusuiwoorun
guy
guyana
guys
gwari
gwich
gy
gyang
h
ha
habermas
habiba
habila
habilis
habitat
had
hadera
hadhrat
hadi
hadioui
hadith
hadiza
hafsat
hag
hah
haidrojin
hail
haile
hails
hair
haiti
haitian
hajiya
hakeem
hale
halep
haley
half
halima
hall
hamburg
hamid
hamilton
hamlet
hammer
hampshire
hampton
hamzat
han
hana
hand
handbook
handle
hands
hang
hangzhou
hanks
hanna
hannah
hans
hansel
hansen
hantavirus
happened
happenings
happens
happiness
happy
haq
haram
harambee
harare
harassment
harbour
harcourt
hard
harden
harding
hardware
hardy
harlem
harmony
harold
harper
harpercollins
harriet
harris
harrison
harry
hart
haruna
harvard
harvest
harvey
harvp
harwood
has
hasan
hassan
hat
hate
hattie
hau
hausa
hausafilms
have
haven
having
hawaii
hawn
hayes
hayworth
hazard
hazel
hb
hbo
hcid
hcv
hdi
hdl
hdr
he
head
headies
headline
headlines
headquarters
heads
healing
health
healthcare
hear
heard
heart
hearts
heat
heaven
heavy
hebrew
heckart
hegel
height
heights
heiko
heinemann
heinrich
heir
held
helen
helena
helium
helix
hell
hellenic
hello
heloisa
helon
help
helped
helps
helsinki
hemingway
hemisphere
hempel
hen
henderson
henri
henrietta
henry
henshaw
hepatitis
her
herald
herbal
herbert
here
heritage
herman
hermann
hero
heroes
herrera
herself
herzegovina
hesperentomon
het
hey
hi
hid
hidden
hide
higgins
higgs
high
higher
highest
highlife
highlights
highly
highway
hilda
hill
hillary
hills
him
himself
hin
hind
hindi
hindu
hindustani
hinna
hinti
hip
his
hispaniola
histo
historia
historian
historians
historic
historical
history
hit
hitler
hits
hiv
hl
hlubi
hm
ho
hockey
hoffman
hold
holden
holder
holding
holdings
holds
hole
holiday
holland
hollandi
hollyoaks
hollywood
hollywoodreporter
holm
holmes
holy
home
homepage
homes
hominid
homo
hon
honduras
honey
hong
honor
honorary
honors
honour
honoured
honours
hons
hood
hop
hope
hopes
hopkins
horizon
horizons
horn
horo
horse
horses
hospital
host
hosted
hosts
hot
hote
hotel
hotels
houghton
hour
hours
house
household
households
houses
housewives
housing
houston
how
howard
however
hr
href
hst
htm
html
http
https
hu
hua
huang
hub
hubble
hubby
hubei
hubert
hudson
huffington
huffingtonpost
huffpost
huge
hugh
hughes
hugo
hui
hull
human
humanitarian
humanities
humanity
humans
humble
humphrey
hun
hundo
hundred
hungari
hungarian
hungary
hunger
hunt
hunter
hurdles
hurwitz
husband
husbands
hussain
hussein
husseini
hussle
huston
hydrogen
hygiene
hypertext
i
ia
iaaf
ian
iata
iau
ib
iba
ibadan
ibadi
ibagbepo
ibaje
ibakatv
ibalopo
ibamu
ibanisoro
ibanuje
ibarae
ibarapa
ibas
ibasepo
ibatan
ibdb
ibe
ibeere
ibeji
ibere
iberu
ibi
ibiam
ibibio
ibikan
ibiki
ibikunle
ibile
ibimo
ibinabo
ibingira
ibise
ibiti
ibm
ibn
ibo
ibode
iboji
iboju
ibom
ibon
ibori
ibrahim
ibro
ibtc
ibu
ibudo
ibugbe
ibujoko
ibukun
ibuso
ic
icao
icar
icarus
icc
ice
iceland
icon
iconic
icons
ics
ict
ictv
id
ida
idaabobo
idaduro
idagba
idagbasoke
idahun
idaji
idajo
idakeji
idale
idamo
idanilaraya
idaniloju
idanimo
idanre
idanwo
idapo
idara
idaraya
idari
idasile
iddo
ide
idea
ideas
idemili
idena
identification
identified
identifies
identify
identities
identity
idhalama
idi
idia
idiagbon
idiat
idibia
idibo
idiboyan
idije
idile
idimu
idinku
idipo
idiwo
idiye
idiyele
ido
idojuko
idoko
idol
idoma
idoti
idowu
idris
idrissi
idu
idumota
idunadura
iduro
iduros
ie
iec
ieee
iese
iet
if
ifa
ifamo
ifarahan
ife
ifeajuna
ifeanyi
ifehonuhan
ifelodun
ifeoma
ifesi
ifi
ifihan
ifilele
ifilo
ifilole
ifirans
ifitonileti
ifiwerans
ifo
ifojusi
ifoloke
ifon
iforuko
ifowo
ifowopamo
ifowopamosi
ifowosi
ifowosowopo
ifun
ig
iga
igala
iganga
igba
igbadie
igbadun
igbagbo
igbagbogbo
igbakeji
igbala
igbalode
igbana
igbaradi
igbasile
igbati
igbe
igbega
igbejade
igbekale
igbele
igberiko
igbese
igbesi
igbesiaye
igbeyawo
igbi
igbimo
igbinedion
igbiyanju
igbo
igbobi
igboho
igbohunsafefe
igbokwe
igbona
igbonasi
igbonla
igbonwo
igboro
igboya
ige
igekurupapo
ighodalo
ighodaro
igi
ignacio
ignored
igo
igor
iguana
igun
igwe
iha
ihamo
iheanacho
iheme
ihezuo
ihinrere
iho
ihuwasi
ii
iii
ija
ijabo
ijagun
ijakadi
ijala
ijamba
ijanikin
ijapa
ijaw
ijaya
ijaye
ije
ijebu
ijeoma
ijero
ijesha
ijewere
iji
ijidide
ijinle
ijinna
ijiroro
ijise
ijiya
ijiyan
ijo
ijoba
ijoko
ijora
ijosin
ijoye
ijteba
iju
ik
ika
ikan
ikaniyan
ikanni
ikare
ikarun
ikawe
ike
ikeagwu
ikechukwu
ikede
ikedieze
ikefa
ikeja
ikeji
iketa
ikhana
ikilo
ikiri
iko
ikojo
ikoko
ikole
ikopa
ikorira
ikorodu
ikosi
ikot
ikotun
ikowe
ikoyi
ikpe
iku
ikun
ikuna
il
ila
ilaje
ilana
ilaoorun
ilaorun
ilara
ile
ileasofin
ilegeesi
ileoba
ileobaluaye
ilera
ileri
ilesa
ilese
ileto
ili
ill
illegal
illinois
illness
illustrated
ilo
ilodi
ilominira
ilorin
ilory
ilosiwaju
ilu
ilupeju
im
imadate
image
images
imagination
imaging
imam
iman
imdb
ime
imf
imi
immediate
immediately
immigrant
immigration
immunization
immunology
imo
imole
imota
imototo
imoye
impact
imperial
implications
importance
important
imposes
impossible
improve
improved
improvement
imu
imudaniloju
imudara
imudojuiwo
imukuro
imulo
imura
imuse
imusin
in
ina
inagi
inaugural
inaugurates
inauguration
inawo
inc
inca
inch
inches
incidence
incident
include
included
includes
including
income
incorporated
increase
increased
increasingly
incredible
indefinitely
independence
independent
index
india
indian
indiana
indianapolis
indiatimes
indicate
indicates
indicators
indicus
indie
indies
indiewire
indigenous
indigo
indikvorto
individual
individuals
indo
indone
indonesia
indonesian
indoor
induced
indus
industrial
industries
industry
ine
inec
inequality
infantry
infection
infections
infectious
inflation
influence
influential
influenza
info
infobox
informal
informatics
information
informationng
infrared
infrastructure
inhabitants
inheritance
ini
inira
initially
initiative
injury
ink
inkblot
inland
inline
inner
innocent
innovation
ino
inorganic
inquiry
ins
insee
inside
insider
insight
insists
inspector
inspiration
inspirational
inspired
inspiring
instagram
instance
instead
institut
institute
institution
institutions
instituto
instrument
instruments
insurance
insurgency
int
intane
integer
integrated
integration
intellectual
intelligence
intended
intense
inter
interaction
interactions
interactive
interchange
intercourse
interest
interesting
interface
interim
interior
internal
international
internationale
internet
interpretation
interview
interviews
intl
into
introduced
introduces
introducing
introduction
inu
inuatomu
inuinnaqtun
inuktitut
inuvialuktun
invalid
invariable
invasion
invented
inventor
investigation
investigative
investment
invited
involved
involves
inyang
io
ioc
iodide
iol
ion
ionesco
ionescuellum
ioni
ionut
ios
iowa
ip
ipa
ipaaro
ipadabo
ipadanu
ipade
ipaja
ipaka
ipalara
ipamo
ipaniyan
iparapo
ipari
iparun
ipase
ipe
ipele
ipese
ipetumodu
ipi
ipile
ipilese
ipin
ipinle
ipinnu
ipinsabe
ipinu
ipinya
ipl
ipo
ipoidojuko
ipolongo
ipolowo
iposi
ipv
ir
ira
irak
iran
iranlo
iranlose
iranlowo
irans
iranse
iranti
irapada
iraq
iraqi
irawo
iraye
ire
ireland
irelandi
irele
irene
irepo
irepodun
iresi
ireti
iri
iribomi
irin
irina
irinajo
irinkankan
irinna
irins
irinse
iriri
iris
irish
irisi
iro
irohin
irojinle
iroko
irokotv
iron
ironsi
ironu
irora
iroyin
irrgeher
iru
irufe
irugbin
irun
irving
is
isa
isaac
isabel
isabella
isaiah
isakoso
isale
isan
isanwo
isare
isbn
ise
iseda
iseero
isegun
isejoba
iseju
isele
iselu
isere
iseyin
ishaya
ishmael
ishola
isi
isiaka
isiala
isidingo
isin
isinku
isinmi
isioma
isiro
isis
isise
isiseonina
isla
islam
islamia
islamic
island
islands
isle
ismail
isn
iso
isodipupo
isoentomon
isokan
isoken
isoko
isola
isolation
isolo
isong
isopo
isoro
isotope
isotopes
isotopic
isotopu
israel
israeli
iss
issn
issue
issues
istanbul
isu
isubu
isujo
isun
isuna
isunmo
isupo
it
ita
itage
itaja
itali
italia
italian
italic
italy
itan
itanna
itara
ite
itelentele
item
itemid
itemo
items
itesiwaju
itf
itftennis
itileyin
ito
itobi
itoju
itokasi
itosi
its
itsekiri
itself
itu
itumo
itunes
itunu
itura
itusile
itv
iu
iucn
iupac
iv
ivan
ive
ivie
ivo
ivoire
ivory
iwa
iwadi
iwadii
iwaju
iwari
iwe
iweala
iwin
iwo
iwode
iwon
iwoorun
iwosan
iwoye
iwulo
iwuri
iwuwa
iwuwo
ix
iy
iya
iyaafin
iyabo
iyale
iyalode
iyamah
iyan
iyana
iyanda
iyanri
iyanya
iyara
iyaso
iyasoto
iyato
iyawo
iye
iyebi
iyen
iyepu
iyi
iyin
iyipada
iyipo
iyke
iyo
iyoku
izuzu
j
ja
jabo
jack
jackie
jackson
jacob
jacobs
jacqueline
jacques
jada
jade
jadesola
jaekel
jagan
jaguda
jagun
jagunjagun
jah
jaime
jaiye
jaja
jaji
jaka
jakande
jake
jakejado
jalade
jale
jalingo
jam
jama
jamaica
jamaican
jamaika
jamani
james
jamia
jamiat
jammu
jan
jana
jane
janeiro
janet
jankovic
january
japan
japanese
jara
jasi
jason
javier
jawe
jay
jaye
jayne
jazeera
jazz
jazzy
jc
je
jean
jeanne
jeff
jefferson
jeffrey
jegede
jehovah
jeillo
jeje
jelena
jemani
jemima
jen
jendoubi
jenifa
jenkins
jenna
jennifer
jenny
jensen
jeografi
jere
jeremiah
jeremy
jero
jerome
jerry
jersey
jerusalem
jerusalemu
jesse
jessica
jesu
jesudasan
jesus
jet
jeun
jeune
jeuneafrique
jew
jewel
jewish
jews
jeyo
ji
jide
jie
jigawa
jija
jije
jiji
jijin
jijo
jill
jim
jimi
jimmy
jimo
jimoh
jin
jina
jinja
jinle
jinna
jiopo
jiria
jiya
jiyan
jm
jn
jncc
jo
joa
joan
joanna
joanne
joaqui
job
joba
jobs
joe
joeboy
joel
joelle
joey
jogu
jogun
johan
johann
johanna
johannes
johannesburg
johanu
john
johnny
johns
johnson
johnston
join
joined
joins
joint
jojo
joju
joke
joko
jollof
jolly
jombo
jon
jonathan
jones
jong
joo
jooju
jopo
jordan
joreen
jorge
jori
jos
jose
josef
joseph
josephine
josh
joshua
joshuaproject
josiah
joslyn
journal
journalism
journalist
journalists
journals
journey
joy
joyce
joye
jp
jpg
jpl
jr
jrc
jstor
ju
juan
jubril
jude
judge
judges
judicial
judith
judy
juice
juin
juju
jul
jules
julia
julian
juliana
julie
juliet
julio
julius
julo
july
jumoke
jump
jun
junction
june
jung
jungle
junior
junta
jupiter
jura
jurassic
juris
just
justice
justin
justo
juwe
jwst
k
ka
kaa
kaadi
kaakiri
kaarun
kaba
kabaka
kabila
kabiyesi
kada
kadaria
kadi
kadiri
kaduna
kady
kaffy
kafidipe
kagga
kai
kainji
kaj
kajala
kajola
kakanfo
kakiri
kakiriaye
kala
kalakuta
kalam
kale
kalejaiye
kalema
kalenda
kalifo
kalifu
kalu
kam
kamaru
kambodia
kame
kameroon
kampala
kan
kana
kanada
kanayo
kandi
kandinlogun
kane
kanem
kanga
kangun
kani
kanju
kanka
kankan
kankanc
kankane
kankanla
kankanlelogun
kankon
kanla
kanle
kanna
kannywood
kano
kanra
kans
kansas
kansi
kansiime
kansoso
kant
kanu
kanuri
kanye
kanyomozi
kao
kara
karaan
karabakh
karachi
karahun
karbonu
kareem
karemera
karen
kari
kariaye
karibeani
karim
karin
karl
karu
karua
karun
karundinlogbon
karundinlogun
kas
kashmir
kasi
kasino
kasu
kate
katherine
kathleen
kathryn
katoliki
katsina
katung
kaura
kawe
kay
kaye
kayembe
kaylah
kayode
kazakh
kazakhs
kazakhstan
kazeem
kb
kbe
kc
kcee
ke
kebbi
kede
kedere
kee
keep
keeping
keeps
kefa
kefee
keffi
kehinde
keira
keith
keje
keji
kejidinlo
kejidinlogbon
kejidinlogun
kejila
kejilelogun
kejo
keke
kekeke
kekere
keko
kelani
kele
kelechi
kelly
kemi
kemika
kemikali
kemistri
ken
kena
kennedy
kenneth
kennis
kenny
kent
kentucky
kenya
kenyan
kenyentulus
kenza
kept
kerala
kere
kerejulo
keri
kerin
kerindinlogbon
kerindinlogun
kerinla
kerinlelogun
kerry
kesan
kesh
keta
ketadinlogbon
ketadinlogun
ketala
ketalelogun
kete
ketekete
ketu
kevin
kewa
kewaa
key
keyamo
keyin
keys
kg
kgoroge
kh
kha
khabonina
khaganate
khalid
khalil
khama
khan
khanate
khanyi
khmer
khoisan
khz
ki
kiakia
kick
kicks
kid
kiddin
kidjo
kidnapped
kids
kiel
kifayatullah
kihoro
kii
kija
kika
kikan
kiki
kiko
kikun
kilanko
kilasi
kill
killed
killer
killing
kills
kilo
kilometers
kilometres
kilomita
kim
kimberly
kin
kind
king
kingdom
kingdoms
kings
kingsley
kingston
kingsway
kini
kinni
kino
kinshasa
kinzimba
kio
kipyegon
kirchner
kire
kiri
kiribati
kiriji
kiss
kit
kitchen
kitiyan
kitts
kizz
kj
klaus
kle
klein
km
kn
knew
knife
knight
knot
know
knowledge
known
knows
knox
ko
koch
kofar
kofi
kofid
kofo
kofoworola
kogi
koheirwe
koja
kojo
koju
koka
kokandinlogbon
kokandinlogun
kokanla
kokanlelogun
koko
kokoro
kola
kole
kollington
kollontai
kolombia
kolu
komi
komisona
komolafe
komprenas
komputa
komputilo
komunisti
konbini
kong
kongo
kongresi
koni
konrad
konstantinos
koo
koodu
kookan
kopa
kora
kordofanian
korea
korean
korede
kori
koriko
korin
korira
koro
korona
kose
kosi
koso
kosofe
kosoko
kosovo
kosta
koto
koumadje
koutouan
kova
kowe
kowo
koya
kr
kra
kri
kriste
kristeni
kristi
kristiani
kristie
kro
kroati
kroatia
kru
ksi
ksmc
ktro
ku
kuba
kudirat
kudu
kuku
kukuru
kule
kulo
kulture
kumar
kumasi
kumuyi
kun
kuna
kunbo
kunfa
kunkun
kunle
kunming
kunqu
kunrin
kurdish
kuro
kurt
kuru
kuta
kuti
kutukutu
kuwait
kuwana
kvitova
kw
kwa
kwali
kwara
kwazulu
ky
kyari
kyle
kyrgyz
kyrgyzstan
kz
kə
l
la
laaarin
laaka
laan
laarin
laaye
lab
laba
labe
label
labisi
labor
laboratory
labour
labrador
labu
lack
lade
ladi
ladies
ladipo
lado
ladoke
lady
lafayette
lafia
lafiwe
lagba
lagbaja
lagbara
lagbaye
lagelu
lagoon
lagos
lagosians
lagosstate
lai
laid
laide
lailai
laini
laipe
laisi
laja
laju
laka
lakay
lake
lakoko
lala
lalla
lam
lamb
lambda
laments
lami
lamidi
lamido
lamu
lana
lance
lancet
land
landi
lands
landscape
lane
lang
langba
language
languages
laniyan
lanka
lanre
lanthanides
lao
laos
laoye
lap
lapa
lapapo
lar
lara
large
largely
larger
largest
lari
larin
laro
larry
larson
larubawa
las
lasan
lasg
lasiko
lasisi
lasode
laspotech
last
lasted
lasu
lasuth
lat
latari
late
lateef
later
latest
latestnigeriannews
lati
latigba
latimes
latin
latini
latinu
latodo
latowo
latter
latvia
lau
laugh
laughs
launch
launched
launches
laura
laureate
laureates
laurence
laurent
lausanne
law
lawal
lawan
lawmakers
lawn
lawo
lawrence
laws
lawson
lawujo
lawyer
lawyers
lay
laya
laycon
laye
layer
lazarus
lb
lc
lcda
ld
le
leachman
lead
leader
leaders
leadership
leading
leads
leaf
league
leakey
learn
learned
learning
least
leather
leave
leaves
leaving
leba
lebanese
lebanon
lebanoni
lecture
lecturer
lectures
led
lede
ledger
lee
leeds
left
leg
legacy
legal
legba
legbe
legbegberun
legend
legendary
legends
legislative
legislature
legit
lehin
lehinna
lei
leicester
leiden
leila
lejo
lekan
lekki
lele
lelu
lemo
lemonde
lemy
lena
length
lenu
leo
leon
leonard
leone
leopold
lepa
leprosy
leptospirosis
lera
lere
lero
les
lesbian
lesley
leslie
lesotho
less
lesser
lesson
lessons
let
leta
letekidan
leti
leto
letter
letters
level
levels
levenberg
leventis
levi
levine
levy
lewaju
lewis
lewu
lex
lexicon
leyi
leyin
lez
lga
lgas
lgbt
lgbtq
lge
li
liang
lib
liberal
liberalism
liberation
liberia
liberian
liberty
libraries
library
libre
libro
libya
liddell
lie
liechtenstein
lied
lies
lieutenant
life
lifestyle
lifetime
lifi
lifisio
lifo
lift
lifted
light
lights
ligue
liigi
like
likely
lil
lile
lilian
lilo
lilu
lily
lim
lima
limit
limited
limpopo
lin
lina
lincoln
linda
linden
lindsay
line
linear
lines
ling
lingua
linguistic
linguistics
link
linked
links
linnaeus
linux
lio
lion
lipaleyrodes
liquid
liquor
lisa
list
listed
listen
listing
lists
lit
literary
literature
literatures
lithium
lithuania
lithuanian
litireso
little
littlefield
liu
live
lived
liver
liverpool
lives
living
lix
liz
lizards
lizzy
lji
lk
ll
lla
llb
llc
lle
ller
lloyd
lmu
lo
load
lobi
lobinrin
loc
local
localities
located
location
lock
lockdown
locke
locks
lode
lodi
lodo
lododun
lodoodun
lodun
log
logan
logbon
logistics
logo
logun
lojiji
lojo
lojoojumo
loju
loke
loko
lokoja
lola
lole
lolo
lomo
lona
london
lonely
long
longe
longer
longest
longman
loni
lonibise
loo
look
looked
looking
looks
loop
loorekoore
loose
looya
lopez
lopo
lopolopo
lord
lords
lori
lorile
lorin
lorisirisi
loro
lorraine
loruko
los
lose
loser
loses
losi
losing
loss
lost
lot
lota
lou
loud
louie
louis
louise
louisiana
louisville
louvre
love
loved
lovely
lover
lovers
loving
low
lowa
lowe
lower
lowo
lowolowo
loye
loyun
lozano
lp
lpg
lr
ls
lse
lt
lta
ltd
lu
luanda
luc
lucas
lucia
lucie
lucius
luck
lucknow
lucky
lucy
ludwig
lugard
lugi
lui
luigi
luis
luiz
luja
luka
luke
luko
luku
lula
lule
lunch
lungu
luo
luther
lutz
luu
lux
luxembourg
luxury
lv
ly
lycett
lydia
lynch
lyndon
lynn
lyon
lyrics
lɑ
m
ma
maa
maameyaa
mabel
mac
macau
macaulay
maccido
macdonald
macedonia
macedonian
machine
macjoe
mackenzie
mackinnon
macmillan
macron
mad
madaga
madagascar
madam
madame
madani
made
madeira
madison
madness
madonna
madrasa
madrid
madu
maduka
mae
maersk
mag
magaajyia
magasi
magazine
magazines
magdalena
maggi
maghreb
magic
magnetic
maharashtra
mahdi
mahmood
mahmud
mai
maid
maiden
maiduguri
mail
maili
main
mainframe
mainland
mainly
mainstream
maint
maintain
maintained
mais
maize
maja
majdouline
maje
majeed
majek
majemu
majestic
majesty
majid
major
majority
makanjuola
make
maker
makers
makes
makeup
makida
makinde
making
makinwa
makun
makurdi
mal
mala
malagasy
malaika
malam
malaria
malawi
malay
malaysia
malcolm
male
maleeva
mali
malik
maliki
mall
mallam
malo
malone
malta
mama
mamet
mamluk
mamluks
man
mana
management
manager
managers
managing
manaka
manchester
mandarin
mande
mandela
mandy
manfred
mang
mango
manhattan
manifesto
mann
manning
manon
manpower
mansion
mantra
manual
manuel
many
manyika
map
maps
maputo
mar
mara
maraji
marathon
marc
marcel
march
marco
marcos
marcus
mare
margaret
mari
maria
mariah
mariam
mariama
marian
mariana
mariano
marie
marilyn
marina
marine
marino
mario
marion
maritime
marjorie
mark
markaz
marked
market
marketing
markets
marks
marksisti
marku
markup
marlene
marley
maroc
marokane
maroko
marquis
marriage
married
marry
marrying
mars
marseille
marshal
marshall
martha
marti
martin
martina
martins
maru
marun
marundinlogbon
marundinlogoji
marundinlogun
marvel
marvin
marwa
marx
mary
maryam
maryland
mas
mase
masha
masi
mask
maskell
masks
mason
mass
massachusetts
massaquoi
masses
massilieurodes
massive
massoud
master
masters
match
matches
mate
material
materials
maternity
mathematical
mathematician
mathematics
mathematiki
mathew
mathimatiki
matilda
mato
matooke
matrix
matt
matter
matters
matteu
matthew
mau
maulana
maureen
maurice
mauritania
mauritius
mavin
mavins
mavis
mawjoudin
mawla
mawlid
mawuli
max
maxine
maxwell
may
maya
mayen
mayer
mayo
mayor
mayorkun
mayotte
mayowa
mazhar
mb
mba
mbaise
mbano
mbau
mbe
mbedu
mbgn
mbi
mbo
mboya
mbra
mbu
mc
mccain
mccambridge
mccartney
mcdaniel
mcdermott
mcdonald
mcfarland
mcgraw
md
mdy
me
mean
meaning
means
measure
measurements
measures
meat
mecca
mechanic
mechanical
mechanics
mechanism
med
medal
medals
media
median
medical
medicinal
medicine
medieval
medina
medium
mee
meedogun
meet
meeting
meets
mefa
mega
meganathan
meija
meje
mejeeji
mejeji
meji
mejidinlogbon
mejidinlogoji
mejidinlogun
mejila
mejilelogbon
mejilelogun
mejo
meksiko
melanie
melaye
melbourne
melissa
melo
melting
melvin
memba
member
members
membership
memoir
memoirs
memorial
memories
memory
men
mende
mensah
mental
mentor
menu
mer
mercedes
merchant
mercury
mercy
mere
meredith
meri
merin
merindinlogbon
merindinlogun
merinla
merinlelogbon
merinlelogoji
merinlelogun
merit
merriam
merry
meryem
mesa
mesan
meshida
mesi
message
messenger
met
meta
metabolism
metadinlaadota
metadinlogbon
metadinlogoji
metadinlogun
metal
metala
metalelogbon
metalelogun
metaleurodicus
metali
metals
meter
meters
methane
method
methodist
methods
metres
metro
metropolitan
metta
meurer
mewa
mewaa
mexican
mexico
meyer
mez
mf
mfa
mfonobong
mfr
mg
mgbo
mh
mhz
mi
mia
miami
mic
micael
michael
micheal
michel
michele
michelle
michigan
microbiology
microlophus
microsoft
mid
middle
mide
midfielder
midlands
mie
mifflin
might
mighty
migrants
migration
miguel
mii
miiran
miji
mike
mikhail
mil
mila
milan
milano
mile
miles
milio
milionu
military
milk
milka
mill
millard
miller
millia
million
millionaire
millions
mills
milo
milton
milwaukee
mimi
mimiko
mimo
mimu
min
mina
minaj
minas
mind
mindat
minds
mine
minerals
ming
mini
minin
mining
minisita
minister
ministerial
ministers
ministre
ministries
ministry
minna
minneapolis
minnesota
minor
minorities
minority
minsk
minu
minute
minutes
mionga
mir
mira
miracle
mirage
miran
miranda
mire
miriam
mirror
mis
misau
misi
miss
missed
missing
mission
missionary
missions
mississippi
missouri
mistake
mit
mita
mitchell
mix
mixed
mj
mk
mko
ml
mln
mm
mmabatho
mmeka
mn
mnangagwa
mnet
mo
mobile
mobolaji
moda
mode
model
modeling
models
modern
modernghana
modernhumanorigins
modernity
modi
modibbo
modu
module
modupe
moe
moenen
moet
mofe
mogaji
mogul
mohamed
mohammad
mohammed
mohr
moi
moin
moji
mojisola
mojuto
moka
mokandinlogbon
mokandinlogoji
mokandinlogun
mokanla
mokanlelogbon
mokanlelogoji
mokanlelogun
moko
mol
moldova
moldovan
mole
molecular
molecules
mom
moment
moments
momoh
mon
monaco
monalisa
monarch
monarchy
monday
monde
monetary
money
mongol
mongolia
mongolian
monica
monique
monitor
monle
mono
monroe
monrovia
mons
montana
monte
montefiore
montenegrin
montenegro
montgomery
month
monthly
months
montreal
montserrat
montsho
monu
monument
moon
moonstruck
moore
mora
moradabad
morake
moral
mordi
more
moremi
moreno
morgan
morn
morning
moro
moroccan
morocco
moroko
morphology
morris
morrison
morss
mortality
mos
mosa
mosaku
mosalasi
moscow
mose
moses
moshood
mosque
mossalassi
mossi
most
mostly
mosun
mother
motherhood
mothers
motion
moto
motor
motown
motto
mound
mount
mountain
mountains
mourns
moussa
mouth
mouziane
move
moved
movement
movements
moves
movie
movies
moving
mowo
moye
moyo
mozambique
mp
mpeg
mpi
mpondo
mpu
mputa
mq
mr
mrs
ms
msc
mshale
msn
msnbc
msw
mt
mtime
mtn
mtshali
mtv
mu
mubarak
mubi
much
mud
mudashiru
mudasiru
mueller
mufti
mugabe
mugatsia
mughal
muguruza
muh
muhammad
muhammadu
muhammed
mukhtar
mule
mulikat
mulo
multi
multichoice
multimedia
multiple
mum
muma
mummy
muna
munachi
munadoko
mundo
munich
municipal
municipalities
municipality
munro
munyiva
mura
muraina
murder
murphy
murray
murtala
mus
musa
muscle
muse
museum
museums
museveni
mushin
music
musical
musician
musicians
musik
musiliu
musique
musk
muslim
muslims
muson
must
mustafa
mustapha
musulumi
mutharika
mutilation
mutual
muvhango
muyiwa
mv
mvp
mw
mwanza
mx
my
mya
myanmar
mybiohub
mycobacterium
myers
mynewswatchtimesng
myself
mystery
myth
myths
mz
mə
n
na
naa
naacp
nabi
nabwiso
nacional
nactal
nadal
nadia
nadine
nadwatul
nadwi
naeto
nafca
nafdac
nagije
nagorno
nai
naigiria
naij
naija
naijagists
naijaloaded
naijiria
naira
nairametrics
nairobi
nakabira
nakahara
nakamura
naked
nam
name
named
names
nami
namibia
naming
namo
nan
nana
nanautawi
nancy
nandi
nanjing
nantumbwe
naomi
napoleon
naptip
nara
naro
narrative
narrow
nas
nasa
nasarawa
nascar
nash
nashville
nasir
nast
nasty
nat
natal
natalie
nathan
nathaniel
nation
national
nationale
nationalism
nationality
nationalmirroronline
nations
nationwide
native
nato
natur
natural
naturally
nature
naval
navy
nawaz
nawo
naya
nazi
nb
nba
nbc
nbe
nbi
nbo
nc
ncaa
ncbi
ncdc
nchez
ncia
ncipe
ncnc
ncov
nd
nda
ndaba
ndani
ndanitv
ndara
nde
ndebele
nden
ndez
ndhlawi
ndi
ndiaye
ndin
ndo
ndu
nduka
ndun
ne
nea
neal
nealeurodicus
neanderthal
near
nearly
nebraska
nebula
neck
nee
need
needed
needs
negative
negga
neglected
negro
neighbors
neighbours
neil
neill
neither
nejm
nek
nellie
nelson
neni
nenny
neo
neocondeellum
neon
nepal
nepali
neptune
nero
net
netflix
netherlands
neto
netwerk
network
networks
nevada
neveen
never
nevis
new
newark
newcastle
newfoundland
newly
newman
news
newsday
newsid
newsletter
newspaper
newspapers
newswatch
newsweek
newtelegraphonline
newton
newvision
next
nez
nf
nfa
nfaa
nfani
nfe
nff
nfi
nfo
nfu
ng
nga
ngan
ngba
ngbara
ngbe
ngbo
ngbohu
ngbu
nge
ngel
ngi
ngo
ngozi
ngrguardiannews
ngu
ngwa
nh
nha
nhra
ni
nia
niava
nibe
nibi
nibiti
nibo
nic
nicaragua
nice
nicholas
nichols
nick
nickelodeon
nickson
nico
nicola
nicolas
nicole
nid
nida
nido
nife
nig
nigba
nigbagbogbo
nigbakan
nigbamii
nigbana
nigbati
nigbe
nigel
niger
nigeria
nigeriafilms
nigeriagalleria
nigerian
nigerians
nigerias
nigga
niggas
night
nightingale
nights
nih
nii
niis
nijo
nikan
nike
nikki
nila
nile
nilo
nilotic
nils
nilu
nimo
nin
nina
ninalowo
nine
nineteenth
ning
nini
niniola
ninla
nintendo
ninth
ninu
nio
nip
nipa
nipah
nipase
nipe
nipinle
nipo
nipost
nipponentomon
nipsey
nique
nira
nireti
niro
nis
nisha
nisi
niso
nit
nita
niti
nito
nitori
nitorie
nitorina
nitorinaa
nitoripe
nitosi
nitrogen
niu
niwa
niwaju
niwo
niwon
nixon
niya
niyanju
niye
niyi
niyola
nizami
nj
nja
njagun
njamah
nje
njemanze
nji
njideka
njiya
njo
njoku
nju
njubigbo
nka
nkake
nkan
nkanju
nkankan
nke
nkechi
nkem
nki
nkiri
nkiru
nko
nkosi
nkoyo
nku
nkwobi
nkwocha
nl
nla
nlade
nle
nlewedim
nlist
nlm
nlo
nlola
nlu
nm
nma
nme
nmi
nmo
nmu
nmva
nn
nna
nnaji
nnamdi
nne
nneji
nneka
nnenna
nnewi
nni
nnkan
nnpc
nnu
nnyanzi
no
nobel
nobelprize
noble
nobody
nobs
node
noe
noel
noi
noir
noise
nok
nollywood
noma
nomba
nombona
nombre
nominals
nominated
nomination
nominations
nominee
nominees
nomzamo
non
none
nonsense
nonso
nor
nora
nordic
norfolk
normal
norman
north
northeastern
northern
northwest
northwestern
nortmann
norton
norway
norwegian
nos
nosa
nose
nosek
not
notable
note
noted
notes
nothing
notice
notjustok
notre
nottingham
nouah
noufissa
noun
nouveau
nouveaux
nouvelle
nov
nova
novel
novelist
november
novo
now
np
npa
npe
npetu
npi
npinpin
npn
npo
npp
npr
nputa
nr
nra
nran
nrare
nre
nrere
nri
nrin
nro
nru
ns
nsa
nsaba
nse
nsehe
nsi
nso
nsukka
nt
nta
ntagi
ntan
nte
ntgen
nti
nto
ntu
ntuli
ntv
nu
nuba
nubode
nuc
nuclear
nuclides
nude
nuella
nuenen
nugan
nuhu
nuit
nukleotidi
null
number
numbers
numerous
numo
nun
nupe
nur
nuro
nurse
nursery
nursing
nurudeen
nuso
nut
nutrition
nuwo
nwa
nwachukwu
nwagbo
nwankwo
nwaye
nwi
nwigwe
nwo
nwokoye
nwosu
nwu
ny
nya
nyasa
nydailynews
nye
nyembe
nyi
nyo
nyra
nysc
nytimes
nyu
nz
nzeogwu
nzeribe
nzola
nə
o
oa
oak
oakland
oap
oas
oasis
oath
oau
oba
obafemi
obaluaye
obama
obanikoro
obasa
obasanjo
obatala
obe
obesere
obey
obi
obinna
obinrin
obirin
obit
obituaries
obituary
object
objects
oblast
obo
oboh
oboli
obote
obruthe
observation
observations
observatory
observe
observed
observer
obstetrics
obtained
obudu
oc
occasion
occupation
occupied
occur
occurs
ocean
oclc
oct
october
od
oda
odara
odaran
odd
ode
odebiyi
odega
odeoni
odetola
odi
odidi
odili
odinga
odo
ododo
odofin
odoodun
odu
oduah
oduduwa
odugbemi
odukoya
odule
odumegwu
odun
odunayo
odunjo
odunlade
odunsi
oduntan
odusanya
oduwa
oe
oecd
of
ofa
ofada
ofe
off
offa
offenders
offer
offered
office
officer
officers
offices
official
officially
officials
ofi
ofin
ofo
ofr
often
ofurufu
og
oga
ogagun
ogala
ogba
ogbe
ogbemudia
ogbeni
ogbin
ogbo
ogbodo
ogbomosho
ogbomoso
ogbon
ogbonna
ogbono
ogbontarigi
ogd
oge
ogedegbe
oghara
ogidan
ogidi
ogiemwonyi
ogo
ogogo
ogoji
ogorun
ogota
ogu
ogudu
ogulu
ogun
ogundipe
ogungbe
ogunlesi
ogunlo
ogunlogo
ogunmola
ogunnaike
ogunsanya
ogunseye
ogunsiji
ogunsola
oguntade
ogunyemi
ogwumike
oh
oha
ohameze
ohio
ohu
ohun
ohunko
ohunkohun
ohunnkan
oi
oil
ois
oja
oje
oji
ojigho
ojiji
ojise
ojo
ojogbon
ojoibi
ojooju
ojoojumo
ojora
ojota
oju
ojuami
ojude
ojukokoro
ojukwu
ojulowo
ojuojo
ojuomi
ojuorun
ojurere
ojuse
ojutu
ok
oka
okada
okafor
okan
okanlawon
okara
okaro
okayafrica
oke
okechukwu
okeere
okeho
okeke
okemesi
okene
okeniyi
okeowo
okere
okereke
okey
oki
okiki
okitipupa
oklahoma
oko
okoji
okojie
okokomaiko
okoli
okolie
okolo
okon
okonjo
okonkwo
okoo
okoolenigba
okoowo
okorie
okoro
okosieme
okowo
okoya
okoye
okpa
okrika
oksijin
oksijini
oku
okudu
okujaye
okun
okunfa
okunnu
okunrin
okupe
okuta
ol
ola
olabisi
olabode
oladele
oladipo
oladipupo
olagbegi
olaide
olaiya
olaju
olajumoke
olajuwon
olamide
olaniyi
olanrewaju
olaoluwa
olasunkanmi
olateru
olatunji
olaudah
olav
olawale
olayinka
olayiwola
olayode
old
older
oldest
oldnaija
ole
oli
olimpiadi
olimpiiki
olimpiki
oliver
olivia
olivier
olo
olodi
olofin
olofintuade
ologba
ologbele
ologun
olohun
olojo
olokiki
olokun
ololufe
olomi
olominira
olona
oloni
olonisakin
oloogbe
olootu
olopa
olopaa
olopobobo
olora
olori
olorin
oloro
olorun
olorunyomi
olos
oloselu
olowe
olowo
olowofoyeku
olowolagba
oloye
olsen
olu
olubadan
olubi
olubori
oluchi
oluda
oludajo
oludamo
oludamoran
oludari
oludasile
oludije
oludokoowo
olufemi
olufunke
olufunmilayo
olugba
olugbe
olugbo
oluilu
oluji
olujidide
olujimi
oluko
olukoni
olukopa
olukowe
olumide
olumo
olumulo
olunloyo
oluopo
olupese
olupile
olupolowo
oluranlo
oluranlowo
oluremi
oluronbi
olus
olusegun
oluso
olusoagutan
olusola
olutaja
olutayo
olute
oluto
oluwa
oluwadi
oluwaseun
oluwashina
oluwatoyin
oluwe
oluwo
oluwole
oluyaworan
oluyole
olx
olympia
olympic
olympics
olympiki
om
oma
omalu
oman
omar
omawumi
omele
omi
omidan
ominira
omiokun
omiran
omo
omoba
omobi
omobinrin
omobirin
omobola
omoboriowo
omode
omoku
omokunrin
omolara
omolola
omololu
omoni
omoniyan
omoniyi
omorodion
omose
omotayo
omotola
omotoso
omotunde
omowe
omowunmi
omoyemi
omu
on
ona
onabanjo
onanuga
onayemi
once
ondo
one
onepage
ones
oni
onibaje
onibara
onibise
onibugbe
onidajo
onide
oniga
onigbagbo
onigbo
oniipin
onija
onijo
onikan
onikoyi
onile
onilu
onimo
onimookomooka
onimosayensi
onina
onipo
oniroyin
oniru
oniruuru
onis
onise
onisegun
onisowo
onitanna
onitsha
oniwe
oniwosan
oniwun
onjc
onje
onka
onko
onkowe
online
onlinenigeria
only
ono
onobello
ont
ontario
onto
ontv
onu
onuoha
onuzo
onwenu
onyango
onye
onyeakagbu
onyechere
onyefulu
onyeka
onyenokwe
oo
oogu
oogun
ooja
oojo
oon
ooni
oooo
oore
ooru
oorun
oos
ooto
op
opa
opagun
opara
opc
ope
open
opened
opening
openmopac
opens
opera
operation
operations
operators
opeyemi
opia
opin
opinion
opinions
opo
opobo
opolo
opolopo
opopona
opportunities
opportunity
opposite
opposition
oprah
optical
optics
option
oputa
or
ora
oracle
oral
oramah
orange
orangun
oranmiyan
orbit
orbital
orchamoplatus
orchestra
ordeal
order
orders
ordinary
ore
oredegbe
orelope
oreoluwa
org
organ
organic
organisation
organism
organization
organizational
organizations
organized
ori
oriental
orientation
origin
original
originally
originated
origins
oriki
orile
orilede
orileede
orileominira
orin
oris
orisa
orisha
orisi
orisirisi
orisun
orita
oritage
orji
orjiakor
orlando
orleans
oro
oroiseona
oron
orsl
orthodox
orthography
ortom
oru
oruka
oruko
orun
orundun
os
osa
osagie
osaka
osas
osborne
oscar
oscars
ose
oseania
oselu
oseluarailu
osere
oshimili
oshin
oshinowo
oshodi
oshogbo
osi
osiberu
osifo
osinbajo
osise
osita
oskar
oslo
oso
osofisan
osogbo
osowobi
ossetia
osu
osun
osunde
osupa
ota
otarun
otedola
other
others
otherwise
oti
otito
oto
otooto
ots
otto
ottoman
otu
otukpo
otun
otunba
otutu
ou
ouagadougou
oue
oun
ounje
our
ousmane
out
outbreak
outer
outfit
outlook
outside
outstanding
ov
ova
oval
ovation
ovce
over
overall
overseas
overview
ovia
ovire
ovwasa
ovy
owa
owari
owe
owen
owerri
own
owned
owner
owners
owo
owoh
owonina
oworonshoki
oworu
owu
owun
owuro
oxford
oxidation
oxide
oxygen
oy
oya
oye
oyedepo
oyelami
oyeleke
oyelowo
oyero
oyetola
oyetoro
oyewo
oyi
oyin
oyinbo
oyingbo
oyinlola
oyo
oyu
oyun
ozak
ozokwor
p
pa
paa
paapa
paapaa
pablo
pac
pace
pacific
pack
package
paco
pada
padanu
pade
page
pageant
pages
pagewanted
pagi
pagos
pai
paid
paimo
pain
pains
painted
painter
painting
pairs
pajawiri
paka
paki
pakistan
pakistani
pala
palace
palaeotemps
palau
pale
paleozoic
palestine
palestinian
palgrave
palm
palma
palmer
palsy
pam
pamela
pamo
pan
pana
panafrican
panama
pandemic
panel
pani
panile
panu
paolo
papa
paper
paperback
papers
papo
papua
par
para
parada
parade
paradise
paraguay
paraleyrodes
paralympic
paralympics
paramaribo
parameter
paramount
parapo
pare
parent
parents
pari
paris
parisi
pariwo
park
parker
parks
parliament
parliamentary
paro
parsons
part
partial
particle
particles
particular
particularly
parties
partner
partners
partnership
parton
parts
party
parun
pas
pascal
paschaline
pase
pasha
pashto
pasifiki
pasiparo
pass
passage
passed
passes
passing
passion
passport
past
pastor
pastors
pasuma
pat
pata
pataki
patani
patapata
pate
patent
path
pati
patience
patient
patients
pato
patoranking
patrice
patricia
patrick
patriotic
patro
patron
patronage
patterns
patterson
paul
paula
pauliani
pauline
paulo
paw
pawaniya
pawo
pay
paya
payne
paypal
pays
paystack
paz
pb
pbs
pc
pcr
pdf
pdp
pe
peace
peaceful
peak
pealius
pearl
pearlena
pearson
pediatric
pedro
pee
peere
pegede
peggy
pejo
peju
pejulo
pele
pelebe
peller
pelu
pemba
pemberton
pen
pendergrass
penelope
penguin
peninsula
penis
penn
pennsylvania
penny
people
peoplepill
peoples
pepe
pepper
pepsi
per
percent
perception
percy
pere
peregede
pereira
perfect
perform
performance
performances
performed
performing
perhaps
peri
perimenopause
period
periodic
periods
perkin
perkins
permanent
permian
perry
pershina
persia
persian
person
personal
personality
personnel
persons
perspective
perspectives
persulfate
peru
peruvian
peruzzi
pese
peso
pet
pete
peter
peters
petersburg
petit
petition
petra
petroleum
petu
peye
pez
pf
pg
ph
phanerozoic
pharmaceutical
pharmacy
pharyngitis
phase
phc
phd
phenomena
phil
philadelphia
philanthropist
philip
philippe
philippine
philippines
philips
phillip
phillips
philosopher
philosophical
philosophy
phoenix
phone
phonogram
phosphate
phosphorus
photo
photographer
photography
photos
php
phrase
phyllis
phyno
physical
physician
physicist
physics
physiology
pi
pianist
piano
pichilemu
pick
picks
picture
pictures
pidgin
pie
piece
pieces
pierre
pii
pilatu
pile
pillars
pilot
pin
ping
pink
pinle
pinnu
pinpin
pinterest
pinti
pinu
pinya
pioneer
pipa
pipade
pipe
pipeline
pipin
pirates
pitcairn
pittsburgh
pius
pizarro
pj
pk
pl
pla
place
placed
places
plan
plane
planet
planetary
planeti
planets
planned
planning
plans
plant
plantain
plants
plate
plateau
plates
platform
platforms
platinum
plato
play
playbill
playboy
played
player
players
playhouse
playing
playmakerstats
plays
playwright
plaza
plc
plcd
please
pleasure
plej
plenty
plexus
pli
plos
plot
plu
plus
pluto
plymouth
pm
pmc
pmcentrez
pmid
pmnewsnigeria
pnas
png
po
pocket
pockets
poe
poem
poems
poet
poetics
poetry
poets
pofo
point
points
poju
poland
polandi
poles
police
policies
policy
polish
political
politician
politicians
politics
poll
polls
polly
polo
polongo
poly
polynesia
polynomial
polytechnic
pon
pondicherry
pontifical
ponun
poo
pool
poor
pop
pope
popu
populac
popular
popularly
population
populations
populous
por
porn
pornography
porridge
port
portal
portant
porter
portion
porto
portrait
ports
portsmouth
portugal
portuguese
pos
posi
position
positive
positivism
possible
post
postal
postcolonial
postgraduate
posts
pot
potato
potential
potogi
potter
poulter
pound
pounded
pour
poverty
powder
powell
power
powerful
powerlifting
powers
pp
ppa
ppc
ppp
pr
practical
practice
practices
practitioners
pradesh
prague
praia
praise
pratt
pray
prayer
prc
pre
preacher
precinct
precious
precise
preferred
pregnancy
pregnant
preliminary
premier
premiere
premieres
premiers
premium
premiumtimesng
prentice
prep
preparation
prepare
prepared
preparing
pres
presence
present
presentation
presented
presenter
presents
presidency
president
presidente
presidential
presidents
press
presse
presseco
pressreader
pressure
prestigious
preston
pretoria
pretty
prevalence
prevent
preventing
prevention
preview
previous
previously
pri
price
pride
priest
primari
primary
primate
prime
primer
primetime
prince
princess
princesse
princeton
principal
principe
principia
principle
principles
prinsloo
print
printing
printsec
prior
priority
prisca
priscilla
prison
prisoner
private
prix
prize
pro
probably
probe
problem
problems
proc
proceedings
process
processes
processing
prod
prodigy
produce
produced
producer
producers
produces
product
production
productions
products
prof
profaili
professional
professionals
professor
profile
profiles
profit
program
programme
programmes
programming
programs
progress
progression
progressive
progressives
prohibition
project
projects
prominent
promise
promising
promote
promoting
promotion
pronounce
pronounced
pronunciation
proper
properties
property
prophet
proposal
proposals
proposed
propulsion
prose
prospect
prospects
prostitute
prostitution
protect
protected
protection
protectorate
protein
protentomon
protest
protestant
protesters
protests
proto
protocol
proton
protura
proturan
proturentomon
proud
prove
provide
provided
provider
provides
province
provinces
provincial
provisional
prs
pru
prussia
pseudanisentomon
psychological
psychology
pt
pti
ptolemy
pu
pub
pubis
public
publication
publications
publique
published
publisher
publishers
publishing
pubmedcentral
pubs
puerto
puff
pula
pulitzer
pull
pulse
pulseng
punch
punchng
punjab
puntland
pupa
pupo
purdue
pure
purity
purple
purpose
purposes
push
pushed
put
puts
px
pyotr
pyramid
q
qa
qaeda
qasim
qasmi
qatar
qc
qi
qin
qing
qo
qostal
qu
quadri
quaintance
qualifier
qualifying
qualitative
qualities
quality
quantitative
quantity
quantum
quarantine
quarter
quarterfinals
quarterly
quarters
quartz
qubeka
que
quebec
quechua
queen
queens
queensland
queer
query
quest
question
questions
qui
quick
quickly
quiet
quilox
quincy
quintero
quit
quite
quits
quot
quote
quoted
quotes
qur
quran
qureshi
r
ra
raa
rabat
rabbit
rabi
rabiu
race
rachael
rachel
racial
racing
racism
rada
radi
radiation
radical
radio
radius
rae
rafa
rafael
rafiki
rafiu
raga
rahama
raheem
rahman
rai
rail
raila
railway
raimi
rain
rainbow
rainer
raise
raised
raising
raj
raji
rajo
rajoelina
raju
raku
rale
ralph
ram
rama
ramadan
ramat
ramesses
ramo
ramoni
ramsey
ran
rand
randall
random
randy
range
rani
rank
ranked
ranking
rankings
ranko
ranodu
rans
ranse
ransome
ranti
rao
rap
rape
raphael
rapid
rapper
rappers
rara
rard
rare
rarely
ras
rasaki
rasheed
rashid
rashidi
rat
rate
rates
rathebe
rather
ration
rau
rauf
raufu
raw
rawo
ray
raya
raye
raymond
raypower
rays
razak
razaq
razek
razia
rb
rbi
rbo
rc
rccg
rd
rdoba
re
reach
reached
reaches
react
reaction
reactions
read
reader
reading
ready
reagan
real
realities
reality
really
reason
reasons
rebecca
rebelle
rebellion
rec
receive
received
receives
recent
recently
recipe
recipes
recipient
recipients
recognition
recognize
recognized
recommendations
reconstruction
record
recorded
recording
records
recovered
recovery
red
redeemed
redeemer
redemption
redio
redir
reduced
reduction
ree
reed
reekado
reel
ref
refer
reference
references
referendum
referred
referring
refers
reflections
reflects
reform
refs
refugee
refugees
refused
regarded
regarding
reggae
regime
regina
reginald
region
regional
regions
register
registered
registration
regret
regrets
regu
regular
regulation
reich
reid
reign
reinvented
reject
rejected
rejects
rel
related
relation
relations
relationship
relationships
relative
relatively
relativistic
relay
rele
release
released
releases
relevant
reliable
relief
religion
religious
reloaded
rema
remain
remained
remaining
remains
remarkable
remarks
remember
remembered
remembering
remi
reminisce
remix
remo
removed
renaissance
renamed
rene
rep
repair
replace
replaced
replaces
report
reported
reporter
reporters
reporting
reports
represent
representation
representative
representatives
represented
representing
reprinted
reproductive
reptile
repu
republic
republican
republika
request
required
requires
rere
res
rescue
research
researcher
researchgate
reserve
reserved
residence
resident
residents
resign
resigned
resigns
resistance
resolution
resort
resource
resources
respect
respectively
respiratory
respond
response
responses
responsibility
responsible
rest
restaurant
restoration
restrictions
result
resulting
results
retail
rethinking
reti
retired
retirement
retrieved
return
returned
returns
reuben
reuters
rev
reveal
revealed
reveals
revelation
revenge
revenue
review
reviewed
reviews
revised
revision
revival
revolt
revolution
revolutionary
revolvy
rewa
rewane
rex
rey
reyneke
reynolds
rez
rf
rfc
rfi
rg
rgen
rhachisphora
rhode
rhodes
rhodesia
rhythm
ri
ria
riaa
ribeira
ribi
ribiribi
ribiti
ric
rica
rican
ricardo
rice
rich
richard
richards
richardson
richart
riches
richest
richmond
rick
rico
ricordi
rid
ride
rie
rift
right
rights
rihanna
rii
rika
rile
rim
rima
rin
rindi
rindo
ring
rings
rinja
rinla
rinle
rinlelogun
rio
rios
riot
ripe
ripples
rira
riran
riri
riro
riru
ris
rise
rises
risi
rising
risk
rita
ritre
ritter
river
rivera
rivers
riverside
riwo
rj
rk
rki
rl
rmd
rn
rna
ro
road
roads
rob
robber
robbery
robbins
robert
roberta
roberto
roberts
robertson
robin
robinson
robot
roboto
roc
roche
rochester
rock
rockefeller
rocket
rocks
rodney
rodo
rodri
rodrigues
rodriguez
rogbodiyan
roger
rogers
rogu
rojo
roju
roko
roland
role
roles
roll
rolling
rollingstone
rom
roma
roman
romance
romani
romania
romanian
romantic
rome
romu
ron
ronald
ronaldo
ronke
ronu
roof
room
roosevelt
root
roots
rop
ropo
rora
roro
roru
rosa
rosaline
rosalyn
rosary
rose
roseline
rosemary
rosia
ross
rotavirus
rotimi
rotten
rouge
rough
roughly
round
route
routledge
row
rowland
rowman
roy
royal
royalty
royin
rr
rra
rrez
rs
rsi
rt
rtd
rte
rttemberg
rtugi
ru
rubber
rubberbible
rubella
rubies
rubin
ruby
rudolf
rue
ruehl
rufai
rufu
rufus
rugby
ruge
ruggedman
ruin
ruins
ruiz
rukky
ruko
ruku
rule
ruled
ruler
rulers
rules
ruling
rumour
run
rundun
runmi
runner
running
runs
runso
runtown
runway
rural
ruru
rus
rusek
rush
russell
russia
russian
rutgers
ruth
rutherford
ruwanda
rw
rwanda
rwe
ryan
rym
s
sa
saa
saad
saaju
saare
saba
sabah
sabc
sabi
sabine
sabon
sabrina
saburi
sacramento
sacred
sacrifice
sad
sadau
sade
safa
safe
safety
saga
sagamu
sagba
sage
sahara
saharan
saharanpur
saharareporters
saheed
sai
said
saidi
saidu
saina
saint
saints
saje
saka
sakara
saki
sala
salako
salam
salami
salawu
salaye
sale
saleh
salem
sales
salihu
sally
salma
salo
salon
salt
salvador
salvation
sam
samantha
sambia
same
sami
samisi
samoa
sample
sampson
samson
samuel
san
sana
sanchez
sanctuary
sand
sanda
sanders
sandra
sands
sang
sango
sani
sanidad
sanitation
sanjo
sankara
sanmi
sanni
sanra
santa
santana
sante
santiago
santo
santos
sanusi
sanwo
sanyi
sao
sapa
sapele
sapiens
sar
sara
sarah
saraki
sare
sarkodie
sarkozy
sarmiento
saro
sarr
sars
sarz
sasa
sasha
sassoon
sat
satellite
satu
saturday
saturn
sauce
saudi
sauerstoffgehalt
saunders
savage
savanhu
savanna
savannah
save
savelli
saving
saw
saworoide
saxony
say
saye
sayensi
says
sayyid
sb
sc
scale
scandal
scandals
scandium
scarecrow
scene
scenes
schedule
scheduled
scheme
schistosomiasis
schmadel
schmidt
scholar
scholars
scholarship
school
schools
schuster
sci
science
sciencedirect
sciences
scientific
scientist
scientists
scoan
scoop
score
scored
scores
scotland
scott
scottish
scream
screen
screening
screens
screenwriter
script
sculptor
sculpture
se
sea
seal
sealed
sean
search
searchworks
season
seasons
seat
seattle
sebastian
sebe
sec
seck
second
secondary
secret
secretariat
secretary
secrets
section
sector
security
seda
sedasile
see
seed
seeds
seek
seeking
seeks
seeli
seen
sees
seese
segregation
segun
seidelmann
sekondiri
seku
selasi
sele
select
selected
selection
self
selling
seme
semi
semialdehyde
semifinals
seminar
seminary
semitic
sen
senate
senato
senator
senatorial
senators
send
senegal
seni
senior
sensation
sense
sent
sentinel
seoul
sep
separate
sepetu
sepo
sept
september
sequence
sequences
ser
sera
serbia
serbian
sere
serena
serge
sergeant
serie
series
seriki
serious
serve
served
serves
service
services
servicing
serving
ses
sese
sesi
session
set
seto
sets
setshwaelo
settle
settled
settlement
setumo
seun
seven
seventh
several
severe
sex
sexes
sexual
sexuality
sexy
seychelles
seychellois
seye
seyi
seyin
seymour
seyo
sfnp
sg
sh
sha
shade
shadow
shadows
shaffy
shagari
shah
shahjaha
shaibu
shaikh
shaina
shake
shakespeare
shall
shalom
shame
shan
shanghai
shape
sharapova
share
shared
shares
sharia
sharif
sharma
sharon
sharp
sharpton
shaw
shay
shaykh
she
sheba
sheet
shehu
sheikh
sheila
shell
shelley
shelter
shen
shenzhen
shepherd
sheraton
sherman
sherwood
shettima
sheu
shi
shid
shield
shilling
shin
shina
shine
shines
ship
shipbuilding
shirley
shit
shitta
shittu
sho
shock
shodimu
shoe
shoes
shola
shoot
shooting
shop
shopping
short
shortlist
shortly
shortwave
shot
shotz
should
show
showbiz
showcase
showed
showemimo
showing
showkey
shown
shows
showtime
shrek
shtml
shu
shuga
shut
shuts
shuttle
si
sia
sian
sibe
sibesibe
sibi
sic
sici
sick
sickness
sid
side
sident
sidi
sidney
siduction
sie
sierra
sig
sight
sigmund
sign
signature
signed
significant
signs
sii
sikiru
sikolashipu
sil
silaghi
silberfeld
sile
silence
silent
silicon
silk
silva
silver
silverbird
silvestri
simbine
simenti
simeon
simi
similar
simmel
simmons
simon
simona
simone
simons
simple
simply
simpson
sims
sin
sina
since
sindh
sindhi
sing
singapore
singer
singers
singh
singhiella
singing
single
singles
sings
sini
sinima
sinmi
sinsi
sinsin
sinu
sio
siollun
sipo
sir
sira
sire
siri
siria
siro
sis
sisan
sise
siseto
sisi
siso
sisoloruko
sistemu
sister
sisters
sit
sita
site
sites
siti
situation
siwa
siwaju
six
sixteen
sixth
size
sjid
sk
ska
skales
sketch
ski
skills
skin
skinny
sklar
sko
skotlandi
skull
sky
sl
sla
slam
slave
slavery
slaves
slavey
sleep
sleeping
slideshare
slightly
slim
slimcase
slimming
slovak
slovakia
slovenia
slow
slowly
sm
small
smaller
smallpox
smart
sme
smell
smi
smith
smithsonian
smooth
smuggling
sn
snake
snell
snoop
so
soap
sobowale
sobre
soc
soccer
soccerway
social
socialism
socialist
socialite
socie
societe
societies
society
socio
sociological
sociologist
sociologists
sociology
socrates
sode
sodiq
sodium
sodo
sofia
sofieti
soft
software
sogbo
soil
soji
soju
soke
soki
sokoto
soku
soky
sola
solanke
solar
sold
soldier
soldiers
sole
solid
solo
solomon
solution
solutions
somali
somalia
somaliland
some
someone
something
sometimes
somkele
somo
somolu
son
sonariwo
sondergaard
song
songhai
songs
songwriter
sonia
sonny
sons
sonu
sonuga
sony
sonya
soobu
soon
sope
sophia
sophie
sopo
sora
sore
sori
soro
sorrow
sort
sorvino
sosan
sosanya
sosialisti
soso
sotho
soto
sought
souhir
soul
soumaya
sound
soundcity
sounds
soup
source
sources
sousse
south
southafrica
southeast
southern
southwest
sovereign
sovereignty
soviet
sowande
sowetanlive
sowo
sowore
soyinka
sp
spa
space
spacecraft
spaceship
spacex
spain
span
spani
spanish
sparks
spe
speak
speaker
speakers
speaking
speaks
spear
special
specialized
species
specific
specified
specify
spectrograph
spectroscopy
spectrum
speech
speeches
speed
spein
spelled
spelling
spencer
spent
sphere
spice
spicy
spielberg
spike
spin
spirit
spiritual
spitzer
split
spoken
spokesperson
sponsored
sport
sporting
sports
spot
spotlight
spread
spreads
spring
springer
springs
sprout
spy
sq
sqoop
squad
square
sr
sri
srpska
ss
ssa
ssr
st
sta
stability
stable
stadium
stadiums
staff
stage
stages
stanbic
stand
standard
standardization
standardmedia
standards
standing
stanford
stanley
stanton
star
stardom
stargist
starlets
starr
starring
stars
start
started
startimes
starting
starts
state
stated
statehood
statement
statements
states
statesman
statewide
station
stations
statistical
statistics
statistik
statistique
stats
statue
status
stay
staying
ste
steal
steam
steel
stefania
steinem
stella
stem
step
steph
stephanie
stephen
steps
sterling
steve
steven
stevens
stevenson
stewart
sti
stica
stick
still
stm
sto
stock
stockholm
stoke
stole
stone
stones
stood
stop
stopped
store
storey
stories
storm
storms
story
storytelling
straight
strand
stranded
strands
strange
stranger
strategic
strategies
strategy
stratification
stravinsky
stream
streaming
street
streets
strength
streptococcal
stress
stri
strike
striker
strikes
strikex
string
stroke
strong
stronger
struck
structural
structure
structures
struggle
struggles
sts
stsci
stuart
stub
studded
student
students
studied
studies
studio
studios
study
studying
stuff
stunning
stuns
stuttgart
style
styles
stylish
su
sua
sub
subject
subjects
subramaniam
subscription
substance
substitute
subu
succeed
succeeded
success
successful
successfully
succession
successor
succinic
such
sud
sudan
suddenly
sue
suffrage
sufi
sufism
suga
sugar
sugbo
sugbon
suge
suggest
suggested
sui
suicide
suite
suites
sul
sule
suleiman
suleja
suleman
sulfur
sulfuru
sullivan
sultan
sultanate
sultani
summary
summer
summerolympics
summit
sun
sundance
sundararaj
sunday
sunkanmi
sunku
sunmo
sunnewsonline
sunni
sunny
sunset
sunshine
sunwo
super
superior
supersport
superstar
suppl
supplement
supply
support
supported
supporting
supreme
sur
sure
surface
surgery
suriname
surname
surpass
surprise
surrey
surrounded
surrounding
suru
surulere
survey
survival
survive
survivors
susan
susceptibility
suspect
suspected
suspended
suspends
sussex
sustainable
suya
suyo
suzanne
suzuki
sv
svalbard
svg
swa
swahili
swati
swaziland
swears
sweden
swedish
sweeps
sweet
swi
swidin
swinton
swiss
switch
switzerland
sword
sworn
sy
sydney
syed
sylla
sylvanus
sylvester
sylvia
symbol
symbolic
symbols
symphony
symposium
symptoms
synagogue
syndrome
syndy
synthesis
syria
system
systematic
systems
szeptycki
t
ta
taa
taagepera
taara
tabelvorto
tabi
tabili
table
tables
tabo
tacitus
tackle
tackles
tade
tadhkirah
tadi
tafa
tafawa
tag
tagba
tagbangba
tagle
tags
taha
tai
taipei
tait
taiwan
taiwanese
taiwo
taiye
taja
tajik
tajikistan
takahashi
take
taken
takes
taking
tako
takun
takuntakun
tala
tale
talent
talented
talents
tales
talk
talked
talkin
talking
talks
tall
tallinn
talo
talon
tam
tamara
tamazuj
tamil
tan
tana
tanaka
tang
tanganyika
tani
tanko
tanna
tansania
tanzania
tao
tapa
tapo
tara
taraba
target
targets
tari
task
taste
tat
tatum
taught
tawo
tax
taxi
taxonomy
taya
taye
taylor
tayo
tazi
tb
tbe
tbs
tc
tchad
tchaikovsky
td
te
tea
teach
teacher
teachers
teaching
team
teams
tears
teaser
tech
technical
techniques
technocrat
technologies
technology
ted
teddy
tedela
tedo
tedx
tee
teen
teenage
teeth
tehsil
tejadesiwe
teju
tejuosho
tejuoso
tel
tele
telecommunications
telefisionu
telegraph
telenovela
telephone
teleri
telescope
telescopes
teletele
television
telifisan
telifisonu
teliskopu
tell
telling
tells
temi
temitope
temmie
temperature
temperatures
template
templates
temple
tempo
tems
ten
tenerife
teni
tenis
tennessee
tennis
teno
tera
tere
teresa
term
terminal
terms
terra
terrestrial
terrible
territorial
territories
territory
terror
terrorism
terrorist
terry
tertiary
tescom
tesiwaju
tesla
teslim
test
testament
tested
testing
tests
tete
tetraleurodes
texas
text
textbook
texts
tf
tg
tgaines
th
tha
thabethe
thai
thailand
thames
than
thando
thank
thanks
that
the
theater
theatre
thecable
theguardian
their
thelma
them
thembi
theme
themes
themselves
then
thenationonlineng
thenet
thenetng
thenigerianvoice
theodor
theodore
theology
theophilus
theoretical
theories
theorists
theory
therapy
there
therefore
theresa
thermal
theron
these
thesis
theta
thetimes
they
thi
thick
thierry
thika
thing
things
think
thinking
third
thirteen
thirty
this
thisday
thisdaylive
thomas
thompson
thomson
thorns
those
though
thought
thoughts
thousand
thousands
threat
three
threw
thriller
thrills
throat
throne
through
throughout
throw
thulo
thunder
thursday
thus
thusi
thuso
ti
tia
tianah
tianjin
tiata
tibaijuka
tibet
tica
ticket
tide
tie
tied
tienne
ties
tifeyinti
tiffany
tiger
tii
tijani
tijo
tilda
tile
till
tim
timaya
timbuktu
time
timeline
times
timeslive
timesofindia
timi
timini
timo
timor
timothy
tin
tina
tini
tinsel
tinu
tinubu
tiny
tio
tip
tipa
tipase
tipatipa
tipe
tips
tipsom
tira
tiraka
tire
tired
tiro
tirop
tis
tit
tita
titaja
titan
tite
titele
titi
titilope
title
titled
titles
tito
titobi
titobijulo
titun
titunto
tiu
tiv
tiwa
tiwantiwa
tiwo
tiwon
tk
tl
tlc
tm
tn
tns
to
toba
tobago
tobe
tobechi
tobi
tobijulo
toc
todarajulo
today
todd
togajulo
together
togi
togo
togolaise
toje
toju
toka
tokasi
toke
token
tokerejulo
toko
toku
tokunbo
tokyo
tol
tola
told
toll
tolu
tolulope
tom
toma
tomatoes
tome
tomi
tomo
tomorrow
ton
tone
tones
toni
tonight
tonto
tony
tonye
too
took
tool
tools
tooxclusive
top
tope
topic
topics
tops
tori
toriola
toro
toronto
toru
toseluarailu
tosi
tosin
tosyn
total
totals
toti
totifeyinti
toto
totobijulo
tottenham
touch
tough
toun
tour
tourism
tourist
tourists
tournament
tournaments
tout
towa
toward
towards
tower
towers
town
towns
towry
toye
toyin
toyo
toyosi
tp
tr
tracing
track
tracy
trade
traders
tradestrike
trading
tradition
traditional
traditions
traffic
trafficking
tragedy
trail
trailer
train
training
tranc
trans
transactinide
transactinides
transactions
transfer
transform
transformation
transformng
transgender
transit
transition
transitional
translated
translation
translator
transmission
transnistria
transport
transportation
traore
trap
trapped
travel
tre
treasure
treatment
treaty
tree
trees
trek
trending
trends
tres
trevor
tri
trial
trialeurodes
triangle
triassic
tribal
tribe
tribes
tribune
tribuneonlineng
tribute
tributes
tried
trinidad
trinity
trio
trip
tripadvisor
triple
tripod
tristan
triumph
triumphs
tro
trois
troliers
troops
trophy
tropical
tropiduridae
tropidurus
trouble
troubled
trousers
true
truly
trump
trust
trustees
truth
try
trybe
trying
ts
tsa
tsad
tsbs
tse
tseki
tshabalala
tshisa
tsi
tsile
tsonga
tswa
tswana
tt
tu
tuareg
tube
tuberculosis
tucker
tucson
tudes
tuesday
tumi
tumo
tumosi
tumusiime
tun
tunde
tune
tunes
tunis
tunisia
tunisie
tunji
tunmo
tuntun
tura
turkana
turkey
turki
turkish
turkmenistan
turks
turn
turned
turner
turning
turns
tutsi
tutu
tuvalu
tuxen
tv
tvc
tvsa
tw
twala
twelve
twentieth
twenty
twice
twin
twins
twisted
twitter
two
txt
ty
tyler
type
types
typical
typically
tyra
tyson
tz
tłi
u
ua
uac
uae
uaqaaiaaj
ub
uba
ubangi
ubu
uc
uche
ud
udokwu
udu
uefa
ufuoma
ug
uga
uganda
ugandan
ugbo
ugbodaga
ughelli
ugly
ugo
ugwu
uh
uhf
uhuru
ui
uk
ukeje
ukraine
ukrainian
ukwa
ukwu
ul
ulama
ulf
ulli
uloom
ultimate
ultraviolet
ulysses
um
umar
umaru
umbrella
umuahia
umuhire
un
una
uncertainty
uncle
und
unda
under
underground
understand
understanding
undp
une
unesco
unfa
ungbe
uni
unicef
unifa
unifasiti
unilag
unilorin
union
unique
unit
unite
united
units
unity
univ
universal
universe
universiade
universite
universities
university
unje
unknown
unless
unlimited
unlo
unn
uno
unodc
unpe
unrecognized
unsaba
unse
unsise
unso
until
untold
unu
unusual
unveil
unveiled
unveils
up
upa
upc
upcoming
update
updated
updates
upgraded
uploads
upn
upon
upper
uprising
ur
ura
uranta
urban
urdu
urea
urges
urhobo
uriel
url
uru
urugu
uruguay
us
usa
usage
usatoday
usb
usd
use
used
useful
user
users
uses
usgs
using
usma
usman
usmani
ussr
usta
usually
utah
utc
utm
utrecht
uttar
uu
uv
uwaterloo
uwo
uyo
uz
uzbek
uzbekistan
uzo
uzochukwu
uzodinma
uzoma
uzor
v
va
vacancy
vaccination
vaccine
vaccines
vagina
vaginal
vaginosis
val
vale
valencia
valentine
valeria
valerie
valid
valley
value
values
van
vancouver
vanessa
vanguard
vanguardngr
vanuatu
var
varela
vargas
variation
varies
variety
various
varsity
vary
varzim
vatican
vaughan
vc
vdots
ve
vector
ved
vegas
vehicle
velha
venda
venezuela
venice
ventures
venues
venus
vera
verb
verde
verify
verlag
vermont
vernon
veronica
verrucoentomon
versailles
version
versus
vert
very
veteran
veterans
vg
vh
vi
via
vibe
vice
vicente
vicker
victim
victims
victor
victoria
victory
vida
vidal
video
videos
vie
vienna
viennotaleyrodes
vietnam
vietnamese
view
viewer
viewers
views
vihiga
vii
viii
viktor
villa
village
villages
vin
vincent
vintage
viola
violence
violent
vir
viral
virgin
virginia
virtual
virus
viruses
visa
viscount
visible
vision
visit
visiting
visitors
visits
vista
visual
vitae
vitalina
viva
vivian
vivica
vixen
vj
vladimir
vlekete
vn
vo
voa
voanews
vogue
voice
voices
voici
vojvodina
vol
volleyball
vols
volta
volume
von
vorto
vote
voted
votes
voting
vous
vows
voyage
vp
vr
vre
vs
vu
væn
w
wa
waa
waaris
wabc
wactipsom
wade
wadi
waec
wages
wagner
wahab
wahala
wait
waiting
waje
wajiha
waju
waka
wakati
wake
wako
wale
wales
walk
walker
walking
wall
wallace
wallis
walls
walsh
walt
walter
wamakko
wan
wande
wang
wanile
wanna
want
wanted
wants
wapa
war
warawa
ward
ware
wari
waris
warm
warner
warns
warona
warren
warri
warrior
warriors
wars
was
wash
washington
washingtonpost
wasif
wasiu
watch
water
waters
wato
watson
watt
wave
waves
way
wayback
waye
wayne
ways
waziri
wazobia
wc
we
weah
weak
wealth
weapons
wear
wearing
weather
weaver
web
webb
weber
webmineral
webpages
website
webster
wed
wedding
weddings
wednesday
weds
week
weekend
weekly
weeks
wei
weight
weights
weimar
weiner
weiss
weisstein
weisz
welcome
welcomes
welfare
well
welle
wellington
wells
welsh
wema
wen
wendy
went
wentworth
wenzhou
wer
were
werner
wesley
west
western
westminster
westport
wetin
wewe
wey
wf
wfsahq
wharf
what
whatsapp
wheat
wheel
when
whenever
where
whereas
whether
which
whig
while
whip
whispers
whistle
white
whitefly
whitehouse
whitney
who
whole
whom
whoopi
whose
why
whyte
wi
wide
widely
widespread
widow
widows
wiest
wife
wiki
wikilink
wikimedia
wikipe
wikipedia
wikiquote
wikisource
wiktionary
wild
wildlife
wiley
wilhelm
wilkins
will
willard
willi
william
williams
williamson
willis
wilson
wimbledon
win
wind
window
windows
windsor
wine
winfrey
wing
wings
winner
winners
winnie
winning
wins
winston
winter
winters
wipe
wire
wired
wisconsin
wisdom
wise
wish
witch
with
within
without
witness
wives
wiwa
wiwari
wiwo
wiwu
wizkid
wm
wnba
wo
woju
wole
wolf
woli
wolof
wolper
woman
womanhood
womankind
women
womens
womensworldcup
womersley
won
wonder
wong
wonu
wonyi
wonyii
woo
wood
woodrow
woods
wopo
word
worded
wordpress
words
wore
work
worked
worker
workers
working
workplace
works
workshop
world
worldcat
worldfootball
worldnews
worldometer
worldometers
worlds
worldstatesmen
worldwide
worm
worship
worst
worth
would
wound
wounded
wozniacki
wp
wpp
wr
wright
write
writer
writers
writes
writing
writings
written
wrong
wrote
wsj
wta
wtatennis
wu
wuhan
wule
wulo
wundia
wunmi
wura
wurld
wuyi
www
x
xavier
xclusive
xhosa
xi
xia
xiamen
xico
xie
xii
xiii
xin
xinhua
xinjiang
xiv
xls
xn
xolile
xp
xu
xv
xvi
xy
y
ya
yaa
yaba
yabatech
yabo
yago
yahaya
yahoo
yahya
yakubu
yala
yale
yam
yame
yams
yan
yang
yani
yanju
yanranti
yanri
yans
yanturu
yanu
yaounde
yapa
yar
yara
yato
yawo
yayi
yb
ybnl
yc
ye
yeah
year
yearbook
years
yege
yejide
yekini
yele
yellow
yemen
yemi
yemisi
yemo
yen
yenagoa
yeni
yeomans
yes
yesterday
yesufu
yet
yetide
yetunde
yewa
yewande
yeye
yi
yii
yika
yin
yinju
yinka
yinti
yinyin
yio
yioku
yiowu
yipada
yipo
yiyan
yiyansipo
yiyo
ynaija
yo
yobe
yoku
yola
yomi
yoo
yor
yori
yorisi
york
yorker
yoru
yoruba
yorubaland
yoruboid
yosii
you
young
younger
youngest
your
yours
yourself
youth
youths
youtube
yttrium
yu
yuan
yugoslafia
yugoslavia
yul
yun
yunifa
yunifasiti
yuroopu
yusuf
yusufu
yves
yvonne
z
za
zachary
zafaa
zagreb
zahed
zainab
zaire
zalebs
zambia
zamfara
zango
zanku
zanzibar
zareco
zaria
zarrouk
zaruq
zealand
zeb
zee
zenith
zero
zh
zhang
zhao
zhou
zhu
zi
zika
ziki
zimba
zimbabwe
zinsou
zion
zip
zlatan
zo
zola
zone
zones
zoo
zu
zuckerberg
zulu
zuma
zur
{
|
}
~
¡
£
§
©
«
¬
®
¯
°
±
²
´
µ
·
¸
º
»
¼
½
×
æ
÷
ø
þ
ı
ŋ
ɐ
ɑ
ɒ
ɔ
ə
əm
ɛ
ɡ
ɪ
ɪtɕ
ɵ
ɾ
ʃ
ʊ
ʒ
ʰ
ʱ
ʲ
ʹ
ʻ
ʼ
ʾ
ʿ
ˀ
ˈ
ˌ
ː
ːˈ
˙
ˤ
̀
́
̂
̃
̄
̅
̆
̇
̈
̉
̊
̋
̌
̍
̓
̔
̚
̛
̞
̟
̠
̣
̥
̦
̧
̨
̩
̪
̭
̮
̯
̱
̲
͂
͡
α
β
γ
δ
ε
ζ
η
θ
ι
λ
μ
ν
ξ
ο
π
ρ
ς
σ
τ
της
υ
φ
χ
а
в
г
и
н
на
населения
о
россии
с
у
я
і
ְ
ִ
ֶ
ַ
ָ
ּ
ׁ
א
ב
ד
ו
ח
ל
ם
מ
ף
ר
ש
،
؟
ا
الا
الله
بن
ة
ت
ج
ح
حمد
د
ر
س
ص
ع
عبد
علي
في
ل
م
محمد
ن
و
ي
َ
ُ
ِ
ّ
ْ
ٓ
ٔ
ٕ
ی
ے
ं
क
ख
ग
च
ज
त
द
ध
न
प
फ
भ
म
य
र
ल
व
श
स
ह
़
ा
ि
ी
ु
ू
े
ो
्
ং
ক
ত
দ
ন
প
ব
ম
য
র
ল
শ
স
হ
া
ি
ু
ে
্
ਦ
ਾ
ਿ
ੀ
ੋ
ੰ
ર
ા
க
ங
ச
ட
த
ன
ப
ம
ர
ற
வ
ஸ
ா
ி
ீ
ு
ெ
ே
்
స
్
್
ക
മ
ല
സ
ാ
ി
േ
്
ක
ට
ර
්
ා
ු
ෙ
ม
ั
า
ิ
ี
ื
ุ
ู
่
้
์
་
ག
མ
ར
ལ
ུ
ེ
ྱ
ល
េ
្
῾
​
‌
‎
‐
‑
–
—
―
‘
’
“
”
„
†
‡
•
…
‪
‬
′
″
‹
›
⁡
₦
€
™
←
↑
→
↔
↵
↷
⇒
∑
−
∘
∞
≤
≥
⋅
⋆
⋮
⋯
⋱
⏟
③
④
⑦
►
◄
●
★
♥
⬇
⺀
⺄
⺆
⺈
⺊
⺌
⺕
⺝
⺸
⺼
⿰
⿱
⿲
⿳
⿴
⿵
⿶
⿷
⿸
⿹
⿺
⿻
、
《
》
〢
い
お
ち
と
に
の
ゅ
る
゙
ア
エ
コ
ト
ニ
フ
ム
ユ
ラ
リ
ル
ン
・
ー
㇁
㇂
㇄
㇇
㇈
㇉
㇓
㐁
㐄
㐅
㐌
㐫
㐬
㐭
㐮
㐱
㑒
㒵
㒸
㒼
㓁
㓞
㔾
㕛
㕣
㖾
㘝
㚅
㚇
㚔
㚘
㝉
㝡
㝴
㝵
㞋
㞢
㞷
㠩
㠭
㠯
㡀
㡭
㡿
㢲
㢴
㣇
㣺
㥯
㪅
㫄
㫐
㫒
㫺
㬅
㬎
㬥
㬰
㲋
㳄
㷠
㸒
㸚
㸦
㼌
㼲
㽞
㿟
䀠
䂞
䍃
䏍
䒑
䖍
䖒
䖝
䖵
䙴
䚻
䜌
䝿
䡛
䧹
䪞
一
丁
丂
七
丄
丅
丆
万
丈
三
上
下
丌
不
与
丏
丐
丑
专
且
丕
世
丘
丙
业
东
丞
丢
丣
两
严
並
丨
丩
个
丫
丬
中
丮
丰
丱
串
丵
丶
丷
丸
丹
为
主
丽
丿
乀
乂
乃
久
乆
乇
么
义
之
乌
乍
乎
乏
乐
乑
乔
乖
乗
乘
乙
乚
乛
乜
九
乞
也
习
乡
乳
乾
亀
亅
了
亇
予
争
事
二
亍
于
亏
亐
云
互
亓
五
井
亘
亚
亜
亞
亟
亠
亡
亢
交
亥
亦
产
亨
亩
享
京
亭
亮
亯
亰
亲
亳
亶
亷
人
亻
亼
亾
仁
今
介
仌
从
仐
仑
仒
仓
仕
他
付
仝
代
令
以
任
企
伊
伏
伐
休
会
传
伦
伯
但
位
体
何
佘
余
作
佥
佳
使
來
侈
侌
侖
侯
侵
便
保
俞
信
修
倉
倍
候
倠
倫
健
備
僉
僕
儿
兀
允
兂
元
兄
充
兆
兇
先
光
兊
克
兌
免
兑
兒
兓
兔
兖
党
兜
兟
入
全
兩
兪
八
公
六
兮
兰
共
关
兵
其
具
典
兹
兼
冀
冂
冃
冄
内
冈
冉
冊
冋
册
再
冎
冏
冐
冒
冓
冖
冗
冘
军
农
冝
冡
冥
冫
冬
冰
冷
几
凡
凢
凭
凵
凶
凷
凸
凹
出
函
凾
刀
刁
刂
刃
刄
刅
分
切
刍
刑
刕
刖
列
刘
则
初
別
利
别
到
制
刺
則
削
剌
前
剡
剧
剪
剽
劉
力
功
加
劦
助
劫
劳
劵
勃
勇
勉
勒
動
務
勞
勤
勹
勺
勻
勾
勿
匀
匂
包
匆
匈
匊
匋
匍
匕
化
北
匚
匝
匡
匪
匱
匸
匹
区
医
匽
匿
區
十
卂
千
卄
卅
卆
升
午
卉
半
卌
华
卑
卒
卓
单
卖
南
卜
卝
卞
占
卡
卢
卣
卤
卦
卩
卪
卬
卯
印
危
即
却
卵
卷
卸
卻
厂
厃
厄
历
厈
厉
厌
厓
厘
厚
原
厤
厥
厦
厨
厭
厲
厶
厷
厸
去
厼
厽
叀
参
參
叅
又
叉
及
友
双
反
叐
发
叒
叔
叕
取
受
叚
叜
叟
口
古
句
另
叩
只
召
可
台
叱
史
右
叵
叶
号
司
叹
吂
各
吅
合
吉
吊
吋
同
名
后
吏
向
吕
君
吝
吞
否
含
启
吳
吴
吹
吾
呂
呆
呈
告
员
呙
周
命
咅
和
咎
咠
咢
咨
咸
咼
哀
品
哈
哉
員
哥
哲
唐
商
啇
問
啚
啟
啬
啻
善
喜
喬
單
喿
嗇
噩
嚴
囊
囗
囘
囙
囚
四
回
囟
因
囧
囬
园
困
囱
囷
固
国
图
圂
圅
國
圍
圓
土
圡
圣
圥
在
圭
地
圶
圼
坐
坒
坚
坴
垂
垔
垚
埀
埋
城
埶
執
基
堂
堅
堆
堇
堯
塞
墨
壘
士
壬
壯
声
壳
壴
壹
壺
壽
夂
处
夅
夆
备
夊
夋
夌
复
夏
夒
夕
外
夗
夘
多
夜
夢
大
夨
天
太
夫
夬
夭
央
失
夲
头
夷
夸
夹
夻
夾
奂
奄
奇
奈
奉
奎
奏
奐
契
奓
奔
奖
奚
奞
奠
奢
奥
奭
女
奴
奻
好
如
妄
妈
妙
妟
妥
妻
妾
姑
委
姜
威
娃
娄
婁
婴
婷
嫩
嬰
嬴
子
孑
孔
孕
孖
字
存
孚
孛
孝
孟
季
孤
学
孫
孱
學
宀
宁
宂
它
宅
宇
守
安
宋
完
宏
宓
宗
官
定
宛
宜
宝
实
客
宣
室
宮
宰
害
家
容
宾
宿
寄
寅
密
富
寒
察
寧
審
寫
寬
寮
寸
对
寺
寻
导
寽
対
寿
封
尃
射
将
將
專
尉
尊
尋
尌
對
小
少
尒
尓
尔
尖
尗
尚
尞
尢
尣
尤
尧
尨
尭
就
尸
尹
尺
尻
尼
尽
尾
尿
局
居
屈
届
屋
屎
屏
屑
展
屖
屚
属
屠
屡
屬
屮
屯
屰
山
屵
屾
岁
岂
岑
岡
岩
岳
岸
峯
島
崇
崑
崔
崖
崙
崩
嵬
嶲
巂
巛
川
州
巟
巠
巢
巤
工
左
巧
巨
巩
巫
差
己
已
巳
巴
巷
巸
巽
巾
巿
帀
市
布
师
希
帚
帛
帝
带
師
席
帶
常
干
平
年
幵
并
幷
幸
幺
幻
幼
幽
幾
广
広
庄
庆
床
底
店
庚
府
度
庫
庭
庶
康
庸
廉
廌
廛
廣
廩
廴
延
廷
建
廾
廿
开
弁
弃
弄
弇
弋
式
弓
弔
引
弗
弘
弜
弟
张
弥
弦
弱
張
強
强
彊
彌
彎
彐
彑
当
彔
录
彖
彗
彡
形
彥
彦
彧
彭
影
彳
役
彼
往
待
律
後
徒
得
徙
從
復
微
徵
心
忄
必
忌
忍
志
忝
忠
忩
快
念
忽
忿
怀
思
怠
急
怱
恆
恋
恒
恩
恭
息
悉
患
悤
悲
悶
情
惠
惡
惢
愁
愈
意
愛
感
慈
慧
慮
憂
憲
應
戀
戈
戉
戊
戋
戌
戍
戎
戏
成
我
戒
戔
或
战
戚
戠
戢
截
戲
戶
户
戹
戼
戾
房
所
扁
扇
手
扌
才
扑
打
托
执
扮
批
承
折
报
拉
拍
拜
拿
挑
掌
推
提
摩
播
支
攴
攵
收
攸
改
放
政
敄
敏
敕
敖
敗
敝
敞
敢
散
敦
敫
敬
数
敷
數
斂
文
斉
斊
斗
斤
斥
斩
斬
斯
新
方
於
施
斿
旁
旋
族
无
旡
既
旣
日
旦
旧
旨
早
旬
旱
旲
时
旾
昆
昇
昊
昌
昍
明
昏
易
昔
昗
昜
星
春
昬
是
昱
昴
昷
時
晃
晋
晏
普
景
晴
晶
智
暑
暴
曇
曝
曩
曰
曲
曳
更
曷
書
曹
曼
曾
替
最
朁
會
月
有
朋
服
朔
朕
朗
望
朝
期
木
朩
未
末
本
札
朮
术
朱
朴
朵
朶
机
朿
杀
李
杏
杜
束
条
来
杭
東
杲
杳
松
析
林
枚
果
枝
枲
架
枼
柏
某
柔
查
柬
柰
柴
栗
校
株
桀
桂
案
桑
桓
桼
梁
梅
條
梟
梦
梨
棘
棠
棥
森
楚
業
楽
榮
樂
樊
橋
欠
次
欣
欮
欲
欶
欽
款
歆
歇
歛
止
正
此
步
武
歨
歪
歮
歯
歰
歲
歴
歷
歸
歹
歺
死
殳
段
殷
殸
殹
殺
殻
殿
毋
毌
母
每
毒
比
毕
毚
毛
毳
氏
氐
民
气
氣
水
氵
氶
氷
永
氺
氾
求
汉
汝
汞
江
沃
沈
沓
沙
沝
沪
河
泉
法
波
泣
泥
泰
洛
津
洪
洲
活
派
流
浙
浦
浪
浮
海
淡
淮
深
清
渚
渝
渠
温
港
湃
湖
湘
湯
源
滨
滿
演
漳
漸
澎
澳
火
灬
灭
灰
灵
灷
炅
炎
炏
炗
炙
炭
炮
点
為
烈
烏
烝
烟
热
焉
無
焦
焱
然
煞
照
熊
熏
燕
營
燮
爪
爫
爭
爯
爰
爱
爲
爵
父
爻
爽
爾
爿
片
版
牙
牚
牛
牜
牟
牢
牧
牪
特
牽
犀
犬
犭
犮
狂
狄
狊
独
狺
猋
猒
猪
献
獻
玄
率
玉
王
玟
玨
玲
珎
班
理
琴
瑟
瑩
瓜
瓦
甘
甚
生
産
用
甫
甬
田
由
甲
申
电
甶
男
甸
甹
画
甾
畀
界
畏
畐
留
畜
畟
畢
畧
畨
番
畫
異
畱
當
畺
畾
疆
疊
疋
疌
疏
疑
疒
疾
癶
癸
癹
登
發
白
百
皀
皃
的
皆
皇
皋
皐
皕
皖
皮
皷
皿
盃
盆
盇
盈
益
盍
盎
监
盒
盖
盘
盛
盡
監
盤
盧
目
直
相
盾
省
眇
眉
看
眔
眞
真
眷
眼
眾
着
睘
睪
睿
瞏
瞢
瞿
矍
矛
矞
矢
矣
知
矦
短
石
研
破
碎
磊
磨
示
礻
礼
社
神
祟
票
祭
禀
禁
福
禸
禹
禺
离
禽
禾
禿
秀
秃
秉
秋
科
秘
秝
秦
称
移
程
稟
穀
穌
穴
究
穹
空
穿
突
窄
窒
立
竒
站
竜
竝
竟
章
童
竹
笑
笠
第
筆
等
答
策
箕
算
箴
節
篤
篭
米
粉
粛
粟
粤
粦
粲
精
糞
糸
糹
系
約
納
素
索
紫
累
細
絜
絫
絲
維
綿
縣
繇
纍
纟
红
线
组
绎
编
缶
网
罒
罔
罕
罗
罙
罡
罢
罪
署
罷
羅
羊
羌
羍
美
羔
羕
羗
羞
羡
羣
群
義
羲
羸
羽
翁
翏
習
翕
翟
翠
翼
老
耂
考
者
耆
而
耎
耑
耒
耳
耴
耶
耷
聂
聊
联
聖
聚
聶
聿
肀
肃
肅
肉
肖
肙
肥
肩
肯
育
肴
胃
背
胡
胥
能
脊
脩
膚
臣
臤
臧
自
臬
臭
臯
臱
至
致
臺
臼
臽
臾
臿
舀
舂
舄
與
興
舉
舌
舍
舛
舜
舞
舟
般
艮
良
色
艸
艹
艺
艾
芒
芔
芬
芭
芮
花
芳
芺
芻
苏
苔
苗
苟
若
苦
英
茂
茶
茸
荅
草
荒
荣
荼
莆
莧
莫
莱
获
莽
菆
菊
菐
華
营
萧
萬
落
葉
著
葛
董
葵
蒙
蒦
蒼
蓋
蓝
蓬
蓺
蔑
蔡
蕉
蕭
薄
薇
薛
薦
薰
藍
藏
藤
藥
蘭
虍
虎
虐
虒
虔
處
虖
虗
虘
虚
虛
虜
虞
虫
虽
蚤
蚩
蜀
蜜
蟲
蠡
血
行
衍
衛
衣
衤
表
衮
衰
袁
袞
褭
褱
襄
襾
西
覀
要
覃
見
規
覓
覧
親
覽
见
视
角
解
言
訁
訇
計
許
詞
詹
語
誩
諸
謝
讠
许
试
话
语
调
谷
豆
豈
豊
豐
豕
豖
豙
象
豦
豩
豪
豸
貇
貝
貞
貟
負
貢
貧
貪
貫
責
貳
貴
買
費
賀
賁
資
賈
賏
賓
賔
賛
賞
賢
賣
質
賴
贊
贝
贡
责
贯
贲
贵
赖
赛
赞
赣
赤
赦
走
超
越
足
跨
路
蹇
身
躬
車
軍
軎
軟
輦
车
辑
辛
辜
辞
辟
辥
辰
辱
農
辵
辶
边
达
过
近
连
迷
追
退
送
逆
选
逐
通
速
造
逢
連
逮
進
遀
遂
過
道
達
遣
適
遷
遺
邊
邑
邕
那
邦
邪
邯
邵
郎
部
郭
都
鄉
酉
酋
配
酓
釆
采
里
重
野
量
金
釒
錢
钅
钱
铁
铜
長
镸
长
門
閃
閉
開
閏
閑
閒
間
閔
閵
閻
闌
门
间
闷
闻
阑
阜
阝
阳
阿
际
陇
陈
降
院
陳
陽
隆
隊
隋
隡
隨
隱
隶
隹
隺
隻
隼
隽
难
雀
雁
集
雈
雋
雍
雐
雔
雙
雚
雜
雝
離
難
雨
雩
雪
雲
零
雷
需
霍
霜
霝
霞
霸
靈
靑
青
非
靡
面
靣
革
韋
韜
韦
韩
韭
韯
韱
音
頁
頃
項
須
頗
頡
頻
顛
页
领
風
风
飛
飞
食
飠
養
饣
首
香
馬
馮
駦
马
骨
高
髟
鬥
鬯
鬲
鬼
魚
魯
鮮
鱼
鲁
鳥
鳳
鸟
鹵
鹿
麃
麗
麥
麦
麻
黃
黄
黍
黎
黑
黒
黔
黨
黹
黽
黾
鼎
鼓
鼠
鼻
齊
齋
齐
齒
齿
龄
龍
龙
龜
龟
龠
龰
龱
龴
龵
龶
龷
龸
龹
者
艹
ﻳ
﻿
（
）
，
／
：
？
￼
𞤢
𞤣
𞤤
𞤦
𞤫
𞤭
𞤴
𠀁
𠀃
𠀆
𠀉
𠀎
𠀐
𠁁
𠁣
𠂆
𠂇
𠂈
𠂉
𠂊
𠂋
𠂎
𠂒
𠂔
𠂛
𠂡
𠂢
𠂤
𠂬
𠂭
𠂹
𠃊
𠃋
𠃌
𠃍
𠃎
𠃑
𠃓
𠃔
𠃜
𠄌
𠄎
𠄠
𠄢
𠆢
𠆥
𠇍
𠈌
𠌵
𠓜
𠔉
𠔥
𠔼
𠔽
𠔿
𠕀
𠕁
𠕋
𠘧
𠘨
𠙻
𠙼
𠚏
𠚒
𠚤
𠚪
𠣏
𠤎
𠤕
𠥓
𠦄
𠦑
𠦝
𠧒
𠧗
𠧪
𠩺
𠪚
𠫓
𠫔
𠫤
𠬛
𠬝
𠬞
𠬢
𠬤
𠬶
𠮛
𠮦
𠮷
𠯑
𠱠
𠳮
𠷎
𡈼
𡉀
𡉵
𡌥
𡍮
𡏳
𡕒
𡕩
𡕰
𡖅
𡗗
𡗜
𡘆
𡘤
𡧱
𡨄
𡩧
𡬠
𡭽
𡰣
𡰥
𡰪
𡰯
𡰱
𡷈
𡸁
𡿨
𡿩
𡿪
𡿺
𢀖
𢀛
𢀩
𢁙
𢆉
𢆰
𢆶
𢇁
𢇇
𢉖
𢌬
𢌿
𢏚
𢑑
𢑚
𢖻
𢙣
𢛳
𢦏
𢦒
𢧵
𢼄
𢾕
𣁋
𣄼
𣅀
𣅽
𣍘
𣎳
𣎵
𣏋
𣏼
𣗥
𣥂
𣥖
𣦵
𣦼
𣧄
𣪊
𣪠
𣬉
𣳾
𣶒
𤇾
𤊽
𤐫
𤓰
𤔔
𤕨
𤣩
𤰇
𤰔
𤰞
𤴓
𤴔
𤽄
𥁑
𥁕
𥃦
𥃩
𥃭
𥇡
𥑟
𥘅
𥘈
𥝢
𥫗
𥱡
𦈢
𦉪
𦉬
𦉼
𦍌
𦍒
𦎧
𦐇
𦓔
𦔮
𦘒
𦙃
𦚏
𦣝
𦣞
𦣻
𦥑
𦥔
𦥯
𦨉
𦭝
𦰩
𧆞
𧈧
𧘇
𧰨
𧴪
𧴮
𧵩
𧾷
𨸏
𨾴
𩙿
𩠐
𩫏
𩵋
𪉷
𪜀
𪟽
𪠲
𪩲
𫇦
𫔭
𫜸
𫝀
𫠣
𫠩
𫢉
𫥞
𫩏
𫩠
𫪡
𫲽
𫶧
𬀷
𬐘
𬗌
𬙙
𬛸
𬜯
𬟩
𬯁
𬴘
𬺻
𬼉
𬼖
𭀰
𭁈
𭁨
𭅰
𭑈
𭕄
𭗼
𭤨
𭥫
𭻾
𮅕
𮊿
𮍌
𮍏
𮓗
𮥼
𮧮
廾
𰀁
𰀄
𰀈
𰀉
𰀕
𰀠
𰀡
𰀢
𰀪
𰁜
𰃮
𰆊
𰆘
𰋙
𰕎
𰢴
𰧭
𰯲
01--
03--
04--
05--
06--
08--
116--
26--
33--
36--
37--
39--
40--
41--
42--
43--
44--
45--
46--
47--
48--
49--
50--
51--
52--
53--
54--
55--
56--
57--
58--
59--
60--
61--
62--
63--
64--
65--
66--
67--
68--
69--
70--
71--
72--
73--
74--
75--
76--
77--
78--
79--
80--
81--
82--
83--
84--
85--
86--
87--
88--
89--
90--
91--
92--
93--
94--
95--
96--
97--
978--
98--
99--
a--
aa--
aaaa--
ab--
aba--
abbre--
abdul--
abe--
abi--
abo--
aboli--
absor--
ac--
accele--
accom--
ace--
achi--
acqui--
ad--
ada--
ade--
adi--
adj--
ado--
adv--
advan--
adver--
ae--
af--
afe--
affili--
afi--
afo--
afro--
afu--
ag--
aga--
agbe--
agu--
ah--
aho--
ai--
air--
aj--
aja--
aje--
aji--
ajo--
aju--
ak--
aka--
akin--
ako--
al--
ala--
ale--
alek--
aleur--
ali--
all--
alleg--
allo--
alloc--
alph--
alu--
am--
ama--
ambi--
ame--
ami--
amo--
amp--
amu--
an--
ana--
anc--
and--
ang--
ani--
ann--
ano--
anth--
anti--
anu--
any--
ao--
ap--
apa--
apo--
app--
ar--
ara--
arc--
are--
ari--
arm--
aro--
art--
as--
asa--
ase--
ash--
aso--
asp--
ass--
assis--
astat--
astro--
asu--
at--
ata--
ate--
ati--
ato--
attr--
au--
auda--
auto--
av--
aw--
awa--
awo--
ax--
ay--
aye--
ayi--
ayo--
az--
b--
ba--
baba--
back--
bad--
bag--
bal--
ban--
bar--
bas--
bat--
bau--
bay--
be--
beau--
bed--
bel--
ben--
ber--
bet--
bh--
bhu--
bi--
bie--
big--
bin--
bio--
bis--
bit--
bl--
black--
bo--
bols--
bon--
borr--
bos--
bour--
bow--
br--
bra--
brad--
bre--
bri--
bro--
bru--
bs--
bu--
budd--
bug--
bun--
bur--
burg--
burs--
but--
buzz--
bw--
by--
c--
ca--
cal--
calcu--
camb--
can--
cap--
car--
care--
cas--
cat--
cauc--
cc--
cd--
ce--
ch--
cha--
che--
chi--
chimpan--
cho--
chrom--
ci--
cl--
clau--
cle--
co--
col--
colli--
collo--
com--
comme--
commu--
compl--
con--
concent--
congratu--
consu--
cook--
coor--
cop--
cord--
corn--
corr--
cow--
cp--
cr--
cris--
criti--
cru--
cu--
cumm--
cut--
cy--
d--
da--
daa--
daily--
dam--
dan--
dar--
das--
day--
dc--
de--
dec--
defin--
del--
dele--
dem--
den--
depen--
der--
des--
destruc--
detect--
deva--
dha--
di--
dia--
diag--
did--
dimit--
din--
dio--
dip--
dis--
disgu--
divi--
dj--
do--
doc--
dom--
domit--
don--
dr--
dream--
dro--
du--
dun--
duro--
dw--
dyn--
dz--
ea--
eb--
ebi--
ec--
eco--
ed--
edi--
edu--
ee--
ef--
eg--
egbe--
eh--
ehi--
ei--
ek--
eke--
ekun--
el--
ele--
eli--
elisa--
elo--
elu--
em--
eme--
emmer--
emo--
emph--
empi--
empl--
en--
end--
eng--
eni--
ep--
episte--
eq--
equi--
er--
ero--
es--
est--
et--
ete--
eti--
eu--
eukar--
euph--
euro--
ev--
eva--
ever--
ex--
exagger--
execu--
exem--
exhau--
exhi--
expect--
expl--
explora--
exten--
ez--
eze--
f--
fa--
fab--
fair--
fam--
fanta--
far--
fara--
fat--
faus--
fe--
fed--
fer--
ferti--
fi--
fie--
fifa--
fig--
film--
fin--
fire--
fis--
fitz--
fl--
flu--
fn--
fo--
fon--
foot--
for--
fore--
four--
fowo--
fox--
fre--
fred--
free--
fri--
fro--
frustr--
fu--
ful--
g--
ga--
gal--
galle--
gan--
gar--
garl--
gas--
gau--
gaz--
gba--
gbe--
gbo--
gc--
ge--
gen--
geo--
ger--
gh--
gha--
ghana--
gi--
gil--
giz--
gla--
gle--
glo--
go--
gold--
good--
gr--
gra--
gre--
green--
gro--
gu--
gue--
gun--
gur--
gy--
gyrosc--
h--
ha--
had--
haf--
hak--
han--
hand--
har--
hard--
has--
hat--
haw--
hay--
he--
hect--
hel--
heli--
hen--
her--
herce--
het--
hex--
hi--
high--
him--
hiro--
hit--
ho--
hof--
home--
homo--
hon--
hor--
hot--
hr--
hrva--
hu--
human--
hun--
hy--
hydr--
hydro--
hypothe--
i--
ia--
ib--
iba--
ibe--
ibi--
ic--
id--
ida--
ide--
idi--
ido--
ie--
if--
ifa--
ifara--
ife--
ifi--
ig--
iga--
igba--
igbe--
igbo--
ihe--
ija--
ijo--
ik--
ike--
iko--
il--
ile--
illus--
illustr--
ilo--
ilu--
im--
imi--
imo--
imper--
impleme--
imu--
in--
inc--
incor--
indi--
indo--
ine--
info--
ini--
inju--
ins--
instruc--
int--
inten--
inter--
inu--
inve--
investi--
io--
ip--
ipa--
ipo--
ir--
ira--
iro--
iru--
is--
isan--
ise--
isi--
iso--
it--
ita--
itan--
ito--
itu--
ivo--
iwa--
iwu--
iye--
iyi--
j--
ja--
jam--
jan--
jar--
jay--
je--
jen--
jer--
ji--
jin--
jm--
jo--
jp--
ju--
jubi--
k--
ka--
kai--
kal--
kam--
kar--
kas--
kath--
kc--
ke--
kee--
kemi--
ken--
key--
kh--
ki--
kid--
kin--
kn--
ko--
kose--
kou--
kro--
kry--
ku--
kur--
kuz--
kw--
kwa--
ky--
l--
la--
lady--
lagos--
lai--
lam--
land--
las--
lat--
lau--
lay--
lc--
le--
lee--
leg--
les--
li--
lib--
lice--
life--
light--
lim--
lit--
lo--
loc--
long--
lou--
ls--
lu--
luc--
lv--
ly--
m--
ma--
maa--
mac--
mad--
mag--
mai--
mak--
maka--
make--
mal--
man--
manu--
map--
mar--
mara--
mas--
mass--
mau--
max--
may--
mb--
mba--
mc--
me--
med--
medite--
mega--
mejile--
men--
mer--
met--
meta--
mh--
mi--
mic--
mid--
mil--
min--
mis--
mit--
mitoc--
mm--
mo--
mobi--
mol--
mom--
mon--
mord--
more--
motor--
mp--
ms--
mt--
mu--
muh--
multi--
mw--
my--
myste--
mz--
n--
na--
nai--
naija--
nam--
nan--
nas--
nb--
nc--
nd--
nda--
ndo--
ne--
nece--
neo--
ner--
neu--
new--
news--
ng--
ngu--
nh--
ni--
nic--
nick--
nigeria--
nis--
nit--
nkw--
nn--
nna--
no--
non--
nor--
nos--
not--
now--
np--
ns--
nt--
nu--
nuc--
nwa--
nwabu--
ny--
nya--
nz--
o--
oa--
oba--
obi--
obo--
oc--
occi--
ode--
odi--
odo--
odomo--
odu--
ofe--
off--
og--
ogo--
ogun--
oh--
oha--
oju--
ok--
oke--
oki--
oko--
oku--
ol--
ola--
olo--
olu--
oluwa--
om--
omi--
omo--
on--
ona--
oni--
ono--
onu--
onwu--
oo--
op--
opa--
ope--
or--
ora--
ore--
ori--
orile--
oro--
oru--
os--
osi--
osu--
osun--
ott--
ou--
out--
ov--
over--
owo--
ox--
oye--
ozo--
p--
pa--
paediat--
pai--
pam--
pan--
papi--
par--
para--
pas--
pat--
path--
paw--
pay--
pe--
peli--
pen--
pente--
per--
pet--
ph--
pharm--
pharmac--
photo--
pi--
pie--
pin--
pl--
pla--
play--
plu--
po--
pon--
pop--
por--
port--
pos--
post--
pot--
pp--
pr--
pre--
preside--
pri--
privi--
pro--
prohi--
pseud--
psychiat--
psycho--
pu--
purc--
put--
q--
qa--
qi--
qin--
qu--
qualifi--
que--
qui--
r--
ra--
radio--
rain--
raj--
ram--
ran--
ras--
raw--
rd--
re--
rec--
recog--
recom--
red--
ref--
regu--
rein--
rel--
renko--
rep--
res--
resis--
resur--
rev--
rho--
rhy--
ri--
rie--
rin--
riz--
ro--
rob--
rotat--
rous--
rs--
ru--
run--
rus--
s--
sa--
sad--
sal--
sam--
san--
sar--
sat--
satis--
saw--
sc--
sch--
schu--
se--
sea--
sel--
semi--
sep--
ser--
ses--
set--
seve--
sh--
sha--
she--
shi--
sho--
si--
sia--
sie--
sil--
simu--
sin--
sinen--
sit--
site--
sk--
sky--
sl--
sm--
sn--
so--
socio--
some--
son--
sound--
sowe--
sp--
spe--
spect--
sple--
sq--
squ--
ss--
st--
sta--
stabi--
stall--
ste--
stein--
stereo--
sto--
strep--
su--
sub--
subse--
succ--
sud--
suff--
sui--
sul--
sun--
super--
supp--
sur--
suspe--
susta--
sv--
swa--
swe--
sy--
symp--
t--
ta--
tai--
tam--
tang--
tat--
tax--
tay--
te--
tech--
tel--
telom--
temp--
ten--
tetr--
th--
the--
thefree--
thi--
thott--
ti--
tie--
tim--
tin--
tip--
tis--
tite--
tiwa--
to--
tol--
ton--
top--
tor--
tr--
trans--
tre--
tri--
tro--
ts--
tu--
tun--
turk--
tv--
tw--
ty--
u--
ub--
uc--
ud--
ug--
ugo--
uk--
ul--
um--
un--
una--
und--
under--
uni--
up--
ur--
us--
uwa--
uz--
uzo--
v--
va--
vacat--
val--
van--
var--
ve--
veget--
ver--
verd--
vers--
vi--
via--
vir--
vo--
vol--
vr--
vu--
w--
wa--
war--
was--
wave--
way--
we--
web--
wei--
wen--
wer--
west--
what--
whit--
wi--
wiki--
wil--
win--
with--
wo--
wolf--
womens--
world--
wr--
wu--
x--
xen--
xi--
y--
ya--
yam--
yan--
ye--
yi--
yo--
yu--
yun--
z--
za--
zee--
zen--
zh--
zi--
zimmer--
zo--
zoo--
zu--
æ--
ð--
þ--
ɡ--
ɪ--
ʃ--
ʒ--
γ--
δ--
λ--
ν--
ο--
τ--
м--
н--
республ--
ск--
ا--
ال--
الع--
د--
س--
ع--
ل--
م--
ن--
و--
ک--
--0
--00
--02
--03
--1
--11
--13
--16
--2
--20
--218
--22
--25
--27
--28
--3
--33
--38
--4
--43
--44
--49
--5
--50
--56
--6
--61
--63
--67
--7
--77
--8
--82
--84
--85
--86
--89
--9
--94
--a
--able
--ably
--ac
--ach
--ad
--ada
--ade
--ae
--age
--ah
--ai
--aiaaj
--ail
--ais
--aj
--ak
--al
--ale
--ally
--als
--am
--ama
--ams
--an
--ance
--ane
--ang
--ani
--ank
--ant
--ants
--ao
--aqbaj
--ar
--ara
--ard
--ards
--are
--ari
--aries
--art
--ary
--as
--ast
--at
--ate
--ated
--ath
--ation
--ations
--ator
--au
--ave
--ax
--ay
--aye
--aza
--aziz
--b
--ba
--back
--baku
--bank
--bar
--be
--bea
--bek
--bel
--bi
--biri
--ble
--bo
--book
--bor
--boy
--bs
--bu
--bule
--burg
--bus
--by
--c
--ca
--cal
--ce
--cel
--cene
--ces
--cess
--cey
--ch
--cha
--che
--ches
--chi
--ci
--cient
--cing
--cit
--ck
--cker
--cks
--co
--com
--craft
--cs
--ct
--cts
--cus
--cy
--d
--da
--dae
--daily
--dao
--day
--de
--ded
--den
--der
--des
--di
--dia
--die
--din
--dinlaadoje
--dinlaadorin
--dinlaadorun
--dinlogota
--dium
--diwe
--dle
--do
--dor
--dore
--dou
--dra
--ds
--du
--dun
--dus
--dy
--e
--ea
--eau
--ect
--ecurity
--ed
--ee
--een
--ees
--ef
--ei
--eia
--eko
--el
--ela
--eld
--ell
--elli
--ello
--em
--en
--enburg
--ence
--end
--ene
--ened
--enne
--ens
--ensis
--ent
--ents
--entulus
--eo
--ep
--er
--era
--ern
--ero
--ers
--ert
--ery
--es
--ese
--ess
--est
--et
--ett
--ette
--eur
--ev
--eva
--ew
--ews
--ey
--ez
--f
--fa
--fax
--fe
--ff
--ffe
--fi
--fied
--fik
--fm
--fo
--ft
--fu
--ful
--fy
--g
--ga
--gal
--gba
--gbe
--gbo
--ge
--ged
--ger
--ges
--ggs
--gh
--ght
--gi
--gia
--gical
--gie
--ging
--gle
--go
--graph
--graphs
--gs
--gu
--gun
--gwu
--gy
--gz
--h
--ha
--hae
--haft
--hai
--ham
--han
--har
--he
--hed
--her
--hes
--hi
--hic
--hip
--hir
--hiru
--hment
--hn
--ho
--hof
--hood
--hop
--hou
--hra
--hs
--ht
--hu
--hub
--hy
--i
--ia
--iable
--iae
--ial
--ian
--ic
--ical
--ich
--ichi
--icia
--ick
--ico
--id
--ide
--idia
--ids
--ie
--ied
--iella
--ien
--iensis
--ier
--iers
--ies
--iest
--ification
--ified
--ify
--ig
--ii
--ik
--iki
--il
--ile
--im
--in
--ina
--india
--ine
--ing
--ings
--ington
--ino
--ins
--inson
--inus
--io
--ion
--ional
--ions
--iq
--ique
--ir
--ire
--iro
--is
--ise
--ised
--ish
--ising
--ism
--ist
--ista
--istic
--ists
--it
--ite
--ities
--itude
--ity
--ium
--ius
--ive
--ivity
--ix
--ization
--ize
--ized
--izing
--j
--ja
--je
--ji
--jo
--ju
--julo
--jumo
--juto
--k
--ka
--kal
--kan
--kar
--ke
--ked
--keji
--ker
--ket
--kh
--ki
--kia
--kis
--ko
--kou
--kov
--ks
--ksi
--ku
--kun
--kwe
--ky
--l
--la
--lace
--lah
--land
--lava
--ld
--lde
--le
--lected
--lecting
--led
--lejo
--leke
--lekun
--len
--lent
--ler
--les
--less
--let
--ley
--leye
--leyrodes
--lf
--li
--lia
--lian
--lin
--line
--ling
--lis
--lism
--list
--lities
--live
--ll
--lla
--lli
--llo
--lly
--lo
--logical
--logy
--lon
--lor
--lori
--lot
--lph
--ls
--lu
--lus
--ly
--lyn
--m
--ma
--mag
--mah
--man
--mania
--matic
--me
--meji
--men
--ment
--ments
--mer
--mes
--mey
--mi
--mma
--mo
--mola
--mon
--mp
--ms
--mu
--my
--n
--na
--nah
--nal
--nap
--nce
--nces
--ncing
--ncio
--ncy
--nd
--nda
--nder
--ndi
--ne
--ned
--nell
--ner
--ners
--nes
--ness
--net
--news
--ney
--ng
--nga
--ngr
--ngs
--ni
--nie
--nije
--niloro
--nium
--nk
--nlo
--nlogun
--nmi
--nn
--nne
--nny
--no
--nolly
--ns
--nsis
--nstein
--nt
--ntal
--ntele
--ntly
--nts
--nu
--num
--nus
--nusi
--nx
--ny
--nzo
--o
--oa
--occus
--och
--ock
--oe
--of
--off
--ogy
--oid
--oir
--ok
--oke
--ol
--ola
--ological
--ology
--olu
--om
--omu
--on
--one
--ong
--online
--ons
--onu
--or
--ord
--ore
--orin
--oro
--ors
--ory
--os
--oshi
--ot
--oti
--oto
--ott
--ou
--ous
--out
--ov
--ovich
--ow
--p
--pa
--pe
--ped
--ph
--phant
--phe
--phere
--phie
--pi
--pic
--po
--polis
--pot
--pret
--ps
--pt
--pu
--py
--q
--qbaj
--que
--r
--ra
--rade
--radio
--raf
--rage
--rah
--ral
--ran
--rar
--rb
--rce
--rchy
--rd
--rds
--rdy
--re
--red
--ref
--ren
--res
--rf
--rg
--ri
--ria
--rian
--ries
--riki
--rin
--rina
--rio
--rite
--rity
--rk
--rm
--rn
--rno
--ro
--ros
--rot
--rova
--rp
--rry
--rs
--rse
--rt
--rta
--rth
--ru
--rum
--run
--rut
--rwa
--ry
--rya
--s
--sa
--san
--sch
--sco
--sdale
--se
--sed
--seus
--sh
--shed
--shi
--ship
--shire
--si
--sia
--sile
--sin
--sis
--sius
--sive
--sk
--sley
--sm
--so
--sola
--son
--ss
--ssa
--sse
--ssi
--sson
--st
--ste
--stein
--ster
--ston
--stro
--su
--sun
--sus
--sy
--t
--ta
--tah
--tal
--tan
--tar
--tas
--te
--ted
--ten
--tent
--ter
--tery
--tes
--tese
--th
--thy
--ti
--tic
--tics
--tiki
--times
--ting
--tion
--tions
--tive
--tivo
--tle
--tly
--to
--ton
--tor
--tory
--tou
--town
--tra
--try
--ts
--tt
--tta
--tte
--tter
--tti
--tu
--ture
--tus
--tuta
--tv
--ty
--tz
--u
--ual
--ucing
--ud
--ude
--udeen
--ue
--uge
--ugh
--ugu
--uki
--ul
--ula
--ular
--uli
--ult
--ulu
--um
--uma
--ume
--umed
--umes
--umi
--un
--ung
--up
--ur
--urd
--ure
--ured
--ures
--urg
--uri
--uring
--uro
--urodicus
--ury
--us
--ust
--ut
--uu
--uwa
--ux
--uzi
--v
--va
--val
--vb
--ve
--ven
--ves
--vi
--vic
--vid
--ville
--vity
--vo
--vu
--vy
--w
--wa
--way
--we
--web
--wi
--wich
--wick
--wicz
--wl
--wo
--woman
--world
--ws
--wu
--wumi
--x
--y
--ya
--yah
--yama
--yan
--yard
--ye
--yer
--yewo
--yi
--yin
--yl
--yn
--yo
--yrodes
--ys
--yyah
--z
--za
--zation
--ze
--zed
--zer
--zi
--zia
--zie
--zing
--zo
--zu
--zy
--ɐ
--ə
--ɨ
--ɪ
--ʊ
--ος
--ς
--а
--в
--е
--и
--ич
--ка
--ки
--ких
--ч
--ых
--я
--ة
--د
--ر
--ل
--م
--ن
--نا
--ی
