!
"
#
##0
##1
##10
##11
##12
##13
##14
##15
##16
##17
##18
##19
##2
##20
##21
##22
##23
##24
##25
##26
##27
##28
##29
##3
##30
##31
##32
##33
##34
##35
##36
##37
##38
##39
##4
##40
##41
##42
##43
##44
##45
##46
##47
##48
##49
##5
##50
##51
##52
##53
##54
##55
##56
##57
##58
##59
##6
##60
##61
##62
##63
##64
##65
##66
##67
##68
##69
##7
##70
##71
##72
##73
##74
##75
##76
##77
##78
##79
##8
##80
##81
##82
##83
##84
##85
##86
##87
##88
##89
##9
##90
##91
##92
##93
##94
##95
##96
##97
##98
##99
%
&
'
(
)
*
+
,
-
.
/
0
00
000
0001
001
002
003
004
005
006
007
008
009
01
010
011
012
013
014
015
016
017
018
019
02
020
021
022
023
024
025
026
027
028
029
03
030
031
032
033
034
035
036
037
038
039
04
040
041
042
043
044
045
046
047
048
049
05
050
051
052
053
054
055
056
057
058
059
06
060
061
062
063
064
065
066
067
068
069
07
070
071
072
073
074
075
076
077
078
079
08
080
081
082
083
084
085
086
087
088
089
09
090
091
092
093
094
095
096
097
098
099
1
10
100
1000
101
102
1024
103
104
105
106
107
108
109
11
110
111
112
113
114
115
116
117
118
119
12
120
1200
121
122
123
124
125
126
127
128
129
13
130
131
132
133
134
135
136
137
138
139
14
140
1400
141
1416
142
1420
143
144
1445
145
1453
146
147
148
149
1490
1497
1498
1499
15
150
1500
1503
1506
1508
151
1511
152
1521
153
154
1547
155
1552
156
1564
157
158
1580
1582
159
16
160
1600
1608
161
162
1623
163
164
1648
165
166
167
168
169
17
170
1700
1704
171
1710
172
173
174
175
1753
176
1763
1765
1766
177
1770
178
1785
1787
1788
1789
179
1790
1792
1793
1796
1797
1799
18
180
1800
1801
1802
1804
1805
1806
1807
1809
181
1810
1812
1813
1815
1816
1817
1818
1819
182
1820
1821
1824
1825
1826
1828
1829
183
1830
1832
1833
1835
1836
1838
1839
184
1840
1841
1842
1843
1844
1845
1846
1847
1848
1849
185
1850
1852
1853
1854
1855
1856
1857
1858
1859
186
1860
1861
1862
1863
1864
1865
1866
1867
1868
1869
187
1870
1871
1872
1873
1874
1875
1876
1877
1878
1879
188
1880
1881
1882
1883
1884
1885
1886
1887
1888
1889
189
1890
1891
1892
1893
1894
1895
1896
1897
1898
1899
19
190
1900
1901
1902
1903
1904
1905
1906
1907
1908
1909
191
1910
1911
1912
1913
1914
1915
1916
1917
1918
1919
192
1920
1921
1922
1923
1924
1925
1926
1927
1928
1929
193
1930
1931
1932
1933
1934
1935
1936
1937
1938
1939
194
1940
1941
1942
1943
1944
1945
1946
1947
1948
1949
195
1950
1951
1952
1953
1954
1955
1956
1957
1958
1959
196
1960
1961
1962
1963
1964
1965
1966
1967
1968
1969
197
1970
1971
1972
1973
1974
1975
1976
1977
1978
1979
198
1980
1981
1982
1983
1984
1985
1986
1987
1988
1989
199
1990
1991
1992
1993
1994
1995
1996
1997
1998
1999
2
20
200
2000
2001
2002
2003
2004
2005
2006
2007
2008
2009
201
2010
2011
2012
2013
2014
2015
2016
2017
20170724
20170725
2018
2019
202
2020
2021
2022
2023
203
204
205
206
207
208
209
21
210
211
212
213
214
215
216
217
218
219
22
220
2200
221
222
223
224
225
226
227
228
229
23
230
231
232
233
234
235
236
237
238
239
24
240
241
242
243
244
245
246
247
248
249
25
250
251
252
253
254
255
256
257
258
259
26
260
261
262
263
264
265
266
267
268
269
27
270
271
272
273
274
275
276
277
278
279
28
280
281
282
283
284
285
286
287
288
289
29
290
291
292
293
294
295
296
297
298
299
3
30
300
3000
301
302
303
304
305
306
307
308
309
31
310
311
312
313
314
315
316
3166
317
318
319
32
320
32020
321
322
323
324
325
326
327
328
329
33
330
331
332
333
334
335
336
337
338
339
34
340
341
342
343
344
345
346
347
348
349
35
350
351
352
353
354
355
356
357
358
359
36
360
361
362
363
364
365
366
367
368
369
37
370
371
372
373
374
375
376
377
378
379
38
380
381
382
383
384
385
386
387
388
389
39
390
39030
391
392
393
394
395
396
397
398
399
4
40
400
401
402
403
404
405
406
407
408
409
41
410
411
412
413
414
415
416
417
418
419
42
420
421
422
423
424
425
426
427
428
429
43
430
431
432
433
434
435
436
437
438
439
44
440
441
442
443
444
445
446
447
448
449
45
450
451
452
453
454
455
456
457
4576
458
459
46
460
461
462
463
464
465
466
467
468
469
47
470
471
472
473
474
475
476
477
478
479
48
480
481
482
483
484
485
486
487
488
489
49
490
491
492
493
494
495
496
497
498
499
5
50
500
5000
501
502
503
504
505
506
507
508
509
51
510
511
512
513
514
515
516
517
518
519
52
520
521
522
523
524
525
526
527
528
529
53
530
531
532
533
534
535
536
537
538
539
54
540
541
542
543
544
545
546
547
548
549
55
550
551
552
553
554
555
556
557
558
559
56
560
561
562
563
564
565
566
567
568
569
57
570
571
572
573
574
575
576
577
578
579
58
580
581
582
583
584
585
586
587
588
589
59
590
591
592
593
594
595
596
597
598
599
6
60
600
601
602
603
604
6046
605
606
607
608
609
61
610
611
612
613
614
615
616
617
618
619
62
620
621
622
623
624
625
626
627
628
629
63
630
631
632
633
634
635
636
637
638
639
64
640
641
642
643
644
645
646
647
648
649
65
650
651
652
653
654
655
656
657
658
659
66
660
661
662
663
664
665
666
667
668
669
67
670
671
672
673
674
675
676
677
678
679
68
680
681
682
683
684
685
686
687
688
689
69
690
691
692
693
694
695
696
697
698
699
7
70
700
7000
701
7014
702
703
704
705
706
707
708
709
71
710
711
712
713
714
715
716
717
718
719
72
720
721
722
723
724
725
726
727
728
729
73
730
731
732
733
734
735
736
737
738
739
74
740
741
742
743
744
745
746
747
748
749
75
750
751
752
753
754
755
756
757
758
759
76
760
761
762
763
764
765
766
767
768
769
77
770
771
772
773
774
775
776
777
778
779
78
780
781
782
783
784
785
786
787
788
789
79
790
791
792
793
794
795
796
797
798
799
8
80
800
801
802
803
804
805
806
807
808
809
81
810
811
812
813
814
815
816
817
8171
818
819
82
820
821
822
823
824
825
826
827
828
829
83
830
831
832
833
834
835
836
837
838
839
84
840
841
842
843
844
845
846
847
848
849
85
850
851
852
85256
853
854
855
856
857
858
859
86
860
861
862
863
864
865
866
867
868
869
87
870
871
872
873
874
875
876
877
878
879
88
880
881
882
883
884
885
886
887
888
889
89
890
891
892
89255
893
894
895
896
897
898
899
9
90
900
901
901703
902
903
904
905
906
907
908
909
909015
91
910
911
912
913
914
915
916
917
918
919
92
920
921
922
923
924
925
926
927
928
929
93
930
931
932
933
934
935
936
937
938
939
94
940
941
942
943
944
945
946
947
948
949
95
950
951
952
953
954
955
956
957
958
959
96
960
961
962
963
964
965
966
967
968
969
97
970
971
972
973
974
975
976
977
978
979
98
980
981
982
983
984
985
986
987
988
989
99
990
991
992
993
994
995
996
997
998
999
:
;
<
=
>
?
@
[
\
]
^
_
`
a
aa
aachen
ab
abada
abade
abbeville
abbots
abbotts
aber
aberdeen
abgerufen
abile
abilite
abina
abine
abita
abitanc
abitant
abitazion
abite
abitova
abrami
abruzzo
abu
ac
academia
academich
academy
acadia
accession
accomack
achemenid
acres
act
acton
acuileia
ad
ada
adagio
adair
adalerch
adam
adams
adamsville
adang
adarlerch
adda
addia
addison
addition
adele
adeodato
ades
adesc
adige
ado
adolf
adora
adoranza
adore
adrian
adrova
adum
adurva
adurvanza
adurve
adurveda
adurvei
advance
ae
aea
aeroport
afb
affairs
afghanistan
aflue
afre
africa
afton
ag
aga
agata
agency
agn
agnes
agno
agordino
agost
agostini
agostino
agreiter
agricolto
agrigento
agua
ah
ahrweiler
ai
aichach
aiken
ain
aint
air
airport
ais
aisch
aiscio
aisne
aitkin
aiu
aiut
aix
ajache
akademie
akron
al
ala
alabama
alachua
alado
alalongia
alamance
alameda
alamo
alamos
alaska
alauta
alb
alba
albania
albany
albemarle
albert
alberti
alberto
albin
albino
albion
albrecht
albu
alcorn
alcun
alda
aldedainco
aldel
alden
aldi
aldidancuei
aldo
ale
aleac
ales
alessandria
alessandro
alessio
aleutians
alex
alexander
alexandria
alexandrov
alexia
alfabet
alfalfa
alfons
alfonso
alfred
alfreider
alg
ali
alianza
alice
alincontra
all
alla
alle
allegan
allegany
alleghany
allegheny
allen
allendale
allentown
aller
alles
allga
allgemeines
alliance
allier
allison
alm
alma
almanco
alois
alp
alpe
alpena
alpenverein
alpes
alpha
alphons
alpin
alpine
alpini
alpino
als
also
alt
alta
altamont
altdorf
alte
altenburger
altenkirchen
altes
altladinisches
altmarkkreis
alto
alton
altonn
altoona
altos
alvije
alze
alzey
am
ama
amadio
amador
amalia
amana
amand
amberg
ambie
ambolt
amboy
amelia
amen
america
american
ames
amesa
amez
amherst
ami
amich
amik
aministratif
aministrativa
aministratives
aministrazion
amisc
amity
amo
amor
amp
ampe
ampez
ampezan
ampezana
ampezans
ampezzano
ampezzo
amsterdam
amt
amur
an
ana
analisa
anca
anche
anchor
ancona
ancora
ancuoi
and
anda
andalusia
ander
anderlan
anderson
andes
andhra
andli
andover
andrac
andre
andrea
andreas
andrew
andrews
andria
anes
anescion
anfa
angel
angeles
angelica
angelina
angelo
angelus
angiul
angiuli
angola
angoon
anhalt
anhang
ani
aniel
animas
anjou
ann
anna
annalas
annamaria
annapolis
anne
annemarie
anni
anno
annual
anoka
anonim
anp
anpezan
anpezane
anpezo
anri
ans
ansbach
ansciuda
anson
ant
ante
antelao
antelope
antenac
anter
anterme
antermoia
anthonius
anthony
antica
antich
antiches
antichs
antics
antioch
antoine
antologia
anton
antone
antoni
antonio
antrim
ao
aost
aosta
apache
ape
apede
apollo
aposta
apostul
apostuli
appanoose
apple
appleton
april
aquila
aquileia
aquitaine
ara
arab
arabba
arabia
aransas
arapahoe
arata
arate
arbor
arc
arcadia
arcangiul
archeologia
archeologics
archer
architet
architetura
archiv
archive
archived
archivia
arco
arcola
arctic
arde
arden
ardennes
ardmore
are
area
areas
ares
arezzo
argentina
argyle
aria
arie
aristoteles
arizona
arje
arjent
arjonjer
arjont
arjunt
arkansas
arlington
armin
armor
armstrong
arnold
arpa
arpagaus
arpejon
arpizade
arpize
arriba
arrow
arrowhead
arroyo
ars
art
arte
artejanat
artejans
arthur
arti
artich
article
articul
articuli
artisc
artist
artista
artistc
artisti
artistica
artistich
artistiches
arturo
arundel
as
asbury
ascension
aschaffenburg
aschi
asco
ascognu
ascoli
ash
ashby
ashford
ashland
ashley
ashtabula
ashton
asia
aspec
aspen
aspet
assa
asse
assumption
asti
aston
astronomia
at
atchison
atelier
ater
athens
athesia
atira
ativita
ativite
atkinson
atlanta
atlantic
atlantich
atlantique
atlantiques
atlas
atleta
atmosfera
atoka
atomich
atoms
atra
atres
atri
attempt
attica
attivita
atwood
au
aube
aubin
auburn
auch
aude
audenes
audi
audrain
audubon
auf
auglaize
augsburg
august
augusta
augustin
augustine
augustus
ault
aunejia
aurelia
auri
aurich
auril
aurora
aus
aussicht
austin
australia
austria
austriaca
austriach
aut
auta
aute
auter
autere
auteresc
autes
auti
auto
auton
autonn
autonom
autonoma
autonomes
autonomia
autonomous
autor
autorenkompendium
autores
autoriteies
autra
autres
autri
autur
auvergne
aux
auze
av
ava
avair
avalon
ave
avei
avellino
avenime
averau
avery
aveyron
avisa
avoca
avon
avondale
avoyelles
avra
award
ay
az
azienda
azur
b
ba
baar
bab
babi
babilonia
baca
bach
bache
bacher
bad
baden
badger
badia
badiot
bagnolo
bahn
bai
baia
baie
bailey
bain
bainbridge
bains
baja
baker
bakersfield
bal
bala
baldwin
balest
ball
ballard
balsamo
balsan
balthasar
baltic
baltich
baltimore
bamberg
bambin
banca
banch
bancroft
band
bandiera
bangor
bank
banks
banner
bannock
bap
baptist
bar
baraga
barantli
barbara
barber
barblan
barbour
bardola
bari
barletta
barnes
barnesville
barnim
barnstable
barnwell
baroch
baron
barre
barrington
barron
barrow
barry
barstow
barth
bartholomew
bartlett
bartolomei
barton
bartow
bas
basa
basc
basckortostan
base
baselgia
basilicata
basin
bass
bassa
bassett
basta
bastian
bastrop
bataia
bataian
batalia
batavia
baters
bates
batesville
bath
batista
baton
battaglia
battista
battle
batu
bautzen
bavaresc
baxter
bay
bayard
bayfield
bayou
bayreuth
bayside
bbecke
bbkl
bd
be
beach
beacon
beadle
bear
beauchamp
beaufort
beaulieu
beaumont
beauregard
beaver
beaverhead
bec
beca
becco
becker
bedaia
bedaies
bedeutende
bedford
bedfordshire
bee
beech
beecher
beechwood
been
bei
beim
bein
beitra
beitrag
bel
bela
belardi
belau
bele
belje
belknap
bell
bella
bellas
belle
belleair
bellefonte
belleville
bellevue
bellunesi
belluno
bellwood
belmont
beloit
belsy
belton
beltrami
belum
belun
belvedere
belvidere
ben
bend
benede
benedetto
benedi
benedict
benedida
benefiziat
benevento
bengali
beni
benito
benjamin
bennett
bennington
benson
bent
bentheim
bentley
benton
benzie
bepe
bepi
bepo
ber
bera
berba
berblick
berchtesgadener
berea
beretsch
berg
bergamo
bergen
bergmeister
bergstraße
berkeley
berks
berkshire
berlin
bern
bernalillo
bernard
bernardi
bernardino
bernhard
bernkastel
berrien
berry
bersetzung
berstot
bertie
berto
berwick
berwyn
bessemer
bestiam
besties
bethany
bethel
bethesda
bethlehem
between
beulah
bever
beverly
bevo
bexar
bezzola
bi
bib
biberach
bibia
bibliografia
bibliographie
bibliographisches
biblioteca
bibliotech
bie
biedenkopf
biei
bielefeld
biella
bieloruscia
bien
bienville
biesces
biescia
bifrun
big
bildenden
bildhauer
billings
bingen
bingham
bio
biografia
biographien
biologia
birch
bird
birkenfeld
birmingham
bis
bisch
bishop
bismarck
bitburg
bitterfeld
bizantin
bl
bla
black
bladen
blaine
blair
blanc
blanca
blanch
blanchard
blancia
blanco
blason
blava
ble
blein
bleje
blick
blingen
bliss
bloomfield
blooming
bloomingdale
bloomington
blount
blue
bluewater
bluff
bluffs
bluffton
blumenwelt
bo
boa
bocacci
boccaccio
bocia
bodensee
bodenseekreis
boe
bogen
bogn
boiling
bois
boise
bolivar
bologna
bolp
bolshoy
bolton
bolzano
bon
bona
boname
bonamenter
bonanza
bond
bones
boneseghes
boni
bonita
bonito
bonner
bonneville
bonta
book
books
boone
boonville
bordeaux
border
borgo
borken
bormida
borough
boroughs
bos
bosc
bosch
bosco
bosnia
bosque
bossier
boston
botetourt
both
bottineau
bottom
bouches
boulder
bourbon
bourg
bourgogne
bow
bowie
bowling
bowman
box
boyd
boyle
bozen
bra
brabant
brac
brach
bracun
braddock
bradenton
bradford
bradley
brady
braies
brampton
branch
branchville
brandenburg
brandon
brasil
bray
brazoria
brazos
bre
breckenridge
bredles
bref
bregostana
bregostane
breisgau
bremen
bremer
brent
brenta
brentwood
brescia
bressan
bresse
bretagne
bretania
breuil
brevard
brewster
brianza
brice
brida
bridge
bridgeport
bridgeville
bridgewater
brie
brien
brighton
brindisi
bristol
bristow
britanich
britannica
british
brixen
brixinensia
bro
broad
broadview
broadwater
broadway
brom
bronson
bront
bronx
brook
brooke
brookfield
brookhaven
brookings
brooklyn
brooks
brookside
brooksville
brookville
broome
broughton
broward
brown
browning
browns
brownsboro
brownsville
bru
bruce
bruel
brule
brum
brun
bruneck
brunel
brunelg
bruno
brunsin
brunswick
bruscia
brush
brutto
bryan
bryant
bu
buc
bucca
buch
buchanan
buchenstein
buchholz
buckhorn
buckingham
buckinghamshire
buckland
buckner
bucks
buena
buffalo
bugon
buja
buje
bujes
bula
bulacia
bulgaria
bull
bullitt
bulsan
bun
buna
buncombe
bundesamt
bundesla
bunker
buns
bur
burbank
burdenge
bureau
buren
burg
burgauner
burgenlandkreis
burggrafenamt
burgh
burke
burleigh
burleson
burlington
burnech
burnet
burnham
burns
burnside
burnsville
burnt
burr
burt
burta
burton
busan
busc
bush
bushnell
business
bust
but
bute
butler
butte
butterfield
by
byron
bz
c
ca
caa
cabo
cache
caddo
cademia
caderas
cadore
caduff
cagliari
caguas
cai
caio
cairo
caje
caji
cajo
cal
calabria
calabro
calais
calaveras
calcasieu
caldwell
cale
caledonia
calende
calender
calfosch
calhoun
california
calighe
callaway
calonia
caltanissetta
calumet
calvados
calvert
calverton
calw
camathias
cambria
cambridge
cambridgeshire
camden
cameron
camino
camp
campania
campbell
campionac
campionat
campitello
campo
campobasso
campolongo
campus
camuy
can
cana
canaan
canada
canadian
canal
canavese
canazei
canch
canche
candido
candlewood
cane
caney
cannon
canon
cansla
cansles
cant
cantal
canton
canyon
canzun
canzuns
cap
cape
capela
capeles
capi
capital
capitala
capitan
capitela
capiteles
caplan
capo
cappella
car
cara
carater
carateristiches
carbon
carbondale
cari
caribich
caricatures
carl
carla
carleton
carlina
carlisle
carlo
carlos
carlton
carmel
carmen
carnot
caro
carolina
caroline
carrara
carroll
carrollton
carson
carter
carteret
carthage
carver
casa
casale
casanova
cascade
cascata
cascate
caserta
cason
caspar
casper
cass
cassa
cassano
casse
cassora
cassville
castel
castelberg
castelletto
castello
castelnau
castelnuovo
castiglione
castiglioni
castl
castle
castro
catalan
catalog
catalogh
catalogo
catania
catanzaro
catarina
catawba
categoria
cater
caterina
catinaccio
catolica
catores
catron
cattaraugus
caucas
cavalese
cavalier
cave
cayuga
caz
cazet
cbs
cd
ce
ceca
cecil
cedar
cedarville
cef
celiabinsk
celle
cen
cena
census
centenario
centene
center
centerville
central
centralia
centre
centreville
centro
century
cepe
cera
ceramica
cerf
cerreto
cerro
certa
certaldo
ces
cesa
cesare
cesena
ch
cha
chaffee
chain
cham
chambers
champagne
champaign
chandler
chanzuns
chapel
chapelle
char
charente
chargement
chariton
charles
charleston
charlevoix
charlotte
charlton
chase
chasper
chatham
chautauqua
che
cheder
chedri
chedul
chei
chel
chela
chelan
cheles
chelsea
chemun
chemunanza
chemung
chemuns
cheney
cher
chera
cherda
cherde
cherokee
cherry
cherta
chertes
ches
chesapeake
chesc
cheshire
chest
chesta
chester
chesterfield
chestes
chesto
cheu
chevy
cheyenne
chi
chia
chianzun
chicago
chiche
chickasaw
chico
chiena
chiesa
chieti
chillicothe
chilo
chilton
chimica
chimich
chimiches
chimney
china
chino
chio
chiocchetti
chippewa
chiri
chis
chisago
chisc
chitara
chittenden
chiusa
chizzali
cho
choctaw
chouteau
chow
chr
chrestomathie
chrisostomos
christ
christi
christian
christiauna
christina
christine
christoph
christophe
christopher
chsische
chstadt
church
churchill
ci
cia
ciacia
ciafa
ciafe
ciajea
ciala
ciale
cialova
cialt
ciamo
ciamp
ciampac
ciampana
ciampanes
ciampanil
ciampe
ciampedel
ciampine
ciampinoi
ciamps
cian
cianacei
ciancel
ciancia
ciandepine
ciandevaves
cians
cianta
ciantada
ciantarin
ciantarina
ciantarines
ciantarins
ciante
ciantia
cianties
cianton
ciantons
cianzon
ciapa
ciape
ciapel
ciara
ciare
ciarnace
ciasa
ciascian
ciases
ciaslat
ciastel
ciastiei
ciastlins
ciaulonch
ciaulong
ciaval
ciavaleis
ciavalier
ciavazes
ciavei
ciavuel
cibola
cie
ciechi
ciel
cielo
cil
cile
cilento
cima
cimarron
cime
cin
cina
cinch
cineja
cinesc
cinque
cinquetorri
cio
ciof
ciofes
cioura
cipri
cipro
cir
circle
circolo
cirillo
cisles
cite
cities
citrus
citta
city
ciu
ciuldi
civitella
ck
cke
cken
ckes
clackamas
claiborne
clair
claire
clallam
clara
clare
claremont
clarence
clarendon
clarion
clark
clarke
clarks
clarksburg
clarkston
clarksville
classa
classica
clatsop
claudia
clausthal
claustra
clay
clayton
cle
clear
clearfield
clearview
clearwater
cleburne
clermont
cleveland
cliff
clifford
clifton
climax
clinton
clio
cloppenburg
cloud
cloverdale
club
cluses
clyde
cm
cn
cnodla
co
coahoma
coal
cobb
coburg
coche
cochem
cochise
coconino
coda
code
codes
codesc
codifiche
codla
cody
coesfeld
coffee
coffey
coi
coira
col
cola
colbert
cold
coldwater
cole
coleghe
coleman
coles
colf
colfax
colfosch
colfosco
colle
college
colleselli
colleton
collier
collin
collins
collinsville
colombia
colonial
colony
color
colorado
colores
colp
colpa
colquitt
colspan
colton
columbia
columbiana
columbus
colusa
colz
com
comanche
comane
combate
combe
come
comfort
commedia
commerce
common
commons
community
como
comosa
compagnia
compare
comploi
comploj
comportame
comprises
compton
comstock
comte
comun
comunal
comunale
comunanza
comune
comunicazion
comunidad
comunita
comunite
comuniteies
comuns
con
concord
concordia
concuista
concuiste
concuistes
concurs
conde
condiziuns
condu
cone
conejos
conesc
conesce
conesciu
confin
confine
confins
congo
connecticut
conrad
conradin
conscidre
consei
consolidated
constantini
constituent
constitution
constitutional
consule
cont
conta
conte
contea
contejes
contenuc
contest
conties
continental
contra
contribut
contrin
control
conturines
converse
conway
cook
cooke
coolidge
cooper
cooperativa
coordinates
coordinedes
coos
coosa
copa
cope
copia
copies
copper
copy
cor
corai
coral
corda
cordova
corea
corespogn
corf
corinth
corn
corner
corners
corning
cornwall
corona
corp
corre
cors
corse
corsica
corso
corte
cortina
cortland
coru
corv
corvara
coryell
cos
cosci
cosenza
coser
coshocton
cosi
cossa
cosses
costa
costamula
costes
costituzion
costruzion
cotant
cottage
cotton
cottonwood
coulee
council
countries
country
county
cour
couronne
court
courthouse
courtland
cove
covington
coweta
cowley
cowlitz
cr
crab
craffonara
crafons
crafuns
craig
craighead
crane
craven
crawford
crawfordsville
cre
creato
crede
credo
creek
creml
cremona
crenshaw
crep
crepa
crepaz
crescent
cresciuda
crespe
crest
cresta
crestina
crestomazia
creston
crestview
crestwood
cretta
creusc
creuse
cri
crim
crimea
criminal
cripl
crisc
crist
cristallo
cristc
cristian
cristiana
cristianejim
cristians
cristina
cristl
cristoforo
critica
crittenden
croazia
croce
crockett
croda
crodes
crofton
croix
cromosoms
cromwell
cronica
crook
crooked
cropped
crosby
cross
crosse
crossing
crossroads
crotone
crousc
crow
crowley
crown
crucis
crusc
cruz
cruzia
crystal
cs
cu
cuantite
cuarta
cuarto
cuba
cuca
cuch
cuciarin
cudan
cudejel
cudesch
cudisch
cuecena
cuecenes
cueciun
cuer
cui
cuinta
cuinto
cuira
cul
culac
cule
culea
culezion
cullman
cult
cultura
cultural
culturala
culturale
culturali
culture
culturel
culturela
cultureles
cultures
culver
cum
cumbater
cumberland
cumbria
cume
cumerz
cumin
cumite
cumpanies
cumpe
cumpededa
cumpli
cumpra
cumpre
cumunita
cumuniteies
cun
cuna
cuncors
cundizions
cune
cuneo
cunesce
cunesciu
cunesciuda
cunesciudes
cunesciui
cunfin
cunfina
cunfins
cunfront
cunfrunte
cung
cunlaurade
cunliame
cunscidra
cunse
cunserva
cunt
cunta
cunte
cuntia
cuntine
cuntova
cuntra
cunve
cunzerc
cunzert
cuort
cuorta
cup
cur
cura
curac
curat
curate
curazia
curi
curida
curona
curry
curs
cursc
curt
curtina
curu
curveies
cushing
cusio
custer
cuxhaven
cuyahoga
cy
cypress
cyprian
cyprus
cyr
czech
d
da
dac
dachau
dad
dade
dagnora
dahme
dai
daide
dailo
dainora
dajan
dajova
dajovel
dakota
dal
dala
daldo
dale
dales
dalg
dall
dalla
dallas
dalle
dalonc
dals
dalton
dalunc
dam
damana
damanda
damane
damascus
dame
dames
dampro
dan
dana
danbury
danby
danca
dane
daniel
danimarca
dann
dannenberg
danora
dant
dantado
dantadut
dantaldut
dante
danter
danterce
dantersasc
dantone
danube
danville
dapo
dapoz
dapunt
dar
dara
dare
darien
darke
darlington
darmstadt
das
dasse
dassen
dat
data
databasecomuni
date
datei
dates
datetime
datrai
datum
dau
daujin
daune
dauni
dauphin
davart
davenport
davent
davia
david
davidson
davie
daviess
davis
davo
dawson
day
dayton
dazu
dc
de
deache
deal
dean
dearborn
deberieda
debits
debota
debuje
decamerone
decatur
december
declara
declarajm
declare
decurtins
dedica
dediche
dedicheda
dedite
dedo
dedora
deep
deer
deerfield
defata
defendura
defiance
defin
defini
definition
definizion
definiziun
defora
defre
degan
degasper
degasperf
deggendorf
degli
degu
degugn
degun
deguna
dei
dein
deis
dekalb
del
dela
delago
deland
delavan
delaware
delhi
dell
della
dellas
delle
dello
dels
delta
dem
deme
demenegog
demetz
demez
demo
democratica
democrazia
den
denali
denant
denham
denis
denmark
dennis
denominazion
densita
dent
denton
denver
departime
department
depe
depenc
depenjade
depent
deperpo
deplazes
deplu
depuent
der
derby
derbyshire
derc
derjon
dertura
dertureda
deru
des
desalla
desc
descende
desche
deschutes
descrizion
descrizionfascia
descuri
descurida
descurides
desdru
dese
desert
desfare
desfarenzie
desfata
desfere
desferenzie
desfre
desgrazia
desha
desmostra
desoto
desparti
desproch
dess
desse
dessegur
dessenia
desseniade
dessenie
dessot
destaca
destache
destanza
destatis
deste
destenduda
destin
destira
desvalies
desvalis
desvalives
detail
detlara
detlare
detroit
deu
deuel
deus
deutsch
deutsche
deutschen
deutscher
deutschland
deux
deve
development
deventa
devente
deventeda
deventei
devers
deverti
devon
dewey
dewitt
dexter
deze
dezember
dezijion
dharz
di
dia
dialec
dialekte
dialet
dialetto
dialogo
diameter
diamond
diare
dibona
dickens
dickinson
dickson
dictionary
didancuei
didier
die
dieburg
diego
diepholz
diesc
dietrich
dieu
digl
dij
dijon
dijova
dijun
dik
dil
dilf
dill
dillingen
dillingham
dillon
dils
dimenjiuns
dinastia
dingolfing
dinsta
dinvie
dinviern
dio
dipartime
dir
diretame
direte
direzion
dis
disc
disch
disciplina
disciplines
discuscion
dispruch
distanza
district
dit
dita
ditatura
dite
dithmarschen
ditt
diu
divina
divinite
dix
dixie
dixon
dizionario
dl
dla
dlace
dlacia
dles
dliche
dlieja
dliejes
dlijia
dlijies
dlonch
dlongia
dls
dlungia
dna
dner
do
doa
dobbiaco
doc
doche
docume
documenc
document
documenta
documentazion
documente
documenteda
dodesc
dodge
dodson
does
doi
dolasila
dolomit
dolomitan
dolomiten
dolomitenladiner
dolomites
dolomiti
dom
domain
doman
dome
domenico
dominicus
dominik
dominium
don
dona
donau
donca
doniphan
donna
donnersbergkreis
door
dopo
dopro
dora
dorado
dorchester
dordogne
dorigo
dorives
dorset
dos
doss
dosses
dotour
doubs
douglas
dover
dovia
down
downs
downsville
dr
dragon
dragons
dragun
drap
drava
drayton
dre
drei
dresden
dret
drew
drexel
dro
droc
droch
drucklegung
drusus
dry
dt
dteregion
dtirol
dtiroler
dtirols
du
duas
dublin
dubois
dubuque
duc
ducat
duchesne
dudley
due
dui
duleda
duman
dumanda
dumat
dume
dumont
dun
duna
dunbar
duncan
dundee
dunes
dunkirk
dunklin
dunlap
dunn
duos
dupage
duplin
dupont
dura
durch
durham
durich
dut
duta
dutaorela
dutc
dute
dutes
duto
dutor
duval
dwestpfalz
dwight
dyer
e
ea
eagle
ean
earl
early
earth
east
eastern
eastland
easton
eaton
eau
ebe
ebersbach
ebersberg
ebes
ebraich
echo
eckernfo
economia
economic
economica
economich
ed
edberte
eddy
eddyville
edelkastanie
eden
eder
edgar
edge
edgefield
edgemont
edgerton
edgewater
edgewood
edinburg
edison
edith
edition
edizion
edmund
edna
eduard
educazion
educaziun
edward
edwards
edwardsville
effingham
ega
eghes
egit
egn
egon
egordin
eguia
egypt
eh
ehemals
ei
eichsfeld
eichsta
eifelkreis
ein
einaudi
eine
einem
einer
eines
einheimischen
einleitung
eir
eira
eis
eisacktal
eisem
ej
ejam
ejaude
eje
ejim
el
ela
elba
elbe
elbert
elberta
elder
eldorado
eleme
element
elementera
elementeres
elena
eles
elfriede
elgin
elia
elisabeta
elisabeth
elizabeth
elizabethtown
elk
elkhart
elkins
elko
elkton
ell
ella
ellecosta
elliott
ellis
ellsworth
elm
elmer
elmira
elmo
elmore
elmwood
elpes
els
elsa
elster
elwood
emanuel
emerald
emerson
emery
emil
emilia
emilio
emma
emmendingen
emmet
empermo
empire
empo
emsland
en
ena
ence
enceben
enchin
enciclopedia
enciclopedie
encuei
encyclopedia
encyclopædia
end
endere
endo
enfin
enfinamai
engelbert
engelhard
engiadin
engiadina
engl
england
englewood
english
enlaouta
enna
enneberg
ennepe
enrescida
ensci
ensemble
enstes
ent
ente
enten
enterprise
entities
entourn
entratant
entreda
enzkreis
enzo
eores
epica
epl
epoca
equus
er
era
erba
erding
erft
ergobando
erica
erich
erie
erika
erlacher
erlangen
ermes
ernest
ernesto
ernst
error
errore
ert
erwin
erza
erzgeb
erzgebirgskreis
es
escambia
esperienzes
esprescion
ess
essa
essen
esser
essex
esslingen
essonne
est
estadi
estate
estates
ester
estetica
estimates
estonia
et
eta
etc
ete
eterna
eth
etna
etnica
etowah
ettore
eu
eucarioc
eugen
eure
eureka
euro
europa
europe
europea
european
europeica
europeich
europeics
euskirchen
eva
evangelista
evans
evansville
eve
everett
evergreen
evoluziun
ewa
ewd
ewing
ex
except
excludes
exeter
ey
eye
ez
f
fa
fabrica
fabricat
fabriche
fabricheda
fac
face
factbook
facto
fadia
fadri
fai
faig
fair
fairbanks
fairfax
fairfield
fairmont
fairmount
fairview
fajan
fajo
fajova
fal
falcon
fall
fallon
falls
falmouth
faloria
falzarego
fam
familia
familienforschung
families
fan
fancela
fanes
fannin
fant
fantasia
far
fargo
faribault
farina
farley
farm
farmersville
farmingdale
farmington
farms
farnham
farwell
fas
fasa
fascegn
fascia
fascian
fascism
fascista
fases
fassa
fassatal
fat
fata
fate
fates
fato
fatt
fatta
faulk
faulkner
fauquier
faure
fayette
fayetteville
fe
february
fedaa
fedaia
fede
fedei
fedele
federal
federation
federazion
federei
federel
federela
fedom
fedon
fei
feides
fej
fekarte
felice
felix
felizita
felton
femena
fen
feni
fenomenns
fenomens
fenton
fenwick
fer
ferata
ferates
ferdinand
ferdinandeum
ferdinando
fergus
ferle
ferme
fermeda
fermedes
fermo
fern
ferndale
ferrara
ferrata
ferrie
ferrovia
ferry
ferte
fertuna
fes
fesc
fesl
festa
festes
festival
feter
fever
fi
fia
fiamac
fiames
fichier
fichtelgebirge
fidel
fie
field
fields
fiem
fiemme
fier
fiera
fig
figliol
figo
figura
figures
fil
filg
filip
fill
fillmore
film
films
filomena
filosof
filosofia
fin
fina
fine
fineda
fini
finiste
finlandia
finley
fins
fio
fions
fire
firenze
firma
firmiliano
first
fis
fischburg
fish
fisher
fisi
fisica
five
fl
fla
flagler
flam
flat
flathead
flats
fle
flem
fleming
flemington
flensburg
flickr
flint
flo
flora
floral
flore
florence
flori
florian
florida
florin
flower
floyd
flu
flugi
flur
flurin
flus
fo
fod
fodom
fodoms
foggia
fol
folio
folsom
fond
fondamentales
fondazion
fonde
font
fontaine
fontana
fonte
fontenay
fonz
foothills
fopa
for
fora
forca
force
forcella
forces
forchheim
ford
fore
foreign
forest
forestville
forge
forges
fork
forks
forli
forma
format
formatdate
formazion
formaziun
forme
formes
formin
forn
forni
forrest
forst
forsyth
fort
fortuna
forza
forzes
fos
fosa
fosc
fosch
foscia
foss
fossa
fosse
fossel
fosses
foster
foto
fotograf
fotografia
fotos
fountain
four
fova
fovel
fovela
fowler
fox
foy
fra
frabica
frabicat
frabiche
frabicheda
francavilla
france
francesch
francesco
franche
franchetti
francis
francisco
francisville
franco
francois
frank
frankenberg
frankfort
frankfurt
franklin
franz
franze
franzeisc
franzeja
franzia
franzl
franzous
frara
fraser
frazion
frazions
fre
frea
frederick
fredericksburg
fredesc
fredonia
free
freeborn
freedom
freeport
freiburg
freie
freinademetz
freising
freit
fremont
frena
french
frenes
frequenza
fresch
fresco
fresno
freudenstadt
freyung
frida
friedberg
friedrich
friendship
friesland
frisco
fritz
friul
friuli
from
front
frontull
frosinone
fru
fruitland
fs
fu
fuech
fulda
fulestier
fullerton
fulton
fume
fundade
fundame
fundamentel
fundamentela
fundamenteles
fundazion
fundeda
funes
funs
funtana
funtanes
funtaunas
funz
funzion
funzions
fuorma
furcela
furche
furdenan
furlan
furlana
furma
furmazion
furmescere
furnadoia
furnadoies
fussel
fusties
g
ga
gabriel
gabriele
gad
gadertal
gadsden
gage
gainesville
galaria
galena
gales
galesburg
galilei
galileo
galizia
gallatin
galleria
gallerie
gallia
galt
galveston
gana
ganes
gap
garat
gard
garda
gardecia
garden
gardena
gardenera
gardens
gardner
garejeda
garejedes
garfield
garland
garmisch
garner
garonne
garrett
garrison
gartner
garvin
gary
gas
gasconade
gasperi
gasser
gaston
gate
gates
gateway
gau
gauja
gaujes
gaujiun
gausiung
gay
gazela
gazella
ge
geauga
gebru
geisler
gejia
geju
gem
gema
gemeinden
gemeindeverzeichnis
gen
gene
general
generazion
generazions
genere
generel
generela
genesee
genetica
geneva
genevieve
genevra
genoa
genofefa
genova
gentry
genus
geografia
geographic
georg
george
georges
georgetown
georgia
ger
gerau
germain
german
germania
germanica
germaniches
germantown
germany
germersheim
gers
gervais
geschichte
geschlecht
gespra
ghedina
ghent
gherde
gherdeina
ghetto
ghetun
ghiranzes
gi
giac
giachen
giacia
giacobe
giacomo
gial
giames
gian
giapa
giape
giat
giata
giate
giau
giauri
giaurida
gibraltar
gibson
gie
gieri
gießen
gifford
gifhorn
gila
gilbert
giles
gilman
gilo
gio
gion
giorgio
giornata
giosef
giovan
giovannes
giovanni
girard
girardeau
gironde
gisela
giu
giuana
giuani
giulan
giulia
giuliani
giuseppe
giusta
giustizia
giut
giuvani
gl
glacier
glade
gladstone
glance
glasgow
glen
glencoe
glendale
glenn
glens
glenview
glenville
glenwood
gli
gliejia
glise
globalmodules
gloria
gloucester
gloucestershire
glu
gn
gna
gnanca
gnara
gnel
gni
gnir
gno
gns
gnu
gnuda
go
goder
goethe
gogebic
gold
golden
golf
golo
gonot
gonzales
good
goodhue
goose
gordo
gordon
gorizia
goshen
goslar
gotha
gotich
gottfried
gov
govern
governe
government
gra
grabfeld
grace
grady
grafenau
graffonara
grafia
grafschaft
grafton
gragn
graham
gralba
gramatica
gran
grana
granada
granc
grand
granda
grande
grandview
grange
granger
granite
grant
granville
grappa
grass
gratiot
gratulazion
graves
gray
grays
grayson
grazia
grd
gre
great
greater
greca
grech
grecia
grecs
gredner
greeley
green
greenbrier
greene
greenfield
greensboro
greensburg
greenup
greenville
greenwich
greenwood
gregg
gregor
gregorian
gregorio
gregory
greifswald
greiz
grenada
gresham
gretel
gretl
gretna
griale
grien
gries
grijon
grijons
grimes
gro
grof
grofes
grofs
grohmann
grond
grop
grosse
grosseto
grossrubatscher
ground
group
grove
groveland
grover
groves
groß
große
gru
gruber
grum
grund
grundy
grup
grupa
grupes
gruppo
grups
gruyter
gu
gua
guadalupe
guant
gudon
gue
guernsey
guerra
guide
guido
guilford
guinea
gulf
gunnison
gunzenhausen
gusela
gustav
gustin
guthrie
guttenberg
guviern
gwinnett
gymnasiums
h
ha
haag
habsburg
hai
haines
hainich
hale
halfway
halifax
hall
haller
hallerjth
halton
hamburg
hameln
hamilton
hamlet
hamlin
hammond
hampden
hampshire
hampton
han
hancock
hand
hanley
hanna
hannover
hanover
hans
hanson
happy
harbor
harbour
harburg
hardee
hardeman
hardin
harding
hardwick
hardy
harford
harlan
harlem
harmony
harnett
harper
harrington
harris
harrisburg
harrison
harrisville
hart
hartford
hartland
hartley
hartsville
harvey
harwich
harwood
harz
has
haskell
hast
hastings
hatfield
hatley
hatton
haun
haut
haute
hautes
hauts
havana
have
havel
havelland
haven
haverhill
havre
hawaii
hawaiian
hawk
hawkins
hawthorne
hayden
hayes
hayesville
hays
hayti
hayward
haywood
hazel
hazleton
haßberge
hc
he
head
heart
heath
heber
hebron
heft
heide
heidekreis
heidelberg
heidenheim
heidi
heights
heilbronn
heiligkreuzkirche
heindl
heinrich
heinsberg
helena
hellrigl
helmstedt
helmuth
help
hemingway
hemlock
hempstead
hen
henderson
hendricks
hendry
hennepin
henrico
henrietta
henry
herbert
herefordshire
herford
heritage
herkimer
hermann
hermitage
hernando
herrn
hersfeld
hertford
hertfordshire
herwig
herzberg
herzegovina
herzogtum
hesse
hessen
hewitt
hewlett
hi
hickman
hickory
hidalgo
hidden
hie
high
highland
highlands
hilaire
hildburghausen
hildesheim
hilfe
hill
hillcrest
hills
hillsboro
hillsborough
hillsdale
hillside
hilltop
hilton
hindi
hinds
hinton
historgia
historia
historisches
history
hitchcock
hitler
hl
hlbach
hldorf
hlen
hler
hlung
hlungen
ho
hobart
hochsauerlandkreis
hochschwarzwald
hochtaunuskreis
hockey
hocking
hockley
hof
hofer
hoffman
hohenlohekreis
holbrook
holcomb
holden
holiday
holland
hollister
hollow
holly
hollywood
holme
holmes
holnaider
holstein
holt
holton
holzknecht
holzland
holzminden
home
homeland
homer
homestead
homewood
homme
homo
honduras
honolulu
hood
hook
hoonah
hooper
hope
hopewell
hopkins
horn
horry
horse
horseshoe
horton
hosianna
hot
hotel
hotiei
houghton
house
houston
howard
howe
howell
however
hoz
hren
hrer
hrigen
hrsg
html
http
https
hu
hubbard
hudson
hughes
hugo
hull
humacao
human
humboldt
humphreys
hungary
hunsru
hunt
hunter
hunterdon
huntingdon
huntington
huntsville
huossa
hurley
huron
hutc
hutton
hyde
hyder
i
ia
iachiam
iaco
iacun
iade
iadesc
ial
ianesc
ianon
iapan
iapanesc
iaroslavl
iau
iberia
iberville
ic
ich
ida
idaho
iddie
ide
idea
ideal
idees
identita
idia
idie
idiom
idioms
idrogen
idrografica
idrografich
idua
idum
ie
iede
iedesc
iel
iela
iender
ierusalem
ies
iesu
if
iga
igher
igheri
igl
ihre
ii
iii
ij
ija
ijula
ijules
il
ila
ildefons
iles
ilg
ille
illinois
ilm
ilo
ils
iluminism
im
iman
img
imgp
imparadu
impare
imper
imperia
imperial
impormetu
impormo
importanc
important
importantes
in
ina
inacre
inant
inc
inca
ince
includes
inco
incorporated
independence
index
india
indian
indiana
indianapolis
indianola
indicato
indicators
indice
indo
indre
industria
industry
ine
ines
inferiore
influs
information
ingalls
ingham
inghiltera
ingio
inglese
ingrid
inhalt
inlandflu
inlet
inman
inn
innen
innsbruck
ino
inom
inovazion
inovazions
inrescida
ins
insam
inscio
insediame
insee
insom
inson
insta
inste
institute
instituto
insuda
insulin
intan
inte
intelligence
intende
interlaken
intern
international
internet
intratan
inuem
inuemes
invern
inverness
inverno
invie
inviern
inwood
inyo
inze
io
iocl
iola
ion
ione
ionia
iori
iou
iowa
ir
ira
iran
ire
iredell
ireland
irkutsk
irlanda
iron
irondale
ironton
iroquois
irpino
irsara
irvington
irwin
is
isa
isabel
isabella
isar
isarch
isbn
isc
ischi
ise
isernia
islam
islamica
island
islands
isle
islip
iso
isola
isolde
isonzo
israel
ist
istat
iste
istitut
istituto
istituzion
istituzions
istoric
isules
it
ita
italia
italiana
italiani
italiano
italy
itasca
ite
ithaca
its
iu
iuchin
iudaism
iupiter
iust
iv
ivan
ivanhoe
ivanovo
ivuere
ix
izard
ize
j
ja
jacinto
jackson
jacksonville
jacob
jacobus
jahn
jahre
jahrgang
jahrhundert
jahrhunderts
jakob
james
jamestown
jan
jane
janesville
janmati
janmatie
janon
january
jape
jasper
jau
jay
je
jean
jeff
jefferson
jeffersonville
jeghes
jena
jene
jenn
jennings
jent
jepele
jerichower
jerome
jersey
jes
jesus
jeta
jeu
jeuf
jevun
jewell
jewett
ji
jic
jim
jir
jit
jita
jiva
jo
joaquin
johann
johanna
johannes
john
johns
johnson
johnston
johnstown
jon
jones
jonesboro
jonesville
jonn
jonta
jordan
jose
josef
josefine
joseph
josephine
jou
jouf
journal
jouy
jpeg
jpg
ju
juac
juan
juana
juaut
jubila
juda
jude
judith
juebia
juech
juesc
juga
jugade
jugn
juli
julian
julien
july
jumbie
jumbierch
jump
jun
junction
june
juneau
juni
juniata
juniores
junta
jupiter
jura
jurmana
jurnalist
jus
just
justice
justizia
juventus
k
ka
kaiserslautern
kalamazoo
kale
kanawha
kandiyohi
kane
kankakee
kannada
kansas
kapelle
kapitel
karin
karl
karlheinz
karlsruhe
kasan
kaslatter
kassel
kasslatter
kastelruth
kategorie
katharina
kauai
kaufman
kay
kb
ke
kearney
keene
keim
keith
kelder
kelheim
keller
kelly
kemerovo
kenai
kendall
kenilworth
kennedy
kenosha
kensington
kent
kenton
kentucky
kenwood
keokuk
kern
kershaw
keswick
key
keystone
kg
ki
kickapoo
kidder
kimball
kimberly
king
kingdom
kingman
kings
kingsbury
kingsley
kingston
kingsville
kinzig
kiowa
kirby
kirche
kirchen
kirk
kirkby
kirkwood
kirtland
kissingen
kit
kitsap
kittitas
kittson
kitzingen
klamath
klaus
klausen
klein
kleine
kleve
klickitat
kloster
km
knob
knoll
knolls
known
knox
knoxville
ko
koblenz
kodiak
koeln
kohlhaupt
kol
komitee
kong
konrad
konstantin
konstanz
kootenai
kosciusko
kossuth
kostner
kostroma
koyukuk
krai
kraj
krasnodar
krasnoiarsk
kreis
kreuz
kreuznach
krippenschnitzkunst
kro
kronach
ku
kuban
kulmbach
kultur
kunst
kunstausstellung
kunstdenkma
kusel
kusilvak
kyffha
kœ
kɐ
l
la
labette
lac
lach
lackawanna
laclede
lacs
ladin
ladina
ladinas
ladine
ladiner
ladines
ladini
ladinia
ladinien
ladiniens
ladinische
ladinischen
ladino
ladins
laender
lafayette
lafourche
lagazuoi
lago
lagoon
lagrange
laguna
lahn
laion
laite
lajas
lajen
lake
lakeland
lakeport
lakes
lakeside
lakeview
lakeville
lakewood
lakota
lama
lamar
lambert
lamont
lamoure
lan
lana
lancashire
lancaster
land
landau
lande
landes
landesamt
landeskreis
landesmuseum
landing
landkreis
landry
landsberg
landshut
lane
langdon
langer
langford
langkofel
langley
langton
language
languages
lansdowne
lansel
lansing
lanz
laora
laore
laour
laours
lapeer
laporte
lapro
lara
laramie
larciune
lardschneider
largest
larghe
largo
larimer
lario
larjac
las
lasalle
lasce
lascia
lassen
lasties
lat
latah
latemar
latham
latimer
latin
latina
lauderdale
lauenburg
laur
laura
lauranc
laure
laurel
laurens
laurent
laurova
laurs
lausitz
lautbezeichnung
lava
lavaca
lavaredo
lavarela
law
lawn
lawrence
lawrenceville
lawson
layton
lazio
lba
lbs
ld
ldegalerie
le
lea
leake
leander
leavenworth
lebanon
leben
lec
lecce
lecco
lech
lecort
lecurdanza
lecurdanzes
lecurde
lecurdon
lecurdons
lee
leeds
leelanau
leer
leesburg
lege
leges
legn
legna
legno
legre
lehigh
leicestershire
leiden
leigh
leipzig
leisure
leland
lemon
lena
lenawee
lene
lenert
lengaz
leningrad
lenoir
lenox
leo
leon
leonard
leonardo
leopardi
leopold
lepro
ler
lerch
leresc
lergia
lerner
lernri
lersc
les
leslie
lessu
lester
let
letcher
leterar
leterato
leteratura
leteratures
leterera
letereres
letonia
leu
leur
level
levisc
levy
lewis
lewisburg
lewiston
lewistown
lewisville
lexicon
lexikon
lexington
lez
lezuo
lg
li
lia
liber
liberta
liberty
libra
libri
lichtenfels
lichtmess
lick
licking
lie
lied
lieda
liedia
liej
lieje
liejenda
liejendes
liejer
lienz
lies
lietres
liever
life
lift
light
ligia
ligre
ligure
liguria
lije
lillehammer
lima
limburg
lime
limestone
lin
lina
linacia
linard
lincoln
lincolnshire
linda
lindau
linden
lindsay
line
linea
linert
ling
lingac
lingaz
lingia
lingua
linguist
linguistica
linguistich
linguistiche
linguistiches
linguistics
linia
linies
link
linn
linton
linwood
linz
lion
lippe
lipscomb
lirica
lisa
lisabeta
lisbon
liseo
list
lista
lit
lita
litanies
litchfield
literatur
literatura
literaturschaffen
litteratura
little
littleton
lituania
live
livel
liverpool
livinallongo
livingston
livonia
livorno
lize
lizeo
lizia
lkerung
ll
lla
llano
ller
lln
lloyd
lo
loa
locai
local
locala
locales
locatelli
loch
locia
lockhart
lockport
locust
lode
lodemasciza
lodge
lodi
loga
logan
loi
loir
loire
loiret
lois
loma
lomas
lombardia
lomellina
lominus
lonc
lonch
london
lone
long
longes
longia
longo
longview
lonoke
lookout
loomis
loop
lorain
lore
lorenzi
lorenzo
lores
loretto
lors
los
lost
lot
lou
loudon
loudoun
louf
louis
louisa
louisburg
louisiana
louisville
loup
lourdes
love
low
lowell
lower
lowndes
loze
ls
lss
lu
lubbock
luca
lucas
lucca
luce
lucerne
luci
lucia
luciana
lucie
lucio
ludlow
ludwig
ludwigsburg
ludwigslust
luech
luesa
luesc
lugio
luigi
luis
luisa
lujanta
lum
lumbardia
lumberton
luna
lunch
lunghe
lungiaru
lunz
lur
lura
luray
lus
lusenberg
luther
luxemburg
luzerne
lva
lven
lycoming
lyman
lynchburg
lyndon
lynn
lynnville
lyon
lyons
lz
m
ma
macedonia
macerata
machine
maciaconi
macomb
macon
macoupin
madalena
maddalena
made
madera
madison
madisonville
madona
madonna
madrid
maester
maestra
maestri
maestro
magdalena
maggiore
magliano
magna
magnifica
magnolia
mahaska
mahlknecht
mahnomen
mahoning
mai
maidl
maie
main
maine
maint
mainz
maioranza
mair
maiu
maius
majer
majera
majeri
majon
majoni
major
mal
malade
malan
malatia
malden
maler
malheur
malia
malo
malsiner
malta
malvern
mamifer
mamifers
mammoth
mammut
man
mana
manageriacomunal
manassas
manatee
manche
manchester
mancia
manco
manda
mandl
mandli
manduchiei
mane
manfred
manga
mange
mangia
manhattan
maniera
manifestazions
manira
manistee
manitou
manitowoc
manor
manoscrit
mans
mansfeld
mansfield
manteni
mantua
manuel
manuscrit
map
maple
mapleton
maplewood
mar
mara
marais
maran
marano
marathon
marble
marburg
marc
marcade
marcatore
marcel
march
marche
marcia
marcion
marco
mare
marebbe
marengo
mareo
marevegna
margaret
margareth
margherita
maria
mariana
marianna
maricopa
marida
maride
marideda
marie
mariele
marietta
marin
marina
marine
marinette
maring
marino
mario
marion
mariposa
maritime
maritimes
mark
market
markham
marks
markt
markus
marlboro
marmolada
marmolata
marmoleda
marne
maro
marou
marquette
mars
marsh
marshall
marshfield
marston
marta
martell
martin
martiner
martinez
martini
martino
martinsburg
martinsville
marton
marueia
marueies
marusa
marx
mary
maryland
marys
marysville
mason
masra
massa
massachusetts
massapequa
massimiliano
massimo
mastle
mat
matagorda
matanuska
matematica
mateo
matera
materia
materiai
material
mathews
mathias
mathis
mati
matia
matie
matilde
matrikel
matt
matthews
matthias
matura
maui
maun
maurice
mauriz
maurizio
mauro
maurus
mauta
maverick
max
maxwell
may
maya
mayen
mayenne
mayes
mayfield
maysville
mayville
maywood
maza
maze
mazin
mazzel
mazzin
mb
mber
mbol
mbri
mcclain
mccook
mccormick
mccurtain
mcdonald
mcdonough
mcdowell
mcgregor
mchenry
mcintosh
mckean
mckenzie
mckinley
mclean
mclennan
mcleod
mcnairy
mcpherson
mdr
me
mead
meade
meadow
meadowbrook
meadows
mecca
mechanicsburg
mechanicsville
mecklenburg
mecklenburgische
mecosta
medejina
medel
medem
medema
medemmo
medemo
medford
media
medical
medicine
medievala
medieve
medina
medio
mediteran
mediterran
meeker
mei
meigs
mein
meiningen
meis
meisc
meister
meißen
meißner
mej
mejes
mel
melbourne
melchiore
melrose
melvin
member
memoria
memphis
men
mena
menard
menardi
mendocino
mendon
mendota
mendranza
mendranzes
mene
meneda
meneguto
menlo
menominee
mentor
menza
mer
merced
mercer
merch
mere
meridian
merit
merrick
merrill
merrimack
merritt
mersa
merseyside
merz
merzig
mes
mesa
mesana
mesc
mesdi
mesnil
mesopotamia
mesquite
mess
messa
messe
messel
messer
messina
messova
messu
mesun
mesura
met
meta
metamora
metan
mete
meter
meto
metoda
metova
metri
metro
metropolis
metropolitan
metropolitana
mettmann
metu
metuda
metudes
metui
metz
meurthe
meuse
mexico
mez
mezdi
mezzo
mh
mhz
mi
mia
miami
michael
michel
michele
michiel
michigan
micura
middle
middleburg
middlesex
middleton
middletown
midland
midlands
midlothian
midway
midyear
mie
miec
miesbach
mieu
mifflin
miguel
milam
milan
milanese
milano
mile
milesc
milford
mili
milia
miliarc
milions
militer
miliuns
mill
millard
millbrook
mille
milledgeville
miller
millersburg
millerton
milli
millington
mills
milltown
millville
miltenberg
milton
milwaukee
mina
minca
minden
mine
mineral
mines
ming
mingo
ministry
minneapolis
minnehaha
minnesota
minor
minoranze
minority
minova
mio
mira
miribung
mis
mischi
misericordia
mission
mississippi
missoula
missouri
mister
mit
mitchell
mitchellville
mitologia
mittelmark
mittelsachsen
mitterer
mitterrutzner
mituns
miu
miure
mix
mj
mm
mme
mmerda
mo
moar
mobile
moca
moda
model
modena
modern
moderna
modernes
modiei
modoc
modulo
moe
moena
mohave
mohawk
moidl
moimento
moines
moldavia
moler
moleri
moline
moling
molise
moltina
molto
monarchia
monastero
monc
mond
mondiala
mondiei
mondo
mondovi
mone
monferrato
mongol
mongolia
monika
monkton
monmouth
monn
mono
monona
monongalia
monroe
monroeville
monrovia
mons
mont
montagna
montagne
montague
montana
montcalm
montclair
monte
montebello
montello
monterey
montes
montezuma
montfort
montgomery
monti
monticello
montigny
montpelier
montreal
montreuil
montrose
monume
monument
monumento
monza
moody
moon
moor
moore
mooresville
moors
moose
mora
morbihan
morc
more
moreton
morgan
morgantown
morin
moritz
morlang
morley
moro
moroder
morona
morris
morrison
morristown
morrisville
morrow
mort
morta
morton
morve
moscau
moscow
mosel
moselle
mosena
moss
most
moster
mostra
mostres
motta
motte
moulton
moultrie
mound
mounds
mount
mountain
mountains
movime
moviment
mower
mp
mpara
mpare
mpe
mpede
mper
mpes
mpl
mpla
mpli
mpo
mps
mpue
mpurtanc
mpurtant
mpurtanta
mpurtantes
mpurtanza
ms
mt
mu
much
muda
mudame
mudazions
mude
mudele
muef
mueia
muessa
muhlenberg
mujiga
mul
mulberry
mulin
mulins
multnomah
mume
mumma
mund
mundart
mundiei
mundiel
mundiela
municipalities
muniga
munighes
munt
muntagnola
muntagnoles
muntanioles
muntes
muntijela
munts
muond
muoth
mur
murcia
mureda
mures
murfre
murfreit
murphy
murr
murray
murs
mus
musa
muscatine
musciat
musciatsalin
museo
museum
musical
musicala
musicales
musicologia
musiga
muskegon
muskingum
muskogee
musner
musselshell
mussner
muste
mustra
mustre
musulmans
mut
muta
mutans
mutons
muvime
my
myers
myrtle
mystic
mz
n
na
nach
nachtrag
nacional
nacogdoches
nade
nadel
nadia
name
names
nancy
nantes
nanticoke
napa
naples
napoleon
napoli
nas
nasa
nasc
nasciu
nasciuda
nash
nashua
nashville
nassau
natchitoches
national
nationalsozialismus
nations
nato
natrona
natura
naturai
natural
naturale
naturales
naturei
naturel
natureles
naturkunde
naturmuseum
naturpark
natz
nau
navajo
navarre
navarro
nay
nazion
nazional
nazionale
nazions
nazism
nazista
nc
nce
nchen
nchin
nchina
nchinamei
ncia
ncisles
ncont
ncuei
nd
nda
nde
ndebo
nden
nder
ndes
ndner
ndra
ndre
ndri
ndurade
ndut
ne
nebraska
neburg
neck
neckar
nederland
nei
neif
neigra
neiße
nel
nell
nella
nelle
nelson
nemaha
nemisc
nen
neolatins
neolitich
neosho
nepot
neptune
ner
nes
ness
nessun
net
nether
netherlands
netun
neu
neuburg
neue
neuf
neuilly
neukirchen
neumarkt
neunkirchen
neuss
neustadt
neustift
neuville
neuwied
neva
nevada
nevel
nevela
new
newark
newberry
newburg
newcastle
newell
newington
newport
news
newton
newtown
next
nfin
ng
ngen
nghe
nghiltiera
ngle
ngrandida
ngrum
ni
nia
niagara
nianca
nica
nicholas
nichols
nicholson
nicht
nicola
nicolai
nicolas
nicolaus
nicolo
nie
niederfrieniger
niedersachsen
niel
nienburg
nience
nies
night
nijni
nikolaus
nil
niles
nis
nives
nixon
nizza
njer
nn
nna
no
noass
noassa
nobel
noble
nobles
nobli
nocker
nodaway
noe
nogent
nom
nome
nomina
nomine
non
nona
nora
norbert
nord
nordfriesland
nordhausen
nordrhein
nordsachsen
nordtirol
nordwestmecklenburg
norfolk
normal
normalme
norman
normandia
normandy
normanton
normes
norris
norte
north
northampton
northamptonshire
northeast
northeim
northern
northfield
northport
northumberland
northwest
northwood
norton
norvegia
norwalk
norway
norwich
norwood
nos
nosc
noss
nossa
nost
nosta
nostra
not
note
notes
notre
nottinghamshire
nouvelle
nova
novara
nove
novela
novella
november
novgorod
novosibirsk
now
nowata
noza
nozes
nr
nrescida
nrescides
nridlame
ns
nsa
nsc
nsci
nscila
nsenia
nseniame
nsenianc
nseniant
nsenianta
nsenie
nste
nster
nstler
nstlerbund
nt
nta
ntan
ntant
nte
ntende
nter
nternaziunel
nternaziunela
ntervista
ntes
ntle
ntraunides
nu
nucleoid
nucleus
nudre
nueces
nuef
nuet
nueva
nueves
num
number
numer
numeri
numina
numineda
nun
nuoro
nuovo
nus
nutizies
nuve
nuvolau
nyack
nz
nza
nzburg
nzes
nzia
o
oak
oakdale
oakhurst
oakland
oakley
oaks
oakville
oakwood
oasis
ob
oberallga
oberbacher
oberbergischer
oberhavel
oberlin
oberpfalz
oberspreewald
obietif
obion
obispo
oblast
obletter
ocajion
occitan
occitania
ocean
oceana
oceania
oclc
oconee
oconto
october
ode
odenwald
odenwaldkreis
oder
oderland
odessa
odla
odle
odles
odlina
odu
odun
oecd
of
offenbach
offenburg
office
official
officially
ofizial
ofizialmenter
ogden
oglala
ogle
oglethorpe
oglio
ogni
oh
ohio
oies
oise
ojo
okaloosa
okanogan
okfuskee
oklahoma
okmulgee
okrug
oktober
ola
olach
olache
olanda
olandesc
olaneres
old
oldenburg
oldham
oldwikisource
ole
olimpiades
olimpics
olive
oliver
olivet
olivia
olma
olmsted
olney
olp
olpe
olympia
om
oma
omaha
omi
on
ona
one
oneida
online
only
onondaga
onor
ons
onslow
ontario
ontonagon
onur
open
opera
operes
opra
opres
opzions
or
ora
oradeca
orala
oramai
orange
orangeburg
orangeville
orar
oratiun
orchard
orco
orcoiocl
ord
orde
orden
ordin
ore
oregon
oressi
org
organ
organisazion
organism
organisms
organization
orge
orgun
orie
orient
orientale
orientales
origina
original
origini
oristano
orla
orland
orleans
orne
oro
oroville
orsola
ortenaukreis
ortisei
ortodossa
ortofoto
os
osage
osc
oscar
osceola
oslo
osnabru
ossola
ost
ostalbkreis
ostallga
osterholz
ostholstein
osti
ostprignitz
osttirol
oswald
oswego
ot
ota
otce
otero
other
otober
otoe
otoman
otsego
ottawa
otter
otto
ouachita
ouen
our
outa
outagamie
outre
ova
ovel
ovela
oven
over
overseas
overton
ovest
ovl
owen
oxford
oxfordshire
oz
ozark
ozaukee
ozean
ozeans
ozide
p
pa
pablo
pace
pacific
paderborn
padova
padre
padua
paejes
paesc
paese
pag
page
pai
paia
paian
paiern
paisc
palaz
palazzo
pale
palermo
palestine
palla
pallioppi
palm
palmas
palmer
palmetto
palms
palmyra
palo
paloma
palos
palua
palusc
pamlico
pan
pana
panama
panola
panorama
panoramica
panoramio
panthera
paoli
paolo
papa
papanti
papier
par
para
parabola
paradise
paralleltexte
parameter
paratoni
paravis
parc
parcelas
parch
parchim
parco
pare
parete
paris
parish
park
parkdale
parker
parlari
parma
paro
parola
paroles
parora
parores
part
parte
partel
partenkirchen
parti
particulera
partida
partime
partis
partit
parva
pas
pasa
pasadena
pasca
pascion
pasco
paso
pasolini
pass
passa
passada
passaic
passaje
passan
passau
passe
passeda
passeier
passeriformes
passo
passova
passua
paster
pastura
pastures
pate
pater
paterno
patria
patriarcat
patricio
patrick
patrimone
patron
patrons
patterson
paul
paula
paulding
pauli
paulina
paur
paures
pavaro
pave
pavia
paw
pawnee
paxton
payne
pays
paz
pazifich
pdf
pe
pea
peach
peak
pearl
pec
pecan
pece
pech
peck
pecos
pedagogich
pedetliva
pedro
pedroc
pedu
pegna
peider
peine
peitlerkofel
pekin
pel
pelda
pelegrinaje
pelham
pelican
pellegrini
pellegrino
pembina
pembroke
pemiscot
pender
pendleton
peni
penia
penijula
peninsula
penn
pennington
pennsylvania
penobscot
pensa
pensacola
pense
pensier
pensieres
pensons
peoria
pepi
peppi
per
pera
perathoner
perauter
perche
perchel
perd
perde
perdu
pere
perioda
periodes
periodica
peristi
perkins
perm
permez
permo
perra
perry
perryville
persenon
persia
persian
persona
personalite
persones
persunaliteies
persunela
pert
pertan
pertes
peru
perugia
pervia
pes
pesaro
pesc
pescara
pescosta
pescostac
pest
peter
petersburg
petit
petite
petlin
petra
petrus
pez
peza
pezzei
pezzeijf
pfaffenhofen
pfalz
pfarre
pfarrkirche
phelps
philadelphia
philipsburg
phillips
phillipsburg
phoenix
photo
php
physoplexis
pi
pia
piacenza
pian
piana
piano
piatt
piave
piaz
piazza
pic
piccolruaz
pice
piceno
picera
pici
picia
piciade
piciudel
pickaway
pickens
picolin
pie
piedmont
pief
piemont
piemonte
pien
piena
pier
piera
pieralongia
pierce
piere
pieres
piero
pierre
pies
piesc
pieta
pietro
pieve
pievel
pigeon
pigon
pike
pilat
pilicia
pilon
pilot
pima
pin
pinakothek
pinal
pincan
pine
pinehurst
pinellas
pines
pineville
piney
pinneberg
pins
pinto
pioneer
piova
piovan
pipestone
pire
pisa
pisciadoi
pisciadoies
pisciadu
pista
pistoia
pitcairn
pite
pitkin
pitl
pitla
pitli
pitor
pitschaider
pitscheider
pitschen
pitschieler
pitt
pittsburg
pittsburgh
pitura
pitures
piu
piz
piza
pizes
pizzinini
pl
place
placer
placidus
plage
plain
plaine
plainfield
plains
plainview
plainville
plan
planaces
plane
planet
planetary
planker
plano
plans
plant
planta
plantae
plantation
plantes
plaquemines
plata
plates
platon
platte
plattkofel
plaza
plazes
plazola
ple
pleasant
pleasanton
pleasantville
plessis
pli
plie
plo
plom
ploner
plonerm
plose
plu
pluan
pluania
plueia
plum
plumas
plutosc
plymouth
pmid
png
po
pocahontas
pocono
pode
podei
podessa
podesta
podium
podu
poec
poejia
poejies
poem
poems
poesia
poesias
poesie
poesies
poet
poetica
poggio
poinsett
point
pointe
points
pol
poland
pole
politica
politich
politiches
politics
polk
pollam
pollamv
pollock
polo
polonia
polver
pomeroy
pomona
pon
pona
ponc
ponce
pond
pondera
ponderosa
pont
ponte
pontives
pontotoc
pop
popa
pope
popes
poplar
popolar
popolares
popolazion
popolaziun
popolaziuns
popolo
popui
popul
popularas
population
populations
populazion
populazions
populera
populi
por
porater
porcel
porci
pordenone
pordoi
pordu
porfir
porica
pormez
porsenu
porsona
porsones
port
porta
portada
portage
portal
portavescova
porte
porter
portes
portland
porto
portsmouth
portugal
portughesc
pos
posc
posizion
possa
posse
possen
post
posta
postc
potenza
potok
potomac
potsdam
pottawatomie
pottawattamie
potter
povester
powder
powell
power
powers
poweshiek
powhatan
poz
poza
pozza
pp
ppingen
pra
pradesh
praga
prags
prairie
pranives
prato
pratt
pre
preble
precolombianes
prei
preistoria
prejenta
premi
prender
prener
pres
presbitere
presciapech
presciun
prescott
prese
present
preside
president
presque
press
preston
preve
prevesc
price
prie
priera
priest
prignitz
prim
prima
primes
primiziant
primorski
prince
princeton
principe
prinoth
prinz
prinzipac
prinzipala
prinzipales
prinzipat
prinzipela
prinzips
prion
prior
priors
privat
privata
prix
pro
proa
procarioc
proctor
prodigo
produc
produzion
prof
professe
professor
profet
program
programm
programs
proiet
proinzia
promenade
pronunzia
propi
proposta
prosa
prospect
prou
provence
proverbi
providence
province
provincia
provinz
provinzia
provinziela
provinzies
provisional
prozes
prozesc
prozescion
pru
pruca
prudot
prugger
prum
pruma
prumes
prums
pruzescion
ps
psalms
pseudonim
psicologia
pt
pu
public
publica
publicazion
publicazions
publich
publiche
publicheda
publichei
publishing
pude
pudeje
pudova
pudu
pue
pueblo
puec
pueces
puech
puecia
puent
pueresc
puerto
puez
puglia
pulaski
pulitica
punt
punta
puntives
puntl
pur
purger
purta
purtan
purte
purteda
purtoi
purtoies
purtova
puscion
puster
pute
puter
putia
putnam
puy
pyre
pyrmont
pz
q
qu
qua
quagga
quai
quaist
qual
quala
quals
quay
que
queen
queens
quei
quel
quell
quella
quellas
quels
quentin
quest
questa
qui
quickfacts
quincy
quinta
quist
quista
quitman
r
ra
rabanser
rac
raccolta
racconti
rachel
racine
racoiu
radio
raetia
rafael
ragusa
rai
raida
raimund
rain
rainbow
rainel
raion
raions
raisa
raisc
raiser
raiun
raiuns
raleigh
ralston
ram
rames
ramona
ramsey
ranch
ranchettes
ranchitos
rancho
ranchos
randall
randolph
rankin
ransom
rapid
rapides
rapids
rapina
raporc
raport
raprejentanc
rasmo
rastatt
rata
rault
ravalli
ravenna
ravensburg
ray
raymond
rc
rch
rchen
rda
rde
re
reading
real
realise
reaziun
rec
recklinghausen
reconesciu
recordanzes
recorde
recune
red
redazion
redfield
redwood
reed
ref
referat
referendum
referime
reforma
refugio
regen
regensburg
reggio
regina
region
regional
regionale
regionales
regionalverband
regione
regionen
regions
regis
regiun
regn
regola
regoles
regor
regules
rehl
reich
reisigl
rejon
rejona
rejone
rejons
rel
related
relazion
relief
reliefs
relige
religion
religious
religiun
rems
ren
renaissance
renascime
rendsburg
reno
renon
rensselaer
renville
repartizion
reperc
report
republic
republica
republiches
rer
res
resc
resciesa
rescion
research
reserve
resi
reside
resort
respet
ressurezion
rest
resta
reste
resteda
restei
reston
resultac
resultat
retesc
retic
retica
retiches
retoroman
retoromontscha
retorumantscha
retrat
retz
reunificazion
reutlingen
reve
reverda
revere
reverendo
revoluzion
revoluziun
reynolds
rezia
rha
rhein
rheingau
rheinland
rhin
rho
rhode
ri
ria
riam
ric
rica
rice
riceville
rich
richard
richardson
riche
richebuono
richey
richfield
richland
richmond
richwood
rico
ridge
ridgecrest
ridgefield
ridgeville
ridgeway
riding
ridl
rie
ried
ries
rieti
rieux
rifesser
rifesserjb
rifugio
rigais
rijeda
riley
rimas
rimes
rimini
rina
ringen
ringgold
rio
ripley
rising
rita
ritchie
ritter
riva
river
riverdale
rivers
riverside
riverton
riverview
rives
rivie
riviera
rivulet
rkheim
rkisch
rkischer
rlitz
rm
rma
rme
rn
rna
rnberg
rnberger
rner
ro
roa
road
roads
roanoke
roba
robbins
robert
roberts
robertson
robeson
robinson
roc
rocca
rocchetta
roch
roche
rochelle
rochester
rock
rockbridge
rockdale
rockford
rockingham
rockland
rockport
rocks
rockville
rockwall
rockwell
rockwood
rocky
roda
rode
rodes
rodolf
rodolfo
roe
roes
roger
rogers
rogersville
roi
roia
rojo
roland
rolette
rolling
roma
romagn
romagna
romain
roman
romana
romania
romanich
romanisazion
romano
romans
romantica
romantich
romantics
romantizism
rome
ron
ronc
ronch
ronco
ronda
roosevelt
ros
rosa
rosalia
rosar
roscoe
rose
roseau
rosebud
rosedale
roseland
rosemont
rosengarten
rosenheim
roseville
rosius
roslyn
ross
rossa
rossi
rossville
rostock
rostov
rot
rotenburg
roth
rottal
rotterdam
rottonara
rottweil
rouge
round
rovigo
rovisi
rowan
roy
royal
royalton
rozes
rra
rrach
rs
rstenfeldbruck
rt
rta
rth
rttemberg
ru
rua
ruacia
ruby
rudi
rudiferia
rudolf
rudolfine
rudolstadt
rue
rueda
ruf
ruhr
ruines
rujena
rujene
rujeneda
rujenedes
rujneda
rumanc
rumancia
rumanon
rumi
run
runcac
runcadic
runcaudie
rungaudie
runggaldier
ruppin
rural
rus
rusa
rusc
rusce
ruscel
ruscia
rush
rushville
rusina
rusk
russa
russell
russellville
russia
russian
russo
rustlea
rut
ruth
rutherford
rutland
rutledge
ruva
ruvan
ruve
ruveda
ruves
ruvova
ruvun
ry
rye
rz
rzburg
rzjoch
s
sa
saale
saalekreis
saalfeld
saarbru
saarburg
saarland
saarlouis
saarpfalz
sabana
sabedin
sabina
sabine
sabino
sabiona
sac
sach
sacher
sachsen
sacra
sacramento
sacro
sacun
sad
saddle
sagen
saginaw
sagra
sai
saimper
sainsom
saint
sainte
saints
saira
saites
sajon
sajons
sal
sala
sale
salem
salerno
salinas
saline
salisbury
salle
salmon
salt
salten
saltillo
salu
saluda
salut
salva
salvan
salvans
salvari
salvatore
salve
salzburg
salzlandkreis
salzwedel
samara
sambe
samedan
sammler
sammlung
sampson
samson
san
sanbe
sanborn
sanc
sanch
sanciana
sand
sanders
sandia
sandoval
sands
sandusky
sandwich
sandy
sanford
sangamon
sanilac
sanita
sankt
sannio
sannita
sanoner
sanpete
sant
santa
santagenofefa
santee
santiscima
santo
santuel
sanueva
sao
sapiens
sapu
sar
sara
saral
sarasota
saratoga
saratov
sardegna
sardis
sare
sargent
sarpy
sarte
sarthe
sas
sasc
saslonch
saslong
sasplat
sass
sassari
sasso
sassolungo
sassongher
saturn
saude
saudeies
sauk
saunders
sauri
saut
sauta
sautaria
saute
sauveur
sava
savage
savannah
save
savigny
savoie
savon
savona
savova
sawyer
saybrook
sc
scala
scalieret
scapulier
scarperi
scarpiei
sce
scebe
sceben
scel
scenes
scer
sces
sch
scha
schabs
schaumburg
sche
schenectady
schengen
schenk
schi
schienboden
schlarigna
schlern
schleswig
schmalkalden
schmalzl
schmid
scho
schon
schongau
schreiner
schrifttums
schrobenhausen
schu
schuyler
schuylkill
schwa
schwalm
schwandorf
schwarzwald
schweinfurt
schweiz
sci
scia
sciadules
scialdi
sciampe
sciblota
sciche
scie
science
scientifica
scientifich
scienza
scilie
scilier
scimon
scinca
scinche
scines
scio
scioh
scioldi
scioto
scioz
scipa
sciuz
scizer
scizeri
scizri
sco
scola
scole
scoles
scolina
scolines
scora
scorcio
scores
scota
scotia
scotland
scotoni
scott
scotts
scottsville
scranton
scri
scribner
scric
scrij
script
scripta
scrisc
scrit
scrita
scrite
scrites
scrito
scritti
scritura
scritures
scriv
scu
scuadra
scuadres
scul
scule
sculeies
sculte
scultore
scultori
scultura
scultures
scume
scumence
scumencia
scumenciame
scunanza
scuola
scur
scurcia
scurta
scute
se
sea
seabrook
seaside
seaton
sebastian
sece
seceda
seco
second
seconda
secondo
section
secue
secui
secul
seculi
secunda
secundo
sedalia
sedgwick
sedim
see
seenplatte
segeberg
segn
segner
segnor
segonda
segondo
segra
segur
segura
segure
sei
sein
seine
seis
seiser
seiseralm
sela
selin
sella
sellajoch
sellaronda
sellatu
selma
selva
semea
semi
seminar
seminole
semper
sempre
sen
seneca
senes
seng
senger
senie
senn
sennes
senoner
senpre
senso
sent
senta
sentadins
sente
senteda
senti
sentiero
sentime
senza
separate
sepl
september
sepultura
sequoyah
sera
serbia
seria
serie
serra
servi
service
servijes
servisc
ses
sest
sesta
sesto
set
sete
setember
settlement
seuc
seura
seurante
seven
severn
sevier
seville
seward
seymour
sezion
seziun
sgr
sgrinfles
shade
shady
shakespeare
shamrock
shannon
sharon
sharp
sharpsburg
shasta
shawano
shawnee
sheboygan
sheffield
shelby
shelbyville
sheldon
shell
shelton
shenandoah
sheridan
sherman
sherwood
shi
shiawassee
shiloh
shirley
shoals
shore
shoreham
shores
shorewood
short
shoshone
shrewsbury
shropshire
si
sia
siand
sibe
siberia
sibley
sich
sicilia
side
sides
sidney
sie
sieg
siegen
siegfried
siena
sierra
sies
sieu
sigmaringen
significat
signor
signur
sigu
sil
siller
silver
silverdale
silverton
silvester
silvia
silvio
simbol
simon
simona
simpson
sin
since
single
singul
sint
sinti
sior
sioux
siracusa
sis
siskiyou
sistem
sistems
sisto
sit
site
situazion
situazions
siu
siur
siusi
six
size
sizilia
skagit
ski
skulptur
sky
skyline
sl
slalom
slargia
slarie
slater
slava
sleepy
slope
slovachia
slovak
slovenia
smith
smithfield
smiths
smithville
smueia
smyrna
smyth
sn
snohomish
snow
snyder
so
social
societad
society
socioeconomic
socorro
socre
soest
sofia
sogec
soget
soing
sol
sola
solano
solar
solda
soldas
sole
solon
soma
somavia
some
someia
somers
somerset
somerville
somme
sommer
son
sona
sondrio
sone
sonja
sonneberg
sonns
sonoma
sonora
sontheimer
soplajes
sopra
sor
sora
soraga
soraperra
sorapis
sorapiss
sore
sort
sortes
sosta
sostanza
sot
sota
sotanives
sotbosch
sotciastel
sote
sotite
soto
sotria
sotriffer
sotto
soul
soura
sourantout
sous
south
southampton
southeast
southern
southside
southwest
sovietica
sozial
soziel
soziela
sozieles
sozieta
soziete
soziologia
spa
space
spagna
spalding
spania
spanish
spanuel
spare
spari
sparks
sparta
spartanburg
sparti
spartida
spartides
spartizion
spave
spavente
spe
special
spedel
spencer
speranza
spersa
spescha
spessart
spezia
spezialiseda
spiert
spina
spinalonga
spines
spinges
spink
spirit
spirt
spo
spokane
sport
sprache
spree
spreewald
spring
springdale
springfield
springs
springville
sprint
spus
spusa
square
ss
ssa
ssapescosta
sse
ssel
ssen
sses
ssi
st
sta
stac
stada
stade
stadium
stadt
stafeta
stafford
staffordshire
stage
stai
stair
stajova
stala
stamford
stammbuches
stampa
stand
standard
standardization
stanford
stanislaus
stanley
stanly
stanton
stanwood
stapleford
stapleton
star
stark
starke
starnberg
starr
stat
stata
state
statela
stateles
states
station
statistica
statistical
statistiches
statistics
statistik
statistisches
stato
statua
statues
status
statut
staunton
stavropol
stazion
stazions
ste
stearns
steda
steele
steeple
stefan
stefano
steffan
steiermark
stein
steinburg
steiner
steinfurt
stella
stendal
stephen
stephens
stephenson
ster
sterch
sterling
sterreich
sterreichischen
sterreichisches
sterscia
sterzing
stes
stetteneck
steub
steuben
stevens
stevia
steviola
stewart
stewartsville
stica
stiera
stil
still
stillwater
stina
stlejuc
stlop
stlu
stlujuc
stlut
stluta
sto
stockholm
stockton
stoddard
stoke
stone
stonewall
stony
storia
storica
storicamenter
storich
storiches
storics
stories
storiografia
stormarn
story
stow
strada
stradon
strasburg
stratford
stratton
straubing
stravarde
strawberry
stre
stream
streda
stredes
street
stretton
stri
stria
stries
strinades
strine
strion
striun
strom
strome
strong
stroto
structure
strutura
strutures
stu
stua
stuart
stude
studi
studia
studie
studies
studio
study
stuei
stufan
stuffer
stuflesser
sturgeon
sturgis
stutsman
stuttgart
style
su
sua
sublette
sud
sudafrica
sudan
sudtirol
sue
suenter
suenz
suessen
sueur
suffolk
sugar
sui
sul
sula
sule
sulla
sullivan
sully
sulphur
sulpice
sulzbach
sum
sume
summer
summerfield
summerville
summit
sumner
sumter
sun
sunbury
sune
suneria
sunflower
sunnyside
sunrise
sunset
super
superior
supli
sur
sura
surans
sure
sureghes
surrey
surry
sursilvan
survey
survista
susdal
susitna
susquehanna
sussex
suste
susy
sut
sutter
sutton
suve
suzedu
suzes
sverdlovsk
svezia
svg
svilup
svilupa
svilupe
svizer
svizera
svizra
svp
swan
sweet
sweetwater
swift
sycamore
sylvan
sylvania
syracuse
system
t
ta
tabach
tabela
tabernacul
table
tabor
taca
tafel
taft
tai
taibon
tail
taiwan
tal
talbot
tale
talia
talian
taliana
talianes
talians
talladega
tallapoosa
tama
tamil
tammany
tammers
tan
tanc
taney
tanf
tang
tangipahoa
tant
tanto
taos
tappeiner
taranto
target
tarn
tarrant
tatar
tatarstan
tauber
taunus
tavella
taylor
taylorsville
tazewell
te
teater
teatri
teau
teauneuf
tecnica
tecnich
tecniches
tecumseh
tedesco
tegnir
tegnu
tehama
tei
teis
tel
tela
telangana
teles
televijion
tell
teller
teltow
tema
tematiches
teme
temp
tempera
temperato
temperatures
tempes
tempesta
template
temple
templeton
templutl
tempo
temps
ten
tende
teni
tenides
tennessee
tennis
teologia
teoria
ter
tera
terac
teramo
teresa
teritore
terme
terni
terra
terrace
terre
terrebonne
terrell
territories
territory
terschak
tersloh
tert
tervela
terz
terza
terzo
tes
tesc
test
testame
testament
testemunianzes
testimonianzes
testo
teton
texas
text
tgei
tgi
th
thames
that
thayer
the
thecat
their
themen
theodor
there
these
this
thomas
thompson
thompsonville
thornton
thorpe
three
thu
thurston
ti
tia
ticino
tidom
tie
tieja
tienne
tier
tiera
tieres
tierra
tiers
tierwelt
ties
tieu
tif
tigni
tigris
tillamook
tillon
timber
time
times
tina
tioga
tipes
tippecanoe
tipton
tira
tires
tirol
tiroleja
tiroler
tirolesc
tirolischen
tirolo
tirschenreuth
tishomingo
tita
titelblatt
title
titul
titusville
tl
tla
tlama
tlameda
tlamei
tlamova
tlass
tler
tles
tlesura
tlima
tlo
tluses
tn
to
toa
tobia
toblach
toc
toca
toch
todd
tode
todesc
todesch
tofana
tofane
tofanes
tofla
tol
toladinischen
toledo
toles
tolland
tolo
tom
toma
tomas
tome
tompkins
tone
toni
tooele
top
topon
toponim
toponims
toponomastica
tor
tores
torinese
torino
torna
toromanische
toronto
torrance
torre
torri
torrington
tosc
toscana
tosescortina
tosi
tot
total
totalite
totemica
tour
touraine
tout
tower
towers
town
towner
townsend
tr
tra
trac
tracy
trade
tradizion
tradizioni
tradizions
tradiziun
tradiziunela
traduzion
trail
traill
trails
trainer
tramans
tramedoi
tramonto
trani
trapani
trapp
tras
traslate
trasmiscion
trasmiscions
trasport
trat
trata
tratan
tratat
trate
trates
tratto
traunstein
travers
traverse
travis
tre
trebinger
trebo
treccani
tree
trego
trei
treis
tremont
trempealeau
trenker
trent
trenta
trentin
trentino
trento
trenton
tres
tresl
treviso
tribunel
tributary
trier
triest
trimble
trina
trinadeianesc
trinita
trinity
tro
troa
trognora
troi
troies
trop
trostburg
trout
troy
tru
trudi
truep
truepa
truepes
trueps
trumbull
trupes
ts
tschapit
tschiel
tscho
tt
tta
tte
ttel
tten
tting
ttingen
tu
tubia
tubla
tuca
tucker
tucova
tucson
tude
tula
tulan
tulare
tulova
tulsa
tuma
tume
tumeda
tumei
tunel
tunica
tuolumne
tuor
tuot
turchia
turin
turism
turistica
turkey
turnade
turne
turner
turond
turont
turtle
tuscaloosa
tuscarawas
tuscola
tustin
tut
tuts
tutt
tuttas
tutti
tuttlingen
tv
twin
two
tyler
tyne
typak
tyrol
tyrone
tz
tzenlied
u
uc
ucajion
ucel
uckermark
ucraina
ude
udera
udin
udu
ududa
ududes
uedl
uedli
uel
uelas
uele
uelzen
uem
uemes
uf
ufer
ufizialme
ufiziei
ufiziel
ufiziela
ufizieles
ufizielme
ugld
ugrister
ui
uintah
ujep
ujes
ujinanza
ujins
ujo
uk
ukraine
ul
ula
ulache
ule
ulenta
ulg
ulm
ulon
ulova
ulrich
ulrike
ulster
ultim
ultima
ultimi
ultimo
ultims
ulu
ulza
um
uma
uman
umana
umanes
umatilla
umbria
ums
un
una
und
under
underwood
une
uneranza
unesco
unfat
ung
ungaria
uni
unic
unica
unida
unides
unieja
unifiche
unii
unika
union
unione
uniontown
unionville
unis
unit
unite
united
uniti
unity
uniun
univa
univel
universal
universita
universite
universiteies
university
unn
unna
unrecognized
unser
unsplash
unstrut
unter
unterallga
unterholzner
unterland
unterplatzer
upland
upon
upper
upshur
upton
ur
ura
ural
uramer
uran
urante
urasas
urban
urbana
urbino
ure
ures
urganisazion
uridl
urie
urient
urientela
uriginel
urita
url
urname
urs
ursprung
ursula
ursus
urt
urthaler
urtije
urtijei
urtisei
urvia
us
usa
usanzes
usc
usche
use
used
userkreis
uses
uso
usserve
ustaria
ut
uta
utah
utc
ute
utente
utes
utia
utica
utilia
utober
utrecht
uvalde
uzide
uzidentela
uŋ
v
va
vaces
vacia
vade
vahrn
vai
vail
vain
vais
vajolet
val
valacia
valada
valades
valantin
valch
vale
valea
valeda
valedes
valence
valencia
valentia
valentin
valentine
valentini
valentino
valgo
valgu
valgugn
valgun
valguna
valgunes
valguni
valier
valign
valis
valisa
vallazza
valle
valley
valli
vallon
vallongia
valongia
valor
valparola
valparolapass
vals
valsugana
value
valuta
van
vanas
vance
vancouver
vandalia
var
varda
varde
vare
varente
varese
varianta
variantes
vario
vater
vatican
vaucluse
vaux
ve
vechta
vede
vedei
veder
vedl
vedla
vedles
vedli
vedu
vega
vegas
vegn
vegne
vegni
vegnir
vegniva
vegnu
vegnuda
vegnudes
vegnus
veia
veie
vein
veisc
veit
vel
vela
velch
velozite
ven
venango
venciu
vende
vendu
venere
veneta
veneto
venezia
venezian
venice
vent
vento
ventura
venuesta
venus
ver
vera
verb
verbano
verc
vercelli
verde
verden
verdes
verdi
verdings
vere
veres
vergin
verlag
verlagsanstalt
vermilion
vermillion
vermont
vernel
vernon
vero
verona
verra
vers
versailles
verscion
version
verso
versuch
vert
verzeichnis
ves
vescovo
vescul
vest
vester
vetta
vez
vi
via
viac
viadi
vian
vianua
vibo
vic
vicel
vicentino
vicenza
vich
vici
vicksburg
vico
victor
victoria
vid
video
videsott
vie
viejo
viena
vienna
vienne
viera
viere
vieres
vieresc
viers
viersch
viersen
vies
vieux
view
vif
vigil
vigilio
vign
vignes
vigni
vignun
vigo
vii
viii
vijins
vijion
vijita
vijite
viking
viktor
vila
vilaine
vilas
vile
viles
villa
village
villanders
villanova
ville
villefranche
villeneuve
villers
villiers
villno
vin
vinatzer
vinazer
vincent
vincenz
vincenzo
vineland
vineyard
vining
vinton
vinzenz
vio
viola
violet
vir
vire
virgil
virginia
virtu
vis
vista
vit
vita
vital
viterbo
vito
vitoria
vitta
vittorio
vittur
viv
viva
vivasagramoena
vivat
vive
viver
vives
vivova
vivu
vladimir
vna
vo
vocabolar
vogelsbergkreis
vogelwelt
vogtl
vogtlandkreis
voi
vol
volga
volgograd
voll
vollmann
volum
volume
volusia
vom
von
vorarlberg
vorlagenfehler
voronej
vorpommern
vos
vosges
vre
vres
vuel
vulkaneifel
vulpius
vus
w
wa
wabash
wabasha
wabaunsee
waco
wadena
wadern
wadsworth
wagner
wagoner
wahkiakum
wake
wakefield
walcott
wald
waldeck
walden
waldnaab
waldo
waldron
waldshut
wales
walker
wall
walla
wallace
waller
wallingford
wallowa
walnut
walpoth
walsh
walter
waltham
walton
walworth
wapello
war
ward
ware
warendorf
warm
warren
warrenton
warsaw
wartburgkreis
wartung
warwick
warwickshire
was
wasatch
wasco
washburn
washington
washita
washoe
washtenaw
watauga
water
waterford
waterloo
watertown
waterville
watkins
watonwan
watson
waukesha
waupaca
waushara
waverly
way
wayback
wayland
wayne
waynesboro
waynesville
wear
web
webb
weber
website
webster
weekly
weger
weilburg
weilheim
weimar
weimarer
weinstraße
weiss
weißenburg
welcome
weld
weldon
well
wellington
wells
wellston
wellsville
welponer
welschellen
welsh
welton
wendel
wengen
wentworth
werke
werner
werra
wert
wesel
weser
wesermarsch
wesley
west
westbrook
westbury
westchester
western
westerwald
westerwaldkreis
westfalen
westfield
westlake
westminster
westmont
westmoreland
weston
westover
westphalia
westport
westville
westwood
wetteraukreis
wetzel
wexford
wharton
what
whatcom
wheatland
wheaton
wheeler
which
while
whitchurch
white
whitehall
whitesboro
whiteside
whitewater
whitfield
whiting
whitley
whitman
whitney
whittier
wichita
wicomico
wie
wien
wight
wikimedia
wikipedia
wikisource
wilcox
wilder
wildwood
wilhelm
wilkes
wilkinson
will
willacy
willard
willeit
william
williams
williamsburg
williamson
williamsport
williamstown
williston
willoughby
willow
wilmington
wilson
wilsonville
wilton
wiltshire
wimmer
winchester
wind
windham
windsheim
windsor
winfield
wing
wingate
winn
winnebago
winneshiek
winnsboro
winona
winslow
winston
winter
winterborne
winterbourne
winthrop
winton
wir
wisconsin
wise
wissenschaften
with
within
witt
wittenberg
wittgenstein
wittlich
wittmund
wka
wo
wohlgemuth
wolf
wolfenbu
wolff
wolfgang
wolfratshausen
wolkenstein
wood
woodbine
woodburn
woodbury
woodford
woodland
woodlawn
woodruff
woods
woodside
woodson
woodstock
woodville
woodward
wootton
worcester
worcestershire
world
worms
worth
worthington
wright
wrightsville
wu
wunsiedel
www
wyandot
wyandotte
wye
wyoming
x
xi
xii
xiv
xix
xls
xter
xv
xvi
xviii
y
yabucoa
yakima
yale
yamhill
yankton
yarmouth
yates
yavapai
year
years
yell
yellow
yellowstone
yolo
yonne
york
yorkshire
yorktown
yorkville
you
young
youngsville
yuba
yukon
yuma
yvelines
z
za
zac
zacan
zaccaria
zacchia
zacchiagb
zachei
zaita
zaites
zakan
zallinger
zandli
zandt
zanesville
zapata
zar
zara
zarat
zardini
zareda
zbergli
ze
zealand
zebra
zeche
zeeland
zell
zelula
zeno
zensiment
zent
zenter
zentrala
zentrel
zentrela
zenz
zenza
zephyrhills
zeremoniela
zerto
zeruch
zes
ziclus
zidle
zie
zinnen
zion
zipla
ziplade
ziple
zipleda
zipledes
ziplei
ziplova
ziprian
zirca
zirm
zirme
zirmes
zita
zitadin
zite
ziteies
zivilte
zo
zoldo
zollernalbkreis
zona
zones
zoruch
zu
zum
zuoz
zur
zwei
zwickau
zwischen
{
|
}
~
¡
§
©
ª
«
­
°
±
²
³
´
µ
¶
·
º
»
×
ß
æ
ı
ŋ
ŋs
ɐ
ɑ
ə
ɪ
ɾna
ʃ
ʈɐkɐ
ʒ
ʲ
ʼ
ʾ
ʿ
ˈ
ˌ
ː
˛
̀
́
̂
̃
̄
̆
̇
̈
̊
̋
̌
̓
̔
̞
̣
̤
̥
̦
̧
̨
̩
̮
̯
͂
α
β
θ
ι
ν
ο
ρ
ς
υ
в
всероссии
г
года
д
е
и
кемеровскои
краи
л
на
населения
начало
о
области
область
округ
перепись
республика
россии
с
ск
ская
том
численность
ְ
ַ
ָ
ּ
ד
ה
ל
מ
ש
ت
ع
ل
ه
َ
ِ
ّ
ْ
ٔ
द
र
ल
श
स
ा
ि
े
्
্
ಕರ
ಟಕ
ನ
ಾ
್
​
‎
‑
‒
–
—
‘
’
‚
“
”
„
†
•
…
′
″
‹
›
‿
€
ℙ
→
↓
↔
↷
−
⋅
③
④
⑦
ⓓ
ⓔ
ⓘ
ⓜ
ⓟ
ⓣ
◇
☟
♀
♂
⺀
⺄
⺆
⺈
⺊
⺌
⺕
⺝
⺸
⺼
⿰
⿱
⿲
⿳
⿴
⿵
⿶
⿷
⿸
⿹
⿺
⿻
〢
゙
ア
コ
シ
タ
ト
ニ
ハ
メ
ユ
ン
ー
㇁
㇂
㇄
㇇
㇈
㇉
㇓
㐁
㐄
㐅
㐌
㐫
㐬
㐭
㐮
㐱
㑒
㒵
㒸
㒼
㓁
㓞
㔾
㕛
㕣
㖾
㘝
㚅
㚇
㚔
㚘
㝉
㝡
㝴
㝵
㞋
㞢
㞷
㠩
㠭
㠯
㡀
㡭
㡿
㢲
㢴
㣇
㣺
㥯
㪅
㫄
㫐
㫒
㫺
㬅
㬎
㬥
㬰
㲋
㳄
㷠
㸒
㸚
㸦
㼌
㼲
㽞
㿟
䀠
䂞
䍃
䏍
䒑
䖍
䖒
䖝
䖵
䙴
䚻
䜌
䝿
䡛
䧹
䪞
一
丁
丂
七
丄
丅
丆
万
丈
三
上
下
丌
不
与
丏
丐
丑
专
且
丕
世
丘
丙
业
东
丞
丢
丣
两
严
並
丨
丩
个
丫
丬
中
丮
丰
丱
串
丵
丶
丷
丸
丹
为
主
丽
丿
乀
乂
乃
久
乆
乇
么
义
之
乌
乍
乎
乏
乐
乑
乔
乖
乗
乘
乙
乚
乛
乜
九
乞
也
习
乡
乳
乾
亀
亅
了
亇
予
争
事
二
亍
于
亏
亐
云
互
亓
五
井
亘
亚
亜
亞
亟
亠
亡
亢
交
亥
亦
产
亨
亩
享
京
亭
亮
亯
亰
亲
亳
亶
亷
人
亻
亼
亾
仁
今
介
仌
从
仐
仑
仒
仓
仕
他
付
仝
代
令
以
任
企
伊
伏
伐
休
会
伯
但
位
何
佘
余
作
佥
使
來
侈
侌
侖
侯
侵
便
保
俞
信
修
倉
倍
候
倠
備
僉
僕
儿
兀
允
兂
元
兄
充
兆
兇
先
光
兊
克
兌
免
兑
兒
兓
兔
党
兜
兟
入
全
兩
兪
八
公
六
兮
兰
共
关
兵
其
具
典
兹
兼
冀
冂
冃
冄
内
冈
冉
冊
冋
册
再
冎
冏
冐
冒
冓
冖
冗
冘
军
农
冝
冡
冥
冫
冬
冷
几
凡
凢
凵
凶
凷
凸
凹
出
函
凾
刀
刁
刂
刃
刄
刅
分
切
刍
刑
刕
刖
列
刘
则
初
別
利
别
到
制
刺
則
削
剌
前
剡
剽
劉
力
功
加
劦
助
劫
劳
劵
勃
勇
勉
勒
動
務
勞
勤
勹
勺
勻
勾
勿
匀
匂
包
匆
匈
匊
匋
匍
匕
化
北
匚
匝
匡
匪
匱
匸
匹
区
医
匽
匿
區
十
卂
千
卄
卅
卆
升
午
卉
半
卌
华
卑
卒
卓
单
卖
南
卜
卝
卞
占
卡
卢
卣
卤
卦
卩
卪
卬
卯
印
危
即
却
卵
卷
卸
卻
厂
厃
厄
历
厈
厉
厌
厓
厘
厚
原
厤
厥
厨
厭
厲
厶
厷
厸
去
厼
厽
叀
参
參
叅
又
叉
及
友
双
反
叐
发
叒
叔
叕
取
受
叚
叜
叟
口
古
句
另
叩
只
召
可
台
叱
史
右
叵
号
司
叹
吂
各
吅
合
吉
吊
吋
同
名
后
吏
向
吕
君
吝
吞
否
含
启
吳
吴
吹
吾
呂
呆
呈
告
员
呙
周
命
咅
和
咎
咠
咢
咨
咸
咼
哀
品
哉
員
哥
哲
唐
商
啇
問
啚
啬
啻
善
喜
喬
單
喿
嗇
噩
嚴
囊
囗
囘
囙
囚
四
回
囟
因
囧
囬
困
囱
囷
固
国
圂
圅
國
圍
圓
土
圡
圣
圥
在
圭
地
圶
圼
坐
坒
坚
坴
垂
垔
垚
埀
埋
城
埶
執
基
堂
堅
堆
堇
堯
塞
墨
壘
士
壬
壯
声
壳
壴
壹
壺
壽
夂
处
夅
夆
备
夊
夋
夌
复
夏
夒
夕
外
夗
夘
多
夜
夢
大
夨
天
太
夫
夬
夭
央
失
夲
头
夷
夸
夹
夻
夾
奂
奄
奇
奈
奉
奎
奏
奐
契
奓
奔
奚
奞
奠
奢
奥
奭
女
奴
奻
好
如
妄
妙
妟
妥
妻
妾
姑
委
姜
威
娄
婁
婴
嬰
嬴
子
孑
孔
孕
孖
字
存
孚
孛
孝
孟
季
孤
学
孫
孱
學
宀
宁
宂
它
宅
宇
守
安
宋
完
宏
宓
宗
官
定
宛
宜
宝
客
宣
室
宮
宰
害
家
容
宾
宿
寄
寅
密
富
寒
察
寧
審
寫
寬
寮
寸
对
寺
寻
寽
対
寿
封
尃
射
将
將
專
尉
尊
尋
尌
對
小
少
尒
尓
尔
尖
尗
尚
尞
尢
尣
尤
尧
尨
尭
就
尸
尹
尺
尻
尼
尽
尾
尿
局
居
屈
屋
屎
屏
屑
展
屖
屚
属
屠
屡
屬
屮
屯
屰
山
屵
屾
岁
岂
岑
岡
岩
岳
岸
峯
島
崇
崑
崔
崖
崙
崩
嵬
嶲
巂
巛
川
州
巟
巠
巢
巤
工
左
巧
巨
巩
巫
差
己
已
巳
巴
巷
巸
巽
巾
巿
帀
市
布
希
帚
帛
帝
带
師
席
帶
常
干
平
年
幵
并
幷
幸
幺
幻
幼
幽
幾
广
広
庄
床
底
店
庚
府
度
庫
庭
庶
康
庸
廉
廌
廛
廣
廩
廴
延
廷
建
廾
廿
开
弁
弃
弄
弇
弋
式
弓
弔
引
弗
弘
弜
弟
弥
弦
弱
張
強
强
彊
彌
彎
彐
彑
当
彔
录
彖
彗
彡
形
彥
彦
彧
彭
彳
役
彼
往
待
律
徒
得
徙
從
復
微
徵
心
忄
必
忌
忍
志
忝
忠
忩
快
念
忽
忿
思
怠
急
怱
恆
恒
恩
恭
息
悉
患
悤
悲
悶
惠
惡
惢
愁
愈
意
愛
感
慈
慧
慮
憂
憲
應
戀
戈
戉
戊
戋
戌
戍
戎
成
我
戒
戔
或
戚
戠
戢
截
戲
戶
户
戹
戼
戾
房
所
扁
扇
手
扌
才
打
托
执
承
折
拉
拜
拿
掌
推
提
摩
支
攴
攵
收
攸
改
放
政
敄
敏
敕
敖
敗
敝
敞
敢
散
敦
敫
敬
数
敷
數
斂
文
斉
斊
斗
斤
斥
斩
斬
斯
新
方
於
施
斿
旁
旋
族
无
旡
既
旣
日
旦
旧
旨
早
旬
旱
旲
时
旾
昆
昇
昌
昍
明
昏
易
昔
昗
昜
星
春
昬
是
昱
昴
昷
時
晃
晋
晏
普
景
晶
智
暑
暴
曇
曩
曰
曲
曳
更
曷
書
曹
曼
曾
替
最
朁
會
月
有
朋
服
朔
朕
朗
望
朝
木
朩
未
末
本
札
朮
术
朱
朵
朶
朿
杀
杏
杜
束
条
来
東
杲
杳
松
析
林
枚
果
枝
枲
枼
某
柔
查
柬
柰
柴
栗
桀
桑
桼
梁
條
梟
梨
棘
棠
棥
森
楚
業
楽
榮
樂
樊
欠
次
欣
欮
欲
欶
欽
款
歆
歇
歛
止
正
此
步
武
歨
歪
歮
歯
歰
歲
歴
歷
歸
歹
歺
死
殳
段
殷
殸
殹
殺
殻
殿
毋
毌
母
每
毒
比
毕
毚
毛
毳
氏
氐
民
气
氣
水
氵
氶
氷
永
氺
氾
求
汉
汝
汞
江
沃
沓
沙
沝
泉
法
波
泣
泥
泰
洛
洪
活
派
流
浦
浪
浮
淡
淮
清
渚
渠
湯
滿
漢
漸
火
灬
灭
灰
灵
灷
炅
炎
炏
炗
炙
炭
為
烈
烏
烝
焉
無
焦
焱
然
煞
熊
熏
燕
營
燮
爪
爫
爭
爯
爰
爱
爲
爵
父
爻
爽
爾
爿
片
牙
牚
牛
牜
牟
牢
牧
牪
牽
犀
犬
犭
犮
狂
狄
狊
独
狺
猋
猒
猪
献
獻
玄
率
玉
王
玟
玨
珎
班
琴
瑟
瑩
瓜
瓦
甘
甚
生
産
用
甫
甬
田
由
甲
申
电
甶
男
甸
甹
画
甾
畀
界
畏
畐
留
畜
畟
畢
畧
畨
番
畫
異
畱
當
畺
畾
疊
疋
疌
疑
疒
疾
癶
癸
癹
登
發
白
百
皀
皃
的
皆
皇
皋
皐
皕
皮
皷
皿
盃
盆
盇
盈
益
盍
盎
监
盒
盖
盛
盡
監
盤
盧
目
直
相
盾
省
眇
眉
看
眔
眞
真
眷
眼
眾
着
睘
睪
睿
瞏
瞢
瞿
矍
矛
矞
矢
矣
知
矦
短
石
破
碎
磊
磨
示
礻
礼
祟
票
祭
禀
禁
禸
禹
禺
离
禽
禾
禿
秀
秃
秉
秋
科
秝
秦
移
稟
穀
穌
穴
究
穹
空
穿
突
窄
窒
立
竒
竜
竝
竟
章
童
竹
笑
笠
筆
等
答
箕
算
箴
節
篤
篭
米
粉
粛
粟
粤
粦
粲
糞
糸
糹
系
約
納
素
索
紫
累
細
絜
絫
絲
維
綿
縣
繇
纍
纟
缶
网
罒
罔
罕
罗
罙
罡
罢
罪
署
罷
羅
羊
羌
羍
美
羔
羕
羗
羞
羡
羣
群
義
羲
羸
羽
翁
翏
習
翕
翟
翠
翼
老
耂
考
者
耆
而
耎
耑
耒
耳
耴
耶
耷
聂
聊
聖
聚
聶
聿
肀
肃
肅
肉
肖
肙
肥
肩
肯
育
肴
胃
背
胡
胥
能
脊
脩
膚
臣
臤
臧
自
臬
臭
臯
臱
至
致
臺
臼
臽
臾
臿
舀
舂
舄
與
興
舉
舌
舍
舛
舜
舞
舟
般
艮
良
色
艸
艹
艾
芒
芔
芬
芮
花
芳
芺
芻
苔
苗
苟
若
苦
英
茶
茸
荅
草
荒
荣
荼
莆
莧
莫
莽
菆
菊
菐
華
萬
落
葉
著
葛
董
葵
蒙
蒦
蒼
蓋
蓬
蓺
蔑
蔡
蕉
蕭
薄
薛
薦
薰
藍
藏
藥
蘭
虍
虎
虐
虒
虔
處
虖
虗
虘
虚
虛
虜
虞
虫
虽
蚤
蚩
蜀
蜜
蟲
蠡
血
行
衍
衛
衣
衤
表
衮
衰
袁
袞
褭
褱
襄
襾
西
覀
要
覃
見
規
覓
覧
親
覽
见
角
解
言
訁
訇
計
詹
誩
諸
讠
谷
豆
豈
豊
豐
豕
豖
豙
象
豦
豩
豪
豸
貇
貝
貞
貟
負
貢
貧
貪
貫
責
貳
貴
買
費
賁
資
賈
賏
賓
賔
賛
賞
賢
賣
質
賴
贊
贝
贡
责
贯
贲
贵
赖
赞
赤
赦
走
越
足
路
蹇
身
躬
車
軍
軎
軟
輦
车
辛
辜
辟
辥
辰
辱
農
辵
辶
边
达
过
近
连
迷
追
退
送
逆
逐
通
速
造
逢
連
逮
進
遀
遂
過
道
達
遣
適
遷
遺
邊
邑
邕
那
邦
邪
郎
部
郭
都
鄉
酉
酋
配
酓
釆
采
里
重
野
量
金
釒
錢
钅
長
镸
长
門
閃
閉
開
閏
閑
閒
間
閔
閵
閻
闌
门
间
闷
阑
阜
阝
阿
降
陳
隆
隊
隋
隡
隨
隱
隶
隹
隺
隻
隼
隽
难
雀
雁
集
雈
雋
雍
雐
雔
雙
雚
雜
雝
離
難
雨
雩
雪
雲
零
雷
需
霍
霜
霝
霞
霸
靈
靑
青
非
靡
面
靣
革
韋
韦
韭
韯
韱
音
頁
頃
項
須
頗
頡
頻
顛
页
風
风
飛
飞
食
飠
養
饣
首
香
馬
馮
駦
马
骨
高
髟
鬥
鬯
鬲
鬼
魚
魯
鮮
鱼
鲁
鳥
鳳
鸟
鹵
鹿
麃
麗
麥
麦
麻
黃
黄
黍
黎
黑
黒
黨
黹
黽
黾
鼎
鼓
鼠
鼻
齊
齋
齐
齒
齿
龍
龙
龜
龟
龠
龰
龱
龴
龵
龶
龷
龸
龹
者
艹
﻿
１
？
𠀁
𠀃
𠀆
𠀉
𠀎
𠀐
𠁁
𠁣
𠂆
𠂇
𠂈
𠂉
𠂊
𠂋
𠂎
𠂒
𠂔
𠂛
𠂡
𠂢
𠂤
𠂬
𠂭
𠂹
𠃊
𠃋
𠃌
𠃍
𠃎
𠃑
𠃓
𠃔
𠃜
𠄌
𠄎
𠄠
𠄢
𠆢
𠆥
𠇍
𠈌
𠌵
𠓜
𠔉
𠔥
𠔼
𠔽
𠔿
𠕀
𠕁
𠕋
𠘧
𠘨
𠙻
𠙼
𠚏
𠚒
𠚤
𠚪
𠣏
𠤎
𠤕
𠥓
𠦄
𠦑
𠦝
𠧒
𠧗
𠧪
𠩺
𠪚
𠫓
𠫔
𠫤
𠬛
𠬝
𠬞
𠬢
𠬤
𠬶
𠮛
𠮦
𠮷
𠯑
𠱠
𠳮
𠷎
𡈼
𡉀
𡉵
𡌥
𡍮
𡏳
𡕒
𡕩
𡕰
𡖅
𡗗
𡗜
𡘆
𡘤
𡧱
𡨄
𡩧
𡬠
𡭽
𡰣
𡰥
𡰪
𡰯
𡰱
𡷈
𡸁
𡿨
𡿩
𡿪
𡿺
𢀖
𢀛
𢀩
𢁙
𢆉
𢆰
𢆶
𢇁
𢇇
𢉖
𢌬
𢌿
𢏚
𢑑
𢑚
𢖻
𢙣
𢛳
𢦏
𢦒
𢧵
𢼄
𢾕
𣁋
𣄼
𣅀
𣅽
𣍘
𣎳
𣎵
𣏋
𣏼
𣗥
𣥂
𣥖
𣦵
𣦼
𣧄
𣪊
𣪠
𣬉
𣳾
𣶒
𤇾
𤊽
𤐫
𤓰
𤔔
𤕨
𤣩
𤰇
𤰔
𤰞
𤴓
𤴔
𤽄
𥁑
𥁕
𥃦
𥃩
𥃭
𥇡
𥑟
𥘅
𥘈
𥝢
𥫗
𥱡
𦈢
𦉪
𦉬
𦉼
𦍌
𦍒
𦎧
𦐇
𦓔
𦔮
𦘒
𦙃
𦚏
𦣝
𦣞
𦣻
𦥑
𦥔
𦥯
𦨉
𦭝
𦰩
𧆞
𧈧
𧘇
𧰨
𧴪
𧴮
𧵩
𧾷
𨸏
𨾴
𩙿
𩠐
𩫏
𩵋
𪉷
𪜀
𪟽
𪠲
𪩲
𫇦
𫔭
𫜸
𫝀
𫠣
𫠩
𫢉
𫥞
𫩏
𫩠
𫪡
𫲽
𫶧
𬀷
𬐘
𬗌
𬙙
𬛸
𬜯
𬟩
𬯁
𬴘
𬺻
𬼉
𬼖
𭀰
𭁈
𭁨
𭅰
𭑈
𭕄
𭗼
𭤨
𭥫
𭻾
𮅕
𮊿
𮍌
𮍏
𮓗
𮥼
𮧮
廾
𰀁
𰀄
𰀈
𰀉
𰀕
𰀠
𰀡
𰀢
𰀪
𰁜
𰃮
𰆊
𰆘
𰋙
𰕎
𰢴
𰧭
𰯲
a--
aa--
ab--
abo--
ac--
acu--
ad--
ade--
ae--
af--
ag--
aga--
ah--
ai--
ak--
al--
ala--
alder--
ale--
alg--
ali--
all--
alm--
alt--
alten--
am--
ama--
ami--
ammer--
an--
ana--
and--
ani--
ans--
ant--
app--
ar--
arc--
are--
argu--
ari--
arji--
arm--
arme--
arn--
arpe--
arte--
as--
ash--
astro--
at--
atu--
au--
aus--
auto--
av--
ave--
ay--
az--
b--
ba--
bac--
bai--
bal--
bar--
bard--
bas--
bau--
bay--
be--
beau--
bee--
bel--
bell--
belle--
ben--
ber--
berg--
bern--
beth--
bi--
bib--
bick--
bicy--
bio--
biographi--
bis--
bl--
black--
ble--
blo--
bloom--
blue--
bo--
boc--
bon--
bona--
bor--
bos--
bow--
boy--
boz--
bra--
brad--
bre--
brego--
bri--
bro--
brown--
bru--
bry--
bu--
buc--
buck--
bur--
burgen--
by--
c--
ca--
cai--
cal--
camp--
can--
cana--
cap--
car--
cas--
casta--
cate--
cay--
caz--
ce--
cel--
cele--
cen--
cer--
ch--
cha--
chal--
che--
chi--
chu--
ci--
cia--
cin--
ciu--
cla--
clas--
classifi--
clay--
cle--
cli--
clo--
co--
coal--
cogno--
coi--
col--
cold--
cole--
colon--
com--
con--
cor--
cores--
corn--
cos--
costi--
cou--
cour--
cow--
coy--
cr--
cran--
cre--
creat--
cres--
cri--
cro--
cross--
cru--
cu--
cue--
cul--
cum--
cun--
cur--
d--
da--
dahl--
dal--
dale--
dam--
dan--
dar--
de--
dea--
decoraz--
del--
dell--
den--
der--
des--
desmi--
det--
deter--
di--
dia--
die--
dis--
dl--
dla--
do--
dolo--
dom--
don--
dorn--
dou--
dr--
dt--
du--
dul--
dun--
dy--
e--
ea--
east--
ec--
eccle--
ecu--
ed--
ede--
edge--
ef--
ei--
el--
ele--
elep--
elet--
elk--
ell--
elm--
els--
ely--
emm--
emo--
emp--
en--
end--
ent--
eph--
epp--
er--
ero--
es--
est--
et--
eu--
eura--
evangel--
eve--
ex--
ez--
f--
fa--
fab--
fair--
fal--
falk--
fam--
far--
fas--
fau--
fe--
feld--
feli--
fen--
fer--
fern--
festi--
fi--
fif--
fig--
figliol--
fin--
fina--
fio--
fis--
fitz--
fl--
fla--
flo--
flu--
fo--
fond--
for--
fox--
fra--
fre--
free--
fri--
friends--
fruit--
fu--
ful--
funi--
g--
ga--
galas--
gale--
gali--
gall--
gar--
gas--
gau--
ge--
gem--
gen--
geo--
ger--
ghe--
gher--
gi--
gia--
gian--
gil--
giu--
gl--
glas--
glen--
gli--
gly--
gn--
go--
god--
gol--
gold--
good--
gra--
grain--
gramati--
gray--
gre--
green--
gri--
grif--
gro--
gru--
gse--
gu--
gua--
guar--
guay--
gugli--
gul--
guy--
h--
ha--
had--
hai--
hal--
han--
hand--
har--
hara--
hart--
harts--
has--
hat--
haw--
hay--
he--
hec--
hel--
hen--
her--
hexen--
hey--
hi--
high--
hil--
hill--
hl--
ho--
hob--
hod--
hohen--
holl--
holz--
home--
hope--
hor--
horn--
hoy--
hu--
hur--
hy--
i--
ia--
iag--
ida--
ie--
if--
ig--
ij--
il--
im--
in--
ina--
inc--
indi--
indu--
ingl--
ins--
inter--
inz--
io--
ipo--
ir--
is--
ist--
it--
iu--
iv--
j--
ja--
jan--
je--
jen--
ji--
jo--
ju--
jug--
jun--
k--
ka--
kal--
ke--
kea--
ken--
kenn--
kent--
ker--
ket--
kewa--
key--
ki--
kil--
kill--
king--
kirch--
kirchen--
kirk--
kit--
ko--
kra--
kri--
ku--
kunst--
ky--
l--
la--
lac--
laga--
lagu--
lake--
lamo--
lan--
land--
lang--
lar--
las--
lat--
lau--
law--
lay--
le--
lea--
lec--
leg--
les--
let--
lez--
li--
lil--
lin--
ll--
lo--
lock--
log--
logan--
long--
lou--
loy--
ls--
lu--
lum--
ly--
lyn--
lynn--
m--
ma--
mack--
mag--
mai--
maj--
mal--
man--
mande--
manif--
mar--
mary--
mat--
mau--
may--
mc--
mcc--
mcca--
mccr--
mcfar--
mck--
mcm--
mcn--
me--
mead--
mel--
melo--
men--
mer--
mes--
meso--
met--
meta--
mi--
mid--
mil--
mili--
mill--
minis--
minn--
mis--
mit--
mo--
molec--
mon--
mona--
mond--
mono--
mont--
monte--
moor--
moore--
mor--
more--
mos--
mper--
mu--
mul--
mun--
mur--
mus--
musiz--
my--
n--
na--
nar--
naz--
naziu--
nc--
nd--
ne--
neo--
nes--
net--
neu--
new--
ng--
ni--
nie--
nigs--
nis--
nje--
no--
nor--
north--
not--
nou--
noy--
noz--
ns--
nt--
nter--
nu--
num--
nuo--
nz--
o--
oa--
oak--
ob--
ober--
occa--
of--
oka--
oke--
ol--
ola--
old--
oli--
olo--
om--
on--
ona--
opt--
or--
ora--
ore--
org--
ori--
orto--
os--
ost--
ot--
out--
ov--
over--
owens--
ox--
oz--
p--
pa--
pack--
pag--
pai--
palm--
pan--
par--
park--
parla--
pas--
pay--
pe--
pea--
peit--
penn--
per--
phi--
phil--
pi--
pic--
pie--
pier--
pin--
pine--
pits--
pitts--
piz--
pl--
pla--
plat--
platts--
ple--
plo--
plu--
pluri--
po--
pol--
pop--
por--
poy--
pra--
pre--
pri--
princi--
pro--
prop--
pru--
ps--
pu--
pul--
pur--
pusiz--
py--
qu--
qua--
que--
qui--
r--
ra--
rac--
rai--
ram--
rand--
rapre--
ravens--
raw--
ray--
re--
rec--
red--
reeds--
reli--
ren--
res--
rex--
rey--
ri--
rich--
rif--
ring--
rinoze--
river--
rn--
ro--
rock--
ros--
rose--
ross--
rou--
rous--
row--
rox--
roy--
rs--
rt--
ru--
run--
rush--
ry--
s--
sa--
sac--
sai--
sal--
san--
sand--
sapp--
sar--
sati--
sau--
savo--
saw--
sax--
say--
sc--
scar--
sch--
schi--
schu--
sci--
scie--
sco--
scu--
se--
sea--
sebas--
see--
sei--
sel--
ser--
set--
sey--
sha--
she--
shel--
sher--
shi--
sho--
shu--
si--
sidd--
sie--
sil--
sims--
sin--
sl--
slaugh--
sli--
smo--
smu--
sn--
so--
sol--
somm--
son--
sop--
sor--
soste--
sot--
sp--
spa--
spe--
spi--
spo--
spra--
st--
sta--
stan--
ste--
sto--
stock--
stone--
stra--
strath--
stru--
su--
sub--
suf--
sul--
sun--
sunny--
super--
sur--
sura--
suther--
sw--
swa--
swed--
sy--
syl--
t--
ta--
tai--
tal--
tan--
tar--
te--
tecno--
tel--
tele--
ten--
ter--
terry--
tes--
tex--
tgi--
th--
the--
thor--
thorn--
thu--
ti--
til--
till--
tla--
to--
tof--
tol--
top--
topo--
tor--
tr--
tra--
trans--
tras--
tre--
tri--
trin--
tro--
tru--
ts--
tt--
tu--
tur--
tut--
tw--
ty--
tz--
u--
uc--
uf--
uk--
ul--
um--
un--
una--
uni--
ups--
ur--
ura--
urga--
us--
ut--
v--
va--
val--
van--
var--
varia--
ve--
vec--
ven--
ver--
ves--
vi--
vic--
vie--
vin--
vis--
vo--
vol--
volk--
volks--
vu--
vul--
w--
wa--
wah--
wai--
wal--
wan--
wana--
wand--
war--
wau--
wauk--
we--
wea--
wee--
weed--
wei--
wel--
wen--
wer--
west--
wet--
whe--
whi--
whit--
white--
wi--
wic--
wick--
wie--
wiki--
wil--
wilm--
wim--
win--
wis--
wit--
wo--
wol--
wood--
woods--
wu--
wy--
x--
y--
yan--
ye--
z--
za--
ze--
zim--
zo--
zu--
ɪ--
фед--
--0
--1
--11
--2
--3
--4
--5
--6
--7
--8
--9
--a
--ac
--ace
--ach
--ad
--ada
--ade
--adin
--ado
--adour
--ae
--age
--ah
--aha
--ai
--ak
--al
--ala
--ald
--ale
--alme
--am
--ame
--an
--ana
--anc
--and
--ano
--ans
--ant
--anta
--anza
--anzes
--ar
--ara
--ard
--aro
--ary
--as
--at
--ata
--ate
--ator
--au
--augh
--aun
--avi
--aw
--ay
--az
--azion
--aziun
--b
--ba
--bach
--bad
--bat
--bbs
--be
--bel
--berg
--bes
--bi
--bia
--bian
--bl
--bo
--born
--boro
--bourne
--brook
--bs
--burg
--burn
--bury
--bush
--by
--c
--ca
--cco
--ce
--cees
--cel
--ch
--che
--chie
--ci
--cia
--ck
--cl
--co
--creek
--croft
--cs
--ct
--cton
--cundi
--cy
--d
--da
--dae
--dale
--dd
--ddy
--de
--den
--der
--des
--dge
--dgia
--di
--din
--ding
--dis
--dl
--dle
--dler
--do
--don
--dor
--dore
--dorf
--dot
--dova
--dra
--dri
--ds
--dt
--du
--duziun
--dy
--e
--ea
--ec
--ech
--ed
--eda
--ede
--ee
--ei
--eies
--eji
--ek
--eka
--el
--ela
--ele
--eles
--ell
--ely
--em
--en
--enbach
--ens
--enza
--eo
--er
--era
--ere
--eres
--eria
--ering
--ero
--ers
--es
--esc
--ese
--esi
--et
--eto
--etown
--ets
--ett
--etta
--ette
--ev
--ey
--f
--fa
--fe
--feld
--ff
--ffe
--fica
--fich
--field
--flic
--fod
--foot
--ford
--fs
--ft
--fun
--g
--ga
--gan
--gate
--ge
--gee
--gen
--ges
--gg
--ggio
--ggs
--gh
--gham
--ghe
--ghes
--gho
--ght
--ghton
--gi
--gia
--gin
--gl
--gn
--gne
--go
--gon
--grd
--gruppe
--gs
--gton
--gung
--gus
--h
--ha
--ham
--hard
--hausen
--he
--head
--heim
--her
--hes
--hi
--hia
--hill
--hing
--hl
--hn
--hof
--holm
--hon
--hr
--ht
--hu
--hurst
--hy
--i
--ia
--ial
--iam
--ian
--iana
--iano
--ic
--ica
--ice
--ich
--iches
--ici
--ick
--ico
--icott
--ics
--id
--ida
--idae
--ide
--ie
--iel
--ier
--iers
--ies
--ieta
--iete
--if
--ificazion
--ift
--ig
--ight
--igne
--igny
--ik
--ika
--il
--ile
--ill
--illa
--im
--ima
--ime
--in
--ina
--ine
--ines
--ing
--ington
--ini
--inio
--ino
--ins
--int
--io
--ion
--ions
--ior
--ir
--ire
--is
--isa
--isazion
--isch
--ischer
--ise
--iseda
--ish
--ism
--iso
--issa
--ist
--istica
--istich
--it
--ita
--ite
--ities
--ito
--iton
--ity
--itz
--ium
--iun
--ius
--iva
--ives
--ix
--izia
--iziun
--j
--ja
--je
--jel
--ji
--jia
--jiun
--jo
--ju
--k
--ka
--ke
--ken
--ker
--ket
--kham
--kin
--kley
--ko
--ks
--ky
--l
--la
--lage
--lake
--land
--lands
--lar
--lard
--lc
--ld
--ldo
--le
--lea
--lee
--leghes
--lei
--lem
--len
--leone
--les
--let
--ley
--lf
--li
--lia
--lico
--lidae
--lin
--line
--lio
--lis
--ll
--lla
--lle
--lles
--llo
--lly
--lm
--lme
--lo
--logy
--lon
--ls
--lt
--lta
--lte
--lton
--lu
--ly
--lyn
--m
--ma
--man
--mann
--mar
--mas
--me
--ment
--mente
--menter
--mer
--min
--mo
--mon
--mont
--moor
--moos
--mporana
--ms
--mus
--my
--n
--na
--nac
--nar
--nard
--nby
--nc
--nce
--nci
--nd
--nda
--ndale
--nde
--ndi
--ndo
--ndon
--ndorf
--ndt
--ne
--neda
--nee
--nen
--ner
--nes
--nese
--ney
--ng
--nge
--nger
--ngo
--ngs
--ngton
--nham
--nheim
--ni
--nia
--nic
--ning
--ningham
--nington
--nk
--nn
--nna
--nne
--no
--nock
--nor
--ns
--nsk
--nson
--nt
--nta
--nte
--nteles
--nter
--nti
--ntin
--ntino
--nto
--nton
--ntra
--nts
--nu
--nut
--ny
--nz
--nza
--nzes
--o
--oa
--oc
--och
--ock
--od
--oe
--of
--og
--ogne
--oi
--ois
--ok
--ol
--ola
--oll
--olo
--ologia
--om
--ome
--omon
--on
--one
--onia
--onne
--ont
--onta
--oo
--ook
--oon
--op
--or
--ore
--ores
--orf
--orn
--ors
--os
--osa
--ot
--ote
--otti
--ou
--oul
--out
--ov
--ova
--ow
--own
--ows
--oy
--p
--pa
--pe
--pee
--pei
--phy
--pi
--pio
--play
--po
--pool
--port
--ppa
--ps
--pton
--pul
--q
--r
--ra
--ral
--ran
--ranza
--ras
--rc
--rca
--rcy
--rd
--rdo
--re
--rea
--reda
--ree
--rem
--res
--ret
--rf
--ri
--ria
--ribuc
--rin
--rine
--ring
--rington
--rio
--ris
--rk
--rly
--rn
--rne
--rns
--ro
--rolo
--ron
--row
--rr
--rry
--rs
--rson
--rst
--rt
--rta
--rto
--rton
--rtown
--rty
--ru
--rum
--rva
--ry
--rz
--s
--sa
--sboro
--sburg
--sby
--sc
--sch
--scime
--scion
--sdorf
--se
--see
--sel
--sen
--ser
--set
--sh
--sham
--shire
--si
--sia
--side
--sio
--sk
--ska
--sko
--sley
--so
--som
--son
--spitzen
--ss
--ssa
--sso
--st
--sta
--ste
--stead
--ster
--stich
--ston
--stown
--su
--sville
--sy
--t
--ta
--tada
--tal
--tar
--tare
--tas
--tat
--te
--tead
--ted
--teda
--tee
--ter
--tes
--tg
--th
--tha
--ti
--tica
--tich
--tide
--tif
--tin
--tion
--tisc
--tiva
--tive
--tives
--tl
--to
--toi
--tok
--ton
--tone
--top
--town
--tra
--tree
--tri
--ts
--tsch
--tsk
--tt
--tta
--tte
--tto
--tton
--tu
--tum
--tur
--tura
--ture
--tus
--ty
--tz
--u
--ua
--ual
--uar
--uc
--ud
--uda
--ue
--uel
--ugh
--ughn
--ui
--uil
--uin
--uk
--ukee
--ul
--ula
--ulin
--um
--un
--uns
--unt
--uorn
--up
--ur
--ura
--urn
--urne
--us
--ut
--ux
--uz
--v
--va
--vale
--ve
--vea
--ver
--vi
--via
--view
--ville
--vo
--vue
--vy
--w
--wa
--way
--we
--wealth
--well
--wick
--win
--wn
--wo
--wood
--ws
--wyn
--x
--xton
--y
--ya
--ye
--yl
--yn
--ys
--z
--za
--zan
--zana
--zano
--ze
--zed
--zedu
--zel
--zer
--zes
--zi
--zia
--zie
--zil
--zio
--zion
--ziun
--ziuns
--zo
--zon
--zoni
--zy
--zza
--zzi
--ß
--и
--ии
