!
"
#
##0
##1
##10
##11
##12
##13
##14
##15
##16
##17
##18
##19
##2
##20
##21
##22
##23
##24
##25
##26
##27
##28
##29
##3
##30
##31
##32
##33
##34
##35
##36
##37
##38
##39
##4
##40
##41
##42
##43
##44
##45
##46
##47
##48
##49
##5
##50
##51
##52
##53
##54
##55
##56
##57
##58
##59
##6
##60
##61
##62
##63
##64
##65
##66
##67
##68
##69
##7
##70
##71
##72
##73
##74
##75
##76
##77
##78
##79
##8
##80
##81
##82
##83
##84
##85
##86
##87
##88
##89
##9
##90
##91
##92
##93
##94
##95
##96
##97
##98
##99
$
%
&
'
(
)
*
+
,
-
.
/
0
00
000
00010
006
007
01
010
02
03
04
05
06
07
08
09
1
10
100
1000
101
10142
1016
101663
104
105
107
108
1080
108221
109
1093
11
110
1100
111
1111
112
112566
113
113797
114520
115
115752
116
1185
12
120
1200
120188
121
123
125
126
127
128
129
13
130
132
1325
134
137
139
14
140
144
1453
146
147
149
15
150
1500
1510
152
154
1543
155
157
158
16
160
1600
162
163
1642
165
166
168
169
17
175
1776
178
1790
1791
18
180
1800
1809
181
183
1830
1853
186
187
1872
1878
188
1880
1882
1884
189
1895
1898
19
190
1900
1901
1902
1907
1908
190813
1911
1912
1913
1916
1917
1918
1919
1920
1922
1923
1924
1925
1926
1927
1928
1929
1930
1931
1932
1933
1934
1935
1936
1937
1938
1939
1940
1941
1942
1943
1944
1945
1946
1947
1948
1949
1950
1951
1952
1953
1954
1955
1956
1957
1958
1959
196
1960
1961
1962
1963
1964
1965
1966
1967
1968
1969
197
1970
1971
1972
1973
1974
1975
1976
1977
1978
1979
1980
1981
1982
1983
1984
1985
1986
1987
1988
1989
1990
1991
1992
1993
1994
1995
1996
1997
1998
1999
2
20
200
2000
2001
2002
2003
2004
2005
2006
2007
2008
2009
201
2010
2011
2012
20121023052224
2013
2014
2015
2016
2017
20170728
2018
2019
2020
20200817
2021
2022
2023
2024
2025
2030
204
2050
207
208557
21
210
213
214
215
219
22
220
224
23
235
237
24
240
243
25
250
2500
251
252
253
255
2558
256
258
26
2600
267
27
270
28
280
29
290
3
30
300
3000
31
310
313
32
3212
33
331
333
338
34
340
35
350
35732
36
360
365
366
37
370
38
380
383
39
394
4
40
400
4000
41
416
42
420
427
43
430
44
45
450
46
4687823
47
473
475
48
480
48223
4853
49
5
50
500
5000
51
51850460
51858367
52
53
54
55
550
559
56
5604
57
58
580
58477515
58819
59
6
60
600
61
62
63
639
64
65
650
66
67
670
68
680
69
7
70
700
7000
71
71490
72
73
74
75
76
765
77
770
779
78
79
797
8
80
800
8000
81
812
81337
82
83
83066
84
85
86
87
87348
88
88611
89
89598
9
90
900
903
91
92
93
94
94462
95
950
95305
96
97
978
98
99
:
;
<
=
>
?
@
[
\
]
^
_
`
a
aa
aan
aaron
ab
aba
ababa
ababana
ababiligi
ababirigi
ababo
ababyaza
ababyeyi
ababyinnyi
abacakara
abacamanza
abacanshuro
abacitse
abacungamari
abacuranzi
abacuruzi
abadafite
abadage
abadamu
abadepite
abadivantisiti
abadiventisti
abafana
abafaransa
abafasha
abafata
abafatanyabikorwa
abafilozofe
abafite
abaforomo
abafurere
abagabekazi
abagabo
abagalatiya
abaganga
abagatolika
abageni
abagenzi
abagera
abagereki
abagiraneza
abagize
abagizi
abagore
abagororwa
abaguzi
abahagarariye
abahamya
abahanga
abahanzi
abaharanira
abahatanira
abahatuye
abahigi
abahimbyi
abahinde
abahindu
abahinzi
abaho
abahohotewe
abahoze
abahuje
abahungu
abahutu
abajyanama
abakandida
abakaraza
abakene
abakinnyi
abakinyi
abakire
abakiri
abakirisitu
abakiriya
abakobwa
abakoloni
abakomunisiti
abakora
abakorerabushake
abakoresha
abakoze
abakozi
abakristu
abakunda
abakundana
abakunzi
abakurambere
abakuru
abakuze
abaluteriyani
abamasayi
abami
abaminisitiri
abamisiyoneri
abamongoli
abamugaye
abana
abanazi
abandi
abanditsi
abanduye
abanenga
abangavu
abangilikani
abaniwonda
abantu
abanya
abanyaburayi
abanyacyubahiro
abanyafrika
abanyafurika
abanyakoreya
abanyamadini
abanyamaguru
abanyamahanga
abanyamakuru
abanyamerika
abanyamisiri
abanyamuryango
abanyamwuga
abanyankore
abanyapolitiki
abanyarwanda
abanyarwandakazi
abanyempano
abanyeshuli
abanyeshuri
abanyiginya
abanza
abanzi
abapadiri
abaperezida
abapfakazi
abapfumu
abapfuye
abapolisi
abaporotesitanti
abarabu
abarangije
abareba
abarebera
abarenga
abari
abarimu
abaririmbyi
abarizwa
abarobyi
abarokotse
abaroma
abaromani
abarundi
abarusiya
abarwanashyaka
abarwanyi
abarwayi
abaryamana
abasaga
abasangwabutaka
abasaza
abasekuruza
abasenateri
abasha
abashakanye
abashakashatsi
abashe
abashinwa
abashinzwe
abashomeri
abashoramari
abashumba
abashyitsi
abasifuzi
abasiganwa
abasirikare
abasirikari
abasivili
abasohoka
abasore
abasosiyalisiti
abasoviyeti
abataliyani
abatarengeje
abatari
abatavuga
abategarugori
abategetsi
abategura
abaterankunga
abatesalonika
abateze
abatishoboye
abato
abatoza
abatsinze
abatumva
abaturage
abaturanyi
abaturarwanda
abaturiye
abaturukiya
abatutsi
abatuye
abatwa
abatwara
abavandimwe
abavuga
abawutuye
abayahudi
abaye
abayireba
abayisilamu
abayitabiriye
abayo
abayoboke
abayobora
abayobozi
abaza
abazima
abazimu
abazize
abazungu
abbas
abdallah
abdel
abdelhamid
abderrahmane
abdi
abdou
abdul
abdullah
abe
abeba
abebrese
abeddy
abel
abenegihugu
abenshi
abepiskopi
abera
abi
abibumbiye
abibumbye
abibumye
abicanyi
abidjan
abifashijwemo
abiga
abikora
abikorera
ability
abimukira
abinjira
abinyujije
abirabura
abiri
abiru
abitabiriye
abitangaza
abitwa
abivuga
abizera
abizi
abo
abona
abone
aboneka
abongereza
abonye
aborozi
abou
abouba
abouna
about
abraham
abs
abu
abubatsi
abuja
abukaziya
abumva
abura
aburahamu
abuza
abwana
abwira
abyara
abyina
abyssinica
ac
acacia
acade
academia
academic
academics
academy
access
accessed
accident
accipiter
according
accounting
accra
ace
achievement
achievers
achour
acika
acnr
acp
acquisition
acres
acrocephalus
across
acsi
act
acting
action
active
activist
activities
actor
actorid
actors
actress
actresses
actrice
actualite
actualites
acute
ad
ada
adafite
adalar
adam
adama
adams
adamson
adamu
adana
adapted
adb
addis
ade
adel
adepr
adichie
adil
adj
adjetey
adjorlolo
admin
administration
administrative
adn
adolf
adolphe
adoma
adrar
adrien
adrienne
aduwak
advanced
advani
adventiste
adverb
advice
advisory
adıyaman
ae
aegis
af
afarit
afasha
afashe
afata
afatanije
afatanya
afatanyije
afatwa
afda
afdb
affair
affairs
afi
afitanye
afite
aflit
afp
afr
africa
africain
africaine
africalia
african
africana
africanews
africanfilmny
africano
africans
africanus
africanwomenincinema
africas
africasacountry
africavenir
africine
africultures
afrifame
afrik
afrika
afrikaans
afrique
afro
afrobasket
afrocharts
aft
after
afternoonexpress
afuganisitani
afurika
afyonkarahisar
ag
aga
agace
agaciro
agadez
agafata
agaha
agahabwa
agahigo
agahinda
agahita
agahu
again
against
agakapu
agakingirizo
agakiza
agakoko
agakora
agamije
agana
aganira
agaragara
agaragaza
agaruka
agarutse
agasakoshi
agasaro
agaseke
agashya
agasozi
agasuzuguro
agatabo
agateganyo
agatha
agathe
agati
agatsiko
agatsinda
agave
age
agency
agenda
agenga
agent
agera
agerageza
ageze
agezeyo
agezweho
agifite
agira
agirana
agire
agirwa
agiye
agize
agizwe
agnes
agomba
agony
agossou
agra
agriculture
aguma
agumana
agura
agurisha
aguye
ah
aha
ahabwa
ahabwe
ahagana
ahagaragara
ahagarara
ahagarariye
ahagarika
ahagaze
ahagije
ahahoze
ahakorerwa
ahakura
ahamya
ahandi
ahangayikishijwe
ahanini
ahantu
aharanira
ahari
ahasaga
ahasanga
ahatirwa
ahava
ahazaza
ahead
ahera
aherekejwe
aherereye
ahereye
aheruka
aherutse
ahinduka
ahindura
ahinnye
ahita
ahitamo
ahitwa
ahmadiyya
ahmed
ahmedabad
ahmet
aho
ahora
ahubwo
ahungira
ahura
ahuza
ahwanye
ai
aicha
aid
aider
aidoo
aids
aim
aime
aims
ainea
air
aires
airport
airtel
ais
aisa
aise
aisha
aje
ajya
ajyanye
ajye
ak
aka
akaba
akababaro
akabambano
akabari
akabiri
akabona
akabumbe
akabura
akademiki
akaga
akagali
akagari
akagera
akagira
akajagari
akajya
akaliza
akamanzi
akamaro
akamenya
akamo
akanama
akandi
akandika
akanya
akanyana
akanyaru
akaramata
akarengane
akarere
akarusho
akato
akavuga
akayabo
akaza
akazi
akazu
akeneye
akenshi
aki
akilah
akimara
akina
akinamo
akindele
akinira
akiri
akitwa
akivuka
ako
akomeje
akomereza
akomeye
akomeza
akomeze
akomoka
akomokamo
akora
akorana
akore
akorera
akoresha
akoresheje
akoreshwa
akosua
akoze
aksaray
akubiyemo
akuffo
akumva
akunda
akundana
akundwa
akunze
akunzwe
akura
akurikira
akurikirana
akurikirwa
akurira
akuriye
akuze
akwiriye
akwiye
akyurt
al
alain
alakija
alamy
alan
alba
albert
alberta
albertine
albino
albizia
album
albums
alchetron
alchimie
alegizandiriya
alepo
alert
aletta
alex
alexander
alexandra
alexandre
alexia
alexis
alfred
algiers
ali
alice
alien
aligeriya
alijeriya
aliko
aline
alive
aljazeera
all
allafrica
allan
allen
alliance
allmovie
allocine
ally
alodie
aloe
alois
along
alonga
aloys
aloysie
alpha
alphonse
alphonsine
alphonsus
also
altı
altındag
alubaniya
alubumu
alumna
alumni
alvera
always
alyn
am
ama
amaa
amababa
amababi
amabanga
amabanki
amabara
amabaruwa
amabere
amaboko
amabonekerwa
amabuye
amabwiriza
amabyi
amacakubiri
amacandwe
amacumbi
amacumu
amacupa
amadi
amadini
amadolari
amadorali
amadorari
amadou
amadovize
amaduka
amafaranga
amafarashi
amafi
amafilime
amafirime
amafoto
amafunguro
amagaju
amagambo
amaganya
amagare
amagi
amagorofa
amagufa
amagufwa
amaguru
amagweja
amahame
amahanga
amahano
amahembe
amaherezo
amahigi
amahirwe
amahitamo
amahoro
amahoteli
amahoteri
amahugurwa
amahumbezi
amahwa
amajoro
amajwi
amajyambere
amajyaruguru
amajyepfo
amakamba
amakara
amakarita
amakimbirane
amakinamico
amakipe
amakoperative
amakosa
amakuru
amal
amamesa
amanda
amanfo
amanga
amani
amanota
amanywa
amapapayi
amapfa
amapingu
amara
amaradiyo
amaraka
amarangamutima
amaraso
amarebe
amarembo
amarenga
amarira
amarteifio
amarushanwa
amasaha
amasaka
amasaku
amasaro
amasasu
amase
amasegonda
amasengesho
amasezerano
amashami
amashanyarazi
amashashi
amashaza
amashereka
amashu
amashuli
amashuri
amashusho
amashyaka
amashyamba
amashyi
amashyira
amashyirahamwe
amashyuza
amasiganwa
amaso
amasohoro
amasoko
amasomo
amasosiyete
amasunzu
amasya
amata
amatafari
amatangazamakuru
amatangazo
amatara
amatariki
amategeko
amateka
amatembabuzi
amatike
amato
amatora
amatorero
amatsiko
amatsinda
amatunda
amatungo
amatwi
amavirusi
amavubi
amavuko
amavuriro
amavuta
amayaga
amayeri
amayobera
amayugi
amaze
amazemo
amazi
amazina
amazing
amazon
amazu
ambasade
ambasaderi
ambassador
ambassadors
ambere
ambrose
ambrosiaster
ambulance
amelia
amenshi
amenya
amenye
amenyekana
amenyerewe
amenyo
america
american
americana
americanah
amerika
amerique
ameza
ameze
amezi
amidon
amikoro
amin
amina
amine
amis
amissa
amizero
amlıdere
amnesty
amoko
among
amor
amour
amp
amphibian
ampproject
ampshare
amptelike
amr
amsterdam
amubwira
amufasha
amusaba
amvca
amwe
amy
an
ana
anaba
anafite
anakina
anakora
analyse
analysis
anang
ananse
anas
anastase
anayobora
ancienne
ancient
and
andere
andereya
anderson
andi
andora
andrade
andre
andrew
andrews
andriamonta
andropadus
andy
ane
anemia
anenga
angana
angano
ange
angel
angela
angeles
angelique
angelo
anglo
angola
angolensis
animal
animals
animasiyo
anita
anjembe
anjine
ankara
ankaya
ankırı
ann
anna
anne
anniversary
annonciata
announced
announces
annual
another
ans
ansah
anta
antalya
anthony
anthropology
anthus
anti
antibiyotiki
antibodies
antibody
anto
antoine
antoinette
anton
antonio
any
anyamele
anyura
anyuranye
anyuze
anywa
ao
aoh
ap
apage
apalis
apartheid
ape
apea
apfa
apfuye
apis
apk
apo
apostolat
apotre
appiah
apple
apples
appointed
appoints
approach
apps
apr
april
apus
aqkkafqarabiiacaw
aquereburu
aquila
ar
ara
arab
arabic
arabiya
aracyafite
arafa
arafat
arambuye
arambye
arangije
arangiza
arangize
arangwa
arasaba
arase
arashaka
arashobora
arateganya
aravuga
arboretum
arbre
arc
arcade
architecture
archive
archived
archives
ard
ardahan
ardea
are
area
areas
areba
arena
arende
arenga
arengera
areruya
areshya
argentina
ari
ariane
aribo
aribwo
aribyo
aricyo
arid
ariel
ariho
arijantine
arikidiyosezi
arikiyepiskopi
ariko
arikumwe
arimo
arinaho
arinako
arinayo
arindwi
arinze
ariouet
aririmba
arirwo
ariryo
aritwo
ariwe
ariwo
ariyo
arizo
arizona
ark
arkiyepiskopi
army
arnavutko
arno
arnold
arota
around
art
arthur
article
articles
artist
artiste
artists
artocarpus
arts
artvin
aruba
arubatse
aruko
arumeniya
arusha
arushaho
arwanya
arwaye
aryamye
as
asa
asaba
asabe
asaga
asamoah
asanga
asante
asanu
asanzwe
asazwe
asengera
asetsa
asezera
ashaka
ashakisha
ashampiyona
ashimangira
ashimirwa
ashimwe
ashinga
ashingiye
ashinjwa
ashinzwe
ashish
ashishikajwe
ashishikariza
ashobora
ashoboye
ashyigikira
ashyigikiye
ashyira
ashyiraho
ashyirwa
ashyirwaho
ashyushye
asia
aside
asigaye
asikarisi
asimburwa
asimbuye
asize
asobanura
asohoka
asohora
asoje
asoza
asp
aspx
assassin
assembly
assia
assistant
associate
associated
association
associations
assogba
assumpta
astley
astrid
astrida
asubira
asubiza
asura
at
ata
atabishaka
atagira
atalantika
atandatu
atandukana
atandukanye
atanga
atangaza
atange
atangira
atangire
atangirira
atangiye
atangiza
atangwa
atanu
atari
atatu
atazi
atazigera
ate
ateganijwe
ateganya
ategura
ategurwa
atekereza
atera
aterwa
ateye
ateza
athanase
athlete
athletes
athletics
athman
athmane
ati
atigeze
atinya
atlanta
atlantics
atlantike
atlas
ato
atome
atoranywa
atorerwa
atorewe
atorwa
atoza
atraco
atrice
atrium
atsinda
atsindira
atsinze
attah
attend
attia
attoh
atukura
atuma
atunganya
atunze
atura
aturuka
aturutse
atuye
atwara
atwite
atyo
au
aubrey
audience
audio
audiovisual
august
augustin
aurore
austin
australia
australian
australie
australiya
auteur
authentic
author
authority
authors
autres
auvergne
aux
auxiliaires
ava
available
avant
avanze
ave
avec
avignon
avoka
avuga
avugako
avugana
avugwa
avuka
avukamo
avukana
avukira
avura
avutse
avuye
aw
award
awards
away
awf
awlf
axel
axzz
ay
aya
ayanda
ayandi
ayas
aydın
ayiga
ayikinira
ayinkamiye
ayisumbuye
ayita
ayo
ayobora
ayobowe
ayoboye
ayoub
az
aza
azaba
azagira
azajya
azakina
azali
azamura
azana
azatanga
azeda
azenguruka
azeribayijani
azi
azira
aziya
aziz
azize
azwi
azwiho
b
ba
bab
baba
babaga
babahanga
babaho
babakobwa
babalola
babamasayi
babana
babanaga
babanje
babanyarwanda
babarirwa
babarizwa
babasha
babashije
babaye
babayeho
babe
babeho
babelserver
babigize
babikora
babiri
babishoboye
babo
babona
babonaga
babone
babonye
babri
baby
babyara
babyarana
babyaranye
babyeyi
babyina
babyinaga
babyita
baca
bach
bachelor
bachelors
back
background
backstage
baction
bacu
bacye
bacyo
bad
badafite
badasanzwe
badashobora
badashoboye
badepite
badmus
bafasha
bafashe
bafashije
bafashwe
bafata
bafatanije
bafatanyabikorwa
bafatanyije
bafatwa
bafitanye
bafite
bafta
bag
bagabo
bagahabwa
bagakomeza
bagakora
bagamije
baganga
baganira
baganire
bagaragaje
bagaragaye
bagaragaza
bagasanga
bagatanga
bagatangira
bagejeje
bagenda
bagenzi
bagenzura
bagera
bagerageza
bagere
bageze
bagezeho
bagira
bagiraga
bagiranye
bagire
bagiteri
bagiye
bagize
bagizwe
bagomba
bagombaga
bagore
bagosora
bags
baguye
bagwire
baha
bahabwa
bahabwe
bahagarariye
bahagaze
bahageze
bahamya
bahanga
bahanganye
bahanzi
baharanira
bahari
bahasha
bahatanira
bahataniraga
bahataniye
bahati
bahatirwa
bahavu
bahawe
bahaye
bahereye
baheruka
baherutse
bahiga
bahinduka
bahindura
bahindutse
bahinduye
bahinga
bahinzi
bahirayini
bahise
bahisemo
bahita
bahitanywe
baho
bahohotewe
bahora
bahuguwe
bahuje
bahumeka
bahunga
bahungira
bahungiye
bahungu
bahunze
bahura
bahurira
bahuriye
bahutu
bahuye
bahuza
baie
bait
baje
bajya
bajyaga
bajye
bakaba
bakabona
bakagira
bakajya
bakame
bakanywa
bakavuga
bakaza
bake
bakeka
bakeneye
bakennye
baker
bakeya
bakimara
bakina
bakinana
bakinnye
bakinnyi
bakiri
bakiriye
bakirwaye
bakize
bakobwa
bakomeje
bakomeye
bakomeza
bakomoka
bakora
bakoraga
bakorana
bakoranaga
bakoranye
bakore
bakorera
bakoresha
bakoreshaga
bakoresheje
bakoreshwa
bakorewe
bakoze
bakozi
bakr
bakunda
bakundaga
bakundana
bakunze
bakunzwe
bakura
bakurikira
bakuru
bakurura
bakuze
bakwiye
bal
bala
balinda
ball
ballet
ballon
baltimore
baltringue
balıkesir
bamako
bamamaye
bamara
bamaranye
bamasayi
bamaze
bambara
bambaye
bamboo
bamenya
bamenye
bamenyekanye
bameze
bami
bamporiki
bamufata
bamwe
ban
bana
banana
band
bandi
bandika
banditse
banditsi
banduye
bane
bang
banga
bangaladeshi
bangana
bangavu
bangmedia
banjul
banjye
bank
banki
banque
bantu
banyamakuru
banyamideli
banyamuryango
banyarwanda
banyarwandakazi
banyeshuri
banyura
banyuranye
banyuze
banyuzemo
banywa
banze
bapfa
bapfuye
bapimwe
baptiste
bar
barack
barahawe
barahungiye
baranduye
barangije
barangiza
barasaba
barashakanye
barashobora
barashoboye
barbara
barcelona
bareba
barenga
barengeje
barenze
bari
baricwa
barimo
barinda
barindwi
baririmba
baririmbaga
baririmbye
baririmbyi
barishimira
bariyeri
barlen
barnard
barokotse
baroudi
bartın
barumuna
barwanya
barwanye
barwara
barwaye
barwayi
barya
baryo
bas
basa
basaba
basabwa
basabwe
basabye
basaga
basanga
basangiye
basanze
basanzwe
basarura
base
based
basenga
basezeranye
bashabe
bashaka
bashakaga
bashakanye
bashatse
bashiki
bashimishijwe
bashimishwa
bashinga
bashingiye
bashinze
bashinzwe
bashir
bashiraho
bashishikajwe
bashizeho
bashobora
bashoboraga
bashobore
bashoboye
bashora
bashunga
bashya
bashyinguwe
bashyira
bashyitsi
bashyize
bashyizwe
basic
basigaye
basilika
basirikare
basirikari
basketball
basohoye
basoje
basore
bastos
basubira
basubiye
basunika
basura
basuye
bat
bata
batagira
batandatu
batandukana
batandukanye
batanga
batangaga
batangaje
batange
batangije
batangira
batangiranye
batangiye
batanu
batanze
batarengeje
batari
batatu
batazi
bateganya
bategereje
bategura
bateguye
batekereza
batera
bateraniye
batewe
bateye
bateze
bati
batigeze
batinya
batishoboye
batman
bato
batoranijwe
batowe
batoza
batsindiye
batsinze
battle
batunganya
batunzwe
batuque
batura
baturage
baturuka
baturutse
batuye
batwite
bava
bavandimwe
bavuga
bavugaga
bavugako
bavugwa
bavuka
bavukana
bavukiye
bavutse
bavuye
bavuze
bawe
bay
bayanduye
bayburt
bayingana
bayirwanya
bayisenge
bayita
bayman
bayo
bayobora
bayobowe
bayoboye
bayobozi
bayoumi
baza
bazaba
bazabana
bazaga
bazahagararira
bazajya
bazanywe
bazi
bazilika
bazima
bazira
bazize
bazwi
bazwiho
bb
bba
bbc
bbosa
bc
bcontroller
bd
bday
bdf
be
beach
beads
beasts
beat
beata
beatha
beatrice
beau
beautiful
beauty
bec
became
become
bedjaoui
beef
been
bef
before
begin
begukanye
behemoth
behind
beijing
being
beirut
bekeni
belai
belaid
belarusi
belge
belgian
belgique
belgrade
belinda
belize
bella
bellanaija
belle
bello
bemeje
bemera
bemeraga
bemeye
bemeza
ben
bene
benediction
benimana
benin
benitha
benjamin
bensaihi
bensari
benshi
benson
bent
bera
berber
bere
berekana
berekane
berekanye
berekeza
berenger
berezile
berg
bergh
berhane
beringei
berko
berlin
berlinale
berna
bernadette
bernard
bernardin
bertrand
bes
beshi
besoek
besri
best
bestsimilar
bet
beto
betty
between
beverly
bey
beykat
beyonce
beyond
beypazarı
beza
bezuidenhout
bf
bfi
bi
bianca
biba
bibafasha
bibaho
bibangamira
bibarirwa
bibasirwa
bibaya
bibaye
bibazo
bibera
bibi
bibiliya
bibiri
bible
biboneka
bibuga
bibyamamare
bibyara
bica
bicaye
bice
biciwe
biciye
bicuruzwa
bicwa
bidafite
bidahagije
bidasanzwe
bidasembuye
bidashoboka
bidashobora
bidatinze
bididi
bidukikije
bifasha
bifashisha
bifashishije
bifata
bifatanije
bifatanya
bifatika
bifatwa
biffot
bifitanye
bifite
bifitiye
bifuza
big
biga
bigabanya
bigaga
bigakorwa
bigamije
bigana
biganiro
biganisha
biganza
bigaragara
bigaragaza
bigaragazwa
bigari
bigatanga
bigatera
bigatuma
bigenda
bigendanye
bigenewe
bigenga
bigenwa
bigera
bigeze
bigezweho
bigira
bigirumwami
bigisha
bigishwa
bigiye
bigize
bigizwe
bigo
bigogwe
bigomba
bigoye
bigufi
bigxavier
bih
biha
bihabwa
bihagaze
bihagije
bihaha
bihangano
bihari
bihe
bihembo
bihenze
biherekejwe
biherereye
bihinduka
bihingwa
bihoraho
bihugu
bihumanya
bihumbi
bihuza
bihwanye
bijya
bijyanye
bikaba
bikabije
bikagabanya
bikagira
bikaze
bike
bikekwa
bikenerwa
bikenewe
bikennye
bikikije
bikira
bikiramariya
bikiri
bikize
bikomeje
bikomeye
bikomeza
bikomoka
bikomye
bikora
bikorera
bikorerwa
bikoresha
bikoresho
bikoreshwa
bikorwa
bikozwe
bikubiyemo
bikubye
bikunda
bikungahaye
bikunze
bikura
bikurikira
bikurikirana
bikurikiranye
bikurikirwa
bikuru
bikurura
bikwiye
bila
bilecik
bill
billboard
billion
billy
bilongo
bimara
bimaze
bimenyerewe
bimenyetso
bimera
bimeze
bimuha
bimuka
bimukiye
bimuwe
bimwe
bin
binagwaho
bindi
bine
bing
bingana
bingo
binini
binjira
binjiye
binjiza
binnelanders
bintu
binyabiziga
binyabuzima
binyamakuru
binyejana
binyobwa
binyuranye
binyuze
bio
biodiversity
biografiya
biographie
biographies
biography
biology
biomed
biomedical
bios
bipimo
bir
birabura
biragaragara
biragoye
birakomeye
biramahire
biranga
birangira
birasanzwe
birashoboka
birashobora
biratandukanye
bird
bireba
birebana
birebire
biremereye
birenga
birenze
birerekana
biri
biribwa
birimo
birinda
birindiro
birindwi
biriya
birmingham
biro
birometero
birori
birth
birthday
birumvikana
birunga
biruta
birwa
birwanya
birya
biryo
biryogo
bisa
bisaba
bisabwa
bisaga
bisanzwe
bise
bisesero
bishagara
bishaje
bishanga
bishimangira
bishimira
bishimisha
bishimishije
bishimiye
bishimye
bishingiye
bishinzwe
bishoboka
bishobora
bishop
bishwe
bishya
bishyigikira
bishyirwa
bishyize
bishyura
bisi
bisimburana
biso
bisobanura
bisobanurwa
bisobanuye
bisoke
bissau
bisubizo
bita
bitabaye
bitabira
bitabiriye
bitabo
bitaboneka
bitabye
bitaga
bitagaragara
bitagira
bitandatu
bitandukanya
bitandukanye
bitanga
bitangaje
bitangazamakuru
bitangazwa
bitange
bitangira
bitangwa
bitanu
bitaramo
bitarenze
bitari
bitarimo
bitaro
bitatu
biteganijwe
biteganyijwe
biteguye
bitekerezo
bitemewe
bitera
bitero
biterwa
bitewe
biteye
biteza
biteze
biti
bitigeze
bitlis
bito
bitoroshye
bitsina
bituma
bitumizwa
bitunguranye
bituranye
bituruka
biturutse
bituwe
bitwa
bitwaga
bitwaje
bitwara
bitwaye
bityo
biva
bivamo
bivangwa
bivuga
bivuguruza
bivugwa
bivugwako
bivura
bivuye
bivuze
biw
biyaga
biyandikisha
biyemeje
biza
bizaba
bizafasha
bizagera
bizakomeza
bizakorwa
bizana
bize
bizera
bizeye
bizihiza
bizimana
bizimungu
bizwi
bizwiho
bjo
bjp
bk
black
blake
blanc
blanche
blandine
blay
blend
blessed
blica
blog
blogs
blogspot
blood
bloomberg
blossom
blu
blue
blues
bmonth
bn
bnews
bnr
bo
board
bob
body
boer
boesman
boetie
bohang
boherejwe
bois
boliviya
bollywood
bologna
bolot
bolu
bombi
bombwe
bon
bonaventure
bongera
bongeye
bongo
bonheur
bonsa
bonyine
book
books
booksources
boost
bordeaux
border
boris
born
bosco
bose
bosiniya
bosnia
boss
bossou
boston
bosveld
botanix
both
botha
bots
botswana
bouchnak
bouki
bounty
bourse
box
boy
boys
boyz
bpr
br
bra
bradley
bradypterus
brahim
brain
bralirwa
brand
brando
branwen
brazil
brazzaville
brd
break
breakfast
breaking
breakthrough
brenda
breytenbach
brian
brianne
brickhill
bridge
brief
briefly
brighton
brigitte
britannica
british
britse
broadcast
broadcasting
broadway
broderick
broke
broken
bronze
brooklyn
brother
brothers
brown
bruce
bruno
bruxelles
bryan
bsc
bt
btt
bu
buari
buba
bubahwa
bubatse
bubi
bubiligi
bubiri
bubirigi
buboneka
buciriritse
bucukuzi
bucura
bucuruzi
bucye
bud
budage
budahagije
budapest
budasanzwe
buenos
bufaransa
bufasha
bufata
bufatanye
bufatika
bufite
bugamije
bugande
bugaragara
bugaragaza
bugarama
bugenda
bugera
bugereki
bugesera
bugezweho
bugingo
bugira
bugiye
bugizwe
bugomba
bugoye
bugufi
buhabwa
buhagije
buhanga
buhanitse
buhanzi
buhari
buherereye
buherutse
buhinde
buhinduka
buhinzi
buholandi
buhoraho
buhoro
buhumbikiro
buhungiro
build
building
buji
bujuje
bujumbura
bujyanye
buk
bukaba
bukabije
bukangurambaga
bukavu
buke
bukemura
bukene
bukenewe
bukerarugendo
bukeye
bukky
bukomeye
bukomeza
bukora
bukorerwa
bukoresha
bukoreshwa
bukorwa
bukubiyemo
bukungu
bukunze
bukurikira
bukuru
bukurura
bukware
bukwe
bukwiye
buli
buligariya
bull
bullion
bulugariya
bumaze
bumbogo
bumenyerewe
bumenyi
bumoso
bumuga
bumva
bumvaga
bumwe
bundi
bungana
bungwe
bunini
bunoze
buntu
bunyuranye
burambuye
burambye
burashobora
burasirazuba
buratandukanye
buravan
burayi
burden
burdur
bureau
burebure
burenga
burenganzira
burengerazuba
burenze
burera
burezi
burezile
burezili
buri
burial
buriho
burimo
burimunsi
buringanire
buringaniye
buriri
burkina
burkinabe
burkinafaso
burro
bursa
buruli
burundi
burundu
buruse
buruseli
burusiya
burwayi
burya
buryo
bus
busa
busaba
busan
busanzwe
busasamana
busesuye
bush
bushakashatsi
bushake
bushenge
bushimishije
bushingiye
bushinwa
bushinzwe
bushoboka
bushobora
bushobozi
bushombe
bushveld
bushya
bushyuhe
business
busitani
busking
buso
busobanuro
busogo
busuwisi
but
butaka
butaliyani
butandukanye
butanga
butangaje
butangiza
butangwa
butare
butari
butaro
butatu
butayu
butaziguye
buteganijwe
butegetsi
butemewe
buteo
butera
buterwa
buteye
buto
butterfly
butuma
butumburuke
butumwa
butunguranye
buturuka
buva
buvanganzo
buvuga
buvuzi
buy
buyapani
buyobowe
buyobozi
buzima
buzwi
buzz
bw
bwa
bwabagore
bwabantu
bwabaturage
bwabaye
bwabereye
bwabo
bwabyo
bwacu
bwacyo
bwagaragaje
bwagaragaye
bwagiye
bwagize
bwaho
bwakoreshejwe
bwakorewe
bwakoze
bwakozwe
bwamamaye
bwambere
bwami
bwana
bwanjye
bwari
bwarwo
bwatangiye
bwateye
bwato
bwatoranijwe
bwawe
bwayo
bwazo
bwe
bwemewe
bwenge
bwera
bwerekana
bwerekanye
bweruye
bwi
bwibanda
bwibanze
bwibikorwa
bwibinyabuzima
bwibitaramo
bwicanyi
bwiganje
bwigenga
bwigenge
bwigihugu
bwigunge
bwihanganira
bwihariye
bwihene
bwihuse
bwihutirwa
bwikoranabuhanga
bwimbitse
bwimikorere
bwimyaka
bwimyidagaduro
bwinka
bwinshi
bwira
bwisanzure
bwishingizi
bwisi
bwite
bwitwa
bwiyongera
bwiza
bwo
bwoko
bwongereza
bwongeye
bwonko
bwonyine
bworoheje
bworoshye
bworozi
bwose
bwu
bwubatsi
bwubuzima
bwumubiri
bwumugore
bwumuntu
bwumuziki
bwumvikane
bwuruhu
bwuzuye
by
bya
byaashyizweho
byaba
byabaga
byabana
byabantu
byabaturage
byabaye
byabayeho
byaberaga
byabereye
byabo
byabonetse
byabonye
byacu
byafasha
byafashaga
byafashije
byafashwe
byafunguwe
byagabanije
byagabanutse
byagaragaje
byagaragajwe
byagaragaye
byagenda
byagenze
byagereranijwe
byageze
byagezweho
byagiye
byagize
byago
byaguye
byaha
byahawe
byahindutse
byahinduwe
byahise
byaho
byahoze
byahujwe
byaje
byakira
byakomeje
byakoreshejwe
byakoreshwaga
byakorewe
byakozwe
byamamare
byamamaye
byambere
byamenyekanye
byamuhaye
byamuteye
byanafashe
byandika
byandikwa
byanditswe
byanduye
byanduza
byangiza
byanyuze
byanze
byarakomeje
byarangiye
byaratumye
byarebwe
byarebweho
byari
byashinzwe
byashize
byashyizwe
byasimbuwe
byasobanuwe
byasohotse
byatangaje
byatangajwe
byatangiriye
byatangiye
byatanze
byatanzwe
byateguwe
byateje
byatewe
byateye
byatsi
byatumaga
byatumye
byavugwaga
byavuye
byavuzwe
byawe
byawo
byayo
byazamuye
byazo
bye
byear
byegeranye
byemejwe
byemewe
byemeza
byenda
byera
byerekana
byerekanaga
byerekanwa
byerekanwe
byerekeye
byeruye
byibanda
byibanze
byibasiye
byibura
byibuze
byiciro
byifashishwa
byiganjemo
byigaragaza
byigenga
byigihe
byigihugu
byigisha
byihariye
byihuse
byihutirwa
byimana
byimazeyo
byimbitse
byimeza
byimibereho
byimyidagaduro
byingenzi
byinjijwe
byinjira
byinjiza
byinshi
byinsho
byiringiro
byishi
byisi
byiswe
byita
byitabiriwe
byiterambere
byitezwe
byitiriwe
byitwa
byiyongera
byiza
byo
byohereza
byoherezwa
byombi
byongera
byongeye
byonyine
byoroheje
byoroshye
byose
byu
byubaka
byubatswe
byubucuruzi
byubukungu
byuburezi
byubuzima
byubwoko
byugarije
byujuje
byukuri
byukusenge
byuma
byumba
byumuco
byumushinga
byumwami
byumweru
byumwihariko
byumye
byuzuye
byzantine
c
ca
cabinet
cabo
cadi
cadillac
caf
cafe
cahiers
caine
caire
cairo
calgary
california
californiya
call
called
calls
calvin
cambridge
camera
cameron
cameroon
cameroun
camiff
camii
camp
campaign
campethera
campus
can
canada
canadian
canal
canalolympia
cancer
candy
canga
cannes
canopy
canterbury
cap
capacity
cape
capensis
capital
capitalism
caprimulgus
capt
captain
car
caraes
caramel
carbone
cardinal
care
career
carine
caritas
carlos
carnegie
carol
carolina
carte
carthage
carvalho
casa
casablanca
case
cass
cassa
cassava
cassia
cast
cat
catalog
catalogue
category
catherine
catholic
catholique
cathryn
catinyandikorugero
cb
cbc
cbd
cbe
ccc
ccr
cd
cdc
cdn
ce
cecafa
cecil
cecile
cecilia
ceki
cekiya
celebrate
celebrates
celebrating
celebration
celebrities
celebrity
celebs
celebsagewiki
celestin
celina
celine
cell
cells
census
center
centers
centrafrique
central
centrale
centre
century
ceo
cercopithecus
certain
cesar
cf
cfa
cfilm
cfm
cg
cgi
ch
cha
chabi
chad
chahine
chairman
chairperson
chaka
challenge
challenges
chamber
champagne
champaign
champion
championa
champions
championship
chancellor
chanelle
change
changing
channel
chantal
chanteur
chapter
chapters
char
characters
charadrius
charge
charity
charles
charlie
charlotte
charly
charter
chash
che
cheadle
check
chef
cheik
cheikh
chemistry
cheno
chess
chez
chi
chibi
chicago
chicken
chief
chikly
child
children
chile
chili
chillax
chimamanda
chimie
chimpanzee
chimpanzees
chimpreports
china
chinedu
chissapa
chiume
chocolate
choice
choir
choleste
cholesterol
chorale
chosen
choux
chraibi
chris
chriss
christ
christelle
christian
christiane
christine
christmas
christophe
christopher
chromosomal
chronicle
chuk
chukwujekwu
chung
chur
church
chuwang
ci
cia
ciconia
ciel
ciftci
cile
cinafrica
cine
cineaste
cinefil
cinema
cinemas
cinemateri
cinematic
cinematografi
cinematunisien
cinerea
cines
cineuropa
cinnyris
ciomara
circle
circus
cisse
cisticola
citation
cite
citeaux
citizen
city
civil
ciza
cl
clair
claire
clam
clapton
clara
clare
clarisse
class
classic
classification
claude
claudette
claudine
claver
cle
clean
clemantine
clemence
clement
clementine
clermont
clever
clifford
climate
clinic
clinical
clinton
close
clotilde
club
clubs
cm
cmn
cn
cnd
cnlg
cnn
cnur
co
coach
coaching
coalitions
coast
cobus
coca
code
coding
coffee
coga
cohen
col
cola
cole
colette
colin
collage
colle
collection
collective
college
collette
collines
collins
colobus
colombia
colombiere
colonel
coloneli
colonial
coltan
columba
columbia
com
come
comedi
comedian
comedie
comedy
comes
comesa
coming
commerce
commercial
commission
commissioner
commitment
commits
committee
common
commons
commonsensemedia
commonwealth
communaute
communication
communications
community
companies
company
comparee
competition
complete
complex
complicated
computer
computing
con
concert
concordia
condamne
confederation
conference
congo
connect
connecticut
connie
conseil
conservation
conservatoire
consolee
consortium
constant
construction
consultations
consulte
contact
conteh
contemporary
content
context
continents
continue
contre
contributions
control
convention
convergence
conversation
cook
cool
cooper
cooperation
cooperative
coordinator
coperative
copy
cor
core
corneille
corner
coronavirus
corporation
corps
corre
cossypha
costa
cote
cotonou
could
coulibaly
council
count
countries
country
coup
couple
courage
cours
course
courses
court
couture
coventry
covid
coz
cp
cpersonne
cq
craig
crane
crazy
cre
create
created
creation
creations
creative
creativity
creator
credentials
credits
credo
crescent
crew
cricket
crime
crimea
crisis
criterion
criterionchannel
critic
critica
critical
critics
critique
croix
crosby
cross
crown
crowned
crs
crystal
cs
cst
cuba
cucciari
cuculus
cultivation
cultural
culture
culturel
cultures
cumi
cummings
cup
cur
current
cursed
curtis
cushitike
custom
customs
cv
cy
cya
cyaba
cyabaga
cyabakoloni
cyabantu
cyabateze
cyabaturanyi
cyabaye
cyabereye
cyabo
cyacu
cyacyo
cyafunguwe
cyagaragaje
cyagati
cyagiye
cyagwa
cyaha
cyahariwe
cyahinduriye
cyahindutse
cyahinduwe
cyaho
cyahoze
cyaje
cyakabiri
cyakira
cyakora
cyakozwe
cyamatare
cyamaze
cyambere
cyami
cyandika
cyanditswe
cyane
cyanga
cyangugu
cyangwa
cyangwe
cyanika
cyanjye
cyanomitra
cyanya
cyanzayire
cyarabu
cyari
cyaro
cyaryo
cyashinzwe
cyashyizwe
cyashyizweho
cyasohotse
cyatangaje
cyatangiye
cyatanzwe
cyateguwe
cyatewe
cyatinze
cyatoranijwe
cyatsinzwe
cyatumye
cyaturutse
cyawe
cyayi
cyayo
cycling
cyclisme
cye
cyegeranyo
cyegereye
cyemejwe
cyemewe
cyemezo
cyenda
cyera
cyerekana
cyerekezo
cyesipanyole
cyi
cyibanze
cyicaro
cyiciro
cyifuzo
cyigenga
cyigihugu
cyigisha
cyihariye
cyihishe
cyihuse
cyihuta
cyikinyejana
cyimeza
cyimvura
cyimyaka
cyimyidagaduro
cyindege
cyingenzi
cyinshi
cyisi
cyiswe
cyita
cyitiriwe
cyitwa
cyitwaga
cyiza
cyizere
cyizwi
cynthia
cyo
cyongereza
cyonyine
cyorezo
cyose
cyprien
cyprus
cyu
cyubahiro
cyubatswe
cyugarije
cyuko
cyuma
cyumba
cyumukinnyi
cyumweru
cyumye
cyuridu
cyusa
cyuzuye
cyuzuzo
cz
d
da
daar
dachra
daction
dad
dada
daddy
dag
daily
dakar
dale
dalila
dallaire
dam
damascene
damasi
damasiko
dame
damijo
dan
dance
dancehall
dancille
dangote
daniel
daniella
danimarike
danny
dans
dap
dar
darfur
darina
dark
dartmouth
daryne
das
dat
data
database
date
dated
dating
daughter
dave
david
davies
davis
daweti
dawid
day
days
db
dbe
dbpedia
dc
dd
de
dead
deadline
deadurl
deaf
deal
dean
death
debbie
deborah
debut
debuts
dec
decade
december
decision
declaration
decor
def
default
defined
definition
defying
degli
degree
degruyter
dei
del
dele
delhi
delivery
della
delta
dem
demand
dembe
democracy
democratic
demokarasi
demukarasi
den
dendropicos
denis
denizli
dennis
dental
denyse
deo
deolinda
department
depite
depression
deputies
deputy
der
dereck
dernier
des
desai
desert
design
designer
designs
desire
desmit
desmond
destiny
destruction
detail
details
detective
deur
deux
developing
development
devex
devil
devnarain
df
dh
dhabi
dhaka
dhalinyaro
dhjete
di
dia
diabete
diagnosis
diakite
diallo
dialogue
diamond
dian
diana
diane
diarra
diary
diaspora
dic
dictionary
did
didacienne
didier
didnt
die
died
diego
dies
dieu
dieudonne
diff
difference
different
difret
dig
digital
digitale
dilemme
din
dina
dinah
dini
dio
diogene
diop
dior
diouana
dioxyde
diplo
diploma
diplomacy
diplomate
diplome
dipolome
dir
directed
directeur
director
directories
directors
directory
diregiteri
diriger
dirk
dirkie
dis
disabilities
disability
disambiguation
disconnect
discover
discovery
disease
diseases
disiki
disney
disorder
distance
distancecalculator
district
dit
ditchfield
ditions
diva
divayi
diversity
divine
divinite
division
divorce
diyabete
diyama
diyarbakır
diyoseze
diyosezi
dj
djerba
djibouti
djibril
dlamini
dlomo
dms
dnb
do
doc
docs
docteur
doctor
doctorate
document
documentaire
documentary
documents
dodoma
doer
does
dog
dogere
dogg
dogiteri
dogs
dohafilminstitute
doi
dolly
domanovic
domestic
domestication
dominate
domingos
dominic
dominique
domitilla
don
donald
donatille
donbas
donetsk
dont
dorcas
dore
dorothee
dos
dosiye
dot
double
douglas
doukoure
dowdeswell
down
download
dp
dq
dr
dragon
drakkar
drama
dramatic
drc
dream
dreampirates
dreams
dresden
drexciya
drive
droits
drum
drums
dry
dstv
dt
du
duarte
dubai
dublin
duce
due
duel
dufite
duhera
duherereye
duhereye
duke
dukoko
dukunda
dukurikije
duma
dumas
dumelo
duncan
duplicates
durban
during
dusabe
dusabejambo
dusanga
dushobora
dushyuha
dusirikare
dutandatu
dutandukanye
dutanu
dutatu
dutch
duterimbere
duto
duturanye
duwa
dvd
dx
dynamic
dz
e
ea
eac
eachamps
eala
early
earth
east
eastern
eazy
eb
ebola
ebyiri
ec
eccas
ecf
eco
ecobank
ecole
economic
economics
economie
economist
economy
ecran
ecrans
ed
eddie
eddy
edgar
edinburgh
edirne
edit
edith
edition
editions
edouard
edu
education
edward
edwin
ee
een
eerste
eeu
ef
effective
effects
effiong
effiongs
eg
egiputa
eglise
egoli
egypt
egyptian
egypttoday
ehinga
ehir
ei
eid
eight
ein
ejo
eko
ekwatoriyale
el
elcinema
eldo
eleanor
elect
elected
election
electronics
elegitoronike
elegitoroniki
element
elephant
elevate
elia
elisabeth
elite
elizabeth
elle
ellen
ellong
elmadag
elmay
elsa
elsevier
elumelu
elung
elvis
elyse
em
email
emancipation
emanuella
embassy
emerance
emergency
emerging
emery
emir
emission
emma
emmalito
emmanuel
emmanuella
emmy
empire
empty
emtricitabine
en
enatha
encomium
encyclopedia
end
enemy
energy
enfant
enfants
eng
engagement
engelbrecht
engels
engelse
engineer
engineering
england
english
eniola
enric
enterineti
enterprise
enterprises
entertainment
entre
entrepreneur
entrepreneurs
entrepreneurship
entretien
entry
environment
environmental
envoy
enwiki
enye
eo
ep
epfo
epic
epiphanie
episode
episodes
equality
equipment
equity
er
ereflikoc
erfsondes
eric
erica
erik
erisa
eritereya
eritrea
ernest
erradi
error
eruption
erwin
es
esat
escape
ese
eshanu
eshatu
esheshatu
esi
esipanye
esitoniya
eskis
eso
espagne
espan
espanye
espe
especially
esperance
espncricinfo
espoir
esprit
esri
essay
est
established
estate
esther
estrilda
eswatini
et
etc
ete
ethan
ethics
ethiopia
ethiopie
ethnologue
etienne
etim
etimesgut
etincelles
etiyopiya
eto
etoile
etv
eu
eucalyptus
euge
eugene
eugenie
eunoto
euplectes
europe
european
eurosport
eva
evaluation
evangelical
eve
evelyne
evenement
event
events
ever
every
everyday
everything
evidence
evolution
evolutionary
evren
ex
excel
excellence
exchange
exclusive
executive
exhibition
experience
experimental
experts
explicit
express
expression
external
eye
eyes
ezra
f
fa
fabiola
fabrice
face
faceafrica
facebook
fact
factory
facts
faculty
fahad
fahavalo
failed
fair
faisal
faissol
fait
faith
falco
fall
falls
fam
fame
famille
family
famousfix
fandom
fanfan
fanique
fantastic
fantasy
fao
far
farah
farm
farmer
farmers
farumasi
fashion
faso
fata
father
fatikaramu
fatima
fatizo
fatou
fatuma
fauna
faustin
faut
favorite
fawe
fawzi
faye
fayili
fb
fbclid
fc
fd
fdlr
fe
fear
fearless
feat
feats
feature
featured
features
featuring
february
federasiyo
federation
felicite
felix
fella
fellow
fellows
fellowship
female
feminist
femme
femmes
femnet
fer
feray
feri
fernando
fernsehserien
ferrand
ferrara
ferwacy
ferwafa
fespaco
fest
festival
festivalmarrakech
festivals
fever
feza
ff
ffffffffffff
fi
fiba
fibre
fiche
fichefilm
fichepersonne
fiction
ficus
fide
fidele
fiela
field
fifa
fiff
fifth
fight
fiji
fikile
file
fileadmin
files
filime
filimi
filipe
filipine
fille
film
filmaffinity
filmdetails
filme
filmes
filmfestival
filmfreeway
filmlinc
filmlinkafrica
filmmaker
filmmakers
filmmaking
filmmart
filmografie
films
filmstarts
filmweb
filozofi
filozofiya
fils
final
finance
financial
financing
finding
fine
fingers
finilande
finished
finlande
fiona
fire
fireman
fireworks
firime
firm
first
fitness
fitzjohn
five
fix
fj
fla
flag
flame
flash
flavia
fleur
flickr
flora
florence
florida
fly
flying
fm
fnac
focus
foie
fokn
following
fondasiyo
fondation
fonerwa
fonseca
food
foods
football
footwear
foq
for
forbes
force
forces
foreign
forest
forklift
forklifts
form
former
forum
forumu
fossey
found
foundation
founder
four
fourth
fox
fpr
fr
fradique
franc
francais
france
franceculture
frances
francine
francis
francisco
franco
francois
francoise
francolinus
francophone
francophonie
frank
frankensaurus
franklin
frans
franz
fre
fred
frederick
free
freedom
freetown
french
frenchculture
frenchmozilla
fresh
friborg
friday
friedl
frimpong
from
fromplace
front
fruits
frw
ft
ftc
fu
fugard
fulani
full
fullcredits
fumani
fumbire
fund
fundi
funeral
funguro
funke
further
future
fwww
g
ga
gaan
gabo
gabon
gaborone
gabourey
gabriel
gaby
gacaca
gace
gacem
gaciro
gacp
gaddafi
gael
gafite
gahana
gahanga
gahato
gahaya
gaherereye
gahima
gahini
gahongayire
gahonzire
gahoro
gahou
gahunda
gahuza
gaidar
gajereti
gajeti
gake
gakenke
gakire
gako
gakoko
gakomeye
gakondo
gakoreshwa
gakuba
gakwaya
gala
galaxy
galese
gallery
gallons
gambia
gambiya
gambo
game
games
gana
gandhi
gando
gang
gangs
gao
gara
garage
garama
garamantes
garci
garcia
garden
gardener
gardiner
gare
gari
garth
gary
gas
gasabo
gasaka
gasana
gashinzwe
gashobora
gashora
gashumba
gashyantare
gasingirwa
gasinzigwa
gasogi
gasore
gasozi
gasutamo
gatabazi
gatagara
gatandatu
gatanu
gatanya
gatare
gatatu
gatenga
gatera
gates
gatete
gato
gatolika
gatorika
gatsata
gatsibo
gatsinzi
gatuwe
gauteng
gavin
gaye
gaz
gaze
gazette
gazettes
gazi
gaziantep
gb
gcatholic
gdp
ge
geduld
geen
geht
gen
genda
gender
gene
general
generated
generation
generations
generique
genes
genesis
genesisbizz
geneva
geneve
genghis
genocide
genome
genre
geoffrey
geografiya
geographic
geography
george
georges
georgetown
geospatial
gerageza
gerald
geraldine
gerard
gerardine
gereza
gerima
germaanse
germain
germaine
german
germanic
gert
gertrude
get
gets
getting
geworugiya
gggi
gh
ghafla
ghalia
ghallywood
ghana
ghanacelebrities
ghanafilmindustry
ghanahomepage
ghanaian
ghanas
ghanaweb
ghetto
ghgossip
ghost
gi
gica
gicanda
gice
giciro
gicumbi
gicurasi
gicuti
gifaransa
gifasha
gifata
gifite
gifitiye
gifu
gifuniko
gihabwa
gihanga
giharanira
gihe
giheburayo
gihembo
gihembwe
giherereye
giheruka
gihindi
gihingwa
gihombo
gihongiriya
gihugu
gihundwe
gihuza
gikirisitu
gikombe
gikomero
gikomeye
gikomeza
gikomoka
gikondo
gikongoro
gikoni
gikora
gikorera
gikoresha
gikoreshwa
gikorwa
gikristo
gikubiyemo
gikunda
gikungahaye
gikunze
gikunzwe
gikurikira
gikurikirana
gikuru
gikwiye
gilbert
gin
gineya
gipalawani
gipimo
giporutigali
giramata
giresun
girimbabazi
girinka
girl
girlfriend
girls
girubuntu
gis
gisa
gisagara
gisaka
gisakura
gisanzwe
gisekuru
gisele
gisenge
gisenyi
gishaje
gishanga
gishari
gishingiye
gishinwa
gishinzwe
gishishikariza
gishize
gishobora
gishushanyo
gishushu
gishwati
gishya
gishyigikira
gishyushye
gisigaye
gisigo
gisimenti
gisirikare
gisivili
gisobanura
gisovu
gisozi
gisubizo
giswayili
gita
gitabo
gitagatifu
gitaha
gitaliyani
gitamili
gitandukanye
gitanga
gitangira
gitangwa
gitarama
gitaramo
gitari
gitatari
gitega
giteganijwe
gitegurwa
gitekerezo
gitera
giterane
gitero
gitesi
giti
gito
gitondo
gitsina
gitsura
gituma
gituruki
giturukiya
gituwe
gitwa
gitwaza
gitwe
gks
gladiator
glasgow
glitz
glo
global
globe
globefeed
gloria
glory
gmail
gmbh
gnonlonfin
go
goal
goat
god
gods
goes
goethe
going
goire
gold
golden
goma
gombe
good
google
gopal
gopie
gordon
gore
gorilla
gorillas
gospel
got
gothenburg
goumba
gov
government
governments
govhar
gr
grace
grader
graduate
graham
grammy
grand
grande
grange
grant
grants
graphic
gratien
gray
gre
great
green
greg
gride
groot
groove
gross
grosso
group
groupe
groups
growing
growth
gs
gsa
gu
guardian
guca
gucibwa
gucika
gucukumbura
gucukura
gucunga
gucura
gucuranga
gucurangira
gucuruza
gucutsa
gucyura
guerouabi
guest
guests
gueye
gufasha
gufashwa
gufata
gufatanya
gufatwa
gufotora
gufunga
gufungura
gufungwa
guha
guhabwa
guhagarara
guhagararira
guhagarika
guhagarikwa
guhaguruka
guhaha
guhakana
guhamagara
guhamagarwa
guhana
guhanahana
guhanga
guhangana
guhangayika
guhanura
guharanira
guhatana
guhatanira
guhemba
guhera
guhererekanya
guhezwa
guhiga
guhimba
guhimbaza
guhinduka
guhindura
guhinduranya
guhindurwa
guhinga
guhingwa
guhirika
guhisha
guhita
guhitamo
guhitwa
guhora
guhugura
guhumeka
guhunga
guhungabana
guhungabanya
guhungira
guhura
guhurira
guhuriza
guhuza
guhuzwa
guide
guidelines
guincho
guine
guinea
guinness
gukabije
gukabya
gukama
gukandamiza
gukangurira
gukata
gukebwa
gukemura
gukenera
gukina
gukingira
gukinira
gukinishwa
gukinwa
gukira
gukiza
gukizwa
gukodesha
gukomatanya
gukomera
gukomereka
gukomeretsa
gukomereza
gukomeye
gukomeza
gukonja
gukonjesha
gukora
gukorana
gukorera
gukorerwa
gukoresha
gukoreshwa
gukorwa
gukubita
gukubitwa
gukumira
gukunda
gukundana
gukundisha
gukundwa
gukura
gukuraho
gukuramo
gukurikira
gukurikirana
gukurikirwa
gukurikiza
gukurikizwa
gukurira
gukurura
gukusanya
gukwirakwira
gukwirakwiza
guma
gun
gupfa
gupima
gupimwa
gusa
gusaba
gusabira
gusama
gusambanya
gusana
gusanga
gusangira
gusanwa
gusarura
gusebanya
gusenga
gusenya
gusenyuka
gusesengura
gusetsa
gusezera
gusezerana
gushaka
gushakira
gushakisha
gushidikanya
gushima
gushimangira
gushimira
gushimirwa
gushimisha
gushimwa
gushinga
gushingira
gushingwa
gushira
gushiraho
gushishikariza
gushobora
gushora
gushushanya
gushyigikira
gushyikirana
gushyingiranwa
gushyingirwa
gushyingo
gushyingura
gushyira
gushyiraho
gushyiramo
gushyirwa
gushyirwaho
gusifura
gusiga
gusiganwa
gusigasira
gusimbuka
gusimbura
gusimburanya
gusimburwa
gusinya
gusiramura
gusiramurwa
gusobanukirwa
gusobanura
gusobanurwa
gusogongera
gusohoka
gusohora
gusoma
gusoza
gusubira
gusubiramo
gusubiza
gusukira
gusura
gusurwa
gususurutsa
gusuzugura
gusuzuma
guta
gutabara
gutabwa
gutaha
gutaka
gutakaza
gutambuka
gutandukana
gutandukanya
gutanga
gutangaza
gutangazwa
gutangira
gutangiza
gutangwa
gutaramira
gute
gutega
gutegereza
gutegura
gutegurwa
guteka
gutekereza
gutema
gutembera
gutera
guterana
guterekera
guterwa
gutesha
guteza
gutezimbere
gutinda
gutinya
gutitira
gutiza
gutora
gutoranya
gutoranywa
gutorerwa
gutoroka
gutorwa
gutoteza
gutoza
gutozwa
gutsinda
gutsindira
gutsindwa
gutukana
gutuma
gutumanaho
gutumiza
gutunga
gutunganya
gutura
guturika
guturuka
gutwara
gutwika
gutwikira
gutwita
gutya
gutyo
guverineri
guverinoma
guy
guyana
gy
h
ha
haart
haba
habaga
habaho
habamo
habanza
habaye
habayeho
habe
habeho
habera
habereye
habib
habimana
habineza
habo
haboneka
habonekamo
habonetse
habyalimana
habyarimana
hachkar
hadi
hadidja
hadija
hadithi
hafashwe
hafi
hafite
hafunguwe
hagamijwe
hagaragara
hagaragaramo
hagaragaye
hagaragayemo
hagati
hagendewe
hagendeye
hagenimana
hagiye
hagomba
haguruka
haile
hairstyle
haiti
haje
hakaba
hakan
hakenewe
hakim
hakiri
hakizimana
hakkar
hakomeje
hakonje
hakoreshejwe
hakoreshwa
hakorwa
hakozwe
hakurikijwe
hakurikiraho
hakurya
half
halim
hall
hambere
hamburg
hamenyekana
hamenyekane
hamenyekanye
hamid
hamilton
hampshire
hamwe
handle
hands
hane
hanga
hanini
hano
hans
hanssen
hantu
hanyuma
hanze
hanzi
hapfa
haplogroup
happiness
harambee
harare
hari
hariho
harimo
hariya
harlem
harmattan
harnessed
harold
harris
harry
haruguru
haruna
harvard
has
hashingiwe
hashinzwe
hashize
hashobora
hashyirwaho
hashyizwe
hashyizweho
hashyushye
hasi
hasigara
hasigaye
hasohotse
hassan
hatabayeho
hatandukanye
hatangajwe
hatangijwe
hatanzwe
hatari
hate
hateganijwe
hategekimana
hateguwe
haterwa
hatitawe
hato
hausa
haute
havamo
have
havugwa
havuka
havutse
hawa
hayes
haymana
haza
hazaba
hazaza
hazwi
hdi
he
head
health
healthcare
heard
heart
heat
heaven
heb
hec
heeft
heerden
hefzy
hegel
hegitari
hehe
heidi
heineken
heirs
hejuru
held
helena
helene
help
helping
helsinki
hen
henderson
henri
henry
henshi
hepfo
her
herald
herbert
here
heres
herizegovina
herman
hero
heroes
herzegovina
het
hey
heza
hi
hibandwa
hibiscus
hifashishijwe
high
higher
highland
highly
higiro
hij
hilarious
hill
hills
hind
hindura
hino
hip
hiphop
hiragana
hirtle
hirwa
hirya
his
hisar
histoire
historical
history
hit
hitimana
hitler
hits
hitu
hitwa
hiv
hiyongereyeho
hl
hmtl
ho
hoe
hoffman
hogofulu
hola
holdings
hollywood
hollywoodreporter
holocene
holy
home
homme
homo
hon
hong
hongiriya
hongo
honor
honorary
honors
honour
honours
honyine
hop
hope
hopkins
hopscotch
horn
horror
hortense
hose
hospital
host
hot
hotel
hoteli
hotels
hoteri
hounkpatin
hours
house
houston
how
howard
hoʔe
hp
hpv
hr
htm
html
http
https
hu
hub
hubatswe
hubby
hubert
hubris
huffingtonpost
hugh
hugo
huis
human
humanity
humble
hunt
huo
huriro
hurst
husband
hush
hussein
hutu
huye
hw
hyderabad
hydropower
hyenas
hyperleap
hypertension
i
ia
ian
iara
iba
ibaho
ibamo
ibanga
ibanze
ibara
ibarizwa
ibarura
ibaruramari
ibarurishamibare
ibaruwa
ibasha
ibashe
ibaye
ibazwa
ibendera
ibera
ibere
ibi
ibibabi
ibibari
ibibaya
ibibazo
ibibera
ibibi
ibibuga
ibibwana
ibibyimba
ibicanwa
ibice
ibiciro
ibicu
ibicurane
ibicuruzwa
ibicyeri
ibidukikije
ibiganiro
ibiganza
ibigaragaza
ibigega
ibigereranyo
ibigo
ibigori
ibigwi
ibihaha
ibihangange
ibihangano
ibihano
ibihaza
ibihe
ibihekane
ibihembo
ibihimbano
ibihingwa
ibihozo
ibihugu
ibihuha
ibihumbi
ibihumyo
ibihuru
ibihwagari
ibijumba
ibijyanye
ibikenewe
ibikinisho
ibikombe
ibikomere
ibikomoka
ibikorerwa
ibikoresho
ibikoro
ibikorwa
ibikorwaremezo
ibikururuka
ibilo
ibimanuka
ibimasa
ibimenyetso
ibimera
ibin
ibindi
ibinini
ibintu
ibinure
ibinyabiziga
ibinyabuzima
ibinyamakuru
ibinyampeke
ibinyasukari
ibinyobwa
ibinyoma
ibinyoro
ibinyujije
ibipimo
ibipupe
ibiranga
ibirangandwara
ibirango
ibirayi
ibirego
ibiremwa
ibirenge
ibiri
ibiribwa
ibirindiro
ibiro
ibirombe
ibirometero
ibirori
ibirunga
ibirungo
ibirwa
ibiryo
ibisabwa
ibisasu
ibisazi
ibisebe
ibisekuru
ibisekuruza
ibishanga
ibishoboka
ibishushanyo
ibishya
ibishyimbo
ibisi
ibisigazwa
ibisigo
ibisimba
ibisobanuro
ibisonga
ibisubizo
ibitabo
ibitanda
ibitangaje
ibitangaza
ibitangazamakuru
ibitaramo
ibitaro
ibitego
ibitekerezo
ibitera
ibitero
ibiti
ibitoki
ibitotsi
ibitsina
ibitunguru
ibiyaga
ibiyobyabwenge
ibiza
ibizamini
ibiziga
ibizwi
ibn
ibona
ibone
iboneka
ibonekerwa
ibrahim
ibuka
ibumba
ibumoso
ibungabunga
ibura
iburasirazuba
iburayi
iburengerazuba
iburyo
ibuye
ibwami
iby
ibya
ibyabaye
ibyagezweho
ibyago
ibyaha
ibyaho
ibyakozwe
ibyamamare
ibyamubayeho
ibyanditswe
ibyangombwa
ibyara
ibyaro
ibyatsi
ibyavuye
ibyemezo
ibyerekeye
ibyiciro
ibyifuzo
ibyingenzi
ibyinshi
ibyiringiro
ibyishimo
ibyiyoni
ibyiza
ibyo
ibyoherezwa
ibyondo
ibyonnyi
ibyorezo
ibyubaka
ibyuma
ibyumba
ibyumweru
ibyuririzi
ibyuya
ica
ice
iciriritse
iciro
icn
icon
icpar
icrc
ict
ictr
icu
icumbi
icumi
icumu
icunga
icungamari
icungamutungo
icupa
icuruzwa
icy
icya
icyaha
icyahoze
icyakora
icyamamare
icyambere
icyambu
icyanya
icyarabu
icyari
icyarimwe
icyaro
icyatsi
icyatumye
icyayi
icyegeranyo
icyemezo
icyenda
icyerekezo
icyesipanyoli
icyi
icyicaro
icyiciro
icyifuzo
icyinterlingue
icyitegererezo
icyitonderwa
icyiyoni
icyiza
icyizere
icyo
icyogihe
icyongereza
icyorezo
icyubahiro
icyuho
icyuma
icyumba
icyumi
icyumweru
id
idafite
idahagije
idaharanira
idahosa
idahwitse
idakingiye
idakira
idasanzwe
idashingiye
idashobora
identifier
identities
identity
idfa
idi
idini
idoma
idris
idrissou
idubu
iduka
ie
ieew
if
ifad
ifaranga
ifarashi
ifasha
ifashe
ifashwe
ifasi
ifata
ifatanije
ifatanya
ifatika
ifatwa
ifcinema
ifeanyi
ifeza
iffr
ifi
ifishi
ifitanye
ifite
ifitiye
ifitwe
ifoto
ifu
ifumbire
ifunguro
ig
igabanuka
igabanya
igamije
igana
iganisha
igaragara
igaragaramo
igaragaza
igare
igashyirwa
igatanga
igatera
igbo
igenamigambi
igenda
igendanwa
igenewe
igenzura
igera
igereranya
igeze
igezweho
igf
igi
igice
igiceke
igicewa
igiciro
igicucu
igicumbi
igicumucumu
igifaransa
igifu
igifungo
igifuniko
igihagararo
igihanga
igihano
igihe
igiheburayo
igihembo
igihembwe
igihimba
igihingwa
igiholandi
igihombo
igihongiriya
igihu
igihubutsi
igihugu
igihumbi
igikatalani
igikirigizi
igikoma
igikomangoma
igikombe
igikomere
igikoresho
igikoreya
igikorwa
igikundiro
igipimo
igiporutugali
igira
igisabo
igisakuzo
igisebe
igisekuru
igisenge
igishanga
igishinwa
igishoro
igishushanyo
igisibo
igisigo
igisilovaki
igisimba
igisirikare
igisobanuro
igisonga
igisoro
igisubizo
igiswahili
igiswahiri
igiswayili
igitabo
igitaliyani
igitambo
igitangaje
igitangaza
igitaramo
igitego
igitekerezo
igitera
igiterane
igitero
igiti
igitoki
igitondo
igitsina
igitsinagore
igituba
igitugu
igitunguru
igituntu
igiturukiya
igitutu
igiye
igize
igizwe
ignatienne
ignite
ignored
igogorwa
igomba
igor
igorofa
igoye
igurishwa
igwa
igwingira
iha
ihabwa
ihagarariwe
ihagaze
ihagije
ihahamuka
ihame
ihamye
ihana
ihanamye
ihanitse
iharanira
ihazabu
ihe
ihema
ihembe
iheme
ihene
ihenze
iherere
iherereye
ihereye
iherezo
iheruka
iherutse
ihindagurika
ihinduka
ihindura
ihirikwa
ihita
ihitana
ihohoterwa
ihoraho
ihujwe
ihumanya
ihungabana
ihura
ihuriro
ihuriweho
ihuza
ihuze
ii
iii
ijabo
ijambo
ijana
ijanisha
ijipo
ijisho
ijoro
ijosi
ijuru
ijwi
ijya
ijyana
ijyanye
ik
ikaba
ikabije
ikagira
ikamba
ikanyura
ikara
ikaramu
ikarayini
ikarita
ikawa
ikayoborwa
ikaze
ikedieze
ikenera
ikennye
ikerene
iki
ikibaho
ikibanza
ikibaya
ikibazo
ikibi
ikibonezamvugo
ikibuga
ikibulugariya
ikibumbano
ikibyimba
ikicaro
ikiciro
ikidage
ikigage
ikiganiro
ikiganza
ikigaragara
ikigega
ikigereki
ikigereranyo
ikigero
ikigibo
ikigihe
ikigina
ikigo
ikigori
ikiguzi
ikihe
ikikije
ikilatini
ikilo
ikiluba
ikimasedoniyani
ikimenyetso
ikimera
ikimero
ikimoteri
ikina
ikinamico
ikinamo
ikindi
ikinege
ikingira
ikinira
ikintu
ikinwa
ikinwamo
ikinya
ikinyabiziga
ikinyagihumbi
ikinyamakuru
ikinyarwanda
ikinyaturukiya
ikinyazeribayijani
ikinyejana
ikinyobwa
ikinyugunyugu
ikipe
ikirangirire
ikirango
ikiraro
ikirayi
ikirego
ikiremwa
ikiremwamuntu
ikirene
ikirenga
ikirenge
ikirere
ikirezi
ikiri
ikiribwa
ikirombe
ikiruhuko
ikirundi
ikirunga
ikirusiya
ikirwa
ikitegererezo
ikitwa
ikiyaga
ikiyitera
ikiza
ikizamini
ikize
ikizere
ikomatanyabukungu
ikomeje
ikomeye
ikomeza
ikomoka
ikora
ikorana
ikoranabuhanga
ikorera
ikorerwa
ikoresha
ikoresheje
ikoreshwa
ikorinto
ikorwa
ikosa
ikote
ikoze
ikozwe
ikubitiro
ikubiyemo
ikunda
ikundwa
ikungahaye
ikunze
ikunzwe
ikura
ikurikira
ikurikirana
ikurikiranye
ikurikirwa
ikurura
ikuze
ikwirakwira
ikwirakwiza
ikwirakwizwa
ikwiye
il
ilc
ile
ili
ilibagiza
ilingala
illadopsis
illinois
illness
illuminati
ilo
ilpd
im
image
images
imagine
imam
imamu
imana
imandwa
imanishimwe
imanza
imanzi
imari
imashini
imaze
imbabare
imbabazi
imbabura
imbaga
imbaho
imbamutima
imbaraga
imbata
imbeba
imberakuri
imbere
imbibi
imboga
imbogamizi
imbogo
imbonankubone
imbonekarimwe
imbonerahamwe
imborera
imboro
imbuga
imbunda
imburagihe
imbuto
imbutofoundation
imbwa
imbwebwe
imbyaro
imbyino
imdb
imegidendere
imena
imenyekana
imeze
imf
imfashanyigisho
imfashanyo
imfizi
imfubyi
imfungwa
imfura
img
imibanire
imibare
imibereho
imibiri
imibonano
imico
imicungire
imidari
imideli
imideri
imidugudu
imigabane
imigambi
imigani
imigano
imigaragarire
imigati
imigenzo
imigezi
imigi
imigozi
imigwegwe
imihanda
imihango
imihanikire
imihigo
imihindagurikire
imijyi
imikaya
imikindo
imikino
imikoranire
imikorere
imikoreshereze
imineke
iminota
iminsi
iminwa
iminyorogoto
imipaka
imipira
imirambo
imirasire
imirenge
imirima
imirimo
imirire
imirishyo
imirongo
imirwano
imiryango
imisambi
imisatsi
imisemburo
imishahara
imishinga
imishwi
imisoro
imisozi
imitako
imitego
imitekerereze
imiterere
imiti
imitima
imitobe
imitoma
imitsi
imitsindo
imitunganyirize
imitungo
imiturire
imitwe
imivugo
imivurungano
imiyoborere
imiyoboro
imizi
imizigo
imiziki
immacule
immaculee
imo
imodoka
imoh
impact
impaka
impala
impamba
impamo
impamvu
impamya
impamyabumenyi
impamyabumyenyi
impamyabushobozi
impande
impanga
impano
impanuka
impanya
impapuro
imparage
impeshyi
impeta
impfu
impfubyi
impinduka
impinduramatwara
impine
impinja
impiswi
implementation
important
imprisonment
impu
impuguke
impuhwe
impumuro
impundu
impungenge
impunzi
impuzandengo
impyiko
impyisi
imt
imurikagurisha
imva
imvahonshya
imvange
imvubu
imvugo
imvune
imvura
imvururu
imwaka
imwe
imyaka
imyakura
imyambarire
imyambaro
imyambi
imyanda
imyanya
imyanzuro
imyembe
imyemerere
imyenda
imyidagaduro
imyifatire
imyigaragambyo
imyigire
imyigishirize
imyitozo
imyitwarire
imyiyerekano
imyizerere
imyororokere
imyubakire
imyuga
imyuka
imyumbati
imyumvire
imyunyu
imyuzure
in
ina
inama
inanasi
inanc
inanga
inani
inararibonye
inc
incamake
include
inclusive
inclusivesecurity
incredible
incubator
incuke
incuro
incuti
inda
indabo
indabyo
indagi
indahiro
indamutsa
indangagaciro
indangamuntu
indashyikirwa
indaya
indege
indembe
independent
index
indi
indian
indicator
indie
indiewire
indimi
indimu
indirimbo
indobanure
indonesia
indonesiya
indoneziya
indorerezi
indoto
indurwe
industry
indwanyamikorobi
indwanyi
indwara
indyo
ine
ineg
inege
ines
ineza
infection
infections
inflexion
info
infobox
information
infrastructure
ing
ingabire
ingabo
ingagi
ingamba
ingamiya
ingana
inganda
inganji
ingano
inganzo
ingaragu
ingaruka
ingemwe
ingendo
ingengabitekerezo
ingengo
ingenzi
ingeri
ingero
ingese
ingeso
ingimbi
ingingo
ingirakamaro
ingo
ingofero
ingoma
ingombajwi
ingona
ingorabahizi
ingorane
ingore
ingoro
ingufu
inguge
ingurane
ingurube
inguzanyo
ingwa
ingwate
ingwe
inhibitor
ini
initiative
initiatives
injangwe
injeniyeri
injyana
inka
inkambi
inkanga
inkangu
inkari
inkarishya
inkende
inkera
inkeragutabara
inkiko
inkima
inkingi
inkingo
inkoko
inkokokazi
inkombe
inkomere
inkomoko
inkondo
inkongi
inkoni
inkono
inkorora
inkota
inkotanyi
inkovu
inkuba
inkumi
inkunga
inkura
inkuru
inkuta
inkwano
inkwavu
inkweto
inkwi
inline
innocent
innovation
innovators
ino
insanganyamatsiko
inshingano
inshinge
inshuro
inshuti
inside
insina
insoro
inspire
inspired
inst
instagram
institut
institute
institutfrancais
institutions
instructors
instruments
insurance
int
intagondwa
intama
intambara
intambi
intambwe
intandaro
intanga
intangarugero
intangiriro
intango
intara
intare
intebe
integanyanyigisho
intege
integer
intego
integrated
integration
intekerezo
inteko
intellectual
intelligence
inter
intera
interahamwe
interest
interesting
interineti
internal
international
internationale
internet
interuro
interview
interviews
intete
intgovforum
intgovurubuga
intiti
into
intoki
intore
intoryi
intsinzi
intumbero
intumwa
intungamubiri
inturugunyu
intwari
intwaro
intyoza
inuma
invalid
investment
inyagazi
inyajwi
inyama
inyamabere
inyamanswa
inyamaswa
inyambo
inyandiko
inyandikorugero
inyangamugayo
inyange
inyanja
inyanya
inyarwanda
inyenyeri
inyenzi
inyeshyamba
inyeyurudu
inyigisho
inyigo
inyinshi
inyito
inyongera
inyoni
inyota
inyubako
inyuguti
inyuma
inyumba
inyungu
inyura
inyuze
inzara
inzego
inzibacyuho
inzibutso
inzira
inzirakarengane
inzitane
inzitizi
inzobe
inzobere
inzoga
inzoka
inzovu
inzozi
inzu
inzuki
inzuri
inzuzi
io
ioc
iol
ipa
ipamba
ipar
iperereza
ipeti
ipfa
ipfunwe
ipima
ipl
iprage
iprc
iprchuye
ir
ira
iracyari
iradukunda
iraguzanyenyeri
irahinda
irake
iraki
irakoze
irambona
irambye
iran
irangi
irangira
irangiye
irangwa
irani
irasaba
irashobora
irasubiza
iratandukanye
irazenguruka
ire
ireba
irebere
ireland
irembo
ireme
irene
irenga
irengero
irenze
irerekana
iri
iriba
iribagiza
iribanews
iriho
irilande
irimbi
irimo
irinda
irindi
irindwi
iris
iriya
irlande
iron
iruhande
iruka
irusha
irushaho
irushanwa
iruta
irwanya
iry
irya
iryinyo
iryo
is
isa
isaac
isaba
isabelle
isabukuru
isabune
isae
isaga
isaha
isake
isaku
isamaza
isambu
isango
isangostar
isano
isanzwe
isar
isaro
isazi
isbn
isch
ise
isekurume
isengesho
iserukiramuco
isesemi
isesengura
iseswa
isetsa
isezerano
ishaka
ishakisha
ishami
isheja
ishema
ishimishije
ishimwa
ishimwe
ishinga
ishingamategeko
ishingiro
ishingiye
ishingwa
ishinzwe
ishirahamwe
ishize
ishobora
ishora
ishoramari
ishu
ishuli
ishure
ishuri
ishusho
ishwagara
ishyaka
ishyamba
ishyigikira
ishyigikiye
ishyira
ishyirahamwe
ishyiraho
ishyirwa
ishyirwaho
ishyo
isi
isibaya
isibo
isidingo
isidingos
isiga
isiganwa
isigaye
isilande
isimbi
isime
isiraheli
isirayeli
isithembiso
iskr
islam
islamique
islamu
island
islands
ismael
ismail
iso
isobanura
isohoka
isoko
isombe
isomero
isomo
isonga
isoni
isosiyete
israel
issa
issue
issues
ist
istanbul
isubiramo
isuka
isukari
isuku
isukura
isumbuye
isumo
isura
isuri
isuzuma
isuzumwa
it
ita
itabi
itagaragara
itagira
itaka
italia
italiki
italy
itandatu
itandukaniro
itandukanye
itanga
itangaje
itangaza
itangazamakuru
itangazo
itange
itangira
itangirana
itangiriro
itangiye
itangiza
itangizwa
itangwa
itanu
itara
itari
itariki
itatu
itavugwaho
itazwi
itcz
itegamiye
itegeko
itegekongenga
itegekonshinga
itegura
itegurwa
iteka
item
itemba
itera
iterabwoba
iterambere
iterwa
iteye
iteza
iti
itike
itora
itorero
its
itsembabwoko
itsinda
itsindangishwanama
itsura
itu
itukura
ituma
itumanaho
itumba
itunganya
itungo
ituruka
iturutse
ituwe
ituze
itwara
iucn
ius
iv
iva
ivan
ivangura
ivanguramoko
ivanze
ivi
ivoire
ivu
ivuga
ivugabutumwa
ivugurura
ivugururwa
ivugwa
ivuka
ivunjisha
ivura
ivuriro
ivutse
ivuye
iwabo
iwacu
iwacumarket
iwar
iwawa
iwe
iy
iya
iyambere
iyamuremye
iyangirika
iyerekwa
iyi
iyicarubozo
iyicwa
iyigakirere
iyindi
iyinjira
iyirmi
iyitwa
iyo
iyobokamana
iyoborwa
iyobowe
iz
iza
izaba
izabukuru
izajya
izakinwa
izakomeza
izamuka
izamura
izana
izasohoka
izenguruka
izi
izifite
izina
izindi
izo
izuba
izwi
izwiho
j
ja
jabana
jack
jackie
jackson
jacob
jacobs
jacqueline
jacques
jado
jae
jager
jakarta
jali
jam
jamaica
jamayike
jambo
james
jamie
jamus
jan
jane
janeiro
janet
janisha
january
janvier
japanese
jardin
jarrid
jasmine
jason
javanix
jay
jazama
jazeera
jazz
je
jean
jeanette
jeanne
jeannette
jeff
jeffrey
jenda
jenerali
jeneve
jennifer
jenocide
jenoside
jerome
jerry
jesse
jessica
jesus
jeuneafrique
jeunesse
jiangsu
jim
jimmy
jisho
jm
jo
joa
joannah
jobs
joburg
jock
joe
johan
johannesburg
john
johns
johnson
join
joins
joint
jojo
jolie
jolly
jomba
jomo
jonathan
jones
jordan
jorge
joro
jos
jose
joselyn
joseph
josh
joshua
josiane
josza
jou
jour
journal
journalist
journalists
journals
journey
joy
joyce
joyeuse
jozi
jpg
jr
js
jstor
ju
judicaelle
judith
judy
juice
jules
julia
juliana
julie
julienne
juliet
julius
july
juma
junction
june
jungle
junior
juno
juru
jury
just
justice
justin
juve
juvenal
jw
k
ka
kaba
kabagire
kabale
kabanda
kabango
kabano
kabarebe
kabari
kabash
kabatwa
kabaye
kabendera
kabera
kaberuka
kabgayi
kabila
kabili
kabiri
kabo
kabone
kabongo
kabuga
kabuhariwe
kaburimbo
kabuye
kabyiniro
kacyira
kacyiru
kada
kadaga
kaddu
kader
kaduna
kaga
kagaba
kagabanijwemo
kagali
kagame
kagarama
kagari
kagashya
kagera
kageyo
kagira
kagirimpundu
kagizwe
kagogo
kagoyire
kaguta
kagwa
kahiu
kaijuka
kajangwe
kajugujugu
kaka
kakaba
kakoma
kala
kalahari
kalasha
kalecik
kalendari
kaligirwa
kalihangabo
kalimantana
kalimba
kalimpinya
kalisa
kalisiyumu
kalsaka
kalushi
kama
kamal
kamali
kamaliza
kamanzi
kamariza
kamaro
kamau
kamayirese
kamba
kambanda
kamegeri
kamembe
kamena
kamera
kamere
kameruni
kamichi
kamikazi
kaminuza
kamkwamba
kamonyi
kampala
kampani
kampeta
kamuli
kamunuza
kamwe
kana
kanada
kanakuze
kanama
kanata
kanater
kandi
kandt
kandti
kane
kani
kanimba
kanini
kanji
kankwanzi
kano
kanombe
kanoze
kanseri
kansiime
kantengwa
kantu
kanwa
kanya
kanyange
kanyangeyo
kanyarwanda
kanyinya
kanyombya
kanziza
kao
kapiteni
kaposi
kappa
karago
karagwe
karama
karamira
karamoja
karande
karangwa
karanja
karaoke
karasira
karate
karateka
karayibe
kare
kareba
karekezi
karemano
karemara
karemera
karen
karenzi
karera
karere
kari
karidinali
karigirwa
karigombe
karimo
karindari
karindwi
karisimbi
kariya
karoli
karongi
karoti
karubanda
karubone
karuhimbi
karusisi
kasa
kaseti
kashe
kasi
kasubi
katakana
katana
katari
katauti
kate
katedrali
katese
katiba
katjavivi
katleho
katwe
kauatu
kaviri
kavukire
kavumu
kawa
kawera
kaya
kayenzi
kayibanda
kayiranga
kayirangwa
kayirebwa
kayisire
kayitare
kayitesi
kayo
kayonza
kayseri
kayumba
kazakisitani
kazan
kazengurutse
kazi
kazo
kazu
kb
kbela
kc
kcb
kck
kcrc
kdi
ke
kec
kecapu
keeping
keita
keith
kelia
kelly
kemi
kemtiyu
ken
kena
kenia
kennedy
kenneth
kenny
kenshi
kenya
kenyabuzz
kenyan
kenyans
kenyatta
kepler
kera
keretse
kerry
kesearch
kevin
kevine
key
keza
kfm
kg
kgb
khalil
khama
khan
khanya
kharkiv
khartoum
khattab
khouribga
khumalo
khumi
ki
kiba
kibagabaga
kibaho
kibamo
kibanza
kibaya
kibazo
kibe
kibeho
kibengali
kibera
kibi
kibirizi
kibisi
kibisilamu
kibitangaza
kibogora
kiboneka
kibonge
kibonke
kibuga
kibugabuga
kibuli
kibumbano
kibungo
kibuno
kibuye
kiciro
kickin
kics
kicukiro
kid
kidafite
kidage
kidaharanira
kidasanzwe
kids
kie
kiev
kigabiro
kigali
kigalitoday
kigamije
kiganiro
kigaragaza
kigarama
kigari
kigega
kigeli
kigenda
kigendera
kigera
kigereki
kigereranyo
kigero
kigihugu
kigina
kigira
kigiye
kigize
kigizwe
kigo
kigoma
kigomba
kigufi
kijya
kijyambere
kijyana
kijyanye
kikaba
kikagira
kilatini
kilimanjaro
kiliziya
kill
killed
killer
kilometero
kilometres
kilwa
kim
kimalayi
kimara
kimasedoniyani
kimaze
kimberley
kimenyetso
kimenyi
kimera
kimeza
kimeze
kimihurura
kimironko
kimisagara
kimora
kimwe
kin
kina
kinamico
kind
kindi
king
kingana
kingdom
kinini
kinks
kinolorber
kinshasa
kintobo
kintu
kiny
kinya
kinyabulugariya
kinyageworugiya
kinyaholande
kinyakorowasi
kinyalubaniya
kinyamakuru
kinyamwuga
kinyaperisi
kinyarwanda
kinyaseribiya
kinyasuwede
kinyaviyetinamu
kinyazeribayijani
kinyejana
kinyendonisiya
kinyinya
kinyobwa
kinzimba
kipe
kirabiranya
kirabo
kirangiye
kirangiza
kiraro
kirasa
kirazira
kirehe
kirekire
kiremereye
kirenga
kirenge
kirenze
kirere
kiri
kiribwa
kiriho
kirimbuzi
kirimo
kirisito
kirisitu
kiriya
kiriziya
kirombe
kiruhuko
kirusiya
kiruta
kirwa
kirwanya
kisaro
kisilamu
kiss
kissfm
kist
kitabi
kitari
kitazwi
kitchen
kitoko
kitoroshye
kituo
kitwa
kiva
kivu
kivubelt
kivuga
kivugwa
kivura
kivuye
kiyaga
kiyahudi
kiyapani
kiyobowe
kiyovu
kiza
kizaba
kizamini
kizaza
kizigenza
kiziguro
kizito
kizwi
kizwiho
klara
klein
km
kmp
kn
knc
knf
knight
know
knowledge
knowless
known
knox
ko
koch
kode
koffi
kofi
koga
kogeza
kohereza
koherezwa
kojo
koko
koleji
kolombiya
koloneli
koma
komeza
komezusenge
komine
komini
komiseri
komisiyo
komite
kompanyi
kong
kongera
kongere
kongerera
kongerwa
kongo
koninkryk
konpyu
konrad
konsa
konti
konya
koperative
kopi
kora
korali
korari
korea
koreografiya
korewe
koreya
koridoro
korohereza
koronavirusi
korora
koroshya
korowatiya
kose
kosoko
kosovo
kota
kouam
koumba
kountable
koutouan
kouyate
koweti
koza
kp
kpai
kpr
kristo
kristu
kruger
krupp
kt
ktpress
ktradio
ku
kub
kuba
kubabara
kubabarira
kubabyeyi
kubafasha
kubafata
kubafite
kubaga
kubagara
kubagore
kubagwa
kubaha
kubahiriza
kubaho
kubaka
kubakiriya
kubakisha
kubakobwa
kubakozi
kubakwa
kubamo
kubana
kubandwa
kubangamira
kubangurirwa
kubantu
kubanyeshuri
kubanza
kubara
kubarwayi
kubasomyi
kubatera
kubateze
kubaturage
kubaza
kubazwa
kubera
kuberako
kubibazo
kubibona
kubicuruzwa
kubidukikije
kubigeraho
kubijyanye
kubika
kubikora
kubikoresha
kubikorwa
kubikwa
kubintu
kubisubizo
kubitera
kuboha
kubohora
kubona
kuboneka
kuboneza
kuboza
kubufatanye
kubuhinzi
kubungabunga
kubungabungwa
kubura
kuburyo
kubushakashatsi
kubushobozi
kubuso
kubutaka
kubutegetsi
kubuza
kubuzima
kubw
kubwa
kubwibyo
kubwira
kubwiriza
kubwo
kubyara
kubyaza
kubyerekeranye
kubyerekeye
kubyimba
kubyina
kubyinira
kubyo
kudeta
kudoda
kugabana
kugabanuka
kugabanya
kugabanywamo
kugaburira
kugaburirwa
kugagara
kugana
kuganira
kugaragara
kugaragaza
kugaruka
kugarura
kugemura
kugenda
kugenzura
kugenzurwa
kugera
kugerageza
kugeraho
kugereranya
kugerwaho
kugeza
kugira
kugirana
kugirango
kugirira
kugirwa
kugisha
kugiteka
kugiti
kuguma
kugumana
kugura
kugurisha
kugurwa
kugwa
kuhakorera
kuhava
kuhira
kui
kujya
kujyira
kuki
kukigo
kuko
kuma
kumanika
kumara
kumasenu
kumashusho
kumaso
kumasoko
kumazina
kumbuga
kumekucha
kumena
kumenya
kumenyekana
kumenyekanisha
kumenyera
kumenyesha
kumera
kumererwa
kumi
kumiterere
kumpande
kumubwira
kumufasha
kumugabane
kumugaragaro
kumuha
kumuhanda
kumunsi
kumuntu
kumurika
kumurikira
kumurikirwamo
kumurongo
kumushinga
kumutima
kumuyoboro
kumva
kumvikana
kumvisha
kumwaka
kumwana
kumwanya
kumwe
kumyaka
kunanirwa
kunda
kundirimbo
kunegura
kunenga
kunengwa
kung
kunganira
kungufu
kunguka
kungurana
kunle
kunoza
kunshuro
kunyura
kunywa
kunywera
kura
kuragira
kuragura
kuraguza
kurakara
kuramba
kurambagiza
kurambirwa
kuramya
kurandura
kuranga
kurangira
kurangiza
kurangwa
kurara
kurasa
kure
kureba
kurebera
kurebwa
kurega
kureka
kurekura
kurekurwa
kurema
kuremba
kurenga
kurengera
kurenza
kurera
kuri
kuribwa
kurimbuka
kurinda
kurindwa
kuringaniza
kuririmba
kuririmbira
kurisha
kuriwe
kuriyi
kuroba
kurokoka
kurokora
kurongora
kurubu
kurubuga
kurugero
kuruhande
kuruhuka
kuruka
kurumwa
kurundi
kurusha
kurushaho
kurushanwa
kurushinga
kuruta
kurutonde
kurwana
kurwanya
kurwara
kurwaragurika
kurwego
kurya
kuryama
kuryamana
kutabona
kutagira
kutavuga
kutavugwaho
kutubahiriza
kutumva
kutumvikana
kuva
kuvamo
kuvana
kuvanaho
kuvanga
kuvangura
kuvuga
kuvugana
kuvugira
kuvugurura
kuvugururwa
kuvugwa
kuvuka
kuvumbura
kuvura
kuvurwa
kuvuza
kuwa
kuwornu
kuya
kuyandura
kuyifata
kuyirinda
kuyirwara
kuyivura
kuyobora
kuza
kuzaba
kuzajya
kuzamuka
kuzamura
kuzamurwa
kuzana
kuzenguruka
kuzigama
kuziha
kuzimangana
kuzimira
kuzura
kuzuza
kw
kwa
kwabana
kwabantu
kwabo
kwaguka
kwagura
kwaha
kwakira
kwakirwa
kwaku
kwamamara
kwamamaza
kwambara
kwambika
kwambuka
kwambukiranya
kwame
kwandika
kwandikisha
kwandura
kwanduriramo
kwanduza
kwanga
kwangirika
kwangiza
kwari
kwarley
kwashiorkor
kwayo
kwazulu
kwe
kwegera
kwegereza
kwegukana
kwegura
kwegurira
kweku
kweli
kwemera
kwemerera
kwemererwa
kwemerwa
kwemeza
kwera
kwerekana
kwerekanwa
kwerekeza
kwetu
kwezi
kwi
kwiba
kwibanda
kwibasira
kwibasirwa
kwibaza
kwibeshya
kwibohora
kwibuka
kwibutsa
kwica
kwicara
kwicira
kwicwa
kwidagadura
kwidagadurira
kwifashisha
kwifashishwa
kwifatanya
kwifuza
kwiga
kwigaragaza
kwigarurira
kwigenga
kwigira
kwigisha
kwigomeka
kwiha
kwihangana
kwihanganira
kwihangira
kwiheba
kwihesha
kwihisha
kwihorera
kwihuta
kwihutira
kwihuza
kwijana
kwikorera
kwimakaza
kwimenyereza
kwimika
kwimikwa
kwimuka
kwimukira
kwimura
kwimurirwa
kwimurwa
kwinezeza
kwinjira
kwinjiza
kwinyuma
kwipimisha
kwirinda
kwirindwa
kwiruka
kwirukana
kwirukanwa
kwirwanaho
kwishima
kwishimira
kwishimisha
kwishingikiriza
kwishora
kwishyira
kwishyura
kwisi
kwisiga
kwisiramuza
kwisoko
kwisuzumisha
kwita
kwitaba
kwitabira
kwitabwaho
kwitangira
kwitegereza
kwitegura
kwiteza
kwitondera
kwitwa
kwitwara
kwivanga
kwivuza
kwiyamamariza
kwiyamamaza
kwiyandikisha
kwiyegurira
kwiyemeza
kwiyongera
kwiyubaka
kwiyumvamo
kwiyunga
kwizera
kwizigama
kwizigamira
kwizigira
kwizihiza
kwizina
ky
kyiv
kırs
kırıkkale
kızılcahamam
l
la
laan
lab
label
labor
laboratoire
labouba
labour
ladies
ladji
lady
laetitia
lafras
lagos
lahmar
laika
lake
lakes
lala
lalama
lamche
lamia
lamivudine
lancet
land
lande
lando
lands
lang
langiri
language
languages
laniarius
lanius
lanka
lar
lara
large
larry
las
last
late
later
latest
latimes
latin
lativiya
launch
launched
launches
laura
laurent
lava
law
lawosi
lawrence
laws
lay
lbas
lccn
le
lead
leader
leaders
leadership
leading
league
learn
learning
lecture
led
lee
leeds
left
legacy
legal
legend
lego
lehoko
leibbrandt
leila
leilah
leipzig
leisure
lemonde
lena
leo
leon
leonard
leone
leopard
lepoint
leroy
les
lesotho
lessons
leste
lestin
let
leta
letras
letter
letterboxd
lettre
lettres
level
levtzion
lewis
lewone
lexvo
lgbt
li
libani
libe
liberal
liberation
liberia
liberiya
libiya
library
libre
libreville
libya
licite
lick
lie
lies
life
lifestyle
lifetime
lift
light
lights
likarion
like
liliane
lima
limited
limpopo
lincoln
linda
line
lines
lingua
link
linkedin
links
linternaute
lion
lioness
lionessesofafrica
lions
lisa
lisansi
lisboa
lisbonne
list
liste
listing
lists
lit
literature
litiro
litondo
little
lituwaniya
live
liverpool
lives
living
livre
liyetona
liz
liza
lk
ll
lo
load
local
locale
lockdown
loda
lode
logo
loin
lokarno
lome
londere
london
londres
long
loni
look
lookee
looks
lookup
loose
lorcia
lord
lore
los
losing
loss
lost
lotusi
lotz
louis
louise
louisiana
lounge
lous
louvain
louw
love
loves
lowe
ls
lt
ltd
lu
luanda
lubumbashi
luc
lucky
luhansk
lui
luka
lula
lumie
lungula
luo
lupita
lupus
lusaka
luther
luxembourg
luxor
lwakabamba
lwenje
lyambabaje
lyce
lycee
lyceedekigali
lydia
lydie
lymph
lymphoma
lynder
lyrics
lys
m
ma
maa
maar
maasai
maastricht
mababi
mabanga
mabara
mabaso
mabata
mabi
maboko
mabwiriza
mabya
machine
mackenzies
macky
madagascar
madagasikari
madam
madame
madamu
made
madebeats
madeleine
madiba
madih
madina
madini
madison
mado
madrid
maduka
mafaranga
mafatshe
mafoto
mag
magambo
magana
magara
magare
magazine
magazines
mageragere
maghreb
magic
magingo
magroun
magufi
maguru
maha
mahame
mahanga
mahinda
mahirwe
mahlangu
mahlasela
mahmood
mahmoud
mahoniboni
mahoro
mahugurwa
mai
maid
mail
main
maina
maingi
maint
maisha
maize
maj
maji
majid
major
majoro
majuba
majwi
majyaruguru
majyepfo
maka
makafui
makanyaga
make
makeba
makeda
makerere
makers
makes
makeup
makimbirane
makinamico
making
makipe
makolo
makonikoshwa
makumi
makumyabiri
makuru
makuza
mal
malaika
malampa
malan
malaria
malariya
malawi
maldives
maldoror
male
malema
malesiya
mali
mallem
maltepe
mama
mamak
mame
man
mana
management
manager
managing
manaka
manchester
manda
mandabi
mandate
mandefro
mandela
mane
manga
mangifera
mani
manila
manini
maniraguha
manizabayo
manouchka
mansa
mansaray
manso
mansos
manual
many
manywa
manza
manzi
map
mapantsula
mapping
maps
maputo
mar
mara
maraba
marais
marasmus
maraso
marathon
marato
marc
marcel
marcelline
march
marche
maremare
margaret
mari
maria
marianne
marie
mariko
marina
marine
marines
marino
mario
marita
maritz
mariupol
marius
mariya
mark
market
marketing
markets
marley
marlon
marnaud
maroc
maroke
marrakech
marriage
married
mars
marseille
marseilles
marshall
mart
martha
martie
martin
martine
marushanwa
marushanywa
marvin
marwa
mary
maryam
maryland
masaha
masai
masaka
masaku
masanja
masasa
masasu
masedoniya
masenge
masengo
maseru
masezerano
mashami
mashanyarazi
mashini
mashuli
mashure
mashuri
mashusho
mashya
mashyaka
mashyamba
mashyirahamwe
mashyuza
masjid
maso
masoko
masomo
masoro
masosiyete
mass
massachusetts
massamba
master
mastercard
masters
mata
matayo
match
mategeko
mateka
maternal
mathematical
mathematics
mathew
mati
mato
matora
matorero
matsinda
matter
matthew
matungo
mau
maurice
mauritania
mauritius
mavubi
mavuriro
mavuso
mavuta
mawe
max
may
mayfair
mayor
mayotte
mayyor
mazane
maze
mazi
mazimhaka
mazimpaka
mazina
mazu
mazuru
mazutu
mb
mba
mbabazi
mbaga
mbangeni
mbaraga
mbaye
mbazi
mbe
mbega
mberabyombi
mbere
mbese
mbgn
mbi
mbiligi
mbirurume
mbisi
mbogamizi
mbona
mbonera
mboneragihugu
mbonerahamwe
mbonezamubano
mbonimana
mbonimpa
mbonye
mbonyi
mbow
mbu
mbuga
mbungo
mbuto
mbyino
mc
mcbaror
mckenzie
md
mdr
mduduzi
me
meaning
means
meb
med
meddy
media
mediasearch
mediatrice
medical
medicine
medina
mediterane
mediterranean
medium
medvedev
meet
meeting
meg
megawatt
megawatts
meghan
megizike
mehari
mehmet
mehret
meirelles
mel
mela
melbourne
melinda
mellifica
mellon
melodie
melody
member
members
membership
memorial
memory
men
menace
mence
mendy
mengo
mensah
mense
menshi
mental
mentals
menya
menyanibi
menyekanye
menyo
merci
mercy
meriem
merops
merwe
mes
meshack
meshi
message
met
metero
methodiste
metrage
metres
metro
mexico
mexique
meya
meza
mezi
mezquita
mfa
mfi
mfite
mfizi
mfonobongnsehe
mg
mh
mi
miami
mibambwe
mibanire
mibare
mibereho
mibi
mibiri
mibirizi
mibonano
micael
michael
michaella
michel
michele
michelle
michigan
mickey
mico
microbial
microfinance
microsoft
micungire
middleton
midugudu
mie
mifotra
migabane
migani
migeprof
migezi
mighty
migi
mignone
miguel
migufi
mihanda
mihango
mihigo
mihogo
mijn
mijyi
mike
mikino
mikki
mikorere
mikorobe
mikurire
mikuru
mil
milan
milimetero
military
miliyari
miliyoni
mille
miller
millimetres
million
millions
mimi
mimosa
min
minaffet
minagri
minaire
minaloc
mind
mine
minecofin
mineduc
mines
minh
mini
miniature
minicom
mininfra
minini
minisiteri
minisitiri
minispoc
minister
ministeri
ministers
ministiri
ministries
ministry
minor
minota
minsi
minsk
minuar
minusca
minutes
mipaka
mir
miracle
mirage
miremire
mirenge
miriam
miribel
mirima
mirimo
mirire
miriyari
miriyoni
mirongo
miroplast
mirror
miryango
mis
misa
misago
mishinga
mishya
misile
misiri
misiyo
misozi
miss
missed
missing
mission
mississippi
missrwanda
miswi
mit
mitekerereze
miterere
miti
mitima
mitis
mito
mitochondrial
mitsi
mitungo
mitwe
miyagi
miyoborere
miyoboro
miyove
mku
ml
mm
mnangagwa
mngqolo
mo
mobile
mobutu
mocratique
mod
model
models
modern
modernghana
modi
modo
modoka
module
moeko
mofe
mogadishu
mohamed
mohammad
mohammed
mohcine
moi
moise
mojak
mokae
moko
mokoena
mokwena
moller
mom
mombasa
moment
mon
mona
monaheng
mondaini
monde
mondiale
monetary
money
moni
monique
monitor
monologues
monte
montessori
month
monthly
montreal
monument
monuments
moon
moore
mora
morais
morake
more
morella
morgan
moriah
moritaniya
morning
moroccan
morris
morse
mort
mortezai
mory
moschea
moschee
moscou
mose
moses
moshi
mosonngoa
mosotho
mosqu
mosque
mosquee
moss
mossi
most
mostra
mot
mota
motacilla
moteri
moth
mother
motherhood
motion
motlatsi
moto
mouille
mount
mountain
moussa
mouvement
move
movement
moves
movie
moviefit
moviemeter
movies
moyo
mozambike
mozambique
mp
mpa
mpaka
mpambara
mpamvu
mpamyabumenyi
mpanabyaha
mpande
mpano
mpanuka
mpera
mpeshyi
mpho
mpimbano
mpinduka
mpinga
mps
mpunzi
mpuza
mpuzabitsina
mpuzamahanga
mpyisi
mq
mr
mrca
mrnd
mrs
ms
msalame
mt
mthwalo
mtn
mtshali
mtv
mu
muba
mubagize
mubagore
mubahanzi
mubakinnyi
mubakobwa
mubana
mubantu
mubare
mubari
mubashinze
mubateze
mubaturage
mubi
mubibazo
mubice
mubidukikije
mubiganiro
mubigo
mubihe
mubihugu
mubijyanye
mubikoresho
mubikorwa
mubindi
mubintu
mubiri
mubirori
mubisanzwe
mubitabo
mubitangazamakuru
mubitaro
mubitekerezo
mubucuruzi
mubufaransa
mubufatanye
mubuga
mubuhanzi
mubuhinde
mubuhinzi
mubuhungiro
mubukungu
muburasirazuba
muburengerazuba
muburyo
mubusanzwe
mubushakashatsi
mubutaliyani
mubutayu
mubuvanganzo
mubuvuzi
mubuyobozi
mubuzima
mubwoko
muby
mubyara
mubyeyi
mubyiciro
mubyigisho
mubyo
mubyukuri
mubyuma
much
muco
mucyahoze
mucyaro
mucyiciro
mucyo
mucyongereza
mudasobwa
muduce
mudugudu
mufitanye
mugabane
mugabe
mugabekazi
mugabo
mugace
mugambi
muganga
muganza
mugaragaro
mugari
mugatsia
mugenzi
mugesera
mugezi
mugi
mugice
mugihe
mugihugu
mugiraneza
mugisha
mugitaramo
mugitondo
mugore
mugoroba
mugufi
muguhindura
mugukora
mugunga
mugutanga
mugutegura
muguteza
mugutezimbere
mugwaneza
muhabura
muhadjiri
muhammad
muhanda
muhanga
muhango
muhanzi
muhanzikazi
muhazi
muhaziyacu
muheto
muhima
muhira
muhire
muhogo
muhongayire
muhoza
muhutukazi
mujawamariya
mujyana
mujyi
muka
mukabalisa
mukabaramba
mukabaranga
mukagasana
mukakarangwa
mukamabano
mukamana
mukamira
mukamulisa
mukamurenzi
mukandayisenga
mukandemezo
mukangango
mukangira
mukankomeje
mukankusi
mukansanga
mukantabana
mukantaganzwa
mukanyirigira
mukarange
mukarere
mukarubega
mukarusine
mukasakindi
mukasarasi
mukasine
mukasonga
mukayijore
mukazayire
mukazi
muke
mukeba
mukeka
mukerarugendo
mukeshimana
mukiciro
mukiganiro
mukigo
mukinnyi
mukino
mukiyaga
muko
mukobwa
muku
mukungwa
mukunzi
mukura
mukuru
mula
mulholland
muli
mulindi
mulinga
multi
multimedia
multiple
muma
mumahanga
mumajyaruguru
mumajyepfo
mumakipe
mumaraso
mumarushanwa
mumashuri
mumashusho
mumaso
mumateka
mumatsinda
mumazi
mumbai
mumena
mumico
mumigenzo
mumihango
mumijyi
mumikino
muminsi
mumiryango
mumitsi
mumitungo
mumodoka
mumugi
mumuhanda
mumujyi
mumukino
mumureke
mumurenge
mumuryango
mumushinga
mumutwe
mumuziki
mumwaka
mumyaka
munama
munani
munda
mundimi
mundirimbo
munezero
mungai
munganda
mungo
mungoshi
munich
munini
munsi
muntangiriro
muntara
muntu
munyamakuru
munyandiko
munyaneza
munyarwanda
munyarwandakazi
munyeshuri
munyeshyaka
munyurangabo
munzego
munzira
munzu
mupaka
mupende
mupira
mur
mura
murage
muraho
murakaza
murakoze
murama
murambi
muramuke
murandasi
murangwa
muraperi
murdered
murekatete
murekezi
muremure
murenge
murenzi
murerwa
mureshyankwano
muri
muribo
muribyo
muriki
murima
murimo
muriro
muriyi
muriyo
murizo
murongo
murubyiruko
murugendo
murugo
murukurikirane
murumuna
murumunawabo
murundi
mururimi
murwa
murwanda
murwego
muryango
musa
musabyimana
musafiri
musanze
musaruro
musayidire
musaza
muse
musekeweya
museminali
musenyeri
musenyi
museum
museums
museveni
mushiki
mushikiwabo
mushimiyimana
mushinga
mushishiro
mushya
music
musical
musicinafrica
musigiti
musiitwa
musindarwezo
musinga
musique
muslim
musoni
musore
musozi
must
mustafa
mustapha
mutabaruka
mutabazi
mutagatifu
mutamuliza
mutara
mutarama
mutekano
mutesasira
mutesi
muti
mutiganda
mutima
mutimura
mutingito
mutiny
muto
mutoni
mutoza
mutsindashyaka
mutungo
muturage
mutwe
muwa
muwi
muyango
muyindi
muyoboro
muyobozi
muzika
muziki
muzima
muzinga
muzo
muzungu
mv
mva
mvaruganda
mvugo
mvura
mvururu
mvuzo
mw
mwaka
mwamba
mwami
mwana
mwanya
mwape
mwaramutse
mwarimu
mwashumbe
mwe
mwenda
mwendo
mwene
mwezi
mwinshi
mwirirwe
mwirushanwa
mwiseneza
mwishami
mwishuri
mwishyamba
mwishywa
mwiterambere
mwiza
mwobo
mwogo
mwosa
mwuga
mwuka
my
myaka
myanda
myanya
mycobacterium
myemerere
myheraldmagazine
myidagaduro
myigishirize
myinshi
myitozo
myitwarire
myiza
myizerere
mynhardt
mystery
myugariro
myuka
myumvire
mzansi
n
na
naacp
naamwoord
naar
naba
nababyeyi
nabafatanyabikorwa
nabafite
nabagabo
nabaganga
nabagore
nabahanzi
nabakinnyi
nabakobwa
nabakoresha
nabakozi
nabakunzi
nabakuze
nabana
nabandi
nabantu
nabanyeshuri
nabatari
nabaturage
nabayireba
nabayobozi
nabenshi
nabi
nabo
nabonye
nabta
nabwana
nabwiso
nabwo
nabyo
nacyo
nadege
nadia
nadim
nadine
naeb
nago
nahandi
nahimana
naho
naija
nailla
nairaland
nairobi
nairobinews
naje
nakabira
nakabonye
nakamaro
nakazi
naked
nako
nakom
nal
naledi
nallıhan
nam
nama
namahanga
namakinamico
namakuru
namata
namategeko
namateka
namba
name
named
names
namibia
namibian
namibiya
namur
namwe
nan
nana
nancy
nandi
nanga
nani
nanjye
nanone
nanubu
naomie
naouret
napoleon
napomuceno
nar
nari
narwo
naryo
nasiyonali
natacha
nataki
natal
natalensis
natasha
nathalie
nation
national
nationale
nations
nato
natural
nature
natwe
natwo
nav
nawe
nawo
naya
nayisumbuye
nayituriki
nayo
nayoti
nazo
nba
nbsp
nc
ncbi
nd
nda
ndaba
ndadaye
ndagijimana
ndahindurwa
ndahiro
ndangagitsina
ndangamateka
ndangamuco
ndangamurage
ndangiza
ndashaka
ndashimira
ndasingwa
ndayisaba
ndayisenga
ndayishimiye
ndayizeye
nde
ndege
ndende
ndengakamere
ndera
nderabarezi
nderabuzima
ndetse
ndi
ndiaye
ndikumana
ndimbati
ndimi
ndirimbo
ndizeye
ndlovu
ndo
ndoli
ndori
nduba
ndulu
ndungutse
nduwimana
ndwara
ne
neba
nebo
nec
necessary
nederlands
need
needs
neels
neethling
nehemia
neill
nel
nelly
nelsap
nelson
nelsons
nema
nemba
nemeye
neolithic
nep
nepad
nepali
neria
nest
net
netflix
netherlands
network
networks
never
new
newlifekigali
news
newsdetail
newsletter
newspaper
newsreel
newtimes
newvision
newyorker
next
neza
nff
ng
nga
ngabe
ngabo
ngabonzima
ngagi
ngamba
ngamije
nganda
ngarama
ngarambe
ngaruka
ngarukamwaka
ngarukiye
ngarukiyimana
ngenderwaho
ngenga
ngengabukungu
ngengo
ngera
ngero
ngeso
ngingo
ngiro
ngishwanama
ngissah
ngiye
ngo
ngodzopf
ngoma
ngombwa
ngomijana
ngor
ngorane
ngoro
ngorongoro
ngorora
ngororamubiri
ngororero
ngozi
ngufi
ngufu
nguge
ngugu
ngwino
nh
nha
ni
niava
niba
nibi
nibibazo
nibice
nibicuruzwa
nibidukikije
nibijyanye
nibikoresho
nibikorwa
nibimwe
nibindi
nibintu
nibisobanuro
nibiti
nibo
nibura
nibwo
nibyiza
nibyo
nic
nice
nicholas
nick
nicolas
nicole
nicyiciro
nicyo
nicyuma
nie
nieu
niger
nigeri
nigeria
nigeriafilms
nigerian
nigerie
nigeriya
night
nightingale
nightingales
nigice
nigihe
nigihembo
nigihugu
nigikorwa
nigitekerezo
nigitsina
nih
niho
nii
niied
nijeri
nijeriya
nijoro
niki
nikigo
nikintu
nikipe
nikirere
niko
nikotine
nikuze
nil
nile
nili
nimba
nimbaraga
nimero
nimibereho
nimikino
nimiryango
nimpamvu
nimugoroba
nimuyihe
nimvura
nimwe
nimwiza
nimyaka
nin
nina
ninaho
ninama
ninde
nindi
nindirimbo
nindwara
nine
ninganda
ningaruka
nini
ninkunga
ninkuru
ninsanganyamatsiko
ninshingano
ninshuti
nintara
nintego
ninyamaswa
ninyampinga
ninyandiko
ninzego
ninzobere
nio
nirere
nirwo
niryo
nishimwe
nishuri
nisi
nisosiyete
niterambere
nitin
nitorero
nitsinda
nitsinzi
nitwa
niwe
niwemwiza
niwo
niyi
niyitegeka
niyo
niyongira
niyonzima
nizera
nizeyimana
nizindi
nizo
nizzo
njagah
nje
njemanze
njue
njyana
njyanama
njye
nk
nka
nkaba
nkabantu
nkaho
nkaka
nkake
nkambi
nkana
nkawe
nke
nkemurampaka
nkengero
nkeya
nki
nkibi
nkibikorwa
nkibyo
nkigihe
nkigikorwa
nkiko
nkimikino
nkimwe
nkimyidagaduro
nkingi
nkiri
nkiyi
nko
nkoko
nkokokazi
nkombe
nkomoko
nkongi
nkoranya
nkoranyambaga
nkotsi
nkoulou
nku
nkuba
nkubana
nkuburyo
nkuko
nkulikiyinka
nkumba
nkumugore
nkumuhanzi
nkumukinnyi
nkumukobwa
nkumukozi
nkumuntu
nkumunyamakuru
nkumunyamuryango
nkumushinga
nkumushyitsi
nkumusore
nkumuyobozi
nkumwe
nkunda
nkunga
nkuranga
nkuru
nkurugero
nkurunziza
nkusi
nkuta
nkwavu
nl
nlm
nm
nnyanzi
no
nobel
noble
nocide
node
noe
noel
nog
noheli
noheri
noir
noirs
nollywood
nollywoodreinvented
nom
nomero
nominal
nominated
nomination
nominations
nominee
nominees
non
none
noneho
nord
norman
north
northern
noruveje
norvege
not
note
nothing
notre
noun
nous
nouvelle
nov
nova
novel
november
now
nowa
nozubu
npk
npr
nqobile
nsabimana
nsanga
nsanganyamatsiko
nsanzabaganwa
nsengero
nsengimana
nsengiyumva
nsf
nshimiyimana
nshinga
nshingano
nshingwabikorwa
nshinjabyaha
nshuro
nshuti
nshya
nshyashya
nsoro
nta
ntabwo
ntacyo
ntagatifu
ntagire
ntago
ntagungira
ntaho
ntakintu
ntakirutimana
ntambara
ntangiriro
ntango
ntara
ntarabana
ntarama
ntarengwa
ntarindwa
ntaruka
ntashobora
ntawe
ntebe
ntego
ntekereza
nteko
ntera
ntezilyayo
nti
ntibashobora
ntibisanzwe
ntibishoboka
ntibishobora
ntibivugwaho
ntibyari
ntihanabayo
ntihinyurwa
ntishobora
ntiyari
ntiyashoboye
ntiyigeze
ntizishobora
nto
ntoki
ntoya
ntsinzi
ntungamubiri
ntushobora
ntuyahaga
ntv
ntwari
nu
nubu
nubucuruzi
nubuhanga
nubuhoro
nubukungu
nubukwe
nubumenyi
nubumuga
nubunararibonye
nubundi
nubunini
nuburezi
nuburinganire
nuburyo
nubusabane
nubushakashatsi
nubushobozi
nubushyuhe
nubusizi
nubutaka
nubuvuzi
nubuyobozi
nubuzima
nubwiza
nubwo
nubwoko
nucleoside
nuit
nuko
nukuvuga
number
numero
numu
numubyeyi
numuco
numugabo
numugore
numuhanzi
numuhungu
numukinnyi
numukino
numukobwa
numukunzi
numuntu
numunyamakuru
numunyarwandakazi
numuproducer
numuririmbyi
numuryango
numusore
numuyoboro
numuyobozi
numuziki
numva
numvaga
numwanditsi
numwanya
numwe
nundi
nunu
nur
nursery
nursing
nurubyiruko
nuruhererekane
nurwego
nutrition
nuveli
nuwa
nuwari
nuwashinze
nuwo
ny
nya
nyababyeyi
nyabagendwa
nyabarongo
nyabihu
nyabinghi
nyabingi
nyabugogo
nyaburanga
nyabwo
nyabyo
nyacyo
nyafurika
nyagakecuru
nyagasani
nyagatare
nyakabanda
nyakanga
nyakatsi
nyakibanda
nyakubahwa
nyakuri
nyakuron
nyakwigendera
nyama
nyamabuye
nyamagabe
nyamagumba
nyamara
nyamasheke
nyamaswa
nyamata
nyaminga
nyamirambo
nyamiyaga
nyampinga
nyamukuru
nyamwinshi
nyamyumba
nyandiko
nyandungu
nyangufi
nyanja
nyankora
nyanza
nyarabu
nyarubuye
nyarugenge
nyarugunga
nyaruguru
nyarwanda
nyarwo
nyatanyi
nyayo
nyc
nyeejuru
nyeesi
nyenyeri
nyigisho
nyigo
nyina
nyinawambogo
nyinawamwiza
nyinawumuntu
nyinshi
nyir
nyirabarame
nyirabayazana
nyirabukwe
nyiragongo
nyirahabimana
nyirakuru
nyiramasuhuko
nyirambangutse
nyiramilimo
nyiraminani
nyirankoko
nyiranyamibwa
nyirarugero
nyirarukundo
nyirarume
nyirasafari
nyirasenge
nyiri
nyiricyubahiro
nyirimpuhwe
nyirizina
nyishi
nyobozi
nyoko
nyong
nyoni
nytimes
nyu
nyubako
nyuguti
nyuma
nyundo
nyungu
nyunguranabitekerezo
nyungwe
nyungweforestnationalpark
nz
nzakomeza
nzayisenga
nzego
nzeli
nzeri
nzeyimana
nzi
nzibutso
nzima
nzira
nzitizi
nziza
nzobere
nzoka
nzu
nzuki
nzuzi
o
oba
obaldi
obama
obasanjo
oberkappel
observatoire
observer
oc
oceanne
oclc
oct
october
ocug
oda
odds
odette
odile
odyssey
oec
oecd
of
off
offers
office
officer
official
officiates
officiel
officielle
offside
ofisiye
og
oge
ogola
oh
oil
ois
ojiambo
ok
okafor
okayafrica
okeke
okinda
oklahoma
okoro
okoroafor
okpako
ol
old
ole
olempike
oleracea
olive
oliver
olivia
olivier
oloture
olympia
olympic
olympics
om
omar
ombudsperson
omegatiming
omo
oms
on
once
one
onechi
ones
oneste
ong
oniga
online
only
ono
ons
ontario
onu
onyango
onyeabor
onyo
ook
oor
op
ope
open
opening
opens
opera
operations
opinion
opinions
opobo
opportunities
opportunity
opposition
oprah
oq
or
orange
orchestre
order
org
organic
organisation
organization
organizations
organized
original
originally
orinfor
oriolus
orlando
orotodogisi
os
osama
osas
oscar
oscars
osei
osetiya
oseyaniya
oseyemi
osita
ositaraliya
ositiriya
oslo
osmtalent
oswald
otanwa
other
others
otirishiya
ots
ottawa
ottoman
ou
ouagadougou
oud
ouedraogo
ouest
our
ousmane
out
outbreak
outlook
outreach
outstanding
ov
over
overseas
overview
owas
own
owusu
oxford
oya
oyelowo
p
pa
pablo
pac
paccy
pacis
paco
pacome
padiri
paes
page
pageant
pages
pain
paix
pakisitani
pakistan
pakkies
palais
palawu
palermo
palestine
pallet
palm
pam
pamela
pamella
pan
panafrican
panama
pandemic
panorama
panoramio
pantheon
panther
pantomimes
pap
papa
paper
papias
par
para
paracetamol
parade
paradise
paragraph
paralysie
parameter
parc
parents
parike
pariki
paris
park
parker
parle
parliament
parliamentary
parmehutu
parsons
part
parti
participation
partner
partners
parts
party
paruwasi
pas
pascal
pascale
pascaline
pascasie
pasha
pasifika
pasiteri
passion
past
pasteur
pastor
pat
patel
patient
patoranking
patricia
patricie
patrick
patriot
patriotic
patrol
paul
paula
pauline
paulo
pavlakis
paw
pawpaw
pawulo
pay
pays
pbs
pcr
pdc
pdf
pdi
pe
peace
peacefmonline
peak
pearl
peau
pee
pelagie
pen
penama
peninsula
pennisetum
people
peoplepill
peoples
pep
per
percy
perefe
perefegitura
perez
perezida
perezidansi
perfect
performance
performing
perivi
permanent
perrine
perry
person
personal
personen
personnalite
personne
personnes
persons
perspective
perspectives
peru
pete
peter
petero
peteroli
petit
pf
pg
pggss
ph
phant
pharmaceutical
pharmalab
pharyngitis
phase
phd
phil
philadelphia
philbert
philip
philippe
phillip
philosophy
phiona
pho
phoeniculus
phoenix
phone
photo
photos
php
phr
phylloscopus
physicians
physics
pi
picks
picture
pictures
pierce
pierre
pieter
pietermaritzburg
pigment
pike
pilot
pin
pindula
pinnata
pinterest
pinus
pinyin
piracy
piraino
pirate
pitch
piti
piyano
pl
place
places
plage
plan
planet
planning
plant
plastike
plateau
platform
platini
platon
platoon
play
player
players
playing
plaza
plc
please
ploceus
plural
plus
pm
pmc
pmid
pmnewsnigeria
png
po
poacher
podcast
podcasts
poet
point
pointe
poisonous
polatlı
police
policies
policy
polisi
political
politician
politics
politike
politiki
politique
pollo
polly
pologne
polonye
polytechnic
pome
pomme
pongamia
pop
populaire
popular
popularity
population
porofeseri
porogaramu
poroteyine
port
portfolio
portland
porto
portrait
portugal
porutigali
porutugali
post
posters
postgraduate
posts
potahto
potasiyumu
potato
potomanto
pour
poverty
power
pp
ppp
pr
practice
practices
prayer
pre
preacher
premier
premiere
premiered
premieres
premium
premiumtimesng
prep
present
presentation
presents
president
presley
press
pressreader
pretoria
pretorius
pretoriya
prevention
preview
prey
pri
price
primaire
primary
prime
primus
prince
princess
princeton
print
priscilla
priscillah
prison
private
prix
prize
pro
process
procurement
prod
producer
producers
product
production
productions
products
prof
professional
professor
profil
profile
profiles
progaramu
program
programm
programme
programmes
programs
progress
project
projects
projet
promising
promote
promoting
promotion
pron
proper
prophylaxis
proposed
protais
prote
protect
protection
protein
proteyine
protouch
provided
providence
province
prs
pryce
psd
psf
psp
psr
psychiatric
psychologiya
psychology
pt
pu
pub
public
publication
publications
publique
published
publishers
pubmed
puerto
pulasitiki
pulse
pumzi
purpose
pursaklar
pursuit
pushed
putin
pyamootoo
q
qa
qatar
qgortcjy
qu
qualifiers
quality
que
queen
query
questions
qui
quintille
quot
quote
qwasi
qz
r
ra
rab
rabat
rabbit
rabi
race
rachel
rachid
radio
radiotimes
radiotv
radiyo
radoje
rafiki
raheem
rain
rainbow
rajah
rajesh
ral
ralph
ramadhan
ramadhani
ramaphakela
rambura
rametsi
ramon
rance
ranepa
rangers
rankings
rap
raphael
raporo
rard
rarda
rashid
rather
ration
ray
raymond
rayon
rba
rbc
rc
rca
rcs
rd
rdb
rdc
rdr
re
reach
read
real
realisateur
reb
reba
rebecca
rebellie
rebero
rec
receive
receives
recently
recherche
reconciliation
record
records
red
redemption
reeves
ref
reference
references
referrer
reflect
refs
refugee
refugees
reg
regard
regina
region
regional
regions
regis
rehabilitation
reich
reims
reine
reinvented
reka
related
relationships
reld
release
released
releases
relentless
relief
reliefweb
religion
religions
religious
rema
remera
remezo
remix
remote
ren
rencontre
rene
rensburg
renus
repebulika
report
reports
represent
representative
repu
republic
republican
republik
republika
repubulika
repuburika
req
rero
res
rescue
research
researchgate
resilience
resistance
resitora
resource
resources
response
restaurant
restoration
restricted
result
results
reta
rethabile
retour
retrieved
return
returns
reuters
rev
reveals
revenge
revenue
reverse
review
reviews
revolution
reykjavi
reyneke
rfi
rgb
rgen
rhodes
rhythm
ri
ria
rib
riba
ribanza
riber
ric
rica
richard
rick
rico
ricuruza
rider
riderman
rieur
rieure
rifatwa
rifitanye
rifite
rift
rigamije
rigaragara
rigaragaza
rigena
rigenda
rigenewe
rigenga
rigera
right
rights
rigira
rigizwe
rigoga
rigomba
riharanira
riherereye
rihinduka
rikaba
rikikije
rikomeje
rikomeye
rikomoka
rikora
rikorerwa
rikoresha
rikoreshwa
rikubiyemo
rikurikirana
rikuru
rilima
rima
rimaze
rimwe
rindi
rinini
rio
riparia
rirambye
rirasaba
rirenze
riri
ririmo
rirwanya
risa
risaba
risanzwe
rise
rishingiye
rishinzwe
rishobora
rishya
rishyira
rishyiraho
rising
risk
risobanura
rita
ritagira
ritanga
ritangira
riterwa
ritinda
rito
ritukura
riva
river
rivers
riviera
rivuga
riyobowe
riza
riziki
rizwi
rk
rkc
rlrc
rn
rna
rnb
rnud
ro
road
rob
robbery
robert
roberts
robinson
roc
rock
rocky
rodriguez
roger
rogerebert
rogers
roho
roi
rol
roland
role
rolland
rollers
roma
roman
romaniya
romantic
romdhane
rome
romeo
ronald
room
roosevelt
roots
rosa
rosalie
rose
roselyn
rosemary
roses
rosette
rosine
rotary
rottentomatoes
rotterdam
rouge
roukiata
route
roux
royal
royalty
royaume
rp
rpa
rpf
rppa
rr
rra
rs
rsb
rse
rss
rtlm
rtv
ru
rua
ruanda
ruasagavulu
ruba
rubanda
rubanza
rubavu
rubaya
rubengera
ruberwa
rubona
ruboneka
rubrique
rubuga
rubura
rubyara
rubyiniro
rubyiro
rubyiruko
rudahigwa
rudloff
rufite
rufonsina
rugabano
rugabanya
rugali
rugamba
rugambwa
rugana
ruganda
rugangura
ruganzu
rugaragara
rugaragaza
rugarama
rugari
rugby
rugende
rugendo
rugera
rugero
rugezi
rugira
rugiye
rugizwe
rugo
rugomba
rugomero
rugufi
ruguru
rugwabiza
rugwizangoga
ruhago
ruhame
ruhamya
ruhande
ruhando
ruhanga
ruhango
ruhangwambone
ruhare
ruhari
ruhengeri
ruhererekane
ruherereye
ruheru
ruhita
ruhondo
ruhu
ruhuza
ruins
rukaba
rukara
rukarara
rukari
rukenera
rukiga
rukiko
rukingo
rukiri
rukoma
rukomeje
rukomeye
rukora
rukoresha
rukoreshwa
rukumbi
rukundo
rukurikirane
rukuru
rukuta
rukwavu
rulinda
rulindo
rumaga
rumaze
rumwe
run
runaka
runana
runaway
runda
rundi
rungano
rungqu
runini
runner
runningthe
runyankore
rupfu
rura
rural
rurema
rurembo
ruremesha
rurerure
ruri
rurimi
rurimo
rusange
rusanzwe
rusengero
rusesabagina
rushanwa
rushashi
rushimishije
rushimusi
rushingiye
rushinzwe
rushobora
rushya
rushyashya
rusine
rusizi
rusobe
rusororo
russell
russian
rusumo
ruswa
rutagengwa
rutahizamu
rutandukanye
rutanga
rutangarwamaboko
rutare
rutaremara
rutayisire
rutera
ruth
ruti
ruto
rutonde
rutongo
rutoroshye
rutsiro
rutunga
rutunganya
rutunguranye
rutura
ruva
ruvuga
ruvugwa
ruwenzori
ruza
ruzi
ruzindana
ruzinduko
ruzizi
ruzwi
rv
rw
rwa
rwaba
rwabahanzi
rwabo
rwabugiri
rwacu
rwagasana
rwagati
rwagize
rwaje
rwakabamba
rwakazina
rwakozwe
rwamagana
rwamamaye
rwamenyekanye
rwana
rwanda
rwandaday
rwandair
rwandais
rwandaise
rwandaises
rwandamagazine
rwandamilitaryhospital
rwandan
rwandans
rwandas
rwandatoday
rwandese
rwandikiwe
rwangombwa
rwanyindo
rwanyuze
rwari
rwasamanzi
rwashyize
rwasohotse
rwatangiye
rwatewe
rwateye
rwatsinzwe
rwatubyaye
rwawe
rwayo
rwaza
rwe
rwego
rwema
rwemarika
rwemeje
rwemewe
rwera
rwerekana
rwerere
rweru
rwezamenyo
rwf
rwibikorwa
rwibinyabuzima
rwibutso
rwigamba
rwigema
rwigenga
rwigihugu
rwihariye
rwihaye
rwihishwa
rwinshi
rwitwa
rwiyemeje
rwiyemeza
rwiyemezamirimo
rwiza
rwo
rwogera
rworoshye
rwose
rwu
rwubatswe
rwuburezi
rwumurage
rwunge
rwuzuye
ry
rya
ryaba
ryabantu
ryabaye
ryabayobozi
ryabereye
ryabo
ryagaragaje
ryagiye
ryagize
ryahawe
ryahinduwe
ryahinduye
ryaho
ryahoze
ryaje
ryakira
ryakomotse
ryakoreshejwe
ryakorewe
ryakozwe
ryamakinamico
ryambabaje
ryambere
ryan
ryangombe
ryanjye
ryari
ryashinzwe
ryashyizweho
ryatangajwe
ryatangijwe
ryatangira
ryatangiriye
ryatangiye
ryatanze
ryatanzwe
ryateganijwe
ryateguwe
ryateje
ryatewe
ryatowe
ryatumye
ryaturutse
ryawo
ryayo
rye
ryemejwe
ryemewe
ryerekana
ryerekanwa
ryerekeye
ryerekeza
ryi
ryibanda
ryibanze
ryigenga
ryigihugu
ryigisha
ryihariye
ryihuse
ryihuta
ryinshi
ryisumbuye
ryiswe
ryita
ryitabiriwe
ryitiriwe
ryitwa
ryitwaga
ryiza
ryo
ryonyine
ryose
ryubuhanzi
ryubukungu
ryumuziki
rı
s
sa
saa
sabc
sacco
sadio
safaa
safari
safe
safi
safta
saftas
saga
sahara
saharan
sahel
sai
said
saif
saint
sainte
saison
sake
sakwe
salaam
salah
salama
salax
saleh
salima
salle
sally
salma
salome
salomo
salon
salus
salute
sam
samama
samantha
samba
sambizanga
samburu
same
samedi
sami
samir
samira
samoa
sampa
samuel
samusure
samweli
san
sana
sanders
sandra
sandrine
sands
sandton
sandy
sane
sangui
sankara
sankofa
sankore
sanma
sano
sans
santa
sante
santiago
santimetero
santos
sanu
sanya
saphine
sapiens
sar
sara
sarah
saranda
sarcoma
sarie
sarothrura
sarpong
sasa
sasha
satisfashionug
saturday
sava
savanhu
savanna
savannah
save
savoir
sawudite
sayinzoga
says
sc
scandal
scandals
scandinavia
scene
scheherazade
scholaire
scholarship
scholastique
school
schools
schoolsinrwanda
schoucair
schwarze
science
sciences
scientific
scolaire
sconce
score
scorpion
scotland
scott
screen
screenafrica
screendaily
screening
scum
se
sea
seal
sean
search
season
seasons
seat
sebanani
sebastien
sebeya
sebukwe
seburikoko
sec
second
secondaire
secondary
secret
secretary
secrets
section
sections
sector
security
sedufia
see
seek
seeland
seen
segment
segun
seine
seis
seka
sekoko
sekuru
sekuruza
selassie
selected
selection
selects
self
selhami
selile
selim
selimiye
selon
semaine
semanticscholar
sembe
sembene
seminaire
seminari
sempoma
semuhungu
sen
sena
senate
senateri
senator
senators
sendanyoye
senderi
senegal
senegalensis
senegali
senior
senna
senscritique
sense
sensing
sentenced
sentore
seoul
sep
september
septembre
ser
seraphine
serena
serengeti
seretse
serge
sergent
seri
serial
seribiya
serie
series
serija
serinus
seriously
seriveri
serivise
serivisi
serukiramuco
service
services
ses
set
settle
seven
sevota
sex
sexual
sexuellement
seychelles
sezari
sfb
sfn
sg
sgt
sh
sha
shadia
shafaqna
shagara
shah
shaka
shakespeare
shami
shampiona
shampiyona
shana
shangani
shanitah
sharangabo
shares
shark
sharon
shaughnessy
she
shebuja
sheet
shefa
sheikh
shema
sherrie
shili
shilubana
shimwe
shine
shingiro
shipure
shirley
shitani
shooting
shop
shopping
short
shot
should
show
showbiz
showid
showmax
shows
shtml
shuga
shuri
shyaka
shyamba
shyira
shyirahamwe
shyirambere
shyorongi
si
siatta
sibomana
sibyo
sickness
sida
side
sidechic
sidi
sidibe
sie
siegfried
sierra
sifa
siganwa
sight
sign
signs
sikizofreniya
silas
silberfeld
silence
silent
silicon
silovakiya
siloveniya
silva
silver
sima
simba
simbi
simbizi
similar
simon
simone
simplified
simpson
sin
sina
sinan
sincan
since
sindikubwabo
sinema
singa
singapore
singer
singh
single
singles
singular
sinifuza
sinking
sinohydro
sintex
sinzi
siperansiya
sipiriyani
siporo
sir
siri
siriya
sirusi
sis
sisitemu
sissako
sita
sitade
sitasiyo
sitcom
site
sites
sitidiyo
six
siyanse
siyansi
siyera
skateboard
skeleton
skeletons
skenjana
skills
skin
skopje
slow
small
smart
sme
smiled
smiri
smith
sn
so
soapie
sobanukirwa
social
sociale
socialite
socie
societe
societies
society
sociology
sodiyumu
soedan
soeur
sofia
software
sogokuru
sokhulu
soko
sol
solange
solanum
solar
soldiers
soleil
solidarity
solo
solomon
solomons
solutions
soma
somaliya
some
something
sometimes
somewhere
somi
son
song
songa
songs
sonia
sono
sont
sony
sood
soon
sophie
soraya
sorbonne
sosiyete
sosiyeti
soso
sosthene
souhila
soul
souleymane
sound
soundtrack
source
sources
sous
sousa
south
southern
sovu
sowetanlive
soweto
soya
sp
space
speak
speaker
speakers
speaking
speaks
special
specialist
species
specogna
spf
spieler
spip
spirit
spiritualityandpractice
spla
spoelstra
sport
sportif
sportifs
sports
spotify
spread
springer
springs
sprinter
sq
sqoop
square
sr
ssa
ssali
st
stab
stable
stade
stadium
staff
stage
stakeholder
stakeholders
stam
stan
stand
standard
standardmedia
standing
stanford
stanislas
stanley
star
starring
stars
start
started
starts
startup
state
states
station
statistics
stats
status
ste
stefania
stefanos
stella
stellenbosch
stem
stenvers
stephanie
stephen
steve
steven
stewart
still
stock
stockholm
stone
stop
storie
stories
storm
story
strategic
strategy
stream
streaming
street
streptococcal
streptopelia
strike
stromae
strong
structure
structures
stub
student
students
studies
studio
studios
studiyo
study
style
su
sub
subst
substance
substantive
success
successful
such
sudabeh
sudan
sudani
sue
sugar
suggested
sugira
suicide
suid
suisse
sul
sultan
sulwe
summary
summer
summit
sumo
sumy
sun
sundance
sundayworld
sung
sunnewsonline
sunrise
supa
supe
super
supermarket
supplement
supply
support
supranational
supreme
sur
surgery
suriname
survey
surveying
survivor
survivors
susan
sustainable
suwede
suzana
suzanne
svg
sw
swahili
swaniker
swearing
sweden
sweet
swimming
swissfilms
sxsrf
sy
sycholt
sydney
sylla
sylvia
sylvie
symphony
syndrome
system
systems
sz
t
ta
taal
taarifa
tab
taba
tabet
tackle
tadias
tafea
tag
tagisi
taha
tahi
taisamo
tajudeen
take
takes
taking
talal
tale
talent
talents
tales
taliki
talk
talkafricanmovies
talks
tallinn
tamara
tamil
tamy
tandukaniro
tanga
tanganyika
tangawizi
tangier
tango
tanit
tanzania
tanzanie
tanzaniya
tare
target
targets
tariki
tas
task
tat
tatiana
tatu
tavares
tax
tayilande
tayiwani
taylor
tbb
tbm
tchad
tchindas
tcm
tcmdb
te
tea
teacher
teaching
team
teams
tears
teatre
teatro
tech
technical
technique
techniques
technologies
technology
ted
teen
tegeko
teguia
tekinike
tekiniki
tekinoloji
tel
telefone
telefoni
telenovela
telerama
television
televisiyo
televiziyo
tell
telling
tells
templates
temple
temps
ten
tender
teneriya
tennis
tenofovir
teradignews
terambere
terefone
teresa
tereviziyo
teritwari
term
terra
terre
terrick
terry
tes
tessa
testamento
teta
tetero
tewolojiya
texas
text
textile
tf
th
tha
thabo
thakkar
thami
than
that
thato
the
theater
theatre
thebeehive
thebridge
thecable
thechoicelive
theeastafrican
thefamousnaija
theguardian
their
them
themba
thembi
theme
themoviedb
thenation
theology
therapy
there
therese
these
thewellspringfoundation
they
thierry
things
third
this
thisdaylive
thisisafrica
thomas
thompson
three
thriller
through
ti
tia
tiap
tibesti
tica
tidjara
tie
tiff
tiffany
tim
timbuktu
time
timeout
times
timeslive
timor
timoteyo
timothy
tina
tinghir
tini
tino
tips
titi
title
titles
tito
tjitji
tmc
tn
tnp
to
tobacco
tobongu
today
todd
toe
together
togetherness
togo
toit
toka
tokyo
told
tolerance
tolu
tom
tomas
tomato
tomatoes
tome
tonga
toni
tony
tonzi
took
tools
top
topafricanews
topic
topics
topik
toplace
torba
torero
torinofilmlab
toronto
torres
torture
toru
totale
touba
touch
touki
tour
toure
tourism
tout
touzani
towards
tower
towers
town
toyin
toyosi
tpg
tr
tracing
track
tracy
trade
traditional
traditionnelle
trail
trailer
trails
train
training
trakt
transcriptase
transfermarkt
translation
translationproject
transmissibles
traore
travel
tre
treatment
tree
tres
trevor
tri
tribeca
tribunal
tribune
tribute
trigon
tringa
trio
troglodytes
tropical
tropicale
troupe
true
trust
ts
tsafas
tseko
tshabalala
tshepo
tshisa
tshwane
tsinda
tsotsi
tsunami
tt
ttfc
ttl
ttnews
tu
tuareg
tuba
tubari
tuberculosis
tubiri
tubona
tudes
tuff
tugari
tugira
tugiye
tugize
tugomba
tukaba
tulane
tumaze
tumba
tumblr
tumenye
tumi
tumushime
tumusiime
tumwe
tun
tunde
tundi
tune
tunis
tunisia
tunisie
tunisiya
tuniziya
tunzi
turaje
ture
turere
turi
turimo
turinda
turkana
turkewich
turkish
turned
turns
turukiya
tutu
tuvalu
tuvuga
tuyisenge
tuyishime
tuyishimire
tuyizere
tuzaakomeza
tuzi
tv
tvet
tvguide
tvsa
tw
twa
twabivuze
twaganiriye
twagirumukiza
twahirwa
twala
twamenye
twari
twas
twasanze
twavuga
twavuze
twe
tweede
twenty
twese
twinshi
twist
twita
twitter
twitwa
two
twose
twubatse
tx
txt
ty
tyler
type
types
tz
u
uafulu
uba
ubald
ubanza
ubarizwa
ubona
uboneka
ubonetse
ubu
ububabare
ububanyi
ububasha
ububi
ububiko
ububiligi
ububirigi
ubucamanza
ubucucike
ubucukuzi
ubucuruzi
ubucuti
ubudage
ubudahangarwa
ubudasa
ubudehe
ubufaransa
ubufasha
ubufatanye
ubuforomo
ubuganda
ubugande
ubuganga
ubugari
ubugenge
ubugeni
ubugenzuzi
ubugereki
ubugingo
ubugizi
ubugome
ubuhahirane
ubuhamya
ubuhanga
ubuhanuzi
ubuhanzi
ubuhehere
ubuhinde
ubuhinduzi
ubuhinzi
ubuholandi
ubuhumekero
ubuhungiro
ubujura
ubujurire
ubujyanama
ubuk
ubukana
ubukangurambaga
ubukanishi
ubuke
ubukene
ubukerarugendo
ubuki
ubukirisitu
ubukoloni
ubukombe
ubukonje
ubukorikori
ubukoroni
ubukristo
ubukristu
ubukumi
ubukungu
ubukure
ubukwe
ubumaji
ubumara
ubumenyi
ubumenyingiro
ubumuga
ubumuntu
ubumwe
ubunararibonye
ubundi
ubungubu
ubunini
ubuntu
ubunyamabanga
ubunyamakuru
ubunyamwuga
ubunyangamugayo
ubunyobwa
ubura
uburakari
uburambe
uburanga
uburasirazuba
uburaya
uburayi
uburebure
uburemere
uburenganzira
uburengerazuba
uburere
uburezi
uburibwe
uburiganya
uburinganire
uburiri
uburiris
uburobyi
uburozi
uburumbuke
uburundi
ubururu
uburusiya
uburwayi
uburyo
uburyohe
ubusa
ubusabane
ubusanzwe
ubushakashatsi
ubushake
ubusharire
ubushinjacyaha
ubushinwa
ubushishozi
ubushobozi
ubushomeri
ubushye
ubushyo
ubushyuhe
ubusitani
ubusizi
ubuso
ubusobanuro
ubusugi
ubusugire
ubusumbane
ubusuwisi
ubuta
ubutabazi
ubutabera
ubutabire
ubutaka
ubutaliyani
ubutare
ubutayu
ubute
ubutegetsi
ubutii
ubutita
ubuto
ubutumburuke
ubutumire
ubutumwa
ubutunzi
ubuturo
ubutwari
ubutwererane
ubuvanganzo
ubuvugizi
ubuvumo
ubuvuzi
ubuyapani
ubuyisilamu
ubuyobozi
ubuzima
ubuziranenge
ubw
ubwa
ubwabo
ubwabyo
ubwacyo
ubwagenewe
ubwami
ubwana
ubwanditsi
ubwandu
ubwato
ubwatsi
ubwawo
ubwayo
ubwazo
ubwe
ubwenegihugu
ubwenge
ubwicanyi
ubwigenge
ubwiherero
ubwihindurize
ubwikorezi
ubwinshi
ubwirinzi
ubwiru
ubwisanzure
ubwishingizi
ubwishyu
ubwitange
ubwiyongere
ubwiyunge
ubwiza
ubwo
ubwoba
ubwoko
ubwongereza
ubwonko
ubworoherane
ubworozi
ubwoya
ubwubatsi
ubwumvikane
ubwuzuzanye
uche
uci
ud
udafite
udaharanira
udakurikirana
udasanzwe
udashobora
uduce
uduheri
uduhumyo
udukingirizo
udukoko
uduseke
udushya
udusimba
udusirikare
uefa
ufasha
ufata
ufatika
ufatwa
ufite
ufrj
ug
ugamije
ugana
uganda
ugandan
ugaragara
ugaragaza
ugasanga
ugenda
ugera
ugereranije
ugereranyije
ugeze
ughe
ugira
ugiye
ugize
ugizwe
ugomba
ugukomeza
ugukora
ugukoresha
ugushakisha
ugushidikanya
ugushyingo
ugushyira
ugutanga
ugutwi
uhagararira
uhagarariye
uhagaze
uhagije
uhamye
uhana
uharanira
uhari
uhasanga
uherereye
uhereye
uheruka
uherutse
uhiga
uhindura
uhiriwe
uhoraho
uhura
uhuriweho
uhuza
uit
uju
ujya
uk
ukaba
ukabije
ukabona
ukagera
ukah
ukeje
ukekwaho
ukeneye
ukina
ukinira
ukiri
ukizana
ukize
uko
ukomeje
ukomeye
ukomoka
ukonje
ukora
ukorana
ukorera
ukoresha
ukoresheje
ukoreshwa
ukorwa
ukraine
uku
ukubera
ukuboko
ukuboza
ukubyimba
ukuguru
ukunda
ukundi
ukundwa
ukungahaye
ukuntu
ukunze
ukunzwe
ukureba
ukuri
ukurikije
ukurikira
ukuriye
ukuvuga
ukuze
ukwa
ukwakira
ukwakire
ukwemera
ukwezi
ukwishyira
ukwiye
ukwiyoroshya
ukwizera
ul
ulcer
ulcerans
ulk
ulysses
um
umar
umaze
umbrella
umenya
umenye
umenyerewe
umeze
umoren
umu
umubano
umubare
umubavu
umubili
umubiligi
umubiri
umubirizi
umubumbe
umuburi
umubwiriza
umubyara
umubyeyi
umubyimba
umubyinnyi
umucamanza
umucanga
umuceri
umuco
umucungamari
umucuranzi
umucuruzi
umucuruzikazi
umucyo
umudage
umudali
umudamu
umudari
umudendezo
umudepite
umudipolomate
umudugudu
umufaransa
umufasha
umufatanyabikorwa
umufilozofe
umuforomo
umufotozi
umufuka
umufurere
umugaba
umugabane
umugabekazi
umugabo
umugambi
umuganda
umuganga
umugani
umugano
umuganura
umuganwa
umugati
umugatolika
umugeni
umugenzuzi
umugereka
umugeyo
umugezi
umugi
umugiraneza
umugisha
umugome
umugongo
umugore
umugoroba
umugwaneza
umuhamagaro
umuhanda
umuhanga
umuhango
umuhanzi
umuhanzikazi
umuhate
umuhererezi
umuheto
umuhigi
umuhigo
umuhimbyi
umuhindo
umuhinzi
umuhire
umuhogo
umuhondo
umuhoza
umuhungu
umuhutu
umuhuza
umuhuzabikorwa
umujinya
umujura
umujyanama
umujyi
umukamo
umukandara
umukandida
umukara
umukecuru
umukinnyi
umukino
umukinyi
umukirisitu
umukobwa
umukono
umukore
umukoresha
umukozi
umukungugu
umukunzi
umukuru
umukwe
umulisa
umumaro
umunani
umunaniro
umunara
umuneke
umunezero
umunota
umunsi
umuntu
umunwa
umunya
umunyabanga
umunyafurika
umunyagitugu
umunyamabanga
umunyamakuru
umunyamakurukazi
umunyamategeko
umunyamerika
umunyamideli
umunyamideri
umunyamuryango
umunyana
umunyapolitike
umunyapolitiki
umunyarwanda
umunyarwandakazi
umunyarwenya
umunyemari
umunyeshuri
umunyezamu
umunyu
umupadiri
umupaka
umupasiteri
umupasitori
umupfakazi
umupfumu
umupira
umupolisi
umura
umurage
umurama
umurambo
umuramyi
umuranga
umuraperi
umurava
umurego
umuremyi
umurenge
umurerwa
umurezi
umurima
umurimo
umurindi
umuringa
umurinzi
umuririmbyi
umuririmbyikazi
umuriro
umurongo
umurundi
umurungi
umurwa
umurwanashyaka
umurwanyi
umurwayi
umuryango
umusambi
umusanzu
umusaraba
umusaruro
umusatsi
umusaza
umusazi
umuseke
umusemburo
umusenateri
umusenyi
umusesenguzi
umushahara
umushakashatsi
umushanana
umushayayo
umushinga
umushinjacyaha
umushoferi
umushoramari
umushumba
umushumi
umushyitsi
umushyushyarugamba
umusifuzi
umusigiti
umusimbura
umusingi
umusirikare
umusirikari
umusizi
umusore
umusozi
umutagatifu
umutaka
umutaliyani
umutara
umutegarugori
umutegetsi
umutekano
umuterankunga
umutesi
umuti
umutihealth
umutima
umutingito
umutobe
umutoni
umutoza
umutuku
umutungo
umutunzi
umuturage
umuturanyi
umuturirwa
umututsi
umutware
umutwaro
umutwe
umuvandimwe
umuvuduko
umuvugabutumwa
umuvugizi
umuvunyi
umuvuzi
umuyaga
umuyahudi
umuyisilamu
umuyoboro
umuyobozi
umuzamu
umuze
umuziki
umuzimu
umuzingo
umuziranenge
umuzungu
umwaka
umwali
umwambaro
umwami
umwamikazi
umwana
umwanda
umwanditsi
umwangavu
umwanya
umwanzi
umwanzuro
umwari
umwarimu
umwe
umwembe
umwenda
umwenge
umwepiskopi
umwere
umweru
umwete
umwezi
umwigisha
umwihariko
umwijima
umwimerere
umwirabura
umwirondoro
umwirongi
umwobo
umwongereza
umworozi
umwotsi
umwubatsi
umwuga
umwuka
umwuzukuru
umwuzure
un
una
unabu
unaids
unar
uncle
unctad
und
under
undergraduate
undi
undp
une
unep
unesco
unesdoc
ungana
ungirije
unhcr
uni
unicef
unifrance
union
unique
unis
unit
united
unity
universe
universitaire
universite
universities
university
unknown
uno
unr
unseen
unwanted
unyura
unyuze
uok
up
upcoming
update
uplifting
upload
uploads
uppsala
ur
urabona
urangije
urangira
urashobora
urban
ureba
urebye
urenga
urengera
uretse
urgent
uri
uriho
urimo
uririmba
urivuze
uriya
url
uru
urubanza
urubingo
urububi
urubuga
urubura
urubuto
urubyaro
urubyiruko
urufatiro
urufunguzo
urugaga
urugamba
uruganda
urugaryi
urugemwe
urugendo
urugereko
urugero
urugi
urugingo
urugo
urugomero
urugomo
urugori
uruguay
urugwiro
uruhande
uruhare
uruhererekane
uruhinja
uruhu
uruhushya
urujeni
urujijo
urukiko
urukingo
urukundo
urukurikirane
urukuta
urukwavu
urumuri
urunana
urundi
urungano
urunigi
urupapuro
urupfu
ururabo
ururenda
ururimi
urusaku
urusenda
urusengero
urushinge
urusobe
uruta
urutare
uruti
urutoki
urutonde
uruvange
uruyuki
uruzi
uruziga
uruzinduko
uruzitiro
urw
urwa
urwagashya
urwagwa
urwanda
urwandiko
urwango
urwanya
urwaye
urwego
urwenya
urwibutso
urwiru
urwo
urwunge
us
usa
usaba
usaid
usakuza
usanga
usanzwe
usd
use
used
usembassy
usengimana
user
users
uses
ushaka
ushimishije
ushingiye
ushinzwe
ushize
ushobora
ushoboye
ushyigikiye
ushyira
usibye
usigaye
using
usqp
ustc
usual
utab
utabara
utagira
utamenye
utandukanye
utanga
utangira
utari
utarigeze
utb
utc
utegamiye
utera
utere
uterwa
uteye
uteza
uti
utimukanwa
utm
utu
utubyimba
utugali
utugari
utuma
utundi
utunganya
utuntu
utunyabuzima
uturango
uturemangingo
uturere
uturuka
uturutse
utuwe
utuye
utuyira
utwite
utwo
utwobo
uva
uvuga
uvugwa
uvuka
uvura
uvuye
uvuze
uw
uwa
uwabaye
uwacu
uwahimbye
uwahoze
uwakiriye
uwamahoro
uwamaliza
uwamariya
uwambere
uwamwezi
uwanduye
uwari
uwase
uwashinze
uwatsinze
uwavuze
uwayezu
uwera
uwilingiyimana
uwimana
uwimanimpaye
uwimbabazi
uwimpundu
uwineza
uwingeneye
uwiringiyimana
uwiteka
uwitonze
uwituze
uwitwa
uwizera
uwizeye
uwizeyimana
uwo
uwumva
uyirwaye
uyobora
uyobowe
uyoboye
uys
uyu
uyumugabo
uyumuhanzi
uyumunsi
uyumusore
uza
uzaba
uzamuka
uzi
uzuri
uzwi
uzwiho
uzziel
v
va
vaccines
valens
valentine
valerie
valley
value
van
vancouver
vanellus
vanessa
vanguardngr
vanuwatu
var
variety
various
vatican
vatikani
vaʔu
vc
vcllmli
ve
ved
vedaste
veena
vegas
veloppement
venice
venter
vera
verde
verdean
verenigde
veri
verisiyo
veronica
verre
version
versus
vert
verwey
very
vestine
veve
vi
via
vianello
vianney
vice
vicente
vicker
victor
victoria
victory
vida
video
videodetective
videos
videwo
vie
vienne
vient
vietnam
view
viewactor
viewers
views
vih
vikariyati
vikhondi
viktor
viljee
village
ville
villiers
vimeo
vincent
vino
vint
violence
violette
vir
viral
virginia
virtual
virunga
virus
viruses
virusi
visa
visi
vision
visitrwanda
vista
visual
vitamin
vitamine
vitamini
vitiligo
viyetinamu
viza
vladimir
vlag
vo
vocabulary
vocal
vogue
voi
voice
voices
vol
volcano
volleyball
volume
voluntary
von
voodoo
voortrekkers
vosloo
vs
vso
vuba
vuga
vugapay
vumbi
vusi
vvob
vymaps
w
wa
waar
waba
wabaga
wabana
wabanje
wabantu
wabaturage
wabaye
wabayeho
wabereye
wabibumbye
wabigize
wabo
wabonye
wabyo
wacu
wacyo
wadi
wafashe
wafashwe
wagabanutse
wagaragaje
wagaragaye
wagarutse
wageze
wagiye
wagize
wagizwe
wagombaga
wahawe
wahindutse
wahize
waho
wahoze
wahuye
wainaina
wairimu
waithira
waiting
waje
waka
wakaliwood
wakiniraga
wakiniye
wakinnye
wakiriye
wako
wakomeje
wakomokaga
wakoraga
wakoze
wakozwe
wakunzwe
wakurikiyeho
wakuriye
wakuze
wales
walk
walker
wallace
walt
walter
wamafirime
wamaguru
wamamaye
wamariya
wambaye
wambere
wamenya
wamenyekanye
wanda
wanditse
wanditswe
wanduye
wanjye
want
wanted
wants
wanuri
wanyu
wanyuma
wapfuye
war
waramutse
wari
wariyongereye
warokotse
warrior
warriors
wars
was
wasangaga
washakaga
washakanye
washatse
washington
washingtonpost
washinze
washinzwe
washoboraga
washyizeho
washyizwe
washyizweho
wasifuye
wasize
wasuye
wat
watangije
watangijwe
watangiye
watch
water
watewe
wateye
watkins
watorewe
watowe
watsindiye
watsinze
watson
watwaye
wavukiye
wavutse
wavuye
wavuze
wawe
way
wayitare
wayo
wayoboye
ways
wayz
wazamutse
wazo
wbbc
wbul
wda
wdbr
we
web
webrwanda
website
wedding
week
weekend
weeping
weforum
wegereye
wegukanye
wekesa
welcome
well
wellesley
wellington
wemera
wenda
wendo
wendy
wenyine
wera
were
werekeza
werurwe
wes
wese
west
western
wet
wetland
wetlands
weyers
wgig
what
whats
when
where
which
whisper
white
who
why
wi
wibanda
wibanze
wibikorwa
wica
wide
wife
wifuza
wiga
wigenga
wigeze
wigihe
wigihugu
wigire
wigisha
wihariye
wihishe
wiketi
wiki
wikigo
wikileaks
wikimedia
wikipe
wikipedia
wikipediya
wikirwanda
wikiwand
wiktionary
wild
wildlife
will
william
williams
willie
willy
wilson
wimukiye
wimyaka
win
wind
windhoek
wine
wingenzi
winjira
winjiye
winner
winners
winnie
winning
wins
winter
wintwari
wish
wishwe
wita
witabiriye
witabye
witangazamakuru
witch
with
within
witsinda
witt
witwa
witwaga
witwatersrand
witwaye
wiyita
wiyongera
wiyongereye
wiyongereyeho
wize
wizihizwa
wizkid
wma
wo
wobaho
wolf
woman
womans
women
womenandhollywood
womenpoliticalleaders
womens
won
wongera
wongeyeho
woodard
woordeskat
word
wordpress
words
work
workforce
working
works
workshop
world
worldbank
worldcat
worldwide
worth
wose
wowe
wp
writer
writing
written
wsis
wto
wu
wubatse
wubatswe
wubuhanzi
wujuje
wukuri
wumuco
wumugabo
wumugore
wumuhanga
wumukobwa
wumupira
wumva
wumwaka
wumwirabura
wundi
wungirije
wurubyiruko
wuzuye
wvi
www
wysig
x
xau
xavier
xf
xhamia
xitsonga
xolile
xx
xxiii
xyz
y
ya
yaaba
yaba
yabaga
yabagabo
yabagore
yabahanzi
yabajije
yabamasayi
yabana
yabanje
yabantu
yabashije
yabategarugori
yabateze
yabaturage
yabaye
yabayeho
yaberaga
yabereye
yabigize
yabikoze
yabo
yabonaga
yabonekeye
yabonetse
yabonye
yabuze
yabwiwe
yabwiye
yabyaranye
yabyawe
yabyaye
yabyo
yacitse
yaciye
yacu
yacuze
yacyo
yafashaga
yafashe
yafashije
yafashwe
yafatanije
yafatanyije
yafatiwe
yafatwaga
yafunguwe
yafunguye
yaganiraga
yaganiriye
yagaragaje
yagaragaye
yagaragayemo
yagarukaga
yagarutse
yagejeje
yagenewe
yagenze
yagenzuye
yageraga
yagerageje
yageragejwe
yageze
yagezeho
yagiraga
yagiranye
yagiriwe
yagiriye
yagiye
yagize
yagizwe
yago
yagombaga
yagumanye
yagumye
yagurishijwe
yaguye
yaguze
yaguzwe
yahagarariye
yahagaritse
yahagaritswe
yahakanye
yahamagaye
yahamijwe
yahavuye
yahawe
yahaye
yahembwe
yahembye
yahimbwe
yahimbye
yahindutse
yahinduwe
yahinduye
yahise
yahisemo
yahishuye
yahitanye
yahize
yaho
yahoo
yahoraga
yahoze
yahozeho
yahuguye
yahujwe
yahungiye
yahunze
yahuraga
yahuriye
yahuriyemo
yahuye
yaje
yajya
yajyaga
yajyanye
yajyanywe
yaka
yakatiwe
yakazi
yakinaga
yakiniraga
yakiniye
yakinnye
yakinwe
yakira
yakiriwe
yakiriye
yakize
yakobo
yakomeje
yakomereje
yakomezaga
yakomotse
yakora
yakoraga
yakoranaga
yakoranye
yakoreraga
yakoresheje
yakoreshejwe
yakorewe
yakoreye
yakorwaga
yakoze
yakozwe
yakundaga
yakunze
yakunzwe
yakurikiranye
yakurikiye
yakurikiyeho
yakuriye
yakusanyije
yakuwe
yakuweho
yakuye
yakuza
yakuze
yale
yamaganye
yamakuru
yamamaye
yamamaza
yamaraga
yamaraso
yamasaha
yamashanyarazi
yamategeko
yamateka
yamavuko
yamaze
yambaye
yambere
yambitse
yambitswe
yambukiranya
yambutse
yamenye
yamenyekanye
yamugize
yamuhaye
yamuritse
yamye
yanabaye
yanagaragaye
yanakinnye
yanakoze
yandi
yandika
yandikaga
yandikiye
yanditse
yanditswe
yandura
yanduye
yanduza
yanenze
yanga
yangiritse
yangiza
yanjye
yankurije
yannick
yanukovych
yanyuma
yanyuze
yanyuzemo
yanze
yaounde
yapfaga
yapfuye
yarabaye
yarabonye
yarafite
yaragiye
yaragize
yarahawe
yarahiriye
yaraje
yarakiniye
yarakinnye
yarakoze
yarakuze
yaramamaye
yaramaze
yaramenyekanye
yaranditse
yarangije
yarangirije
yarangiye
yaranze
yarapfuye
yarari
yarashakanye
yarashinze
yarashinzwe
yarashwe
yaratangiye
yaravukiye
yaravutse
yarayikoranye
yarekuwe
yaremye
yaretse
yarezwe
yari
yarigeze
yariho
yarimanuye
yarimo
yaririmbaga
yaririmbanye
yaririmbwe
yaririmbye
yariye
yarize
yarokotse
yarushanwe
yarushinze
yarwo
yaryo
yasabye
yasangiye
yasanze
yasenywa
yasezeranye
yasezeye
yashakaga
yashakanye
yashatse
yashimangiye
yashimiwe
yashimiye
yashimye
yashingwa
yashinjwaga
yashinze
yashinzwe
yashishikarije
yashize
yashizeho
yashizwe
yashizweho
yashoboraga
yashoboye
yashoye
yashyigikiye
yashyikirije
yashyinguwe
yashyize
yashyizeho
yashyizwe
yashyizweho
yasimbuwe
yasimbuye
yasinyanye
yasinye
yasinyishije
yasinyiye
yasize
yasobanuye
yasohotse
yasohowe
yasohoye
yasoje
yasubije
yasubiye
yasuye
yatakaje
yatandukanye
yatangaje
yatangajeko
yatangajwe
yatangije
yatangijwe
yatangira
yatangiraga
yatangiranye
yatangiriye
yatangiye
yatanze
yatanzwe
yatawe
yategetse
yateguraga
yateguwe
yateguye
yateje
yatekereje
yatekerezaga
yateraniye
yateranye
yatewe
yateye
yatoje
yatojwe
yatoranijwe
yatorewe
yatowe
yatsindiye
yatsinze
yatuma
yatumiriwe
yatumiwe
yatumwe
yatumye
yatunguwe
yaturutse
yatuye
yatwaye
yavaga
yavanye
yavugaga
yavukaga
yavukiye
yavukiyemo
yavumbuwe
yavumbuye
yavutse
yavuye
yavuze
yavuzeko
yavuzwe
yavuzweho
yawe
yawo
yawurute
yayigiye
yayize
yayo
yayobowe
yayoboye
yazamutse
yazamuwe
yazamuye
yazanye
yazanywe
yazengurutse
yazimye
yazo
ybe
ye
yeanagro
year
years
yeboah
yeelen
yegeranye
yegereye
yego
yegob
yegukana
yegukanye
yeguriwe
yeguriye
yeguye
yehova
yellow
yeltsin
yemeje
yemejwe
yemeni
yemera
yemeraga
yemerera
yemererwa
yemerewe
yemereye
yemewe
yemeye
yemeza
yeni
yenimahalle
yennenga
yepfo
yera
yerekana
yerekanaga
yerekane
yerekanwa
yerekanwe
yerekanye
yerekanywe
yerekeje
yerekeranye
yerekeye
yerekeza
yeremiya
yerevan
yerusalemu
yesu
yewe
yeze
yezu
yi
yibanda
yibanze
yibarutse
yibasira
yibasiwe
yibasiye
yibaza
yibera
yibi
yibikorwa
yibonereho
yibuka
yibye
yibyo
yica
yicaye
yiciwe
yicwa
yie
yifashishije
yifashishwa
yifatanije
yifatanyije
yifuza
yifuzaga
yiga
yigaga
yiganje
yiganjemo
yigarurira
yigaruriye
yige
yigenga
yigeze
yigihe
yigihembo
yigihugu
yigira
yigisha
yigishije
yigitoki
yigiye
yihariye
yihaye
yihishe
yihuta
yihutirwa
yijika
yijimye
yiki
yikiciro
yikigo
yikinamico
yikinyejana
yikirenga
yimari
yimbere
yimer
yimikino
yimikorere
yiminota
yiminsi
yimukira
yimukiye
yimuriwe
yimvura
yimyaka
yimye
yimyidagaduro
yindi
yindirimbo
yingenzi
yinjije
yinjira
yinjiraga
yinjiye
yinjiza
yinka
yinyamaswa
yinyanja
yirabura
yirinda
yirmi
yirukanwe
yirukanywe
yisabune
yise
yishe
yishimira
yishimiye
yishuri
yishwe
yishyurwa
yisi
yisoko
yisumbuye
yiswe
yita
yitaba
yitabira
yitabiriwe
yitabiriye
yitabye
yitegura
yiteguye
yiterambere
yitiriwe
yitwa
yitwaga
yitwaje
yitwara
yitwaye
yiwe
yiyandikisha
yiyandikishije
yiyemeje
yiyemeza
yiyi
yiyita
yiyitiriye
yiyongera
yize
yizera
yizewe
yizeye
yizo
yjfjq
yo
yoga
yohana
yohani
yohann
yohereje
yoherejwe
yohereza
yoherezwa
yolande
yombi
yonda
yongera
yongeraho
yongere
yongeye
yongeyeho
yonsa
yonyine
york
yorodani
yoroheje
yoroshye
yoruba
yorudani
yose
you
young
your
youssef
youth
youtube
yoweri
yozefu
ysolde
yu
yubahwa
yubaka
yubatse
yubatswe
yubucuruzi
yubuhanzi
yubukwe
yubumenyi
yuburasirazuba
yuburengerazuba
yuburezi
yubutaka
yubutayu
yubutegetsi
yubuvuzi
yubuyobozi
yubuzima
yubwoko
yuda
yue
yuhi
yujuje
yuko
yukuri
yumubiri
yumuco
yumuhanda
yumujyi
yumukara
yumukobwa
yumunsi
yumuntu
yumupira
yumuryango
yumuziki
yumva
yumvaga
yumvikanye
yumvise
yumwaka
yumwimerere
yumye
yungirije
yungutse
yunze
yurugamba
yuruhererekane
yurukiko
yurukundo
yuzuye
yvan
yves
yvette
yvonne
z
za
zaba
zabaga
zabakoloni
zabanje
zabantu
zabaye
zabo
zabonye
zabukuru
zaburi
zabyo
zacu
zacyo
zafashe
zafashwe
zagiye
zagize
zahabu
zahawe
zahinduwe
zaho
zahra
zahunze
zainabo
zaire
zaje
zakes
zakoreshejwe
zakorwaga
zakoze
zakozwe
zakunzwe
zalebs
zama
zamahanga
zamamaye
zamaze
zambere
zambia
zambiya
zamenyekanye
zamerika
zanditswe
zandura
zandurira
zanduye
zaninka
zanjye
zanzibar
zari
zaria
zaririmbwe
zashishikarizaga
zashyizwe
zashyizweho
zasohotse
zatangiye
zatanzwe
zateye
zatoranijwe
zatsindiye
zatumye
zaturutse
zayire
zayo
zaza
zazzau
ze
zein
zeit
zelensky
zemewe
zerekana
zerekanwe
zerekeye
zerekeza
zeresenay
zero
zeru
zethu
zeze
zh
zi
ziba
zibaho
zibarizwa
zibe
ziboneka
zibuza
zica
zicukumbuye
zidafite
zidagadura
zidakira
zidasanzwe
zidovudine
zifasha
zifata
zifatika
zifatwa
ziff
zifitanye
zifite
zigamije
ziganjemo
zigaragara
zigaragaza
zigenda
zigendanwa
zigenga
zigera
zigeze
zigezweho
zigihugu
zigira
zigiye
zigize
zigizwe
zigomba
zihabwa
zihagije
zihariye
ziherereye
zihimbaza
zij
zijn
zijya
zijyanye
zikaba
zikenewe
zikeneye
zikiri
zikomeje
zikomeye
zikomoka
zikora
zikoresha
zikoreshwa
zikorwa
zikunda
zikundwa
zikunze
zikunzwe
zikurikira
zikurikirana
zimara
zimaze
zimbabwe
zimeze
zimwe
zina
zinabu
zinc
zindi
zingana
zingenzi
zinjiye
zinoze
zinyuranye
zion
zirambye
zirangwa
zirashobora
zirenga
zirenze
ziri
ziribwa
zirimo
zirindwi
zirwanya
zirya
zisaba
zisaga
zisangiye
zisanu
zisanzwe
zisetsa
zishimishije
zishingiye
zishinzwe
zishobora
zisigaye
zisurwa
zita
zitandukanye
zitanga
zitangira
zitangwa
zitari
zitera
ziterambere
ziterwa
zitukura
zituma
zitunganya
zituruka
ziturutse
zitwa
zitwara
ziva
zivuga
zivuye
ziyobowe
zizaba
zizou
zizwi
zm
zo
zoe
zombi
zone
zoom
zoon
zoppelletto
zoroheje
zororerwa
zose
zozibini
zu
zuba
zubatswe
zubuzima
zubwiru
zulu
zumuco
zunganira
zunze
zuzuye
zw
zziwa
{
|
}
~
«
°
²
µ
·
»
½
¾
æ
ð
ø
ı
ł
ŋ
ƒ
ƙ
ƴ
ɑ
ɓ
ɔ
ɖ
ɗ
ə
ɛ
ɣ
ɪ
ʋ
ʒ
ʔahuru
ʰ
ʲ
ʻ
ʼ
ˈ
ˌ
ː
˥
˦
˧
˨
˩
̀
́
̂
̃
̄
̆
̇
̈
̊
̋
̌
̍
̓
̔
̛
̣
̦
̧
̨
̭
̱
α
β
γ
δ
ε
ζ
η
θ
ι
κ
λ
μ
ν
ξ
ο
π
ρ
ς
σ
τ
υ
φ
χ
ψ
ω
а
б
в
г
д
е
ж
жыи
жәаба
з
и
ирыстон
к
курица
л
м
мечеть
мәчете
н
не
о
он
п
р
республика
с
соборная
т
у
ф
х
ц
ч
ча
ш
щ
ъ
ы
ырма
ь
э
ю
я
ѕ
і
ј
љ
њ
џ
џамија
ѧ
ғ
қ
ң
ҩажәеи
ү
ұ
ҳ
һ
ә
ө
ո
ְ
ִ
ֵ
ָ
ֹ
ּ
ׁ
א
ה
י
ל
ם
ר
ש
ת
ا
الا
الجمهورية
العربية
الكبير
المسجد
ب
بن
بو
ة
ت
ث
ج
جامع
خ
د
ر
س
سلام
ش
ع
علي
غ
ق
ل
م
مسجد
ن
ه
و
ي
ٌ
َ
ُ
ِ
ّ
ْ
ٓ
ٔ
ٕ
ٰ
پ
ی
۔
ހ
ރ
ކ
އ
ވ
މ
ދ
ލ
ޖ
ާ
ި
ެ
ް
ं
क
ख
घ
च
ज
ट
ठ
ण
त
द
न
प
ब
भ
म
य
र
ल
व
श
ष
स
ह
ा
ि
ी
ु
ृ
े
्
ং
ক
জ
ট
ত
দ
প
ব
ম
মসজ
য
র
ল
শ
ষ
়
া
ি
ী
ু
ে
্
ા
ଁ
ଆ
ଇ
କ
ଚ
ଞ
ଠ
ଡ
ଢ
ତ
ଥ
ଦ
ଧ
ନ
ପ
ମ
ଯ
ର
ଷ
ସ
ହ
଼
ା
ି
ୁ
ୃ
େ
୍
ୖ
ୗ
க
ங
ச
ஜ
ட
த
ன
ப
ம
ர
ற
வ
ா
ி
ீ
ு
ூ
ை
்
ర
ా
్
ജ
ദ
മ
ാ
ി
ു
്
ං
ක
ත
ර
ල
ශ
්
ා
ී
ม
อ
ั
ิ
่
้
་
ལ
ᐁ
ᐃ
ᐅ
ᐊ
ᐤ
ជ
ព
រ
ា
្
​
‌
‍
‎
‏
–
—
‘
’
“
”
†
•
…
′
″
›
ⁿ
₂
↑
→
↔
↷
−
③
④
⑦
█
■
●
☃
☉
♀
✅
⯓
ⴰ
ⴷ
ⵓ
ⵔ
ⵜ
⺀
⺄
⺆
⺈
⺊
⺌
⺕
⺝
⺸
⺼
⿰
⿱
⿲
⿳
⿴
⿵
⿶
⿷
⿸
⿹
⿺
⿻
。
〢
あ
い
う
え
お
か
き
く
け
こ
さ
し
す
せ
た
ち
っ
つ
て
と
な
に
は
ひ
へ
ほ
ま
み
め
ゅ
ょ
ら
り
る
れ
ろ
わ
を
ん
゙
゚
イ
コ
タ
ハ
ヒ
ュ
ユ
ン
ー
㇁
㇂
㇄
㇇
㇈
㇉
㇓
㐁
㐄
㐅
㐌
㐫
㐬
㐭
㐮
㐱
㑒
㒵
㒸
㒼
㓁
㓞
㔾
㕛
㕣
㖾
㘝
㚅
㚇
㚔
㚘
㝉
㝡
㝴
㝵
㞋
㞢
㞷
㠩
㠭
㠯
㡀
㡭
㡿
㢲
㢴
㣇
㣺
㥯
㪅
㫄
㫐
㫒
㫺
㬅
㬎
㬥
㬰
㲋
㳄
㷠
㸒
㸚
㸦
㼌
㼲
㽞
㿟
䀠
䂞
䍃
䏍
䒑
䖍
䖒
䖝
䖵
䙴
䚻
䜌
䝿
䡛
䧹
䪞
一
丁
丂
七
丄
丅
丆
万
丈
三
上
下
丌
不
与
丏
丐
丑
专
且
丕
世
丘
丙
业
东
丞
丢
丣
两
严
並
丨
丩
个
丫
丬
中
丮
丰
丱
串
丵
丶
丷
丸
丹
为
主
丽
丿
乀
乂
乃
久
乆
乇
么
义
之
乌
乍
乎
乏
乐
乑
乔
乖
乗
乘
乙
乚
乛
乜
九
乞
也
习
乡
乳
乾
亀
亅
了
亇
予
争
事
二
亍
于
亏
亐
云
互
亓
五
井
亘
亚
亜
亞
亟
亠
亡
亢
交
亥
亦
产
亨
亩
享
京
亭
亮
亯
亰
亲
亳
亶
亷
人
亻
亼
亾
仁
今
介
仌
从
仐
仑
仒
仓
仔
仕
他
付
仝
代
令
以
任
企
伊
伏
伐
休
会
伞
伯
但
位
体
何
佘
余
作
佥
使
來
侈
侌
侖
侯
侵
便
保
俞
信
修
倉
倍
候
倠
傘
備
僉
僕
儿
兀
允
兂
元
兄
充
兆
兇
先
光
兊
克
兌
免
兑
兒
兓
兔
党
兜
兟
入
全
兩
兪
八
公
六
兮
兰
共
关
兵
其
具
典
兹
兼
冀
冂
冃
冄
内
冈
冉
冊
冋
册
再
冎
冏
冐
冒
冓
冖
冗
冘
军
农
冝
冡
冥
冫
冬
冷
几
凡
凢
凵
凶
凷
凸
凹
出
函
凾
刀
刁
刂
刃
刄
刅
分
切
刍
刑
刕
刖
列
刘
则
初
別
利
别
到
制
刺
則
削
剌
前
剡
剣
剽
劉
力
功
加
劦
动
助
劫
劳
劵
勃
勇
勉
勒
動
務
勞
勤
勹
勺
勻
勾
勿
匀
匂
包
匆
匈
匊
匋
匍
匕
化
北
匚
匝
匡
匪
匱
匸
匹
区
医
匽
匿
區
十
卂
千
卄
卅
卆
升
午
卉
半
卌
华
卑
卒
卓
单
卖
南
卜
卝
卞
占
卡
卢
卣
卤
卦
卩
卪
卬
卯
印
危
即
却
卵
卷
卸
卻
厂
厃
厄
历
厈
厉
厌
厓
厘
厚
原
厤
厥
厨
厭
厲
厶
厷
厸
去
厼
厽
叀
参
參
叅
又
叉
及
友
双
反
叐
发
叒
叔
叕
取
受
变
叚
叜
叟
口
古
句
另
叩
只
召
可
台
叱
史
右
叵
号
司
叹
吂
各
吅
合
吉
吊
吋
同
名
后
吏
向
吕
君
吝
吞
否
含
启
吳
吴
吹
吾
呂
呆
呈
告
员
呙
周
命
咅
和
咎
咠
咢
咨
咸
咼
哀
品
哉
員
哥
哲
唐
商
啇
問
啚
啬
啻
善
喜
喬
單
喿
嗇
器
噩
嚴
囊
囗
囘
囙
囚
四
回
囟
因
囧
囬
困
囱
囷
固
国
圂
圅
國
圍
圓
土
圡
圣
圥
在
圭
地
圶
圼
坐
坒
坚
坡
坴
垂
垔
垚
埀
埋
埶
執
基
堂
堅
堆
堇
堯
塞
墙
墨
壘
士
壬
壯
声
壳
壴
壹
壺
壽
夂
处
夅
夆
备
夊
夋
夌
复
夏
夒
夕
外
夗
夘
多
夜
夢
大
夨
天
太
夫
夬
夭
央
失
夲
头
夷
夸
夹
夻
夾
奂
奄
奇
奈
奉
奎
奏
奐
契
奓
奔
奚
奞
奠
奢
奥
奭
女
奴
奻
好
如
妄
妙
妟
妥
妻
妾
姑
委
姜
威
娄
婁
婴
嬰
嬴
子
孑
孔
孕
孖
字
存
孚
孛
孝
孟
季
孤
学
孫
孱
學
宀
宁
宂
它
宅
宇
守
安
宋
完
宏
宓
宗
官
定
宛
宜
宝
客
宣
室
宮
宰
害
家
容
宾
宿
寄
寅
密
富
寒
察
寧
審
寫
寬
寮
寸
对
寺
寻
寽
対
寿
封
尃
射
将
將
專
尉
尊
尋
尌
對
小
少
尒
尓
尔
尖
尗
尚
尞
尢
尣
尤
尧
尨
尭
就
尸
尹
尺
尻
尼
尽
尾
尿
局
居
屈
屋
屎
屏
屑
展
屖
屚
属
屠
屡
屬
屮
屯
屰
山
屵
屾
岁
岂
岑
岡
岩
岳
岸
峯
島
崇
崑
崔
崖
崙
崩
嵬
嶲
巂
巛
川
州
巟
巠
巢
巤
工
左
巧
巨
巩
巫
差
己
已
巳
巴
巷
巸
巽
巾
巿
帀
市
布
希
帚
帛
帝
带
師
席
帶
常
干
平
年
幵
并
幷
幸
幺
幻
幼
幽
幾
广
広
庄
床
底
店
庚
府
度
庫
庭
庶
康
庸
廉
廌
廛
廣
廩
廴
延
廷
建
廾
廿
开
弁
弃
弄
弇
弋
式
弓
弔
引
弗
弘
弜
弟
弥
弦
弱
張
強
强
彊
彌
彎
彐
彑
当
彔
录
彖
彗
彡
形
彥
彦
彧
彭
彳
役
彼
往
待
律
徒
得
徙
從
復
微
徵
心
忄
必
忌
忍
志
忘
忝
忠
忩
快
念
忽
忿
思
怠
急
性
怱
恆
恒
恩
恭
息
悉
患
悤
悦
悲
悶
惠
惡
惢
愁
愈
意
愛
感
慈
慧
慮
憂
憲
應
戀
戈
戉
戊
戋
戌
戍
戎
成
我
戒
戔
或
戚
戠
戢
截
戲
戶
户
戹
戼
戾
房
所
扁
扇
手
扌
才
打
托
执
承
折
拉
拜
拿
掌
推
提
摩
支
攴
攵
收
攸
改
放
政
敄
敏
敕
敖
敗
教
敝
敞
敢
散
敦
敫
敬
数
敷
數
斂
文
斉
斊
斗
斤
斥
斩
斬
斯
新
方
於
施
斿
旁
旋
族
无
旡
既
旣
日
旦
旧
旨
早
旬
旱
旲
时
旾
昆
昇
昌
昍
明
昏
易
昔
昗
昜
星
春
昬
是
昱
昴
昷
時
晃
晋
晏
普
景
晶
智
暑
暮
暴
曇
曜
曩
曰
曲
曳
更
曷
書
曹
曼
曾
替
最
朁
會
月
有
朋
服
朔
朕
朗
望
朝
期
木
朩
未
末
本
札
朮
术
朱
朵
朶
朿
杀
权
杏
村
杜
束
条
来
東
杲
杳
松
析
林
枚
果
枝
枲
枼
某
柔
查
柬
柰
柴
栗
桀
桑
桼
梁
條
梟
梨
棘
棠
棥
森
楚
業
楽
榮
様
樂
樊
機
欠
次
欣
欮
欲
欶
欽
款
歆
歇
歛
止
正
此
步
武
歨
歪
歮
歯
歰
歲
歴
歷
歸
歹
歺
死
殳
段
殷
殸
殹
殺
殻
殿
毋
毌
母
每
毒
比
毕
毚
毛
毳
氏
氐
民
气
気
氣
水
氵
氶
氷
永
氺
氾
求
汝
汞
江
沃
沓
沙
沝
泉
法
泡
波
泣
泥
泰
洋
洛
洪
活
派
流
浦
浪
浮
淡
淮
清
渚
渠
湯
源
準
溶
滿
漢
漸
火
灬
灭
灰
灵
灷
炅
炎
炏
炗
炙
炭
為
烈
烏
烝
焉
無
焦
焱
然
煞
熊
熏
燕
營
燮
爪
爫
爭
爯
爰
爱
爲
爵
父
爸
爻
爽
爾
爿
片
牙
牚
牛
牜
牟
牢
牧
牪
牽
犀
犬
犭
犮
狂
狄
狊
独
狺
猋
猒
猪
献
獻
玄
率
玉
王
玛
玟
玨
珎
班
理
琴
瑟
瑩
瓜
瓦
甘
甚
生
産
用
甫
甬
田
由
甲
申
电
甶
男
甸
甹
画
甾
畀
界
畏
畐
留
畜
畟
畢
畧
畨
番
畫
異
畱
當
畺
畾
疊
疋
疌
疑
疒
疾
病
癶
癸
癹
登
發
白
百
皀
皃
的
皆
皇
皋
皐
皕
皮
皷
皿
盃
盆
盇
盈
益
盍
盎
监
盒
盖
盛
盡
監
盤
盧
目
直
相
盾
省
眇
眉
看
眔
眞
真
眷
眼
眾
着
睘
睦
睪
睿
瞏
瞢
瞿
矍
矛
矞
矢
矣
知
矦
短
石
破
碎
磊
磨
示
礻
礼
神
祟
票
祭
禀
禁
禸
禹
禺
离
禽
禾
禿
秀
秃
秉
秋
科
秝
秦
移
稟
穀
穌
穴
究
穹
空
穿
突
窄
窒
立
竒
竜
竝
竟
章
童
竹
笑
笠
筆
等
答
箕
算
管
箴
節
篤
篭
米
粉
粛
粟
粤
粦
粲
糞
糸
糹
系
約
納
紙
素
索
紫
累
細
絜
絫
絲
維
綿
縣
繇
纍
纟
线
缶
网
罒
罔
罕
罗
罙
罡
罢
罪
署
罷
羅
羊
羌
羍
美
羔
羕
羗
羞
羡
羣
群
義
羲
羸
羽
翁
翏
習
翕
翟
翠
翼
老
耂
考
者
耆
而
耎
耑
耒
耳
耴
耶
耷
聂
聊
聖
聚
聶
聿
肀
肃
肅
肉
肖
肙
肥
肩
肯
育
肴
胃
背
胡
胥
能
脊
脩
膚
臣
臤
臧
自
臬
臭
臯
臱
至
致
臺
臼
臽
臾
臿
舀
舂
舄
與
興
舉
舌
舍
舛
舜
舞
舟
般
艮
良
色
艸
艹
艾
芒
芔
芬
芮
花
芳
芺
芻
苔
苗
苟
若
苦
英
茶
茸
荅
草
荒
荣
荼
莆
莧
莫
莽
菆
菊
菐
菓
華
萬
落
葉
著
葛
董
葵
蒙
蒦
蒼
蓋
蓬
蓺
蔑
蔡
蕉
蕭
薄
薛
薦
薰
藍
藏
藥
藹
蘭
虍
虎
虐
虒
虔
處
虖
虗
虘
虚
虛
虜
虞
虫
虽
蚤
蚩
蜀
蜜
蝴
蝶
蟲
蠡
血
行
衍
街
衛
衣
衤
表
衮
衰
衷
袁
袞
装
褭
褱
襄
襾
西
覀
要
覃
見
規
覓
覧
親
覽
见
角
解
言
訁
訇
計
詞
詹
語
誩
諸
讠
语
谈
谷
豆
豈
豊
豐
豕
豖
豙
象
豦
豩
豪
豸
貇
貝
貞
貟
負
貢
貧
貪
貫
責
貳
貴
買
費
賁
資
賈
賏
賓
賔
賛
賞
賢
賣
質
賴
贊
贝
贡
责
贯
贲
贵
赖
赞
赤
赦
走
越
足
路
蹇
身
躬
車
軍
軎
軟
輦
车
辛
辜
辟
辥
辰
辱
農
辵
辶
边
达
过
近
连
迷
追
退
送
逆
逐
通
速
造
逢
連
逮
進
遀
遂
過
道
達
遣
適
遷
遺
邊
邑
邕
那
邦
邪
郎
部
郭
都
鄉
酉
酋
配
酓
釆
采
里
重
野
量
金
釒
錢
钅
長
镸
长
門
閃
閉
開
閏
閑
閒
間
閔
閵
閻
闌
门
间
闷
阑
阜
阝
阿
降
陰
陳
隆
隊
隋
隡
隨
隱
隶
隹
隺
隻
隼
隽
难
雀
雁
集
雈
雋
雍
雐
雔
雙
雚
雜
雝
離
難
雨
雩
雪
雲
零
雷
電
需
霆
霍
霜
霝
霞
霸
靈
靑
青
非
靡
面
靣
革
韋
韦
韭
韯
韱
音
頁
頃
項
須
頗
頡
頻
顛
页
風
风
飛
飞
食
飠
養
饣
首
香
馬
馮
駦
马
骨
高
髟
鬥
鬯
鬲
鬼
魚
魯
鮮
鱼
鲁
鳥
鳳
鳴
鶏
鸟
鸣
鹵
鹿
麃
麗
麥
麦
麻
黃
黄
黍
黎
黑
黒
黨
黹
黽
黾
鼎
鼓
鼠
鼻
齊
齋
齐
齒
齿
龍
龙
龜
龟
龠
龰
龱
龴
龵
龶
龷
龸
龹

者
艹
﻿
？
￼
🜨
𠀁
𠀃
𠀆
𠀉
𠀎
𠀐
𠁁
𠁣
𠂆
𠂇
𠂈
𠂉
𠂊
𠂋
𠂎
𠂒
𠂔
𠂛
𠂡
𠂢
𠂤
𠂬
𠂭
𠂹
𠃊
𠃋
𠃌
𠃍
𠃎
𠃑
𠃓
𠃔
𠃜
𠄌
𠄎
𠄠
𠄢
𠆢
𠆥
𠇍
𠈌
𠌵
𠓜
𠔉
𠔥
𠔼
𠔽
𠔿
𠕀
𠕁
𠕋
𠘧
𠘨
𠙻
𠙼
𠚏
𠚒
𠚤
𠚪
𠣏
𠤎
𠤕
𠥓
𠦄
𠦑
𠦝
𠧒
𠧗
𠧪
𠩺
𠪚
𠫓
𠫔
𠫤
𠬛
𠬝
𠬞
𠬢
𠬤
𠬶
𠮛
𠮦
𠮷
𠯑
𠱠
𠳮
𠷎
𡈼
𡉀
𡉵
𡌥
𡍮
𡏳
𡕒
𡕩
𡕰
𡖅
𡗗
𡗜
𡘆
𡘤
𡧱
𡨄
𡩧
𡬠
𡭽
𡰣
𡰥
𡰪
𡰯
𡰱
𡷈
𡸁
𡿨
𡿩
𡿪
𡿺
𢀖
𢀛
𢀩
𢁙
𢆉
𢆰
𢆶
𢇁
𢇇
𢉖
𢌬
𢌿
𢏚
𢑑
𢑚
𢖻
𢙣
𢛳
𢦏
𢦒
𢧵
𢼄
𢾕
𣁋
𣄼
𣅀
𣅽
𣍘
𣎳
𣎵
𣏋
𣏼
𣗥
𣥂
𣥖
𣦵
𣦼
𣧄
𣪊
𣪠
𣬉
𣳾
𣶒
𤇾
𤊽
𤐫
𤓰
𤔔
𤕨
𤣩
𤰇
𤰔
𤰞
𤴓
𤴔
𤽄
𥁑
𥁕
𥃦
𥃩
𥃭
𥇡
𥑟
𥘅
𥘈
𥝢
𥫗
𥱡
𦈢
𦉪
𦉬
𦉼
𦍌
𦍒
𦎧
𦐇
𦓔
𦔮
𦘒
𦙃
𦚏
𦣝
𦣞
𦣻
𦥑
𦥔
𦥯
𦨉
𦭝
𦰩
𧆞
𧈧
𧘇
𧰨
𧴪
𧴮
𧵩
𧾷
𨸏
𨾴
𩙿
𩠐
𩫏
𩵋
𪉷
𪜀
𪟽
𪠲
𪩲
𫇦
𫔭
𫜸
𫝀
𫠣
𫠩
𫢉
𫥞
𫩏
𫩠
𫪡
𫲽
𫶧
𬀷
𬐘
𬗌
𬙙
𬛸
𬜯
𬟩
𬯁
𬴘
𬺻
𬼉
𬼖
𭀰
𭁈
𭁨
𭅰
𭑈
𭕄
𭗼
𭤨
𭥫
𭻾
𮅕
𮊿
𮍌
𮍏
𮓗
𮥼
𮧮
廾
𰀁
𰀄
𰀈
𰀉
𰀕
𰀠
𰀡
𰀢
𰀪
𰁜
𰃮
𰆊
𰆘
𰋙
𰕎
𰢴
𰧭
𰯲
01--
03--
05--
06--
09--
10--
107--
11--
116--
12--
13--
14--
15--
16--
17--
18--
19--
20--
21--
23--
27--
28--
31--
32--
34--
35--
37--
38--
40--
41--
43--
49--
51--
52--
53--
54--
55--
56--
57--
58--
59--
62--
63--
64--
65--
66--
67--
68--
69--
70--
71--
72--
73--
74--
75--
76--
77--
78--
80--
81--
82--
83--
84--
85--
86--
87--
88--
89--
90--
91--
92--
93--
94--
95--
96--
97--
98--
99--
a--
ab--
aba--
abadive--
abaga--
abanya--
abayi--
abi--
abya--
ac--
acc--
acqui--
act--
ad--
ada--
ade--
adven--
advi--
advo--
af--
afol--
afun--
ag--
aga--
agako--
agara--
age--
ah--
aha--
ai--
air--
ak--
aka--
ake--
aki--
ako--
aku--
akuri--
al--
alge--
ali--
am--
ama--
ami--
amu--
an--
ana--
anagara--
ang--
angili--
ap--
ar--
ara--
arab--
arc--
are--
ari--
art--
as--
asha--
ashi--
asho--
asim--
at--
ata--
atla--
atte--
attr--
au--
aus--
aw--
ay--
az--
aza--
azi--
azo--
b--
ba--
bab--
baba--
baci--
bacu--
bafa--
bafu--
bag--
bagara--
bagh--
bah--
baha--
bahe--
bahi--
bahu--
baka--
baki--
bako--
baku--
bamu--
bamw--
ban--
bana--
banya--
bar--
bari--
bas--
bashi--
bashishi--
bashying--
bat--
bata--
bau--
bav--
bay--
baza--
bazeng--
bb--
be--
bege--
bel--
ben--
bene--
ber--
bi--
biba--
bibu--
bida--
big--
biga--
bih--
bika--
biki--
biko--
biku--
bil--
bimu--
bio--
bir--
biram--
biruk--
bis--
bish--
bisho--
bita--
bite--
bits--
bivu--
biyu--
biza--
bizi--
bla--
blo--
bloom--
bo--
bols--
boot--
borr--
boum--
bour--
br--
bro--
bru--
bu--
buc--
bud--
buga--
buha--
buj--
buk--
bur--
bura--
buru--
bus--
but--
buv--
buy--
bwa--
bwafa--
bwang--
bwe--
bwi--
bwinj--
bwo--
bwu--
bwumu--
by--
bya--
byaga--
byako--
byang--
byere--
byig--
byoro--
byu--
byumvik--
c--
ca--
can--
cap--
car--
cat--
ce--
cen--
centr--
cg--
ch--
cha--
chan--
che--
chi--
chro--
chromo--
ci--
cl--
cn--
co--
col--
com--
compo--
con--
const--
contr--
contri--
coor--
cor--
cra--
cre--
cri--
cro--
croc--
cru--
cs--
cu--
cul--
cur--
cy--
cya--
cyako--
cyaso--
cyatang--
cye--
cyere--
cyi--
cyu--
d--
da--
daily--
dam--
dan--
danem--
dar--
de--
dec--
decou--
def--
der--
des--
df--
dh--
di--
dia--
dic--
dictionna--
dis--
dj--
do--
dolph--
don--
dor--
dou--
dr--
drin--
du--
duko--
dz--
e--
ea--
eb--
ec--
eco--
ed--
edu--
ee--
ef--
eg--
ei--
el--
em--
en--
enzy--
ep--
er--
es--
essen--
estim--
et--
eu--
eve--
ex--
expec--
expl--
f--
fa--
fam--
far--
fc--
fe--
fer--
feuer--
fi--
figu--
fili--
film--
fisc--
fitz--
fla--
fle--
flo--
fo--
fon--
footnote--
for--
fos--
fou--
fr--
fu--
g--
ga--
gaha--
gaho--
gahu--
gall--
gas--
gate--
ge--
ger--
gh--
gi--
gic--
gifa--
giha--
gika--
gike--
giki--
giko--
gis--
gite--
gitu--
gla--
go--
god--
good--
gouve--
gover--
gr--
gram--
gre--
gro--
gu--
guce--
gufu--
guha--
guhe--
guho--
guhu--
guka--
guko--
gush--
gusi--
guso--
gusu--
gute--
guti--
guto--
gutu--
gutw--
gwa--
h--
ha--
habu--
hafa--
hag--
haga--
hagasig--
haha--
haj--
hako--
hand--
har--
hara--
hard--
hari--
hata--
he--
hen--
her--
herce--
hi--
high--
hiro--
ho--
hol--
hr--
hu--
hy--
i--
ia--
iba--
ibi--
ibu--
iby--
ibya--
ibyere--
icy--
icye--
id--
iden--
ie--
if--
ig--
igara--
iger--
igi--
igic--
igiko--
igisi--
igu--
iha--
ihi--
iho--
ihu--
ij--
ik--
ikabi--
iki--
ikinya--
ikira--
iku--
ikusa--
il--
im--
imi--
imig--
imit--
impo--
in--
ina--
inc--
influ--
ing--
insp--
int--
inter--
inve--
inya--
inye--
inza--
io--
ir--
ira--
ire--
iri--
is--
isa--
ise--
ish--
ishi--
ishishi--
isi--
iso--
isu--
it--
ita--
itanduk--
iteg--
ito--
itu--
iv--
iver--
ivu--
iy--
iya--
iyi--
iz--
iza--
izashyi--
izatang--
izi--
j--
ja--
jan--
je--
jen--
jo--
ju--
jug--
k--
ka--
kaba--
kabu--
kaj--
kali--
kamp--
kan--
kany--
kar--
kara--
karo--
karu--
kayi--
ke--
kg--
ki--
kid--
kiga--
kigi--
kim--
kin--
kiny--
kinya--
kira--
kiri--
kiru--
kiza--
kn--
ko--
kon--
koro--
kri--
kru--
ku--
kub--
kuba--
kubanya--
kubu--
kubw--
kuga--
kugu--
kuha--
kuju--
kuma--
kumu--
kumw--
kun--
kuny--
kuta--
kuti--
kuv--
kuvo--
kuwu--
kuyi--
kuzi--
kw--
kwa--
kwi--
kwiya--
kı--
l--
la--
lan--
le--
lek--
len--
lenti--
les--
leuco--
li--
lo--
lu--
luc--
ly--
m--
ma--
mac--
macro--
mag--
mah--
mal--
man--
manu--
map--
mar--
mash--
mass--
mate--
matern--
matri--
mats--
may--
maz--
mb--
mba--
mc--
md--
me--
med--
mel--
mfu--
mh--
mi--
mic--
micro--
mig--
migr--
mil--
min--
mini--
mir--
mis--
mit--
mix--
ml--
mo--
moc--
mon--
moro--
mos--
mot--
mou--
mp--
mpum--
mt--
mu--
muba--
mubi--
muby--
mubyere--
muga--
mugo--
muka--
mul--
multi--
muma--
mur--
musc--
mush--
muta--
mute--
mutu--
mw--
my--
myam--
myth--
n--
na--
naba--
nam--
nama--
napu--
nar--
navig--
nc--
nd--
nda--
ne--
net--
neu--
new--
news--
ng--
nga--
ni--
nic--
nin--
niyi--
niyo--
nj--
nk--
nka--
nki--
nku--
nkumu--
nne--
no--
nog--
nor--
nou--
nr--
nsho--
nta--
nte--
nti--
ntu--
nu--
nubu--
numu--
nur--
ny--
nya--
nyir--
nz--
o--
oak--
ob--
objec--
oc--
of--
og--
oh--
ok--
ol--
om--
on--
op--
or--
os--
ou--
out--
ouv--
ov--
p--
pa--
pac--
pal--
par--
para--
pay--
pe--
pep--
per--
pf--
ph--
physi--
pi--
pl--
play--
pneum--
po--
poly--
poro--
posi--
poten--
pou--
pr--
pre--
preg--
pri--
prima--
princ--
prior--
pro--
proto--
provi--
pu--
publi--
pulas--
pyg--
q--
qu--
r--
ra--
rah--
re--
rec--
ref--
relo--
requ--
retr--
rev--
rhy--
ri--
rib--
rifa--
rij--
riko--
rira--
rite--
ro--
roo--
rou--
ru--
ruda--
rufi--
rug--
ruga--
rugi--
ruha--
ruho--
ruj--
ruko--
rus--
ruta--
rutag--
rute--
ruyo--
rw--
rwa--
rwanda--
rwe--
rwo--
rwu--
ry--
rya--
ryash--
rye--
ryi--
ryiga--
s--
sa--
sal--
sam--
sc--
sch--
schi--
schw--
sco--
se--
sebas--
sec--
sel--
sen--
sep--
ser--
serocon--
set--
sh--
sha--
si--
sis--
sla--
so--
sol--
south--
sp--
spec--
st--
stag--
ste--
stra--
stu--
sty--
su--
sub--
sun--
sur--
sw--
sy--
t--
ta--
taw--
te--
tek--
tel--
ten--
terr--
th--
the--
thia--
thro--
thu--
ti--
tie--
tiri--
to--
tr--
trans--
tri--
tru--
ts--
tu--
tubi--
tun--
tus--
tv--
tw--
twa--
tz--
u--
ubi--
ubu--
ubuhu--
ubw--
ubwa--
ud--
udas--
udus--
ufi--
ug--
ugu--
ugus--
uha--
uhu--
uk--
ukim--
uko--
uku--
ul--
um--
umu--
umunya--
umuta--
umwa--
umwi--
umwu--
un--
une--
uni--
up--
ur--
uran--
uri--
uru--
urw--
uryo--
us--
use--
ush--
ushyi--
uta--
ute--
utega--
uti--
uto--
utu--
utubu--
uw--
uwa--
uyu--
uza--
v--
va--
ve--
ven--
vene--
vers--
vi--
victo--
vir--
vis--
vo--
vol--
vu--
vul--
w--
wa--
waba--
wabi--
waha--
wahi--
wahu--
wamba--
wamu--
war--
was--
wat--
we--
web--
wi--
wiki--
wil--
win--
wita--
wite--
wo--
won--
woo--
woor--
world--
wri--
wu--
wumu--
wumw--
x--
y--
ya--
yaba--
yabi--
yaby--
yaga--
yaha--
yahu--
yaj--
yako--
yambi--
yamu--
yana--
yand--
yane--
yara--
yarang--
yarash--
yari--
yaru--
yas--
yasa--
yash--
yashimis--
yashying--
yasi--
yaso--
yasub--
yata--
yate--
yato--
yats--
yavug--
yayi--
ye--
yi--
yiha--
ying--
yiru--
yish--
yizi--
yo--
yoro--
youth--
yu--
yubu--
yumu--
z--
za--
zaga--
zahu--
zako--
zara--
zash--
zavu--
ze--
zi--
zida--
ziga--
zigu--
zihu--
ziko--
zinj--
zira--
zish--
zishishi--
zishyi--
ziso--
zitu--
zo--
zong--
zoro--
zu--
ł--
а--
б--
баб--
бълг--
к--
л--
м--
н--
с--
т--
х--
ү--
ا--
ال--
ب--
جمه--
حس--
ع--
--0
--00
--04
--1
--10
--11
--14
--15
--16
--18
--2
--22
--25
--3
--4
--42
--428
--46
--5
--51
--52
--53
--6
--7
--71
--75
--77
--78
--8
--81
--9
--90
--91
--99
--a
--aat
--able
--abwa
--ac
--ae
--af
--ag
--aga
--age
--agurika
--ah
--ai
--ain
--ais
--aise
--ak
--al
--ald
--am
--ama
--ambo
--amo
--amu
--an
--ana
--ance
--and
--ane
--ang
--anga
--angiye
--angwa
--ani
--anijwe
--ano
--ant
--anuyi
--anwa
--anya
--anye
--anze
--anzwe
--ar
--ara
--ari
--aro
--ary
--as
--ase
--ashyingirwa
--at
--ate
--ates
--atic
--ation
--ats
--au
--aw
--awe
--ax
--ay
--aye
--ayi
--ayika
--b
--ba
--baga
--baji
--bajwe
--baka
--banutse
--bare
--baye
--bazo
--be
--bele
--bi
--bira
--bizi
--ble
--bo
--bona
--boneka
--bora
--bowe
--bu
--buga
--bugeni
--bul
--bura
--burg
--bution
--buye
--buza
--buze
--bwa
--bya
--byaha
--bye
--byi
--c
--ca
--cakara
--ce
--celi
--ch
--ck
--cks
--co
--cr
--craft
--cs
--ct
--cu
--cucu
--cular
--curanzi
--cwa
--cy
--d
--da
--day
--de
--ded
--dezi
--di
--dika
--do
--domo
--dor
--doro
--ds
--du
--dukanye
--dutse
--dy
--e
--ea
--ebe
--ed
--ege
--ego
--eh
--eho
--ei
--eje
--ek
--eka
--el
--ela
--ele
--eli
--ella
--elo
--em
--ema
--emewe
--emo
--emyi
--en
--ena
--eni
--ent
--enta
--enyi
--eo
--eola
--epe
--er
--era
--ere
--ereje
--erera
--eri
--ers
--erwa
--es
--escens
--ess
--est
--et
--eti
--ette
--eu
--ewe
--ews
--ey
--eye
--eyi
--eza
--f
--fa
--fana
--faranga
--fasha
--fashije
--fashishwa
--fe
--ff
--ffi
--fi
--film
--films
--fite
--fotoza
--fp
--fu
--ful
--funzo
--furika
--furikansi
--g
--ga
--gaga
--gajwe
--gali
--gambyo
--gamo
--gane
--gano
--ganya
--ganyijwe
--gara
--garuka
--gate
--gaza
--gbo
--ge
--gege
--geje
--geka
--geni
--genzi
--gera
--geragezo
--gere
--gereye
--gero
--ges
--geye
--geza
--geze
--gezwa
--gh
--ght
--gi
--gie
--gije
--gile
--gira
--girira
--giro
--girwa
--giya
--giye
--gize
--gne
--go
--gogo
--graphy
--gs
--gu
--gua
--guka
--gukanye
--gura
--guranye
--gurira
--guru
--gutse
--guye
--guzi
--gwa
--gwe
--gy
--h
--ha
--had
--hagije
--ham
--han
--hatanira
--hawe
--haye
--he
--heje
--hi
--hic
--himye
--hinzi
--hira
--hirizwa
--hize
--hn
--ho
--hobora
--hoka
--hood
--hora
--horo
--hoze
--hs
--ht
--hub
--hugu
--hugura
--hugurwa
--huje
--humbi
--hura
--huri
--hwa
--hwe
--hya
--hye
--hyigikira
--hyigikiye
--hyo
--hyuha
--i
--ia
--ial
--ian
--ic
--ics
--id
--ie
--ien
--ier
--ies
--iese
--igo
--ii
--ije
--ijwe
--ika
--ike
--iko
--il
--ila
--ima
--imba
--ime
--imenya
--imye
--in
--ina
--inal
--ine
--ing
--ins
--inze
--io
--ion
--ions
--ique
--ir
--ira
--iriza
--iro
--irwa
--is
--isation
--ish
--isha
--ishe
--ishwa
--isiye
--ism
--ist
--iswe
--it
--ite
--ito
--itwa
--ity
--iu
--ium
--ive
--iwe
--ix
--iya
--iye
--iyemo
--iza
--ize
--izwe
--j
--ja
--je
--ji
--jije
--jijwe
--ju
--jwe
--jwi
--jya
--k
--ka
--kagombye
--kapu
--kara
--kare
--kaza
--kazi
--ke
--keje
--kenya
--ker
--kera
--ki
--kiga
--kije
--kinnyi
--kira
--kirana
--kiranya
--kire
--kiro
--kishije
--kishijwe
--kiwe
--kiye
--kiyeho
--ko
--kobwa
--komeje
--koni
--korera
--koro
--koroni
--korwa
--koze
--ks
--ku
--kunze
--kunzwe
--kuru
--kuye
--kuyu
--kwa
--l
--la
--lak
--lam
--lamu
--lan
--lane
--ld
--le
--lea
--ler
--lers
--les
--ley
--lf
--li
--lia
--ling
--lis
--lity
--ll
--lla
--lle
--lles
--llo
--lm
--lo
--logie
--logy
--ls
--lubaniya
--ly
--lyn
--m
--ma
--man
--mana
--mangingo
--mas
--masayi
--mba
--mbira
--mbo
--mbwe
--mbwira
--me
--meje
--ment
--ments
--menyetso
--mer
--mera
--merera
--mereye
--merika
--mero
--mezwa
--mi
--mideli
--mie
--mira
--miye
--mizwa
--mo
--mp
--mpeke
--mu
--mutse
--muye
--mwa
--mwe
--my
--mya
--mye
--myi
--myo
--n
--na
--naga
--namico
--nce
--ncy
--nd
--nda
--nde
--ndi
--ndo
--nds
--ndu
--ndukanijwe
--ndura
--ndutse
--nduye
--ndwa
--ndwara
--ndwi
--ne
--ned
--ner
--nes
--nese
--ness
--netse
--news
--ney
--neye
--ng
--nga
--ngamiwe
--ngamiye
--ngana
--nge
--ngi
--ngije
--ngira
--ngire
--ngirira
--ngisha
--ngiza
--ngizwa
--ngo
--ngoga
--ngu
--ngura
--ngwa
--ni
--nia
--nije
--nijwe
--nira
--niro
--nishwa
--niye
--nja
--nje
--njemo
--njirije
--njiye
--njwa
--nke
--nkore
--nn
--nna
--nne
--no
--noruveji
--ns
--nse
--nshi
--nswa
--nt
--nts
--ntu
--nu
--nue
--nuro
--nus
--nutse
--nuye
--nwa
--nwe
--ny
--nya
--nyamerika
--nyamo
--nye
--nyeshuri
--nyi
--nyije
--nyo
--nywa
--nywe
--nza
--nze
--nzi
--nzwe
--o
--obe
--od
--ody
--ogy
--oi
--oje
--oka
--oke
--oki
--oko
--ol
--ola
--oloni
--om
--oma
--on
--ona
--oni
--onlineng
--ons
--op
--or
--ora
--ore
--ori
--ories
--oro
--ors
--ory
--os
--osa
--ose
--osoma
--ot
--ota
--otic
--ou
--ous
--out
--ow
--oza
--p
--pa
--pe
--ped
--pedia
--pet
--pfa
--phi
--phus
--pi
--post
--ps
--q
--que
--r
--ra
--raga
--ragaje
--rage
--ragize
--raho
--rahuri
--rakozwe
--ramo
--rana
--ranga
--rangaga
--rangira
--rano
--ranya
--ranye
--ranyijwe
--ranze
--rari
--raro
--rator
--ravuzwe
--rd
--re
--reje
--rejwe
--rera
--rere
--resheje
--rewe
--reye
--reza
--rezi
--rezwa
--rg
--ri
--ric
--rie
--rije
--rika
--riki
--rimo
--rimu
--rin
--rinda
--rira
--rire
--riro
--rirwa
--riti
--riwe
--riya
--riye
--rizwa
--rn
--ro
--roheje
--ron
--rori
--roshye
--row
--rozi
--rry
--rs
--rt
--ru
--ruka
--rurwa
--rutse
--rwa
--rwanya
--ry
--ryo
--s
--sa
--saba
--saha
--sanzwe
--sasu
--sation
--saza
--sazi
--sd
--se
--sed
--semuzi
--sh
--sha
--shali
--shanyarazi
--shatsi
--she
--shejwe
--shi
--shije
--shijwe
--shimangira
--shimisha
--shinzwe
--ship
--shishwa
--shize
--sho
--shobora
--shoboraga
--shoboye
--shusho
--shwa
--shwe
--shya
--shye
--shyi
--shyizwe
--si
--siki
--sion
--sira
--siya
--sm
--so
--sohoka
--somyi
--son
--ss
--st
--stats
--su
--swa
--swe
--sy
--t
--ta
--tabiriye
--taka
--takaje
--tane
--tangijwe
--tangira
--tanye
--tanyi
--tanze
--taye
--te
--tebo
--ted
--teganijwe
--tegura
--teje
--teka
--ter
--tera
--teri
--tero
--tes
--tetsi
--teur
--teza
--teze
--th
--thur
--ti
--tic
--tics
--tike
--time
--tin
--tine
--ting
--tinze
--tion
--tions
--tira
--tis
--tive
--tivo
--tiya
--tiye
--tle
--to
--tography
--ton
--tor
--toranijwe
--tory
--toza
--tro
--ts
--tsa
--tse
--tsi
--tsinze
--tswe
--tta
--tte
--tu
--tum
--tuma
--tumye
--tura
--turage
--turutse
--tus
--tuye
--tv
--twa
--twi
--ty
--u
--ua
--ub
--ud
--ue
--uga
--uhu
--ui
--uje
--ujwe
--uka
--uke
--ukiye
--ul
--ula
--ule
--um
--uma
--ume
--umi
--umva
--umye
--un
--ung
--ungano
--up
--ur
--ura
--uraga
--urano
--ure
--urg
--uri
--urira
--uro
--us
--ushaho
--usi
--ut
--uta
--utse
--utseho
--utso
--uw
--uwe
--ux
--uye
--uza
--uze
--uzi
--uzwa
--v
--va
--val
--vandimwe
--vatory
--vb
--ve
--vel
--ves
--ving
--viya
--vu
--vugo
--vugwa
--vumbuwe
--vumvu
--vura
--vutse
--vuwe
--vuye
--vuze
--vuzwe
--vy
--w
--wa
--waga
--we
--weho
--wemo
--werk
--wi
--wo
--wood
--world
--ws
--x
--y
--ya
--yaga
--yani
--ye
--yeho
--yerewe
--yereza
--yeri
--yero
--yeti
--yi
--yije
--yijemo
--yine
--yinenga
--yira
--yn
--yo
--yobora
--ys
--yu
--yuka
--yuma
--yutse
--ywa
--ywe
--z
--za
--zaga
--zamakuru
--zamutse
--zanye
--ze
--zer
--zera
--zewe
--zi
--ziguye
--zira
--zo
--zu
--zura
--zuye
--zwa
--zwe
--zweho
--zwi
--ı
--ıc
--а
--и
--к
--на
--р
--стан
--т
--ш
--ы
--ة
--د
--م
--ن
--ين
--ی
