!
"
#
##0
##1
##10
##11
##12
##13
##14
##15
##16
##17
##18
##19
##2
##20
##21
##22
##23
##24
##25
##26
##27
##28
##29
##3
##30
##31
##32
##33
##34
##35
##36
##37
##38
##39
##4
##40
##41
##42
##43
##44
##45
##46
##47
##48
##49
##5
##50
##51
##52
##53
##54
##55
##56
##57
##58
##59
##6
##60
##61
##62
##63
##64
##65
##66
##67
##68
##69
##7
##70
##71
##72
##73
##74
##75
##76
##77
##78
##79
##8
##80
##81
##82
##83
##84
##85
##86
##87
##88
##89
##9
##90
##91
##92
##93
##94
##95
##96
##97
##98
##99
$
%
&
'
(
)
*
+
,
-
.
/
0
00
000
001
002
003
004
005
006
007
008
009
01
010
011
012
013
014
015
016
017
018
019
02
020
021
022
023
024
025
026
027
028
029
03
030
031
032
033
034
035
036
037
038
039
04
040
041
042
044
045
046
047
049
05
050
051
052
053
054
055
056
057
06
061
062
063
064
065
066
067
068
069
07
070
071
072
073
074
075
076
077
078
08
080
081
082
083
084
085
086
087
088
09
090
091
092
093
094
095
096
097
098
099
1
10
100
1000
101
102
103
104
105
106
107
1070
108
109
11
110
1100
1102
111
1111
112
113
114
115
116
117
118
119
12
120
1200
121
122
1227
123
124
125
1250
126
1265
1266
127
128
1280
129
1296
13
130
1300
1304
1308
1309
131
1310
132
1320
1327
133
1332
134
135
1350
136
137
138
139
1399
14
140
1400
1406
1407
141
1411
1414
1415
14159
1416
1417
1418
1419
142
1420
1421
1423
1425
1426
1427
1428
143
1430
1431
1433
1434
1435
1436
1437
1438
144
1440
1443
1445
1446
145
1450
1451
1453
1455
146
1460
1463
147
1470
1472
1473
1474
1475
1476
1477
1478
1479
148
1480
1481
1482
1483
1484
1485
1486
1489
149
1490
1491
1492
1493
1494
1495
1496
1497
1498
1499
15
150
1500
1501
1502
1503
1504
1505
1506
1507
1508
1509
151
1510
1511
1512
1513
1514
1515
1516
1517
1518
1519
152
1520
1521
1522
1527
153
1530
1532
1534
1536
154
1540
1541
1542
1543
1544
1545
1546
155
1550
1558
156
1560
1561
1564
1565
1566
1568
157
1570
1571
1572
1574
1575
1576
1577
158
1588
1589
159
1591
1598
1599
16
160
1600
1607
1608
1609
161
1619
162
1620
1623
1627
1628
1629
163
1630
1631
1632
1633
1634
1635
1637
1639
164
1642
1643
1644
1647
1648
165
1650
1651
1653
1655
1656
1657
166
1660
1661
1665
1666
166667
167
1675
1676
1678
168
1680
1683
1685
1687
1688
1689
169
1693
1694
1696
1699
17
170
1700
1701
1703
1704
1705
1706
1707
171
1711
1713
1714
1715
1716
1717
1719
172
1720
1721
1722
1723
1725
1727
1728
173
1730
1732
1733
1734
1735
1736
1738
174
1740
1741
1742
1743
1744
1745
1746
1747
1748
1749
175
1750
1751
1752
1753
1754
1755
1756
1757
1758
1759
176
1760
1761
1762
1763
1764
1765
1766
1767
1768
1769
177
1770
1771
1772
1773
1774
1775
1776
1777
1778
178
1780
1781
1782
1783
1784
1785
1786
1787
1788
1789
179
1790
1791
1792
1793
1794
1795
1797
1798
1799
18
180
1800
1801
1803
1804
1806
1807
1808
1809
181
1810
1811
1812
1813
1814
1815
1816
1818
1819
182
1820
1822
1824
1825
1827
183
1830
1833
183333
1837
1838
1839
184
1841
1845
1846
1847
1848
1849
185
1850
1851
1853
1854
1855
1856
1857
1858
1859
186
1860
1861
1862
1863
1864
1865
1866
1867
1868
1869
187
1870
1871
1872
1873
1874
1875
1876
1877
1878
1879
188
1880
1881
1882
1883
1884
1885
1886
1887
1888
1889
189
1890
1891
1892
1893
1894
1895
1896
1897
1898
1899
19
190
1900
1901
1902
1903
1904
1905
1906
1907
1908
1909
191
1910
1911
1912
1913
1914
1915
1916
1917
1918
1919
192
1920
1921
1922
1923
1924
1925
1926
1927
1928
1929
193
1930
1931
1932
1933
1934
1935
1936
1937
1938
1939
194
1940
1941
1942
1943
1944
1945
1946
1947
1948
1949
195
1950
1951
1952
1953
1954
1955
1956
1957
1958
1959
196
1960
1961
1962
1963
1964
1965
1966
1967
1968
1969
197
1970
1971
1972
1973
1974
1975
1976
1977
1978
1979
198
1980
1981
1982
1983
1984
1985
1986
1987
1988
1989
199
1990
1991
1992
1993
1994
1995
1996
1997
1998
1999
2
20
200
2000
2001
2002
2003
2004
2005
2006
2007
2008
2009
201
2010
2011
2012
2013
2014
2015
2016
2017
2018
2019
202
2020
2021
2022
203
204
205
206
207
208
209
21
210
211
212
213
214
215
216
217
218
219
22
220
221
222
223
224
225
226
227
228
229
23
230
231
232
233
234
235
236
237
238
239
24
240
241
242
243
244
245
246
247
248
249
25
250
251
252
253
254
255
256
257
258
259
26
260
261
262
263
264
265
266
267
268
269
27
270
271
272
273
274
275
276
277
278
279
28
280
281
282
283
284
285
286
287
288
289
29
290
291
292
293
294
295
296
297
298
299
3
30
300
3000
301
302
303
304
305
306
307
308
309
31
310
311
312
313
314
315
316
3166
317
318
319
32
320
321
322
323
324
325
326
327
328
329
33
330
331
332
333
334
335
336
337
338
339
34
340
341
342
343
344
345
346
347
348
349
35
350
351
352
353
354
355
356
357
358
359
36
360
361
362
363
364
365
366
367
368
369
37
370
371
372
373
374
375
376
377
378
379
38
380
381
382
383
384
385
386
387
388
389
39
390
391
392
393
394
395
396
397
398
399
4
40
400
4000
401
402
403
404
405
406
407
408
409
41
410
411
412
413
414
415
416
417
418
419
42
420
421
4217
422
423
424
425
426
427
428
429
43
430
431
432
433
434
435
436
437
438
439
44
440
441
442
443
444
445
446
447
448
449
45
450
451
452
453
454
455
456
457
458
459
46
460
461
462
463
464
465
466
467
468
469
47
470
471
472
473
474
475
476
477
478
479
48
480
481
482
483
484
485
486
488
489
49
490
491
492
493
494
495
496
497
498
499
5
50
500
501
502
503
504
505
506
507
508
509
51
510
511
512
513
514
515
516
517
518
519
52
520
521
522
523
524
525
526
527
528
529
53
530
531
532
533
534
535
536
537
538
539
54
540
541
542
543
544
545
546
547
548
549
55
550
551
552
553
554
555
556
557
558
559
56
560
561
562
563
564
565
566
567
568
569
57
570
571
572
573
574
575
576
577
578
579
58
580
581
582
583
584
585
586
587
588
589
59
590
591
592
593
594
595
596
597
598
599
6
60
600
601
602
603
604
605
606
607
608
609
61
610
611
612
613
614
615
616
616667
617
618
619
62
620
621
622
623
624
626
627
628
629
63
630
631
632
633
634
635
636
637
638
639
64
640
641
642
643
644
645
646
647
648
649
65
650
651
652
653
654
657
658
659
66
660
661
662
663
664
665
666
667
668
669
67
670
671
672
673
674
675
676
677
678
679
68
680
681
682
683
684
685
686
687
688
689
69
690
691
692
693
694
695
696
697
698
699
7
70
700
701
702
703
704
705
706
707
708
709
71
710
711
712
714
715
716
717
718
719
72
720
721
722
723
724
725
726
727
728
729
73
730
731
732
733
734
735
736
737
738
739
74
740
74059
741
743
744
745
746
747
748
749
75
750
751
752
753
754
755
756
757
758
76
760
761
762
763
764
765
766
767
768
769
77
770
771
772
773
774
775
776
777
778
779
78
780
781
783
784
785
787
788
789
79
790
791
792
793
794
795
796
797
798
7980
799
8
80
800
8000
801
802
803
8039
804
805
806
807
808
8082
809
81
810
811
812
813
814
815
816
817
818
819
82
820
821
822
823
824
825
826
828
829
83
830
831
832
833
834
835
836
837
838
839
84
840
842
843
844
845
846
847
848
849
85
850
851
852
853
854
855
856
857
858
859
86
860
861
862
863
864
865
866
867
868
869
87
870
871
872
873
874
875
876
877
878
879
88
880
881
882
883
883333
884
885
886
887
888
889
89
890
891
892
893
894
895
896
897
899
9
90
900
901
902
903
904
905
906
907
909
91
910
911
912
913
914
915
916
917
918
919
92
920
921
922
923
924
925
926
927
928
929
93
930
931
932
933
933333
934
935
936
937
938
939
94
940
941
943
945
946
947
949
95
950
951
952
953
954
955
956
957
958
959
96
960
961
962
963
965
966
967
968
97
970
971
972
973
974
975
976
977
978
979
98
980
981
982
984
985
986
987
988
989
99
991
992
993
994
995
996
997
998
:
;
<
=
>
?
@
[
\
]
^
_
a
aa
ab
abatangelo
abate
abba
abbandonate
abbandone
abbandono
abbandunate
abbasce
abbaside
abbastanza
abbastanze
abbate
abbazie
abbazzie
abbeso
abbesogne
abbevescimende
abbevesciute
abbigliamende
abbilita
abbinate
abbite
abbitudine
abbolite
abbondande
abbreviate
abbreviazione
abbreviazzione
abbri
abbrile
abbruzze
abbusive
abbusivisme
abc
abd
abeba
abile
abitande
abitanti
abitate
abitative
abitazione
abitazioni
abitaziune
abite
ablative
aboriggene
about
abraham
abramo
abruzzo
absidale
abside
abu
abuja
ac
acade
academia
academy
accade
accademia
accademiche
accademie
accadute
accappe
accatta
accattamende
accattate
accatte
accatto
acce
accede
accelle
accende
accenduate
accertate
access
accessdate
accesse
accessibbele
accesso
accetta
accettate
accetto
acchemenza
acchessi
acchia
acchiame
acchiaminde
acchianne
acchiarene
acchiate
acchiavane
acchiave
acchie
acchiene
acchija
acchijate
acchije
acchio
acci
acciaie
accise
acco
accogghiere
accoglienze
accolte
accombagnamende
accombagnate
accorde
accordo
account
accreditate
accumbagnate
accume
accumenza
accumenzane
accumenzanne
accumenzarene
accumenzate
accumenzave
accumenze
accumenzete
accumenzo
accumme
accurate
accusate
accuse
accusi
accussi
achal
ache
achiedu
achille
achiude
achiudere
achiuse
aci
acidde
acqua
acquaviva
acquavive
acque
acquedotte
acquiste
acquisto
acronime
acropoli
acropule
act
acute
ad
ada
adam
adamo
adams
adattate
adatte
adda
adde
addette
addeve
addevenda
addevendane
addevendate
addevende
addevendo
addevene
addeveni
addevenute
addibite
addiritture
addis
addo
addulurate
ade
adeguate
adela
adelaide
adelia
adelphi
aden
aderisce
adesione
adi
adibbite
adige
adipose
adolf
adolfo
adorazione
adottate
adotte
adozione
adria
adriana
adriano
adriateche
adriatica
adriatiche
adriatico
adulte
aere
aeree
aeronauteche
aeronautiche
aeroportuale
aeropue
aeropuerte
aerosilurande
af
afar
affacce
affacciane
affacciate
affaccie
affairs
affare
affari
afferma
affermate
affermazione
afferme
affermo
affiangate
affianghe
affidate
affido
affiliate
affinita
affisse
affitte
afflue
affluende
affrescate
affresche
affronda
affronde
afgane
afghanistan
afi
afose
africa
african
africana
africane
afriche
after
ag
aga
agata
age
agency
agenzie
aggenzie
aggettande
aggettive
aggiornamende
aggiornate
aggiunde
aggiunge
aggiungene
aggiungenne
aggiungere
aggiungeve
aggiungi
aggiustate
aggiuste
agglomerate
aggregate
aggregazione
aghe
agi
agisce
agli
aglie
agnese
agordino
agoste
agostinelli
agostini
agostino
agosto
agrarie
agre
agreement
agricole
agricoltore
agricoltura
agricolture
agrigento
agro
agroalimendare
agrume
agrumete
agu
aguste
agustine
ah
ahmad
ai
aiace
aida
aiello
aijute
air
airasca
aires
airlines
airport
ais
aise
aiuta
aiutate
aiute
aiuto
ajax
aje
ajutate
ajute
akira
al
ala
alain
alan
alaska
alatorre
alba
albanese
albania
albanie
albanise
albano
albe
alberghe
alberghiere
alberobbelle
albert
alberte
alberti
alberto
albiano
album
alca
alcantarine
alceste
alchimije
alcune
alcuni
alda
alde
aldo
ale
aleateche
alejandro
alembert
alenia
aleppe
aleppo
ales
alessa
alessandra
alessandre
alessandria
alessandrine
alessandrini
alessandro
alessio
alex
alexander
alexandra
alexandre
alfabbe
alfabbete
alfabbeteche
alfieri
alfio
alfonso
alfonze
alfred
alfrede
alfredo
algeri
algeria
algerie
alghe
algoritme
alhucemas
ali
aliano
alicante
alice
alie
alighieri
alimenda
alimendare
alimendate
alimendazione
all
alla
allah
allahabad
allargamento
allariamende
allariarene
allariate
allarijame
allario
alle
alleanze
alleate
allegorie
allegretti
allen
allenatore
allesti
allestimende
allestite
allevame
allevamende
allevaminde
allevane
allevate
alliate
allieve
allineate
allo
allogge
allongate
allora
allore
allundanate
allungate
alluvionale
alluvione
alma
almaty
alme
almene
almeno
almeri
almese
alonso
alose
alpago
alpe
alpette
alpha
alpi
alpignano
alpine
alta
altamura
altamure
altare
altavilla
alte
altepiane
alternate
alternative
alterne
alternescene
altezza
altezze
alti
altimetreche
altino
altitudene
altitudine
alto
altopiane
altra
altre
altrettande
altri
altro
alture
alunne
alvee
am
ama
amadeus
amanda
amande
amante
amasea
amat
amate
amati
amato
amatori
amazonas
amazzone
amazzoneche
ambasciate
ambasciatore
ambie
ambiendale
ambiendate
ambiende
ambiente
ambiezze
ambite
ambliamende
ambliate
ambrogge
ambrogio
amburgo
ame
amedeo
amelia
amen
amennele
america
american
americane
americhe
amerigo
amhara
ami
amica
amice
amiche
amici
amicis
amicizia
amicizie
amicle
amico
amittai
amleto
amma
amme
ammesse
amministrate
amministrativa
amministrativame
amministrative
amministratori
amministrature
amministrazione
amministraziune
ammira
ammiraglie
ammirate
ammirazione
ammodernamende
ammore
amo
amor
amore
amori
ampere
amstel
amsterdam
amundsen
an
ana
anagrafe
anagramme
anale
analese
analise
analisi
analoghe
anastasia
anatolie
anatomia
anatomije
anche
ancien
ancient
ancona
ancora
and
anda
andalusia
andalusie
andamane
andamende
andare
ande
andenate
andenne
andezeno
andi
andica
andicame
andicamende
andiche
andichissime
andichita
andicipe
andine
andiorarije
ando
andonie
andoniette
andonije
andonomasie
andorra
andorre
andra
andrate
andre
andrea
andreas
andrew
andria
andriarte
andrie
andriese
andronico
andropeche
andropologgeche
andrzej
ane
aneddote
anelle
anello
anemale
anemone
anfibie
anfitiatre
angara
ange
angel
angela
angele
angeles
angeli
angeliche
angelina
angelis
angelo
anghe
anghele
anghiari
anghiute
angio
angioine
anglo
anglosassone
ango
angola
angolare
angole
angone
angore
angrogna
anguilla
ani
anidde
anima
animale
animali
anime
anita
anka
ankara
ann
anna
anne
annesse
annessione
anni
annibale
anniversarie
anno
annoverate
annozero
annu
annual
annuale
annuario
annue
annunciazione
annunge
annungiate
annungiazione
annunziata
annunziate
annunzio
anonime
ans
ansa
anse
anta
antarctic
antarctica
antartece
antarteche
antartiche
antartide
antecessor
antenna
anthony
anti
antica
antiche
antichi
antichita
antico
antigua
antille
antiochia
antiquarium
anto
antoglie
antoglietta
antoine
antologia
anton
antonia
antonietta
antonino
antonio
anude
anulare
anversa
anzi
ao
aosta
ape
aperte
apertura
aperture
api
apice
apirte
apocalisse
apocopata
apolle
apollo
apostole
apostoleche
apotropaiche
apparate
appare
apparecchiature
apparecchie
appartamende
apparte
appartene
appartenende
appartenene
appartenente
appartenenze
appartenevane
apparteneve
appartenute
appassionate
appellative
appena
appene
appennine
appetta
appettate
appettete
appetto
appia
appie
apple
applecate
applechesce
applicazione
applicaziune
appogge
appoggiate
apponde
apporte
apposite
apposte
apprendistate
apprezzate
appri
apprile
apprime
apprimme
apprise
apprisse
approde
approfunneme
approfunnite
approssimative
approssimazione
approvate
approvazione
appruvate
appule
appunde
apre
aprenne
apri
aprile
aprivane
apu
apulia
aqqua
aqua
aquila
aquile
aquino
ar
ara
arab
araba
arabe
arabi
arabia
arabiche
arabie
arabo
arago
aragona
aragone
aragonese
aragonise
araldeche
araldiche
arangione
arazze
arbe
arbuste
arca
arcadia
arcaica
arcaiche
arcangele
arcangelo
arcate
arche
archeologgece
archeologgeche
archeologgie
archeologgije
archeologhe
archeologia
archeologico
archette
archimede
archita
architecture
architette
architetti
architettonece
architettoneche
architettura
architetture
architrave
archive
archivi
archiviata
archiviato
archivije
archivio
arciconfraternite
arcidiocese
arcidiocesi
arcipelaghe
arcipelago
arciprevete
arcivescove
arcivescovile
arco
arctan
arctic
arda
arditi
are
area
areas
aree
arena
arengo
arezzo
argende
argendea
argendi
argendine
argenteuil
argentina
argille
argillose
argive
argo
argomende
argume
argumende
aria
aride
arie
ariel
arignano
arije
aringhe
aristocrateche
aristocrazie
aristofane
aristosseno
aristotele
arkansas
arlotta
armando
armate
arme
armene
armeni
armenia
armenie
armoniche
armonie
armstrong
arnaldo
arno
arnold
arnoldo
arnolfo
arouet
around
arpino
arre
arrecorda
arrecordane
arrecorde
arrecurda
arrecurdame
arrecurdate
arrede
arreguarde
arreste
arrete
arreva
arrevane
arrevanne
arrevarene
arrevate
arrevavane
arrevave
arrevavene
arrevo
arricchite
arriva
arrivane
arrivate
arrive
arrivene
arrivo
arrondissement
arrubbate
ars
arsenale
art
arta
arte
artebaria
arteche
artefice
arterie
arthur
arti
artiche
artichele
article
articolate
articole
articolo
artide
artifice
artificiale
artificie
artiggianale
artiggianate
artiggiane
artiste
artistece
artisteche
artisti
artistiche
artists
arts
aruba
arundel
arvule
as
asburgo
ascanio
asce
ascensione
ascese
asci
asciutte
asckua
asckuande
asckuate
ascoli
ascolta
ascolte
asd
ash
ashram
asia
asian
asiateche
asiatiche
asie
asile
asl
asp
aspetta
aspette
aspre
aspromonte
assaggia
assai
assaie
assaije
assaje
assalte
asse
assediate
assedie
assedio
assegnate
assegnazione
assemble
assemblee
assemegghie
assende
assenze
assessorate
assessore
assetta
assette
asseve
assi
assicura
assicurate
assignate
assignete
assise
assisi
assiste
assistende
assistenze
associate
associati
association
associazione
associazioni
associaziune
assolute
assomigghie
assuan
assunde
assunzione
assute
assutte
astana
aste
asti
astre
astronome
astronomeche
astronomije
asturiana
asturiane
asturias
asturie
at
atac
atapuerca
atatu
ate
ateisme
atella
atena
atene
ateniese
athens
atla
atlande
atlandeche
atlandiche
atlante
atlantiche
atlas
atleta
atlete
atleteche
atletica
atletiche
atletico
atmosfere
atmosfereche
atmosferiche
atome
atomiche
atrie
atta
attacca
attaccate
attacche
attamiane
attane
atte
atteggiamende
attende
attene
attenzione
atterragge
attese
attestate
atteste
atti
attiche
attila
attilio
attire
attivamende
attivate
attive
attivetate
attiviste
attivita
attivitate
atto
attore
attratte
attrattive
attraversane
attraversanne
attraversate
attraverse
attraverso
attrazione
attrebbuite
attrezzate
attrezzature
attrezze
attribbuite
attribbuzione
attribbuzzione
attribui
attribuite
attrice
attuale
attualita
attualmende
attuate
atture
atturne
au
auckland
audace
audio
auditorium
auguale
august
augusta
auguste
augusto
aule
aulo
aumane
aume
aumenda
aumendate
aumende
aunetate
auni
aunificazione
aunione
aunisce
aunita
aunitarie
aunitate
aunite
aunive
aure
aurea
aurelia
aureliane
aurelio
aurora
aus
ausa
ausabbele
ausane
ausanne
ausanze
ausarene
ausate
ausavane
ausave
ausavene
ause
ausene
ausete
auso
australe
australia
australian
australiane
australie
austria
austriache
austrie
austrieche
aut
authority
auto
autobus
autoctone
autografe
automobbele
automobbelisteche
autonoma
autonome
autonomie
autonomije
autore
autoretate
autoretratte
autorita
autoritate
autoritratte
autorizzazzione
autostrada
autostradale
autostrade
autunnale
autunne
auture
ava
avamboste
avana
avanti
avanzate
avasciate
avaste
ave
avellino
aven
avene
avenene
avenerene
avenesse
avenevane
aveni
avenne
avenu
aver
avera
averane
avere
averena
averene
averle
aversa
avessa
avesse
avessera
avessere
avetrana
avetrane
aveva
aveve
avi
avigliana
aviv
avorie
avorio
avra
avrebbe
avu
avute
avuto
avve
avvende
avvendure
avveneminde
avveni
avvenime
avvenimende
avvenute
avveramende
avverate
avversarie
avviate
avvicina
avvicine
avvie
avvistamende
avvocate
avvrazzate
avvrazze
ayala
az
azeglio
azerbaigian
azerbaijan
azere
azienda
aziendale
aziende
azione
aziune
azov
azzano
azzecca
azzettate
azzorre
azzurre
azzurro
b
ba
baba
bacco
bach
bacine
badajoz
badia
baghdad
bagnara
bagne
bagni
bagnoli
bagnolo
bah
bahamas
bahn
bahr
bahrain
baia
baie
bailey
bairo
baje
bajkal
bakr
baku
bal
balangero
balaustre
balcane
balcaneche
balcaniche
balcone
baldacchine
baldassarre
baldensis
baldini
baldissero
baleari
balene
bali
balla
balle
ballerine
ballone
balme
balneare
balsamo
baltasar
baltece
baltiche
balzo
bambino
bananas
banane
banca
banche
banchette
banchise
banco
banconote
bande
bandiera
bandiere
bang
banga
bangarelle
banghe
banghette
banghine
bangkok
bangladesh
banja
bank
banne
bantu
baptiste
bar
barajas
baran
barbados
barbania
barbara
barbare
barbareche
barbarossa
barbuda
barcellona
barcellone
barcelona
bardi
bardonecchia
bare
barese
bargello
bari
baricendre
barletta
barlettana
barlettane
barlettano
barlettaviva
barlette
barnaba
barocca
barocche
barocco
baronale
barone
baronesse
baroni
baronie
barre
barriere
barrio
barroso
barry
barsanofie
barthe
bartolome
bartolomeo
bas
basamende
basate
basave
basche
base
baseball
basho
basigliane
basiglie
basile
basilea
basileche
basiliane
basilica
basilicale
basilicata
basilicate
basiliche
basilio
basket
bassano
basse
bassi
basso
basta
bastione
bastone
bat
batavia
battagghie
battaglia
battaglie
battenne
battere
batterie
battesimale
battesime
battezzate
battezze
battezzo
battista
battiste
battistere
battisti
battiture
battuta
battute
bausani
bautista
baviera
bax
bay
baylon
bazar
bbane
bbare
bbc
bbe
bbele
bberate
bberaziune
bbere
bbete
bbona
bbone
bbre
bbue
bbuene
bc
bd
be
beare
beata
beate
beatrice
beaumont
beaux
bec
beinasco
beirut
bel
belbo
belge
belghe
belgie
belgio
belgique
belgrade
belgrado
belgrano
belisario
belize
bella
bellano
belle
bellezza
bellezze
belli
bellingshausen
bello
belluno
belmonte
belvedere
ben
benche
bene
benede
benedette
benedetti
benedettine
benedetto
benedizione
beneficie
benessere
benevende
benevento
bengala
bengale
bengalese
bengali
beni
beniculturali
benigno
benin
benito
benjamin
bentivoglio
beppe
ber
berbere
bergamo
bering
berlenise
berlin
berline
berliner
berlinese
berlino
berlusconi
bermuda
berna
bernard
bernardi
bernardine
bernardo
berne
bernhardt
bersaglie
berta
berti
bertoldo
bertrand
bescotte
bessarabie
best
bestiame
beta
beutler
bevagna
bezzecca
bg
bha
bhutan
bi
biagge
biagi
biagio
bianca
bianchi
bianco
bibbie
bibbliche
bibbliografije
bibbliote
bibblioteche
bibiana
bible
bibliography
biblioteca
biblioteche
bibliothe
biciclette
biella
bielorusse
bielorussia
bielorussie
bilancio
bilange
bilbao
bile
bill
bilmens
bilotta
bin
binate
binh
bio
biodiversita
biografe
biografeche
biografia
biografije
biography
biologgeche
bionda
biopuglia
birmanie
birra
birre
bisanzie
bisanzio
biscaglia
bisceglie
bissau
bitonto
bizandine
bizantini
bizantino
bizzandine
bl
black
blanca
blasi
bleu
bloccate
blocche
blog
blogspot
blood
blu
blue
bo
bobbio
boca
bocca
boccaccio
bochere
boemonde
boemondo
bogota
bol
boli
bolivia
bolivie
bolle
bollende
bollengo
bollettine
bollettino
bologna
bologne
bolognese
bolzano
bombardamende
bombardaminde
bombay
bompiani
bon
bona
bonaparte
bonaventura
bonelli
bonifacio
bonifeche
bonn
book
books
boom
borbo
borbone
borboneche
borde
boreale
borgaro
borgate
borges
borghe
borghese
borghesie
borghetto
borghi
borgia
borgiallo
borgo
borgofranco
borgomasino
borgone
boris
bormida
borneo
bornholm
borough
borraco
borromeo
borse
bos
bosche
bosco
bosconero
bosforo
bosna
bosnia
bosniache
bosnie
boston
botaneche
botanica
botaniche
botswana
botte
botteghe
bove
bovine
bowl
box
boys
br
bra
braccesi
bracciano
bracidite
braciole
brahama
brahmaputra
bramante
brancacci
brancaccio
branco
brandeburghe
brandizzo
brane
brasile
brasilia
brasiliane
brasiliano
bratislava
bratislave
bravo
brazzaville
bre
brenta
brescia
breta
bretagna
bretagne
breve
brevetti
bri
brianza
bricherasio
bridge
brienne
brigande
brigita
brill
brindisi
brindisino
brindisiweb
brinnese
brinnesine
britannica
britanniche
britannico
british
brittanneche
broadcasting
brode
bronze
bronzo
brooklyn
brosso
brown
brozolo
bru
brucamende
brucaminde
brucate
bruges
bruino
brundisium
brune
brunei
bruno
brusasco
brussel
bruto
brutte
bruxelles
bruzolo
bs
bt
bu
bucarest
bucce
bucoliche
bucures
budapest
buddha
buddhiste
buddisme
bue
buenos
bugnate
building
bulgare
bulgarie
bulgaro
bulletin
bulzoni
bunker
buon
buona
buonarroti
buono
bur
bureau
burgos
buriasco
buriate
burj
burkina
burolo
burrate
burundi
bus
busan
busano
business
bussoleno
buste
buttigliera
by
bz
c
ca
cabo
cacce
caccia
cacciate
cacciatorpediniere
cacciature
cade
cadi
cadice
caditoie
cadore
caduta
cadute
caduti
caetane
cafasse
cafe
caffe
cafforio
cafiero
caggione
cagliari
caicos
caio
cairo
caitane
cala
calabria
calabro
calamita
calate
calavrese
calavrie
calcare
calcaree
calcarenite
calce
calciatore
calcio
calcisteche
calcolate
calcole
calculate
calcule
calcutta
calde
caldo
cale
caledonia
calendarie
calendarije
caliandro
califfale
califfate
califfe
california
californie
calle
calma
calo
calore
calotte
caltanissetta
caluso
calvarie
calvi
calvino
cambagne
cambanarie
cambane
cambanie
cambanile
cambate
cambe
cambegge
cambemarine
cambesande
cambevasce
cambia
cambiano
cambidoglie
cambie
cambio
cambioante
cambionate
cambione
cambiune
cambogia
cambridge
camelie
camera
camere
camerun
cami
camii
camilla
camille
camillo
camine
cammine
campagne
campania
campi
campidano
campiglione
campionato
campione
campo
campolongo
canada
canadese
canal
canale
canali
canaria
canarie
canavese
canda
candande
candate
candautore
cande
candia
candidate
candidature
candido
candiere
candine
candiolo
candone
candore
cane
cange
cangellerie
cangelliere
cangene
cangete
cangia
cangiame
cangiamende
cangiaminde
cangiande
cangiane
cangianne
cangiate
cangio
caniglia
canischio
canne
cannete
cannone
cannune
cano
canone
canoneche
canoniche
canore
canosa
canosce
canoscene
canoscenze
canoscere
canosciute
canose
cantabria
cantabriche
cantalupa
cantande
cantante
cantata
canti
cantica
canto
cantoira
canton
canusci
canusciute
canzone
canzoni
canzoniere
canzune
cap
capace
capacita
capacitate
capanne
cape
capece
capefile
capelavore
capelue
capelueche
capelueghe
capeluoghe
capi
capidde
capienze
capisce
capital
capitale
capitane
capite
capitelle
capitignano
capitole
capitoline
capo
capocce
capoce
capodimonte
capolavore
cappella
cappelle
cappellone
cappuccine
caprara
capre
caprese
capriccio
capricorne
caprie
caprine
capua
caput
caputo
car
cara
carabbenire
caracas
caracciolo
carafa
caraibe
caraibeche
caraibi
carattere
caratterezzate
caratteri
caratteristeca
caratteristece
caratteristeche
caratteristiche
caratterizzane
caratterizzate
caratterizze
caratterizzescene
caravelle
caravino
carbonara
carbone
carbonia
carcere
card
cardinale
carducci
care
careche
carella
carema
carestie
caretta
carignano
carisciole
carissimo
carita
carl
carla
carle
carlo
carlos
carmagnola
carme
carmela
carmele
carmelitane
carmelo
carmen
carmignano
carmina
carmine
carn
carne
carnevale
carnivore
caro
carocci
carolina
caroline
carovane
carovigne
carovignese
carovigno
carpare
carrara
carrare
carre
carresce
carrescia
carresciamende
carresciane
carrescianne
carresciate
carriera
carriere
carrino
carseche
carsiche
carsuniedde
carta
cartagena
cartaggenese
cartapeste
carte
cartedda
carteddate
cartellate
carter
cartesiane
cartografe
cartografeche
cartografije
cartone
carusine
cas
casa
casablanca
casal
casalborgone
casale
casaletto
casalinghe
casalnue
casanova
casate
cascate
cascinette
case
caselette
caselle
caserecotte
caserme
caserta
casine
caso
caspie
caspio
cassa
cassano
cassiano
castagne
castagneto
castagnole
castanea
caste
castel
castelfranco
castell
castellamonte
castellana
castellane
castellaneta
castellanetane
castellano
castelle
castelletto
castelli
castello
castellucce
castellum
castelnuovo
castidde
castie
castiglia
castigliane
castiglie
castiglione
castigno
castilla
castoldi
castrate
castre
castri
castriote
castro
castrocaro
castrum
cata
catala
catalana
catalane
cataldo
cataloghe
catalogna
catalogne
catalogo
catalogue
catalogueoflife
catania
catanzaro
cataste
catavete
cate
categorije
category
catena
catene
caterina
caterine
catherine
catholic
catone
cattedrale
cattive
catto
cattolece
cattoleche
cattolica
cattolicesime
cattoliche
catturate
catture
caucaso
cauce
caudale
causa
causanne
causarene
causate
cause
cava
cavadde
cavaddere
cavagliere
cavaglire
cavagnolo
cavalcate
cavaliere
cavalieri
cavalle
cavallo
cavatelle
cave
cavede
caverna
caverne
cavita
cavour
cayman
cazzate
cazze
cbs
cc
cca
ccchiu
cce
cche
cchia
cchie
cchije
cchiu
cchiuttoste
cchu
cciu
ccose
ccre
ccreazione
ccreja
ccrejanne
ccrejate
ccrejazione
ccreje
ccrejo
ccu
cd
cda
cdot
cdots
ce
ceca
cecate
ceche
ceci
cecilia
ceco
cecoslovacchia
cedute
cee
cefale
ceglie
cegliese
cek
celebbra
celebbrate
celebbrazione
celebbrazziune
celebbre
celebrate
celebrazione
celebre
celeste
celestine
celio
celle
celline
cellino
cellulare
cellule
celo
celteche
celti
celtiche
cemendate
cemende
cenacolo
cendenarie
cendesime
cendimetre
cendinaie
cendr
cendra
cendrale
cendraline
cendre
cendredestre
cendrele
cene
cenere
cengate
cenise
cenne
cenni
censimende
censimento
censite
censure
census
cent
center
centimetre
cento
central
centrale
centre
centro
century
cenzime
cenzite
cepodde
ceppe
cerameche
ceramiche
cerano
cerase
cerca
cercanne
cercarene
cercate
cercenasco
cerche
cerchie
cerco
cerconne
cercunnate
cere
cereale
ceres
ceresole
cerimonie
cerreto
cerro
certa
certame
certamende
certe
certezze
cervantes
cerve
cervidde
cesana
cesare
cesarea
cesena
cesio
cestiste
cetadelle
cetadinanze
cetadine
cetata
cetate
cete
cetra
cetta
cettadine
cette
ceuta
cf
cfr
cg
cgpm
ch
cha
champion
change
channel
chaplin
charles
charlie
charlot
charlotte
charlottenburg
charter
chase
chatham
chciu
che
chele
chene
cheradi
chesce
chi
chia
chialamberto
chiama
chiamane
chiamarene
chiamata
chiamate
chiamavane
chiamave
chiame
chiamete
chiamo
chianda
chiandate
chiande
chiane
chianeggia
chianeggiande
chiang
chianghe
chianghiaredde
chiangone
chianiste
chianocco
chianti
chianure
chiara
chiaramende
chiare
chiarelettere
chiatona
chiattaforme
chiatte
chiaute
chiave
chiaverano
chiazza
chiazzale
chiazze
chiazzette
chicago
chidde
chie
chiede
chiena
chiene
chieri
chiesa
chiesanuova
chiese
chiesenue
chiesera
chiesere
chiesette
chieste
chieti
chigi
chije
chijene
chile
chili
chilogramme
chilome
chilometre
chilometri
chimece
chimeche
chimiche
china
chine
chiocce
chiogge
chiomonte
chionna
chiostre
chiove
chiovose
chiovosetate
chirico
chirulli
chis
chise
chisone
chiste
chit
chitarre
chitarriste
chiu
chiude
chiusa
chiuse
chiusi
chiusure
chiuttoste
chivasso
choc
chris
christi
christian
christmas
christophe
christopher
chronicon
chronology
chu
chudnovsky
church
chyurlia
ci
cia
ciad
ciaia
ciascune
cibe
ciccio
cicere
cicerone
ciclabbele
cicle
ciclisme
ciclone
ciconio
cicorie
cie
ciele
cielo
cifre
cile
cilene
cilento
cilindre
cimabue
cime
cimena
cimitere
cina
cinde
cindre
cindure
cine
cineaste
cinema
cinematografe
cinematografeche
cineme
cinese
cingande
cinge
cinghe
cinghecendesche
cingheciende
cinghecinde
cinghiale
cinguand
cinguande
cino
cinque
cinta
cintano
cinzano
cio
cioe
cipre
cipresse
cipriano
cipriote
cipro
ciraci
circa
cirche
circhele
circle
circolare
circolazione
circole
circolo
circondarie
circonferenze
circoscrizione
circoscrizioni
circoscriziune
circostande
circostanze
circumpolare
circunnane
circunnate
cirie
cirilleche
cirillico
cirillo
ciro
cisterna
cisterne
cisternine
cisternino
cit
cita
citate
citazione
citazioni
citaziune
cite
cities
cito
citre
citta
cittadella
cittadine
cittadini
cittadino
citte
city
ciucce
ciudad
civeche
civette
civica
civiche
civico
civile
civilta
civiltate
civitas
civitella
cke
ckife
cl
clair
clan
clandestine
clara
clarisse
class
classe
classece
classeche
classefecate
classefecazione
classica
classical
classiche
classifecate
classifeche
classificate
classificazione
classificaziune
claude
claudia
claudio
clausole
clavica
claviere
cle
clemendine
clemente
cleopatra
clere
clima
climate
climateche
clime
club
clupeidi
cm
cn
co
coalizione
coassolo
coazze
cocincina
coco
cocos
coda
code
codece
codes
codice
codici
codifeche
codifica
codificate
coerende
coeve
cogghie
cognome
cognugazione
coi
coincide
coinvolte
col
cola
colafemmina
cole
coli
colimena
coll
collabborature
collabborazione
collabboro
collaboraziune
collana
collane
collasse
colle
collection
collegame
collegamende
collegamento
collegaminde
collegane
collegate
collegave
college
collegge
colleggiate
colleghe
collegno
colleretto
collettive
collezione
colleziune
collezzione
collezziune
colli
collinare
colline
collinette
collocazione
collodi
colo
colomb
colombano
colombia
colombiane
colombie
colombo
colon
colone
colonia
coloniale
colonie
colonizzate
colonizzazione
colonizzaziune
colonizzazzione
colonna
colonnate
colonne
colonnelle
colonnine
colono
colorate
colore
colosse
colosseo
colpe
colpevole
colpi
colpite
colte
coltivate
coltivazione
coltivaziune
colture
columbia
columbus
com
comandande
comandante
comande
comanne
combagne
combagnie
combare
combatte
combattende
combattere
combattimende
combattute
combense
combete
combetenze
combetizione
combetiziune
combiere
combilate
combimende
combinazione
combite
combiute
combiuter
comblecate
comblemendare
comblesse
comblessivame
comblessivamende
comblessive
combleta
combletame
combletamende
combletate
comblete
combleto
comblicate
comblitte
combluenze
combluisce
combone
comboneminde
combonende
combonene
comboni
combonimende
comborre
combortamende
combosetore
comboseture
combositore
combosizione
combosiziune
comboste
combrende
combrendere
combrendeve
combrendone
combrenne
combrennene
combrensione
combrensive
combrese
combronde
combustibbele
come
comeche
comete
comiche
comitate
comitato
comma
comme
commedia
commedie
commediografe
commendatore
commendature
commende
commerce
commerciale
commerciande
commercie
commercio
commesse
commissarie
commission
commissionate
commissione
commissiune
committee
committende
commons
commonwealth
commune
como
comore
company
complesso
completes
complex
comprende
comprese
compton
computer
comu
comunale
comune
comunecazziu
comuneche
comuneme
comunemende
comunetate
comungue
comuni
comunicazione
comunicaziune
comunisme
comuniste
comunita
comunitarie
comunitate
comunque
con
conca
concattedrale
concave
concepcio
concert
concerti
concerto
concetto
concezione
conche
concise
condadine
condaminate
condaminaziune
condane
condannate
condanne
condatte
conde
condemborane
condemboraneamende
condemboranee
condene
condeneve
condenute
condese
condesse
condestate
condeste
condi
condine
condinendale
condinende
condinua
condinuamende
condinuane
condinuanne
condinuarene
condinuate
condinuave
condinuazione
condinue
condinuita
condinuo
condita
condite
condivi
condivise
condivisioni
condizione
condiziune
condotte
condottiere
condove
condrabbanne
condrade
condrapposizione
condrapposte
condrarie
condrasta
condraste
condratte
condre
condrebbuenne
condrebbui
condrebbuisce
condrebbuite
condrebbute
condrolla
condrollate
condrollavane
condrolle
condroverse
condroversie
conduttore
cone
confederazione
confederaziune
confedilizia
conferenza
conferenze
conferite
conferma
confermane
confermate
conferme
confessione
confette
configurazione
confinande
confine
confini
conflict
conflitte
confluenze
confluiscene
confonde
conformazione
confratelle
confraternita
confraternite
confronde
confronto
confuciane
confuse
confusione
congattedrale
conge
congedi
congedo
congendrane
congendrate
congendre
congepite
congerte
congesse
congessione
congessiune
congette
congeziona
congezione
conghe
congiunde
congiundive
congiunzione
congludi
congluse
conglusione
congo
congolese
congorrenze
congorse
congregazione
congreso
congresse
conguista
conguistate
conguistatore
conguiste
conguisto
coni
coniate
conifere
coniugazione
connotazione
conoscenze
conosciuto
conquista
conquiste
consacrate
consapevolezze
consegne
conseguende
conseguenze
consejo
consendi
consense
conservate
conservazione
conserve
considerate
considerazione
considered
consiglie
consiglio
consiste
consistende
consistenze
consolare
console
consolidamende
consonande
consorte
consorzie
constantin
consultate
consultato
contadine
container
conte
contea
contemporary
contessa
conti
contine
continendale
continende
continental
continue
contrada
contraddistinde
contrade
contro
controllo
conurbazione
convegne
convende
convenduale
convento
convenzionale
convenzione
convenziune
convergenze
conversane
conversano
conversazione
conversione
convertite
convinde
convinzione
convivio
convoglie
conzegnate
conzeguende
conzeguenze
conzendi
conzervate
conzerve
conzidera
conziderane
conzideranne
conziderate
conziderazione
conzidere
conziderevole
conzigliate
conziglie
conzigliere
conziste
conzolate
conzolidate
conzonande
conzultate
conzume
conzundive
cook
cooperative
cooperazione
coord
coordinate
coordinates
copenaghen
copernico
coperture
copia
copie
coppa
coppe
coppie
copre
copte
cor
coralle
coralline
corane
corate
corazzate
corbin
corde
cordigliere
cordillera
cordova
core
corea
coreane
coree
corfu
coriano
corina
corinzie
corio
corne
cornice
cornicione
coro
corografia
corona
coronamende
coronate
corone
corpi
corpo
corporation
corpus
corrado
corre
correde
correlate
corrende
corrente
corresponde
corresponne
corresponnene
corrette
corridoie
corriere
corrisponde
corrispondende
corrispondenze
corrisponne
corrotte
corruzione
corse
corsica
corsie
corsive
corso
corte
corteo
cortes
cortese
cortile
cortina
cortine
cortometragge
cosa
cose
cosenza
cosi
cosiddette
cosime
cosimo
cosma
cosme
cosmopolite
cossano
costa
costande
costandemende
costandine
costandinopoli
costandinopule
costante
costantino
costantinopoli
costanza
costanze
costanzo
coste
costiere
costituende
costitui
costituirene
costituisce
costituiscene
costituiscone
costituite
costituzionale
costituzione
costituziune
costrette
costruenne
costrui
costruirene
costruisce
costruite
costrutte
costruziona
costruzione
costruziune
costume
costumi
cotone
cotrine
cotte
council
countries
country
county
court
cozze
cr
cracovia
cranie
cras
cratere
cre
creanne
creature
creazione
crede
credenze
credeve
credite
cremasco
creme
cremona
cremonese
creolo
cresce
crescende
crescene
crescere
cresci
crescita
crescite
cresciute
cressati
creste
crestia
crestiane
crestianesime
creta
cretese
cria
cricket
crijate
crijature
crimea
crimee
criminale
crimine
cripta
cripte
crisce
crisciu
crisciute
crise
crisi
crispiano
crispieri
cristalline
criste
cristia
cristiana
cristiane
cristianesime
cristiani
cristiene
cristina
cristo
cristobal
cristofalo
cristoforo
criteche
criterie
critica
critiche
critico
croate
croazie
croce
crocefisse
crocevie
crociate
crociere
crocifissione
crocifisso
crogefisse
crolle
cromateche
cronaca
cronache
cronologgeche
cronologgije
crostacei
crotone
crsec
crucis
crude
crugefisse
crugefissione
cruz
cs
cu
cuatro
cuba
cubane
cube
cuccaro
cuceglio
cucina
cucinate
cucine
cucuzze
cudde
cue
cuenca
cuerpe
cugghiute
cui
cule
culle
cullegate
culleghe
culonne
culorate
culore
culpi
culpite
culte
cultivar
cultivate
culto
cultura
cultural
culturale
culturali
culturalmende
culture
cultures
culure
cum
cumannate
cumanne
cumbagne
cume
cumiana
cumme
cunda
cundane
cundanne
cundannete
cundate
cundatte
cundave
cunde
cundeste
cuneo
cunge
cungerte
cungette
cunigghie
cunzervate
cuore
cuorgne
cup
cupe
cuperte
cupi
cupido
cupole
cupri
cuprisce
cupriscene
cura
curate
curci
curde
cure
curiosita
curitiba
curna
curresponne
curse
curte
curti
curve
curviline
cusano
cusio
cusse
custo
custode
custodie
custodisce
custodite
custume
cycas
cyprus
cyrillic
cz
d
da
dab
dagli
dai
daily
dal
dall
dalla
dalle
dam
dama
damasche
damasco
dame
damiano
dan
dana
dance
danemarche
danese
daniel
daniela
daniele
danilo
danimarca
danne
danneggiate
danni
dans
dante
dantesche
danubie
danubio
danza
danze
dar
dara
dardanelle
dare
darfur
dari
dario
darle
das
data
dataarchivio
database
databbele
databbile
datate
datazione
date
dati
dative
dato
daunia
dave
davi
david
davide
davis
day
days
db
dc
dd
dda
dde
ddere
ddi
ddo
ddoje
ddr
ddulurate
ddunate
ddə
de
dea
deaf
death
debbole
debite
debito
decade
decadenze
dece
decedi
decemmre
decenne
decennie
deche
dechiarate
deci
decide
decidere
decidettere
decidi
decima
decimale
decime
decine
decise
decisione
decisive
declinaziune
decline
declino
decorate
decorative
decorazione
decoraziune
decrete
decreto
dedalo
dedecate
dedica
dedicarse
dedicata
dedicate
dedicato
dediche
dedico
dedotte
defennere
deffere
defferende
defferenze
deffonne
deffuse
definenne
defini
definisce
definite
definitivamende
definitive
definizione
definiziune
degli
degna
degne
degrade
dei
deisme
deje
del
dele
delegate
delegazione
delfi
delfine
delhi
delia
delibbere
delicate
delimitate
delizie
dell
della
delle
delli
dellisanti
dello
delta
delte
deltizie
dem
demaniale
demetrie
demetrio
demo
democrate
democrateche
democratic
democratica
democratico
democrazia
democrazie
demografeche
demografiche
demografico
demografije
demostra
demostrane
demostrate
demostre
den
dende
dendellate
denis
denise
denominate
denominazione
denominaziune
densita
dentice
dentro
denzame
denzeta
denzetate
departeme
departemende
departeminde
departime
departimende
department
depende
dependenze
depenne
depinde
depositate
deposite
deposizione
deposte
depressione
deputate
der
derettame
derettamende
derette
deritte
deriva
derivande
derivane
derivate
derivazione
derive
dersu
des
descorse
descritte
descrive
descrivene
descrivere
descrizione
descriziune
descurse
deserte
deserteche
desiderie
desiderio
design
designate
designe
desinenze
desse
destinate
destinazione
destinaziune
destine
destino
destra
destre
destribbuite
destritte
destrutte
destruttive
destruzione
determina
determinande
determinate
determinazione
detroit
dettaglie
dette
detti
detto
deutsche
deutsches
devanagari
devastaziune
deve
development
devenda
devendane
devendanne
devendarene
devendate
devende
devendo
devenute
deversame
deverse
deversetate
deviazione
devide
devil
devise
devote
devozione
dha
dhabi
dhaka
di
dia
diacono
diale
dialettale
dialette
dialetti
dialetto
dialoghe
diamande
diametre
diametro
diana
diano
diarie
diario
dias
diaule
dibattite
dice
dicembre
dicemmre
dicene
dicenne
dicere
diceve
diche
dichiarate
dichiarazione
dichiaraziune
dichiare
dichiaro
diciassette
dick
dictionary
dictionnaire
didatteche
didero
diderot
die
diede
dieghe
diego
dieresi
dies
diete
dieter
dietrich
difensive
difesa
difese
diffamazione
differende
differenza
differenze
difficele
difficile
difficolta
difficoltate
diffuse
diffusione
dighe
digital
dignita
dije
dilettande
dilettandisteche
diluvie
dim
dimensione
dimensiune
dimenzione
dimenziune
diminui
diminuite
diminutivo
diminuzione
dimore
din
dina
dinameche
dinamiche
dinamo
dinasti
dinastia
dinastie
dinde
dino
dio
diocesane
diocese
diocesi
diocleziano
diodoro
diomede
dionisio
dioniso
dios
diossine
dipartimende
dipendende
dipendenze
dipinde
diplomateche
diplomatico
diplome
dir
dire
directory
direttamende
dirette
direttive
direttore
direttrice
direziona
direzionale
direzione
direziune
diritte
diritto
disabbitate
disambigua
disambiguazzione
disambigue
disastre
disastrose
discendende
discenne
discepole
discese
dische
discipline
discoteche
discrete
discusse
discussione
disegnate
disegne
disegni
disegno
disfida
disfide
disoccupazione
disordine
disperse
displaystyle
disponibbele
disponibile
disposizione
disposiziune
disposte
disputa
disputate
dispute
disse
disseste
distaccate
distacche
distande
distanze
distese
distinde
distingue
distinguere
distinguone
distinte
distinzione
distrette
distretto
distrettuale
distribbuzzione
distribuzione
district
distrito
distrutte
distruzione
disuguaglianze
ditions
dittatore
dittature
ditte
dittonghe
diva
dive
divenne
diventa
diversamende
diverse
diversi
diversita
diverso
divertimende
divide
dividere
diviete
divina
divine
divinita
divisa
divise
division
divisione
divisiune
dizionarie
dizionario
dizione
dizziunarie
dj
dm
dmoz
dms
dna
dnepr
do
doc
doce
docinde
docume
documendane
documendarie
documendate
documendazione
documende
documenti
documinde
dodecapoli
dodece
dodice
dodicesime
dogana
doganale
doge
doi
doje
dojecinde
dolce
doline
dollare
dolmen
dolores
dom
domagnano
domande
domani
domenica
domenico
domeste
dominande
dominate
dominazione
dominaziune
domine
dominesce
domingo
domini
dominica
dominicane
dominie
dominique
domus
don
donaci
donata
donate
donatelle
donato
done
dong
doni
donna
donne
donnolo
dop
dope
dopeuerre
dopo
doppe
doppia
doppie
dora
dorate
dorato
dore
doreche
dorete
doria
doriche
doronzo
dorsale
dorse
dorsele
dos
dossier
dotate
dots
dottore
dottrine
douglas
dove
dovere
dovute
dr
draghe
drago
drammateche
drammaturghe
dramme
dre
dream
dritte
droghe
druento
dte
du
duane
dubai
dubbie
dubline
duca
ducale
ducate
duche
dudece
due
duello
duilio
dulce
dulore
dulure
duma
dumas
dume
dumenecane
dumeneche
dumi
duminecane
dumineche
dumont
dunate
dune
duome
duomo
duplice
dura
duramende
durande
durane
duranne
durante
durate
durazzo
dure
durme
duro
dus
duvi
duvute
dvd
dx
dz
də
e
earl
early
earth
east
eastern
ebbe
ebbraiche
ebbre
ebbreie
ebeijing
ebraica
ebraiche
ebre
ebree
ebrei
ebro
ec
ecc
eccellenti
eccellenze
eccessive
eccezione
eccezzionale
eccezzione
eccezziune
eccezziunele
eccidie
ecclesiastece
ecclesiasteche
ecco
eche
eco
ecologgeche
ecology
economecame
economece
economeche
economia
economic
economica
economiche
economico
economie
economije
economiste
ecosisteme
ecu
ecuador
ed
edagricole
edde
ede
eden
edgar
edicions
edicole
edificate
edifice
edificie
edilizie
edimburgo
edipe
edirne
edita
edite
edition
editions
editor
editore
editori
editoriale
editrice
editte
ediz
edizione
edizioni
ediziune
edmond
edo
edoardo
eds
edt
edu
eduard
eduardo
educate
education
educative
educazione
edward
ee
effemeride
effette
effettivame
effettivamende
effettive
effettua
effettuate
efficiende
efficienze
effige
efore
eg
egemone
egemoni
egeo
egge
eggidie
eggitte
egidio
egitte
egitto
egiziane
egizie
egli
egloga
egnazia
egypt
eh
ein
einaudi
einstein
ek
el
ela
elabborazione
ele
electa
elefande
elegande
eleme
elemendare
elemende
elementi
eleminde
elena
elenco
elengate
elenghe
eleonora
elette
eletto
elettorale
elettra
elettreche
elettriche
elettroneche
elevata
elevate
elezione
elezioni
eleziune
eli
elia
elias
eligge
elio
elisa
elisabbette
elisabeth
elisabetta
elise
elizabeth
ella
ellenisteche
ellenistiche
ellisse
ellitteche
ello
ellsworth
elsa
elvira
elvis
em
ema
email
emanuel
emanuele
emarginate
embleme
emergende
emergenze
emeroteche
emerse
emerson
emi
emidio
emigrande
emigrate
emigrazione
emil
emilia
emilie
emilio
emirate
emisfere
emissione
emittende
empedocle
empire
en
encarta
enciclopedia
enclave
encyclope
encyclopedia
encyclopedias
encyclopædia
end
ende
endemiche
endre
endroterre
ene
enea
eneide
energeteche
energie
energije
eng
enghien
english
eni
enipower
enna
ennaprovincia
ennio
enogastronomeche
enorme
enriche
enrico
enrique
ensemble
ente
entita
entrate
entre
entro
entroterre
enza
enzo
epiche
epicure
epidemie
epigrafe
epire
epiro
epirote
episcopale
episodi
episodie
epistole
epistulae
epitaffie
epoca
epoche
eponime
eppisodie
eppo
eppure
equatore
equatoriale
equestre
equilibbrie
equipagge
equivale
equivalende
er
era
eraclea
eraclio
erane
erano
erasme
erasmo
eratostene
erbacee
erbe
erchie
ercolano
ercole
ere
erectus
erede
eredita
ereditate
erene
erette
erevan
eric
erich
erie
erik
erika
eritrea
eritree
ermitage
ernale
erne
ernest
ernesto
ernst
erode
erodote
erodoto
eroe
eroi
erosione
errato
erri
erriche
errore
errori
erte
ertezze
erudite
erzegovina
erzegovine
es
esame
esattamende
esaurimende
esca
eschilo
escludenne
escluse
esclusivame
esclusivamende
esclusive
escola
escursione
esecutive
esecuzione
eseguite
esembie
esemblare
esempio
esercitate
esercite
esercito
esercizie
esigenze
esiggenze
esilie
esiodo
esiste
esistende
esistene
esistenze
esistevane
esisteve
esistone
esite
espan
espansione
espanzione
espedito
esperienza
esperienze
esperimende
esperte
esplicitamende
esplicite
esploratore
esplorature
esplorazione
esplorazziune
espone
esponende
esportate
esportazione
esportaziune
espositive
esposito
esposizione
esposiziune
esposte
espremi
espresse
espressione
espressiune
espressive
espresso
esprime
esprimere
essa
esse
essenne
essenze
essenziale
essenzialmende
esser
essere
essi
esso
est
esta
estadi
estadual
estate
este
estenne
estenzione
estere
esteri
esterne
estero
estese
estetica
estetiche
estinde
estinzione
estive
estone
estonia
estonie
estratte
estrazione
estremadura
estremamende
estreme
estremita
estuarie
esule
et
eta
etate
etc
ete
etere
eterna
eterne
ethiopia
ethniki
ethnologue
ethra
etiche
etichette
etimologgeche
etimologgie
etimologgije
etimologico
etiope
etiopia
etiopiche
etiopie
etneche
etniche
etnie
etnografeche
etrusche
ettare
ettari
ettolitre
ettore
eu
eucaristeche
euclide
eud
eufemia
euge
eugenia
eugenio
eulero
eunuche
eur
eurasie
euripide
euro
eurometeo
europa
europaea
europe
europea
european
europee
europei
europeo
eurostat
eurozone
eusanio
eusebio
ev
eva
evangeliche
evangelista
evangeliste
evaristo
eve
evende
evenduale
everest
eversione
eversive
evidende
evidenze
evita
evitanne
evo
evolute
evoluzione
ex
exchange
exclave
exilles
expedition
exporting
express
extra
extraurbane
extravergine
ez
f
fa
fabbreche
fabbri
fabbriche
fabio
fabriano
fabrizio
facce
faccia
facciate
facciete
face
facele
facende
facene
facenne
facennele
facerene
faceto
faceva
facevane
faceve
facevene
faci
facile
facilita
facilme
facilmende
facolta
factbook
facto
facts
faculdade
faenza
faetano
fafe
faggiano
fagi
faglie
fagnano
fago
fai
falande
falanto
falconi
falconibus
falde
fale
falkland
falli
fallite
false
fama
fame
fami
famigghia
famigghiare
famigghie
famigghije
famiglia
famigliare
familiare
famo
famosa
famose
famuse
fanatisme
fandasie
fanghe
fangose
fanne
fano
fanove
far
fara
faraone
fare
fari
farine
farle
farmaceuteche
farne
farnese
faro
farse
fasane
fasanese
fasanise
fasano
fasanolandia
fasc
fasce
fascia
fascie
fascine
fascisme
fasciste
fase
faso
fastigge
fat
fate
fati
fatia
fatiate
fatiature
fatiche
fatie
fatih
fatijate
fatijature
fatije
fatio
fatje
fatta
fatte
fatti
fatto
fattore
fatture
fauna
faune
faunisteche
fause
fausto
fave
favore
favorevole
favori
favorite
favria
fax
fazze
fc
fe
febbraio
febbrare
fece
fecere
feche
fede
fedele
federal
federale
federalisme
federate
federation
federative
federazione
federaziune
federiche
federiciane
federico
fedra
fee
fegure
feletto
feli
felice
felipe
felippe
felix
fellone
felosofe
felosofeche
felosofije
feltri
feltrinelli
femme
femmena
femmene
femminile
fenestre
fenestrelle
fenice
fenicie
fenile
fenomene
fenomeno
fense
ferdena
ferdina
ferdinand
ferdinande
ferdinando
ferite
ferma
fermate
ferme
fermo
ferna
fernande
fernandez
fernando
ferrante
ferrara
ferrare
ferrari
ferre
ferreri
ferri
ferrovia
ferroviarie
ferroviarije
ferrovie
fertile
fertilita
fervore
ferze
ferzute
festa
feste
festegge
festeggia
festeggiaminde
festeggiate
festiva
festival
festivita
feudale
feudalesime
feudalita
feudatarie
feude
feudi
feudo
ffa
fi
fiamme
fiamminghe
fiandre
fianghe
fiano
fiat
fiche
fiction
fido
fiduce
fiera
fieramosca
fiere
fieristeche
fifa
figc
figghie
figghje
figi
figli
figlio
figne
figura
figure
figures
filare
file
filip
filippe
filippine
filippo
film
filo
filolao
filomena
filosofe
filosofece
filosofeche
filosofia
filosofie
filosofije
filosofo
fin
final
finale
finalita
finalmende
finanze
finanziarie
finanziarije
finde
fine
finestre
finestrone
fing
fini
finita
finite
finlandese
finlandia
finlandie
fino
fiorano
fiore
fiorella
fiorende
fiorendi
fiorendine
fiorentino
fiori
fioriture
firenze
firma
firmate
firme
firmo
firre
first
fiscale
fiseche
fishbase
fisher
fisica
fissate
fisse
fitoplancton
fitte
fiu
fiume
fiumicino
fiure
fiurisce
flacco
flaminio
flaute
flavia
flavio
flora
flore
floreale
flores
flori
florian
florida
floride
flotte
fluide
flusse
fluviale
fm
fo
foca
focacce
focchiardo
foce
focene
foche
fogge
fogghie
foggia
foglie
foglizzo
folgore
folk
folklore
fondamendale
fondamende
fondata
fondatore
fondazione
fonde
fondo
fone
foneteche
fonetiche
fonseca
fontana
fonte
fonti
food
football
for
force
forcellino
fore
foreign
forestale
foreste
forever
fori
forleo
forli
forma
formale
formalme
formalmende
formane
format
formate
formazione
formaziune
formazzione
forme
formula
formule
forni
fornice
fornite
forno
forse
forster
forta
forte
fortemende
fortezza
fortezze
fortificate
fortificazione
fortificaziune
fortificazziune
fortilizie
fortine
fortore
fortuna
fortunate
fortune
forum
forza
forzate
forze
fossa
fossate
fosse
fossile
fote
foto
fotografe
fotografeche
fotografie
fotografije
fotovoltaiche
foundation
fr
fra
frac
fragagnane
fragagnano
fragne
frammende
franc
franca
francavilla
france
francesca
francesco
francese
francia
francis
francisco
franco
francoforte
francone
frandoie
frandoje
frane
frangaville
frangavillese
frange
frangescane
frangese
franghe
franghezze
frangi
frangische
frangise
frango
frank
franz
frase
frassinetto
frasso
frastagliate
frate
fratelli
fratello
frati
frattiembe
frattimbe
fratture
fraziona
frazione
frazioni
fraziune
fre
frecce
fredde
free
freedom
freeman
fregge
fregie
french
frequenda
frequendate
frequendazione
frequende
frequenze
fresca
fresche
frida
fridde
friedrich
frische
frisciute
frisedde
frisone
fritte
fritz
friuli
fro
from
frondale
fronde
frondiere
front
fronte
frontera
frosinone
frossasco
frumende
frutte
fruttete
ft
fu
fue
fughe
fuje
fuji
fulcre
fullonese
fumette
fundac
fundane
fundate
funebre
funerale
funerarie
funna
funnale
funnamenda
funnamendale
funnanne
funnarene
funnate
funnatore
funnazione
funnaziune
funnazzione
funne
funno
funziona
funzionamende
funzionande
funzionarie
funzionave
funzione
funziune
fuoco
fuori
furastiere
furastire
furene
furma
furmagge
furmane
furmanne
furmate
furme
furmete
furmo
furne
furni
furnite
furono
furtune
fusce
fuscere
fusciute
fuse
fusi
fusione
fusse
fuste
futsal
futuna
futura
future
futuro
fær
g
ga
gabbriele
gabon
gabriel
gabriela
gabriele
gabriella
gabrielle
gaddi
gaetano
gaga
gagliano
gaia
gaio
gal
galatasaray
galate
galatina
galatine
galdo
galeone
galeso
galicia
galileo
galizia
galiziane
galle
galleghe
galleria
gallerie
gallerije
gallery
galles
gallia
gallie
gallimard
gallipoli
gallo
gallus
gama
gambia
games
gamma
gandhi
gange
gara
garandi
garandisce
garandiscene
garandite
garci
garcia
garda
garden
gare
gargano
garibaldi
gary
garzanti
garzigliana
gas
gaspare
gassino
gastronomeche
gastronomije
gatti
gatu
gay
gaza
gazetteer
gazzetta
gazzette
gb
ge
gebel
geche
gela
gelate
gellio
gemellagge
gemellaggio
gemellate
gemelle
gemma
gen
gendile
gendilizie
gene
general
generale
generalme
generalmende
generate
generazione
generaziune
generazziune
genere
genereche
generose
genesi
genetiche
genevie
genie
genio
genitore
gennaio
gennaro
geno
genocide
genova
genove
genovese
gens
gente
gentile
gentili
gentilizie
geo
geocities
geografeche
geografia
geografica
geografici
geografico
geographic
geographical
geologgeche
georg
george
georges
georgia
georgiane
georgiche
gera
gerhard
germa
germagnano
germain
german
germaneche
germania
germaniche
germanie
germano
germanofone
germany
gerolamo
geronimo
gerusalemme
gerusi
gervasio
geschichte
gese
geseppe
geste
gestione
gestisce
gestite
gesu
gesuite
gette
geua
gg
gge
ggene
gghie
ggia
ggio
gh
ghana
ghe
ghele
ghiacce
ghiacciaie
ghiacciaje
ghiacciate
ghibelline
ghirlandaio
gi
gia
giacarta
giacime
giacinde
giacome
giacomo
giacosa
giaglione
giakarta
giallastre
gialle
giamaica
giamaiche
gian
giancarlo
gianfranghe
gianluca
gianni
giannone
giappone
giapponese
giappunise
giardine
giardini
giardino
giava
giaveno
gibilterra
gibilterre
gibuti
gico
gif
gigande
gigante
gigi
giglie
giglio
gigolo
gil
gilbert
gillio
ginevra
ginevre
ginnasteche
ginosa
gio
gioacchino
gioco
gioconda
gioia
gioie
gioielle
gioiosa
giordania
giordanie
giordano
giorge
giorgi
giorgie
giorgio
giorio
giornale
giorni
giorno
giosue
giotte
giottesche
giotto
giovane
giovani
giovanile
giovanna
giovanni
giove
giovendu
giovine
gira
girate
gire
girevole
giro
girolame
girolamo
girone
giu
giua
giuacchine
giuanne
giuannine
giudica
giudicate
giudice
giuditta
giudiziarie
giudizie
giuffre
giugne
giugno
giulia
giuliane
giuliano
giulie
giulio
giunde
giunta
giurideche
giurisdizione
giurne
giuseppe
giuste
giustina
giustiniano
giustino
giustizia
giustiziate
giustizie
giusto
givoletto
giza
gl
glaciale
glagolitiche
glauco
gli
glicerio
global
globbale
globe
gloria
glorie
gloriose
gm
gmt
gne
gnore
gnummariedde
gnure
go
gobierno
god
gode
gofasano
goffrede
gogh
gold
goldoni
gole
golf
golfo
gomera
gomez
gonfalone
gonza
gonzaga
goodwin
google
goran
gorgonzole
gorizia
gote
goteche
gotiche
gottfried
gov
governative
governatore
government
governo
gp
gr
gra
grade
gradine
grado
grafeche
graffite
grafica
grafiche
grafije
grammar
grammateche
grammatica
gramme
gramophone
gran
granada
granafei
grand
grande
grandi
granducate
granduche
grane
granna
granne
grannene
grannenezze
grannezze
grannisseme
grappa
grasce
grattacie
gratuite
grave
gravemende
gravere
gravi
gravina
gravine
gravita
gravitazione
graz
grazia
grazie
grazzie
gre
great
greca
grece
greche
greci
grecia
grecie
greco
greek
green
greenwich
gregge
gregoriane
gregorie
gregorio
gregory
grenada
greta
grice
grifo
grigge
griggione
griglie
grillo
grimaldi
grisotti
gro
groenlandie
groscavallo
grosse
grosseto
grosso
grotta
grottaglie
grotte
group
gru
gruber
grue
grugliasco
gruppe
gruppi
gruppo
gsm
gu
guaceto
guadagna
guadalupe
gualdo
guam
guanda
guardia
guari
guariggione
guatemala
guayaquil
gue
guelfe
guernsey
guerra
guerre
guerriero
guez
guglielme
guglielmo
guida
guidate
guide
guido
guidonia
guillermo
guine
guinea
guinee
guiscarde
guiscardo
gurfe
gurgo
gusce
gusta
gustav
gustavo
guste
gutenberg
guvernate
guvernative
guvernatorate
guvernatore
guvernaturate
guvernature
guverne
guy
guyana
guyane
gwangyeoksi
gy
gyo
h
ha
habitat
hachette
hagghie
hagia
hai
haiku
haiti
haldon
halen
hall
halley
han
handbook
hannah
hanno
hanoi
hans
hanyang
harbour
harris
has
haut
have
hawaii
hayden
haydn
hayes
he
heard
heart
heidelbergensis
heinrich
helena
helsinki
henri
henry
her
heraclea
herbert
herceg
heritage
hermann
herrera
herzegovina
hi
hill
himalaya
hindi
hip
hira
his
hispania
hispaniola
histo
histoire
historia
historical
history
hitachi
hitler
hk
hl
ho
hockey
hoepli
hoi
hokusai
holland
hollywood
home
homo
honduras
hong
honne
honshu
hooke
hop
hosomichi
hot
hotel
house
how
hrer
ht
htm
html
http
https
hu
huang
huangdi
huangpu
hub
hubert
hudson
huesca
hugo
human
humboldt
hunter
huron
hussein
i
ia
iacche
iacchene
iacchiamende
iacchiaminde
iacchiane
iacchie
iacchiene
iacchievane
iacchieve
iacchije
iacchijene
iacchijeve
iacchje
iacchjene
iacovone
iamb
iamme
ian
iangele
iapigge
iapre
iaprene
ibe
ibereche
iberiche
ibge
ibidem
ibiza
ibm
ibn
icco
iccu
ice
iceberg
icone
iconografeche
iconografije
id
ida
idde
ide
idea
ideale
ideanews
ideate
idee
idendifecate
idendificate
idendita
identificate
identificazione
identita
idioma
idiome
idrauliche
idreche
idriche
idroelettreche
idrografeche
idrografije
ie
iena
ieri
ierte
iertezze
iesse
iessene
ieva
iglesias
ignazio
igne
ignorato
ignote
igor
igp
igt
ii
iii
ij
ije
ijssel
ijsselmeer
ik
il
ilario
ile
ilgiornale
iliade
ill
ille
illegale
illinois
illuminate
illuminisme
illuministe
illustrate
illustre
illustrious
ilmeteo
ilona
ilote
ilsole
ilva
im
imam
imbegne
imberatore
imbere
imberfette
imberiale
imbiande
imbiegate
imbonende
imbortande
imbortanza
imbortanze
imbrese
imbressione
imbronde
imf
immacolata
immaggene
immaggina
immagginarie
immaggine
immagine
immagini
immediatamende
immediate
immigrande
immigrate
immigrazione
immigraziune
immobbile
immortale
imola
imperatore
imperia
imperial
imperiale
imperiali
imperio
impero
impianto
importante
importanti
in
ina
inaugurale
inaugurate
inaugurazione
inc
incendie
incheon
incisa
include
incontro
ind
indaggine
inde
indellettuale
indera
indere
inderessande
inderessate
inderesse
inderiore
indernazionale
inderne
indernette
inderpretate
inderpretazione
inderrotte
indervalle
indervende
inderviste
indese
indettaglio
index
india
indian
indiana
indiane
indiano
indica
indicane
indicare
indicate
indicative
indicazione
indice
indichesce
indichescene
indie
indigene
indiggene
indipendende
indipendendemende
indipendente
indipendenza
indipendenze
indirettamende
indirizze
inditolate
individuale
individuate
individue
indo
indoeurope
indoeuropee
indonesia
indonesian
indonesiana
indonesiane
indonesiani
indonesiano
indonesie
indoor
indorne
indotte
indrattenimende
indro
indroduzione
indu
induisme
industria
industrial
industriale
industrie
ine
inedite
inediti
inerende
infande
infanzia
infanzie
infatte
infatti
inferiore
inferno
infeudate
infezione
infine
infinita
infinite
infinitesimale
influende
influenza
influenzate
influenze
influsse
info
infondate
information
informazioni
infrastrutture
infty
inga
ingareche
ingegnere
ingegnerie
ingerte
inghilterra
inghilterre
ingidende
ingise
ingisione
inglese
inglude
ingluse
ingombiute
ingondre
ingoronazione
ingresse
ingria
inguiete
inguinamende
inguinate
ingursione
iniziale
inizialmende
iniziate
iniziativa
iniziative
inizie
inizio
inizzie
inn
inne
inneca
innecate
innece
inneche
inno
innocenzo
innovative
innovazione
innovaziune
innsbruck
ino
inoltre
insediamende
insediaminde
insenature
insieme
insino
installazione
institut
institute
instituto
int
intande
integrated
intelligence
intelvi
intendevi
intense
intente
internacional
international
internationale
internazionale
interne
internet
interno
intervende
into
intorno
introduction
introduzione
inutile
inutilmende
invalide
invase
invasione
invasiune
invece
invenzione
invernale
inverne
inverso
inviate
invitate
inzediamende
inzerite
inzie
inzieme
io
ioneche
ionica
ioniche
ionico
ionie
ionio
ipa
iperboleche
ipoge
ipogge
ipoggeo
ipotese
ipotesi
ipotizzate
ippodrome
ippolita
ippolito
iprage
iq
ir
irachene
iran
iraniane
iraq
ire
ireland
irena
irene
irlanda
irlandese
irlanne
irlannese
irpino
irraziunale
irregolare
irrigazione
irving
is
isaac
isabbella
isabbelle
isabel
isabella
isacche
isbn
ischia
iscritte
iscrizione
iscriziune
ise
isele
isernia
isidore
isidoro
isla
islam
islameche
islamiche
island
islands
islanne
isle
iso
isola
isolabella
isolate
isole
isolette
isolotte
isonzo
isotope
ispa
ispaneche
ispaniche
ispanofone
ispirate
ispirazione
ispiraziune
israel
israele
israeliane
issa
issiglio
issn
ist
istanbul
istanze
istat
istitui
istituite
istitute
istituto
istituzionale
istituzione
istituzioni
istituziunale
istituziune
istme
istruzione
istruzioni
it
ita
itaglie
italia
italian
italiana
italiane
italiani
italiano
italiavirtualtour
italiche
italico
italie
italiote
italo
italsider
italy
itinerarie
itinerarije
itis
itria
itriabarocco
itrie
its
iucn
iv
iva
ivan
ivo
ivrea
ix
j
ja
jabal
jackson
jacopo
jacovelli
jacques
jadde
jaddi
jae
jakarta
jalde
james
jan
jana
jane
janeiro
jangele
january
japan
japanese
jardim
jatte
java
javeta
javetande
javetate
javetative
javetave
javetaziune
javier
javita
javitate
javitaziune
jawaharlal
jaya
jazz
jdde
jdnr
je
jean
jeanne
jedda
jedde
jefferson
jene
jennifer
jersey
jerusalem
jesse
jewish
ji
jidde
jind
jinde
jindr
jindre
jing
jm
jndr
jndra
jndre
jndri
jnr
jo
joa
johan
johann
johannes
john
johnson
jolanda
joneche
jones
jonica
joniche
jonico
jonio
jorge
jos
josce
jose
josef
joseph
joule
journal
jp
jpg
ju
juan
juana
jugoslavie
juldeme
jules
julia
juliana
julio
july
jumari
jume
june
junele
jungle
junior
jurij
jurlaro
jusse
k
ka
kabila
kabul
kafr
kagemusha
kagera
kahlo
kai
kak
kala
kalahari
kalefati
kalimantan
kanada
kanji
kaos
kara
karachi
karel
karen
karin
karina
karl
karnak
karol
kasavubu
kashmir
kate
katsushika
kattegat
kazake
kazakhstan
kazakistan
kazan
kc
ke
keith
ken
kennedy
kenya
keplero
kevin
key
kg
khalidi
khalifa
khan
khartoum
khomeini
khorasan
ki
kiel
kiesewetter
kiev
kiko
kilimangiaro
kilimanjaro
king
kingdom
kinshasa
kiribati
kisangani
kiswahili
kitts
kivu
klara
klaus
km
kmq
ko
koine
kon
kong
konrad
korea
kosove
kosovo
kotschyi
kr
kristina
ku
kupfer
kurosawa
kuwait
kve
kw
kyiv
kyo
kyoto
l
la
laa
labboratorie
lacaita
lacedemone
lache
laclos
laconie
lacrime
laddomada
ladiana
ladislao
ladre
lady
laertine
laga
lagazzettadelmezzogiorno
lager
laghe
lago
lagos
lagune
laice
lama
lambasciune
lambro
lame
lan
lana
land
lane
lange
langhe
langres
language
languages
langue
lanka
lantian
lantianensis
lanzo
laos
lapide
lara
largest
larghe
larghezze
lari
larie
larije
larijezze
lario
larje
las
lascio
lassa
lassane
lassanne
lassarene
lassate
lassave
lasse
lassete
lasso
last
lat
latc
late
laterale
laterano
laterza
lati
latiane
latianensis
latianese
latiano
latin
latina
latine
latini
latino
latinoamericane
latitudene
latitudine
lato
latorre
lats
lattanzi
latte
laudato
laura
laure
laureate
laurens
laurent
lauriano
lauro
lava
lavorazione
lavore
lavori
lavoro
lavuda
law
lazie
lazio
le
lea
leader
league
leandro
lecce
leccese
lecci
leccie
lecco
lech
leche
leda
ledro
lee
left
lega
legale
legambiente
legame
legate
legge
leggenda
leggendarie
leggende
leggere
leggi
leggione
leggislative
leghe
legislative
legislazione
legne
legno
legume
lei
leibniz
leida
leiden
leini
leipzig
lek
lelio
lemie
lemina
lemma
lemy
lena
lenda
lende
lene
lenga
lenghe
lengua
lenguagge
lenguisteche
lenguistiche
lenin
lenne
lentini
lenze
leo
leon
leonard
leonarde
leonardo
leone
leonese
leonida
leoparde
leopold
leopoldo
leporano
les
lesabbe
lesce
lesene
lesina
lesotho
lessicale
lessolo
lett
lette
lettera
letteralme
letteralmende
letteralmente
letterarie
letterate
letteratura
letterature
lettere
lettone
lettonia
lettonie
lettore
lettres
letture
leuca
leucio
lev
levande
levante
levate
levatoie
leve
levelle
levi
levone
lewis
lez
lezione
leziune
lge
li
lia
liana
libano
libbera
libberale
libberamende
libberate
libberazione
libbere
libberta
libbertine
libbre
libbrette
liber
libera
liberia
libero
liberta
libia
libie
libraria
library
libre
libri
libro
lice
licenza
licenze
liceo
lida
lide
lido
lie
liechtenstein
life
ligge
light
ligorio
liguori
ligure
liguria
lili
liliana
lilla
lima
lime
limes
limitate
limite
limitescene
limitone
limone
lina
lincei
lincoln
linda
linden
line
linea
lineare
linee
lingua
linguagge
lingue
lingui
linguisteche
linguistica
linguistiche
link
lio
lione
lionese
lipsia
liquide
liquore
lira
lire
liri
liriche
lisa
lisboa
lisbona
lisbone
list
lista
liste
lite
litiche
litorale
litorane
litre
litte
littorio
lituane
lituanie
liturgeche
liu
live
livello
liverpool
livia
living
livingstone
livio
livius
livorno
lix
lizzanese
lizzanise
lizzano
lk
lka
ll
lla
lle
ller
lli
lln
lloyd
lmende
lo
locale
localetate
locali
localita
localizzate
locana
locative
loco
locorotonde
locorotondo
locri
locuzione
lode
lodi
lodigiano
lodziane
loffredo
logge
loggia
loggiate
loggisteche
logisteche
lomazzo
lombarde
lombardi
lombardia
lombardie
lombardo
lombardore
lombriasco
lomellina
londinese
london
londra
londre
lonely
long
longa
longc
longhe
longhezze
longitudene
longitudinale
longitudine
longm
longo
longobarde
longobbarde
longs
loo
lopez
lor
loranze
lorde
lore
lorena
lorenze
lorenzo
lorete
loreto
loro
los
losanna
lotta
lotte
louis
lourdes
louvre
love
low
ls
lt
ltd
lte
lteche
lu
lua
luate
luba
lubiane
luc
luca
lucane
lucania
lucano
lucas
lucca
luccule
luce
luci
lucia
luciano
lucie
lucio
ludi
ludovico
ludwig
lue
luenghe
luglie
luglio
lugnacco
lui
luigge
luigi
luis
luka
lume
luminarie
luminose
lumumba
luna
lunare
lunda
lundane
lune
lunedi
lunette
lunga
lunghe
lunghemare
lunghezza
lunghezze
lungo
lungomare
luo
luoghi
luogo
lupe
lupo
luserna
lusernetta
lusiglie
lusse
lussemburghe
lussemburgo
lutetia
luttazzi
lv
lvarez
ly
lə
m
ma
maastricht
mac
macao
macchia
macchie
macedone
macedonia
macedonie
macello
macerata
machiavelli
machin
macidonie
madagascar
madama
madame
maddalena
maddalene
madera
madonna
madonne
madre
madrele
madrepatrie
madrid
madrilen
madrilene
maesta
maestose
maestranze
maestre
maestri
maestro
mafia
magazine
magda
magdalena
magge
maggi
maggio
maggior
maggioranza
maggioranze
maggiore
maggiormende
maggiorparte
maggistrate
maghe
maghene
magi
magliano
maglione
magna
magne
magneteche
magnifiche
magno
mahfouz
mahfuz
mai
maiazzine
maie
maije
mainland
maio
maioleche
maiorca
maiuscole
maja
majazzine
maje
majorano
making
makka
malacca
malaga
malate
malatesta
malati
malattie
malawi
malaysia
malcolm
maldive
male
malebo
malengoneche
malese
malesia
malgrat
mali
mall
mallorca
malo
malta
malte
maltese
malvasia
malvasie
mamelucche
mamese
mamma
mamme
mammifere
man
mana
manaus
manca
mancante
manchester
mancia
mandarine
mandate
mandato
mande
mandene
mandenene
mandenenne
mandeni
mandenimende
mandenute
mandese
manduria
manduriane
mandurie
mane
maneche
manfredi
mangane
mangano
manganze
mangate
mange
manghe
mangia
mangiane
mangianne
mangiare
mango
mani
maniche
maniera
maniere
manieri
manifatturiere
manifestazione
manifestaziune
manifeste
manifesto
manila
manna
mannate
manne
mannelli
manno
mano
manoscritte
mantova
manuale
manuali
manuel
manuele
manufatte
manutenzione
maometto
maori
map
mappa
mappe
maps
mar
mara
marajo
maran
marange
marangi
marangiane
marano
maratone
marc
marcapiane
marcate
marce
marcel
marcello
march
marchantia
marche
marchesale
marchesate
marchese
marchesi
marchete
marchi
marchie
marco
marconi
marcotravaglio
mare
maree
marenare
marentino
marescialle
margarita
margene
margherita
margherite
marginale
margine
marguerite
mari
maria
mariae
mariana
mariane
marianna
marianne
mariano
marica
marie
mariella
marija
marije
marika
marina
marinare
marinazzo
marine
marino
marinosci
mario
maris
marisa
marite
marito
maritteme
marittima
marittime
marittimo
mark
market
marlene
marmara
marme
marmellate
marmo
marna
marocche
marocchine
marocco
marone
marra
marrone
marshall
marsi
marsilio
marta
marte
martedi
martelli
martenese
marti
martignano
martin
martina
martine
martinese
martini
martinica
martino
martins
martire
martirie
marugge
maruggese
maruggio
marx
mary
marzano
marze
marzio
marzo
mas
masaccio
masce
mascedde
masche
maschele
maschere
maschie
maschile
mascia
mascolo
maso
mass
massa
massacre
massafra
massaria
massarie
massarije
masse
massello
masseme
masseria
masserie
massicce
massima
massime
massimiliano
massimo
master
mastie
matematece
matemateche
mater
matera
materane
matere
materiale
materie
materiele
materne
matese
mathbb
mathematica
matheus
mathi
mathrm
mati
matilde
matine
mato
matremonie
matrice
matrimonie
matrimonio
matrix
matsuo
matteo
mattie
mattune
mature
maturita
mau
maud
maure
mauri
maurice
mauritania
mauritius
maurizio
mauro
mausole
max
may
maya
mayor
mayotte
mazzafre
mazzafrese
mazzarino
mazze
mazzini
mb
mba
mbacce
mbandaka
mbara
mbarate
mbarcate
mbarcaziune
mbare
mbarendate
mbaro
mbarticolare
mbase
mbatte
mbe
mbedisce
mbegnate
mbegne
mberatore
mberatrice
mberature
mbere
mberiale
mberiore
mbervie
mbi
mbiande
mbie
mbiegate
mbieghe
mbire
mbluenzate
mbonde
mbone
mbonende
mbormateche
mbormazione
mbormaziune
mbormazzione
mbormazziune
mborta
mbortande
mbortandissime
mbortanza
mbortanze
mborte
mbossibbele
mboste
mbra
mbre
mbrenditore
mbrenditure
mbrese
mbreziosite
mbronde
mbulse
mc
mcgraw
md
me
mea
meana
mecca
meccaneca
meccaneche
meccanisme
mecenate
meche
mechele
med
meda
medaglia
medaglie
medea
medeche
media
mediame
mediamende
mediande
mediane
mediante
mediaset
mediche
medici
medicina
medicine
medie
medievale
medina
medio
mediodactylus
medioe
medioevale
medioeve
medioevo
mediterrane
mediterranean
mediterranee
mediterraneo
meditrraneo
medusa
mega
megghia
megghie
megghije
meghna
meglio
mehmet
mela
melane
melanese
melbourne
melchiorre
mele
meletare
meli
melilla
melissa
melito
mella
melune
melzi
membre
membri
memoria
memorial
memoriale
memorie
men
mena
menate
mende
mendre
mene
meninas
menistre
meno
mense
mensile
mensole
mente
mentre
menzanotte
menzione
mercande
mercandile
mercate
mercato
mercator
merce
mercenarie
mercenasco
mercrudi
mercurie
mercurio
meridiane
meridionale
meridione
meridionele
merite
merlate
merlature
merle
merrill
mesagne
mesckulanze
mese
meseta
mesopotamie
messape
messapece
messapeche
messapi
messapica
messapiche
messapico
messe
messecane
messeche
messene
messeniche
messenie
messer
messicane
messiche
messico
messina
mesura
mesurate
mesurazione
mesure
met
meta
metafore
metalle
metalleche
metaponto
metate
metauro
mete
meteo
meteorologgeche
metode
metodio
metre
metri
metriche
metro
metropole
metropoli
metropolitan
metropolitana
metropolitane
metropule
metropuletane
metroroma
mette
mettenne
mettere
metterene
metti
meugliano
mexico
mez
mezze
mezzenile
mezzo
mezzoggiorne
mezzogiorne
mezzogiorno
mf
mg
mh
mhz
mi
mia
mica
micene
michael
michail
michel
michela
michelagnoli
michelangele
michelangelo
michele
michelle
michigan
micronesia
micronesie
microsoft
microstate
midece
mie
miele
mietta
migliaie
migliarde
miglie
miglione
migliora
migliore
migliune
migrande
migratorie
migrazione
migraziune
miguel
mihrimah
mije
mil
mila
milanese
milano
milda
mile
milena
miletare
mileto
miliardi
milione
milioni
militare
militari
militello
miliune
milizia
milizie
milka
mille
millenarie
millenne
millennie
miller
millimetre
milone
milos
minacce
minaccia
minacciate
mineme
minerale
minerarie
minerva
minervino
ming
mingardo
minghetti
minh
miniature
minime
minimum
ministere
ministero
ministre
ministry
minnesota
minoranza
minoranze
minore
minori
minosse
minsk
minuscole
minute
mio
miquelon
mira
mirabilis
mirachele
miracole
miracolose
miranda
mirante
mircea
mire
mis
mise
misere
misericordie
misse
missionarie
missione
mississippi
missouri
miste
mistere
misteriose
mistiche
misura
misure
mite
mitile
mito
mitologgeche
mitte
mittene
ml
mln
mm
mmaculata
mmaculate
mmanghe
mme
mmene
mmienze
mmre
mn
mo
mobbilita
mobile
mobutu
moda
moddi
mode
modellate
modelle
modello
modena
moderate
modern
moderna
moderne
modernita
moderno
modeste
modica
modo
modulazione
module
moenia
moglie
mohamed
mohammad
mol
moldave
moldavie
mole
molina
moline
molise
moll
molle
molliche
mollusche
molte
molti
molto
mombello
mome
momende
mompantero
mona
monace
monache
monacizzo
monaco
monarche
monarchie
monasteche
monastere
monastero
monastici
moncalieri
moncenisio
mondadori
mondagne
mondalbane
monde
mondecarle
mondedarene
mondedore
mondegnure
mondegranare
mondemesola
mondeparane
mondescagliose
mondesciardi
mondiale
mondimedievali
mondo
mondovi
monduose
monetarie
monetary
monete
monferrato
monforte
mongole
mongolia
mongolie
monica
monika
monna
monnier
monofore
monopoli
monopolie
mons
monsignor
monsignore
monsone
montagna
montagne
montaldo
montalenghe
montalto
montanaro
montanelli
monte
montebello
montecarlo
montecchie
montedoro
monteiasi
monteleone
montemesola
montenegro
monteparano
monterrone
montesano
monteu
monti
montis
montmartre
montreal
montserrat
montsoreau
monume
monumendale
monumende
monumenti
monumento
monuminde
monza
morale
morbide
more
morelli
morene
morfologgeche
morfologgije
morgan
mori
moriondo
moro
morta
mortalita
morte
morto
mosaiche
mosca
mosche
moschea
moschee
mose
mostra
mostre
mote
motele
motivaziune
motive
moto
motolese
motore
motta
motte
mottola
motu
mountains
move
movie
movime
movimende
mozambiche
mozambico
mozzette
mq
mr
mt
mu
mucche
mucha
mudelle
muderne
mue
muerte
mugghie
mugghiera
mugghiere
mugil
mugilidae
muhammad
mule
muline
mulino
multe
multietneche
multimediale
multimediali
multinazionale
multinaziunale
multiple
mumbai
mume
mumende
mundagne
mundane
mundejase
mundi
mundiale
mundo
mundone
municepaletata
municepaletate
municipal
municipale
municipaletate
municipalita
municipality
municipie
munite
munne
mura
murad
murale
murarie
murat
murate
murature
murcia
mure
murette
murge
murgese
murgia
murgiane
muri
muro
mursia
muscettola
muse
museale
museca
musecale
museche
museciste
musee
museen
musei
museo
museum
music
musica
musicale
musiciste
musique
mussolini
mustafa
mustazze
musulmana
musulmane
musulmani
mute
mutive
muttette
muveme
muzzarelle
mv
mw
my
myanmar
mz
n
na
nacional
nada
naguib
nai
nairobi
nakhon
nam
names
namib
namibia
namibie
nan
nana
nane
nanni
nap
napoleone
napoleoneche
napoli
napolitano
napule
napuletane
nardo
narrative
narrazione
narsete
nas
nasa
nasce
nascene
nascere
nascerene
nasceve
nasci
nascita
nascite
nasciu
nascosta
nase
nasse
nasser
nastre
nata
natale
natalita
natalizie
nate
nathalie
nation
national
nationale
nations
native
nativita
nato
natura
natural
naturale
naturali
naturalis
naturalisteche
naturalmende
nature
naturele
nauru
nautiche
nava
navale
navarra
navarro
navate
nave
navegabbele
navegazione
navegazzione
navi
navigabbele
navigabbile
navigande
navigatore
navigature
navigazione
navigazziune
naviglio
navy
naz
nazareth
nazionale
nazionalita
nazione
nazionele
nazioni
naziunale
naziune
naziunele
nazziste
nba
nchez
ncia
nd
nda
nde
ndeche
ndegrale
ndegrazione
ndellettuale
ndense
ndependente
ndependenze
nder
nderame
nderamende
nderattive
ndere
nderessande
nderessate
nderesse
nderesso
nderiore
nderizze
ndermedie
ndernazionale
ndernaziunale
nderne
nderpreta
nderpretate
nderre
nderrotte
nderve
ndervende
nderveni
nderviste
ndese
ndez
ndiale
ndica
ndipendente
ndipendenze
nditolate
nditulate
ndorne
ndr
ndre
ndrodotte
ndroduzione
ndruca
ndrucabbele
ndrucane
ndrucate
ndruche
ndruco
ndustriale
ndustrializzate
ndustrie
ndustrije
ne
nea
nebbie
neberg
necessariamende
necessarie
necessita
neche
necole
necropole
necropoli
neerlandese
neerlannese
nefeld
negative
neghe
negli
negozie
negramare
negri
negro
nehru
nei
nek
nel
nell
nella
nelle
nello
nelson
neme
nemice
nemiche
nemmanghe
nene
neo
neoclasseche
neoliteche
neologgisme
nepal
nepote
nera
neri
nero
nesime
nessun
net
netherlands
netium
nette
nettuno
network
neutrale
neutraletate
neva
neve
nevicate
nevis
nevose
new
news
newsletter
newton
newtoniane
nez
nfatte
nferiore
nfiltraziune
nfine
nfinite
nfirne
nflaziune
nfluende
nfluenzate
nfluenze
nflusse
nformazione
nfrastrutturale
nfrastrutture
ng
nga
ngagge
ngape
ngappucciate
ngarecate
ngareche
ngareco
ngastonate
ngazza
ngazzamende
ngazzaminde
ngazzate
nge
ngeclopedije
ngegnere
ngegnerije
ngel
nghe
nghiana
nghianate
nghiane
ngise
nglese
nglise
nglobbate
nglude
ngludene
ngluse
ngommerce
ngondrane
ngondre
ngondro
ngoronate
ngorporate
ngresse
ngroce
ngrociature
ngue
nguedde
nguiname
nguinamende
nguinate
nguisteche
ngursiune
nha
ni
nia
nic
nica
nicaragua
nicchie
niccolo
nicea
niceforo
nichelino
nichi
nico
nicola
nicolas
nicole
nicoletta
nicolini
nicolo
nicosia
nicosie
nide
nie
niende
nieuwe
niger
nigeria
nigeriane
nigerie
night
nigra
nikola
nile
nilo
nin
nina
ninde
nine
ninfa
nini
nino
nio
nipote
nisciuna
nisciune
nittis
niue
nizza
nka
nl
nn
nna
nnade
nnande
nnannde
nnanze
nne
nneche
nnene
nnere
nnijende
nnomena
nnomenate
nnomene
nnu
nnumena
nnumenate
no
noasca
nobbele
nobbile
nobbiliare
nobbilta
nobel
nobile
nobilis
nobis
noce
nocera
node
noe
noemi
noi
nola
nole
noma
nomade
nomaglio
nome
nomen
nomene
nomi
nomina
nominale
nominate
nomine
nominescion
non
nonche
none
nonese
nonne
nonostande
nonostante
nora
norah
nord
nordafricane
nordameriche
nordest
nordoccidendale
nordovest
norfolk
norma
normale
normalme
normalmende
normanne
normanni
normanno
norme
norte
north
northern
norveggese
norveggie
norvegia
nos
nosotros
nostra
nostre
nostri
nostro
not
nota
notaie
notaio
notare
notarile
notazione
note
notes
notevole
notizia
notizie
noto
notra
notre
notte
notti
notturne
nova
novalesa
novande
novara
novarese
nove
novecento
noveciende
novecinde
novella
novelle
novembre
novemmre
noventa
novgorod
novi
novo
novus
now
nozione
nozze
np
nquanne
ns
nsediamende
nstallazziune
ntaja
nte
nu
nucle
nucleare
nuclee
nucleo
nude
nue
nuestre
nueva
nueve
nuevo
nuje
nulla
nulle
num
numenate
numerazione
numere
numerece
numereche
numero
numerose
numerosi
numismateche
nuoro
nuote
nuova
nuovamende
nuove
nuovi
nuovo
nuphar
nute
nuttate
nuvole
nuwas
nvase
nvasiune
nvasure
nvece
nvendate
nvernale
nverne
nvestime
nvestite
nvi
nvirne
ny
nymphaea
nze
nzeccate
nzediame
nzediamende
nzediamiende
nzediaminde
nzegna
nzegnande
nzegnate
nzegne
nzerite
nzette
nziccate
nzieme
nzign
nzigne
nzime
nzippa
nzippamende
nzippane
nzippate
nzippe
nzippo
nzulare
nzuramende
nzurate
nzuro
nə
o
oase
oasi
obbiettive
obblegatorie
obbleghe
obbligate
obbligatorie
obelische
obiettive
oblast
oblique
oboe
obolo
obres
occasionale
occasione
occasiune
occhi
occidendale
occidende
occidendele
occidentale
occidente
occitane
occupa
occupanne
occuparene
occupate
occupazione
occupe
occupesce
occupo
ocean
oceane
oceaneche
oceania
oceanie
oceano
ocse
od
ode
oder
odessa
odi
odia
odie
odierne
odissea
odore
odusia
oeste
of
ofande
ofanto
off
offerte
office
official
offre
offrenne
offri
offrone
oggette
oggi
ogivale
oglianico
ogliastra
oglio
ogne
ogneddune
ognessande
ogni
ognune
ogooue
ohio
oil
ois
oka
oku
ol
ola
olanda
olandese
olandesi
olanne
olannese
olbia
old
olga
oli
olimbece
olimbeche
olimbiade
olimbiche
olimpia
olimpiade
olio
oliva
olivares
olivete
oliveto
olmedo
oloferne
olona
olschki
oltre
oltremare
olympic
om
omagge
oman
omar
omayyade
ombra
ombre
omeriche
omero
omini
ominide
omme
ommene
omo
omonema
omoneme
omonima
omonime
on
once
onda
ondate
onde
one
online
onlus
only
onna
onne
onofrio
onora
onorate
onore
onorifeche
onsultate
ontario
onu
op
opec
open
opera
operaie
operane
operate
operativa
operative
operazione
operaziune
operazziune
opere
operisteche
opinione
opinioni
opoldville
opportunita
opposizione
opposiziune
opposte
oppure
opus
opuscole
or
ora
oracole
oracolo
orale
oramai
oramaie
oramaije
oramaje
orarije
oratorie
orazio
orba
orbassano
orbis
orbite
orchester
orchestre
ordenate
ordene
ordeno
order
ordinamende
ordinanze
ordinarie
ordinate
ordine
ordini
ore
oreste
org
organe
organiche
organisme
organization
organizza
organizzate
organizzazione
organizzaziune
organizzazzione
organizzazziune
organizze
organizzo
orgoglie
ori
oria
orie
orienda
oriendale
oriendate
oriende
orient
oriental
orientale
oriente
origgenale
origgenariame
origgenariamende
origgenarie
origgenarije
origgenate
origgene
origginale
origginariamende
origginarie
origgine
origginele
originale
originali
originarie
origine
origini
orio
oristano
oritane
orizzondale
orizzonde
orizzondele
orlando
orle
orleans
ormai
ornamendale
ornate
oro
oromo
oronze
oronzo
orpington
orsanmichele
orsay
orse
orsini
orta
ortagge
orte
ortelius
orto
ortodossa
ortodosse
ortografia
ortografije
orze
os
osaka
osasco
osasio
oscar
osce
oscure
oslo
ospedale
ospita
ospitale
ospitate
ospitave
ospite
ospitesce
ospito
osse
osserva
osservande
osservanne
osservatore
osservatorie
osservatorije
osservatorio
osservatoriooggi
osservazione
osservaziune
ossia
ossola
ostia
ostile
ostone
ostune
ostunese
ostuni
ot
oti
otra
otrande
otranto
otre
ottagonale
ottande
ottave
ottavianelle
ottavio
ottawa
otteche
ottene
ottenute
ottiche
ottime
ottimisme
ottino
otto
ottobre
ottocento
ottoman
ottomane
ottomano
ottommre
ottone
ou
oulx
ovale
ove
over
ovest
oviedo
ovine
ovvere
ovvero
ovviamende
oxford
ozegna
p
pa
pablo
pacce
pace
pacheco
pacifeche
pacific
pacifiche
pacifico
pack
padane
paderno
padiglione
padova
padovana
padovane
padove
padre
padrone
padrune
paduano
paesagge
paesaggisteche
paese
paesi
pag
pagane
pagano
page
pagene
pages
pagg
pagina
pagine
pai
paiesere
paisagge
paise
paja
pajame
pajamende
pajate
paje
pajesere
pakistan
pakistane
pala
palacio
palagianello
palagiano
palasciane
palascianidde
palascianise
palatale
palatalizzate
palatine
palau
palazze
palazzette
palazzo
palche
palcosceneche
pale
paleocrestiane
paleocristiane
paleoliteche
palerme
palermo
palestine
palestinese
palestre
palie
pallacanestre
pallacanestro
pallamane
pallamano
pallavole
pallavolo
pallavvole
palma
palmas
palme
palmer
palmisano
palos
palude
paludose
palumbo
pan
panama
panarijdde
panaro
pancalieri
pancrazio
pane
pangrazie
panine
panne
pannelle
panorama
panorame
pantaleo
pantel
pantheon
panzarotte
paola
paole
paoli
paolina
paoline
paolo
papa
papale
papate
pape
papiamento
pappamusci
papua
par
para
paradise
paradiso
paragonabbele
paragrafe
paraguay
parallele
parametre
parametri
parametro
paramount
parana
paraste
paravia
parche
parchegge
parco
pardo
pare
parella
parende
parendese
parene
parete
paretone
pareve
pari
paride
parige
parigge
pariggine
parigi
parinde
paris
park
parla
parlame
parlamendare
parlamende
parlande
parlane
parlanne
parlata
parlate
parlave
parle
parlo
parma
parme
paro
parola
parole
parque
parrocchiale
parrocchie
parroche
part
parta
parte
partecipa
partecipane
partecipate
partecipazione
partecipaziune
partecipe
partecipo
partecolare
partene
partenne
partenope
partenze
parti
particelle
particolare
particolarita
particolaritate
particolarme
particolarmende
particolarmente
particolere
particulare
partire
partite
partiti
partito
partiture
partner
party
parziale
parzialmende
pas
pasano
pascal
pascale
pasche
pascia
pascole
pascoli
pasha
pasquale
passa
passagge
passaggio
passane
passanne
passaparola
passaporte
passare
passarene
passate
passato
passavane
passave
passe
passeggere
passeggiate
passione
passioniste
passo
pasta
paste
pastorale
pastore
pastorizie
patane
patate
patemisco
pater
paterne
paternostre
patin
patria
patriarcate
patriarcato
patriarche
patrick
patrie
patrimonie
patrimonije
patrizia
patrizie
patrizio
patrocinate
patrocinie
patronale
patrone
patrono
patrune
patte
patti
paul
paulette
paulina
pauline
paulo
paura
paure
pausania
pavarolo
pavel
pavese
pavia
pavimendazione
pavimende
pavli
pavone
paz
pazza
pdf
pdl
pe
peace
peacelink
peccate
peccinne
pecco
pecetto
pechere
pechine
pechino
peculiarita
pede
pedro
pegghia
pekia
pelle
pellegrinagge
pellegrine
pellegrini
pellice
pellicole
peloponnese
peloponneso
peluso
pen
penale
pendenze
pendice
pene
penelope
penguin
peni
peninsulare
penisola
penisole
penna
penne
pennetta
pensa
pensiero
pensile
penurteme
penza
penzane
penzanne
penzate
penzatore
penzavane
penzave
penze
penziere
penzo
people
pepe
peperusse
pepi
peppers
peppino
per
perce
percenduale
perche
percorre
percorrenze
percorse
percorsi
percorso
perde
perdenne
perdere
perdi
perdite
perdute
perenne
perfettamende
perfette
perfezione
performance
pergamene
perichele
pericole
pericolose
periece
perifereche
periferie
perimetre
periode
periodece
periodeche
periodiche
periodo
periplus
permane
permanende
permanenze
permesse
permette
permettene
permettenne
permettere
permetteve
permetti
perne
pero
peron
peroni
perosa
perpetue
perrero
perrone
perse
persecuzione
persecuziune
perseguitate
perseus
persia
persiane
persiche
persie
persona
personagge
personaggi
personale
personalita
persone
pertanne
pertini
pertuse
pertusio
peru
perugge
peruggine
perugia
perutelli
pesa
pesande
pesaro
pesca
pescara
pescate
pescatore
pescature
pesce
pesche
peschene
pescherecce
pesci
pesco
pese
peso
pessinetto
peste
pestilenze
petale
peter
peterburg
petra
petrarca
petre
petrolchimeche
petrolie
petrolifere
petrolio
petrolle
petrosa
petrose
petrusce
petrusine
pettole
pettore
pettoreche
pettorele
pettrice
pettura
petture
peutingeriana
peutingeriane
pezza
pezze
pg
ph
phe
phi
philip
philippe
philosophe
philosophiae
phoenix
php
phrourion
phylum
physis
pi
pia
piace
piacendine
piacentino
piacenza
piacenze
piacere
pian
piana
piande
piane
pianeggiande
pianelle
pianeta
pianete
pianezza
pianiste
piano
pianure
piattaforme
piatte
piave
piazza
piazzale
picasso
picca
picce
piccele
piccenna
piccenne
picche
picchie
piccine
piccinne
piccino
piccola
piccoli
piccolo
piceno
pico
pide
pie
piemonte
piemontese
piena
piene
pier
piero
pierre
pieta
pietra
pietre
pietro
pietroburgo
pieve
pigghia
pigghiane
pigghianne
pigghiarene
pigghiate
pigghiave
pigghie
pigghio
pigghje
pigghjete
pignate
pignatelli
pil
pilastre
pilastrine
pile
pilote
pina
pinacoteca
pinacoteche
pinasca
pindaro
pine
pinerolo
pinete
pinguine
pinna
pinne
pino
pinyin
pio
piobesi
piogge
piossasco
piovane
pipistrelle
pippo
piramide
pirate
pirenee
pirenei
pireo
pirre
pirro
pisa
pisano
pisce
piscina
piscine
pise
piste
pistoia
pitagora
pitagoreche
pitagoriche
pitcairn
pitre
pitreburghe
pittagge
pitte
pitti
pittore
pittori
pittsburgh
pittura
pitture
piu
piuttoste
piverone
pizzeche
pizziche
pizzone
pl
pla
placche
place
planet
planetarie
plata
plateau
platone
play
plaza
plebbiscite
pleistocene
plesse
plinie
plinio
plurale
plutarche
plutarco
pluviale
plymouth
pm
png
po
poche
poco
podere
poderose
podesta
podgorica
podol
poe
poema
poeme
poesia
poesie
poeta
poete
poeteche
poetesse
poetica
poetiche
poggio
poi
point
poirino
pol
pola
polacche
poland
polar
polare
pole
polemiche
polesine
poli
polibio
policarpo
policrome
policromo
polinesie
polis
polisportiva
polisportive
politece
politeche
politica
political
politicamende
politiche
politico
polittiche
polizie
polmone
polo
polonia
polonie
polska
polvere
polymorpha
pomaretto
pomerania
pomerigge
pompei
pompeo
ponde
pondefice
pondificie
ponende
ponne
ponso
pont
ponte
ponti
pontificie
pontiggia
pop
popolamende
popolane
popolare
popolari
popolarita
popolate
popolazione
popolaziune
popolazzione
popolazziune
popole
popoli
popolo
popolose
populare
populate
population
populazzione
populazziune
popule
populose
por
pordenone
port
porta
portaere
portal
portale
portane
portate
porte
portiche
portico
porto
portoghese
portoricane
portrait
portuale
portugal
pose
poseidone
positive
posiziona
posizione
posiziune
poso
posse
possebiletate
possedime
possedimende
possedute
possesse
possibbele
possibbeleta
possibbile
possibbilita
possibile
possibilita
post
posta
postale
poste
posteriore
posti
posto
potabbele
pote
potenza
potenziale
potere
potsdam
potute
pour
povere
poveri
poverta
power
poznan
pozze
pozzere
pozzo
pp
ppa
ppe
ppegghia
ppen
ppp
ppure
pr
prabhala
prado
pragelato
praghe
praje
prali
pralormo
pramollo
pranze
prarostino
prascorsano
prata
prate
pratecame
pratecamende
pratecate
prateche
praterie
pratica
praticamende
praticate
pratiche
pratiglione
prato
pre
precarie
precede
precedende
precedente
precedentemende
precedenze
precedute
precettore
precipitazione
precipitaziune
precipitazzione
precisamende
precise
precisione
precoce
precursore
predatore
prede
predecessore
predis
predominande
prefazione
preferenze
preferenziale
preferi
preferirene
preferisce
preferite
prefette
prefettizie
prefetture
prefisse
prega
pregge
preggevole
preggiate
preggie
preghe
preghiere
pregiudizie
preistoreche
preistoria
preistorie
prematuramende
premesse
premiate
premie
premier
premio
prengepa
prengepale
prengepalme
prengepalmende
prengepate
prengepesse
prengipie
prepara
preparate
preparazione
prepare
preposizione
presa
presbitere
presbiterie
prese
presenda
presendane
presendanne
presendate
presendave
presendazione
presende
presendo
presenta
presentazione
presente
presenti
presenza
presenze
presepe
presepie
presidende
presidente
presidenze
presidenziale
presidie
press
presse
pressi
pressione
presso
prestate
preste
prestigge
prestiggiose
prestite
presto
presunde
prete
pretese
pretoria
prettamende
prevale
prevalendemende
prevalenteme
prevalentemente
prevalenze
prevate
prevede
prevedevane
prevedeve
prevete
previste
previti
preziose
prezze
prezzo
pri
priatorie
priggione
priggioniere
prima
primaldo
primarie
primate
primave
primavere
primaverile
prime
primi
primitive
primo
prince
princeton
principale
principali
principalmende
principato
principe
principia
pringepe
pringipa
pringipate
pringipe
pringipesse
pringipie
priore
prisma
prisme
privata
private
prive
privete
privilegge
privileggiate
privilegi
prizze
pro
probabbele
probabbelme
probabbilmende
probabilmende
probbabbilita
probbabbilmende
probbia
probbie
probbieta
probbietarie
probbleme
probleme
problemi
procedimende
procedure
processe
processione
processo
processuele
proclamate
procopio
procuratore
procure
prodi
prodotte
prodotti
produce
producene
producere
produttive
produttore
produtture
produziona
produzione
produziune
produzzione
produzziune
prof
professionale
professore
profeta
profete
profile
profit
profondamende
profonde
profondita
profonne
profonneta
profughe
profunne
profunneta
profunnetata
profunnetate
progetti
progetto
proggettate
proggette
program
programma
programmazione
programme
progresse
progressive
proiezione
project
proloco
prolungamende
promesse
prominenze
promondorie
promosse
promotore
promozione
promuove
promuovere
pronde
pronome
pronume
pronunge
pronungiane
pronungiate
propagande
propone
proporre
proporzionale
proporzione
proporziune
propose
proposite
proposte
propria
propriame
propriamende
proprie
proprieta
proprietarie
proprietate
proprije
proprio
prosa
prose
prosegue
prospere
prosperita
prospette
prospettive
prossime
protagoniste
proteggere
proteiche
proteine
protestande
proteste
protette
protettore
protettrice
protezione
protezionecivile
protezzione
proto
prove
provenie
proveniende
provenienze
provenzale
provi
province
provincia
provinciale
provinge
provingia
provingiale
provocanne
provocate
provoco
provvede
provvedimende
provvidenze
provvisorie
provvisorio
prubble
prubbleme
prucesse
prudotte
prugessione
prugessiune
prugettate
pruggettate
pruggette
pruggetto
prussiane
prussie
prutette
prutettore
pruvate
pruvo
psicologgeche
pt
pu
pubbleca
pubblecate
pubblecazione
pubblece
pubblecetarie
pubbleche
pubbleco
pubblica
pubblicate
pubblicato
pubblicazione
pubblichete
pubblico
pubescens
public
publications
publio
publisher
publishers
publishing
pucce
pue
puerta
puerte
puerto
pugghie
pugghiese
pugghise
puggiate
puglia
pugliese
pugliesi
pulacche
pule
pulite
pulonie
pulpite
pulsano
pumedore
pummedore
punda
pundate
punde
pundegge
puneche
puniche
punjab
punk
punto
puo
pur
purce
pure
purezze
purta
purtale
purtanne
purtarene
purtate
purtavane
purtave
purto
purtone
purtroppe
purtu
purtugalle
purtughese
pusane
pusanese
pusanise
puse
putarea
pute
puteje
putende
putenne
putenze
putenziale
putere
puterene
putesse
putessere
putevane
puteve
puti
putignane
putignano
putime
putte
puttilli
putute
puveridde
puzze
py
pythi
q
qa
qasr
qatar
qin
qque
qu
qua
quacche
quacchecose
quaccheddune
quacchedune
quaderni
quaderno
quadrangolare
quadrate
quadrature
quadre
quadrete
quadrilatere
quagghia
quagghiame
quagghiamende
quagghiate
quagghie
quagliuzzo
qual
qualche
quale
qualetate
quali
qualita
qualitate
qualsiase
qualsiasi
quand
quande
quandetata
quandetate
quandita
quando
quang
quanne
quantita
quanto
quarand
quaranda
quaranta
quarta
quarte
quartier
quartiere
quartieri
quartire
quarto
quase
quasi
quassolo
quatre
quatte
quattre
quattrecendesche
quattrecinde
quattro
que
quebec
quedd
quedda
quedde
queen
quel
quella
quelle
quelli
quello
querce
quercie
quercus
quest
questa
queste
questi
questione
questiune
questo
quevedo
qui
quidde
quincinetto
quindale
quinde
quindi
quinne
quinnece
quinto
quirico
quirinale
quist
quiste
quo
quote
quotidiane
quotidiano
r
ra
rabat
rabindranath
raccolta
raccolte
racconde
racconti
racconto
raccorde
raccunde
racine
rada
rade
radek
radiazione
radicale
radice
radici
radie
radio
radioattivita
radiofoneche
rafael
rafaele
raffaele
raffaelle
raffaello
raffegurane
raffegure
raffigurande
raffigurane
raffigurate
raffigurave
raffigure
raffiguresce
raffigurescene
raffinate
raffinerie
raffo
rafforza
rafforzate
ragazzi
ragge
raggio
raggione
raggiunde
raggiunge
raggiungene
raggiungenne
raggiungere
raggiungi
raggiungibbele
raggiunse
ragione
ragu
ragusa
rai
railway
raimonde
raimondello
raimondo
ralph
rama
rambe
rame
ramo
ramoscelle
ran
rane
ranghe
ranunculaceae
rape
rapidamende
rapide
rapper
rapporte
rapporto
rapprese
rappresenda
rappresendande
rappresendane
rappresendanze
rappresendate
rappresendative
rappresendave
rappresendazione
rappresendaziune
rappresende
rappresendete
rappresenta
rappresentande
rappresentazione
raramende
rare
ras
rassegna
rassegne
rat
ratifeche
raul
ravenna
ray
razionale
raziunale
razze
razzie
rbe
rc
rche
rchie
rcs
rd
rde
re
real
reale
realisme
realiste
realizza
realizzanne
realizzate
realizzazione
realizzazzione
realizzo
realta
realtate
reano
reazione
recade
recanosce
recanoscene
recanoscere
recanosciute
recanuscemende
recanusceminde
recanusci
recanuscimende
recanusciute
recavate
recchie
rece
recende
recendemende
recenteme
recenzione
recerche
recette
receve
recevi
recevute
reche
rechiame
rechieste
reciproche
recita
recitate
recite
reconducibbele
recoperte
recopre
record
recorde
recorrenze
recorse
recostrui
recostruite
recostruzione
recostruziune
recotte
recupera
recuperate
recupere
recupero
recuperte
red
redatte
redazione
reddite
redentore
redotte
reduce
ref
refacimende
refatte
refe
refereme
refereminde
reference
referendum
referi
referimende
referirse
referisce
referiscene
referite
refettorie
refiutate
reformate
reforme
refugge
regalis
regge
reggende
reggenze
reggestrate
reggia
reggie
reggime
reggina
reggine
reggio
reggionale
reggione
reggiste
reggistrane
reggistrate
reggistrave
reggistre
reghele
regia
regime
regina
regio
region
regional
regionale
regione
regioni
regions
regnande
regne
regno
regnum
regolame
regolare
regolarmende
regolate
regolatore
regole
reguardane
reguarde
regulate
reich
reina
reinhard
reis
rek
relations
relativame
relativamende
relative
relazione
relaziune
releggione
releggiosa
releggiose
releggiuse
relevande
relevanze
religgio
religgione
religgiose
religion
religione
religioni
religiosa
religioso
reliquie
rema
remane
remanene
remanerene
remani
remase
remaste
reme
remix
remo
remote
ren
rena
renascite
renata
renate
renato
rende
rendi
rendina
rendite
rene
renne
rennene
rennovate
reno
renzo
rep
repare
reparte
reparti
reperte
repertorie
repigghiarene
repigghiate
repigghie
repigghio
repopolamende
report
reportane
reportate
reporte
repose
represse
repressione
repristinate
repubblecane
repubbleche
repubblica
repubbliche
republic
republika
repurta
repurtate
repurtete
repurto
reputazione
requagghiame
requagghiate
requalificazione
res
resale
resalene
resali
rescu
rese
research
resende
reservate
reservaziune
reserve
reservete
reshe
residende
residente
residenti
residenze
residenziale
residue
resistenze
resistere
resolte
resolvere
resorse
respette
respettivame
respettivamende
respettive
respinde
responsabbele
response
resposte
respunni
resta
restande
restaurate
restaurazione
restaure
restauro
reste
restitui
restituite
resto
restrutturate
restrutturazione
resulta
resultane
resultanne
resultate
resultave
resulte
rete
retenute
retiro
retoreche
retorne
retratte
retrovaminde
rettangolare
rettangole
rette
rettile
rettiline
rettore
returne
returno
rev
revalutazione
reve
revendecate
revendicaziune
revennecate
revisione
reviste
revolte
revoluta
revoluzione
rey
reykjavi
rez
rezze
rfi
rgame
rge
rhead
rho
rhode
ri
ria
rialate
riale
rialo
riaperte
riario
riassunde
ribbellione
ribelle
ribellione
ribezzo
ribordone
ric
rica
ricanusciute
ricardo
ricca
riccarde
riccardo
ricce
ricche
ricchezza
ricchezze
ricci
riccio
ricerca
ricerche
ricetta
ricettive
ricevute
richard
richiame
richiede
richieste
rico
riconosciuto
ricordi
ricorrenze
ricorse
ricostruzione
rida
ridotte
ridusse
riduzione
rie
riele
rielette
riendre
riesce
rieti
rievocazione
rifatte
riferimende
riferirse
riferisce
riferite
rifiute
rifiuto
riflesse
riforma
riformate
riforme
rift
rifugge
riga
riggide
righe
right
rigide
riguarde
rijale
rilevande
rilevanze
rilevate
rileve
rilieve
rim
rimaneggiate
rime
rimedie
rimende
rimini
rinaldo
rinascimendale
rinascimende
rinascimento
rinascite
rinka
rinnovate
rio
rioja
rione
ripa
ripalta
riparazione
ripetute
ripide
riprese
riproduzione
riquadre
rique
risale
risalende
risalenti
rischie
riscontrato
rise
riservate
riserve
riservete
riso
risorgimende
risorse
rispette
rispettivamende
rispetto
ristambe
ristampa
ristorande
ristrutturazione
rita
ritchie
rite
riteneve
ritenute
ritirate
ritme
rito
ritorno
ritratte
ritratto
rituale
riune
riunificazione
riunione
riunite
riuniti
riuscenne
riusci
riuscirene
riuscite
riuscive
riva
rivalba
rivale
rivalta
rivara
rivarolo
rivarossa
rive
river
rivera
rivestimende
rivestite
riviera
rivista
riviste
rivoli
rivolta
rivolte
rivoluzionarie
rivoluzione
rizze
rizzi
rizzoli
rk
rka
rm
rme
rn
rnale
rne
ro
road
roald
robassomero
robbe
robberte
robbuste
robert
roberta
roberti
roberto
robinson
rocca
roccaforte
roccaforzata
rocce
rocche
rocchetta
rocciose
rocco
rock
rodi
rodolfo
rodri
roger
rohlfs
roi
roland
roletto
rom
roma
romagna
romametropolitane
roman
romana
romance
romane
romaneche
romanesche
romani
romania
romaniche
romanie
romanizzazione
romano
romanze
romanzo
rome
romene
romolo
ronald
ronco
rondissone
ror
rora
rore
rosa
rosarie
rosario
rosas
rosate
rose
roseto
rosette
rosone
ross
rossa
rosse
rossi
rosso
rosta
rotas
rotazione
rote
rotelle
rotonde
rottaro
rotte
rotterdam
rotunne
roure
rousseau
routledge
rovigo
rovine
royal
rpe
rre
rreje
rrelogge
rrete
rrome
rs
rse
rta
rte
rtechiane
rtele
rterbuch
rtezze
ru
ruanda
rubbettino
rubbriche
rubens
rubiana
rubini
rudiae
rudolf
rue
rueglio
rugby
ruggere
ruggero
ruggiero
rule
ruma
rumane
rumanende
rumanene
rumanerene
rumanevane
rumani
rumanze
rumase
rumaste
rumene
ruole
ruolo
rupestre
rupestri
rurale
rus
russe
russia
russian
russie
russo
rusteche
ruvenate
ruvine
rv
rvule
ryom
rze
rə
s
sa
saba
sabate
sabato
sabbate
sabbia
sabbie
sabbine
sabbiose
sabina
sabino
sacce
sacche
sacchegge
saccheggiate
sacco
sacerdote
sacra
sacramende
sacre
sacrifice
sacrificie
sacro
sada
saddam
saette
safari
sagge
saggi
saggiatore
saggio
sagra
sagrate
sagre
sagrestia
sagrestie
sahara
sahariane
saie
saigon
saint
sala
salai
salamanca
salarie
salassa
salate
salbertrand
sale
salende
salendi
salendine
salentina
salentino
salento
salentoshire
salerano
salerno
salesiane
sali
salice
saline
salinella
salinetate
salinita
salisburgo
salite
salle
salome
salomone
salone
salute
salvador
salvatore
salve
salvo
salza
sam
samara
samarcanda
sammarinese
samo
samoa
samone
samuel
samurai
san
sana
sancta
sancti
sand
sanda
sande
sanderame
sandi
sandissima
sandissime
sando
sandra
sandre
sandrine
sandro
sanduarie
sanduarije
sandwich
sane
sangallo
sangano
sanghe
sangiovese
sangro
sangue
sanguinose
sanitarie
sankt
sannio
sannita
sanremo
sanscrite
sanseverino
sanskrit
sansoni
sant
santa
santde
sante
santena
santeramo
santi
santiago
santis
santo
santoro
santos
santu
santuario
sanvitese
sanvitodeinormanni
sanza
sanzio
sape
sapere
sapeve
sapiens
sapienza
sapime
sapore
sapute
sar
sara
saracene
saracine
saragozza
sarah
sarai
sarajeve
sarajevo
sarashina
sarcofaghe
sarde
sardegna
sardo
sardou
sarebbe
saro
sarva
sarvate
sas
sasanide
sassari
sasso
sassofeltrio
sassoferrato
satellitare
satellite
satire
satriano
sattame
satte
saturo
satyricon
saudi
saudita
saudite
sauze
sava
savane
save
savelletri
saverio
savese
savoia
savona
sbaglianne
sbagliate
sbandierature
sbarcate
sbarche
sbarco
sbarrame
sbn
sbocche
sbue
sbuenne
sc
sca
scacchia
scacchiame
scacchiate
scacchie
scaffa
scala
scale
scalenghe
scalinate
scalone
scambie
scamiciate
scanderbeg
scandinave
scandinavie
scandite
scanosciute
scanusciute
scappa
scarcioppole
scareche
scarfa
scarmagno
scarpate
scarse
scarte
scatigna
scavate
scave
scazate
sce
sceicche
scelte
scena
scenarie
scendifiche
scene
sceneggiatore
sceneggiature
scenna
scennare
scenne
scennene
scennere
scenografeche
scenografije
scenziate
sceografe
sceografeche
scere
scerene
scersene
scetta
scettate
scetto
sceve
scevene
sche
scheda
schede
scheme
schena
schengen
scherme
scheve
schiave
schiavitu
schiavone
schiavune
schiere
schmitt
scho
school
schwarz
sci
scia
sciardi
scie
science
sciences
sciendi
sciendifeche
sciendifiche
scientifeche
scientifico
scienza
scienze
scienziate
sciite
scimmie
scimpanze
scio
sciocane
scioche
sciolze
sciorge
scipione
scire
scirocche
scite
sciu
sciuca
sciucanne
sciucaridde
sciucate
sciucatore
sciucave
sciuco
sciue
sciuecane
sciueche
sciugne
sciugrafe
sciugrafecame
sciugrafecamende
sciugrafece
sciugrafeche
sciugrafiche
sciugrafije
sciumetreche
sciumetrije
sciurnale
sciurnaliere
sciurnaliste
sciurnate
sciurne
sciuscia
sciute
sciuvane
sciuvanile
sciuvedi
sckaffa
sckaffanne
sckaffate
sckaffe
sckaffo
scke
sckife
scogliere
scola
scolastece
scolasteche
scolastiche
scole
scolpi
scolpite
scombarse
scondre
sconfigge
sconfisse
sconfitte
sconosciuta
sconosciuto
scope
scoperta
scoperte
scoppetta
scoppie
scorce
scorpione
scorre
scorrere
scorrerie
scorte
scosse
scotano
scotland
scott
scotti
scozie
scozzese
screttore
screttrice
scretture
screvi
scri
scriba
scrisse
scritte
scritti
scritto
scrittore
scrittura
scritture
scrive
scrivere
scrivia
scriziune
scrovegni
scuagghiate
scuasciate
scuascio
scucchia
scucchiame
scucchiane
scucchie
scude
scudette
scue
scuffulamende
scuffulate
sculpi
sculpite
scultore
scultori
sculture
scumbari
scunne
scunnute
scuola
scuole
scuperte
scupi
scupre
scupri
scuprirene
scurda
scure
scurisciu
sd
sdreuse
se
sea
sean
search
sebastia
sebastian
sebastiani
sebastiano
sebbene
sec
secca
secche
seche
sechele
secolare
secoli
secolo
seconda
secondarie
seconde
secondo
seconna
seconne
securamende
securdune
secure
securezze
sede
sedile
sedime
sefardite
sefarditi
segge
seggi
segnala
segnalate
segnale
segne
segnefeca
segnefecate
segnefecative
segnefecave
segnefeche
segnifica
segno
segnore
segovia
segretarie
segrete
segreterije
segreti
seguace
segue
seguende
seguene
seguenne
seguente
segui
seguirene
seguite
seguito
seguone
sehcele
sei
seicendesche
seiciende
seicinde
seie
seine
selce
sele
selected
selezione
selgiuchide
selim
sellerio
selva
selvagge
selvateche
selvatiche
selve
sembe
semblece
semblice
sembliceme
semblicemende
semblicita
semblifecate
semblificate
sembre
seme
semeraro
semi
semicircolare
seminarie
semplicemende
sempre
sen
senate
senato
senatore
sende
sendenze
sendi
sendiere
sendimende
sendute
sene
senegal
senna
sense
sensi
sentenza
sentenze
senza
senzacolonne
senze
seoul
separate
separazione
separe
sepolcrale
sepolcre
sepolcro
sepolte
sepolture
september
sequenze
ser
sera
serate
serbe
serbia
serbie
sere
serena
serene
serge
sergej
sergio
serie
serino
serio
serpende
serra
serranidae
serranove
serranus
serravalle
serre
serrone
serve
servene
servi
serviane
service
servite
servitore
servivane
servive
servizi
servizie
servizio
servizzie
sesia
sessande
sesse
sessuale
seste
sesto
sestriere
set
seta
sete
settande
sette
settecendesche
setteciende
settecinde
settembre
settembrini
settemmre
settendrionale
settendriunale
settentrionale
settimana
settimanale
settime
settimo
settore
setture
seul
severe
severino
sex
seychelles
sezione
seziune
sfere
sfida
sfilate
sfoce
sfociane
sfocie
sforza
sforze
sforzesco
sfrutta
sfruttame
sfruttamende
sfruttanne
sfruttate
sfumate
sfumature
sfunne
sg
sguarde
sh
sha
shabbatai
shah
shakespeare
shama
shan
shanghai
share
shari
shaw
she
shetland
shi
shke
shopping
short
show
shtml
shu
si
sia
siam
siamo
siano
siberia
siberiane
siberie
siccita
siccome
sici
sicilia
siciliana
siciliane
sicilie
siculo
sicuramende
sicurezze
sicuri
sicut
side
sidece
siderurgeche
sie
siena
sienze
sierra
sierre
sifone
sigarette
sigle
sigma
signala
signalate
signale
signate
signe
signete
signifeche
significate
significati
significative
significato
significhe
significhesce
signo
signor
signora
signore
signoria
signorie
signorile
signure
sijane
sije
sil
sila
silenzie
sillabarie
sillabe
silure
silva
silvana
silvane
silvia
silvie
silvio
sim
simbati
simbele
simbole
simboleche
simbolegge
simboleggia
sime
simeone
simile
similitudine
simmetrie
simo
simon
simona
simone
simulacre
sin
sina
sinagoghe
sinan
sinanthropus
since
sindacate
sindaci
sindaco
sindatteche
sinde
sindh
sindhu
sindome
sindone
sine
singapore
singhele
singolare
singole
sinistra
sinistre
sinnace
sinnache
sino
sinonime
sio
sione
sir
siracusa
siracuse
sire
siria
sirie
sismeche
sismiche
sismicita
sistema
sistemate
sistemateche
sistemazione
sisteme
sister
sistina
sistine
sisto
sit
site
sito
situata
situate
situazione
situaziune
siviglia
siviglie
six
sk
skagerrak
ske
ski
skopje
skyline
sl
sla
slange
slave
slm
slovacche
slovacchia
slovacchie
slovacco
slovene
slovenia
slovenie
slow
smerse
smirne
smistamende
smith
snode
so
soana
sobborghe
sobbrie
soberani
sobre
socci
soccorse
social
sociale
sociali
socialiste
socie
societa
societate
society
socio
socrate
sodalizie
soddisfa
soffiane
soffitte
sofi
sofia
sofie
sofocle
soggette
soggiorne
soglie
sogne
sogno
soja
soje
sol
sola
solare
solde
sole
solenne
solennita
soleto
solide
solimano
soliste
solitame
solitamende
solite
solito
solo
soluzione
soluziune
somalia
somalie
somiglianze
somma
somme
sommerse
sommita
son
sonate
sonature
sondagge
sonde
sondrio
sone
sonette
song
sonia
sono
sonore
sop
sope
sophia
sophie
soppresse
soppressione
sopra
soprannome
soprattute
soprattutte
soprattutto
sopravvissute
sor
sora
sorde
sore
sorge
sorgende
soriano
sormondate
sorprese
sorte
sospenzione
sospese
sospette
sostandive
sostanze
sostanziale
sostanzialmende
soste
sostegne
sostene
sostenitore
sosteniture
sostenute
sostitui
sostituite
sostituzione
sott
sotte
sotterrane
sottile
sotto
sottoline
sottomarine
sottomesse
sottomissione
sottoposte
sottospecie
sottosuole
south
southern
sove
soveria
sovieteche
sovietiche
sovrane
sovranetate
sovranita
sovrapporse
sovrapposizione
sovrapposte
sp
spa
space
spade
spagna
spagne
spagnola
spagnole
spagnolo
spagnule
spain
spalle
spalte
span
spandau
spanname
spanne
spanneme
spanneminde
spannendose
spannene
spannerone
spannerse
spannevane
spannu
spannute
spare
spari
sparisce
sparite
sparone
sparse
sparta
spartane
spartiacque
spartiate
spartite
spaziale
spazie
spazio
spazzie
specchia
specchie
specchiolle
speciale
specialita
specializzate
specialme
specialmende
specie
species
specifeche
specifiche
spedale
spediziona
spedizione
spediziune
speke
speleologico
spencer
speranza
speranze
spere
sperimendale
sperling
spese
spesse
spesso
spessore
spettachele
spettacolare
spettacole
spettatore
spettature
spezia
speziale
spezie
spezzano
spezzate
sphyraena
spiagge
spicce
spiccene
spicche
spiccia
spicciane
spiccianne
spicciare
spicciarene
spicciate
spicciave
spiccie
spicciete
spiccio
spie
spiega
spiegazione
spiegaziune
spieghe
spighe
spigole
spina
spinale
spinazzola
spinde
spine
spinelli
spingiute
spinola
spinosa
spirale
spirite
spirito
spirituale
splendide
splendore
spondane
sponde
sport
sportiva
sportive
spose
sposo
spot
spr
sprea
springer
spue
spugne
spusate
spusta
spustame
spustamende
spustarene
spustarse
spustate
spusto
sqrt
squadra
squadre
squagghiate
squale
square
squasce
squascia
squasciame
squasciarene
squasciate
sr
sri
ss
ssa
sse
sseme
ssere
ssia
st
sta
staatliche
stabbele
stabbeli
stabbelite
stabbileminde
stabbili
stabbilime
stabbilimende
stabbilirene
stabbilite
stabile
stadie
stadio
stadium
stadsdeel
stadt
staggionale
staggione
staggiune
stagione
stagnande
stagne
stalin
stalle
stambate
stambe
stame
stampa
stan
stanbul
stand
standa
standard
stande
stanghe
stanley
stanze
stanziamende
star
stat
stata
statale
state
states
stati
station
statiste
statistece
statisteche
statistica
statistical
statistiche
statistics
stato
statoids
statte
statua
statue
statuette
statunitense
statunitensi
status
statute
statuto
stavane
stave
stavene
stazione
staziune
ste
steaua
steche
stefa
stefan
stefane
stefania
stefano
stele
stella
stelle
stem
stemma
stemme
stenne
stennute
stepa
steppe
sterline
sternberg
stessa
stesse
stesso
stesure
steve
stewart
stica
stile
stilisteche
stimate
stime
stipane
stipanne
stipate
stipe
stipendie
stipo
stipulate
stirpe
stitute
sto
stoccagge
stoccolma
stoccolme
stoche
stock
stone
stonne
storecame
storecamende
storece
storeche
storia
storica
storicamende
storiche
storici
storico
storie
storiografije
stornara
story
stp
stpbrindisi
str
stra
strabo
strabone
strada
stradale
strade
stradine
strage
strambinello
strambino
strane
straniere
stranieri
straordinarie
strasciche
strate
strateggeche
strauss
stre
streaming
street
strette
stretto
strisce
stritte
strohm
strume
strumendale
strumende
struminde
struttura
strutturale
strutturate
strutture
struzione
stu
stucche
stucco
studende
studi
studia
studiane
studianne
studiate
studie
studies
studinde
studio
studios
studiose
studiuse
study
stue
stuezze
stura
stuttgart
su
sua
sub
subbete
subbi
subbite
subcontine
subcontinende
subi
subite
subito
subphylum
subreggione
subsahariane
subset
subtropicale
suburbane
succede
succedi
succedute
successe
successione
successiune
successivamende
successivamente
successive
successo
successore
sucche
succursale
sud
sudafricane
sudafriche
sudamericane
sudameriche
sudan
sudanese
suddivise
suddivisione
suddivisiune
sudest
sudoriendale
sue
suez
sufficiende
suffisse
suffrage
sugge
suggeri
suggerite
suggestive
suggetate
suggettate
suggette
suggiale
sughe
sugli
suharto
sui
suicide
suine
suje
sukarno
sul
sulame
sulamende
sulawesi
sule
sull
sulla
sulle
sultan
sultanate
sultane
sum
suma
sumana
sumanale
sumane
sumatra
summits
sun
suna
sung
sunnite
suo
suoi
suole
suone
suoni
super
supera
superane
superanne
superate
supercoppe
supere
superfice
superficiale
superficie
superiore
superiorita
superstite
superstizione
superstrade
supporte
suprana
supranate
supranesce
supranescene
supremazie
supreme
sur
surdate
surde
suriname
surrealiste
survey
sus
susa
susanna
susanne
suse
sussex
sutte
suttemarine
suve
suverchiate
sv
svalbard
svedese
sveluppa
sveluppane
sveluppate
sveluppe
sveluppo
sveva
sveve
svevia
svevie
svezie
svezzie
sviluppa
svilupparene
sviluppate
sviluppe
sviluppete
sviluppo
svizzera
svizzere
svolge
svolse
svolte
sw
swahili
swaziland
swordfish
sy
sydney
sylos
system
sz
t
ta
tabacche
tabacco
tabbacche
tabbelle
tabernacolo
table
tabula
taddei
taddeo
tag
taggelle
tagghiate
tagghie
tagiche
tagikistan
taglia
tagliamento
tagliane
taglie
tagore
tai
taino
taipei
taiwan
taja
tal
talbot
tale
talende
tali
tallinn
talsano
talvolta
tamara
tamiane
tamil
tammorre
tan
tana
tanaro
tancredi
tand
tanda
tande
tanganiche
tangenziale
tanne
tanta
tanto
tanzania
tanzanie
tappe
tar
tara
taradde
tarandate
tarande
tarandi
tarandine
tarandisme
tarandole
taranta
tarantina
tarantine
tarantino
taranto
taras
tarde
tare
tarentini
tarentum
targhe
tartare
tasse
tasso
tate
tau
tauro
tavagnasco
tavele
tavola
tavolate
tavole
tavule
taxi
taxonomic
tbilisi
tcw
te
tea
team
teatrale
teatre
teatro
tebe
tecame
teche
technology
tecneche
tecnica
tecnice
tecniche
tecnologgeche
tecnologgie
tecnologgije
tedesca
tedesche
teheran
tehran
tel
tela
telavisione
tele
telecomunicaziune
telefoneche
telefonocomune
teleradio
telescopie
televisione
televisive
temasek
temateche
temberate
temberature
tembeste
tembie
tembiette
temblare
temborale
temborane
temboraneamende
teme
tempera
tempi
tempio
templare
template
tempo
tenda
tendanne
tendarene
tendate
tendative
tende
tendenze
tene
tenende
tenenne
tenere
tenerife
teni
tenime
tennis
tenore
tensione
tensiune
tenute
tenze
teo
teodora
teodore
teodoro
teodosio
teologgie
teologhe
teoreme
teoria
teorie
ter
teramo
tere
terento
teresa
terese
termale
terme
termeche
termiche
terminal
terminale
termine
termini
terminologgije
terni
ternise
terra
terracotta
terracotte
terrae
terramote
terranova
terrarum
terrazze
terre
terreferme
terremote
terrene
terrestre
terriere
territo
territore
territori
territoriale
territorie
territorije
territorio
territory
terza
terze
terziarie
terzo
tese
tesi
tesla
tesore
tesoro
tessile
tessute
testa
testamende
testata
testate
teste
testi
testimone
testimonia
testimoniane
testimonianze
testimoniate
testimonie
testimoniescene
testo
tette
tettoneche
tevere
texas
text
tg
th
thai
thailandese
thailandie
thalassia
than
that
the
theater
theatre
theatrum
their
thiene
things
this
thomas
thurii
thyssen
ti
tiarno
tiatrale
tiatre
tiberina
tibetane
tica
ticino
tico
tiembe
tiene
tienne
tiepide
tierra
tigre
tigri
tim
timbane
timbe
time
timeline
times
timor
tin
tina
tine
tipe
tipece
tipeche
tipicamende
tipiche
tipici
tipicipuglia
tipografia
tipografica
tipografije
tipolitografije
tipologgie
tirana
tirane
tiranne
tire
tirreno
tirteo
titane
titele
title
tito
titolare
titolate
titole
titolo
tiziano
tka
tld
tn
to
tobago
tobias
toccate
tocche
today
togo
tokelau
tokyo
toledo
tolleranze
tolnay
tolomeo
tolosa
toma
tomba
tome
tommase
tommaso
tomo
tone
tonga
toni
toniche
tonnellate
tony
top
topografeche
toponeme
toponime
toponomasteche
toponomastica
tor
tora
torchiarole
tore
torinese
torino
torna
torne
torneo
toronto
torrazza
torre
torrende
torres
torrette
torrevecchia
torri
torricella
torride
torrione
torriune
tortuose
torture
torun
tosca
toscana
toscane
toste
totale
totalita
totalmende
totta
totte
tour
touring
tourism
tourne
tower
town
tp
tr
tra
trabeazione
tracce
traccia
tracciate
trachinus
trad
trade
tradiziona
tradizionale
tradizionalme
tradizionalmende
tradizione
tradizioni
tradiziunale
tradiziune
tradotte
traduce
traducere
traduci
traduttore
traduzione
traduzioni
traduziune
traffece
traffeche
traffiche
tragedia
traggedie
traghette
traiana
traiane
traiano
trainito
tram
tramandate
tramannate
trami
tramite
tramonde
trana
trane
tranguille
trani
tranne
transcontinental
transette
transite
transizione
translators
trapane
trascendende
trascritte
trascrizione
trase
trasene
trasenne
traserene
traseve
trasferi
trasferimende
trasferirene
trasferite
trasforma
trasformate
trasformazione
trasforme
trasformo
trasfurmate
trasi
traslitterazione
trasmesse
trasmette
trasmettere
trasmissione
trasmissiune
trasporte
trasporto
traspurtate
trastevere
trasu
trasute
trasversale
tratta
trattane
trattate
trattative
trattato
trattave
tratte
trausella
travaglio
travel
traversate
traversella
traves
trcb
tre
treccani
trecendesche
trecinde
tregue
treme
trend
trenda
trende
trendi
trendine
trene
trenitalia
trento
tres
trevi
trevico
treviso
tria
triangolare
tribbu
tribbune
tribbunele
tribbutarije
tribbute
tribunale
tridece
trieste
trifone
trigno
triloggie
triloggije
trina
trinidad
trinita
trionfe
tripaldi
tripoli
triste
tro
trofarello
trofeo
troia
trombe
trone
tronghe
trono
tronto
tropecale
tropicale
tropiche
troppe
trova
trove
truffe
trulle
truppe
tsu
tt
ttande
tte
ttecinde
ttene
ttere
ttole
ttre
ttrede
ttutte
ttə
tu
tua
tucca
tuccate
tue
tueste
tufe
tuje
tummase
tundre
tune
tunisia
tunisie
tunne
tuo
tur
turbine
turche
turchi
turchia
turchie
turco
ture
turi
turisme
turismo
turiste
turistece
turisteche
turistiche
turkey
turkish
turkmenistan
turks
turna
turnanne
turnarene
turnate
turnise
turno
tus
tutela
tutele
tutta
tuttavia
tuttavie
tuttavije
tutte
tutti
tuttitalia
tutto
tuum
tuvalu
tv
tvoe
two
tə
u
ua
uae
uaeinteract
uagnedde
uagnone
uagnu
uagnune
ualanze
uarde
uardie
ucayali
uche
ucraina
ucraine
udine
ue
uecchie
uecchije
uecchje
uefa
uegghie
uegghije
uemmene
ueno
uerra
uerre
uerriere
uette
uettecendesche
uetteciende
uettecinde
ueve
uffice
ufficiale
ufficiali
ufficialme
ufficialmende
ufficie
ufficio
uffisciele
uffizi
uffizie
uganda
ugento
ugo
uguaglianze
uguale
uhf
uicchibooks
uicchimedia
uicchinotizie
uicchipe
uicchipedia
uicchiquote
uicchisource
uicchispecies
uicchivoyage
uicchizionarie
uk
ul
ulan
ule
ulisse
ulive
ulivete
ulivo
ulteriormende
ultima
ultimo
ultra
uma
umana
umane
umanesimo
umanetate
umaniste
umanisteche
umanita
umanitarie
umanitate
umberte
umberto
umbre
umbria
umbrie
umide
umidita
umile
umm
un
una
und
undece
under
une
uneca
unece
uneche
unesco
ungareche
ungaro
ungherese
ungheria
ungherie
uni
unica
uniche
unico
unicode
uniforme
unija
unio
union
unione
unita
unitarie
unite
united
uniti
unito
universal
universale
universe
universele
universetate
universidad
universidade
universita
universitarie
universite
university
unnece
uno
uomini
uomo
upu
uragane
ural
urano
urban
urbana
urbane
urbanistece
urbanisteche
urbanistica
urbanizzazione
urbanizzazzione
urbano
urbe
urbino
urdu
ure
uri
url
urlarchivio
urne
urss
urtema
urtemamende
urteme
uruguay
us
usa
usate
usato
uscite
usd
use
uso
usseaux
usseglio
usted
ustedes
ut
utc
utensile
utet
utile
utilizzo
utinde
utrecht
utri
uva
uve
uzala
uzbekistan
v
va
vacande
vacanze
vacche
vado
vaduz
vagabondo
vagnande
vagnate
vagne
vaie
val
valconate
valdarno
vale
valencia
valenciana
valendine
valentia
valentin
valentina
valentino
valenzane
valenze
valerio
valgioie
vali
valide
valladolid
vallardi
vallate
valle
vallecas
valletta
valley
vallo
vallone
vallonie
valois
valor
valore
valorizzazzione
valparai
valperga
valprato
valtellina
valter
valure
valutate
valute
valva
van
vanda
vandagge
vandale
vande
vane
vangelista
vanna
vanne
vanuatu
vapore
var
varche
vare
varese
vari
varia
variabbele
variande
variante
variaziune
varie
varieta
varietate
varisella
varna
varo
varsavia
varsavie
vasari
vasce
vascechiane
vascerilieve
vasche
vasco
vase
vassalle
vasta
vaste
vatica
vatican
vaticane
vaticano
vauda
ve
vecchi
vecchia
vecchie
vecchio
vecine
vecinze
vede
vedene
vedenne
vedevane
vedi
vedove
vedute
vega
vegetale
vegetazione
vegetazzione
veggetale
veicole
vek
vela
vele
velino
vella
veloce
veloceme
velocita
veltri
venafro
venaria
venaus
vendennie
vendesime
vendette
vendite
vendo
vendre
vene
venera
veneranda
venerate
venerdi
venere
veneta
venete
veneto
venezia
veneziane
venezie
venezuela
venezuelane
venge
vengi
veni
venne
vennere
vennero
venni
vennute
venute
vera
verbale
verbania
verbano
verbe
verbo
vercellese
vercelli
verde
verdi
verdure
vere
vergine
vergini
verifeca
verifeche
verifica
verificate
verita
veritate
verlag
verna
vernate
vernoteche
vernotico
vero
verolengo
verona
veronese
veronica
veronika
verrocchio
verrua
versailles
versande
verse
version
versione
versiune
verso
verticale
vertice
vertichele
verucchio
vescove
vescovile
vescovo
vesibbele
vespucci
veste
vestigne
vestite
vestute
vetane
vete
veterane
vetere
vetonde
vette
vetture
vevi
vi
via
viadotte
viagge
viaggi
viaggiare
viaggiareinpuglia
viaggiatore
viaggie
viaggio
viale
vialfre
vianghe
viarie
vibo
vica
vicarie
vicchie
vicchije
vicchje
vice
vicende
vicente
vicentino
vicere
viche
vichinghe
vicinanze
vicine
vicinze
vico
vicole
victor
victoria
victorien
vid
vida
vide
video
vidracco
vie
viene
vienna
vienne
viennese
vietate
vietnam
vietnamite
view
vigende
vigne
vignete
vignoli
vigone
vigore
vii
viii
vije
viktor
vila
vile
vili
villa
villafranca
villagge
villaggio
villani
villanova
villanove
villar
villarbasse
villareggia
villastellone
ville
villeggiature
villette
vilnius
vince
vincent
vincenzo
vinci
vinde
vine
vinge
vingenne
vingere
vingitore
vingiute
vingole
vinicole
vino
vinovo
vio
viola
viole
violende
violenze
violeta
violine
violiniste
violino
violongelle
virbe
virde
virgilie
virgilio
virgin
virginia
virgole
virle
virtu
virtual
virtuose
virtus
virus
vis
viscenze
vische
viscilie
visconti
visibbele
visibbile
visigote
visiona
visione
visir
visita
visitare
visitate
visitatore
visitature
visite
vissute
vista
viste
visto
vistola
vistrorio
vita
vitale
vitane
vitate
vite
vitelle
viterbo
vitigne
vito
vitre
vittime
vittone
vittore
vittoria
vittorie
vittorio
viu
viuline
viva
vivace
vivaldi
vivaldiane
vivaldiani
vive
vivende
vivene
vivente
vivere
vivevane
viveve
vivo
vivono
vizie
vka
vla
vladimir
vo
vocabbolarie
vocabbolarije
vocabbole
vocabolario
vocale
vocaleche
vocali
vocazione
vocche
voce
vogghie
voi
voivodate
vol
vole
volene
volere
volga
volgare
voll
volley
volonda
volondarie
volonta
volpe
volpiano
volt
volta
voltaire
volte
volturno
volume
volumi
volute
volvera
von
vonne
vos
vosce
vosche
vosotros
vostok
vota
vote
votive
voto
vra
vrazze
vs
vu
vue
vuje
vulcane
vulcaneche
vule
vulenne
vulere
vulevane
vuleve
vuli
vulute
vuoi
vuoto
vurpe
vurta
vurtagghie
vv
vy
w
wa
wackernagel
waldo
wales
wall
wallace
wallis
walter
wan
war
was
washington
wat
water
watt
wałe
we
weather
web
webarchive
webcam
website
weddell
wellington
welwitschia
west
western
what
white
wien
wiki
wikiatlas
wikimedia
wikinotizie
wikivoyage
wilaya
wildlife
wilhelm
william
wilson
windsor
wipo
wisconsin
with
without
witton
wo
wojtyla
wolfgang
woman
women
woo
work
world
ws
wu
wuchang
wuhan
wwf
www
wycliffe
x
xavier
xi
xico
xii
xiii
xiv
xix
xixe
xls
xv
xvi
xvii
xviii
xx
xxi
xxiii
xxvii
xxviii
xxx
xxxx
y
ya
yah
yasumasa
year
years
yemen
yen
yerevan
yi
yo
yokohama
york
you
youne
young
youtube
yu
yuan
yucata
z
za
zagabrie
zaire
zambia
zamora
zanichelli
zannoni
zanzibar
zar
zara
ze
zealand
zecche
zelanda
zelande
zelanne
zeme
zen
zenone
zeppole
zere
zero
zeta
zeus
zh
zhao
zhe
zheng
zhu
zi
zia
zimbabwe
zingare
zita
zite
zm
zola
zolfe
zona
zone
zoo
zoologgeche
zquez
zu
zucchere
zuid
zumba
zumbe
zw
zze
zzie
{
|
}
~
¡
£
©
ª
«
­
°
²
³
´
·
º
»
¿
×
æ
øer
ı
ĳsselmeer
ło
ŋ
œ
ə
ɛ
ɦ
ɪ
ɲ
ʁ
ʃ
ʎ
ʣ
ʤ
ʰ
ʲ
ʾ
ʿ
ˈ
ˌ
ː
̀
́
̂
̃
̄
̆
̇
̈
̉
̊
̋
̌
̓
̔
̛
̞
̣
̦
̧
̨
̪
̮
̯
̱
͂
α
β
δ
ε
ελλα
ζ
η
θ
ι
λ
ν
ο
π
ρ
ς
σ
τα
υ
χ
ω
ϕ
в
г
да
е
ж
з
и
к
море
н
на
нас
о
с
т
твое
у
ф
х
ш
ъ
ы
ь
ю
ђ
є
ѕ
і
ј
љ
њ
ћ
џ
ґ
ғ
җ
қ
ң
ү
ұ
ҳ
һ
ә
ө
ַ
ּ
ה
ا
الا
ة
ش
م
َ
ُ
ِ
ّ
ْ
ٓ
ٔ
ٰ
ं
क
ग
त
थ
द
न
प
भ
य
र
ल
स
ा
ि
ी
ु
्
ক
ত
য
র
া
ি
্
ਿ
க
ச
த
ப
ர
ல
ா
ி
ு
ெ
்
ุ
‎
‑
–
—
‘
’
“
”
„
†
•
…
‰
′
″
⁡
€
ℓ
↑
→
↔
↷
∏
∑
−
√
∞
∫
∼
≈
⊂
⋅
⋯
③
④
⑦
⺀
⺄
⺆
⺈
⺊
⺌
⺕
⺝
⺸
⺼
⿰
⿱
⿲
⿳
⿴
⿵
⿶
⿷
⿸
⿹
⿺
⿻
〢
き
と
コ
ユ
㇁
㇂
㇄
㇇
㇈
㇉
㇓
㐁
㐄
㐅
㐌
㐫
㐬
㐭
㐮
㐱
㑒
㒵
㒸
㒼
㓁
㓞
㔾
㕛
㕣
㖾
㘝
㚅
㚇
㚔
㚘
㝉
㝡
㝴
㝵
㞋
㞢
㞷
㠩
㠭
㠯
㡀
㡭
㡿
㢲
㢴
㣇
㣺
㥯
㪅
㫄
㫐
㫒
㫺
㬅
㬎
㬥
㬰
㲋
㳄
㷠
㸒
㸚
㸦
㼌
㼲
㽞
㿟
䀠
䂞
䍃
䏍
䒑
䖍
䖒
䖝
䖵
䙴
䚻
䜌
䝿
䡛
䧹
䪞
一
丁
丂
七
丄
丅
丆
万
丈
三
上
下
丌
不
与
丏
丐
丑
专
且
丕
世
丘
丙
业
东
丞
丢
丣
两
严
並
丨
丩
个
丫
丬
中
丮
丰
丱
串
丵
丶
丷
丸
丹
为
主
丽
丿
乀
乂
乃
久
乆
乇
么
义
之
乌
乍
乎
乏
乐
乑
乔
乖
乗
乘
乙
乚
乛
乜
九
乞
也
习
乡
乳
乾
亀
亅
了
亇
予
争
事
二
亍
于
亏
亐
云
互
亓
五
井
亘
亚
亜
亞
亟
亠
亡
亢
交
亥
亦
产
亨
亩
享
京
亭
亮
亯
亰
亲
亳
亶
亷
人
亻
亼
亾
仁
今
介
仌
从
仐
仑
仒
仓
仕
他
付
仝
代
令
以
任
企
伊
伏
伐
休
会
伯
但
位
何
佘
余
作
佥
使
來
侈
侌
侖
侯
侵
便
保
俞
信
修
倉
倍
候
倠
備
僉
僕
儒
儿
兀
允
兂
元
兄
充
兆
兇
先
光
兊
克
兌
免
兑
兒
兓
兔
党
兜
兟
入
全
兩
兪
八
公
六
兮
兰
共
关
兴
兵
其
具
典
兹
兼
冀
冂
冃
冄
内
円
冈
冉
冊
冋
册
再
冎
冏
冐
冒
冓
冖
冗
冘
军
农
冝
冡
冥
冫
冬
冷
几
凡
凢
凵
凶
凷
凸
凹
出
函
凾
刀
刁
刂
刃
刄
刅
分
切
刍
刑
刕
刖
列
刘
则
初
別
利
别
到
制
刺
則
削
剌
前
剡
剽
劉
力
功
加
劦
助
劫
劳
劵
勃
勇
勉
勒
動
務
勞
勤
勹
勺
勻
勾
勿
匀
匂
包
匆
匈
匊
匋
匍
匕
化
北
匚
匝
匡
匪
匱
匸
匹
区
医
匽
匿
區
十
卂
千
卄
卅
卆
升
午
卉
半
卌
华
卑
卒
卓
单
卖
南
卜
卝
卞
占
卡
卢
卣
卤
卦
卩
卪
卬
卯
印
危
即
却
卵
卷
卸
卻
厂
厃
厄
历
厈
厉
厌
厓
厘
厚
原
厤
厥
厨
厭
厲
厶
厷
厸
去
厼
厽
县
叀
参
參
叅
又
叉
及
友
双
反
叐
发
叒
叔
叕
取
受
叚
叜
叟
口
古
句
另
叩
只
召
可
台
叱
史
右
叵
号
司
叹
吂
各
吅
合
吉
吊
吋
同
名
后
吏
向
吕
君
吝
吞
否
含
启
吳
吴
吹
吾
呂
呆
呈
告
员
呙
周
命
咅
和
咎
咠
咢
咨
咸
咼
哀
品
哉
員
哥
哲
唐
商
啇
問
啚
啬
啻
善
喜
喬
單
喿
嗇
噩
嚴
囊
囗
囘
囙
囚
四
回
囟
因
囧
囬
困
囱
囷
固
国
圂
圅
國
圍
圓
土
圡
圣
圥
在
圭
地
圶
圼
坐
坑
坒
坚
坡
坴
垂
垔
垚
埀
埋
城
域
埶
執
基
堂
堅
堆
堇
堯
塞
墨
壘
士
壬
壯
声
壳
壴
壹
壺
壽
夂
处
夅
夆
备
夊
夋
夌
复
夏
夒
夕
外
夗
夘
多
夜
夢
大
夨
天
太
夫
夬
夭
央
失
夲
头
夷
夸
夹
夻
夾
奂
奄
奇
奈
奉
奎
奏
奐
契
奓
奔
奚
奞
奠
奢
奥
奭
女
奴
奻
好
如
妄
妙
妟
妥
妻
妾
始
姑
委
姜
威
娄
婁
婴
嬰
嬴
子
孑
孔
孕
孖
字
存
孚
孛
孝
孟
季
孤
学
孫
孱
學
宀
宁
宂
它
宅
宇
守
安
宋
完
宏
宓
宗
官
定
宛
宜
宝
客
宣
室
宮
宰
害
家
容
宾
宿
寄
寅
密
富
寒
察
寧
審
寫
寬
寮
寸
对
寺
寻
寽
対
寿
封
尃
射
将
將
專
尉
尊
尋
尌
對
小
少
尒
尓
尔
尖
尗
尙
尚
尞
尢
尣
尤
尧
尨
尭
就
尸
尹
尺
尻
尼
尽
尾
尿
局
居
屈
屋
屎
屏
屑
展
屖
屚
属
屠
屡
屬
屮
屯
屰
山
屵
屾
岁
岂
岑
岡
岩
岳
岸
峯
島
崇
崑
崔
崖
崙
崩
嵬
嶲
巂
巛
川
州
巟
巠
巢
巤
工
左
巧
巨
巩
巫
差
己
已
巳
巴
巷
巸
巽
巾
巿
帀
市
布
希
帚
帛
帝
带
師
席
帶
常
干
平
年
幵
并
幷
幸
幺
幻
幼
幽
幾
广
広
庄
床
底
店
庚
府
度
庫
庭
庶
康
庸
廉
廌
廛
廣
廩
廴
延
廷
建
廾
廿
开
弁
弃
弄
弇
弋
式
弓
弔
引
弗
弘
弜
弟
弥
弦
弱
張
強
强
彊
彌
彎
彐
彑
当
彔
录
彖
彗
彡
形
彥
彦
彧
彭
彳
役
彼
往
待
律
徒
得
徙
從
復
微
徵
德
心
忄
必
忌
忍
志
忝
忠
忩
快
念
忽
忿
怀
思
怠
急
怱
恆
恒
恩
恭
息
悉
患
悤
悲
悶
惠
惡
惢
愁
愈
意
愛
感
慈
慧
慮
慶
憂
憲
應
戀
戈
戉
戊
戋
戌
戍
戎
成
我
戒
戔
或
戚
戠
戢
截
戲
戶
户
戹
戼
戾
房
所
扁
扇
手
扌
才
打
托
执
承
折
拂
拉
拜
拿
掌
推
提
摩
支
攴
攵
收
攸
改
放
政
敄
敏
敕
敖
敗
敝
敞
敢
散
敦
敫
敬
数
敷
數
斂
文
斉
斊
斗
斤
斥
斩
斬
斯
新
方
於
施
斿
旁
旋
族
无
旡
既
旣
日
旦
旧
旨
早
旬
旱
旲
时
旾
昆
昇
昌
昍
明
昏
易
昔
昗
昜
星
春
昬
是
昱
昴
昷
時
晃
晋
晏
普
景
晶
智
暑
暴
曇
曩
曰
曲
曳
更
曷
書
曹
曼
曾
替
最
朁
會
月
有
朋
服
朔
朕
朗
望
朝
木
朩
未
末
本
札
朮
术
朱
朵
朶
朿
杀
杏
村
杜
束
条
来
東
杲
杳
松
析
林
枚
果
枝
枲
枼
某
柔
查
柬
柰
柴
栗
桀
桑
桼
梁
條
梟
梨
棘
棠
棥
森
楚
業
楽
榮
樂
樊
欠
次
欣
欧
欮
欲
欶
欽
款
歆
歇
歛
止
正
此
步
武
歨
歪
歮
歯
歰
歲
歴
歷
歸
歹
歺
死
殳
段
殷
殸
殹
殺
殻
殿
毋
毌
母
每
毒
比
毕
毚
毛
毳
氏
氐
民
气
氣
水
氵
氶
氷
永
氺
氾
求
汝
汞
江
沃
沓
沙
沝
河
泉
法
波
泣
泥
泰
洛
洪
洲
活
派
流
浦
浪
浮
海
淡
淮
淸
清
渚
渠
湯
滿
漸
火
灬
灭
灰
灵
灷
炅
炎
炏
炗
炙
炭
為
烈
烏
烝
焉
焚
無
焦
焱
然
煞
熊
熏
燕
營
燮
爪
爫
爭
爯
爰
爱
爲
爵
父
爻
爽
爾
爿
片
牙
牚
牛
牜
牟
牢
牧
牪
特
牽
犀
犬
犭
犮
狂
狄
狊
独
狺
猋
猒
猪
献
獻
玄
率
玉
王
玟
玨
珎
班
琴
瑟
瑩
瓜
瓦
甘
甚
生
産
用
甫
甬
田
由
甲
申
电
甶
男
甸
甹
画
甾
畀
界
畏
畐
留
畜
畟
畢
畧
畨
番
畫
異
畱
當
畺
畾
疊
疋
疌
疑
疒
疾
癶
癸
癹
登
發
白
百
皀
皃
的
皆
皇
皋
皐
皕
皮
皷
皿
盃
盆
盇
盈
益
盍
盎
监
盒
盖
盛
盟
盡
監
盤
盧
目
直
相
盾
省
眇
眉
看
眔
眞
真
眷
眼
眾
着
睘
睪
睿
瞏
瞢
瞿
矍
矛
矞
矢
矣
知
矦
短
石
破
碎
磊
磨
示
礻
礼
祟
票
祭
禀
禁
禸
禹
禺
离
禽
禾
禿
秀
秃
秉
秋
科
秝
秦
移
稟
穀
穌
穴
究
穹
空
穿
突
窄
窒
立
竒
竜
竝
竟
章
童
竹
笑
笠
筆
等
答
箕
算
箴
節
篆
篤
篭
米
粉
粛
粟
粤
粦
粲
糞
糸
糹
系
約
納
素
索
紫
累
細
絜
絫
絲
維
綿
縣
繇
纍
纟
缶
网
罒
罔
罕
罗
罙
罡
罢
罪
署
罷
羅
羊
羌
羍
美
羔
羕
羗
羞
羡
羣
群
義
羲
羸
羽
翁
翏
習
翕
翟
翠
翼
老
耂
考
者
耆
而
耎
耑
耒
耳
耴
耶
耷
聂
聊
聖
聚
聶
聿
肀
肃
肅
肉
肖
肙
肥
肩
肯
育
肴
胃
背
胡
胥
能
脊
脩
膚
臣
臤
臧
自
臬
臭
臯
臱
至
致
臺
臼
臽
臾
臿
舀
舂
舄
與
興
舉
舌
舍
舛
舜
舞
舟
般
艮
良
色
艸
艹
艾
芒
芔
芬
芭
芮
花
芳
芺
芻
苔
苗
苟
若
苦
英
茶
茸
荅
草
荒
荣
荼
莆
莧
莫
莽
菆
菊
菐
華
菻
萬
落
葉
著
葛
董
葵
蒙
蒦
蒼
蓋
蓝
蓬
蓺
蔑
蔡
蕉
蕭
薄
薛
薦
薰
藍
藏
藥
蘭
虍
虎
虐
虒
虔
處
虖
虗
虘
虚
虛
虜
虞
虫
虽
蚤
蚩
蜀
蜜
蟲
蠡
血
行
衍
衛
衣
衤
表
衮
衰
袁
袞
褭
褱
襄
襾
西
覀
要
覃
見
規
覓
覧
親
覽
见
角
解
言
訁
訇
計
詹
語
誩
諸
讠
谷
豆
豈
豊
豐
豕
豖
豙
象
豦
豩
豪
豸
貇
貝
貞
貟
負
貢
貧
貪
貫
責
貳
貴
買
費
賁
資
賈
賏
賓
賔
賛
賞
賢
賣
質
賴
贊
贝
贡
责
贯
贲
贵
赖
赞
赤
赦
走
越
足
路
蹇
身
躬
車
軍
軎
軟
輦
车
辛
辜
辟
辥
辰
辱
農
辵
辶
边
达
过
近
连
迷
追
退
送
逆
逐
通
速
造
逢
連
逮
進
遀
遂
過
道
達
遣
適
遷
遺
邊
邑
邕
那
邦
邪
郎
部
郭
都
鄉
酉
酋
配
酓
釆
采
里
重
野
量
金
釒
銀
錢
钅
長
镸
长
門
閃
閉
開
閏
閑
閒
間
閔
閵
閻
闌
门
间
闷
阑
阜
阝
阳
阿
降
陳
隆
隊
隋
隡
隨
隱
隶
隹
隺
隻
隼
隽
难
雀
雁
集
雈
雋
雍
雐
雔
雙
雚
雜
雝
離
難
雨
雩
雪
雲
零
雷
需
霍
霜
霝
霞
霸
靈
靑
青
非
靡
面
靣
革
韋
韦
韭
韯
韱
音
頁
頃
項
須
頗
頡
頻
顛
页
風
风
飛
飞
食
飠
養
饣
首
香
馬
馮
駦
马
骨
高
髟
鬥
鬯
鬲
鬼
魚
魯
鮮
鱼
鲁
鳥
鳳
鸟
鹵
鹿
麃
麗
麥
麦
麻
黃
黄
黍
黎
黑
黒
黨
黹
黽
黾
鼎
鼓
鼠
鼻
齊
齋
齐
齒
齿
龍
龙
龜
龟
龠
龰
龱
龴
龵
龶
龷
龸
龹
者
艹
ﺍ
﻿
：
？
𠀁
𠀃
𠀆
𠀉
𠀎
𠀐
𠁁
𠁣
𠂆
𠂇
𠂈
𠂉
𠂊
𠂋
𠂎
𠂒
𠂔
𠂛
𠂡
𠂢
𠂤
𠂬
𠂭
𠂹
𠃊
𠃋
𠃌
𠃍
𠃎
𠃑
𠃓
𠃔
𠃜
𠄌
𠄎
𠄠
𠄢
𠆢
𠆥
𠇍
𠈌
𠌵
𠓜
𠔉
𠔥
𠔼
𠔽
𠔿
𠕀
𠕁
𠕋
𠘧
𠘨
𠙻
𠙼
𠚏
𠚒
𠚤
𠚪
𠣏
𠤎
𠤕
𠥓
𠦄
𠦑
𠦝
𠧒
𠧗
𠧪
𠩺
𠪚
𠫓
𠫔
𠫤
𠬛
𠬝
𠬞
𠬢
𠬤
𠬶
𠮛
𠮦
𠮷
𠯑
𠱠
𠳮
𠷎
𡈼
𡉀
𡉵
𡌥
𡍮
𡏳
𡕒
𡕩
𡕰
𡖅
𡗗
𡗜
𡘆
𡘤
𡧱
𡨄
𡩧
𡬠
𡭽
𡰣
𡰥
𡰪
𡰯
𡰱
𡷈
𡸁
𡿨
𡿩
𡿪
𡿺
𢀖
𢀛
𢀩
𢁙
𢆉
𢆰
𢆶
𢇁
𢇇
𢉖
𢌬
𢌿
𢏚
𢑑
𢑚
𢖻
𢙣
𢛳
𢦏
𢦒
𢧵
𢼄
𢾕
𣁋
𣄼
𣅀
𣅽
𣍘
𣎳
𣎵
𣏋
𣏼
𣗥
𣥂
𣥖
𣦵
𣦼
𣧄
𣪊
𣪠
𣬉
𣳾
𣶒
𤇾
𤊽
𤐫
𤓰
𤔔
𤕨
𤣩
𤰇
𤰔
𤰞
𤴓
𤴔
𤽄
𥁑
𥁕
𥃦
𥃩
𥃭
𥇡
𥑟
𥘅
𥘈
𥝢
𥫗
𥱡
𦈢
𦉪
𦉬
𦉼
𦍌
𦍒
𦎧
𦐇
𦓔
𦔮
𦘒
𦙃
𦚏
𦣝
𦣞
𦣻
𦥑
𦥔
𦥯
𦨉
𦭝
𦰩
𧆞
𧈧
𧘇
𧰨
𧴪
𧴮
𧵩
𧾷
𨸏
𨾴
𩙿
𩠐
𩫏
𩵋
𪉷
𪜀
𪟽
𪠲
𪩲
𫇦
𫔭
𫜸
𫝀
𫠣
𫠩
𫢉
𫥞
𫩏
𫩠
𫪡
𫲽
𫶧
𬀷
𬐘
𬗌
𬙙
𬛸
𬜯
𬟩
𬯁
𬴘
𬺻
𬼉
𬼖
𭀰
𭁈
𭁨
𭅰
𭑈
𭕄
𭗼
𭤨
𭥫
𭻾
𮅕
𮊿
𮍌
𮍏
𮓗
𮥼
𮧮
廾
𰀁
𰀄
𰀈
𰀉
𰀕
𰀠
𰀡
𰀢
𰀪
𰁜
𰃮
𰆊
𰆘
𰋙
𰕎
𰢴
𰧭
𰯲
a--
ab--
abbeve--
abbi--
abbitazi--
abbon--
abbre--
abis--
ac--
accl--
acco--
accu--
accum--
aci--
acqua--
ad--
adatt--
adde--
ade--
adolesce--
aeron--
af--
affi--
ag--
age--
agos--
agri--
agu--
ah--
ai--
al--
alba--
albi--
ale--
alek--
alfa--
ali--
all--
allo--
allu--
alti--
alto--
am--
ama--
ambi--
ambros--
ame--
ammini--
amministra--
an--
ana--
anato--
and--
andi--
ando--
andro--
ani--
anna--
anni--
ape--
app--
appa--
appe--
appen--
appli--
appro--
approfo--
ar--
ara--
archi--
architet--
are--
ari--
arist--
arma--
armo--
arre--
arregu--
arric--
arro--
arti--
as--
asbur--
asia--
assas--
asse--
assi--
astra--
at--
atte--
attra--
au--
auni--
aus--
aut--
auto--
av--
ava--
avi--
avv--
avve--
avvia--
avvraz--
az--
b--
ba--
baf--
bag--
bal--
ban--
bar--
bas--
basti--
bat--
bau--
bbe--
be--
bec--
bel--
ben--
bene--
ber--
bett--
bi--
bibblio--
biblio--
bio--
bizan--
bl--
bo--
bol--
bon--
bos--
bou--
br--
bra--
bre--
bri--
britt--
bru--
bu--
budd--
bunde--
bur--
burocr--
bus--
by--
c--
ca--
cag--
cal--
cala--
cali--
calli--
calv--
calza--
cam--
camm--
campag--
can--
cand--
canta--
cap--
capi--
capo--
car--
cara--
cari--
carti--
cas--
casa--
casal--
case--
castel--
casti--
cata--
cau--
caz--
cc--
ccu--
ce--
celes--
cen--
centro--
cer--
cern--
ch--
cha--
charac--
che--
chi--
chia--
cho--
ci--
cia--
cicl--
cin--
cine--
circ--
ciu--
civita--
cl--
clau--
cle--
cn--
co--
coin--
coing--
col--
coltiva--
com--
combo--
combr--
compo--
con--
condr--
condraf--
condu--
confi--
confu--
conghi--
conne--
consi--
conve--
conze--
conzerv--
conzult--
coper--
cor--
cori--
cos--
couve--
cr--
cre--
cris--
crit--
cro--
cron--
cru--
cs--
cu--
cum--
cun--
cup--
cur--
curre--
d--
da--
dam--
dan--
dar--
de--
decisam--
defe--
degra--
del--
deli--
dem--
den--
des--
desco--
destru--
dett--
di--
dia--
dida--
dif--
dife--
diffe--
differen--
dim--
dimen--
dimos--
din--
dio--
dir--
diri--
dis--
disc--
disce--
discipl--
diseg--
disl--
disp--
disponib--
dist--
dizzion--
do--
dom--
don--
donazzi--
dorm--
dos--
dow--
dr--
dra--
du--
due--
e--
ec--
ecc--
eco--
ed--
edi--
effi--
eg--
egi--
eh--
el--
ele--
elett--
eli--
elimi--
elle--
elo--
em--
emer--
emi--
en--
encycl--
end--
ende--
eng--
ep--
epi--
episc--
equazi--
equi--
er--
ere--
es--
eser--
esibbizi--
esper--
espl--
est--
et--
eu--
eur--
euro--
ev--
eva--
eve--
eviden--
ex--
expl--
f--
fa--
fal--
fanda--
fat--
fati--
faus--
fe--
feb--
femm--
fer--
ferro--
feu--
fi--
fil--
filat--
filo--
fin--
finanzi--
fisio--
fla--
fle--
fo--
fon--
fontan--
for--
fr--
fra--
fre--
fu--
fue--
g--
ga--
gaeta--
gal--
gar--
gari--
gas--
gau--
ge--
gemi--
gene--
geo--
ger--
gg--
gh--
ghe--
gi--
gia--
giaco--
gian--
gine--
ginna--
gio--
giord--
giorn--
giu--
giuri--
gl--
gnum--
go--
god--
gor--
gr--
gra--
gradu--
gratt--
gre--
grena--
gri--
gro--
gru--
gu--
guane--
gy--
h--
ha--
harm--
he--
hel--
hepa--
her--
hi--
ho--
hok--
hol--
hu--
i--
ia--
ibe--
id--
idendi--
idro--
ie--
ig--
ik--
il--
illumi--
im--
imitazi--
imme--
in--
inaccessi--
inc--
ind--
inde--
indi--
indo--
inf--
inga--
inge--
ingi--
ini--
inno--
ino--
inqui--
insedia--
insiste--
insta--
int--
intel--
inter--
inve--
inven--
io--
ir--
is--
ist--
it--
ita--
iv--
j--
ja--
jac--
jan--
jaro--
jas--
je--
ji--
jo--
joa--
ju--
just--
k--
ka--
kaf--
ke--
ken--
kha--
ki--
ko--
kon--
kr--
ku--
kw--
l--
la--
lacu--
lai--
lan--
lar--
las--
lat--
lati--
lau--
lavo--
le--
leg--
lega--
legi--
legisla--
len--
lengu--
lev--
li--
libra--
lie--
limi--
limo--
lin--
litt--
lju--
ll--
lo--
loca--
lon--
lu--
luc--
ludo--
lux--
luz--
lv--
ly--
m--
ma--
mac--
magi--
magni--
mai--
mal--
malv--
man--
mani--
mano--
map--
mar--
mas--
mate--
matt--
maz--
mb--
mba--
mbe--
mbor--
mbos--
mbra--
mc--
me--
med--
mega--
meh--
mel--
men--
mendi--
mera--
meravi--
merc--
mercat--
mesc--
messa--
mest--
meta--
mezza--
mi--
micr--
mid--
mie--
mig--
mil--
mille--
mini--
mir--
mira--
miro--
mis--
mise--
mit--
mm--
mme--
mo--
mol--
mon--
mond--
monda--
monde--
montal--
monte--
mor--
mora--
mosco--
moto--
mu--
multi--
munici--
muse--
my--
n--
na--
napol--
narc--
naut--
naz--
nazi--
naziona--
nde--
ndenzi--
nder--
ndi--
ndiv--
ndr--
ne--
neo--
net--
new--
news--
nf--
nfe--
ng--
nga--
nge--
ngondr--
ngu--
ni--
nik--
nn--
no--
nord--
notevol--
ns--
nte--
nu--
num--
nun--
nva--
nze--
o--
obbl--
oc--
octa--
od--
ode--
of--
offi--
ol--
ole--
oli--
olym--
om--
omo--
on--
ondu--
op--
oper--
oppo--
or--
ora--
orche--
ore--
org--
ornam--
oro--
os--
ossi--
osta--
osti--
ot--
otta--
otte--
ou--
p--
pa--
pag--
pai--
pal--
pala--
palo--
palpe--
pam--
pan--
pappa--
par--
para--
pare--
pas--
pasti--
patr--
pe--
pecc--
pen--
per--
peri--
perife--
periodica--
petro--
peu--
pez--
ph--
phi--
pi--
pia--
pic--
pie--
pier--
pig--
pigg--
pil--
pin--
pio--
piti--
piz--
pizzi--
pl--
pla--
ple--
po--
pol--
pole--
poli--
pon--
pop--
popul--
por--
port--
posi--
poss--
poz--
pr--
pre--
predi--
pri--
princi--
pro--
probab--
proce--
procl--
prof--
proiett--
pronu--
pronungia--
prote--
proto--
pru--
pseu--
psi--
pu--
pul--
pun--
pur--
purga--
q--
qa--
qu--
qua--
qui--
quin--
r--
ra--
radio--
raf--
raga--
raggi--
raggru--
rai--
rak--
ram--
ras--
razion--
rdo--
re--
reco--
red--
ref--
refu--
regg--
regi--
reli--
ren--
renun--
rep--
repigghi--
reprodu--
res--
reso--
restrut--
rete--
rev--
rhe--
ri--
ria--
ribbe--
ric--
rifles--
rifu--
rigu--
rilev--
rin--
rinnova--
risp--
rive--
riz--
rn--
ro--
rocca--
ros--
rosa--
roto--
rou--
ru--
s--
sa--
sacrifi--
sal--
salu--
salv--
sam--
san--
sana--
sapie--
sar--
sarco--
satur--
sbu--
sc--
sca--
scangel--
scars--
sce--
sceolo--
sch--
schi--
sci--
sciu--
scku--
sco--
scom--
scon--
scor--
scu--
scua--
se--
sec--
secu--
seg--
semi--
sen--
ser--
sera--
set--
sette--
seve--
sfi--
sfo--
sg--
sh--
she--
shqi--
si--
sie--
sig--
sik--
silve--
sim--
sin--
sir--
sk--
sl--
sme--
so--
sof--
soffe--
soft--
sog--
sol--
sola--
sop--
sopra--
sor--
sotte--
sotto--
sou--
sovra--
sp--
spa--
spea--
specia--
sperimend--
spet--
spi--
spo--
spos--
spr--
st--
sta--
stab--
stabi--
stan--
stat--
ste--
sti--
stil--
stim--
sto--
straor--
strett--
stu--
su--
sub--
success--
sud--
suf--
suici--
sun--
super--
supp--
supple--
sutte--
sv--
svet--
sy--
t--
ta--
tag--
tai--
tan--
tar--
taren--
tas--
te--
tea--
tele--
tem--
teo--
ter--
terra--
terri--
th--
thai--
the--
ti--
to--
topo--
tor--
tr--
tra--
trage--
trans--
tras--
tratt--
tre--
tri--
trit--
triv--
tro--
tsu--
tt--
tu--
tur--
tus--
tw--
u--
ua--
uard--
ue--
uffi--
uga--
ul--
un--
une--
uni--
ur--
urba--
us--
ut--
utiliz--
v--
va--
val--
var--
ve--
vei--
vel--
veli--
ven--
vence--
vend--
ver--
vera--
verte--
vesti--
vesu--
vett--
vez--
vi--
via--
vil--
vin--
vingit--
vir--
vis--
viu--
vla--
vladi--
vo--
vol--
vor--
vos--
vu--
vul--
vv--
w--
wa--
we--
whi--
wid--
wil--
wo--
x--
y--
ya--
yo--
yu--
z--
za--
zan--
ze--
zi--
zoo--
zoroas--
zu--
zum--
đ--
ɪ--
α--
δ--
ε--
λ--
ν--
πε--
στ--
в--
д--
--0
--1
--2
--3
--4
--5
--56
--6
--7
--8
--9
--944
--a
--abad
--ac
--aco
--ae
--agge
--ah
--ai
--ak
--aki
--al
--ald
--ale
--am
--ame
--amende
--an
--ana
--ane
--ano
--ante
--anza
--anze
--ar
--ard
--are
--ari
--aro
--as
--asso
--at
--ata
--ate
--ati
--atiche
--ative
--ato
--atore
--ature
--au
--azze
--azzione
--azziune
--b
--ba
--bane
--bbele
--bbilita
--bbu
--be
--bi
--bice
--bili
--bilita
--bite
--bo
--bra
--bre
--bus
--c
--ca
--cal
--cate
--ccate
--cce
--cchi
--cchio
--cci
--cco
--ce
--celli
--cento
--ch
--che
--chi
--cht
--ci
--cia
--cida
--cide
--cido
--cini
--ck
--co
--corvino
--cs
--ct
--cune
--cus
--cy
--d
--da
--dad
--dae
--dde
--ddi
--de
--dee
--deo
--dere
--deve
--di
--dia
--die
--dine
--dio
--dite
--dito
--do
--dor
--dotto
--dra
--dro
--ds
--du
--duce
--duci
--due
--dy
--e
--ea
--eca
--ece
--ed
--ee
--ef
--ega
--ei
--eira
--el
--elle
--ello
--en
--ena
--ene
--enne
--eno
--ens
--ento
--eo
--er
--ere
--eri
--ero
--ers
--es
--ese
--et
--eto
--ette
--etti
--etto
--ev
--ey
--ezze
--f
--fa
--falcone
--fe
--fetta
--ff
--ffe
--fi
--fia
--ficate
--fice
--ficia
--fico
--fie
--fo
--fone
--furt
--g
--ga
--game
--gaminde
--gat
--gate
--ge
--gece
--ger
--ges
--gge
--ggi
--ggiande
--ggianne
--ggiate
--ggie
--ggije
--ggio
--gh
--ghe
--ght
--gi
--gia
--gida
--gie
--gine
--gio
--glia
--glie
--glio
--glione
--gliune
--gna
--gnano
--gne
--gni
--gno
--go
--gonale
--gone
--gono
--gra
--grad
--grafe
--gro
--ground
--gs
--gton
--gu
--gua
--gy
--h
--ha
--he
--hele
--hi
--hia
--hie
--hje
--ho
--i
--ia
--ial
--iale
--iane
--iano
--iata
--iate
--iati
--ic
--ica
--ice
--iche
--ici
--ico
--ics
--icus
--ide
--ie
--iel
--iere
--ies
--ifica
--ige
--ii
--ij
--ija
--ije
--ik
--ike
--il
--ila
--ili
--ime
--in
--ina
--ine
--ing
--inge
--ini
--ino
--io
--ion
--ionali
--ione
--ioni
--ior
--ip
--ir
--ira
--is
--isio
--isme
--ismo
--ist
--ista
--iste
--it
--ita
--ite
--itive
--ito
--itte
--iune
--ius
--ive
--iye
--iz
--izie
--izza
--izzate
--izzazzione
--izze
--izzete
--j
--ja
--je
--k
--ka
--ke
--kh
--ki
--ko
--ks
--l
--la
--laba
--landolfo
--lare
--ld
--lda
--lde
--ldi
--ldo
--le
--lf
--lfo
--li
--lia
--liche
--lie
--lija
--lina
--lini
--lino
--lis
--lisme
--lita
--live
--lizzate
--ll
--lla
--llare
--llate
--lle
--lli
--lline
--llino
--llo
--lme
--lo
--loge
--loggie
--loggije
--loghi
--lone
--lph
--lse
--lta
--lu
--ly
--lz
--m
--ma
--man
--mate
--mbo
--me
--mende
--ment
--mente
--mento
--mer
--mi
--mia
--mico
--mide
--miende
--mile
--min
--mina
--minde
--mine
--mini
--mino
--mir
--mo
--mon
--mond
--mondi
--mont
--mps
--ms
--n
--na
--nal
--nale
--nare
--narie
--narije
--nas
--nc
--nca
--nce
--nd
--nda
--ndarije
--ndate
--ndazione
--nde
--nder
--ndi
--ndo
--ndro
--ndt
--ne
--nende
--ner
--nes
--nese
--nesi
--ng
--nga
--nge
--ngo
--ngua
--ni
--nia
--nie
--nio
--nisme
--nita
--nka
--nna
--nne
--nnese
--nni
--nno
--no
--nose
--novo
--ns
--nse
--nsione
--nt
--nta
--ntation
--nte
--nteme
--nti
--ntia
--ntina
--ntini
--ntino
--nto
--ntos
--nts
--ntu
--nu
--num
--nuo
--nuzzi
--nz
--nza
--nzano
--nze
--nzi
--nziale
--nzie
--nzio
--nziose
--nziune
--nzive
--nzo
--o
--oa
--oe
--oi
--ole
--oli
--olo
--ologica
--ome
--on
--ona
--ond
--one
--oni
--oniste
--ono
--ony
--or
--ore
--os
--osa
--ose
--ote
--ou
--ov
--p
--pa
--pate
--pe
--pi
--pite
--po
--poli
--pone
--ppo
--ps
--q
--r
--ra
--racht
--rale
--rande
--ranne
--rano
--rate
--razione
--raziune
--rbie
--rca
--rco
--rd
--rda
--rde
--rdi
--rdo
--re
--rele
--rella
--rene
--reo
--reto
--ri
--ria
--rica
--riche
--rico
--ridde
--rie
--rieta
--rije
--rin
--rina
--rini
--rino
--rio
--riore
--ris
--risi
--rizzate
--rizzazione
--rle
--rmende
--rna
--rne
--rno
--ro
--roa
--roduce
--rolo
--ron
--rone
--roni
--ros
--rotti
--rra
--rry
--rs
--rsa
--rse
--rt
--rte
--rti
--rtite
--rto
--rton
--rum
--rve
--ry
--s
--sa
--sation
--sca
--scalco
--sce
--scene
--sch
--sche
--schi
--scime
--sco
--se
--sej
--seme
--sera
--sh
--ship
--si
--sia
--sico
--sie
--sime
--sio
--siona
--sita
--sive
--sk
--sky
--sme
--so
--son
--ss
--ssa
--sse
--ssi
--ssima
--ssime
--ssione
--ssive
--sso
--st
--sta
--ste
--sti
--stici
--stico
--sto
--ston
--stre
--su
--sud
--t
--ta
--tado
--tarie
--tarije
--tata
--tate
--tati
--te
--tece
--ten
--tes
--th
--tha
--ti
--tia
--tiane
--tiche
--ties
--tio
--tion
--tions
--tis
--tiva
--tive
--tivo
--tle
--to
--toie
--tolo
--ton
--tore
--tori
--town
--tre
--tri
--trice
--ts
--tta
--tte
--tti
--ttiste
--ttive
--tto
--tu
--tudene
--tudine
--tura
--ture
--ty
--tz
--u
--uale
--ucci
--uccio
--uction
--ud
--ude
--ue
--ui
--uite
--uli
--um
--ume
--umino
--un
--une
--uose
--ur
--ura
--ure
--uro
--us
--uta
--ute
--uti
--utive
--uto
--uttive
--ux
--uziona
--v
--va
--vane
--vano
--vate
--vati
--ve
--ver
--vi
--vic
--vicoli
--vie
--vina
--vision
--vo
--vole
--vre
--w
--wa
--way
--web
--ws
--x
--y
--ya
--ye
--ys
--z
--za
--zano
--zar
--zd
--ze
--zi
--zie
--zio
--ziona
--zionale
--zionate
--zione
--zioni
--ziune
--zo
--zza
--zzate
--zzazzione
--zze
--zzi
--zzio
--zziona
--zzione
--zziune
--zzo
--ə
--ʌ
--α
--ι
--ν
--ος
--ς
--и
--ь
