!
"
#
##0
##1
##10
##11
##12
##13
##14
##15
##16
##17
##18
##19
##2
##20
##21
##22
##23
##24
##25
##26
##27
##28
##29
##3
##30
##31
##32
##33
##34
##35
##36
##37
##38
##39
##4
##40
##41
##42
##43
##44
##45
##46
##47
##48
##49
##5
##50
##51
##52
##53
##54
##55
##56
##57
##58
##59
##6
##60
##61
##62
##63
##64
##65
##66
##67
##68
##69
##7
##70
##71
##72
##73
##74
##75
##76
##77
##78
##79
##8
##80
##81
##82
##83
##84
##85
##86
##87
##88
##89
##9
##90
##91
##92
##93
##94
##95
##96
##97
##98
##99
$
%
&
'
(
)
*
+
,
-
.
/
0
00
000
001
01
0140
02
03
0362
04
0462
05
06
07
08
09
0971
1
10
100
1000
1002
1007
101
1016
102
103
1038
104
105
106
107
108
1080
1086
109
1093
1097
1098
11
110
1100
1103
111
1111
112
1126
113
114
115
116
117
1177
118
119
12
120
1200
121
122
123
124
125
126
127
128
129
13
130
131
132
133
134
135
136
137
138
139
14
140
141
142
143
144
145
146
147
148
149
15
150
1500
151
152
1526
153
154
155
156
157
158
159
16
160
1600
1606
161
162
163
164
165
166
167
168
169
17
170
1700
1705
1707
171
172
173
174
175
1757
176
1761
177
1771
178
1780
1783
179
1799
18
180
1800
1801
1803
181
1810
1815
1817
1818
1819
182
1820
1821
183
1830
1831
1834
1835
1836
1837
1838
1839
184
1840
1841
1842
1843
1844
1845
1846
1847
1848
1849
185
1850
1851
1852
1853
1854
1855
1856
1857
1858
1859
186
1860
1861
1862
1863
1864
1865
1866
1867
1868
1869
187
1870
1871
1872
1873
1874
1875
1876
1877
1878
1879
188
1880
1881
1882
1883
1884
1885
1886
1887
1888
1889
189
1890
1891
1892
1893
1894
1895
1896
1897
1898
1899
19
190
1900
1901
1902
1903
1904
1905
1906
1907
1908
1909
191
1910
1911
1912
1913
1914
1915
1916
1917
1918
1919
192
1920
1921
1922
1923
1924
1925
1926
1927
1928
1929
193
1930
1931
1932
1933
1934
1935
1936
1937
1938
1939
194
1940
1941
1942
1943
1944
1945
1946
1947
1948
1949
195
1950
1951
1952
1953
1954
1955
1956
1957
1958
1959
196
1960
1961
1962
1963
1964
1965
1966
1967
1968
1969
197
1970
1971
1972
1973
1974
1975
1976
1977
1978
1979
198
1980
1981
1982
1983
1984
1985
1986
1987
1988
1989
199
1990
1991
1992
1993
1994
1995
1996
1997
1998
1999
2
20
200
2000
2001
2002
2003
2004
2005
2006
2007
2008
2009
201
2010
2011
2012
2013
2014
2015
2016
2017
2018
2019
202
2020
2021
2022
203
204
205
206
207
208
209
21
210
211
212
213
214
215
217
219
22
220
221
222
223
224
225
226
227
228
229
23
230
2307
231
232
233
234
235
237
238
239
24
240
241
242
243
244
245
246
247
249
25
250
2500
251
252
253
255
256
257
259
26
260
261
262
263
265
266
267
269
27
270
272
273
275
28
280
282
285
29
291
293
295
297
3
30
300
3000
301
302
31
310
312
313
314
316
317
318
319
32
320
321
322
323
325
33
330
333
337
34
340
343
345
35
350
355
36
360
365
37
370
375
377
38
380
385
387
39
390
393
395
4
40
400
4000
41
415
42
420
43
4331
44
45
450
46
47
470
471
48
480
486
49
5
50
500
5000
51
52
520
521
53
54
540
55
550
56
57
58
59
6
60
600
61
62
63
64
65
650
66
67
6736
68
69
691
7
70
700
71
72
73
74
75
750
751
76
77
78
79
8
80
800
81
82
83
84
846
85
86
87
88
89
895
9
90
900
91
92
93
94
95
96
97
978
98
99
:
;
<
=
>
?
@
[
\
]
^
_
`
a
aa
aamir
aap
ab
abbas
abc
abdul
abhinav
about
above
abraham
abstract
abu
abuse
ac
academic
academy
access
accessed
according
account
achievement
across
act
acting
action
active
activist
activists
actor
actors
actress
ad
adam
adams
add
addison
address
aditi
administration
adult
advanced
advocate
ae
affairs
afghan
afghanistan
africa
african
after
again
against
agarwal
age
agency
ages
agricultural
agriculture
ahead
ahmad
ahmed
ahmedabad
aid
aids
air
airlines
airport
ajitjalandhar
aka
akademi
akbar
akhtar
akshay
al
alan
albert
album
alex
alexander
alfred
algebra
ali
alice
aligned
alive
all
allen
alliance
along
alpha
also
alternative
alumni
always
am
amar
amazon
ambassador
ambedkar
america
american
amit
among
amrita
amritsar
amsterdam
amy
an
analysis
anand
ancient
and
anderson
andhra
andrew
andrews
android
angela
angeles
animal
anita
anjali
ann
anna
anne
annie
anniversary
announced
announces
annual
another
anthology
anthony
anthropology
anti
antonio
any
app
appear
apple
applications
applied
appointed
approach
apr
april
ar
arab
arabic
archaeological
archaeology
architecture
archive
archived
archiveofge
archives
are
area
areas
arjun
army
arora
around
arrested
art
arthur
article
articles
articleshow
artist
artists
arts
arxiv
as
asha
ashok
asia
asian
asiatic
asin
asp
aspx
assam
assembly
assessment
associated
association
at
athletics
atlantic
atlas
attack
attribute
au
auction
audio
aug
august
aur
australia
australian
author
authority
authors
autobiography
available
avn
award
awarded
awardees
awards
away
b
ba
baba
baby
back
background
bad
bags
bahadur
bai
bajwa
baker
ball
ban
banarsidass
banerjee
bangalore
bangladesh
bank
bar
barbara
barcelona
base
based
basic
basketball
bassi
basu
bathinda
batting
battle
bay
bbc
bc
be
beach
beat
beautiful
beauty
became
because
become
becomes
becoming
bedi
been
before
begin
begins
begum
behind
beijing
being
bell
ben
bengal
bengali
benjamin
berkeley
berlin
bernard
best
beta
better
between
beyond
bf
bhagat
bhai
bharat
bharatiya
bhaskar
bhatia
bhatt
bhattacharya
bhunerheri
bhutan
bi
bibcode
bibliography
big
bigg
biggest
bihar
bill
billboard
billion
bin
bio
biographical
biography
biology
bird
birdlife
birds
birmingham
birth
birthday
bit
bjp
black
blackwell
blockwise
blog
blogspot
blood
bloomberg
blue
bmatrix
board
bob
bobby
body
bollywood
bombay
book
books
boost
border
born
bose
boss
boston
both
bowling
box
boxing
boy
br
brain
brand
brazil
break
breaking
breaks
breast
brian
bridge
brief
brill
bring
brings
britain
britannica
british
broadcasting
bronze
bros
brother
brothers
brown
bruce
buddhist
building
buildings
built
bulletin
burden
bureau
bus
business
but
by
c
ca
cabinet
cache
calcutta
calendar
california
call
called
calls
cambridge
came
camp
campaign
campbell
campus
can
canada
canadian
cancer
candidate
candidates
cannes
capital
captain
car
card
care
career
carl
carlos
carol
carolina
carter
case
cases
cast
caste
cat
catedral
category
cathedral
catherine
catholic
cause
causes
cbc
cbs
cd
cdc
cdot
ce
celebrate
celebrates
celebrity
cell
census
censusindia
centenary
center
centers
central
centre
centuries
century
ceo
ceremony
cf
ch
chairman
challenge
challenges
champion
champions
championship
championships
chand
chandigarh
chandra
change
changed
changes
changing
channel
chapter
character
charge
charles
charlotte
chart
charts
chatterjee
check
chef
chemical
chemistry
chennai
chicago
chief
child
childhood
children
china
chinese
choice
chopra
chris
christian
christine
christopher
chronicle
church
churches
cia
cid
cinema
citation
cite
cities
citizen
city
civil
civilization
claim
claims
claire
clark
class
classic
classical
classification
cleartrip
climate
clinical
clio
clock
close
club
cm
cms
cnn
co
coach
coast
coauthors
code
cohen
coke
cold
cole
collected
collection
collections
college
collins
colonial
color
colors
columbia
com
come
comeback
comedy
comes
comfort
coming
commentary
commission
commissioner
committee
common
commonwealth
communication
communications
communist
communities
community
companion
company
comparative
competition
complete
complex
comprehensive
computer
con
concept
concepts
concise
condition
conference
confirmed
confirms
conflict
congress
conservation
considered
consolidated
constant
constituencies
constituency
constitution
construction
contemporary
content
context
contribution
control
convention
conversation
cook
copy
core
cornell
coronavirus
corporation
corresponding
cos
could
council
countries
country
county
course
court
cover
covid
cox
crc
create
created
creation
creative
crew
cricbuzz
cricinfo
cricket
cricketarchive
cricketer
crime
criminal
crisis
critical
criticism
critics
crore
cross
crown
cs
ct
cultural
culture
cultures
cup
current
currentelections
customs
cut
cx
d
da
dagger
daily
dalit
dam
dan
dance
dancer
dancing
daniel
danish
dark
das
data
database
date
dated
dates
datta
daughter
dave
david
davis
dawn
day
days
dc
dd
ddsa
de
dead
deadline
deal
death
debate
debut
dec
deccan
december
deep
deepika
default
defence
defined
definition
degree
del
delhi
delimitation
delta
democracy
den
dennis
department
der
dera
des
desai
describing
description
design
desire
desk
despite
detail
detailed
details
dev
development
devi
dhaka
di
diabetes
diagnosis
diamond
diary
dictionary
did
didn
die
died
dies
difference
different
digital
dil
din
direct
director
directorate
directors
directory
discovery
discussion
disease
diseases
disney
disorders
display
displaystyle
distribution
district
districts
diversity
divine
division
divya
dna
dnaindia
do
doc
doctor
document
documentary
documents
does
doi
doing
domain
domestic
don
donald
dot
dots
double
douglas
dover
down
download
dq
dr
drag
drama
dream
dreams
drive
drug
du
due
duke
duo
during
dutch
dutt
dutta
dx
dynamics
dynasty
e
each
earlier
earliest
early
earth
east
eastern
ece
eci
economic
economics
economictimes
economist
economy
ed
edinburgh
edited
edition
editions
editor
editorial
editors
edmund
eds
edu
education
educational
edward
effect
effects
egypt
eight
einstein
ek
el
elected
election
elections
electoral
electric
electromagnetic
electronic
elementary
elements
elite
elizabeth
ellen
elsevier
emergency
emily
eminent
emma
emperor
empire
empty
en
encyclopaedia
encyclopedia
encyclopædia
end
energy
eng
engineering
england
english
enter
entertainment
entry
environment
environmental
epic
episode
equality
era
eric
es
esopb
espan
espn
espncricinfo
essay
essays
essential
est
established
estimates
et
etc
ethics
ethnic
etymology
eu
europa
europe
european
evans
even
evening
event
events
ever
everest
every
everything
evidence
evolution
ex
example
excellence
exchange
exclusive
executive
exhibition
exist
exp
experience
experimental
exploring
express
external
extra
eye
eyes
f
face
facebook
faces
fact
factbook
factor
facts
faculty
fair
faith
fall
false
fame
families
family
famous
fan
fans
far
farm
farmers
fashion
fast
fateh
father
fc
fe
fear
feature
featured
features
feb
february
federal
federation
feed
feel
fellow
fellows
female
feminine
feminism
feminist
festival
festivals
few
feynman
fi
fiction
field
fields
fifa
fifth
fight
fighter
fighting
figures
file
files
filled
film
filmfare
filmibeat
films
final
finally
financial
find
finding
finds
fine
fire
first
firstpost
five
flag
flight
flora
florence
florida
focus
folk
folklore
following
food
football
for
forbes
force
forced
forces
ford
foreign
forest
forgotten
form
format
former
forms
fort
forum
forward
found
foundation
foundations
founder
four
fourth
fox
fr
frac
franc
france
francis
francisco
frank
fraser
frederick
free
freedom
freeman
french
fresh
friday
friend
friends
from
front
frontline
fsb
ft
fu
full
function
fund
fundamental
further
future
g
ga
gallery
game
games
gamma
gandhi
garden
gary
gate
gautam
gay
gazette
gazetteer
gdp
ge
gender
gene
general
generation
geo
geographic
geographical
geography
geological
george
georgia
german
germany
get
gets
getting
ghosh
ghz
gibraltar
gilbert
giles
gill
girl
girls
give
given
gives
global
globe
glossary
go
goa
goal
god
goddess
goddesses
goes
going
gold
golden
good
google
gopal
gordon
got
gothic
gov
government
governor
govt
gr
grace
graduate
grammar
grand
grant
granth
gravitation
gravity
great
greater
greatest
greek
green
greenwood
gregory
grewal
gritzner
ground
group
groups
growing
growth
guardian
guide
guides
gujarat
gujarati
gulf
gupta
gurmukhifontconferter
guru
guy
h
ha
had
hai
half
hall
hamilton
han
hand
handbook
hands
hanks
hans
happy
hard
harper
harpercollins
harris
harry
harvard
harvey
haryana
has
hasan
hat
have
having
hbar
he
head
health
heart
heat
held
helen
help
henry
hep
her
herald
here
heritage
hero
heroes
herself
hi
hidden
high
higher
highest
highlights
hill
him
himachal
himalayan
himself
hina
hindi
hindu
hinduism
hindus
hindustan
hindustantimes
hip
his
historia
historians
historic
historical
history
hit
hits
hiv
hl
ho
hockey
hold
hollywood
holy
home
hong
honor
honorary
honour
honoured
honours
hope
hopkins
horror
hoshiarpur
hospital
host
hot
hotel
houghton
house
how
howard
however
hp
htm
html
http
https
hu
huffington
hugh
hum
human
hundred
hungama
hunter
husband
hussain
hyderabad
i
ian
ians
ibn
ibnlive
ic
icc
ice
icon
id
idea
ideas
identity
ideology
ie
if
iglesia
ignored
ii
iii
iit
il
illinois
illustrated
im
image
images
imdb
impact
imperial
important
in
inc
included
includes
including
independence
independent
index
india
indian
indiana
indianexpress
indians
indiatimes
indiatoday
indies
indira
individual
indo
indus
industrial
industry
infection
infectious
influence
influential
info
infobox
information
inside
insider
inspired
instagram
institute
institution
institutions
int
intelligence
interactive
international
internet
interpretation
interview
interviews
into
intoday
introduced
introduction
invalid
ipa
ipl
iran
iranian
iraq
ireland
irish
is
isbn
ishq
islam
islamic
island
islands
iso
israel
issn
issue
issues
ist
it
italian
italy
item
its
iucn
iv
j
ja
jack
jackson
jacques
jagran
jain
jaipur
jalandhar
james
jammu
jan
jane
january
japan
japanese
jason
jay
jean
jeff
jeffrey
jennifer
jeremy
jersey
jessica
jewish
jha
ji
jim
jnanpith
jo
joan
job
joe
john
johns
johnson
join
joins
joint
jon
jonathan
jones
jordan
jose
joseph
joshi
journal
journalism
journalist
journey
jp
jpg
jr
jstor
juan
judge
judith
jul
julia
july
jun
june
just
justice
justin
jyoti
k
ka
kalpana
kamal
kannada
kapoor
karachi
karan
karen
karishma
karl
karnataka
kartik
kashmir
kashmiri
kate
kaur
kavita
kb
ke
keep
keith
kelly
kenneth
kerala
kevin
key
kg
khan
khanna
ki
kids
killed
killing
kim
king
kingdom
kings
kiran
km
knot
know
knowledge
known
ko
kohli
kolkata
kong
korea
korean
krishna
kumar
l
la
lab
labor
laboratory
labour
lady
lahore
lake
lakh
lakshmi
lal
lambda
lancet
land
landscape
lane
lang
langle
language
languages
lanka
large
largest
las
last
late
later
latest
latin
launch
launched
launches
laura
law
lawrence
laws
lawyer
lay
le
lead
leader
leaders
leadership
leading
leads
league
learning
least
leave
leaves
lebanon
lecture
lectures
lee
left
legacy
legal
legend
legends
legislative
leo
les
lesbian
less
let
letter
letters
level
lewis
lgbt
lgbtq
li
liberation
libraries
library
life
lifetime
light
like
limited
linda
line
linguistics
link
links
lisa
list
listed
listen
lists
literary
literature
little
live
livemint
lives
living
ll
llc
lo
local
location
lockdown
lok
london
long
longman
look
looking
looks
lord
los
loss
lost
louis
love
low
lower
ls
ltd
lu
lucknow
ludhiana
m
ma
machine
macmillan
made
madras
madrid
magazine
magic
mahabharata
maharashtra
mail
main
maint
major
make
makes
making
malayalam
malaysia
male
malhotra
malik
man
management
manchester
mani
mann
manual
many
map
maps
mar
marathi
march
mare
margaret
mari
maria
marie
mark
market
marks
marriage
married
marshall
martin
marx
mary
mass
massachusetts
master
masters
match
matches
material
math
mathbf
mathcal
mathematical
mathematics
mathrm
mathworld
matt
matter
matthew
max
may
mayor
mb
mc
mcgraw
md
me
meaning
means
measurement
mechanics
med
medal
media
medical
medicine
medieval
meet
meeting
mehta
mein
melbourne
member
members
memoir
memoirs
memorial
memories
memory
men
mendes
menon
mental
mercury
meri
merriam
message
messier
met
meta
method
methods
metro
metropolitan
mexico
mhz
mi
michael
michelle
michigan
microsoft
mid
middle
mifflin
might
mike
military
miller
million
mind
minister
ministers
ministry
minnesota
minority
mint
minute
minutes
mirror
mirza
mishra
mismatch
miss
missing
mission
mit
mitchell
mla
mo
mobile
model
models
modern
modi
module
moga
mohammad
mohan
mojo
molecular
mom
moment
monetary
money
monica
monitor
month
monthly
moon
moore
more
morgan
morning
mortality
moscow
mosque
most
mother
motilal
motion
mount
mountain
movable
move
movement
movements
movie
movies
moving
mp
mr
mrs
ms
msn
mt
mtv
mu
much
mughal
muhammad
mukherjee
multiple
mumbai
murder
murray
muse
museo
museum
music
musical
muslim
muslims
must
my
myth
mythology
myths
n
na
nabha
nabla
nacional
nadu
name
named
names
nanak
nancy
narayan
nari
nasa
natak
nath
nation
national
nationalism
nations
native
natural
nature
nbc
nc
nd
ndia
ndian
ndtv
ne
near
need
needed
needs
neha
nehru
neil
nelson
nepal
net
netflix
netherlands
network
never
new
news
newspaper
newspapers
newton
next
nfl
ng
nh
ni
nic
nicholas
nick
nicole
night
nine
nj
nm
no
nobel
nobelprize
nominated
nominations
nominees
non
north
northern
norton
not
note
noted
notes
nov
novel
november
now
npr
nternational
nu
nuclear
number
numbers
nutrition
ny
nytimes
nz
o
obituary
observer
ocean
oclc
oct
october
odi
odisha
of
off
office
officer
official
often
oh
old
oldest
oliver
olympic
olympics
om
omega
on
once
one
oneindia
onepage
online
only
ontario
open
opening
opens
opinion
or
oral
order
org
organization
orient
oriental
origin
original
origins
orissa
os
oscar
other
others
otimes
our
out
outlook
over
overview
own
oxford
p
pa
pacific
padma
page
pages
painting
pak
pakistan
pakistani
pal
palace
palgrave
pallavi
pan
pandey
panel
panjab
panjabi
pant
paper
paperback
papers
par
para
parade
parameter
parents
paris
park
parker
parliament
parliamentary
part
partial
particle
parties
partner
parts
party
passed
passes
past
patel
path
patiala
patients
patrick
paul
pavlovic
pb
pbplanning
pbs
pdf
pe
peace
pearson
pen
penguin
people
peoples
per
perfect
performance
period
perseus
persian
person
personal
personality
perspective
perspectives
peter
pg
ph
phi
philadelphia
philip
phillaur
philosophical
philosophy
phone
photo
photos
php
phys
physical
physics
physik
physiology
pi
pib
pics
picture
pictures
pierre
pin
pink
pioneer
pittsburgh
pk
place
places
plan
planet
planning
plans
plant
plants
play
played
player
players
playing
plays
please
plus
pm
pmatrix
pmc
pmid
poem
poems
poet
poetry
poets
point
police
policy
political
politics
polls
pooja
pop
popular
population
por
porn
port
portal
portrait
portuguese
position
positive
possible
post
poster
potential
power
powerful
powers
pp
pr
practice
practices
pradesh
prakash
prakashan
prasad
pre
pregnancy
prem
premier
prentice
present
presented
president
presidential
press
prevention
price
pride
primary
prime
prince
princess
princeton
principle
principles
print
printing
prior
private
priya
priyanka
prize
pro
problem
problems
proceedings
process
producer
product
production
products
prof
professional
professor
profile
profiles
program
programme
progress
project
pronunciation
protected
protection
protest
protests
proud
provided
province
provinces
provisional
psi
psychological
psychology
pt
pti
pub
public
publication
publications
published
publisher
publishers
publishing
puchd
pune
punjab
punjabi
punjabigyan
punjabipedia
punjabitribuneonline
puraskar
puri
put
pvt
q
quad
quality
quantum
quarterly
que
queen
queer
question
questions
quits
quot
quote
r
ra
race
rachel
radiation
radical
radio
rahman
rahul
rai
rain
raj
raja
rajasthan
rajya
ram
ramesh
rana
ranbir
random
rangle
rani
ranji
ranking
rankings
rao
rape
rare
ratan
rate
ravi
ray
raymond
rd
re
read
reader
readers
reading
ready
real
reality
really
receive
receives
recent
recognition
record
records
red
reddy
rediff
ref
reference
references
refs
region
regional
regions
register
related
relations
relationship
relative
relativistic
relativity
release
released
releases
reliable
religion
religions
religious
remembering
rep
report
reported
reporter
reports
reprint
reprinted
republic
required
requires
res
research
reserve
resistance
resolution
resource
resources
response
result
results
retrieved
return
returns
reuel
reuters
rev
revealed
reveals
review
reviews
revised
revolution
revolutionary
rho
ri
rice
rich
richard
rico
right
rights
rio
rise
rising
risk
river
rivers
ro
road
robert
roberts
robin
robinson
rock
roger
rohit
role
roll
rolling
roma
roman
romance
romanesque
rome
ronald
room
roots
rose
ross
rough
round
routledge
row
roy
royal
rs
ru
rukh
rule
rules
run
runs
rural
russell
russia
russian
ruth
ryan
s
sa
saba
sabha
sacred
saeed
safety
sage
sahib
sahitya
sai
said
saint
salman
sam
same
samson
samuel
san
sana
sangeet
sangrur
sanjay
sanju
sanskrit
santa
santiago
sara
sarah
sarkar
saudi
save
say
says
sbn
sc
scale
scene
schedule
scheme
scholar
scholars
school
schools
schuster
sci
science
sciences
scientific
scientist
scientists
scorecard
scotland
scott
scottish
screen
script
scroll
se
sea
search
season
seattle
second
secret
secretary
section
security
see
seen
selected
selection
self
sen
sengupta
senior
sense
sep
september
serial
series
service
services
session
set
sets
seven
several
sex
sexual
sexuality
shah
shahid
shakti
shankar
share
shares
sharma
shawn
she
sheet
sheikh
shetty
shooter
shooting
short
shot
should
show
shows
shrek
shri
shukla
si
side
sidharth
sidhu
sify
sigma
sign
signs
sikh
sikhism
sikhs
silent
silver
simon
simple
sin
since
singapore
singer
singh
single
sinha
sir
sister
site
sites
six
size
skin
sky
small
smith
so
soccer
soccerway
social
society
sociology
software
solar
sold
some
something
son
song
songs
sonia
sons
sony
soon
soul
sound
source
sources
south
southern
soviet
space
spain
spainby
span
spanish
speak
speaker
speaking
speaks
special
species
specific
specified
spectrum
speech
speed
spin
spirit
sport
sports
spring
springer
sq
sqrt
squad
square
sri
st
stadium
staff
stage
stand
standard
stanford
stanley
star
starrer
stars
start
stat
state
statement
states
station
statistical
statisticalreport
statisticalreports
statistics
statreport
stats
status
steel
step
stephen
steve
steven
stewart
still
stone
stop
store
stories
story
street
strike
string
strong
structure
struggle
stuart
student
students
studies
studio
study
style
su
sub
subject
subscription
success
successful
such
suggested
suicide
sullivan
sultan
sum
summary
summer
summit
sun
sunday
sunil
super
support
supporting
supreme
sur
surface
surgery
survey
susan
swedish
sweet
sydney
syed
symbol
symbols
syndrome
syria
system
systematic
systems
t
ta
table
tag
tags
take
taken
takes
taking
tale
talent
tales
talk
talks
tamil
tanda
tara
tata
taylor
te
teacher
teaching
team
teams
tech
technical
technology
ted
teen
tehelka
telegraph
telegraphindia
television
tell
tellychakkar
telugu
template
temple
ten
tennis
term
terms
territories
territory
test
testing
tests
texas
text
textbook
texts
th
thailand
than
that
the
theatre
thehindu
their
them
then
thenews
theoretical
theories
theory
there
thermodynamics
these
thesis
theta
they
thing
things
think
third
this
thomas
thompson
thomson
those
thought
thousand
threatened
three
through
thumb
ti
ties
tiger
tim
time
timeline
times
timesofindia
title
tnn
to
today
together
tokyo
tom
tony
too
took
top
topic
toronto
total
tour
tourism
tournament
towards
tower
town
towns
tp
tr
track
trade
tradition
traditional
traditions
traffic
trailer
train
training
trans
transformation
transgender
translated
translation
travel
traveller
travellers
treatment
tree
trends
tribune
tribuneindia
tribute
tripathi
trophy
true
trump
trust
truth
tt
tu
turkey
turkish
turn
turned
turner
turns
tv
twentieth
twenty
twitter
two
type
u
uefa
uk
ukraine
un
unabridged
und
under
understanding
unesco
unfit
union
unit
united
units
univ
universal
universe
universities
university
unknown
unrecognized
until
up
upcoming
update
updated
updates
upon
upper
urban
urdu
url
us
usa
use
used
user
users
uses
using
ut
uttar
uttarakhand
v
va
valley
value
values
van
variants
variety
various
varma
varun
ve
vec
ved
venue
verlag
verma
version
very
veteran
vi
via
viber
vice
victims
victoria
victory
video
videos
vidhan
vidya
view
vii
vijay
village
villages
violence
virginia
virtual
virus
vision
visit
visual
vogue
voice
voices
vol
voli
volume
volumes
von
vs
w
wales
walk
walker
wall
walter
wang
want
wanted
wants
war
warren
was
washington
watch
water
wave
waves
way
wayback
we
weather
web
webopac
website
webster
wedding
week
weekend
weekly
weisstein
welcome
well
were
wesley
west
western
what
when
where
which
while
white
who
whole
whose
why
wickets
width
wife
wiki
wikimedia
wikipedia
wikisource
wild
wildlife
wiley
will
william
williams
wilson
win
windows
winner
winners
winning
wins
winter
wire
wired
wisden
wise
with
within
without
woman
women
won
wood
word
wordpress
words
work
workers
working
works
world
worlds
worldwide
worth
would
wrestling
wright
writer
writers
writing
writings
written
wrong
wwe
www
x
xbiz
xi
y
ya
yadav
yahoo
yale
year
years
yeh
yet
york
you
young
youngest
your
youth
youtube
yu
z
zealand
zee
zero
zindagi
zone
zoran
zu
{
|
}
~
£
¤
§
©
ª
«
­
®
¯
°
±
²
³
´
·
º
»
½
¿
×
æ
÷
ħ
ı
ɐ
ɑ
ɔ
ə
ɡ
ɪ
ʰ
ʲ
ʻ
ʼ
ʾ
ʿ
ˆ
ˈ
ˌ
ː
˙
̀
́
̂
̃
̄
̆
̇
̈
̉
̊
̌
̓
̔
̛
̞
̣
̥
̦
̧
̨
̪
̯
̱
̲
̸
͂
͡
α
β
γ
δ
ε
η
θ
ι
κ
λ
μ
ν
ο
π
ρ
ς
σ
τ
υ
φ
χ
ψ
ω
ϕ
ϵ
а
в
г
д
е
и
к
л
м
н
на
о
россии
с
т
у
я
і
ְ
ִ
ֶ
ַ
ָ
ּ
ד
ה
ו
ל
،
ء
ا
ب
ة
ت
ج
ح
خ
خان
د
ر
س
ص
ع
ف
ق
ك
ل
م
محمد
ن
ه
و
ي
َ
ُ
ِ
ّ
ْ
ٓ
ٔ
ٕ
ٰ
ک
ی
ے
۔
ँ
ं
ः
अ
आ
इ
ई
उ
ए
एक
ओ
और
क
कर
ख
ग
घ
च
छ
ज
झ
ञ
ट
ठ
ड
ढ
ण
त
तक
थ
द
ध
न
प
पर
फ
ब
बन
बर
भ
म
मन
मह
य
र
रक
रत
रस
रह
ल
ळ
व
वर
श
ष
स
सम
ह
़
ा
ि
ी
ु
ू
ृ
े
ै
ॉ
ो
ौ
्
ॐ
॒
।
॥
०
१
२
॰
ঁ
ং
ই
ও
ক
খ
গ
ঘ
ঙ
চ
ছ
জ
ঞ
ট
ঠ
ড
ণ
ত
থ
দ
ধ
ন
প
ফ
ব
ভ
ম
য
র
ল
শ
ষ
স
হ
়
া
ি
ী
ু
ূ
ৃ
ে
্
ৗ
ৰ
ਁ
ਂ
ਃ
ਅ
ਅਕ
ਅਕਤ
ਅਕਬਰ
ਅਕਲ
ਅਕਸ
ਅਕਸਰ
ਅਖ
ਅਖਤ
ਅਖਤਰ
ਅਖਬ
ਅਖਰ
ਅਖਵ
ਅਗ
ਅਗਨ
ਅਗਮ
ਅਗਰ
ਅਗਰਵ
ਅਗਲ
ਅਗਵ
ਅਗਸਤ
ਅਘ
ਅਚ
ਅਚਨਚ
ਅਛ
ਅਜ
ਅਜਨ
ਅਜਨਬ
ਅਜਬ
ਅਜਮ
ਅਟ
ਅਟਕ
ਅਟਲ
ਅਠ
ਅਠਵ
ਅਡ
ਅਡਲਟ
ਅਡਵ
ਅਣ
ਅਣਖ
ਅਣਗ
ਅਣਚ
ਅਣਜ
ਅਣਦ
ਅਣਪ
ਅਣਪਛ
ਅਣਵ
ਅਣਸ
ਅਣਹ
ਅਤ
ਅਤਨ
ਅਤਰ
ਅਥ
ਅਥਰ
ਅਥਲ
ਅਥਵ
ਅਦ
ਅਦਨ
ਅਦਬ
ਅਦਭ
ਅਦਰ
ਅਦਲ
ਅਦਵ
ਅਧ
ਅਨ
ਅਨਜ
ਅਨਦ
ਅਨਪੜ
ਅਨਮ
ਅਨਵ
ਅਨਵਰ
ਅਨਸ
ਅਨਹਦ
ਅਪ
ਅਪਡ
ਅਪਣ
ਅਪਨ
ਅਪਮ
ਅਪਰ
ਅਪਲ
ਅਪਵ
ਅਪਸ
ਅਫ
ਅਫਗ
ਅਫਰ
ਅਫਵ
ਅਫਸ
ਅਫਸਰ
ਅਬ
ਅਬਦ
ਅਬਰ
ਅਭ
ਅਮ
ਅਮਜ
ਅਮਨ
ਅਮਰ
ਅਮਰਜ
ਅਮਰਦ
ਅਮਲ
ਅਮਸ
ਅਯ
ਅਰ
ਅਰਕ
ਅਰਗ
ਅਰਚਨ
ਅਰਜ
ਅਰਜਨ
ਅਰਜਨਟ
ਅਰਟ
ਅਰਡ
ਅਰਥ
ਅਰਥਚ
ਅਰਥਵ
ਅਰਥਸ
ਅਰਦ
ਅਰਧ
ਅਰਨ
ਅਰਪ
ਅਰਪਰਸਨ
ਅਰਬ
ਅਰਮ
ਅਰਲ
ਅਰਵ
ਅਰਸ
ਅਰਸਤ
ਅਲ
ਅਲਕ
ਅਲਖ
ਅਲਗ
ਅਲਜ
ਅਲਜਬਰ
ਅਲਟ
ਅਲਟਰ
ਅਲਤ
ਅਲਪ
ਅਲਫ
ਅਲਬ
ਅਲਬਰਟ
ਅਲਮ
ਅਲਵ
ਅਲਵਰ
ਅਲਸ
ਅਲਹ
ਅਵ
ਅਵਚ
ਅਵਤ
ਅਵਧ
ਅਵਰ
ਅਵਸ
ਅਵਸਥ
ਅਵਸਰ
ਅਸ
ਅਸਟ
ਅਸਟਰ
ਅਸਤ
ਅਸਥ
ਅਸਧ
ਅਸਪਸ
ਅਸਫ
ਅਸਫਲ
ਅਸਫਲਤ
ਅਸਬ
ਅਸਮ
ਅਸਮਰ
ਅਸਮਰਥ
ਅਸਰ
ਅਸਰਦ
ਅਸਲ
ਅਸਵ
ਅਸਹ
ਅਹ
ਅਹਮਦ
ਅੜ
ਆ
ਆਇ
ਆਇਆ
ਆਇਤ
ਆਇਨ
ਆਇਰ
ਆਇਰਨ
ਆਇਰਲ
ਆਇਲ
ਆਇਸ
ਆਈ
ਆਈਆ
ਆਈਆਈਟ
ਆਈਏ
ਆਈਕ
ਆਈਗਨ
ਆਈਜ
ਆਈਟ
ਆਈਟਮ
ਆਈਡ
ਆਈਨ
ਆਈਨਸਟ
ਆਈਪ
ਆਈਫ
ਆਈਬ
ਆਈਲ
ਆਈਸ
ਆਈਸਲ
ਆਉ
ਆਉਟ
ਆਉਟਪ
ਆਉਣ
ਆਉਣਗ
ਆਉਦ
ਆਊ
ਆਊਟ
ਆਏ
ਆਏਗ
ਆਓ
ਆਕ
ਆਕਤ
ਆਕਰਣ
ਆਕਰਨ
ਆਕਰਸ
ਆਕਲ
ਆਕਸ
ਆਕਸਫ
ਆਕੜ
ਆਖ
ਆਖਕ
ਆਖਣ
ਆਖਦ
ਆਖਰ
ਆਖਰਕ
ਆਗ
ਆਗਤ
ਆਗਮਨ
ਆਗਰ
ਆਘਰ
ਆਚ
ਆਚਰਣ
ਆਜ
ਆਟ
ਆਟਰ
ਆਡ
ਆਣ
ਆਣਪ
ਆਣਵ
ਆਤ
ਆਤਮ
ਆਤਮਕ
ਆਤਮਕਥ
ਆਤਸ
ਆਥਣ
ਆਦ
ਆਦਤ
ਆਦਮ
ਆਦਮਪ
ਆਦਰ
ਆਦਰਸ
ਆਦਲ
ਆਧ
ਆਨ
ਆਨਕ
ਆਨਪ
ਆਨਰ
ਆਨਰਜ
ਆਨਲ
ਆਪ
ਆਪਕ
ਆਪਟ
ਆਪਣ
ਆਪਦ
ਆਪਨ
ਆਪਰ
ਆਪਸ
ਆਪਹ
ਆਫ
ਆਬ
ਆਬਜ
ਆਭ
ਆਮ
ਆਮਤ
ਆਮਦ
ਆਮਦਨ
ਆਮਲ
ਆਯ
ਆਰ
ਆਰਕ
ਆਰਕਟ
ਆਰਗ
ਆਰਚ
ਆਰਜ
ਆਰਟ
ਆਰਟਰ
ਆਰਟਸ
ਆਰਡ
ਆਰਡਰ
ਆਰਤ
ਆਰਥ
ਆਰਥਕ
ਆਰਥਣ
ਆਰਥਰ
ਆਰਨ
ਆਰਪ
ਆਰਬ
ਆਰਮ
ਆਰਵ
ਆਰਸ
ਆਲ
ਆਲਕ
ਆਲਟ
ਆਲਮ
ਆਲਮਗ
ਆਲਸ
ਆਵ
ਆਵਜ
ਆਵਣ
ਆਵਤ
ਆਵਨ
ਆਵਰਤ
ਆਵਹ
ਆਸ
ਆਸਕਰ
ਆਸਟ
ਆਸਟਰ
ਆਸਣ
ਆਸਤ
ਆਸਤਦ
ਆਸਨ
ਆਸਪ
ਆਸਮ
ਆਸਰ
ਆਹ
ਆਹਲ
ਆੜ
ਇ
ਇਆ
ਇਆਨ
ਇਉ
ਇਐ
ਇਓ
ਇਓਕ
ਇਓਟ
ਇਓਮ
ਇਓਲ
ਇਕ
ਇਕਜ
ਇਕਤ
ਇਕਦਮ
ਇਕਨ
ਇਕਬ
ਇਕਮ
ਇਕਰ
ਇਕਲ
ਇਕਵ
ਇਕਸ
ਇਕਹ
ਇਖ
ਇਗ
ਇਗਨ
ਇਚ
ਇਛ
ਇਜ
ਇਟ
ਇਟਰ
ਇਟਲ
ਇਟਸ
ਇਡ
ਇਡਰ
ਇਣ
ਇਣਕ
ਇਤ
ਇਤਨ
ਇਤਫ
ਇਤਬ
ਇਤਰ
ਇਤਹ
ਇਥ
ਇਦ
ਇਧਰ
ਇਨ
ਇਨਕ
ਇਨਕਲ
ਇਨਜ
ਇਨਡ
ਇਨਪ
ਇਨਫ
ਇਨਫਰਮ
ਇਨਰ
ਇਨਲ
ਇਨਵ
ਇਨਸ
ਇਪ
ਇਫ
ਇਬ
ਇਬਘਰ
ਇਬਟ
ਇਬਨ
ਇਬਰ
ਇਮ
ਇਮਤ
ਇਮਰ
ਇਯ
ਇਰ
ਇਰਡ
ਇਰਨ
ਇਰਫ
ਇਰਮ
ਇਰਲ
ਇਰਵ
ਇਰਸ
ਇਲ
ਇਲਜ
ਇਲਟ
ਇਲਨ
ਇਲਪ
ਇਲਮ
ਇਲਰ
ਇਵ
ਇਵਨ
ਇਸ
ਇਸਕ
ਇਸਟ
ਇਸਤ
ਇਸਤਰ
ਇਸਦ
ਇਸਨ
ਇਸਪ
ਇਸਮ
ਇਸਰ
ਇਸਲ
ਇਸਲਈ
ਇਹ
ਇਹਦ
ਇਹਨ
ਈ
ਈਅਤ
ਈਅਰ
ਈਆ
ਈਆਕਸ
ਈਏ
ਈਐ
ਈਓ
ਈਕ
ਈਕਰ
ਈਕਲ
ਈਗ
ਈਗਰ
ਈਗਲਟਨ
ਈਚ
ਈਜ
ਈਟ
ਈਟਡ
ਈਟਨ
ਈਟਰ
ਈਟਰਜ
ਈਟਲ
ਈਟਸ
ਈਡ
ਈਡਰ
ਈਥ
ਈਦ
ਈਨ
ਈਨਜ
ਈਨਮ
ਈਨਰ
ਈਨਲ
ਈਨਸ
ਈਪ
ਈਪਰ
ਈਫ
ਈਫਟ
ਈਫਲ
ਈਬ
ਈਬਰ
ਈਬਲ
ਈਮ
ਈਮਜ
ਈਮਨ
ਈਮਰ
ਈਮਸ
ਈਯ
ਈਰ
ਈਰਖ
ਈਲ
ਈਲਡ
ਈਵ
ਈਵਜ
ਈਵਰ
ਈਸ
ਈਸਟ
ਈਸਵ
ਉ
ਉਕ
ਉਕਤ
ਉਕਰ
ਉਕਸ
ਉਖ
ਉਗ
ਉਗਰ
ਉਘ
ਉਚ
ਉਛ
ਉਜ
ਉਜਰਤ
ਉਜੜ
ਉਟ
ਉਠ
ਉਠਣ
ਉਠਦ
ਉਡ
ਉਡਦ
ਉਣ
ਉਣਗ
ਉਤ
ਉਤਪ
ਉਤਪਤ
ਉਤਮ
ਉਤਰ
ਉਤਰਦ
ਉਤਰਨ
ਉਤਲ
ਉਤਸ
ਉਤਸਵ
ਉਥ
ਉਦ
ਉਦਘ
ਉਦਮ
ਉਦਯ
ਉਧ
ਉਧਰ
ਉਨ
ਉਨਕ
ਉਨਟ
ਉਪ
ਉਪਕ
ਉਪਕਰਣ
ਉਪਕਰਨ
ਉਪਗ
ਉਪਚ
ਉਪਜ
ਉਪਦ
ਉਪਨ
ਉਪਨਗਰ
ਉਪਭ
ਉਪਮ
ਉਪਮਹ
ਉਪਯ
ਉਪਰ
ਉਪਰਲ
ਉਪਲ
ਉਪਲਬਧ
ਉਪਵ
ਉਬ
ਉਭ
ਉਭਰ
ਉਭਰਦ
ਉਮ
ਉਮਰ
ਉਰ
ਉਰਦ
ਉਰਫ
ਉਰਮ
ਉਰਸ
ਉਲ
ਉਲਝ
ਉਲਝਣ
ਉਲਟ
ਉਲਨ
ਉਵ
ਉਸ
ਉਸਕ
ਉਸਤ
ਉਸਤਤ
ਉਸਦ
ਉਸਨ
ਉਸਮ
ਉਸਰ
ਉਹ
ਉਹਦ
ਉਹਨ
ਉਹਲ
ਉੜ
ਊ
ਊਆ
ਊਕ
ਊਕਲ
ਊਗ
ਊਚ
ਊਜ
ਊਟ
ਊਟਨ
ਊਟਰ
ਊਠ
ਊਡ
ਊਡਰ
ਊਣ
ਊਥ
ਊਦ
ਊਧਮ
ਊਨ
ਊਨਟ
ਊਨਲ
ਊਨਸ
ਊਪਰ
ਊਬ
ਊਮ
ਊਮਨ
ਊਮਰ
ਊਯ
ਊਰ
ਊਰਜ
ਊਰਮ
ਊਲ
ਊਸ
ਊਸਰ
ਊੜ
ਏ
ਏਅਰ
ਏਅਰਪ
ਏਅਰਲ
ਏਅਰਵ
ਏਕ
ਏਕਤ
ਏਕਲ
ਏਕੜ
ਏਗ
ਏਜ
ਏਟ
ਏਟਰ
ਏਡ
ਏਡਜ
ਏਤ
ਏਥ
ਏਦ
ਏਧਰ
ਏਨ
ਏਪ
ਏਫ
ਏਬ
ਏਬਲ
ਏਮ
ਏਰ
ਏਲ
ਏਲਨ
ਏਵ
ਏਸ
ਏਹ
ਐ
ਐਕ
ਐਕਟ
ਐਕਟਰ
ਐਕਸ
ਐਕਸਚ
ਐਕਸਟ
ਐਕਸਪ
ਐਕਸਲ
ਐਗਜ
ਐਗਰ
ਐਚ
ਐਚਡ
ਐਚਪ
ਐਜ
ਐਟ
ਐਟਮ
ਐਟਲ
ਐਡ
ਐਡਮ
ਐਡਮਜ
ਐਡਰ
ਐਡਵ
ਐਡਵਰਡ
ਐਤਵ
ਐਥ
ਐਥਲ
ਐਨ
ਐਨਏ
ਐਨਕ
ਐਨਜ
ਐਨਟ
ਐਨਟਨ
ਐਨਡ
ਐਨਬ
ਐਨਰਜ
ਐਨਸ
ਐਪ
ਐਪਰ
ਐਪਲ
ਐਪਸ
ਐਫ
ਐਫਸ
ਐਬ
ਐਮ
ਐਮਏ
ਐਮਟ
ਐਮਨ
ਐਮਪ
ਐਮਬ
ਐਮਰਜ
ਐਮਸ
ਐਰ
ਐਲ
ਐਲਗ
ਐਲਜ
ਐਲਨ
ਐਲਫ
ਐਲਬ
ਐਲਬਮ
ਐਲਬਰਟ
ਐਲਵ
ਐਵ
ਐਵਰ
ਐਸ
ਐਸਏ
ਐਸਕ
ਐਸਟ
ਐਸਟਰ
ਐਸਪ
ਐਸਸ
ਓ
ਓਇ
ਓਏ
ਓਕ
ਓਕਲ
ਓਗ
ਓਜ
ਓਟ
ਓਡ
ਓਣ
ਓਤ
ਓਥ
ਓਦ
ਓਧਰ
ਓਨ
ਓਨਟ
ਓਨਲ
ਓਪ
ਓਪਨ
ਓਪਰ
ਓਫ
ਓਬ
ਓਬਰ
ਓਮ
ਓਰ
ਓਰਲ
ਓਲ
ਓਲਡ
ਓਵ
ਓਵਰ
ਓਸ
ਓਸਟ
ਓਸਮ
ਓਹ
ਓਹਦ
ਓਹਨ
ਓਹਲ
ਓੜ
ਓੜਕ
ਔ
ਔਕੜ
ਔਖ
ਔਗ
ਔਚ
ਔਜ
ਔਟ
ਔਡ
ਔਨ
ਔਨਲ
ਔਫ
ਔਬਜ
ਔਰ
ਔਰਤ
ਔਰਥ
ਔਰਬ
ਔਲ
ਔਲਖ
ਔਸ
ਔਸਤ
ਔਸਤਨ
ਔਹ
ਕ
ਕਇ
ਕਈ
ਕਈਆ
ਕਉ
ਕਕ
ਕਖ
ਕਗ
ਕਘਰ
ਕਚ
ਕਚਰ
ਕਚਰਜ
ਕਚਹ
ਕਛ
ਕਜ
ਕਟ
ਕਟਕ
ਕਟਰ
ਕਟਲ
ਕਟਸ
ਕਠ
ਕਡ
ਕਡਫ
ਕਢ
ਕਢਣ
ਕਣ
ਕਣਕ
ਕਤ
ਕਤਰ
ਕਤਲ
ਕਤਵਰ
ਕਤਸਰ
ਕਥ
ਕਥਕ
ਕਥਨ
ਕਦ
ਕਦਮ
ਕਦਰ
ਕਧ
ਕਨ
ਕਨਜ
ਕਨਫ
ਕਨਵ
ਕਨਸ
ਕਪ
ਕਪਤ
ਕਪੜ
ਕਫ
ਕਬ
ਕਬਜ
ਕਬਰ
ਕਬਰਸਤ
ਕਬਲ
ਕਭ
ਕਮ
ਕਮਜ
ਕਮਤ
ਕਮਨ
ਕਮਰ
ਕਮਰਸ
ਕਮਲ
ਕਯ
ਕਰ
ਕਰਕ
ਕਰਗ
ਕਰਜ
ਕਰਟ
ਕਰਣ
ਕਰਤ
ਕਰਦ
ਕਰਨ
ਕਰਨਗ
ਕਰਨਲ
ਕਰਮ
ਕਰਮਚ
ਕਰਮਜ
ਕਰਮਣ
ਕਰਯ
ਕਰਲ
ਕਰਵ
ਕਰਵਰਤ
ਕਰਸ
ਕਰਹ
ਕਰੜ
ਕਲ
ਕਲਕ
ਕਲਗ
ਕਲਚਰ
ਕਲਚਰਲ
ਕਲਜ
ਕਲਟ
ਕਲਣ
ਕਲਦ
ਕਲਨ
ਕਲਪ
ਕਲਪਕ
ਕਲਪਨ
ਕਲਬ
ਕਲਮ
ਕਲਰ
ਕਲਰਕ
ਕਲਰਜ
ਕਲਸ
ਕਵ
ਕਵਰ
ਕਵਲ
ਕਸ
ਕਸਟ
ਕਸਟਮ
ਕਸਡ
ਕਸਤ
ਕਸਨ
ਕਸਪ
ਕਸਬ
ਕਸਮ
ਕਸਰ
ਕਸਰਤ
ਕਸਲ
ਕਸਵ
ਕਸਸ
ਕਹ
ਕਹਤ
ਕੜ
ਕੜਕ
ਖ
ਖਕ
ਖਗ
ਖਜ
ਖਟ
ਖਡ
ਖਣ
ਖਣਤ
ਖਣਯ
ਖਤ
ਖਤਮ
ਖਤਰ
ਖਤਰਨ
ਖਦ
ਖਨ
ਖਪ
ਖਪਤ
ਖਪਤਕ
ਖਬ
ਖਬਰ
ਖਭ
ਖਮ
ਖਮਨ
ਖਯ
ਖਰ
ਖਰਗ
ਖਰਚ
ਖਰਜ
ਖਰਤ
ਖਰਬ
ਖਰਲ
ਖਰੜ
ਖਲ
ਖਲਨ
ਖਵ
ਖਸ
ਖਸਤ
ਖਸਮ
ਖਹ
ਖੜ
ਖੜਕ
ਖੜਵ
ਗ
ਗਇਆ
ਗਈ
ਗਈਆ
ਗਊ
ਗਊਆ
ਗਏ
ਗਕ
ਗਕਤ
ਗਗ
ਗਗਨ
ਗਚ
ਗਜ
ਗਟ
ਗਟਨ
ਗਠ
ਗਠਜ
ਗਠਨ
ਗਡ
ਗਡਮ
ਗਣ
ਗਣਤ
ਗਣਨ
ਗਣਰ
ਗਤ
ਗਦ
ਗਦਰ
ਗਧ
ਗਨ
ਗਨਲ
ਗਪ
ਗਪਗ
ਗਪਤ
ਗਫ
ਗਬ
ਗਭ
ਗਭਰ
ਗਮ
ਗਮਈ
ਗਮਨ
ਗਮਰਮਰ
ਗਯ
ਗਰ
ਗਰਜ
ਗਰਟ
ਗਰਣ
ਗਰਤ
ਗਰਦ
ਗਰਦਨ
ਗਰਨ
ਗਰਬ
ਗਰਭ
ਗਰਭਪ
ਗਰਭਵਤ
ਗਰਮ
ਗਰਲ
ਗਰਲਜ
ਗਰਸ
ਗਲ
ਗਲਕ
ਗਲਜ
ਗਲਤ
ਗਲਪ
ਗਲਪਕ
ਗਲਬ
ਗਲਮ
ਗਲਵ
ਗਵ
ਗਵਤ
ਗਵਰਨ
ਗਵਰਨਰ
ਗਸ
ਗਸਟਰ
ਗਹ
ਗੜ
ਗੜਦ
ਗੜਨ
ਗੜਬੜ
ਗੜਵ
ਘ
ਘਟ
ਘਟਣ
ਘਟਦ
ਘਟਨ
ਘਣ
ਘਣਤ
ਘਤ
ਘਦ
ਘਨ
ਘਬਰ
ਘਮ
ਘਰ
ਘਰਦ
ਘਰਵ
ਘਰਸ
ਘਲ
ਘਵ
ਘਸ
ਘੜ
ਘੜਨ
ਙ
ਚ
ਚਕ
ਚਕਰ
ਚਖ
ਚਚ
ਚਟ
ਚਟਨ
ਚਡ
ਚਣ
ਚਤ
ਚਤਮ
ਚਤਰ
ਚਦ
ਚਨ
ਚਪ
ਚਬ
ਚਮ
ਚਮਕ
ਚਮਕਦ
ਚਮਚ
ਚਮਤਕ
ਚਮਨ
ਚਮੜ
ਚਯ
ਚਰ
ਚਰਖ
ਚਰਚ
ਚਰਜ
ਚਰਡ
ਚਰਣ
ਚਰਦ
ਚਰਨ
ਚਰਨਜ
ਚਰਬ
ਚਰਮ
ਚਰਵ
ਚਲ
ਚਲਣ
ਚਲਤ
ਚਲਦ
ਚਲਨ
ਚਲਰ
ਚਵ
ਚਸ
ਚਹ
ਚੜ
ਛ
ਛਕ
ਛਗ
ਛਟ
ਛਡ
ਛਣ
ਛਣਕ
ਛਤ
ਛਤਰ
ਛਦ
ਛਨ
ਛਪ
ਛਪਣ
ਛਪਦ
ਛਪਵ
ਛਮ
ਛਰ
ਛਲ
ਛਵ
ਛੜ
ਜ
ਜਉ
ਜਕ
ਜਕਤ
ਜਕਰਤ
ਜਕਲ
ਜਕੜ
ਜਖ
ਜਖਮ
ਜਗ
ਜਗਜ
ਜਗਤ
ਜਗਦ
ਜਗਨਨ
ਜਗਬ
ਜਗਰ
ਜਗਹ
ਜਜ
ਜਟ
ਜਠ
ਜਡ
ਜਣ
ਜਣਨ
ਜਤ
ਜਤਨ
ਜਥ
ਜਦ
ਜਦਕ
ਜਧ
ਜਨ
ਜਨਕ
ਜਨਗਣਨ
ਜਨਜ
ਜਨਤ
ਜਨਤਕ
ਜਨਮ
ਜਨਮਦ
ਜਨਮਸ
ਜਨਰ
ਜਨਰਲ
ਜਨਵਰ
ਜਨਸ
ਜਪ
ਜਪਤ
ਜਬ
ਜਬਰ
ਜਮ
ਜਮਨ
ਜਮਸ
ਜਮਹ
ਜਯ
ਜਰ
ਜਰਗ
ਜਰਜ
ਜਰਦ
ਜਰਨ
ਜਰਨਲ
ਜਰਮ
ਜਰਮਨ
ਜਰਸ
ਜਲ
ਜਲਈ
ਜਲਗ
ਜਲਣ
ਜਲਦ
ਜਲਵ
ਜਲਸ
ਜਵ
ਜਸ
ਜਸਟ
ਜਸਥ
ਜਸਪ
ਜਸਬ
ਜਸਵ
ਜਹ
ਜੜ
ਝ
ਝਕ
ਝਗੜ
ਝਟ
ਝਟਕ
ਝਣ
ਝਦ
ਝਨ
ਝਬ
ਝਰ
ਝਰਨ
ਝਲ
ਝਲਕ
ਝਲਕਦ
ਝਲਦ
ਝਵ
ਝੜ
ਝੜਪ
ਞ
ਞਣ
ਟ
ਟਕ
ਟਕਕ
ਟਕਪ
ਟਕਰ
ਟਕਲ
ਟਕਸ
ਟਗ
ਟਜ
ਟਟ
ਟਡ
ਟਣ
ਟਤ
ਟਦ
ਟਨ
ਟਪ
ਟਪਦ
ਟਫ
ਟਫਲ
ਟਬ
ਟਮ
ਟਯ
ਟਰ
ਟਰਕ
ਟਰਜ
ਟਰਟ
ਟਰਨ
ਟਰਨਰ
ਟਰਪ
ਟਰਪਤ
ਟਰਫ
ਟਰਬ
ਟਰਮ
ਟਰਲ
ਟਰਵ
ਟਰਸ
ਟਰਸਬਰਗ
ਟਲ
ਟਲਮ
ਟਲਰ
ਟਲਸ
ਟਵ
ਟਵਰਕ
ਟਸ
ਟਸਕ
ਟਸਨ
ਟਹ
ਟੜ
ਟੜਪ
ਠ
ਠਕ
ਠਗ
ਠਜ
ਠਣ
ਠਤ
ਠਦ
ਠਭ
ਠਮ
ਠਰ
ਠਲ
ਠਵ
ਠਸ
ਠਹ
ਠੜ
ਡ
ਡਕ
ਡਕਟ
ਡਕਟਰ
ਡਕਰ
ਡਕਸ
ਡਗ
ਡਗਲਸ
ਡਚ
ਡਜ
ਡਟ
ਡਡ
ਡਣ
ਡਤ
ਡਦ
ਡਨ
ਡਪ
ਡਫ
ਡਬ
ਡਬਲ
ਡਬਲਜ
ਡਬਲਯ
ਡਮ
ਡਰ
ਡਰਗ
ਡਰਗਰ
ਡਰਜ
ਡਰਡ
ਡਰਦ
ਡਰਨ
ਡਰਪ
ਡਰਮ
ਡਰਲ
ਡਰਸ
ਡਰਸਨ
ਡਲ
ਡਲਰ
ਡਲਸ
ਡਵ
ਡਸ
ਡਸਕ
ਡਸਟ
ਡਸਟਰ
ਡਹ
ਡੜ
ਢ
ਢਕ
ਢਣ
ਢਦ
ਢਲ
ਢਹ
ਢੜ
ਣ
ਣਕ
ਣਗ
ਣਜ
ਣਤ
ਣਦ
ਣਨ
ਣਨਫਲ
ਣਬ
ਣਮ
ਣਯ
ਣਵ
ਣਸ
ਣਹ
ਤ
ਤਉ
ਤਕ
ਤਕਥ
ਤਕਦ
ਤਕਨ
ਤਕਰ
ਤਕਲ
ਤਕਸ
ਤਕੜ
ਤਖ
ਤਖਤ
ਤਗ
ਤਗਮ
ਤਗੜ
ਤਜ
ਤਜਰਬ
ਤਜਵ
ਤਟ
ਤਣ
ਤਤ
ਤਤਕ
ਤਤਕਰ
ਤਤਵ
ਤਥ
ਤਦ
ਤਨ
ਤਨਖ
ਤਨਜ
ਤਨਤ
ਤਨਵ
ਤਨਹ
ਤਪ
ਤਪਤ
ਤਪਦ
ਤਪਸ
ਤਫ
ਤਬ
ਤਬਕ
ਤਬਦ
ਤਬਰ
ਤਬਲ
ਤਭ
ਤਮ
ਤਮਈ
ਤਮਕ
ਤਮਕਤ
ਤਮਗ
ਤਮਤ
ਤਯ
ਤਰ
ਤਰਕ
ਤਰਕਲ
ਤਰਕਸ
ਤਰਖ
ਤਰਗਤ
ਤਰਜ
ਤਰਜਮ
ਤਰਣ
ਤਰਤ
ਤਰਦ
ਤਰਨ
ਤਰਨਤ
ਤਰਪ
ਤਰਫ
ਤਰਫਲ
ਤਰਬ
ਤਰਮ
ਤਰਰ
ਤਰਲ
ਤਰਵ
ਤਰਸ
ਤਰਹ
ਤਲ
ਤਲਬ
ਤਲਵ
ਤਲੜ
ਤਵ
ਤਵਪ
ਤਵਵ
ਤਸ
ਤਸਕ
ਤਸਕਰ
ਤਸਦ
ਤਸਮ
ਤਸਰ
ਤਸਵ
ਤਹ
ਤੜ
ਤੜਕ
ਤੜਪ
ਤੜਫ
ਥ
ਥਕ
ਥਣ
ਥਣਧ
ਥਨ
ਥਮ
ਥਰ
ਥਰਮ
ਥਰਮਲ
ਥਲ
ਥਵ
ਥਸ
ਥਹ
ਥੜ
ਦ
ਦਇਆ
ਦਇਆਲ
ਦਈ
ਦਕ
ਦਕਤ
ਦਕਰ
ਦਕਸ
ਦਖ
ਦਖਣ
ਦਖਲ
ਦਖਲਅ
ਦਗ
ਦਜ
ਦਣ
ਦਤ
ਦਦ
ਦਨ
ਦਨਸ
ਦਪ
ਦਫ
ਦਫਤਰ
ਦਫਨ
ਦਬ
ਦਬਦਬ
ਦਭ
ਦਮ
ਦਮਤ
ਦਮਦਮ
ਦਮਨ
ਦਯ
ਦਰ
ਦਰਅਸਲ
ਦਰਕ
ਦਰਖ
ਦਰਖਤ
ਦਰਗ
ਦਰਜ
ਦਰਜਨ
ਦਰਤ
ਦਰਦ
ਦਰਦਨ
ਦਰਨ
ਦਰਪ
ਦਰਪਣ
ਦਰਬ
ਦਰਭ
ਦਰਮ
ਦਰਯ
ਦਰਲ
ਦਰਵ
ਦਰਸ
ਦਰਸਨ
ਦਲ
ਦਲਜ
ਦਵ
ਦਵਤ
ਦਵਰਧਨ
ਦਸ
ਦਸਣ
ਦਸਤ
ਦਸਤਕ
ਦਸਤਖ
ਦਸਤਖਤ
ਦਸਦ
ਦਸਮ
ਦਸਵ
ਦਹ
ਦੜ
ਧ
ਧਕ
ਧਣ
ਧਤ
ਧਦ
ਧਨ
ਧਨਵ
ਧਪ
ਧਮ
ਧਮਕ
ਧਯ
ਧਰ
ਧਰਤ
ਧਰਦ
ਧਰਨ
ਧਰਮ
ਧਰਮਪ
ਧਰਮਸ
ਧਰਵ
ਧਲ
ਧਵ
ਧਵਨ
ਧਸ
ਧੜ
ਧੜਕ
ਧੜਕਣ
ਨ
ਨਈ
ਨਉ
ਨਕ
ਨਕਦ
ਨਕਰ
ਨਕਲ
ਨਕਸ
ਨਖ
ਨਖਰ
ਨਗ
ਨਗਰ
ਨਗਰਪ
ਨਗੜ
ਨਚ
ਨਛ
ਨਜ
ਨਜਦ
ਨਜਨਕ
ਨਜਮ
ਨਜਰ
ਨਟ
ਨਟਰ
ਨਡ
ਨਣ
ਨਣਦ
ਨਤ
ਨਤਮ
ਨਥ
ਨਦ
ਨਦਰ
ਨਨ
ਨਨਕ
ਨਪ
ਨਪਲ
ਨਫ
ਨਫਰ
ਨਫਰਤ
ਨਬ
ਨਬਰਗ
ਨਮ
ਨਮਕ
ਨਮਸਕ
ਨਯ
ਨਰ
ਨਰਕ
ਨਰਗਠਨ
ਨਰਜ
ਨਰਮ
ਨਰਮਦ
ਨਰਵ
ਨਰਸ
ਨਰਸਰ
ਨਰਹ
ਨਲ
ਨਲਡ
ਨਵ
ਨਵਜ
ਨਵਤ
ਨਵਯ
ਨਵਰ
ਨਵਲ
ਨਵਵ
ਨਵਸ
ਨਸ
ਨਸਕ
ਨਸਟ
ਨਸਨ
ਨਸਭ
ਨਸਰ
ਨਸਲ
ਨਸਲਕ
ਨਸਲਵ
ਨਹ
ਨੜ
ਪ
ਪਇਆ
ਪਈ
ਪਈਆ
ਪਉੜ
ਪਏ
ਪਏਗ
ਪਕ
ਪਕਵ
ਪਕੜ
ਪਖ
ਪਗ
ਪਗੜ
ਪਚ
ਪਛ
ਪਛਤ
ਪਛਮ
ਪਛੜ
ਪਜ
ਪਟ
ਪਟਕਥ
ਪਟਨ
ਪਟਨਮ
ਪਟਰ
ਪਟਵ
ਪਟੜ
ਪਠ
ਪਡ
ਪਣ
ਪਤ
ਪਤਕਰਤ
ਪਤਝੜ
ਪਤਨ
ਪਤਰ
ਪਤਲ
ਪਤਵ
ਪਥ
ਪਥਰ
ਪਦ
ਪਦਮ
ਪਦਮਸ
ਪਦਵ
ਪਧਰ
ਪਨ
ਪਨਗਰ
ਪਨਹ
ਪਪ
ਪਬ
ਪਬਲ
ਪਮ
ਪਯ
ਪਰ
ਪਰਉਪਕ
ਪਰਕ
ਪਰਖ
ਪਰਖਣ
ਪਰਗਟ
ਪਰਚ
ਪਰਛ
ਪਰਜ
ਪਰਟ
ਪਰਡ
ਪਰਤ
ਪਰਤਣ
ਪਰਤਦ
ਪਰਦ
ਪਰਧ
ਪਰਨ
ਪਰਪ
ਪਰਫ
ਪਰਬ
ਪਰਬਤ
ਪਰਭ
ਪਰਮ
ਪਰਮਜ
ਪਰਲ
ਪਰਵ
ਪਰਵਰ
ਪਰਸ
ਪਰਸਟ
ਪਰਸਨ
ਪਰਸਪਰ
ਪਰਹ
ਪਲ
ਪਲਕ
ਪਲਜ
ਪਲਟ
ਪਲਸ
ਪਵ
ਪਵਨ
ਪਸ
ਪਸਰ
ਪਹ
ਪਹਰ
ਪਹਲ
ਪੜ
ਪੜਚ
ਪੜਤ
ਪੜਦ
ਪੜਨ
ਫ
ਫਕ
ਫਗਵ
ਫਜ
ਫਟ
ਫਟਣ
ਫਟਵ
ਫਤ
ਫਤਹ
ਫਨ
ਫਰ
ਫਰਕ
ਫਰਜ
ਫਰਨ
ਫਰਮ
ਫਰਵਰ
ਫਰਸ
ਫਰਹ
ਫਲ
ਫਲਸਤ
ਫਲਸਫ
ਫਲਸਰ
ਫਸ
ਫਸਟ
ਫਸਲ
ਫਹ
ਫੜ
ਫੜਕ
ਫੜਦ
ਫੜਨ
ਬ
ਬਈ
ਬਕ
ਬਕਰ
ਬਕਸ
ਬਖ
ਬਖਤ
ਬਖਸ
ਬਗ
ਬਗਦ
ਬਗਲ
ਬਘ
ਬਚ
ਬਚਣ
ਬਚਦ
ਬਚਨ
ਬਚਪਨ
ਬਜ
ਬਜਟ
ਬਟ
ਬਟਨ
ਬਠ
ਬਡ
ਬਣ
ਬਣਕ
ਬਣਤਰ
ਬਣਦ
ਬਣਨ
ਬਣਵ
ਬਤ
ਬਥ
ਬਦ
ਬਦਕ
ਬਦਨ
ਬਦਮ
ਬਦਰ
ਬਦਲ
ਬਦਲਣ
ਬਦਲਦ
ਬਦਲਵ
ਬਧ
ਬਨ
ਬਨਣ
ਬਨਮ
ਬਨਵ
ਬਨਸਪਤ
ਬਪ
ਬਪਤ
ਬਬ
ਬਮ
ਬਯ
ਬਰ
ਬਰਕ
ਬਰਕਤ
ਬਰਕਰ
ਬਰਕਲ
ਬਰਖ
ਬਰਗ
ਬਰਛ
ਬਰਜ
ਬਰਟ
ਬਰਡ
ਬਰਤ
ਬਰਤਨ
ਬਰਦ
ਬਰਦਸਤ
ਬਰਨ
ਬਰਫ
ਬਰਬ
ਬਰਮ
ਬਰਮਨ
ਬਰਲ
ਬਰਸ
ਬਲ
ਬਲਕ
ਬਲਖ
ਬਲਗ
ਬਲਜ
ਬਲਤਨ
ਬਲਦ
ਬਲਬ
ਬਲਰ
ਬਲਵ
ਬਵ
ਬਸ
ਬਸਤ
ਬਸਤਰ
ਬਸਨ
ਬਸਰ
ਬਹ
ਬੜ
ਬੜਦ
ਭ
ਭਇਆ
ਭਈ
ਭਉ
ਭਕ
ਭਖ
ਭਗ
ਭਗਤ
ਭਗਵ
ਭਗਵਤ
ਭਜ
ਭਜਨ
ਭਟ
ਭਟਕ
ਭਟਕਣ
ਭਣ
ਭਤ
ਭਦ
ਭਨ
ਭਰ
ਭਰਜ
ਭਰਤ
ਭਰਤਨ
ਭਰਥਰ
ਭਰਦ
ਭਰਨ
ਭਰਪ
ਭਰਮ
ਭਰਵ
ਭਲ
ਭਲਕ
ਭਲਵ
ਭਵ
ਭਵਨ
ਭਸ
ਭਸਮ
ਭੜ
ਭੜਕ
ਮ
ਮਈ
ਮਕ
ਮਕਬ
ਮਕਬਰ
ਮਕਰ
ਮਕਰਣ
ਮਕਰਨ
ਮਕਲ
ਮਕਸ
ਮਕਸਦ
ਮਖ
ਮਗ
ਮਗਧ
ਮਗਨ
ਮਗਰ
ਮਗਰਮ
ਮਗਰਲ
ਮਗੜ
ਮਚ
ਮਛ
ਮਛਲ
ਮਜ
ਮਜਦ
ਮਜਨ
ਮਜਬ
ਮਝ
ਮਟ
ਮਟਕ
ਮਟਰ
ਮਠ
ਮਡ
ਮਣ
ਮਣਕ
ਮਤ
ਮਤਭ
ਮਤਰ
ਮਤਲ
ਮਤਲਬ
ਮਤਵ
ਮਥ
ਮਦ
ਮਦਦ
ਮਦਦਗ
ਮਦਨ
ਮਦਰ
ਮਧ
ਮਨ
ਮਨਚ
ਮਨਜ
ਮਨਦ
ਮਨਪ
ਮਨਪਸ
ਮਨਮ
ਮਨਵ
ਮਨਸ
ਮਨਹ
ਮਪ
ਮਪਲ
ਮਫ
ਮਬ
ਮਬਰ
ਮਬਰਗ
ਮਮ
ਮਮਤ
ਮਯ
ਮਰ
ਮਰਕ
ਮਰਗ
ਮਰਜ
ਮਰਣ
ਮਰਤ
ਮਰਦ
ਮਰਦਮਸ
ਮਰਨ
ਮਰਫ
ਮਰਯ
ਮਰਵ
ਮਰਸ
ਮਰਹ
ਮਲ
ਮਲਕ
ਮਲਟ
ਮਲਤ
ਮਲਵ
ਮਲਵਈ
ਮਲਹ
ਮਵ
ਮਵਰ
ਮਸ
ਮਸਕ
ਮਸਜ
ਮਸਜਦ
ਮਸਤ
ਮਸਨ
ਮਸਰ
ਮਸਲ
ਮਹ
ਮਹਤ
ਮਹਤਵਪ
ਮਹਲ
ਮੜ
ਯ
ਯਕ
ਯਕਸ
ਯਜ
ਯਤ
ਯਤਨ
ਯਥ
ਯਦ
ਯਨ
ਯਪ
ਯਮ
ਯਮਤ
ਯਮਨ
ਯਰ
ਯਲ
ਯਸ
ਯਹ
ਰ
ਰਅ
ਰਆਨ
ਰਈ
ਰਈਸ
ਰਕ
ਰਕਟ
ਰਕਤ
ਰਕਬ
ਰਕਮ
ਰਕਰ
ਰਕਰਣ
ਰਕਲ
ਰਕਸ
ਰਕਸਵ
ਰਖ
ਰਖਣ
ਰਖਤ
ਰਖਦ
ਰਖਨ
ਰਖਵ
ਰਗ
ਰਗਈ
ਰਗਟ
ਰਗਤ
ਰਗਨ
ਰਗਬ
ਰਗਰ
ਰਗੜ
ਰਘ
ਰਘਟਨ
ਰਘਬ
ਰਚ
ਰਚਣ
ਰਚਦ
ਰਚਨ
ਰਚਰਨ
ਰਚਲ
ਰਚਲਤ
ਰਛ
ਰਜ
ਰਜਕ
ਰਜਣ
ਰਜਣਹ
ਰਜਦ
ਰਜਨ
ਰਜਨਨ
ਰਜਮ
ਰਜਵ
ਰਜਸ
ਰਜਹ
ਰਝ
ਰਟ
ਰਟਨ
ਰਟਫ
ਰਟਮ
ਰਟਰ
ਰਟਲ
ਰਟਸ
ਰਠ
ਰਡ
ਰਡਜ
ਰਡਨ
ਰਡਨਰ
ਰਡਰ
ਰਡਵ
ਰਡਸ
ਰਣ
ਰਣਜ
ਰਣਤ
ਰਣਧ
ਰਣਨ
ਰਣਬ
ਰਤ
ਰਤਕ
ਰਤਗ
ਰਤਨ
ਰਤਪ
ਰਤਰ
ਰਥ
ਰਥਕ
ਰਥਕਤ
ਰਥਨ
ਰਥਮ
ਰਥਲ
ਰਥਵ
ਰਦ
ਰਦਰ
ਰਦਰਜ
ਰਦਰਸ
ਰਦਵ
ਰਦਸ
ਰਧ
ਰਨ
ਰਨਤ
ਰਨਮ
ਰਨਰ
ਰਨਵ
ਰਪ
ਰਪਰ
ਰਪਸ
ਰਫ
ਰਫਤ
ਰਬ
ਰਬਖ
ਰਬਖਸ
ਰਬਚਨ
ਰਬਤ
ਰਬਨ
ਰਬਰ
ਰਬਲ
ਰਬਸ
ਰਬੜ
ਰਭ
ਰਭਜਨ
ਰਭਰ
ਰਭਰਤ
ਰਮ
ਰਮਕ
ਰਮਜ
ਰਮਣ
ਰਮਤ
ਰਮਨ
ਰਮਰ
ਰਮਲ
ਰਮਵ
ਰਮਸ
ਰਯ
ਰਰ
ਰਲ
ਰਲਸ
ਰਵ
ਰਵਕ
ਰਵਚਨ
ਰਵਜ
ਰਵਣ
ਰਵਤ
ਰਵਰ
ਰਵਰਡ
ਰਵਰਤ
ਰਵਲ
ਰਸ
ਰਸਕ
ਰਸਟ
ਰਸਤ
ਰਸਥ
ਰਸਦ
ਰਸਨ
ਰਸਮ
ਰਸਲ
ਰਹ
ਰਹਤ
ਰਹਮ
ਰੜ
ਰੜਕ
ਲ
ਲਈ
ਲਈਆ
ਲਈਏ
ਲਉ
ਲਏ
ਲਓ
ਲਕ
ਲਕਣ
ਲਕਤ
ਲਕਦਮ
ਲਕਨ
ਲਕਮ
ਲਕਰ
ਲਕਸ
ਲਕੜ
ਲਖ
ਲਖਨਊ
ਲਗ
ਲਗਜ
ਲਗਣ
ਲਗਦ
ਲਗਨ
ਲਗਪਗ
ਲਗਭਗ
ਲਗਰ
ਲਗਵ
ਲਗੜ
ਲਘ
ਲਚ
ਲਚਕ
ਲਚਸਪ
ਲਛਮਣ
ਲਜ
ਲਝ
ਲਟ
ਲਟਕ
ਲਟਜ
ਲਟਨ
ਲਟਰ
ਲਡ
ਲਡਨ
ਲਡਰ
ਲਡਰਨ
ਲਣ
ਲਣਸ
ਲਤ
ਲਤਵ
ਲਥ
ਲਦ
ਲਨ
ਲਪ
ਲਪਕ
ਲਪਤ
ਲਪਨ
ਲਪਮ
ਲਪਰ
ਲਫ
ਲਫਜ
ਲਬ
ਲਬਰ
ਲਬਰਗ
ਲਬਰਟ
ਲਬਰਨ
ਲਭ
ਲਮ
ਲਮਕ
ਲਮਜ
ਲਮਨ
ਲਮਨਵ
ਲਮਫ
ਲਮਸ
ਲਯ
ਲਰ
ਲਰਜ
ਲਰਸ
ਲਲ
ਲਲਕ
ਲਵ
ਲਵਰ
ਲਵਲ
ਲਸ
ਲਸਟ
ਲਸਣ
ਲਸਤ
ਲਸਨ
ਲਸਫ
ਲਸਰ
ਲਹ
ਲਹਨ
ਲੜ
ਲੜਕ
ਲੜਦ
ਲੜਨ
ਵ
ਵਕ
ਵਕਤ
ਵਕਫ
ਵਕਰ
ਵਖ
ਵਖਰ
ਵਗ
ਵਗਣ
ਵਗਦ
ਵਚ
ਵਚਨ
ਵਚਨਬ
ਵਜ
ਵਜਦ
ਵਟ
ਵਡ
ਵਢ
ਵਣ
ਵਣਕ
ਵਣਜ
ਵਤ
ਵਤਨ
ਵਦ
ਵਧ
ਵਧਣ
ਵਧਦ
ਵਨ
ਵਨਕ
ਵਨਡ
ਵਨਸ
ਵਪ
ਵਫ
ਵਮ
ਵਯ
ਵਰ
ਵਰਕ
ਵਰਕਰ
ਵਰਕਸ
ਵਰਖ
ਵਰਗ
ਵਰਚ
ਵਰਜ
ਵਰਜਨ
ਵਰਟ
ਵਰਡ
ਵਰਡਜ
ਵਰਣ
ਵਰਣਨ
ਵਰਣਮ
ਵਰਤ
ਵਰਤਣ
ਵਰਤਦ
ਵਰਤਨ
ਵਰਤਮ
ਵਰਥ
ਵਰਦ
ਵਰਧਨ
ਵਰਨ
ਵਰਨਣ
ਵਰਪ
ਵਰਮ
ਵਰਲ
ਵਰਲਡ
ਵਰਸ
ਵਰਸਟ
ਵਰਸਲ
ਵਲ
ਵਲਕ
ਵਲਪ
ਵਲਵਲ
ਵਵ
ਵਸ
ਵਸਕ
ਵਸਣ
ਵਸਤ
ਵਸਤਰ
ਵਸਥ
ਵਸਦ
ਵਸਨ
ਵਸਲ
ਵਹ
ਵੜ
ਵੜਦ
ਸ
ਸਇ
ਸਈਅਦ
ਸਈਆ
ਸਈਓ
ਸਈਦ
ਸਕ
ਸਕਟ
ਸਕਟਬ
ਸਕਣ
ਸਕਤ
ਸਕਦ
ਸਕਰ
ਸਕਰਣ
ਸਕਰਨ
ਸਕਲ
ਸਕਸ
ਸਖ
ਸਖਤ
ਸਖਸ
ਸਗ
ਸਗਲ
ਸਗੜ
ਸਚ
ਸਚਮ
ਸਜ
ਸਜਣ
ਸਜਨ
ਸਟ
ਸਟਇ
ਸਟਡ
ਸਟਨ
ਸਟਮ
ਸਟਰ
ਸਟਰਜ
ਸਟਰਡ
ਸਟਰਨ
ਸਟਰਸ
ਸਟਲ
ਸਟਸ
ਸਡ
ਸਡਰ
ਸਣ
ਸਤ
ਸਤਕ
ਸਤਨ
ਸਤਫ
ਸਤਮ
ਸਤਰ
ਸਤਲ
ਸਤਵ
ਸਤਹ
ਸਥ
ਸਦ
ਸਦਕ
ਸਦਨ
ਸਦਭ
ਸਦਮ
ਸਦਰ
ਸਧ
ਸਨ
ਸਨਅਤ
ਸਨਕ
ਸਨਬ
ਸਨਮ
ਸਨਰ
ਸਪ
ਸਪਤ
ਸਪਨ
ਸਪਰ
ਸਪਰਸ
ਸਪਲ
ਸਪਸ
ਸਫ
ਸਫਰ
ਸਫਲ
ਸਫਲਤ
ਸਬ
ਸਬਕ
ਸਬਜ
ਸਬਤ
ਸਬਦ
ਸਬਰ
ਸਬਸ
ਸਭ
ਸਭਤ
ਸਭਨ
ਸਮ
ਸਮਈ
ਸਮਕ
ਸਮਗਰ
ਸਮਝ
ਸਮਝਣ
ਸਮਝਦ
ਸਮਤ
ਸਮਯ
ਸਮਰ
ਸਮਰਥ
ਸਮਰਥਕ
ਸਮਰਥਨ
ਸਮਰਪ
ਸਮਰਪਣ
ਸਮਰਪਤ
ਸਮਲ
ਸਮਸ
ਸਯ
ਸਯਦ
ਸਰ
ਸਰਕ
ਸਰਕਟ
ਸਰਕਲ
ਸਰਕਸ
ਸਰਗ
ਸਰਗਰਮ
ਸਰਚ
ਸਰਜ
ਸਰਜਨ
ਸਰਜਰ
ਸਰਟ
ਸਰਣ
ਸਰਤ
ਸਰਦ
ਸਰਨ
ਸਰਪ
ਸਰਫ
ਸਰਬ
ਸਰਬਜ
ਸਰਬਸ
ਸਰਮ
ਸਰਲ
ਸਰਲਤ
ਸਰਵ
ਸਰਵਉ
ਸਰਵਣ
ਸਰਵਪ
ਸਰਵਰ
ਸਰਵਸ
ਸਰਸ
ਸਰਸਵਤ
ਸਰਹ
ਸਲ
ਸਲਤਨਤ
ਸਲਫ
ਸਲਮ
ਸਲਰ
ਸਲਵ
ਸਵ
ਸਵਦ
ਸਵਰ
ਸਵਰਗ
ਸਵਰਡ
ਸਵਰਨ
ਸਸ
ਸਸਕ
ਸਸਤ
ਸਹ
ਸਹਜ
ਸਹਸ
ਸੜ
ਸੜਕ
ਸੜਦ
ਸੜਨ
ਹ
ਹਈ
ਹਈਆ
ਹਉ
ਹਉਮ
ਹਕ
ਹਗ
ਹਗੜ
ਹਚ
ਹਜ
ਹਜਹ
ਹਟ
ਹਠ
ਹਡ
ਹਣ
ਹਤ
ਹਤਕ
ਹਤਮ
ਹਤਰ
ਹਥ
ਹਦ
ਹਨ
ਹਨਤ
ਹਪ
ਹਫ
ਹਫਤ
ਹਬ
ਹਬਤ
ਹਭ
ਹਮ
ਹਮਜ
ਹਮਣ
ਹਮਦ
ਹਮਦਰਦ
ਹਮਨ
ਹਮਰ
ਹਮਲ
ਹਯ
ਹਰ
ਹਰਕ
ਹਰਕਤ
ਹਰਗ
ਹਰਚਰਨ
ਹਰਜ
ਹਰਟ
ਹਰਟਜ
ਹਰਣ
ਹਰਤ
ਹਰਦ
ਹਰਦਮ
ਹਰਨ
ਹਰਪ
ਹਰਫ
ਹਰਬ
ਹਰਬਰਟ
ਹਰਭਜਨ
ਹਰਮ
ਹਰਮਨ
ਹਰਲ
ਹਰਵ
ਹਰਸ
ਹਲ
ਹਲਕ
ਹਲਦ
ਹਲਮ
ਹਲਵ
ਹਵ
ਹਵਧ
ਹਸ
ਹਸਤ
ਹਸਦ
ਹਸਨ
ਹਸਪਤ
ਹਸਰਤ
ਹਹ
ਹੜ
ਹੜਤ
਼
ਾ
ਿ
ੀ
ੁ
ੂ
ੇ
ੈ
ੋ
ੌ
੍
ੑ
ੜ
ੜਕ
ੜਕਣ
ੜਗ
ੜਣ
ੜਤ
ੜਦ
ੜਨ
ੜਮ
ੜਲ
ੜਵ
ੜਸਵ
੦
੧
੧੦
੧੧
੧੨
੧੩
੧੪
੧੫
੧੬
੧੭
੧੮
੧੯
੨
੨੦
੨੧
੨੩
੨੪
੨੫
੩
੩੦
੪
੫
੬
੭
੮
੯
ੰ
ੱ
ੲ
ੳ
ੴ
ੵ
ં
અન
ક
ગ
ચ
જ
ટ
ડ
ત
દ
ધ
ન
પ
બ
મ
ય
ર
લ
વ
શ
ષ
સ
હ
ા
િ
ી
ુ
ે
ો
્
ା
ି
୍
க
ச
ட
ண
த
ந
ன
ப
ம
ய
ர
ற
ல
ள
வ
ா
ி
ீ
ு
ெ
ே
ை
்
ం
క
గ
చ
ట
డ
త
ద
న
ప
మ
య
ర
ల
వ
స
ా
ి
ీ
ు
ె
ే
ో
్
ಂ
ಕ
ಗ
ಡ
ತ
ದ
ನ
ಪ
ಬ
ಮ
ಯ
ರ
ಲ
ವ
ಶ
ಸ
ಾ
ಿ
ು
ೂ
ೆ
್
ೕ
ം
ക
ച
ട
ഡ
ണ
ത
ദ
ന
പ
മ
യ
ര
റ
ല
ള
വ
സ
ാ
ി
ീ
ു
ൂ
െ
േ
്
්
ා
ි
ු
ෙ
ั
ิ
ี
่
์
་
ོ
မ
ာ
်
​
‌
‍
‎
‏
‐
‑
–
—
‖
‘
’
“
”
„
†
•
…
‬
′
″
⁄
⁕
⁡
₀
€
₹
ℏ
ℓ
№
↑
→
↓
↔
↷
∂
∇
∈
∑
−
∗
∘
√
∞
∠
∣
∧
∫
≅
≈
≡
≤
≥
⊗
⋅
⋯
③
④
⑦
►
◆
●
☆
⟨
⟩
⺀
⺄
⺆
⺈
⺊
⺌
⺕
⺝
⺸
⺼
⿰
⿱
⿲
⿳
⿴
⿵
⿶
⿷
⿸
⿹
⿺
⿻
、
〉
「
」
〢
い
か
て
に
の
る
゙
゚
イ
オ
カ
ク
コ
シ
ス
タ
ッ
テ
ト
ハ
ヒ
フ
ユ
ラ
リ
ル
レ
ロ
ン
ー
㇁
㇂
㇄
㇇
㇈
㇉
㇓
㐁
㐄
㐅
㐌
㐫
㐬
㐭
㐮
㐱
㑒
㒵
㒸
㒼
㓁
㓞
㔾
㕛
㕣
㖾
㘝
㚅
㚇
㚔
㚘
㝉
㝡
㝴
㝵
㞋
㞢
㞷
㠩
㠭
㠯
㡀
㡭
㡿
㢲
㢴
㣇
㣺
㥯
㪅
㫄
㫐
㫒
㫺
㬅
㬎
㬥
㬰
㲋
㳄
㷠
㸒
㸚
㸦
㼌
㼲
㽞
㿟
䀠
䂞
䍃
䏍
䒑
䖍
䖒
䖝
䖵
䙴
䚻
䜌
䝿
䡛
䧹
䪞
一
丁
丂
七
丄
丅
丆
万
丈
三
上
下
丌
不
与
丏
丐
丑
专
且
丕
世
丘
丙
业
东
丞
丢
丣
两
严
並
丨
丩
个
丫
丬
中
丮
丰
丱
串
丵
丶
丷
丸
丹
为
主
丽
丿
乀
乂
乃
久
乆
乇
么
义
之
乌
乍
乎
乏
乐
乑
乔
乖
乗
乘
乙
乚
乛
乜
九
乞
也
习
乡
乳
乾
亀
亅
了
亇
予
争
事
二
亍
于
亏
亐
云
互
亓
五
井
亘
亚
亜
亞
亟
亠
亡
亢
交
亥
亦
产
亨
亩
享
京
亭
亮
亯
亰
亲
亳
亶
亷
人
亻
亼
亾
仁
今
介
仌
从
仐
仑
仒
仓
仕
他
付
仝
代
令
以
任
企
伊
伏
伐
休
会
伯
但
位
何
佘
余
作
佥
使
來
侈
侌
侖
侯
侵
便
保
俞
信
修
倉
倍
候
倠
備
僉
僕
儿
兀
允
兂
元
兄
充
兆
兇
先
光
兊
克
兌
免
兑
兒
兓
兔
党
兜
兟
入
全
兩
兪
八
公
六
兮
兰
共
关
兵
其
具
典
兹
兼
冀
冂
冃
冄
内
冈
冉
冊
冋
册
再
冎
冏
冐
冒
冓
冖
冗
冘
军
农
冝
冡
冥
冫
冬
冷
几
凡
凢
凵
凶
凷
凸
凹
出
函
凾
刀
刁
刂
刃
刄
刅
分
切
刍
刑
刕
刖
列
刘
则
初
別
利
别
到
制
刺
則
削
剌
前
剡
剽
劉
力
功
加
劦
助
劫
劳
劵
勃
勇
勉
勒
動
務
勞
勤
勹
勺
勻
勾
勿
匀
匂
包
匆
匈
匊
匋
匍
匕
化
北
匚
匝
匡
匪
匱
匸
匹
区
医
匽
匿
區
十
卂
千
卄
卅
卆
升
午
卉
半
卌
华
卑
卒
卓
单
卖
南
博
卜
卝
卞
占
卡
卢
卣
卤
卦
卩
卪
卬
卯
印
危
即
却
卵
卷
卸
卻
厂
厃
厄
历
厈
厉
厌
厓
厘
厚
原
厤
厥
厨
厭
厲
厶
厷
厸
去
厼
厽
叀
参
參
叅
又
叉
及
友
双
反
叐
发
叒
叔
叕
取
受
叚
叜
叟
口
古
句
另
叩
只
召
可
台
叱
史
右
叵
号
司
叹
吂
各
吅
合
吉
吊
吋
同
名
后
吏
向
吕
君
吝
吞
否
含
启
吳
吴
吹
吾
呂
呆
呈
告
员
呙
周
命
咅
和
咎
咠
咢
咨
咸
咼
哀
品
哉
員
哥
哲
唐
商
啇
問
啚
啬
啻
善
喜
喬
單
喿
嗇
噩
嚴
囊
囗
囘
囙
囚
四
回
囟
因
囧
囬
困
囱
囷
固
国
圂
圅
國
圍
圓
土
圡
圣
圥
在
圭
地
圶
圼
坐
坒
坚
坴
垂
垔
垚
埀
埋
埶
執
基
堂
堅
堆
堇
堯
塞
墨
壘
士
壬
壯
声
壳
壴
壹
壺
壽
夂
处
夅
夆
备
夊
夋
夌
复
夏
夒
夕
外
夗
夘
多
夜
夢
大
夨
天
太
夫
夬
夭
央
失
夲
头
夷
夸
夹
夻
夾
奂
奄
奇
奈
奉
奎
奏
奐
契
奓
奔
奚
奞
奠
奢
奥
奭
女
奴
奻
好
如
妄
妙
妟
妥
妻
妾
姑
委
姜
威
娄
婁
婴
嬰
嬴
子
孑
孔
孕
孖
字
存
孚
孛
孝
孟
季
孤
学
孫
孱
學
宀
宁
宂
它
宅
宇
守
安
宋
完
宏
宓
宗
官
定
宛
宜
宝
客
宣
室
宮
宰
害
家
容
宾
宿
寄
寅
密
富
寒
察
寧
審
寫
寬
寮
寸
对
寺
寻
寽
対
寿
封
尃
射
将
將
專
尉
尊
尋
尌
對
小
少
尒
尓
尔
尖
尗
尚
尞
尢
尣
尤
尧
尨
尭
就
尸
尹
尺
尻
尼
尽
尾
尿
局
居
屈
屋
屎
屏
屑
展
屖
屚
属
屠
屡
屬
屮
屯
屰
山
屵
屾
岁
岂
岑
岡
岩
岳
岸
峯
島
崇
崑
崔
崖
崙
崩
嵬
嶲
巂
巛
川
州
巟
巠
巢
巤
工
左
巧
巨
巩
巫
差
己
已
巳
巴
巷
巸
巽
巾
巿
帀
市
布
希
帚
帛
帝
带
師
席
帶
常
干
平
年
幵
并
幷
幸
幺
幻
幼
幽
幾
广
広
庄
床
底
店
庚
府
度
庫
庭
庶
康
庸
廉
廌
廛
廣
廩
廴
延
廷
建
廾
廿
开
弁
弃
弄
弇
弋
式
弓
弔
引
弗
弘
弜
弟
弥
弦
弱
張
強
强
彊
彌
彎
彐
彑
当
彔
录
彖
彗
彡
形
彥
彦
彧
彭
彳
役
彼
往
待
律
徒
得
徙
從
復
微
徵
心
忄
必
忌
忍
志
忝
忠
忩
快
念
忽
忿
思
怠
急
怱
恆
恒
恩
恭
息
悉
患
悤
悲
悶
惠
惡
惢
愁
愈
意
愛
感
慈
慧
慮
憂
憲
應
戀
戈
戉
戊
戋
戌
戍
戎
成
我
戒
戔
或
戚
戠
戢
截
戲
戶
户
戹
戼
戾
房
所
扁
扇
手
扌
才
打
托
执
承
折
拉
拜
拿
掌
推
提
摩
支
攴
攵
收
攸
改
放
政
敄
敏
敕
敖
敗
教
敝
敞
敢
散
敦
敫
敬
数
敷
數
斂
文
斉
斊
斗
斤
斥
斩
斬
斯
新
方
於
施
斿
旁
旋
族
无
旡
既
旣
日
旦
旧
旨
早
旬
旱
旲
时
旾
昆
昇
昌
昍
明
昏
易
昔
昗
昜
星
春
昬
是
昱
昴
昷
時
晃
晋
晏
普
景
晶
智
暑
暴
曇
曩
曰
曲
曳
更
曷
書
曹
曼
曾
替
最
朁
會
月
有
朋
服
朔
朕
朗
望
朝
木
朩
未
末
本
札
朮
术
朱
朵
朶
朿
杀
杏
杜
束
条
来
東
杲
杳
松
析
林
枚
果
枝
枲
枼
某
柔
查
柬
柰
柴
栗
桀
桑
桼
梁
條
梟
梨
棘
棠
棥
森
楚
業
楽
榮
樂
樊
欠
次
欣
欮
欲
欶
欽
款
歆
歇
歛
止
正
此
步
武
歨
歪
歮
歯
歰
歲
歴
歷
歸
歹
歺
死
殳
段
殷
殸
殹
殺
殻
殿
毋
毌
母
每
毒
比
毕
毚
毛
毳
氏
氐
民
气
氣
水
氵
氶
氷
永
氺
氾
求
汝
汞
江
沃
沓
沙
沝
泉
法
波
泣
泥
泰
洛
洪
活
派
流
浦
浪
浮
海
淡
淮
清
渚
渠
港
湯
滿
漸
澳
灣
火
灬
灭
灰
灵
灷
炅
炎
炏
炗
炙
炭
為
烈
烏
烝
焉
無
焦
焱
然
煞
熊
熏
燕
營
燮
爪
爫
爭
爯
爰
爱
爲
爵
父
爻
爽
爾
爿
片
版
牙
牚
牛
牜
牟
牢
牧
牪
牽
犀
犬
犭
犮
狂
狄
狊
独
狺
猋
猒
猪
献
獻
玄
率
玉
王
玟
玨
珎
班
琴
瑟
瑩
瓜
瓦
甘
甚
生
産
用
甫
甬
田
由
甲
申
电
甶
男
甸
甹
画
甾
畀
界
畏
畐
留
畜
畟
畢
畧
畨
番
畫
異
畱
當
畺
畾
疊
疋
疌
疑
疒
疾
癶
癸
癹
登
發
白
百
皀
皃
的
皆
皇
皋
皐
皕
皮
皷
皿
盃
盆
盇
盈
益
盍
盎
监
盒
盖
盛
盡
監
盤
盧
目
直
相
盾
省
眇
眉
看
眔
眞
真
眷
眼
眾
着
睘
睪
睿
瞏
瞢
瞿
矍
矛
矞
矢
矣
知
矦
短
石
破
碎
磊
磨
示
礻
礼
社
祟
票
祭
禀
禁
禸
禹
禺
离
禽
禾
禿
秀
秃
秉
秋
科
秝
秦
移
稟
穀
穌
穴
究
穹
空
穿
突
窄
窒
立
竒
竜
竝
竟
章
童
竹
笑
笠
第
筆
等
答
箕
算
箴
節
篤
篭
米
粉
粛
粟
粤
粦
粲
糞
糸
糹
系
約
納
素
索
紫
累
細
絜
絫
絲
維
綿
縣
繇
纍
纟
缶
网
罒
罔
罕
罗
罙
罡
罢
罪
署
罷
羅
羊
羌
羍
美
羔
羕
羗
羞
羡
羣
群
義
羲
羸
羽
翁
翏
習
翕
翟
翠
翼
老
耂
考
者
耆
而
耎
耑
耒
耳
耴
耶
耷
聂
聊
聖
聚
聶
聿
肀
肃
肅
肉
肖
肙
肥
肩
肯
育
肴
胃
背
胡
胥
能
脊
脩
膚
臣
臤
臧
自
臬
臭
臯
臱
至
致
臺
臼
臽
臾
臿
舀
舂
舄
與
興
舉
舌
舍
舛
舜
舞
舟
般
艮
良
色
艸
艹
艾
芒
芔
芬
芮
花
芳
芺
芻
苔
苗
苟
若
苦
英
茶
茸
荅
草
荒
荣
荼
莆
莧
莫
莽
菆
菊
菐
華
萬
落
葉
著
葛
董
葵
蒙
蒦
蒼
蓋
蓬
蓺
蔑
蔡
蕉
蕭
薄
薛
薦
薰
藍
藏
藥
蘭
虍
虎
虐
虒
虔
處
虖
虗
虘
虚
虛
虜
虞
虫
虽
蚤
蚩
蜀
蜜
蟲
蠡
血
行
衍
衛
衣
衤
表
衮
衰
袁
袞
褭
褱
襄
襾
西
覀
要
覃
見
規
覓
覧
親
覽
见
角
解
言
訁
訇
計
詹
語
誩
諸
讠
谷
豆
豈
豊
豐
豕
豖
豙
象
豦
豩
豪
豸
貇
貝
貞
貟
負
貢
貧
貪
貫
責
貳
貴
買
費
賁
資
賈
賏
賓
賔
賛
賞
賢
賣
質
賴
贊
贝
贡
责
贯
贲
贵
赖
赞
赤
赦
走
越
足
路
蹇
身
躬
車
軍
軎
軟
輦
车
辛
辜
辟
辥
辰
辱
農
辵
辶
边
达
过
近
连
迷
追
退
送
逆
逐
通
速
造
逢
連
逮
進
遀
遂
過
道
達
遣
適
遷
遺
邊
邑
邕
那
邦
邪
郎
部
郭
都
鄉
酉
酋
配
酓
釆
采
里
重
野
量
金
釒
錢
钅
長
镸
长
門
閃
閉
開
閏
閑
閒
間
閔
閵
閻
闌
门
间
闷
阑
阜
阝
阿
降
陳
隆
隊
隋
隡
隨
隱
隶
隹
隺
隻
隼
隽
难
雀
雁
集
雈
雋
雍
雐
雔
雙
雚
雜
雝
離
難
雨
雩
雪
雲
零
雷
需
霍
霜
霝
霞
霸
靈
靑
青
非
靡
面
靣
革
韋
韦
韭
韯
韱
音
頁
頃
項
須
頗
頡
頻
顛
页
風
风
飛
飞
食
飠
養
饣
首
香
馬
馮
駦
马
骨
高
髟
鬥
鬯
鬲
鬼
魚
魯
鮮
鱼
鲁
鳥
鳳
鸟
鹵
鹿
麃
麗
麥
麦
麻
黃
黄
黍
黎
黑
黒
黨
黹
黽
黾
鼎
鼓
鼠
鼻
齊
齋
齐
齒
齿
龍
龙
龜
龟
龠
龰
龱
龴
龵
龶
龷
龸
龹
者
艹
﻿
（
）
，
：
？
￼
�
𠀁
𠀃
𠀆
𠀉
𠀎
𠀐
𠁁
𠁣
𠂆
𠂇
𠂈
𠂉
𠂊
𠂋
𠂎
𠂒
𠂔
𠂛
𠂡
𠂢
𠂤
𠂬
𠂭
𠂹
𠃊
𠃋
𠃌
𠃍
𠃎
𠃑
𠃓
𠃔
𠃜
𠄌
𠄎
𠄠
𠄢
𠆢
𠆥
𠇍
𠈌
𠌵
𠓜
𠔉
𠔥
𠔼
𠔽
𠔿
𠕀
𠕁
𠕋
𠘧
𠘨
𠙻
𠙼
𠚏
𠚒
𠚤
𠚪
𠣏
𠤎
𠤕
𠥓
𠦄
𠦑
𠦝
𠧒
𠧗
𠧪
𠩺
𠪚
𠫓
𠫔
𠫤
𠬛
𠬝
𠬞
𠬢
𠬤
𠬶
𠮛
𠮦
𠮷
𠯑
𠱠
𠳮
𠷎
𡈼
𡉀
𡉵
𡌥
𡍮
𡏳
𡕒
𡕩
𡕰
𡖅
𡗗
𡗜
𡘆
𡘤
𡧱
𡨄
𡩧
𡬠
𡭽
𡰣
𡰥
𡰪
𡰯
𡰱
𡷈
𡸁
𡿨
𡿩
𡿪
𡿺
𢀖
𢀛
𢀩
𢁙
𢆉
𢆰
𢆶
𢇁
𢇇
𢉖
𢌬
𢌿
𢏚
𢑑
𢑚
𢖻
𢙣
𢛳
𢦏
𢦒
𢧵
𢼄
𢾕
𣁋
𣄼
𣅀
𣅽
𣍘
𣎳
𣎵
𣏋
𣏼
𣗥
𣥂
𣥖
𣦵
𣦼
𣧄
𣪊
𣪠
𣬉
𣳾
𣶒
𤇾
𤊽
𤐫
𤓰
𤔔
𤕨
𤣩
𤰇
𤰔
𤰞
𤴓
𤴔
𤽄
𥁑
𥁕
𥃦
𥃩
𥃭
𥇡
𥑟
𥘅
𥘈
𥝢
𥫗
𥱡
𦈢
𦉪
𦉬
𦉼
𦍌
𦍒
𦎧
𦐇
𦓔
𦔮
𦘒
𦙃
𦚏
𦣝
𦣞
𦣻
𦥑
𦥔
𦥯
𦨉
𦭝
𦰩
𧆞
𧈧
𧘇
𧰨
𧴪
𧴮
𧵩
𧾷
𨸏
𨾴
𩙿
𩠐
𩫏
𩵋
𪉷
𪜀
𪟽
𪠲
𪩲
𫇦
𫔭
𫜸
𫝀
𫠣
𫠩
𫢉
𫥞
𫩏
𫩠
𫪡
𫲽
𫶧
𬀷
𬐘
𬗌
𬙙
𬛸
𬜯
𬟩
𬯁
𬴘
𬺻
𬼉
𬼖
𭀰
𭁈
𭁨
𭅰
𭑈
𭕄
𭗼
𭤨
𭥫
𭻾
𮅕
𮊿
𮍌
𮍏
𮓗
𮥼
𮧮
廾
𰀁
𰀄
𰀈
𰀉
𰀕
𰀠
𰀡
𰀢
𰀪
𰁜
𰃮
𰆊
𰆘
𰋙
𰕎
𰢴
𰧭
𰯲
00--
01--
02--
03--
04--
05--
06--
07--
08--
09--
151--
28--
29--
30--
33--
34--
39--
40--
41--
42--
43--
44--
45--
46--
48--
49--
50--
51--
52--
53--
55--
56--
57--
58--
59--
60--
61--
70--
71--
72--
73--
74--
75--
76--
77--
78--
79--
80--
81--
82--
83--
84--
85--
86--
87--
88--
89--
90--
93--
94--
95--
96--
97--
978--
97881--
98--
99--
a--
aa--
ab--
ac--
acc--
acce--
ad--
admini--
ado--
ae--
aest--
af--
ag--
air--
al--
ali--
all--
am--
an--
ang--
anim--
ans--
anu--
any--
ap--
app--
appo--
ar--
arch--
argu--
armen--
art--
as--
ash--
astr--
at--
athl--
attr--
au--
ave--
ay--
az--
b--
ba--
bach--
bad--
bal--
bar--
bas--
be--
bec--
beha--
bel--
ben--
ber--
bha--
bhar--
bho--
bhu--
bi--
bib--
bio--
bir--
bis--
bla--
bli--
blo--
bo--
bon--
bor--
bos--
bota--
br--
bra--
brah--
bre--
bro--
broad--
bu--
bud--
budd--
bur--
by--
c--
ca--
cab--
cal--
calcu--
can--
car--
cas--
ce--
cele--
cen--
cer--
ch--
cha--
chak--
cham--
char--
chau--
che--
cho--
chro--
circ--
cla--
clau--
cle--
cli--
clo--
clu--
co--
collab--
colle--
com--
comp--
con--
conse--
contr--
coo--
cor--
correspon--
cou--
coun--
cra--
cre--
cri--
cru--
cu--
cur--
cy--
d--
da--
daily--
dal--
dam--
dar--
daw--
de--
deccan--
decla--
dedi--
defi--
demogra--
dete--
deut--
dev--
develo--
dha--
dhar--
dho--
di--
dicti--
dif--
dig--
dis--
disa--
disc--
dist--
div--
do--
domi--
dr--
dra--
du--
dur--
dy--
dyna--
e--
eat--
eco--
ed--
ek--
el--
ele--
eleva--
emb--
emer--
emi--
emp--
en--
eng--
entre--
epi--
equ--
equati--
er--
es--
et--
eth--
eu--
euro--
evalu--
ex--
exp--
experi--
f--
fa--
fab--
fac--
fam--
far--
fat--
fav--
fe--
fer--
fi--
film--
fin--
fla--
flo--
fo--
for--
fore--
fos--
fr--
fre--
frie--
fru--
fu--
g--
ga--
gar--
gau--
gaz--
ge--
geno--
geo--
ger--
ghan--
gi--
gla--
glo--
go--
good--
gor--
gos--
gr--
gra--
gre--
gro--
gu--
gur--
gurd--
gut--
h--
ha--
ham--
happ--
har--
hard--
has--
haw--
hay--
haz--
he--
head--
hen--
her--
hi--
ho--
hol--
holl--
home--
homo--
hoo--
hor--
hu--
hy--
i--
ib--
ic--
id--
iden--
if--
il--
im--
imag--
immi--
in--
incor--
indi--
indu--
initi--
inju--
inspi--
inst--
instru--
int--
inte--
inter--
inven--
investi--
iq--
ir--
is--
it--
iv--
j--
ja--
jag--
jas--
je--
jen--
jes--
ji--
jo--
joy--
ju--
k--
ka--
kal--
kan--
kar--
kas--
kath--
ke--
ken--
kha--
khu--
ki--
kir--
kis--
ko--
kra--
kri--
ku--
kul--
kun--
l--
la--
lau--
le--
legis--
lexi--
li--
life--
lingu--
lite--
lo--
log--
lu--
ly--
lyri--
m--
ma--
mac--
mad--
mag--
mah--
maha--
mal--
man--
mar--
mas--
mau--
mc--
me--
measu--
mech--
meh--
mer--
mes--
mi--
micro--
mid--
migr--
mil--
mill--
min--
mis--
mo--
mon--
monu--
mor--
mu--
mul--
multi--
munic--
mur--
mush--
mw--
my--
n--
na--
nar--
narra--
nav--
nc--
ne--
neu--
new--
news--
ni--
nik--
nir--
nis--
no--
nomi--
non--
nor--
not--
nu--
o--
obje--
obser--
observa--
oc--
om--
on--
one--
opp--
or--
os--
out--
over--
p--
pa--
pac--
pal--
par--
pas--
pat--
pay--
pe--
pedi--
per--
ph--
phi--
pho--
pi--
pla--
play--
plu--
po--
politi--
poll--
poly--
poon--
pos--
post--
pr--
pra--
pre--
pro--
provi--
pu--
puer--
pus--
pya--
q--
qat--
qu--
r--
ra--
rac--
rad--
rail--
raj--
ram--
ran--
ras--
rat--
raw--
re--
rece--
reci--
recog--
recom--
ref--
reg--
reje--
rela--
rep--
res--
rey--
ri--
ris--
ro--
row--
ru--
s--
sa--
sal--
sam--
san--
sar--
sat--
sc--
sch--
se--
secu--
sen--
ser--
sh--
sha--
shar--
shi--
sho--
shu--
si--
sie--
sil--
situ--
sket--
ski--
sla--
slo--
so--
soc--
solu--
some--
son--
sou--
sp--
spe--
spec--
spi--
spo--
spot--
sri--
st--
ste--
ster--
sto--
stre--
stru--
su--
sub--
sud--
sun--
super--
supple--
sur--
sus--
sw--
swe--
sy--
symp--
t--
ta--
tan--
tar--
te--
teh--
tele--
temp--
ter--
terro--
th--
tha--
the--
ti--
to--
tor--
tou--
tr--
tra--
trans--
tre--
tri--
tro--
tu--
tur--
tw--
ty--
u--
uk--
ul--
umpi--
un--
under--
uni--
up--
ur--
us--
usu--
ut--
v--
va--
vacc--
vag--
val--
vari--
ve--
ven--
ver--
vi--
vik--
vio--
virg--
vis--
vo--
vol--
w--
wa--
wal--
war--
wat--
we--
web--
wel--
west--
whe--
wic--
wiki--
wil--
wis--
wit--
wo--
won--
wor--
wri--
x--
xi--
y--
ya--
yas--
ye--
yo--
yu--
z--
za--
ze--
zo--
zu--
ɪ--
τ--
м--
ск--
ا--
ال--
ب--
د--
ر--
س--
ع--
م--
ن--
ک--
अ--
आ--
इ--
उ--
ए--
क--
ख--
ग--
च--
ज--
ट--
त--
द--
ध--
न--
प--
ब--
भ--
म--
य--
र--
ल--
व--
श--
ष--
स--
ह--
२--
আ--
ব--
ম--
র--
ਅ--
ਅਕ--
ਅਚ--
ਅਜ--
ਅਣ--
ਅਧ--
ਅਨ--
ਅਪ--
ਅਸ--
ਆ--
ਆਇ--
ਆਈ--
ਆਚ--
ਆਰ--
ਆਵ--
ਇ--
ਇਆ--
ਇਓ--
ਇਲ--
ਈ--
ਉ--
ਉਦ--
ਊ--
ਏ--
ਏਥ--
ਐ--
ਐਚ--
ਐਡ--
ਐਨ--
ਐਫ--
ਐਬ--
ਐਮ--
ਐਲ--
ਐਸ--
ਓ--
ਔ--
ਕ--
ਕਟ--
ਕਨ--
ਕਫ--
ਕਬ--
ਕਰ--
ਖ--
ਗ--
ਗਕ--
ਗਸ--
ਘ--
ਚ--
ਛ--
ਜ--
ਜਨ--
ਜਲ--
ਝ--
ਟ--
ਟਨ--
ਟਵ--
ਠ--
ਡ--
ਡਰ--
ਢ--
ਣ--
ਤ--
ਤਤ--
ਤਲ--
ਥ--
ਦ--
ਦਲ--
ਧ--
ਧਵ--
ਨ--
ਨਮ--
ਨਰ--
ਪ--
ਪਰ--
ਪਲ--
ਫ--
ਬ--
ਬਟ--
ਬਦ--
ਬਰ--
ਬਲ--
ਭ--
ਮ--
ਮਨ--
ਮਪ--
ਮਰ--
ਮਸ--
ਯ--
ਰ--
ਰਗ--
ਰਨ--
ਰਮ--
ਰਵ--
ਰਸ--
ਰਹ--
ਲ--
ਲਖ--
ਲਡ--
ਵ--
ਸ--
ਸਨ--
ਸਮ--
ਸਵ--
ਹ--
ਹਜ--
ਹਡ--
ਹਨ--
ਹਮ--
ਹਲ--
ੜ--
੦--
੧੯--
੨--
੨੦--
੩--
੪--
੫--
੬--
੭--
੮--
੯--
ੲ--
ੳ--
આ--
જ--
--0
--00
--1
--2
--3
--4
--5
--6
--7
--8
--82
--9
--a
--aa
--aan
--able
--acio
--ad
--ada
--ade
--ado
--af
--ag
--age
--ah
--ai
--aj
--ak
--aki
--al
--ala
--am
--ama
--an
--ana
--ance
--ances
--ang
--ani
--anisation
--ans
--ant
--ants
--ap
--aphy
--ar
--ard
--ari
--aries
--ary
--as
--at
--ata
--ate
--ated
--ates
--ath
--ating
--ation
--ations
--ative
--au
--ay
--az
--b
--ba
--be
--ber
--berg
--ble
--bs
--by
--c
--ca
--cal
--ce
--ced
--cent
--ces
--ch
--cher
--ci
--cio
--ck
--cks
--cky
--co
--craft
--cs
--ct
--ction
--cts
--cy
--d
--da
--dar
--date
--day
--de
--ded
--dh
--dhu
--di
--dia
--dit
--do
--dra
--ds
--du
--dy
--e
--ea
--eal
--east
--ect
--ects
--ed
--ee
--een
--eep
--eer
--ef
--eg
--ein
--ek
--el
--ela
--ell
--em
--en
--ena
--ence
--ens
--ent
--ents
--er
--ere
--ern
--ers
--ert
--erts
--ery
--es
--ese
--esh
--ess
--est
--et
--ett
--eve
--ew
--ey
--ez
--f
--fa
--ff
--fied
--field
--ful
--fy
--g
--ga
--gan
--ge
--ger
--ges
--gh
--ght
--gi
--gical
--ging
--go
--graphy
--gs
--gue
--gy
--h
--ha
--hal
--ham
--he
--her
--hes
--hi
--hing
--hip
--hn
--ho
--hood
--hop
--hr
--ht
--i
--ia
--ial
--ian
--ic
--ica
--ical
--ich
--ics
--id
--ide
--idence
--ie
--ied
--iel
--ier
--ies
--ight
--ik
--ika
--il
--ile
--ility
--im
--imate
--in
--ina
--india
--ine
--ined
--ing
--ings
--ini
--io
--ion
--ions
--ior
--ip
--ir
--is
--ise
--ish
--ision
--ism
--ist
--ists
--it
--ita
--ite
--ities
--ition
--ity
--ium
--ius
--ive
--ivity
--ix
--iya
--ization
--ized
--j
--ja
--ji
--jit
--k
--ka
--kar
--ke
--ken
--ker
--kh
--khar
--ki
--kot
--ks
--ku
--ky
--l
--la
--lar
--ld
--le
--led
--lem
--len
--ler
--ley
--lf
--li
--lia
--lie
--lin
--line
--lines
--ling
--list
--lity
--lk
--ll
--lla
--lle
--lly
--lm
--lo
--logical
--logue
--logy
--lon
--ls
--lt
--ly
--lyn
--m
--ma
--man
--me
--ment
--mer
--mi
--mic
--ming
--mn
--mology
--mon
--ms
--my
--n
--na
--nagar
--nah
--nam
--nard
--nce
--nces
--ncy
--nd
--nda
--nder
--ne
--nect
--ned
--ner
--ners
--nes
--ness
--ney
--ng
--ngs
--ni
--nia
--ning
--nity
--nium
--nk
--nn
--no
--ns
--nse
--nt
--nta
--ntly
--nts
--num
--ny
--o
--ock
--od
--og
--ography
--ohar
--oi
--ok
--ol
--ology
--om
--ome
--omy
--on
--onal
--one
--ong
--ons
--oo
--oor
--op
--or
--ora
--ore
--ors
--os
--ot
--ott
--ough
--ought
--ous
--out
--ov
--ow
--ows
--oy
--p
--pa
--pe
--ps
--pur
--q
--r
--ra
--ral
--ran
--rar
--ration
--rbo
--rd
--re
--rg
--ri
--ria
--ric
--rie
--ries
--ring
--rism
--rk
--rm
--rmal
--rn
--ro
--ron
--rp
--rry
--rs
--rse
--rt
--rty
--ry
--s
--sa
--sad
--sbury
--se
--sed
--ser
--ses
--sf
--sh
--sha
--shi
--ship
--si
--sia
--sion
--sions
--sis
--sk
--sm
--son
--sory
--ss
--ssa
--st
--ster
--sts
--sus
--sy
--t
--ta
--tal
--tan
--tar
--tation
--te
--ted
--ter
--tes
--th
--tha
--thy
--ti
--tic
--tics
--tinent
--ting
--tion
--tions
--tive
--tle
--tler
--to
--ton
--tor
--tory
--tra
--tri
--ts
--tt
--tte
--ture
--ty
--tz
--u
--ua
--ual
--ud
--ue
--ugh
--ught
--ul
--ult
--uly
--um
--une
--up
--ur
--ura
--ure
--uri
--us
--ut
--ux
--v
--va
--ve
--ver
--ves
--vi
--vo
--vy
--w
--wa
--way
--x
--y
--ya
--ye
--yer
--ys
--z
--za
--ze
--zi
--zia
--ʊ
--ι
--ς
--а
--и
--ич
--я
--ا
--ان
--ب
--ت
--د
--ر
--ل
--م
--ن
--ه
--و
--ي
--ں
--ی
--क
--त
--न
--र
--ल
--स
--ਅ
--ਆ
--ਆਰ
--ਈ
--ਉ
--ਏ
--ਐ
--ਐਲ
--ਐਸ
--ਓ
--ਕ
--ਕਰ
--ਖ
--ਗ
--ਗਰ
--ਘ
--ਚ
--ਛ
--ਜ
--ਟ
--ਟਨ
--ਟਰ
--ਠ
--ਡ
--ਣ
--ਤ
--ਤਨ
--ਥ
--ਦ
--ਧ
--ਨ
--ਪ
--ਪਤ
--ਫ
--ਫਏ
--ਬ
--ਭ
--ਮ
--ਯ
--ਰ
--ਰਜ
--ਰਤ
--ਰਨ
--ਰਸ
--ਲ
--ਵ
--ਸ
--ਸਟ
--ਸਤ
--ਸਨ
--ਹ
--ੜ
--੦
--੧
--੨
--੩
--੪
--੫
--੬
--੭
--੮
--੯
