!
"
#
##0
##1
##10
##11
##12
##13
##14
##15
##16
##17
##18
##19
##2
##20
##21
##22
##23
##24
##25
##26
##27
##28
##29
##3
##30
##31
##32
##33
##34
##35
##36
##37
##38
##39
##4
##40
##41
##42
##43
##44
##45
##46
##47
##48
##49
##5
##50
##51
##52
##53
##54
##55
##56
##57
##58
##59
##6
##60
##61
##62
##63
##64
##65
##66
##67
##68
##69
##7
##70
##71
##72
##73
##74
##75
##76
##77
##78
##79
##8
##80
##81
##82
##83
##84
##85
##86
##87
##88
##89
##9
##90
##91
##92
##93
##94
##95
##96
##97
##98
##99
$
%
&
'
(
)
*
+
,
-
.
/
0
00
000
0001
001
0026
003
005
006
007
009
01
013
02
020
0261
03
0362
04
05
0511
06
065
066
068
07
08
083
09
1
10
100
1000
1006
1007
101
1016
102
1025
1029
103
1037
1038
104
105
10518
106
107
108
1080
1083105259
1086
1088
109
1093
11
110
111
1111
112
1126
1128835405
113
114
1146
115
116
117
118
119
12
120
1200
121
122
1228
123
124
125
126
127
1279
128
129
13
130
1300
131
1313
132
133
134
1348
135
136
137
138
139
1394
14
140
1400
141
142
143
144
145
146
147
1471
148
149
15
150
1500
151
1511
1515
152
1520
1526
153
154
1546
155
156
1565
157
1577
158
159
1596
1598
16
160
1600
1602
1603
161
1610
1611
1619
162
163
1641
1642
1643
165
1653
166
1660
1663
1667
167
1675
1678
168
169
17
170
1700
171
172
1720
173
1734
174
1744
175
1750
1758
1759
176
1761
1768
177
1770
1772
1775
1776
1777
1778
178
1783
1785
1787
1789
179
1790
1791
1792
1793
1795
1799
18
180
1800
1801
1802
1806
1808
181
1810
1812
1813
1814
1815
1816
1817
1818
1819
182
1820
1821
1822
1823
1826
1827
1828
1829
183
1830
1831
1832
1833
1834
1835
1836
1837
1838
1839
184
1840
1841
1844
1846
1848
1849
185
1850
1851
1853
1855
1856
1857
1858
1859
186
1860
1861
1862
1863
1864
1865
1866
1867
1868
1869
187
1870
1871
1872
1873
1874
1875
1877
1878
1879
188
1880
1881
1882
1883
1884
1885
1886
1887
1888
1889
189
1890
1891
1892
1893
1894
1895
1896
1897
1898
1899
19
190
1900
1901
1902
1903
1904
1905
1906
1907
1908
1909
191
1910
1911
1912
1913
1914
1915
1916
1917
1918
1919
192
1920
1921
1922
1923
1924
1925
1926
1927
1928
1929
193
1930
1931
1932
1933
1934
1935
1936
1937
1938
1939
194
1940
1941
1942
1943
1944
1945
1946
1947
1948
1949
195
1950
1951
1952
1953
1954
1955
1956
1957
1958
1959
196
1960
1961
1962
1963
1964
1965
1966
1967
1968
1969
197
1970
1971
1972
1973
1974
1975
1976
1977
1978
1979
198
1980
1981
1982
1983
1984
1985
1986
1987
1988
1989
199
1990
1991
1992
1993
1994
1995
1996
1997
1998
1999
2
20
200
2000
2001
2002
2003
2004
2005
2006
2007
2008
2009
201
2010
2011
2012
2013
2014
2015
2016
2017
2018
2019
202
2020
2021
2022
2024
203
2032
204
205
206
207
208
21
210
211
212
213
214
215
216
217
219
22
220
221
222
223
224
225
226
227
228
229
23
230
2307
231
232
234
235
236
237
238
239
24
240
242
243
244
245
246
247
248
25
250
2500
251
252
253
254
255
256
257
258
259
26
260
262
263
264
265
266
267
269
27
270
271
272
273
275
277
278
279
28
280
281
283
284
285
287
289
29
290
291
292
293
294
295
296
297
298
299
3
30
300
3000
301
302
303
304
305
306
307
3077
308
309
31
310
311
312
313
314
315
316
317
318
319
32
320
321
323
324
325
326
329
33
330
331
333
334
336
337
338
339
34
340
341
343
344
345
346
347
348
349
35
350
351
352
354
355
356
357
358
359
36
360
361
363
364
365
366
367
37
370
371
373
375
377
378
38
380
381
383
384
385
39
390
391
393
394
395
398
4
40
400
404
406
407
409
41
412
413
415
416
418
42
4200
423
427
43
430
4331
435
436
438
44
440
442
443
444
445
449
45
450
453
46
460
461
468
47
471
473
48
481
482
483
487
49
490
498
5
50
500
503
504
51
52
520
521
525
528
529
53
530
539261
54
541
542
543
545
5491
55
550
56
567
5672
57
576
58
580
59
598
6
60
600
602
605
61
6166
62
623
627
63
630
631
637
639
64
65
654
66
662
666
67
671
674
675
679
68
680
684
69
690
7
70
700
702
709
71
72
720
724
73
737
739
74
75
750
76
77
776
777
78
780
79
8
80
800
801389
8018
81
819
82
8221
83
830
84
85
850
86
864
87
871
88
89
9
90
900
91
92
920258516
93
94
95
950
957057293
96
960
97
978
9780198767237
9780199640133
9789796659845
979
9794074098
98
981
99
996
9971
:
;
<
=
>
?
@
[
\
]
^
_
`
a
aa
aam
aan
aaron
ab
abad
abadi
abah
abahnya
abang
abat
abbasiyah
abc
abdi
abdoel
abdul
abdullah
abdurrahman
abe
abel
abendanon
abimanyu
abjad
abjat
abkhazia
abortus
about
abraham
abri
absolut
abstract
abstrak
abu
abubakar
abugida
abulung
ac
academic
academy
acar
acara
acces
access
accessdate
accessdaymonth
accessed
accessyear
according
account
ace
aceh
achmad
aci
acil
across
act
action
activities
actor
acts
acuan
acute
ad
ada
adaan
adab
adakalanya
adakan
adalah
adam
adams
adanya
adaptasi
adaptif
adapun
adat
addario
addis
address
adelaide
adele
aden
adha
adherents
adi
adicita
adikku
adil
ading
adingnya
adipati
adit
aditya
adj
admin
administrasi
administratif
administration
administratip
administrative
adnan
adolf
adonan
adonis
adopsi
adriaan
adrian
adu
adunan
adupan
advanced
advances
adventure
advisory
ae
aer
aeronautics
afdeeling
affairs
affandi
afganistan
afghanistan
afif
africa
african
afrika
after
ag
against
agak
agama
agamaan
agamanya
agar
agder
age
agen
agency
ages
aglutinasi
agnes
agni
agnostik
agnostisisma
ago
agong
agre
agreement
agriculture
agrikultur
agung
agus
agustus
ah
ahad
ahir
ahirnya
ahli
ahmad
ahmed
ahuy
ai
aiakos
aichi
aids
aing
ainu
ainul
aiolos
aiphama
air
airbus
aircraft
airlangga
airlines
aja
ajak
ajakan
ajang
ajaran
aji
ajin
ajung
aka
akad
akademi
akademik
akademis
akademisi
akal
akan
akannya
akar
akarnya
akb
akbar
akershus
akheron
akhir
akhiran
akhirat
akhirnya
akhmad
akibat
akibatnya
akil
akmal
akomodasi
aksara
akse
aksen
akses
aksi
aksis
akta
aktif
aktip
aktipis
aktipitas
aktivis
aktivitas
aktor
aktris
aktur
aku
akuarium
akui
akulturasi
akurasi
akurat
akustik
akut
al
ala
alabio
alai
alalak
alam
alamat
alami
alamiah
alaminya
alan
alang
alas
alasan
alasannya
alaska
alat
albania
albany
albert
alberto
albion
album
alcu
ale
aleksandr
alergi
alex
alexa
alexander
alexandria
alfa
alfabe
alfabet
alfred
algeria
ali
aliansi
alias
alice
alih
alim
alimuddin
aliran
aljazair
alkah
alkisah
alkitab
alkohol
alkuhul
all
alla
allah
allahu
allamah
allen
alliance
alm
alma
almakky
almanak
almarhum
almasih
alokasi
alon
alonso
alor
alpabit
alpha
alphabet
alpukat
alquran
alri
also
alta
altar
alternasi
alternatif
alton
alu
aluh
aluminium
alun
alunan
alur
alus
alva
always
am
amal
amalan
amami
aman
amanan
amanat
amanda
amang
amarta
amas
amatir
amazon
ambalau
ambang
ambawang
ambawaŋg
amber
ambil
ambin
ambon
ambun
ame
amelia
america
american
amerigo
amerika
ames
amfibi
amhar
amharic
ami
amin
aminah
amini
aminullah
amir
amiriah
amirika
amman
among
amonia
ampah
ampang
ampar
ampat
ampel
ampelgading
amphoe
ampih
ampihan
ampu
ampuh
ampun
ampuni
ampunku
ampunnya
amrullah
amsterdam
amun
amunnya
amuntai
amy
an
ana
anai
anak
anakku
anaknya
analisis
analogi
analysis
anam
ananda
anang
ananta
anatolia
anatomi
anatomy
anatumi
ancalong
ancaman
ancap
ancient
and
anda
andai
andak
andakan
andakannya
andaki
andaknya
andalas
andalus
anderson
andes
andi
andika
andin
andir
ando
andra
andre
andrea
andreas
andrew
andrews
anduk
andy
aneh
aneka
ang
angel
angeles
angelina
angelo
anggal
anggana
anggang
anggap
anggapan
anggaran
anggit
anggota
anggotanya
anggrek
anggur
angguta
anggutanya
angin
angka
angkanya
angkara
angkasa
angkat
angkatan
angkau
angkinang
angkit
angklung
angkut
angkutan
angle
anglikan
angoi
angola
angsa
angsana
angsul
angsulan
angui
angus
ani
anima
animal
animals
animasi
animator
animatur
anime
anis
anita
anjeun
anjeunna
anjing
anjir
anjung
anjungan
ankara
ann
anna
annan
anne
annemarie
anniversary
anno
announced
annual
annurev
annya
anom
anonim
another
ansary
anta
antang
antangan
antar
antara
antarabangsa
antaranews
antaranya
antarbangsa
antarbintang
antariksa
antariksawan
antarktik
antarktika
antarnegara
antartika
antasan
antasari
ante
antemas
anterior
anthony
anti
antibodi
antigen
antiokia
antologi
anton
antoni
antonio
antony
antropolog
antropologi
anu
anugerah
anum
anumerta
anus
anwar
any
anyaman
anyar
ao
aoki
aol
apa
apabila
apakah
apalagi
apam
apapun
aparat
aparatur
apari
apartheid
apbd
apbn
apel
apes
apganistan
aphelion
api
apinya
apj
aplikasi
apo
apollo
apostolik
apple
applications
applied
approach
approx
apr
apresiasi
aprika
april
aqsa
aqsha
ar
ara
arab
arabi
arabia
arabian
arabic
arah
arahat
arai
arak
aram
arang
aranio
aranjeunna
arap
arba
arc
arcadia
arcgis
archaeological
archaeology
archer
archipel
archipelago
architecture
archive
archived
archives
archuleta
ardiansyah
are
area
areas
aren
ares
argentina
argumen
argyle
ari
aria
arie
arief
ariel
arif
ariffin
arifin
aristoteles
ariya
arjasari
arjuna
arkansas
arke
arkeolog
arkeologi
arktik
arlington
armada
armenia
army
arnold
arosbaya
around
arpah
arrest
arriba
arsip
arsite
arsitek
arsitektur
arsyad
art
artefak
arthropoda
arthur
arti
artian
article
articles
artikal
artikel
artikulasi
artinya
artis
artist
arts
aru
aruh
arung
arus
arut
aruwah
arwah
arxiv
arya
aryan
as
asa
asahan
asal
asalkan
asalnya
asam
asan
asap
asas
asasi
asean
asemrowo
aseri
aset
ash
ashland
ashraf
asi
asia
asian
asimilasi
asin
asing
asingnya
asisten
ask
asked
asker
askøy
asli
aslinya
asma
asmara
asosiasi
aspe
aspek
aspik
aspirasi
aspx
assembly
assessment
associated
association
astambul
asteroid
asteroids
asteruid
astilah
astiruit
astra
astronauts
astronom
astronomi
astronomical
astronomis
astronomy
astrophysical
astrophysics
astrunumi
asturias
asumsi
asura
asuransi
aswatama
asy
at
ata
atanapi
atap
atas
atasan
atasnya
atatu
atau
ataupun
ataw
atawa
atawapun
ate
ateis
ateisma
atheism
atheist
athena
athens
atheos
atlanta
atlantic
atlantik
atlas
atlet
atlit
atlitik
atmosfer
atmosfernya
atmosfir
atmospheric
atmuspir
atol
atom
atomic
atraksi
atta
atulai
atur
aturan
au
auburn
audi
audio
auflage
aug
august
augusta
augustus
aulia
aur
auran
aurora
austin
australasia
australasian
australia
australian
austria
austronesia
austronesian
author
authority
authors
auto
autoimun
avalanche
aviation
avocado
avon
awai
awak
awaknya
awal
awalan
awalnya
awam
awamnya
awan
awang
award
awards
awau
away
awayan
awinan
aya
ayah
ayahnya
ayam
ayat
ayatullah
ayu
ayuh
ayunan
ayungannya
az
azerbaijan
azerbaijani
azeri
azeris
azhar
aziz
b
ba
baabad
baada
baadaptasi
baagama
baah
baakar
baal
baalamat
baalih
baalun
baampah
baampihan
baandak
baandakan
baanggutaakan
baapi
baarti
baasa
baasal
baaturan
baawak
baayak
baayun
bab
babad
babagai
babagi
babahan
babahasa
babahaya
babak
babakan
babakas
baban
babanaran
babanding
babangat
babantuk
babanyak
babanyu
babarang
babarapa
babaris
babasa
babasis
babasuh
babat
babatas
babatasan
babatis
babatuan
babau
babaya
babe
babeda
babentuk
baberapa
babi
babibit
babida
babilon
babilonia
babini
babinian
babirik
babuah
babuat
babuhan
babujuran
babuka
babulik
babulikan
babuliknya
babulu
babuncu
babungulan
babuntut
babunyi
baburu
baby
baca
bacaan
bacadar
bacahaya
bacakut
bacampur
bacangkal
bacangkurah
bacari
baciri
back
background
bacon
baculas
bad
badagang
badahulu
badai
badak
badakwah
badal
badampak
badan
badangsanak
badapat
badapatan
badarah
badaras
badasar
badasarakan
badasarkan
badau
badauh
badaulat
badaun
bade
baden
badiam
badikit
badimapa
badingsanak
badiri
badirinya
badoa
badu
badua
baduduk
badung
baduri
baduy
bae
baelang
bafungsi
bagabung
bagai
bagaimana
bagaimanapun
bagalar
bagalung
bagamatan
bagana
baganal
baganalan
bagancangan
baganti
bagantian
bagantung
bagarak
bagarakan
bagaringan
bagaris
bagarumbung
bagasi
bagawan
bagawi
bagawian
bagaya
bagayaan
bagdad
bage
baggini
bagi
bagian
bagimitan
bagipakan
bagir
bagitu
bagonolan
bagridae
bagun
baguna
baguru
bagus
bagusnya
bah
bahadangan
bahadapan
bahagia
bahagian
bahakon
bahakun
bahalang
bahalat
bahalatan
bahama
bahamburan
bahan
bahana
bahancap
bahannya
bahanu
baharaga
baharap
baharga
bahari
baharinya
bahasa
bahasil
bahatap
bahati
bahau
bahawa
bahaya
bahias
bahinak
bahintalu
bahinti
bahinu
bahira
bahkan
bahri
bahru
bahu
bahua
bahubungan
bahuma
bahurup
bahuwa
bahwa
bahwasanya
baibadah
baiduri
baigal
baiisi
baik
baiknya
bailang
baimbai
baimbaian
baindik
baingkut
baingkutan
baintalu
bair
bairama
baisi
baisian
baisukan
bait
baitul
baja
bajak
bajalan
bajalanan
bajamaah
bajanis
bajanji
bajapaian
bajarak
bajarang
bajaruk
bajau
bajauh
bajaya
baji
bajijir
baju
bajual
bajualan
bajuang
bajudul
bajuin
bajumbelah
bajumlah
bajunya
bak
baka
bakabangsaan
bakadudukan
bakaitan
bakajadian
bakajalan
bakajutan
bakakuatan
bakal
bakalahi
bakalakuan
bakalir
bakalumbun
bakalumpuk
bakambang
bakanaan
bakantan
bakapala
bakapasitas
bakar
bakaramput
bakarangan
bakas
bakat
bakau
bakawal
bakawalan
bakawan
bakawinan
bakelok
baker
bakeri
bakiauan
bakiblat
bakilau
bakipit
bakisah
bakisar
bakitar
bakitaran
bakpao
bakrie
baksa
bakso
baksu
bakteri
bakti
baku
bakualitas
bakuasa
bakubui
bakuciak
bakuciakan
bakul
bakula
bakulih
bakuliling
bakulimbit
bakulit
bakumintar
bakumpai
bakumpul
bakumpulan
bakung
bakunyung
bakurang
bakurangnya
bakuriak
bal
bala
balabihan
balabuh
baladewa
balah
balahan
balai
balain
balainan
balajar
balajuan
balakang
balakangan
balakangnya
balaki
balaku
balalu
balam
balamut
balanda
balang
balangan
balangsung
balanjut
balap
balapis
balas
balasan
balatar
balawanan
balayar
bale
balears
balen
bali
balig
balik
balikitan
balikpapan
baliku
balimbing
balindung
baling
balit
balitung
balkan
ball
balogo
balok
balongan
baloy
baltimore
balu
balubang
baluk
balukuk
balum
baluman
balunggai
balut
bamacam
bamagin
bamain
bamainan
bamakin
bamakna
bamaksud
bamalam
bamamacam
bamamakan
bamandak
bamanfaat
bamara
bamarkas
bamasak
bamata
bamban
bambang
bambu
bame
baminyak
bamula
bamupakat
bamutu
ban
banaik
banaikan
banama
banana
banang
banar
banarai
banaran
banarsidass
banawa
bancana
banci
bancir
band
banda
bandang
bandanya
bandar
bandara
bandira
bandjarmasin
bandjermasin
bandjermasinsche
bandung
bang
bangaran
bangat
bangawan
bangka
bangkai
bangkak
bangkal
bangkalan
bangkit
bangkok
bangkong
bangkrut
bangku
bangladesh
bangsa
bangsawan
bangsul
bangun
bangunan
bangunannya
bani
baniat
banih
banilai
baning
banjang
banjar
banjaran
banjarbaru
banjarejo
banjarese
banjari
banjarmasih
banjarmasin
banjarmasinpost
banjarnegara
banjary
banjir
bank
bantai
bantal
bantalan
bantam
bantan
bantar
banten
banteng
bantin
bantu
bantuan
bantuk
bantuknya
banua
banuanya
banun
banyak
banyakan
banyaknya
banyala
banyanyi
banyu
banyuke
banyunya
banyuwangi
baorientasi
bapa
bapadah
bapak
bapaksaan
bapandal
bapandapat
bapandir
bapandiran
bapanduduk
bapangaruh
bapanggana
bapanjang
baparak
baparakan
baparan
bapasangan
bapende
baperioda
bapiduhal
bapijiman
bapikir
bapindah
bapingkut
bapingkutan
bapintal
bapipinta
bapirik
bapisah
baptisan
bapuasa
bapugaan
bapungsi
bapura
bapusat
bapusing
baputar
bar
bara
barabah
barabai
barack
baracun
barada
baragam
baraitan
barakas
barakat
barambai
baranak
baranakan
baranakkan
barancana
barandak
barang
barangnya
barani
barapa
bararti
baras
barasa
barasal
barasih
barat
barata
barataan
baratnya
barbados
barbagai
barbara
barbatasan
barbuat
barcelona
bardasarkan
bardiam
bare
bareng
barganti
barhasil
bari
bariaksi
barikit
barikut
barikutnya
baririgat
baris
barisan
baristeri
barita
barito
barkambang
barkat
barkata
barlaki
barlaku
barlayar
barnama
barnard
barnes
barnhart
baroleh
baron
barong
baros
barre
barry
barsama
barsuka
bartinggal
bartlett
baru
baruda
baruh
baruna
barunai
barungkau
barungkis
barupa
barutasi
basa
basadia
basah
basaing
basajarah
basakian
basakulah
basakutu
basal
basalah
basalin
basama
basamaan
basambang
basambung
basambunyi
basanga
basanjata
basanya
basapai
basapida
basar
basarang
basarnya
basarta
basasanga
basatu
based
basho
bashori
basi
basic
basifat
basikap
basin
basinghaja
basipat
basirih
basis
basisiap
basisik
basisingut
baske
basket
baso
basri
basry
basshunter
bastatus
bastian
basuara
basubalahan
basubarangan
basuh
basuki
basuku
basusun
baswedan
bata
batabun
bataguh
batahan
batahap
batahun
batahuran
batajun
batak
batakar
batakun
batal
batam
batamam
batambah
batampah
batampai
batampat
batamu
batamuan
batan
batanam
batanda
batang
batangan
batanggung
batangnya
batantangan
batantu
batara
batarus
batarusan
batas
batasan
batavia
bataviaasch
batawas
bates
bati
batian
batianan
batik
batikasan
batilam
batima
batin
batina
batindak
batinggi
batingkulupan
batipe
batis
batisnya
batitik
batoe
battle
batu
batuah
batuan
batubara
batugas
batujuan
batuk
batukup
batulak
batulang
batulicin
batulima
batumat
batung
batunggal
batungkau
baturai
batutukar
bau
baubah
baucap
baugah
baujar
baujut
baukir
baukuran
baulah
baulang
baulih
baumpat
baumur
baung
bauntung
baunya
bauparasi
baurang
baureno
bausaha
bausia
baut
bavaria
bavariasi
bawa
bawaan
bawah
bawahan
bawahnya
bawang
bawarna
bawatasan
bawisa
bawujud
bay
baya
bayam
bayan
bayangan
bayar
bayaran
bayern
bayi
bayu
bayur
bayut
bbc
be
bea
beach
bearbeitet
beasa
beasiswa
beaufort
beautiful
beauty
beaver
bebas
bebek
beberapa
because
beck
beckett
beda
bedah
bedanya
bedford
bedil
beduai
bedug
bee
been
beetles
before
begabung
begawan
begin
begitu
behe
behind
beijing
being
beisi
beisian
bekas
bekasi
bekerja
beku
bel
bela
belajar
belakang
belaloe
belanda
belanja
belarus
belas
belawan
belawang
bele
belengkong
belerang
belgia
beli
beliau
belief
beliefs
believe
belimbing
belitang
belitung
bell
belle
bellevue
below
belt
belum
belut
ben
benang
benar
benawa
bencana
bend
benda
bendera
bendungan
benedict
bengali
bengalon
benggala
bengkal
bengkalis
bengkayang
bengkel
bengkok
bengkulu
benin
bening
benito
benjamin
benowo
bensin
bentang
benteng
bentian
benton
bentuk
bentuknya
benua
benz
berada
beradab
beradik
berahmana
berakhir
beralih
beranggapan
berani
berarti
beras
berasal
berat
berau
berbagai
berbahasa
berbasis
berbatasan
berbeda
berbentuk
berdarah
berdasarkan
berdaulat
berdiri
berdirinya
berdua
beredar
bereng
berevolusi
berfungsi
bergabung
berganti
bergaya
bergelar
bergen
berger
bergerak
bergson
berhala
berharga
berhasil
berhubungan
berikut
berikutnya
beringin
berisi
berita
beritasatu
berjalan
berjudul
berkaitan
berkat
berkeley
berkembang
berkuasa
berlaku
berlangsung
berlin
bermain
bermakna
bernama
bernard
bernegosiasi
bernhardt
beroperasi
berpengaruh
berperan
berperang
berpulang
berputra
bersama
bersamaan
bersatu
bersejarah
bersifat
bertanggung
bertapa
bertarung
berte
bertemu
bertentangan
bertindak
bertugas
beruang
berubah
berukuran
berumur
beruntung
berupa
berusaha
bervariasi
berwarna
berwujud
besar
beserta
besi
best
bestari
beta
betang
betawi
betina
betlehem
betta
betul
betung
between
beverly
beyond
bh
bha
bhagawadgita
bhakti
bharata
bharatawarsha
bharatayuddha
bhatara
bhikkhu
bhutan
bhutto
bi
biaju
biak
bial
biang
biar
biara
biarawan
bias
biasa
biasanya
biatan
biawak
biaya
biała
bibas
bibcode
bibimbap
bibinian
bibir
bibit
bible
bibliography
bicak
bicara
bida
bidaah
bidadari
bidak
bidal
bidan
bidang
bidawang
bidoih
biduk
bieber
big
bigi
biginya
bigung
bijak
bijaksana
biji
bijih
bijinya
bika
bila
bilah
bilang
bilangan
bilarusia
bilici
bill
billah
billar
billboard
billion
biluk
bilukan
bilung
bilungka
bima
bimbingan
bin
bina
binari
binasa
binatang
bingka
bingkarungan
bingkis
bingkudu
bingung
bini
binian
bininya
binjai
binomial
bintang
bintangnya
binti
bintik
bintil
binting
binuang
bio
biodiversity
biografi
biographical
biography
biokimia
biola
biologi
biologis
biology
biorxiv
bioskop
bir
biranga
birayang
bird
biri
birmingham
biro
birth
biru
birute
bis
bisa
bisi
biskup
bisma
bisnis
bissau
bit
bituminus
biulugi
biulugis
biuskup
biyuku
bjn
bk
black
blackwell
blair
blambangan
blanc
blanchard
blazer
bleeker
blega
bleu
blind
blog
blogger
blogspot
blok
blood
bloomington
blora
blue
bluff
bluluk
blus
bn
bnpb
bo
board
boat
bob
bobo
bobot
boccaccio
body
boeing
bogor
boh
bojonegoro
bojongloa
bojongsari
bojongsoang
bok
bol
bola
bolang
bolango
boleh
bollywood
bolon
bom
bomb
bombay
bon
bondan
bone
bonel
bongan
bontang
bonti
book
booker
books
boreas
boris
borne
borneo
borobudur
bos
bosna
bosnia
boston
botani
both
botswana
bottles
boven
box
boy
boyan
boyd
boys
bp
bpip
bpk
bps
bradley
braham
brahman
brahmi
branch
brasil
brata
bratwurst
braun
brazil
breaking
brebes
breeds
brekstad
bremen
brems
brian
bridge
bridgeport
brief
briefing
brien
bright
brill
brisbane
bristol
britain
britania
britannica
british
broadway
brondong
brontok
brook
brooklyn
brooks
brother
brothers
brought
brown
brt
bruari
bruce
bruijn
brun
brunai
brune
brunei
bryan
bt
bu
bua
buah
buahan
buahbatu
buahnya
buang
buas
buat
buatan
buaya
bubble
bubuhan
bubuhannya
bubuk
bubungan
bubur
bubutan
buda
budak
budapest
budaya
budayanya
budayawan
buddha
buddhisme
budha
budi
budidaya
buena
bueng
buffalo
bugis
buhan
buhannya
buhaya
buhuannya
buih
building
bujang
bujur
bujuran
bujurnya
buka
bukaan
bukah
bukan
bukanlah
bukhari
bukit
bukti
buku
bukunya
bula
bulak
bulan
bulannya
bulat
bulatan
bulatn
bulgaria
bulih
bulik
bulikan
bull
bulletin
bulu
buluh
bulungan
bulus
bum
bumbu
bumi
bumn
bun
buncu
buncunya
bunda
bundar
bung
bunga
bungas
bungin
bunglon
bungsu
bungul
bungur
bunker
buntut
buntutnya
bunuh
bunut
bunyi
bunyian
bunyinya
bunyu
bupati
burden
bureau
buri
burinik
buriram
burit
burke
burkina
burlington
burma
burneh
burns
bursa
buruh
buruk
burundi
burung
bury
bus
busana
busang
bush
business
busur
but
buta
buting
butingan
butir
butiran
butler
butte
butuh
butul
buyut
by
byasa
byron
bø
bømlo
c
ca
cabang
cabangnya
cabgan
cabor
cacah
cacahar
cacak
cacar
cacat
cacing
cadangan
caesar
cagar
cagaran
cagat
cahaya
cahayanya
cair
cairan
cakah
cake
cakra
cakram
cakrawala
cakupan
cala
calap
calculations
caldwell
calendar
california
calimut
calne
calon
calun
calvin
calya
cam
camara
camargue
cambridge
camden
cameron
camp
campak
campaka
campbell
campur
campuran
camus
can
canada
canadian
canberra
cancer
candi
candidate
cangang
canggar
cangkal
cangkang
cangkaruk
cangkih
cangkir
cantang
canterbury
cantian
canton
cantung
canyon
cao
cap
cape
capita
capital
capkala
car
cara
caramah
carang
caranya
care
carey
cargo
cari
carita
carl
carlo
carlos
carmen
carolus
carroll
carrollton
carry
cars
carta
carter
carthage
case
cases
castello
castle
cat
catalogue
catat
catatan
catch
category
catfish
catherine
catholic
cats
cattle
catuk
catur
catus
caused
causes
cave
cawapres
cbc
cbs
cc
cd
cdc
ce
cedar
cefiro
ceko
cekoslowakia
cekungan
celebrity
celestial
cemara
cempaga
cempaka
cendana
cendawan
cendekiawan
census
centaur
centauri
center
centers
centerville
central
centre
centuries
century
ceo
cepa
cepat
cerbon
cerdas
ceremony
ceres
cerita
cermin
cerpen
cervicalis
cet
cetakan
ceylon
cf
ch
cha
chachoengsao
chad
chagai
chai
chaiyaphum
challenge
challenges
chaloem
champa
chan
chandler
chandra
chandrayaan
chang
change
changing
channel
chao
chapman
chapter
char
character
charles
charleston
charlotte
charoen
charon
chart
charter
chat
chaturanga
che
chechen
chechnya
cheesecake
chef
chemical
chemistry
chen
cheng
chester
chevrolet
chi
chiang
chiba
chicago
chico
chief
child
children
chile
chili
chillicothe
chin
china
chinese
ching
chiriqui
cho
chocolate
chok
chola
chom
chris
christian
christina
christine
christmas
christopher
chronicle
chronolgies
chronology
chu
chum
church
cia
cibeber
cibeunying
cibeureum
cicalengka
cicero
ciciri
cid
cikal
cikang
cikole
cil
cilacap
cile
cilegon
cilengkrang
cilik
cilodong
cimahi
cimanggis
cina
cincin
cindai
cinderella
cinema
cinere
cinta
cintapuri
ciparay
cipayung
cipedes
cipta
ciptaan
cirat
circ
circa
circle
cirebon
ciri
cirinya
ciris
cita
citak
citakan
citamiang
citation
cite
cited
citeureup
cities
citing
citra
citrasena
city
civil
civilization
claim
claims
clare
clarendon
clarias
clariid
clariidae
clark
clarksville
class
classic
classical
classics
classification
claude
clay
clayton
cle
clear
clementine
cleveland
clifton
climate
cline
clinical
clinton
clio
close
cloud
clouded
club
clyde
cm
cn
cnn
co
coal
coast
coauthors
coba
coca
cocok
cocos
code
codes
coen
coendou
coffee
cogens
cognitive
cohen
cok
cokelat
coklat
col
cola
cold
cole
coleman
coleoptera
colin
collection
college
collins
colo
colonial
colony
colorado
colour
columbia
columbus
com
comedy
comes
comets
coming
commedia
commentary
commerce
commission
committee
common
commons
commonwealth
communication
communications
communities
community
compact
compacttoc
compagnie
companion
company
comparative
competition
complete
complex
complications
composition
comprehensive
computer
con
concepcio
concise
conference
congress
connecticut
connor
conrad
conservation
constitution
consumption
contemporary
content
continental
contoh
contohnya
contracting
control
controlled
controversy
convention
conway
cook
cooking
cooper
copyright
cornelis
cornell
corona
coronavac
coronavirus
coronaviruses
corporation
corpus
cos
cosmic
costa
cot
cotton
cottonwood
coturnix
could
council
countries
country
county
coup
cours
court
cov
cove
covenant
covid
craig
crazy
cream
creative
creek
crescent
cretaceous
cristiano
critical
croatia
cross
crown
cruises
cruz
crystal
cs
css
cu
cuaca
cuba
cucak
cuci
cucu
cucubaan
cucuk
cucuku
cucunya
cuk
cukup
culas
cultural
culture
cultures
cuma
cumberland
cumi
cungul
cungulnya
cuntuh
cuntuhnya
cup
cuping
curah
curak
current
curug
cut
cutbray
cuti
cyber
cycle
cz
d
da
dabu
dabut
dad
dada
dadahup
dadalang
dadap
dadu
dae
daeng
daerah
daftar
dagang
daging
dagingnya
dagu
dah
daha
dahal
dahan
dahi
dahinya
dahlan
dahulu
dahulunya
dai
daihatsu
daily
dairah
dairahnya
dak
dakota
dakwah
dalam
dalamnya
dalang
dalapan
dalil
dallas
dam
damai
damak
damang
damar
damaskus
damikian
damini
damintu
dampak
dan
dana
danang
danau
danaw
dance
danda
dandang
dander
dangan
dangar
dangdut
danger
dangerous
dangkal
dangsanak
dangsanaknya
daniel
dansa
dante
danul
danum
danville
danyut
dao
dapa
dapat
dapatan
daptar
dapur
dar
dara
darah
darajat
daras
darat
daratan
darham
dari
daring
daripada
dark
darma
darsono
darul
darurat
darussalam
darwin
das
dasar
dasarnya
dasawarsa
dashboard
dasi
data
database
datah
datang
datangan
datangnya
datar
dataran
date
dati
datik
dato
datu
datuk
daud
daughter
dauh
daun
daunnya
daur
dave
david
davidson
davis
dawson
day
daya
dayak
dayang
dayeuhkolot
days
dayton
dbd
dc
de
dead
deal
dear
death
deaths
debat
debre
debris
debu
debut
debutnya
dec
decameron
decatur
december
declaration
dedai
deep
deer
defense
definisi
definition
degree
dekade
dekan
dekat
deket
deklarasi
del
delang
delaware
deledda
delegasi
delhi
delima
dell
della
delle
delta
dem
demak
demam
demang
dembour
demensia
dementia
demi
demikian
demikianlah
democracy
demografi
demokrasi
demokrat
demokratik
demokratis
demonstrasi
den
dendam
dendang
dengan
dengue
denison
denmark
dennis
denominasi
denpasar
depa
depan
departemen
department
depdikbud
depok
deposit
deputi
der
derajat
deras
derawan
derek
derogation
des
desa
desain
description
desember
desentralisasi
design
deskripsi
det
detail
detailed
detektif
detik
detikfinance
detiknews
detroit
deui
deutsche
deutschen
developer
development
devon
devonian
dewa
dewan
dewanagari
dewantara
dewasa
dewata
dewi
dexter
dhabi
dharma
di
dia
diabadiakan
diabaikan
diabetes
diadaakan
diadakan
diadopsi
diagram
diajukan
diakses
diaku
diakui
dialamatakan
dialami
diale
dialect
dialek
dialihakan
dialik
dialisat
dialog
dialuk
diam
diambil
diameter
diameternya
diamitir
diamond
diampuni
dian
diandak
diandaki
dianggap
dianggo
diangkat
dianjurakan
diantara
diantaranya
dianugarahi
dianugerahi
dianut
diario
diarsipkan
diartiakan
diartikan
diary
diasingakan
diatas
diatur
diawali
diawitakan
dibabak
dibabat
dibaca
dibagi
dibahas
dibaiki
dibakar
dibalah
dibanam
dibanding
dibandingakan
dibandingkan
dibangun
dibantu
dibantuk
dibari
dibariakan
dibarii
dibarikan
dibasa
dibatasi
dibawa
dibawaakan
dibawah
dibawanya
dibayar
dibedaakan
dibedakan
dibentuk
diberi
diberikan
dibiarakan
dibiarkan
dibibasakan
dibibit
dibintangi
dibuahi
dibuang
dibuat
dibubarakan
dibudidayakan
dibuka
dibuktiakan
dibulihakan
dibulikakan
dibumbui
dibungkus
dibunuh
dicabut
dicampur
dicampurakan
dicantumakan
dicapai
dicari
dicatat
dicatuk
diceritakan
dicetak
dicintai
diciptaakan
diciptakan
dicitak
dictionaries
dictionary
dicuba
diculik
dicungulakan
dicuntan
did
didalam
didalamnya
didangani
didapat
didapatakan
didapati
didapatkan
didasarakan
didasari
didasarkan
didatangakan
didatangi
didefinisikan
didiami
didieu
didinginakan
didiriakan
didiriakannya
didirikan
didominasi
diduga
didukung
diduminasi
die
died
diego
dies
diesel
diet
dietrich
difference
differences
different
digabungakan
digalar
digalari
digambarakan
diganai
diganti
digantiaakan
digantiakan
digantung
digarakakan
digawi
digest
digiling
digital
digolongakan
digulung
digulungakan
diguna
digunaakan
digunakan
dihabisakan
dihadang
dihadap
dihadapan
dihadapi
dihadiri
dihaga
dihancurakan
dihandaki
dihanyari
dihapus
diharagu
diharapakan
diharapkan
dihargai
diharu
diharusakan
dihasilakan
dihasilkan
dihiasi
dihibaki
dihiga
dihilangakan
dihindari
dihiris
dihitung
dihubungakan
dihubungkan
dihukum
dihuni
diidentifikasi
diigut
diikat
diikuti
diingat
diingkuti
diingu
diinya
diiringi
diisi
diitihi
dijabarakan
dijabat
dijadi
dijadiakan
dijadikan
dijadwalakan
dijaga
dijahit
dijajah
dijalanakan
dijalasakan
dijamur
dijanak
dijanaki
dijarang
dijelaskan
dijual
dijuhut
dijuluki
dijulung
dijumpai
dijumput
dikaduakan
dikahandaki
dikaitakan
dikaji
dikalahkan
dikalasipikasiakan
dikaluarakan
dikalumpukakan
dikambangakan
dikanal
dikaranakan
dikarang
dikaringakan
dikatahuani
dikatahui
dikatakan
dikatam
dikategorikan
dikatujui
dikawani
dikawinakan
dike
dikelola
dikembangkan
dikenakan
dikenal
diketahui
dikiau
dikiaw
dikikira
dikikiraakan
dikinum
dikira
dikirim
dikisahakan
dikiyau
diklaim
diklasifikasikan
dikonsumsi
dikritik
diktator
dikuasai
dikubur
dikuburakan
dikulihakan
dikulihi
dikulilingi
dikumandangakan
dikumpulakan
dikunjungi
dikurangi
dikuya
dilacak
dilaga
dilahirakan
dilainakan
dilajari
dilaksanaakan
dilaksanakan
dilakuakan
dilakukan
dilalui
dilanda
dilangkapi
dilanjutakan
dilantik
dilapas
dilapasakan
dilapisi
dilaporakan
dilaporkan
dilapurakan
dilarang
dilatih
dilebur
dilengkapi
dilihat
dilihati
dilihatnya
dilindungi
dilisanakan
diluar
diluncurakan
dilungsurakan
dimainakan
dimakamkan
dimakan
dimaksud
dimaksutakan
dimana
dimanapaatakan
dimanfaatakan
dimanfaatkan
dimanpaatakan
dimarga
dimargaakan
dimasak
dimasukakan
dimasuki
dimasyhurkan
dimensi
dimiliki
diminsi
diminta
diminum
dimuat
dimukrasi
dimukratis
dimula
dimulai
dimulainya
dimumuri
din
dina
dinah
dinamai
dinamakan
dinamika
dinamis
dinas
dinasti
dinding
dingaranakan
dingarani
dingin
dingsanak
dingsanaknya
dini
dinilai
dinis
dinobatkan
dinten
dinyanyiakan
dinyata
dinyataakan
dinyatakan
dioksida
dionisos
dipa
dipacah
dipacul
dipadahakan
dipahami
dipakai
dipakaiakan
dipaksa
dipaksin
dipalajari
dipalu
dipanasakan
dipandang
dipandirakan
dipangaruhi
dipanggang
dipanggil
diparaja
diparantarai
diparcaya
diparcayai
dipariksa
diparingati
diparintah
diparisterikan
diparkira
diparkiraakan
diparkirakan
diparlu
diparluakan
diparlukan
diparoduksi
diparsalin
diparulih
dipasang
dipasangi
dipasarakan
dipastiakan
dipatak
dipati
dipatuh
dipatuhakan
dipatuhi
dipelajari
dipengaruhi
dipercaya
diperdebatkan
diperintah
diperkirakan
diperluakan
diperoleh
dipilih
dipimpin
dipinandu
dipinanduakan
dipinandui
dipindahakan
dipingkut
dipingkuti
dipinisi
dipisahakan
diplomasi
diplomat
diplomatic
diplomatik
diplumatik
diponegoro
diproduksi
diptera
dipuja
dipuruk
diputar
dirabut
dirabuti
dirakit
diranakakan
dirancang
dirandam
dirasa
dirasaakan
dirasmiakan
diratifikasi
dirayaakan
dirayakan
direct
direction
directorate
directors
directory
direktorat
direktori
direktur
diri
diriktur
dirilis
dirinya
dirit
dirujuk
dirusak
dis
disa
disababakan
disababkan
disabilitas
disability
disabut
disadiaakan
disadiakan
disain
disajikan
disalamatakan
disalanggaraakan
disalimputi
disalukut
disamaakan
disambat
disambatakan
disambiguasi
disambung
disambut
disampaiakan
disampaikan
disana
disanga
disangka
disapakati
disarang
disarankan
disarap
disarihakan
disaring
disartai
disasuaiakan
disatujui
disc
discography
discoveries
discovery
disease
diseases
disebabkan
disebut
disiapakan
disiarakan
disiksa
disimber
disimbir
disimpan
disimpani
disimpulakan
disingkat
disini
disiplin
disk
diskriminasi
diskusi
disney
displaystyle
distal
distance
distancing
distribusi
distribution
distributor
district
distrik
disukai
disumap
disunahakan
disuruh
disurung
disurungakan
disusun
disutradarai
ditabuh
ditabuk
ditahan
ditajak
ditakuti
ditaliti
ditambah
ditambahakan
ditambahi
ditambang
ditampaiakan
ditampilakan
ditamu
ditamuakan
ditamui
ditanam
ditandai
ditandatangani
ditanding
ditangkap
ditantang
ditantuakan
ditapas
ditarabangakan
ditarangi
ditarapakan
ditarbitakan
ditarik
ditarima
ditarjamahakan
ditaruh
ditarusakan
ditata
ditatak
ditatapakan
ditatapkan
ditawaki
ditawan
ditawari
ditayangakan
ditempuh
ditemui
ditemukan
ditentukan
diterapkan
diterbitkan
diterima
diterjemahkan
ditetapkan
ditimbulakan
ditinggal
ditinggalakan
ditinggalkan
ditingkatakan
ditiup
ditolak
ditor
dituangakan
dituduh
ditujuakan
ditujukan
ditukar
ditukupi
ditulis
ditulisakan
ditulisi
ditulusakan
ditumbuhi
ditumbuk
ditunda
ditunjuk
ditunjukakan
ditunjul
dituntungakan
dituraiakan
diturunakan
ditutup
ditutupi
dituturakan
diubah
diucapakan
diugahakan
diujaki
diuji
diukir
diukur
diulah
diulahakan
diulahnya
diulai
diumpati
diumumakan
diumumkan
diundang
diunjuki
diusulakan
diversity
divina
divine
divisi
division
divisions
diwa
diwajibakan
diwan
diwasa
diwatasi
diwi
dixon
diyakini
dj
djaija
djantera
djebar
djibouti
djoened
djpk
dk
dki
dkk
dll
dna
do
doa
doc
doctor
documentary
dodol
doellah
dog
doi
dok
dokter
doktor
doktrin
dokume
dokumen
dokumentasi
domain
domba
domestic
domestik
dominan
dominasi
domini
dominika
domu
don
donald
dong
dongeng
donna
donnelly
door
doraemon
doris
dorothy
dorsal
dosa
dosen
dot
double
douglas
dover
down
downing
dpd
dpl
dpr
dprd
dr
dragon
dragons
drama
dramawan
drastis
dravida
dream
dreams
dress
dretarastra
drive
drona
drop
dropadi
droplet
drs
drug
drum
drummer
dsb
du
dua
duawalas
dublin
dudi
dudinya
duduk
dudukan
due
dugaan
dugi
duha
duit
duitnya
duka
dukcapil
dukkha
duktur
dukuh
dukumin
dukumintir
dukungan
dulu
dumai
duminan
duminasi
dun
duncan
dundam
dundee
dunging
dunia
duniawi
dunya
durham
duri
durian
during
durio
duryodana
duryodhana
dusa
dusin
dusun
duta
dutch
duwa
duyu
dvd
dwaraka
dwarf
dwi
dynamics
dz
dzulhijjah
dɛ
e
eagle
earhart
earl
earliest
early
earring
earth
east
eastern
easy
eba
echo
eclipse
eco
ecology
economic
economist
economy
ed
eddie
edgar
edge
edgerton
edinburgh
edisi
edison
edited
edition
editions
editor
editors
edo
eds
edu
education
educational
edvard
edward
edwin
een
efek
efektif
effect
effective
effects
effendi
efficacy
efisien
egypt
ehsan
eiffel
eiker
ein
einstein
eivissa
ejaan
ek
eka
ekliptika
eko
ekologi
ekonom
ekonomi
ekonomis
ekor
eksekutif
eksistensialisme
eksklave
eksklusif
ekspansi
ekspedisi
eksplisit
eksploitasi
eksplosi
eksplosif
ekspor
ekspresi
ekstrem
ekuator
ekuinoks
el
elam
elamite
elang
elantra
elbow
elder
elektron
elektronik
elemen
elements
elephant
elgin
elgrand
elips
elit
elite
elizabeth
elk
ella
elliott
elmo
else
elsevier
em
emas
embaloh
ember
embrio
embun
emergence
emergency
emerging
emily
emirat
emisi
emosi
emoto
empas
empat
empire
empu
en
enam
encyclopaedia
encyclopedia
encyclopædia
end
endang
endapan
ende
endemik
energi
energy
engau
engine
england
english
enough
ensiklopedi
ensiklopedia
enter
enterprise
entertainment
entikong
entitas
entri
entry
environment
environmental
enzim
eon
eosen
epat
ephemeris
epic
epidemic
epidemiologi
epidemiology
episode
epos
equinox
er
era
eric
erik
erika
eris
eritrea
ernest
ernst
eropa
error
erwin
es
esa
esai
esensi
eso
esofagus
espace
espan
espass
essays
essential
est
estate
estimate
estonia
eswatini
et
ethiopia
ethnic
ethnicity
ethnologue
etika
etimologi
etiopia
etnik
etnis
etnisitas
etymology
eu
eufemisme
eugene
eugenio
eurasia
eureka
euro
europa
europe
european
euthyphro
eva
evans
even
evening
events
everest
everton
every
everything
evidence
evje
evolusi
evolution
evolutionary
ewing
ex
example
examples
excel
executive
exoplanets
experience
expert
exploration
express
extensive
extra
extrasolar
eye
eyes
ez
f
fa
facebook
facelift
fact
factbook
facto
factors
facts
fadly
fahmi
fairfield
fairview
faith
fajar
fakta
faktor
fakultas
falah
falak
falang
fall
fallece
falls
fame
famili
familia
family
famous
fan
fang
fantasi
fao
faq
far
farid
farma
farmasi
farmington
fas
fasa
fase
fashion
fasih
fasilitas
faso
fasting
fat
fate
fatehpur
fatimah
fatmawati
fatwa
fauna
fauzi
fayette
fc
fda
fe
features
feb
februari
february
federal
federasi
federation
feet
felidae
felis
felix
fenisia
fenom
fenomena
ferdinand
ferguson
feri
ferry
festival
fi
fiba
fiber
fiction
fide
fie
field
fields
fiesta
fifa
fifth
fight
fighting
figur
figure
figures
fiji
fikih
fiksi
fiktif
filariasis
file
files
filipina
film
films
filosofi
filosofis
filsafat
filsuf
fimela
final
finalis
financial
find
finding
fine
finlandia
finnøy
fiqih
firdaus
fire
firenze
firma
first
fish
fishbase
fishbed
fisik
fisika
fisikawan
fisiologi
fitri
five
fixed
fjord
fjordane
fkip
flag
flame
flash
flight
flora
florence
flores
florida
floris
flower
floyd
flu
fly
fm
fo
fokus
folklore
fonem
fonetik
fonik
fonologi
food
football
for
forbes
force
forces
ford
foreign
forest
fork
formal
formasi
format
formation
formed
former
forming
formula
fort
fortune
fortuner
forum
foscolo
fosil
fossil
foto
fotografer
fotografi
found
foundation
founder
fountain
four
fox
fr
frac
franc
franca
france
francesco
francia
francis
francisco
frank
franklin
franks
franz
frasa
fraser
fred
frederick
frederik
free
freedom
freeman
freeport
french
frequency
frequently
friedrich
friends
friendship
fritz
from
front
fruit
frøya
ft
fu
fuel
fujiwara
full
fulton
function
functional
fund
fundamental
fungi
fungsi
fungsinya
fungsional
further
fusi
future
fylke
førde
g
ga
gabang
gabon
gabungan
gabus
gada
gadang
gading
gadis
gadjah
gadung
gadungsalat
gadur
gagabungan
gagak
gagal
gagaman
gagaringan
gagasan
gagat
gagatas
gagawian
gaia
gaib
gainesville
gair
gaius
gajah
gajala
gal
gala
galaganjur
galaksi
galambang
galang
galapung
galar
galaran
galas
galat
galaxy
galdikas
galeri
gali
galigo
galilean
galilei
galileo
galing
galis
gallery
galuh
galumbang
galur
gama
gamalan
gambah
gambar
gambaran
gambarnya
gambia
gambut
game
gamelan
games
gampa
gampang
gampir
gampiran
ganal
ganalan
ganalnya
ganap
ganarasi
gancang
ganda
gandang
gandhi
gandum
gang
gangan
gangga
gangguan
gangsa
gani
ganie
ganja
ganjil
ganti
ganting
gantung
ganymede
gao
gapura
gar
gara
garaha
garak
garakan
garam
garatis
garbang
gard
garden
gardens
gare
gareja
gareng
garfield
garhana
garih
garija
garing
garis
garland
garpu
garubak
garuda
garumbung
garumbungan
gary
gas
gasan
gasib
gasing
gastropoda
gatah
gatal
gates
gaun
gautama
gawang
gawi
gawian
gawiannya
gay
gaya
gayam
gayung
gayungan
gaza
gazal
gazali
gazetteer
gbk
gdan
gdp
ge
gear
gebang
gede
gedung
gegenwart
geger
gejala
gelap
gelapung
gelar
gelembongan
gelman
gelombang
gema
gemelan
gempa
gen
gender
gendhing
genera
general
generally
generasi
generation
genetic
genetics
genetik
genetika
geneva
genitif
genootschap
genosida
genre
genteng
genting
genus
geo
geoffrey
geografi
geografis
geographic
geographical
geography
geologi
geologic
geological
geology
geometri
geometric
geometris
geophysical
geophysics
geordie
georg
george
georgetown
georgia
ger
gerak
gerakan
gerald
gerard
gerbang
gere
gereja
gerhana
gerhard
gerilya
german
germany
gerogol
gerunggang
geschichte
get
getah
gets
ghana
ghani
ghost
ghoul
gi
gia
gianni
giant
gibbon
gibson
gifu
gigi
gigis
gil
gila
gilbert
giles
gili
giliran
gin
gincu
ginjal
gioconda
giovanni
gipak
gipih
gipsum
gir
giri
girl
girls
gis
gisikan
gita
gitar
gitaris
giugrapis
giulugi
giuseppe
give
gizi
gjøvik
glagah
glance
glasgow
glass
glen
glenwood
glif
global
globe
glosarium
glossary
glosserman
gm
go
goa
gobel
god
godot
gods
gogh
going
gold
golden
goldstein
golf
golkar
golongan
gondang
gong
gonjong
gonol
good
google
gordon
goreng
gorontalo
gospel
got
goth
gotong
gould
gov
governing
government
gowa
gps
gr
grace
grade
grafik
grafika
grafis
graha
graham
grahanusa
gram
gramatikal
gramedia
grammar
gran
grand
grande
grandmaster
granite
grant
grasindo
gratis
gravitasi
gravitational
gray
grazia
great
greatest
greek
green
greenfield
greenland
greenville
greenwich
greenwood
greer
gregorian
gregorius
gregory
gret
grid
griffin
grin
grogot
ground
group
groups
grove
groves
growth
grup
gt
gu
gua
guardian
gubang
gubeng
gubernur
gucuh
gudang
gue
guernica
gugur
gugurnya
gugus
guha
guidance
guide
guinea
gujarat
gul
gula
gulaan
gulma
gulu
gulungan
gumbili
guna
gunakan
gunanya
gunawan
gundam
gundik
gundul
gung
guntung
gunung
gurindam
guring
guru
gurun
gurung
gusti
gutenberg
guy
guyana
gypsum
h
ha
haag
habad
habang
habar
habarnya
habib
habibie
habirau
habis
habisnya
habitat
habitatnya
habu
habuk
had
hada
hadang
hadangan
hadap
hadapan
hadat
hades
hadi
hadiah
hadir
hadis
hadith
hadithcollection
hadjar
hadramaut
hadupan
hagama
hagan
hagian
hai
haik
haiku
haiti
haja
hajar
haji
hak
hakan
hakhir
hakim
hakon
hakun
hakunnya
hal
halam
halaman
halang
halangan
halar
halat
hale
half
halian
halim
halimun
halit
hall
halnya
halo
halong
halung
halus
halusnya
ham
hama
hamar
hamba
hambar
hambawang
hambaya
hambuku
hamburg
hamengkubuwana
hamid
hamidhan
hamil
hamilton
hamka
hammurabi
hampa
hampai
hampang
hampatung
hampau
hampay
hampir
hampton
hampul
han
hanacaraka
hanau
hanaut
hanaw
hancap
hancapi
hancur
hand
handa
handak
handap
handbook
handil
handuk
hangat
hangit
hangkut
hangsul
hangul
hani
hanja
hannah
hans
hansen
hanta
hantakan
hantara
hantu
hanya
hanyalah
hanyar
hanzi
hapat
hapip
happiness
happy
hapus
hara
harafiah
haraga
haraganya
haram
harang
harapan
harat
haratai
haratan
harau
harbor
hard
hardy
harfiah
harga
harganya
hari
harian
harimau
harimaw
harinya
harjamukti
harley
harold
harper
harpercollins
harpiah
harris
harrison
harry
hart
harta
hartford
haru
haruai
haruan
haruhi
haruk
harum
harun
harus
harusan
harusnya
haruyan
harvard
harvey
has
hasan
hasanuddin
hasegawa
hasil
hasilnya
hasrat
hassan
hasta
hastinapura
hasyim
hat
hatan
hatap
hatas
hataw
hatchback
hati
hatinya
hatta
hatungun
haul
haumea
haur
hauran
have
havelaar
haven
hawa
hawai
hawaii
hawar
hawk
hayalan
hayam
hayat
hayati
hayden
hayu
hcov
hd
he
head
health
healthcare
heart
heat
heath
heaven
heavy
hee
heian
heights
heinrich
hekate
helen
helena
heliopause
helios
heliosfer
helium
hell
hello
help
hemibagrus
hemodialisis
hendak
hendep
henderson
hendrik
hendro
henri
henrique
henry
henteu
heok
hepburn
hera
herakles
herbal
herbert
herd
here
heritage
hermafrodit
herman
hermann
hermansyah
hero
heroes
herpes
herzegovina
het
heuristik
hewan
heyns
hi
hiaan
hias
hiasan
hibak
hiburan
hidangan
hidayat
hidayatullah
hidrogen
hidung
hidungnya
hidup
hidupnya
hierarki
hifa
higa
high
higher
highland
highway
hijau
hijet
hiji
hijrah
hijriah
hijriyah
hikayat
hikmat
hilal
hilang
hilangnya
hilir
hill
hills
hillsboro
himalaya
himpit
himung
hina
hindi
hindia
hindu
hinduism
hingga
hinggan
hinggap
hingkat
hini
hintalu
hintalunya
hinti
hinɛ
hipersensitivitas
hipotesis
hipposideridae
hipposideros
hiragana
hiran
hirang
hirata
hirip
hirohito
hiroshi
hiroshima
his
hisab
histologi
historia
historians
historic
historical
histories
historiografi
historiographical
historiography
historis
history
hit
hitam
hitler
hitra
hits
hitu
hitung
hitungan
hiu
hiv
hiwan
hj
hlm
hm
hmong
hnya
ho
hobbes
hobnor
hoeve
hoffmann
hoi
hoki
hokkaido
hokkian
hold
holding
hole
holland
holly
hollywood
holmes
holstein
holy
home
homme
honda
honduras
hong
hongaria
hono
honor
honshu
hood
hoon
hope
hopkins
hordaland
horizon
hormon
horn
horor
horse
horses
hospital
host
hot
hote
hotel
hotstar
houghton
hours
house
houston
houtman
how
howard
hp
htm
html
http
https
hu
hua
huai
hub
hubble
hubnur
hubung
hubungan
hubungannya
hudah
hudoq
hudson
hudutannya
hughes
hui
hujan
hujung
hujungnya
hukum
hukuman
hukumnya
hulat
huleh
hulu
hulun
human
humanis
humanisme
humbayang
humboldt
humerus
humoral
hunda
hundang
hung
hungaria
hungary
hunt
hunter
huripan
huron
huruf
hurung
hurup
husein
husin
hussain
hussein
husus
hususnya
hut
hutama
hutan
hutang
hutil
hutu
hyang
hye
hygiene
hyo
hystrix
hyun
hyundai
i
ia
iain
iaitu
ialah
ian
iau
ibadah
ibadat
ibanic
ibiza
ibn
ibnu
ibrahim
ibrani
ibu
ibukota
ibukuta
ibun
ibunda
ibunya
icao
icar
icarus
iccpr
ice
icescr
ichtiar
icon
ictv
id
ida
idabul
ide
ideal
identifikasi
identik
identitas
identity
ideologi
idham
idi
idisi
idn
idol
idris
idrus
idul
idwar
ielts
iers
ieu
if
igal
ignatius
igomo
igutan
ihtiar
ihwal
ii
iii
ijin
ijuk
ikam
ikan
ikat
ikatan
ikhtiar
ikis
ikit
iklan
iklim
ikon
ikung
ikunugarapi
ikunumi
ikusistim
ikut
il
ilah
ilahi
ilang
ilangan
ilat
ilatnya
ile
ilegal
ilham
iliktrunik
ilir
ill
illich
illinois
illustrated
ilmiah
ilmiahnya
ilmu
ilmunya
ilmuwan
ilun
ilung
ilusi
ilustrasi
iluy
im
image
images
imajiner
imak
imam
iman
imbah
imbahitu
imbahnya
imbahtu
imbai
imbaian
imbal
imbang
imdb
imigran
imlek
immune
immunity
immunology
impact
impaired
imperial
imperium
implications
implikasi
implikasinya
implosi
implosif
impor
imun
imunisasi
imunitas
imunodefisiensi
imunologi
in
ina
inayatullah
inc
incaan
inci
includes
including
income
indah
indak
indan
indeks
independen
independence
independent
indera
inderapura
index
india
indian
indiana
indie
indies
indigenous
indihiang
indik
indische
individu
individual
indo
indochina
indone
indonesia
indonesian
indosiar
indra
indragiri
indramayu
indraprastha
induk
indunesia
indung
indunisa
indunisia
indunisian
indunusia
indus
industri
industrial
industry
infection
infectious
infeksi
inferior
influenza
info
infobox
informal
informasi
information
infra
infrastruktur
infurmasi
ing
ingat
inggeris
inggris
ingin
ingkin
ingkul
ingkut
ingkutan
ingu
inguan
inhutani
ini
inilah
inirgi
inisiatif
inja
injaman
injection
injil
inline
inner
inpurmasi
insan
insects
inside
insider
insiklupidia
insinyur
inspirasi
instagram
institusi
institut
institute
institution
instituto
instruction
instrumen
insya
int
intalu
intan
intang
intangan
intangannya
intarnit
inte
integral
integrated
intelektual
intellectual
intelligence
interactive
interaksi
interim
interior
internal
internasional
internasiunal
international
internationale
interne
internet
interpretasi
interpretation
interview
inti
inting
intinya
intisari
intitas
into
introduction
invalid
invasi
invasion
invention
investasi
invitation
inya
io
ioc
ion
iowa
ipa
ipar
ipc
ipidimi
ipiktip
iprage
ipsc
ipuk
ir
ira
irah
irak
iram
irama
iran
irang
iranian
irawan
ircisod
ireland
iri
irian
irigasi
iringan
iris
irish
irlandia
iron
irupa
irusi
irwan
irwin
is
isa
isaac
isaak
isabel
isbn
ishak
isi
isian
isim
isinya
iskandar
isla
islam
islami
islamic
island
islandia
islands
isle
islet
islets
isma
ismail
ismaya
iso
isotop
israe
israel
israil
iss
issn
issue
issues
istana
istananya
istanbul
isteri
isterinya
istiadat
istil
istilah
istimewa
istimiwa
istirahat
istri
istrinya
isu
isuk
isukan
isuzu
isyana
it
italia
italian
itam
itb
itih
itihi
itik
itis
ito
itoe
its
itu
itulah
iucn
iv
ivan
ivoire
iwak
iwaknya
ix
iya
izin
iɲa
j
ja
jaan
jaar
jabatan
jabatannya
jabodetabek
jabuk
jack
jackson
jacksonville
jacob
jacobus
jacques
jadi
jadinya
jadwal
jae
jaga
jago
jagoi
jaguar
jagung
jahat
jajahan
jajak
jajakan
jajaring
jaka
jakanya
jakarta
jakartasentris
jakartasentrisma
jakat
jake
jakob
jaksa
jalaluddin
jalan
jalanan
jalannya
jalas
jalemu
jalil
jalur
jam
jama
jamaah
jamaat
jamaika
jamak
jamaluddin
jaman
jamban
jambangan
jambatan
jambi
jambu
jambul
james
jamhar
jami
jaminan
jamuan
jamur
jan
janak
janaki
janan
janang
janar
jandila
jane
janeiro
jangan
janggut
jangka
jangkang
jangkauan
jangkitan
jangkrik
janin
janis
janisnya
janjang
janji
jantan
janten
jantik
jantung
januari
january
japan
japanese
japang
japin
japuk
jar
jarak
jaraknya
jarang
jaranih
jaratan
jaren
jari
jariangau
jariawat
jariji
jaring
jaringan
jarman
jaro
jarojoh
jarujuh
jarum
jas
jasa
jasad
jasanya
jasin
jasmani
jason
jasper
jasuka
jat
jati
jatiasih
jatidiri
jatisampurna
jatmaka
jatmika
jatuh
jauh
jauhnya
java
javanese
jawa
jawab
jawaban
jawabannya
jawai
jawap
jawapos
jawi
jay
jaya
jayadrata
jayakarta
jayapura
jazirah
jazz
jdih
je
jean
jebar
jeep
jeff
jefferson
jejak
jejakrekam
jejangkit
jekan
jelai
jelang
jelas
jelimpo
jemaat
jembatan
jember
jempang
jenamas
jenazah
jendela
jenderal
jendral
jenewa
jenis
jenisnya
jennifer
jenny
jentik
jepang
jepara
jeremy
jeritan
jerman
jermanik
jerome
jersey
jerusalem
jessica
jesus
jet
jewish
jh
ji
jiarah
jihad
jihatul
jika
jilid
jimmy
jin
jinak
jing
jingah
jingga
jinjing
jins
jipang
jiran
jirman
jiun
jiwa
jkt
jl
jo
joan
jodo
joe
jogja
johan
johann
johannes
john
johns
johnson
johnston
johor
joint
joko
jokowi
jombang
jonathan
jones
jong
jongkong
jordan
jorjiya
jorong
jose
josef
joseph
joshua
jotun
journal
journey
joyce
jp
jpg
jpnn
jr
jstor
ju
jua
juaa
juai
jual
juan
juara
jubah
judge
judu
judul
judulnya
juga
jujuhutan
jujur
jukung
juli
julia
julian
juliet
julius
juluk
julukan
julung
july
jum
jumaat
jumahat
jumat
jumbelah
jumlah
jumlahnya
jump
jun
junction
june
jung
juni
junior
junjung
jupiter
jupitir
jura
jurai
jure
jurnal
jurnalis
juru
jurusan
jus
just
justin
justru
jusuf
juta
jutaan
juwa
jw
k
ka
kaadaan
kaadilan
kaagamaan
kaahlian
kaakhirannya
kaamanan
kaamasan
kaampat
kaanam
kaandakan
kaatas
kaba
kabahagiaan
kabaikan
kabakaran
kabakulihan
kabalikan
kabalikannya
kabamacaman
kabangkitan
kabangsaan
kabangsawanan
kabanyakan
kabanyakannya
kabar
kabaradaan
kabarasihan
kabel
kabiasaan
kabiasaannya
kabibasan
kabijakan
kabijaksanaan
kabila
kabin
kabinet
kabingungan
kabinit
kabisaan
kabisat
kabudayaan
kabujuran
kabul
kabumian
kabun
kabung
kabupate
kabupaten
kabupatin
kabur
kaburungan
kabut
kabutuhan
kaca
kacalakaan
kacamata
kacamatan
kacang
kacangkalan
kacawali
kacil
kacuali
kacungulan
kad
kada
kadada
kadal
kadalah
kadalam
kadalaman
kadalapan
kadang
kadangaran
kadanya
kadap
kadapatan
kadar
kadatangan
kadatuan
kadaulatan
kadewan
kadiaman
kadikitan
kadinginan
kadir
kadua
kaduan
kaduanya
kaduduanya
kadudukan
kadudukannya
kaduitan
kadukturan
kaduwa
kaduwanya
kae
kaeng
kaeo
kafe
kagagalan
kagairan
kaganangan
kagancangan
kagiatan
kaguguran
kagunaan
kagunaannya
kaguringan
kagusangan
kah
kahabangan
kahabisan
kahada
kahadaparcayaan
kahadiran
kahakunan
kahancapan
kahandak
kahandakan
kahandaknya
kaharatan
kaharingan
kahayan
kahidupan
kahidupannya
kahilangan
kahimungan
kahuripan
kahurmatan
kahutanan
kahyangan
kai
kaidah
kaili
kailmuan
kain
kaina
kainahnya
kainanya
kaindahan
kaini
kairo
kaisar
kaisukannya
kait
kaitannya
kaitu
kajadian
kajahatan
kajam
kajamas
kajang
kajayaan
kajayaannya
kaji
kajian
kajoe
kajuaraan
kajung
kak
kaka
kakacauan
kakadapan
kakadarasukan
kakaisaran
kakajalan
kakak
kakal
kakalahan
kakalung
kakamban
kakanak
kakanakan
kakanakannya
kakao
kakarasan
kakatujuan
kakawalan
kakawanan
kakawanannya
kakawin
kakayaan
kakereste
kaki
kakicak
kakiraan
kakirangan
kaku
kakuasaan
kakuasaannya
kakuatan
kakuningan
kakurangan
kala
kalabihan
kalah
kalahiran
kalainan
kalajuan
kalakuan
kalalapun
kalalawar
kalalayu
kalambu
kalamin
kalampayan
kalang
kalangan
kalangkala
kalangsungan
kalanjar
kalap
kalapa
kalapahan
kalarang
kalas
kalasik
kalau
kalawasan
kalayan
kalayangan
kalbar
kale
kalebet
kalender
kaler
kali
kaliatan
kaligrafi
kalihaian
kalihatan
kalijaga
kalikir
kalima
kalimantan
kalimat
kalimut
kalinci
kaling
kalinya
kaliorang
kalir
kalis
kalitengah
kalitidu
kalkulator
kalkun
kalla
kalo
kalompok
kalong
kalsel
kalsium
kalteng
kaltim
kalu
kalua
kaluang
kaluar
kaluaran
kaluarga
kaluarganya
kaluhan
kalumbun
kalumpang
kalumpuk
kalung
kalungsu
kalurahan
kam
kamaboko
kamacatan
kamahiripan
kamajuan
kamampuan
kaman
kamanakan
kamanangan
kamandahan
kamanjuran
kamantarian
kamanusiaan
kamar
kamardekaan
kamardikaan
kamardikaannya
kamarian
kamarnya
kamasukan
kamatian
kamatiannya
kambang
kambangnya
kambar
kambat
kambing
kamboja
kambrium
kambuhan
kame
kamerun
kami
kamih
kamil
kaminting
kamis
kamiskinan
kamma
kampai
kampanye
kampanyi
kampil
kampong
kampung
kampus
kamu
kamudian
kamungkinan
kamus
kan
kana
kanaan
kanada
kanahapan
kanaikan
kanak
kanakan
kanal
kanan
kanapa
kanas
kanayatn
kancang
kandaga
kandahar
kandal
kandali
kandang
kandangan
kandaraan
kandawa
kandidat
kandung
kandungan
kang
kangalihan
kanggo
kangkalung
kanisius
kanji
kanker
kannada
kanopi
kanor
kansai
kansas
kanselir
kant
kantal
kantang
kantat
kanto
kanton
kantong
kantor
kantuk
kantung
kantur
kanung
kanvas
kanwil
kanyamanan
kanyataan
kanyataannya
kapada
kapadatan
kapak
kapal
kapala
kapalanya
kapalipitan
kapamimpinan
kapanlagi
kapantingan
kaparcayaan
kaparluan
kapas
kapasitas
kapastian
kapintaran
kapita
kapitalisme
kapiting
kapitulasi
kapoor
kapribadian
kapsul
kapten
kaptin
kapuas
kapuh
kapulauan
kapulawan
kapulisian
kapunahan
kapur
kaputingannya
kaputusan
kar
kara
karabakh
karacunan
karaeng
karagaman
karaguan
karajaan
karajaannya
karajinan
karak
karakter
karakteristik
karamat
karamian
karana
karanakan
karananya
karancakan
karancakannya
karandahan
karang
karangan
karangasem
karangbinangun
karangga
karanggeneng
karangka
karangmas
karangpilang
karanjang
karantina
karariang
karas
karasikan
karasmin
karatas
karaton
karau
karawang
karawitan
karbohidrat
karbon
kardinal
kare
karel
karen
karena
karesidenan
karet
karetau
kargo
karia
karibia
karim
karimata
karing
karir
karirnya
karis
karistal
karistin
karita
karitik
karl
karma
karna
karnivora
karno
karomah
karon
karsa
kartak
kartanegara
kartas
kartini
karton
kartu
karuan
karuang
karucut
karugian
karumah
karumut
karusakan
karusuhan
karya
karyanya
karyawan
kasa
kasabarataan
kasadaran
kasai
kasaimbangan
kasakitan
kasalahan
kasalamatan
kasalukutan
kasaluruhan
kasamaan
kasampatan
kasamunyaan
kasanga
kasanian
kasapakatan
kasapuluh
kasar
kasatmata
kasatuan
kase
kasela
kasemen
kasepuhan
kashmir
kasih
kasihan
kasihatan
kasim
kasiman
kasimpulan
kasisikat
kasisiur
kaspia
kastila
kastor
kasuburan
kasucian
kasugihan
kasultanan
kasuma
kasumba
kasus
kasusastraan
kasustraan
kasyful
kat
kata
katadata
kataguhan
kataguran
kataguri
katahanan
katahuan
katai
katakana
katakutanan
katalan
katalog
katalu
katam
katantuan
katanya
katapang
katarak
katarampilan
katarangan
katawatasan
kate
katedral
kategori
katiadaan
katiak
katiga
katiguri
katika
katimbang
katingan
katinggalan
katinggian
katolik
katua
katuhanan
katuju
katujuh
katujunya
katulik
katulistiwa
katumburan
katun
katupat
katurunan
kau
kauangan
kaubun
kaukasus
kaula
kaum
kaunikan
kauntungan
kaus
kauskupan
kawa
kawah
kawajiban
kawakah
kawal
kawalu
kawan
kawanian
kawannya
kawarihannya
kawasan
kawat
kawi
kawigasan
kawin
kawinan
kawitan
kaya
kayaapa
kayah
kayakih
kayakinan
kayan
kayanya
kayapa
kayapu
kayong
kayu
kayunya
kazakhstan
kazakstan
kb
kbbi
ke
keadaan
keadilan
keagamaan
keamanan
keanekaragaman
kearifan
kebahasaan
kebangkitan
kebangsaan
kebangsawanan
kebanyakan
kebenaran
keberadaan
kebijakan
kebijaksanaan
kebinekaan
kebon
kebudayaan
kebun
kebutuhan
kecamatan
kecantikan
kecepatan
kecil
kecoklatan
kecuali
kedah
kedaulatan
kedaulatannya
kediaman
kediri
kedokteran
kedua
keduanya
kedubes
kedudukan
kedungadem
kedungpiring
kedungrejo
kedutaan
keempat
kegelapan
kegiatan
kegunaan
kehancuran
kehidupan
kehilangan
kehormatan
kei
keindahan
keinginan
keith
kejadian
kejaksan
kejam
keju
kejuaraan
kekaisaran
kekal
kekasih
kekayaan
kekhalifahan
kekuasaan
kekuatan
kekuningan
kelabu
kelahiran
kelak
kelam
kelamin
kelang
kelantan
kelapa
kelas
kelawasan
kelay
kelayan
kelayangan
kelembe
kelenjar
keliling
kelima
keling
kelly
keloid
kelompok
kelua
keluar
keluarga
kelumpang
kelurahan
kemakmuran
kemal
kemampuan
kemanusiaan
kematian
kematiannya
kembali
kembang
kembangbahu
kembar
kembayan
kemdikbud
kemegahan
kemendagri
kemenkeu
kementerian
kemerdekaan
kemos
kemudian
kemungkinan
ken
kena
kenangan
kencana
kendala
kendang
kendaraan
kendati
kendawangan
kendayan
kenjeran
kennedy
kenneth
kenohan
kent
kental
kentaro
kenya
kepada
kepadatan
kepala
kepalanya
kepayang
kependudukan
kepentingan
kepercayaan
keperluan
kepler
kepohbaru
keppres
kepulauan
keputusan
ker
kera
kerajaan
keramat
kerang
keranjang
keranji
keras
keraton
kerbau
kereste
keresten
kereta
kering
keris
kerja
kerom
kerta
kertak
kertanegara
kertas
kerucut
kerusakan
kerusuhan
kesah
kesambi
kesatria
kesatuan
kesehatan
kesejahteraan
keselamatan
keseluruhan
kesempatan
kesenian
kesepakatan
kesimpulan
kesuburan
kesultanan
kesusastraan
ketapang
ketiga
ketika
ketua
ketuhanan
ketuju
ketungau
keturunan
keuangan
keuntungan
keuskupan
kevin
kewajiban
kewarganegaraan
kewenangan
key
kg
kh
khabar
khai
khairul
khalid
khalifah
kham
khan
khao
khas
khasnya
khatib
khatulistiwa
khazanah
khet
khiri
khiron
khlong
khmer
khok
khon
khong
khun
khusus
khususnya
ki
kia
kiai
kiamat
kian
kiasan
kiat
kiauan
kibele
kiblat
kido
kidul
kierkegaard
kihit
kijang
kiju
kikira
kiklops
kilang
kill
killander
killed
kilometer
kilomitir
kiloton
kilt
kilu
kilumitir
kim
kima
kimia
kimiawan
kimka
kindai
king
kingdom
kingdoms
kingston
kini
kintap
kinum
kipar
kipas
kipit
kira
kirgizstan
kiri
kiribati
kiril
kirip
kirk
kis
kisah
kisahnya
kisaran
kishimoto
kita
kitab
kitap
kitaran
kitihan
kitu
kiwa
kk
klaim
klan
klasifikasi
klasik
klasipikasi
klein
kleine
klikfilm
klinis
klip
kliwon
kloaka
kloset
klub
klux
klæbu
km
knight
know
knowledge
known
ko
kobayashi
kock
kodansha
kode
kodok
kodrati
koe
koefisien
kofi
kognitif
koh
kokot
kokte
kol
kola
kolam
koleksi
kolektif
kolombia
kolonel
koloni
kolonial
kolonialisme
kolonisasi
komalasari
komam
komandan
komando
kombeng
kombinasi
kome
komedi
komersial
komet
komik
komisaris
komisi
komite
komnas
komoditas
komodo
komoro
kompas
kompeni
kompetisi
komplek
kompleks
kompone
komponen
komponis
kompor
komposer
komposisi
komputer
komunikasi
komunis
komunisme
komunitas
kondisi
konfe
konfere
konferensi
konfiks
konflik
konfrontasi
konfusianisme
kong
kongbeng
konghucu
kongo
kongres
kongsi
koni
konomi
konon
konotasi
konse
konsensus
konsentrasi
konsep
konser
konservasi
konsili
konsisten
konsonan
konstantin
konstantinopel
konstitusi
konstitusional
konstruksi
konsumen
konsumsi
kontainer
kontak
kontan
konteks
kontemporer
konten
kontes
kontrak
kontras
kontrol
kontrove
kontroversial
konvensi
konvensional
koordinat
kopenhagen
koperasi
kopi
koptik
koran
korawa
korban
kore
korea
korean
korelasi
koreng
korona
koronavirus
korosi
kort
korupsi
kosakata
kosong
kosovo
kosta
kota
kotabaru
kotagede
kotak
kotamadya
kotanya
kotawaringin
koto
kotoran
kottelat
kovenan
kr
kra
kranz
kraton
krauss
krayan
kreasi
kreatif
kreativitas
kredit
krembangan
kresna
kreta
krijg
krim
krishna
krisis
kristal
kristalisasi
kristen
kristiansand
kristiansund
kristin
kristus
kritik
kritikus
kritis
kroasia
kromium
kromosom
kronik
kronos
kru
ks
ksatria
kse
ksi
kspor
kt
ktif
ktorat
ktur
ku
kuah
kuala
kualan
kualitas
kualitasnya
kuantan
kuaro
kuasa
kuasar
kuat
kuba
kubah
kubu
kubur
kuburan
kuching
kuciakan
kucing
kuda
kudeta
kudi
kudus
kue
kuil
kuin
kuini
kuipar
kuiper
kuitan
kuitannya
kujamas
kujawski
kuku
kukulaan
kukumpulan
kula
kulaan
kulam
kulat
kulawarga
kulawarganya
kuliah
kulih
kulihan
kuliksi
kulimbit
kulimbitnya
kuliner
kulit
kulitnya
kulminasi
kulon
kultivar
kultur
kultural
kulturnett
kulu
kulunial
kulur
kuma
kumai
kuman
kumang
kumbang
kumbinasi
kumik
kumintar
kumirsial
kumisi
kumit
kumite
kumiti
kumpai
kumpang
kumparan
kumpay
kumpliks
kumpulan
kumpunin
kumpusisi
kumputar
kumulunimbus
kumunikasi
kumunis
kumunitas
kun
kuna
kunat
kunci
kundisi
kuneiform
kunflik
kung
kungfu
kuning
kuningan
kunjang
kuno
kunsip
kunsipsi
kunsten
kunstitusi
kuntak
kunti
kuntin
kuntrak
kunu
kunyit
kuota
kupang
kupi
kupiah
kupu
kura
kurang
kurangna
kurangnya
kuranji
kurap
kurau
kurawa
kurban
kurikulum
kuring
kuripan
kuriya
kurnia
kurniawan
kursi
kursus
kurt
kuru
kurukshetra
kurun
kurung
kusabab
kusakata
kusan
kushan
kusta
kusuma
kusus
kut
kuta
kutai
kutak
kutamadya
kutang
kutanya
kutara
kutawaringin
kutika
kutipan
kutu
kutub
kutuk
kutukan
kutup
kuyang
kuyuk
kyai
kyle
kyo
kyoto
kyushu
l
la
laba
labai
labat
label
labi
labih
labihan
labor
laboratorium
laboratory
labu
labuan
labuhan
labuk
labung
lada
ladakan
ladang
lading
laduman
lady
laga
lagi
laginda
lagu
laguna
lah
laham
lahan
lahei
lahir
lahmi
lai
lain
lainan
lainnya
laja
laju
lajur
lakarsantri
lakas
lakatan
lake
lakes
laki
lakian
lakinya
laksamana
laku
lakunya
lalainan
lalakian
lalakiannya
lalamas
lalang
lalat
lalautan
lalawangan
lalean
lalu
laluhur
lalungkang
lam
lama
lamah
lamak
laman
lamandau
lamanya
lamaran
lamari
lamarinya
lamas
lambaga
lambah
lambang
lambangnya
lambar
lambaran
lambat
lambu
lambung
lambut
lamin
lamon
lamongan
lampihong
lampin
lampit
lampu
lampung
lamun
lamunnya
lamut
lan
lanah
lancar
lancaster
lancet
lancip
land
landak
landap
landas
landasan
landau
lands
landscape
lane
lang
langan
langat
langau
lange
langgar
langi
langit
langka
langkah
langkap
langkapnya
langkar
langkasuka
langkuk
langkung
langsat
langsung
language
languages
langue
lanjar
lanjut
lanka
lantai
lantainya
lantaran
lanting
lao
laoet
laos
lapak
lapan
lapang
lapangan
lapar
lapas
lapis
lapisan
laporan
lapri
lapuran
larang
larangan
laras
laren
large
largest
lari
larry
larsen
larson
larut
larutan
larva
larvik
las
lascaux
laser
laskar
last
lasung
lat
latar
late
later
lateral
latest
latihan
latin
latvia
lau
lauk
launch
laung
laur
laura
laurel
laurent
laut
lautan
lautnya
lava
law
lawa
lawai
lawak
lawan
lawang
lawangnya
lawannya
lawas
lawasnya
lawrence
laws
lay
layak
layaknya
layanan
layang
layap
layar
layung
lazim
lazuardi
lazuli
lcross
le
lea
lead
leader
leading
league
leap
learn
learning
least
lebak
lebang
lebanon
lebar
lebih
ledakan
ledo
lee
leech
leeches
left
legal
legend
legenda
legendaris
legi
legislatif
legit
lehman
leiden
leksikon
lele
lema
lemah
lemahwungkuk
lemak
lembaga
lembah
lembata
lembursitu
lembut
lempeng
len
lenggang
lengkap
lengkong
lengkungan
length
lenin
leninisme
lenong
lensa
lentera
leo
leon
leonardo
leone
leopard
lepas
lepidoptera
leres
les
leslar
leslie
less
lessons
lestari
leste
lester
lesti
lestre
let
letak
lethe
letters
level
lewat
lewis
lexicon
lexington
li
lia
liang
liar
liat
libanon
libar
libarnya
liberal
liberia
liberty
library
libur
libya
licak
licin
lidi
life
liftback
liga
ligar
light
lignit
lihai
lihat
lihati
likap
likat
like
lilin
lillehammer
lim
lima
limas
limau
limba
limbah
limbahanu
lime
limited
limo
limpasu
limpat
limping
lin
lincar
lincoln
linda
lindu
lindung
line
lingga
linggang
linggarjati
lingkar
lingkaran
lingkungan
lingkungannya
lingkup
lingua
linguistic
linguistics
linguistik
linguistique
link
links
linn
linnaeus
lintah
lintang
lintas
lintasan
lintuhut
lion
lipan
lipas
lipat
lipatan
lippincott
liputan
liquid
lirik
lisa
lisan
lisensi
lising
list
listrik
lit
litar
liter
literary
literasi
literatur
literature
literaturgeschichte
little
lituania
liturgi
liu
liukan
liur
live
liverpool
lives
living
livingston
liwar
liwat
lizards
lkis
ll
ller
ln
lnya
lo
loa
loban
local
location
locke
lodge
log
logam
logan
logaritma
logo
logogram
lok
loka
lokal
lokasi
loki
lokpaikat
loksado
lokus
lomba
lombok
london
lone
lonely
long
longgar
longsor
lonjong
lontar
lontara
look
lor
lord
loreng
lorenzo
lorong
lorosa
los
lost
lot
loteng
lots
lotus
louis
louisiana
louisville
louvre
love
low
lowell
lower
lpi
ls
lselv
ltd
lu
lua
luang
luar
luarnya
luas
luasnya
lubang
lubuk
luc
lucius
lucu
ludah
ludwig
lugam
lugat
luhur
luigi
luka
lukal
lukas
lukasi
lukisan
lulucuan
lulungkang
lulus
lulusan
lumayan
lumba
lumbah
lumbang
lumbis
lumbuk
lumot
lumpat
lumpur
luna
lunak
lunan
lunar
lung
lunggai
lunggar
lungur
lunjung
lunta
lunuh
lupa
lupar
lurah
luring
lurus
luther
lutung
luwuk
luzon
lv
ly
lynn
lyon
lyons
m
ma
maadaakan
maadakan
maadu
maaf
maajar
maajarakan
maakhiri
maakibatakan
maakui
maalami
maalir
maambil
maampah
maampihakan
maampihi
maancam
maandak
maandalakan
maanggap
maangkat
maangkut
maanut
maanyan
maapung
maarah
maartiakan
maasi
maatasi
maatur
maawasi
macam
macamnya
macan
machiavelli
machine
macmillan
mada
madagaskar
madakaripura
madali
madang
madani
made
madhya
madihin
madinah
madison
madrasah
madrid
madu
madura
maduran
madya
mae
maestro
mafia
magatsari
magazine
magelang
maghrib
magic
magin
magister
magma
magna
magnet
magnitude
magnitudo
magnolia
magnus
magrib
magun
mah
maha
mahaba
mahabangi
mahabarakan
mahabharata
mahabisakan
mahadang
mahadangi
mahadap
mahadapi
mahaga
mahakam
mahakuni
mahalabiu
mahalangi
mahalatakan
mahancurakan
mahang
mahangkup
mahangkupakan
mahapus
mahar
maharagu
maharaja
maharashtra
maharawin
mahargai
maharit
maharusakan
mahasilakan
mahasilkan
mahasiswa
mahasiswi
mahatiakan
mahaur
mahayana
mahdi
mahibaki
mahigaakan
mahilangakan
mahina
mahindari
mahir
mahirip
mahisap
mahitung
mahkamah
mahkota
mahkuta
mahluk
mahmud
mahormati
mahsa
mahubungakan
mahurmati
mai
maigut
maikat
mail
mailangi
main
mainan
maingat
maingatakan
maingkuti
maingu
mainjam
maisi
maitihi
majadi
majalah
majalis
majapahit
majelis
majemuk
majlis
major
maju
majunya
mak
maka
makai
makam
makan
makanan
makanannya
makanya
makassar
makau
make
makedonia
makemake
makes
makhluk
makin
making
makkah
maklumat
makmur
makna
maknanya
maksimal
maksimum
maksud
maksudnya
mal
malabihi
maladewa
maladum
malah
malahan
malai
malaikat
malainakan
malainkan
malajari
malaka
malakuakan
malakukan
malalu
malalui
malam
malambangakan
malambati
malamnya
malancarakan
malanda
malang
malanggar
malanjutakan
malapasakan
malarak
malarang
malaria
malarutakan
malastariakan
malatih
malawan
malawani
malawi
malay
malaya
malayan
malayani
malaysia
malayu
malcolm
male
mali
malibatakan
malihat
malihati
malihatnya
malik
malikit
malikiti
malimpati
malin
malinau
malindungi
maling
malingkar
malingkun
malintang
malintasi
maliputi
malisanakan
malitir
maliwati
mallorca
malo
malta
maluas
maluasi
maluka
malukis
maluku
malumbar
maluncurakan
malunta
mama
mamacah
mamacahakan
mamadahakan
mamadahan
mamadahi
mamagatakan
mamahami
mamainakan
mamajuakan
mamakai
mamakainya
mamakan
mamakay
mamaksa
mamalia
mamalihara
mamaluk
mamanah
mamanangakan
mamancarakan
mamanda
mamandang
mamandir
mamandirakan
mamandiri
mamangaruhi
mamanggil
mamangsa
mamanjang
mamanpaatakan
mamantingakan
mamanuhi
mamanya
mamaraki
mamarina
mamarintah
mamarintahakan
mamarlu
mamarluakan
mamarlukan
mamasak
mamasang
mamastiakan
mamasukakan
mamasuki
mamatii
mambaca
mambadali
mambagi
mambagiakan
mambahas
mambaiki
mambakar
mambalah
mambalik
mambang
mambangun
mambantang
mambantu
mambantui
mambantuk
mambarasihakan
mambari
mambariakan
mambarii
mambarikan
mambarsihi
mambasuh
mambasuhi
mambatasi
mambawa
mambawaakan
mambawai
mambayar
mambayari
mambe
mambicarakan
mambida
mambidaakan
mambina
mambuang
mambuat
mambujurakan
mambujuri
mambuka
mambuktiakan
mambulau
mambulihakan
mambulikakan
mambuliki
mambunguli
mambunuh
mamburu
mamende
mamicik
mamicu
mamikirakan
mamilih
mamiliki
mamimpin
maminanduakan
maminandui
mamindahakan
maminggir
maminggirakan
mamingkut
mamingkuti
maminta
maminum
mamirik
mamisahakan
mamisitakan
mamisiti
mamitah
mamitahakan
mamitahi
mammal
mammalia
mammalian
mampalajari
mampangaruhi
mamparingati
mamparluas
mampartahanakan
mamparulih
mampawah
mampu
mampunyai
mamuat
mamugai
mamukul
mamulai
mamungkinakan
mamuruk
mamusatakan
mamusingi
mamutar
mamutusakan
man
mana
manaar
manaat
manabuh
manabuk
manado
manaf
managakakan
management
managuk
managur
manahan
manahani
manaikakan
manaiki
manajak
manajemen
manajer
manaklukakan
manakunakan
manakuni
manaliti
manambah
manambahakan
manambahi
manambai
manambon
manambus
manampai
manampaiakan
manampaikan
manampik
manampikakan
manampuh
manampung
manamuakan
manamui
manamukan
manamuni
mananai
mananam
mananda
manandaakan
manandai
manandang
manandatangani
manang
manangah
manangani
manangati
mananggapi
manangis
manangkap
manangkis
manantang
manantuakan
manapaat
manara
manarai
manarap
manarapakan
manarbitakan
manarik
manarima
manarjamahakan
manarus
manarusakan
manasa
manatak
manatapakan
manatapkan
manau
manawak
manawarakan
manawing
mancagah
mancakup
mancanagara
mancangkali
mancapai
mancari
mancarii
mancarminakan
mancatat
mancatu
manchester
mancilang
mancipta
manciptaakan
manciptakan
mancitak
mancuba
mancubai
mancungul
mancungulakan
mancur
mancurat
mandai
mandala
mandalang
mandalika
mandaliun
mandangani
mandangar
mandangarakan
mandangari
mandapat
mandapatakan
mandapati
mandapatkan
mandarat
mandarin
mandasar
mandastana
mandat
mandatangakan
mandatangi
mandau
mandawai
manday
mande
mandi
mandiami
mandikiti
mandiri
mandiriakan
mandirikan
mando
mandominasi
mandor
manduduki
mandukung
mandul
manduminasi
mandura
manfaat
mang
manga
mangacu
mangaduakan
mangajar
mangaji
mangajut
mangajutakan
mangaka
mangaku
mangakui
mangalahakan
mangalahkan
mangalami
mangalilingi
mangalir
mangaluarakan
mangalula
mangalumbuni
mangambangakan
mangambangkan
mangambil
mangan
manganai
manganal
manganalakan
mangancam
mangandaliakan
mangandung
mangapalai
mangaramputi
mangarang
mangarani
mangaraninya
mangaritik
mangatahuani
mangatahui
mangatam
mangawaakan
mangawal
mangawalakan
mangawali
mangawaliakan
mangawini
mangga
manggabungakan
manggaduh
manggagai
manggala
manggalar
manggambar
manggambarakan
manggana
mangganai
mangganalakan
mangganang
mangganggu
manggani
mangganii
manggantal
mangganti
manggantiakan
manggarak
manggarakakan
manggarakan
manggawi
manggawiakan
manggawinya
manggipak
manggis
manggugurakan
mangguna
manggunaakan
manggunakan
manggurak
manghadap
manghasilakan
mangiau
mangifera
mangikihi
manginum
mangira
mangirim
mangirimakan
mangisahakan
mangitar
mangitarakan
mangitari
mangkaji
mangkasar
mangkilat
mangklaim
mangku
mangkubumi
mangkubuminya
mangkuk
mangkunagara
mangkurat
mangrupikeun
mangsa
mangsanya
manguap
manguasai
mangubuiakan
manguciakakan
manguciakiakan
mangulihakan
mangulihi
mangulilingi
mangumpulakan
mangumumakan
mangundurakan
mangurangi
mangutip
manguyak
manhattan
manian
manifestasi
manifesto
manik
manikah
manikasi
manikin
manikinakan
manikmati
manila
manilai
manimbai
manimbak
manimbulakan
maninggal
maninggalakan
maninggalkan
maningkat
maningkatakan
maninjau
manipura
manira
manis
manisan
manit
maniwasakan
manjabak
manjabat
manjadi
manjadiakan
manjadikan
manjaga
manjagai
manjajak
manjalanakan
manjalang
manjalani
manjalankan
manjalasakan
manjalaskan
manjalin
manjamin
manjanak
manjanaki
manjangkau
manjangkit
manjapai
manjauhakan
manjawab
manjual
manjuhut
manjulung
manjulungi
manjunjung
manolak
mansfield
mantah
mantan
mantangai
mantari
mante
mantega
mantel
manteri
manterinya
mantewe
mantikei
mantra
mantri
mantuil
mantuk
mantup
manu
manual
manuhing
manuju
manuk
manukar
manukarakan
manukari
manukup
manukupi
manulak
manular
manulis
manulisakan
manulung
manulungi
manunaiakan
manunda
manunggal
manunjuk
manunjukakan
manunjul
manunti
manuntung
manuntungakan
manuntut
manuraiakan
manurun
manurunakan
manurut
manurutnya
manus
manusia
manuskrip
manutup
manutupi
many
manyababakan
manyababkan
manyabak
manyabar
manyabarakan
manyadari
manyadia
manyadiaakan
manyadiakan
manyalai
manyalam
manyalamatakan
manyalidiki
manyalukut
manyamanakan
manyamani
manyamar
manyambah
manyambat
manyambatakan
manyambati
manyambatnya
manyambung
manyambungakan
manyambut
manyampaiakan
manyangat
manyangkut
manyarah
manyarahakan
manyaranakan
manyarang
manyarap
manyarbu
manyarihakan
manyasah
manyasuaiakan
manyata
manyataakan
manyatakan
manyatu
manyatuakan
manyatujui
manyatukan
manyiapakan
manyimpan
manyimpulakan
manyubarang
manyumbang
manyuruh
manyuruhakan
manyurungakan
manyusu
manyusui
manyusul
manyusun
manyutu
mao
maolah
map
maple
mapleton
mapping
maps
maqdis
mar
mara
marabahan
marabut
marabutakan
marabuti
maraga
maraih
maranakakan
marandahakan
marang
marangkap
marangsang
marasa
marasaakan
marasai
marasani
marat
marathi
maratifikasi
maratua
marau
marayaakan
marayakan
marble
marc
march
marco
marcus
mardeka
mardika
mare
marende
maret
marga
margaasih
margacinta
margahayu
marganya
margaret
margarin
margasari
margin
margomulyo
marhum
mari
maria
mariah
mariam
mariana
mariangin
marianna
marie
marikit
marikitakan
marilis
marin
marina
marine
marino
marion
marista
marit
maritam
maritim
maritime
mark
markas
market
marketing
marks
marlene
marley
maroko
mars
marshall
marta
martabat
martadipura
martapura
martasari
martin
martinus
martir
marugiakan
marujuk
marumpak
marumusakan
maruncing
marupa
marupaakan
marupakan
marusak
marwati
marx
marxisme
marxist
mary
marys
marzuki
mas
masa
masak
masakan
masalah
masam
masami
masarakat
masaru
masashi
masehi
masigit
masih
masihi
masilah
masin
masing
masir
masjid
masjidil
maskapai
maskar
masker
maski
maskipun
maskut
mason
mass
massa
massachusetts
massal
master
masterchef
masuk
masukakan
masukan
masuknya
masyarakat
masyarakatnya
masyhur
masyumi
mat
mata
matahari
matam
matamatika
matan
matang
matanpada
matanya
mataram
mataraman
matematika
matematikawan
matematis
materi
material
materialisme
materials
mathematics
mati
matian
matiri
matirial
matius
matsuo
matt
matters
matthew
mau
maubah
maudara
maugah
maugahakan
mauji
maukur
maulah
maulahakan
maulahnya
maulana
maulid
maumpat
maumpatakan
maumpati
maumpatinya
maumumakan
maundurakan
maungkapakan
maunjuk
maunjuki
maunjun
mauntungakan
maupayaakan
maupun
maurbit
mauriac
maurice
mauritania
mauritius
maurus
maurut
mausulakan
maut
mautamakan
mawaca
mawakili
mawang
mawar
mawarnai
mawatasi
mawujudakan
max
maxima
maxwell
may
maya
mayakini
mayang
mayar
mayat
mayer
mayo
mayor
mayoritas
mayu
mayur
mayuritas
mazhab
mazowiecki
mbak
mbang
mbaru
mbc
mber
mcarthur
mccarthy
mcdonald
mcgraw
md
me
meaning
measles
measures
mecca
med
medan
medang
medcom
media
mediaindonesia
mediatama
medical
medicine
medieval
medis
mediterania
medium
medusa
meeting
mega
megawati
mei
meja
mekanisme
mekar
mekarsari
mekkah
mekong
meksiko
melak
melaka
melakukan
melalui
melambangkan
melanesia
melapi
melaporkan
melati
melatih
melawan
melawi
melayik
melayu
melayuonline
melbourne
melebihi
meledak
melepaskan
melewati
meliau
melibatkan
melihat
melindungi
melintang
meliputi
meluas
memainkan
memakai
memakan
memakay
memang
memanjang
memasak
memasuki
memasukkan
membaca
membahas
membangun
membantu
membawa
membeli
membentuk
member
memberi
memberikan
membran
membuat
membunuh
membutuhkan
memegang
memeluk
memenuhi
memerintah
memilih
memiliki
memimpin
meminta
memori
memorial
memory
mempawah
mempelai
mempelajari
memperoleh
mempertahankan
mempunyai
memungkinkan
memutuskan
men
menang
menara
menarik
menawarkan
mencakup
mencapai
mencari
mencatat
mencegah
mencoba
mendakan
mendalam
mendapat
mendapatakan
mendapatkan
mendarat
mendawai
mendefinisikan
mendesain
mendirikan
mendominasi
menduduki
mendukung
menemukan
menengah
menentukan
menerima
menewaskan
mengabaikan
mengacu
mengajak
mengakhiri
mengakibatkan
mengakui
mengalami
mengalir
mengambil
menganai
mengandung
menganggap
mengatakan
mengatur
mengembangkan
mengenai
mengenal
mengenang
mengganggu
menggantiakan
menggantikan
menggaris
menggunaakan
menggunakan
menghadapi
menghasilkan
menghilang
menghindari
mengikuti
mengorbit
menguasai
mengubah
mengumumkan
mengurangi
menikah
menikahi
meninggal
meninggalakan
meninggalkan
meningkat
meningkatkan
menit
menjabat
menjadi
menjadikan
menjaga
menjalani
menjalankan
menjalin
menjelajah
menjelang
menjelaskan
menjual
menkes
menolak
menorca
menstruasi
mentah
mental
mentarang
mentaya
mentebah
mentega
menteri
mentor
menu
menuju
menukung
menular
menulis
menunggu
menunjukakan
menunjukkan
menurun
menurut
menyamar
menyambat
menyampaikan
menyatakan
menyebabkan
menyebar
menyebut
menyelenggarakan
menyelesaikan
menyerah
menyerang
menyerap
menyetujui
menyuke
menyuruh
menyusun
mera
merah
merak
merancang
meranti
merapi
merasa
meratus
merauke
mercedes
mercer
mercury
merdeka
merebut
merek
mereka
meridian
merkurius
merpati
merriam
merrill
mers
merujuk
merupakan
mesangat
mesin
mesinnya
mesir
mesiu
mesjid
meski
meskipun
mesopotamia
messenger
met
meta
metafisik
metal
metana
meteor
meteoroid
meter
method
methods
metode
metro
metropolitan
meulah
meumpati
mewah
mewakili
mexico
mhy
mi
miami
miang
michael
michel
michele
michigan
microsoft
mid
middle
midia
midway
mie
mig
migrasi
miguel
mihing
mihrab
mija
mikanisma
mikawa
mike
mikhail
miki
mikro
mikronesia
mikroorganisme
mikroskopis
mil
milan
milano
milenium
miles
milford
miliar
milik
milis
militan
militar
military
militer
militir
milk
mill
miller
million
mills
milner
milton
milyar
mimang
mimbar
mimiti
mimpi
min
mina
minang
minangkabau
minat
mind
mindanao
mindat
mindoro
mineral
mineralogy
minerals
ming
minggu
mingguan
minh
mini
minibus
minimal
minimum
mining
miniral
minister
ministry
minjam
minjangan
minneapolis
minnesota
minor
minoritas
minorities
minos
minta
minum
minuman
minutes
minyak
miosen
miracle
mirah
miri
mirik
miring
mirip
mirkurius
mirror
misa
misal
misalkan
misalnya
misi
misionaris
miskin
miss
missing
mission
missouri
misteri
misterius
mistik
mistral
mit
mitchell
mitir
mitiran
mitologi
mitos
mitra
mitsubishi
mittelalter
mituda
mitudi
mitulugi
mitus
miwa
mix
miyazaki
mj
ml
mly
mm
mnc
mo
mobil
mobile
moda
modal
mode
model
models
modern
moderna
modifikasi
modo
modul
module
moeckli
moehammad
mohamad
mohamed
mohammad
mohammed
mohd
mokratik
molde
moldova
molecular
molekul
molekuler
molotov
moluska
momen
momentum
mon
mona
monarki
monde
monetary
money
mongol
mongolia
monica
monitor
monkeypox
monopoli
monroe
mons
monster
montale
montallat
monte
monterado
montessori
montgomery
month
monthly
months
monticello
monumen
monyet
mook
moon
moone
moor
moore
moral
moralitas
more
morelon
morfologi
morgan
mori
morne
morning
moro
morre
morris
morrison
mort
mortality
morto
morton
moscow
moskow
moskwa
mosque
mosquito
moss
most
mot
mother
motif
motilal
motogp
motor
motors
mound
mount
mountain
moutong
movement
movie
mozambik
mp
mpaja
mph
mpr
mpv
mr
mrt
ms
msf
msn
mt
mts
mu
muang
muangthai
muar
muara
muasal
muat
muatan
mubil
mucius
muda
mudah
mudahan
mudal
mudik
mudil
mudirin
mueang
muere
mufakat
mufti
muha
muhamad
muhammad
muhammadiyah
muhanya
muhara
muharam
muharram
muhidin
muhtadin
muhur
mui
muka
mukaan
mukanya
muke
mukim
mukok
mukti
mula
mulai
mulanya
mulawarman
mulay
mulia
multi
multimedia
multitree
mulud
mulus
mulut
mulya
mulyo
mulyorejo
mumbai
mun
munch
muncul
mundar
mundo
mundur
munggu
mungguk
mungkin
munich
muning
munir
munisipalitas
munnya
munoz
munstar
muntai
muntung
muntungnya
munupuli
murah
murakami
mural
murid
muridnya
murka
murni
murphy
murray
mursyid
murung
musa
musababnya
musang
muse
museum
musi
musibah
music
musik
musikus
musim
musiman
musisi
musium
muslim
muslimin
musnah
mustafa
mustain
musti
mustika
musuh
musuhnya
muszaphar
mutiara
mutip
mutlak
mutu
mutur
my
myanmar
mykenai
mystery
mystus
myth
mythology
n
na
nabati
nabi
nad
nada
nadu
nafis
nag
naga
nagano
nagara
nagaranya
nagarawan
nagari
nagasaki
nageri
nagorno
nagoya
nagri
nah
naha
nahap
nahdlatul
nai
naik
naiknya
naini
naitu
nakhon
nakula
nalayan
nalika
nam
nama
namanya
name
names
namibia
naming
nampak
namun
nan
nanang
nang
nanga
nanggala
nangini
nangintu
nangitu
nangka
nangkaya
nanitu
nansen
naomi
napa
napas
napigasi
napoleon
nara
naraka
narapidana
narrator
naru
naruto
narvik
nasa
nascar
nashville
nasi
nasib
nasihat
nasinal
nasional
nasionalis
nasionalisme
nasiunal
naskah
nassau
nasution
nata
natai
natal
nation
national
nationalism
nations
native
natrium
natuna
natur
natural
naturalis
naturalisme
nature
naungan
naval
navbar
navigator
navy
naya
nazi
naŋ
nb
nbc
nce
nchen
ncov
nd
nda
nde
ndemik
nderal
ndrawasih
ne
near
nebula
nebulae
nederlandsch
need
needed
needham
needs
negara
negatif
negeri
neil
nektar
nelayan
nelson
nemesis
nen
nenek
neni
neny
neo
neofelis
neogen
neolitik
nepal
neptu
neptune
neptunus
net
netflix
netherlands
netral
netralitas
network
neutron
never
new
newark
newburgh
newcastle
newport
news
newton
next
ng
nga
ngabang
ngagaduhan
ngahasilkeun
ngaju
ngajual
ngalaporkeun
ngalih
ngalihnya
ngambon
ngan
nganggo
ngara
ngaran
ngarannya
ngasem
ngayogyakarta
ngc
ngeri
ngeunaan
ngganding
nggang
ngiini
ngimbang
ngini
nginih
nginilah
ngintu
ngirangan
ngitu
ngituh
ngitulah
ngke
ngkong
ngni
ngo
ngraho
ngurai
nha
ni
nia
niaga
niang
nias
niat
niatnya
nibung
nic
nica
nicea
nicholas
nick
nicolas
nietzsche
niger
nigeria
night
nights
nih
nihilism
nihilisme
nihon
niigata
nik
nikah
nikel
nikhom
nil
nilai
nilam
nimfa
nine
ningkatkeun
ningrat
nini
ninih
ninja
nintu
nipah
nippon
niptunus
nira
nirawak
nirlaba
nis
nisaetus
nissan
nitrogen
nitu
nkri
nl
nm
nnya
no
noam
nobel
nobility
noen
noi
nok
nom
nome
nomenclature
nominasi
nomor
non
nonaktif
nong
nonton
noor
nord
nordic
nordik
nordland
noreg
norma
normal
norman
norse
norte
north
northern
norton
norway
norwegia
norwegian
not
note
notes
noto
notosudirdjo
notosusanto
nov
nova
nove
novel
novelis
november
now
nowe
nowy
nox
noyan
nr
ns
nsi
nta
ntah
nte
nter
ntt
nu
nuansa
nuclear
nuclearweaponarchive
nuduh
nuenen
nueva
nuevo
nugini
nugraha
nugroho
nukar
nuklir
nul
number
numbers
numur
nunjukkeun
nunukan
nunung
nupedia
nupil
nupimbir
nur
nurhaliza
nurmal
nurul
nurut
nus
nusa
nusakambangan
nusantara
nusia
nutrisi
ny
nya
nyababkeun
nyai
nyala
nyaman
nyamannya
nyamuk
nyanyian
nyarak
nyaring
nyarios
nyata
nyatakeun
nyawa
nyc
nyita
nyiur
nyonya
nyuatan
nzli
o
oak
oakland
oas
obama
obat
obje
objects
objek
obligations
obor
observatory
observer
obyek
occupation
ocean
oclc
oct
october
octrooi
oder
odin
odorico
odyssey
oecd
oedjarnja
of
off
offers
office
officer
official
og
ogden
oge
ogooue
oh
ohchr
ohio
ohv
oil
ois
ojk
okeanos
okezone
oki
okinawa
oklahoma
oksida
oksidasi
oksigen
oktober
okultasi
ol
ola
olah
olahraga
old
oldest
ole
oleh
olga
olimpiade
olimpus
oliver
olmek
ologi
olympic
olympics
olympus
omaha
oman
omar
ombak
on
one
online
only
ono
onsoi
ontario
ontologis
oort
oost
op
open
opera
operasi
operations
operator
opini
oposisi
optik
opu
or
oral
orang
orange
orangutan
orangutans
orator
orbit
orbitnya
orde
order
ordinal
ordo
ordovisium
oregon
org
organ
organik
organisasi
organisation
organising
organisme
organization
orgel
ori
orient
oriental
orientasi
origin
original
origins
orion
orkes
orleans
ornamen
ortodoks
os
osaka
osamu
osce
oseania
osing
oslo
osmanya
ossa
ossetia
osteichthyes
oswald
otak
other
others
otitis
oto
otomatis
otomikosis
otomotif
otomycosis
otonom
otonomi
otoritas
otot
otto
ottoman
our
ouroboros
out
outbreak
outer
oval
over
overview
oviedo
owl
own
owners
oxford
oz
p
pa
paa
paampihannya
paangkutan
paatasan
paawakan
pabanyuan
pabean
pabidaan
pabila
pablo
pabrik
pacah
pacahan
pacang
pacangan
pacat
pacatur
pace
pacet
pacific
paciran
package
pacul
pada
padagang
padagangan
padahal
padalaman
padamaian
padanan
padang
padangan
padapatan
padas
padat
padatuan
padi
padisaan
padu
paduan
padudian
padudusan
paduli
paduman
pae
paec
pagalangan
pagar
pagarakan
pagaring
pagat
pagatan
pagawai
page
pages
pagi
pagisiran
pagungan
pagunungan
paguruan
paha
pahabaan
pahabisan
pahabisannya
pahadangan
pahagaan
pahalatan
pahalusnya
paham
pahancapnya
pahandapnya
pahandut
pahang
pahangai
pahanyarnya
paharagaan
paharit
pahat
pahatian
pahiasan
pahimpunan
pahinakan
pahit
pahitungan
pahlawan
pahmi
pahu
pahumaan
pahurupan
paikat
pailang
paing
painting
paipian
paitih
paitihan
pajabat
pajak
pajalanan
pajang
pajangkitan
pajanjian
pajero
pajiarah
paju
pajuang
pajuangan
pak
pakabunan
pakai
pakaian
pakakas
pakal
pakalahian
pakambangan
pakambangannya
pakan
pakapuran
pakar
pakara
pakarangan
pakarja
pakasam
pakawinan
pakay
pakayan
paket
paki
pakis
pakistan
pakit
paksa
paksi
paksin
pakta
paktor
paktur
paku
pakualaman
pakuburan
pakujuk
pakujukan
pakumpulan
pakutaan
pal
pala
palabuhan
palace
palainan
palajar
palajaran
palak
palaksana
palaksanaan
palaku
palam
palambuan
palampitan
palamutan
palang
palangan
palanggaran
palangka
palangkap
palangkaraya
palanit
palapasan
palaran
palarangan
palarut
palas
palastarian
palastik
palatar
palatih
palatihan
palau
palaut
palawak
palawanan
palayanan
palayaran
palayarum
pale
palem
palembang
palestina
paley
palgrave
pali
palidangan
palih
palihan
palimbangan
palindung
palindungan
paling
palingkau
palir
palistina
palita
pallas
palm
palma
palmer
paloh
palsu
palu
paluh
palukis
paluncuran
paluru
pamacahan
pamadam
pamahaman
pamain
pamainan
pamainnya
pamajah
pamakai
pamakaian
pamakaiannya
pamakainya
pamakaman
pamakan
pamakanan
pamakaran
pamaksinan
pamalar
pamalarakan
pamaliharaan
paman
pamanang
pamanasan
pamandangan
pamandir
pamandiran
pamangsa
pamanis
pamannya
pamantauan
pamarakan
pamaraknya
pamare
pamariksaan
pamarintah
pamarintahan
pamarintahannya
pamasalahan
pambaca
pambadalan
pambagian
pambaharuan
pambakal
pambakaran
pambalajaran
pambalap
pambangkakan
pambangkit
pambangunan
pambantaian
pambantu
pambantuk
pambantukan
pambanyakan
pambanyaknya
pambanyuan
pambarasih
pambarian
pambarontakan
pambaruntak
pambaruntakan
pambatasan
pambawa
pambibasan
pambinaan
pambuangan
pambuatan
pambukaan
pambulikan
pambuluh
pambunuhan
pame
pameran
pameunteu
pamikir
pamikiran
pamikirannya
pamilihan
pamilu
pamimpin
paminanduan
paminggir
pamintaan
pamiritan
pamong
pampang
pampanga
pampijit
pamuda
pamugaan
pamuka
pamukaan
pamukaannya
pamukan
pamukiman
pamula
pamulaan
pamulaannya
pamulalit
pamulannya
pamulihan
pamulutan
pamurus
pamusik
pan
panafsiran
panah
panahan
panaklukan
panaliti
panalitian
panama
panambaan
panambahan
panambaian
panambaiannya
panambaiyan
panambangan
panambayan
panambayannya
panampaian
panampakan
panampik
panampilan
panampungan
panamu
panamuan
pananaman
pananda
panangah
panangahan
pananganan
pananggalan
pananggulangan
panangkapan
panantuan
panarabangan
panaraian
panarangan
panarapan
panarbangan
panarbit
panarima
panarimaan
panarus
panas
panasihat
panasonic
panatapan
panau
panawaran
panca
pancagahan
pancampuran
pancangkalnya
pancarakinan
pancari
pancarnaan
pancasila
panci
pancipta
panciptaan
pancungulan
pancur
pandahan
pandai
pandakatan
pandakwah
pandal
pandan
pandanan
pandang
pandangan
pandangaran
pandapat
pandapatan
pandarahan
pandaratan
pandarita
pandaritaan
pandatang
pandawa
pandawan
pande
pandemi
pandemic
pandidikan
pandikitnya
pandimi
panding
pandingin
pandir
pandiran
pandiri
pandirian
pandit
pandita
pandora
pandu
panduan
pandudian
panduduk
pandudukan
panduduknya
pandukung
pandulangan
panel
panembahan
panen
pang
pangaboman
pangacualian
pangadilan
pangajar
pangajaran
pangajian
pangakuan
pangalaman
pangalumpukan
pangamat
pangamatan
pangambangan
pangan
pangandalian
pangandika
pangante
pangantin
pangantinan
panganut
pangapungan
pangaranan
pangarang
pangarangnya
pangarat
pangartian
pangaruh
pangatahuan
pangatuju
pangatur
pangaturan
pange
pangeran
panggabungan
panggagai
panggagaian
panggalangan
panggambaran
panggana
pangganaan
pangganalnya
panggananya
panggang
pangganti
panggarak
panggawi
panggawian
panggulu
panggunaan
panggunaannya
panggung
pangguringan
pangharagaan
panghargaan
panghasil
panghubung
panghujan
panghulu
panghurmatan
pangikisan
pangikut
pangikutnya
pangiran
pangiriman
pangiwa
pangkal
pangkalan
pangkalnya
pangkat
panglihatan
panglima
pangrasa
pangsit
panguasa
panguasaan
pangujian
pangulahan
pangumuman
pangurangan
pangurbanan
pangusaha
pangutipan
panikasan
paninggalan
paningginya
paningkatan
paninjauan
panitia
panitikan
panjaga
panjajah
panjajahan
panjalajah
panjalasan
panjanak
panjanakan
panjang
panjangnya
panjara
panjauhnya
panji
panjimas
panjual
panjualan
panjuru
pansiun
pantai
pantas
pantasi
panther
panting
pantun
panuhanya
panukar
panukup
panularan
panulis
panulisan
panulisannya
panumpang
panuntun
panurunan
panutup
panutupan
panutur
panuwastu
panyabab
panyababnya
panyabaran
panyadia
panyair
panyakit
panyalamatan
panyalanggaraan
panyalidikan
panyalukutan
panyamaran
panyambatan
panyambung
panyandang
panyangga
panyanyi
panyarahan
panyaringan
panyasuaian
panyataan
panyiaran
panyiksaan
panyimpanan
panyipatan
panyisihan
panyu
panyusun
panyusunan
pao
paoh
papa
papadah
papadahan
papaian
papan
paparan
paparangan
papari
papas
papati
paper
papers
papila
papua
papulir
paputaran
papuyu
par
para
parabutan
paradaban
paradah
paradangan
parade
paradise
parah
parahatan
parahu
parai
parak
paraknya
paraktik
paralaks
paralimpiada
parallax
paralympic
paramasan
parameter
parampihan
parampuan
paran
parana
paranan
parancaknya
parancang
parancis
parandahnya
parang
parangai
paranggi
parangkap
parangkat
parantara
parantos
parasa
parasaan
parasaku
parasit
parasut
paraturan
paraunan
parawan
parawatan
parawit
paray
parayaan
parbaikan
parbatasan
parbidaan
parbudakan
parcaya
parcubaan
pardabatan
pardagangan
pardamaian
pardana
pare
parenggean
pargarakan
pargata
parhatian
parhiasan
parhitungan
pari
parian
pariannya
pariasi
paribadi
paribasa
paribumi
parigi
parihal
parilaku
parimata
parindu
paring
paringatan
paringin
paringkat
parinsip
parintah
pariode
paris
parisidin
paristiwa
parit
pariuda
pariudi
pariwisata
parjalanan
parjalanannya
parjanjian
parjuangan
park
parkambangan
parkara
parkataan
parkawinan
parker
parkiraan
parkumpulan
parkutaan
parlakuan
parlawanan
parleme
parlemen
parliament
parlimen
parlindungan
parlu
parma
parmainan
parmaisuri
parmanen
parmintaan
parmukaan
parnah
parnyataan
paroduk
paroduksi
paroki
parole
paropinsi
parose
paroses
parote
parpustakaan
parsagi
parsaingan
parsamaan
parsatuan
parsiapan
parsin
parsis
parsons
parsunil
parsyaratan
part
partahanan
partai
partakunan
partama
partamanya
partambangan
partampuran
partamuan
partandingan
partangahan
partanian
partikal
partikel
partikularisme
partimbangan
partisi
partisipasi
partumbuhan
partunjukan
party
paru
parubahan
parucauan
paruduk
paruduksi
parugram
paruh
paruki
parumahan
parumusan
parumusi
parundingan
parunggu
parupinsi
parusahaan
parusis
parut
parutukul
parwakilan
parwira
pas
pasa
pasabaatan
pasadiaan
pasahabatan
pasai
pasaingan
pasak
pasakutuan
pasal
pasalancar
pasamakmuran
pasan
pasang
pasangan
pasantrin
pasar
pasaran
pasaribu
pasarihan
pasarikatan
pasarta
pasatuan
pasawat
pasayangan
pasca
pascal
pascasarjana
pase
paser
pashtun
pasiapan
pasien
pasif
pasifik
pasilitas
pasipik
pasir
pasisir
paskah
pasnya
paso
pasokan
pasolini
pasqualucci
pass
past
pastel
pasti
pastor
pasukan
pasukannya
pasurungan
pat
pata
patah
patahanan
patak
patakunan
patampuran
patamuan
patangahan
patangkep
patani
patanian
pathum
pati
patih
patik
patikuan
patinggi
patir
patoge
patogen
patricia
patrick
pattani
patualangan
patugas
patuh
patulung
patumbuhan
patung
patunjuk
paturaian
patut
paubahan
paugahan
pauh
paujungan
pauk
paukuran
paul
paulah
paulahan
paulahannya
paulaian
paulanjaan
paulus
paumpat
pauncitan
pauncitannya
pauncitnya
paung
paurangan
paurusan
paus
pausahaan
paviliun
pawakilan
pawan
pawang
pawarna
pawatasan
pawayangan
pawon
paya
payang
payau
payne
payu
payung
paŋ
pbb
pc
pd
pdb
pdf
pe
peace
pearce
pearl
pearson
pedagang
pedalaman
pedang
pedis
pedoman
pedro
peduli
pegawai
pegunungan
pejabat
pejuang
pekalipan
pekan
pekanbaru
pekap
pekauman
pekerjaan
pelabuhan
pelaihari
pelajar
pelajau
pelakon
pelaku
pelangi
pelatih
pelaut
pelawak
pelayanan
pelestarian
pelindung
pelita
pelopor
pelukis
peluru
pemahaman
pemahan
pemain
pemakaman
pemakan
pemangkat
pemangkih
pematang
pembagian
pembakaran
pembalap
pembalasan
pembangunan
pembantaian
pembantu
pembawa
pembentuk
pembentukan
pemberian
pemberontakan
pembinaan
pembuangan
pembuat
pembuatan
pembukaan
pembunuhan
pemburu
pemekaran
pemeliharaan
pemenang
pemerintah
pemerintahan
pemikiran
pemilihan
pemilik
pemilu
pemimpin
pemkab
pemuda
pemulaan
pemulihan
pemulung
pemurus
pemusik
pen
pena
penajam
penambahan
penambayan
penanganan
penanggalan
penangkapan
penasihat
pencarian
pencegahan
pencerahan
pencernaan
pencipta
penda
pendakwah
pendapat
pendaratan
pende
pendek
pendekatan
penderita
pendeta
pendidikan
pendiri
penduduk
penduduknya
pendukung
peneliti
penelitian
penemu
penerangan
penerapan
penerbangan
penerbit
penerbitan
penerima
penetapan
pengacara
pengadilan
pengajar
pengajian
pengakuan
pengalaman
pengantar
penganut
pengarang
pengaron
pengaruh
pengelolaan
pengembangan
pengendalian
pengerat
pengertian
pengetahuan
pengguna
penggunaan
penghapusan
penghargaan
penghasil
penghulu
pengkadan
pengobatan
pengolahan
penguasa
pengucapan
penguin
pengungsi
pengusaha
peninggalan
peninsula
peniti
penjaga
penjahat
penjajahan
penjelasan
pennsylvania
penonton
pensiun
penting
penuh
penulis
penulisan
penumpang
penyair
penyakit
penyanyi
penyebab
penyebaran
penyelesaian
penyembuhan
penyerahan
penyerangan
penyiaran
penyinggahan
penyunting
people
peoples
peperangan
pepper
per
perabu
perahu
perairan
perak
peralatan
peran
peranan
perancis
perang
perangkat
perasaan
peraturan
perawat
perawatan
perayaan
perbaikan
perbandingan
perbankan
perbara
perbatasari
perbedaan
perbuatan
perbudakan
perbukuan
perburuan
percepatan
percetakan
perda
perdagangan
perdamaian
perdana
perdicula
perekonomian
perempuan
perencanaan
perfect
perfilman
performance
pergelangan
pergi
perguruan
perhadjatan
perhatian
perhutani
peri
peribahasa
perigi
perihelion
perikanan
periksa
perilaku
perindustrian
peringatan
peringkat
perintah
perintis
period
periode
periplus
perisai
peristiwa
perjalanan
perjalanannya
perjan
perjanjian
perjuangan
perkataan
perkawinan
perkebunan
perkembangan
perlindungan
perlu
permai
permainan
permaisuri
permanen
permanent
permata
permendagri
permintaan
permukaan
pernah
pernikahan
pernyataan
perot
perpres
perpustakaan
perry
pers
persahabatan
persatuan
perse
persefon
persegi
persekutuan
persemakmuran
persen
persentase
persepsi
perserikatan
persero
persetujuan
perseus
persi
persia
persiapan
persik
personal
personnemningar
perspective
perspectives
pertahanan
pertama
pertamanya
pertamina
pertandingan
pertanian
pertapa
pertempuran
pertemuan
pertengahan
pertimbangan
pertuan
pertumbuhan
peru
perubahan
perum
perumahan
perusahaan
perut
perwakilan
pes
pesan
pesantren
pesat
pesawat
peseban
peserta
pesimisme
pesisir
peso
pesona
pesta
peta
petak
petani
pete
peter
petersburg
petir
petit
petrarca
petronas
petrus
petualang
petualangan
pewarna
pg
ph
pha
phai
phalanges
phalanx
phan
phanom
phase
phil
philadelphia
philip
philippine
philippines
phillips
philosophical
philosophy
phisai
pho
phoebe
phoenix
phon
phong
photo
photos
php
phra
phraya
phu
phylogeny
physical
physics
physiology
pi
piagam
piala
pian
piani
pianis
pibruari
pibuari
picak
picasso
pickup
picture
pictures
pidana
pidato
pidatu
pidiu
piduhal
pie
piedmont
pieneman
pierre
pieter
pigmen
pihak
pikeun
pikir
pikiran
pikul
pilang
pilar
pilem
pilihan
pilim
pilipina
pilkada
pilot
pilsapat
piluru
pimpin
pimpinan
pimping
pin
pina
pinal
pinandu
pinandui
pinang
pinanya
pinatih
pinda
pindah
pine
ping
pinggang
pinggir
pinggiran
pinggul
pinggulu
pingkut
pinisia
pinjaman
pink
pinlandia
pinocchio
pinoh
pintangan
pintangannya
pintar
pintu
pinus
pinyin
pinyuh
pion
pioneer
pipa
pipi
pipih
pipikaw
pipirik
pipiringan
pir
piragah
pirak
pirandello
piring
pirsi
pirus
pisan
pisang
pisau
pisik
pisika
pisikawan
pisit
pista
pit
pita
pitak
pitaka
pitap
pitrah
pitu
pitung
pitunjuk
piyama
piza
pizza
pki
pkns
pl
pla
place
plague
plain
plains
plane
planet
planetary
planets
planning
plans
plant
plants
plasma
plastik
platform
platinum
plato
playa
plaza
pleasant
plester
pln
ploy
plus
pluto
plutu
pm
pmc
pmid
pnas
pneumonia
png
po
podok
poe
poems
poesponegoro
poetry
poets
pohon
point
pok
pokok
pol
pola
polandia
polar
police
policy
polimer
polinesia
polis
polisi
political
politics
politik
politikus
politisi
polo
polri
polusi
pon
pond
pondok
pong
pongo
pontianak
pool
pop
popular
popularitas
populasi
populasinya
population
populer
por
pori
poring
poros
port
portal
porter
portland
portrait
portsmouth
portugal
portugis
pos
poseidon
posisi
positif
position
possible
post
postal
poster
posterior
potential
potongan
potret
powell
power
pp
ppe
ppki
ppp
pr
pra
prabu
practical
practice
practices
pradesh
prague
prairie
praja
prajurit
praktik
praktis
pramoedya
pramuka
pranala
prancis
prang
prangko
prasajarah
prasarana
prasasti
prasejarah
prasetyo
pre
predator
prefektur
prefiks
premier
premium
prescott
present
presenter
presiden
president
press
prestasi
preston
prevention
pria
priayi
pribadi
pribumi
price
prima
primata
prime
primer
primitif
primordial
prince
princess
princeton
principe
principles
prinsip
prisidin
private
prix
prize
pro
probabilitas
probolinggo
proc
proceedings
process
production
produk
produksi
produksinya
produktif
produsen
produser
prof
profesional
profesor
professor
profil
profile
program
programme
progresif
project
prokal
proklamasi
promosi
propaganda
propeller
properti
properties
property
propinsi
proporsi
proposal
propulsion
prosa
prose
prosedur
proses
prospector
prospects
prote
protection
protein
protes
protestan
protests
proto
protokol
province
provinsi
provinsinya
proyek
proyektil
pruduk
pruduksi
pruduser
prudusir
prugram
prupinsi
prusia
prusis
prutukul
pruvinsi
pruyik
ps
psbb
psikolog
psikologi
psikologis
psr
psychology
pt
pte
puang
puasa
pub
public
publication
publications
publik
publikasi
published
publisher
publishers
publishing
pucat
pucuk
pudak
puerto
puga
pugaan
puham
puhun
puhunnya
puisi
puitis
puja
pujangga
puji
pujian
pujon
pujung
pujungan
puki
pukuk
pukul
pul
pula
pulang
pulau
pulaw
pulisi
pulitik
pulitikus
pulitis
pulitisi
pulo
pulsar
puluh
puluhan
pulung
pun
punah
punan
puncak
puncaknya
pundi
punduk
punggung
pungsi
punk
puntadewa
punya
pupa
pupuk
pupulasi
pupulasinya
pupulir
pura
purai
purba
purbaratu
puri
puring
purmasi
purna
purnama
purtugis
puruk
purun
purwakarta
purworejo
purwosari
pus
pusaka
pusat
pusatnya
pusisi
pusisinya
pusitip
puspa
pustaka
putaran
putat
putera
puteri
putih
puting
putra
putranya
putri
putrinya
putu
putus
putusan
putussibau
puyuh
q
qa
qadeer
qan
qatar
qiblat
qing
quality
quarantine
quarter
quarterly
quasar
quasi
quasimodo
que
queen
queens
queensland
quest
question
questions
quintus
quitman
qur
qura
quran
r
ra
raba
rabah
rabi
rabit
rabu
rabut
racap
race
racing
racun
rada
radang
radar
raden
radiasi
radikal
radio
raditya
radiu
radius
radja
rafael
raffles
raft
raga
ragam
ragi
ragu
rah
rahang
rahasia
rahat
rahatan
rahayu
rahim
rahman
rahmat
rahmatullah
rahmawati
rai
raih
raisa
raja
rajah
rajanya
rajasthan
rajawali
rajgarh
rajin
rak
raka
rakaat
rakai
rakaman
rakan
rakat
rakiat
rakis
rakit
raksanagara
raksasa
rakumpit
rakun
rakungan
rakyat
rakyatnya
rakyatullah
rale
rally
ralph
ram
rama
ramadan
ramadhan
ramai
ramania
ramayana
rambut
rambutan
rambutnya
rami
ramlan
ramnagar
rampa
ramping
ran
ranah
ranak
ranaknya
rancak
rancaknya
rancana
rancang
rancangan
randah
randall
randang
randolph
random
randstad
rangan
rangas
range
ranger
rangga
ranging
rangit
rangka
rangkaian
rangsangan
rania
ranjang
rantai
rantan
rantau
rante
ranting
rao
rapak
rapat
rapi
rapid
rapids
raraitan
rarampah
rarancakan
rarasati
rarata
raren
ras
rasa
rasanya
rasau
rasi
rasio
rasmi
rasminya
rasuk
rasul
rasulullah
rasyid
rat
rata
ratapan
rates
ratifikasi
ratik
rating
ration
ratna
ratu
ratus
ratusan
ravada
rawa
rawan
ray
raya
rayak
rayat
rayi
raymond
rcti
rd
re
read
reader
reading
reaksi
real
realisme
realitas
reality
really
reason
rebecca
rebo
recent
recognition
record
records
red
redaksi
redeb
reduksi
reed
reeder
reef
rees
ref
reference
references
referendum
referensi
refleksi
reformasi
regan
regent
reggae
regine
region
regional
regions
register
regnal
regolith
regular
reid
reizen
rejo
rekomendasi
rekonstruksi
rekor
rekreasi
rektor
rela
related
relatif
relating
relations
relationships
relativitas
release
relief
religi
religion
religions
religious
religius
rem
remains
remaja
rembang
remis
rempah
renaisans
renaissance
renault
rencana
rendah
rende
renovasi
rentan
rentang
report
reporter
reports
representasi
reproduksi
reptil
reptilia
republic
republik
republika
res
research
researchgate
resensi
resep
reseptor
reservasi
resi
residen
resistance
resmi
resolusi
resource
resources
respiratory
respons
response
results
retrieved
return
reuters
rev
review
reviews
revised
revisi
revision
revolusi
revolusioner
revolution
rex
reynolds
ri
ria
riaksi
riam
rian
riau
ribu
ribuan
ribut
ric
rice
rich
richard
richardson
richland
richmond
richter
rick
ricklefs
ricky
rico
ridaksi
ridge
ridwan
rigat
right
rights
rika
riksbank
rikur
ril
rila
rilatip
rilis
rim
rima
rimpi
rinca
rinci
rincian
rinda
rindu
ring
ringan
ringkasan
rings
rinjing
rintisan
rio
ripublik
ripulusi
risalah
rise
riset
risiko
risiku
rising
risk
risturan
risulusi
risunansi
rita
ritual
ritus
riut
river
riverside
riverton
riwayat
riwut
riza
rizky
rk
rkiye
rman
rn
rna
ro
road
roald
robert
robertson
robin
robinson
robo
roc
roche
rocher
rock
rocket
rocks
roda
rogaland
roger
roh
rohliansyah
rok
rokade
roket
roland
role
roll
rolling
roma
roman
romance
romania
romawi
rome
romsdal
ron
ronald
ronaldo
rongga
roosevelt
roots
ropa
rosa
rosario
rose
rosemary
ross
rotan
rotasi
rotation
rote
roti
rotterdam
round
routledge
rover
roy
royal
royong
rp
rpm
rrc
rs
rsi
rsia
rsjpt
rsud
rt
rte
ru
ruam
ruang
ruangan
ruas
ruda
rudal
rudolf
rudy
ruf
rugbi
ruh
ruhani
ruhui
rujak
rujukan
rukam
rukun
rules
rumah
rumahku
rumahnya
rumania
rumawi
rumbia
rumbih
rumbungan
rumi
rumit
rumoh
rumpakan
rumpun
rumput
rumus
rumusan
run
runcing
runcut
rungan
rungkut
runner
running
runtuh
runtutan
rupa
rupanya
rupiah
rusa
rusak
rush
rusia
russell
russia
russian
rusuk
rutasi
rute
ruti
rutin
rvi
rwanda
rx
ryan
ryo
ryukyu
rz
s
sa
saadillah
saat
saatos
sabab
sababaraha
sababnya
sabagai
sabagaimana
sabagainya
sabagay
sabagian
sabah
sabalah
sabaliknya
sabalum
sabalumnya
saban
sabanding
sabang
sabangau
sabanyak
sabaran
sabarataan
sabarataannya
sabaratan
sabasar
sabat
sabda
sabelah
sabigi
sabigian
sabilal
sabit
sabtu
sabuah
sabubutingannya
sabujurannya
sabujurnya
sabuk
sabukuan
sabulan
sabun
sabut
sabuting
sabutingannya
sabutingnya
sabutinh
sacara
sachsen
sacred
sadang
sadangakan
sadangkan
sadar
sadarhana
sadewa
sadidikit
sadih
sadikit
sadikitnya
sadin
sadunia
sae
safety
saga
sagala
sagan
saganal
sagara
sage
sagi
sagitiga
sagu
sah
sahabat
sahagian
saham
sahang
sahara
sahari
saharian
saharusnya
sahbirin
sahibaknya
sahibar
sahih
sahikit
sahingga
sahubungan
sahur
sai
said
saidullah
saigon
saikit
saikung
sailing
saimbang
saingan
saini
sains
saint
sairing
saja
sajad
sajadah
sajajar
sajak
sajalan
sajanis
sajarah
sajarahnya
sajarawan
sajati
sajauh
sajingan
sajumbelah
sajumlah
sajuta
sak
saka
sakadanya
sakadar
sakahandak
sakai
sakala
sakali
sakalian
sakaliannya
sakaligus
sakalinya
sakalipun
sakalumpuk
sakarang
sakarila
sakian
sakira
sakiranya
sakit
sakitar
sakitaran
sakitarnya
sakodi
sakolah
sakral
sakramen
saksi
saksono
sakti
saku
sakulah
sakulahan
sakuliling
sakulilingnya
sakumpulan
sakundir
sakura
sakutu
sala
salabihnya
salah
salahuddin
salain
salajur
salajuran
salak
salaku
salalu
salam
salama
salamah
salamat
salambar
salandia
salang
salanjutnya
salasa
salaso
salat
salatan
salatiga
salawar
salawas
salawasan
sale
saleh
salem
salib
salihan
salim
salimut
salinan
saling
salipi
salira
saliritan
salisih
salisma
salismaan
salju
salleh
salmon
salo
salomo
salt
saluang
saluas
saluran
saluruh
saluruhnya
salvador
salvatore
salya
salzburg
sam
sama
samacam
samacamnya
samagin
samakin
samalam
samananjung
samangat
samantara
samar
samaran
samaria
samarinda
samasa
samasta
samata
sambah
sambahyang
sambal
sambaliung
sambang
sambas
sambat
sambatan
sambatannya
sambeng
sambikerep
sambil
sambilan
samboja
sambung
sambungan
samburan
sambutan
sambuyan
same
sami
saminggu
samoa
sampah
sampai
sampanahan
sampar
sampat
sampay
sampel
sampian
samping
sampingan
sampiran
sampit
sampuk
sampurna
samu
samua
samuaan
samudera
samudra
samuel
samunya
samunyaan
samunyaannya
samurai
samustinya
samut
san
sana
sanam
sanaman
sanang
sanaos
sanapang
sanayan
sand
sandai
sandal
sandang
sandaran
sandbox
sandesh
sandi
sandiwara
sandra
sandwich
sandy
sane
sang
sanga
sangaja
sangat
sangatlah
sangatta
sangeeta
sanger
sanggar
sanggau
sanggul
sanggup
sangha
sangkal
sangkulirang
sangkuni
sangu
sani
saniman
sanitasi
sanja
sanjata
sanjaya
sanksi
sansakarta
sansekerta
sanskerta
sanskrit
sant
santa
santai
santan
santo
santos
santosa
santoso
sanyawa
sao
saorang
sapahadangan
sapakan
sapakat
sapalih
sapalihan
sapandapat
sapanjang
sapanjangan
sapanyol
saparampat
saparti
sapasang
sapasias
sapat
sapatak
sapatu
sapertos
sapi
sapida
sapiritual
sapisies
saptimbir
saptu
sapu
sapuluh
sapupu
sara
saraba
saraf
saragam
sarah
sarai
sarak
sarama
saran
sarana
sarang
sarangan
sarangga
sarangkaian
sarangnya
sarapan
sarapang
sarasvati
sarat
saratus
sarawa
sarawak
sareng
sari
sarial
saribu
sarigala
sarik
sarikat
sarirejo
sarius
sarjana
sarma
saros
sars
sarta
sartre
saruan
sarudung
sarunai
sarung
sarupa
sasabuting
sasahan
sasaikung
sasain
sasak
sasama
sasamaan
sasar
sasaran
sasat
sasaurang
sasirangan
sastra
sastrawan
sastrawannya
sasuai
sasuatu
satadiun
satahun
satahunan
satalah
satampat
satangah
satara
satarusnya
satasiun
satatus
sate
satelit
satellites
satiap
satilit
satinggi
satingkat
sato
satria
satruktur
satu
satua
satuan
satui
satuju
satumat
satunya
satupun
saturnus
satwa
saudagar
saudara
saudaranya
saudi
saulah
saumur
saun
saupama
saur
saurang
saurangan
saus
saussure
sauting
savannah
saw
sawagai
sawagainya
sawah
sawahan
sawaktu
sawal
sawalas
sawalum
sawalumnya
sawan
sawang
sawangan
sawat
sawayah
sawi
sawit
sawrang
say
saya
sayan
sayang
sayangnya
sayap
sayembara
sayid
says
sayup
sayur
sayuran
sayurnya
sayyid
saɟadi
sc
scaevola
scale
scandinavian
scattered
scene
schieffer
schimmel
schlegel
schmidt
scho
scholar
school
schools
schumacher
schuster
schutter
sci
science
sciences
scientific
scientist
scientists
scotland
scott
scream
script
sctv
sd
se
sea
sean
search
season
seattle
sebab
sebagai
sebagaimana
sebagainya
sebagay
sebagian
sebaliknya
sebangau
sebangki
sebanyak
sebaran
sebastian
sebatik
sebawi
sebelah
sebelum
sebelumnya
sebenarnya
seberang
seberuang
sebesar
sebuah
sebuku
sebulu
sebut
sebutan
sebuting
sebutingan
secara
second
secret
secretariat
security
sedan
sedang
sedangkan
sedap
sederhana
sedikit
sedimen
sedjarah
sedna
sedyaningsih
see
seekor
seen
segah
segala
segar
segedong
segera
segi
segitiga
segmen
sehari
sehat
sehingga
sei
seidelmann
seinen
seiring
seishu
sejahtera
sejak
sejangkung
sejarah
sejarahnya
sejarawan
sejati
sejenis
sejumlah
sekadar
sekadau
sekali
sekaligus
sekalinya
sekar
sekaran
sekarang
sekayam
sekelompok
sekira
sekitar
sekitarnya
sekjen
sekolah
sekolaq
sekretariat
sekretaris
seks
seksual
sektor
sekumpul
sekunder
sekutu
sel
selain
selakau
selalu
selam
selama
selamat
selandia
selangor
selanjutnya
selat
selatan
selawas
selayar
selected
selection
seleksi
selene
selesai
self
selimbau
selir
seloka
selong
selor
seluas
seluler
seluruh
semacam
semak
semakin
semampir
seman
semangat
semantik
semar
semarang
sembakung
sembilan
sembuluh
semen
semenanjung
sementara
semesta
semi
semitau
semitik
sempadan
semparuk
sempat
sempurna
semu
semua
semunyaan
semut
sen
senapati
senat
senator
sendi
sendiri
senegal
seng
sengah
seni
seniman
senin
senior
senjata
seno
senses
sensor
sensus
sentani
sentimeter
sentra
sentris
seorang
seoul
sepak
sepakat
sepakbola
sepalih
sepalihan
sepan
sepang
sepanjang
sepasang
sepaso
sepauk
sepenuhnya
seperti
sepertiga
sepinggan
seponti
september
sepuh
sepuluh
serambi
serang
serangan
serangga
serangkaian
serapat
serat
seratus
serawai
serba
serbia
seret
seri
serial
seribu
series
serikat
sering
seroja
serrano
serta
seru
serupa
seruyan
server
service
services
sesayap
seseorang
sesepuh
sesi
sesuai
sesuatu
set
setan
setara
setelah
setempat
setengah
setia
setiap
setiawan
settlement
seueur
seurang
seven
severe
sewaktu
sex
seymour
sh
shadily
shadow
shah
shakhrah
shan
shanghai
sharif
sharon
shawls
sheet
sheffield
sheikh
sheldon
shelton
shi
shikoku
shin
shinto
ship
shizuoka
sho
shock
shoot
shores
short
shot
shoujo
should
show
shows
shu
shuma
si
sia
siak
siam
siang
siantan
siap
siapa
siaran
sibau
siberia
sicilia
sick
sidang
side
sidin
sidney
sidomukti
sidomulyo
sidorejo
sie
sierra
sifat
sifatnya
sigam
sigar
sigin
signe
signifikan
sigra
sihat
sihir
sikap
sikh
siklon
siklus
siksual
siktur
siku
sil
sila
silabik
silang
silat
silatan
silika
silikat
silikon
silinder
silsilah
siluq
silur
silurian
siluriformes
silva
silver
silvestris
sima
simak
simbol
simbolik
simbul
simfoni
simokerto
simon
simpang
simplysiti
simpson
simpun
simpur
simulasi
sin
sina
sinai
sinapang
sinar
since
sinclair
sindang
sinding
sindrom
sindur
sineas
sinetron
sing
singa
singamarta
singapore
singapura
singaringan
singasari
singer
singhaja
singkat
singkatan
singkawang
singkup
single
sini
sinkron
sinkronik
sinonim
sinopsis
sinovac
sinsus
sintagma
sintaksis
sintang
sintarklas
sintesis
sintetik
sintimitir
sinyal
sioux
sipak
sipat
sipatnya
sipil
siprus
siptimbir
siput
sir
sirah
siram
sirang
sirap
sirau
sirene
siri
sirial
sirilik
siring
sirip
sirkuit
sirsak
sirup
sisa
sisanya
sisi
sisik
sisilia
sisiur
sistem
sister
sistim
siswa
site
siti
sitilohor
situ
situasi
situs
siu
siup
sivakumaran
siwa
six
size
sized
sjachriel
sjamsuddin
sk
ska
skak
skala
skandal
skandinavia
skema
skeptis
skeptisisme
ski
skie
skor
skotlandia
skrip
skripsi
sky
sl
slavia
sleep
sleman
slovenia
slowakia
sm
sma
small
smart
smith
smithsonian
smithsonite
smp
sna
snakehead
snow
snyder
so
soal
soba
soc
social
society
socrates
soda
soe
soeara
soedah
soeharto
soekarno
software
sogn
sohc
soje
sokan
soklat
soko
solar
soldier
solid
solimo
solo
solok
solokuro
solomon
solusi
somali
somalia
some
sompak
sompol
son
song
sons
sopang
sorang
sorangan
sore
soreang
sornarin
sos
sosial
sosialis
sosio
sosiologi
sosis
sosok
soto
soul
sound
source
sources
south
southeast
southern
soviet
sp
spa
space
spain
spanish
spanyol
spanyul
sparta
spe
special
species
specific
spektrum
spencer
spesial
spesies
spesiesnya
spesifik
sphiggurus
spiral
spirit
spiritual
spon
spons
spora
sport
sports
spp
spra
spread
spring
springer
springfield
springs
spudis
spy
sqrt
square
sr
sri
srimulat
srivijaya
sriwijaya
ss
st
sta
stabil
stabilitas
stadion
stadium
stadiun
stadnamn
staf
staff
stainless
stalin
stan
standar
standard
standards
stanford
stanley
stanton
star
stars
start
startup
stasiun
state
statement
states
station
statistical
statistics
statistik
status
statusnya
stay
ste
steel
stefan
step
stephen
sterling
stern
steve
steven
stevenson
stewart
still
stina
stirner
stmonthstartahd
stockholm
stockton
stone
stories
storm
story
straits
strasbourg
strategi
strategies
strategis
stratigraphy
streaming
street
structure
struktur
struktural
stuart
stub
student
students
studi
studies
studio
study
stuttgart
style
styles
su
suah
sual
suami
suara
suaranya
suasana
suatu
sub
subadra
subah
subalah
subalum
subamanggala
subang
subarang
subfamilia
subjek
sublette
subordo
subroto
subspesies
subtropis
subuh
subur
success
such
suci
sudah
sudan
sudirman
suduk
sudut
suez
suffiks
sufi
sugar
sugih
sugihwaras
sugio
suhaid
suhu
suhunya
suhur
suicide
suji
sujud
suka
sukaan
sukabumi
sukadana
sukajadi
sukamaju
sukamara
sukarama
sukarno
sukasari
sukhoi
suklat
sukma
sukmajaya
sukodadi
sukolilo
sukomanunggal
sukorame
sukosewu
sukses
suksesi
suksis
suku
sulaiman
sular
sulawesi
sulfat
sulfur
suling
sulisih
sulit
sullivan
sulphur
sultan
sulu
suluh
sulung
sulur
sum
sumalah
sumalam
sumangat
sumatera
sumatra
sumba
sumbahyang
sumbangan
sumbangannya
sumbar
sumbawa
sumber
sumberagung
sumberdaya
sumberejo
sumbu
summary
summer
summit
sumner
sumpah
sumparaka
sumping
sumpitan
sumur
sun
sunah
sunan
sunda
sunday
sung
sungai
sungainya
sungay
sungguh
sungkai
sunglap
sungsung
sunset
sunyi
sup
supan
supaya
super
superior
superjet
superlautan
supernova
supir
suplai
supplement
sur
surabaya
surah
surai
surakarta
surambi
surang
surangan
surat
suratnya
surau
surface
surfing
surga
suria
suriah
suriansyah
surigao
suriname
suruh
suruhan
surui
surung
surungan
surut
survei
survey
surveyor
surya
suryaganggawangsa
suryanata
suryani
suryanullah
suryawangsa
sus
susan
susanto
susial
susilo
susis
susu
susudu
susuhunan
susuk
susunan
susuruhan
suta
sutasoma
suti
sutil
sutra
sutradara
sutu
suv
suwah
suwalih
suyuk
suzuki
suzumiya
sveriges
svg
swab
swadarma
swan
swargi
swasta
swastika
swe
swedia
swedish
sweet
sweter
swiss
swt
sya
syah
syahadat
syahbandar
syahputra
syaikh
syair
syam
syamsuddin
syamsudin
syamsul
syarat
syari
syariah
syariat
syarif
syarifah
syarikat
sydney
syeikh
syekh
symptoms
syn
syndrome
syracuse
syria
system
systematic
systems
syukur
søren
t
ta
taal
taancam
taancap
taatur
tabagi
tabagus
tabah
tabaik
tabakar
tabal
tabalar
tabalik
tabalong
tabanam
tabang
tabanio
tabantang
tabantuk
tabantuknya
tabanyak
tabarat
tabasar
tabat
tabatas
tabawa
tabel
tabentuk
tabiasa
tabing
tabla
table
tabu
tabuan
tabuat
tabuk
tabuka
tabukan
tabukti
tabung
tabunganen
tabungkus
tabur
tacantum
tacatat
tacipta
tadahulu
tadalam
tadampak
tadangar
tadapat
tadaptar
tadaras
tadi
tadih
tadikit
tadiri
tadung
tae
taekwondo
tafsir
tafsiran
tag
tagabung
tagak
tagal
taganal
taganalnya
taganggu
tagantung
tagar
tagarak
tagas
tagipak
tagolong
tagugur
taguh
tagulung
tagur
taguring
tahaba
tahabang
tahadap
tahaga
tahalus
tahan
tahanan
tahancap
tahandap
tahangkup
tahanyar
tahap
tahapan
tahi
tahitung
tahmidullah
tahta
tahu
tahubung
tahun
tahunan
tahunnya
tai
taikat
tainfeksi
tainspirasi
taipei
taitihi
taiwan
taja
tajabak
tajadi
tajadinya
tajajak
tajam
tajanak
tajangkit
tajau
tajauh
tajikistan
tajual
tajuddin
tajun
tak
taka
takadang
takahashi
takait
takajal
takajut
takaluar
takana
takanal
takanan
takananya
takandung
takatuju
takbir
takdir
take
takes
takhta
taking
takipit
takisung
taksi
taksonomi
taktakan
takuat
takumpul
takumpulan
takun
takur
takurung
takut
takutan
talaah
talabang
talabih
talah
talak
talakas
talakung
talalu
talambat
talanjang
talapak
talapas
talatak
talatih
talawang
talawas
tale
tales
tali
taliban
talibat
taligar
talihat
talindungi
talinga
talinya
talipun
talisayan
talk
talu
taluas
taluk
talung
tamam
taman
tamanang
tamanggung
tamansari
tamasuk
tamat
tambaga
tambah
tambahan
tambahi
tambak
tambakrejo
tambaksari
tambalangan
tamban
tambang
tambangan
tambuk
tambun
tambus
tamiang
tamil
tamim
tamjidullah
tampa
tampai
tampaian
tampak
tampaknya
tampang
tampat
tampatnya
tampil
tampilan
tampilkan
tampurung
tamu
tamurah
tamurun
tan
tana
tanaga
tanah
tanahnya
tanam
tanaman
tanang
tanda
tandang
tandes
tanduk
tang
tangah
tangahnya
tangalih
tangan
tangani
tangannya
tangaran
tangerang
tangga
tanggal
tanggalan
tanggalnya
tanggap
tanggapan
tanggara
tanggiling
tanggui
tanggul
tanggung
tangi
tangki
tangkis
tangkurak
tani
tanjung
tanjungpura
tank
tanpa
tanta
tantang
tantangan
tantara
tantu
tanya
tanyaman
tanzania
tao
tapa
tapacul
tapagat
tapai
tapak
tapakai
tapaksa
tapang
tapangaruh
tapanjang
tapanting
taparak
tapas
tapasan
tapasang
tapat
tapatnya
tape
tapi
tapih
tapijim
tapilih
tapin
tapinandu
tapisah
tapisit
tapitah
tapung
tapus
tara
tarabah
tarabang
taradisi
taradisiunal
tarah
tarait
tarakan
tarakhir
tarancak
tarandah
tarang
taranggana
tarasa
taratai
tarawih
tarbaik
tarbang
tarbatas
tarbit
tardapat
tardiri
targantung
target
tarhadap
tari
tarian
tarik
tarikan
tarikh
tarim
tarima
tarjadi
tarjadinya
tarjamahan
tarkait
tarkanal
tarkandung
tarkenal
tarlabih
tarmasuk
tarminal
tarnak
tarpinandu
tarsabut
tarsabutkan
tarsadia
tarsebut
tarsebutkan
tarsuratkan
tartantu
tartarus
tartentu
tartinggi
tartulis
taruna
tarupis
tarus
tarusan
tarutama
tas
tasabar
tasabut
tasadia
tasadikit
tasalukut
tasambung
tasawuf
tasawup
tasikmalaya
tasilahu
tasimbaya
tasimpan
tasisa
tasuhur
tasuruh
tasusun
tata
tatah
tatahan
tatak
tatakan
tatakaran
tatakunan
tatamba
tatambaian
tatambaiannya
tatambayan
tatambayannya
tatamu
tatanaman
tatangga
tatangkap
tatantu
tatap
tatapi
tatarang
tatarik
tatas
tatawas
tatinggal
tatinggi
tatkala
tato
tattoos
tatuha
tatukuian
tatukup
tatulis
tatumbuhan
tatutup
tau
taufik
taufiq
tauhid
taujak
taulah
tauman
taumpat
tauncit
taurat
tautama
tawak
tawakal
tawanan
tawang
tawar
tawas
tawatas
tawau
tawilan
tawing
taxonomy
tayan
tayang
tayangan
tayangnya
tayap
taylor
tb
tbk
tbr
te
teachers
team
teana
teater
tebas
tebelian
tebing
tebu
tech
technical
technologies
technology
ted
tegal
tegalrejo
teh
teisma
teka
tekanan
tekarang
teke
teki
teknik
teknis
teknologi
teks
tekstil
tekstur
tektonik
telaga
telah
telang
telawang
telecommuting
telegram
telegraph
telekomunikasi
telemark
telen
teleostei
telepisi
telepon
telescope
teleskop
televisi
telinga
telkom
telkomsel
telugu
teluk
telur
telurnya
tema
teman
temasuk
temayang
tembakau
tembang
tembawang
tembok
temiang
temila
tempat
tempe
templat
temple
tempo
tempunak
tempur
tempurung
temurun
ten
tenaga
tenang
tengah
tenggara
tenggarong
tenggelam
tengkorak
tengku
tenis
tennis
tenrikyo
tensi
tentang
tentara
tentu
tenun
teologi
teorema
teoretis
teori
teoritis
teotihuacan
tepat
tepatnya
tepi
tepian
tepung
ter
terakhir
terancam
terang
terap
terapi
terapung
teras
teratai
terawal
terbagi
terbaik
terbakar
terbang
terbanyak
terbaru
terbatas
terbentuk
terbesar
terbit
terbuat
terbuka
terdapat
terdiri
terengganu
tergabung
tergantung
tergenang
tergolong
terhadap
teriak
terigu
terikat
tering
teritori
terjadi
terjemahan
terjun
terkadang
terkait
terkemuka
terkenal
terkini
terlalu
terlebih
terletak
terlihat
term
terma
termasuk
terminal
terminologi
termonuklir
ternak
ternate
ternyata
teror
terpenting
terra
territories
terry
tersebut
tersedia
tersendiri
tersier
tertentu
tertinggi
tertua
tertulis
terus
terusan
terutama
tes
tesbe
tesis
test
testament
testing
tetangga
tetap
tetapi
tetrahidrokanabinol
teu
tewah
tewang
tewas
teweh
texas
text
textbook
texts
tezuka
th
tha
thahir
thai
thailand
thames
thamrin
than
thani
thap
that
the
thebes
theia
their
them
then
theodore
theories
theory
there
these
thessali
they
thieme
things
third
this
tho
thomas
thompson
thong
thor
those
thought
thousands
thracia
threatened
three
through
thu
thung
ti
tia
tiada
tian
tianan
tiang
tiap
tiasa
tiba
tibet
tibi
tidak
tidung
tie
tiga
tigray
tih
tihang
tija
tijdschrift
tik
tika
tikar
tikas
tiket
tikinan
tiknik
tiknis
tiknulugi
tikstur
tikung
tikungan
tikus
til
tilam
tilanjang
tilipisi
tiliskup
tilongkabila
tim
tima
timah
timang
timbako
timbaku
timbau
timbuk
timbul
timbulnya
time
times
timor
timpah
timpakul
timur
timurlaut
tina
tinampak
tindak
tindakan
tinduk
tingang
tinggal
tinggalam
tinggalamnya
tinggi
tingginya
tingkat
tingkatan
tinis
tinjakan
tinjauan
tinta
tintah
tiong
tionghoa
tiongkok
tipakan
tipe
tipi
tipis
tipologi
tips
tipu
tique
tiram
tiraspol
tiri
tirik
tiroid
tirta
tirto
tiruan
tis
titan
titanic
titi
titian
titik
titikan
titir
title
titus
tiungkok
tiungkuk
tiuri
tiwadak
tiwas
tjong
tk
tn
tnam
tni
tnis
to
toba
today
todd
toefl
toer
togo
toho
toilet
toilets
toko
tokoh
tokong
tokyo
tolak
toll
tom
toman
tomat
tome
tommy
tomuschat
ton
tong
tonga
tonggak
tongkat
tongkok
tongkonan
tonight
tonjolan
tony
top
topan
tope
topeng
topics
topik
topografi
toraja
tornado
toro
toronto
torpedo
torsi
tot
total
toto
tour
touring
toward
towards
tower
town
towns
toyota
tpi
tr
tracy
trade
tradisi
tradisional
tradisiunal
traditional
traffic
tragedi
trail
trailer
train
trak
traktat
trang
trans
transfer
transformasi
transisi
transit
translated
translation
transmisi
transmission
transnistria
transplantasi
transport
transportasi
transpurtasi
travel
travels
tre
treatment
tree
trend
trends
trenton
tres
tri
trial
trials
tribun
tribune
tribunnews
trigonometri
triliun
trinidad
trinity
trisakti
triton
tritunggal
trojan
troms
trondheim
tropical
tropika
tropis
troy
troya
trucuk
true
trump
trupis
truth
trøndelag
tsar
tsfjord
tsunami
tu
tua
tualan
tuan
tuanku
tuas
tuban
tubu
tubuh
tuff
tugas
tugu
tuh
tuha
tuhan
tuhanya
tuhuk
tuhup
tujuan
tujuannya
tujuh
tukang
tukar
tukarakan
tuku
tukuh
tukul
tukun
tukung
tukup
tulak
tulang
tulin
tuliransi
tulis
tulisan
tulisannya
tulung
tumanggung
tumat
tumatan
tumbak
tumbang
tumbuh
tumbuhan
tumbuhannya
tumbuhnya
tumbung
tumenggung
tumit
tumpang
tumpiangin
tumpuan
tumpuk
tumpul
tuna
tunas
tundakan
tunduk
tunggal
tunggara
tungging
tunggul
tungkai
tungkaran
tungkat
tungku
tunisia
tunjulan
tuntunan
tuntung
tuo
tupi
tupik
tur
turai
turbo
turi
turkey
turki
turkish
turkmenistan
turks
turner
turtle
turun
turunan
turunnya
turut
tusculum
tutal
tutih
tutuha
tutui
tutul
tutup
tutur
tutus
tv
tvri
twa
twentieth
twenty
twin
twitter
two
type
types
tze
u
uang
uap
ubah
ubat
ubjik
ubun
ucapan
ucla
udar
udara
ue
uganda
ugm
uin
ujah
ujak
ujar
ujaran
ujarnya
uji
ujian
ujik
ujung
ujungnya
ujut
uk
ukara
ukir
ukiran
ukraina
uksigen
uktubir
uktubur
ukur
ukuran
ukurannya
ulah
ulahan
ulahannya
ulahraga
ulaian
ulak
ulama
ulang
ulangan
ular
ulat
uleh
ulih
ulihi
ulihnya
ulimpiada
ulin
ulm
ultimate
ulu
ulun
uluwatu
ulva
uma
umanya
umar
umat
umayyah
umbak
umberto
umbi
umbul
umm
umno
umpamanya
umpat
umpatan
umpati
umpire
umum
umumnya
umur
umurnya
un
una
unair
uncit
uncitan
uncitnya
und
unda
undang
undangan
under
underground
understanding
underwear
unesco
unggas
unggul
ungkapan
ungu
uni
unicode
unik
union
uniparsitas
unit
unitas
united
unity
univ
universal
universe
universiade
universitas
universiti
university
unjuk
unlam
unsur
unta
untuk
untung
untup
up
upacara
upacaranya
upah
uparasi
upas
upau
upaya
update
updates
upjik
upon
upper
upuk
ur
urang
urangnya
urangutan
uranus
urat
urban
urbana
urbit
urbitnya
urdu
urgan
urganik
urganisasi
urganisma
url
uruguay
urup
urusan
urut
urutan
us
usa
usage
usah
usaha
usahanya
usai
usang
use
used
user
usgs
usia
using
uskup
usman
usmar
ustad
ustaz
usul
usulan
usus
ut
utah
utak
utama
utamanya
utami
utara
utas
utau
utc
utrecht
utsmaniyah
uttar
utuh
utumatis
utunumi
utusan
utut
uu
uud
uumpatan
uut
uwa
uya
uyah
uyuh
uzbekistan
v
va
vaccine
vagina
vaksin
vaksinasi
val
vale
valentine
valley
valve
van
vancouver
vanguardia
vanir
vanuatu
var
vara
varanus
varian
variasi
varietas
variety
vas
vatikan
ve
vegetatif
vehicle
ventilasi
ventilator
venus
vera
veramani
verba
verde
verlag
vermeer
vernon
versailles
versi
version
verstappen
vertebra
vertebrata
vertikal
very
vesta
veteran
vi
via
victor
victoria
victory
video
vidio
vie
vienna
vientiane
vietnam
view
views
vihara
vii
viii
vijyech
viking
vila
villa
village
vinaya
vincent
viral
virgin
virginia
virology
virtual
virus
viruses
visi
visibility
vision
vista
visual
vitamin
viva
vladimir
voc
vocabulary
voice
vokal
vokalis
vol
volkenkunde
volksraad
vols
volume
volusi
vom
von
voor
voyage
voyager
voyages
vs
vukalis
vulkanik
vulkanis
vulnerable
vulva
vyasa
w
wa
wabah
wacana
wadah
wadahnya
wadai
wadi
wae
wafat
wagas
wage
wagil
wagner
wah
wahab
wahana
wahau
wahid
wahin
wahini
wahyu
wahyudi
wahyuni
wai
waida
wailers
waisak
waiting
waja
wajah
wajar
wajib
wajip
wakil
waktu
waktunya
walanda
walang
walantaka
walas
walau
walaupun
wales
walhi
wali
walid
walikota
walikuta
walk
walker
wall
wallace
walnut
walsh
walter
walton
walu
waluh
walung
walut
wan
wana
wanaraya
wang
wangi
wangsa
wani
wanita
wanyi
wapat
war
wara
ward
warga
warih
warik
waringin
waris
warisan
warman
warna
warnanya
warni
warren
warsawa
warta
wartawan
waru
warudoyong
warung
was
washington
wasi
wasiat
wasit
waspada
waste
wastu
wastur
wat
watak
watas
watch
water
waterloo
waters
waterville
watsiq
watson
watthana
watupayung
waverly
wawancara
way
wayah
wayahini
wayahitu
wayahnya
wayahtu
wayang
wayback
wayne
ways
wc
wd
we
weapons
weather
web
weber
website
webster
weda
wedding
week
weekly
wek
welfare
wells
wembley
wensinck
were
wesley
west
western
westminster
weston
westphalia
wet
wetan
wetenschappen
wewenang
what
wheel
wheeler
when
where
which
white
whitney
whitten
who
why
wiang
wiangcan
wianjana
wib
wide
widely
widodo
wie
wielkopolski
wiener
wigas
wihang
wijaya
wiki
wikimania
wikimedia
wikipedia
wikipidia
wikiquote
wikisource
wikivoyage
wiktionary
wilajah
wilangan
wilayah
wilayahnya
wild
wiley
wilhelm
wilkins
will
willard
willem
william
williams
willow
wilmington
wilopo
wilson
wilton
win
wina
winchester
wind
windsor
wing
winona
wins
winston
winter
wira
wiracarita
wiramartas
wirata
wirayuda
wis
wisa
wisata
wisconsin
wisnu
wita
with
within
without
witt
wol
wolf
wolfgang
woman
women
wonder
wong
wonorejo
woo
wood
woods
woolf
woolpit
word
wordpress
words
work
workers
working
works
world
worldwide
worth
would
wright
writers
writing
writings
written
wu
wuhan
wujud
wujudnya
wurst
www
wyoming
x
xenia
xf
xi
xii
xiii
ximen
xiv
xj
xv
xvi
xvii
xx
xxi
xy
y
ya
yahoo
yahudi
yahya
yai
yaitu
yak
yakin
yakni
yaksa
yakub
yale
yaman
yamanashi
yamin
yan
yang
yani
yao
yasin
yato
yayasan
ye
year
years
yehuwa
yeltsin
yen
yerusalem
yes
yesterday
yesus
yeto
yitu
yo
yogyakarta
yohanes
yong
yoni
yordania
york
yorker
you
young
your
youth
youtube
youtuber
yu
yuan
yuda
yudhishthira
yudhoyono
yudian
yudistira
yugoslavia
yunani
yunus
yupiter
yurisdiksi
yusran
yusuf
yuta
z
za
zaini
zainuddin
zaitun
zakaria
zaleha
zaman
zambia
zamzam
zanzibar
zat
zazuli
zdro
zealand
zebra
zero
zeus
zhou
zi
ziarah
zikra
zimbabwe
zona
zoo
zoologi
zoological
zoology
zoster
zu
zulu
zur
zygomycota
{
|
}
~
£
§
©
«
­
°
±
²
³
·
»
½
×
æsir
ørland
øy
đa
ŋ
ə
ɲa
ʃ
ʰ
ʲ
ʷ
ʼ
ʾ
ʿ
ˈ
ˌ
ː
˥
̀
́
̂
̃
̄
̆
̇
̈
̉
̊
̋
̌
̓
̛
̣
̧
̨
̪
̱
͂
͡
α
δ
ε
ι
μ
ο
π
ρ
ς
σ
ω
а
в
вас
видеть
г
е
и
как
м
с
т
у
я
մարզ
ִ
ֶ
ָ
א
ב
،
؛
ا
ابجد
ال
الا
الم
ب
بن
بنجار
بهاس
بهسا
ة
ت
ث
ج
جاوي
جوا
ح
د
ر
س
ش
ع
عرب
غ
ف
ق
ك
ل
م
ن
نڠ
و
ويكيڤيديا
ى
ي
ٌ
َ
ُ
ِ
ّ
ْ
ٓ
ٔ
ٕ
۔
ހ
ރ
އ
ޖ
ާ
ި
ު
ެ
ް
ं
ः
क
ख
ग
ज
ट
ठ
ड
ण
त
थ
द
ध
न
प
ब
भ
म
य
यक
र
ल
व
श
ष
स
ह
ा
ि
ी
ु
े
ो
्
ং
ত
দ
ধ
ব
র
ল
শ
া
ী
ু
ে
্
க
ச
த
ழ
வ
ா
ி
ு
ே
்
ు
್
ස
්
ා
ෙ
ก
ง
จ
ช
ด
ต
พ
ม
ย
ล
ว
ศ
ส
ั
ิ
ี
ื
ุ
ู
็
่
้
์
་
།
ས
န
မ
ာ
ု
ေ
့
္
်
ြ
더
서울어워즈
ា
ᮀ
ᮥ
᮪
​
‌
‎
‐
‑
–
—
‘
’
“
”
„
†
•
…
′
″
⁄
⁡
€
№
™
→
↓
↔
↷
∑
−
∘
∞
∠
≈
≤
⊕
③
④
⑦
☃
☉
☽
☾
♀
♁
♂
♅
♇
♠
⛢
⯓
⯕
⺀
⺄
⺆
⺈
⺊
⺌
⺕
⺝
⺸
⺼
⿰
⿱
⿲
⿳
⿴
⿵
⿶
⿷
⿸
⿹
⿺
⿻
、
。
々
「
」
〢
あ
い
う
お
か
き
く
け
こ
さ
し
す
せ
そ
た
ち
っ
つ
て
と
な
に
の
は
ひ
へ
ほ
ま
み
も
や
ゆ
よ
ら
り
る
れ
ろ
を
ん
゙
゚
ア
ィ
イ
ウ
エ
オ
カ
キ
ク
コ
サ
シ
ス
セ
タ
チ
ッ
テ
ト
ナ
ニ
ヌ
ノ
ハ
ヒ
フ
ヘ
マ
メ
モ
ュ
ユ
ョ
ラ
リ
ル
レ
ロ
ン
・
ー
㇁
㇂
㇄
㇇
㇈
㇉
㇓
㐁
㐄
㐅
㐌
㐫
㐬
㐭
㐮
㐱
㑒
㒵
㒸
㒼
㓁
㓞
㔾
㕛
㕣
㖾
㘝
㚅
㚇
㚔
㚘
㝉
㝡
㝴
㝵
㞋
㞢
㞷
㠩
㠭
㠯
㡀
㡭
㡿
㢲
㢴
㣇
㣺
㥯
㪅
㫄
㫐
㫒
㫺
㬅
㬎
㬥
㬰
㲋
㳄
㷠
㸒
㸚
㸦
㼌
㼲
㽞
㿟
䀠
䂞
䍃
䏍
䒑
䖍
䖒
䖝
䖵
䙴
䚻
䜌
䝿
䡛
䧹
䪞
一
丁
丂
七
丄
丅
丆
万
丈
三
上
下
丌
不
与
丏
丐
丑
专
且
丕
世
丘
丙
业
东
丞
丢
丣
两
严
並
丨
丩
个
丫
丬
中
丮
丰
丱
串
丵
丶
丷
丸
丹
为
主
丽
丿
乀
乂
乃
久
乆
乇
么
义
之
乌
乍
乎
乏
乐
乑
乔
乖
乗
乘
乙
乚
乛
乜
九
乞
也
习
乡
乳
乾
亀
亅
了
亇
予
争
事
二
亍
于
亏
亐
云
互
亓
五
井
亘
亚
亜
亞
亟
亠
亡
亢
交
亥
亦
产
亨
亩
享
京
亭
亮
亯
亰
亲
亳
亶
亷
人
亻
亼
亾
仁
今
介
仌
从
仐
仑
仒
仓
仕
他
付
仝
代
令
以
仮
任
企
伊
伏
伐
休
会
伯
但
位
体
何
佘
余
作
佥
使
來
侈
侌
侖
侯
侵
便
保
俞
信
修
倉
倍
候
倠
健
備
僉
僕
儿
兀
允
兂
元
兄
充
兆
兇
先
光
兊
克
兌
免
児
兑
兒
兓
兔
党
兜
兟
入
全
兩
兪
八
公
六
兮
兰
共
关
兵
其
具
典
兹
兼
冀
冂
冃
冄
内
冈
冉
冊
冋
册
再
冎
冏
冐
冒
冓
冖
冗
冘
军
农
冝
冠
冡
冥
冫
冬
冷
几
凡
凢
凵
凶
凷
凸
凹
出
函
凾
刀
刁
刂
刃
刄
刅
分
切
刍
刑
刕
刖
列
刘
则
初
別
利
别
到
制
刺
則
削
剌
前
剛
剡
剽
劉
力
功
加
劦
助
劫
劳
劵
勃
勇
勉
勒
動
務
勞
勤
勹
勺
勻
勾
勿
匀
匂
包
匆
匈
匊
匋
匍
匕
化
北
匚
匝
匡
匪
匱
匸
匹
区
医
匽
匿
區
十
卂
千
卄
卅
卆
升
午
卉
半
卌
华
卑
卒
卓
单
卖
南
卜
卝
卞
占
卡
卢
卣
卤
卦
卩
卪
卬
卯
印
危
即
却
卵
卷
卸
卻
厂
厃
厄
历
厈
厉
厌
厓
厘
厚
原
厤
厥
厨
厭
厲
厶
厷
厸
去
厼
厽
叀
参
參
叅
又
叉
及
友
双
反
叐
发
叒
叔
叕
取
受
叚
叜
叟
口
古
句
另
叩
只
召
可
台
叱
史
右
叵
号
司
叹
吂
各
吅
合
吉
吊
吋
同
名
后
吏
向
吕
君
吝
吞
否
含
启
吳
吴
吹
吾
呂
呆
呈
告
员
呙
周
命
咅
和
咎
咠
咢
咨
咸
咼
哀
品
哉
員
哥
哲
唐
商
啇
問
啚
啬
啻
善
喜
喬
單
喿
嗇
器
噩
嚴
囊
囗
囘
囙
囚
四
回
囟
因
囧
囬
困
囱
囷
固
国
圂
圅
國
圍
圓
土
圡
圣
圥
在
圭
地
圶
圼
坂
坐
坒
坚
坴
垂
型
垔
垚
埀
埋
城
埶
執
基
堂
堅
堆
堇
堯
塚
塞
墨
壘
士
壬
壯
声
壳
壴
壹
壺
壽
夂
处
夅
夆
备
夊
夋
夌
复
夏
夒
夕
外
夗
夘
多
夜
夢
大
夨
天
太
夫
夬
夭
央
失
夲
头
夷
夸
夹
夻
夾
奂
奄
奇
奈
奉
奎
奏
奐
契
奓
奔
奚
奞
奠
奢
奥
奭
女
奴
奻
好
如
妄
妙
妟
妥
妹
妻
妾
姉
姑
委
姜
威
娄
婁
婴
嬰
嬴
子
孑
孔
孕
孖
字
存
孚
孛
孝
孟
季
孤
学
孫
孱
學
宀
宁
宂
它
宅
宇
守
安
宋
完
宏
宓
宗
官
定
宛
宜
宝
客
宣
室
宮
宰
害
家
容
宾
宿
寄
寅
密
富
寒
察
寧
審
寫
寬
寮
寸
对
寺
寻
寽
対
寿
封
尃
射
将
將
專
尉
尊
尋
尌
對
小
少
尒
尓
尔
尖
尗
尚
尞
尢
尣
尤
尧
尨
尭
就
尸
尹
尺
尻
尼
尽
尾
尿
局
居
屈
屋
屎
屏
屑
展
屖
屚
属
屠
屡
屬
屮
屯
屰
山
屵
屾
岁
岂
岑
岡
岩
岳
岸
峯
島
崇
崎
崑
崔
崖
崙
崩
嵬
嶲
巂
巛
川
州
巟
巠
巢
巤
工
左
巧
巨
巩
巫
差
己
已
巳
巴
巷
巸
巽
巾
巿
帀
市
布
希
帚
帛
帝
带
師
席
帶
常
干
平
年
幵
并
幷
幸
幺
幻
幼
幽
幾
广
広
庄
床
底
店
庚
府
度
庫
庭
庶
康
庸
廉
廌
廛
廣
廩
廴
延
廷
建
廾
廿
开
弁
弃
弄
弇
弋
式
弓
弔
引
弗
弘
弜
弟
弥
弦
弱
張
強
强
彊
彌
彎
彐
彑
当
彔
录
彖
彗
彡
形
彥
彦
彧
彩
彭
彳
役
彼
往
待
律
徒
得
徙
從
復
微
徵
德
心
忄
必
忌
忍
志
忝
忠
忩
快
念
忽
忿
思
怠
急
性
怱
恆
恒
恩
恭
息
悉
患
悤
悲
悶
惠
惡
惢
愁
愈
意
愛
感
慈
慧
慮
憂
憲
應
戀
戈
戉
戊
戋
戌
戍
戎
成
我
戒
戔
或
戚
戠
戢
截
戲
戶
户
戸
戹
戼
戾
房
所
扁
扇
手
扌
才
打
托
执
承
技
折
护
报
拉
拜
拿
掌
推
提
摩
支
攴
攵
收
攸
改
放
政
敄
敏
敕
敖
敗
教
敝
敞
敢
散
敦
敫
敬
数
敷
數
斂
文
斉
斊
斗
斤
斥
斩
斬
斯
新
方
於
施
斿
旁
旋
族
无
旡
既
旣
日
旦
旧
旨
早
旬
旱
旲
时
旾
昆
昇
昌
昍
明
昏
易
昔
昗
昜
星
春
昬
是
昱
昴
昷
時
晃
晋
晏
普
景
晶
智
暑
暴
曇
曩
曰
曲
曳
更
曷
書
曹
曼
曾
替
最
朁
會
月
有
朋
服
朔
朕
朗
望
朝
木
朩
未
末
本
札
朮
术
朱
朵
朶
朿
杀
李
杏
村
杜
束
条
来
東
杲
杳
松
析
林
枚
果
枝
枲
枼
某
染
柔
查
柬
柰
柴
栗
桀
桑
桼
梁
條
梟
梨
棘
棠
棥
森
植
楚
業
楽
榮
樂
樊
標
橋
欠
次
欣
欮
欲
欶
欽
款
歆
歇
歛
止
正
此
步
武
歨
歩
歪
歮
歯
歰
歲
歴
歷
歸
歹
歺
死
殳
段
殷
殸
殹
殺
殻
殿
毋
毌
母
每
毒
比
毕
毚
毛
毳
氏
氐
民
气
氣
水
氵
氶
氷
永
氺
氾
求
汉
汝
汞
江
池
沃
沓
沙
沝
沢
治
泉
法
波
泣
泥
泰
洋
洛
津
洪
活
派
流
浜
浦
浪
浮
海
淡
淮
深
清
渚
渠
渡
湯
準
滿
漢
漫
漸
濬
火
灬
灭
灰
灵
灷
炅
炎
炏
炗
炙
炭
点
為
烈
烏
烝
焉
無
焦
焱
然
煞
熊
熏
燕
營
燮
爪
爫
爭
爯
爰
爱
爲
爵
父
爻
爽
爾
爿
片
牙
牚
牛
牜
牟
牢
牧
物
牪
牽
犀
犬
犭
犮
狂
狄
狊
独
狺
猋
猒
猪
献
獨
獻
玄
率
玉
王
玟
玨
珎
班
現
理
琴
瑟
瑩
瓜
瓦
瓶
甘
甚
生
産
用
甫
甬
田
由
甲
申
电
甶
男
甸
甹
画
甾
畀
界
畏
畐
留
畜
畟
畢
畧
畨
番
畫
異
畱
當
畺
畾
疊
疋
疌
疑
疒
疗
疾
病
症
癶
癸
癹
発
登
發
白
百
皀
皃
的
皆
皇
皋
皐
皕
皮
皷
皿
盃
盆
盇
盈
益
盍
盎
监
盒
盖
盛
盡
監
盤
盧
目
直
相
盾
省
眇
眉
看
県
眔
眞
真
眷
眼
眾
着
睘
睪
睿
瞏
瞢
瞿
矍
矛
矞
矢
矣
知
矦
短
石
破
碎
磊
磨
示
礻
礼
社
神
祟
祥
票
祭
禀
禁
禸
禹
禺
离
禽
禾
禿
秀
秃
秉
秋
科
秝
秦
移
稟
穀
穌
穴
究
穹
空
穿
突
窄
窒
立
竒
竜
竝
竟
章
童
竹
笑
笠
筆
等
答
箕
算
箴
節
篤
篭
米
粉
粛
粟
粤
粦
粲
糞
糸
糹
系
約
納
素
索
紫
累
細
絜
絫
絲
維
綿
縄
縣
繇
纍
纟
缶
网
罒
罔
罕
罗
罙
罡
罢
罪
署
罷
羅
羊
羌
羍
美
羔
羕
羗
羞
羡
羣
群
義
羲
羸
羽
翁
翏
習
翕
翟
翠
翼
老
耂
考
者
耆
而
耎
耑
耒
耕
耳
耴
耶
耷
聂
聊
职
联
聖
聚
聶
聿
肀
肃
肅
肉
肖
肙
肥
肩
肯
育
肴
肺
胃
背
胡
胥
能
脊
脩
膚
臣
臤
臧
自
臬
臭
臯
臱
至
致
臺
臼
臽
臾
臿
舀
舂
舄
與
興
舉
舌
舍
舛
舜
舞
舟
般
船
艮
良
色
艸
艹
艾
芒
芔
芬
芮
花
芳
芺
芻
苔
苗
苟
若
苦
英
茶
茸
荅
草
荒
荣
药
荼
莆
莧
莫
莽
菆
菊
菐
菜
華
萩
萬
落
葉
著
葛
董
葵
蒙
蒦
蒼
蓋
蓬
蓺
蔑
蔡
蕉
蕭
薄
薛
薦
薰
藍
藏
藤
藥
蘭
虍
虎
虐
虒
虔
處
虖
虗
虘
虚
虛
虜
虞
虫
虽
蚤
蚩
蜀
蜜
蟲
蠡
血
行
衍
衛
衣
衤
表
衮
衰
袁
袈
袞
裕
裟
褭
褱
襄
襾
西
覀
要
覃
見
規
覓
覧
親
覽
见
角
解
言
訁
訇
計
詹
誕
語
誩
説
論
諸
讠
谷
豆
豈
豊
豐
豕
豖
豙
象
豦
豩
豪
豸
貇
貝
貞
貟
負
貢
貧
貪
貫
責
貳
貴
買
費
賁
資
賈
賏
賓
賔
賛
賞
賢
賣
質
賴
贊
贝
贡
责
贯
贲
贵
赖
赞
赤
赦
走
越
足
路
蹇
身
躬
車
軍
軎
軟
輦
车
辛
辜
辟
辥
辰
辱
農
辵
辶
边
达
过
近
连
迷
追
退
送
逆
逐
通
逝
速
造
逢
連
逮
進
遀
遂
過
道
達
遣
適
遷
遺
邊
邑
邕
那
邦
邪
郎
部
郭
郷
都
鄉
酉
酋
配
酓
釆
采
里
重
野
量
金
釒
錢
钅
長
镸
长
門
閃
閉
開
閏
閑
閒
間
閔
閵
閻
闌
门
间
闷
阑
阜
阝
阪
阿
降
院
陳
陽
隆
隊
隋
隡
隨
隱
隶
隹
隺
隻
隼
隽
难
雀
雁
雄
集
雈
雋
雍
雐
雔
雙
雚
雜
雝
離
難
雨
雩
雪
雲
零
雷
需
震
霍
霜
霝
霞
霸
靈
靑
青
非
靡
面
靣
革
韋
韦
韭
韯
韱
音
頁
頃
項
須
頗
頡
頻
顛
類
页
風
风
飛
飞
食
飠
養
饣
首
香
馬
馮
駦
马
骨
高
髟
鬥
鬯
鬲
鬼
魚
魯
鮮
鱼
鲁
鳥
鳳
鸟
鹵
鹿
麃
麗
麥
麦
麻
黃
黄
黍
黎
黑
黒
黨
黹
黽
黾
鼎
鼓
鼠
鼻
齊
齋
齐
齒
齿
龍
龙
龜
龟
龠
龰
龱
龴
龵
龶
龷
龸
龹
ꦁ
ꦂ
ꦏ
ꦒ
ꦗ
ꦠ
ꦢ
ꦤ
ꦥ
ꦧ
ꦩ
ꦭ
ꦮ
ꦱ
ꦶ
ꦼ
꧀
者
艹
ﬁ
ﭬ
ﭭ
ﷺ
ﺇ
ﺍ
ﺎ
ﺑ
ﺒ
ﺗ
ﺘ
ﺠ
ﺩ
ﺪ
ﺭ
ﺱ
ﺳ
ﺴ
ﻛ
ﻜ
ﻟ
ﻠ
ﻡ
ﻤ
ﻥ
ﻧ
ﻨ
ﻬ
ﻭ
ﻮ
ﻰ
ﻳ
ﻴ
ﻻ
﻿
！
，
：
？
ｋ
ｔ
｜
～
￼
🜨
𠀁
𠀃
𠀆
𠀉
𠀎
𠀐
𠁁
𠁣
𠂆
𠂇
𠂈
𠂉
𠂊
𠂋
𠂎
𠂒
𠂔
𠂛
𠂡
𠂢
𠂤
𠂬
𠂭
𠂹
𠃊
𠃋
𠃌
𠃍
𠃎
𠃑
𠃓
𠃔
𠃜
𠄌
𠄎
𠄠
𠄢
𠆢
𠆥
𠇍
𠈌
𠌵
𠓜
𠔉
𠔥
𠔼
𠔽
𠔿
𠕀
𠕁
𠕋
𠘧
𠘨
𠙻
𠙼
𠚏
𠚒
𠚤
𠚪
𠣏
𠤎
𠤕
𠥓
𠦄
𠦑
𠦝
𠧒
𠧗
𠧪
𠩺
𠪚
𠫓
𠫔
𠫤
𠬛
𠬝
𠬞
𠬢
𠬤
𠬶
𠮛
𠮦
𠮷
𠯑
𠱠
𠳮
𠷎
𡈼
𡉀
𡉵
𡌥
𡍮
𡏳
𡕒
𡕩
𡕰
𡖅
𡗗
𡗜
𡘆
𡘤
𡧱
𡨄
𡩧
𡬠
𡭽
𡰣
𡰥
𡰪
𡰯
𡰱
𡷈
𡸁
𡿨
𡿩
𡿪
𡿺
𢀖
𢀛
𢀩
𢁙
𢆉
𢆰
𢆶
𢇁
𢇇
𢉖
𢌬
𢌿
𢏚
𢑑
𢑚
𢖻
𢙣
𢛳
𢦏
𢦒
𢧵
𢼄
𢾕
𣁋
𣄼
𣅀
𣅽
𣍘
𣎳
𣎵
𣏋
𣏼
𣗥
𣥂
𣥖
𣦵
𣦼
𣧄
𣪊
𣪠
𣬉
𣳾
𣶒
𤇾
𤊽
𤐫
𤓰
𤔔
𤕨
𤣩
𤰇
𤰔
𤰞
𤴓
𤴔
𤽄
𥁑
𥁕
𥃦
𥃩
𥃭
𥇡
𥑟
𥘅
𥘈
𥝢
𥫗
𥱡
𦈢
𦉪
𦉬
𦉼
𦍌
𦍒
𦎧
𦐇
𦓔
𦔮
𦘒
𦙃
𦚏
𦣝
𦣞
𦣻
𦥑
𦥔
𦥯
𦨉
𦭝
𦰩
𧆞
𧈧
𧘇
𧰨
𧴪
𧴮
𧵩
𧾷
𨸏
𨾴
𩙿
𩠐
𩫏
𩵋
𪉷
𪜀
𪟽
𪠲
𪩲
𫇦
𫔭
𫜸
𫝀
𫠣
𫠩
𫢉
𫥞
𫩏
𫩠
𫪡
𫲽
𫶧
𬀷
𬐘
𬗌
𬙙
𬛸
𬜯
𬟩
𬯁
𬴘
𬺻
𬼉
𬼖
𭀰
𭁈
𭁨
𭅰
𭑈
𭕄
𭗼
𭤨
𭥫
𭻾
𮅕
𮊿
𮍌
𮍏
𮓗
𮥼
𮧮
廾
𰀁
𰀄
𰀈
𰀉
𰀕
𰀠
𰀡
𰀢
𰀪
𰁜
𰃮
𰆊
𰆘
𰋙
𰕎
𰢴
𰧭
𰯲
01--
04--
07--
08--
16--
40--
42--
51--
53--
71--
74--
75--
80--
81--
82--
92--
978--
979--
a--
ab--
abo--
ac--
ad--
ada--
adi--
ae--
ag--
ah--
ai--
air--
aja--
akh--
akr--
aku--
al--
alder--
ale--
ali--
alja--
all--
alo--
am--
amfi--
ami--
an--
ana--
and--
ang--
ano--
antar--
antho--
anti--
anu--
app--
aq--
ar--
ara--
arc--
arfved--
ari--
aristo--
as--
ash--
assi--
astr--
astro--
at--
ata--
ath--
atmosp--
au--
auto--
av--
ay--
ayah--
ayyu--
az--
azu--
b--
ba--
bab--
baca--
bad--
badam--
baga--
bah--
bahu--
bai--
baja--
bak--
baka--
bake--
bal--
ban--
bap--
bapa--
bapi--
bar--
bara--
basa--
bat--
bata--
batu--
bau--
bawa--
be--
bea--
bel--
bem--
ben--
beng--
ber--
berk--
berke--
berp--
bers--
bert--
beru--
bh--
bha--
bi--
bin--
bina--
bing--
bio--
bioinfor--
blo--
bo--
bon--
bong--
boo--
bor--
bos--
bow--
brad--
bran--
bre--
bri--
brig--
bro--
bron--
bru--
bu--
budd--
bun--
bur--
bus--
by--
c--
ca--
cal--
calcu--
call--
calu--
cam--
can--
cang--
cap--
car--
cat--
cau--
ce--
celeb--
cende--
cer--
cha--
champion--
char--
che--
chi--
cho--
ci--
cid--
cil--
cla--
clear--
clu--
co--
cock--
com--
con--
concept--
coor--
cor--
corn--
cot--
cow--
craw--
cri--
cro--
cru--
cu--
cune--
cunning--
cur--
cy--
d--
da--
dal--
dam--
dan--
dar--
de--
del--
deli--
den--
der--
des--
deter--
di--
dia--
diam--
dic--
dicu--
did--
die--
diga--
diham--
dihi--
dika--
dike--
dinos--
dip--
dipa--
dipar--
diper--
dipi--
diri--
dis--
disa--
disc--
dise--
ditim--
diu--
diwa--
dj--
do--
dob--
doc--
docu--
dou--
dr--
dra--
druk--
drup--
du--
dua--
dum--
dur--
dy--
dz--
e--
ed--
ei--
ek--
eko--
eksiste--
ekste--
el--
ele--
elec--
elk--
ely--
em--
en--
eng--
epi--
epo--
eq--
er--
es--
est--
et--
etno--
eu--
euri--
eva--
eve--
ever--
ex--
exclu--
expl--
f--
fa--
fair--
fal--
fan--
far--
fe--
fen--
fer--
fi--
filo--
fin--
fle--
flu--
fo--
for--
fos--
fr--
fred--
fri--
fu--
g--
ga--
gab--
gal--
galli--
gam--
gand--
gar--
gari--
garung--
gau--
gaz--
ge--
gem--
gen--
geo--
ger--
gi--
giga--
gil--
gin--
gio--
gla--
glo--
go--
god--
gond--
gor--
gou--
gr--
gra--
grave--
gren--
gron--
gu--
gua--
gun--
guy--
h--
ha--
hak--
hal--
halil--
ham--
han--
hang--
har--
has--
hay--
he--
heb--
hei--
hel--
hemi--
her--
hi--
hic--
hidr--
hil--
hippo--
his--
ho--
hol--
homo--
hor--
hu--
hur--
hut--
hy--
i--
ia--
ibe--
idi--
ih--
ii--
il--
im--
imag--
in--
indi--
infra--
ing--
ino--
inqu--
inst--
int--
inve--
io--
ir--
is--
iso--
isu--
it--
j--
ja--
jam--
jan--
jang--
jar--
java--
jaya--
je--
jem--
jen--
ji--
jin--
jo--
ju--
jum--
jøls--
k--
ka--
kaba--
kabar--
kad--
kaga--
kah--
kai--
kak--
kaka--
kal--
kala--
kali--
kall--
kam--
kamah--
kami--
kan--
kar--
kara--
kasa--
kat--
kata--
katar--
kau--
kay--
kayu--
ke--
kecu--
kelem--
kemen--
ken--
ker--
kh--
khari--
kho--
khu--
ki--
kia--
kim--
kin--
kit--
kle--
klo--
ko--
komp--
kon--
kons--
konsul--
konti--
kore--
kr--
kra--
kre--
kris--
kru--
ku--
kuli--
kum--
kump--
kun--
kur--
kuri--
kuta--
l--
la--
lake--
lam--
lan--
lang--
lat--
lau--
law--
le--
lec--
lem--
len--
let--
li--
lib--
lim--
lin--
ling--
lis--
lit--
ll--
lo--
lu--
lubel--
lun--
lux--
ly--
m--
ma--
maan--
mac--
mae--
mah--
maha--
mahing--
mai--
main--
maja--
mak--
mal--
malan--
mam--
mama--
mami--
mampar--
man--
mana--
manar--
mance--
mang--
manga--
mangi--
mani--
manja--
many--
manying--
mar--
mara--
mari--
mas--
mat--
mau--
mc--
mcc--
me--
meas--
med--
mel--
melan--
mele--
mem--
meman--
memen--
memper--
men--
meng--
menga--
menge--
mengu--
menu--
menye--
menyim--
menyu--
mer--
meso--
mi--
micro--
mid--
mig--
mikro--
mil--
min--
mit--
mo--
mojo--
mon--
mor--
morpho--
mot--
mu--
mul--
multi--
mun--
munic--
mur--
my--
mø--
n--
na--
naf--
nan--
nar--
nat--
ne--
neder--
news--
ng--
nga--
ni--
nic--
nik--
nir--
no--
non--
nor--
not--
ns--
nu--
nur--
ny--
nya--
o--
obser--
observa--
odo--
og--
ol--
oly--
on--
op--
or--
os--
ou--
out--
p--
pa--
paa--
paan--
pada--
paha--
pahu--
pak--
paku--
paleol--
pali--
pam--
pame--
pamu--
pan--
pang--
pangam--
pangi--
panim--
panju--
pany--
panya--
panyam--
panyar--
panyu--
par--
para--
pari--
part--
paru--
pat--
pata--
patho--
pawa--
pay--
pe--
pele--
peli--
pem--
pen--
pena--
penen--
peng--
penga--
penge--
pengen--
pengor--
pengu--
penje--
penye--
per--
peren--
perse--
pes--
petr--
ph--
phoeni--
phy--
pi--
pic--
pin--
pinu--
pio--
pir--
pit--
pl--
pla--
po--
pod--
poe--
pol--
polyne--
pomo--
por--
pos--
post--
pot--
pr--
pra--
pre--
pri--
pro--
provi--
pru--
ps--
psi--
pu--
pul--
pun--
pup--
pur--
purba--
purwo--
pus--
put--
putu--
q--
qa--
qu--
r--
ra--
rad--
radio--
rah--
ram--
ran--
ranca--
rang--
rat--
re--
rec--
rece--
reci--
red--
refor--
rele--
rem--
repr--
requ--
res--
resto--
rho--
ri--
rim--
rin--
ring--
rit--
ro--
rock--
ru--
s--
sa--
sab--
sabu--
sad--
sah--
sai--
sak--
saka--
sal--
salu--
sam--
san--
sang--
sapan--
sar--
sara--
sard--
sari--
sart--
saru--
sat--
sauerb--
sc--
sch--
sche--
se--
sea--
sec--
sei--
seku--
sel--
sem--
semp--
sen--
ser--
set--
sh--
shaw--
she--
sher--
shi--
si--
sid--
sidd--
sie--
sig--
sik--
sil--
sim--
simp--
sin--
sing--
sk--
ske--
sl--
sla--
slat--
slo--
sm--
so--
soe--
son--
sp--
space--
sr--
sri--
ss--
st--
sta--
stan--
ste--
stil--
su--
sub--
subst--
suf--
suka--
sum--
sumur--
sun--
sup--
super--
sur--
sus--
sut--
sw--
swa--
swe--
sy--
sylv--
syu--
t--
ta--
tab--
tag--
tai--
tak--
taka--
tam--
tamp--
tan--
tang--
tar--
tas--
tata--
tating--
tatu--
tau--
te--
ted--
tele--
tem--
ten--
teng--
ter--
terce--
tes--
th--
tha--
the--
ti--
til--
tim--
tin--
ting--
tje--
to--
toe--
toem--
tole--
tom--
ton--
tr--
tra--
trans--
tre--
tri--
tu--
tum--
tun--
tur--
tut--
twe--
u--
ue--
uk--
ul--
um--
ump--
un--
ung--
uni--
up--
ur--
us--
ut--
uu--
v--
va--
val--
van--
ve--
veget--
vel--
ven--
vene--
ver--
vi--
vic--
vice--
vol--
w--
wa--
wah--
wal--
wan--
wana--
war--
wat--
watu--
we--
web--
wel--
west--
wi--
wic--
wid--
wiki--
wild--
wira--
wono--
wood--
work--
wu--
x--
y--
ya--
yama--
ye--
yo--
yu--
z--
za--
zen--
zi--
zir--
zu--
ı--
ł--
θε--
ا--
د--
م--
द--
म--
--0
--1
--2
--3
--4
--5
--52
--6
--7
--8
--9
--a
--aakan
--aan
--ab
--ad
--ada
--ae
--af
--afi
--aga
--age
--ah
--ahan
--ahi
--ahkan
--ai
--aian
--ain
--ak
--akan
--aks
--al
--ald
--ali
--am
--ama
--amaakan
--amah
--amai
--aman
--ambat
--an
--ana
--ang
--angan
--ani
--annya
--ans
--ap
--apa
--apakan
--apan
--aq
--ar
--aran
--ard
--ari
--arja
--aru
--arum
--ary
--as
--asa
--asan
--asi
--at
--atan
--ati
--atif
--atika
--ation
--atis
--au
--aume
--aur
--aw
--awi
--ay
--b
--ba
--bai
--ban
--bang
--bas
--base
--bat
--bb
--bc
--bd
--be
--ber
--bi
--biakan
--ble
--bo
--bu
--buh
--buk
--bun
--bur
--burg
--burn
--bus
--busi
--but
--by
--c
--ca
--cah
--cak
--cal
--cang
--cau
--caya
--ce
--cela
--ch
--chi
--ci
--cium
--ck
--co
--cs
--ct
--cu
--cul
--cus
--cy
--d
--da
--dae
--dah
--dak
--dal
--dale
--dali
--dan
--dang
--dap
--dau
--ddin
--ddy
--de
--ded
--del
--des
--dha
--di
--diaan
--dih
--dik
--din
--dinata
--do
--dor
--ds
--dt
--du
--duakan
--duga
--duh
--duk
--dum
--dung
--dur
--dy
--e
--ea
--ean
--eau
--eb
--ect
--ed
--ee
--ees
--egy
--eh
--ei
--ek
--el
--ele
--ell
--en
--ena
--ence
--ene
--eng
--ens
--ensis
--ent
--eo
--ep
--er
--ere
--ered
--ering
--ers
--erson
--ert
--erus
--es
--ese
--esis
--est
--et
--eter
--etis
--ets
--ett
--eun
--eur
--eus
--ev
--ever
--ey
--f
--fi
--fos
--ft
--ful
--g
--ga
--gah
--gahan
--gai
--gakan
--gal
--gan
--gap
--gar
--gat
--gati
--ge
--ger
--gga
--ggah
--ggi
--ggih
--ggu
--ggus
--ght
--gi
--gih
--gil
--ging
--gkat
--gke
--gkik
--gkit
--gkup
--gkur
--gkut
--gne
--gnya
--go
--gon
--graduate
--graf
--grafer
--grejo
--gsar
--gu
--gua
--guan
--guchi
--guh
--guk
--gun
--guran
--gut
--gy
--h
--ha
--hai
--ham
--han
--he
--heimer
--her
--hes
--hi
--hip
--hkan
--hl
--ho
--hoe
--hon
--hop
--hos
--ht
--huan
--huri
--hus
--i
--ia
--iago
--iakan
--ial
--ian
--iar
--iat
--iation
--iaw
--ib
--ic
--ica
--ical
--ich
--ics
--id
--ide
--ie
--ier
--ies
--if
--ifikasi
--iga
--igan
--igi
--ih
--ii
--iji
--ik
--ika
--ikan
--iki
--ikir
--il
--ilaian
--ilik
--ilya
--im
--ima
--imba
--imbur
--ime
--in
--inasi
--ine
--iner
--ing
--ingan
--ings
--ington
--insi
--inya
--ion
--ions
--ios
--ip
--ir
--ira
--irakan
--ire
--is
--isasi
--ish
--ishi
--isihan
--ism
--isma
--isme
--ist
--ista
--it
--ita
--itan
--itas
--ite
--ities
--itip
--itu
--ity
--ium
--ius
--ive
--iwa
--ized
--j
--ja
--jah
--jai
--jajah
--jak
--jal
--jam
--jang
--jangnya
--jau
--je
--jen
--ji
--jik
--jim
--jo
--ju
--juk
--jur
--jut
--k
--ka
--kah
--kai
--kal
--kala
--kali
--kam
--kan
--kannya
--kap
--kapan
--kar
--kas
--kasi
--kat
--kaze
--ke
--keun
--kh
--ki
--kin
--kins
--kir
--kit
--ko
--kok
--kop
--ks
--ksi
--ktian
--ku
--kuap
--kuk
--kul
--kup
--kur
--kus
--kut
--l
--la
--laan
--lah
--lai
--lam
--lan
--land
--lap
--lar
--lat
--ld
--le
--ler
--ley
--li
--lic
--lih
--ling
--lis
--lisasi
--lit
--lity
--lk
--lkan
--ll
--lla
--llah
--lle
--lo
--lok
--ls
--lt
--lu
--luhan
--luk
--lum
--lur
--lus
--ly
--lz
--m
--ma
--mah
--man
--mann
--mas
--mba
--mbai
--mbat
--mbo
--mbu
--mbuh
--mbul
--me
--mel
--men
--mer
--mi
--mian
--mic
--mik
--min
--mis
--mit
--mnya
--mo
--mont
--mos
--mpaian
--mpang
--mpilan
--ms
--mu
--muk
--mum
--murti
--mus
--n
--na
--nah
--nai
--nak
--nal
--nan
--nar
--nas
--nce
--nci
--ncing
--nd
--nda
--ndah
--ndak
--ndakan
--ndam
--ndar
--nde
--nding
--ndo
--ndu
--nduk
--ne
--ned
--nell
--ner
--ners
--nes
--ness
--net
--ng
--nga
--ngah
--ngakan
--ngan
--nggu
--ngi
--ngin
--ngkap
--ngkil
--ngu
--nh
--ni
--nia
--nin
--ning
--nit
--nja
--njuk
--nn
--nna
--no
--nor
--ns
--nsitas
--nsyah
--nt
--ntai
--ntan
--ntang
--nti
--ntik
--nting
--nts
--ntu
--ntukan
--ntun
--ntung
--ntup
--ntut
--ny
--nya
--o
--oba
--ock
--od
--oe
--oea
--og
--ogi
--ography
--oh
--oi
--oid
--oit
--ok
--ol
--ola
--ology
--om
--oma
--on
--ona
--onal
--one
--ong
--onisme
--onjol
--ons
--op
--ope
--or
--ore
--orum
--os
--osa
--ose
--ot
--ote
--oto
--ou
--ous
--out
--ov
--ow
--ows
--p
--pa
--pah
--pai
--paian
--pak
--pan
--parwa
--pas
--pat
--pau
--pe
--pel
--pi
--pia
--pin
--pis
--ple
--pot
--ps
--psi
--pton
--pu
--puh
--puk
--pun
--pung
--pur
--put
--q
--qa
--que
--r
--ra
--raga
--rahan
--raja
--rak
--ral
--ram
--ran
--rang
--rap
--ras
--rat
--rau
--rd
--re
--red
--rejo
--ren
--ret
--reus
--rey
--rg
--rgi
--rh
--ri
--ria
--rie
--ries
--rik
--ring
--ripan
--ris
--rit
--rium
--rkan
--rm
--rnakan
--ro
--ros
--row
--rr
--rry
--rs
--rst
--rt
--rti
--rto
--ru
--ruduksi
--ruhan
--rum
--run
--rung
--rus
--rut
--ry
--s
--sa
--saan
--sah
--sakan
--san
--sanakan
--sari
--sat
--sboro
--sburg
--se
--sea
--sh
--shi
--si
--sic
--sih
--sihan
--sik
--sion
--sir
--sis
--sit
--sky
--sm
--sma
--sme
--so
--som
--son
--ss
--ssa
--sser
--st
--sta
--ster
--sto
--su
--suh
--suk
--sur
--sura
--sut
--sville
--sy
--t
--ta
--tad
--tah
--tak
--tal
--tala
--tama
--tan
--tap
--tar
--tas
--tasi
--tation
--tau
--tay
--te
--ted
--teenth
--ten
--ter
--tes
--th
--ti
--tiaan
--tic
--tif
--tik
--tin
--ting
--tion
--tip
--tir
--tis
--tisme
--tivitas
--tle
--tnya
--to
--tock
--tok
--ton
--tor
--tos
--town
--tra
--try
--ts
--tsu
--tt
--tta
--tte
--tts
--tu
--tual
--tuk
--tum
--tung
--tup
--tur
--tus
--tv
--ty
--tz
--u
--ual
--uan
--ubui
--ucci
--ud
--ue
--ugh
--uh
--uhi
--ui
--uit
--uju
--uk
--ukan
--uku
--ukum
--ul
--ult
--um
--umuk
--un
--unan
--ung
--ungan
--unting
--unung
--unya
--up
--ur
--ura
--uran
--ure
--uri
--us
--usi
--ut
--utan
--ux
--v
--va
--ve
--ver
--ves
--vi
--view
--ville
--w
--wa
--wak
--wan
--was
--wati
--we
--well
--wi
--wiki
--wit
--witz
--wn
--wood
--ws
--wu
--x
--y
--ya
--yah
--yakan
--yam
--yan
--yap
--yar
--yau
--yawa
--ye
--yer
--yi
--yik
--yn
--yo
--yogikeun
--yon
--ys
--yu
--yuh
--yung
--yut
--z
--za
--zer
--zon
--øy
--ς
--ا
--ب
--ت
--ر
--ن
--ه
--ية
--يو
