!
"
#
##0
##1
##10
##11
##12
##13
##14
##15
##16
##17
##18
##19
##2
##20
##21
##22
##23
##24
##25
##26
##27
##28
##29
##3
##30
##31
##32
##33
##34
##35
##36
##37
##38
##39
##4
##40
##41
##42
##43
##44
##45
##46
##47
##48
##49
##5
##50
##51
##52
##53
##54
##55
##56
##57
##58
##59
##6
##60
##61
##62
##63
##64
##65
##66
##67
##68
##69
##7
##70
##71
##72
##73
##74
##75
##76
##77
##78
##79
##8
##80
##81
##82
##83
##84
##85
##86
##87
##88
##89
##9
##90
##91
##92
##93
##94
##95
##96
##97
##98
##99
$
%
&
'
(
)
*
+
,
-
.
/
0
00
000
000040
000045
000217
000290
000292
000326
000330
000384
000404
000537
000566
000567
000578
000926
000928
001043
001106
001107
001358
001481
001747
001748
001749
001750
001844
002144
002145
002378
002411
002412
002413
003154
003215
003325
003627
004431
005100
005101
005235
005384
005385
005448
005891
006881
007
007304
007528
007585
007703
01
014612
014613
014614
016754
02
024670
027575
027865
03
034963
034964
04
046306
046308
046310
046312
05
050441
051
051624
051682
051865
051866
051867
051868
051869
051870
051871
051873
051874
051875
0522
059
06
060544
062786
063980
069099
069125
069126
069127
069128
069129
069130
069131
069132
069133
069178
069190
07
08
09
098923
1
10
100
1000
10000
100001
10001
1001
10010
1002
1003
1004
1005
1006
1007
1008
1009
101
1010
10100
1011
1012
1013
1014
1015
1016
1017
1018
1019
102
1020
1021
1022
1023
1024
1025
1026
1027
1028
1029
103
1030
1031
1032
1033
10336
1034
1035
1036
1037
1038
1039
104
1040
1041
1042
1043
1044
1045
1046
1047
1048
1049
105
1050
1051
1052
1053
1054
1055
1056
1057
10570
1058
1059
106
1060
1061
1062
1063
1064
1065
1066
1067
1068
1069
107
1070
1071
1072
1073
1074
1075
1076
1077
1078
1079
108
1080
1081
1083
1084
1085
1086
1087
1088
1089
109
1090
1091
1092
1093
1094
1095
1096
1097
1099
11
110
1100
11000
1101
1102
11025
1103
1104
1105
1106
1107
1108
1109
111
1110
1111
1112
1113
1114
1115
1116
1117
1118
1119
112
1120
1121
1122
1123
1124
1125
1126
1127
1128
1129
113
1130
1131
1132
1133
1134
1135
1136
1137
1138
1139
114
1140
1141
1142
1143
1144
1145
1146
1147
1148
1149
115
1150
1151
1152
1153
1154
1155
1156
1157
1158
1159
116
1160
1161
1162
1163
1164
1165
1166
1167
1168
1169
117
1170
1171
1172
1173
1174
1175
1176
1177
1178
1179
118
1180
1181
1182
1183
1184
1185
1186
1187
1188
1189
119
1190
1191
1192
1193
11935
1194
1195
1197
1198
1199
12
120
1200
1201
1202
1203
1204
1205
1206
1207
1208
1209
121
1210
1211
1212
1213
1214
1215
1216
1217
1218
1219
122
1220
1221
1222
1223
1224
1225
1226
1227
1228
1229
123
1230
1231
1233
1234
1235
1236
1237
12376
1238
1239
124
1240
1241
1242
1243
1244
1245
1246
1247
1248
1249
125
1250
1251
1252
1254
1255
1256
125602
1257
1258
1259
126
1260
1261
1262
1263
1264
1265
1266
1267
1268
1269
127
1270
1271
1272
1273
127339
1274
1275
1276
1277
1278
1279
128
1280
1281
1282
1283
1284
1285
1286
1287
1288
1289
129
1290
1291
1292
1293
1294
129428
1295
1296
1297
1299
13
130
1300
1301
1302
1303
1304
1305
130566
1306
1307
1308
1309
131
1310
1311
1312
1313
1314
1315
1316
1317
1318
1319
132
1320
1321
1322
1323
1324
1325
1326
1327
1328
1329
133
1330
1331
1332
1333
1334
1335
1336
1337
1338
1339
134
1340
1341
1342
1343
1344
1345
1346
1347
1348
1349
135
1350
1351
1352
1353
1354
1355
1356
13560
1357
1358
1359
136
1360
1361
1362
1363
1364
1365
1366
1367
1368
1369
137
1370
1371
1372
1373
1374
1375
1376
1377
1378
1379
138
1380
1381
1383
1384
1385
1386
1387
1388
1389
139
1390
1391
1392
1393
1394
1395
1396
1397
1398
1399
14
140
1400
1401
1402
1403
1404
1405
1406
1407
1408
1409
141
1410
1411
1412
1413
1414
1415
1416
1417
1418
1419
142
1420
1421
1422
1423
1424
1425
1426
1427
1428
1429
143
1430
1431
1432
1433
1434
1435
1436
1437
1438
1439
144
1440
1441
1442
1443
1444
1445
1446
1447
1448
1449
145
1450
1451
1452
1453
1454
1455
1456
1457
1458
1459
146
1460
1461
1462
1463
1464
1465
1466
1467
1468
1469
147
1470
1471
1472
1473
1474
1475
1476
1477
1478
1479
148
1480
1481
1482
1483
1484
1485
1486
1487
1488
1489
149
1490
1491
1492
1493
1494
1495
1496
1497
1498
1499
15
150
1500
1501
1502
1503
1504
1505
1506
1507
1508
1509
151
1510
1511
1512
1513
1514
1515
1516
1517
1518
1519
152
1520
1521
1522
1523
1524
1525
1526
1527
1528
1529
153
1530
1531
1532
1533
1534
1535
1536
1537
1538
1539
154
1540
1541
1542
1543
1544
1545
1546
1547
1548
1549
155
1550
1551
1552
1553
1554
1555
1556
1557
1558
1559
156
1560
1561
1562
1563
1564
1565
1566
1567
1568
1569
157
1570
1571
1572
1573
1574
1575
1576
1577
1578
1579
158
1580
1581
1582
1583
1584
1585
1586
1587
1588
1589
159
1590
1591
1592
1593
1594
1595
1596
1597
1598
1599
16
160
1600
1601
1602
1603
1604
1605
1606
1607
1608
1609
161
1610
1611
1612
1613
1614
1615
1616
1617
1618
1619
161935
162
1620
1621
1622
1623
1624
1625
1626
1627
1628
1629
163
1630
1631
1632
1633
1634
1635
1636
1637
1638
1639
164
1640
1641
1642
1643
1644
1645
1646
1647
1648
1649
165
1650
1651
1652
1653
1654
1655
1656
1657
1658
1659
166
1660
1661
1662
1663
1664
1665
1666
1667
1668
1669
167
1670
1671
1672
1673
1674
1675
1676
1677
1678
1679
168
1680
1681
1682
1683
1684
1685
1686
1687
1688
1689
169
1690
1691
1692
1693
1694
1695
1696
1697
1698
1699
17
170
1700
1701
1702
1703
1704
1705
1706
1707
1708
1709
171
1710
1711
1712
1713
1714
1715
1716
1717
1718
1719
172
1720
172073
1721
1722
1723
1724
1725
1726
1727
1728
1729
173
1730
1731
1732
1733
1734
1735
1736
1737
1738
1739
174
1740
1741
1742
1743
1744
1745
1746
1747
1748
1749
175
1750
1751
1752
1753
1754
1755
1756
1757
1758
1759
176
1760
1761
1762
1763
1764
1765
1766
1767
1768
1769
177
1770
1771
1772
1773
1774
1775
1776
1777
1778
1779
178
1780
1781
1782
1783
1784
1785
1786
1787
1788
1789
179
1790
1791
1792
1793
1794
1795
1796
1797
1798
1799
18
180
1800
1801
1802
1803
1804
1805
1806
1807
1808
1809
181
1810
1811
1812
1813
1814
1815
1816
1817
1818
1819
182
1820
1821
1822
1823
1824
1825
1826
1827
1828
1829
183
1830
1831
1832
1833
1834
1835
1836
1837
1838
1839
184
1840
1841
1842
1843
1844
1845
1846
1847
1848
1849
18496
185
1850
1851
1852
1853
1854
1855
1856
1857
1858
1859
186
1860
1861
1862
1863
1864
1865
1866
1867
1868
1869
187
1870
1871
1872
1873
1874
1875
1876
1877
1878
1879
188
1880
1881
1882
1883
1884
1885
1886
1887
1888
1889
189
1890
1891
1892
1893
1894
1895
1896
1897
1898
1899
19
190
1900
1901
1902
1903
1904
1905
1906
1907
1908
1909
191
1910
1911
1912
1913
1914
1915
1916
1917
1918
1919
192
1920
1921
1922
1923
1924
1925
1926
1927
1928
1929
193
1930
1931
1932
1933
1934
1935
1936
1937
1938
1939
194
1940
1941
1942
194273
1943
1944
1945
1946
1947
1948
1949
195
1950
1951
1952
1953
195314
195315
195316
195317
1954
1955
1956
1957
1958
1959
196
1960
1961
1962
1963
1964
1965
1966
1967
1968
1969
197
1970
1971
1972
1973
1974
1975
1976
1977
1978
1979
198
1980
1981
1982
1983
1984
1985
1986
1987
1988
1989
199
1990
1991
1992
1993
1994
1995
1996
1997
1998
1999
2
20
200
2000
20000
2001
2002
2003
2004
2005
2006
2007
2008
2009
201
2010
2011
2012
2013
2014
2015
2016
2017
2018
2019
202
2020
2021
2022
2025
2026
203
2035
2036
204
2041
2046
2047
205
2052
2056
206
207
2071
2077
208
2080
2085
209
2091
21
210
2101
2107
211
2110
2112
2113
2115
2116
212
213
214
2143
2145
2146
215
216
2161
217
2176
2179
218
2183
2185
219
2193
2197
22
220
2201
2205
2206
221
222
2220
223
224
2245
225
2251
2256
2257
226
2263
2266
227
2275
2276
228
2281
229
2296
2299
23
230
231
2311
2313
232
233
234
2341
235
2353
236
2366
237
2377
238
2380
239
2395
24
240
2401
241
2416
2419
242
2421
243
2431
244
2443
2449
245
246
2466
247
2479
248
2485
2486
249
25
250
2500
2501
2509
251
252
2521
253
2531
2536
2537
2539
254
255
255184
255186
2556
256
257
2575
258
2584
2586
259
26
260
2601
261
262
2623
2626
263
264
2640
2641
265
2653
266
2665
267
268
269
2695
2696
27
270
2701
2706
2707
271
2716
272
273
2731
2737
274
2744
2747
275
2751
2755
276
2761
277
2773
278
279
2791
28
280
2800
2809
281
2816
282
282853
282854
283
2835
2836
2839
284
285
2850
286
287
288
2880
2881
2887
289
29
290
2905
291
292
2920
2925
2926
293
294
295
296
2965
297
2971
2976
298
299
2993
3
30
300
3000
3001
3003
301
302
3025
303
304
305
3055
306
3060
307
3078
308
309
3095
31
310
3103
311
312
3121
313
314
315
3151
316
3165
3169
317
318
3186
319
3199
32
320
321
3217
322
323
3235
324
325
3256
326
327
3277
328
329
33
330
331
3312
332
333
334
335
3355
336
3361
3367
3368
337
3375
338
339
34
340
341
3417
342
343
3433
344
345
346
347
348
3480
349
35
350
351
3510
3511
352
3529
353
354
355
3550
356
357
3571
358
3586
3589
359
36
360
3601
361
3610
362
363
364
3641
3648
365
366
3667
367
3676
368
369
37
370
371
372
373
3732
374
3745
375
376
377
378
3781
379
38
380
381
382
3823
383
384
385
386
387
388
389
39
390
391
392
393
394
395
396
3961
397
398
399
3991
4
40
400
4005
401
4015
402
403
404
405
406
407
408
4081
409
4095
4096
41
410
411
412
413
414
415
416
417
418
419
42
420
4200
4201
421
4216
422
423
4233
424
425
426
427
428
429
43
430
4306
431
432
433
434
435
436
4369
437
438
439
44
440
441
4411
442
443
444
445
446
4460
447
448
449
45
450
451
4516
452
453
454
455
456
4561
457
458
459
46
460
4600
461
462
4621
463
464
465
4655
466
467
468
4681
469
47
470
471
472
473
474
475
476
4761
477
478
4789
479
48
480
4801
481
482
483
4831
484
485
4851
486
487
488
489
49
490
491
492
4921
493
4936
494
495
496
497
498
499
5
50
500
5005
501
502
503
504
5041
505
506
507
508
509
51
510
511
5110
512
513
514
515
516
5160
5161
517
518
519
52
520
521
522
523
524
525
5251
526
527
528
5281
529
53
530
531
532
533
534
535
536
537
538
539
54
540
5401
541
542
543
544
545
546
547
548
549
55
550
551
552
553
554
555
556
5565
557
558
559
56
560
561
562
563
564
565
5656
566
567
568
569
57
570
571
572
573
574
575
576
577
578
579
58
580
581
582
583
584
585
586
587
588
589
59
590
591
592
593
594
595
596
597
598
5985
599
6
60
600
6001
601
602
603
604
605
606
607
608
6084
609
61
610
611
612
6121
613
614
615
616
617
618
619
62
620
621
622
623
624
625
626
627
628
6280
629
63
630
631
632
633
634
635
636
637
638
639
64
640
641
642
643
644
645
646
647
648
649
65
650
651
652
653
654
655
656
657
658
659
66
660
661
662
663
664
665
666
667
668
6681
669
67
670
671
672
673
674
675
676
677
678
679
68
680
681
682
683
684
685
686
687
688
689
69
690
691
692
693
694
695
696
697
698
699
7
70
700
701
702
703
7039
704
705
706
707
708
709
71
710
711
712
713
714
715
716
717
718
719
72
720
721
722
723
724
725
726
727
728
729
73
730
731
732
733
734
735
736
737
738
7385
739
74
740
741
742
743
744
745
746
747
748
749
7497
75
750
751
752
753
754
755
756
757
758
759
76
760
761
762
763
764
765
766
767
768
769
77
770
771
772
773
774
775
776
777
778
779
78
780
781
782
783
784
7840
785
786
787
788
789
79
790
791
792
793
794
795
796
797
798
799
8
80
800
801
802
803
804
805
806
807
808
809
81
810
811
812
813
814
815
816
817
818
819
82
820
821
822
823
824
825
826
827
828
8281
829
83
830
831
832
833
834
835
836
837
838
839
84
840
841
842
843
844
845
846
847
848
849
85
850
851
852
8520
853
854
855
856
857
858
859
86
860
861
862
863
864
865
866
867
868
869
87
870
871
872
873
874
875
876
877
878
879
88
880
881
882
883
884
885
886
887
888
889
89
890
891
892
893
894
895
896
897
898
899
9
90
900
901
902
903
904
9045
905
906
907
908
909
91
910
911
912
913
914
915
916
917
918
919
92
920
921
922
923
924
925
926
927
928
929
93
930
931
932
933
934
935
936
937
938
939
94
940
941
942
943
944
945
946
947
948
949
95
950
951
952
953
954
955
956
957
958
959
96
960
961
962
963
964
965
966
967
968
969
97
970
971
972
973
974
975
976
977
978
979
98
980
981
982
983
984
985
986
987
988
989
99
990
991
992
993
994
995
996
997
998
999
:
;
<
=
>
?
@
[
\
]
^
_
a
aa
aalbani
aaron
ab
aba
abando
abate
abba
abbia
abbott
abby
abc
abdelmajid
abdul
abe
abel
abita
abitant
abitanti
abitantiabita
abitantino
abitasio
abite
abiti
abito
abitu
abla
abo
about
above
abraham
abril
absolute
abu
abulgari
abunda
aburti
ac
aca
acade
academy
acapu
accanto
acciaio
accorsi
accusa
ace
ach
achi
achille
achleitner
aco
acoustic
acqua
acque
acre
acro
across
acse
acsi
act
acta
action
acu
acus
ad
ada
adalberto
adam
adams
adata
adatame
adate
adda
addams
addio
addosso
ade
adeca
adecagone
ades
adesso
adestrame
adi
adiritu
adl
adla
adler
adma
adme
ado
adolf
adolfo
adre
adria
adrian
adriana
adriano
adriatico
adrienne
adsa
adu
adult
adusio
aduta
aduti
adve
adventure
adventures
advinte
ae
aedes
aeropo
aerosmith
afa
afe
affair
affare
affari
affleck
affuso
afi
afidame
aflue
afraid
afre
africa
afro
after
ag
aga
again
against
agame
agas
agata
agatha
age
agency
agenda
agensi
agent
agente
agenzia
agepe
agere
ageti
agh
agi
agli
aglie
agne
agnes
agnese
agnieszka
ago
agone
agostini
agostino
agosto
agostoago
agra
agre
agri
agricoltura
agricultu
agro
agu
aguste
ah
ahmed
ai
aidan
aids
aime
aimes
ain
air
aires
aise
aiu
aj
aja
aje
ajo
aju
ajute
aka
akiko
akvetadze
al
ala
alaba
alain
alan
alauda
alaudidae
alba
albachiava
albani
albaniaalbani
albare
albe
albero
alberoni
albert
alberta
alberti
alberto
albicocca
albine
albinea
albino
album
albuquerque
albus
alca
alco
alcune
alcuni
alda
aldo
aldrich
ale
alea
alec
alee
alejandro
aleksandra
alema
alenado
alename
alesa
alessandra
alessandro
alessio
alevame
alex
alexander
alexandra
alexandre
alexandria
alexis
alfabe
alfabet
alfio
alfiumanais
alfonso
alfred
alfredo
alge
algebra
algeri
algra
ali
alibi
alice
alicia
alida
alien
aliens
alighieri
alimenta
alinfunse
alis
alisa
alisateurs
alison
alive
alize
all
alla
allan
allarme
alle
allegri
allegria
allen
allie
allison
allo
allora
alma
alme
almeno
almodo
alo
alone
along
alonso
aloro
alpe
alpha
alpi
alright
als
alse
alt
alta
altame
alte
alternati
alternativa
alternative
altitudinealte
altman
alto
altra
altre
altri
altrime
altro
altufre
alucinasio
aluvio
alva
alvado
alvaro
alve
always
alze
am
ama
amadeus
amanda
amante
amantes
amanti
amare
amaro
amas
amati
amato
amazing
ambasado
amber
ambi
ambie
ambiente
ambii
ambij
ambinta
ambisio
ambu
ambula
ame
amedeo
amelia
amen
america
american
americana
americani
americano
ami
amica
amice
amiche
amici
amicizia
amico
amicus
amigos
aministrasio
aministrati
amir
amire
amityville
ammazzare
amministrazione
amo
among
amor
amore
amori
amorotto
amos
amour
ampi
ampie
amprufita
ams
amsterdam
amy
amzu
an
ana
anabel
analisi
anastasija
anatomi
anatrana
anc
anca
anch
ancha
anche
anchvedere
anco
ancora
and
anda
andame
andare
andava
andave
ande
anders
andersen
anderson
andersson
andga
andi
andiamo
ando
andorraanda
andra
andre
andrea
andreas
andrei
andrej
andres
andrew
andrews
andrey
andro
andrzej
andu
andy
ane
angel
angela
angeles
angeli
angelica
angelina
angelique
angelis
angelo
angels
anger
angie
angoule
angry
angu
angus
ani
anidri
anima
animal
animale
animali
animalize
anime
aniston
anita
aniversa
anma
anmi
ann
anna
annabella
anne
annette
anni
annibale
annie
annika
anniversary
anno
ano
anonima
another
ans
ansa
anselmo
ansi
ansia
ant
anta
ante
anthony
anthrax
anti
antibio
antica
antiche
antichi
antichite
antichrist
antico
antiqua
anto
antoine
antologia
anton
antonella
antonelli
antonello
antonia
antonio
antonioni
anu
anve
anvlupa
anvo
any
anymore
anything
anzi
anzo
ao
apare
apart
apartame
apartheid
apatow
ape
apene
aperto
apevre
apo
apocalisse
apocalypse
apocalyptica
apollo
apolo
app
appennino
apple
appuntamento
apre
apri
april
aprile
aprileavri
aprite
apruve
apted
apu
apucali
apuntame
aq
aqua
aquane
aque
aqui
aquila
ar
ara
arab
arabian
arago
aragune
aranda
arantxa
arapova
aravane
arba
arbalta
arbasa
arbga
arbore
arc
arca
arcgno
arcgnusime
arcgnusu
arche
archeo
archer
archi
archibugi
archie
archime
archite
architeto
architetu
archiulugi
archive
archivio
arcia
arcive
arcma
arco
arcua
arcurda
arcurde
ardo
ardu
ardundla
ardupia
ardupiado
are
area
arena
aresta
arfa
arfacime
arfe
argento
argi
arginte
arginti
argna
argo
argume
ari
aria
ario
ariosto
aris
aristo
arithmetica
ariva
arive
arka
arle
arli
arlia
arlo
arma
armadu
armageddon
armagne
armagni
armand
armando
armani
armata
arme
armeniaarme
armi
armin
armisc
armo
arms
armstrong
army
arne
arno
arnold
arnoldo
arnuvame
arnuve
aro
around
arpo
arquette
arrapaho
arriva
arrivano
arrive
ars
arsa
arse
arsive
arso
art
arta
arte
arthur
arti
artie
artifice
artifisia
artigia
artigiane
artigianelli
artist
artista
arto
artra
arts
arturo
arumani
arvarga
arve
arvensis
arvi
arvidsson
arvo
arvuje
arvulta
arvulto
arz
arza
arze
arzinte
arzo
as
asa
asco
ase
asemble
aseso
asfa
asfalta
ash
asher
ashley
ashton
asi
asia
asicurado
asicurasio
aside
asino
asinoe
asinso
asio
asiste
aso
asociasio
aspe
aspita
ass
assalto
assassina
assassination
assassini
assassinio
assassino
associazione
assunta
asta
astbury
astero
astra
astro
astrono
astruna
astu
asturia
asu
asuciasio
asylum
at
ata
ataca
atacame
atai
atais
ate
atensio
ati
atinta
ativite
atkins
atla
atlantic
atmusfe
ato
atom
atora
atp
atque
atra
atrave
atre
atri
attacco
attack
attenborough
atti
attilio
attimo
atto
attraverso
attrazione
atu
au
aubrey
auckland
audrey
auf
august
augusta
auguste
augusto
aurelio
aurora
aus
aussi
austin
austra
austraglia
australia
australian
austri
austria
austriaaustriaaustriaaustria
aut
auta
autem
auti
auto
autorite
autostra
autostrada
autostre
autre
autres
autunno
aux
av
ava
available
avair
avait
avanti
avati
ave
avec
avengers
avenime
aventu
avenue
aver
avere
aversa
averte
avery
avete
aveva
avevano
avi
aviasio
avibase
avintu
avnet
avo
avra
avre
avri
avril
avstri
avto
avtorite
avtostre
avtu
avu
avuca
avventura
avventure
award
awards
away
axel
axis
axl
ayumi
az
azaranka
azerbaigia
azia
azzo
azzurro
b
ba
baba
babbo
babe
babies
babos
baby
baca
bacaja
bacaje
bacco
bach
baci
bacio
back
baco
bacon
bacsinszky
bad
bada
bade
baden
badi
bads
bafi
bafta
baga
bagate
baghe
bagn
bagna
bagnacava
bagne
bagno
bagnolo
bahia
bai
baiana
bailey
bain
baiso
baja
baker
baku
bal
bala
balare
balari
balca
balco
baldi
baldini
baldwin
bale
bali
balia
ball
balla
ballad
ballando
ballard
ballare
ballata
ballo
balo
balsa
baltimo
baluta
balzac
bambe
bambina
bambini
bambino
bambola
bambole
bambulo
bammer
bamonte
ban
bana
banade
banana
banc
banca
banche
banchi
band
banda
bande
banderas
bandi
bandito
bando
banduna
bandune
banfi
bang
bangkok
bani
bank
banks
banshees
bar
bara
barack
barba
barbagia
barbagiannibarbagia
barbara
barbareschi
barbe
barbera
barbet
barbican
barbieri
barbo
barbora
barca
barcelo
barcelona
barchi
bardem
bare
bargne
bari
barilli
baris
barker
barnes
baro
baron
baroni
barrett
barron
barry
barrymore
barsa
barselo
bart
barthel
bartno
bartoli
bartolomeo
barton
baruse
bas
basa
basc
base
baseball
basi
basic
basil
basilica
basinger
basita
basket
baso
basrile
bass
bassa
bassi
basso
basta
bastardi
baste
basti
bastio
basto
bat
bata
batari
bate
bateman
bateri
bates
bati
batista
batman
baton
bats
battaglia
battista
battle
batu
bau
baudo
bauhaus
bauman
bava
bavare
bave
bay
baz
bbar
bbc
bber
bblica
bca
bcada
bcand
bcar
bdo
be
bea
beach
bear
beast
beat
beatles
beatrice
beatty
beatus
beau
beautiful
beauty
becamo
because
beck
becker
becky
become
bed
bedo
bee
been
beer
befa
before
bega
begin
beginning
begu
behind
being
bel
bela
bele
belgiobe
belgra
beli
believe
belinda
bell
bella
bellassen
belle
bellei
bellezza
belli
bellissima
bello
bellocchio
bellucci
bellum
belo
belong
below
ben
benassi
bencic
bene
benede
benedete
benedetti
benedetto
benedicta
benedictus
benefice
benes
beni
benito
benjamin
bennett
bennington
benny
benoi
bens
benson
bent
bentivoglio
benton
benvenuti
beppe
ber
bere
beresford
berg
bergama
berger
bergman
berkowitz
berle
berli
berlin
berlino
berlusconi
bernard
bernarde
bernardi
bernardino
bernardo
bernie
berry
bersaglio
bersani
berta
berte
bertens
berti
bertlame
bertolucci
bertrand
berutubaroto
beside
besson
best
besti
bestia
bestie
bestiuli
bet
beta
beth
betha
bethanie
bette
better
betty
between
beverly
beyond
bi
bia
biagio
bianc
bianca
biancabieloro
bianchi
bianco
biane
bibbiano
bibia
bibliote
biblioteca
bibliute
bic
bica
bicchiere
bice
bichi
bicicle
biden
bie
biehn
bielorussiabieloro
bien
bienville
big
bigare
bigas
bigattinobigate
bigazzi
bigelow
bignardi
bii
bije
bil
bila
bili
bill
billboard
bille
billie
billy
bin
bina
binks
bio
biografi
biografia
biolo
bionda
biondelli
bira
bird
birds
birmingham
bis
bisa
biscia
bisesti
bishop
bisi
bismantova
biso
bisogno
bistia
bit
bitch
bite
bites
bitter
bittersweet
biugra
biugrafi
biulo
bizzocchi
bjo
bla
black
blade
blair
blake
blanc
blanca
blanche
blanco
blast
blaze
ble
bleed
blg
bli
blic
blica
blican
blich
blichi
blig
blind
blis
blo
blog
blonde
blondie
blood
bloody
bloom
blow
blu
bluca
bluche
blue
blueberry
blues
bmg
bo
boat
bob
bobby
boca
bocca
boccaccio
boccoli
body
boe
bogart
bogdanovich
boi
boiardo
bojana
bolan
boldrini
bole
bolivia
bolkan
bolo
bologna
bolognese
bolognini
bolton
bom
bomb
bombe
bombicebe
bon
bona
boncompagni
bond
bondarenko
bondi
bone
bones
boni
bonifacio
bonifica
bonnie
bono
bonolis
bonum
bonus
boo
book
books
boom
boone
booth
bootleg
borboni
borchfo
bore
boretto
borg
borghese
borghi
borgo
boris
born
borromeo
borso
bosch
bosco
bose
bosnia
boss
boston
bota
both
bottazzi
botte
bottle
bottom
bouchard
bouche
bouchet
boulevard
boun
bousman
boutique
bovary
bovina
bowie
box
boy
boyle
boys
br
bra
braccia
braccio
bracconeri
brad
bradford
bradley
brady
brag
braga
braganc
braghe
braghi
brain
bran
branagh
brand
brandla
brandon
brandt
bras
brasa
brasale
brase
brasiglia
brasil
brasile
brasileira
brasilia
brasiliana
brass
bratis
braun
brav
brava
brave
bravi
bravo
braz
brazzi
bre
break
breakin
breaking
breath
breathe
breillat
brenda
brendan
brengle
brennan
brent
brera
bres
bresa
brescello
brese
brest
breta
brett
breve
brevis
brewster
brexit
bri
bria
brian
brianti
bric
brica
brich
brichi
brick
bride
bridge
bridges
bridget
briga
bright
brigitta
brigitte
brila
brill
bring
bris
brisa
brisbane
brisighe
brita
british
britney
brividi
brivido
brixa
brizzi
bro
broadway
brodo
brody
broken
bronx
brooke
brooklyn
brooks
bros
brother
brothers
brown
bru
bruce
bruche
bruna
bruni
bruno
brus
brut
bruta
bruti
brutto
bruxelles
bryan
bryce
bs
bsida
bu
bubba
buca
buche
buchi
buchina
buci
bucia
buck
bucky
bucle
buco
bud
budapest
buddy
bude
budget
budgie
budlo
buebo
buenos
buffalo
buffy
bufo
bufra
bug
bugie
buguta
bui
buio
buj
buje
bul
bula
bule
buleta
bulgari
bulgariabulgari
bulgnais
bulgne
bulgni
buli
bull
bullet
bulo
buloagna
bulugne
bum
bumbarda
bumbardame
bumpo
bun
bunda
bunde
bune
buon
buona
buoni
buono
bura
burate
buratina
burattinaio
burch
burde
bure
burghal
burghe
burgno
buried
burke
burla
burn
burnett
burning
burns
buro
burr
bursa
burse
burt
burton
bus
busa
busana
buscemi
buse
bush
business
bust
busta
busti
but
buta
butch
bute
butghe
buti
butler
buto
butterfly
button
buy
buzz
bve
bvu
by
bye
byrd
byrne
byron
c
ca
cabaret
cabeza
cabin
cabrini
caccia
cacciatore
cada
cadant
cade
cadelbo
cadelbosco
cadillac
cadna
cadni
caduta
caduto
caesar
caetano
cafe
caffe
caga
cagaro
cage
caghe
cagli
cagliari
cagna
cagnule
cain
caine
caio
cairo
caius
cajo
cal
cala
calame
calatrava
calcio
cald
calda
caldare
caldi
caldo
cale
calenda
calendario
calende
cali
califo
california
califurgna
calinda
calista
call
called
calling
calm
calma
calo
calori
cals
calsado
calse
caltanissetta
calvin
cam
camare
cambi
cambia
cambiame
cambiamento
cambie
cambio
cambra
cambri
cambridge
came
camelia
cameo
camera
camere
camerin
cameron
cami
camila
camilla
camille
camillo
camiuni
camp
campa
campagna
campagno
campagnola
campana
campane
campani
campanile
campbell
campe
campegine
campgaia
campgaja
campi
campio
campion
campione
campiuna
campo
campos
campovo
campsa
campus
camugna
camus
can
cana
canade
canale
canalis
canbie
cande
candida
candidadu
candide
candido
candy
candyman
cane
caneca
cani
canis
cannavale
cannes
cannibal
cannibale
cannot
cano
canossa
canpa
canse
canso
cant
canta
cantant
cantanta
cantare
cante
canti
canto
cantrell
canyon
canzo
canzone
canzoni
cao
caocao
cap
capa
capacite
cape
capelli
capi
capita
capital
capitale
capitali
capitan
capitani
capitano
capite
capito
caplavo
caple
caplo
capo
capodanno
capone
cappella
cappelle
cappello
capponecapo
capprefe
capra
caprache
capri
capriati
captain
caput
car
cara
carabine
caraibi
carame
carara
carari
carate
caratere
carateri
carateris
carbo
carbune
carde
cardi
cardiff
cardina
cardine
cardu
care
cares
carest
carey
carfagna
carga
carghe
cari
carica
carina
cario
caripo
carite
carl
carla
carli
carlini
carlo
carlos
carlotta
carlsbad
carlson
carmela
carmelo
carmen
carmina
carmine
carna
carne
carneva
carnimeo
carnival
caro
carol
carole
carolina
caroline
carolyn
carp
carpa
carpane
carpenter
carpi
carpigiano
carpineti
carpne
carps
carr
carra
carracci
carradine
carrara
carrie
carriera
carroll
carruthers
cars
carson
carsu
carta
carte
carter
carti
carto
caruli
carusi
caruso
cary
cas
casa
casablanca
casadei
casado
casafo
casale
casalgra
casalgrande
casanova
casc
casca
casche
case
caselli
casey
cash
casi
casina
casini
casino
caso
cassandra
cassavetes
cassel
cassidy
cast
casta
castagne
caste
castel
castelfra
castella
castellano
castellarano
castellari
castelli
castello
castelno
castelnovo
castelnuovo
castelve
caster
casti
castiglia
castillo
castio
castiu
castla
castlara
castle
castlu
castne
castoldi
castra
castro
castruche
castrum
casune
casutari
cat
cata
catala
catalina
catalo
catame
catara
catare
cataro
catastocod
catastro
catch
cate
catedra
catedre
categuri
catellani
caten
caterina
caterpillar
cates
catherine
catholic
cathy
cati
cative
cato
caton
cattive
cattivo
cau
caught
caus
causa
cause
cav
cava
cavacava
cavale
cavalie
cavaliere
cavalieri
cavalli
cavallo
cavallocava
cavara
cavda
cave
cavi
cavo
cavra
cavri
cavria
cavriago
cavs
cazalmo
cazalo
cazarima
cazzo
cbdo
cbs
cc
cca
cch
cchco
ccia
ccol
cd
cdot
cdu
ce
ceara
cecarepu
cecilia
cefet
cela
cele
celebrity
celentano
celeste
celui
cemetery
cen
cena
cenni
censime
cent
center
cento
central
centre
centro
century
ceo
cera
cerca
cercasi
cere
cereal
cerigna
cern
cerreto
cerruti
certain
certo
cervare
cervello
cervi
ces
cesa
cesare
cesenacmo
cessna
cetkovska
cetra
cette
cevolani
cgd
cgno
cgnosso
cgnu
cgnuse
cgnusi
cgnuso
cgnusu
ch
cha
chabrol
chad
chain
chains
chainsaw
chair
challenger
champagne
champions
championships
chan
chance
chandler
chanel
chanelle
chang
change
changes
chaplin
chapman
charles
charleston
charlie
charlize
charlotte
charlottesville
charrie
chase
chat
chco
che
cheap
check
chef
chegli
chel
chelo
chels
chelsilu
chen
cheng
cher
cherdi
cherna
cherry
chersu
cherta
cherubini
cheryl
chester
chev
chez
chi
chia
chiama
chiamata
chiamato
chiamavano
chiara
chiaslovachi
chiave
chicago
chiche
chico
chie
chierici
chiesa
chiese
chigan
child
children
chile
chili
chill
chilo
chin
china
chinatown
chine
chinese
chini
chino
chiocciola
chioggia
chip
chissa
chita
chitari
chitarra
chiusa
chloe
choice
choose
chose
chowla
chris
christ
christi
christian
christiane
christie
christina
christine
christmas
christoph
christopher
chtocto
chuck
chucky
church
ci
cia
ciaca
ciacare
ciacurna
ciacurnacia
ciama
ciaman
ciame
ciamen
cian
ciao
ciapa
ciapara
ciape
ciava
ciavadu
ciave
cibulkova
cic
cica
cicalasighe
ciccio
cicciolina
cicclo
cicerenella
cicero
cichi
cicio
cicli
cid
cidade
cie
ciel
cielo
ciffri
cigarettes
cil
cila
cile
cili
cim
cima
cime
cimino
cimitero
cimo
cina
cincinnati
cinderella
cindy
cine
cinema
cinematugra
cinese
cinghialezinge
cinque
cinsura
cinzia
cio
cioe
ciprozi
circa
circle
circo
circolasio
circoscrisio
circunde
circus
circuscrisio
ciro
ciru
cis
cispada
cisti
cit
cita
citasio
citazioni
cite
cities
citta
cittadino
citti
city
ciu
ciuca
ciucia
ciucula
ciula
ciuladi
ciuva
civati
cive
civettasfe
civi
civil
civile
civilte
civis
ck
cl
cla
claire
clamuro
clara
clare
clarence
clark
clarke
clas
clasi
clasificasio
clasifiche
clasio
class
classe
classic
claude
claudia
claudio
claus
clay
clayton
cle
clear
clemens
clemente
clerici
cleveland
cli
clichy
clie
cliff
clifford
clifton
clijsters
clima
clime
clint
clinton
clive
clo
clooney
close
closer
clown
club
clumbe
clyde
cm
cma
cmand
cmanda
cmande
cme
cminze
cmo
cmu
cn
cnic
cnica
cnig
co
coast
cobain
cobra
coca
cocker
coco
cod
coda
code
codga
codgo
codice
cody
coen
coffee
cohen
coi
col
cola
colaborasio
cold
cole
colegame
coleghe
coleman
colesio
coli
colin
coll
colle
collection
collegamentotemplate
college
collegio
collezionista
colli
collina
collins
colo
colombo
colombopiso
colonna
colonnata
color
colore
colori
colpa
colpevole
colpo
coltello
columbia
columbus
com
coma
come
comedy
comencini
comerce
comes
comic
comics
comin
coming
comm
comme
commedia
commissario
commissione
commons
como
compa
compagnie
company
compilation
comple
complete
compos
compton
computer
comte
comu
comun
comunale
comune
comunecumu
comuneemail
comunetel
comuni
comunicasio
comunita
comunite
con
concept
concert
concerto
conchita
condannato
coneti
confere
confessions
confidential
confine
confini
conflitto
congo
congregatio
conigliocuni
connecticut
connell
connelly
connery
connie
connor
cono
conoscere
conosciuto
conportame
conquista
conrad
consegue
considere
consiglio
console
consorzio
conspiracy
constance
consul
consumatori
conta
contact
conte
contes
contest
conti
contiene
contiguicmu
continental
contini
continua
contra
contre
contro
control
controle
convensio
conway
cook
cookie
cool
coop
cooper
coordinatepus
cop
coperati
copia
coppa
coppia
coppola
cor
coraci
coraggio
corazo
corbin
corbucci
cord
corda
cordel
core
corea
corey
corinne
corman
cornacchiacurna
cornelio
cornell
cornet
corni
coroli
corona
corone
coronel
corp
corpi
corpo
corpus
corrado
corre
correggio
corriere
corsa
corso
corte
corti
corvo
cos
cosa
cose
cosi
cosimo
costa
costantino
costanza
costanzo
costi
costitusio
costner
costrui
costrusio
cotton
cougar
could
couldn
counselor
count
countdown
country
county
courtney
cova
cover
covid
cowboy
cowboys
cox
cozzi
cpio
cra
crack
craco
cradle
craig
cranarano
cranberries
crane
crani
crano
crash
craven
crawford
crazy
cre
crea
creasio
creature
creatures
crede
credo
cree
creek
creepshow
crema
cremo
cremona
cremu
crest
cret
cretini
crevalco
cri
cria
criatu
crichton
crime
crimes
crimina
criminal
criminale
criminali
crimine
crimini
crimino
crimson
crine
cris
crisi
crispino
criss
crist
crista
cristalina
cristallo
cristia
cristiana
cristiane
cristiano
cristina
cristo
cristoforo
crite
critica
critters
cro
croaziacrua
croce
crocodile
cronaca
cronache
cronenberg
cross
crossing
crostolo
crow
crowe
crowley
crown
cru
crua
cruda
cruel
cruise
crus
crusca
cruz
cry
crying
crystal
cs
csa
ctor
ctus
cu
cua
cuace
cualisio
cub
cuba
cube
cuc
cucai
cuce
cucia
cucudri
cuculoco
cudghi
cudgno
cudo
cue
cuerci
cuesta
cufane
cugna
cugne
cugni
cugno
cugnusi
cui
cuius
cukor
cul
cula
culabura
culaburado
culaburasio
cule
culega
culesio
culga
culi
culla
culo
culpe
culpi
cult
culti
cultiva
cultivasio
cultive
cultu
cultura
culturali
culture
culu
culune
culura
cum
cuma
cumancia
cumba
cumbate
cumbati
cumbatime
cumbatu
cumbi
cumbinasio
cumbine
cume
cumendado
cumercia
cumersia
cumi
cumince
cumisa
cumisio
cumita
cumo
cumoin
cumpa
cumpagn
cumpagna
cumpagne
cumpagni
cumpari
cumpasio
cumpati
cumpe
cumpi
cumpia
cumpime
cumple
cumplea
cumplemente
cumpliche
cumplime
cumplo
cumpo
cumpra
cumpre
cumpune
cumpurta
cumpurtame
cumpus
cumsa
cumu
cumuna
cumune
cumuni
cumunicasio
cumunita
cumunite
cun
cuna
cunce
cuncentrame
cunclo
cunco
cuncure
cunda
cundana
cundisio
cundisiuna
cundo
cundumi
cundusio
cunduto
cune
cunfe
cunfedera
cunfederasio
cunfere
cunferma
cunferme
cunfesa
cunfesio
cunfi
cunfide
cunfina
cunfo
cunfro
cunfru
cunfu
cunfus
cungiunti
cungre
cuni
cunningham
cuno
cunpa
cunpagn
cunpartimaint
cunpo
cunque
cunquista
cunquiste
cunsacra
cunsacre
cunse
cunsegue
cunservado
cunservato
cunsgna
cunsgne
cunsi
cunsidera
cunsiderasio
cunsidere
cunsidre
cunsilie
cunso
cunsula
cunsule
cunsuna
cunta
cuntade
cuntagia
cuntamina
cuntata
cunte
cuntenido
cuntgnu
cunti
cuntine
cuntinenta
cuntinta
cuntinte
cuntinua
cuntinve
cunto
cuntra
cuntraba
cuntre
cuntribu
cuntro
cuntrula
cunume
cunusi
cunve
cunvi
cunvinsio
cuomo
cuore
cuori
cup
cupa
cupe
cupena
cuperti
cupia
cupio
cur
cura
curavit
curdo
cure
curi
curia
curido
curie
curio
curiosity
curna
curne
curni
curnuva
curo
curran
curs
cursa
curse
cursi
cursif
curt
curta
curte
curti
curtis
curtiz
curtla
curtmagiu
curtumetra
curva
curvi
cus
cusack
cusche
cuse
cusi
custa
custitusio
custo
custre
custri
custru
custrui
custrusio
custu
cut
cuto
cutu
cva
cvetana
cvi
cy
cynthia
d
da
dabo
daca
dad
dada
daddy
dadre
dafoe
dag
daga
dagl
dagli
dagni
dagno
dagospia
dahl
dahlia
dai
daily
daisley
daisy
dako
dal
dala
dale
dali
dall
dalla
dallas
dalle
dallo
dalton
dama
dame
damian
damiani
damiano
damien
dammi
damn
damon
dan
dana
dance
danceny
dancer
dancing
dand
dane
danger
dangereuses
dangerous
dani
danie
daniel
daniela
daniele
danielle
daniels
daniilidou
danima
danimarcadanime
dannati
danni
danny
dans
dansa
dante
danza
daolio
dapartu
daperto
dapest
dar
dara
darby
dare
daria
dario
dark
darkness
darko
darling
daro
darrell
darren
darse
darwin
das
dasca
dascarga
dasco
dascure
dascuri
dasfa
dasfru
dasfruta
dasfurma
dasfurtuna
dasi
daspe
daspia
daspias
daspra
dasqua
dasquacia
dasta
dastaca
daste
dastru
dat
data
database
date
dati
dato
daughter
dava
davanti
dave
davenport
david
davide
davidson
davies
davis
davoli
davs
davvero
dawn
dawson
day
days
dc
dd
ddd
ddeo
dder
ddia
ddio
de
dea
deacon
dead
deadly
deal
dean
dear
dearden
death
debbie
debito
debora
deborah
debu
deca
decade
decagone
dece
deci
decide
decime
decis
decker
decorasio
decore
decoteau
decre
ded
dedica
dediche
dedit
dedre
dedso
dee
deep
deeper
def
defini
definisio
definiti
definitivame
deftones
deg
degeneres
degh
degli
dei
del
delaney
delaware
delbert
dele
deli
delia
deliche
delinque
delirio
delitti
delitto
delivering
dell
della
dellacqua
delle
dello
delphine
delta
deluxe
dem
dement
demetrius
demme
demo
democra
demograficacambiame
demon
dempsey
demucra
demucrasi
den
denaro
deneuve
denis
denise
dennis
densite
dentar
denti
dentro
denu
denunsia
denver
denzel
deo
deodato
depeche
depo
depp
depresio
deputa
depute
der
derana
dercastelve
derek
deriva
derive
des
descarga
desco
descri
descrisio
descure
descuri
desert
deserto
desideri
desiderio
design
desire
desmond
despe
desta
deste
desti
destina
destinasio
destination
destine
destino
destiny
destra
destroy
destroyer
destruction
det
detective
determine
detroit
detto
deuce
deus
deux
dev
deve
development
devia
devil
deville
devine
devito
devo
dexter
deza
dg
dga
dge
dghi
dgi
dgiva
dgl
dgprefe
di
dia
diabe
diabo
diabolici
diala
dialatt
diale
dialet
dialete
dialett
dialetti
dialetto
diama
diamante
diamanti
diame
diamond
diamonds
dian
diana
diane
diario
diary
diav
diavolo
diaz
dic
dica
dicaprio
dice
dicembre
dicembredice
diceva
dich
dichiara
dichiarasio
dichiare
dick
dickinson
dico
dicono
dictionary
did
dida
didn
die
dieci
died
diego
diem
dies
dietro
difa
difare
dife
difensi
difenso
difera
difere
difeti
different
difficile
difi
dificolte
difu
difus
dig
diga
digeri
digita
digital
dignita
diis
dil
dillon
dime
dimensio
dimensione
dimisio
dimitri
dimmi
dimo
dimondi
dimustra
din
dinara
dinasa
dinner
dino
dinte
dinto
dio
dioces
diocesi
dioecesis
diogene
dione
dipartime
dipe
dipende
dipi
diplo
diploma
dipluma
dir
dira
dire
diresio
diretame
direto
diretta
diri
dirigi
diritti
diritto
dirk
diro
dirt
dirty
dis
disc
disco
discogs
discovery
discu
discugra
discugrafi
discusio
discute
dise
disease
disgna
disgnado
disgne
disintegration
disio
disiona
disiuna
disney
dispe
disperasio
displaystyle
dispo
disprefe
dispuni
dispus
diss
disse
dista
distre
distret
distretto
distretua
distribui
distribusio
distru
distrusio
distu
dit
dita
ditado
dito
diu
diuni
diva
dive
diventa
diversi
diverte
diverti
divertime
divi
divide
dividi
divis
divisio
division
divo
divorzio
divursia
dix
dixie
dixit
dizionario
dizzionario
dj
django
dl
dla
dli
dlno
dma
dman
dmanda
dmande
dmandi
dme
dn
dna
dnacomu
dnacumu
do
doc
doctor
docufiction
docume
dodeca
dodecagone
dodice
does
doesn
dog
dogs
doha
doing
dokic
dolce
doll
dollar
dollari
dolly
dolo
dolor
dolore
dolores
doltraverse
dom
domani
dome
domenica
domenico
domi
domini
dominic
dominika
dominique
domino
dominus
don
dona
donald
donaldson
donatella
donati
donca
done
donizone
donna
donne
donnell
donner
donnie
dono
donovan
dont
doom
door
doors
dop
dopmezde
dopo
doppia
doppio
dor
dora
dorelli
doris
dorme
dormi
doro
dorothy
dos
dossier
dote
dots
dottor
dou
douard
double
doubt
doug
douglas
dov
dove
down
downey
downing
doyle
dr
dra
dracula
drag
drago
dragon
drake
drama
drana
dre
dream
dreams
dress
dressed
drew
dri
dric
drink
drit
drita
drive
driver
dro
droga
drogueria
drop
drova
drove
drowning
dru
drua
drue
druga
drugolo
druva
druve
dry
ds
dsa
dsca
dscargale
dscue
du
dua
duane
dubai
dubbio
dube
dubi
dubli
duca
ducato
ducci
duccio
duche
ducia
ducume
ducumenta
dude
dudley
due
duff
duffy
dugan
dui
duke
dul
dulce
dule
dulgheru
dulko
dulo
dum
dumbledore
dume
dumi
duna
dunasio
dunate
duncan
dune
dunle
dunne
dunque
duo
dupiado
dupont
duque
dur
dura
duran
durant
dure
duri
durium
durmi
durmire
duro
dus
dust
dustin
duta
duto
duture
duv
duvall
duve
duvi
duvre
duvu
dva
dvanta
dvd
dve
dvi
dvinta
dvintara
dvinte
dvinti
dwight
dying
dylan
dynasty
e
each
eagle
earl
early
earth
east
eastbourne
eastwood
easy
eat
ebra
ebre
ec
ecc
ecce
ecco
ech
econo
economi
ecstasy
ecuno
ecunumi
ecusio
ed
eda
edda
eddie
eddy
edel
eden
edgar
edge
edicions
edifi
edili
edisio
edit
edith
edition
edito
editora
editore
editori
editoriale
editrice
edizione
edizioni
edl
edla
edmund
edna
edoardo
edouard
edtv
edu
eduardo
educac
educasio
education
educazione
edward
edwards
edwige
efe
effect
eg
ege
egh
egi
egisia
egl
egli
ego
eh
ehi
ehmig
ei
eight
eileen
ein
einaudi
einstein
eintcinqua
eintde
eintderse
eintdes
eintdo
eintdu
eintessantadu
eintessantano
eintessantaqua
eintessantase
eintessanto
eintessantu
eintestantase
eintno
eintnova
eintnovantadu
eintnovantaqua
eintnovantase
eintnovantasi
eintnovantatri
eintnovantu
eintqua
eintquara
eintquarantase
eintquato
eintqui
eintse
eintsi
eintsinquantase
eintssa
einttre
einttreintase
eintu
eintuta
eintutantaqua
eintutantase
eintve
eintveintse
ej
ekaterina
el
ela
elaine
elande
elci
elder
ele
electric
elefa
elega
elektra
eleme
elemente
elementi
elena
elenche
eleni
eleonora
elephant
elesio
eleto
eletro
eletura
eleven
elf
eli
elia
elias
elico
elimina
elina
elio
elisa
elisabeth
elisabetta
elise
elizabeth
ella
elle
ellen
elles
ellie
elliot
elliott
ellis
elm
elsa
else
elt
elton
elvira
elvis
em
email
emanuele
emanuelle
embrio
eme
emeja
emerson
emi
emiglia
emiglianabesti
emiglie
emijan
emijana
emilia
emiliaed
emiliana
emiliano
emilianota
emilio
emily
eminem
emisfe
emma
emmanuel
emmanuelle
emmy
emosio
emozione
empire
empty
en
ena
enadeca
enadecagone
enagone
enan
enciclopedia
enciclopedico
enciclupedi
encino
enclave
encore
encyclopedia
end
endeca
endecagone
endrigo
ends
ene
enemy
energe
energi
enfant
engels
england
english
englund
enigma
enkova
enn
ennio
eno
enough
enrico
enrique
ensiclupedi
enta
entado
entame
entasio
ente
enter
entertainment
entra
entre
entries
entumo
enza
enzo
ep
epelova
ephron
epic
epis
episcupa
episo
epistole
equazia
equili
equipa
er
era
erakovic
eran
erano
eravamo
erba
ercole
ercoli
ere
eredita
eredite
eren
erga
ergo
eri
eric
erickson
erik
erika
erin
ernest
ernesto
ernst
ero
eroe
eroi
eros
erp
errani
ertaluse
erui
erzego
erzegovinabosnia
es
esa
escape
escola
escri
ese
esorcista
espan
espe
especial
esperi
esperie
esperii
esperime
espi
esplemente
esplus
espone
esposito
espresio
esprit
espune
espus
essa
esse
essendo
essential
esser
essere
est
esta
estado
estate
este
estevez
esti
esto
estoniaesta
estr
estra
estre
esturi
et
eta
etadeca
etadecagone
etagone
etc
ete
eter
eterta
ethan
ethel
ethnologue
etiam
etiche
etimo
etimologico
etra
etro
ettore
eu
eucli
eugene
eugenia
eugenie
eugenio
eule
euro
eurodance
europa
europaeuropaeuropaeuropa
europe
europea
european
europeo
eurovision
ev
eva
evan
evans
evclide
eve
evelyn
even
evening
ever
everett
every
everybody
everyone
everything
evide
evidence
evil
evina
evlu
evna
evolution
evoluzione
evro
evrope
ewan
ex
exainpi
exciter
exit
experience
express
extended
extra
extreme
eye
eyes
ez
ezegovinabosnia
ezio
ezrin
f
fa
fabbi
fabbri
fabbrica
fabbrici
fabbrico
fabio
fabra
fabriche
fabrizio
fac
faccia
faccio
face
facebook
faceva
faci
facia
facil
facile
facilme
facit
facolte
factor
factory
faculdade
fade
fadi
faenza
fafa
fag
faga
faghe
fai
fair
faire
fait
faith
falco
fali
falime
falk
fall
fallen
falling
falls
fals
false
falte
fam
fama
fame
fami
famiglia
famiglie
famija
family
famo
famosi
famous
famu
fan
fana
fanno
fans
fant
fanta
fantas
fantasie
fantasienti
fantasma
fantastic
fantastico
fantasy
fanto
far
fara
fare
farfallaparpa
farga
fari
farina
farini
faris
farley
farma
farmaci
farmer
farne
faro
farrell
farrelly
farrow
farva
fas
fasa
fascination
fascino
fase
fasi
faso
fassbinder
fast
faster
fasti
fasule
fat
fata
fatal
fatale
fate
father
fati
fato
fatoris
fatt
fatta
fatti
fatto
fattori
fattoria
fatu
fature
fausto
fava
favo
favore
favra
favreau
favure
favuri
fbi
fe
fear
feat
featuring
febbraio
febbraioferve
febbre
fece
fecit
fed
fedde
fede
fedelte
federa
federal
federasio
federe
federer
federica
federici
federico
feed
feel
feelgood
feeling
feels
feet
fein
fel
felghe
feli
felice
felici
felicia
felicita
felix
fell
fellina
fellini
felo
feltrinelli
feltrino
femini
femme
femmes
femmina
femmine
femna
femni
fen
fend
fenech
feno
fer
fera
ferdinand
ferdinando
ferguson
feri
ferma
fermat
fermata
ferme
fermo
ferna
fernandel
fernando
ferove
ferovia
ferrante
ferrara
ferrari
ferrer
ferreri
ferrero
ferrini
ferro
ferrovie
ferruccio
ferve
ferzan
festa
feste
festege
festegia
festi
festival
festivalbar
feudo
feva
fevdata
fevde
fever
few
fi
fia
fiaca
fiat
fibonacci
fibra
fibri
fic
fica
fich
fichi
ficia
fiction
fida
fide
fidel
fides
fidu
fie
field
fields
fiera
fig
figa
figgis
fighi
fight
fighter
fighting
figli
figlia
figlie
figlio
figu
figura
figurate
figure
fil
fila
filade
filadu
filderstadt
file
files
filho
fili
filippi
filippo
filius
fille
film
filma
filme
filmhorror
filmtv
filmugrafi
filo
filos
filosofi
filosofia
filus
fin
fina
final
finale
finali
finalme
finalmente
finansia
finansiame
finch
finche
fincher
find
fine
finestra
finestre
fingers
fini
finira
finita
finla
finlande
finlandiafinle
fino
fint
finta
finzi
fio
fior
fiore
fiorentino
fiori
fiorino
fire
firehouse
firenze
firma
firme
first
fis
fisa
fisarmonica
fisc
fise
fish
fisher
fisico
fist
fit
fitu
fitz
fitzgerald
fiu
fiule
fium
fiume
fiumi
fiura
fiure
fiurinso
five
fivza
fizzarotti
fił
flame
flash
flashback
flavia
flavio
fle
fleder
fleischer
fleming
flesh
fletcher
fleur
fli
flies
flight
flint
flipkens
flo
floor
flop
flor
flora
florence
flores
florestano
florinda
flower
flowers
floyd
fly
flying
flynn
fne
fnil
fno
fo
focus
fog
fogliani
fognini
foij
foley
folk
folle
follia
follow
fond
fonda
fondamente
fondo
fonit
fontana
fontvi
foo
food
fool
foot
football
for
fora
foravi
forbes
forbs
force
ford
fore
forest
foresta
foretz
forever
forget
forli
forma
forman
formasio
forme
formi
formicafurmi
formula
forno
forque
forrest
forrester
forsa
forse
forsi
forster
fort
forte
forti
fortuna
fortune
forum
forza
fosdino
fossa
fosse
fossi
foster
foto
fotografe
found
foundation
four
fowley
fox
fr
fra
frac
frade
fradle
frammenti
frampu
fran
franc
franca
france
frances
francesca
francesco
francese
francfo
franchi
francia
franciafra
francis
francisco
franck
franco
frank
frankenheimer
frankenstein
frankie
franklin
fransa
franse
franz
franza
franzais
frara
frare
fras
fraser
frasio
frasnu
frate
fratelli
fratello
frau
frazia
frazionive
fre
freak
frears
fred
freddie
freddo
freddy
frederick
free
freedom
freeman
frehley
french
freque
frequenta
frequente
fretta
fri
fria
frica
frida
friday
fridi
friedkin
friedman
friedrich
friend
friends
frigo
fritz
fro
from
front
fronte
frost
fru
fruit
frunte
frusta
frut
fruta
frutt
fs
fu
fuck
fucking
fuel
fuga
fuit
fuja
fuje
fulci
fule
full
fuller
fulmina
fum
fuma
fume
fun
funa
funda
fundado
fundame
fundamente
fundasio
funde
fune
funera
funeral
funerale
funny
funs
funsio
funsiona
funsioname
funsione
funsiuna
funta
funtana
funtanle
funzia
fuoco
fuori
fuqua
fur
furaste
furba
furca
fure
fureur
furgunse
furia
furie
furious
furle
furma
furmasio
furme
furmgna
furmi
furminto
furne
furni
furo
furse
furt
furte
furtificasio
furtifiche
furto
furtu
furtuna
fury
fus
fusgna
fuso
futo
futu
futugra
futugrafi
future
futuro
g
ga
gabe
gabriel
gabriele
gabriella
gabrielle
gaburro
gacon
gacy
gado
gadu
gae
gaetano
gaev
gaformi
gafurmi
gaga
gaglie
gagna
gail
gaje
gal
gala
galanto
galavro
gale
galere
galeri
gali
galileo
galina
gallagher
galleria
galli
gallica
gallinagale
gallo
galloga
gallone
gallup
galo
galumagalume
galume
gamba
gambe
gambi
game
games
gan
gana
gang
gangster
gar
gara
garage
garanti
garbage
garbin
garci
garcia
garde
garden
gardner
garfagna
garfagnana
garfield
gari
garibaldi
gariboldi
garmi
garrett
garrigues
garrone
garros
garry
gary
garzanti
gas
gasa
gaso
gaspare
gastein
gat
gata
gate
gates
gati
gatta
gattatico
gatti
gatto
gattoga
gaudio
gava
gave
gavin
gay
gaynor
gazinze
gazo
gazzaga
gazzetta
ge
geffen
gein
gele
gelo
gelus
gemma
gen
gene
genera
general
generale
generalme
generasio
generation
genere
genero
genesis
genevie
genio
genito
genitori
gennaio
gennaiozne
gennaro
genova
gens
genta
gente
genti
gentile
geo
geoff
geoffrey
geogra
geometri
georg
george
georges
georgia
ger
gerais
gerald
geraldine
gerard
gerardo
gere
germa
germain
germania
germaniagerma
germi
gerry
ges
geso
gesti
gestio
gesu
get
gets
getting
gg
gga
ggin
gglia
ggn
ggna
ggnacmo
ggni
gh
gha
ghe
ghel
ghelmuntcro
ghen
gher
gherardini
gherma
ghi
ghiaccio
ghibele
ghidiso
ghigna
ghigni
ghil
ghirlande
ghli
ghost
ghosts
ghta
gi
gia
giache
giacomo
giada
giallo
gian
giancarlo
gianfranco
gianluca
gianna
gianni
giannini
giapo
giapune
giarde
giardine
giardino
giaro
giasa
giase
gibson
gic
gica
gich
gichi
gift
giga
gige
gigi
gigolo
gil
gilbert
gilberto
gilda
gill
gilles
gillespie
gillette
gilliam
gime
gimme
gin
gina
ginano
gine
gineco
ginger
gini
ginny
gino
gint
ginta
gio
giocattoli
giochi
gioco
gioia
giometri
giordani
giordano
giorgi
giorgia
giorgio
giornale
giornata
giornate
giorni
giorno
giovan
giovane
giovani
giovanna
giovanni
giovannino
giovede
giovedi
gioventu
gir
gira
girard
gire
girl
girls
giro
girolami
girolamo
gisela
gita
giu
giua
giudi
giudisia
giudizio
giugno
giugnozo
giulia
giuliana
giuliano
giulietta
giulio
giumetri
giungla
giuni
giunsio
giura
giurame
giuri
giurisprude
giurna
giurnale
giurnali
giurnalista
giurne
giusa
giuseppe
giust
giusta
giuste
giusti
giustisia
giustizia
giuvide
giva
give
gl
gla
gladiatore
glasgow
glass
glauco
glen
glenn
gli
glia
gliaita
glian
gliana
glo
global
globe
gloria
glory
glossary
glover
gmag
gn
gna
gnaesta
gnagerma
gnai
gnal
gnaleta
gnalitua
gnamaz
gnan
gnanc
gnanca
gnapulo
gnar
gnara
gnare
gnaspa
gnaspe
gnasura
gne
gnen
gnend
gner
gnes
gngiu
gni
gnint
gninta
gnir
gnira
gniva
gniven
gno
gnra
gnragnra
gnu
gnuda
gnzuign
go
god
godard
gods
goes
goethe
goffredo
goggi
goia
goin
going
gol
gola
golan
gold
goldberg
golden
goldwyn
goli
gon
gone
gonna
gonza
gonzaga
good
goodbye
goodman
goods
google
gop
gor
gora
gordon
gore
gorini
gosnell
got
gothic
gotta
gould
governo
govorcova
goya
gr
gra
grace
gradi
graeme
graf
grafa
grafar
grafi
grafica
gragna
graham
gram
grama
grammy
gran
grana
granaro
grand
granda
grande
grandes
grandi
grandidizionari
grandio
grane
granfgna
granfi
granger
grano
grant
grape
grapigrapegurapigra
gras
grasa
grasi
grasia
grass
grata
gratace
gratia
gravda
grave
gray
grazia
graziano
grazie
gre
great
greatest
greci
greciagre
greco
green
greenaway
greene
greenwich
gref
greg
gregg
greggio
gregori
gregoria
gregorian
gregorio
gregorius
gregory
gregurian
gremlins
greta
grevda
grey
gri
grido
griffi
griffin
griffith
grifondoro
grigio
grillo
grillogre
grimaldi
grind
grinte
gris
griz
gro
grombacher
groove
grop
gropp
gros
grosa
grosso
ground
group
grove
grow
gru
grugn
grunge
grup
grupare
gruppo
gta
gu
gua
guada
guadagna
guai
gualte
gualtieri
guangxi
guarda
guardare
guarde
guarder
guardia
guardian
guardo
guareschi
guari
guasta
guastalla
guatemala
guccini
guci
gudio
gue
guerie
guerna
guerra
guerre
guerrieri
guerriero
guest
guevara
guez
gugio
guglielmo
gui
guicciardini
guida
guide
guido
guidotti
guilin
guillaume
guillermo
guilty
guit
guitar
gul
gula
guldo
gule
gulgula
guma
gumi
gun
gunn
guns
gunza
gur
gura
guri
guru
gus
gusa
gust
gusta
gustavo
gusto
gutie
guve
guvernado
guy
guys
gve
gvernado
gverne
gvido
gvit
gwyneth
gypsy
h
ha
habet
hackford
hackman
had
hai
hair
hal
hale
halen
halep
half
halford
hall
halloween
hallstro
hamburger
hamilton
hamlet
hammer
hammersmith
hammett
hammond
hampshire
hampton
han
hancock
hand
hands
hang
hanging
hank
hanks
hann
hanna
hannah
hannibal
hanno
hannon
hans
hansen
hanson
hantuchova
happened
happy
harald
harbour
hard
harem
harley
harold
harper
harriet
harrington
harris
harrison
harry
harshad
hart
hartley
hartman
harvard
harvey
has
hassan
hat
hate
hathaway
hauser
hava
have
haven
having
hawaii
hawk
hayden
hayes
haynes
he
head
heading
heads
health
hear
heard
heart
heartbreak
hearts
heat
heather
heaven
heavy
heckerling
heidi
heinz
held
helen
helena
hell
hellion
hello
hellraiser
helmut
help
henderson
hendrix
henin
henri
henry
hepburn
her
herbert
herbie
hercog
here
herek
herman
hermann
hero
heroes
hertogenbosch
hetfield
hewitt
hey
hi
hic
hicks
hide
higgins
high
higher
highway
hilda
hill
hillary
hiller
hills
hilton
him
hingis
hip
his
histo
histoire
historia
history
hit
hitchcock
hitler
hits
hlava
hlavova
ho
hobart
hoc
hockey
hoffman
hoffmann
hogan
hold
holden
holding
hole
holes
holiday
holland
hollande
hollow
holly
hollywood
holmes
holocaust
holstein
holt
holy
home
homer
hominem
homines
homme
hommes
homo
honda
honey
hong
honor
honore
hood
hook
hooper
hop
hope
hopkins
hopper
horace
horizonte
horn
horrible
horror
horse
horsemen
horses
hoskins
hospital
hostel
hostess
hot
hotel
hotter
hour
hours
house
houston
how
howard
hradecka
hsieh
html
http
https
hu
huang
hubert
hudson
hugh
hughes
hugo
hulk
hull
human
hundred
hunger
hungry
hunt
hunter
hunting
huppert
hurricane
hurt
hussein
hustle
huston
hute
hutton
hyams
hyde
i
ia
iacruaziacrua
iafo
iame
ian
iana
ianca
iaparpajaparpa
ibarsa
ibe
ibi
ibidem
ibisio
ic
ica
ice
icf
ich
iche
ichi
ici
icos
icune
id
ida
idabiga
idaho
ide
idea
idee
idem
identita
identity
idi
idio
idla
ido
idol
idra
idro
ie
iene
ieri
if
ig
iggy
igh
iglesia
iglesias
iglia
ign
ignazio
igo
igor
ih
ii
iii
il
ila
ilario
ile
ili
ill
ille
illino
ils
iluj
ilumini
ilus
im
ima
image
imagina
imaginary
imaginasio
imagine
imbambi
imbar
imbara
imbardic
imbaria
imbariago
imbarnove
imbarse
imberie
imbro
imdb
imigra
imita
imitasio
immagini
imp
impa
impalcadu
impar
impara
impare
impars
impcanbiama
impe
impedi
imper
imperado
imperatore
imperfe
imperie
impgna
impgne
impi
impia
impica
impidi
impie
impiega
impieghe
impini
impisa
impo
importa
important
importante
impossibile
impossible
impre
imprendido
imprendito
impres
impresio
imprufi
impruvi
impune
impurta
impurtant
impurtanta
impurtantbibliografia
impusi
imubilia
imunita
in
ina
inagale
inamo
inamura
inamure
inarundane
inaucrainaucre
inavgurasio
inavgure
inbiga
inc
inca
incante
incariche
incasa
incastra
ince
inch
inci
incia
incide
incio
incis
inciulda
inco
incontri
incontro
incora
incredibile
incro
incrus
incu
incubo
incula
incuntra
incuntre
incurune
ind
inda
indaga
indagine
indi
india
indian
indiana
indica
indicati
indiche
indios
indipende
indiri
indispensa
indivi
indo
indovina
indovv
indre
indro
indu
indume
indurminsa
industria
industrial
industrie
ine
inez
infa
infarme
infe
infedele
inferme
inferna
infernale
inferno
infesio
infi
infia
infin
infini
infinta
influ
influe
infnucia
info
informa
informasio
informazioni
infurma
infurmasio
infurtu
inga
ingana
inganno
inge
ingh
inghilte
ingiangula
inglais
ingle
ingo
ingre
ingredie
ingrid
ingua
ini
inizialmente
inizio
inn
innamorato
innine
innocent
innocenti
innocentius
innocenza
innuendo
ino
inp
inpare
inpe
inper
inpi
inporta
inpurta
inpurtant
ins
insa
insacumu
insamm
insan
insapla
inse
insegno
insen
insfi
insfilsa
insgna
insgname
insgne
insi
insia
inside
insieme
insimini
inso
inson
instinct
institute
institutione
instituto
instrumental
insu
insunia
int
inta
intadu
intaje
intano
intao
intar
intase
intau
intcinqua
intdu
inte
integer
inteletua
intelige
inteligi
inten
intensio
inter
intere
interesa
interese
interme
internasione
internasiuna
internasiune
international
internazionale
interne
internet
interpreta
interpretasio
interprete
interprogetto
interugato
interva
interve
intervi
interview
intervista
inti
intitula
intitule
intla
intnova
into
intoccabili
intorno
intqua
intquara
intr
intra
intrapla
intre
intric
intrighi
intrigo
introdusio
intse
intsi
intssa
inttre
inttri
intu
intuta
inu
inuse
inutile
invas
invasio
invasion
inve
invece
invensio
invente
invento
inverno
investigado
investigation
invi
invia
invida
invide
invie
invinta
invinte
invis
invisti
invistidu
inza
inzgne
io
ioannes
iod
iola
iommi
iommla
iotti
iowa
ipa
ipercoop
ipermarche
ipotenu
ippolito
ipse
ipsum
ir
ira
ire
irene
iri
irina
iris
irla
irlandairle
irlande
irma
iro
iron
irvin
irving
irwin
is
isa
isaac
isabel
isabella
isabelle
isbn
iscre
iscri
ise
isio
isla
island
islandaislandaislandaislanda
isn
iso
isola
ispa
ispeto
ispira
ispirasio
ispire
israel
ist
ista
istat
iste
ister
isti
istitu
istitusio
istituto
istituzionalesi
istrusio
it
ita
itado
itaglia
itaglian
itagliana
itaglie
itaja
itajan
italia
italiaita
italian
italiana
italiane
italiani
italiano
italici
italie
italo
italy
ite
itf
iti
its
iu
iudex
iupta
iure
iuris
ius
iv
iva
ivan
ivanovic
iven
iveta
ivory
ix
izia
j
ja
jack
jackie
jackson
jacob
jacobs
jacopo
jacqueline
jacques
jacquot
jade
jaeger
jaime
jake
jakimava
jam
jamais
james
jamie
jan
jana
jane
janeiro
janet
janice
jankovic
jannacci
japan
japanese
japarpa
japonica
jar
jared
jarman
jaroslava
jason
jasper
javier
jay
jayne
jazz
jcune
jcurne
je
jean
jeanette
jeanne
jeans
jed
jeff
jefferson
jeffrey
jekyll
jelena
jenkins
jenner
jennifer
jennings
jenny
jensen
jeremiah
jeremy
jericho
jerry
jersey
jesse
jessica
jessie
jesu
jesus
jet
jewison
jfk
ji
jie
jigsaw
jill
jim
jimi
jimmy
jja
jlu
jo
joa
joan
joanna
joanne
joaquin
job
jocelyn
jockey
jodie
joe
joel
joey
joffe
johann
johanna
johannes
johansson
john
johnny
johnson
johnston
join
jolie
jolly
jon
jonah
jonas
jonathan
jones
jordan
jordi
jordy
jorge
jose
joseph
josh
joshua
joss
jour
journal
journey
jovanotti
jovanovski
jovi
joy
joyce
jpg
jr
ju
juan
judas
judd
jude
judge
judith
judy
jugus
juke
jules
julia
julian
juliana
julianne
julie
julien
juliet
julieta
juliette
julija
julio
julius
jump
june
jungle
junior
jurassic
juris
jus
just
justice
justin
justine
juta
jute
juventus
k
ka
kabuto
kai
kaia
kane
kanepi
kanga
kansas
kant
kanye
kaplan
karate
kardashian
karel
karen
karin
karl
karoli
kasdan
kat
katarina
kate
kateryna
katherine
kathleen
kathryn
kathy
katia
katie
katowice
katrina
kaufman
kay
kazan
keanu
keaton
keep
keitel
keith
keller
kelly
ken
kendall
kennedy
kenneth
kenny
kent
kentucky
kerber
kerry
kerslake
kessler
kevin
key
keys
khan
ki
kick
kid
kidman
kids
kika
kiki
kill
killer
killers
killing
kills
kilo
kim
kimberly
kimiko
kimmel
kind
king
kingdom
kings
kingsley
kinney
kinski
kirby
kirilenko
kirk
kirsten
kiss
kissed
kisses
kitty
kla
klan
klaus
kle
klein
klux
km
kmq
knapp
knees
knew
knight
knights
know
known
knows
knox
ko
koenig
koine
koll
kong
korn
kos
koukalova
kova
krab
krabs
kramer
kris
kristen
kristin
kristina
krueger
krumm
krusty
ku
kuala
kubrick
kuc
kuiper
kulick
kumar
kurt
kuznecova
kv
kvitova
kwapis
kyle
kylie
kyo
l
la
labeouf
labiri
labirinto
laburato
laburi
lacrime
lada
lade
ladies
lado
ladra
ladri
ladro
ladu
lady
laga
lagh
laghe
lago
laguna
laingua
laingv
lake
lakhal
lalo
lalus
lam
lama
lambert
lamberto
lambro
lambrusco
lame
laminta
lamp
lan
lana
lance
land
landau
landi
landis
lando
lane
lang
lange
langhira
langua
language
languages
languv
lanta
laprilavri
lar
lara
larga
larger
larghe
largo
lario
larry
lars
larson
larsson
larva
larvi
las
lasa
lasara
lascia
lasciare
lascio
lase
lasen
lasi
lasinsa
lasse
last
lat
late
latena
latere
laterza
lati
latin
latina
latino
lato
latte
lattuada
lau
laugh
laura
laure
laurea
lauren
laurence
laurent
laurenti
laurie
lava
lave
lavigne
lavo
lavora
lavorare
lavori
lavoro
lavura
lavurado
lavurasio
lavure
lavuri
lavurse
law
lawrence
lay
layne
lazigalasicalazigala
lazzaro
lb
lba
lbar
lber
lbum
lc
lca
lcava
lch
lchi
lcol
ld
lda
ldi
ldich
le
lea
lead
leader
leaf
league
leandro
leather
leave
lecch
lecter
led
lee
left
leg
lega
legacy
lege
legem
legend
legge
leggenda
leggiparametro
leggiparametrotemplate
legh
legio
legis
legno
legs
lei
leigh
leipzig
lelio
lelouch
lem
lemmy
len
lena
lengua
lengva
lenin
lennon
lenny
leno
lenzi
lenzuolo
leo
leon
leonard
leonardo
leone
leoni
leopoldo
lepchenko
lepido
lepreca
leprechaun
leprele
lernia
leroy
les
lesgna
lesio
leslie
lester
let
letera
leteratu
letere
leto
letro
lett
letter
lettera
letteratura
lettere
letters
letto
lettonialeta
lettra
lettri
letu
leur
lev
levante
levi
levin
levinson
levy
lewinsky
lewis
lex
lexington
ley
lez
lezioni
lf
lfia
lg
lga
lgalga
lgapo
lgara
lgebra
lgi
lgibe
lgre
lgrilgre
li
lia
liaisons
liaita
liam
lian
lib
libar
liber
libera
liberal
liberasio
libere
liberi
libero
liberta
liberte
liberty
libi
libra
library
libre
libreria
libri
libro
lic
lica
licao
lice
licensia
liceo
lich
lichi
licia
lick
lid
lida
lie
liebe
liechtensteinliechtensteinliechtenstein
lies
liev
life
lifrazio
lig
liga
ligabue
lighe
light
lightning
lights
ligna
ligonchio
ligu
like
lila
lili
liliana
lilli
lilly
lily
lima
limite
limiti
limits
limo
lin
lina
lincoln
linda
lindsay
line
linea
lines
linfa
lingua
lingue
lingui
lingva
link
linkin
linklater
lino
linso
linz
lio
lion
lionel
lionello
lips
liquo
lira
lire
lis
lisa
lisicki
list
lista
liste
listen
lit
lita
lite
literadu
literalme
literatura
litfiba
litga
little
litua
lituanialitua
liv
live
liverpool
lives
livia
livin
living
livio
lix
liz
liza
lizzani
ll
lla
lle
ller
lli
llmulmo
lloyd
llpavo
lls
lm
lma
lmer
lmo
lo
loaded
loc
localite
loche
locked
loco
locus
locusio
lod
lodi
lodigiano
lodovico
log
logan
logari
loi
lois
lol
lola
lolita
lom
lombardia
lombardo
london
londra
lone
lonely
long
longa
longanesi
longbottom
longo
longobe
lontano
look
lookin
looking
looks
loomis
lope
lopez
lor
lord
lords
lore
loredana
loren
lorena
lorenza
lorenzo
loretta
lori
loris
lorna
loro
lorraine
los
loschi
lose
losey
lost
lot
lotaringia
lotta
lou
loud
louis
louise
lourdes
love
loved
lovely
lover
lovers
loves
lovesong
lovin
loving
low
lowell
loy
lp
lpa
lpalpastre
lpamusa
lpamuso
lpapastre
lpi
lpo
lportuga
lpvo
ls
lsa
lsan
lsapulsapo
lsaso
lsi
lsse
lt
lta
ltan
ltar
ltaroltaroltarol
ltel
ltem
lter
lti
ltica
ltim
ltma
ltricase
lturi
lu
luc
luca
lucas
luccketta
luce
luceria
lucertola
lucertolaarzinte
luche
luchino
luci
lucia
luciana
luciani
luciano
lucie
lucien
lucille
lucio
lucius
luck
lucky
lucrezia
lucy
ludovico
ludwig
lug
luga
lugh
lughe
luglio
lugliolo
luhrmann
lui
luigi
luigia
luis
luisa
luj
luja
luke
lula
luli
lullaby
lulu
lum
luma
lumacalume
lumba
lumbarde
lumbardi
lumbardia
lumbe
lume
lumet
lumina
lumpur
luna
lunbardi
lunbardie
lunbe
lundine
lune
lunede
lunedi
lung
lunga
lunghe
lunghi
lungo
lungube
lungumetra
lunigia
lunigiana
lunta
luntana
luntane
lunte
lunze
luoghi
luogo
lupa
lupi
lupin
lupo
lupolo
lupus
lur
lure
lus
luse
lussembu
lussemburgolussembu
lusu
luta
lutado
luther
luva
luve
luzoo
luzzara
lv
lva
lvar
lvio
lvra
lydia
lying
lynch
lyndon
lyne
lynn
lynne
lyon
lzigne
m
ma
mac
macaro
macchia
macchina
macdonald
mace
macedoniamaz
macgregor
machete
machina
machine
maci
macia
mackenzie
macron
mad
madama
madame
maddalena
madden
made
madea
madeleine
madeline
madison
madman
madness
mado
madonna
madre
madri
madrid
mads
madsen
madu
mae
maesta
maestro
mafio
mag
maga
magas
magazine
magda
magdale
magdalena
maggie
maggio
maggioma
maggiore
magi
magia
magic
magio
magis
magister
magistra
magiura
magn
magna
magnacava
magnado
magnani
magne
magni
magnitu
magno
magnum
magnus
mago
mai
maia
maiale
maialenime
maiden
mail
main
maine
maio
maior
mais
maison
maja
maje
majo
majoli
major
majurdo
makarova
make
makes
makin
making
mal
mala
maladi
malago
malagoli
malalbe
malate
malati
malcolm
malden
male
maledetta
maledetto
maledisio
maledizione
malfatti
malfoy
mali
malick
malkovich
malle
malne
malo
malone
malpelo
malta
maltamaltamaltamalta
malum
malvestiti
malvlunte
mama
mambo
mami
mamma
man
mana
manager
manalishi
manare
manc
manca
mancame
manchester
mancia
mancini
mand
manda
mandare
mandatory
mande
mandi
mandy
mane
manfre
manfredi
manfredini
mangia
mangiare
mangold
manhattan
manhunter
mani
manibus
manico
manife
manifesta
manifestasio
mankiewicz
manlio
mann
mano
mans
manse
manson
mante
mantgni
mantgnu
manti
mantova
mantovano
mantua
mantv
mantva
manu
manuale
manuel
manuela
manuscri
many
manzoni
map
mar
mara
marane
marango
marati
maravi
marbella
marc
marca
marcaden
marcari
marcel
marcello
march
marche
marches
marchese
marchi
marcia
marco
marconi
marcos
marcus
mare
marecia
maremma
maresia
margaret
margherita
margheriti
margo
margot
marguerite
mari
maria
marian
mariana
mariangela
marianna
marianne
mariano
marie
marigne
marija
marijuana
marilyn
marin
marina
marine
marines
marini
marino
marinosan
mario
marion
marisa
marito
marius
mark
marks
marle
marleen
marlene
marlowe
marmiro
maro
marola
marrakech
married
mars
marsa
marshall
marsi
marsia
mart
marta
marte
martede
martha
marti
martic
martin
martina
martine
martinelli
martinez
martini
martino
martir
martiresa
martla
marty
maru
maruche
marvel
marvin
marx
mary
maryland
marzabo
marzo
marzome
mas
masa
masado
masame
masc
maschera
maschi
maschio
mascra
mascri
mase
masi
masimame
masini
mask
masla
maslow
masmame
mason
mass
massa
massachusetts
massacre
massacro
massaro
massi
massimiliano
massimo
master
masteris
masters
mastroianni
mat
mata
match
mate
mateina
matema
mater
materia
materie
mathbb
mathematics
mathieu
mathildis
mathworld
mati
matilda
matilde
mato
matrimo
matrimonio
matrix
matt
mattei
mattek
matteo
matter
matters
matthew
matthias
mattina
mattino
matto
mattoli
maura
maureen
mauresmo
maurice
maurizio
mauro
mavre
max
maxi
maxwell
may
maya
maybe
mayer
mayr
maz
mazinga
mazor
mazursky
mazza
mb
mba
mbar
mber
mberds
mbernue
mberste
mbi
mbia
mbian
mbit
mbol
mbra
mbri
mbul
mbula
mbuli
mc
mccabe
mccain
mccarrick
mccarthy
mccartney
mcconaughey
mccoy
mcdonald
mcdormand
mceveety
mcg
mcgeoch
mcgregor
mchale
mckay
mcnamara
mda
mdaja
mdi
mdo
me
mea
meadows
mean
meaning
meat
meca
mecani
mechanical
med
mede
media
mediaset
medici
medicina
medicine
medico
medieve
medina
medio
medioe
medioeve
medioevo
meditera
mediterraneo
mediue
medium
medo
meds
medsa
meet
meg
mega
megadeth
megan
meglio
mein
mej
mel
mela
melanie
melato
melbourne
mele
melillo
melinda
melissa
melo
melt
meltdown
melvin
member
memo
memoria
memoriae
memorie
memories
memory
memphis
men
menc
mendes
meno
ment
menta
mente
mentre
menu
mer
mera
merca
mercante
merce
merche
merco
mercoledi
mercorde
mercu
mercurde
mercury
mercy
meridia
meridiem
meridione
meridiuna
meridiune
merita
merito
merle
merlome
merry
mers
mersenne
merteuil
meryl
mes
mesa
mese
mesi
mesica
mess
messa
messaggero
messico
messina
mestruasio
met
meta
metal
metallica
metallized
metar
mete
meter
meteuri
meti
metradu
metri
metro
metrupulita
metrupulitana
metrupulite
metti
meu
meusburger
meyer
meyers
mez
mezano
mezde
mezzanotte
mezzo
mezzogiorno
mi
mia
miami
mian
miari
mic
mica
mich
michae
michael
miche
michel
michela
michelangelo
michele
micheli
michelle
michi
mick
mickey
mico
micro
mid
middle
midge
midnight
midwest
mie
miei
miele
mig
miga
might
mighty
miglia
migliarda
miglio
migliore
migliori
miguel
mihi
mijo
mike
mikenes
miki
mil
mila
milan
milane
milani
milano
mildus
mile
miledu
miledus
milena
milenova
milequara
milequaters
miles
milese
mileseseintnova
mileseseintquara
mileseseintsinqua
mileseseintssa
mileseseinttre
mileseseintuta
mileseseintve
milesetseinttre
milesincseintcinqua
milesincseintnova
milesincseintquara
milesincseintssa
milesincseinttre
milesincseintve
milessa
mileters
miletre
milf
mili
milian
milio
milioni
milita
militare
milite
milk
mille
millennium
miller
million
mills
milos
milters
milton
milurde
mimi
mimmo
mimo
min
mina
minas
mincio
mincomu
mind
mindga
mine
minella
miner
minera
minerva
minestra
minetti
minga
minghe
mingozzi
mini
minise
miniserie
ministe
minneapolis
minnelli
minnes
mino
minozzo
minu
minus
minute
minutes
minuti
minuto
mio
mion
mira
mirabilibus
miracle
miracoli
miracolo
mirage
miranda
mirandule
mire
miriam
miro
mirror
mirza
mis
misa
misc
mise
misery
misi
misio
misiuna
miss
missing
mission
missione
missisi
mississippi
missouri
miste
mister
misterio
mistero
mistra
misura
mit
mita
mitch
mitchell
mite
miti
mito
mitra
mitulugi
mix
mixed
mladenovic
mm
mma
mme
mmer
mmla
mn
mna
mne
mni
mno
mo
mobile
moda
mode
model
modena
modenese
modenesi
modern
moderna
modernita
modi
modine
modna
modo
mogherini
mogli
moglia
moglie
moi
mol
moldaviamulda
mole
moles
molie
molina
molinari
molla
molly
molt
molti
molto
mom
moment
momento
mon
mona
monaco
monacomo
mond
mondadori
monde
mondi
mondie
mondo
money
moni
monica
monicelli
monique
monkey
monroe
mons
monsieur
monster
monsters
mont
montagna
montagnani
montagne
montanelli
montcru
monte
montecarlo
montecchio
montenegromo
monterrey
montescu
montessori
montgomery
montgrido
monti
montreal
monty
monume
monumentum
moon
moonrise
moore
mora
moraes
moran
morandi
more
moreau
moreno
moretti
morgan
mori
morigami
morire
morita
morning
moro
moroder
morricone
morris
morrison
morrissey
mors
morse
mort
morta
mortale
mortali
morte
mortem
morti
morto
mos
mosamba
mosca
moscamo
mosche
mosley
moss
most
mostra
motel
mother
motion
moto
mount
mountain
mouse
mouth
move
movie
movies
movimento
moving
mozart
mp
mpa
mpan
mpar
mpi
mpic
mpit
mpra
mpri
mr
mrs
ms
mtv
mu
muc
muccino
muce
much
mucia
mucla
mud
muda
mude
mudle
mudne
mugia
muguruza
muhammad
muime
muje
mula
mulcahy
mule
muli
muline
mulino
muller
mulomo
multa
multe
multi
multimediali
multiplica
mume
mummia
mummy
mun
munce
mundai
mundia
mundie
mundo
mune
munice
municipe
munsgno
munt
munta
muntane
muntaro
munte
muntecre
muntfiure
munticia
muntre
munts
munume
munz
muore
muppet
mur
mura
murado
muradu
murda
murder
mure
murfa
muri
muriel
murira
muro
murphy
murray
murs
mursa
murta
murtade
murus
murze
mus
musare
musc
musche
musculus
muse
museo
museum
music
musica
musical
musiche
mussolini
must
mustaine
mustra
musulma
mut
muta
mutande
mute
muti
muto
muve
muvime
mw
my
myers
myself
myskina
myspace
mystery
mza
n
na
nabe
nabisti
nacional
nacmo
nada
nadal
nade
nadia
nadine
naemail
nag
nagai
nagaleinagale
naigher
naighermo
nails
naked
nal
name
nan
nana
nancy
nando
nanni
nannini
nanny
nano
nantes
naomi
nap
napo
napoleo
napoleone
napoleta
napoli
napolitano
napulita
nar
narundaninaro
narvo
nas
nasa
nasalli
nasce
nascita
nasco
naser
nash
nashville
nasi
nasio
nasione
nasit
nasiuna
nasiunali
nassu
nastas
nastassja
naster
nasu
nata
natale
natalie
natasha
nate
natel
nathalie
nathan
nati
nation
national
nato
natu
natura
natural
naturale
naturalis
naturalme
nature
nav
nava
navarro
nave
navy
nazerbaigia
nazionale
nazione
nazioni
naziune
nba
nbarbagia
nbarbaza
nbc
nber
nc
nca
ncalista
ncan
ncanca
ncapo
ncar
ncarocabia
nce
ncen
nch
nchez
nchi
nci
ncia
nciapruve
ncias
ncip
nclombpizo
ncmo
nco
ncora
ncumpia
nd
nda
ndairlandairle
ndal
ndan
ndane
ndar
ndas
nde
ndech
ndechse
nden
nder
ndes
ndez
ndga
ndgasoragpo
ndghi
ndi
ndia
ndiafinlandiafinle
ndic
ndid
ndida
ndidi
ndig
ndiga
ndita
nditi
ndla
ndlala
ndli
ndo
ndpae
ndpaji
ndra
ndri
ndrom
ndrum
ndul
ndum
ne
nea
neal
neanche
near
nebbia
nebra
nec
neca
necesa
necesite
necessitas
nech
nechmo
ned
need
neg
negati
negative
negli
nego
negri
negusia
nei
neil
neill
nek
nel
nell
nella
nelle
nello
nelson
nema
nemi
nemico
nemo
nen
neo
neon
ner
nera
nerds
nere
neri
nero
nervi
nervo
nes
nessuna
nessuno
nestensio
net
neta
netu
network
neutro
nev
neva
neve
never
nevia
neville
new
newell
newman
newmar
news
newsted
newton
next
nez
nf
nfle
nfrasio
ng
nga
ngel
ngh
nghi
ngi
ngia
ngil
ngla
ngo
ngol
ngua
nguez
ngui
ngul
nguv
ngva
ngvi
ni
nia
niaarme
niabedo
nialitua
niapulo
niasluvenia
nic
nica
niccolo
nice
nich
nichi
nicholas
nichols
nicholson
nick
nickelodeon
nicky
nico
nicola
nicolas
nicole
nicoletta
nicolo
nicolodi
niculescu
nid
nido
nielsen
niente
nietzsche
nieves
nig
niga
nigel
night
nightingale
nightmare
nights
nigro
nihil
niki
nikki
nilde
nim
nima
nime
nimi
nin
nina
nine
ninfo
ninfomani
nini
ninja
nino
ninso
nio
niro
nirvana
nis
nisa
nise
nisi
nisu
nite
niversita
nivola
nixon
nlanghira
nlesgna
nme
nmedsa
nmza
nn
nna
nnd
nnda
nndi
nndicse
nnevia
nni
nnia
nniaesto
nnialetto
nniamazedo
nninetnine
no
noah
noam
nobel
nobis
nobody
noce
noe
noel
nogueira
noi
noir
noise
nolan
nolte
nom
nomadi
nome
nomen
nomi
nomina
nomination
nomine
nomm
non
nona
nonna
nora
nord
nordest
nordeste
norma
normale
norman
norme
norris
norte
north
norton
norvegianorvegianurvegianorvegia
nos
nosferatu
nostar
noster
nostra
nostri
nostro
not
nota
note
notes
nothin
nothing
noti
notizia
notizie
notorious
notre
notte
notti
nottingham
nous
nov
nova
novak
nove
novecento
novellara
november
novembre
novembrenove
novi
novse
novum
now
nowhere
noyce
noze
nozze
np
npalansa
npcambiame
nper
npi
npusisio
ns
nsa
nsafide
nsafra
nsan
nsar
nsas
nscarava
nse
nsi
nsia
nsida
nsin
nsip
nsol
nsolgna
nt
nta
ntabita
ntadu
ntae
ntafa
ntan
ntano
ntao
ntaqua
ntaquater
ntar
ntase
ntasi
ntatri
ntau
ntava
ntcampsa
ntcmo
nte
nten
nter
nti
ntic
ntica
ntisa
ntla
ntle
ntnumina
nto
ntr
ntra
ntua
ntuli
ntum
ntva
ntvo
nu
nua
nuan
nuclea
nuclee
nuda
nude
nudi
nudo
nue
nuit
nule
nulla
num
numa
number
numbers
numerasio
numeri
numero
numerorum
numi
numina
numine
numo
numquam
nun
nunc
nuno
nuova
nuove
nuovi
nuovo
nurimbe
nurma
nurme
nurse
nursing
nurve
nurvege
nus
nut
nuta
nute
nuti
nutu
nuv
nuva
nuvale
nuve
nuvite
nuvla
nuvole
nuvse
nva
nvara
nvatica
nymphomanie
nz
nza
nzafra
nzel
nzi
nzia
nziapruve
nzul
o
oakland
oaks
ob
obama
obedi
oblu
obsession
oc
ocao
occhi
occhio
ocean
ocidente
october
ocupasio
ocupe
od
odeon
odia
odile
odio
odore
oeis
of
ofe
off
offer
office
official
offspring
ofi
og
oggi
ogni
oh
ohio
ois
oise
ok
oklahoma
ol
ola
olandaulandaulandaulanda
old
older
oldoini
ole
olga
oli
oliver
olivia
olivier
oltre
om
omar
ombra
ombre
ome
omen
omicidi
omicidio
omnes
omnia
omnibus
omnium
oms
on
ona
once
onda
onde
one
online
only
onna
ono
onofrio
onore
ont
onte
onu
oo
ooh
op
open
openlibrary
opera
operasio
operazione
opere
opo
oprandi
opus
or
ora
orange
orasio
orazio
orba
orche
orchestra
orchidee
order
ordinary
ordine
ordo
ore
oreste
org
organi
organis
orgoglio
ori
orient
oriente
orietta
original
originali
origine
origini
orlando
orleans
orlo
ormaechea
ormai
ornella
oro
orsi
orsini
orso
orson
os
osbourne
oscar
ose
osi
ossa
osvaldo
oswald
ot
ota
otadeca
otadecagone
otae
otagone
ote
otello
other
others
otis
oto
otse
ottavio
otto
ottobre
ottobreoto
ottone
otu
ou
oudin
our
out
outside
outta
outtake
ova
ove
over
overdose
overground
ovest
ovvero
owen
owens
own
oxa
oxford
oz
ozon
ozzy
p
pa
pablo
pac
paca
pace
pache
pacino
paciock
paco
pada
padana
pade
pado
padre
padri
padrino
padro
padrone
padva
pae
paes
paese
pag
paga
pagame
paganini
page
paghe
pagina
paginanote
pagn
pai
paige
pain
painkiller
painted
paire
pais
paja
pajais
paji
pakula
pala
palace
palanza
palasi
palatina
palazzo
palc
pale
palermo
pali
palin
palle
pallone
palm
palma
palmer
palmo
palo
palto
paltrow
palude
pam
pamdo
pamela
pan
panama
pane
panizzi
panorama
panova
pansa
panse
panta
pantano
pantera
paola
paoli
paoline
paolino
paolo
papa
papaga
paparazzi
paparu
papastre
pape
paper
papo
par
para
paradi
paradine
paradis
paradise
paradiso
parado
parago
parai
parale
paralis
parana
parano
paranoia
paranoid
parasi
parc
parche
parco
parde
pardi
pardo
pardu
parduna
pare
parenti
parfe
parfes
parfi
parfu
parga
pari
parigi
paris
park
parker
parkinson
parks
parla
parlame
parlamenta
parlare
parle
parma
parme
parmentier
parmi
parmigiana
parmigiano
parms
paro
parochie
parodi
parola
parole
parpa
parpajo
parra
pars
parso
parson
parsona
parsu
parsua
part
parte
partecipa
partecipasio
parti
particolare
particole
particula
particule
partigia
partire
partise
partisi
partita
partu
parturi
party
paruche
parudi
pas
pasa
pasari
pasate
pasca
pascal
pase
pasege
pasi
pasie
pasio
pasiuna
pasiune
pasolini
pasqua
pasquale
pasra
pass
passa
passare
passato
passe
passenger
passeropa
passi
passion
passione
passioni
passo
past
pasta
pasti
pasto
pastore
pastu
paszek
pat
pata
pate
pater
pati
patime
patinta
patna
pato
patria
patriarca
patrice
patricia
patrick
patrimo
patrio
patrizia
patroni
patronosa
patsy
pattaya
patterson
patti
patto
patton
patty
pau
paul
paula
pauli
pauline
paulinho
paulo
paura
pavarotti
pave
pavi
pavia
pavime
pavljuc
pavo
pavrunse
pavu
pax
paxton
pay
paz
pazza
pazzi
pazzo
pc
pca
pcado
pci
pco
pcunse
pd
pdf
pe
peace
pearl
peccati
peccato
pechi
peck
pecorape
pecundri
pecunia
pedagogi
pedo
pedro
pee
peek
peel
peer
peggio
peggy
pegu
pel
pela
pelegre
pelgre
pelham
peli
pelle
pellegrini
pellegrino
pelo
pelosi
pen
pena
pene
penelope
peng
peni
penn
pennetta
pennsylvania
penny
penridge
pensa
pensare
pensieri
pensiero
pensio
pensiuna
penso
penta
pentadeca
pentadecagone
pentagonalium
pentagone
pentola
people
pepa
pepe
pepo
pepper
peppers
peppino
pequeno
per
pera
perche
perco
percusio
percy
perd
perdere
perdo
perdono
perdute
perduto
pere
perego
pereira
perfe
perfect
perfetta
perfetto
performance
pergna
peri
peria
pericolosa
pericolosi
periculo
perio
perkins
perla
perle
permane
perme
permeti
pernambuco
pero
perry
pers
persentua
persia
perso
persona
personal
personalite
persone
persua
persuna
persunalita
pert
perti
peru
perugorri
perversa
perzi
pes
pescado
pesce
pesch
pesta
peste
pet
pete
petegule
peter
peters
peterson
petit
petkovic
petnadu
petne
petra
petrarca
petri
petrie
petro
petrova
pettine
pettirossopetro
peu
peut
peyton
pez
pezzo
pgnata
ph
phane
phanie
phantom
pharrell
phenomena
phil
philadelphia
philip
philipp
philippe
philips
phillip
phillips
philosophie
philosophy
phoenix
phone
pi
pia
piace
piacenza
piacenzaal
piacere
piaci
pian
piana
pianaid
piane
pianeta
piani
piano
pians
pianta
piante
pianti
pianu
pianura
pias
piasa
piase
piaseinsacumoin
piasinte
piaza
piazza
pic
pica
piccione
piccola
piccole
piccoli
piccolo
pice
picia
pick
pico
picture
pictures
picule
piculi
pid
pida
pido
pidocchiopio
pie
piece
piedi
piedipiatti
piega
piema
piemo
piemont
piemonte
piemuntais
piemunte
pien
piena
pieno
pier
piera
pierce
piero
pierpaolo
pierre
pieta
piete
pietra
pietrangeli
pietro
pieve
pig
piga
pighe
pigs
pil
pila
pilar
pilatus
pile
pillai
pilo
pilote
pilots
pimpi
pin
pina
pine
pingitore
pingu
pini
pink
pino
pinocchio
pinotto
pinsa
pinsado
pinse
pinsi
pinti
pio
pioggia
pioto
piper
pipistrelloparpastre
pipolo
pippa
pippi
pippo
pir
pira
piramide
pirates
pire
pironkova
piru
pis
pisa
pisi
pista
pisto
pistols
pit
pita
pito
piton
pitt
pittsburgh
pitu
pitura
piture
piu
piuciari
piucio
piume
pius
piusa
piuto
piuttosto
piva
pivpe
pizza
pizzi
pl
pla
place
placebo
placido
plain
plan
planet
planetmath
plankton
plaster
plastic
plata
platinum
plato
platone
play
playboy
playground
playing
plaza
ple
please
pleasence
pleasure
pli
plica
plichi
plo
plummer
plura
plure
plus
pluto
pm
pme
pmes
pne
pno
po
poc
poca
poch
pochi
poco
pode
podeste
poe
poesi
poesia
poesie
poeta
poi
point
poison
poitier
poitiers
poker
pol
pola
polan
polanski
pole
poli
police
polie
poligone
politica
politics
polity
polizia
poliziotta
poliziotto
pollack
pollo
pollon
polo
polona
poloniapulo
poltergeist
polvere
polygram
pomeriggio
pompa
pompeo
pon
poncia
ponente
pont
ponte
ponti
pontnu
pontormo
pontre
pony
ponzi
pooh
poor
pop
popolare
popolasio
popolazione
popole
popolo
popular
populasio
popule
por
porcellinonimale
porco
porky
porl
pornography
port
porta
portare
porte
porten
porter
portinari
portland
porto
portogalloportuga
portoghe
portrait
pos
position
posse
possibile
posso
post
posta
posto
posuit
pote
potere
potest
potter
pour
pove
poveri
povero
poves
poviglio
powell
power
powers
pozzetto
pp
ppa
ppi
ppia
ppian
pr
pra
pradare
praga
praia
prampolini
prams
pramsa
pramza
pramzan
prans
prati
pratica
praticame
praticamente
prato
pratt
pray
prayer
pre
precede
preci
precis
preda
prede
predico
pref
prefasio
prefere
preferi
prega
prego
prem
prema
premaicu
premave
premi
premia
premier
premio
prendere
prendi
prends
prepa
prepara
preparasio
prepare
prepe
prepute
prequel
pres
presagio
prese
presenta
presente
presento
presenze
presida
preside
presidensia
presidensie
president
presidente
presio
presley
preso
press
presso
presti
presto
preston
prete
pretend
pretty
preucupa
preve
previ
previously
prevo
preze
prezzo
pri
pria
price
pricipe
pride
priest
prigionieri
prila
prile
prim
prima
primary
primave
primavera
prime
primi
primiti
primma
primo
primus
prince
principa
principalme
principe
principessa
principio
prinsi
prinsipa
prinsipalme
prinsipe
prinsipia
prinze
prinzipe
priscilla
priva
privata
private
prive
privile
prix
pro
probabilme
proble
problem
problema
proce
processo
prodi
prodigy
prodo
produ
productions
produsio
prof
profeso
professione
professor
profezia
profo
profondo
profumo
proge
progete
progetto
progra
progre
progressive
proibiti
proibito
proietti
project
promessa
promessi
promise
promised
promo
pronti
pronto
proof
properiete
propi
propia
propos
proposito
propria
proprieta
proprietatibus
propriete
proprio
prosciutto
prosperi
prospero
prossima
protagonista
protagonisti
prote
protesio
protozoo
proud
prova
prove
proverbi
provi
provincia
provinciapruvi
pru
prua
prubabilita
prubabilme
pruble
pruce
prucio
pruclama
prucurado
prudence
prudo
prudu
prudusio
pruduto
prufesiuni
prufeso
prufi
pruge
prugete
prugra
prui
pruibi
pruincia
pruinza
prume
prumi
prumo
prumusio
prumusiuna
pruno
prupo
pruprieta
pruspron
prustitusio
prutagone
prutaguni
prute
prutesio
prutesta
pruteta
pruteto
pruva
pruve
pruveinsa
pruvenza
pruvi
pruvince
pruvinci
pruvincia
pruvinza
pruvis
ps
pse
pseudo
psi
psichia
psichiatri
psico
psicologi
psicologia
psiculo
psiculugi
psis
psiva
pso
psu
psycho
psyco
pt
pto
pu
pub
pubblico
public
publica
publicasio
publiche
publilius
publisita
puc
puccini
puchi
pude
pudinsa
pue
pues
pueta
puge
pugia
pugle
pugn
pugna
pugne
pugni
pugno
pui
puig
pul
pula
pulcepo
pule
pulga
puli
puline
pulis
pulisi
pulisie
pulisio
pullman
pulo
pulp
puls
pulse
pump
pumpe
pumpune
puni
punisio
punk
puns
punsa
punt
punta
punte
punti
punto
puntu
puo
puoi
pupa
pupase
pupi
puppet
puppets
pupula
pupulasio
pur
pura
purca
purcari
purcu
pure
purple
purta
purtara
purte
purtina
purto
purtro
purtuga
purtughe
pus
pusa
puse
push
pusi
pusibilite
pusido
pussido
pussycat
pusta
put
puta
pute
puti
putin
putinceva
puto
puve
puves
puvi
puvra
puvre
puz
px
pzule
q
qu
qua
quace
quacia
quaciadu
quade
quaderni
quadre
quae
quai
quaid
qual
qualche
qualchido
qualcosa
qualcuno
quale
quali
qualifica
qualificasio
qualita
qualite
quall
qualla
quam
quand
quanda
quando
quant
quanta
quanti
quantite
quanto
quara
quaranta
quarantami
quarantase
quarta
quarte
quarti
quarto
quasi
quasst
quat
quatarse
quater
quaterse
quato
quatre
quattro
que
quebec
queen
queens
quei
quel
quela
quelc
quelcdu
quelchidu
quell
quella
quelle
quelli
quello
quelque
quem
quentin
querelle
querie
quesche
quest
questa
questi
questio
question
questo
qui
quia
quick
quid
quiet
quila
quili
quind
quindi
quinge
quinn
quint
quinta
quinto
quinzaine
quis
quische
quiste
quistio
quistiuna
quistiune
quiz
quo
quod
quotidiano
qva
qve
qvi
qvist
qvisti
r
ra
rab
rabbia
rabbit
rabi
racconti
racconto
race
racer
races
rachael
rachel
raco
racu
racumu
rad
radia
radica
radiche
radici
radio
radu
radwan
rae
raestensia
rafael
raffaele
raffaella
raffaello
rag
raga
ragaso
ragazza
ragazze
ragazzi
ragazzo
rage
raggi
raggn
ragio
ragione
ragiuname
ragn
ragno
ragnora
rai
raid
raimi
rain
rainbow
rainer
raise
raja
rajon
ralph
ram
ramarroingo
rame
rami
ramirez
ramis
ramiseto
ramo
ramona
ramone
ramones
ramos
rams
ramsey
ramusani
ran
rana
ranch
randal
randall
randy
rang
range
ranieri
ranking
ranocchiorano
ransom
raoul
rap
rapi
rapina
rapinado
rapo
rapper
rapres
rapresenta
rar
rarame
rard
rare
rarities
ras
rasa
raseramaso
rash
rasi
rat
rati
ratner
rattopo
rau
raul
ravana
ravare
rave
ravenna
raw
ray
raymond
raz
raziune
razza
razzano
razzie
rb
rba
rbi
rbia
rbita
rbiti
rbol
rbolso
rbs
rbul
rc
rca
rcadanime
rch
rchi
rcia
rcit
rcurda
rcurde
rd
rda
rdan
rdar
rdas
rdegh
rden
rdes
rdi
rdia
rdiala
rdiba
rdin
rdna
re
rea
reach
read
reading
ready
reagan
real
reale
reali
realis
reality
really
realms
realta
realte
reaper
reasio
reason
reato
reau
reb
rebecca
rebel
rebus
recchia
recensio
reci
recita
recitasio
recite
recla
reco
record
records
red
reda
redford
redgrave
redneck
redunde
ree
reed
reese
reeves
ref
refere
referendum
reflections
reg
rega
regala
regale
regalo
regan
regard
rege
reggiana
reggiane
reggiani
reggiano
reggio
reggiolo
regh
reghli
regi
regia
regina
reginald
regio
region
regione
regioun
regipe
regista
registra
registrasio
registry
regiuna
regiune
regno
regola
regole
regula
regun
rei
reich
reid
reilly
reine
reiner
reitman
rel
relasio
relati
religia
religio
religion
relme
relmerulme
reloaded
rem
remember
remix
remixes
ren
rena
renata
renato
rene
reni
renny
reno
rent
renzi
renzo
repa
repe
reperto
repo
report
repu
repubblica
republica
reputasio
rer
rerum
res
research
resiste
respi
respunsa
rest
resta
restarve
restaurasio
reste
resto
reta
retangole
rete
reto
retro
rettore
return
reunion
rev
revenge
revere
revolution
revolver
rex
rexon
rey
reynolds
rez
rezai
rezo
rfa
rfan
rfarva
rfarve
rfia
rfn
rfna
rg
rga
rgan
rge
rges
rgh
rghen
rghi
rghlussembu
rgia
rgiageo
rgin
rglussembu
rgn
rgna
rgum
rhapsody
rhead
rhino
rhoads
rhode
rhodes
rhythm
ri
ria
ribelle
ribo
ric
rica
ricata
riccardo
ricchi
ricchissimi
ricci
ricciore
ricco
rice
ricerca
ricerche
ricevu
rich
richard
richards
richardson
riche
richi
richie
richmond
richter
rick
ricky
rico
ricordi
rid
rida
riddle
ride
rider
ridere
ridi
riding
ridley
rido
ridu
rie
rien
riferi
riferime
riferimento
riff
rifiu
rifiute
rifle
rifo
rifu
rifuge
rifurnime
riga
rigala
righi
right
rights
rigi
rigistra
rigua
rigue
rihanna
rikova
ril
riley
rime
rimini
riminicmu
rimixa
rimpiasa
rinaldi
rinaldo
rinasime
rine
rinfurse
ring
ringo
ringra
rino
rio
riolune
riot
rip
ripe
ripley
ripo
ripper
ripre
ris
risa
risc
risca
rischio
rise
riserva
riserve
risi
rising
riske
riso
rispe
rispeta
rispo
rista
ristura
risveglio
rit
rita
ritchie
rite
riti
ritira
ritire
ritm
rito
ritorna
ritorno
ritra
ritratto
riu
riuni
riunio
riv
riva
rivara
rivaro
rive
river
rivers
rivi
rivincita
rivista
rivo
rivolta
rivolusio
rivoluzione
rivulusio
rivulusiona
rivulusiuna
rizzo
rizzoli
rj
rl
rla
rlen
rli
rligu
rm
rma
rmacmu
rmad
rmag
rman
rmape
rmat
rmen
rmi
rmia
rmin
rmlatarmatarmatarma
rmula
rn
rna
rnan
rni
rnicolo
rnol
rnolto
ro
roach
road
roarbe
rob
roba
robbie
robbins
robby
robert
roberta
roberto
roberts
robertson
robin
robinson
robot
robredo
robson
robu
rocabia
rocca
rocco
roch
rock
rocker
rocket
rockin
rocks
rocky
rod
rodney
rodolfo
rodri
rodrigo
rodriguez
roger
rogers
roland
role
rolf
roll
rolling
rolls
rolo
rom
roma
romagna
romagnolo
roman
romana
romance
romani
romaniarumani
romano
romanus
romanzo
rome
romeo
romero
romina
romolo
ron
ronald
roncafre
rondinerundane
ronnie
room
rooster
rory
ros
rosa
rosanna
rosaria
rosario
rose
rosemary
roses
rosi
rosporo
ross
rossa
rossana
rossano
rosse
rossella
rossellini
rossi
rosso
rosy
roth
roto
rotonda
rotta
rotterdam
rouge
rough
roulette
roulotte
round
rourke
rovere
row
roy
royal
royce
rp
rpa
rpi
rps
rr
rra
rraandorraanda
rramarligu
rrer
rrez
rs
rsa
rsi
rsia
rsma
rsna
rstea
rt
rta
rtalus
rtan
rtatu
rtbumpo
rten
rti
rtir
rtla
rtro
rtspilambe
rttemberg
ru
rub
ruba
rubari
rube
ruben
rubiera
rubin
rubini
rubo
ruby
rudd
rude
rudolf
rudolph
rudy
ruffalo
rufus
ruggeri
ruggero
rugno
rui
ruig
ruina
ruiz
rule
rules
rum
ruma
rumagna
rumagno
rumani
rume
rumo
run
runaway
rundane
runfre
running
runt
ruolo
ruota
rupert
rus
rusa
rusc
ruscaro
ruse
rush
rusi
russ
russell
russia
russiaro
russo
rust
rustica
rusty
ruta
ruth
ruv
ruvi
ruvine
rva
rvi
rvora
ry
ryan
ryba
rydell
ryder
rz
rza
rzne
rzporcgose
rzve
s
sa
saaltazzaalte
sabato
sabbath
sabessabe
sabine
sabiune
sabo
sabrina
saburdiga
sabuta
sac
sache
sacra
sacrame
sacrifi
sacro
sacrum
sacze
sad
saduma
sae
saepe
safe
safina
safre
sag
saga
saggio
sagreciagre
sagreste
sai
said
saidabiga
saint
saints
sal
sala
salame
salazar
salce
sale
salem
salerno
salghe
sali
saliceto
sally
salo
salome
sals
salsi
salt
salta
salte
saltini
salton
salu
salude
salute
salva
salvado
salvador
salvate
salvatore
salve
salvi
salvini
salvo
sam
samantha
samba
same
sammy
samperi
samuel
san
sana
sanchez
sancti
sanctuary
sanctus
sand
sander
sanders
sandman
sandra
sandrelli
sandrine
sandro
sands
sandy
sang
sanghev
sangue
sangv
sangve
sania
sanita
sanitarium
sanite
sanity
sanre
sanremo
sans
sansgo
sant
santa
santangelo
santarca
sante
santi
santiago
santo
santos
santu
sao
sapa
sape
sapere
sapeva
sapli
sapore
sar
sara
sarah
sarandon
sarda
sardagno
sarde
sare
sareze
sari
sarne
sarni
saro
sarpe
sars
sarve
sarvi
sarvido
sarza
sarzano
sase
sasha
sasi
saso
sasule
satan
satana
sate
satu
saturday
saturn
sau
saura
sava
savage
save
savgne
savigna
savio
savo
savoia
savu
saw
sawyer
saxo
saxon
say
says
sbalia
sballo
sbt
sc
sca
scaja
scajo
scala
scalaro
scalda
scale
scali
scama
scambi
scambia
scamoscamo
scamp
scampa
scampe
scan
scandalo
scandia
scandiano
scandina
scans
scapa
scape
scar
scara
scarafaggiopanara
scarava
scare
scared
scarlet
scarpa
scarpe
scarpi
scart
scarta
scarusa
scary
scat
scatla
scatli
scatman
scava
scave
scavs
sce
scelta
scemo
scene
sch
sche
scheda
scheepers
schel
schengen
scherzi
schev
schi
schiavone
schiller
schina
schis
schisa
schise
schiva
schivno
schivs
schlesinger
schleswig
schmidt
schnabel
schneider
schnyder
school
schrader
schreiber
schroeder
schubert
schultz
schumacher
schurer
schuster
schygulla
sci
scia
scie
science
scientific
scienze
scimmie
scme
sco
scol
scola
sconosciuto
scontro
scoraggiando
score
scorpione
scorpions
scorsese
scotland
scott
scotti
scout
scra
scrana
scrano
scre
scream
screaming
scri
scrit
scrita
scriti
scrito
scritu
scriv
scrive
scrivi
scro
scru
scu
scude
scuderi
scue
scui
scuja
scula
scule
sculpi
sculta
sculte
sculto
scultu
scume
scunfi
scuola
scupia
scur
scura
scure
scuri
scurs
scurta
scurte
scurtla
scus
scuse
scusi
scutma
scuv
se
sea
sean
search
season
seasons
seattle
sebastia
sebastian
sebastiano
sec
seca
secchia
secesio
seco
secoli
secolo
second
seconda
secondo
seconds
secret
secrets
secul
sed
sede
sedi
sedia
sedusio
seduzione
see
seek
seems
sega
segal
segnale
segne
segno
segre
segreta
segreteri
segreti
segreto
segui
segve
sei
seidelman
seintcinqua
seintnova
seintquara
seintse
seinttre
seintuta
seintve
sel
seles
selesio
self
selta
selva
selvaggio
sem
sema
sembra
seme
semi
semifina
semina
semipri
semper
sempliceme
sempre
sen
sena
senado
send
sene
senegia
senegiado
senegiadu
seno
senpule
sensa
sense
sensi
senso
sent
sente
sententiae
senti
sentiero
sentime
sentimenta
sentimento
sentinel
sento
sentra
sentre
senugrafi
senza
separa
separasio
separe
septem
september
sepu
seque
sequences
sequestra
ser
sera
serava
serbiaserbiaserbiaserbia
serc
serca
serche
sere
serena
serge
sergi
sergio
seria
serial
serie
series
serimo
serna
serni
serpa
serpebe
serpente
serpeverde
serra
serrano
sert
serva
serve
servi
service
servito
servizio
ses
sesame
sese
seseintnova
seseintuta
sesio
sessi
session
sessions
sesso
sessuale
sest
sesto
sesua
sesue
set
seta
sete
setentriuna
seth
setim
setimana
seto
setse
setta
sette
settecani
settembre
settembresete
setti
settimana
settimane
seu
seven
seventeen
seventh
severin
severus
sex
sextus
sexual
sexy
seymour
sfacia
sfe
sfegata
sfera
sfi
sfia
sfida
sfiga
sfilara
sfile
sfo
sforza
sfre
sfru
sfruce
sfrumbla
sfunda
sfurtu
sganare
sganarelle
sgna
sgne
sgno
sgnor
sgnure
sgnuri
sgnuro
sguardo
shade
shadow
shadows
shahar
shake
shakespeare
shall
shame
shandi
shane
shanghai
shannon
share
sharon
sharp
shaw
shawn
she
sheen
sheer
sheila
sheldon
shelley
shelton
shenzhen
shepard
shepherd
sherlock
sherman
shia
shift
shining
shirley
shit
shock
shoes
shoot
shop
shore
short
shot
should
shout
show
showgirl
shuai
shut
shyer
si
sia
siaca
siamo
sibe
siberia
sibi
sibio
sic
sica
sice
sich
sichi
sici
siciglia
sicilia
sicista
sick
sicu
sicurame
sicure
sicuro
sid
side
sides
sidney
sie
siegel
siensia
siente
sienti
sieri
sierra
siese
sig
siga
sigare
siggla
sighe
sight
sign
signa
signe
significa
significhe
signor
signora
signore
signori
signorini
sigo
sii
sij
sil
sila
sile
silence
silent
silente
silenzio
sili
silta
silva
silvana
silvano
silveira
silver
silvia
silvio
sim
sima
simi
simite
simmons
simon
simona
simoncelli
simone
simonetti
simpati
simple
simpson
sims
sin
sina
sinatra
sinc
since
sinclair
sincmi
sincse
sindaca
sindaco
sindacose
sindoni
sindrome
sine
sing
singer
single
singles
singol
singula
sini
sinistra
sinner
sino
sinqua
sinquantami
sinsa
sinta
sinte
sintetis
sinti
sintu
sintune
sio
sioux
siouxsie
sir
sira
siracusa
sircu
sircunda
sircunfere
sire
siri
sirius
siro
sirulde
sis
sissy
sistamma
siste
sistema
sistemasio
sisteme
sister
sisters
sisti
sit
sita
sitade
sitadi
sitadina
sitcom
site
sitges
sito
sitt
sitter
situasio
situazione
sive
sivi
six
sixteen
size
sja
ska
skeoch
ski
skid
skies
skin
skip
sko
sky
skyhawk
sl
sla
slam
slaro
slash
slaughter
slavalmo
slave
slayer
sleep
sleeping
sleepy
sliver
sloane
slovacchiasluva
sloveniasluveniasluve
slow
sluva
sma
small
smana
smart
smashnova
sme
smell
smells
smile
smith
smoke
sn
sna
snake
snow
snyder
so
soap
soavi
soce
socete
social
sociale
sociali
socie
societa
societas
societe
society
socio
sociologi
sociology
soco
socua
socuant
soderbergh
sofia
sognare
sogni
sogno
soit
sol
sola
solame
solange
sold
soldati
soldato
soldi
soldier
soldiers
sole
solgna
soli
solit
solitario
solitary
soliti
solo
soltanto
solusio
some
somebody
someday
someone
something
sometimes
somewhere
sommers
son
song
songs
sonia
sonic
sonnenfeld
sonno
sonny
sono
sons
sont
sony
sophia
sophie
sopra
soqua
sora
sorana
sorcio
sorda
sordi
sorel
sorella
sorelle
sorpresa
sorrentino
sorriso
sorrow
sorry
sorti
sos
sospetto
sostgnu
sot
sota
sott
sotto
sotve
soul
souls
sound
soundgarden
soundtrack
south
southern
sovertu
sovie
sp
spa
spaak
space
spacek
spacey
spaciado
spada
spaevbe
spaggna
spaggno
spagna
spagnaspe
spagno
spaj
spala
spali
spalle
spapla
spar
spara
spardu
spare
spari
sparks
sparpagne
sparti
spas
spasa
spase
spasi
spasia
spass
spati
spatina
spave
spavinta
spavinto
spazio
spbo
spd
spe
speak
spears
specchio
spece
specia
special
speciale
speciali
specialis
specialme
specie
spedi
speed
spellbound
spencer
sper
spera
speranza
sperimenta
sperimente
spersa
spes
speso
speta
spetado
spete
spetra
spettacolo
spi
spia
spiaggia
spiana
spiando
spiane
spice
spider
spie
spiegasio
spieghe
spielberg
spike
spil
spilambe
spilambertese
spin
spina
spine
spiri
spirit
spirito
spit
spita
spiu
spiuna
sple
spo
spongebob
spongy
sporchi
sporco
sport
sposa
sposato
sposi
sposo
spot
spottiswoode
sprand
spransa
spric
spring
springs
spro
spu
spuda
spuma
spunghe
spunt
spunta
spurcacio
spurti
spus
spusa
spusta
spustame
spuste
spy
sqrt
squa
squadra
squadre
squallor
squalo
squante
square
squarepants
squasa
squasamarle
sque
squiddi
squitieri
sqva
sr
sra
srand
srapa
srar
sre
srebotnik
srl
ss
ssa
ssabi
ssant
ssanta
ssc
ssca
sscave
ssch
ssen
sser
ssi
ssia
ssiaro
ssiarossia
sspetros
sst
ssta
st
sta
stab
stabili
stabilime
stabli
stache
stacy
stad
stada
stadi
staff
stag
stage
stagio
stagione
stagioni
stagustago
stai
stained
staley
stampa
stampe
stan
stanbul
stand
standard
standing
stane
stanford
stanley
stanno
stano
stant
stanta
stantasi
stanton
stanwyck
stanza
star
stara
stardust
stare
stark
starr
stars
start
stasera
stasi
stasio
stat
stata
state
states
stati
station
stato
statu
status
statv
stava
stay
stazione
stcod
ste
steda
steel
steele
stefan
stefania
stefanie
stefano
steffi
stein
stel
stella
stelle
stelvio
stemma
sten
steno
step
stephanie
stephen
stephens
ster
sterilis
sterli
stermi
stern
stesso
steva
steve
steven
stevens
stevenson
stewart
sti
stia
stic
stica
stich
stichi
stick
stig
stil
stile
stiletto
stili
still
stiller
stima
stime
stine
stipe
stival
stla
stma
stmana
stmani
sto
stockwell
stoker
stole
stoller
stone
stones
stood
stop
storia
storic
storica
storiche
storici
storico
storie
stories
storm
story
stosur
str
stra
strabu
strabuca
strada
strade
stradi
strai
straight
stral
strama
stramaladi
stramna
stran
strana
strane
strange
stranger
strangers
strani
straniero
strano
straordina
stras
strase
strate
strauss
stravaga
strave
stre
streep
street
streets
strega
streghe
stremne
stress
stretame
stri
stria
striari
stric
strica
striche
strichi
strii
strikes
strip
striscia
stro
strong
stru
strulga
strulghe
strume
strumenta
strusa
strutter
strutu
stry
stu
stua
stuart
stuca
stuco
stude
studi
studia
studie
studio
studiorum
studios
study
stuf
stufa
stuff
stufi
stul
stuna
stupe
stupid
stuprado
sturges
stus
style
su
sua
sub
sube
subhuman
subi
subito
subtrupica
subway
suca
successi
successo
suce
sucesi
sucesio
such
suci
sucia
suciali
sucidi
sucieta
suck
suco
sud
suda
sudafrica
sudi
sudisfasio
sudo
sue
sufe
sufi
sufri
suga
sugama
sugar
suge
sugeri
sughe
sugiyama
sugna
sui
suici
suicide
suis
suite
sul
sula
sulda
sulde
sule
sulfri
suli
sulita
sull
sulla
sulle
sullivan
sulusio
sum
sume
sumi
summa
summer
summertime
sun
suna
sunado
sundance
sunday
sunderland
sune
suno
sunshine
sunt
suo
suoi
supe
super
superfi
superficiemetradu
superio
supermarca
supermarche
superstar
suplemente
supli
supo
supra
supre
sur
sura
surbe
sure
suri
surpre
surprise
surti
survive
surze
sus
susan
susanna
suspe
suspeta
suspiria
susta
sustanti
suste
sustenido
sustgni
sustgnu
sut
suta
sutherland
suti
suvie
suye
suzanne
sva
sve
sveglia
sven
svetlana
sveziasve
svilo
svitolina
svizzerasve
swallow
swan
sweet
swimming
swing
switch
sybille
sydney
sylvester
sylvia
sylvie
symphony
syrus
system
systems
sza
t
ta
taba
tabe
tablo
tac
taca
tacchinopi
tache
tachen
tachi
taco
taekwondo
tafanotava
tag
tagliavini
tagline
tai
tais
tait
taj
taja
taje
take
taken
takes
taking
tal
talame
tale
tales
talk
talking
tall
talpa
talpate
tam
tame
tamira
tammy
tan
tana
tanabu
tand
tane
tango
tania
tannetum
tano
tant
tanta
tante
tanti
tanto
tap
tapa
tape
tappo
tar
tara
taramo
tarantini
tarantino
tarantola
tard
tardi
tardo
targa
target
tarlotaro
tarma
tarmate
tarme
taro
tars
taruli
tas
tasa
tase
tashkent
tasi
taso
tasta
taste
tasteri
tat
tate
tathiana
tatiana
tatishvili
tatua
taurog
tava
taviani
tavla
tavle
tavola
taxi
taylor
tbe
tbiga
tbol
te
tea
teach
teague
team
tear
tears
teator
teatra
teatre
teatro
technotronic
tecnulugi
ted
teddy
tede
tedeschi
teen
teenage
tel
tela
tele
teleca
telefi
telefilm
telefo
telefuna
telefune
telesco
televis
televisio
television
tell
tem
temp
temperadu
tempesta
tempi
tempie
template
temple
tempo
tempore
temps
temptation
ten
tenacious
tenco
tender
tene
tenebre
teneva
teni
tennessee
tennis
teno
tensio
tentasio
tentati
tentazione
teo
teore
teori
teoria
tequila
ter
tera
terame
terapi
tere
teremo
terence
terenzio
teresa
teri
teria
terito
termari
terme
termo
tero
terr
terra
terre
terrence
territori
territorio
terror
terrore
terry
ters
tersa
terse
teruri
terza
terzi
terzo
tes
tesidu
tesla
tesoro
tessari
test
testa
testame
testamento
teste
testi
testimo
testimone
testimunia
testo
tesu
teti
teto
tetradeca
tetradecagone
tetrae
tetsuya
tetto
teuri
tex
texa
texas
tg
tga
tgan
tgatga
tge
tgne
tgni
tgnir
tgniva
tgnu
tgnuda
tgnudi
th
than
thank
that
thatcher
thayer
the
theater
theatre
their
thelma
them
theme
then
theo
theory
there
theresa
theron
these
they
thierry
thin
thing
things
think
third
thirteen
this
thomas
thompson
thor
thorn
thornton
thorpe
those
though
thought
thousand
thrash
three
thriller
through
throw
thunder
ti
tibi
tic
tica
tich
tichi
ticket
tide
tido
tidone
tie
tiempo
tienne
tierra
tiffany
tig
tiga
tiger
tighi
tight
tignola
tigra
tigre
tigri
tigro
til
tila
till
tilly
tim
tima
timberlake
time
timea
times
timo
timothy
timpe
tin
tina
tinen
tinta
tintati
tinte
tinto
tip
tipo
tipografi
tipografia
tipton
tir
tira
tirabuso
tire
tired
tiro
tis
tisa
tisi
tisu
tita
titanic
title
tito
titti
titula
tiziano
tl
tla
tlare
tlazve
tle
tlefo
tley
tli
tm
tma
tnica
tnichi
to
toa
toano
toback
tobe
tobi
tobias
toc
tocantins
tocca
tod
today
todd
together
tognazzi
toi
tokyo
tol
told
tolhurst
tolt
tolta
tolti
tom
toma
tomas
tomba
tommasi
tommaso
tommy
tomorrow
ton
tongue
toni
tonight
tonino
tonks
tony
too
took
top
topo
toquinho
tor
tore
torelli
tori
torino
torna
tornatore
torne
torno
toro
torre
torrente
torres
torri
torro
tortora
tosca
toscana
tot
total
tote
totii
toto
tott
totta
totti
touch
tough
toujours
toulon
tour
tourne
tours
tous
tout
toute
toutes
town
townsend
toy
toys
tr
tra
tracce
tracii
track
tracks
tracy
tradi
tradime
tradisio
tradisione
tradisiuna
tradito
trado
tradotta
tradurre
tradusio
trafica
tragate
trage
trai
train
traite
tramo
tramonto
tramu
trance
tranqui
tranquillo
trans
transformers
trape
trapia
trapla
trapped
trappola
tras
trasa
trasferi
trasferime
trasfo
trasfurma
trasfurmasio
trasga
trash
trasi
traspare
traspo
traspurte
trat
trata
tratame
trate
tratto
trauma
traumatis
trave
traverse
travesti
travis
travolta
tre
treasure
treat
treccani
tredice
tree
trees
trek
treme
treno
trent
trenta
trente
trento
tres
trese
tresinaro
trevi
trevor
tri
tria
triangole
tribu
tribuna
tribune
tribute
tric
trica
tricase
trichi
trick
tricolore
triculo
trideca
tridecagone
trie
tried
trier
trieste
trietto
trigonometri
trilugi
trimi
trintignant
trio
trip
trist
triste
trixinaria
tro
troia
trois
tromba
trop
tropez
troppo
trospbo
trouble
trova
trovato
troy
truc
truca
true
truemetal
truffaut
truja
truman
trumbo
trump
trupica
trust
truth
try
tse
tseintcinqua
tseintquara
tseintssa
tseinttre
tseintve
tsurugi
tt
tta
ttasivetazive
tter
tti
ttic
ttica
tto
tu
tua
tub
tuca
tuche
tucker
tuda
tude
tue
tuesday
tui
tul
tula
tule
tuli
tullio
tulo
tulsa
tum
tunnel
tuo
tuoi
tura
turbo
turc
turchi
turchiaturchi
ture
turi
turie
turio
turismo
turistica
turminta
turn
turna
turnara
turne
turner
turni
turno
turo
turtu
turtura
turturro
tusca
tuscan
tuscana
tusche
tusgna
tut
tuta
tuti
tutt
tutta
tutte
tutti
tutto
tv
tva
tvi
twelve
twice
twilight
twist
twisted
twitter
two
ty
tyler
type
tyto
u
ua
ubalda
ubi
ubidi
ubieti
ubito
ubligato
ublighe
ucas
ucasio
uccelli
uccello
uccide
uccidere
ucciso
uce
ucia
ucidenta
ucita
ucrai
ucrainaucre
ucupa
ucupasio
ud
udi
udo
ue
uel
uf
ufe
uffa
ufficia
ufficiale
ufi
ufice
uficia
uficialme
uficie
ufisia
ufizie
uga
ugado
uge
ughe
ughie
ugle
ugn
ugna
ugno
ugo
ugue
ugvaglia
uh
ui
uk
ul
ula
ulam
ulandais
ulande
ule
uli
ulic
ulimpi
ulisse
ulpavo
ulpvo
ulrich
ulsra
ulta
ulte
ultima
ultimate
ultimi
ultimo
ultma
ultmi
ultra
ulvaeus
um
uma
uman
umane
umani
umanita
umanite
umano
umbe
umberto
umbre
umbri
ume
umiliasio
umisi
umo
un
una
unc
unca
uncapa
uncapo
und
under
underground
understand
underwood
undgapa
undice
une
unesco
unexpected
unforgiven
unga
unger
ungh
unghere
ungheri
ungheriaungheri
ungi
unholy
uni
unio
union
unita
unite
united
unitora
unive
universa
universal
universe
universidade
universita
universitas
universite
university
universo
unknown
uno
unpizo
unplugged
unpus
unreleased
uns
unse
unsi
unt
unta
unte
unten
unter
until
untitled
untne
untouchables
untra
unure
unus
uomini
uomo
up
upera
uperasio
upiniuni
upon
ur
ura
uraga
urasio
urato
urba
urban
urbano
urbe
urbi
urche
urci
urdi
urdina
urdna
urdne
ure
urea
uren
urfanutro
urg
urga
urgane
urgani
urganis
uri
urie
urienta
uriente
urigina
urigine
uris
urizu
urla
urlo
urma
urname
urne
uro
urp
urs
ursa
ursant
urse
urso
urss
ursula
urszula
urt
urti
urtudo
us
usa
uscita
use
used
usesio
usher
usi
usle
uso
uspde
uspe
uspide
uspita
usque
ust
usta
ustari
usti
ustla
ustria
ut
uta
utah
ute
utgni
utgnu
uti
uto
uton
utrecht
utse
utu
uv
uva
uvlauvluvlo
uvno
uz
v
va
vaca
vacanza
vacanze
vacca
vaccava
vachi
vad
vada
vadder
vadim
vado
vadra
vag
vaga
vagabo
vai
vain
vaintri
vaird
val
vala
vale
valencia
valensia
valentina
valentine
valentino
valeria
valerie
valerio
vali
vallance
vallardi
valle
valley
valli
vallisneri
valmont
valmu
valo
valsamu
valu
valzer
vampi
vampire
vampires
vampiri
vampiro
van
vance
vancini
vancouver
vandeweghe
vanessa
vange
vania
vanilla
vanoni
vansa
vanta
vanzina
vapo
var
vara
varda
varde
vardu
vare
vargas
varghe
vargo
vargugna
vari
varia
varie
varieta
variete
varna
varsa
varvara
vas
vasca
vasco
vatica
vaticanovatica
vatta
vaughan
vaughn
vault
vcastelno
vda
vde
vdi
vdiva
vdu
vduda
ve
vec
vecchi
vecchia
vecchio
ved
vede
vedere
vedi
vedova
vedra
vee
vega
vegas
vegn
vegna
vei
vel
vela
vele
veleno
veli
velluto
velocite
veloso
velvet
ven
venarde
vende
vendetta
vendicado
vendido
vendu
vene
venerde
venerdi
venere
venesia
venezia
vengeance
vengo
vengono
venice
venier
venire
venne
vent
vento
ventre
ventura
venus
ver
vera
verba
verbinski
verd
verde
verdi
verdone
verdu
verga
verghere
vergi
vergine
vergo
verhoeven
verifiche
verita
verite
vermo
vernon
vero
veronesi
veronica
verra
vers
versa
versace
versailles
versio
version
verso
vertebre
vertiche
very
ves
vesche
vescovo
vesnina
vest
veste
vestito
vevo
vezzano
vfuntvi
vfurno
vgnara
vgne
vgni
vgnir
vgnis
vgniva
vgno
vgnu
vgnuda
vhs
vi
via
viada
viaggio
viale
viana
viano
vias
vic
vica
vicario
vice
vicente
vich
vichipe
vicini
vicino
vicky
victim
victor
victoria
vid
vida
vide
video
videos
vidu
vie
viene
vieni
vienna
vietnam
view
vigara
vigulso
vii
viii
viktoryja
vila
vilafra
vilano
vile
vili
vilimpe
villa
village
villaggio
ville
vilo
vilu
vilupa
vilupe
vimulda
vin
vina
vinabo
vince
vincent
vincente
vincenzo
vincere
vinci
vincit
vinde
vindi
vindica
vindu
vine
vinen
vini
vinicius
vinnie
vino
vins
vinsa
vinse
vinsi
vinsido
vint
vinta
vinte
vintmi
vinto
vintsi
vio
viola
violence
violenta
violenza
violet
vip
vir
virgi
virgilio
virgin
virginia
virginie
virto
virtu
virus
vis
visco
visconti
vise
visi
visia
visio
vision
visita
visite
viso
visra
visson
vist
vista
visti
vistide
visto
visu
vita
vitae
vitale
vitali
vite
viti
vitma
vitmi
vito
vittime
vittoria
vittorio
viule
viulenta
viulunse
viv
viva
vive
viventi
viver
vivere
vivi
vivian
vivo
vixit
vizio
vla
vladimir
vle
vli
vliva
vlu
vlunte
vn
vna
vne
vni
vo
vocabola
vocabolario
vocal
voce
voci
voglia
voglio
voi
voice
voices
void
voin
vol
vola
volante
volare
volave
voleva
volo
volonta
volonte
volpe
volpevo
volpi
volt
volta
volte
volti
volto
volume
von
voodoo
voorhees
vorrei
vos
voskoboeva
voster
vostro
vota
vote
vous
voyage
vr
vra
vrache
vracre
vralivralevrale
vre
vrea
vri
vro
vru
vs
vsa
vu
vua
vuca
vucabula
vuche
vuda
vude
vudu
vui
vul
vula
vulca
vule
vulga
vulgaro
vulghe
vulpes
vulta
vulte
vulunta
vuo
vuoi
vuol
vuole
vura
vurare
vuta
vv
vy
vygotskij
w
wa
wachowski
wacquant
wade
wagner
wain
wait
waiting
wake
wales
walk
walken
walker
walking
wall
wallace
walls
wally
walsh
walt
walter
walters
wanda
wang
wanna
want
wanted
wants
war
ward
warhol
warlock
warner
warning
warren
warrior
wars
was
wash
washington
wasted
watch
watching
water
waters
watson
watts
wave
wawrinka
waxman
way
wayne
ways
we
wea
wear
weasley
weaver
web
webb
weber
wedding
wedge
wee
week
weekend
wei
weiland
weimar
weir
weird
weiss
weitz
welcome
well
welles
wells
wendell
wenders
wendy
went
were
werner
wertmu
wes
west
western
wet
what
whatever
wheat
wheel
when
where
wherever
which
while
whispers
whitaker
white
whitney
who
whole
whom
why
wicked
wickmayer
wide
wie
wife
wiki
wikia
wikimedia
wikipedia
wikiquote
wikisiuna
wikisource
wikispecies
wikizionario
wild
wilde
wilder
wiley
will
willem
william
williams
williamson
willie
willis
willy
wilma
wilson
wim
wimbledon
win
wind
window
wing
wings
winkler
winnie
winona
winston
winter
winters
wisco
wise
wish
witch
with
within
without
wives
wolf
wolff
wolfgang
wolfram
woman
womanizer
women
won
wonder
wonderful
wonderland
wong
wood
woods
woody
word
words
work
working
works
world
worry
worth
would
wozniacki
wozniak
wright
wrong
wta
wu
wuhan
www
wyatt
wylde
wyler
wyoming
x
xas
xavier
xi
xii
xiii
xiv
xix
xv
xvi
xvii
xviii
xx
xxi
xxiii
xxx
y
ya
yanina
yankee
yard
yates
yeah
year
years
yell
yellow
yes
yesterday
yet
yo
york
you
young
your
yourself
youth
youtube
yu
yuri
yvan
yves
yvonne
z
za
zaccaria
zach
zache
zack
zaga
zakopalova
zampa
zane
zanetti
zanicchi
zanzarasarabi
zappa
zar
zarvla
ze
zeca
zeffirelli
zemeckis
zemia
zen
zenfurme
zeppelin
zero
zhang
zheng
zi
zia
ziasve
zibe
zibi
zid
zilo
zingara
zinnemann
zio
zirvia
zise
zita
zitade
zite
zivite
ziznatic
zna
zne
zo
zoe
zombi
zombie
zona
zone
zoo
zpetek
zsa
zu
zua
zucca
zucchero
zucker
zuckermann
zugado
zughe
zul
zula
zum
zunte
zuzana
zva
zvonare
zwick
zz
zza
zzi
zzra
zzrasve
zzris
{
|
}
~
¡
£
ª
«
¬
­
¯
°
±
²
³
´
µ
·
º
»
½
¿
×
ø
đokovic
ŀ
ł
ŋ
ɐ
ɑ
ɔ
ə
ɛ
ɪ
ɫ
ɱ
ɾ
ʃ
ʒ
ʤ
ʧ
ʰ
ʲ
ʿ
ˀ
ˈ
ˌ
ː
̀
́
̂
̃
̄
̆
̇
̈
̉
̊
̋
̌
̓
̔
̛
̣
̥
̦
̧
̨
̩
̯
͂
͡
α
β
ε
θ
ι
λ
μ
ν
π
ρ
ς
в
и
н
о
он
раи
я
ا
َ
ٔ
​
‎
–
—
‘
’
“
”
„
†
•
…
‪
‬
′
″
⁡
⅓
→
↔
↷
⇌
∑
−
∗
∧
∨
≥
⊂
⋅
③
④
⑦
★
♀
♂
♠
♥
♦
⺀
⺄
⺆
⺈
⺊
⺌
⺕
⺝
⺸
⺼
⿰
⿱
⿲
⿳
⿴
⿵
⿶
⿷
⿸
⿹
⿺
⿻
〢
な
み
゙
゚
ウ
キ
ク
コ
シ
ス
ッ
ト
マ
ユ
ン
ー
㇁
㇂
㇄
㇇
㇈
㇉
㇓
㐁
㐄
㐅
㐌
㐫
㐬
㐭
㐮
㐱
㑒
㒵
㒸
㒼
㓁
㓞
㔾
㕛
㕣
㖾
㘝
㚅
㚇
㚔
㚘
㝉
㝡
㝴
㝵
㞋
㞢
㞷
㠩
㠭
㠯
㡀
㡭
㡿
㢲
㢴
㣇
㣺
㥯
㪅
㫄
㫐
㫒
㫺
㬅
㬎
㬥
㬰
㲋
㳄
㷠
㸒
㸚
㸦
㼌
㼲
㽞
㿟
䀠
䂞
䍃
䏍
䒑
䖍
䖒
䖝
䖵
䙴
䚻
䜌
䝿
䡛
䧹
䪞
一
丁
丂
七
丄
丅
丆
万
丈
三
上
下
丌
不
与
丏
丐
丑
专
且
丕
世
丘
丙
业
东
丞
丢
丣
两
严
並
丨
丩
个
丫
丬
中
丮
丰
丱
串
丵
丶
丷
丸
丹
为
主
丽
丿
乀
乂
乃
久
乆
乇
么
义
之
乌
乍
乎
乏
乐
乑
乔
乖
乗
乘
乙
乚
乛
乜
九
乞
也
习
乡
乳
乾
亀
亅
了
亇
予
争
事
二
亍
于
亏
亐
云
互
亓
五
井
亘
亚
亜
亞
亟
亠
亡
亢
交
亥
亦
产
亨
亩
享
京
亭
亮
亯
亰
亲
亳
亶
亷
人
亻
亼
亾
仁
今
介
仌
从
仐
仑
仒
仓
仕
他
付
仝
代
令
以
任
企
伊
伏
伐
休
会
伯
但
位
何
佘
余
作
佥
使
來
侈
侌
侖
侯
侵
便
保
俞
信
修
倉
倍
候
倠
備
僉
僕
儿
兀
允
兂
元
兄
充
兆
兇
先
光
兊
克
兌
免
兑
兒
兓
兔
党
兜
兟
入
全
兩
兪
八
公
六
兮
兰
共
关
兵
其
具
典
兹
兼
冀
冂
冃
冄
内
冈
冉
冊
冋
册
再
冎
冏
冐
冒
冓
冖
冗
冘
军
农
冝
冡
冥
冫
冬
冷
几
凡
凢
凵
凶
凷
凸
凹
出
函
凾
刀
刁
刂
刃
刄
刅
分
切
刍
刑
刕
刖
列
刘
则
初
別
利
别
到
制
刺
則
削
剌
前
剡
剣
剽
劉
力
功
加
劦
助
劫
劳
劵
勃
勇
勉
勒
動
務
勞
勤
勹
勺
勻
勾
勿
匀
匂
包
匆
匈
匊
匋
匍
匕
化
北
匚
匝
匡
匪
匱
匸
匹
区
医
匽
匿
區
十
卂
千
卄
卅
卆
升
午
卉
半
卌
华
卑
卒
卓
单
卖
南
卜
卝
卞
占
卡
卢
卣
卤
卦
卩
卪
卬
卯
印
危
即
却
卵
卷
卸
卻
厂
厃
厄
历
厈
厉
厌
厓
厘
厚
原
厤
厥
厨
厭
厲
厶
厷
厸
去
厼
厽
叀
参
參
叅
又
叉
及
友
双
反
叐
发
叒
叔
叕
取
受
叚
叜
叟
口
古
句
另
叩
只
召
可
台
叱
史
右
叵
号
司
叹
吂
各
吅
合
吉
吊
吋
同
名
后
吏
向
吕
君
吝
吞
否
含
启
吳
吴
吹
吾
呂
呆
呈
告
员
呙
周
命
咅
和
咎
咠
咢
咨
咸
咼
哀
品
哉
員
哥
哲
唐
商
啇
問
啚
啬
啻
善
喜
喬
單
喿
嗇
噩
嚴
囊
囗
囘
囙
囚
四
回
囟
因
囧
囬
困
囱
囷
固
国
圂
圅
國
圍
圓
土
圡
圣
圥
在
圭
地
圶
圼
坐
坒
坚
坴
垂
垔
垚
埀
埋
埶
執
基
堂
堅
堆
堇
堯
塞
墨
壘
士
壬
壯
声
壳
壴
壹
壺
壽
夂
处
夅
夆
备
夊
夋
夌
复
夏
夒
夕
外
夗
夘
多
夜
夢
大
夨
天
太
夫
夬
夭
央
失
夲
头
夷
夸
夹
夻
夾
奂
奄
奇
奈
奉
奎
奏
奐
契
奓
奔
奚
奞
奠
奢
奥
奭
女
奴
奻
好
如
妄
妙
妟
妥
妻
妾
姑
委
姜
威
娄
婁
婴
嬰
嬴
子
孑
孔
孕
孖
字
存
孚
孛
孝
孟
季
孤
学
孫
孱
學
宀
宁
宂
它
宅
宇
守
安
宋
完
宏
宓
宗
官
定
宛
宜
宝
客
宣
室
宮
宰
害
家
容
宾
宿
寄
寅
密
富
寒
察
寧
審
寫
寬
寮
寸
对
寺
寻
寽
対
寿
封
尃
射
将
將
專
尉
尊
尋
尌
對
小
少
尒
尓
尔
尖
尗
尚
尞
尢
尣
尤
尧
尨
尭
就
尸
尹
尺
尻
尼
尽
尾
尿
局
居
屈
屋
屎
屏
屑
展
屖
屚
属
屠
屡
屬
屮
屯
屰
山
屵
屾
岁
岂
岑
岡
岩
岳
岸
峯
島
崇
崑
崔
崖
崙
崩
嵬
嶲
巂
巛
川
州
巟
巠
巢
巤
工
左
巧
巨
巩
巫
差
己
已
巳
巴
巷
巸
巽
巾
巿
帀
市
布
希
帚
帛
帝
带
師
席
帶
常
干
平
年
幵
并
幷
幸
幺
幻
幼
幽
幾
广
広
庄
床
底
店
庚
府
度
庫
庭
庶
康
庸
廉
廌
廛
廣
廩
廴
延
廷
建
廾
廿
开
弁
弃
弄
弇
弋
式
弓
弔
引
弗
弘
弜
弟
弥
弦
弱
張
強
强
彊
彌
彎
彐
彑
当
彔
录
彖
彗
彡
形
彥
彦
彧
彭
彳
役
彼
往
待
律
徒
得
徙
從
復
微
徵
心
忄
必
忌
忍
志
忝
忠
忩
快
念
忽
忿
思
怠
急
怱
恆
恒
恩
恭
息
悉
患
悤
悲
悶
惠
惡
惢
愁
愈
意
愛
感
慈
慧
慮
憂
憲
應
戀
戈
戉
戊
戋
戌
戍
戎
成
我
戒
戔
或
戚
戠
戢
截
戲
戶
户
戹
戼
戾
房
所
扁
扇
手
扌
才
打
托
执
承
折
拉
拜
拿
掌
推
提
摩
支
攴
攵
收
攸
改
放
政
敄
敏
敕
敖
敗
敝
敞
敢
散
敦
敫
敬
数
敷
數
斂
文
斉
斊
斗
斤
斥
斩
斬
斯
新
方
於
施
斿
旁
旋
族
无
旡
既
旣
日
旦
旧
旨
早
旬
旱
旲
时
旾
昆
昇
昌
昍
明
昏
易
昔
昗
昜
星
春
昬
是
昱
昴
昷
時
晃
晋
晏
普
景
晶
智
暑
暴
曇
曩
曰
曲
曳
更
曷
書
曹
曼
曾
替
最
朁
會
月
有
朋
服
朔
朕
朗
望
朝
木
朩
未
末
本
札
朮
术
朱
朵
朶
机
朿
杀
杏
杜
束
条
来
東
杲
杳
松
构
析
林
枚
果
枝
枲
枼
某
柔
查
柬
柰
柴
栗
桀
桑
桼
梁
條
梟
梨
棘
棠
棥
森
楚
業
楽
榮
樂
樊
欠
次
欣
欮
欲
欶
欽
款
歆
歇
歛
止
正
此
步
武
歨
歪
歮
歯
歰
歲
歴
歷
歸
歹
歺
死
殳
段
殷
殸
殹
殺
殻
殿
毋
毌
母
每
毒
比
毕
毚
毛
毳
氏
氐
民
气
氣
水
氵
氶
氷
永
氺
氾
求
汝
汞
江
沃
沓
沙
沝
泉
法
波
泣
泥
泰
洛
洪
活
派
流
浦
浪
浮
淡
淮
清
渚
渠
湯
滿
漸
火
灬
灭
灰
灵
灷
炅
炎
炏
炗
炙
炭
為
烈
烏
烝
焉
無
焦
焱
然
煞
熊
熏
燕
營
燮
爪
爫
爭
爯
爰
爱
爲
爵
父
爻
爽
爾
爿
片
牙
牚
牛
牜
牟
牢
牧
牪
牽
犀
犬
犭
犮
狂
狄
狊
独
狺
猋
猒
猪
献
獻
玄
率
玉
王
玟
玨
现
珎
班
琴
瑟
瑩
璠
瓜
瓦
甘
甚
生
産
用
甫
甬
田
由
甲
申
电
甶
男
甸
甹
画
甾
畀
界
畏
畐
留
畜
畟
畢
畧
畨
番
畫
異
畱
當
畺
畾
疊
疋
疌
疑
疒
疾
癶
癸
癹
登
發
白
百
皀
皃
的
皆
皇
皋
皐
皕
皮
皷
皿
盃
盆
盇
盈
益
盍
盎
监
盒
盖
盛
盡
監
盤
盧
目
直
相
盾
省
眇
眉
看
眔
眞
真
眷
眼
眾
着
睘
睪
睿
瞏
瞢
瞿
矍
矛
矞
矢
矣
知
矦
短
石
破
碎
磊
磨
示
礻
礼
祐
祟
票
祭
禀
禁
禸
禹
禺
离
禽
禾
禿
秀
秃
秉
秋
科
秝
秦
移
稟
穀
穌
穴
究
穹
空
穿
突
窄
窒
立
竒
竜
竝
竟
章
童
竹
笑
笠
筆
等
答
箕
算
箴
節
篤
篭
米
粉
粛
粟
粤
粦
粲
糞
糸
糹
系
約
納
素
索
紫
累
細
絜
絫
絲
維
綿
縣
繇
纍
纟
缶
网
罒
罔
罕
罗
罙
罡
罢
罪
署
罷
羅
羊
羌
羍
美
羔
羕
羗
羞
羡
羣
群
義
羲
羸
羽
翁
翏
習
翕
翟
翠
翼
老
耂
考
者
耆
而
耎
耑
耒
耳
耴
耶
耷
聂
聊
聖
聚
聶
聿
肀
肃
肅
肉
肖
肙
肥
肩
肯
育
肴
胃
背
胡
胥
能
脊
脩
膚
臣
臤
臧
自
臬
臭
臯
臱
至
致
臺
臼
臽
臾
臿
舀
舂
舄
與
興
舉
舌
舍
舛
舜
舞
舟
般
艮
良
色
艸
艹
艾
芒
芔
芦
芬
芮
花
芳
芺
芻
苔
苗
苟
若
苦
英
茶
茸
荅
草
荒
荣
荼
莆
莧
莫
莽
菆
菊
菐
華
萬
落
葉
著
葛
董
葵
蒙
蒦
蒼
蓋
蓬
蓺
蔑
蔡
蕉
蕭
薄
薛
薦
薰
藍
藏
藥
蘭
虍
虎
虐
虒
虔
處
虖
虗
虘
虚
虛
虜
虞
虫
虽
蚤
蚩
蜀
蜜
蟲
蠡
血
行
衍
衛
衣
衤
表
衮
衰
袁
袞
褭
褱
襄
襾
西
覀
要
覃
見
規
覓
覧
親
覽
见
角
解
言
訁
訇
計
詹
誩
諸
讠
谷
豆
豈
豊
豐
豕
豖
豙
象
豦
豩
豪
豸
貇
貝
貞
貟
負
貢
貧
貪
貫
責
貳
貴
買
費
賁
資
賈
賏
賓
賔
賛
賞
賢
賣
質
賴
贊
贝
贡
责
贯
贲
贵
赖
赞
赤
赦
走
越
足
路
蹇
身
躬
車
軍
軎
軟
輦
车
辛
辜
辟
辥
辰
辱
農
辵
辶
边
达
过
近
连
迷
追
退
送
逆
逐
通
速
造
逢
連
逮
進
遀
遂
過
道
達
遣
適
遷
遺
邊
邑
邕
那
邦
邪
郎
部
郭
都
鄉
酉
酋
配
酓
釆
采
里
重
野
量
金
釒
錢
钅
長
镸
长
門
閃
閉
開
閏
閑
閒
間
閔
閵
閻
闌
门
间
闷
阑
阜
阝
阿
降
陳
隆
隊
隋
隡
隨
隱
隶
隹
隺
隻
隼
隽
难
雀
雁
集
雈
雋
雍
雐
雔
雙
雚
雜
雝
離
難
雨
雩
雪
雲
零
雷
需
霍
霜
霝
霞
霸
靈
靑
青
非
靡
面
靣
革
韋
韦
韭
韯
韱
音
頁
頃
項
須
頗
頡
頻
顛
页
風
风
飛
飞
食
飠
養
饣
首
香
馬
馮
駦
马
骨
高
髟
鬥
鬯
鬲
鬼
魚
魯
鮮
鱼
鲁
鳥
鳳
鸟
鹵
鹿
麃
麗
麥
麦
麻
黃
黄
黍
黎
黑
黒
黨
黹
黽
黾
鼎
鼓
鼠
鼻
齊
齋
齐
齒
齿
龍
龙
龜
龟
龠
龰
龱
龴
龵
龶
龷
龸
龹
者
艹
（
）
，
？
𠀁
𠀃
𠀆
𠀉
𠀎
𠀐
𠁁
𠁣
𠂆
𠂇
𠂈
𠂉
𠂊
𠂋
𠂎
𠂒
𠂔
𠂛
𠂡
𠂢
𠂤
𠂬
𠂭
𠂹
𠃊
𠃋
𠃌
𠃍
𠃎
𠃑
𠃓
𠃔
𠃜
𠄌
𠄎
𠄠
𠄢
𠆢
𠆥
𠇍
𠈌
𠌵
𠓜
𠔉
𠔥
𠔼
𠔽
𠔿
𠕀
𠕁
𠕋
𠘧
𠘨
𠙻
𠙼
𠚏
𠚒
𠚤
𠚪
𠣏
𠤎
𠤕
𠥓
𠦄
𠦑
𠦝
𠧒
𠧗
𠧪
𠩺
𠪚
𠫓
𠫔
𠫤
𠬛
𠬝
𠬞
𠬢
𠬤
𠬶
𠮛
𠮦
𠮷
𠯑
𠱠
𠳮
𠷎
𡈼
𡉀
𡉵
𡌥
𡍮
𡏳
𡕒
𡕩
𡕰
𡖅
𡗗
𡗜
𡘆
𡘤
𡧱
𡨄
𡩧
𡬠
𡭽
𡰣
𡰥
𡰪
𡰯
𡰱
𡷈
𡸁
𡿨
𡿩
𡿪
𡿺
𢀖
𢀛
𢀩
𢁙
𢆉
𢆰
𢆶
𢇁
𢇇
𢉖
𢌬
𢌿
𢏚
𢑑
𢑚
𢖻
𢙣
𢛳
𢦏
𢦒
𢧵
𢼄
𢾕
𣁋
𣄼
𣅀
𣅽
𣍘
𣎳
𣎵
𣏋
𣏼
𣗥
𣥂
𣥖
𣦵
𣦼
𣧄
𣪊
𣪠
𣬉
𣳾
𣶒
𤇾
𤊽
𤐫
𤓰
𤔔
𤕨
𤣩
𤰇
𤰔
𤰞
𤴓
𤴔
𤽄
𥁑
𥁕
𥃦
𥃩
𥃭
𥇡
𥑟
𥘅
𥘈
𥝢
𥫗
𥱡
𦈢
𦉪
𦉬
𦉼
𦍌
𦍒
𦎧
𦐇
𦓔
𦔮
𦘒
𦙃
𦚏
𦣝
𦣞
𦣻
𦥑
𦥔
𦥯
𦨉
𦭝
𦰩
𧆞
𧈧
𧘇
𧰨
𧴪
𧴮
𧵩
𧾷
𨸏
𨾴
𩙿
𩠐
𩫏
𩵋
𪉷
𪜀
𪟽
𪠲
𪩲
𫇦
𫔭
𫜸
𫝀
𫠣
𫠩
𫢉
𫥞
𫩏
𫩠
𫪡
𫲽
𫶧
𬀷
𬐘
𬗌
𬙙
𬛸
𬜯
𬟩
𬯁
𬴘
𬺻
𬼉
𬼖
𭀰
𭁈
𭁨
𭅰
𭑈
𭕄
𭗼
𭤨
𭥫
𭻾
𮅕
𮊿
𮍌
𮍏
𮓗
𮥼
𮧮
廾
𰀁
𰀄
𰀈
𰀉
𰀕
𰀠
𰀡
𰀢
𰀪
𰁜
𰃮
𰆊
𰆘
𰋙
𰕎
𰢴
𰧭
𰯲
00--
000--
007--
01--
03--
04--
05--
051--
06--
08--
09--
255--
256--
261--
282--
a--
ab--
aba--
abbronzatis--
abo--
ac--
aca--
accre--
ace--
acu--
ad--
ade--
ado--
adu--
ae--
af--
ag--
age--
agi--
ago--
agu--
ah--
ai--
air--
al--
ala--
ale--
alek--
alessa--
ali--
all--
alt--
alta--
am--
ama--
ame--
ami--
ammazza--
ampli--
an--
ana--
ane--
anna--
annun--
ano--
ans--
anti--
antro--
any--
ao--
ape--
apo--
app--
ar--
ara--
arc--
arco--
are--
ari--
arma--
arti--
as--
ase--
ash--
asi--
ass--
astr--
asu--
at--
ate--
ati--
attac--
atten--
atti--
au--
aus--
auto--
av--
ava--
ave--
avi--
avo--
avto--
az--
b--
ba--
bab--
babil--
baby--
back--
bai--
bal--
ball--
ban--
bapt--
bar--
barna--
bat--
bau--
bax--
bay--
be--
bed--
bee--
beeth--
bel--
ben--
bene--
ber--
bet--
bi--
bic--
bie--
big--
bin--
bio--
bis--
bla--
blood--
blu--
bo--
bob--
bohe--
bolle--
bom--
bon--
bona--
boni--
boo--
bord--
borg--
bort--
bou--
bow--
bra--
bre--
bri--
bro--
bru--
bu--
bud--
bul--
bum--
bun--
bus--
but--
c--
ca--
cal--
cala--
cald--
cali--
calo--
cam--
cami--
can--
cana--
cap--
capa--
car--
cara--
care--
cas--
casa--
cat--
cate--
cc--
ccl--
ccx--
ce--
cele--
cen--
ces--
ch--
cha--
che--
chi--
choc--
ci--
cia--
cic--
cin--
cine--
cio--
circ--
cis--
ck--
cl--
cla--
cle--
cli--
clo--
cm--
cml--
cmx--
cn--
co--
cock--
col--
com--
coma--
comm--
con--
conce--
condi--
confe--
conig--
cop--
cor--
cos--
cow--
cra--
cre--
cri--
cro--
cru--
cu--
cua--
cuc--
cue--
cui--
cul--
cum--
cun--
cur--
cus--
cy--
d--
da--
dag--
dal--
dan--
dar--
das--
day--
dc--
dcl--
dcx--
dd--
de--
deb--
def--
deg--
dei--
del--
deli--
dem--
den--
denu--
depart--
der--
des--
det--
deter--
deut--
dev--
di--
dia--
dic--
did--
die--
dif--
dig--
dil--
dime--
dimo--
din--
dio--
diony--
dis--
disas--
dl--
do--
dob--
dom--
dome--
domi--
don--
dop--
dor--
dou--
dov--
dow--
dra--
dream--
ds--
du--
due--
dui--
dul--
dum--
dve--
dx--
dy--
dyna--
e--
eb--
ec--
ecc--
ed--
edu--
ef--
eg--
ei--
ein--
eint--
eintes--
eintesta--
eintsin--
eintve--
el--
ele--
elec--
elett--
elf--
em--
eme--
emi--
en--
encic--
end--
ene--
ep--
equi--
er--
ere--
eri--
ero--
es--
esa--
ese--
est--
et--
eu--
ev--
ever--
evol--
ex--
experi--
f--
fa--
fac--
fai--
fan--
far--
fe--
fel--
femm--
fen--
fer--
fi--
fia--
fiammif--
fil--
fin--
fio--
fire--
fis--
fla--
flam--
flu--
fne--
fo--
fog--
for--
foto--
fra--
frag--
fras--
fre--
free--
fri--
fried--
fro--
fru--
fu--
fun--
fur--
g--
ga--
gab--
gal--
gala--
gale--
gar--
gas--
ge--
gen--
ger--
ges--
get--
geu--
gg--
ghe--
ghi--
gi--
gia--
gian--
gil--
gio--
giu--
giuse--
gl--
gla--
gli--
glo--
go--
god--
gold--
gor--
got--
gra--
gram--
gre--
green--
gri--
gro--
gru--
gu--
gua--
guerr--
gui--
gun--
gy--
h--
ha--
had--
hai--
har--
has--
hay--
he--
hell--
her--
hi--
hic--
high--
hip--
ho--
hob--
home--
how--
hu--
huck--
hy--
i--
ia--
ic--
ide--
ie--
ig--
ign--
il--
ill--
im--
imp--
improvv--
in--
inau--
inc--
inco--
incu--
ind--
indep--
indi--
indo--
ine--
infe--
ini--
inn--
ins--
inse--
inta--
inte--
inter--
inti--
inu--
inve--
invi--
io--
ip--
ir--
is--
iso--
ist--
it--
ita--
ital--
iu--
iv--
j--
ja--
jam--
jan--
jar--
jas--
je--
ji--
jo--
joa--
ju--
k--
ka--
kat--
ke--
kei--
kel--
ken--
ker--
ki--
kid--
kno--
ko--
kos--
kot--
kra--
ku--
l--
la--
lam--
lan--
lar--
las--
lau--
lava--
lc--
le--
lea--
lei--
lem--
len--
leo--
les--
let--
lev--
li--
lib--
lin--
lis--
lisa--
lit--
ll--
lo--
loc--
log--
lom--
lone--
lt--
lu--
luc--
lum--
lus--
lv--
ly--
m--
ma--
mac--
mad--
mae--
mag--
mal--
mala--
man--
mani--
mar--
mas--
mastu--
mat--
may--
mb--
mc--
mccc--
mcccl--
mcccx--
mcd--
mcdl--
mcdo--
mcdx--
mcg--
mdc--
mdccc--
mdccl--
mdccx--
mdcl--
mdcx--
me--
mea--
mecca--
med--
meh--
mel--
mele--
men--
menzo--
mer--
mes--
met--
mi--
mid--
mig--
mik--
mil--
mile--
mileotse--
mileotseinte--
mileotseintsin--
mileotseinttre--
miles--
milese--
milesetse--
milesin--
milesinc--
mileuta--
milnovse--
milnovseinte--
milnovseintsin--
milnovseinttre--
milquaterse--
milseinte--
milsese--
milseseinte--
milseseintsin--
milsetse--
milsetseinte--
milsetseintsin--
milsincse--
milsincseinte--
mini--
mino--
mir--
mira--
mis--
mit--
mm--
mo--
mol--
mon--
mont--
monte--
moon--
mos--
moto--
mp--
ms--
mu--
mudif--
mul--
mule--
multi--
mun--
mur--
mura--
mus--
mut--
muv--
my--
n--
na--
nap--
nar--
nas--
navig--
nc--
nd--
ne--
nec--
neg--
nes--
new--
nf--
ni--
nig--
nin--
nis--
nn--
nnamm--
no--
noc--
nom--
non--
nor--
nord--
nos--
nouv--
nova--
novse--
novseinte--
novseintsin--
novseinttre--
ns--
nt--
nu--
nue--
num--
nun--
nut--
nz--
o--
ob--
oc--
occid--
od--
of--
ofe--
off--
og--
ol--
ola--
old--
oli--
oly--
om--
omose--
on--
one--
ono--
oo--
op--
or--
ora--
ore--
ori--
os--
ose--
ot--
otse--
otseinte--
otseintsin--
otto--
ou--
our--
out--
over--
oz--
p--
pa--
pac--
pag--
pale--
palla--
palm--
pan--
par--
para--
parro--
pas--
passa--
pat--
pau--
pe--
pee--
pel--
pen--
per--
peri--
pes--
pet--
ph--
phy--
pi--
pia--
pic--
pie--
pier--
pif--
pig--
pin--
pio--
pir--
pis--
pl--
pla--
play--
ple--
pli--
po--
poe--
poi--
pol--
poli--
pon--
pop--
por--
port--
pos--
pra--
prac--
pre--
pri--
pro--
pru--
psi--
pu--
pub--
pul--
pur--
purif--
pus--
put--
q--
qua--
quaterse--
que--
qui--
quin--
quo--
r--
ra--
raccont--
rad--
raf--
rag--
rai--
ram--
ran--
rap--
ras--
rb--
rc--
rd--
re--
rea--
reck--
red--
ref--
reg--
regi--
rei--
rem--
ren--
res--
responsa--
rev--
rg--
ri--
ric--
rico--
ridi--
rie--
rip--
ris--
rit--
riu--
rive--
rm--
rn--
ro--
rock--
rod--
rom--
ron--
rose--
rou--
roves--
row--
rox--
rr--
rs--
rt--
ru--
rub--
run--
ry--
rz--
s--
sa--
sab--
sac--
sai--
sal--
sam--
san--
sar--
satis--
sau--
sba--
sc--
sca--
scan--
scar--
sce--
sch--
schaf--
sci--
sco--
scu--
se--
sea--
sec--
sed--
see--
seg--
sei--
seint--
seinte--
sel--
sem--
ser--
sera--
ses--
sese--
seseinte--
seseintsin--
seseinttre--
setse--
setseinte--
setseintsin--
sex--
sfe--
sfi--
sha--
she--
shef--
shi--
sho--
si--
sic--
sie--
sig--
sil--
sim--
sin--
sincse--
sincseinte--
sincseintsin--
sis--
sk--
sl--
sla--
sma--
smo--
sn--
so--
sof--
sogg--
sol--
son--
sorr--
sos--
sot--
sp--
spa--
spar--
spe--
spi--
sple--
spo--
ss--
sst--
sta--
stan--
star--
ste--
sti--
stig--
sto--
stra--
stu--
su--
sub--
sud--
suf--
sul--
sum--
sun--
super--
sur--
sus--
sut--
sw--
sy--
t--
ta--
tac--
tag--
tai--
tal--
tam--
tan--
tar--
tas--
tat--
te--
tea--
tecn--
tele--
ten--
teo--
ter--
tes--
tg--
th--
thun--
ti--
tig--
tim--
tip--
tir--
tira--
tm--
to--
toc--
tol--
tom--
ton--
top--
topo--
tor--
tox--
tr--
tra--
traf--
tran--
trans--
tras--
tre--
tri--
tria--
tro--
tseint--
tt--
tu--
turt--
ty--
u--
ucc--
uf--
ul--
um--
un--
unc--
uni--
up--
ur--
uru--
us--
use--
ut--
uta--
uto--
uv--
v--
va--
val--
valle--
van--
var--
vas--
ve--
vec--
ved--
vei--
vel--
ven--
vene--
ver--
ves--
vi--
via--
vic--
vie--
vik--
vin--
vio--
vis--
vo--
voca--
vol--
vos--
vs--
vu--
vv--
w--
wa--
war--
we--
wea--
web--
wei--
wes--
whe--
whis--
whit--
wie--
wiki--
wil--
win--
wit--
wol--
wor--
wu--
wy--
x--
y--
ya--
yo--
yu--
z--
za--
zar--
ze--
zi--
zo--
zu--
æ--
--0
--00
--01
--05
--06
--07
--08
--09
--1
--10
--11
--15
--16
--17
--2
--20
--21
--25
--26
--27
--28
--29
--3
--30
--31
--33
--35
--36
--37
--38
--4
--40
--41
--43
--44
--45
--46
--47
--49
--5
--50
--51
--55
--56
--57
--58
--6
--60
--65
--66
--7
--70
--71
--74
--76
--78
--8
--80
--81
--82
--83
--85
--86
--89
--9
--90
--93
--95
--96
--97
--a
--able
--ac
--acci
--ad
--ada
--adi
--ado
--adu
--ae
--age
--agni
--ai
--ail
--aire
--ais
--ak
--al
--ale
--ali
--am
--ame
--ami
--amo
--an
--ana
--and
--ane
--ani
--ano
--ant
--apo
--ar
--ara
--ard
--arde
--ardi
--are
--aro
--ary
--as
--ase
--aste
--asti
--at
--ata
--ate
--ath
--ati
--ato
--au
--ax
--ay
--azione
--b
--ba
--ball
--ban
--bard
--bb
--bbe
--be
--bel
--berg
--bi
--ble
--bo
--boy
--bra
--bre
--bri
--bs
--bu
--burg
--burn
--bus
--by
--c
--ca
--cal
--came
--care
--cchi
--cchio
--cci
--ccio
--cco
--ce
--cello
--cey
--ch
--cha
--che
--chi
--cht
--ci
--cia
--cini
--cino
--cio
--ck
--cks
--co
--cott
--cow
--cri
--ct
--ction
--cu
--cy
--d
--da
--dal
--dam
--de
--der
--des
--dez
--dghe
--di
--dia
--dice
--die
--dime
--dini
--dio
--dle
--do
--dola
--don
--dor
--down
--ds
--du
--dy
--e
--ea
--eau
--eb
--ed
--ee
--een
--ef
--ei
--eia
--ek
--el
--ell
--elli
--ello
--em
--en
--ena
--ence
--ened
--ens
--ent
--enti
--eo
--er
--era
--ere
--eri
--ern
--ero
--ers
--ert
--erta
--es
--esio
--est
--et
--ete
--etor
--ett
--ette
--etti
--etto
--eu
--eur
--eux
--ev
--ey
--ez
--f
--fa
--face
--fe
--fere
--ff
--fi
--fica
--fiche
--fo
--ft
--fu
--ful
--g
--ga
--gan
--gasio
--ge
--ged
--gel
--gen
--ger
--gge
--ggi
--ggia
--ggio
--gh
--ghe
--ghi
--ght
--gi
--gia
--gie
--gio
--glia
--glio
--gn
--gna
--gname
--gne
--gni
--gnino
--gno
--gnu
--go
--gra
--gro
--gs
--gu
--gue
--gy
--h
--ha
--ham
--han
--he
--heim
--hen
--her
--hi
--hing
--hip
--hl
--hn
--ho
--hoff
--hor
--hr
--hs
--ht
--hy
--i
--ia
--iale
--iamo
--ian
--iano
--ibile
--ibili
--ible
--ibus
--ic
--ica
--ick
--ico
--id
--ida
--ide
--ido
--ie
--ier
--iere
--ies
--ifica
--ign
--ii
--ij
--ija
--il
--ile
--im
--ime
--in
--ina
--ine
--ing
--ings
--ini
--ino
--ins
--int
--intadu
--intano
--intaqua
--intase
--intasi
--intatri
--intde
--intderse
--intdes
--intdo
--intedu
--intessa
--intesta
--intestantase
--intestanto
--intestantu
--intetri
--intno
--into
--intqui
--intse
--intsi
--intsinquantu
--intu
--intve
--intveintedu
--intveintetri
--intveintno
--intveinto
--intveintqua
--intveintse
--intveintsi
--intveintu
--io
--ioli
--ion
--ione
--ions
--ior
--ioso
--ious
--ip
--ir
--ire
--iro
--is
--isi
--ist
--it
--ita
--ite
--iti
--ito
--itt
--ity
--iu
--ium
--iuna
--iune
--ius
--iv
--iva
--ix
--j
--ja
--je
--jo
--k
--ka
--ke
--kel
--ker
--ki
--kin
--kins
--ko
--kov
--ks
--ky
--l
--la
--lah
--land
--ld
--lde
--ldi
--ldo
--le
--ler
--les
--less
--ley
--li
--lia
--lie
--lin
--ling
--lini
--lio
--lis
--lite
--lja
--ll
--lla
--lle
--lli
--llo
--lly
--lme
--lo
--logia
--lon
--loni
--loo
--ls
--lt
--lta
--lte
--lto
--lu
--lus
--lvi
--ly
--m
--ma
--mado
--man
--mano
--masio
--mbu
--me
--men
--ment
--mente
--menti
--mi
--mia
--mo
--mon
--mos
--mp
--mpo
--ms
--mu
--mum
--mus
--my
--n
--na
--nabo
--nado
--naeus
--nai
--nais
--nal
--nam
--nare
--nc
--nce
--nche
--nck
--nco
--ncy
--nd
--nda
--nde
--ndi
--ndo
--ndre
--ndro
--ne
--nei
--nel
--ner
--ners
--nes
--nese
--ness
--ney
--ng
--nge
--nger
--ngo
--ngs
--nha
--ni
--nia
--nie
--nier
--ning
--nini
--nio
--nis
--nita
--nite
--nito
--nity
--nk
--nn
--nna
--nne
--nner
--nnes
--nni
--nno
--no
--nol
--nota
--nove
--nqua
--nquantu
--ns
--nsa
--nsame
--nse
--nsi
--nsie
--nsio
--nski
--nso
--nson
--nstein
--nt
--nta
--ntadu
--ntano
--ntaqua
--ntase
--ntasi
--ntatri
--nte
--nti
--ntia
--ntin
--ntini
--nto
--ntrione
--nts
--ntu
--ntum
--nu
--nue
--num
--nus
--nve
--ny
--nz
--nza
--nze
--nzo
--o
--oa
--ock
--od
--odo
--ogi
--oi
--oir
--ok
--ol
--ole
--oli
--olo
--om
--on
--one
--oni
--ons
--op
--or
--ora
--ore
--ori
--ors
--ort
--os
--osa
--oso
--ot
--otti
--ou
--ous
--out
--ov
--ova
--ovic
--ow
--oy
--p
--pa
--pe
--ped
--per
--pi
--ping
--pio
--po
--ppo
--ps
--pt
--pta
--ption
--pu
--py
--q
--qu
--qua
--que
--r
--ra
--rale
--rata
--ration
--rato
--rba
--rcado
--rce
--rci
--rcio
--rd
--rda
--rdi
--rdo
--re
--relli
--res
--reux
--rgi
--rgo
--ri
--ria
--rie
--rii
--rin
--rina
--rini
--rino
--rio
--ris
--rita
--rium
--rius
--riz
--rk
--rks
--rla
--rly
--rma
--rmasio
--rme
--rmi
--rmo
--rn
--rna
--rne
--rni
--rno
--ro
--rono
--rot
--rra
--rre
--rs
--rsa
--rse
--rsi
--rso
--rt
--rta
--rte
--rti
--rto
--ru
--rum
--ry
--ryl
--s
--sa
--sby
--sca
--sce
--sch
--sci
--sco
--se
--sen
--sh
--shed
--shing
--si
--sia
--sie
--simo
--sio
--sion
--sipa
--siuna
--siune
--sley
--sman
--smo
--so
--son
--sor
--ss
--ssa
--sse
--ssi
--ssima
--ssimo
--sso
--sson
--ssor
--ssu
--st
--sta
--ste
--sti
--stina
--sto
--stone
--stre
--su
--sus
--sy
--sz
--t
--ta
--tal
--tame
--tas
--tati
--tation
--tato
--tch
--te
--ted
--ten
--ter
--tes
--th
--tha
--ti
--tia
--tian
--tic
--tica
--tico
--tie
--time
--tine
--ting
--tio
--tion
--tions
--tis
--tiva
--tivi
--tlo
--to
--ton
--tone
--tor
--tore
--tori
--tos
--town
--tr
--tra
--tre
--tri
--tro
--ts
--tt
--tta
--tte
--tti
--tto
--ttri
--tu
--tui
--tum
--tune
--tur
--tus
--ty
--tz
--tzer
--u
--ua
--ual
--uba
--ucci
--uccio
--ud
--ude
--ue
--ues
--uga
--ugi
--ui
--uire
--uit
--ul
--ule
--uli
--ulo
--ult
--ulugi
--ulus
--um
--umi
--un
--una
--une
--uni
--unt
--uolo
--upe
--ur
--ura
--ure
--uria
--urus
--us
--usio
--ut
--uta
--ute
--uti
--uto
--uve
--uvi
--ux
--v
--va
--vak
--val
--vano
--ve
--ver
--vere
--veri
--ves
--vi
--via
--vit
--vna
--vo
--vole
--vyn
--w
--wa
--wald
--way
--ween
--wer
--wick
--wl
--wn
--wood
--x
--xa
--xi
--xl
--xy
--y
--ya
--ye
--yer
--yl
--yn
--ys
--z
--za
--zan
--ze
--zer
--zi
--zia
--zie
--zini
--zio
--zione
--zioni
--zo
--zon
--zoni
--zy
--zz
--zza
--zzi
--zzo
--ł
--ʊ
--а
