!
"
#
##0
##1
##10
##11
##12
##13
##14
##15
##16
##17
##18
##19
##2
##20
##21
##22
##23
##24
##25
##26
##27
##28
##29
##3
##30
##31
##32
##33
##34
##35
##36
##37
##38
##39
##4
##40
##41
##42
##43
##44
##45
##46
##47
##48
##49
##5
##50
##51
##52
##53
##54
##55
##56
##57
##58
##59
##6
##60
##61
##62
##63
##64
##65
##66
##67
##68
##69
##7
##70
##71
##72
##73
##74
##75
##76
##77
##78
##79
##8
##80
##81
##82
##83
##84
##85
##86
##87
##88
##89
##9
##90
##91
##92
##93
##94
##95
##96
##97
##98
##99
$
%
&
'
(
)
*
+
,
-
.
/
0
00
000
0001
0004
0008
001
002
003
004
007
008
00841
00842
01
010
011
0117
014
02
023
025
0277
03
033
036
0362
039
04
045
05
050
053
055
06
060
068
06876
07
073
078
08
086
09
0923
1
10
100
1000
1002
1003
10043769
1005
1006
1007
101
1013
102
1020
1021
1023
1025
1028
103
1033
1034
1035
104
1044
1045
1048
105
1055
10569
1057
106
1060
1061
1062
1064
1067
107
1070
108
1080
109
1093
1095
11
110
1100
1103600
1108
111
1117
112
1120
1122400
1123
1126
113
1132000
1137
114
1142
1144
1148
115
1150
1153
1156
116
1164
117
1177
118
119
1193
12
120
1200
121
1212
122
1227
123
1234
124
1243
125
1255
1257
126
1260
1266
127
1277
128
1280
1281
1287
129
1290
1293
1295
1299
13
130
1300
1304
1306
131
1313
1318
132
1321
1325
1326
133
134
1341
1342
1345
1346
1349
135
1350
1351
1354
1357
1359
136
1360
1361
1362
1364
1365
137
1375
1377
1378
138
1380
1389
139
1390
1391
1395
1399
14
140
1405
1406
141
1412
1413
1415
1419
142
1421
1423
1426
1428
143
1432
1438
144
1441
1445
145
1451
1452
1453
146
1461
1465
1466
1467
1468
1469
147
1470
1475
1478
1479
148
1480
1481
1485
1487
149
1491
1492
1496
1498
15
150
1500
1501
1502
15022017
1503
1504
1508
151
1512
1514
1515
1516
1517
1519
152
1520
1521
1523
1524
1527
153
1532
1533
1538
154
1542
1543
1545
155
1551
1552
1553
1556
156
1564
1566
1568
1569
157
1571
1572
1574
1576
1577
158
1584
1586
1587
1588
159
1594
1596
1597
16
160
1600
1601
1607
161
1618
162
1622
1623
1626
1629
163
1631
1639616
164
1640
1642
1643
1644
1645
1648
165
1650
1654
1657
166
1660
1666
1669
167
1671
1672
1673
1676
1678
168
1687
169
1691
1692
1696
1699
17
170
1703
1704
1707
171
171105
1715
172
1723
173
1730
1734
1736
1738
174
1740
175
1750
1756
176
1766
1768
177
1770
1771
1772
1774
1775
1778
1779
178
1783
1784
1785
1787
1788
1789
179
1790
1791
1792
1793
1794
1795
1796
1799
18
180
1800
1803
1804
1805
1808
1809
181
1812
1813
1814
1816
1817
182
1820
1821
1822
1823
1824
1825
1826
1827
1828
1829
183
1830
1831
1832
1833
1834
1835
1836
1839
184
1840
1841
1842
1844
1846
1847
1848
1849
185
1850
1851
1852
1853
1854
1855
1856
1857
1858
1859
186
1860
1861
1862
1864
1865
1866
1867
1869
187
1870
1871
1872
1874
1875
1876
1877
1878
1879
188
1880
1881
1882
1883
1884
1885
1886
1887
1888
1889
189
1890
1891
1892
1893
1894
1895
1896
1897
1898
1899
19
190
1900
1901
1902
1903
1904
1905
1906
1907
1908
1909
191
1910
1911
1912
1913
1914
1915
1916
1917
1918
1919
192
1920
1921
1922
1923
1924
1925
1926
1927
1928
1929
193
1930
1931
1932
1933
1934
1935
1936
1937
1938
1939
194
1940
1941
1942
1943
1944
1945
1946
1947
1948
1949
195
1950
1951
1952
1953
1954
1955
1956
1957
1958
1959
196
1960
1961
1962
1963
1964
1965
1966
1967
1968
1969
197
1970
1971
1972
1973
1974
1975
1976
1977
1978
1979
198
1980
1981
1982
1983
1984
1985
1986
1987
1988
1989
199
1990
1991
1992
1993
1994
1995
1996
1997
1998
1999
2
20
200
2000
2001
2002
2003
2004
2005
2006
2007
2008
2009
201
2010
2011
20111028064539
2012
20121010205321
2013
2014
2015
20150527005506
2016
2017
20170731141731
2018
20180219034731
20180618
20180726010024
20180801125531
2019
20190513150350
20190517104742
202
2020
20200822004543
202014
202020
202021
2021
20210502131349
2022
20220406120543
2025
203
204
2046
205
2051
206
207
208
209
21
210
211
212
213
214
215
216
217
218
219
22
220
221
222
223
224
225
226
227
228
229
23
230
231
232
233
234
235
236
237
238
239
24
240
241
242
243
244
245
246
2464
247
248
249
25
250
251
252
253
254
255
256
257
258
259
26
260
261
262
263
264
265
266
267
268
269
27
270
271
272
273
274
275
276
277
278
279
28
280
281
282
283
284
285
286
287
288
289
29
290
291
292
293
294
295
2958
296
297
2975
298
299
3
30
300
3000
301
302
303
303140
304
305
306
307
308
309
31
310
311
312
313
314
314251804085
315
316
317
318
319
32
320
321
322
323
3235
324
325
326
327
328
329
33
330
331
332
333
334
335
3354
336
337
338
339
34
340
341
342
34285
343
344
345
346
347
348
349
35
350
351
352
353
354
355
356
357
358
359
36
360
361
362
363
364
365
366
367
368
369
37
370
371
372
373
374
375
376
377
378
379
38
380
38044
381
382
383
384
385
386
387
388
389
39
390
391
392
393
394
395
396
397
398
399
4
40
400
401
402
403
404
405
406
407
408
409
41
410
411
412
413
414
415
416
417
418
419
42
420
421
4217
422
423
424
425
426
427
428
429
43
430
431
432
433
4331
434
4344
435
436
437
438
439
44
440
441
442
443
443000
444
445
446
447
448
449
4497
45
450
451
452
453
454
455
456
457
458
459
46
460
461
462
463
464
465
466
467
468
469
47
470
471
472
473
474
475
476
477
478
479
48
480
481
482
483
484
485
486
487
488
489
49
490
491
492
493
494
495
496
497
498
499
5
50
500
5000
501
502
503
504
505
506
507
508
509
51
510
511
512
513
514
515
516
517
518
519
52
520
521
522
523
524
525
526
527
528
529
53
530
531
532
533
534
535
537
538
539
54
540
541
542
543
544
545
546
547
548
549
55
550
551
552
553
554
555
556
557
558
559
56
560
561
562
563
564
565
566
567
568
569
57
570
57004
571
572
573
574
575
576
578
579
58
580
58004
581
582
583
584
585
586
587
589
59
590
591
592
593
594
595
596
597
598
599
6
60
600
601
602
603
604
605
606
60624
607
608
609
61
610
611
612
613
614
615
616
617
618
619
62
620
621
622
6229
623
624
625
626
627
628
629
63
630
631
632
633
634
635
636
637
638
639
64
640
641
642
643
644
645
646
647
648
648900
649
65
650
651
652
653
654
655
656
657
658
659
66
661
662
663
664
665
666
667
668
67
670
671
672
673
674
675
676
677
678
679
68
680
681
682
683
684
685
686
687
688
689
69
690
691
692
693
694
695
696
697
698
699
7
70
700
701
702
703
704
705
706
707
708
709
71
710
711
712
713
714
715
71585
716
717
718
719
72
720
721
722
723
724
725
726
728
729
73
730
731
732
733
734
735
736
737
738
739
74
740
741
742
744
745
746
748
749
7492
75
750
751
752
753
754
755
756
757
758
759
76
760
761
762
763
764
765
766
767
768
769
77
770
771
772
773
774
775
776
777
779
78
780
782
783
78369
784
785
786
787
788
789
79
790
791
792
7929
793
794
795
796
797
7979
799
8
80
800
8006001
801
803
804
805
806
807
808
809
8095
81
810
811
812
813
8133
814
816
817
818
819
82
820
821
822
823
824
825
826
827
828
829
83
830
831
832
833
834
8349
835
836
837
838
839
84
840
841
842
843
844
845
8459
846
847
8478
849
85
850
851
852
853
854
855
856
857
858
86
860
861
862
863
865
866
867
868
869
87
870
871
8714
872
873
874
875
876
877
878
879
88
880
88185
882
883
884
885
886
887
888
889
89
890
891
892
893
894
89476
895
896
897
898
9
90
900
90040
902
903
904
905
906
907
909
91
910
911
912
913
914
915
916
917
918
919
92
920
921
922
924
925
926
928
929
93
930
932
9320
933
934
935
936
937
938
939
94
940
941
942
944
945
946
9463
947
9478
948
949
95
951
952
956
957
96
960
961
962
963
964
965
966
968
969
97
970
971
972
973
974
975
976
977
977378
978
979
98
980
982
983
984
985
987
988
989
99
990
991
992
993
994
995
997
998
999
:
;
<
=
>
?
@
[
\
]
^
_
`
a
aa
aaccbfa
aaefc
aat
aatlıq
aatı
ab
aban
abat
abbas
abd
abdennanova
abdrahmanovo
abdras
abdu
abdul
abdulkarimovo
abdulla
abdullah
abdullino
abduraman
abduramanov
abdureim
abdures
abe
abes
abhaziya
abibulla
abide
abidesi
abidesidir
abik
abla
ablayev
ablon
about
abs
absala
abu
abzakovo
abzelilovo
abı
ac
acag
acaq
acayip
ace
acele
acemistan
aci
acref
activist
acı
acılıqqa
ad
ada
adag
adalar
adaları
adalarında
adalarının
adalet
adaletli
adam
adamdır
adamg
adamivka
adamlar
adamlarg
adamlarnen
adamlarnı
adamlarnın
adamları
adamlarından
adamnı
adamı
adan
adana
adas
adası
adasına
adasında
adasındaki
adasının
adel
ades
adet
adeti
adetince
adetlerine
adetlerini
adette
adi
adiga
adil
adim
adin
adise
adiseler
adiy
adlandırıla
adlandırıldı
adlandırılg
adlar
adları
adlarınen
adlarını
adliye
adlı
admin
admiral
adnın
adolf
adrino
adı
adıdır
adıgece
adıgeya
adıgeysk
adılar
adım
adın
adına
adında
adından
adınen
adını
adının
adır
ae
af
afar
afc
afg
afize
afrika
afrikada
afrikadaki
afrikanın
afroamerikanlarnın
afta
aftada
aftalıq
after
afuriy
afı
afına
afını
afının
ag
agac
agan
agatangel
age
agency
agent
aginskoye
agrar
ah
ahin
ahla
ahmat
ahmed
ahmerovo
ahmet
ahmetovo
ahsen
ahsiy
ahtarsk
ahtubinsk
ahu
ahulova
ahunovo
ahunya
ahıs
ahıslar
ahıslarnın
ai
aile
ailede
ailesi
ailesinde
ailesinden
ailesine
ailesinen
ailesinin
ain
air
airdir
airi
airidir
airler
airlerinden
airlerinin
airnin
ait
aitovo
aittir
ak
aka
akademik
akademiyası
akademiyasında
akademiyasını
akademiyasının
akam
akc
aki
akim
akimiyet
akimiyeti
akimiyetine
akimiyetinin
akimiyetnin
akimov
akir
akira
akis
akiv
akovo
aks
aksakovo
aksam
akso
akstat
aktajıdın
aktas
aktau
aktiv
akto
aktrisa
aktrisası
aktu
akırıp
al
ala
aladı
alag
alalar
alamaq
alan
alana
alang
alanlar
alap
alar
alaraq
alarg
alarnın
aları
alarında
alarını
alarının
alas
alasız
alav
alay
alayıcı
alayım
albas
albat
albatlılar
albatta
albert
albom
albomnın
albomı
albrecht
album
alc
alda
alderete
aldi
aldin
aldı
aldılar
aldın
aldına
aldında
aldındaki
alebe
alegerilor
aleksander
aleksandr
aleksandrov
aleksandrovka
aleksandrovsk
aleksandrovskiy
aleksey
alekseyevka
alekseyevskaya
alem
aleph
ales
alet
aleti
aletidir
aletler
aletleri
aletli
aletnin
alettir
alexander
aleysk
alfabe
alfo
alfred
alg
alga
algan
ali
alicenap
alihesi
alim
alime
alimi
alimler
alimni
alimnin
alimov
alinde
alini
alinin
alip
alis
alitus
aliy
aliye
aliyev
alizade
alkino
all
alla
allah
allahnın
allahqa
allahtan
allarda
allı
alma
almadı
almag
almagansın
almalı
alman
almanca
almaniya
almaniyada
almaniyag
almaniyanın
almanlar
almaq
almaqta
almas
almasa
almasan
almatı
almay
almayıp
almaz
alo
alone
alper
alplar
alqalı
als
alt
altajskij
altan
altay
altayca
altaysk
altayskoye
alternativ
altmıs
altı
altın
altına
altıncı
altında
alupka
alupkada
alus
aluv
alı
alım
alın
alına
alında
alındı
alıng
alınmag
alınması
alıns
alıntı
alıp
alıq
alır
alıs
am
ama
amag
amam
aman
amaq
amar
amas
amasya
aması
amay
amazon
amber
amberi
ambernin
amdan
amdi
amelge
ameliy
ameliyat
america
american
amerika
amerikada
amerikalı
amerikan
amet
amethan
ametov
ametovnın
ami
amil
aminevo
amirovo
amit
amiz
amma
amman
amsterdam
amur
amurstat
amza
amı
amız
an
ana
anadan
anadolu
anadolug
anag
anakkale
analar
anam
anan
ananeleri
ananeviy
ananyiv
anapa
anaq
anaqlarnın
anastacia
anası
anasına
anasını
anasının
anatoliy
anav
anayasa
anayasası
anb
anc
anca
ancaq
ance
anceles
and
anda
andaki
andan
andersen
andican
andir
andorra
andrey
andreyevka
andreyevskiy
andriy
andriyas
andriyivka
andrus
andy
andı
andır
anen
ang
angi
angkor
angola
anhalt
anhay
ani
anim
anima
anime
animni
anin
anina
anindan
anini
anistan
anistannın
anivka
anka
ankara
ankarada
ankaya
ankırı
anlar
anlardan
anlarg
anlari
anlarini
anlarnin
anlarnı
anlarnın
anları
anlarına
anlarını
anlas
anlı
anlıg
anmi
anmiz
anna
anne
annovka
annı
annın
anovo
anoye
anqara
ans
ansamblinin
ansamblnin
ansin
ansk
anska
anske
anskiy
ansın
ant
antigua
antik
anton
antonio
antonivka
antonovka
anuy
anı
anım
anın
anına
anından
anınen
anını
anının
anıp
anıy
ao
ap
apa
apansızdan
apaqayı
apaqayım
apaqayın
apayevo
apayı
apc
api
apis
apiske
aplınka
appazov
application
apportionment
approximate
apraz
aprel
aprelnin
april
aps
apte
aq
aqa
aqam
aqay
aqbaba
aqc
aqilin
aqiqat
aqiqaten
aqiqatnı
aqiqatta
aqiqiy
aqko
aqlar
aqlarnın
aqları
aqlarına
aqlarını
aqlarının
aqlas
aqlig
aqlı
aqmag
aqmaq
aqmec
aqmescit
aqmescitke
aqmescitnin
aqmescitte
aqmescitteki
aqmescitten
aqnen
aqqa
aqqan
aqqaya
aqqus
aqqı
aqqına
aqqında
aqqındadır
aqqındaki
aqqını
aqraba
aqs
aqsu
aqsız
aqsızlıq
aqta
aqtac
aqtan
aqtas
aqyar
aqyarda
aqıl
aqıllı
ar
ara
araba
arabasın
arabat
arabistan
arabiyya
arac
arada
aradan
arag
arait
arakı
aral
aralarında
aralıq
aram
arama
aran
arap
arapc
araq
araret
arareti
aras
arası
arasına
arasında
arasındaki
arasından
aravind
arb
arbiy
arbuzovka
arbında
arbındaki
arc
arca
arch
archinal
archinform
archive
archives
ardatov
ardı
are
area
areket
areketi
areketinde
areketine
areketini
areketinin
areketke
areketler
areketleri
areketlerini
areketlerni
areketni
areketnin
arekette
aret
areti
aretler
aretleri
arf
arfesinde
arfi
arfidir
arfinen
arg
argentina
argorod
arhangelsk
arhangelskoye
arhangelskstat
arhara
arhiv
arhivlengen
arif
arifler
arifleri
ariflerinen
ariflerni
ariften
arip
aripovo
aristan
aristanda
aristandaki
aristanin
aristannın
aristotel
arivka
ark
arka
arkaul
arktik
arlar
arli
arlz
arlıg
arlıq
arma
arman
armiya
armstrong
armut
army
arnavutlıq
arovka
arovo
arp
arpa
arpanet
arpqa
arpta
arptan
arq
arqa
arqadas
arqiy
arqqa
arqs
arqta
arqında
ars
arslan
arslanovo
arsın
art
arta
article
articles
artificial
artist
artisti
artists
artları
artlı
arto
artqa
artqac
artqan
arts
artsız
artu
artı
artın
artında
artından
artıq
aru
aruv
arxiv
arya
arzu
arzı
arı
arıpovo
arıs
as
asa
asam
asan
asanov
asaray
asarayda
asaraydaki
asaraydan
asarayg
asaraynı
asaraynın
asi
asia
asin
asina
asini
asiya
asiyada
asiyadaki
asiyadan
asiyanın
asker
askerge
askeri
askeriy
askerler
askerleri
askerlik
askerlikke
askino
aslı
aslında
asma
asp
aspx
asrav
assambleya
assambleyası
assc
assembly
association
ast
asta
astka
astrahan
astrastat
astrobl
astron
astronomy
astı
astına
astında
astırıp
ası
asıdır
asıl
asıllı
asılzadeler
asın
asına
asında
asındaki
asından
asını
asının
asıp
asır
asırda
asırdaki
asırdan
asırg
asırlar
asırlarda
asırlardan
asırlarnın
asırnın
at
ata
atal
atalar
atam
atan
atar
atası
atatu
atay
ates
atheism
atiqiyat
atiqiyatc
atis
atka
atlag
atlantik
atlanıp
atlap
atlar
atların
atlarına
atlı
atmag
atmaq
atnın
atov
atqa
atqan
atr
atra
atsk
atskiy
atta
attan
atti
attı
attılar
atura
aty
atı
atıldı
atılg
atımdı
atımnın
atın
atına
atını
atıp
atır
atırav
atırdag
atıs
au
auc
audio
audubon
aul
aurgazı
aus
aut
auteurs
authorities
authority
auz
av
ava
avada
avale
avangard
avanın
avdet
aveska
avg
avgust
avgustnın
aviatsiya
avka
avrasiya
avril
avropa
avropada
avropadaki
avropag
avropalı
avropanın
avru
avstraliya
avstraliyanın
avstriya
avtobuslar
avtomatik
avtovokzal
avuc
avurg
avus
avuz
avıl
avıp
award
ay
aya
ayac
ayag
ayaq
ayaqlı
ayaqqa
ayat
ayatiyat
ayatnın
ayatqa
ayatı
ayatına
ayatında
ayatını
ayatının
ayda
aydamaq
aydan
aydap
aydas
ayday
ayder
aydin
aydı
aydın
ayet
ayevka
ayevo
ayg
ayhan
ayi
ayin
ayip
ayiq
ayka
aykino
aykovskiy
aylanma
aylanıp
aylar
aylarnın
ayları
aylarında
aylı
aylıq
ayni
aynı
aynın
ayran
ayret
ayri
ayrı
ayrıca
ayrıdan
ayrıldı
ays
ayse
aysin
ayt
ayta
aytacag
aytadı
aytalar
aytaman
aytasin
aytayım
aytip
aytkan
aytlı
aytmag
aytmaq
aytqan
aytqanı
aytqanına
ayttı
aytugan
aytıla
aytılg
aytılır
aytıp
ayurveda
ayuv
ayva
ayvan
ayvanat
ayvanlar
ayvanlarnı
ayvanlarnın
ayvazov
ayvazovskiy
ayı
ayına
ayında
ayından
ayının
ayıp
ayıq
ayır
ayıra
ayıralar
ayırg
ayırmaq
ayırı
ayırıla
ayırılg
ayırılmaz
ayırılıp
ayırıp
ayıs
az
aza
azaları
azalarını
azalarının
azalıg
azam
azamat
azaq
azası
azasıdır
azat
azatlıq
azavad
azbar
azbardaki
azbarında
azerbaijan
azerbaycan
azerbaycanca
azerbaycanda
azerbaycannın
azeri
azernes
azg
azi
aziz
azlas
azı
azının
azır
azırda
azırladı
azırlag
azırlamaq
azırlang
azırlap
azırlav
azırlıq
azərbaycan
azərbaycanlı
azərbaycanlıları
b
ba
baar
baarde
baarinde
baba
babalarovo
babam
babama
baban
babanın
babası
babasına
babasından
babasının
babay
babayevo
babelio
babug
babus
bac
bach
bad
badana
badra
badraq
badusev
baf
bag
bagac
bagazı
bahadır
bahamalar
bahc
bahmut
bahreyn
bahs
baht
bahtın
baimovo
bais
bakalı
bakanlıg
baki
baku
bal
bala
balaban
balag
balahna
balalar
balalarg
balalarnı
balaları
balalarını
balalıg
balalıqta
balalıqtan
balam
balanın
balas
balası
balasın
balc
bald
balgazı
balic
balka
ballar
ballarnın
ballı
balqan
balqanlarg
balqar
balqariyade
balqurt
bals
balta
baltac
baltik
baltiysk
baltıq
balıkesir
balıklı
balın
balıq
balıqc
balıqlava
ban
band
bang
banglades
bank
bankı
baq
baqa
baqalı
baqis
baqmadan
baqmag
baqqal
baqqan
baqqanda
baqu
baquet
baqımından
baqın
baqıp
baqır
baqıs
bar
bara
barabar
barack
baradı
baralar
baraman
baranivka
baranovka
baraq
baras
barasın
barayatırman
barayım
barbuda
barc
barcelona
bardı
bardılar
bardır
barg
bargan
barip
barlıg
barmag
barmaq
barmı
barnaul
barsukovo
bartın
barvinkove
barıla
barın
barıp
barıs
bas
basa
base
bashstat
basic
basketbol
baskunc
baslaydı
basma
basqı
basqın
basta
bastı
bastırdı
bastırıp
bası
basıldı
basılg
basılıp
basım
basın
basına
basını
basıp
batmag
batu
batı
batır
batırov
bavırım
bay
bayag
baydar
bayerische
bayevo
baykal
baykalsk
baylan
baylanıs
baylap
baylar
baylıg
baymaq
baymurzino
bayrac
bayrag
bayrak
bayram
bayramı
bayramıdır
bayraq
baza
bazan
bazar
bazı
bazıda
bazıları
bazılarında
bb
bbc
bbf
bbfc
bc
bce
bd
bdl
be
beatles
bec
becergen
becerikli
bedava
beden
bediiy
bediy
bediyat
beethoven
begena
behice
behtemir
bek
bekbav
bekir
bekirov
bekirova
bekley
bektemir
bekto
bel
bela
belarus
belarusc
belarusian
belarusians
belarusnın
belaya
belbek
belc
belebey
belediyye
belg
belgiledi
belgilemek
belgilengen
belgorod
beli
belin
beline
belinin
belki
bell
belleyler
belli
bellidir
belogorsk
belogorskiy
belokatay
belorec
beloret
belorus
belovo
beloye
belskiy
belıy
ben
benezit
bengal
benim
bent
benti
bentnin
ber
beraber
beraberlikte
berbat
berda
berdi
berdiler
berdim
berdıc
bere
beredi
bereg
beregove
beregovoy
beregovoye
berejanı
bereket
bereketli
berestec
bereyim
berezan
berezivka
berezna
berezne
bereznik
berezıne
bergen
bergi
bergman
beri
berici
berildi
berile
berilecek
berilgen
berin
berip
berir
beriyim
berizkı
berke
berli
berlin
berlinde
berlinge
berme
bermege
bermek
bermekte
bermey
bermeysin
berners
bero
berry
bers
bersen
bersene
bertsı
beru
bes
best
besteka
bet
bete
bethoven
beti
betin
betli
beton
beweb
bey
beyaz
beyde
beyge
beyi
beyin
beyit
beylernin
beynin
bez
bezanson
bezir
bf
bfa
bg
bhc
bi
biber
bibliografic
bibliographisches
bibliothe
bic
biden
bieber
big
bijbula
bik
bike
bikesi
bikkulovo
bikmetovo
biks
bila
bilas
bildirdi
bildire
bildirgen
bildiru
bile
bilecegini
bilecek
bileler
bilemiz
bilermen
bilesin
bilge
bilgen
bilgi
bilgiler
bilgorod
bilim
biline
bilingen
bilinmegen
bilip
bilir
bilirsin
bilis
bilka
bill
bilmegen
bilmek
bilmey
bilmez
bilokorovıc
bilopilla
bilozerka
bilu
bilıy
bin
bina
binaen
binalar
binalarnın
binanın
binası
binde
bine
bingo
bini
binsk
binskaya
binskiy
bio
biography
bir
biraz
birazdan
birc
bird
birde
birden
birds
birer
birev
birevi
birevidir
birge
biri
biridir
birin
birinci
birinciden
birincisi
birinde
birinden
birine
birinen
birini
birinin
birisi
birisidir
birisinin
birkac
birlemi
birlerine
birlerini
birles
birligi
birliginde
birligine
birligini
birliginin
birlik
birliknin
birlikte
biro
birs
birsk
birth
biru
bis
bissau
bite
bitirdi
bitire
bitirgen
bitirildi
bitirilgen
bitirip
bitis
bitken
bitti
bivka
biy
biyetke
biykeler
biysk
biz
bizans
bizge
bizim
bizler
bizlerge
bizni
biznin
bknajmpv
black
blagodatne
blagovar
blagoves
blijneye
blin
blog
blu
blue
bm
bn
bnan
bnf
bo
bobrovka
bobrovo
bobrık
boc
bodaninskiy
bodaybo
bog
bogdan
bogdanivka
bogdanovo
bogema
bogolu
bogorodc
bogorodsk
bogorodskoye
boguc
boguslav
boksitogorsk
bol
bola
boladı
bolaman
bolan
bolar
bolaraq
bolat
bolatnın
bolayım
boldı
boleti
bolg
bolgan
bolgrad
boliviya
bolmag
bolmanda
bolmaq
bolmay
bolmaydı
bols
bolsa
bolsan
bolsun
bolsın
bolu
bolup
bolur
bolıp
bolır
bomırka
bon
bondurivka
bonı
book
books
boom
bor
bora
borag
boran
bordo
boris
borisovka
borisovo
borisovskaya
borlaq
born
borodino
borok
borova
borovla
borovsk
bors
boru
borzna
borısivka
bos
bosag
bosna
bosnia
bospor
bosporos
boston
botanik
botası
botton
bovka
bovo
bowell
box
boxofficemojo
boy
boylap
boyları
boynunda
boysung
boyu
boyuna
boyunca
boyunda
boyundaki
boyunı
boyı
boz
boza
bozg
bozlay
boztorg
bozulg
bozuq
br
bra
bragimovo
brahea
brahim
brai
braim
brani
brayevo
brayiliv
brazil
brazilnin
brde
bre
bremen
brest
brid
britain
britaniya
britaniyalı
britannica
brnin
brnın
broadway
brockhaus
brodetske
brodı
brovarı
brown
brsk
brskiy
brskoye
bru
bruney
brusıliv
bu
buc
bucaq
buda
budapes
budda
buddizm
budkı
budo
budıs
bug
bugor
bugu
buhara
buhranı
bukac
bukı
bul
bula
bular
bulardan
bularnı
bularnın
bulas
bulat
bulatovo
bulay
bulg
bulgar
buluna
bulundı
bulung
bulunmaqta
bulunıp
bulut
bun
bundan
bunen
bunevats
bunin
bunjevac
bunı
bunın
bura
burangulovo
buranovo
buray
bureau
bureya
burg
burkina
burla
burnas
burning
burnu
bursa
bursada
burulc
burun
burundi
burung
burın
bus
bush
business
busk
butan
butia
butırki
buyır
buz
buzan
buzat
buzav
buzka
buzlu
by
byron
bı
bıc
bıkovo
bımivka
bından
bının
bıstrık
bıstrıy
bıt
bızav
bızavnın
c
ca
caba
cadra
cafer
cag
cakomo
camala
camalanın
camanaqlı
cambridge
cami
camige
camin
caminin
camisi
can
canada
cang
canibek
canike
canin
canko
canlı
canım
canın
car
cartographic
cartı
cas
case
cases
castles
cat
catalana
cav
cavap
cavlar
cavmasın
cavsın
cavto
cavın
caylav
cayrap
cayılg
caz
cb
cbafde
cc
ccg
ccl
cd
cdebdf
ce
cebbar
cebede
cebege
cebrail
cedid
cedvel
cedvelde
cedvelge
cedveli
cedveline
ceetinden
ceetten
cegi
cek
cekson
cela
celest
celkesinden
celp
cemaat
cemaatc
cemaatı
cemaatının
cemil
cemilev
cemilevnin
cemiyet
cemiyeti
cemiyetine
cemiyetinin
cemiyetnin
cemiyette
cen
cenab
ceneviz
cenevizler
cenevizlernin
cengiz
cenk
cenka
cenki
cenkinde
cenkinden
cenkine
cenkinin
cenkke
cenkler
cenkles
cenkni
cenknin
cenkte
cenkten
cennet
cenova
cens
census
censusindia
center
central
century
cenu
ceppar
cer
cerge
cermay
cerret
cervantes
ceryan
cesu
cetip
cevap
cevdet
ceviz
cevizi
ceyms
ceza
cezair
cezası
cezasına
cgi
ch
chaplin
charles
chicago
chiesacattolica
children
chile
china
chinese
chis
chisholm
chisl
chnas
chnn
chornobyl
christian
chuselnist
ci
cia
cian
ciberdi
cibere
cibergen
cibi
ciddiy
cig
cigit
cilis
cilt
cim
cin
cinaiy
cinayet
cinayetc
cite
cities
citrus
city
citypopulation
civarları
civarlarında
civarında
civarındaki
ciyis
ciyren
ck
cl
class
clinton
club
cm
cn
co
coca
codex
cog
cok
col
cola
colda
colg
colga
collection
colın
com
commons
community
company
completes
componenete
con
confirms
congress
connect
conrad
consolmagno
content
cook
coordinates
coq
coqu
corbusier
corc
coronavirus
corporation
correa
cos
council
countries
country
courtin
covanni
covid
coyg
coys
coyulg
cra
cret
crimea
crimean
cs
cso
cu
cuc
cult
cultural
culture
cuma
cumhuriyet
cumhuriyeti
cumhuriyetinde
cumhuriyetini
cumhuriyetinin
cumhuriyetinın
cumhuriyetke
cumhuriyetnin
cumhuriyettir
curc
current
cuvırıp
cz
czesław
cı
cıg
cılap
cılatıp
cınsiy
cınsı
cının
cırlay
cıyanc
cıyın
cıyıntıg
cıyıs
d
da
daa
dac
dag
dagstat
daha
dahil
dail
daim
daima
daimiy
dair
dairesi
daki
dalg
dali
dalneye
dalniy
dalı
dalıdır
dam
dan
dance
dane
daniel
daniela
danilovka
danimarka
dante
danılivka
daqqa
dar
dare
daresi
darg
dari
darma
darog
darqalg
darya
daryino
das
data
database
datos
dava
davalas
davası
davasının
davet
david
davletovo
davranıs
davul
davulcı
davus
davıdivka
day
dayın
dayır
db
dbinet
dbscripts
dc
dde
ddet
ddetli
ddin
de
dead
deadlink
death
declared
dedi
dediler
dedim
defa
defalarca
default
defin
deg
degen
degende
degenin
degenlerge
degerli
degil
degildir
degilmi
degilsin
degirmen
degirmenko
degta
deha
dekabr
dekabrnin
deki
del
dela
delhi
deli
dell
della
dem
deme
demek
demektir
demir
demirci
demiryol
demo
demogr
demographia
demography
demokrat
demokratik
demokratiya
demoqraphy
demoscope
demyanovka
demıdivka
den
denile
denilgen
denilir
denis
dep
depressiya
deputatı
der
derajna
derbent
derbi
derc
dere
derebeylik
derece
derecede
derecesi
derecesini
derevna
dergac
dergisi
derjanivka
derler
derneg
dernegi
derneginin
dernek
ders
dersin
dersler
dersleri
derslerini
derslik
dervis
derviza
derya
des
desa
descriptions
desen
desna
destan
destannın
destanı
destek
det
deutsche
devam
devamlı
devamı
devamında
deve
development
devid
devir
devirde
devirdeki
devirge
devirinde
devirlerde
devirleri
devirnin
devleken
devlet
devletc
devleti
devletidir
devletinde
devletinden
devletine
devletinen
devletini
devletinin
devletke
devletler
devletlerde
devletleri
devletlerinde
devletlerinin
devletlernin
devletni
devletnin
devlette
devletten
devlettir
devri
devrinde
devrinden
devrine
devrinin
dey
deyerlik
deyler
deysin
df
dfe
dg
di
dia
diaspora
diasporası
diatoniktir
dibag
dibrivka
dibrova
dickens
dictionary
die
diego
dies
dig
diger
digeri
digerinin
digerleri
digitalarchivioricordi
dil
dila
dili
dim
din
dinamik
dindas
dinde
dinge
dini
dininde
dinine
dinini
dininin
diniy
dinler
dinnin
diplom
diplomını
diqqat
diqqatqa
diqqatını
dir
diri
dirligi
discogs
disney
display
displaystyle
dissident
ditrih
divan
divar
divarları
diy
diydi
diye
diyego
diyler
dj
dmila
dmitriy
dmitriyevka
dmitrov
dmıtrivka
dmıtro
dnipro
dnipropetrovsk
dnistrovskıy
dniu
do
dobra
dobric
dobruca
dobrucada
dobrucag
doc
doclib
docs
documente
docx
dog
doi
doktor
doktorlıq
doktorı
dokız
dolas
dolgoye
dolina
dollar
dolına
dolınivka
domen
domeni
domuz
don
donald
donetsk
donu
doquz
doquzıncı
doqız
doros
dorovka
dorovskaya
dos
dost
dostlar
dostlug
dostluq
dostu
dou
douglas
dovjansk
dovjok
down
download
dp
dr
dragla
drama
dramatik
dream
drogobıc
druga
druge
drugıy
drujba
drujelu
drujne
druk
ds
du
dua
dubivka
dubki
dubno
dubove
dubovka
dubrava
dubrovka
dubına
dudag
duet
dugu
duman
dunayivtsi
dur
durasovo
dus
dut
duvan
duvanko
duyg
dvinaland
dvora
dyn
dz
dzerjinsk
dztwo
dzu
dı
dın
dır
dıs
e
eagle
eagles
eali
ealini
ealinin
ealisi
ealisini
ealisinin
earth
east
eastern
eb
ebalino
ebbu
ebe
ebediy
ebekino
ebet
ebu
ec
ecdatları
ecek
ecel
ecnebiy
economic
economika
ed
eda
edc
ede
edebiy
edebiyat
edebiyatqa
edebiyats
edebiyatta
edebiyatı
edebiyatına
edebiyatında
edebiyatından
edebiyatını
edebiyatının
edem
edemova
eden
edi
edib
edicions
edige
edik
edil
ediler
edilnin
edim
edin
edip
edipnin
edir
edirne
edit
edition
edu
education
edvin
eer
eerc
eerde
eerden
eerdir
eerge
eeri
eeridir
eerinde
eerindeki
eerinden
eerine
eerinin
eerler
eerlerara
eerlerde
eerlerden
eerleri
eerlerinde
eerlerinden
eerlerine
eerlerini
eerlerinin
eerlernin
eerni
eernin
eesti
ef
efb
efendi
efendiko
efendinin
effaf
effbdd
efiqa
efka
efsane
efsanege
efsaneviy
eg
ege
eger
egerek
egertki
egi
egorsk
egovarskoye
eh
ehabl
ehc
ehir
ehiya
ehov
ehramları
ehzade
einstein
ej
ek
ekalov
ekc
eke
eken
ekende
ekenin
ekenler
ekensin
eker
eki
ekige
ekil
ekilde
ekilge
ekilinde
ekillendi
ekillendiru
ekillengen
ekillenu
ekim
ekimi
ekimler
ekin
ekinci
ekincisi
ekip
ekis
ekisi
ekke
ekken
ekku
ekler
eklernin
ekles
ekli
eklidir
eklik
eklinde
eklindeki
ekmi
eknin
ekonomicheskoe
eks
ekseriy
ekseriyeti
ekseriyetnen
ekseriyette
ekspeditsiya
ekspert
ekten
ekti
ekvador
ekvatorial
el
ela
elaboliha
elal
elazıg
elbette
elc
elde
elden
eldin
ele
elebi
elebicihan
elebicihannın
electoral
elek
elektrik
elektron
elements
eler
eleri
elerinden
eleven
elge
eli
elifbe
elifbeden
elifbesi
elifbesinde
elifbesinden
elifbesine
elifbesinen
elifbesini
elifbesinin
elik
elin
elinde
elinden
eline
elinin
elivka
elizabeth
eller
elli
ellif
ellifi
ellifidir
ellifleri
elliflik
ellifnin
elma
elnık
els
elu
elveris
elvis
elyazma
elye
elınde
em
emal
emcesi
emek
emel
emen
emi
emin
emine
eminek
eminem
emir
emiri
emirlikleri
emis
emiyeti
emiyetli
emizgen
emoji
empionı
empire
emri
emrovka
ems
en
enciclope
enciclopedia
enciklopedija
encyclopaedia
encyclopedia
encyclopædia
end
endi
endis
endisi
endislik
ene
eng
enga
engineering
england
english
eni
enin
enis
enka
enko
enkove
enkovo
enkursk
enkı
eno
ensk
enskaya
enske
enskiy
enskoye
entertainment
entsiklopediya
entsiklopediyası
enver
ep
episi
episine
episini
episinin
epken
epsi
er
era
erbabı
erbap
erbapları
erc
erdog
eref
erefine
erefli
erek
eremhovo
eremos
erems
eren
erepanovo
erga
ergen
eri
erik
eris
erisinde
eritreya
erka
erkassı
erkası
erkek
erkesiyade
erkez
erkinligi
erlak
erler
erli
erlik
ermeni
ermenice
ermeniler
ermenistan
ermis
erna
ernigiv
ernigivka
ernigovka
ernivtsi
ernobil
ernıs
ero
eronsk
erotları
erovo
ers
ersin
erte
ertesi
ertug
ervona
ervone
ervonıy
es
esabına
esap
esaplama
esapqa
esaray
esas
esasc
esasen
esaslana
esaslang
esaslanıp
esasları
esaslarını
esası
esasında
esasını
eser
eseri
eserinde
eserini
eserler
eserleri
eserlerinde
eserlerinden
eserlerinen
eserlerini
eserlerinin
eserlerni
eserlernin
esernin
esi
esin
esinde
esini
esir
esirler
esitken
esk
eska
eske
eskender
eski
eskiden
eskiov
eskis
eskiy
eskoye
eslav
esli
esnaf
esnas
esnası
esnasında
esnokovo
espan
esperanto
essise
essisesi
est
estado
estimativa
estimativas
estoniya
estrada
esvatini
eswatini
et
ete
etecek
etedi
eteginde
etel
eteler
etem
eter
eterek
etermen
etermiz
etesin
eteyim
ethnologue
eti
etici
etildi
etildiler
etile
etilgen
etilgendir
etilgeni
etilgenine
etilgenini
etilip
etilir
etilmege
etilmegen
etilmesi
etilmesine
etilmesini
etilmez
etilu
etim
etin
etinde
etinden
etini
etip
etke
etken
etkende
etkendir
etkeni
etkenine
etkenini
etkenler
etkenleri
etkenlerine
etkenlernin
etkenmen
etkensin
etli
etme
etmedi
etmege
etmegen
etmek
etmeknen
etmekni
etmekte
etmen
etmesi
etmesine
etmesinen
etmey
etnik
etnogenezi
etnogenezinde
etraftaki
etrafı
etrafında
etrafındaki
etse
etseler
etsin
ette
etti
ettiler
ettirdi
ettire
ettirgen
etu
etırman
eu
eugene
europe
european
ev
evc
evde
evden
eve
evel
evela
evelce
evelden
evelki
evelleri
evelsi
events
every
evi
evik
evikler
evin
evinde
evinin
evirdi
evirildi
evirile
evirilgen
evirip
evka
evket
evla
evlendi
evlene
evlenip
evlenu
evler
evlerge
evleri
evlerni
evli
evlilik
evliya
evni
evnin
evo
evoye
evre
evrim
evsk
evskaya
evskiy
exe
externalid
ey
eyaleti
eye
eyecan
eyevo
eyge
eyh
eyi
eyik
eyilik
eyim
eyit
eyka
eykel
eykeli
eyler
eylerni
eylu
eyni
eytan
eyyeti
eyzens
ezan
ezelden
ezmek
f
fa
faal
faali
faaliyet
faaliyeti
faaliyetinde
faaliyetine
faaliyetini
faaliyetinin
faaliyetlerini
facebook
faceted
facialı
faciası
fact
factbook
facts
factsheet
fahri
fahriy
faiz
fakto
faku
fakultetinde
fakultetine
fakultetini
fakultetinin
fal
familiyasından
family
familya
fan
fank
faqat
faqır
far
farq
farqlana
farqlı
farqı
fars
farsc
farz
fas
fast
fastiv
fat
fatih
fatiha
fatma
fatı
fatını
fatının
fayda
faydalanıp
faydalı
fayl
fazla
fazıl
fb
fc
fd
fe
feda
fedaka
federal
federativ
federatsiya
federatsiyası
federatsiyasının
fedorivka
fedorogorskoye
fedotovskaya
fela
feldmars
felemenk
felemenkc
fellini
felsefe
felsefeci
felsefiy
fembio
fen
fenerbahc
feodal
feodoro
ferdinand
ferg
ferman
fermi
festival
feth
fetih
fevral
fevralnin
ffuz
fi
fici
fiction
fie
field
figaro
fikir
fikirde
fikirler
fikirlerini
fikirles
fikri
fikrine
fil
filatov
file
files
filippinler
filippovka
filippovskaya
filistin
film
filmaffinity
filmdatabas
filmde
filme
filmi
filmleri
filmlernin
filmni
filmnin
filmportal
filologiya
filtis
fin
final
find
finlandiya
firdevs
first
fis
fitness
fiy
fizik
fizika
fizikacı
fizikiy
fleyta
florentsiya
florida
fo
folklor
folklorı
fominsk
fominskaya
fon
fondu
fonetik
fontan
for
formal
format
foros
forpost
forrest
fortepiano
forum
forumı
foti
foto
fotolar
fotoresimleri
fr
fra
franc
france
francisco
frankivsk
franklin
frans
fransisko
frauendatenbank
free
french
frenk
frenkc
frenkistan
frenkistanda
frenkistannın
freud
frida
from
frunze
fsc
fti
ftisi
ftp
fu
fukushima
full
fullcredits
func
fuqare
fus
futbol
future
fırqa
fırqanın
fırqası
fırqasının
fıs
g
ga
gabon
gabriel
gagarin
galatasaray
galereyası
galisiya
galtsov
galıc
gama
gambiya
gandhari
gandhi
gannivka
ganovo
gao
garkavets
garsia
gaspra
gaspralı
gasprinskaya
gasprinskiy
gasprinskiynin
gaspıralı
gatc
gautama
gavrilov
gavrilovka
gavrilovskiy
gavrıs
gay
gayana
gaysın
gaz
gazeta
gazetada
gazetalarda
gazetaları
gazetalarında
gazetanı
gazetanın
gazetası
gazetasında
gazetasını
gazetasının
gazeteciler
gazi
gaziantep
gdansk
gdp
ge
gec
gece
gecede
geldi
gemi
gemici
gemileri
gemisi
gen
genc
genealogics
geneastar
genel
genellikle
general
genetik
genic
genrihovic
george
georgia
georgiyevka
geray
gerayg
geraylar
geraynı
geraynın
gerc
gerek
german
germany
ges
gey
ggvrx
gi
giacomo
giaginskaya
gibi
gidroelektrik
gilo
gimn
gimni
gimnidir
ginde
ginden
gine
gini
ginin
giovanni
giray
giraybay
giraybaynın
girey
girl
girls
girnık
gitara
gitaracı
gitarci
giuseppe
giza
gizli
gks
gla
glance
glava
glin
global
gluhiv
gluhivtsi
glus
glıboc
glıboka
glına
gminası
gnas
gnd
go
goal
golovanivsk
golubivka
gomel
gonc
gone
google
gora
gorbac
gordon
gorka
gorkiy
gorkovskoye
gorno
gornıy
gorod
goroda
gorodenka
gorodets
gorodis
gorodnıtsa
gorodok
gorodıs
gors
gorın
gos
gospel
got
gotiya
gotlar
gov
government
governor
goya
gra
grac
graf
grafik
grajdan
grajdanlıq
gran
grand
granitne
grao
gravu
grayvoron
great
grebla
gremmi
gremuc
grendi
grene
grengen
grenile
grenip
grenmege
grenmek
grenu
gresovskiy
greta
gretken
gretme
gretu
gribovka
grigoryevka
gris
griva
grivna
gro
grodno
group
groznıy
grup
gruppa
gruppadan
gruppaları
gruppası
gruppasıdır
gruppasına
gruppasından
gruppasının
grus
grıgorenko
grıgorivka
grıs
gsfc
gu
guan
guardian
guba
guberniya
guberniyası
guberniyasının
gubnık
guide
gula
gulkevic
gumerovo
gump
gun
gupta
guryevsk
gurzuf
gus
gusev
gustav
guta
gutenberg
gvatemala
gvineya
gvsiweg
h
ha
habarovsk
habarı
haber
haberi
haberler
hablemitog
hac
hacı
hacıtarhan
hadimi
hadimleri
haiti
hakan
hal
hala
halife
halifesi
halil
halilov
halk
hall
halq
halqara
halqlar
halqlarara
halqlarnın
halqları
halqlarından
halqlarının
halqnı
halqnın
halqqa
halqtır
halqı
halqımıznın
halqına
halqından
halqınen
halqını
halqının
hamır
hamırdan
han
handbook
handın
hane
hanedanı
hanesi
hang
hanja
hanlar
hanlarnın
hanları
hanlarının
hanlıg
hanlıq
hanlıqnın
hannın
hans
hansaray
hansarayda
hansaraynın
hantı
hanuman
hanı
hanıdır
hanım
hanımnın
hanımvurqun
hanına
haq
haqqında
harabali
hare
harezm
harezmi
harezms
harita
haritada
haritası
harkiv
harkov
hartsızk
has
hasan
hasanovo
hasselik
hasta
hastahane
hastalıg
hastalıq
hat
hatası
hatirin
hattat
hatıra
hatıraları
hatırasına
hayal
hayat
haybulla
hayrettin
hayriye
hazar
hazarlar
hbir
hc
hdl
he
health
hearn
heart
heavy
helsinki
hem
henryk
henrık
hep
hepsi
her
here
hersek
herson
hersones
hersonesos
herzegovina
hes
hestroffer
hi
hic
high
hila
hilary
hill
hilton
himiya
hindice
hindu
hiragana
his
historical
history
hitchcock
hitler
hiv
hiy
hizmet
hizmetc
hizmetin
hk
hlebodarovka
hlıvnu
hmelnıtskıy
hmelo
hmilnık
ho
hoc
hoca
hocalıg
hocalıq
hodder
hohlovo
hokusay
holm
holmogorı
holodnıy
home
homutovka
hor
horan
horol
horos
hos
hot
hour
house
hovo
how
hoza
hre
hristian
hristianlıq
hronologik
hrsg
hrustalnıy
hrıstınivka
hsan
hta
htm
html
http
https
hu
huan
hucur
hukuk
human
humanizedate
hun
hunnular
hurt
husainovo
hust
hususan
hususiy
hususiyeti
hususiyetleri
hususiyetlerine
hususında
hutor
hutorı
hı
hıdır
hıdırlez
hırvat
hırvatc
hırvatistan
hızmet
hızmetc
hızmeti
hızmetinde
hızmetini
hızmetke
hızmetleri
i
ia
iana
iarı
iau
ibadet
ibadethane
ibadethanesi
ibadethanesidir
ibaret
ibarettir
iberek
ibge
ibin
ibn
ibranice
ic
ica
icadiy
icadı
icat
icatka
ici
icra
icracı
icret
icretnin
id
ida
idare
idaresi
idaresinde
idaresine
idaresini
idaresinin
iddalas
iddetli
iddia
ide
iden
idi
idir
idov
idı
if
ifa
ifade
ift
ig
ige
igi
igim
iginde
igini
igor
igulovo
iha
ihinsk
ihtila
ii
iii
iir
iirden
iiri
iiriy
iiriyet
iirler
iirleri
iirlerinde
iirlerini
ik
ika
ikago
ikanın
ikeyevo
iki
ikke
ikler
ikleri
ikli
iklim
iklimi
ikni
iknin
ikovo
ikte
ikten
il
ila
ilar
ilc
ildi
ildə
ile
ileka
iler
ilerden
ilerge
ileri
ilerinden
ilerinin
ilerni
ilernin
ilg
ilgen
ilham
ili
ilig
iligi
ilik
ilim
ilimge
ilimler
ilimleri
ilimnin
ilin
ilip
iliq
ilis
ilk
ilka
ilki
illa
ilmag
ilmi
ilmiy
ilovo
ilovskaya
ilter
ilə
im
ima
images
imal
imalde
imalden
imalge
imalinde
imaliy
imam
iman
imanovsk
imbay
imbetovo
imda
imdaki
imdan
imdb
imden
imdi
imdige
imdiki
imdilik
ime
imeni
imf
imi
imiz
imka
imla
imleri
imliler
imni
imnin
imova
imperator
imperatorlıg
imperatorı
imperiyası
imperiyasının
imtian
imtianlar
imtianları
imzalag
imzalandı
imzalang
in
ina
inanc
inang
inanmaq
inat
inc
ince
inceler
inci
inciri
incubator
ind
inda
indaki
indan
inde
indeki
indemeysin
inden
independent
index
indi
india
indian
indicator
indistan
indonesia
induizm
indı
ine
inen
info
information
ing
inge
ingen
ingeneleri
ingilizce
ingl
ingliz
inglizce
ingmar
ington
ini
inin
inino
inip
inist
inka
inkevic
inkis
inmarsat
innin
ino
inok
inov
inqila
ins
insan
insang
insaniy
insaniyet
insaniyetlik
insanlar
insanlarg
insanlarnı
insanlarnın
insanlıqnın
insannı
insannın
insk
inskaya
inskiy
instagram
institut
institute
institutı
institutına
institutında
institutını
institutının
intelligence
international
internet
introduction
io
ip
ipc
ipitsıno
iprage
ipunovo
iq
iqarg
iqip
iqlar
iqmag
iqni
iqnin
iqqa
iqti
iqtidarı
iqtisadiy
iqtisadiyat
ir
ira
irade
iran
iraq
irdi
irdim
ire
ireler
irg
irgen
iri
irildi
irile
irilgen
irin
irip
iris
irket
irketi
irketinin
irmaq
irmege
irmek
irokiy
irokoye
iron
irq
irs
iru
is
isaakovic
isabart
isbn
ise
isi
isidir
isim
isimli
isin
isini
isla
island
islands
ismi
iso
ispan
ispanca
iss
isse
issn
ist
istan
istat
istedi
istegen
istegenler
isteginen
istemegen
istemey
istey
isteyim
isteyler
isteysin
istidadı
istidatlı
istila
istimalcılıq
istisal
istituto
istoozo
isvec
isyan
isə
it
ita
itaat
italian
italiana
italyan
italyanca
itau
itaucultural
ite
item
itemid
itesin
iti
itibar
itibaren
itibarlı
itibarı
itidir
itile
itinde
itine
itini
itinin
itip
itkedvfz
itken
itleri
itli
itnin
itovo
ittifaq
ittifaqdas
ittin
ittiru
iv
iva
ivan
ive
iveleri
ivesi
ivesidir
ivesinde
ivesinin
ivete
ivka
ivlenmis
ivtsi
iw
ix
iy
iya
iyada
iyanın
iyden
iye
iyer
iyerle
iym
iyu
iz
iza
izaat
izar
izci
izda
izdan
izde
izdeki
izdemi
izden
izdir
izg
izge
izi
izin
izinden
izine
izinin
izler
izmi
iznen
izni
iznin
j
ja
jackson
jacques
jak
jakarta
jalpi
jamala
james
jan
janr
janrı
janrının
january
japan
japon
japonca
jas
jazz
je
jean
jec
jeleznodorojnaya
jeleznodorojnıy
jeleznogorsk
jeugdliteratuur
jewishgen
ji
jilino
jinping
jirnovsk
jizn
jmerınka
jnıy
jo
johannes
john
jones
jose
joseph
journal
jovkva
joyce
jp
jpg
jr
json
jsonapi
ju
juan
judet
jukov
jukovka
july
jumhu
june
juravli
juravlo
jurnalist
jurnalisti
jurnalistler
justin
jye
jıtomır
k
ka
kabakovo
kabineti
kabinetinin
kac
kadar
kadr
kadırovo
kaf
kafatı
kafedrasında
kafka
kagarlık
kagura
kahlo
kahovka
kain
kaja
kakovo
kal
kalac
kalanc
kalay
kalc
kaldırıp
kalgan
kalgay
kali
kaliforniya
kalinina
kaliningrad
kalinino
kalininskiy
kalinovka
kalmanka
kalmas
kalsa
kaluga
kalınivka
kalır
kamboc
kamc
kamen
kamenka
kamennıy
kamera
kamerun
kames
kamin
kampaniyası
kamyane
kamyanka
kamyanogirka
kamyanıy
kamıs
kamıza
kan
kanada
kanal
kanalı
kanalında
kandrı
kaniv
kanlı
kann
kanton
kanıbek
kapik
kapı
kar
kara
karabu
karabulak
karac
karaca
karadeniz
karagay
karager
karahan
karakol
karakul
karamalı
karan
karap
karas
karaso
karasuk
karatay
karaydı
kardas
kareliyade
kargalı
kargopol
karib
karl
karmanovo
karo
karovo
karpat
karpivka
karpovo
kars
karsı
kart
karttın
kartye
karyavdı
karyer
karımskoye
karıs
kas
kaspiy
kastamonu
kastornoye
kasım
kasına
kat
kata
katalog
katalogı
kataloniya
katedral
kategoriya
kategoriyası
katerınivka
katolik
katun
katı
kavkaz
kavkazda
kay
kayda
kayevo
kaytıp
kayır
kazac
kazak
kazan
kazanc
kazang
kazanka
kazannın
kazantsevo
kazarma
kazayak
kaznalı
kazo
kazı
kbas
kc
ke
kec
kece
keder
kederli
kef
kefe
kefede
kefege
kefeni
kegıc
kel
keldi
keldiler
keldim
keldin
kele
kelecek
kelecekte
keledi
keleler
kelen
kelgen
kelgende
kelgendir
kelgeni
kelgenin
kelgenler
kelgenmen
keli
kelime
kelin
kelins
kelip
kelir
kelis
kelmedin
kelmek
kelmes
kelmez
kelse
kelu
kemal
kemane
kembric
kemelc
kemerovo
kemigi
kemik
kemmel
ken
kenan
kenar
kenarında
kence
kende
kendi
kendin
kene
kenegez
keni
kenimni
kenin
kenine
keninen
kenini
kenis
keniya
kenler
kenleri
kensin
kent
kentte
kentteki
keplerian
kerc
kere
kereden
keregi
kerek
kerekli
kereksin
kerektir
kereler
kereste
keri
keric
kerilgen
kerim
kermen
kermenc
keru
kervan
kes
kesek
kesen
kesildi
kesilgen
kesin
kesip
kesizlik
keskin
kesu
ket
kete
ketecek
keteceksin
ketedi
ketediler
keteler
keter
ketermiz
ketersin
ketesin
keteyim
ketgen
ketip
ketirdi
ketirdim
ketire
ketirgen
ketirildi
ketirilgen
ketirilip
ketirip
ketirmege
ketirmek
ketiru
ketis
ketiyim
ketken
ketkenler
ketmege
ketmek
ketmekte
ketmes
ketmez
ketpes
ketsen
ketti
kettiler
kettim
ketu
key
keyfin
kezip
kezlev
kezlevde
kezlevden
kg
kh
khan
khw
ki
kibi
kic
kiev
kihot
kil
kila
kildino
kiler
kilerde
kilerni
kiliy
kiliya
kilometr
kilse
kilsesi
kilsesinin
kim
kimdir
kimer
kimerde
kimge
kimi
kimler
kimlik
kimmerler
kimnin
kimse
kin
kina
kinazlıg
kind
kinden
kindred
kine
kinematograf
king
kingdom
kini
kinnin
kino
kinovo
kins
kinskiy
kip
kipc
kir
kiraz
kirdi
kirdiler
kire
kirec
kireler
kirgen
kirgende
kiribati
kiril
kirip
kiris
kirk
kirmek
kirov
kirovo
kirovograd
kirovsk
kirovskiy
kirovskoye
kirpic
kirsetildi
kirsetilgen
kirsetti
kiru
kis
kiselo
kisi
kiska
kitabı
kitabında
kitabını
kitap
kitaphane
kitaphanesinde
kitaplar
kitaplarnı
kitaplarnın
kitapları
kitaplarını
kitapnı
kitapqa
kitapta
kiv
kivertsi
kivka
kivska
kivtsi
kiy
kiyev
kiyik
kiyinip
kiymege
kke
kken
kko
kla
klassik
kle
kleer
kler
klerge
kleri
klerni
kli
kliment
klimovo
klin
klip
kloc
klu
klubu
klymenko
km
kna
kni
knin
knock
ko
kobela
koc
kodu
kodıma
kojay
kok
kokos
koks
koksa
kola
kolc
kollecinde
kollektiv
koloda
kolombiya
kolos
kolosivka
kolıvan
komandanlıg
komandanı
komarivka
komarovo
komediya
komi
komintern
komissarlıg
komissarı
komissiya
komissiyasının
komiteti
komitetinin
komitetnin
kommunist
kommunistik
komorowski
kompyuter
kompyuterlernin
kompyuternin
komsomol
komsomolsk
komsomolskiy
komsomolskoye
komıs
kon
kondratovskaya
konferentsiya
konferentsiyası
kongo
kongressi
kono
konos
konotop
konskovola
konstantin
konstantinovka
kontsert
kontserti
konıs
koordinatlar
kopya
kor
kora
korbu
korc
kordon
kore
korea
koreatimes
korece
koreiz
koreya
koreyaca
koreyada
koreyalı
koreyanın
korlık
kormiha
korneyevka
koroc
korolivka
korolo
koropets
korosten
korostıs
korovino
korovıntsi
korsun
kos
kosa
kosiha
kosiv
kosovo
kosta
kostenko
kostopil
kostroma
kostu
kosı
kotelnikovo
kotelva
kotlas
kotsu
kotu
kov
kovalivka
kovalo
kove
kovel
kovil
kovka
kovo
kovrov
kovs
kovskaya
kovskiy
koza
kozac
kozatske
kozelets
kozıntsi
kr
kra
kraj
krakov
kramatorsk
krasinsky
krasna
krasnaya
krasne
krasnoarmeyskiy
krasnoborsk
krasnodar
krasnogirka
krasnogorskoye
krasnogvardeyskoye
krasnokama
krasnokamensk
krasnokutsk
krasnoperekopsk
krasnopil
krasnos
krasnosilka
krasnoslobodsk
krasnoyarka
krasnoyarovo
krasnoyarsk
krasnoye
krasnoznamenka
krasnoznamensk
krasnıy
krasnıye
krasılivka
kreml
kres
krim
krinic
kris
krolevets
kropıvna
krsdstat
kru
krugloye
krus
krutiha
krutoy
krymr
krıjopil
krımskaya
krımskiy
krınıc
krınıtsa
krıs
krıve
krıvıy
ks
ksek
ksekc
ksekligi
ksekliginde
ksekligindeki
kseklik
ksel
ksemburg
ksh
ksiz
ksu
kte
kten
ktir
kto
ktu
ku
kuba
kubovo
kuc
kudas
kudrino
kuganak
kuhna
kuk
kul
kulak
kulikovo
kuloy
kulunda
kulıns
kuman
kun
kunakbayevo
kunkas
kupc
kupyansk
kuragino
kurayevo
kurc
kurgan
kurgas
kuro
kurort
kurs
kursk
kursu
kurtka
kurumu
kurus
kuruv
kuruvka
kurya
kurılivtsi
kus
kut
kutus
kutıs
kuvanıp
kuyalnık
kuyanovo
kuyavlar
kuybıs
kuza
kuzma
kuzminka
kuzminovka
kuznetsk
kuznetsovka
kuznetsovo
kuznetsovskiy
kvadratik
kvartet
kvitneve
kyiv
kyu
kz
kı
kıbla
kılıc
kılıs
kırk
kırım
kırımlı
kıs
kıtmanovo
kıyiv
kıyivde
kız
kızkardas
kızı
kızıl
l
la
labinsk
lac
ladi
ladilar
ladim
ladin
ladiq
ladı
ladıjın
ladılar
ladım
laf
laflar
lag
lagan
lager
lagerinde
lagerlerge
lahta
lahı
lakin
lale
lam
lama
lamag
lamaq
lambat
lamı
lamına
lamında
lamının
lan
lana
lanc
landi
landı
lang
language
languages
lanip
lanka
lantılar
lanuv
lanı
laos
lap
laqırdı
lar
larda
lardan
larg
lari
larim
larin
larina
larinda
larini
larinin
larnen
larni
larnin
larnı
larnın
ları
larım
larımız
ların
larına
larında
larından
larınen
larını
larının
las
lasa
lasın
lata
latin
latince
latmaq
latqan
lattı
latviya
latılg
latıp
laureatı
lav
lavuq
lay
laya
laylar
laymız
laysin
layıs
lazurnoye
lbav
lber
lbu
lc
lcemil
lde
lden
ldi
ldim
ldu
le
leader
learn
learning
leba
ledi
lee
left
legen
legend
leh
lehc
lehistan
lehistanda
lehistandaki
lehistang
lehistannın
lehistanın
lek
leksikon
lektsiyalar
leler
lemde
leme
lemege
lemek
lemekte
lemi
lemli
len
lena
lengen
lenin
leninciler
leningrad
lenino
leninsk
leninskiy
leninskoye
lenip
lenta
leonardo
leone
leonid
leonivka
lep
ler
lerce
lerde
lerden
lerge
leri
lerim
lerimiz
lerinde
lerinden
lerine
lerinen
lerini
lerinin
lernen
lerni
lernin
les
lesa
lesi
lesinden
lesinin
lesli
lesnoy
lesnoye
lesoto
let
leus
lev
levi
levitskiy
levıy
ley
leyha
leyhası
leyhasını
leyim
leyla
lez
lg
lge
lgelerde
lgeleri
lgen
lgende
lgenin
lgesi
lgesinda
lgesinde
lgesini
lgesinin
lgesinın
lhamid
li
libiya
library
libris
lideri
life
lig
ligi
lihtens
lik
like
likke
lim
lima
liman
limannoye
limanı
limler
linde
lineynoye
link
linkin
lino
lion
lip
lipa
lipetsk
lipka
lipovka
liq
liqlas
lirası
lirik
lis
liskı
lisne
lisnıc
lisove
list
listan
lisıluv
literature
lithuania
litseyni
litvanca
litvaniya
litvaniyanın
litın
livadiya
live
lk
lka
lke
lkede
lkenin
lkes
lkesi
lkesinde
lkesinın
lki
lkovo
lku
lla
llah
ller
lleri
llerinde
llerinin
lli
llintsi
llu
lmege
lmegen
lmek
lmen
lmesi
lmey
lmez
lmiy
lmiye
ln
lni
lnin
lo
local
locale
localita
localities
lodeynoye
log
lok
lokot
lomonosov
lomonosovo
london
londonda
londondaki
lonely
lopes
lopez
los
louhi
louis
love
lovka
loye
lozova
lozove
lozovoye
ls
lse
lt
ltd
ltu
lu
luba
lublin
luc
ludnosc
ludnosci
ludwig
ludır
lug
luga
lugansk
luginı
lugove
lugovoye
lui
luka
lukas
lukino
lun
lundy
lunen
lunın
lutsk
lv
lviv
lya
lyas
lyic
lyinka
lyinovka
lyinskiy
lı
lıca
lıdır
lıg
lıkul
lılar
lıman
lımanske
lıntsi
lıpovets
lıq
lıqları
lıqlas
lıqtan
lıs
lısa
lısogirka
lıy
m
ma
maalle
maallesinde
maarif
maarifc
maas
mabet
mabu
mac
macar
macarca
macaristan
macaristannın
machiavelli
machine
madagascar
madagaskar
madde
maddesi
maddiy
made
maden
madrid
mag
maga
magadan
magas
magazine
magdagac
magellan
maha
mahac
mahatma
mahfuz
mahkeme
mahkemesinin
mahku
mahlu
mahmud
mahmut
mahmutovo
mahrem
mahsus
mahuldu
mai
mais
major
mak
makariv
makarovka
makarovo
makarovskaya
makaryevka
makedonca
makedoniya
makeme
makemesi
makovo
maksim
maksimovka
maksu
maku
makwww
makı
mal
mala
maladzec
malar
maları
malarına
malavi
malay
malaya
malayziya
maldan
maldivler
male
mali
malik
malikligi
maliktir
malinovka
maliye
maliyeviy
mallarını
mallorca
malo
malos
maloyaroslavets
maloye
malta
malu
malı
malım
malın
malınivka
malıy
malıye
mama
mamay
mambet
mamontovo
mamut
man
mana
manada
management
manalı
manastır
manastırı
manası
manasına
manasında
manasını
manat
manay
manc
mancur
mane
maneviy
mang
mangup
mangus
manhattan
mani
mankivka
manlar
mannın
manov
mansur
mantel
mantra
mantıq
mantıqiy
manzara
manzarası
manı
manın
mao
map
maps
maq
maqale
maqaleler
maqaleleri
maqalesi
maqalesini
maqsadı
maqsadına
maqsadında
maqsadınen
maqsat
maqsud
maqta
mar
maraliha
marcel
march
marco
mare
marg
mari
maria
marie
mariinsk
marino
mariupol
mariy
mariya
mark
markivka
markus
marmara
mars
marsalis
marsel
marsz
mart
marta
martnın
martınivka
marum
marus
marx
maryanivka
maryanovka
maryevka
maryino
mas
masa
masal
masallar
masalları
mashke
masla
massandra
ması
masına
masında
masını
mat
mata
matbuat
matematika
materiallar
matiss
matlar
matlarg
matnı
matnın
matqa
matrix
matthew
matu
matveyevka
matı
matına
mauritius
mavı
may
maya
mayac
mayak
mayakı
maydan
maygas
maykl
maykop
mayma
mayor
mayskiy
mayskoye
mayıs
mayısnın
maz
mazanovo
mbelek
mc
mdar
mdarı
mde
mdeki
mden
me
mec
mecbur
mecburiy
mech
mecidiye
mecidli
meclis
meclisi
meclisinin
meclisnin
mecmua
mecmuada
mecmualarda
mecmualarında
mecmuanın
mecmuası
mecmuasında
mecmuasını
mecmuasının
meden
medeniy
medeniye
medeniyet
medeniyeti
medeniyetine
medeniyetini
medeniyetinin
medeniyetnin
medi
media
mediabank
medim
mediyev
mediyevnin
medrese
medresede
medresege
medreseni
medresenin
medresesinde
medvedevo
medvejyegorsk
mefku
mege
megen
mehanik
mehanizmi
mehmed
mehmet
mejdurec
mejgorye
mek
meka
meksika
meksikanın
mekte
mektebi
mektebinde
mektebine
mektebini
mektebinin
mektep
mektepke
mektepler
mekteplerde
mektepleri
mekteplerinde
mektepni
mektepte
mektepten
mektu
melehovo
melek
meler
meleri
melevu
meli
melitopol
mem
memet
memleket
memleketi
memleketinin
memleketler
memleketlerarası
memleketlerde
memleketleri
memleketlerinde
memleketlerinin
memleketlernin
memleketnin
memlekette
memleketten
memlekettir
memlu
memnu
memorial
memuriy
memuriyet
men
mena
menbalar
menbalarda
menbalarg
menden
meneuz
menfiy
meni
menim
menin
menlisılu
menlisıluv
mennan
mensu
mentsevo
menu
mer
merag
meramet
meraq
meraqlı
merasim
merasimi
mercan
mercury
merden
merdiven
meri
merih
merkez
merkezi
merkezidir
merkezinde
merkezine
merkezinin
merkeziy
merkezleri
mermer
mernin
merov
mert
mertav
mes
mesafe
mese
mesela
mesele
meseleler
meseleleri
meselelerini
meselelerinin
meselelerni
meselelernin
meselesi
meselesini
mesi
mesinden
mesine
mesini
mesinin
mesken
mesku
mesleatc
mesu
met
meta
metal
meti
metin
metinden
metini
metinin
metinlerde
metinleri
metke
metni
metnin
metovo
metr
metrdir
metrge
metrlik
mevcu
mevcut
mevlu
mevsimi
mevzuda
mevzular
mevzularda
mevzusı
mevzusında
mexico
mey
meydan
meydanc
meydang
meydanlıg
meydanı
meyva
meyvası
mez
mezarlıg
mezarı
mezen
mezku
mezun
mg
mge
mi
mic
michael
middle
mihail
mihaylovic
mihaylovka
mihaylovskaya
mihaylovskoye
mikhail
mikroneziya
mil
mila
milan
military
militsiya
millet
milletc
milleti
milletinin
milletler
milletlerara
milletlerarası
milletlernin
milletnin
milli
milliard
million
milliondan
milliong
milliy
milliyetc
mimar
mimarcılıq
mimariy
mimarlıg
mimarlıq
min
mina
minav
mind
minden
mine
minen
mineral
mingen
mingende
mini
minip
minister
minmege
mino
minsk
miqdarda
miqdarı
mir
miras
mirasc
mirası
mireyev
mirnıy
mis
misal
misapir
misapiri
mit
mitridat
mitu
miy
miyeke
miynin
miz
miza
mizde
mizge
mizni
mk
mku
mlas
mle
mleden
mli
mlik
mlikler
mlikleri
mliklernin
mln
mm
mnen
mni
mnin
mnın
mo
moc
model
modelles
modern
mog
mogilo
mogoc
mogoy
mogıliv
mojo
moks
moldova
moldovada
moldovanın
moldovca
moldovei
moll
molla
mollalar
moloc
molodijne
molodo
moma
mon
monako
monarhiya
monc
monde
money
montanay
montenegro
monto
mor
moranc
mordoviyande
more
morning
morozivka
mors
morus
mos
moscow
moskova
moskovande
moskoviya
moskva
moskvada
moskvadaki
moskvag
mosqu
most
mot
motor
motsart
mov
movc
movie
movies
movo
moynaq
moynına
mozambik
mparatorlug
mperiyası
mperiyasının
mr
mra
mranı
mru
ms
mskifa
msko
msu
mtian
mu
muallim
muallimlik
muarrir
muarriri
muarrirlik
muavini
muayyen
muazzez
mubarek
mudafaa
mug
muhametovo
muhammed
muharrem
muhtac
muhtar
muhtarlıq
muka
mukac
mula
mullakayevo
mun
munaqas
munasebet
munasebeti
munasebetler
munasebetlerini
munasebetlernin
munasip
municipii
munst
muntazam
munzinger
muqaddes
muqavele
muqavelesi
mur
murabba
muracaat
murad
muras
murat
muravey
muritaniya
murmansk
murovani
murray
murtaza
murzino
mus
musa
musaade
musaviy
museum
music
musino
musiqiy
muskomiya
mustafa
mustafino
mustaqil
mustaqilligi
mustaqilligini
mustaqillik
musulman
musulmanlar
musulmanları
musulmanlarının
musulmannın
muta
muvafaq
muvafaqiyet
muvafaqiyeti
muvafaqiyetli
muvafaqiyetnen
muvaqqat
muynak
muyus
muz
muzakere
muzıka
muzıkalı
muzıkanen
muzıkanı
muzıkanın
muzıkası
muzıkasını
muzıkasının
my
myanmar
myer
mzmdfjyi
mı
mıhaylivka
mıhaylo
mıkolayiv
mıkolayivka
mına
mınan
mınav
mında
mından
mırne
mırolu
mıronivka
mırza
mırzalar
mırzam
mırzanı
mırzanın
mıs
mıski
mısır
mısırbog
mısırda
mısırnın
mıtlaq
mıtlaqa
mıyıg
mıza
məlumat
n
na
naberejnıy
nabran
nac
nacional
nacionalna
naciye
nadejdino
nadir
nag
nagadak
nagornıy
nail
nalbandov
nalcık
nam
namangan
namaz
name
names
namibiya
namlı
namus
namzeti
namı
nanmasan
nano
napoleon
naqliyat
nar
nara
narat
narazılıq
narendra
narenko
narik
narimanov
naro
narod
narodıc
naruhito
narıs
nas
nasa
naselenie
nasıl
nasıldır
nat
nation
national
nationalbibliothek
nationale
nationalencyklopedin
nations
nato
naturalny
nature
nauc
naumovka
nauru
nav
navoiy
navolok
navrez
navrezim
naya
nayman
nazar
nazarg
nazariy
nazariyesi
nazariyesini
nazariyesinin
nazarovo
nazi
nazik
nazir
naziri
nazirler
nazirligi
nazm
nbatar
nc
nce
nceleri
ncelerini
nci
ncia
ncisi
ncu
ncı
nd
nda
nde
ndeki
ndelik
nden
ndi
ndik
ndir
ndistan
ndistanda
ndistannın
ndog
ndoma
ndoneziya
ndreptar
ndu
nduizm
nduizmde
ne
neapol
nebatat
nebatiyat
nec
necek
necip
nedir
nefes
nefis
neftebaza
neftekama
nege
neil
nekrasovka
neler
nelis
nem
nemet
nemli
nemse
nemseler
nemıriv
nen
nenets
nepa
nepal
nepalnın
neptun
ner
nes
nesilge
nesilleri
nesin
nesir
nesli
net
netice
neticede
neticeleri
neticelerine
neticelerini
neticesi
neticesinde
nets
networks
nevbetc
nevbetteki
neve
never
neviy
nevs
new
news
ney
neyron
nezaret
nezareti
nfan
ng
ngdp
nge
ngece
ngen
ngi
ngiltere
ngliz
nglizce
ngmar
ngo
ngu
ngus
nhen
ni
niayet
nic
niccolo
nice
nicu
niger
nigeriya
night
nijna
nijneilimsk
nijneudinsk
nijneye
nijniy
nijniye
nijın
nik
nikaragua
nikita
nikola
nikolay
nikolayevic
nikolayevka
nikolayevsk
nikolayevskiy
nikolo
nikolsk
nikolskaya
nikolskiy
nikolskoye
nikopol
nikovo
nil
nim
nin
nina
nino
nip
nir
nis
nisan
nisbeten
nisvan
nitss
niue
niva
niversitesi
nivka
niy
niyazi
niyetinde
nizam
nizinnoye
nka
nkerman
nki
nkis
nkp
nl
nlar
nları
nlendi
nler
nlerde
nlerden
nleri
nlernin
nles
nley
nligi
nligini
nliginin
nlik
nlikke
nliknin
nlikte
nlikten
nlu
nm
nme
nmege
nmek
nmi
nnaya
nni
nnin
nnıy
no
nobel
node
nog
noginsk
nogorsk
noman
nomerası
nominatsiyasında
noqta
noqtası
norske
north
norvegiya
nos
not
nothing
noticia
nov
nova
novakı
novaya
nove
novel
novgorod
novgorodka
novgorodstat
novi
novic
novka
novo
novoaleksandrovka
novoalekseyevka
novoandreyevka
novoazovsk
novobaltac
novoc
novofo
novogeorgiyevka
novograd
novogrigoryevka
novogrıgorivka
novohopo
novoivanovka
novokiyevka
novokonstantinovka
novomihaylovka
novomoskovsk
novomusino
novomıkolayivka
novonikolayevka
novonikolayevskiy
novooleksandrivka
novoozo
novopavlovka
novopetrovka
novopetrovskoye
novopokrovka
novorossiyka
novorossiysk
novos
novoselivka
novoselskoye
novoselıtsa
novosibirsk
novosilka
novoso
novotroitsk
novotroitskoye
novotroyevka
novotroyitske
novoukrayinka
novovoznesenka
novoye
novskaya
novıy
novıye
now
noy
noyabr
noyabrde
noyabrnin
noye
nqila
ns
nsan
nse
nsi
nsk
nske
nskiy
nskoye
nssdc
nstitutı
nstitutının
nta
nternet
nternetke
nternetnin
nternette
ntuvar
ntınivka
nu
nufus
nufuzlı
numayıs
nun
nur
nuri
nuriman
nusha
nutini
nutininin
ny
nya
nyabaqıs
nyaca
nyada
nyadaki
nyadan
nyag
nyanı
nyanın
nyası
nyasına
nyasında
nyasının
nyc
nytimes
nyu
nı
nıjna
nın
nında
nını
nıs
nıtsa
nıy
o
oba
obama
oban
obluc
obodivka
obr
obres
obszary
obtu
obuhiv
obyekt
obyektiv
obyektlernin
obıhodı
oc
oca
ocag
ocak
ocalar
ocalıg
ocalıq
ocanın
ocası
och
october
od
oda
odabas
odayi
odesa
odessa
odintsovo
of
office
official
oficial
ofisi
og
oga
ogni
ographie
ogu
ohs
ok
oka
okan
okean
okeang
okeaniyada
okeannın
okeanının
oknı
okrug
oksford
okta
okulovka
ol
ola
olacag
olacaq
olacaqtır
olalar
olamadı
olamag
olamay
olamaz
olan
olar
olarak
olaraq
olardan
olarg
olarnen
olarnı
olarnın
olca
old
oldi
oldin
oldu
oldug
oldı
oldılar
oldım
oleg
oleksandr
oleksandrivka
oleksiyivka
olenivka
oles
olevsk
olg
olga
olhovatka
olhovka
olimpiya
olistan
ollar
ollarnın
olmadan
olmadı
olmag
olmalı
olmalıdır
olmaq
olmaqnı
olmasa
olması
olmasına
olmay
olmaz
olmus
olova
olpan
ols
olsa
olsan
olsun
olub
oluna
olundı
olung
olup
olur
olus
oluv
oluvı
oluvının
olıp
om
oman
omar
ompayıp
omsk
omsukc
omutninsk
on
ona
onda
ondan
onday
one
onega
oneki
onen
ong
onguday
onin
onlar
onlarnen
online
only
onos
onuncı
onur
onı
onın
op
opapıs
open
opera
opole
optik
oq
oqlu
oqlug
oqluq
oqrag
oqraq
oqraqlı
oqtan
oqtır
oqu
oqudı
oqug
oqula
oqulg
oquma
oqumag
oqumaq
oqup
oqusı
oqusında
oquv
oquvnı
oquvını
oquy
oqı
or
ora
oram
oran
oraq
oras
orativ
oraz
oraza
orba
orbası
orda
ordeni
ordu
orduda
ordudan
ordug
orduları
ordularının
ordunın
ordusı
ordusına
ordusını
ordusının
orehovo
orenburg
org
organ
organları
organlarının
organı
orhan
oric
original
orkestr
orkhan
orleans
orlivka
orlov
orlovka
orman
ornobıl
oro
ors
orsk
orta
ortag
ortalama
ortalarında
ortaq
ortası
ortasına
ortasında
ortasından
ortodoks
ortorıya
orum
orus
orı
os
osetiya
oskar
oskol
oslo
osman
osmanlı
osmanlılar
osmanlılarnın
osmannın
osmanov
osp
ostanı
ostas
ostrog
ostrov
osıc
ot
otar
otarko
other
otlar
otqa
otra
otrada
otradnoye
otradnıy
otravneve
ottoman
otura
oturalar
oturg
oturıs
otuz
otı
ou
oup
out
ov
ovc
ove
over
ovgen
ovidiopol
ovka
ovo
ovruc
ovsa
ovsk
oxford
oy
oya
oyalı
oye
oynadı
oynag
oynalg
oynap
oynas
oynay
oyulg
oyun
oyuncı
oyunlar
oyunları
oyunı
ozar
ozera
ozerki
ozerne
ozero
ozg
ozo
p
pa
pablo
pac
padengskoye
padis
page
pages
pagewanted
pahar
pai
pakistan
pakistannın
palau
palermo
palestrina
palmiye
pan
panama
panasivka
panc
panda
panino
pank
pankrus
panorama
panovo
pantheon
pantikapeyon
pantone
pantu
paolo
papa
papag
papalıq
papası
papazı
papers
papiy
papua
par
para
paragvay
parallel
parc
paris
pariste
park
parkı
parlament
parlamenti
parlaq
parmag
pars
partenit
parti
partizan
party
pas
passport
pat
paul
paulo
pavlivka
pavlovic
pavlovka
pavlovo
pavlovsk
pavlovskaya
pavlovskiy
pavlovskoye
paylas
paytaht
paytahtı
paytahtıdır
pc
pdf
pe
pec
pedagogik
pedagogika
peerage
pege
pek
pekin
pekitilgen
penkivka
penza
people
per
peredovoye
peremoga
perepis
peres
perevalsk
perevoz
pereyaslav
perfect
perm
pers
person
persona
persone
personen
peru
pervomaysk
pervomayske
pervomayskiy
pervomayskoye
pervomayskıy
pervoye
pervıy
pes
pesc
pesi
pesinde
pessoa
peter
peterburg
peterburgda
petra
petras
petri
petrivka
petro
petronın
petropavlivka
petropavlovka
petropavlovsk
petropavlovskoye
petrostat
petrov
petrove
petrovka
petrovo
petrovsk
petrovskaya
petrovskiy
petrovskoye
petrus
petrıkivka
petus
pewdiepie
peyda
peyg
phoneix
photo
php
pi
piaf
pic
pictures
pidgirne
pidlisne
pidvoloc
pierre
pikasso
pil
pila
pinega
pinyin
pioner
pionerskiy
pis
piskı
piter
pitken
pivdenne
pke
pl
pla
place
plan
planetary
planets
planlama
planlas
plas
platforması
platosında
platova
please
pler
pleri
ples
plesetsk
plo
plodopitomnik
png
pni
po
pobeda
poc
podgornoye
podgornıy
podilsk
podilskıy
podolsk
podosinovets
podporojye
poema
poemalar
poeması
pogost
pogrebıs
pokrov
pokrovka
pokrovsk
pokrovske
pokrovskoye
pokrıs
pol
pola
polatkan
pole
polevoye
polis
polish
poliske
politics
polo
pologı
polojeni
poloniya
polonne
polska
poltava
poltavka
pomeraniya
pomes
ponomaro
pontos
pop
popelu
poperec
popilna
poplavka
popovka
popul
popula
populacao
populat
population
por
poros
port
portal
portalı
portaqal
portret
portreti
portugal
portugalca
portugaliya
pos
posad
positions
poso
pospeliha
pospolita
pospolitanın
post
potas
potu
pova
povc
povesti
power
poznan
pp
pra
prades
praga
pravda
pravoslav
pravıy
prefektligiden
prefix
prensa
preobrajenovka
preobrajenskoye
president
press
prezident
prezidenti
pridnestrovye
pridorojnoye
prigorodnıy
priluk
primorye
prinsipi
prinsligi
printing
priozo
pripyat
pristan
pristen
privoljye
privolnoye
pro
produ
prof
professional
professor
professorı
profile
programma
programmalar
programmaları
programmalav
programması
progress
project
projects
prokuratura
prokuraturanın
prokuraturası
prokuraturasının
prokuror
prokurorı
prokurorının
promıs
propaganda
propagandacı
prosa
protokol
protokollar
protokolı
proust
provinces
proyekt
pru
prudı
prussiya
przekroju
prıberejne
prıluka
prılukı
prımorsk
prımorske
prıvitne
ps
pskov
pt
pte
pten
pu
pub
publ
public
publicat
publications
publique
publishers
publishing
publitsistik
puc
pugac
pulavı
pulp
pulını
pus
pustos
put
putin
pxweb
pyer
pyesa
pyesası
pıc
pıkiv
pılıpı
pıs
pısarivka
q
qa
qabaatlanıp
qabaatsız
qabarda
qabileler
qabileleri
qabilesi
qabiliyeti
qabug
qabul
qaburg
qac
qadar
qadim
qadimiy
qadin
qadı
qadın
qadınlar
qadınlarnın
qadını
qadır
qafiye
qafiyeli
qag
qaide
qaideler
qaidelerge
qaideleri
qaire
qairede
qal
qala
qalabalıq
qalac
qalaqay
qaları
qalay
qaldin
qaldı
qaldılar
qaldırg
qaldırıp
qale
qalede
qalege
qaleni
qalenin
qalesi
qalesini
qalg
qalmag
qalmaq
qalmuq
qalp
qalpag
qalsa
qaltası
qalı
qalımtıları
qalın
qalıp
qalır
qamac
qamc
qams
qamıs
qan
qanda
qandım
qang
qani
qanibek
qanini
qanlar
qanlarnın
qanlı
qanun
qanung
qanuniy
qanunlar
qanunları
qanunlarına
qanunsız
qanunı
qanunına
qanı
qanın
qapag
qapalı
qapatqan
qapatıldı
qaplag
qaplan
qaplap
qaplı
qapı
qapıdan
qapını
qapısı
qar
qara
qarabag
qarabas
qarabay
qarac
qaraca
qarag
qaraidil
qaralez
qaraman
qaramanlar
qaramanları
qaramanı
qaran
qarang
qarap
qaraqalpaq
qarar
qararları
qararnen
qararı
qararına
qararınen
qarasuv
qarasuvbazar
qarasuvbazarda
qaravul
qaray
qaraylar
qaraylarnın
qardas
qarg
qaris
qarluq
qars
qart
qartal
qartbabası
qartlar
qartnı
qartnın
qartop
qarı
qarılg
qarıs
qas
qasaba
qasabalar
qasabalarda
qasabası
qasabasında
qasevet
qası
qasım
qasırg
qat
qatar
qatiy
qatlı
qatnap
qattı
qatıldı
qatılg
qatına
qatında
qatıp
qaval
qave
qaverenki
qavg
qavmiyat
qavrayıs
qavus
qaya
qayanın
qayd
qayda
qaydan
qayg
qaynag
qaynas
qaysı
qayta
qaytarma
qaytarıp
qaytmag
qaytqan
qayttı
qayttılar
qaytuv
qaytıp
qayır
qaz
qaza
qazah
qazahc
qazahistan
qazahistanda
qazahistannin
qazahistannın
qazan
qazana
qazanc
qazanda
qazandı
qazang
qazanmaq
qazantatarca
qazanıp
qazaq
qazaqlar
qazaqlarnın
qazaqları
qazaqlarının
qazaqov
qazası
qazıp
qbhp
qcf
qi
qic
qidirg
qipc
qirg
qirim
qis
qiy
qiyis
qizc
qizg
qizis
qmc
qoba
qobaları
qoc
qoca
qocaman
qol
qolay
qolaylas
qolc
qolg
qoltug
qoltuttı
qolu
qolun
qoluna
qolunda
qolundan
qolın
qoms
qon
qonus
qoranta
qorantada
qorantalar
qorantası
qorantasında
qorantasından
qorantasınen
qorantasının
qorc
qorlıq
qorqa
qorqqan
qorqu
qorqunc
qorug
qorumaq
qoruyıcı
qos
qostanay
qotur
qoy
qoyan
qoyas
qoydı
qoydılar
qoyg
qoymag
qoymaq
qoyula
qoyuldı
qoyulg
qoz
qozg
qtisadiy
qu
quantum
quatre
quc
qudag
qudretli
que
queen
quentin
qul
qulag
qulaq
qulc
qullana
qullanalar
qullang
qullanmag
qullanmaq
qullanuv
qullanıcı
qullanıcının
qullanıla
qullanıldı
qullanılg
qullanılmag
qullanılmaqtadır
qullanılıp
qullanılır
qullanıp
qulle
qullesi
qullıq
qulu
qulıns
qum
qumlu
qumıq
qun
quralar
quran
qurannı
qurannın
qurban
qurbanı
qurdurdı
qurdı
qurdılar
qurg
qurmag
qurman
qurmaq
qurs
qursag
qurt
qurtnezir
qurtqa
qurtulıs
qurtı
quru
qurucilig
qurucusı
qurucılıg
qurucılıq
qurucısı
qurula
quruldı
qurulg
qurulması
qurultay
qurultayda
qurultayg
qurultaynın
qurultayı
qurultayında
qurultayının
quruluvı
qurulıp
qurulıs
qurumı
quruv
quruvlı
qurıp
qus
qutlaq
qutubı
qutup
quvana
quvanc
quvanıp
quvet
quvetleri
quvetles
quvetli
quvus
quyrug
quyu
quyırg
quzg
qı
qıbla
qıbrız
qıc
qıdıruv
qıdırıp
qılg
qılıc
qılıs
qın
qıpc
qır
qıral
qırallıg
qıralı
qırg
qırmısqalı
qırmızı
qırq
qırt
qırtc
qırtistan
qırtistanda
qırtistande
qırtistannın
qırtlar
qırım
qırımal
qırımc
qırımca
qırımda
qırımdaki
qırımdan
qırımer
qırımg
qırımlar
qırımlarnı
qırımlarnın
qırımlı
qırımlılar
qırımnı
qırımnın
qırımog
qırımtatar
qırımtatarca
qırımtatarlar
qırımtatarlarg
qırımtatarlarnen
qırımtatarlarnı
qırımtatarlarnın
qıs
qısmen
qısmı
qısmıdır
qısmına
qısmında
qısmındaki
qısmını
qısmının
qısqa
qısqaca
qısım
qısımları
qısımı
qıta
qıtalar
qıtasının
qıtay
qıyat
qıyg
qıyma
qıymet
qıymetli
qıyın
qız
qızartılg
qızc
qızg
qızlar
qızqardas
qızı
qızıl
qızıltas
qızılyurt
qızıs
r
ra
raatlanuv
raatlıq
rac
rada
radası
radasının
radc
rade
radio
radiosı
radisne
radom
radomıs
radı
rafael
rafik
rafiy
rafiya
rag
rah
rahat
rahmeti
rahnı
raiona
raki
rakitnoye
rakitı
rama
ramazan
ramenskoye
ran
randa
rannın
rap
raqamlı
rar
ras
rassvet
rastkele
rastkelgen
rastkelis
rası
rasında
rat
ratılg
rav
ray
rayc
rayevka
raygorod
raykı
rayon
rayondır
rayonlar
rayonu
rayonı
rayonına
rayonında
rayonındaki
rayonının
razdolnoye
razdolnıy
razdolye
razyezd
razyezda
razı
razılıg
rbe
rbeku
rbesi
rc
rcen
rci
rcice
rcistan
rcistannın
rd
rde
rdi
rdik
rdiler
rdim
rdin
rdu
re
reabilitatsiya
reagan
real
reber
reberi
reberligi
reberlik
rebriha
rec
recek
recep
record
records
red
redi
ref
refat
reference
reg
regi
regimde
regin
region
regional
regionda
regiondır
regionlarında
regionı
regionında
regionının
reis
reisi
reisinin
reisligini
rejiso
rejisso
rek
reka
rekkep
rekkeples
reklami
reklamlar
reklerni
rekli
rektorı
releases
reler
rem
rembrandt
reme
remiz
remzi
remziye
ren
reni
renin
renki
renkleri
renkli
rep
report
repressiyag
republic
republika
repyevka
rer
rersin
rersiz
res
research
resim
resimler
resimleri
resin
resmen
resmi
resmiy
resources
respublikası
ressam
ressamlarından
ressamlıg
ressamnın
ressamı
results
ret
reti
retrieved
rette
reuters
rev
review
rey
reyn
reza
rezina
rezolu
rezultatele
rfezi
rge
rgen
rgende
rgendir
rgenim
rgenin
rgenler
rgenmen
rgi
rgu
ri
ria
riayet
rib
ric
rica
richard
rig
rights
rik
rika
rildi
rilgen
rilu
rim
rin
rine
ring
rini
rio
rip
ris
rise
rivayetke
rivne
riy
riyat
riyatı
riyatında
riyaziy
riyaziyat
riyaziyatc
riza
rize
rk
rka
rkc
rkdartists
rki
rkin
rkistan
rkiy
rkiye
rkiyede
rkiyedeki
rkiyege
rkiyeli
rkiyenin
rkler
rklerge
rkleri
rklerinin
rklernin
rkmen
rkmenbas
rkmence
rkmenistan
rkmenistannın
rknin
rks
rku
rkutsk
rkəmli
rlandiya
rlar
rlardan
rları
rlarından
rler
rleri
rlerinin
rli
rlik
rlikgwq
rliq
rlu
rlıg
rme
rmedi
rmedin
rmege
rmegen
rmek
rmeli
rmesi
rmet
rmey
rmez
rn
rnek
rni
rnin
rnoye
rnın
rnıy
ro
road
robert
robot
rock
rodino
rodniki
rodriges
rodriguez
rogac
rogatın
roglo
rojdestvenka
rojna
rok
rokıtne
rol
rolu
roma
romada
roman
romaniv
romanivka
romaniya
romaniyada
romaniyadaki
romaniyag
romaniyanın
romannın
romanov
romanovka
romanovo
romans
romanı
romanının
romas
romen
romence
romnı
ronald
ros
rossos
rosstat
rostov
rotational
routledge
rovdinskoye
rovka
rovnoye
rovo
royal
roza
rozdil
rozdilna
rozivka
rpch
rpe
rpl
rs
rse
rsen
rsene
rsete
rsetu
rsin
rsk
rskiy
rskoye
rsu
rt
rte
rtlu
rtti
rtu
ru
ruanda
rub
rubens
rubensnin
rubtsovsk
ruc
ruch
rudan
rudenka
rudna
ruh
ruhi
ruhiy
ruhiyat
ruhset
rujın
rul
rum
runda
rundaki
rus
rusava
rusc
rusiye
rusiyede
rusiyedeki
rusiyeden
rusiyege
rusiyeli
rusiyenen
rusiyenin
rusiyenın
ruska
ruslana
ruslar
ruslas
russia
russian
russkaya
russkiy
russkoye
rustem
rut
rutılg
ruzga
rxi
rı
rıc
rıg
rılı
rının
rıs
rısı
rıtsar
rıza
s
sa
saada
saadet
saalarda
saalarında
saası
saasına
saasında
saasındaki
saat
saatlarnın
saavedra
saba
sabahattin
saban
sabanc
sabayevo
sabirabad
sabri
sabıq
sac
sad
sadag
sadagın
sade
sadece
sadkı
sadove
sadovoye
sadovıy
sadıq
sadır
saf
safa
safarovo
saflarında
safonovo
sag
saga
sagitovo
saha
sahib
sahiye
sahra
sahte
saibi
saibidir
saife
saifeleri
saifelerinde
saifeni
saifenin
saifesi
saifesinde
saim
saip
saiptir
saitkulovo
sakarya
sakinleri
saksoniya
sal
sala
salac
salavat
salg
sali
salihovo
sallay
salmasa
salnın
salvador
salın
salıp
sam
samand
samara
samarka
samarqand
samba
sambir
samed
sami
samimiy
samoa
samsun
san
sana
sanalas
sanat
sanatc
sanatka
sanatlar
sanatoriya
sanatı
sanatının
sanayı
sanc
sangalo
saniye
sankt
sanskrit
sanskritc
sansız
santa
santi
santırac
sanı
saq
saqal
saqlandı
saqlang
saqlanması
saqlanılg
saqlanıp
saqlap
saqlav
sar
sara
sarabuz
sarah
saransk
sarata
saratov
saratovka
saratovskiy
saray
sarayevo
saraylı
saraynın
sarayı
sarayına
sarayında
sarayının
sarda
sarf
sarg
sarmas
sarmat
sarmatlar
sarnı
sarsaz
sart
sarı
sarıp
sarıs
sas
sasıq
satyajit
satın
satıp
saudiy
sav
savc
savelyevka
savino
savinskaya
savlık
savlıq
savran
savut
say
saya
sayesinde
sayg
saylama
saylana
saylandı
saylang
saylap
saylav
saylavlar
saylavlarda
saylavlarında
sayranovo
sayt
saytı
saytın
saytında
sayı
sayıda
sayıla
sayılar
sayılg
sayılmag
sayılı
sayılır
sayın
sayıp
sayısı
sayısına
saz
sazovo
sazım
sbet
sc
scb
scbnin
school
science
sciences
scnin
se
sea
sebebi
sebebinden
sebebinen
sebep
sebepc
sebepleri
sebepten
sebze
sec
secevu
second
seda
sedası
seddes
sefer
sein
seit
seitmuratova
seitu
sekirip
sekiz
sekizinci
seksen
sela
selah
selam
selc
selemcinsk
selena
seler
selim
selivanovo
selo
seltso
selıs
sem
semenivka
semereli
semetdes
semiletka
semiluki
semiz
semo
sen
senden
sene
senede
seneden
senegal
senege
seneler
senelerde
seneleri
senelerinde
senelerinden
senelerinin
senelernin
senelik
senenin
senesi
senesinde
senesindeki
senesinden
senesine
senesinece
senesinin
seni
senin
seniu
senkevic
sensin
sent
senta
sepa
ser
sera
serbest
serbestlik
serbestliklerini
serbı
serdar
serebra
serg
sergey
sergeyevic
sergeyevka
sergiy
sergiyev
sergiyivka
sergu
seri
series
serin
seriyası
serlevalı
sert
servantes
servantesnin
server
serveri
service
servis
serıs
ses
sesi
sesin
sesine
sesinen
sesini
seslendirici
sesler
sesleri
sesli
sesni
sessiyası
sessiyasında
sessiz
set
sevdiyar
seve
severnoye
severnıy
severo
severodvinsk
severınivka
sevesin
sevgen
sevgi
sevimli
sevinc
sevip
seviye
seviyede
seviyedeki
seviyeli
seviyesi
seviyesinde
seviyesinden
seviyesine
sevsen
seyaat
seyaatc
seyaatı
seydamet
seyid
seyir
seyit
seyitler
seyitnafe
seyitveliyev
seynt
seyran
seys
seyyare
seyyaredir
sfd
sfi
sheet
shinzo
short
show
shtml
si
sibay
sibir
sibirge
sibirskiy
sic
sid
sidney
sidorovka
sidorovskaya
sienkiewicz
sig
sigmund
sil
sila
silez
sileziya
silistre
sim
simaris
simeiz
simferopol
simfonik
simfoniya
simon
sin
sina
sinan
sinde
sine
sinen
singapur
sini
sinin
sinip
sinop
sip
siqilip
sistema
sistemalar
sistemalarnın
sistemaları
sistemalarının
sistemalı
sistemanın
sisteması
sistemasıdır
sistemasında
sistemasını
sistemasının
sistemi
sisteminin
site
sites
sivas
siverskıy
siya
siyabendov
siyaset
siyasetc
siyaseti
siyasetine
siyasetini
siyasiy
siyrek
siz
size
sizg
sizge
sizin
sizlerge
sizni
siznin
sk
skadovsk
skala
skalat
ske
sken
skit
skitler
skitlernin
skiy
skoc
skole
skovorodino
skoye
skra
skripka
sku
skus
sky
sla
slakbas
slam
slandiya
slav
slava
slavgorod
slavuta
sler
sleri
slobidka
sloboda
slobodka
slobojanske
slovakiya
slovenia
sloveniya
slovyansk
slu
sm
smagilovo
smail
smanlıca
smidovic
smila
smit
smith
smola
smolensk
smolenskoye
smu
snovsk
snu
so
sobinka
sobolivka
soc
social
society
sofiya
sofiyevka
sofiyivka
sog
sohtalar
sokol
sokolovka
sokıra
sol
sola
solay
solg
solhat
sollar
solnec
solo
solomon
solones
solonovka
solotvın
solovetskiy
solovyovka
solton
somaliya
some
son
sona
sondan
sonday
song
sonnan
sonra
sonı
sopakam
sopakay
sopaqam
sopaqay
soqag
soqaq
soqur
sora
sorag
soras
sorasan
soray
soraydı
sorayım
sorb
soroc
sortavala
sos
sosnivka
sosnogorsk
sosnovka
sosnovoborsk
sosnovıy
sosnıtsa
sosyal
sotsialist
sotsialistik
sotsializm
sotsialjno
soul
soundcloud
source
south
southamerica
sovet
sovetler
sovetsk
sovetskiy
sovetskoye
sovhoza
sovhoznıy
soviet
sovo
sovyet
soy
soyadı
soyları
soyqırımı
soyu
soyudır
soyuna
soyundan
soyıp
sp
space
span
spaniya
spaniyanin
spaniyanın
spas
spassk
spasskoye
speculative
spencer
spor
sport
springer
square
srail
sredna
sredniy
sredniye
sretensk
ss
ssc
sscb
ssp
st
sta
staatsbibliothek
stabila
stadionı
stalin
stalingrad
stalinnin
stan
stanbul
stanbulda
stanbulg
standart
standish
stanislav
stanitsa
stanovoye
stantsii
stantsiya
stantsiyası
stanu
star
stara
staraya
stari
starokosta
staromusino
staros
starosilla
staroye
stars
starıy
starıye
stat
state
states
statistical
statistics
statistik
statistika
statistikportal
statra
stats
statuslı
statusı
statusını
stavkı
stavropol
stavıs
stay
stecib
stecip
stefania
stemleke
sten
stence
step
stepan
stepanivka
stepankı
stepanovka
stepanovskaya
stepnoy
stepnoye
stepok
stepove
sterdi
stere
stergen
stergeni
sterile
sterilgen
sterip
sterir
sterlibas
sterlitamaq
stermege
stermek
sterreichische
steru
steven
sti
stinde
stine
stm
stoc
stok
stone
stopklatka
storage
store
story
stoughton
stra
stratiyivka
strelka
structure
struktura
strutınka
stsenariy
stsenariycisi
stu
stub
student
studies
stupino
su
suahili
sual
sualine
sualler
subetnik
subject
subyektidir
suc
sudan
sudaq
suhoy
suleyman
suleymanovic
suleymanovo
sulh
sultan
sultanovka
sultanı
sulzberger
sumy
sumı
sun
sunaq
suniy
surette
surinam
suriye
survey
surveys
sus
susana
susuman
suv
suvdan
suvg
suvga
suvlar
suvları
suvuq
suyetka
suyundu
sv
sva
svec
svensk
sverdlovsk
sverstu
svetlana
svetloye
svetlıy
svic
svitlana
svitlovodsk
svoboda
svobodnıy
sworn
syerra
system
sz
sı
sıc
sıcaq
sıfatında
sıg
sıktıvkar
sıluw
sımarıs
sın
sına
sında
sınelnıkove
sınfı
sıntas
sınıf
sınıflar
sınıflas
sıq
sıqc
sıqıp
sıqıs
sır
sıra
sırada
sırası
sırasına
sırasında
sırb
sırbca
sırbistan
sırdas
sırlı
sırt
sız
sızg
sızıg
səlimov
t
ta
taa
tab
taba
tabar
tabi
tabiat
tabiatı
tabiiy
table
tabuldı
tabunı
tabılır
tabıp
tac
tacik
tacikc
tacikistan
tacikistanda
tadt
tafsila
tag
tagol
tahallu
tahmin
tahminen
taht
tahta
tahtamukay
tahtqa
tahtta
tahttan
tahtına
tair
taki
tal
talap
talas
talayı
talda
taldom
talebe
talebeler
talebeleri
talil
talim
talitsa
taliya
taliyanın
talmenka
talovka
tam
tama
tamag
tamak
tamam
tamamen
tamamladı
tamamlag
tamamlang
tamamınen
taman
tamaq
tambov
tambovka
tambovskiy
tamc
tamg
tamir
tamyan
tamır
tamırlar
tamırları
tamırlı
tamırından
tan
tana
tandfonline
tanis
tanka
tantanalı
tanzaniya
tanı
tanıdı
tanıg
tanıldı
tanılg
tanılmag
tanıma
tanımadı
tanımaq
tanıng
tanıs
tanıtma
tanıy
tap
tapa
tapmag
tapmaq
tapqan
taptı
tapıla
tapıldı
tapılg
tapılır
tapıp
taqdim
taqdirde
taqdirlendi
taqip
taqiqat
taqiqatc
taqlit
taqma
taqıl
taqım
taqımları
taqımnın
taqımı
taqımıdır
taqımından
taqımının
tar
tara
taraba
tarafdarı
taraftan
tarafı
tarafına
tarafında
tarafından
tarafını
tarantino
taraq
taras
tarasivka
tarasovka
tarhan
tarhannı
tarif
tarifi
tarih
tarihc
tarihi
tarihiy
tarihta
tarihtan
tarihte
tarihı
tarihında
tarihındaki
tarihından
tarihını
tarihının
tarixində
tarqalg
tartar
tartıp
tartıs
tarutıne
tarzda
tarzı
tas
tasalar
tasavur
tasdıq
tasil
tasili
tasiline
tasilini
taska
taslap
tasma
tasmager
taste
tasvir
tasviri
tasviriy
tasvirlegen
tat
tatar
tatarbunarı
tatarca
tatardan
tataristan
tatarlar
tatarlarg
tatarlarnı
tatarlarnın
tatarları
tatarlarının
tatarlıg
tatarlıq
tatarman
tatars
tatarskiy
tatarım
tatlar
tatları
tatlarında
tatlarının
tatlı
tatı
tatında
tatının
tatıs
tau
tav
tavdan
tavric
tavrida
tavriya
tavrlar
tavs
tay
tayag
tayang
tayg
tayga
tayin
tayinlendi
tayinlengen
tayland
taylandnın
taylor
tayna
taypınıs
tays
tayvan
tayyip
taze
tazlarovo
tc
tcu
tdbplflt
te
teatr
teatri
teatrinde
teatrinin
teberti
tebessu
technology
tecribe
tedbiri
tedbirler
tedqiq
tedqiqat
tedqiqatc
tedqiqiy
teessu
tefan
teftis
teges
tegiz
tehassıs
tehassıslar
tehassısı
tehnik
tehnika
tehnikası
tehnikiy
tehnikumına
tehnikumında
tehran
tek
teki
tekles
teklif
teklivka
tekrar
tel
tela
telecommunications
telefon
telegraph
telekanalı
telekanalının
telekom
telekonferentsiyalar
telekoru
televizion
teller
telli
telu
tema
temas
tematyczne
temel
temelcilerinden
temelcisi
temeli
temelinde
temelini
temelli
temin
teminatı
teminatına
teminatını
teminatının
temir
temirden
temiz
temps
temru
temsil
temsilcileri
temsilcisi
ten
teneffu
tenge
tenqit
tenqitc
teodoro
teplık
ter
terbiye
tercim
terciman
tercime
tercimeler
tercimeleri
tercimesi
tercimesinde
terek
tereklernin
terekli
teren
terenligi
teres
tergen
teri
terilgen
terilip
terip
terisi
terk
terkibi
terkibinde
terkibindeki
terkibine
terkip
term
termege
terminator
terminology
ternivka
ternopil
territorial
territoriyasında
terror
ters
tertibi
tertibinde
tertibini
tertip
teru
terytorialnym
tes
tesadu
tesi
tesir
tesiri
tesirinde
tesis
tesisc
tesla
teslim
tesnivka
test
tet
tetis
tetqiq
tetqiqatc
teuc
tevqif
tevratnın
tevsiye
text
texts
teyfuq
teyn
tez
tezis
th
thank
that
the
their
these
they
things
this
thomas
three
thunberg
ti
tibbiy
tibbiyet
tibet
tibi
ticaret
ticariy
tif
tig
tik
tikip
tiklemek
tiklenmesi
til
tilar
tilde
tildir
tilep
tiler
tileymen
tilge
tili
tilidir
tilin
tilinde
tilindeki
tilinden
tiline
tilinen
tilini
tilinin
tiller
tillerde
tillerden
tillerge
tilleri
tillerinde
tillerinden
tillerine
tillerini
tillerinin
tillernin
tilli
tilni
tilnin
tils
tim
timaiy
timaiyat
timas
time
times
timi
timira
timirovo
timor
timsali
timur
timurg
timurnın
tin
tina
tinc
tino
tip
tipik
tiq
tir
tira
tirajı
tirak
tirakc
tirdi
tirdik
tirdiler
tirdim
tirdiq
tire
tirec
tirg
tirgen
tiri
tirici
tirildi
tirilg
tirilgen
tirilmesi
tirilu
tirip
tiris
tirmag
tirmaq
tirmas
tirme
tirmege
tirmek
tiru
tis
tisul
title
tizgen
tizilgen
tka
tkac
tken
tkende
tkerildi
tkerile
tkerilgen
tkino
tkovo
tkulovo
tla
tlar
tları
tlarının
tlerini
tlesinin
tleviy
tlu
tlı
tmek
tmjdt
tna
tnın
to
tobago
todor
tog
togo
togul
toguz
tokat
tokmak
tolg
tolgaydı
tolmac
tolu
tolusınen
tolı
tom
tomas
tome
tomsen
tomsk
ton
tong
tonga
toni
toolforge
top
topac
topc
topic
topladı
toplag
toplam
toplamı
toplandı
toplang
toplap
toplas
toplay
toplu
toplulıg
toplum
topoli
topolnoye
toprag
topraq
topraqlar
topraqlarda
topraqlarg
topraqlarnı
topraqlarnın
topraqları
topraqlarına
topraqlarında
topraqlarını
topraqlarının
topraqqa
toq
toqta
toqtag
toqtamadan
toqtamay
toqtamıs
toqtap
toqtarg
toqtav
toqus
torc
torg
toronto
torun
torunı
tos
toslav
tosno
total
totay
totayko
tour
tove
tovo
tovste
toy
toyg
toyma
toz
tozg
tqqwmfqa
tr
tra
trabzon
travel
travels
travneve
tree
tres
tretyakovo
trinidad
tro
troitsk
troitskiy
troitskoye
trolleybus
tros
trosta
troyanı
troyitske
trud
trudolu
trudove
ts
tsar
tsarıc
tselinnoye
tselinnıy
tsentralnıy
tsenzura
tserkva
tsiya
tsiyag
tskiye
tt
ttan
ttirgen
ttır
tu
tuapse
tuc
tuccar
tufla
tug
tugay
tugayevo
tuk
tukayevo
tukmak
tukmaklı
tul
tula
tulc
tulup
tumboc
tuna
tunc
tunceli
tunis
tuqay
tur
tura
turalar
turaman
turbaslı
turdı
turg
turgan
turgenevo
turgut
turing
turizm
turkish
turkmenistan
turla
turma
turmus
turoc
tursa
tursın
turup
turus
turıp
tus
tut
tuta
tutalar
tutas
tutbuv
tutmaq
tutqan
tuttı
tutula
tutulg
tutuq
tutus
tutıp
tuvalu
tuvar
tuvg
tuvgan
tuvul
tuvıl
tuwg
tuyag
tuymazı
tuzlu
tuzlı
tv
tver
twitter
tx
txt
type
tzdb
tı
tıdır
tıg
tılar
tım
tın
tınc
tında
tını
tının
tır
tıra
tırdı
tırg
tırma
tırmag
tırmalar
tırmaları
tırmaq
tırmas
tıruv
tırıldı
tırılg
tırıp
tırıs
tıs
tısmenıtsa
tıva
tıvriv
təltif
u
ua
uanimals
ub
ubarov
ubesi
ubinka
ubug
ubukliyeva
uc
ucoz
ucwpvsu
ucxv
ucı
udac
udniv
udttmr
udır
ue
ufa
ufaq
ufut
ug
uga
uganda
ugino
uglovskoye
ugol
uhta
uielem
ujgorod
uk
ukonskoye
ukovo
ukovskaya
ukr
ukrain
ukraina
ukrainada
ukrainadaki
ukrainag
ukrainalı
ukrainanı
ukrainanın
ukraince
ukraine
ukrainian
ukrainka
ukrainler
ukrayinka
ukrayna
ukraynanın
ukrcensus
ukrinform
ukrstat
ul
ula
ulagan
ulan
ular
ulardır
ularnı
ularnın
ulas
ulc
uldan
uldı
uldılar
ulg
ulihpnp
ulka
ulları
ulpan
ulsan
ulu
ulug
ulus
ulusal
uluslararası
ulusnın
ulusı
ulusınde
ulusının
ulyanovka
ulyanovsk
ulı
ulım
ulın
ulıp
um
uma
uman
umanka
umetbayevo
umiha
umnky
umumbelarus
umumcian
umumdu
umumen
umumhalq
umumiy
umumiyles
umumrusiye
umumtasil
un
una
unace
und
unda
undan
under
unesco
ung
uni
unikal
unin
union
unit
united
universal
universelle
universitas
universitet
universiteti
universitetinde
universitetine
universitetini
universitetinin
universitetke
universitetlerinde
universitetnin
universitette
university
unlas
unskiy
unspecified
unvanı
unvanını
unı
unın
up
uploads
uq
uquq
uquqiy
uquqlar
ur
ura
urada
urag
urakayevo
ural
uralar
uraları
urası
urasına
urasında
urasının
urayevo
urazovo
urc
urca
urduca
urdun
urdı
urf
urg
urip
uriye
urjum
url
urman
urojaynoye
urov
urs
ursayevo
urt
uru
urufat
urufatı
urufatında
urugvay
urum
urumlar
urus
urım
urıp
us
usa
usaydı
usenet
usman
usmanovo
usolye
uspenka
uspenovka
ust
usta
ustası
ustu
ustye
ustınivka
usul
usullar
usulları
usulı
usı
ut
uta
utove
uv
uvaha
uvarovka
uvas
uvda
uvdan
uvg
uvi
uvlanıp
uvlar
uvları
uvlı
uvı
uvında
uya
uyang
uyanuv
uyezdi
uyezdinden
uyezdinin
uyg
uyka
uyrenemız
uyunc
uyıs
uz
uza
uzana
uzang
uzaq
uzaqlas
uzaqlıqta
uzaqtan
uzlas
uzun
uzunca
uzunlig
uzunlıg
uzın
v
va
vaap
vac
vadiysinde
vadiysinin
vahiy
vahs
vakarc
vakfı
val
vala
valday
vale
valencia
valuyki
van
vanivka
vankiv
vankivtsi
vano
vanopil
vanovic
vanovka
vanovo
vanovskaya
vanovskiy
vanovskoye
vanovıc
vanuatu
vapna
vaqfı
vaqfının
vaqia
vaqialar
vaqialardan
vaqialarnın
vaqiaları
vaqtı
vaqtınca
vaqtında
vaqıf
vaqıt
vaqıtlarda
vaqıtları
vaqıtqa
vaqıtta
vaqıttaki
vaqıttan
vaqıtında
var
vara
varna
varqula
vars
varvarivka
varvarovka
vas
vasil
vasiliy
vasilyevic
vasilyevka
vasilyevskaya
vastaları
vastası
vastasınen
vasıl
vasılivka
vasılkiv
vatan
vatandan
vatandas
vatang
vatanı
vatanında
vatikan
vay
vayenga
vays
vazgec
vazife
vazifeleri
vazifelerini
vazifelerni
vazifesi
vazifesinde
vazifesine
vazifesini
vaziyet
vaziyeti
vaziyetine
vaziyetini
vc
vde
vden
ve
veb
vechi
veciye
veda
vedalas
vefat
vefatından
veka
vekil
vekili
vekilleri
vekillerinden
vela
veli
velikiy
veliyev
velsk
velskmo
velıka
velıke
velıki
velıkıy
ven
venedik
venesuela
ver
vera
verbivka
verdi
verh
verhna
verhnekama
verhneye
verhniy
verhniye
verhno
veris
verlag
vernadskiy
vers
vesela
vesele
veselivka
vesiqalar
vesiqaları
vesiqalı
veso
veto
veya
veydelevka
veys
veyt
vezin
vezir
veziri
vge
vi
vic
victoria
video
videosı
vidnoye
view
vii
viii
vikipediya
viktor
viktoriya
vila
vilegodsk
vilhelm
vilna
vilne
vilnu
viloyati
vils
vilyam
vim
vimeo
vin
vinde
vinden
vine
vinen
vini
vinin
vinnıtsa
vinogradovo
vinsent
viran
viranesi
vis
vision
vivaldi
viyana
viytivtsi
vka
vladimir
vladimirovka
vlasenko
vlasiha
vlasyevskaya
vler
vleri
vli
vm
vn
vnen
vni
vnin
vnın
vo
voda
vodı
vokal
vokzalı
vol
vola
volc
volfgang
volga
volgograd
volhov
voljskiy
volkovo
volnovaha
volnoye
voloc
volodarka
volodarsk
volodarskiy
volodımır
volodımırivka
volodımırovıc
vologda
volokonovka
volos
voltaire
volume
volumul
volın
volınskıy
volıtsa
von
vorkuta
vorobyi
vorobyovo
voronej
voros
voshod
voskresenovka
voskresensk
voskresenskoye
vostoc
vostok
vovc
voyevodalıg
voyevodalıq
vozdvijenka
voznesenka
voznesensk
voznesenskiy
voznesenskoye
vpn
vsevolojsk
vskaya
vskiy
vtoraya
vu
vucutnın
vyetnam
vyetnamca
vyetnamnın
vıborg
vıgoda
vıksa
vıla
vınogradiv
vınogradivka
vınogradne
vıs
vıselok
vısokaya
vısoke
vısokoye
və
w
wagner
walker
walt
walter
war
warheroes
warhol
warsaw
warszawa
was
washington
watch
way
wcm
we
web
webarchive
webcitation
website
wedding
weekly
welay
weo
west
wgs
what
who
wi
wiki
wikidata
wikimedia
wikipedia
will
william
wilson
wissen
with
wojewo
wolfgang
work
working
works
world
worldbank
worldometers
wps
www
wydział
x
xi
xii
xiii
xiv
xix
xls
xlsx
xn
xv
xvi
xvii
xviii
xx
xxi
xxii
xəqani
y
ya
yabancı
yablunets
yablunivka
yada
yag
yagodnoye
yahs
yahut
yaki
yakovlevka
yakovlevo
yaks
yaktı
yakupovo
yakus
yakımivka
yalan
yalanets
yalc
yalin
yaln
yalova
yalta
yaltada
yaltadaki
yaltadan
yaltanı
yaltanın
yaltus
yalı
yalıboylu
yalıboylular
yalıları
yalılarında
yalın
yalısı
yalısına
yalısında
yalısındaki
yalısının
yamac
yaman
yampil
yan
yana
yanag
yanardag
yanas
yanbas
yang
yangi
yani
yanin
yantıq
yanukovic
yanvar
yanvarnin
yanvarnın
yanı
yanın
yanına
yanında
yanındaki
yanıs
yap
yapa
yapacag
yapis
yapmag
yapmaq
yapon
yaponca
yaponiya
yaponiyalı
yaponiyanın
yapqan
yaprag
yapraqlı
yaptı
yaptılar
yapı
yapıcılıg
yapıla
yapılar
yapıları
yapıldı
yapılg
yapılır
yapıp
yapıs
yapısı
yaqalanıp
yaqinlas
yaqlas
yaqqa
yaqta
yaqtı
yaqub
yaqup
yaqın
yaqından
yaqındır
yaqınlarında
yaqınlas
yaqınlıg
yar
yaralandı
yaralang
yaralı
yaramay
yaras
yarata
yaratmag
yaratmaq
yaratqan
yarattı
yarattılar
yaratuv
yaratıcılıg
yaratıcılıq
yaratıcısı
yaratıldı
yaratılg
yaratılması
yardım
yardımcı
yardımcısı
yardımlas
yardımı
yardımınen
yarg
yarkoye
yarlıg
yarmolıntsi
yaroslavka
yaroslavl
yaruga
yarı
yarım
yarımada
yarımadada
yarımadanın
yarımadası
yarımadasında
yarımadasındaki
yarımadasının
yarımku
yarın
yarıq
yarıs
yarısı
yarısın
yarısında
yas
yasadı
yasag
yasala
yasalg
yasap
yasaq
yasaqtır
yasay
yasnaya
yasnogirka
yasnıy
yat
yata
yatis
yavas
yavlug
yavur
yavuz
yaya
yayg
yayla
yaylası
yaylasının
yayılg
yayın
yayıncılık
yayınlandı
yayınlang
yayınları
yaz
yaza
yazda
yazdi
yazdı
yazg
yazilg
yazlıq
yazma
yazmag
yazmaq
yazuv
yazuvı
yazı
yazıcı
yazıcılar
yazıcıları
yazıcılarının
yazıcılıg
yazıcının
yazıcısı
yazıcısıdır
yazıla
yazılar
yazıları
yazıldı
yazılg
yazılmag
yazılı
yazılır
yazıp
yazısı
yazısınen
yc
yde
ydeki
yden
ydes
ydir
ye
yea
year
years
yedek
yedi
yedinci
yedinov
yegoryevskoye
yeka
yekaterina
yekaterinburg
yekaterinovka
yeku
yel
yelan
yelena
yeler
yeleri
yelerini
yelga
yeltsovka
yelızavetivka
yem
yemek
yemekleri
yemen
yemilc
yemis
yemtsa
yen
yengil
yeni
yenotayevka
yer
yerc
yerde
yerdeki
yerden
yerelnet
yerge
yeri
yerim
yerin
yerinde
yerinden
yerine
yerini
yerler
yerlerde
yerlerden
yerlerge
yerleri
yerlerinde
yerlerine
yerlerni
yerlernin
yerles
yerli
yermekey
yerni
yernin
yero
yers
yerus
yes
yesi
yesini
yet
yete
yetekc
yetekleyici
yeti
yetinde
yetindeki
yetine
yetini
yetinin
yetinın
yetip
yetis
yetken
yetmis
yetnin
yette
yetti
yeudi
yeudiler
yeudilik
yeudiy
yevgen
yevka
yevo
yge
yi
yiberdi
yiberildi
yidis
yig
yigirmi
yigit
yime
yims
yin
yinde
yine
yip
yipek
yivka
yken
yle
ylece
yledir
ylelikle
yleliknen
ylene
yler
ylerde
ylerge
yleri
ylerinde
ylerinden
ylerine
yles
yli
ylu
yni
ynin
yo
yog
yok
yol
yolag
yolaq
yolbas
yolda
yoldas
yolg
yolladı
yolladılar
yollag
yollamag
yollandı
yollanıldı
yollanılg
yollap
yollar
yolları
yollarını
yollay
yollaylar
yolnı
yolu
yolun
yolunda
yolunen
yolunı
yolunın
yoq
yoqlug
yoqtır
yorg
york
yorkta
yorulg
yosıpivka
you
young
your
youtube
yozgat
yren
yru
ys
yu
yuan
yujno
yujnıy
yul
yuldas
yulduz
yumaguzino
yumatovo
yumi
yunan
yunanca
yunanistan
yunanlar
yunus
yunusovo
yuqarı
yuqarıda
yuqlamag
yurdu
yurivka
yuriy
yurmas
yurt
yurtu
yurtuna
yurtunda
yurtunı
yuryivka
yus
yusuf
yusupovo
yutub
yuvası
yuz
yıg
yıl
yılayır
yılda
yıldan
yıldırım
yıldız
yıldızlar
yıldızı
yılg
yıllar
yıllarda
yıllarnın
yılları
yıllarında
yıllarını
yıllıg
yıllıq
yıllıqnın
yıllıqta
yılnın
yılı
yılın
yılına
yılında
yılından
yılının
yıms
yıq
yıqtı
yıqılg
yır
yırcı
yırcılar
yırcısı
yırdır
yırla
yırlap
yırlar
yırlarnı
yırlarnın
yırları
yırlarını
yırlay
yırnı
yırnın
yırı
yırını
z
za
zabaykalye
zabolotiv
zac
zade
zadeka
zadenin
zafer
zagaynovo
zaharivka
zaharovic
zaharovo
zaimka
zak
zakarpatta
zalesovo
zalis
zaliznıc
zaman
zamanda
zamandan
zamanlar
zamanlarda
zamanları
zamanlarında
zamannın
zamanı
zamanında
zambiya
zamenhof
zamojne
zan
zaozo
zapadnıy
zapan
zapola
zaporijja
zaporog
zapt
zar
zara
zarar
zarec
zarfında
zaric
zarinsk
zaruc
zarudıntsi
zarur
zas
zaten
zato
zatıs
zavallı
zavitinsk
zavod
zavodı
zavyalovo
zaytsevo
zayıflas
zaza
zb
zbaraj
zbas
zbek
zbekc
zbekistan
zbekistanda
zbekistang
zbekistannın
zcu
zde
zdek
zden
zdnıy
ze
zegen
zeir
zek
zeka
zel
zelandiya
zelena
zelene
zelenski
zelenıy
zellik
zelo
zemaneviy
zemla
zen
zenaat
zenbas
zendir
zengin
zenginles
zeni
zeninde
zeninden
zenine
zeninin
zenler
zenleri
zennin
zer
zere
zeri
zerinde
zerindeki
zerinden
zerine
zerk
zernovoye
zes
zetici
zetti
zetu
zevka
zevo
zevq
zey
zeya
zeyi
zeyinin
zeytu
zge
zgu
zgurivka
zheng
zhuang
zi
zidaresi
zik
zim
zimbabve
zime
zimino
zin
zine
zinin
zinkiv
zino
zip
ziriklı
ziyade
ziyadin
ziyaeddin
ziyaret
ziyaretc
ziz
zl
zları
zler
zlerde
zlerge
zleri
zlerin
zlerinden
zlerine
zlerinen
zlerini
zlerinin
zlernen
zlerni
zlernin
zli
zlu
zlıg
zmayil
zmeinogorsk
zmir
znamenka
znamyanka
znen
zni
zniki
znin
zo
zoloc
zolotonos
zonalnoye
zones
zor
zora
zori
zornen
zovaya
zovka
zovo
zovskiy
zre
zsu
zt
zu
zubatov
zubova
zubovo
zum
zurna
zuyevka
zuyevo
zvenigovo
zvo
zyas
zye
zı
zıncırlı
zıncırnı
zıt
{
|
}
~
«
¬
­
¯
°
²
³
¹
º
»
½
ı
ıbın
ıc
ıcı
ıcılar
ıda
ıdaki
ıdan
ıdır
ıg
ıgadı
ıgıp
ıgırın
ıhnaz
ık
ıkkan
ıkı
ıl
ıla
ılar
ılarg
ılarnı
ılarnın
ıları
ılarından
ılas
ılay
ıldı
ılg
ılsın
ılı
ılıg
ılıp
ılıq
ılıqlı
ılır
ılıs
ım
ıma
ımda
ımdan
ımnı
ımız
ın
ına
ınas
ınaslar
ınaslıq
ınc
ıncı
ında
ındaki
ından
ınday
ındı
ıne
ınen
ıng
ınivka
ınka
ıntsi
ını
ının
ınıp
ıp
ıq
ıqa
ıqara
ıqardı
ıqardılar
ıqarg
ıqarmag
ıqarmaq
ıqaruv
ıqarıcı
ıqarıla
ıqarıldı
ıqarılg
ıqarılması
ıqarıp
ıqlar
ıqlı
ıqlıq
ıqma
ıqmag
ıqnı
ıqnın
ıqqa
ıqqan
ıqqanlar
ıqqanı
ıqta
ıqtan
ıqtı
ıqıp
ıqıs
ır
ıra
ırag
ırc
ırdas
ırdı
ırg
ırlang
ırları
ırlarında
ırlarını
ırlı
ıroka
ıroke
ırq
ırtıp
ırı
ırıla
ırıldı
ırın
ırında
ırıp
ırıs
ıs
ısk
ıstan
ıstande
ıstıla
ıstılası
ısı
ısıdır
ısın
ısına
ısında
ısından
ısının
ıt
ıtsa
ıy
ız
ızca
ızdan
ızg
ızistan
ızmı
ıznı
ızın
ƣ
ƶ
ɉ
ɑ
ə
ɨ
ɪ
ɵ
ʃ
ʧ
ʰ
ʱ
ʲ
ʹ
ʻ
ʿ
ˈ
ˌ
ː
ˤ
̀
́
̂
̃
̄
̆
̇
̈
̊
̋
̌
̓
̔
̛
̡
̣
̦
̧
̨
̩
͂
͡
α
β
γ
δ
ε
ζ
η
θ
ι
κ
λ
μ
ν
ξ
ο
π
ρ
ς
σ
τ
υ
φ
χ
ψ
ω
а
абдуллино
абдурешид
аблам
або
автономных
авуз
агатангел
адамівка
аджи
адмирал
адмирала
адольф
адыгея
аи
ак
акад
академии
аккаунтов
аксе
актачи
акчора
акшеи
акъмесджит
акіри
алач
алга
алеи
александр
александрович
александровка
александровна
алексеев
алексеевич
алексеевка
алексеи
али
алиев
алкино
аллах
аллахнынъ
алма
алтаи
аль
алі
амур
анатолии
анатоліи
англ
андреевка
андреевскии
андреи
андрея
андріі
анна
анновка
антоновка
антонівка
ануи
арк
армстронг
арсланово
архив
ас
асамблея
асан
асма
атлас
аул
ахмерово
ахметово
б
бадрак
бажана
база
базар
баи
баккал
балка
банк
банка
бар
барановка
бассеи
бахчисараи
баш
баши
башкирская
башкортостан
башкортостана
без
беи
бек
беларусь
белая
белогорскии
белое
белыи
бере
берег
берегове
березник
березня
березівка
бетговен
бетховен
беш
бии
биккулово
биографии
биографическая
биографическии
бир
биюк
благодатне
ближнее
богдан
богданівка
богородское
боз
бои
болат
более
большая
большие
большое
большои
болярка
бор
борис
борисовка
борлак
боровлянка
брит
брокгауз
брэ
бу
бугор
буда
буде
буенос
бузан
бук
булат
булатово
булганак
було
буляк
бурлюк
бурундук
буюк
быково
был
было
бышево
бююк
бібліогр
біи
біла
білка
в
ва
ваи
вакуф
валютнии
ван
васи
васильевич
васильевка
василівка
ваґнер
ве
века
велика
велике
великии
великі
вербівка
верх
верхнее
верхние
верхнии
верхня
верхняя
верхніи
верховноі
весе
весела
веселе
веселівка
вестник
вигода
вид
видавництво
видатних
виноградне
виноградівка
вишне
вишневе
вка
владимир
владимирович
владимировка
внутренних
во
вобласць
возгрин
вознесенка
вои
волиця
волково
володимир
володимирівка
вороб
воробье
воронеж
воронскии
воскресеновка
воскресенское
восток
восточныи
восход
время
все
всемирная
всемирного
всеобщая
всероссии
всесоюзная
вская
вскии
вська
вськии
вці
выдающихся
вып
вязовка
від
відп
віи
віктор
вільне
вільшанка
г
газета
гаи
ганнівка
гвардіи
гг
ге
генасамблея
географии
геоинформ
георгиевка
гераев
герцен
гиреи
гитлер
гл
глибочок
гнпп
го
год
года
году
годы
гол
голова
голови
голубівка
гора
горка
горныи
город
города
городам
городе
городище
городов
городок
городских
городского
городское
городскои
горсовет
госкомстат
госп
государственное
государственнои
государственныи
гоцанюк
гребля
гречило
григоренко
григорович
григорьевка
григорівка
губерния
гумерово
гута
гюго
д
да
давид
дальнее
дан
даниловка
данным
данных
дар
движение
движения
де
дел
демократія
демократіі
день
депортация
дер
деревня
держ
державна
державнии
державноі
дж
джага
джадра
джами
джамининъ
джан
джанкои
дзюба
динии
для
дмитриевич
дмитриевка
дмитрівка
днвп
дня
до
довжок
довідник
долгое
долина
долинка
доля
донецьк
донецьке
доп
доровка
дорф
досліджень
др
друга
других
дружба
дубина
дубки
дубрава
дубровка
думка
дюртюли
діброва
дібрівка
дім
е
евич
его
единиц
ее
ежегодник
екатеринбург
екатериновка
екз
елань
елга
елі
енциклопедичнии
енциклопедичних
енциклопедія
ескі
ефрон
ж
железнодорожная
женщинах
жизни
жизнь
життя
журавле
жінок
з
за
заглавие
заде
заи
закон
залізничне
заозе
западнои
записки
заречное
заречныи
зарубіжні
заря
зарічне
заріччя
заст
зеле
зелена
зелене
зелении
зириклы
знам
знаменка
зовка
зовскии
золотов
золотои
зоря
и
ибн
ибрагимово
ибраево
иван
ивановка
идентификатор
из
изд
издание
издательство
изобразительного
израев
ии
ил
или
ильинка
им
имени
империи
инстаграм
институт
информация
исаев
искусства
искусство
исп
исток
истории
историко
историческая
исторические
история
итал
итоги
ич
ишунь
иҫке
к
ка
казан
казанка
казанчи
казарма
каи
как
кале
калинино
калиновка
калинівка
кам
каменка
камышенка
камышлы
кандры
кара
карабаи
карагаи
карамалы
каран
каргалы
карт
карта
картографія
каспии
кат
каталог
катеринівка
кая
квіти
кебир
кенегез
керлеут
кеч
ки
кизил
кино
кипчак
кир
кирк
кировскии
китаи
китап
кият
києві
киі
ключ
ключевскии
ключи
км
кн
книга
книги
ко
кове
ково
ковскии
кои
кол
колчак
колчака
ком
комитет
комсомольскии
конрат
константин
константиновка
конституционное
конституция
контроль
концерт
короле
королівка
коронавирусом
корпе
корінні
костянтинівка
которые
кош
краев
краи
красна
красная
красне
красноармеи
красногвардеи
красногірка
красное
красносілка
красноярка
красныи
краткая
края
краям
крим
кримська
кримськии
кримських
кримського
кримськотатарськии
кримськотатарського
криму
кринички
крупных
крым
крыма
крымская
крымские
крымскии
крымских
крымско
крымскои
крымскотатарскии
крыму
кубово
кузьминовка
куи
куль
культура
культури
культуры
куросави
курья
кут
кучук
кую
къ
къаи
къырым
къырымтатар
кызыл
кючук
л
ла
лар
лая
ле
лебяжье
лев
левенець
лез
леи
лексикон
лена
ленин
ленино
ленинскии
ленинское
лермонтов
лес
лесное
леснои
лет
летию
ли
лиман
литература
литературная
лкам
ло
лович
ловка
ловскии
лог
лое
лок
лугове
луговое
лука
лукіянович
лы
лыи
львів
льевич
людвіґ
лютого
лів
лівка
ліс
ліси
лісова
лісове
лісів
літаратура
літери
м
ма
маи
максимовка
максютово
мала
малая
малии
малиновка
малинівка
малое
малые
малыи
малі
мама
мамаи
ман
манаи
мангуп
маново
мар
марии
мария
марківка
мартинівка
математики
материалы
махнева
мають
мая
маяк
ме
медиев
медии
менеуз
мест
места
местечке
ми
миколаі
мир
мира
мирне
мирныи
мистецтв
михаи
михаил
михальськоі
мн
мо
могаричев
могои
мои
молдавии
молла
молоде
молодіжне
монастырь
монгол
монографія
море
морозівка
москва
москве
москвы
московскии
музеи
муниципальным
муниципальных
мурзино
міжнароднии
міністрів
місто
місцевості
міськрада
н
на
наволок
навч
навчальна
над
названии
наи
нак
наличного
наличное
нам
нан
нариси
народа
народи
народная
народное
народов
народу
народів
населе
население
населением
населения
населенные
населенным
населенных
населення
наук
наука
наукова
наумовка
научныи
нац
национальная
национальныи
національнии
ная
наявного
не
неи
некрасовка
нем
немецкии
нестерович
ни
нива
нидерл
нижнее
нижние
нижнии
нижня
нижняя
нии
никово
николаевич
николаевка
николаи
никольск
никольскии
никольское
них
нка
нквд
нные
нных
но
нов
нова
новая
новгород
нове
новии
новини
новка
ново
новоалександровка
новоалексеевка
новогригорівка
новое
новоивановка
новомиколаі
новомихаи
новониколаевка
новоолександрівка
новопавловка
новопавлівка
новопетровка
новопокровка
новороссии
новосе
новоселиця
новоселівка
новосілка
новотроицк
новотроицкое
новофе
новоіванівка
новская
новые
новыи
нові
ногаи
ное
нормативныи
нот
нська
нське
нськии
нських
нського
нськоі
нтш
ны
ныи
нью
ні
німецькии
о
об
област
областеи
области
область
областям
облысы
образовании
образованиям
общество
общии
ович
овідіи
оглу
огни
озе
озенбаш
озерки
озерне
озеро
озь
ои
округ
округов
октябрь
октябрьскии
октябрьское
октября
олгъан
олекса
олександр
олександрівка
олексіі
оленівка
он
онам
онацькии
онных
онов
оны
онынъ
оозы
оон
орган
орк
орка
орлов
орловка
орлівка
орта
осипівка
осман
от
отар
отрадное
отче
офіціи
оценка
очі
п
па
павлович
павловка
павлівка
пам
паново
париж
парламентське
парє
пе
первая
первомаи
первыи
переклад
переписи
перепись
перша
перше
першотравневе
петербург
петр
петра
петро
петров
петрович
петровка
петровскии
петровское
петропавловка
петрівка
пещерные
писарівка
письменники
пле
плъыжь
по
победа
погост
под
подгорное
подгорныи
подгот
подписчиков
подільськии
покровка
пол
поле
полтавка
полу
польск
поляна
політична
порт
портал
портр
портреты
посе
поселении
поселков
постанова
постоянного
посібник
початку
пр
права
правда
право
прапор
предварительная
при
прибережне
привольное
привільне
привітне
прим
приозе
причорномор
про
прогресс
проект
проф
прохоров
пруды
пунктам
пунктов
пункты
путеводитель
путешествия
пушкино
підгірне
підручник
підтримала
пісня
р
ра
рагъы
рада
ради
радіо
развитии
раздольное
разъезд
разъезда
раи
ран
рассвет
ре
реалии
ред
редакція
редкол
река
реки
република
рес
республик
республика
республикам
республикасы
республике
республики
республіка
речка
ри
рис
рка
рное
рныи
ро
род
родники
рождения
розподіл
розівка
року
романовка
романово
романівка
рос
россии
россия
росстат
росіи
роща
рр
рск
рсфср
рт
рудня
рум
рус
русская
русскии
русско
русское
русскои
рух
ры
рівне
ріхард
с
сад
садки
садове
садовое
садовыи
саи
сакал
сала
салихово
санатория
санкт
сараи
сары
сб
сборник
свобода
свободныи
свыше
світ
се
севастополь
северинівка
северныи
сеи
сел
селе
селище
сельских
сельское
семе
семеи
семенівка
сенеси
сергеевич
сергеевка
сергеи
сергіи
сергіі
серпня
си
сибаи
симферополь
ск
сказка
ская
ские
скии
ских
ское
скои
слобода
слобідка
слов
словарь
словник
служба
службы
случаи
см
смоліи
со
соболівка
собчак
советская
советскии
советское
совещание
созвездие
солнечныи
соловье
сонъ
сонячне
сопредельные
сосновка
сосновыи
соснівка
сост
состоянию
софіі
социалистическая
союз
союза
спб
спиридонова
список
справочник
среднем
среднии
средняя
сср
ссср
ст
ставки
стал
стара
старая
старии
старые
старыи
старі
стат
статистика
статистике
статистики
статистическии
статистическое
стахова
ство
степановка
степанівка
степное
степнои
степове
сторінка
су
субъектов
сув
сулеи
султан
сучасноі
сф
сша
сын
ськ
ська
ське
ськии
сімферополь
січня
т
та
табл
таблица
тав
таврида
таврики
таврия
таи
так
также
такил
там
тамак
тамбовка
тарасівка
тарафындан
тарма
тархан
татар
татарскии
татары
таш
ташлы
твори
твоя
те
театр
тен
терек
територіальну
тернопіль
тернівка
территориальныи
территориальных
ти
тижня
тип
типа
типом
тихомиров
то
тов
товариство
тогаи
тои
только
том
топлу
тр
травня
три
троицк
троицкии
троицкое
тростянець
труд
трудове
ту
туган
туи
тукаево
туриста
туркевич
ты
тысяч
тысячи
тюп
ті
у
уже
узень
уи
укр
украинка
украины
украі
укргеодезкартографія
улу
ульяновка
улянівка
ун
университет
урал
урман
урняк
урожаи
усеинов
усманово
успенка
успеновка
усть
уфа
уч
ф
фаи
фе
федеральная
федеральнои
федеральныи
федеральных
федерации
федорівка
фз
финансы
фоминская
фонд
фонтан
фр
фраи
фрунзе
х
хаи
халкъ
хан
харків
хозяи
хорв
хутори
хх
царичанка
це
целинныи
центр
центров
церква
цк
цсу
цьке
цілісність
ч
ча
чаган
чаи
чапаево
чаргы
час
частина
часть
че
челеби
человек
человечества
червона
червоне
червонии
чере
черемшанка
чернец
чехов
чеш
чисельність
численности
численность
численностью
чишма
чокрак
чому
чора
что
чуи
чулпан
ш
шакул
шаповал
шарипово
шахраи
швед
швеции
ше
шевченка
шевченко
шевченкове
шеи
шемшученко
ширин
широке
широкии
шишкин
шума
щавурського
ще
що
ъ
ы
ь
э
эвлия
эди
экз
эл
эли
энциклопедии
энциклопедическии
энциклопедия
энъ
эр
эски
это
ю
юбилеи
юл
юлдашево
юридична
юрии
юрт
я
яз
язык
языка
языки
як
якты
якупово
якутск
ялта
янаул
января
янги
яне
яни
янка
яногірка
янське
янъы
яны
янівка
яп
япылгъан
яр
ярке
яркое
ясная
ятка
яңы
є
єлизаветівка
і
іван
іванківці
іванівка
іл
ім
імені
ін
інститут
інформаціі
історія
історіі
ішунь
ґ
қазақстан
ә
ө
ְ
ִ
ֵ
ֶ
ַ
ָ
ֹ
ּ
ׁ
א
ב
ד
ה
ו
ז
ח
י
כ
ל
ם
מ
ן
נ
ע
ף
פ
צ
ק
ר
ש
ת
،
؜
ا
الا
العربية
الله
ب
بن
ة
ت
ج
جمهورية
ح
د
دولة
ر
س
ش
ص
ض
ط
ع
عبد
غ
ق
ك
كراى
ل
م
محمد
ن
ه
و
ي
ين
ً
ٌ
َ
ُ
ِ
ّ
ْ
ٓ
ٔ
ٕ
٢
٩
ٰ
ٱل
ٱلر
پ
چ
ژ
ڤ
ک
ڭ
گ
۱
ހ
ރ
އ
ވ
ދ
ޖ
ާ
ި
ު
ެ
ް
ँ
ं
क
ग
च
ज
ट
ड
त
थ
द
ध
न
प
फ
ब
भ
म
य
र
ल
व
श
ष
स
ह
ा
ि
ी
ु
ू
ृ
े
ै
ो
ौ
्
।
ং
ক
ঠ
ত
থ
দ
ন
ব
য
র
ল
শ
়
া
ি
ী
ু
ে
্
ં
ા
க
ங
ச
ட
ப
ர
ா
ி
ு
ூ
ை
்
ด
อ
ั
ิ
ี
ุ
่
་
མ
ར
ུ
ོ
ខ
ម
រ
ស
ា
្
​
‌
‍
‎
‐
–
—
―
‘
’
‚
“
”
„
†
•
…
′
″
⁚
⁣
№
→
↔
↷
∑
−
③
④
⑦
●
ⴰ
ⴱ
ⴷ
ⵉ
ⵍ
ⵎ
ⵔ
ⵖ
ⵜ
⺀
⺄
⺆
⺈
⺊
⺌
⺕
⺝
⺸
⺼
⿰
⿱
⿲
⿳
⿴
⿵
⿶
⿷
⿸
⿹
⿺
⿻
、
〢
い
う
え
か
け
こ
し
た
て
な
に
の
ほ
も
ら
れ
ん
゙
゚
イ
カ
コ
タ
ナ
ヒ
フ
ユ
リ
ル
ン
ー
㇁
㇂
㇄
㇇
㇈
㇉
㇓
㐁
㐄
㐅
㐌
㐫
㐬
㐭
㐮
㐱
㑒
㒵
㒸
㒼
㓁
㓞
㔾
㕛
㕣
㖾
㘝
㚅
㚇
㚔
㚘
㝉
㝡
㝴
㝵
㞋
㞢
㞷
㠩
㠭
㠯
㡀
㡭
㡿
㢲
㢴
㣇
㣺
㥯
㪅
㫄
㫐
㫒
㫺
㬅
㬎
㬥
㬰
㲋
㳄
㷠
㸒
㸚
㸦
㼌
㼲
㽞
㿟
䀠
䂞
䍃
䏍
䒑
䖍
䖒
䖝
䖵
䙴
䚻
䜌
䝿
䡛
䧹
䪞
一
丁
丂
七
丄
丅
丆
万
丈
三
上
下
丌
不
与
丏
丐
丑
专
且
丕
世
丘
丙
业
东
丞
丢
丣
两
严
並
丨
丩
个
丫
丬
中
丮
丰
丱
串
丵
丶
丷
丸
丹
为
主
丽
丿
乀
乂
乃
久
乆
乇
么
义
之
乌
乍
乎
乏
乐
乑
乔
乖
乗
乘
乙
乚
乛
乜
九
乞
也
习
乡
乳
乾
亀
亅
了
亇
予
争
事
二
亍
于
亏
亐
云
互
亓
五
井
亘
亚
亜
亞
亟
亠
亡
亢
交
亥
亦
产
亨
亩
享
京
亭
亮
亯
亰
亲
亳
亶
亷
人
亻
亼
亾
仁
今
介
仌
从
仐
仑
仒
仓
仕
他
付
仝
代
令
以
们
仮
任
企
伊
伏
伐
休
会
伯
但
位
何
佘
余
作
你
佥
使
來
侈
侌
侖
侯
侵
便
保
俞
信
修
倉
倍
候
倠
備
僉
僕
儿
兀
允
兂
元
兄
充
兆
兇
先
光
兊
克
兌
免
兑
兒
兓
兔
党
兜
兟
入
全
兩
兪
八
公
六
兮
兰
共
关
兵
其
具
典
兹
兼
冀
冂
冃
冄
内
冈
冉
冊
冋
册
再
冎
冏
冐
冒
冓
冖
冗
冘
军
农
冝
冡
冥
冫
冬
冰
冷
几
凡
凢
凵
凶
凷
凸
凹
出
函
凾
刀
刁
刂
刃
刄
刅
分
切
刍
刑
刕
刖
列
刘
则
初
別
利
别
到
制
刺
則
削
剌
前
剡
剽
劉
力
功
加
劦
助
劫
劳
劵
勃
勇
勉
勒
動
務
勞
勤
勹
勺
勻
勾
勿
匀
匂
包
匆
匈
匊
匋
匍
匕
化
北
匚
匝
匡
匪
匱
匸
匹
区
医
匽
匿
區
十
卂
千
卄
卅
卆
升
午
卉
半
卌
华
卑
卒
卓
单
卖
南
卜
卝
卞
占
卡
卢
卣
卤
卦
卩
卪
卬
卯
印
危
即
却
卵
卷
卸
卻
厂
厃
厄
历
厈
厉
厌
厓
厘
厚
原
厤
厥
厨
厭
厲
厶
厷
厸
去
厼
厽
叀
参
參
叅
又
叉
及
友
双
反
叐
发
叒
叔
叕
取
受
叚
叜
叟
口
古
句
另
叩
只
召
可
台
叱
史
右
叵
号
司
叹
吂
各
吅
合
吉
吊
吋
同
名
后
吏
向
吕
君
吝
吞
否
含
启
吳
吴
吹
吾
呂
呆
呈
告
员
呙
周
命
咅
和
咎
咠
咢
咨
咸
咼
哀
品
哉
員
哥
哲
唐
商
啇
問
啚
啬
啻
善
喜
喬
單
喿
嗇
噩
嚴
囊
囗
囘
囙
囚
四
回
囟
因
囧
囬
困
囱
囷
固
国
圂
圅
國
圍
圓
土
圡
圣
圥
在
圭
地
圶
圼
坐
坒
坚
坴
垂
垔
垚
埀
埋
埶
執
基
堂
堅
堆
堇
堯
塞
墨
壘
士
壬
壯
声
壳
壴
壹
壺
壽
夂
处
夅
夆
备
夊
夋
夌
复
夏
夒
夕
外
夗
夘
多
夜
夢
大
夨
天
太
夫
夬
夭
央
失
夲
头
夷
夸
夹
夻
夾
奂
奄
奇
奈
奉
奎
奏
奐
契
奓
奔
奚
奞
奠
奢
奥
奭
女
奴
她
奻
好
如
妄
妙
妟
妥
妻
妾
姑
委
姜
威
娄
婁
婴
嬰
嬴
子
孑
孔
孕
孖
字
存
孚
孛
孝
孟
季
孤
学
孫
孱
學
宀
宁
宂
它
宅
宇
守
安
宋
完
宏
宓
宗
官
定
宛
宜
宝
客
宣
室
宮
宰
害
家
容
宾
宿
寄
寅
密
富
寒
察
寧
審
寫
寬
寮
寸
对
寺
寻
寽
対
寿
封
尃
射
将
將
專
尉
尊
尋
尌
對
小
少
尒
尓
尔
尖
尗
尚
尞
尢
尣
尤
尧
尨
尭
就
尸
尹
尺
尻
尼
尽
尾
尿
局
居
屈
屋
屎
屏
屑
展
屖
屚
属
屠
屡
屬
屮
屯
屰
山
屵
屾
岁
岂
岑
岡
岩
岳
岸
峯
島
崇
崑
崔
崖
崙
崩
嵬
嶲
巂
巛
川
州
巟
巠
巢
巤
工
左
巧
巨
巩
巫
差
己
已
巳
巴
巷
巸
巽
巾
巿
帀
市
布
希
帚
帛
帝
带
師
席
帶
常
干
平
年
幵
并
幷
幸
幺
幻
幼
幽
幾
广
広
庄
床
底
店
庚
府
度
庫
庭
庶
康
庸
廉
廌
廛
廣
廩
廴
延
廷
建
廾
廿
开
弁
弃
弄
弇
弋
式
弓
弔
引
弗
弘
弜
弟
弥
弦
弱
張
強
强
彊
彌
彎
彐
彑
当
彔
录
彖
彗
彡
形
彥
彦
彧
彩
彭
彰
彳
役
彼
往
待
律
徒
得
徙
從
復
微
徵
心
忄
必
忌
忍
志
忝
忠
忩
快
念
忽
忿
思
怠
急
怱
恆
恒
恩
恭
息
悉
患
悤
悲
悶
惠
惡
惢
愁
愈
意
愛
感
慈
慧
慮
憂
憲
應
戀
戈
戉
戊
戋
戌
戍
戎
成
我
戒
戔
或
戚
戠
戢
截
戲
戶
户
戹
戼
戾
房
所
扁
扇
手
扌
才
打
托
执
承
折
报
拉
拜
拿
掌
推
提
摩
撃
支
攴
攵
收
攸
改
放
政
敄
敏
敕
敖
敗
敝
敞
敢
散
敦
敫
敬
数
敷
數
斂
文
斉
斊
斗
斤
斥
斩
斬
斯
新
方
於
施
斿
旁
旋
族
无
旡
既
旣
日
旦
旧
旨
早
旬
旱
旲
时
旾
昆
昇
昌
昍
明
昏
易
昔
昗
昜
星
春
昬
是
昱
昴
昷
時
晃
晋
晏
普
景
晶
智
暑
暴
曇
曩
曰
曲
曳
更
曷
書
曹
曼
曾
替
最
朁
會
月
有
朋
服
朔
朕
朗
望
朝
木
朩
未
末
本
札
朮
术
朱
朵
朶
朿
杀
杏
杜
束
条
来
東
杲
杳
松
析
林
枚
果
枝
枲
枼
某
柔
查
柬
柰
柴
栗
桀
桑
桼
梁
條
梟
梨
棘
棠
棥
森
楚
業
楽
榮
樂
樊
欠
次
欣
欮
欲
欶
欽
款
歆
歇
歛
止
正
此
步
武
歨
歪
歮
歯
歰
歲
歴
歷
歸
歹
歺
死
殳
段
殷
殸
殹
殺
殻
殿
毋
毌
母
毎
每
毒
比
毕
毚
毛
毳
氏
氐
民
气
氣
水
氵
氶
氷
永
氺
氾
求
汉
汝
汞
江
沃
沓
沙
沝
泉
法
波
泣
泥
泰
洛
洪
活
派
流
浦
浪
浮
海
淡
淮
清
渚
渠
港
湯
滿
演
漢
漸
澤
澳
火
灬
灭
灰
灵
灷
炅
炎
炏
炗
炙
炭
為
烈
烏
烝
焉
無
焦
焱
然
煞
熊
熏
燕
營
燮
爪
爫
爭
爯
爰
爱
爲
爵
父
爻
爽
爾
爿
片
版
牙
牚
牛
牜
牟
牢
牧
牪
牽
犀
犬
犭
犮
狂
狄
狊
独
狺
猋
猒
猪
献
獻
玄
率
玉
王
玟
玨
珎
班
琴
瑟
瑩
璠
瓜
瓦
甘
甚
生
産
用
甫
甬
田
由
甲
申
电
甶
男
甸
甹
画
甾
畀
界
畏
畐
留
畜
畟
畢
畧
畨
番
畫
異
畱
當
畺
畾
疊
疋
疌
疑
疒
疾
癶
癸
癹
登
發
白
百
皀
皃
的
皆
皇
皋
皐
皕
皮
皷
皿
盃
盆
盇
盈
益
盍
盎
监
盒
盖
盛
盡
監
盤
盧
目
直
相
盾
省
眇
眉
看
眔
眞
真
眷
眼
眾
着
睘
睪
睿
瞏
瞢
瞿
矍
矛
矞
矢
矣
知
矦
短
石
破
碎
確
磊
磨
示
礻
礼
社
祟
票
祭
禀
禁
禸
禹
禺
离
禽
禾
禿
秀
秃
秉
秋
科
秝
秦
移
稟
穀
穌
穴
究
穹
空
穿
突
窄
窒
立
竒
竜
竝
竟
章
童
竹
笑
笠
筆
等
答
箕
算
箴
節
篤
篭
米
粉
粛
粟
粤
粦
粲
糞
糸
糹
系
約
納
素
索
紫
累
細
絜
絫
絲
絵
維
綿
縣
繇
纍
纟
缶
网
罒
罔
罕
罗
罙
罡
罢
罪
署
罷
羅
羊
羌
羍
美
羔
羕
羗
羞
羡
羣
群
義
羲
羸
羽
翁
翏
習
翕
翟
翠
翼
老
耂
考
者
耆
而
耎
耑
耒
耳
耴
耶
耷
聂
聊
聖
聚
聞
聶
聿
肀
肃
肅
肉
肖
肙
肥
肩
肯
育
肴
胃
背
胡
胥
能
脊
脩
膚
臣
臤
臧
自
臬
臭
臯
臱
至
致
臺
臼
臽
臾
臿
舀
舂
舄
與
興
舉
舌
舍
舛
舜
舞
舟
般
艮
良
色
艸
艹
艾
芒
芔
芬
芮
花
芳
芺
芻
苔
苗
苟
若
苦
英
茶
茸
荅
草
荒
荣
荼
莆
莧
莫
莽
菆
菊
菐
華
萬
落
葉
著
葛
董
葵
蒙
蒦
蒼
蓋
蓬
蓺
蔑
蔚
蔡
蕉
蕭
薄
薛
薦
薰
藍
藏
藥
蘭
虍
虎
虐
虒
虔
處
虖
虗
虘
虚
虛
虜
虞
虫
虽
蚤
蚩
蜀
蜜
蟲
蠡
血
行
衍
衛
衣
衤
表
衮
衰
袁
袞
褭
褱
襄
襾
西
覀
要
覃
見
規
覓
覧
親
覽
见
角
解
言
訁
訇
計
詹
語
誩
説
諸
讠
谷
豆
豈
豊
豐
豕
豖
豙
象
豦
豩
豪
豸
貇
貝
貞
貟
負
貢
貧
貪
貫
責
貳
貴
買
費
賁
資
賈
賏
賓
賔
賛
賞
賢
賣
質
賴
贊
贝
贡
责
贯
贲
贵
赖
赞
赤
赦
走
越
足
路
蹇
身
躬
車
軍
軎
軟
輦
车
辛
辜
辟
辥
辰
辱
農
辵
辶
边
达
过
近
连
迷
追
退
送
逆
逐
通
速
造
逢
連
逮
進
遀
遂
遊
過
道
達
遣
適
遷
遺
邊
邑
邕
那
邦
邪
郎
郑
部
郭
都
鄉
酉
酋
配
酓
釆
采
里
重
野
量
金
釒
銃
錢
钅
長
镸
长
門
閃
閉
開
閏
閑
閒
間
閔
閵
閻
闌
门
间
闷
阑
阜
阝
阿
降
院
陳
隆
隊
隋
隡
隨
隱
隶
隹
隺
隻
隼
隽
难
雀
雁
集
雈
雋
雍
雐
雔
雙
雚
雜
雝
離
難
雨
雩
雪
雲
零
雷
需
霍
霜
霝
霞
霸
靈
靑
青
非
靡
面
靣
革
韋
韓
韦
韭
韯
韱
音
頁
頃
項
須
頗
頡
頻
顛
页
風
风
飛
飞
食
飠
養
饣
首
香
馬
馮
駦
马
骨
高
髟
鬥
鬯
鬲
鬼
魚
魯
鮮
鱼
鲁
鳥
鳳
鸟
鹵
鹿
麃
麗
麥
麦
麻
黃
黄
黍
黎
黑
黒
黨
黹
黽
黾
鼎
鼓
鼠
鼻
齊
齋
齐
齒
齿
龍
龙
龜
龟
龠
龰
龱
龴
龵
龶
龷
龸
龹
者
艹
ﻙ
﻿
，
３
？
𐰃
𐰆
𐰇
𐰉
𐰑
𐰔
𐰕
𐰚
𐰠
𐰣
𐰸
𐰺
𐰼
𐱃
𐱅
𠀁
𠀃
𠀆
𠀉
𠀎
𠀐
𠁁
𠁣
𠂆
𠂇
𠂈
𠂉
𠂊
𠂋
𠂎
𠂒
𠂔
𠂛
𠂡
𠂢
𠂤
𠂬
𠂭
𠂹
𠃊
𠃋
𠃌
𠃍
𠃎
𠃑
𠃓
𠃔
𠃜
𠄌
𠄎
𠄠
𠄢
𠆢
𠆥
𠇍
𠈌
𠌵
𠓜
𠔉
𠔥
𠔼
𠔽
𠔿
𠕀
𠕁
𠕋
𠘧
𠘨
𠙻
𠙼
𠚏
𠚒
𠚤
𠚪
𠣏
𠤎
𠤕
𠥓
𠦄
𠦑
𠦝
𠧒
𠧗
𠧪
𠩺
𠪚
𠫓
𠫔
𠫤
𠬛
𠬝
𠬞
𠬢
𠬤
𠬶
𠮛
𠮦
𠮷
𠯑
𠱠
𠳮
𠷎
𡈼
𡉀
𡉵
𡌥
𡍮
𡏳
𡕒
𡕩
𡕰
𡖅
𡗗
𡗜
𡘆
𡘤
𡧱
𡨄
𡩧
𡬠
𡭽
𡰣
𡰥
𡰪
𡰯
𡰱
𡷈
𡸁
𡿨
𡿩
𡿪
𡿺
𢀖
𢀛
𢀩
𢁙
𢆉
𢆰
𢆶
𢇁
𢇇
𢉖
𢌬
𢌿
𢏚
𢑑
𢑚
𢖻
𢙣
𢛳
𢦏
𢦒
𢧵
𢼄
𢾕
𣁋
𣄼
𣅀
𣅽
𣍘
𣎳
𣎵
𣏋
𣏼
𣗥
𣥂
𣥖
𣦵
𣦼
𣧄
𣪊
𣪠
𣬉
𣳾
𣶒
𤇾
𤊽
𤐫
𤓰
𤔔
𤕨
𤣩
𤰇
𤰔
𤰞
𤴓
𤴔
𤽄
𥁑
𥁕
𥃦
𥃩
𥃭
𥇡
𥑟
𥘅
𥘈
𥝢
𥫗
𥱡
𦈢
𦉪
𦉬
𦉼
𦍌
𦍒
𦎧
𦐇
𦓔
𦔮
𦘒
𦙃
𦚏
𦣝
𦣞
𦣻
𦥑
𦥔
𦥯
𦨉
𦭝
𦰩
𧆞
𧈧
𧘇
𧰨
𧴪
𧴮
𧵩
𧾷
𨸏
𨾴
𩙿
𩠐
𩫏
𩵋
𪉷
𪜀
𪟽
𪠲
𪩲
𫇦
𫔭
𫜸
𫝀
𫠣
𫠩
𫢉
𫥞
𫩏
𫩠
𫪡
𫲽
𫶧
𬀷
𬐘
𬗌
𬙙
𬛸
𬜯
𬟩
𬯁
𬴘
𬺻
𬼉
𬼖
𭀰
𭁈
𭁨
𭅰
𭑈
𭕄
𭗼
𭤨
𭥫
𭻾
𮅕
𮊿
𮍌
𮍏
𮓗
𮥼
𮧮
廾
𰀁
𰀄
𰀈
𰀉
𰀕
𰀠
𰀡
𰀢
𰀪
𰁜
𰃮
𰆊
𰆘
𰋙
𰕎
𰢴
𰧭
𰯲
00--
08--
9780198--
a--
aa--
aat--
ab--
abd--
abı--
ac--
acı--
ad--
adet--
af--
afanas--
ag--
age--
ah--
ai--
ak--
aka--
aks--
akul--
al--
ala--
alan--
alc--
algorit--
ali--
alt--
alı--
am--
ama--
amur--
an--
ana--
anan--
and--
andrey--
ang--
ani--
ant--
anuy--
ap--
apa--
apis--
aq--
aqa--
aqi--
ar--
araba--
arb--
are--
arf--
arheolog--
arq--
arqa--
art--
as--
asa--
asove--
asıl--
at--
ata--
ate--
au--
aut--
av--
ava--
avcı--
avtonom--
ay--
ayaq--
aydın--
ayt--
aytma--
aytqan--
aytıl--
az--
aza--
azna--
azı--
azır--
b--
ba--
baba--
badet--
bag--
bah--
baht--
bak--
bal--
bala--
ban--
baq--
bar--
bara--
bas--
bat--
batt--
batu--
bav--
bay--
be--
bec--
becer--
begen--
bek--
beket--
bel--
belo--
ben--
ber--
bere--
beri--
bes--
bey--
beyanna--
bez--
bi--
bibli--
bik--
bil--
bildi--
bili--
bilo--
bilok--
bio--
bir--
biri--
bit--
biy--
blag--
blij--
blo--
bo--
bobr--
bog--
bol--
bolot--
bom--
bon--
bor--
borov--
borıs--
bos--
bov--
boy--
boz--
br--
bra--
brats--
bre--
bron--
bru--
brıt--
bu--
bud--
bug--
bul--
bulun--
bun--
bur--
butur--
buy--
buz--
bı--
bıt--
c--
ca--
cadel--
cali--
cam--
cami--
can--
capi--
capt--
car--
cat--
cav--
cay--
ce--
ceen--
cek--
cen--
cer--
cet--
ch--
cher--
ci--
cl--
co--
col--
com--
commun--
con--
coy--
cri--
cu--
cuma--
cı--
cıl--
cıy--
d--
da--
dagest--
dan--
dar--
dav--
dava--
davıd--
davıdo--
day--
de--
deg--
deleg--
dem--
dep--
deputa--
der--
dere--
des--
dey--
di--
dia--
din--
dir--
dissertat--
diy--
dnepro--
do--
dobr--
dol--
dolg--
dolı--
don--
doro--
dov--
dr--
druj--
du--
dua--
dub--
dubr--
dubrov--
dur--
dvo--
dı--
dıv--
e--
eb--
ec--
ed--
ef--
eg--
egi--
eglen--
egza--
eh--
ej--
ek--
eke--
ekil--
eks--
el--
ele--
elek--
eles--
em--
emen--
emi--
emir--
en--
end--
endi--
ene--
ep--
er--
erba--
erep--
erga--
eri--
erkek--
erno--
es--
essise--
est--
et--
ete--
eti--
etil--
etnog--
etti--
eu--
ev--
eve--
evi--
evlen--
evre--
ex--
ey--
ez--
ezi--
f--
fa--
fabr--
fabrika--
famil--
fan--
fat--
fay--
fayda--
fb--
fe--
fen--
fern--
fev--
fi--
fin--
fiy--
flo--
fo--
for--
foto--
fr--
fra--
frol--
front--
fu--
fun--
fur--
fır--
g--
ga--
gali--
gay--
gaz--
ge--
gece--
gemi--
gen--
geograp--
geolog--
ger--
get--
gi--
gizl--
glad--
glo--
glu--
glubo--
glı--
gnat--
go--
gogo--
goli--
golo--
golu--
gono--
gor--
goro--
gos--
gra--
gre--
gren--
gro--
gruz--
grı--
gu--
gum--
gur--
gus--
gvar--
h--
ha--
haf--
hakkı--
han--
har--
has--
hat--
hatır--
haw--
hay--
he--
her--
hi--
hic--
histo--
hiy--
hme--
ho--
homu--
hor--
hot--
hov--
hristo--
hrus--
hu--
hun--
hvoy--
hı--
i--
ia--
ibar--
id--
ift--
ig--
ihti--
ihtim--
ihtis--
ik--
il--
ile--
ilg--
im--
ima--
imper--
imza--
in--
ina--
inanm--
ince--
informat--
inje--
injener--
ip--
iq--
ir--
ira--
iri--
is--
isim--
ist--
istem--
it--
iti--
itken--
iv--
iy--
iz--
izg--
j--
ja--
janr--
je--
jeleznodoroj--
jerde--
ji--
jo--
jov--
ju--
jur--
jıt--
k--
ka--
kaf--
kal--
kali--
kamy--
kan--
kanda--
kapi--
kapitan--
kar--
kara--
karl--
karpo--
kas--
kat--
kay--
kaz--
ke--
kedr--
kel--
kele--
ken--
ker--
kergi--
kes--
ket--
ketir--
key--
keyfiy--
kh--
ki--
kil--
kim--
kin--
kir--
kis--
kiy--
kizi--
kle--
kli--
km--
ko--
koj--
koju--
kok--
kol--
kolo--
kolt--
koman--
komiss--
komm--
kompl--
kon--
kong--
kopi--
kor--
kos--
kotel--
kov--
kovıl--
koy--
kozl--
kr--
kra--
kras--
krask--
krasno--
krasnoar--
krasnodubr--
kru--
krı--
krık--
krıl--
ks--
ku--
kuk--
kul--
kun--
kur--
kurs--
kurt--
kus--
kut--
kuva--
kuy--
kuz--
kvi--
kı--
kıs--
kıy--
kız--
l--
la--
laf--
lager--
lam--
lama--
lan--
lar--
lat--
lav--
lay--
lazar--
le--
lebe--
lej--
lek--
len--
leon--
ler--
les--
lesog--
let--
lev--
ley--
lg--
lge--
li--
lik--
lip--
lis--
lit--
lke--
lki--
lli--
ln--
lo--
log--
lopat--
los--
ls--
lt--
lu--
luho--
lum--
lun--
lı--
lıp--
lıs--
m--
ma--
mac--
mag--
mah--
mahsu--
mahsula--
mai--
mak--
mal--
male--
mali--
malo--
man--
mana--
mar--
mari--
mark--
mart--
mas--
mat--
matba--
may--
maz--
mazur--
mdar--
me--
med--
medvede--
mej--
mek--
meln--
mem--
men--
menfa--
mer--
meraq--
mes--
met--
metin--
mev--
mey--
mez--
mezeb--
mi--
mid--
mij--
mil--
min--
mind--
mir--
mis--
missi--
mit--
miy--
mk--
mle--
mlı--
mo--
model--
mol--
mon--
mor--
mos--
mov--
moy--
mr--
ms--
mu--
muam--
muare--
muka--
mur--
musafi--
musafir--
mı--
mıs--
mıt--
n--
na--
nad--
nadejdin--
nag--
namzet--
nar--
nas--
nat--
naum--
nay--
nce--
nde--
ne--
neder--
nem--
nen--
nes--
nesil--
net--
nev--
nevbet--
ng--
ni--
nij--
nijne--
nik--
nikif--
nis--
niy--
niyet--
nizam--
nl--
nme--
nni--
no--
nog--
nor--
nos--
nov--
novi--
novo--
ns--
nsk--
nsti--
nu--
num--
nur--
nı--
nıj--
o--
ob--
oboz--
obrazts--
oca--
od--
oda--
ofitser--
og--
oh--
ohot--
ok--
okul--
ol--
ola--
olg--
om--
omut--
on--
op--
opera--
opıt--
oq--
oqu--
or--
ori--
orman--
orno--
oro--
os--
osip--
osık--
ot--
otur--
ov--
oy--
p--
pa--
pan--
par--
para--
pas--
pat--
pav--
pay--
pe--
pek--
pen--
pence--
penci--
per--
pes--
petro--
phi--
pi--
pid--
pidg--
pidlis--
piro--
pis--
pke--
pl--
pla--
plo--
po--
pod--
podg--
podgor--
podo--
pol--
polit--
pop--
por--
povest--
pra--
pred--
preobraje--
prezi--
pri--
prib--
prim--
privet--
pro--
prolet--
protest--
proto--
prı--
prıs--
ps--
pt--
pu--
pus--
put--
pyatı--
pılıp--
pıt--
q--
qa--
qaba--
qabaat--
qal--
qala--
qale--
qan--
qapat--
qapı--
qar--
qart--
qas--
qat--
qav--
qavu--
qay--
qaya--
qayt--
qaz--
qi--
qidir--
qiy--
qol--
qop--
qoq--
qor--
qorq--
qors--
qoy--
qu--
qul--
qullan--
qun--
qur--
qurt--
qurucı--
quv--
qı--
qıdır--
qır--
qıs--
qıya--
qız--
r--
ra--
raat--
rabindr--
radi--
radio--
rah--
rama--
rast--
rat--
ray--
raz--
razum--
rd--
re--
red--
ref--
regi--
reis--
reji--
rek--
rela--
ren--
rep--
repertu--
repressiya--
rer--
res--
restavrat--
reti--
rev--
reziden--
ri--
rid--
rivayet--
rk--
rme--
rn--
rnek--
ro--
rodion--
rogo--
roj--
rojdestv--
roma--
ros--
roz--
rs--
rse--
rt--
ru--
rud--
ruh--
ruhani--
rum--
rut--
rı--
rıbn--
s--
sa--
saban--
sad--
saf--
safro--
sah--
saha--
saip--
sait--
sak--
sal--
sam--
san--
saq--
sar--
sarg--
sas--
sat--
sav--
say--
saz--
sc--
scien--
se--
sebep--
sec--
sed--
sedo--
sek--
seli--
sem--
sen--
ser--
sereb--
sered--
ses--
set--
sev--
severo--
sevi--
sey--
seyirci--
sez--
sho--
si--
sibir--
sil--
sim--
sin--
sit--
siz--
sk--
skand--
skom--
sku--
slo--
slobo--
slov--
sm--
smir--
smol--
snej--
so--
sof--
sok--
sokol--
sol--
solnts--
sop--
soq--
soqaq--
sorok--
sos--
soy--
sp--
sredne--
st--
sta--
star--
staro--
stav--
ster--
steri--
sti--
stol--
stro--
stu--
su--
subet--
suby--
suho--
sun--
sur--
sus--
suv--
sv--
sva--
svet--
sı--
sın--
sır--
sıt--
sıy--
sız--
t--
ta--
taacipl--
tab--
tal--
talalay--
talov--
tam--
tamam--
tan--
tap--
tapıl--
taq--
taqvim--
tar--
taraf--
tart--
tarzfen--
tas--
tasdiq--
tat--
tau--
tav--
tay--
te--
teh--
tehnolog--
tek--
tel--
temin--
ten--
tep--
ter--
terek--
territo--
tev--
tey--
tez--
th--
the--
thom--
ti--
tif--
tiho--
tik--
til--
tiy--
tizi--
tke--
to--
tok--
tol--
tols--
tom--
ton--
top--
toq--
tor--
tot--
toy--
tr--
tra--
tro--
trub--
trus--
ts--
tt--
tu--
tug--
tuk--
tur--
turkm--
tut--
tuv--
tuw--
tuy--
tı--
tım--
tın--
tır--
tırıl--
u--
ub--
uc--
ud--
udar--
udo--
ug--
uji--
uk--
uko--
ukr--
ul--
ulg--
um--
un--
und--
uni--
unsu--
unut--
unvan--
up--
uq--
ur--
ura--
ural--
urg--
uro--
urt--
us--
usa--
uspe--
ust--
usta--
ut--
uta--
uv--
uw--
uy--
uya--
uz--
v--
va--
vah--
vaj--
val--
van--
var--
vas--
vatut--
vay--
ve--
ven--
ver--
verh--
verhne--
veselı--
vi--
vic--
vil--
vin--
vladi--
vlas--
vo--
vodo--
vol--
vor--
voro--
voroby--
vots--
voy--
voz--
voznes--
vto--
vu--
vucu--
vyaz--
vıg--
vıj--
vıl--
vır--
vıs--
vız--
w--
we--
wi--
x--
y--
ya--
yagod--
yah--
yakov--
yal--
yalv--
yalı--
yam--
yan--
yap--
yapraq--
yaq--
yar--
yarım--
yas--
yasno--
yat--
yaz--
ye--
yegor--
yeka--
yel--
yem--
yemek--
yen--
yeni--
yer--
yermo--
yet--
yete--
yev--
yi--
yle--
yme--
yo--
yohan--
yol--
ys--
yu--
yuh--
yuj--
yul--
yuldı--
yuq--
yur--
yurga--
yurt--
yurye--
yut--
yıl--
yıq--
yır--
z--
za--
zado--
zalı--
zan--
zar--
zas--
zay--
zb--
ze--
zek--
zel--
zeleno--
zen--
zey--
zi--
ziyalı--
zl--
zlat--
zlatoust--
zleri--
zo--
zolo--
zor--
zu--
zvest--
zı--
ı--
ıg--
ık--
ıl--
ıla--
ım--
ın--
ına--
ıp--
ıq--
ıqa--
ır--
ıra--
ıs--
ıt--
ıy--
ız--
ł--
γ--
а--
аб--
абза--
авто--
аг--
аз--
азов--
аи--
ак--
ал--
ам--
ан--
ар--
архангель--
архитек--
ас--
ат--
ах--
аш--
б--
ба--
баба--
баг--
бал--
бах--
бе--
бел--
бело--
бель--
бер--
би--
биб--
библи--
биш--
бла--
бо--
боб--
борисо--
бр--
бу--
бур--
біл--
білець--
в--
ва--
ваг--
ве--
верши--
виз--
вла--
во--
вод--
воен--
вознесен--
вол--
воль--
воспоми--
восточ--
все--
вто--
высо--
г--
га--
гаври--
ге--
гене--
геог--
географиче--
гла--
го--
гор--
горба--
гр--
гри--
гу--
губер--
гір--
гірни--
д--
дав--
даль--
дач--
дви--
де--
демок--
дж--
джа--
джу--
див--
дми--
до--
док--
доку--
дослі--
древ--
дру--
друж--
ду--
дубо--
дю--
е--
ж--
жите--
жов--
журав--
з--
за--
завод--
запад--
зе--
зер--
зо--
золо--
зубо--
и--
ивано--
иген--
из--
иль--
ир--
ис--
исследо--
историче--
к--
ка--
каб--
кал--
кали--
каль--
кар--
ке--
кер--
ки--
ко--
кова--
коз--
кок--
кон--
кор--
коронави--
крас--
краси--
красно--
красного--
краснояр--
кри--
кру--
ку--
кузнецо--
кун--
кур--
курган--
къы--
кыпчак--
кыр--
л--
ла--
ле--
лені--
леоні--
ли--
ло--
лозо--
лу--
лю--
лісо--
м--
ма--
макаро--
мамон--
мар--
мате--
ме--
междуна--
мель--
ми--
мини--
мир--
мо--
мог--
молоч--
москов--
му--
музи--
мука--
мы--
мі--
міністер--
н--
на--
наз--
национ--
не--
некра--
нефте--
ни--
ниж--
низин--
ново--
о--
ог--
од--
он--
ор--
ос--
оси--
ост--
от--
п--
па--
пав--
пар--
пе--
пер--
переиме--
песча--
пи--
пионе--
пло--
по--
пол--
преображе--
при--
придорож--
про--
пу--
пі--
північ--
під--
р--
ра--
раб--
раз--
реч--
ро--
ру--
руб--
рус--
с--
са--
саб--
сар--
сара--
саф--
све--
свет--
се--
севе--
семи--
сер--
си--
сибир--
симо--
ск--
слав--
смир--
со--
совхоз--
сок--
сол--
соло--
спас--
ст--
ста--
сте--
стефа--
су--
сух--
сы--
т--
та--
тавриче--
тал--
те--
тек--
ти--
то--
трак--
ту--
туз--
ть--
тю--
ті--
у--
уз--
ук--
украин--
універ--
ур--
ура--
ус--
ут--
уче--
ф--
фак--
фе--
фев--
филиппо--
фо--
х--
ха--
хак--
хо--
ху--
це--
ч--
ча--
че--
чер--
черня--
чи--
чу--
ш--
ша--
ши--
шило--
широ--
шу--
э--
ю--
юж--
юма--
юр--
я--
ягод--
яков--
ян--
яс--
ят--
яш--
єв--
єд--
і--
ін--
ҡа--
ا--
اس--
ب--
د--
ع--
ي--
--0
--1
--2
--3
--4
--5
--50
--53
--6
--7
--8
--88
--9
--a
--abad
--ac
--ad
--ag
--ai
--ak
--al
--alya
--alı
--am
--amak
--an
--ana
--anet
--ant
--anı
--ap
--aq
--ar
--ara
--ard
--arnı
--arnın
--ary
--arı
--as
--ası
--at
--atc
--ate
--ation
--au
--av
--ay
--aya
--az
--aze
--b
--ba
--bag
--banovo
--bas
--bc
--bede
--bekovo
--bil
--bka
--ble
--bovets
--br
--bı
--c
--ca
--cag
--cal
--caq
--caqsin
--ce
--cek
--ceksin
--ch
--ci
--cik
--ciler
--cilik
--co
--ction
--cu
--cı
--cılar
--cılıq
--cısı
--d
--da
--dag
--daki
--dan
--dat
--day
--de
--deki
--den
--des
--di
--diler
--dim
--din
--diq
--dir
--dka
--dna
--dne
--dnıkı
--do
--dor
--dorf
--ds
--dsk
--du
--dun
--dy
--dı
--dık
--dım
--dın
--dır
--e
--ec
--ed
--ef
--ege
--ei
--ej
--ek
--el
--elo
--elskiy
--em
--ema
--emenkino
--en
--ena
--enc
--ens
--ent
--ep
--er
--erde
--ere
--ern
--es
--ese
--esi
--et
--eti
--ets
--etsk
--ev
--eva
--evic
--evka
--evo
--evskiy
--evıc
--ey
--ez
--f
--fa
--fact
--fax
--fe
--g
--ga
--gac
--gan
--gas
--gat
--ge
--ger
--gi
--gim
--gino
--go
--gol
--grad
--gu
--gujino
--gulovo
--gus
--gı
--h
--ha
--habl
--hac
--he
--hi
--hino
--hiv
--hivka
--hna
--hov
--ht
--hı
--i
--ia
--ial
--ialı
--ian
--ib
--ic
--ice
--ico
--id
--ie
--ies
--if
--ig
--iha
--ij
--ijselsovet
--ik
--ika
--il
--ilni
--im
--in
--ina
--inde
--inden
--ine
--inen
--ing
--ini
--inin
--ino
--io
--ion
--ions
--ip
--iq
--ir
--irka
--irya
--is
--isi
--it
--itsa
--ius
--iv
--ivka
--ivs
--ivska
--ivske
--iy
--iya
--iyası
--iye
--iyiv
--iz
--izm
--j
--ja
--janka
--ji
--jja
--jne
--jok
--jsk
--k
--ka
--kan
--kaya
--kc
--ke
--ken
--keyevo
--ki
--kino
--kiy
--kliya
--klı
--ko
--kogo
--kovo
--koye
--ks
--kta
--ku
--kul
--kulevo
--kulovo
--kı
--l
--la
--ladı
--lag
--lan
--lana
--lang
--lanmaq
--lanovo
--laq
--lar
--larda
--larg
--larnın
--ları
--ların
--larının
--las
--lat
--lav
--lay
--layıcı
--ld
--ldi
--ldı
--le
--ledi
--lene
--lenu
--ler
--lerde
--lerden
--lerge
--leri
--lerini
--lerni
--lernin
--les
--lev
--ley
--lg
--li
--lia
--lig
--ligi
--ligini
--liginin
--liha
--lik
--liknen
--lin
--line
--ling
--lip
--lir
--lis
--liv
--liya
--ll
--lm
--lma
--lmag
--lmay
--lna
--lo
--loc
--lon
--lov
--lovka
--lovo
--ls
--lsan
--lsk
--lu
--luq
--lus
--luvı
--ly
--lı
--lıc
--lıg
--lık
--lıp
--lıq
--lıqnı
--lıqnın
--lıqqa
--lıqta
--lıs
--m
--ma
--madi
--madı
--mag
--mam
--man
--maq
--mcı
--mda
--mden
--mdi
--me
--mek
--men
--mey
--mi
--min
--miz
--mni
--mnin
--mo
--mp
--msk
--mı
--mız
--mızda
--n
--na
--nalı
--nc
--nce
--nd
--nda
--ndan
--nday
--nde
--ndeki
--nden
--ne
--nen
--nevo
--ng
--nga
--ni
--nia
--nik
--nin
--niv
--nk
--nka
--nke
--nkı
--nmag
--no
--noye
--ns
--nsk
--nt
--nts
--ntsi
--ntsı
--nu
--nı
--nıc
--nık
--nıkı
--nın
--nıp
--nıy
--o
--obil
--obl
--oc
--od
--og
--ogo
--ogy
--ok
--ol
--olu
--om
--ome
--on
--onov
--ons
--opil
--opol
--or
--ori
--oriy
--orod
--ort
--os
--ost
--ot
--ota
--ov
--ova
--ove
--ovic
--ovis
--ovka
--ovo
--ovoye
--ovskaya
--ovskoye
--ovye
--ovıc
--ovıy
--oy
--oye
--oz
--p
--pa
--pc
--pi
--pol
--ppe
--pı
--q
--qa
--qay
--qc
--qlı
--qqa
--qta
--qı
--r
--ra
--rad
--raf
--rak
--raq
--rc
--rdı
--rdılar
--re
--rek
--revo
--rg
--rga
--ri
--rip
--riv
--rivka
--rka
--rman
--rmen
--rmiz
--rna
--ro
--rov
--rove
--rskaya
--rsın
--ruv
--ry
--rya
--rı
--rıldı
--rılg
--rın
--rıntsi
--rını
--rıp
--rıs
--s
--sa
--san
--se
--sevo
--sh
--si
--sidir
--sika
--sin
--sinde
--sine
--sini
--sinin
--sis
--siz
--sk
--ska
--skaya
--ske
--ski
--skijselsovet
--skiy
--sko
--skoy
--skoye
--skıy
--so
--son
--sov
--sr
--st
--stat
--ste
--su
--sul
--sı
--sın
--sını
--sının
--sız
--t
--ta
--tamak
--tan
--tar
--tas
--tau
--tc
--te
--ted
--teki
--teler
--ten
--th
--ti
--tica
--tik
--tika
--tion
--tir
--tiv
--tivka
--tne
--tnıy
--to
--tok
--ton
--tor
--tov
--tqan
--ts
--tsa
--tsi
--tsk
--tska
--tske
--tsı
--tta
--tti
--ttin
--ttsı
--ttı
--tu
--tuv
--tuy
--tva
--ty
--tya
--tı
--tılg
--tıq
--tır
--u
--ua
--uc
--uel
--ui
--ul
--ulevo
--uli
--ulovo
--um
--ument
--umı
--un
--up
--uq
--ur
--ura
--us
--usqa
--ut
--uv
--uvı
--uy
--uz
--v
--va
--vc
--ve
--vet
--vets
--vetske
--vi
--vino
--vir
--viy
--vka
--vlı
--vna
--vo
--vodka
--voye
--vs
--vsk
--vska
--vske
--vtsi
--vuq
--vus
--vıc
--vın
--vıy
--w
--wa
--wg
--x
--y
--ya
--yatırg
--yd
--ye
--yet
--yev
--yeve
--yevo
--yg
--yi
--yik
--yim
--yka
--yon
--yor
--ysk
--yım
--z
--za
--zam
--zi
--zirikovo
--zm
--zna
--zo
--zı
--ı
--ıc
--ıcı
--ıdır
--ıg
--ık
--ım
--ın
--ına
--ında
--ından
--ınen
--ıno
--ını
--ının
--ıp
--ıq
--ır
--ıs
--ıy
--ıye
--ız
--ər
--а
--ав
--ава
--ави
--аево
--аз
--аи
--ак
--ал
--ам
--ан
--ар
--аш
--ая
--б
--ба
--баево
--бе
--бы
--в
--ва
--ве
--вич
--во
--вое
--вск
--г
--га
--гит
--го
--д
--да
--ди
--ды
--ді
--діі
--е
--ев
--ево
--еи
--ель
--ення
--ень
--ет
--ець
--жа
--жне
--жнє
--з
--зе
--зия
--зы
--и
--ие
--ии
--ик
--ин
--ино
--инці
--ир
--ия
--к
--ка
--ке
--ки
--ко
--ков
--кои
--ків
--л
--ла
--лар
--ле
--ли
--ло
--лук
--лы
--ль
--лю
--ля
--м
--му
--н
--на
--нды
--не
--ни
--ние
--ник
--ния
--нки
--нко
--нн
--ння
--но
--ного
--ное
--нои
--нск
--нт
--нці
--нчи
--ные
--нь
--ня
--няш
--ні
--о
--ов
--ова
--ове
--овии
--ович
--овка
--ово
--овое
--овск
--ові
--огии
--ого
--огр
--ое
--ои
--ок
--ол
--ом
--ос
--оша
--оі
--п
--пеи
--пи
--р
--ра
--рвые
--ров
--рчи
--ры
--рь
--ріи
--рія
--ріі
--с
--са
--сан
--си
--ск
--ская
--скии
--сово
--сти
--сы
--сь
--т
--та
--таи
--тели
--тет
--ти
--тин
--тка
--тне
--ты
--ть
--тя
--у
--ук
--ут
--ухів
--уш
--ф
--фия
--х
--ха
--хов
--хово
--ц
--ца
--цк
--ць
--ця
--ці
--ція
--ч
--ча
--чи
--чин
--чна
--чне
--чье
--ш
--ша
--шево
--шин
--шу
--шівка
--ы
--ыш
--ь
--ьи
--ьино
--ьки
--ьне
--ья
--юк
--юн
--я
--як
--ян
--яш
--є
--і
--ів
--івка
--іи
--іі
--ө
--ت
--تان
--د
--ل
