!
"
#
##0
##1
##10
##11
##12
##13
##14
##15
##16
##17
##18
##19
##2
##20
##21
##22
##23
##24
##25
##26
##27
##28
##29
##3
##30
##31
##32
##33
##34
##35
##36
##37
##38
##39
##4
##40
##41
##42
##43
##44
##45
##46
##47
##48
##49
##5
##50
##51
##52
##53
##54
##55
##56
##57
##58
##59
##6
##60
##61
##62
##63
##64
##65
##66
##67
##68
##69
##7
##70
##71
##72
##73
##74
##75
##76
##77
##78
##79
##8
##80
##81
##82
##83
##84
##85
##86
##87
##88
##89
##9
##90
##91
##92
##93
##94
##95
##96
##97
##98
##99
$
%
&
'
(
)
*
+
,
-
.
/
0
00
000
0001
001
01
011
013
0140
018
02
03
04
05
06
07
08
09
1
10
100
1000
1001
1002
1007
101
1016
1017
102
103
1038
104
105
106
107
108
1080
1086
109
1093
11
110
111
1111
112
1126
113
1136
114
115
116
1162
1163
117
1177
118
119
12
120
121
122
123
124
125
126
127
128
129
13
130
131
132
133
134
135
1353
136
137
1371
138
139
14
140
141
142
143
144
145
146
147
148
149
15
150
1500
151
152
153
154
155
156
157
158
159
16
160
1600
161
162
163
164
165
166
167
168
169
17
170
171
172
173
174
175
176
1760
177
178
179
1793
18
180
1800
181
1815
1819
182
1820
1821
1824
1825
183
1830
1832
1833
1835
1836
1837
1838
184
1840
1841
1842
1843
1844
1845
1846
1847
1848
1849
185
1850
1851
1852
1853
1854
1855
1856
1857
1858
1859
186
1860
1861
1862
1863
1864
1865
1866
1867
1868
1869
187
1870
1871
1872
1873
1874
1875
1876
1877
1878
1879
188
1880
1881
1882
1883
1884
1885
1886
1887
1888
1889
189
1890
1891
1892
1893
1894
1895
1896
1897
1898
1899
19
190
1900
1901
1902
1903
1904
1905
1906
1907
1908
1909
191
1910
1911
1912
1913
1914
1915
1916
1917
1918
1919
192
1920
1921
1922
1923
1924
1925
1926
1927
1928
1929
193
1930
1931
1932
1933
1934
1935
1936
1937
1938
1939
194
1940
1941
1942
1943
1944
1945
1946
1947
1948
1949
195
1950
1951
1952
1953
1954
1955
1956
1957
1958
1959
196
1960
1961
1962
1963
1964
1965
1966
1967
1968
1969
197
1970
1971
1972
1973
1974
1975
1976
1977
1978
1979
198
1980
1981
1982
1983
1984
1985
1986
1987
1988
1989
199
1990
1991
1992
1993
1994
1995
1996
1997
1998
1999
2
20
200
2000
2001
2002
2003
2004
2005
2006
2007
2008
2009
201
2010
2011
2012
2013
2014
2015
2016
2017
2018
2019
202
2020
2021
2022
2023
2026
203
2030
204
205
2050
206
207
208
209
21
210
2100
211
212
213
214
215
216
217
218
219
22
220
221
222
223
224
225
226
227
228
229
23
230
2307
231
232
233
234
235
236
237
239
24
240
241
242
243
244
245
246
247
249
25
250
251
252
253
254
255
256
257
258
259
26
260
261
262
263
265
266
267
268
27
270
271
272
273
274
275
276
277
279
28
280
281
282
283
285
286
287
288
29
290
292
294
295
297
299
3
30
300
3000
301
303
304
305
306
307
309
31
310
311
312
313
314
317
318
319
32
320
321
322
323
325
327
33
330
332
333
334
335
337
338
34
340
341
342
343
345
346
349
35
350
355
36
360
361
363
364
365
37
370
372
375
379
38
380
385
39
393
4
40
400
4000
41
411
415
42
420
43
433
44
440
45
450
46
460
465
47
474
48
49
5
50
500
5000
501
51
52
520
521
53
54
55
56
57
58
59
6
60
600
61
62
620
63
639
64
65
650
66
67
6736
68
69
7
70
700
702
707
71
72
73
737
74
75
750
76
77
78
79
8
80
800
808
81
8108
82
83
84
85
86
87
88
89
9
90
900
91
92
93
94
95
96
97
977
978
9789956796069
98
99
9933
:
;
<
=
>
?
@
[
\
]
^
_
`
a
aa
aaa
aaliyah
aan
aap
aardklop
aaron
aarons
aaronson
ab
aba
ababa
ababio
abacha
abada
abaga
abaghi
abagun
abah
abak
abakaliki
abakari
abali
abani
abania
abanye
abanyela
abara
abata
abawanye
abayomi
abaza
abba
abban
abbas
abbey
abbie
abbott
abby
abc
abd
abdalla
abdallah
abdel
abdelaziz
abdelkader
abdelli
abderrahmane
abdi
abdo
abdou
abdoulaye
abdul
abdulai
abdulaziz
abdulkareem
abdullah
abdullahi
abdulsalami
abebe
abel
abele
abelmoschus
abena
abeni
abeokuta
aberdeen
abi
abia
abidine
abidjan
abigail
abimbola
abimboye
abiodun
abiola
ablade
able
abney
abo
aboh
abolitionist
abortion
abou
aboudia
about
above
abraham
abrams
abroad
abron
abryanz
abs
absa
absence
abstract
abstraction
abu
abua
abubakar
abudei
abudu
abughi
abuja
abule
abuo
abuse
ac
acade
academia
academic
academy
acc
access
accessdate
accessed
accident
acclaimed
accord
according
account
accountability
accountancy
accountants
accounting
accounts
accra
accused
accuses
ace
ach
acha
achara
achebe
achi
achicha
achievement
achievements
achiever
achievers
achimota
achiuwa
acho
achour
achu
acid
acn
acquires
acre
acres
across
acrylic
act
acteur
acting
action
active
activism
activist
activists
activities
activity
actor
actors
actress
actresses
actrice
acts
actualite
ad
ada
adaala
adaba
adabaghi
adabere
adabereghi
adadevoh
adaeze
adaku
adala
adam
adama
adamawa
adams
adamu
adan
adanna
adaobi
adaora
adaptation
adapted
adazi
adc
add
added
addis
addison
additional
addo
address
adds
addy
ade
adea
adebayo
adebayor
adebimpe
adebisi
adebiyi
adebola
adeboye
adebule
adedayo
adedeji
adedimeji
adedoyin
adefarasin
adegbite
adegoke
adejoke
adekola
adekoya
adekunle
adel
adelaide
adelana
adele
adeleke
adeleye
ademola
ademoye
adeniji
adenike
adeniran
adeniyi
adenowo
adenrele
adenuga
adeola
adeosun
adeoye
aderin
aderinto
adesanya
adesina
adesua
adesuwa
adetiba
adetokunbo
adewale
adewunmi
adewuyi
adeyemi
adeyemo
adeyeye
adeyinka
adi
adichie
adie
adighi
adigide
adimora
adinkra
adire
adisa
adjective
adjectives
adjei
adjetey
adkins
adler
admin
administration
administrative
administrator
admiral
admission
admits
ado
adolf
adoption
adreesi
adrian
adrienne
adu
adua
adult
adults
adunni
advance
advanced
advancement
advances
adventist
adventure
adventures
advertising
advice
advisor
advisory
advocacy
advocate
advocates
adwoa
ae
aero
aerospace
aesthetic
aesthetics
af
afa
afaha
afar
afc
afcon
afda
afdb
afegbai
affair
affairs
affected
affordable
afghan
afghanistan
afi
afia
afikpo
afirika
afo
afolabi
afolayan
afor
afp
afri
africa
africain
africaine
africaines
africains
african
africana
africanah
africanews
africanism
africanist
africans
africine
africultures
afriff
afrik
afrika
afrikaans
afrikaanse
afrikan
afrikaner
afrikaners
afrima
afrimma
afrinvest
afrique
afrisa
afro
afroasiatic
afrobasket
afrobeat
afrobeats
afropolitan
afropop
aft
after
afternoon
afu
ag
aga
agaala
agabiga
agadi
agafe
agafeela
agaghari
agaghi
again
against
agakari
agakwa
agara
agaraghi
agatha
agba
agbaala
agbachi
agbachitere
agbada
agbadata
agbagha
agbaghara
agbaghari
agbago
agbagwoju
agbahapu
agbaje
agbaji
agbakari
agbake
agbako
agbakwa
agbakwu
agbakwunye
agbakwunyere
agbali
agbamakwu
agbamume
agbani
agbanwe
agbanweela
agbanwere
agbanye
agbanyeghi
agbapu
agbara
agbari
agbasa
agbasawanye
agbasi
agbaso
agbata
agbataobi
agbati
agbawa
agbaze
agbazinye
agbo
agbor
agbu
age
aged
agege
agemo
agence
agencies
agency
agenda
agent
agents
ages
agglomeration
agha
aghaghi
aghanya
aghara
aghi
agho
aghu
agi
agidi
aging
agnes
agni
ago
agop
agree
agreement
agricultural
agriculture
agu
agugu
aguiyi
agulu
agwa
agwaetiti
agwako
agwara
agwo
agwu
agwunobi
agyeman
ah
aha
ahaghi
ahanmisi
ahanna
ahapu
ahazi
ahaziri
ahead
ahebi
ahi
ahia
ahihia
ahiri
ahlam
ahmad
ahmadiyya
ahmadu
ahmed
aho
ahram
ahu
ahuike
ai
aia
aid
aida
aide
aidoo
aids
aigbe
aiki
ailes
aim
aime
aims
ain
aina
ainslie
air
airbus
aircraft
aires
airline
airlines
airport
airtel
airways
ais
aise
aisha
ait
aj
aja
ajah
ajao
ajasa
ajax
ajayi
aje
ajegunle
aji
ajibade
ajibola
ajo
aju
ajuju
ajunwa
ak
aka
akacha
akademie
akaebe
akallo
akan
akande
akao
akara
akari
akato
akau
akawanye
ake
akello
aken
akerele
akhator
akhenaten
aki
akilu
akin
akindele
akinkugbe
akinnuoye
akinola
akinsemoyin
akintola
akintunde
akinwumi
akinwunmi
akinyele
akinyemi
akiolu
akitoye
ako
akoka
akoko
akon
akosa
akosua
akpa
akpaaka
akpachapu
akpachi
akpagbu
akpaghasi
akpaghi
akpako
akpali
akpalite
akpan
akparaghi
akparama
akparamaagwa
akparamagwa
akpari
akpasu
akpata
akpi
akpo
akporo
akpotha
akpoti
akpu
aku
akua
akuapem
akudo
akufo
akuko
akuku
akunyili
akure
akuzi
akuziri
akwa
akwaaba
akwadebe
akwado
akwadoghi
akwadokwa
akwadola
akwadoro
akwaeke
akwaga
akwaghari
akwalite
akwanyere
akwara
akwo
akwu
akwukwo
akwute
akwutere
akyeampong
al
ala
alaa
alaba
alabama
alabi
alac
alade
alaeze
alaghachi
alain
alaka
alake
alakija
alaku
alam
alan
alao
alaoui
alaska
alatise
alba
albania
albanian
albany
albert
alberta
alberto
albinism
albion
albo
album
albums
albuquerque
alcam
alden
aldub
ale
alele
alemu
alert
ales
alesha
alex
alexa
alexander
alexandra
alexandre
alexandria
alexis
alexx
alf
alfa
alfred
alge
alger
algeria
algerian
algerie
algiers
algo
alhaja
alhaji
alhassan
ali
alice
alicia
alien
align
aliko
alimi
alimosho
alison
aliu
alive
aliyu
aliza
aljazeera
alkali
all
alla
allafrica
allah
allan
allegations
alleged
allegedly
allen
alli
alliance
allied
allison
allmovie
allmusic
allophones
allred
allstars
allure
alma
almanac
almaz
almond
almost
alo
alone
along
alonge
alongside
alonzo
alor
alozie
alpha
alphabet
already
als
also
alt
alter
alternative
altman
alto
alu
aluko
alum
aluminum
alumni
alumnus
alusi
alvarez
alvin
always
am
ama
amaa
amaala
amaara
amabeghi
amachaghi
amachibido
amachibidoro
amadi
amadou
amaechi
amaghi
amaka
amakwa
amakwaara
amal
amala
amalite
amaliteghi
amalitela
amalitere
amamihe
amanda
amani
amanye
amanze
amaokwu
amapiano
amar
amara
amarachi
amarteifio
amasi
amata
amataghi
amatala
amateur
amato
amaza
amazigh
amazing
amazon
amazons
ambassador
ambassadors
ambedkar
amber
ambition
ambode
ambrose
ambulance
ame
ameh
amel
amelia
amen
amendment
amer
ameri
america
american
americans
americas
amerika
ames
ameyawdebrah
ameyo
amharic
amherst
ami
amid
amin
amina
aminata
aminu
amir
amira
amistad
ammar
amnesty
amoah
amoako
amobi
amoda
amon
among
amoo
amoosu
amor
amos
amour
amp
ampofo
amr
amsterdam
amu
amuchara
amur
amuru
amusan
amuwo
amvca
amy
an
ana
anabata
anabataghi
anabatala
anacamptis
anacostia
anaghi
anako
anakpo
anakwere
analysis
anam
anambra
anang
ananias
anapu
anarchism
anarchist
anata
anatii
anatomy
anatsui
anc
ancestry
anchor
ancient
and
andersen
anderson
andoni
andorra
andre
andrea
andreas
andrew
andrews
andries
android
andy
aneke
anele
ange
angel
angela
angeles
angelina
angelique
angelo
angelou
angels
anger
angers
angie
angli
anglican
anglo
angola
angry
angus
ani
anikulapo
animal
animals
animated
animation
anime
anioma
anita
anite
aniwura
anjorin
anka
ankomah
ann
anna
annals
annan
annang
anne
annette
annex
annie
anniversary
announce
announced
announcement
announcements
announces
announcing
annual
anny
ano
anonymous
another
anozie
anpp
ans
ansah
ansell
answer
answers
ant
anta
antarctic
antarctica
anthem
anthologies
anthology
anthony
anthropological
anthropologist
anthropology
anti
antjie
anto
antoine
antoinette
anton
antonio
antwerp
anu
anumanu
anwa
anwale
anwansi
anwar
anwu
any
anya
anyanwu
anyaoku
anyau
anyaukwu
anye
anyere
anyi
anyiam
anymore
anyone
anything
anyu
ao
aofiyebi
aol
ap
apa
apagya
apapa
apart
apartheid
apata
apc
aperture
apga
api
apollo
apostle
apostolic
app
appeal
appeals
appear
appearance
appearances
appel
appiah
apple
application
applications
applied
appointed
appointment
appointments
appoints
appreciation
approach
approaches
approved
approves
apps
apr
apre
april
apu
aqs
aquifolium
ar
ara
arab
araba
arabe
arabesque
arabi
arabia
arabian
arabic
arabiya
arabu
arafa
arafat
arambi
aramide
arapara
arase
arbitration
arbor
arc
arch
archaeological
archaeology
archer
archie
architect
architects
architectural
architecture
archive
archived
archivedate
archives
archiveurl
arctic
ard
are
area
areas
aregawi
aremu
arena
aretha
argentina
argument
argungu
argus
arhebamen
ari
aria
aribisala
arik
arinze
arise
aristokrat
ariyo
arizona
arkansas
arlington
armah
armed
armenia
armenian
armes
arms
armstrong
army
arnett
arno
arnold
aro
arochukwu
aron
arondizuogu
around
arrest
arrested
arrests
arrowsmith
arrs
arsenal
art
arte
artes
artfacts
artforum
arthur
article
articles
artificial
artist
artiste
artistes
artistic
artists
artnet
artnews
arts
artslink
artspace
artsy
artthrob
artwork
artworks
aru
arua
arundhati
arunga
arusha
arute
arutere
arutu
aryan
as
asa
asaa
asaba
asad
asake
asambodo
asamoah
asante
asare
asatara
asato
ascension
aschenborn
ascherman
asemota
ash
asha
ashanti
ashe
asher
ashes
ashipa
ashlee
ashley
ashoka
ashour
ashraf
ashton
asi
asia
asian
asiatic
asim
asin
asiri
asisat
asiwaju
ask
asked
asks
asma
aso
asojo
asompi
asomugha
asp
aspects
aspen
aspx
assassination
assault
assefa
assembly
assessment
asset
assistance
assistant
associate
associated
associates
association
associations
astakhov
aston
astor
asu
asuquo
asusu
asuu
asylum
at
ata
ataa
atafo
atef
atekwana
atelier
atheism
athens
athlete
athletes
athletic
athletics
athol
ati
atiku
atilade
atkins
atlanta
atlantic
atlas
ato
atomic
atr
atrash
atta
attack
attacked
attacks
attah
attenborough
attend
attended
attention
attessia
attitude
attoh
attorney
attribute
atu
atumatu
au
aubrey
auckland
auction
audience
audio
audition
audrey
audu
auf
aug
augoye
august
augusta
auguste
augustine
augustus
aujourd
auley
auma
aunt
auntie
aus
austen
austin
australia
australian
austria
austrian
authentic
author
authorhouse
authorities
authority
authors
autism
auto
autobiography
autonomous
autumn
aux
ava
available
avant
avec
avelino
avengers
avenue
avery
aviation
aviv
avon
avril
awa
awaghari
awakening
awakpo
awan
awara
award
awarded
awardees
awards
awareness
away
awc
awe
awerbuck
awesome
awilo
awka
awo
awolowo
awoniyi
awori
awosika
awu
awujale
awwad
axe
axis
ay
aya
ayana
ayanda
ayaz
aye
ayefele
ayere
ayi
ayinde
ayisha
ayo
ayodeji
ayodele
ayomide
ayoola
ayouch
ayra
ayuba
az
aza
azaghachi
azerbaijan
azi
azikiwe
aziz
aziza
azo
azquotes
azu
azubuike
b
ba
baa
baala
baale
baara
bab
baba
babajide
babalola
babangida
babatunde
babayaro
babcock
babes
babies
baby
baccar
bach
bachelo
bachelor
bachelors
back
background
backstage
bacon
bacteria
bad
bada
badagry
badana
badawi
baddest
badminton
badmus
badoe
badsha
badu
baer
baffoe
bafta
bag
baggara
baghdad
baghi
bagirmi
bags
baha
bahamas
bahia
bahr
bahrain
bai
bail
bailey
bains
bajju
baka
bakaba
bakare
bakassi
baker
bakr
bala
balance
balch
balde
baldwin
balewa
bali
ball
ballet
balls
balogun
balonwu
baloyi
baltimore
baltrop
baltzar
bam
bama
bamako
bambara
bamboo
bamidele
bamiloye
ban
bana
banana
banat
band
banda
bang
banga
bangkok
bangladesh
bangura
bani
banj
banjo
bank
banke
bankhead
banking
bankole
banks
banky
banned
banner
bans
bantoid
bantu
banyana
banye
banyere
banza
baobab
baptist
baptiste
baptizim
bar
bara
barack
barakat
barbados
barbara
barber
barberton
barbican
barbie
barcelona
barclays
bard
bari
barker
barlow
barnabas
barnard
barnes
barnett
barney
barnsley
baron
baroness
baroudi
barr
barracks
barrett
barriers
barrister
barron
barry
bars
bartlett
barton
bas
basa
basaa
base
baseball
based
basel
bashir
basic
basil
basin
basket
basketball
basketbo
basketmouth
basquiat
basra
bass
bassa
bassey
bassong
bat
bata
batara
bataringaya
bates
bath
bathurst
batik
batley
batman
baton
batri
battalion
battiss
battle
battles
bauchi
bauer
bawaba
bawanye
baxter
bay
bayelsa
bayern
bayero
bayo
bayoloji
bayreuth
bazaar
bb
bbc
bbnaija
bc
bce
bd
be
bea
beach
beacon
bead
beads
bean
beans
bear
bearden
bears
beast
beat
beatles
beatrice
beats
beatz
beautiful
beauty
beaux
bebe
bebey
bebi
beboid
became
because
beck
becker
becky
become
becomes
becoming
bed
bedford
bedouin
bee
beef
beeld
been
beer
beers
bees
bef
before
beghi
begho
begin
beginning
begins
behavior
behind
behold
beier
beijing
being
beirut
beit
bekee
bekele
bel
belai
belarus
belarusian
belata
belatara
belfast
belgian
belgium
belgrade
believe
belinda
bell
bella
bellamy
bellanaija
belle
belles
bello
bellville
belly
belo
beloved
below
belt
bemba
ben
bench
bend
bende
bendel
bender
bendi
beneath
benedict
benedicta
benefit
benefits
benfica
bengal
bengali
beni
benin
benjamin
bennani
bennett
benny
bensalah
benson
bent
benton
benue
benz
bepu
berber
bercey
bere
beresford
berezin
berg
berger
berita
berkeley
berkshire
berla
berlin
berlinale
berman
bern
bernard
bernardo
bernice
bernie
bernstein
berom
berry
bessie
best
bester
bet
beta
beth
bethlehem
beti
betsy
bette
better
betty
between
beukes
bevel
beverley
beverly
bewaji
bey
beyonce
beyond
bez
bf
bfa
bfi
bgcolor
bhattacharya
bi
bia
biafra
biafran
bialiatski
bianca
biara
bias
bibi
bibie
bibiri
bible
bibliography
bic
bickle
bid
bida
biden
bido
bidoro
bie
bieber
bien
biennale
biennial
big
biga
bigger
biggers
biggest
bihar
biko
bikoi
bilal
bilbrew
bilia
bilie
biliri
bilitere
bilkisu
bill
billboard
billie
billing
billion
billionaire
billy
biltong
bimbo
bimi
bin
binam
bini
binion
binnelanders
bint
binta
binyavanga
binyere
bio
biochemistry
biodiversity
biodun
biographical
biographie
biographies
biography
biological
biology
biomass
biomedical
bios
biotechnology
bipu
biputere
bir
bird
birds
biri
birmingham
birth
birthday
bisa
bisexual
bisho
bishop
bisi
bisola
bissau
bisso
bit
bitch
bitter
biya
biz
bizcommunity
bjo
bk
blac
black
blackburn
blackface
blackman
blackmon
blackness
blackpink
blacks
blackshear
blackwell
blair
blaise
blake
blame
blanc
blanche
blank
blaq
blaqbonez
blast
blasts
blayton
blaze
blench
blessed
blessing
blige
blind
bling
blink
blo
block
blockbuster
blocks
bloemfontein
blog
blogger
blogs
blogspot
blondy
blood
bloom
bloomberg
bloomington
bloomsbury
blossom
blount
blow
blu
blue
blueprint
blues
bmg
bmi
bmj
bmw
bn
bo
boafo
boakye
board
boat
boateng
bob
bobby
bobrisky
bochi
bode
bodies
body
boeing
boer
boerewors
boghossian
boi
bois
bojia
boko
bola
bolaji
bolanle
bold
bolewa
bolivia
bollywood
bolshevik
bolton
bolus
boma
bomb
bombay
bon
bona
bonang
bond
bondage
bone
bones
bongi
bongiwe
bongo
bongocinema
boniface
bonn
bonnie
bonny
bono
bonsu
bontemps
bontle
boo
booba
book
booker
books
boolu
boom
boone
boost
boot
booth
bopol
bordeaux
border
borders
boris
born
borno
bornu
boro
borough
bosch
bosco
bose
boshoff
bosman
bosnia
boss
boston
botanic
botanical
botany
both
botha
botswana
bottle
bottom
bouabre
boualem
bouchra
boukacem
boukaka
boulaye
boulder
boulevard
bound
boundaries
bourgeois
bournemouth
boushaki
boutique
bouwer
bouzid
bovi
bow
bowen
bowie
bowl
box
boxer
boxing
boy
boyce
boycott
boyd
boye
boyega
boyfriend
boyo
boys
boyz
bozzoli
bp
br
bra
brabin
brace
bradford
bradley
bradt
brain
brainyquote
branch
brand
brandeis
brandon
brands
brandt
brasil
brassica
braun
brave
bravo
braxton
brazil
brazilian
brazzaville
bread
break
breakfast
breaking
breakout
breaks
breakthrough
breast
breaststroke
breath
bred
breitz
bremen
brenda
brenden
brett
brew
brewer
breweries
brewing
brexit
breytenbach
brian
brice
bridal
bride
brides
bridge
bridges
bridget
brief
briefing
briefly
brien
brigade
brigadier
briggs
bright
brighton
brigitte
brik
brill
brilliant
bring
bringing
brings
brink
bristol
brit
britain
britannica
briten
british
britt
britten
brittle
bro
broad
broadcast
broadcaster
broadcasters
broadcasting
broadway
broccoli
brochure
brock
broke
broken
brong
bronte
bronx
bronze
brook
brooke
brooklyn
brooks
bros
brother
brotherhood
brothers
brought
brown
browne
brt
bruce
brunei
bruno
brush
brussels
bruyn
bryan
bryant
bs
bsc
bu
bua
buari
bubble
bubu
buchanan
buchi
buck
buckingham
bucknor
budapest
buddha
buddhism
buddhist
budget
buea
buenos
bufee
bufere
buffalo
buganda
bugara
bughi
buhari
build
building
buildings
builds
built
buju
bukky
bukola
bukwa
bula
bulaga
bulawayo
bulgaria
buli
bulie
buliri
bull
bullet
bulletin
bundesliga
bunmi
bunny
buo
buraimoh
burden
bureau
burg
burger
burgers
burial
buried
burke
burkina
burkinabe
burma
burn
burna
burning
burns
bursary
burston
burt
burton
buru
burukwa
burundi
bury
bus
busari
busby
bush
busia
business
businessday
businesses
busiswa
busoga
bust
busta
but
butcher
bute
butere
buthelezi
butler
butter
butterfly
buuru
buy
buys
buzz
buzzfeed
bw
bwf
by
byanyima
byard
bye
byrd
byrne
byron
c
ca
caa
cabaret
cabbage
cabbages
cabinet
cable
cabral
caesar
caf
cafe
cafonline
cage
caine
cairo
caitlin
cake
cal
calabar
calabash
calamawy
calcutta
calder
caleb
calendar
calender
calgary
cali
california
caliphate
call
callaloo
called
callie
calling
calls
calvin
cam
camara
cambodia
cambridge
camden
came
cameo
camera
cameron
cameroon
cameroonian
cameroons
cameroun
camidoh
camille
camp
campaign
campaigner
campbell
campus
can
canada
canadian
canady
canal
canaria
canary
cancer
candace
candice
candidate
candidates
candy
cannes
cannon
cannot
canoe
canon
canton
canvas
cap
capacity
cape
capital
capitalism
capitol
capo
caps
captain
captains
capture
car
cara
caramel
caravan
carbon
card
cardiff
cards
care
career
careers
carey
caribbean
caritas
carl
carla
carlo
carlos
carmen
carmine
carnegie
carnival
caro
carol
carole
carolina
caroline
carolyn
carpenter
carpet
carr
carrie
carroll
carry
cars
carson
carstens
carter
carthage
cartier
cartoon
cartoonist
cartoonists
cartoons
carver
casa
casablanca
casbah
case
cases
casey
cash
casino
cass
cassava
cassell
cassin
cassper
cast
caste
casting
castle
cat
catalog
catalogue
catch
categories
category
cathedral
catherine
catholic
catlett
cato
cats
caucus
caught
cauliflower
causa
cause
causes
cave
cavendish
cbc
cbe
cbn
cbs
cc
cca
ccfr
ccm
ccr
cd
cdc
cdq
cdu
ce
cecil
cecilia
cecily
cedar
cedric
cele
celeb
celebrate
celebrated
celebrates
celebrating
celebration
celebrities
celebrity
celebs
celestine
cell
celsius
celtic
cement
cemetery
censorship
census
cent
centenary
centennial
center
centers
central
centrale
centre
centro
cents
centuries
century
ceo
ceramics
cerdotola
ceremony
certain
certificate
certified
cev
cf
cfr
cgi
ch
cha
chaa
chaabi
chaati
chad
chadic
chaghi
chagoury
chahine
chai
chain
chair
chairman
chairperson
chaka
chakoo
challaye
challenge
challenges
challenging
chama
chamba
chamber
chambers
champagne
champaign
champion
champions
championship
championships
champs
chan
chance
chancellor
chandler
chanel
chang
change
changed
changes
changing
channel
channels
channelstv
chanson
chaos
chapel
chapman
chappell
chapter
chapungu
chaqroun
chara
character
characters
charge
charged
charges
chari
charity
charles
charleston
charlie
charlize
charlotte
charlton
charmaine
chart
charter
chartered
charts
chase
chasing
chat
chaz
che
cheb
chebe
chebere
check
checklist
chee
cheese
chef
chefuo
chefuru
cheikh
chekia
chekwa
chekwaa
chelsea
chemical
chemistry
chemutai
chen
chenevix
cheney
cheng
chepu
cher
chere
cherono
cherry
cheruiyot
cheryl
chess
chester
cheta
chetan
chetara
chevalier
chevron
chez
chi
chiaha
chiamaka
chianya
chibok
chicago
chichi
chick
chicken
chidi
chidinma
chidumga
chie
chief
chiefs
chiepe
chika
chike
chikere
chikezie
child
childhood
children
chile
chili
chima
chimamanda
chimpreports
chimurenga
chin
china
chinda
chinedu
chineke
chinelo
chinenye
chinese
chiney
chinko
chinmoy
chinn
chinonso
chinua
chinwe
chinweizu
chinwo
chinyere
chioma
chip
chips
chiri
chiromo
chite
chiteanya
chitere
chiwetalu
chiwetel
chizzy
chloe
cho
choc
chocolate
choice
choir
chol
chomsky
choose
chop
choro
chosen
choufli
chow
chris
chrisland
christ
christian
christianity
christians
christie
christina
christine
christmas
christophe
christopher
christy
chrome
chronic
chronicle
chronicles
chronology
chu
chuck
chuka
chuks
chukwu
chukwudi
chukwuemeka
chukwueze
chukwujekwu
chukwuka
chukwuma
chukwuogo
chuma
chung
church
churches
churchill
chyna
ci
cia
cile
cilliers
cincinnati
cinderella
cindy
cine
cinema
cinemas
cinematic
circle
circuit
circumcision
circus
cisse
cit
citaat
citation
cite
cited
citi
cities
citinewsroom
citizen
citizens
citizenship
city
citypopulation
civic
civil
civilization
cj
ck
ckay
claim
claims
claire
clan
clara
clare
clarence
clarice
clarion
clarissa
clark
clarke
clash
class
classic
classical
classics
classification
claude
claudette
claudia
claus
clay
cle
clean
clear
clearwater
clement
clemson
cleopatra
clermont
cleveland
client
cliff
clifford
clima
climate
clinic
clinical
clinton
clio
clip
clive
clock
clocks
cloete
close
closed
closer
closes
closing
cloth
clothes
clothing
cloud
club
clubs
cm
cms
cn
cnbc
cnn
co
coach
coaches
coal
coalition
coast
coastal
coat
cobb
cobhams
coca
cocaine
cockrell
coco
cocoa
coconut
cod
code
codes
coel
coetzee
coffee
coffin
cohen
coke
coker
cokes
col
cola
colaianni
cold
cole
coleman
coles
colescott
colette
colin
coll
collaboration
collaborative
collage
collages
collapse
collected
collection
collections
collective
colleen
college
colleges
collegiate
collier
collins
colloquium
cologne
colombia
colonel
colonial
colonialism
colony
color
colorado
colored
colors
colour
coloured
colours
colspan
columbia
columbus
column
colvin
com
combat
combating
combs
come
comeback
comedian
comedienne
comedy
comes
comfort
comic
comics
coming
command
commander
comme
commencement
comment
commentary
comments
commerce
commercial
commission
commissioner
commissioners
commissions
commitment
committee
committees
common
commons
commonwealth
commune
communication
communications
communist
communities
community
como
comoros
companies
companion
company
comparative
comparison
compass
compete
competition
compilation
complete
completed
completes
complex
composer
composition
comprehensive
compton
computer
comrade
con
conakry
concept
concepts
conceptual
concern
concerns
concert
concerts
concise
concord
concordia
concrete
conde
condition
conditions
conduct
confederation
conference
confessions
confidential
confirmed
confirms
conflict
congo
congolese
congratulates
congress
congressional
conn
connect
connected
connecticut
connection
connections
connie
connor
conor
conrad
conscience
consciousness
consequences
conservation
conservative
conservatory
consonant
consonants
consortium
conspiracy
constable
constance
constant
constantin
constantine
constituency
constituent
constitution
constitutional
construction
consulate
consultant
consultants
consulting
consumer
contact
containing
conteh
contemporain
contemporary
content
contest
context
continent
continental
continents
continue
continues
continuum
contra
contract
contractors
contre
contribution
contributions
contributor
control
controversial
controversy
convent
convention
conversation
conversations
cook
cookbook
cookery
cooking
cool
cooper
cooperation
cooperative
coordinator
cop
copa
cope
copenhagen
copley
copper
coptic
copy
copyright
coral
corcoran
core
coretta
corey
coriander
corinne
cork
corn
cornelia
cornelius
cornell
corner
corona
coronavirus
corp
corporal
corporate
corporation
corps
correspondent
corridor
corruption
cortez
cosby
cosmetics
cosmopolitan
cosmos
cost
costa
costume
cote
cotonou
cotter
cotton
could
coulibaly
council
counsel
count
countdown
countee
counter
countries
country
county
coup
coupe
couple
courage
courant
courier
course
courses
court
courtney
courts
couscous
couture
cov
covenant
coventry
cover
coverage
covers
covid
cow
cowboy
cowboys
cox
cp
craft
crafts
craig
crammed
crane
crash
crawford
crayfish
crazy
crc
cre
cream
create
created
creates
creating
creation
creative
creatives
creativity
creator
creators
credit
credits
creedence
creek
creme
creole
crescent
crew
cricket
cries
crime
crimea
crimes
criminal
crimson
crisis
cristina
critic
critical
criticism
critics
critique
croatia
cronje
croome
crop
crops
crosby
cross
crossing
crossroads
crow
crowd
crown
crowned
crowns
crowther
crush
cruz
cry
cryptome
crystal
cs
csa
css
csu
ct
ctitle
cu
cuba
cuban
cube
cubes
cudjoe
cuisine
culinary
cullen
cult
cultura
cultural
culture
cultures
cum
cumin
cummings
cunha
cunningham
cup
cuppy
curated
curator
curatorial
cure
current
currently
curriculum
curry
curtis
cushitic
custard
custodian
customs
cut
cuts
cutting
cuvier
cv
cw
cx
cyber
cybersex
cycle
cynthia
cyprian
cyprus
cyril
cyrus
czech
d
da
daa
daalu
daba
dabara
dabeere
dabere
dabo
dachi
dad
dada
daddy
dadiya
dadson
daegu
daggash
dago
dahomey
dai
daily
dailypost
dailytrust
daisy
daju
dak
daka
dakar
dakore
dakota
dakwasi
dale
dali
dalit
dallas
daly
dam
damallsvenskan
dame
dames
dami
damian
damien
damijo
damilola
damme
damon
dan
dana
danai
dance
dancehall
dancer
dancing
danger
dangerous
dangote
daniel
daniella
danielle
daniels
danish
danja
danjuma
danladi
danny
danquah
dans
dante
danticat
daolu
daoud
daphne
dapo
dapu
dar
dara
daramola
dare
darego
darfur
dark
darkness
darling
darlington
dartmouth
darwin
das
dash
dat
data
database
date
dates
dating
datooga
daughter
daughters
daume
daura
dave
davenport
david
davido
davids
davidson
davidtz
davies
davis
davos
daw
dawn
dawodu
dawoud
dawson
dax
day
dayo
days
dayton
daz
dazed
dazzie
dazzling
db
dc
de
dead
deadline
deadly
deaf
deal
dealer
deals
dean
deana
dear
death
deaths
debanye
debanyere
debara
debate
debbie
debe
debere
debora
deborah
debrah
debt
debut
debuts
dec
decade
decades
decarava
decemba
december
dechara
decision
declaration
declared
declares
decolonization
dede
dee
deela
deen
deep
deeper
def
defaka
defar
defeat
defence
defend
defender
defenders
defends
defense
defensive
defined
definition
deforestation
degaara
degara
deghari
degree
degrees
dei
deji
deko
dekwara
del
dela
delaney
delano
delaware
dele
deletion
delhi
delicious
deliver
delivered
delivers
delivery
dell
della
delle
dellinger
delta
deluxe
dem
demand
demands
dembe
demi
democracy
democrat
democratic
democrats
den
deng
denies
denis
denise
denmark
dennis
denrele
dentaa
dental
denver
department
dependencies
deportivo
depp
depression
dept
depth
depu
deputara
deputies
deputy
der
derby
dere
derek
derrick
des
descent
description
desemba
desert
design
designed
designer
designers
designs
desire
desk
desmond
desperate
despite
desta
destination
destiny
destruction
detail
details
detained
detective
detention
detroit
deutsche
deux
developing
development
devi
devil
deville
devon
dey
dezie
dezighari
deziri
dg
dhabi
dhalla
di
dia
diab
diabate
diabetes
dial
dialect
diallo
dialogue
diamond
diamonds
diana
diane
diaries
diary
diaspora
diaz
dibaba
dibango
dibi
dibia
dice
dick
dickey
dickinson
dickson
dictionaries
dictionary
dictionnaire
did
diddy
didi
didier
didn
die
died
diedericks
diego
dies
diesel
dietrich
dieu
diezani
difference
differences
different
difficult
dig
diger
digest
dighi
digiri
digital
dignity
dijitalu
dika
dike
dikeh
dima
dimension
dimensions
din
dina
dinara
dineo
dini
dinner
dinta
dio
diocese
diop
dior
diouf
dioxide
diplo
diploma
diplomacy
diplomat
diplomatic
dir
dire
direct
directed
direction
directions
director
directorate
directors
directory
diri
dirk
dirty
dis
disabilities
disability
disabled
disambiguation
disarmament
disaster
discipline
disco
discography
discogs
discourse
discover
discovered
discovering
discovery
discrimination
discs
discus
discuss
discusses
discussion
disease
diseases
disemba
dish
dishes
diski
dismisses
disney
disorder
disorders
dispatch
display
displaystyle
dissertation
dist
distance
distinction
distinguished
distribution
district
districts
distrikti
dit
dition
ditions
diva
divas
diverse
diversity
divine
divisio
division
divorce
diwura
dixie
dixon
dj
djazairess
djembe
djibouti
dk
dkasti
dladla
dlamini
dml
dna
do
doba
doc
dochie
doctor
doctoral
doctorate
doctors
document
documenta
documentary
documentation
documents
dodo
doe
does
doesn
dog
dogg
dogon
dogs
doha
doi
doing
dokpesi
dokubo
dolapo
doll
dollar
dollars
dolly
dolma
dolphin
dom
domain
dome
domestic
dominate
dominates
dominic
dominican
dominique
don
donald
donates
dondi
done
donetsk
dong
donia
donker
donkor
donli
donna
donovan
dons
dont
doo
doodle
door
doors
dope
doping
dora
dorcas
doreen
dorian
doris
doro
dorothy
dorsey
dortmund
dos
doss
dosunmu
dot
dotun
doual
douala
double
doubleday
doubles
doug
douglas
douglass
doula
doumbia
dove
dow
dowling
down
downey
download
downs
downtown
doye
doyin
doyle
dozie
dp
dq
dr
draft
drafting
drag
drago
dragon
drake
drama
dramatic
draogo
draw
drawing
drawings
drc
dre
dream
dreams
dremo
drennon
drent
dress
dresses
drew
drift
drille
drink
driskell
driss
drive
driver
driving
dro
droit
drop
dropped
drops
drought
drug
drugs
drum
drumma
drummer
dry
dss
dstv
dtwof
du
duala
dub
dubai
dube
dublin
dubois
duchess
dudley
due
duet
duff
dugara
duiker
duke
dum
duma
dumas
dumebi
dumelo
dunbar
duncan
dundee
dunn
duo
durban
durbar
durham
during
duro
durojaiye
durotoye
duru
dust
dutch
duties
dutse
duty
duuru
duzie
duziri
dv
dvd
dw
dwarf
dyantyi
dyer
dying
dyk
dylan
dynamic
dynamics
dynamix
dynamo
dynasty
dz
dzifa
e
ea
each
eagle
eagles
ear
earl
earley
early
earns
earth
east
eastbourne
eastenders
easter
eastern
eastman
easy
eat
eating
eau
eazi
eb
eba
ebe
ebee
ebelata
ebele
ebenezer
ebere
ebert
ebi
ebibi
ebido
ebiela
ebighi
ebili
ebilite
ebipu
ebo
ebola
ebony
ebonyi
ebonylife
eboro
ebrahim
ebu
ebubata
ebube
ebubo
ebufe
ebuga
ebughari
ebughi
ebuka
ebule
ebuli
ebum
ebumnobi
ebumnuche
ebumpu
ebun
ebupu
eburu
ebuso
ebute
ebutekari
ebutela
ec
eche
echebe
echefu
echefuru
echegbu
echeghi
echekari
echekwa
echekwara
echepu
echere
echeta
echetara
echi
echiche
echichi
echikunwoke
echo
echoes
eco
ecole
ecological
ecology
economic
economics
economist
economy
ecosystem
ecosystems
ecowas
ecuador
ecuele
ed
edda
eddie
eddine
eddy
ede
edeba
edebanye
edebanyere
edebe
edebeghi
edebere
edeela
edeghari
edeghi
edekari
edeko
edekwa
edem
edemede
eden
edensibi
edepu
edere
ederede
edeturu
edewor
edezi
edgar
edge
edi
edina
edinburgh
edit
edited
edith
edition
editions
edito
editor
editorial
editors
edmond
edmonton
edmund
edna
edo
edobe
edobere
edochie
edoghi
edoho
edozi
edozien
eds
edu
eduardo
education
educational
eduga
eduhie
edun
eduzi
edvin
edward
edwards
edwidge
edwin
ee
eeden
een
efa
efcc
efe
efeghari
efere
eff
effect
effective
effects
effiong
effort
efforts
effurun
efik
efl
efu
efua
efunahu
eg
egan
egba
egbe
egbema
egbo
egbochi
egbu
egbugbere
egbugbu
egbughi
egbuke
egbukepu
egburu
egbuson
egbutu
ege
egedege
egg
eggon
eghan
ego
egoli
egonu
egosi
egosighi
egosikari
egosikwa
egosila
egosipu
egosiputa
egosiri
egun
egusi
eguzo
eguzobe
eguzogide
eguzosi
egweri
egwu
egwupu
egwuregwu
egwuri
egwuruegwu
egypt
egyptian
egypttoday
ehi
ehicha
ehichapu
ehihie
ehikhamenor
ehota
ei
eid
eight
eileen
ein
einstein
eisenberg
eisner
eje
ejedebe
ejeghari
ejekwa
ejere
eji
ejide
ejidere
ejighi
ejigide
ejije
ejiji
ejikari
ejike
ejiko
ejikwa
ejila
ejima
ejiofor
ejiri
ejirila
ejiro
eju
ejupu
ek
eka
ekambi
eke
ekeinde
ekeko
ekele
ekene
ekenye
ekere
ekeresimesi
ekeri
ekesa
eket
eketa
ekewa
ekewapu
ekezie
ekike
ekine
ekiri
ekiti
eko
ekoid
ekong
ekpe
ekpebi
ekpebiela
ekpebiri
ekpene
ekpenta
ekpere
ekpeye
ekpo
ekpochapu
ekpu
ekpuchi
ekpughe
ekpughere
ekpuk
eku
ekubo
ekun
ekwe
ekweghi
ekweko
ekwela
ekwensu
ekwenti
ekwenye
ekwenyeghi
ekwenyere
ekwere
ekweremadu
ekwesi
ekwesighi
ekweta
ekwetaghi
ekwo
ekworo
ekwu
ekwuchitere
ekwueme
ekwughachi
ekwughi
ekwukari
ekwukwa
ekwuola
ekwupu
ekwuputala
ekwuputara
ekwuri
ekwuru
ekwusa
ekwusi
el
ela
elaine
elba
elbagir
elcinema
eldee
elder
elders
ele
eleanor
eleba
elebara
elechi
elect
elected
election
elections
electoral
electric
electricity
electronic
electronica
elects
eleda
eleghara
elegharakari
eleghi
elekari
elekere
eleko
elektro
elekwasi
elele
elementary
elementri
elendu
elephant
eleta
eletrik
eletriki
eletro
eletu
eleven
eli
elias
elijah
elisabeth
elise
elisha
elite
elites
eliza
elizabeth
ella
elle
ellen
ellil
ellington
elliot
elliott
ellis
ellison
elma
elmaleh
eloff
eloy
elsa
else
elsevier
elsie
elst
elton
elu
eluigwe
elumelu
elvis
em
ema
email
emam
embassy
eme
emebeghi
emebere
emebi
emebu
emecha
emechaa
emechabeghi
emechara
emecheta
emechi
emechiri
emee
emeela
emefu
emegbu
emeghachi
emeghari
emeghe
emeghi
emegide
emegideri
emejo
emejuputa
emeka
emekari
emeko
emekwa
emela
emelitere
emem
ememe
ememme
emenike
emepe
emepu
emeputa
emerald
emere
emerge
emergence
emergency
emerges
emerging
emeri
emeriela
emeritus
emerson
emeru
emery
emesapu
emesi
emesia
emeso
emeto
emetu
emewo
emezi
emezighari
emeziwanye
emezu
emezughi
emi
emikpu
emilia
emily
eminem
eminent
emir
emirate
emirates
emissions
emma
emmanuel
emmerson
emmy
emo
emokpae
emory
emotional
emperor
empire
employee
employment
empower
empowering
empowerment
empress
empty
emume
en
ena
enahoro
enca
encomium
encounter
encounters
encyclopaedia
encyclopedia
encyclopædia
end
endangered
ended
endicott
endorsement
endowment
ends
endsars
ene
enemkpali
enemy
energy
enfant
enfants
enforcement
engage
engaged
engagement
engine
engineer
engineering
engineers
england
english
engr
eni
enimoney
eniola
enjoy
enough
enow
ensemble
ensure
enter
enterprise
enterprises
entertainer
entertainers
entertainment
entre
entrepreneur
entrepreneurs
entrepreneurship
entropy
entry
enu
enugu
enugwu
enupu
environment
environmental
enwe
enwebeghi
enwechaghi
enwee
enweela
enweghi
enwekari
enwekwa
enwekwara
enwekwu
enwela
enwere
enweri
enweta
enwetabeghi
enwetaghi
enwetakwa
enwetala
enwetara
enwetawo
enwetu
enwezor
enwonwu
enwu
enye
enyefe
enyeghi
enyekari
enyekwa
enyela
enyemaka
enyere
enyerela
enyewo
enyi
enyimba
enyo
enyocha
ep
epa
epe
epic
epidemiology
episcopal
episode
episodes
eprel
epstein
equal
equality
equatorial
equity
er
era
eradication
erasmus
ere
erekwa
eri
eric
erica
erics
erigbu
erigga
erighi
erik
erikari
erimeri
eriri
erite
eritrea
erizku
ernest
ernst
ero
error
eru
erube
erubeghi
erughi
erule
eruo
eruola
erute
es
esan
esat
escape
ese
esemokwu
eseohe
esere
eserese
eseti
eshia
eshun
esi
esiebo
esighi
esikari
esikwa
esiri
esite
esiwanye
eskom
eso
esochi
esoghi
esonu
esonye
esonyela
esonyere
esonyewo
esorola
esorowo
esote
espace
espan
especially
esperanto
espn
esquire
essay
essays
essence
essential
essex
essid
essien
est
established
establishment
estate
estates
esther
estonia
estoniya
eswatini
et
eta
etc
etche
ete
etemeete
eteta
ethel
ethical
ethics
ethiopia
ethiopian
ethnic
ethnicity
ethnologue
ethnonym
eti
etienne
etim
etinye
etinyeghi
etinyekari
etinyekwa
etinyela
etinyere
etiopia
etisalat
etiti
eto
etolite
etolitela
etomi
etoola
etozu
etu
etv
eu
eucharia
eugene
eunice
euro
eurobasket
europa
europe
european
eva
evaluation
evan
evangelical
evans
eve
evelyn
even
evening
event
events
ever
everard
everett
everton
every
everybody
everyday
everyone
everything
evidence
evil
evolusho
evolution
ewe
ewebata
ewebatara
eweda
eweghachi
eweghachiri
eweghara
ewelite
ewepu
ewere
ewerekwa
eweta
ewetara
ewezuga
ewing
ewn
ewu
ewuli
ewulite
ewusi
ewute
ex
examination
examinations
examiner
example
excellence
excerpt
exchange
excited
exciting
exclusive
executive
exeter
exhibit
exhibition
exhibitions
exhibits
exile
exist
exit
expand
expanding
expansion
expectations
expected
experience
experiences
experimental
expert
experts
explains
exploitation
exploration
explore
explores
exploring
explosion
expo
export
expose
exposition
exposome
exposure
express
expression
expressionism
expressway
exquisite
extended
extension
external
extinction
extlink
extra
extraordinary
exxon
exxonmobil
eye
eyes
eyi
eyikari
eyisi
eyo
ez
eze
ezeagu
ezeani
ezekwesili
ezema
ezeonu
ezere
ezi
ezie
eziga
ezigara
ezigbo
ezighi
ezinau
ezinne
ezinu
ezinulo
eziokwu
ezipu
ezo
ezoghi
ezra
ezu
ezube
ezubere
ezughi
ezuko
ezumezu
ezumike
ezuru
ezuruonye
ezute
ezz
ezza
f
fa
fab
faber
fabian
fabric
fabulous
fabwoman
face
facebook
faces
facilities
facility
facing
fact
factbook
factor
factors
factory
facts
faculty
fader
fadhel
fadugba
fahmy
fai
failed
fails
failure
fair
fairfax
fairy
fait
faith
fakaza
fake
fakeye
falak
falana
falcone
falconets
falcons
faleti
fali
fall
fallen
falling
falls
fally
falola
false
falz
fame
familia
familiar
families
family
familysearch
famoudou
famous
fan
fanagalo
fancy
fang
fani
fanny
fans
fantasia
fantastic
fantasy
fante
fao
far
fara
farah
fares
farewell
farhat
farid
farida
farley
farm
farmer
farmers
farming
farms
farouk
farrell
fascist
fashion
fashola
faso
fast
fastest
fasuba
fat
fate
faten
father
fathers
fathia
fati
fatima
fatma
fatou
fatoumata
fatuma
fauset
favorite
favour
favourite
fawaz
fawcett
fawzi
fax
fay
faye
fayemi
faze
fbi
fc
fct
fdc
fdd
fe
fear
feast
feat
feather
feature
featured
features
featuring
feb
febru
februari
february
febu
febuwari
fed
feder
federal
federation
fee
feed
feedback
feeding
feel
feeling
feels
feet
feghouli
fehri
fel
fela
felicia
felix
fell
fella
fellow
fellows
fellowship
fellowships
felt
female
femi
feminine
feminism
feminist
feminists
femme
femmes
fenerbahc
feng
feni
fenn
fenton
fer
ferdinand
fere
ferguson
fernando
fero
ferrari
ferreira
ferry
feso
fespaco
fest
festac
festival
festivals
festus
fever
few
ff
ffc
fg
fgm
fi
fiav
fiba
fiber
fiction
fidelis
fidelity
fie
field
fields
fiesta
fifa
fifi
fifth
fifty
fig
fight
fighter
fighters
fighting
fights
figurative
figure
figures
fiji
fikile
fil
filani
file
files
filip
filipino
film
filmmaker
filmmakers
filmography
films
fils
fim
fin
final
finale
finalist
finalists
finally
finals
finance
financial
find
finding
finds
fine
finest
fingers
finish
finland
finnish
fiona
fiore
fir
fire
fireboy
fired
fires
firewall
firm
first
firsts
fischer
fish
fisher
fisheries
fishing
fisk
fit
fitzgerald
fivb
five
fix
fk
fl
flag
flags
flame
flames
flash
flat
flats
flavour
fleet
fleming
flemish
flesh
fletcher
fleur
flight
flint
flip
floating
flood
floods
floor
flora
florence
florida
flour
flournoy
flow
flower
flowers
floyd
flux
fly
flying
flynn
fm
fnb
fo
focus
focused
fogerty
folake
folarin
folashade
folawiyo
foliyo
folk
folklore
follow
following
folorunsho
foluke
fon
fondation
font
food
foodco
foods
fool
fools
foot
football
footballer
footballers
footer
for
forbes
forbidden
force
forced
forces
ford
fordham
fordjour
foreign
forensic
forest
forestry
forests
forever
forget
forgotten
form
format
formation
former
forms
forrest
forson
fort
fortuna
fortune
forty
forum
forward
fossil
fosso
foster
foto
fouad
found
foundation
foundations
founded
founder
founders
fountain
four
fourati
fourie
fourth
fowler
fox
foxx
fr
fra
fragile
frai
frame
framework
franc
franca
france
frances
franchise
francine
francis
francisca
francisco
franck
franco
francois
franconian
francophone
francophonie
frank
frankfurt
frankie
franklin
frans
franz
fraser
fraternity
fraud
frazier
fre
fred
freddie
freddy
frederick
free
freed
freedman
freedom
freelon
freeman
freestyle
freetown
freeze
french
fresh
freshman
freshwater
frey
fricative
friday
fridays
fried
friedman
friedrich
friend
friendly
friends
friendship
frieze
friji
frimpong
fringe
from
front
frontier
frontiers
frost
fruit
fs
ft
ftu
ftz
fu
fuck
fuel
fufu
fugard
fuji
fulani
fulbright
fulham
full
fuller
fun
fund
funding
funds
funeral
funk
funke
funlola
funmi
funmilayo
funny
funsho
fuo
furniture
further
furu
fuse
fusion
futo
future
futures
g
ga
gaa
gaara
gaba
gabiga
gabigara
gabon
gaborone
gabriel
gabriela
gabrielle
gachara
gad
gaddafi
gafe
gafee
gafere
gaga
gage
gaghari
gaghi
gail
gain
gaines
gains
gaither
gakwara
gakwuru
gakwuuru
gal
gala
galal
galatasaray
galaxy
gale
galerie
galik
gallagher
galleria
galleries
gallery
gam
gamal
gambia
gambo
game
games
gamil
gana
gandhi
ganduje
gang
gangsta
gani
ganihu
ganiihu
gantt
gap
gara
garage
garanya
garba
garci
garcia
garde
garden
gardens
gardner
gareth
gari
garner
garrett
garri
garris
garrison
garvey
gary
gas
gasi
gate
gates
gateway
gathering
gatsby
gatwa
gauteng
gave
gavin
gawa
gawara
gay
gaya
gaye
gaz
gaza
gaze
gazette
gb
gba
gbaa
gbaara
gbachara
gbachi
gbachiri
gbachitere
gbadaa
gbadamosi
gbadara
gbadoro
gbaga
gbagara
gbagburu
gbagha
gbaghara
gbago
gbagoro
gbagwojuru
gbagyi
gbahapu
gbajiri
gbako
gbakwara
gbakwu
gbakwunye
gbakwunyere
gbali
gbanahu
gbanari
gbanwe
gbanwee
gbanwere
gbanye
gbanyere
gbanyu
gbapu
gbara
gbasa
gbasaa
gbasara
gbasasi
gbasawanye
gbasi
gbasiri
gbaso
gbasoo
gbasoro
gbatara
gbati
gbawara
gbaya
gbazinye
gbazinyere
gbaziri
gbazite
gbazitere
gbe
gbenga
gbo
gbochie
gbochiri
gboo
gboroja
gbr
gbu
gbuo
gbupu
gburu
gburugburu
gbv
gcina
gdp
ge
gear
gebre
gee
geers
gemini
gen
gender
gendler
gene
genealogy
general
generation
generations
genesis
genetic
genetics
geneva
genevieve
genital
genius
genocide
genome
genre
gent
gentleman
gentry
genus
geo
geoffrey
geographic
geographical
geography
geological
geology
geometric
geometry
geophysical
geophysics
georg
george
georges
georgetown
georgette
georgia
georgina
ger
gerald
geraldine
gerard
gerba
gere
gerhard
germain
german
germany
gert
gertrude
get
gets
getting
getty
gh
gha
ghachi
ghachiri
ghachite
ghada
ghafla
ghaghi
ghana
ghanacelebrities
ghanafa
ghanaian
ghanaians
ghanamotion
ghanasoccernet
ghanaweb
ghandi
ghanem
ghara
ghari
ghariokwu
ghazal
ghe
ghent
ghetto
ghi
gho
ghost
ghosts
gi
giant
giants
gibbs
gibraltar
gibson
gide
gideon
gidere
gidesi
gidewo
gidi
giffords
gift
gifted
gifty
gil
gilbert
gilda
gill
gilliam
gillian
gillick
gims
gina
ginger
gini
ginwala
giovanni
girl
girlfriend
girls
gish
gist
give
given
gives
giving
giwa
giza
glaciers
gladys
glam
glamour
glance
glasgow
glass
gleaton
glen
glenn
glitz
glo
globacom
global
globalization
globe
gloria
glory
glottolog
glover
glyph
gma
gne
gnu
go
goal
goalkeeper
goals
goat
god
goddess
godfrey
godi
gods
godson
godswill
godwin
goes
goethe
goge
gogh
gogo
gogulu
going
gokada
gola
gold
goldberg
goldblatt
golden
goldie
goldman
goldsmith
goldsmiths
goldstein
golf
gomba
gombe
gomez
gone
gong
good
goodbye
goode
goodluck
goodman
goodreads
goodwill
google
goolu
goomenti
gooro
gordimer
gordon
gordy
gore
gorman
goro
gosi
gosikwara
gosipu
gosiputa
gosiputara
gosiri
gospel
goss
gossip
got
gotham
gothenburg
gothic
gouvernement
gov
govender
governance
governing
government
governor
governorate
governors
governorship
govt
gowon
gq
gqulu
gr
gra
grabs
grace
grade
graduate
graduates
graffiti
grafton
graham
grahamstown
grammar
grammatical
grammy
gran
grand
grande
grange
granite
grannies
granola
grant
granta
grants
granville
graphic
graphics
grass
grassfields
grassroots
grave
graves
gravity
gray
great
greater
greatest
greatness
greece
greek
green
greenberg
greene
greenhouse
greenland
greens
greenwich
greenwood
greg
gregg
gregorian
gregory
grenadines
grenoble
gresham
greta
grew
grey
grid
grier
griffin
griin
grik
grimes
grin
griot
grips
gris
grobler
groove
gross
ground
groundnut
group
groupe
groups
grove
grow
growing
grown
growth
gruyter
gtbank
gu
gualinga
guangzhou
guaranty
guard
guardian
guatemala
guba
gucci
gue
guernsey
guest
gueye
guggenheim
gugu
guidance
guide
guidelines
guides
guild
guildhall
guilty
guine
guinea
guinean
guinness
guitar
guizhou
gujarati
gula
gulama
gulder
gulf
gulu
gum
gumuz
gun
guns
gunyere
guosa
gupta
gur
gurage
gurira
gurmehar
gurtong
guru
gus
gustav
gutenberg
guthrie
guy
guyana
guzo
guzobe
guzobekwara
guzobere
guzogidere
guzoro
guzosie
gwa
gwako
gwandara
gwara
gwe
gwen
gwendolyn
gwo
gwongworo
gwu
gwuo
gwupu
gwuru
gy
gyakie
h
ha
haa
haala
haar
haaretz
haase
habib
habiba
habibi
habila
habitat
hackney
had
hadith
hadiza
hadj
hafez
hafsat
hagan
hagedorn
hague
hai
haifa
hail
haile
hails
hair
haiti
haitian
hajiya
hajjaj
hakeem
hakim
hal
hala
hale
half
halim
halima
hall
hallmark
halloween
halsey
ham
hama
hamadi
hamama
hamblin
hamburg
hamdi
hamed
hamel
hamid
hamilton
hamlet
hammam
hammarby
hammer
hammerl
hammie
hammond
hampshire
hampton
hamri
hamroush
hamza
hamzat
han
hana
hanan
hancock
hand
handbook
hands
haneze
hani
hank
hanks
hanna
hannah
hans
hansard
hansen
happened
happiness
happy
hapu
haqq
hara
haram
harare
harassment
harbor
harcourt
hard
harding
hardy
hare
harissa
harlem
harlequin
harleston
harmattan
harmon
harmony
harold
harouna
harper
harpercollins
harriet
harriman
harrington
harris
harrison
harrow
harry
harrysong
hart
hartford
hartley
haruna
harvard
harvest
harvey
has
hasan
hashtag
hasni
hassan
hassani
hastings
hat
hate
hau
haus
hausa
haut
haute
hauwa
havana
have
haven
having
hawa
hawai
hawaii
hawaiian
hawkins
haworth
hay
hayat
hayden
hayes
haynes
hayward
hazel
hazi
hazie
hazighari
haziri
hb
hbo
hd
he
head
headies
headline
headlines
headquarters
heads
healing
health
healthcare
healthy
hear
heard
hearing
heart
heartland
hearts
heat
heath
heather
heaven
heavy
hebrew
hedi
heerden
heffermehl
heforshe
hefuna
hegerberg
heidelberg
heidi
height
heights
heineken
heinemann
heinrich
heirs
heksie
hekta
hel
held
helen
helena
helene
heliopolis
hell
hellen
heller
hello
helmut
helmy
help
helped
helping
helps
helsinki
hemert
hemochromatosis
hemphill
hen
henderson
hendrik
henein
henkel
hennacy
hennessy
henri
henrietta
henry
henshaw
henson
hepatitis
her
herald
herbert
here
heritage
herman
hermann
hero
heroes
herring
herself
hertzog
herve
herzegovina
heshmat
het
hewatch
hewitt
hey
hg
hi
hia
hibere
hibiscus
hibru
hicks
hidden
hie
higgs
high
higher
highest
highland
highlife
highlights
highly
highway
hijab
hilary
hilda
hill
hillary
hills
hilton
him
himself
hind
hindi
hindu
hindustan
hip
hiphopdx
hipu
hiroshima
hirsi
his
histoire
historia
historic
historical
histories
history
historymakers
hit
hitler
hits
hiv
hiwar
hiwe
hiwere
hku
hl
hlongwa
hmd
hms
ho
hob
hobbs
hoc
hockey
hodge
hoe
hoffman
hofmeyr
hogan
holby
hold
holder
holding
holdings
holds
holiday
holland
hollingsworth
holloway
holly
hollywood
holman
holmes
holocaust
holt
holy
home
homecoming
homeland
homepage
homepod
homes
hometown
hommage
homme
hommes
homonu
hon
honduras
honest
honey
hong
honolulu
honor
honorable
honorary
honored
honoris
honors
honour
honourable
honoured
honours
hons
hood
hook
hooks
hop
hope
hopes
hopkins
hoputara
hopwood
horace
horizon
horizons
hormone
horn
horror
horse
horton
hosni
hosny
hospital
hospitals
host
hosted
hosts
hot
hotara
hotel
hotels
hotspur
hottest
houari
houghton
hour
hours
house
houses
housewives
housing
houston
hove
how
howard
hozo
hq
hr
href
htm
html
http
https
hu
hub
hubby
hubert
huckaby
hudson
huffington
huffpost
huge
hugh
hughan
hughes
hugo
huguenot
hui
huisgenoot
hull
hulu
human
humanist
humanitarian
humanities
humanity
humble
humblesmith
humphrey
hundred
hundreds
hung
hungarian
hungary
hunger
hungry
hunt
hunter
hunting
huntington
hurdles
hurricane
hurston
hurt
huru
hus
husband
husbands
hush
hussaini
hussein
hustle
hutchinson
hwati
hybrid
hyde
hyderabad
hydrogen
hygiene
hylton
hype
hyperallergic
i
iaaf
ian
iata
iba
ibadan
ibe
ibekwe
ibelata
ibeno
iberibe
ibi
ibibi
ibibio
ibido
ibili
ibipu
ibm
ibn
ibo
ibom
ibrahim
ibru
ibu
ibuga
ibughari
ibukun
ibuli
iburu
ibute
ic
icc
ice
iceberg
iceland
ich
iche
ichebe
ichefu
icheku
ichekwa
ichepu
ichere
icheta
ichetu
ichi
ichie
ichu
ici
icon
iconic
icons
ict
id
ida
idada
idah
idahosa
iddo
ide
idea
ideal
ideas
ideato
idebe
idei
ideko
idemili
identities
identity
idepu
idi
idia
idibia
idina
idir
ido
idobe
idol
idols
idoma
idowe
idowu
idozi
idris
idrissa
idu
iduga
iduzi
ie
if
ifa
ife
ifeajuna
ifeanyi
ifeoma
iffhs
ifo
ifufe
ifuru
ig
iga
igala
igba
igbanwe
igbasa
igbe
igbinedion
igbo
igbobi
igbochi
igbokwe
igboland
igbu
ige
ighodalo
ighodaro
ign
igodo
igosi
igosipu
igu
igurube
iguzo
iguzobe
iguzogide
iguzosi
igwe
igwefoto
igwu
ihe
iheanacho
ihedioha
iheme
iheomume
ihere
ihi
ihiala
ihichapu
ihie
ihs
ihu
ihuenyo
ihunanya
ii
iii
ijaw
ije
ijebu
ijede
ijele
ijeoma
ijere
ijeri
iji
ijide
ijiji
ijiko
ijikwa
ijipt
ijora
iju
ijuanya
ik
ika
ike
ikeagwu
ikechukwu
ikedieze
ikeja
ikeji
ikekwe
ikenga
ikenna
ikere
ikesa
ikewapu
ikhamanga
ikike
ikikere
ikiri
iko
ikoku
ikom
ikorodu
ikosi
ikot
ikoyi
ikpa
ikpe
ikpeazu
ikpebi
ikpere
ikpi
ikpo
ikpochapu
ikpu
ikpuchi
ikpughe
ikpuru
iku
ikuenobe
ikuku
ikwe
ikweko
ikwenye
ikwere
ikwerre
ikweta
ikwo
ikwu
ikwupu
ikwuri
ikwuu
il
ila
ile
ileba
ileghachi
ileghara
ileko
ilekwasi
ilele
ilesa
ileta
ilex
ili
ill
illbliss
illegal
illinois
illness
illustrated
illustrator
ilo
ilorin
ilu
im
ima
image
images
imagination
imagine
imam
iman
imdb
ime
imebi
imecha
imechi
imegbu
imeghari
imeghe
imegide
imeju
imeko
imepu
imere
imeri
imeru
imeso
imetu
imewe
imezi
imezighari
imeziwanye
imezu
imf
img
imi
immigrant
immigration
imo
imota
impact
impacts
imperial
imperialism
implementation
implications
importance
important
improve
improved
improvement
imu
in
ina
inaugural
inaugurates
inc
inch
incident
include
included
includes
including
inclusion
inclusive
income
incorporated
incorporates
increase
incredible
indaba
inde
independence
independent
index
indi
india
indian
indiana
indianapolis
indie
indies
indiewire
indigenous
indigo
indira
individual
indo
indonesia
indonesian
indoor
industrial
industries
industry
ine
inec
inequality
infantry
infection
infectious
infinity
influence
influencer
influential
info
infobox
information
informationng
informer
infrastructure
inge
ingle
ingrid
ini
initiative
initiatives
iniva
injera
injin
injini
injinia
injury
ink
inn
inna
inner
innocence
innocent
innovation
innovative
innovator
innovators
ino
inquirer
inquiry
inside
insideclimate
insider
insidethegames
insight
insights
inspector
inspiration
inspirational
inspire
inspired
inspires
inspiring
instagram
installation
institut
institute
institution
institutional
institutions
insurance
int
integrated
integration
integrity
intellectual
intelligence
inter
interactive
intercontinental
interdisciplinary
interdit
interest
interesting
interface
intergenerational
interim
interior
internacional
internal
international
internationale
internationalist
internet
interpol
interpretation
intersectionality
intervention
interventions
interview
interviews
intimate
into
introduces
introducing
introduction
invalid
invasion
invention
inventor
inventors
invest
investigation
investigative
investment
investments
investors
invictus
invisible
involved
inwang
inwe
inwere
inweta
inyang
inye
inyeaka
inyefe
inyere
inyinya
inyocha
inyom
io
ioc
iol
iom
iowa
ip
ipa
ipalink
ipc
ipcc
ipupa
ira
irabor
iran
iraq
iraqi
ire
ireland
irene
ireti
iri
irighiri
irii
iris
irish
irma
iro
iroegbu
iroha
irokotv
iron
ironsi
iru
irving
irwin
is
isa
isaac
isabel
isabella
isadora
isaiah
isale
isbn
ise
iseyin
ishi
ishii
ishmael
isi
isiagu
isiakwu
isiala
isibaya
isidingo
isii
isio
isiokwu
islam
islamic
islamist
island
islands
isle
ismail
isn
iso
isoken
isoko
isolo
isong
isonye
isonyere
israel
israeli
issa
issn
issue
issues
issuu
ista
istanbul
isu
it
ita
itali
italia
italian
italy
ite
iteghete
item
itenani
iteolu
itf
iti
itinye
ito
itolite
itolu
itoolu
its
itsekiri
itu
itunes
itv
iucn
iv
ivan
ivo
ivoire
ivorian
ivory
ivy
iwara
iwe
iweala
iwebata
iweghachi
iweghachite
iwepu
iwere
iweta
iwf
iwobi
iwu
iwughachi
iwulite
ix
iya
iyabo
iyalode
iyamah
iyanda
iyanya
iyi
iyke
iz
ize
izere
izi
iziga
iziko
izipu
izizi
izo
izon
izrel
izu
izugbe
izute
izuzu
j
ja
jaafar
jaar
jabavu
jacana
jack
jackie
jackson
jacksonville
jacob
jacobs
jacqueline
jacques
jada
jade
jadesola
jae
jager
jaguda
jagz
jah
jai
jail
jailed
jaja
jaji
jakande
jakarta
jalade
jam
jama
jamaica
jamaican
jamal
jamel
james
jamie
jamila
jan
jane
janeiro
janet
jani
janine
jansen
january
japan
japanese
jara
jari
jarrell
jasmine
jason
jaume
jay
jayana
jayne
jazeera
jazmine
jazz
jazzi
jazzy
je
jea
jean
jeanette
jeanne
jeannette
jeans
jee
jeere
jeff
jefferson
jeffrey
jegede
jehova
jelili
jelimo
jemima
jen
jenifa
jenkins
jenner
jennie
jennifer
jennings
jenny
jensen
jenu
jenuari
jepchirchir
jeptoo
jerbi
jere
jeremiah
jeremih
jeremy
jerome
jerry
jersey
jerusalem
jess
jesse
jessica
jessie
jesu
jesus
jet
jets
jeune
jeuneafrique
jeunesse
jeux
jewel
jewell
jewish
jews
ji
jibrin
jide
jidenna
jidere
jie
jigawa
jigidere
jihad
jiji
jijiji
jiko
jikwa
jikwaa
jill
jim
jimi
jimmy
jimoh
jin
jinja
jiri
jiria
jisiri
jisoo
jita
jive
jizo
jj
jju
jnr
jo
joa
joan
joana
joanna
joanne
joans
job
jobs
joburg
jodi
joe
joeboy
joel
joey
johan
johann
johanna
johannes
johannesburg
john
johnbull
johnny
johns
johnson
johnston
join
joined
joins
joint
joke
jollof
jombo
jon
jonathan
jonelle
jones
jongh
joram
jordan
jorge
jos
jose
josef
joselyn
joseph
josephine
josh
joshua
josiah
josky
jou
joubert
jouni
jour
journal
journalism
journalist
journalists
journals
journey
joy
joyce
jozi
jp
jpg
jr
js
jstor
jt
ju
juan
juanita
juanya
juba
jubilee
judd
jude
judge
judges
judicial
judiciary
judith
judo
judoinside
judoka
judy
juice
juju
jukun
jul
julai
jules
julia
julian
juliana
julie
juliet
julius
july
juma
jumia
jumoke
jump
jun
junction
june
junge
jungle
junior
junn
jupe
jupu
juputara
juru
jury
jus
just
justia
justice
justin
justina
jute
juu
juun
juunu
juvenile
juventus
k
ka
kaa
kaabong
kaadi
kab
kaba
kabale
kabinet
kabir
kabiru
kabiye
kabul
kabyle
kacha
kachamara
kachasi
kadaga
kader
kadi
kadir
kadiri
kaduna
kadın
kae
kaffy
kagame
kagbu
kagbuo
kagburu
kagga
kai
kaibe
kaikpe
kainji
kaiwu
kal
kala
kalahari
kalakuta
kalasha
kale
kalenda
kali
kalle
kalthoum
kalu
kam
kama
kamakwa
kamal
kamara
kamau
kambalu
kamel
kamgbe
kamkwamba
kammu
kampala
kamwe
kamya
kan
kanayo
kanda
kandu
kane
kani
kanka
kannada
kannywood
kano
kansa
kansas
kansu
kanu
kanumba
kanuri
kanye
kapeeti
kapi
kapitalis
kaplan
kapoor
kappa
kara
karabo
karai
karama
karanja
karate
kardashian
kare
karen
kari
karia
karim
karin
kariri
kariuki
karl
karma
karman
karnataka
karo
karoo
karthala
kasai
kasi
kassel
katagum
katalo
katalog
kate
katherine
kathleen
kathryn
kathy
katidral
katie
katlego
kato
katrina
katsina
katy
katz
kaufman
kaur
kavi
kay
kayo
kayode
kazakhstan
kazan
kazim
kcee
ke
kebbi
kebe
kebede
kedu
kee
keene
keep
keeper
keeping
keeps
keere
keffi
kehinde
kei
keira
keita
keitany
keith
kekele
kekere
keko
kelani
kelechi
kelee
kelere
kelley
kellogg
kelly
kelvin
kemgbe
kemi
kemistri
kemp
kemper
ken
kendall
kendell
kendrick
kenkey
kennedy
kenneth
kennis
kenny
kensington
kent
kente
kentridge
kentucky
kenya
kenyan
kenyans
kenyatta
kenyere
kenzo
kept
kerala
kere
keri
kerr
kerry
kesaa
kesara
kesh
kesha
keta
ketara
ketu
kevin
kew
kewa
kewaa
kewapu
kewara
key
keyamo
keyboard
keyes
keys
kg
khadija
khaimah
khaled
khalid
khalifa
khaligraph
khalil
khalili
khan
khanyi
khartoum
khoekhoe
khorshid
khumalo
ki
kiambukuta
kianni
kibet
kichin
kick
kicks
kickstarter
kid
kidjo
kidnapped
kidney
kids
kiev
kigali
kiir
kiiza
kiki
kikuyu
kilimanjaro
kill
killed
killer
killing
kills
kilogram
kilomita
kim
kimani
kimberley
kimberly
kin
kind
king
kingdom
kingelez
kings
kingsley
kingston
kinshasa
kiplagat
kipyego
kipyegon
kirikiri
kirk
kirkus
kirsten
kiss
kissing
kissinger
kit
kitchen
kizz
klaasi
klarer
klas
klein
klerk
klo
km
knew
knight
knights
knockout
knopf
knott
know
knowledge
knowles
known
knows
knox
knust
ko
koch
koenraad
koffi
kofi
kofo
kogi
kohler
kojo
kok
koki
koko
kol
kola
kolawole
koleji
kolkata
kolo
koloane
kom
koma
komolafe
konate
konbini
kong
kongo
konono
konya
koodu
kool
kor
kora
korea
korean
korede
koro
korona
kosoko
kosovo
kota
kotoko
kou
kourouma
kouyate
kp
kpa
kpaa
kpachaara
kpachapu
kpachara
kpagburu
kpako
kpakpando
kpali
kpalie
kpaliri
kpalite
kpalitere
kpam
kpamkpam
kpara
kpari
kpasuru
kpata
kpatara
kpe
kpebie
kpebiri
kpebisiri
kpee
kpere
kpo
kpochapu
kporo
kpu
kpuchie
kpuchiri
kpughee
kpughere
kpuo
kpuru
kpuwere
kra
krai
kramer
kredit
kresge
kris
krishnan
krismas
kristi
kristin
kroatia
krog
kru
krueger
kruger
krut
ks
kt
kto
ktoba
ku
kuchiri
kudirat
kudzanai
kuhlman
kuiper
kuka
kuki
kuku
kuli
kulthum
kulture
kumalo
kumar
kumasi
kumba
kumi
kunaiyi
kung
kunle
kunst
kunsthalle
kure
kurt
kuru
kuti
kuwait
kuziere
kuziri
kuznetsova
kw
kwa
kwaa
kwabatara
kwadebe
kwadebere
kwado
kwadokwara
kwadoo
kwadoro
kwadwo
kwaga
kwagara
kwaghi
kwaku
kwakum
kwali
kwalite
kwalitere
kwame
kwami
kwankwaso
kwanu
kwanye
kwanyeere
kwanyere
kwapu
kwara
kwasi
kwatu
kwatuo
kwaturu
kwazi
kwazulu
kwe
kweere
kweghi
kwei
kweko
kwela
kweli
kwenye
kwenyere
kwenyesiri
kwere
kwesi
kwesiri
kweta
kwetara
kwo
kwu
kwubiri
kwughachi
kwughachiri
kwukwara
kwuo
kwupu
kwuputara
kwuri
kwuru
kwusi
kwusiri
ky
kyambogo
kyiv
kyknet
kyle
kyoto
kyrgyzstan
kzn
l
la
laa
laan
lab
label
labelu
labidi
labor
laboratory
labour
labs
labulo
lac
lace
lachey
lack
ladi
ladies
ladipo
ladipoe
lady
laedo
laetitia
lafarge
lafayette
lafia
lagbaja
lager
laghachi
laghachiri
laghachite
laghachitere
lagodi
lagoon
lagos
lagosians
lagosphoto
lai
laid
laila
lake
lakes
lakhdar
lakshmi
lal
lala
lam
lama
lamar
lamata
lamb
lambda
lambert
lambo
lamidi
lamido
lamington
lamjarred
lan
lana
lanari
lancaster
lance
lancelot
lancet
land
landi
landing
landmark
lands
landscape
landscapes
lane
laney
lang
langa
lange
lango
langston
language
languages
langue
langues
lanka
lanre
lansing
lantern
lao
laolu
laos
laoye
lapto
lar
lara
large
largest
lari
larry
las
laser
lashes
last
lasu
lat
late
lateef
later
latest
latex
latham
latif
latifa
latifah
latin
latino
latitude
latoya
latrik
latvia
laude
laughter
launch
launched
launches
laura
laureate
laureates
lauren
laurence
laurent
laurie
lausanne
law
lawal
lawma
lawmaker
lawmakers
lawrence
laws
lawson
lawyer
lawyers
lay
layiwola
layla
laylah
lazarus
lazio
lb
lbs
lc
lcda
ld
ldemann
le
lea
lead
leader
leaders
leadership
leading
leads
leaf
league
leah
lean
leap
lear
learn
learned
learning
least
leave
leaves
leaving
leba
lebanese
lebano
lebanon
lebara
lebeelu
lebo
lebogang
lecture
lecturer
lectures
led
lee
leeds
left
leg
legacies
legacy
legal
legend
legendary
legends
leghaara
leghachi
legion
legiscan
legislation
legislative
legislature
legislatures
legit
lego
legon
legos
lei
leicester
leiden
leigh
leila
leipzig
leith
leji
lekki
leko
lekwasi
lelee
lemi
lemon
lemu
lena
lenin
lens
leo
leon
leonard
leonardo
leone
leonora
leopold
lerato
lere
leroux
leroy
les
lesbian
lescharts
lesego
lesley
leslie
lesotho
less
lesson
lessons
let
leta
letter
letters
lettres
level
levels
levi
levine
levy
lewandowski
lewinsky
lewis
lexicon
lexington
ley
leye
lg
lga
lgas
lgbt
lgbtq
li
lia
lib
libe
liberal
liberation
liberia
liberian
liberorum
libertarian
liberte
liberties
liberty
libraries
library
libya
libyan
licence
license
lie
liebenberg
liechtenstein
liefde
lies
lieutenant
liewe
life
lifestyle
lifetime
lift
lig
liga
light
lightner
lights
ligue
lik
like
lil
lila
lilanga
lilia
lilian
lille
lillian
lilly
lily
lim
lima
limit
limited
limits
limo
limpopo
lin
lina
lincoln
linda
lindiwe
lindsay
lindsey
line
linear
lines
lingala
lingua
linguistic
linguistics
linguistique
link
linked
linkedin
linkid
links
linus
lion
lionel
lionesses
lionessesofafrica
lionheart
lions
lipshitz
lipstick
lira
liri
lisa
lisbon
list
listed
listen
listening
lister
listing
lists
lit
lite
literacy
literary
literature
literatures
litere
lithuania
lithunia
litnet
little
littlefield
liu
live
lived
livelihood
liver
liverpool
lives
living
livingston
livingstone
lix
liz
liza
lizzie
ll
llb
llc
lle
ller
lloyd
ln
lo
loan
lobby
loc
local
location
lock
lockdown
locke
lockett
loco
lodge
log
logan
logic
logistics
logo
lohan
lois
lojay
lokoja
lokoya
lola
lolita
lolo
lombard
lome
london
lone
lonely
long
longer
longitude
longman
longomba
look
looked
looking
lookman
looks
loop
loose
lopes
lopez
lopit
lora
lord
lords
lorenzo
lorna
loroupe
lorraine
los
lose
losers
loses
losing
loss
lost
lot
lota
lotfi
lotuko
lotus
lotz
lou
loud
louie
louis
louisa
louise
louisiana
louisville
lounge
louw
love
loved
lovelace
lovell
lovely
lover
lovers
loves
loving
low
lowe
lower
lowes
loyola
lozano
lp
lra
lt
ltd
lu
lua
luambo
luanda
luba
lucas
lucie
lucille
luck
lucky
lucy
ludwig
lugbara
lui
luis
luisa
luke
lulu
lumie
lumumba
luna
lunch
lungu
luo
luru
lusaka
luther
lutheran
luthuli
luton
lutumba
luxembourg
luxury
lyce
lycett
lydia
lyn
lynch
lynn
lynne
lynxxx
lyon
lyric
lyrics
m
ma
maa
maachi
maahi
maapu
maara
maasai
maatu
maay
maazi
mabel
mabiala
maboe
mabunda
mabuza
mac
macaroni
macarthur
macau
macaulay
macbeth
macdonald
macdowell
macedonia
mach
macharia
machi
machibido
machibidoro
machine
machona
mack
mackay
macky
macleod
macmillan
macon
macron
mad
mada
madagascar
madam
madame
made
madeleine
madi
madida
madih
madison
madjozi
madness
madonna
madrid
madu
maduabum
madueke
maduka
mae
mafa
mafia
mag
magazin
magazine
magazines
magburu
magda
magdalena
magee
maggie
maggs
maghi
maghreb
maghrebi
magic
magistrate
magnetic
magnum
magu
magubane
mahadim
mahadu
mahadum
mahaduma
mahama
mahanyele
mahatma
mahdi
maher
mahfouz
mahi
mahlangu
mahmood
mahmoud
maho
mahu
mai
maiden
maiduguri
mail
main
maina
maine
mainland
mainstream
maint
mais
maison
maja
majang
majdi
majekodunmi
majesty
majid
majie
major
majority
mak
maka
makanjuola
make
makeba
maker
makerere
makers
makes
makeup
makhadzi
makhaya
makhuwa
makiadi
making
makinwa
makoko
makoma
maktoub
maku
makun
makurdi
makwa
makwaara
makwara
makwu
mal
malagasy
malaika
malala
malan
malaria
malawi
malawian
malay
malaysia
malcolm
maldives
male
malek
malherbe
mali
malick
malik
malite
maliteghachi
maliteghachiri
malitekwara
malitere
mall
mallam
mallika
malmo
malope
malta
malware
mama
mamadou
mambiloid
mambo
mami
mamie
mamman
man
mana
management
manager
managing
manar
manchester
manchu
mande
mandela
mandindi
mandu
mandy
mane
manga
mangbetu
mango
mangrove
mangwana
manhattan
mani
manifesto
manila
mann
manning
manpower
mansiamina
manso
mansour
manu
manual
manuel
manuscript
many
manya
manye
manyere
manyika
mao
maobu
map
mapinduzi
mapping
maps
maputo
mar
mara
marais
marakwa
maram
marathon
marathons
marble
marc
marcel
march
marchant
marche
marcia
marco
marcos
marcus
mare
margaret
margi
margin
marguerite
mari
maria
mariam
marian
marianne
marie
mariga
marilyn
marin
marina
marine
marino
marinovich
mario
marion
maritime
marjorie
mark
market
marketing
markets
marks
marlene
marley
marlin
marlon
maroc
marocain
maroko
marquis
marrakech
marrakesh
marriage
married
marries
marriott
marry
mars
marseille
marsh
marshal
marshall
mart
martha
martial
martin
martine
martinez
martins
martyrs
marvel
marvin
marx
marxism
marxist
mary
maryam
maryland
mas
masa
masai
masaka
masaya
masculine
masedonia
masekela
maseko
mashinini
masi
masimba
masisi
masiyiwa
mask
masks
mason
masquerade
masquerades
masr
masry
mass
massa
massachusetts
massacre
massey
massive
masta
mastas
master
masterpieces
masters
mata
matara
match
matches
mate
matembe
mater
material
materials
maternal
mathaf
matheba
mathematical
mathematics
mathilde
matilda
matin
matoub
matrix
matt
matter
matters
matthew
matthews
matu
maud
maureen
maurice
mauritania
mauritius
mautloa
maverick
mavin
mavis
mawuli
max
maxim
maximum
maxine
maxwell
may
maya
mayer
mayhew
mayi
mayo
mayor
mayorkun
mayotte
mayowa
mays
mazhar
mazi
mb
mba
mbadamba
mbadiwe
mbaise
mbaka
mbale
mbali
mbanga
mbara
mbarara
mbarga
mbari
mbata
mbatha
mbau
mbc
mbe
mbedu
mbeki
mbelata
mbenza
mberede
mbgn
mbi
mbibi
mbido
mbinye
mbipu
mbiputa
mbo
mbu
mbubata
mbubreyo
mbufe
mbughari
mbugua
mbuli
mbum
mbunobi
mbupu
mbuso
mbuze
mc
mcarthur
mcbrown
mccain
mccall
mccann
mccarthy
mccartney
mccreedy
mcdonald
mcewen
mcfarland
mcgee
mcgill
mcgraw
mcgregor
mchunu
mciver
mckay
mckenzie
mcneill
mcnulty
mcvey
md
mdash
mdc
mdi
me
meadows
mean
meaning
means
measures
meat
meawad
mebere
mebie
mebiri
mec
mecca
mecha
mechaa
mechakwara
mechanical
mechanics
mechara
mechie
mechiri
med
medal
medals
medea
media
medical
medicine
medien
medina
mediterenian
mediterranean
medium
mee
meek
meela
meer
meere
meet
meeting
meetings
meets
mefuru
meg
mega
megan
meghachi
meghan
meghari
meghee
meghere
meghi
megide
megidere
mehdi
mehiere
meji
mejo
mejupu
mejuputa
mejuputara
meka
mekky
meko
mekwara
mel
melanie
melbourne
melinda
melissa
melite
mellon
melody
melville
melvin
member
members
meme
memoir
memoirs
memorial
memoriam
memories
memory
memphis
men
mena
mende
mendel
mendes
mendoza
mendy
menelik
mensah
mental
menti
mention
mentor
mentu
menu
menzi
mepee
mepere
mepu
mer
mercedes
mercer
merchant
mercury
mercy
mere
meredith
merenu
meri
merie
meriem
merikwara
meriri
merit
merkel
merriam
merry
merton
meru
merwe
mes
meseret
mesi
mesie
mesiri
mesoo
message
messages
messenger
met
meta
metal
meters
methane
method
methodist
methods
metmuseum
meto
metres
metro
metropolis
metropolitan
metta
metu
metuh
metz
meurer
meworo
mexico
meyer
meyers
mezie
mezighari
meziwanye
meziwanyere
mezue
mezuo
mezuru
mfa
mfe
mfr
mfu
mg
mgba
mgbaa
mgbaaka
mgbaasi
mgbaba
mgbada
mgbagha
mgbaghara
mgbaghari
mgbago
mgbagwoju
mgbaka
mgbakasi
mgbake
mgbako
mgbakwunye
mgbali
mgbanaka
mgbanwe
mgbapu
mgbaru
mgbasa
mgbasawanye
mgbati
mgbawa
mgbazinye
mgbe
mgbede
mgbei
mgbere
mgbi
mgbidi
mgbo
mgbochi
mgbu
mgbukpo
mgudlandlu
mhlophe
mi
mia
miami
mic
michael
michaela
michaelis
miche
micheal
michel
michele
michelle
michigan
michika
micro
microbiology
microsoft
mid
middle
middlesex
midfielder
midia
midlands
midnight
midwest
mie
mifflin
might
mighty
migrant
migrants
migration
miguel
mikano
mike
mikel
mikpuru
mila
milan
milano
mildred
mile
miles
military
milk
mill
mille
millennium
miller
millet
millicent
million
millionaire
millions
mills
millwall
milton
milwaukee
mimi
mimiko
min
mina
minaj
mind
minds
mine
mineral
minerva
mines
ming
mini
minine
mining
miniseries
minista
minister
ministerial
ministers
ministre
ministri
ministries
ministry
minna
minneapolis
minnesota
minnie
minor
minorities
minority
minsk
mint
minter
minute
minutes
miracle
miracles
mirage
miranda
miri
miria
miriam
mirror
misho
miss
missing
mission
missionary
missions
mississippi
missouri
mit
mita
mitch
mitchell
miti
mitii
mitzi
mix
mixed
mixtape
mixtapes
mizrahi
mk
mkhize
mko
mkpa
mkpagbu
mkpako
mkpali
mkpanaaka
mkpanaka
mkpara
mkpari
mkparita
mkpasu
mkpebi
mkpeghari
mkpesa
mkpi
mkpirikpi
mkpirisi
mkpo
mkpochapu
mkpofu
mkpoko
mkpoputa
mkpu
mkpuchi
mkpughe
mkpuru
mkwem
mlambo
mls
mm
mma
mmachi
mmachibido
mmado
mmadu
mmalite
mmanu
mmanwu
mmanya
mmanye
mmasi
mmata
mmd
mme
mmebe
mmebi
mmechi
mmechuihu
mmefu
mmega
mmegbu
mmeghachi
mmeghari
mmeghe
mmegide
mmegwara
mmehie
mmejo
mmejuputa
mmeka
mmeko
mmekorita
mmekpa
mmelite
mmeme
mmemme
mmepe
mmepeanya
mmepu
mmeputa
mmeputakwa
mmeri
mmeru
mmesapu
mmesi
mmeso
mmeto
mmetu
mmezi
mmezighari
mmezu
mmi
mmiri
mmu
mmuo
mmuta
mn
mnangagwa
mnet
mntambo
mo
mob
mobil
mobile
mobility
mobo
mobolaji
mobutu
moca
mode
model
models
modern
moderna
moderne
modernghana
modernism
modernist
modernity
modise
modiselle
modjaji
module
modupe
modupeola
moet
mofe
mofokeng
mofu
mogadishu
mogaji
mohamed
mohammad
mohammed
mohombi
moi
moin
moines
moire
mojo
mokgoro
mokgosi
mokhtar
molara
moldova
molecular
molly
molo
moloi
moloney
molteno
mom
moma
mombasa
moment
moments
momo
momoh
mon
mona
monaco
monako
monalisa
monarch
moncef
monday
monde
monetary
money
mongol
mongolia
mongolian
monica
monique
monitor
monitoring
monk
monkey
monologues
monorail
monroe
monrovia
monster
montana
montclair
monte
montenegro
montessori
montgomery
month
monthly
months
montpellier
montre
montreal
monu
monument
monuments
moody
moon
moonchild
moonlight
moor
moore
moosa
mopane
moral
mordi
more
moremi
moreno
morgan
morio
mormon
morning
moroccan
morocco
morogoro
morphology
morrie
morris
morrison
morse
morsi
mort
mortality
mortgage
morton
mosai
mosaic
moscow
mose
moses
moshood
mosia
mosley
mosque
moss
most
mostafa
mostert
mostly
mother
motherhood
mothers
motherwell
motion
motlhalo
moto
motor
motors
motown
motsepe
motswana
moufida
mouna
mounir
mount
mountain
mourad
mourns
mouse
moussa
mouth
moutoussamy
move
moved
movement
movements
moves
movie
movies
moving
moyo
mozambican
mozambik
mozambique
mozis
mp
mpaghara
mpako
mpe
mpempe
mpi
mpl
mposi
mps
mpu
mpumalanga
mputa
mr
mrad
mrs
ms
msa
msc
mselmani
msimang
msn
mt
mthethwa
mtn
mtv
mu
mubarak
mubi
much
mugabe
mugabi
muhammad
muhammadu
muhammed
muir
mujeres
mujuru
mukami
mukarama
mukomberanwa
mukono
mulder
mulkeen
multi
multichoice
multimedia
multiple
mum
muma
mumbai
mumbi
mummy
mun
muna
mund
mundi
mundo
munich
municipal
municipality
munist
munya
munyaradzi
mupi
mural
murals
murder
murdered
murle
murphy
murray
mursi
murtala
muru
musa
muse
museo
museum
museums
museveni
mushin
music
musica
musical
musician
musicians
musique
muslim
muslims
muson
must
mustafa
mustapha
mustard
mutharika
muthoni
mutilation
mutu
mutual
mutualart
mutuma
muvhango
muyika
muyiwa
muzik
mvp
mvusi
mw
mwakpo
mwangi
mwanza
mwashinga
mwe
mweghachi
mwepu
mwu
mwute
my
myanmar
myers
myiri
myjoyonline
myra
myself
myspace
mystery
mystic
myth
myths
mzansi
mzee
n
na
naa
naacp
naani
nabata
nabatara
nabil
nachtwey
nacional
nada
nader
nadi
nadia
nadine
nady
naeto
nafaanra
nafo
naghi
nagide
naguib
nagy
nahu
nai
naia
naigeria
naij
naija
naijaloaded
naijeria
naijiri
naijiria
naijiriya
naima
nair
naira
nairametrics
nairobi
nakai
nakate
naked
nako
nakwa
nakwazi
nakweere
nakwere
nal
nala
naledi
nam
nama
namayanja
nambooze
name
named
names
namibia
namibian
namur
nan
nana
nancy
nandi
nani
nantes
nanya
naomi
naouret
napoleon
napoli
naptip
napu
nara
narain
narcisse
nard
nari
narrative
narratives
narrow
nas
nasa
nasarawa
nash
nashville
nasir
nasr
nasrallah
nasreddine
nass
nassau
nasser
nasty
nat
nata
natakwara
natal
natala
natalia
natalie
natara
natasha
nathan
nathaniel
nation
national
nationale
nationalism
nationalist
nationality
nations
native
nato
natural
nature
nau
naval
navy
nawal
naya
naza
nazi
nb
nba
nbc
nbibi
nbudata
nc
ncaa
nce
ncf
ncha
nchara
nche
nchebe
nchedo
nchegbu
nchekasi
nchekwa
nchekwube
nchen
ncheta
nchi
nchikota
ncho
nchoputa
nchu
ncipe
ncnc
ncuti
nd
nda
ndaba
ndabara
ndabere
ndagwurugwu
ndakpo
ndandarika
ndani
ndanitv
ndc
nddc
nde
ndebanye
ndebe
ndebele
ndeko
ndenye
ndepu
ndetu
ndewo
ndez
ndezi
ndezighari
ndi
ndia
ndiaye
ndibe
ndida
ndidi
ndina
ndiri
ndlovu
ndo
ndokwa
ndombe
ndoro
ndozi
ndozighari
ndp
ndri
ndu
nduka
ndukwe
nduzi
ne
nea
neal
neale
near
nearly
nebanda
nebbi
nebraska
nec
necessary
ned
nee
need
needed
needs
negash
negative
negro
negroes
nehme
neighborhood
neil
neill
nel
nelly
nelson
nema
nene
nengi
neo
nepal
neptune
nest
nestle
net
netball
netflix
netherlands
neto
netwerk
netwo
network
networks
neue
nevada
never
neville
new
newark
newcastle
newcomer
newest
newly
newman
newport
news
newsboys
newsday
newsletter
newspaper
newspapers
newswatch
newsweek
newton
newvision
newzimbabwe
nexim
next
nexus
nezha
nff
nfl
nft
ng
nga
ngafe
ngaghari
ngahari
ngaji
ngalaba
nganga
ngbanwe
ngcobo
ngema
ngho
ngizim
ngn
ngo
ngos
ngosi
ngosipu
ngosiputa
ngozi
ngu
ngubane
ngugi
nguni
nguzo
nguzobe
nguzogide
nguzozi
ngwa
ngwaa
ngwaahi
ngwaike
ngwako
ngwanro
ngwao
ngwe
ngwo
ngwongwo
ngwu
ngwugwu
ngwuputa
nh
nha
nhata
nhatanha
nhazi
nhazighari
nhicha
nho
nhoputa
nhota
nhu
ni
nia
nicaragua
nice
niche
nicholas
nichols
nicholson
nick
nickelodeon
nicki
nicky
nico
nicola
nicolas
nicole
nie
nielsen
nig
nigel
niger
nigeria
nigeriafilms
nigeriagalleria
nigerian
nigerians
nigerien
night
nightingale
nightmare
nights
nih
nihi
nihu
nii
niile
nijiria
nik
nike
niki
nikita
nikki
nile
nilo
nilotic
nime
nimo
nin
nina
ninalowo
nine
nineteenth
ningxia
niniola
nio
nipost
nira
niru
nite
nitrogen
nixon
niyi
nj
njaba
njaki
nje
njedebe
njeghari
njehie
njem
njerep
njide
njideka
njikere
njiko
njikota
njikwa
njiri
njirimara
njo
njoku
njoroge
nju
njupu
nk
nka
nkabinde
nkanga
nkanu
nkasi
nkata
nkato
nke
nkea
nkebi
nkebiokwu
nkechi
nkedo
nkeji
nkeko
nkem
nkemdilim
nkenke
nkenu
nkeo
nkeonwe
nkesa
nketa
nkewa
nkezi
nki
nkiri
nkiru
nko
nkoropu
nkosi
nkowa
nkowaaha
nkowaha
nkpuchi
nkrumah
nku
nkuchi
nkuku
nkume
nkuzi
nkwa
nkwadebe
nkwado
nkwaghari
nkwago
nkwako
nkwalite
nkwanye
nkwari
nkwaru
nkweko
nkwenkwe
nkwenye
nkwo
nkwobi
nkwonkwo
nkwu
nkwubi
nkwuchite
nkwuko
nkwupu
nkwuputa
nkwuri
nkwusa
nkwuto
nkwuwa
nl
nla
nlaghachi
nlc
nle
nleba
nlebanya
nlebara
nleda
nledo
nleghari
nleko
nlekota
nlele
nleli
nlere
nlereanya
nleta
nlezianya
nlist
nlo
nloghachi
nm
nma
nmva
nn
nna
nnabata
nnaemeka
nnaji
nnam
nnamdi
nnapu
nnata
nne
nneka
nnem
nnenna
nnewi
nno
nnochite
nnpc
nnu
nnukwu
nnupu
nnwale
nnwere
nnweta
nnyefe
nnyocha
no
noa
noaa
noah
noam
nobel
noble
nobody
nobs
noe
noel
nog
noho
noir
noire
noise
nok
nollywood
nolte
nom
noma
nomcebo
nominated
nomination
nominations
nominee
nominees
non
none
nonfiction
noni
nonkilling
nonso
nonviolence
nonviolent
noor
nor
nora
nord
norden
nordic
norfolk
normal
norman
norris
north
northeast
northeastern
northern
northwest
northwestern
nortmann
norton
norway
norwe
norwegian
norwich
nos
nosa
not
notable
note
notelist
notes
nothing
notice
notjustok
notorious
notre
nottingham
nouah
noue
noun
nour
noura
noureddine
nouri
nous
nouveau
nouvelle
nouvelles
nouvelliste
nov
nova
novel
novelist
novels
novemba
november
novia
novo
now
npa
npfl
npr
nr
nraranye
nrc
nri
nrigbu
nrita
nrite
nrm
nro
nru
nrubeisi
nse
nsehe
nsi
nsibidi
nsit
nso
nsogbu
nsonaazu
nsonye
nsu
nsukka
nt
nta
ntabi
ntachi
ntaki
ntakiri
ntakti
ntanet
ntaneti
ntaramahu
ntecha
nther
nti
ntinent
ntinye
ntiwapu
nto
ntolite
ntombela
ntorobi
ntorobia
ntozu
ntshaba
ntsoma
ntu
ntughari
ntule
ntuli
ntuliaka
nturu
ntutu
ntuziaka
ntv
nu
nuc
nuche
nuclear
nude
nuer
nuhu
nuit
nuklia
number
numbers
nunn
nup
nupe
nupedia
nur
nurse
nursery
nursing
nut
nutrition
nw
nwa
nwaa
nwaafo
nwaanyi
nwabueze
nwachukwu
nwada
nwadike
nwadiogbu
nwafo
nwafor
nwale
nwalee
nwalere
nwamba
nwankwo
nwanna
nwanne
nwanoku
nwanyeruwa
nwanyi
nwaogu
nwapa
nwara
nwari
nwata
nwataki
nwaubani
nwayi
nwayo
nwe
nwebiisinka
nwebisiinka
nwee
nweekwa
nweela
nweere
nweghi
nweko
nwekwa
nwekwara
nwekwuo
nwelue
nwepu
nwere
nwesi
nweta
nwetaghachi
nwetaghi
nwetagoro
nwetakwa
nwetakwara
nwetala
nwetara
nwetasi
nwete
nwetere
nwetu
nwfl
nwogu
nwoke
nwoko
nwokolo
nwokoye
nwosu
nwsl
nwu
nwunye
nwuru
nwute
nxumalo
ny
nya
nyaahu
nyamayaro
nyanga
nyanhongo
nyarko
nyc
nye
nyeere
nyefe
nyefee
nyefere
nyeghi
nyekari
nyekwa
nyekwara
nyela
nyembe
nyere
nyi
nyiwe
nyo
nyocha
nyochaa
nyochachara
nyochara
nyong
nyovest
nyra
nysc
nyt
nytimes
nyu
nz
nzacha
nzaghachi
nze
nzebo
nzekwu
nzeogwu
nzere
nzeribe
nzewi
nziko
nzipu
nzo
nzu
nzube
nzuko
nzuzo
nzuzu
o
oa
oak
oakland
oando
oap
oasis
oath
oau
ob
oba
obafemi
obaigbena
obalende
obama
obasanjo
obaseki
obasi
obe
obere
obi
obiageli
obiano
obianuju
obibi
obie
obikwelu
obilade
obinna
obio
obiora
obiri
obit
obituary
object
objects
obodo
obodoe
oboh
oboli
obolo
obong
obosara
obosi
obote
observatory
observer
obstetrics
obu
obudu
obula
oburu
oby
oc
ocean
oceania
oceanic
ocha
oche
ocheeze
ochi
ochichi
ochie
oclc
oct
october
od
oda
odds
ode
odeaku
odeakwu
odee
odera
odi
odibo
odida
odide
odili
odita
odo
odofin
odogwu
odoh
odu
oduah
oduduru
odukoya
odumegwu
odumeje
odunayo
odunlade
odunsi
odutola
oduwole
odyssey
oecd
of
ofada
ofala
ofe
ofesi
off
offer
offered
offers
office
officer
officers
offices
official
officially
officials
offor
ofo
ofr
often
ofu
ofufe
ofufo
ofuma
og
oga
ogba
ogbako
ogbe
ogbenye
ogbi
ogbo
ogboh
ogbonna
ogbono
ogbu
ogbugbo
ogbugbu
ogbunigwe
oge
ogedegbe
ogene
oghe
oghere
ogho
ogi
ogidi
ogige
ogo
ogoja
ogologo
ogu
ogugu
oguibe
ogun
ogunbanwo
ogunbiyi
ogundipe
ogunlesi
ogunlewe
ogunmola
ogunro
ogunsanya
ogunseitan
ogunyemi
oguta
ogwashi
ogwe
ogwu
ogwumike
oh
oha
ohafia
ohchr
ohere
ohi
ohia
ohio
ohu
ohuhu
ohuru
oil
ois
oise
oja
ojeikere
oji
ojih
ojii
ojiji
ojo
ojoo
ojoto
ojude
ojuju
ojukwu
ok
oka
okacha
okachamara
okada
okafor
okagbare
okagbue
okanlawon
okaro
okay
okayafrica
oke
okechukwu
okediji
okeke
okeleji
okenye
okere
okereke
okey
okhai
okigbo
okigwe
okike
okine
okirikiri
oklahoma
oko
okocha
okoh
okojie
okoli
okolie
okolo
okomoko
okon
okonjo
okonkwo
okooko
okorie
okoro
okorobi
okorocha
okoronkwo
okowa
okoye
okpa
okpala
okpalaeke
okpaleke
okpara
okpe
okpete
okpo
okpokoro
okpomo
okpomoku
okporo
okpu
okpueze
okpukpe
okpukpere
okpukperechi
okpukpu
okpuru
okra
okrika
oktoba
oku
okuku
okuma
okundaye
okunna
okwa
okwu
okwuchukwu
okwui
okwukwe
okwute
ol
ola
olabisi
oladapo
oladele
oladipo
olaitan
olaiya
olajumoke
olajuwon
olalekan
olamide
olaniyan
olanrewaju
olatunji
olawale
olayinka
old
older
ole
olee
oleh
oleracea
olga
olile
olileanya
olili
olimpia
olimpik
olisa
olisakwe
oliseh
olita
oliv
olive
oliver
olivia
olivier
olofin
oloko
olokun
olomide
olonisakin
olori
olowo
olowofoyeku
olowu
olsen
olson
olu
oluchi
olufemi
olufunke
olulu
olumba
olumide
olunloyo
oluo
oluronbi
olusegun
olusola
olusona
oluwa
oluwaseun
oluwashina
oluwatoyin
oluwole
olympedia
olympia
olympic
olympics
olympik
om
oma
omaboe
omagbemi
omah
omaha
omalicha
oman
omar
omawumi
ombale
ome
omebe
omee
omega
omeili
omeiwu
omekome
omekorita
omempu
omenaala
omenala
omenka
omere
omi
omimi
omnibus
omo
omokri
omolara
omololu
omoni
omoniyi
omori
omos
omotayo
omotic
omotola
omotoso
omowunmi
omoyele
omoyemi
omu
omuma
omume
omumu
on
ona
onabanjo
onabolu
onayemi
onazi
once
onchocerciasis
ondo
one
ones
ongota
oni
onicha
onikan
oniru
onitsha
onli
online
onlinenigeria
only
ono
onobello
onobrakpeya
onodu
onoh
onome
ons
ontario
onu
onuoha
onuorah
onuzo
onwa
onwe
onweghi
onwere
onwetara
onwu
onwude
onwuka
onwuliri
onwunwe
onwurah
onyango
onye
onyeabor
onyeama
onyebuchi
onyeikpe
onyeisi
onyeisiala
onyeka
onyekwere
onyenokwe
onyenwe
onyinye
onyinyechi
onyinyo
onyo
onyonyo
onyoo
oo
oon
ooni
oor
oosterbroek
op
opara
oparanozie
opekata
open
opening
opens
opera
operation
operations
opetum
opeyemi
ophthalmology
opi
opinion
opobo
opoku
oppenheimer
opportunities
opportunity
opposite
opposition
oprah
option
opupu
oq
or
ora
oracle
oral
oran
orange
orchestra
orchestre
orchid
orchids
ordega
order
orders
ordinary
ordre
ore
oregon
orelope
oreoluwa
orford
org
organ
organic
organisation
organization
organizations
organized
ori
oria
oriaku
orie
orient
oriental
orientation
origin
original
originally
origins
orio
oriri
orisaguna
orizu
orji
orlando
orleans
orlu
oro
oroma
oromo
oron
orphans
orthography
oru
os
osa
osadebe
osagie
osaka
osakwe
osas
osasco
osazuwa
osborne
oscar
oscars
ose
osei
oshin
oshinowo
oshoala
oshodi
oshogbo
oshun
osi
osifo
osigwe
osikapa
osimhen
osimiri
osinachi
osinbajo
osise
osisi
osisioma
osita
oslo
osman
oso
osogbo
osote
ossai
ostraliya
ostriker
osu
osun
osunde
osupa
ota
otedola
oteh
othello
other
others
oti
otii
otis
oto
ottawa
otto
ottoman
otu
otukpo
otulu
otunba
otuto
otutu
ou
ouagadougou
ouattara
oud
oue
ouma
oup
our
ousmane
out
outdoor
outlook
output
outside
outsider
outstanding
over
overall
overseas
overview
ovia
owa
owanto
owe
owen
owens
owere
owerri
own
owner
owo
owogram
owoh
owu
owusu
owuwa
owuwe
owuwu
oxfam
oxford
oxlade
oxytocin
oya
oye
oyebade
oyedepo
oyekan
oyelami
oyeleke
oyelowo
oyetoro
oyetunde
oyeyemi
oyi
oyibo
oyingbo
oyiyi
oyo
oyoyo
oz
ozalla
ozara
ozi
ozio
ozioma
ozizi
ozo
ozokwor
ozolua
ozoma
ozor
ozu
ozugbo
ozuru
ozuzo
ozuzu
p
pa
paa
paarl
pablo
pac
pace
pacenti
pacific
pacifism
pacifist
pack
package
packer
page
pageant
pages
pai
paid
paige
pain
paint
painted
painter
painters
painting
paintings
paints
pakistan
pakistani
palace
palais
palatal
palazzo
palermo
palestine
palestinian
palette
palgrave
palm
palmas
palmer
pals
pam
pambazuka
pamela
pan
panafrican
panama
pandemic
pandey
pandora
panel
panic
panorama
panther
panthers
paolo
pap
papa
pape
paper
paperback
papers
papua
par
para
paradai
parade
paradigm
paradise
paradox
paragraf
paraguay
paralympic
paralympics
parameters
paramount
parent
parenthood
parenting
parents
paris
parish
park
parker
parkinson
parks
parliament
parliamentary
parser
parsons
part
participation
parties
partly
partner
partners
partnership
parton
parts
party
pas
pascal
pasent
pasenti
paso
paspo
pass
passage
passe
passed
passes
passing
passion
past
paste
pastel
pasto
pastor
pasuma
pat
patch
patel
patent
patents
paterson
path
pathology
pati
patience
patients
patoranking
patrice
patricia
patrick
patriot
patriotic
patron
patta
patterns
patterson
patti
patton
paul
paula
pauline
paulo
pavilion
paw
pawpaw
pay
payne
pays
paz
pbs
pc
pd
pdf
pdp
pe
peabody
peace
peacefmonline
peacock
peak
peanut
pearce
pearl
pearson
peaty
peckover
pedersen
pediatrics
pedro
peeji
peer
peggy
peju
pele
pelican
peltier
pemba
pen
penal
penalties
penalty
pencil
pendleton
peng
penguin
peninsula
penn
pennock
pennsylvania
penny
pens
pension
pensu
pentagon
pentiko
people
peoples
pepe
pepper
pepsi
per
percent
perception
percy
pere
pereira
perez
perfect
perform
performance
performances
performing
performs
peri
pericoma
period
perkins
permanent
perry
pers
persian
person
personal
personalities
personality
personnes
persons
perspective
perspectives
peru
peruzzi
peshia
pet
peta
petals
pete
peter
peters
petersburg
peterson
petit
petite
petition
petroleum
pettway
pew
pez
pf
pfa
pg
ph
phaidon
phane
pharmaceutical
pharmacy
phase
phd
phe
pheelz
phelps
phenomenon
phi
phil
philadelphia
philanthropist
philanthropy
philip
philippe
philippine
philippines
philips
phillip
phillips
phillis
philly
philosophy
phipps
phiri
phoenix
phone
phonographique
phonology
photo
photograph
photographer
photographers
photographic
photographie
photographs
photography
photos
php
phuthi
phyllis
phyno
physical
physicians
physics
physiology
pi
pianist
piano
pic
picasso
pick
picks
picture
pictures
pidgin
pie
piece
pieces
pienaar
pierce
pierneef
pierre
piet
pieter
pietermaritzburg
pigozzi
pilgrim
pilot
pimps
pin
pindula
pine
pink
pinkett
pinson
pinterest
pinyin
pioneer
pioneering
pioneers
pipe
pipeline
piper
pippin
pirates
pirg
pistis
pistorius
pita
pitch
pitchfork
pitt
pittman
pittsburgh
pius
pj
pl
place
placements
places
plagiarism
plain
plains
plan
plane
planet
planned
planning
plans
plant
plantain
plantation
plants
plaque
plastic
plastik
plate
plateau
platform
platinum
platnumz
plato
platoid
platt
play
playbill
playboy
played
player
players
playhouse
playing
plays
playwright
plaza
plc
plea
please
pleasure
pledge
plenty
plessis
plos
plot
plum
plummer
plumptre
plural
plus
plymouth
pm
pmid
pml
pmnewsnigeria
png
po
pocket
pocock
podcast
podcasts
poe
poem
poems
poet
poetic
poetics
poetry
poets
point
points
poirot
poison
pol
poland
pole
polese
police
policies
policy
polish
political
politician
politicians
politics
politicsweb
politique
polk
poll
pollard
pollen
pollock
polls
pollution
polly
polo
poly
polytechnic
polytechnics
pompidou
pongo
pool
poonam
poor
pop
pope
popoola
poppy
popu
popular
population
por
porn
porridge
port
portal
porter
portfolio
portfolios
portia
portland
porto
portrait
portraits
portraiture
ports
portsmouth
portugal
portuguese
pos
position
positions
positive
possible
post
postal
postcolonial
postdoctoral
poster
posters
postgraduate
posts
pot
potash
potato
potchefstroom
potential
poteto
potgieter
potiskum
potter
pou
pound
pour
poverty
powell
power
powerful
powerlifting
powerlist
powers
pp
ppe
pr
practical
practice
practices
practitioners
pradesh
pradhan
prague
prai
prairie
praise
praiz
prajwala
pratt
pray
prayer
prc
pre
preacher
precious
prefecture
prefix
prefixes
prefontaine
pregnancy
pregnant
preliminary
premie
premier
premiere
premieres
premio
premium
premiumtimesng
preparatory
prepare
prepared
presbyterian
presence
present
presentation
presented
presenter
presents
preservation
presidency
president
presidential
presidents
presley
press
presse
presses
pressreader
pressure
prestige
prestigious
preston
pretoria
pretorius
pretty
prevent
prevention
preview
previous
pri
price
pride
priest
primaries
primary
primavera
prime
primer
primera
primetime
prince
princess
princeton
princewill
principal
principles
prinsloo
print
printed
printing
printmaking
prints
prior
priority
priscilla
prison
prisoner
prisoners
privacy
private
prix
prize
prizes
pro
probably
probe
problem
problems
proceedings
process
processes
processing
proctor
prod
produce
produced
producer
producers
producing
product
production
productions
products
prof
profai
profession
professional
professionals
professor
profile
profiles
profit
program
programme
programmes
programs
progress
progressive
progressives
prohibition
project
projection
projects
prometheus
prominent
promise
promises
promising
promote
promotes
promoting
promotion
promotions
pronunciation
proof
properties
property
prophet
proquest
prose
prospect
prospects
prostitution
protect
protecting
protection
protectorate
protein
protest
protestant
protesters
protests
proto
protocol
proud
provide
provided
providence
province
provinces
provincial
provost
ps
pseudonym
psychiatric
psychiatry
psychological
psychology
pt
pta
pty
pu
pub
public
publication
publications
publicity
publique
published
publisher
publishers
publishing
pudding
puerto
puff
puku
pulitzer
pulp
pulse
pumpkin
punch
punchng
punishment
punjab
punk
puntland
purchase
purdue
pure
purple
purpose
pursuit
puru
pusey
push
put
puta
putara
putin
puts
putting
pwc
px
pygmy
pyramid
python
q
qamar
qatar
qc
qin
qing
qinghai
qingming
qpr
qu
quadre
quaker
qualification
qualifier
qualifiers
qualifying
quality
quantum
quarshie
quarter
quarterly
quarters
quartet
quartier
quartz
quatre
que
quebec
queen
queens
queensland
queer
quest
question
questions
qui
quick
quiet
quilt
quilters
quilting
quilts
quincy
quinn
quist
quit
quits
quot
quotations
quote
quoted
quotes
r
ra
raara
rabai
rabat
rabbi
rabbit
rabiu
race
races
rachael
racheal
rachel
rachid
racial
racing
racism
rada
radar
radcliffe
radical
radio
rae
rafael
raffia
rafia
rafiki
rag
rage
raging
rahama
rahman
rai
raiders
rail
railroad
railway
raimi
rain
rainbow
raise
raises
raising
raj
raja
raji
rak
raleigh
rally
ralph
ram
rama
ramadan
ramaphosa
ramdane
rammellzee
ramos
ramsey
ramy
ramzy
ran
rand
randall
randolph
random
randy
range
rangers
ranked
rankin
ranking
rankings
ranks
rano
ranodu
ransi
ransome
rap
rapa
rapara
rape
raphael
rapid
rapids
rapper
rappers
rappler
rapport
rara
rare
ras
rasheeda
rashid
rashidi
rate
rated
ratification
ratings
ration
rattlesnake
rave
raw
ray
raymond
rc
rd
rdc
re
reach
reaches
react
reacts
read
reader
readers
reading
ready
reagan
real
realism
reality
really
reason
reasons
rebai
rebecca
rebel
rebellion
rebels
rebounds
rec
receive
received
receives
recent
recherche
recipe
recipes
recipient
recipients
recognition
recognized
reconciliation
reconstruction
reconstructions
record
recorded
recording
recordings
records
recovery
recreation
rector
red
reddy
redemption
redgrave
redi
redio
redirect
redmon
redone
ree
reed
reekado
reel
rees
reeves
ref
reference
references
refinery
reflect
reflection
reflections
reflects
reform
refs
refugee
refugees
refuse
refworld
regard
regarding
reggae
reggie
regime
regiment
regina
reginald
region
regional
regions
register
registration
registry
regragui
regret
regula
regular
regulation
reich
reid
reign
reilly
reinvented
reisman
reject
rejects
rel
related
relations
relationship
relationships
relay
relays
rele
release
released
releases
relevant
reliable
relief
religion
religions
religious
reloaded
rema
remain
remains
remake
remember
remembered
remembering
remembrance
remi
reminisce
remix
remixes
remo
remove
removed
renaissance
rence
rencontres
rene
renee
renewable
renewal
renowned
rensburg
rentmeister
rep
repeat
repertory
replace
replaces
report
reported
reporter
reporters
reporting
reports
represent
representation
representative
representatives
representing
reproductive
reps
republic
republican
request
required
rere
res
rescue
rescued
research
researchgate
reserve
reshuffle
reshuffles
resi
residence
residency
resident
residents
resigns
resilience
resilient
resistance
resisters
resolution
resort
resource
resources
respect
respond
response
responses
responsibility
rest
restaurant
restoration
result
results
resume
retail
rethinking
retirement
retires
retreat
retrieved
retrievin
retrospective
return
returning
returns
reuben
reunion
reuters
rev
reveal
revealed
reveals
revenge
revenue
reverend
reverse
review
reviews
revised
revisited
revival
revolt
revolution
revolutionary
revue
rex
rexxie
rey
reynolds
rez
reza
rfi
rgen
rhoda
rhode
rhodes
rhodesia
rhodesian
rhona
rhonda
rhs
rhymes
rhythm
rhythms
ri
ria
riaa
riaad
ric
rica
rican
ricardo
rice
rich
richard
richards
richardson
richest
richmond
rick
ricky
rico
ride
ridge
ridim
ridley
rie
rien
rieure
rif
rift
riggs
right
rights
rihanna
riley
rim
ring
rings
rio
riot
rip
ripples
riri
rise
rises
risi
rising
risk
risks
rita
ritchie
rite
ritekwara
ritere
ritual
riva
river
rivers
riverside
rk
ro
road
roads
roast
rob
roba
robben
robbins
robert
roberta
roberto
roberts
robertson
robeson
robin
robinson
robot
robotics
roc
rochas
rochelle
rochereau
rochester
rock
rockefeller
rocks
rocky
rodney
rodriguez
roe
roger
rogers
roi
rok
roland
role
roles
roll
rolling
rom
roma
roman
romance
romani
romania
romanian
romano
romantic
romare
romdhane
rome
romeo
ron
ronald
ronke
ronnie
rookie
room
roosevelt
root
roots
rosa
rosaline
rosary
rose
roseline
rosemary
rosen
rosenberg
roses
rosette
rosie
ross
roster
rotary
roth
rotimi
rotten
rotterdam
rouge
rough
round
roundtable
rousseau
route
routes
routledge
roux
rovers
row
rowman
rowspan
roy
royal
royalty
rs
rsssf
rt
rtd
rtp
ru
rubin
ruby
rudolf
rue
rufai
rugby
rughi
rule
rules
ruley
ruling
rumba
run
runner
running
runs
runtown
runway
ruo
rural
ruru
rush
rusk
rusks
russell
russia
russian
rustenburg
rute
rutere
rutgers
ruth
ruuru
rwanda
rwandan
ryan
s
sa
saa
saad
saar
saatchi
saba
sabah
sabc
saber
sabri
sabry
sacha
sachs
sack
sacked
sacks
sacramento
sacred
sad
sadat
sadau
saddle
sade
sadik
sadio
sadiq
saeed
safaa
safari
safe
safety
safia
safiya
safta
saftas
sag
saga
sage
sagini
sahara
saharan
saheed
sahel
sahhara
sahistory
saho
sahrawi
sai
said
sails
saint
saints
sala
salaam
salad
salah
salam
salami
salaudeen
sale
saleh
salem
sales
salisbury
sall
salle
sally
salma
salon
salsa
salt
salvador
salzburg
sam
sama
samantha
samba
sambo
same
sami
samia
samir
samira
sammy
samosa
samosas
sampaolo
sampler
sampson
samson
samsung
samuel
san
sana
sanaa
sanctions
sand
sanda
sanders
sandler
sandra
sandton
sandwich
sandy
sanelly
sanford
sang
sanger
sango
sani
sanitation
sanlam
sanni
sans
santa
santana
santiago
santos
sanusi
sanwo
sao
sapele
sapphire
sar
sara
sarafina
sarah
sarajevo
saraki
sarasota
sargent
sarkodie
saro
sarpong
sarr
sars
sartre
sarz
sash
sasha
sasol
sat
satellite
sati
satin
satire
satirical
sato
saturday
sau
sauce
saudi
saul
saunders
sausage
sava
savage
savanna
savannah
save
saved
saving
savings
saw
sawyer
saxophone
say
sayed
sayensi
saying
says
sb
sc
scale
scandal
scandinavia
scarecrow
sce
scene
scenes
scha
schadeberg
schedule
scheme
schimke
schmidt
schnapp
schneider
schoenmaker
scholar
scholars
scholarship
scholarships
scholtz
schomburg
school
schools
schreiner
schreuders
schro
schuster
schwartz
sci
science
sciences
scientific
scientist
scientists
scoop
scoops
scope
score
scores
scotland
scotsman
scott
scottish
scout
scream
screen
screening
screenplay
screenprint
screens
scribd
script
sculptor
sculptors
sculpture
sculptures
sd
sdg
sdp
se
sea
seal
seals
sealy
sean
search
searle
season
seasons
seat
seats
seattle
sebastian
sebert
sec
second
secondary
secret
secretariat
secretary
secrets
section
sector
secular
secure
securities
security
sedira
sedrick
see
seed
seeds
seeing
seek
seeks
seen
sees
segil
segun
segunda
seif
sekai
sekit
seko
sekondiri
sekondri
sekoto
selasi
selassie
selby
select
selected
selection
self
selim
selina
sell
seller
selling
selma
seme
semi
seminar
seminary
semitic
semolina
sen
senate
senator
senatorial
senators
senbanjo
senchiri
send
sends
senegal
senegalese
senghor
sengstacke
senior
sensation
sense
sent
sentenced
senti
sentimita
sentinel
senufo
seo
seoul
sep
sept
septemba
september
sequel
ser
sera
serbia
sere
serge
sergeant
serial
serie
series
seriki
serious
seriously
serpent
serpentine
serve
served
serves
service
services
serving
ses
sesame
sesan
sesotho
session
sessions
set
seth
seti
sets
setswana
setting
settlement
settlements
seun
seven
seventh
several
seville
sex
sexiest
sexual
sexuality
sexually
sexy
seychelles
seydou
seyi
sf
sfenj
sfmoma
sg
sh
sha
shaaban
shabab
shabazz
shade
shades
shadia
shadow
shadows
shafik
shafiq
shagari
shah
shainman
shaka
shake
shakespeare
shakira
shakur
shall
shalom
sham
shame
shams
shan
shang
shanghai
shannon
shape
shaped
shaping
shapiro
share
shared
shares
sharia
sharif
sharing
sharjah
shark
sharma
sharon
sharp
shatta
shattered
shaw
shawky
shawn
shay
she
shea
shearer
sheet
sheffield
shehu
sheikh
sheila
shekhinah
sheldon
shell
shelley
shelter
shenzhen
shepherd
sheppard
sheraton
sherawat
sheridan
sherif
sherilyn
sherine
sherman
shi
shia
shield
shift
shin
shine
shines
shining
ship
shirley
shiro
shirt
shit
shiva
shizzi
shmurda
sho
shock
shoe
shoes
shola
shona
shonekan
shonibare
shoot
shooting
shop
shopping
shore
short
shortlist
shortlisted
shot
should
show
showbiz
showcase
showcases
showemimo
showing
showmax
shows
showtime
shrine
shu
shuga
shukri
shut
shy
shyllon
si
sia
sianya
sibanda
sibande
siblings
sibongile
sic
sichuan
sick
sickle
sid
side
sidi
sidibe
sidiki
sidney
sie
sierra
sifan
siga
sight
sigma
sign
signal
signature
signatures
signed
significance
signing
signs
sika
sikwa
sikwuo
sil
silas
silence
silent
silicon
silk
sills
silva
silveira
silver
silverbird
silverman
simaro
simelane
simenti
simeon
simi
simmons
simmy
simon
simone
simple
simpson
sims
sin
sina
sinach
sinai
since
sinclair
sineti
sineto
sing
singapore
singer
singh
singing
single
singles
singleton
sings
sinima
sino
siollun
siopis
sip
sir
sire
siri
siria
sirleaf
sirry
sis
sisi
sistemu
sister
sisterhood
sisters
sisulu
sita
sitcom
site
sitere
sites
sithole
sitting
situation
six
sixth
siyabonga
size
sizwe
sk
skales
ske
sketch
ski
skills
skin
skinny
skowhegan
skul
sky
sl
slade
slaheddine
slam
slams
slate
slave
slavery
slaves
sleep
sleeping
slice
slim
slimane
slovak
slovakia
slovenia
slovo
slow
slum
smac
small
smart
sme
smile
smiri
smit
smith
smithsonian
smoke
smuggling
smuts
snake
snap
snoop
snow
snowden
so
soad
soap
soapie
soas
sobhi
sobowale
soccer
soccerway
sochiri
sochirinu
social
socialism
socialist
socie
societies
society
socio
sociology
sodiq
sofia
sofola
soft
software
soga
soho
soil
soja
sojourner
sokari
sokoh
sokoto
sokwa
sol
sola
solange
solanke
solar
sold
soldier
soldiers
sole
solicitors
solid
solidarity
solly
solo
solomon
solution
solutions
somali
somalia
somaliland
some
someone
somerset
something
sometimes
somewhere
somkele
somolu
son
sonaiya
sondra
song
songs
songwriter
sonia
sonny
sono
sons
sont
sony
sonye
sonyeere
sonyekwara
sonyere
soo
soolking
soon
sooro
sophia
sophie
soprano
soraya
sorbonne
sorghum
soro
sorority
sorry
soshal
sotho
souad
soukous
soul
souls
soulsgrowndeep
soumah
sound
soundcity
soundcloud
sounds
soundtrack
soup
source
sourcebook
sourceid
sources
sous
south
southampton
southeast
southeastern
southern
southwest
southwestern
sovereign
soviet
sow
sowande
sowetan
sowetanlive
soweto
sowore
sowunmi
soy
soyeyele
soyinka
sp
spa
space
spaces
spaceship
spain
span
spanish
spark
sparks
sparrow
spartacus
spartak
spd
speak
speaker
speakers
speaking
speaks
spears
special
species
specific
specified
spectator
spectrum
speech
speed
spektor
spelman
spen
spence
spencer
spent
spice
spicer
spicy
spider
spiegel
spier
spike
spin
spinall
spinz
spirit
spirits
spiritual
spla
split
splm
spoken
sponsored
spoon
sport
sporting
sports
sportsperson
spot
spotify
spotlight
spread
spring
springbok
springer
springfield
springs
springstone
sprint
spurs
spy
sq
squad
square
squash
squire
sr
src
sri
ss
ssa
sseldorf
ssp
sss
st
sta
stable
stacey
stacy
stade
stadium
staff
stafford
stage
stages
stakes
stal
stalin
stallion
stamp
stampu
stan
stanbic
stand
standard
standards
stander
standing
stands
stanford
stanley
stanton
star
starch
stardom
starr
starring
stars
start
started
starting
starts
startup
state
statement
statements
states
statesman
station
stations
statistical
statistics
stats
statue
status
stay
staying
ste
steam
stedelijk
steel
steele
steeplechase
steepu
steering
steeti
stefan
stein
stella
stellenbosch
stem
step
stephanie
stephen
stephens
steps
steptoe
stereotypes
sterling
stern
steti
steve
steven
stevens
stevenson
stevie
stew
stewart
stews
steyn
sti
stigma
still
sting
stmonthstartsat
stock
stockholm
stoke
stokes
stolen
stone
stonebwoy
stoner
stones
stony
stop
storage
store
stores
stories
storm
storms
story
storytelling
straight
strange
stranger
strasbourg
strategic
strategies
strategy
strauss
stream
streaming
streat
street
streets
strength
stress
stri
strictly
strike
striker
strikes
striking
strings
strip
strive
strok
stroke
strong
stronger
structural
structure
structures
struggle
struggles
struggling
struik
stu
stuart
student
students
studies
studio
studios
study
stuff
stunning
stuns
stunt
stuttgart
style
styles
su
suarez
sub
subject
subscription
success
successful
succession
such
sud
sudan
sudanese
sudanic
sue
suffering
suffrage
sufi
sugar
suicide
suid
suit
suite
suites
sukulu
sule
suleiman
sullivan
sultan
summary
summer
summit
sumner
sun
sundance
sunday
sunderland
sunflower
sunflowers
sunitha
sunnewsonline
sunni
sunny
sunrise
sunset
sunshine
suny
supe
super
superhero
superior
superliga
superman
supernatural
supersport
superstar
supplement
supply
support
supporting
supports
supreme
sur
sure
surface
surgeon
surgeons
surgery
suriname
surmic
surname
surprise
surprises
surrealism
surrey
surulere
survey
survival
survive
surviving
survivor
survivors
susan
susanna
susanne
suspended
suspends
sussex
sustainability
sustainable
sutherland
sutton
suya
suzanne
suze
suzhou
suzman
suzuki
sv
svg
sw
swahili
swallow
swansea
swap
swapo
swart
swarthmore
swazi
swaziland
swears
sweat
sweden
swedish
sweep
sweet
swift
swim
swimming
swing
swiss
switch
switzerland
sworn
sxsw
sy
sydney
sylvanus
sylvester
sylvia
symbol
symbols
symphony
symposium
syndicat
syndicate
syndrome
syntax
syracuse
syran
syria
syrup
system
systematic
systems
t
ta
taa
taba
tabeghi
tabitha
table
tabu
tachaghi
tachara
tackle
tackles
tade
tadesse
taekwondo
tafawa
tafelberg
taft
tag
tagalog
taghachi
taghachiri
taghi
tagoe
tags
tagzi
taha
tahar
tahie
tahini
tahrir
tai
taipei
taiwan
taiwo
taiye
tajine
takari
takawira
take
taken
takes
taking
takoradi
takwa
takwala
takwara
takwu
takwuo
tal
tala
talal
tale
talent
talented
talents
tales
tali
talib
taliban
talk
talkafricanmovies
talking
talks
tall
tallulah
tam
tamale
tamara
tambo
tamer
tamil
tampa
tan
tana
tandy
tang
tangale
tanganyika
tangier
tango
tank
tanki
tanner
tanya
tanzania
tanzanian
tao
taotie
tape
tar
tara
taraba
tarek
targaryen
target
targets
tari
tariq
tarka
task
taste
tate
tatu
tau
taught
tawo
tawokwa
tax
taxi
taxonomy
taylor
tayo
tb
tbs
tc
tchad
tchidi
te
tea
teach
teacher
teachers
teaching
team
teams
tears
teaser
teatro
tebogo
tebu
tec
tech
techcabal
techcrunch
technical
technikon
techno
technologies
technology
techpoint
tecno
ted
teddy
tedela
tedx
tee
teebs
teen
teenage
teenager
teenagers
teens
teepu
teff
teghi
tejuosho
tekno
teknu
teknuzu
tel
tele
telecom
telecommunications
telecoms
telegraph
telenovela
televisho
television
telivisheneng
telivisho
tell
telling
tells
tema
tembo
temi
temitope
template
temple
tempo
temps
tems
ten
tendai
tengenenge
teni
tenis
tennessee
tennis
tere
terence
teresa
term
terminal
terms
terra
terrace
terre
terrell
terri
terribles
territory
terror
terrorism
terry
tertiary
tesfaye
teso
tess
tessa
test
testament
testimony
testing
tests
teta
tetteh
texas
text
textile
textiles
texts
tfrrs
tg
th
tha
thabo
thai
thailand
thames
than
thandi
thando
thank
thanks
thant
that
the
theater
theatre
thecable
theguardian
their
thelma
them
themba
thembi
theme
then
thenationonlineng
thenet
thenigerianvoice
theo
theodore
theological
theology
theophilus
theoretical
theory
therapy
there
theresa
theron
these
thesis
theta
they
thiam
thief
thierry
thing
things
think
thinking
third
thirty
this
thisday
thisdaylive
thom
thomas
thompson
thomson
thornton
those
though
thought
thoughts
thousand
thousands
threat
threatened
threatens
threats
three
thrill
thriller
throne
thrones
through
throw
thug
thumb
thunberg
thunder
thursday
thuso
thutmose
ti
tian
tianjin
tiberino
tibet
ticket
tico
tide
tie
tienne
tier
ties
tiffany
tiger
tigers
tight
tigray
tigress
tigrinya
tii
tiketi
tiktok
til
tilahun
till
tillim
tim
timaya
timberlake
time
timeline
times
timeslive
timi
timor
timothy
tin
tina
tinsel
tinubu
tinwood
tinye
tinyekwara
tinyere
tiori
tip
tips
tira
tiri
tirunesh
tisch
titans
titi
titilola
title
titled
titles
tito
titus
tiv
tivoid
tiwa
tladi
tlc
tlhabi
tm
tn
to
toast
tobacco
tobago
tobi
toby
tochukwu
today
todd
together
togo
togolese
toi
toit
toke
toko
tokyo
tola
tolani
told
tolite
tolitere
toll
tolliver
tolu
tolulope
tom
tomas
tomato
tomatoes
tome
tomi
tommy
tomorrow
tompkins
ton
tone
tones
tongue
toni
tonight
tonto
tony
tonye
too
took
tool
tooxclusive
top
tope
topic
topics
topo
tops
torch
toriola
toro
toronto
tororo
torture
tosin
tot
total
tottenham
touch
tough
touhami
toulouse
tounsi
tour
toure
tourism
tourist
tournament
tournaments
tours
tout
toute
toward
towards
tower
towers
town
towns
townsend
township
toxic
toxicology
toyin
tozuru
tpok
tr
tra
trace
track
tracklist
tracks
tracy
trade
trading
tradition
traditional
traditions
traffic
trafficked
trafficking
tragedy
trail
trailblazer
trailer
train
training
trains
trans
transactions
transcorp
transcript
transfer
transformation
transformations
transforming
transgender
transit
transition
transitional
transkei
translate
translated
translation
transmission
transnational
transnistria
transparency
transparent
transport
transportation
transsion
transvaal
traore
trap
trauma
travel
traveling
tre
treasure
treasures
treasury
treatment
treaty
tree
trees
trek
trending
trends
trent
trenton
trevor
tri
trial
trials
triangle
triangular
tribal
tribe
tribeca
tribes
tribunal
tribune
tribute
tributes
tricia
trick
tried
triennale
triennial
trilogy
trinidad
trinity
trio
trip
triple
tripoli
tripp
tristan
trium
triumph
trois
trollope
troops
trophy
tropical
trotman
trouble
troupe
troy
trudeau
true
trump
trumpet
trust
trustees
truth
try
trying
ts
tschumi
tsedale
tsegay
tshabalala
tshwane
tsitsi
tswana
tt
ttl
tu
tube
tubman
tucker
tudes
tuesday
tuface
tufts
tuggar
tuko
tulip
tum
tumadi
tumwine
tunde
tune
tunis
tunisia
tunisian
tunisie
tunisien
tunisienne
tunstall
tuo
tupac
tupu
turf
turin
turkey
turki
turkish
turkmenistan
turn
turned
turner
turning
turns
turntable
turu
tush
tuskegee
tutsi
tutu
tv
tvc
tvsa
tw
twala
tweet
tweets
twelve
twentieth
twenty
twi
twilight
twin
twins
twist
twitter
two
twum
tx
ty
tyler
type
tyra
tyrone
tyson
tz
u
uac
uae
uba
ubah
ubangian
ubc
ube
ubetoo
ubi
ubo
ubochi
ubong
ubu
ubuntu
uc
uche
uchechi
uchechukwu
uchegbu
uchendu
uchenna
uchu
ucl
ucla
ucoc
uct
ud
uda
udaume
ude
udechukwu
udi
udic
udik
udo
udoh
udoka
udokwu
udu
ududo
uduku
uefa
ufo
ufodu
ufot
ufuoma
ug
ugali
uganda
ugandan
ugba
ugbo
ugboro
ugbu
ugbua
ugegbe
ughelli
ugly
ugo
ugochukwu
ugodi
ugolee
ugwu
uhie
uhuru
uhuruchi
ui
uit
uju
uk
uka
ukamaka
ukeje
ukelle
uko
ukpabio
ukraine
ukrainian
uku
ukwa
ukwe
ukwu
ukwuu
ule
uli
ulli
ulo
ulrich
ultimate
ultra
ultratop
um
uma
umahi
umar
umaru
umbrella
ume
umeala
umeh
umengwu
umezulike
umm
umoh
umolu
umotong
umu
umuahia
umuaka
umunna
umunwanyi
un
una
unaids
unc
uncle
und
under
undergraduate
underground
understanding
undp
une
unemployment
unere
unesco
unfccc
unfpa
unhcr
uni
uniben
unicef
unigwe
unilag
unilever
union
unions
unique
unisa
unit
unite
united
units
unity
univ
universal
universe
universiade
universita
universite
universities
university
universo
unizik
unknown
unlimited
unn
uno
unodc
unrecognized
unseen
unsung
unthank
until
untitled
untold
unu
unveiled
unveils
unyi
up
upcoming
update
updated
updates
updf
upload
upon
upper
uprising
ups
ur
ura
urban
urbana
urdu
ure
urges
urhobo
uri
url
ursula
uru
uruan
uruguay
urukurubu
us
usa
usaid
usc
usd
usda
use
used
user
uses
usher
usifo
using
usman
uso
usoro
utah
utc
utf
uti
uto
utopia
utrecht
uttar
utu
uwa
uwe
uweojii
uwopa
uyo
uys
uzalo
uzbekistan
uzo
uzoamaka
uzochukwu
uzodinma
uzoho
uzoma
uzor
uzu
uzuzu
v
va
vaccine
vaccines
vai
val
vale
valencia
valentine
valerie
valiente
valley
value
values
vampire
van
vancouver
vanderbilt
vanessa
vanguard
vanguardngr
vanilla
vanity
vano
vanunu
var
variety
various
varsity
vatican
vatikan
vaughan
vaughn
vc
ve
vector
ved
vegan
vegas
vegetable
vegetables
veil
veillette
velar
velvet
vemba
venda
venezia
venezuela
venice
venture
ventures
venus
vera
verde
verlag
vermont
verna
vernacular
vernon
veronica
verse
version
versus
vertical
very
veteran
veterans
vetere
vgma
vh
vi
via
vibe
vibes
vic
vice
vicker
vicky
victim
victims
victor
victoria
victorian
victories
victory
vida
video
videos
vidio
vidiyo
vie
vienna
vietnam
vietnamese
view
viewers
views
vii
viii
viking
vilakazi
viljoen
villa
village
villages
villard
villarreal
villasen
ville
villiers
vimeo
vincent
vinegar
vintage
vinyl
viola
violence
violent
violet
violin
viper
vir
viral
virgin
virginia
virtual
virunga
virus
visa
visible
visiblepolls
vision
visionary
visions
visit
visiting
visits
vista
visual
visuals
vita
vitae
vital
vitamin
viva
vivian
vivier
vixen
vj
vladimir
vo
voa
vocal
vocalist
vodacom
vodafone
vogel
vogue
voice
voices
voix
vol
volleyball
volta
volume
volumes
volunteer
von
voodoo
voor
vootu
vosloo
vossen
vote
voted
voter
voters
votes
voting
votu
vous
vow
vowel
vows
vox
voyage
vp
vr
vries
vs
vu
vulture
vusi
w
wa
waa
waaha
waal
waala
waara
waconzy
wada
waddy
wade
wadeson
wael
wafu
waghi
wagner
wahab
wai
wainaina
wait
waiting
waje
waka
wakari
wake
wakpo
wakporo
wakwara
wal
wala
wald
wale
wales
wali
walk
walker
walking
wall
wallace
walls
walsh
walt
walter
walters
walton
wan
wana
wanda
wande
wanderers
wane
wang
wangechi
wanjiku
wanna
wanner
wanogho
want
wanted
wants
wanye
wapu
war
wara
warara
ward
warda
warder
wari
waring
warming
warner
warns
warren
warri
warrior
warriors
wars
warsame
warsaw
warwick
was
wash
washington
wasn
waste
wat
wata
watan
watch
watchdog
watching
watchlist
water
waterfront
waters
watford
watkins
watson
watts
wave
waves
wawo
wax
way
waya
wayback
wayne
wayo
ways
waziri
wazobia
wdg
we
wealth
weapons
wear
weather
weaver
web
webarchive
webata
webatara
webb
weber
websit
website
webster
webu
wedara
wedding
weddings
wednesday
weds
wee
weebu
week
weekend
weekly
weeks
weere
weet
wegara
weghaara
weghachi
weghachiri
weghachite
weghara
wei
weight
weightlifting
weil
weinberg
weinstein
weird
weiss
welcome
welcomes
welfare
welitere
well
welle
wellington
wells
welsh
welt
wema
wemba
wembley
wen
wendy
wenger
went
wepu
weputara
were
wergirtin
werner
werrason
wesley
wesleyan
west
westbrook
western
westminster
westport
wet
weta
wetara
wever
wey
wezu
wfm
wharton
what
wheatley
wheel
wheeler
when
where
which
while
whip
whispers
white
whitfield
whitman
whitney
whitten
who
whole
whose
why
wi
wia
wichita
wicked
wid
wide
widely
widow
width
wiesbaden
wife
wigan
wii
wike
wiki
wikileaks
wikimedia
wikipedia
wikiquote
wikiquotes
wikisource
wikitionary
wiktionary
wild
wilder
wildes
wildlife
wiley
wilfred
wilhelm
wilkinson
will
willem
william
williams
williamson
willie
willis
willow
willy
wilpf
wilson
wim
wimberly
wimbledon
win
wina
wind
windhoek
windo
window
windows
windsor
wine
winfrey
wing
winger
wings
winifred
winner
winners
winnie
winning
winnipeg
wins
winston
winter
wire
wired
wisconsin
wisdom
wise
wish
wit
witch
with
within
without
witkin
witness
wits
witwatersrand
wives
wiwa
wiz
wizkid
wmf
wnba
wo
wofai
wokwa
wol
wole
wolf
wolfe
wolfsburg
wollstonecraft
wolof
wolverhampton
wolves
woman
women
womens
won
wonder
wonderland
wong
wood
woodard
woodmere
woodruff
woods
woodson
woodstock
woody
worcester
word
wordpress
words
work
worked
worker
workers
working
workplace
works
workshop
world
worldcat
worldfootball
worlds
worldwide
woro
worship
worst
worth
would
wouw
wow
wp
wpa
wrap
wrestling
wright
write
writer
writers
writes
writing
writings
written
wrong
wrote
wsl
wt
wu
wuchara
wughachi
wughachiri
wulite
wunmi
wuo
wurld
wuru
wushu
wusie
wusiri
wuta
wutere
wwe
www
wyclef
wycombe
wyk
x
xaba
xavier
xc
xclusive
xenakis
xerox
xhosa
xi
xia
xiahou
xiamen
xiii
xinhua
xinjiang
xtra
xu
xvi
xx
xxl
y
ya
yaa
yaba
yabasi
yabatech
yabu
yacoubi
yahaya
yahoo
yahya
yakubu
yala
yale
yam
yan
yana
yang
yao
yaounde
yar
yard
yards
yasin
yasmin
yasmine
yassin
yassine
yates
yaya
ybnl
ycee
ye
year
yearbook
years
yeboah
yehia
yekini
yellow
yemen
yemi
yemisi
yen
yeovil
yes
yesterday
yesufu
yet
yetunde
yewande
yeye
yg
yi
yie
yighari
yighi
yikari
ying
yinka
yiri
yizo
ymca
ynaija
yo
yobe
yoga
yogo
yoko
yola
yolo
yom
yomi
york
yorker
yorkshire
yoru
yoruba
yorxe
you
youlou
youm
young
youngblood
younger
youngest
your
yours
yourself
yousri
youssef
youth
youths
youtube
yoweri
yu
yuan
yue
yugoslavia
yukrain
yul
yung
yusuf
yves
yvette
yvonne
z
za
zaa
zack
zafaa
zaghachi
zaghachiri
zaghawa
zahara
zahra
zai
zaiko
zain
zainab
zaire
zakaria
zaki
zalebs
zama
zamalek
zaman
zamar
zambia
zambian
zamfara
zangewa
zanu
zanzibar
zara
zaramo
zari
zaria
zaynab
ze
zealand
zebra
zed
zee
zeina
zeitung
zeitz
zelda
zelofhad
zen
zenith
zere
zero
zetkin
zewditu
zh
zhang
zhou
zhuwao
zi
ziaka
zie
ziere
ziga
zigara
zighari
ziiri
zik
zika
zikode
zikwaara
zille
zim
zimbabwe
zimbabwean
zindzi
zine
zineb
zion
zipu
ziri
zitere
zlatan
zo
zoe
zoid
zombie
zone
zones
zoo
zoology
zora
zoro
zu
zubere
zukiswa
zuko
zulfikar
zulu
zuma
zuo
zur
zurich
zuru
zute
zutere
zw
zziwa
{
|
}
~
¡
¢
£
§
©
ª
«
®
°
²
´
·
¹
º
»
½
¿
×
æ
ð
ø
ħ
ı
ł
ŋ
ǝ
ɐ
ɑ
ɒ
ɓ
ɔ
ɗ
ə
ɛ
ɟ
ɡ
ɣ
ɤ
ɨ
ɪ
ɬ
ɲ
ɾ
ʃ
ʉ
ʊ
ʋ
ʌ
ʎ
ʒ
ʔ
ʲ
ʷ
ʹ
ʻ
ʼ
ʽ
ʾ
ʿ
ˈ
ˌ
ː
̀
́
̂
̃
̄
̆
̇
̈
̉
̊
̋
̌
̓
̛
̠
̣
̥
̦
̧
̨
̩
̪
̭
̰
̱
͕
͡
α
β
γ
ε
θ
ι
μ
ς
σ
χ
ω
а
в
е
з
и
н
на
о
с
т
я
ѕ
і
،
؟
ا
الا
السابع
الفنان
اليوم
ب
بعد
بن
بوابة
ة
ت
ج
ح
حمد
خ
د
ر
ز
س
ش
ع
عبد
على
عن
ف
فى
في
فيديو
ل
لا
م
محمد
مع
من
ن
نور
ه
و
وا
وفاة
ول
ى
ي
يوسف
ً
َ
ُ
ِ
ّ
ْ
ٓ
ٔ
ٕ
٩
ं
ः
क
ग
च
ज
त
द
ध
न
प
ब
भ
म
य
र
ल
व
स
ा
ि
ी
ु
े
ो
्
খ
চ
ত
প
য
র
ল
স
া
ি
ু
ে
্
ಕ
ಗ
ಟ
ದ
ಪ
ಮ
ರ
ಲ
ವ
ಸ
ಾ
ಿ
ು
ೂ
ೆ
್
ೕ
ු
ั
ิ
่
้
์
블랙핑크
እ
ᵐ
ᵑ
​
‌
‎
‐
‑
‒
–
—
―
‘
’
“
”
„
†
•
…
‬
′
″
‹
›
⁄
⁨
⁩
ⁿ
₦
€
™
↑
→
↔
↷
∂
−
∘
≡
⋆
③
④
⑦
▷
☃
★
♡
➜
⟨
⟩
ⲥ
ⴰ
ⵉ
ⵜ
⺀
⺄
⺆
⺈
⺊
⺌
⺕
⺝
⺸
⺼
⿰
⿱
⿲
⿳
⿴
⿵
⿶
⿷
⿸
⿹
⿺
⿻
、
。
《
》
「
」
『
』
〜
〢
あ
い
お
か
け
さ
し
す
た
ち
っ
て
と
な
に
の
は
ま
も
ら
り
る
を
ん
゙
゚
ア
ィ
イ
エ
オ
カ
キ
ク
コ
サ
シ
ス
セ
タ
チ
ッ
テ
ト
ナ
ニ
ノ
ハ
ヒ
フ
マ
ム
モ
ャ
ュ
ユ
ラ
リ
ル
レ
ロ
ン
・
ー
㇁
㇂
㇄
㇇
㇈
㇉
㇓
㐁
㐄
㐅
㐌
㐫
㐬
㐭
㐮
㐱
㑒
㒵
㒸
㒼
㓁
㓞
㔾
㕛
㕣
㖾
㘝
㚅
㚇
㚔
㚘
㝉
㝡
㝴
㝵
㞋
㞢
㞷
㠩
㠭
㠯
㡀
㡭
㡿
㢲
㢴
㣇
㣺
㥯
㪅
㫄
㫐
㫒
㫺
㬅
㬎
㬥
㬰
㲋
㳄
㷠
㸒
㸚
㸦
㼌
㼲
㽞
㿟
䀠
䂞
䍃
䏍
䒑
䖍
䖒
䖝
䖵
䙴
䚻
䜌
䝿
䡛
䧹
䪞
一
丁
丂
七
丄
丅
丆
万
丈
三
上
下
丌
不
与
丏
丐
丑
专
且
丕
世
丘
丙
业
东
丞
丢
丣
两
严
並
丨
丩
个
丫
丬
中
丮
丰
丱
串
丵
丶
丷
丸
丹
为
主
丽
丿
乀
乂
乃
久
乆
乇
么
义
之
乌
乍
乎
乏
乐
乑
乔
乖
乗
乘
乙
乚
乛
乜
九
乞
也
习
乡
书
乳
乾
亀
亅
了
亇
予
争
事
二
亍
于
亏
亐
云
互
亓
五
井
亘
亚
亜
亞
亟
亠
亡
亢
交
亥
亦
产
亨
亩
享
京
亭
亮
亯
亰
亲
亳
亶
亷
人
亻
亼
亾
仁
今
介
仌
从
仐
仑
仒
仓
仕
他
付
仝
代
令
以
任
企
伊
伏
伐
休
会
伯
但
位
何
佘
余
作
佥
使
來
侈
侌
侖
侯
侵
便
保
俞
信
修
倉
倍
候
倠
備
僉
僕
優
儿
兀
允
兂
元
兄
充
兆
兇
先
光
兊
克
兌
免
兑
兒
兓
兔
党
兜
兟
入
全
兩
兪
八
公
六
兮
兰
共
关
兵
其
具
典
兹
兼
冀
冂
冃
冄
内
冈
冉
冊
冋
册
再
冎
冏
冐
冒
冓
冖
冗
冘
军
农
冝
冡
冥
冫
冬
冷
几
凡
凢
凵
凶
凷
凸
凹
出
函
凾
刀
刁
刂
刃
刄
刅
分
切
刍
刑
划
刕
刖
列
刘
则
初
別
利
别
到
制
刺
則
削
剌
前
剡
剽
劉
力
功
加
劦
动
助
劫
劳
劵
勃
勇
勉
勒
動
務
勞
勤
勹
勺
勻
勾
勿
匀
匂
包
匆
匈
匊
匋
匍
匕
化
北
匚
匝
匡
匪
匱
匸
匹
区
医
匽
匿
區
十
卂
千
卄
卅
卆
升
午
卉
半
卌
华
卑
卒
卓
单
卖
南
卜
卝
卞
占
卡
卢
卣
卤
卦
卩
卪
卬
卯
印
危
即
却
卵
卷
卸
卻
厂
厃
厄
历
厈
厉
厌
厓
厘
厚
原
厤
厥
厦
厨
厭
厲
厶
厷
厸
去
厼
厽
叀
参
參
叅
又
叉
及
友
双
反
叐
发
叒
叔
叕
取
受
叚
叜
叟
口
古
句
另
叩
只
召
可
台
叱
史
右
叵
号
司
叹
吂
各
吅
合
吉
吊
吋
同
名
后
吏
向
吕
君
吝
吞
否
含
启
吳
吴
吹
吾
呂
呆
呈
告
员
呙
呦
周
命
咅
和
咎
咠
咢
咨
咸
咼
哀
品
哉
員
哥
哲
唐
商
啇
問
啚
啬
啻
善
喜
喬
單
喿
嗇
噩
嚴
囊
囗
囘
囙
囚
四
回
囟
因
囧
囬
困
囱
囷
固
国
图
圂
圅
國
圍
園
圓
土
圡
圣
圥
在
圭
地
圶
圼
坐
坒
坚
坴
垂
垔
垚
埀
埋
城
埶
執
基
堂
堅
堆
堇
堯
報
塞
墨
壘
士
壬
壯
声
壳
壴
壹
壺
壽
夂
处
夅
夆
备
夊
夋
夌
复
夏
夒
夕
外
夗
夘
多
夜
夢
大
夨
天
太
夫
夬
夭
央
失
夲
头
夷
夸
夹
夻
夾
奂
奄
奇
奈
奉
奎
奏
奐
契
奓
奔
奚
奞
奠
奢
奥
奭
女
奴
奻
好
如
妄
妙
妟
妥
妻
妾
姑
委
姜
威
娄
婁
婦
婴
嬰
嬴
子
孑
孔
孕
孖
字
存
孚
孛
孝
孟
季
孤
学
孩
孫
孱
學
宀
宁
宂
它
宅
宇
守
安
宋
完
宏
宓
宗
官
定
宛
宜
宝
客
宣
室
宮
宰
害
家
容
宾
宿
寄
寅
密
富
寒
察
寧
審
寫
寬
寮
寸
对
寺
寻
寽
対
寿
封
尃
射
将
將
專
尉
尊
尋
尌
對
小
少
尒
尓
尔
尖
尗
尚
尞
尢
尣
尤
尧
尨
尭
就
尸
尹
尺
尻
尼
尽
尾
尿
局
居
屈
屋
屎
屏
屑
展
屖
屚
属
屠
屡
屬
屮
屯
屰
山
屵
屾
岁
岂
岑
岡
岩
岳
岸
峯
島
崇
崑
崔
崖
崙
崩
嵬
嶲
巂
巛
川
州
巟
巠
巢
巤
工
左
巧
巨
巩
巫
差
己
已
巳
巴
巷
巸
巽
巾
巿
帀
市
布
希
帚
帛
帝
带
師
席
帶
常
干
平
年
幵
并
幷
幸
幺
幻
幼
幽
幾
广
広
庄
床
底
店
庚
府
度
庫
庭
庶
康
庸
廉
廌
廛
廣
廩
廴
延
廷
建
廾
廿
开
弁
弃
弄
弇
弋
式
弓
弔
引
弗
弘
弜
弟
弥
弦
弱
張
強
强
彊
彌
彎
彐
彑
当
彔
录
彖
彗
彡
形
彥
彦
彧
彭
彳
役
彼
往
待
律
徐
徒
得
徙
從
復
微
徵
心
忄
必
忌
忍
志
忝
忠
忩
快
念
忽
忿
思
怠
急
性
怱
恆
恒
恩
恭
息
悉
患
悤
悲
悶
惠
惡
惢
愁
愈
意
愛
感
慈
慧
慮
憂
憲
應
戀
戈
戉
戊
戋
戌
戍
戎
成
我
戒
戔
或
戚
戠
戢
截
戲
戶
户
戹
戼
戾
房
所
扁
扇
手
扌
才
打
托
执
承
折
拉
拜
拳
拿
掌
推
提
摩
支
攴
攵
收
攸
改
放
政
敄
敏
敕
敖
敗
教
敝
敞
敢
散
敦
敫
敬
数
敷
數
斂
文
斉
斊
斗
斤
斥
斩
斬
斯
新
方
於
施
斿
旁
旋
族
无
旡
既
旣
日
旦
旧
旨
早
旬
旱
旲
时
旾
昆
昇
昌
昍
明
昏
易
昔
昗
昜
星
映
春
昬
是
昱
昴
昷
時
晃
晋
晏
普
景
晶
智
暑
暴
曇
曩
曰
曲
曳
更
曷
書
曹
曼
曾
替
最
朁
會
月
有
朋
服
朔
朕
朗
望
朝
期
木
朩
未
末
本
札
朮
术
朱
朵
朶
朿
杀
李
杏
村
杜
束
条
来
東
杲
杳
松
析
林
枚
果
枝
枲
枼
某
柔
查
柬
柰
柴
栗
桀
桑
桥
桼
梁
條
梟
梨
棘
棠
棥
森
楚
業
楽
榮
樂
樊
欠
次
欣
欮
欲
欶
欽
款
歆
歇
歛
止
正
此
步
武
歨
歪
歮
歯
歰
歲
歴
歷
歸
歹
歺
死
殳
段
殷
殸
殹
殺
殻
殿
毋
毌
母
每
毒
比
毕
毚
毛
毳
氏
氐
民
气
氣
水
氵
氶
氷
永
氺
氾
求
汉
汝
汞
江
沃
沓
沙
沝
河
治
泉
法
波
泣
泥
泰
洛
洪
洲
活
派
流
浦
浪
浮
海
淡
淮
深
清
渚
渠
温
港
湖
湯
溪
滿
演
漸
火
灬
灭
灰
灵
灷
炅
炎
炏
炗
炙
炭
為
烈
烏
烝
焉
無
焦
焱
然
煞
熊
熏
燕
營
燮
爪
爫
爭
爯
爰
爱
爲
爵
父
爻
爽
爾
爿
片
牙
牚
牛
牜
牟
牢
牧
物
牪
特
牽
犀
犬
犭
犮
狂
狄
狊
独
狺
猋
猒
猪
献
獻
玄
率
玉
王
玟
玨
珎
班
球
琴
瑟
瑩
瓜
瓦
甘
甚
生
産
用
甫
甬
田
由
甲
申
电
甶
男
甸
甹
画
甾
畀
界
畏
畐
留
畜
畟
畢
畧
畨
番
畫
異
畱
當
畺
畾
疊
疋
疌
疑
疒
疾
癶
癸
癹
登
發
白
百
皀
皃
的
皆
皇
皋
皐
皕
皮
皷
皿
盃
盆
盇
盈
益
盍
盎
监
盒
盖
盛
盡
監
盤
盧
目
直
相
盾
省
眇
眉
看
眔
眞
真
眷
眼
眾
着
睘
睪
睿
瞏
瞢
瞿
矍
矛
矞
矢
矣
知
矦
短
石
研
破
碎
磊
磨
示
礻
礼
社
祟
票
祭
禀
禁
福
禸
禹
禺
离
禽
禾
禿
秀
秃
秉
秋
科
秝
秦
移
稟
穀
穌
穴
究
穹
空
穿
突
窄
窒
立
竒
竜
竝
竟
章
童
竹
笑
笠
第
筆
等
答
策
箕
算
箴
節
篤
篭
米
粉
粛
粟
粤
粦
粲
糞
糸
糹
系
紀
約
納
素
索
紫
累
細
絜
絫
絲
維
綿
縣
繇
纍
纟
线
缶
网
罒
罔
罕
罗
罙
罡
罢
罪
署
罷
羅
羊
羌
羍
美
羔
羕
羗
羞
羡
羣
群
義
羲
羸
羽
翁
翏
習
翕
翟
翠
翼
老
耂
考
者
耆
而
耎
耑
耒
耳
耴
耶
耷
聂
聊
聖
聚
聶
聿
肀
肃
肅
肉
肖
肙
肥
肩
肯
育
肴
胃
背
胡
胥
能
脊
脩
膚
臣
臤
臧
自
臬
臭
臯
臱
至
致
臺
臼
臽
臾
臿
舀
舂
舄
與
興
舉
舌
舍
舛
舜
舞
舟
般
艮
良
色
艸
艹
艾
芒
芔
芬
芮
花
芳
芺
芻
苔
苗
苟
若
苦
英
茶
茸
荅
草
荒
荣
荼
莆
莧
莫
莽
菆
菊
菐
華
萬
落
葉
著
葛
董
葵
蒙
蒦
蒼
蓋
蓬
蓺
蔑
蔡
蕉
蕭
薄
薛
薦
薰
藍
藏
藥
蘭
虍
虎
虐
虒
虔
處
虖
虗
虘
虚
虛
虜
虞
虫
虽
蚤
蚩
蜀
蜜
蟲
蠡
血
行
衍
街
衛
衣
衤
表
衮
衰
袁
袞
被
褭
褱
襄
襾
西
覀
要
覃
見
規
覓
覧
親
覽
见
观
角
解
言
訁
訇
計
詹
語
誩
諸
讠
谷
豆
豈
豊
豐
豕
豖
豙
象
豦
豩
豪
豸
貇
貝
貞
貟
負
貢
貧
貪
貫
責
貳
貴
買
費
賁
資
賈
賏
賓
賔
賛
賞
賢
賣
質
賴
贊
贝
贡
责
贯
贲
贵
赖
赞
赤
赦
走
起
越
足
路
蹇
身
躬
車
軍
軎
軟
輦
车
辛
辜
辟
辥
辰
辱
農
辵
辶
边
达
过
运
近
连
迷
追
退
送
逆
逐
通
速
造
逢
連
逮
進
遀
遂
過
道
達
遣
適
遷
遺
邊
邑
邕
那
邦
邪
郎
部
郭
都
鄉
酉
酋
配
酓
釆
采
里
重
野
量
金
釒
錢
鎖
钅
铁
镇
長
镸
长
門
閃
閉
開
閏
閑
閒
間
閔
閵
閻
闌
门
间
闷
阑
阜
阝
阿
降
院
陳
隆
隊
隋
隡
隨
隱
隶
隹
隺
隻
隼
隽
难
雀
雁
集
雈
雋
雍
雐
雔
雙
雚
雜
雝
離
難
雨
雩
雪
雲
零
雷
需
霍
霜
霝
霞
霸
靈
靑
青
非
靡
面
靣
革
韋
韦
韭
韯
韱
音
頁
頃
項
須
頗
頡
頻
顛
页
風
风
飛
飞
食
飠
養
饣
馆
首
香
馬
馮
駦
马
骨
高
髟
鬥
鬯
鬲
鬼
魚
魯
鮮
鱼
鲁
鳥
鳳
鸟
鹵
鹿
麃
麗
麥
麦
麻
黃
黄
黍
黎
黑
黒
黨
黹
黽
黾
鼎
鼓
鼠
鼻
齊
齋
齐
齒
齿
龍
龙
龜
龟
龠
龰
龱
龴
龵
龶
龷
龸
龹


者
艹
ﺗ
ﺜ
ﻞ
ﻤ
ﻴ
﻿
！
（
）
，
：
？
｜
￼
𠀁
𠀃
𠀆
𠀉
𠀎
𠀐
𠁁
𠁣
𠂆
𠂇
𠂈
𠂉
𠂊
𠂋
𠂎
𠂒
𠂔
𠂛
𠂡
𠂢
𠂤
𠂬
𠂭
𠂹
𠃊
𠃋
𠃌
𠃍
𠃎
𠃑
𠃓
𠃔
𠃜
𠄌
𠄎
𠄠
𠄢
𠆢
𠆥
𠇍
𠈌
𠌵
𠓜
𠔉
𠔥
𠔼
𠔽
𠔿
𠕀
𠕁
𠕋
𠘧
𠘨
𠙻
𠙼
𠚏
𠚒
𠚤
𠚪
𠣏
𠤎
𠤕
𠥓
𠦄
𠦑
𠦝
𠧒
𠧗
𠧪
𠩺
𠪚
𠫓
𠫔
𠫤
𠬛
𠬝
𠬞
𠬢
𠬤
𠬶
𠮛
𠮦
𠮷
𠯑
𠱠
𠳮
𠷎
𡈼
𡉀
𡉵
𡌥
𡍮
𡏳
𡕒
𡕩
𡕰
𡖅
𡗗
𡗜
𡘆
𡘤
𡧱
𡨄
𡩧
𡬠
𡭽
𡰣
𡰥
𡰪
𡰯
𡰱
𡷈
𡸁
𡿨
𡿩
𡿪
𡿺
𢀖
𢀛
𢀩
𢁙
𢆉
𢆰
𢆶
𢇁
𢇇
𢉖
𢌬
𢌿
𢏚
𢑑
𢑚
𢖻
𢙣
𢛳
𢦏
𢦒
𢧵
𢼄
𢾕
𣁋
𣄼
𣅀
𣅽
𣍘
𣎳
𣎵
𣏋
𣏼
𣗥
𣥂
𣥖
𣦵
𣦼
𣧄
𣪊
𣪠
𣬉
𣳾
𣶒
𤇾
𤊽
𤐫
𤓰
𤔔
𤕨
𤣩
𤰇
𤰔
𤰞
𤴓
𤴔
𤽄
𥁑
𥁕
𥃦
𥃩
𥃭
𥇡
𥑟
𥘅
𥘈
𥝢
𥫗
𥱡
𦈢
𦉪
𦉬
𦉼
𦍌
𦍒
𦎧
𦐇
𦓔
𦔮
𦘒
𦙃
𦚏
𦣝
𦣞
𦣻
𦥑
𦥔
𦥯
𦨉
𦭝
𦰩
𧆞
𧈧
𧘇
𧰨
𧴪
𧴮
𧵩
𧾷
𨸏
𨾴
𩙿
𩠐
𩫏
𩵋
𪉷
𪜀
𪟽
𪠲
𪩲
𫇦
𫔭
𫜸
𫝀
𫠣
𫠩
𫢉
𫥞
𫩏
𫩠
𫪡
𫲽
𫶧
𬀷
𬐘
𬗌
𬙙
𬛸
𬜯
𬟩
𬯁
𬴘
𬺻
𬼉
𬼖
𭀰
𭁈
𭁨
𭅰
𭑈
𭕄
𭗼
𭤨
𭥫
𭻾
𮅕
𮊿
𮍌
𮍏
𮓗
𮥼
𮧮
廾
𰀁
𰀄
𰀈
𰀉
𰀕
𰀠
𰀡
𰀢
𰀪
𰁜
𰃮
𰆊
𰆘
𰋙
𰕎
𰢴
𰧭
𰯲
00--
01--
02--
03--
04--
07--
08--
09--
33--
35--
40--
41--
43--
44--
46--
47--
49--
53--
55--
56--
57--
58--
59--
61--
62--
71--
73--
74--
75--
76--
77--
78--
79--
80--
81--
82--
84--
85--
86--
87--
88--
89--
90--
91--
94--
96--
97--
978--
97805--
98--
99--
a--
aa--
ab--
aba--
abd--
abdel--
abdul--
abi--
abo--
abs--
abu--
abyss--
ac--
acc--
accele--
accep--
actu--
ad--
ada--
add--
ade--
adi--
ado--
adoles--
adu--
advert--
advi--
ae--
af--
afri--
afro--
afu--
ag--
aga--
agba--
agu--
ah--
aha--
aho--
ahu--
ai--
air--
aiye--
aja--
aje--
aji--
ak--
aka--
ake--
aki--
akin--
ako--
akpa--
aku--
al--
ala--
alder--
ale--
aleks--
ali--
all--
alleg--
alloc--
allop--
alo--
alph--
als--
alt--
alu--
aly--
am--
ama--
amami--
ame--
ami--
amp--
amu--
an--
ana--
anam--
anc--
and--
ang--
anglo--
ani--
ann--
ano--
ant--
anti--
anu--
any--
ao--
ap--
apa--
apoc--
apol--
app--
appro--
aq--
aqu--
ar--
ara--
arc--
arch--
ard--
ari--
aro--
art--
arts--
aru--
as--
asa--
ash--
asi--
ask--
aso--
asp--
asse--
aste--
astr--
asu--
at--
ata--
ati--
atmosp--
atu--
au--
aus--
auto--
ava--
ave--
avo--
aw--
awa--
awo--
ay--
aya--
aye--
ayi--
ayo--
az--
aza--
azi--
azu--
b--
ba--
baa--
bab--
baba--
back--
bad--
bag--
bak--
bal--
ball--
bam--
ban--
band--
bar--
bas--
bat--
bata--
bay--
be--
bea--
bed--
beg--
behavi--
bel--
bell--
ben--
ber--
berk--
bern--
bert--
bet--
bez--
bi--
bia--
bin--
bio--
bir--
bisc--
biss--
biz--
bla--
black--
ble--
bli--
blig--
blo--
bo--
bob--
bohe--
bok--
bon--
boo--
book--
bor--
bou--
bouc--
bour--
bow--
boy--
br--
bra--
bree--
bren--
bro--
bru--
brun--
bry--
bs--
bu--
bull--
bur--
bus--
but--
buzz--
bw--
by--
c--
ca--
cal--
cam--
can--
cap--
car--
caric--
casu--
cat--
cauc--
cc--
ce--
cer--
ch--
cha--
char--
charle--
che--
chi--
chibu--
chidi--
chie--
chigo--
child--
chin--
cho--
choreog--
chry--
chu--
ci--
circ--
cit--
city--
cla--
cle--
cli--
clu--
cn--
co--
coch--
cock--
code--
col--
collabo--
com--
compl--
con--
confi--
consult--
conve--
coor--
cor--
corn--
correcti--
cos--
cott--
cou--
cow--
cp--
cra--
cre--
cri--
crim--
cro--
cru--
cs--
ct--
cu--
cum--
cur--
cust--
cy--
d--
da--
dad--
dai--
daily--
dal--
dam--
dan--
dar--
daw--
day--
db--
dc--
de--
dec--
dedi--
dee--
def--
del--
dele--
dem--
den--
depen--
der--
des--
develo--
dha--
dhl--
di--
dia--
diag--
die--
diff--
dig--
dill--
din--
dio--
dis--
distri--
divi--
dj--
do--
doc--
dom--
don--
dor--
dou--
dow--
dr--
dri--
dru--
du--
dudu--
dum--
dw--
dy--
dz--
e--
ea--
ear--
east--
eb--
ebi--
ebu--
ec--
eche--
ecle--
eco--
ed--
ede--
edel--
edi--
edo--
edu--
ee--
eff--
efu--
eg--
ege--
ehi--
ehu--
ei--
eisen--
eje--
eji--
ek--
eke--
ekpe--
ekwu--
el--
ele--
eli--
em--
emanc--
eme--
emi--
en--
ena--
end--
ene--
eni--
enwe--
ep--
equ--
equato--
equi--
er--
ere--
es--
ese--
esi--
eso--
est--
et--
eter--
ethno--
ethnog--
eti--
eto--
ety--
eu--
euro--
evange--
ever--
every--
evo--
evol--
ewe--
ewu--
ex--
expe--
expl--
eye--
eyi--
ez--
eze--
ezi--
ezo--
ezu--
f--
fa--
fab--
fad--
fai--
fair--
fak--
fan--
far--
farm--
fassbin--
fat--
fau--
fc--
fe--
fel--
fer--
feui--
fey--
fi--
fig--
fil--
film--
fin--
fire--
fl--
fla--
flat--
flu--
fo--
folk--
fon--
foot--
for--
fore--
four--
fr--
fra--
fre--
fred--
free--
fu--
fuku--
ful--
fun--
fund--
fur--
fy--
g--
ga--
gad--
gafe--
gal--
gam--
gar--
gas--
gau--
gaz--
gba--
gbe--
gbo--
gbu--
ge--
gen--
geo--
ger--
get--
gh--
gha--
ghana--
gi--
gil--
gir--
giz--
gla--
glo--
glu--
go--
god--
gold--
gonz--
good--
gor--
gou--
gov--
gq--
gr--
gra--
gradu--
grand--
green--
grif--
gro--
gu--
guang--
gue--
gum--
gun--
gur--
guzo--
gwa--
gy--
h--
ha--
had--
hag--
hai--
hal--
ham--
han--
hand--
happe--
har--
hard--
hart--
has--
hat--
haw--
hay--
he--
head--
heart--
heij--
hel--
hemisp--
hen--
her--
hey--
hi--
hig--
high--
hil--
hip--
his--
hit--
hl--
ho--
hob--
hog--
hol--
home--
homoph--
hop--
hor--
hot--
hou--
how--
hr--
hu--
hub--
hus--
hy--
hyper--
hypoc--
i--
ib--
iba--
ibe--
ibi--
ibu--
ic--
ich--
id--
ida--
ide--
ido--
idu--
ie--
if--
ife--
ig--
iga--
ign--
igu--
ihe--
ihi--
ihu--
ii--
ije--
ik--
ike--
iku--
ikwu--
il--
ile--
illus--
ilu--
im--
ima--
ime--
imi--
impro--
in--
ina--
inaug--
inc--
indi--
indu--
infin--
influ--
info--
ing--
inga--
ingr--
inju--
ink--
ino--
inst--
instru--
int--
inter--
inve--
invi--
io--
ip--
ir--
iri--
is--
ise--
isi--
iso--
isti--
isu--
it--
iv--
ivo--
iwe--
iwu--
iz--
izu--
j--
ja--
jaci--
jah--
jaiye--
jam--
jan--
jar--
jay--
je--
jea--
jen--
ji--
jin--
jing--
jo--
job--
joce--
jor--
jou--
jp--
jr--
ju--
judg--
k--
ka--
kab--
kaba--
kaby--
kai--
kal--
kam--
kan--
kar--
kati--
kay--
ke--
kee--
ken--
ker--
key--
kg--
kha--
kho--
khu--
ki--
kid--
kil--
kim--
kin--
kir--
kiri--
kit--
kla--
klo--
kne--
kno--
ko--
kom--
kor--
kou--
kp--
kpa--
kpe--
kpo--
kpu--
kra--
kre--
kri--
ku--
kunst--
kur--
kvi--
kw--
kwa--
kwe--
kwu--
ky--
l--
la--
lab--
lac--
lady--
lagos--
lam--
lan--
lang--
lar--
las--
lat--
law--
lay--
laza--
lc--
ld--
le--
lea--
led--
lee--
leg--
legis--
leh--
lei--
lek--
leo--
les--
let--
lexi--
ley--
lez--
li--
lia--
lib--
life--
lim--
lin--
lipp--
lit--
litho--
ll--
lo--
loc--
log--
long--
loo--
lou--
love--
low--
lu--
luci--
ly--
m--
ma--
maa--
mac--
mad--
mag--
mah--
mai--
mak--
mal--
man--
mani--
manu--
map--
maq--
mar--
mari--
mary--
mas--
mascu--
mat--
math--
matri--
may--
maz--
mb--
mba--
mbe--
mbi--
mbo--
mbu--
mc--
mcc--
mccor--
mcgo--
mcla--
mcle--
md--
me--
med--
medal--
media--
meg--
mega--
mek--
mel--
memo--
men--
mer--
mes--
met--
meta--
mete--
mexi--
mez--
mg--
mgba--
mhl--
mi--
mic--
micro--
mid--
mik--
milit--
min--
mini--
mir--
mire--
misc--
mit--
mk--
mkpa--
mm--
mma--
mme--
mn--
mo--
mole--
mon--
monog--
mor--
more--
motiv--
mots--
mou--
mour--
mous--
mp--
mr--
ms--
mt--
mu--
multi--
mum--
mun--
mur--
mve--
mw--
mwe--
my--
myste--
mza--
n--
na--
nag--
nai--
naj--
naka--
nal--
nam--
nan--
nar--
nas--
nat--
nav--
naz--
nb--
nc--
nche--
nd--
nda--
nde--
ndi--
ndo--
ndu--
ndubu--
ne--
ned--
neder--
nee--
neig--
nel--
neo--
ner--
net--
neu--
neur--
new--
news--
ng--
nga--
ngo--
ngu--
nh--
ni--
nia--
nig--
nij--
nik--
nin--
nj--
nk--
nka--
nke--
nko--
nku--
nkwu--
nla--
nle--
nm--
nn--
nna--
nne--
nno--
no--
nom--
noma--
non--
nonts--
nor--
nos--
not--
nov--
now--
nq--
nr--
nsi--
nso--
nt--
nta--
nto--
ntu--
nu--
nut--
nw--
nwa--
nwe--
nweta--
nwu--
ny--
nya--
nye--
nyi--
nyo--
nz--
nze--
o--
oa--
oak--
ob--
oba--
obe--
obi--
obu--
oc--
occup--
od--
ode--
odi--
odo--
odu--
of--
off--
og--
oga--
oge--
ogi--
ogo--
ogu--
ogun--
oh--
oha--
ohu--
oje--
oji--
oju--
ok--
oka--
oke--
oko--
oku--
okwe--
ol--
ola--
old--
olden--
oloru--
olu--
oluwa--
om--
oma--
ome--
omi--
omitted--
omo--
omu--
on--
ona--
one--
oni--
ono--
onu--
onwe--
onwu--
onye--
oo--
op--
or--
ora--
ore--
ori--
oro--
orph--
orth--
oru--
os--
osa--
oshim--
osi--
oso--
osu--
ota--
oti--
oto--
ou--
out--
ov--
ova--
over--
owo--
oxi--
oxyg--
oye--
oyi--
oyo--
ozo--
p--
pa--
pac--
pad--
palan--
pall--
pan--
par--
para--
park--
pas--
pass--
pat--
path--
pay--
pe--
peace--
peint--
pen--
per--
pet--
pf--
ph--
phar--
phe--
phono--
phosph--
photo--
phy--
pi--
pic--
picto--
pig--
pin--
pix--
piz--
pl--
play--
pm--
po--
pol--
pop--
por--
pos--
post--
pot--
pr--
pract--
prae--
pre--
pri--
pro--
prove--
ps--
psy--
psycho--
pu--
pur--
q--
qis--
qu--
quali--
que--
qui--
r--
ra--
radio--
rah--
rai--
ram--
rama--
rap--
ras--
raw--
ray--
rc--
re--
rec--
recom--
red--
rede--
redee--
ref--
rein--
rel--
rep--
repub--
res--
respo--
resur--
reti--
retr--
rev--
rhet--
rhi--
rho--
rhy--
ri--
rid--
ridd--
rie--
rijks--
ro--
rob--
roc--
rock--
roe--
rom--
rose--
rou--
row--
rox--
rs--
ru--
rug--
run--
ry--
s--
sa--
sab--
sad--
saff--
sah--
sak--
sal--
sam--
san--
sand--
sar--
sat--
savi--
saw--
sax--
saxop--
say--
sc--
scar--
sch--
sche--
scho--
sco--
scor--
screen--
sculp--
se--
sea--
see--
sel--
semi--
sen--
sep--
ser--
sey--
sf--
sh--
sha--
she--
sher--
shi--
sho--
shu--
si--
side--
sie--
sig--
sil--
sin--
sir--
sis--
six--
sk--
skatebo--
ske--
skol--
sky--
sl--
sla--
slip--
slo--
smo--
smoo--
sna--
snap--
sni--
sny--
so--
socio--
soft--
sok--
sol--
some--
son--
song--
sor--
sou--
south--
soy--
sp--
spa--
spec--
specu--
spra--
squ--
ss--
st--
sta--
stan--
star--
stati--
ste--
steen--
sti--
sto--
stra--
stre--
stu--
sty--
su--
sub--
sud--
suff--
sun--
super--
supp--
supre--
sur--
susp--
sv--
sw--
sy--
syl--
syll--
symp--
synthe--
t--
ta--
tag--
tai--
take--
tam--
tan--
tar--
tas--
taw--
tax--
tb--
tc--
te--
tech--
tel--
tele--
temi--
ten--
ter--
tex--
th--
tha--
the--
theo--
thor--
thu--
thur--
ti--
til--
tim--
time--
tin--
tip--
to--
toi--
tole--
tom--
ton--
too--
tor--
tou--
tr--
tra--
trans--
tre--
tri--
tro--
ts--
tsha--
tshi--
tt--
tu--
tum--
tur--
tv--
tw--
ty--
u--
uc--
udo--
ug--
ugo--
uk--
uka--
ulo--
ultra--
um--
umu--
un--
una--
unc--
under--
uni--
up--
ups--
ur--
ura--
uru--
us--
usu--
uwa--
uzo--
v--
va--
val--
valu--
van--
var--
vari--
ve--
veget--
vehi--
ver--
vers--
vi--
via--
vic--
view--
vir--
visibi--
vo--
voca--
vol--
vr--
vu--
w--
wa--
wai--
wal--
wan--
war--
was--
water--
we--
wea--
web--
wei--
welt--
wen--
west--
wet--
whis--
whit--
white--
who--
wi--
wiki--
wil--
wild--
win--
wind--
with--
wo--
wol--
wood--
wool--
wor--
world--
wre--
wu--
wy--
x--
xenop--
xi--
xia--
xx--
y--
ya--
yam--
yan--
yar--
yaw--
ye--
yen--
yes--
yi--
yo--
you--
yu--
z--
za--
zaa--
zar--
ze--
zen--
zh--
zi--
zik--
zim--
zkhip--
zo--
zou--
zu--
zw--
đ--
кузнец--
н--
рос--
ا--
ال--
الج--
الح--
الد--
الس--
الش--
الع--
الف--
الم--
ب--
ج--
ح--
خ--
د--
ر--
ز--
س--
ش--
شع--
صو--
ع--
عا--
عم--
ف--
ل--
م--
مي--
ن--
ه--
ي--
--0
--1
--2
--22
--3
--4
--5
--6
--7
--8
--9
--a
--aa
--aal
--ab
--able
--ac
--ack
--acy
--ad
--ada
--ade
--ady
--ae
--af
--ag
--age
--agh
--agu
--ah
--ai
--ain
--aj
--aja
--ak
--al
--ala
--ale
--all
--ally
--am
--ama
--ame
--amo
--ams
--an
--ana
--ance
--and
--ane
--ang
--ani
--ano
--ans
--ant
--ants
--any
--anza
--ao
--ap
--ar
--ara
--ard
--are
--ari
--aries
--ars
--art
--ary
--as
--ase
--at
--ate
--ated
--ates
--ati
--ating
--ation
--ations
--ats
--atu
--au
--auer
--ault
--aux
--ave
--awi
--awy
--ax
--ay
--az
--b
--ba
--back
--bah
--baj
--bajo
--bal
--bank
--base
--bc
--be
--bee
--beghi
--ber
--berg
--bert
--bery
--bes
--bi
--bia
--bial
--bio
--biyi
--ble
--bo
--bol
--book
--bor
--boro
--box
--boy
--bra
--bs
--bt
--bu
--bule
--burg
--bwe
--by
--c
--ca
--cal
--card
--cas
--ce
--ced
--ces
--ch
--cha
--chapu
--che
--chi
--cho
--cht
--ci
--cide
--cies
--cing
--cio
--ck
--cker
--cks
--co
--cours
--croft
--cs
--ct
--ction
--ctions
--ctive
--cts
--cu
--cy
--d
--da
--dah
--dale
--day
--dd
--dde
--ddy
--de
--ded
--der
--des
--dez
--dh
--di
--dia
--dic
--dim
--dis
--disc
--dium
--dja
--dle
--do
--dor
--dou
--dra
--ds
--dsley
--dt
--du
--dun
--duwa
--dwa
--dy
--dza
--dzi
--e
--ea
--eal
--eb
--ec
--ech
--eck
--ect
--ed
--ee
--eed
--eel
--ees
--ef
--eh
--ei
--ein
--ek
--el
--ela
--ele
--ell
--elli
--elo
--elope
--els
--em
--en
--ena
--ence
--ences
--ency
--ene
--eng
--ening
--enne
--eno
--ens
--ense
--ent
--ents
--eny
--eo
--eon
--eption
--er
--erd
--ere
--erg
--ern
--ers
--ert
--ery
--es
--ese
--ess
--est
--et
--ete
--eth
--ets
--ett
--ette
--ety
--eur
--eurs
--eus
--ew
--ews
--ex
--ey
--eye
--ez
--eze
--f
--fa
--fe
--feld
--ff
--ffa
--fi
--fia
--fied
--file
--film
--flies
--fm
--fo
--ford
--frica
--fs
--ft
--fu
--ful
--fusi
--fy
--g
--ga
--gai
--gal
--gan
--gar
--gation
--gba
--gbe
--gbo
--gbu
--ge
--ged
--gen
--ger
--ges
--gg
--ggi
--ggs
--gh
--ghi
--gho
--ght
--gi
--gia
--gic
--gie
--ging
--gio
--gist
--gle
--gn
--go
--gon
--gram
--graph
--gre
--gs
--gton
--gu
--gui
--gun
--gwe
--gwu
--gy
--h
--ha
--hab
--ham
--han
--har
--hari
--he
--head
--hed
--hee
--her
--hes
--hi
--hia
--hic
--hin
--hing
--hip
--hl
--hm
--hn
--ho
--hof
--hol
--hold
--hom
--hood
--hop
--hout
--hra
--hs
--ht
--hu
--hub
--hun
--hura
--hy
--i
--ia
--ial
--ian
--ias
--iate
--ib
--ible
--ic
--ica
--ical
--ick
--ico
--ics
--id
--ide
--idy
--ie
--ied
--ief
--iek
--ien
--ier
--ies
--if
--iff
--ig
--igan
--ight
--igi
--ii
--iji
--ik
--ika
--iki
--il
--ile
--ille
--ily
--im
--ima
--in
--ina
--inal
--ination
--ine
--ined
--ines
--info
--ing
--ings
--ington
--ini
--ino
--ins
--io
--ion
--ions
--ious
--ip
--iq
--ique
--ir
--ira
--ire
--iri
--is
--isation
--ise
--ised
--ish
--ising
--ism
--iso
--ison
--iss
--ist
--istic
--ists
--it
--ite
--ith
--ities
--ity
--itz
--iu
--ium
--ius
--iv
--ival
--ive
--ives
--ivity
--iwa
--ix
--iya
--iye
--iz
--ization
--ize
--ized
--izing
--j
--ja
--je
--ji
--jn
--jo
--ju
--k
--ka
--kar
--kari
--kat
--ke
--ker
--kers
--kh
--ki
--kie
--kir
--ko
--kon
--koya
--kpa
--kpo
--kr
--ks
--ku
--kun
--kus
--kwa
--kwara
--kwe
--kwu
--kwuo
--ky
--kye
--l
--la
--lade
--lah
--laise
--land
--lani
--lar
--law
--layo
--ld
--lde
--ldo
--le
--led
--len
--lene
--ler
--leri
--lers
--les
--less
--let
--lex
--ley
--lf
--li
--lia
--lie
--life
--lin
--line
--ling
--link
--lio
--lis
--lism
--list
--lity
--live
--lk
--ll
--lla
--llah
--lle
--lles
--lli
--lling
--llo
--lm
--lo
--logy
--lon
--loo
--lor
--lore
--low
--lph
--ls
--lt
--lu
--lude
--lum
--lwa
--ly
--lyn
--lz
--m
--ma
--mah
--man
--mark
--mate
--mates
--mba
--mbo
--me
--med
--men
--ment
--ments
--mer
--mers
--mes
--mey
--mi
--mia
--mic
--mie
--mist
--mm
--mma
--mo
--mola
--mont
--more
--mott
--mp
--mpa
--ms
--mu
--mus
--museum
--my
--n
--na
--nah
--naka
--nal
--nam
--nary
--nat
--nberg
--nbo
--nce
--nces
--nch
--ncia
--ncing
--ncy
--nd
--nda
--nde
--ndi
--ndo
--ndon
--nds
--ndu
--ndum
--ndy
--ne
--ned
--neke
--nel
--ner
--ners
--nes
--ness
--net
--news
--ney
--ng
--nga
--nge
--nger
--ngi
--ngle
--ngo
--ngs
--ni
--nia
--nic
--nig
--ning
--nis
--nism
--nity
--nium
--nja
--nje
--nke
--nmi
--nn
--nna
--nne
--nnial
--no
--nock
--now
--ns
--nsi
--nt
--nta
--nte
--ntina
--nto
--nts
--nty
--nu
--nuga
--nus
--nwa
--ny
--nya
--nye
--nyu
--nza
--nzi
--o
--oa
--oah
--obi
--ock
--oco
--od
--ody
--oe
--off
--ogy
--oh
--oi
--oid
--ok
--oke
--ol
--ola
--olo
--ology
--olu
--om
--ombe
--on
--ona
--onal
--one
--ong
--ongo
--online
--ons
--onwe
--oo
--ool
--op
--or
--ord
--ore
--oro
--ors
--ory
--os
--ot
--ott
--ou
--oui
--oum
--oun
--ous
--out
--ov
--ova
--ow
--ows
--oy
--ozi
--p
--pa
--pace
--pal
--pe
--ped
--per
--pf
--ph
--pha
--phs
--phy
--pi
--ping
--ple
--po
--port
--post
--pot
--ps
--pse
--pt
--pu
--py
--q
--qa
--qi
--que
--ques
--r
--ra
--rabe
--raf
--rah
--ral
--rar
--rator
--rators
--rb
--rc
--rce
--rchy
--rd
--rdi
--rds
--re
--red
--ren
--rer
--res
--ress
--ret
--rf
--rg
--rgy
--ri
--ria
--rian
--riba
--ric
--rie
--ries
--rik
--rin
--rine
--rio
--ris
--rism
--rist
--rk
--rks
--rl
--rm
--rmal
--rn
--ro
--rol
--ron
--room
--ros
--rou
--roun
--row
--rp
--rr
--rra
--rre
--rry
--rs
--rson
--rt
--rton
--ru
--rugwu
--rum
--rus
--rwa
--ry
--ryl
--s
--sa
--sal
--sburg
--sby
--scape
--sch
--sco
--scu
--sden
--se
--sed
--sef
--selves
--sen
--sey
--seye
--sfield
--sh
--sha
--she
--shi
--ship
--shire
--si
--sia
--side
--sie
--sike
--sion
--siri
--sis
--sity
--sive
--sk
--ska
--sley
--sm
--smo
--so
--som
--son
--sp
--ss
--sse
--ssi
--sson
--ssy
--st
--sta
--star
--ste
--ster
--sto
--ston
--stro
--sts
--su
--sum
--sumption
--sun
--sus
--sville
--swa
--sy
--t
--ta
--table
--tah
--tal
--tan
--tar
--tara
--tation
--tch
--te
--ted
--tely
--ten
--ter
--ters
--tery
--tes
--tese
--tet
--teur
--tey
--th
--thal
--thi
--thu
--thy
--ti
--tia
--tial
--tic
--tics
--time
--times
--ting
--tion
--tional
--tions
--tis
--tism
--tive
--tle
--tler
--to
--toba
--tokun
--ton
--tone
--top
--tor
--tors
--tory
--tos
--tou
--town
--tro
--try
--ts
--tse
--tsho
--tsi
--tt
--tta
--tte
--ttes
--tti
--tu
--ture
--tus
--tute
--tutes
--tv
--ty
--tz
--tzer
--u
--ua
--uan
--ub
--ud
--ue
--uen
--uf
--uga
--uge
--ugo
--ui
--uit
--uk
--uke
--ul
--ula
--ular
--ule
--uly
--um
--ume
--umi
--un
--ung
--up
--ur
--ure
--ures
--uri
--uring
--urn
--urs
--ury
--us
--usion
--ut
--uta
--ute
--uts
--uu
--uw
--ux
--uz
--v
--va
--val
--vat
--vation
--ve
--ven
--ver
--verein
--vers
--vert
--ves
--vez
--vi
--view
--ville
--vin
--ving
--vis
--vo
--vre
--vu
--vy
--w
--wa
--waba
--wald
--wall
--war
--ware
--way
--we
--web
--wi
--wick
--wig
--wl
--wn
--wo
--woman
--wood
--work
--world
--wr
--wry
--ws
--wu
--wumi
--wura
--wusi
--x
--xi
--xy
--y
--ya
--yah
--yan
--yat
--yd
--ye
--yer
--yi
--yl
--yle
--ym
--yn
--yna
--yo
--yode
--yon
--yr
--ys
--yt
--yu
--z
--za
--zan
--zani
--zar
--zation
--ze
--zed
--zel
--zer
--zi
--zia
--zie
--zing
--zo
--zoba
--zon
--zu
--zua
--zy
--zzy
--и
--ا
--اء
--ان
--اي
--ب
--ة
--ت
--د
--دة
--ر
--رة
--ز
--سل
--ـ
--ف
--ل
--م
--ن
--ى
--ي
--ية
--يد
--ين
