!
"
#
##0
##1
##10
##11
##12
##13
##14
##15
##16
##17
##18
##19
##2
##20
##21
##22
##23
##24
##25
##26
##27
##28
##29
##3
##30
##31
##32
##33
##34
##35
##36
##37
##38
##39
##4
##40
##41
##42
##43
##44
##45
##46
##47
##48
##49
##5
##50
##51
##52
##53
##54
##55
##56
##57
##58
##59
##6
##60
##61
##62
##63
##64
##65
##66
##67
##68
##69
##7
##70
##71
##72
##73
##74
##75
##76
##77
##78
##79
##8
##80
##81
##82
##83
##84
##85
##86
##87
##88
##89
##9
##90
##91
##92
##93
##94
##95
##96
##97
##98
##99
$
%
&
'
(
)
*
+
,
-
.
/
0
000
01
02
03
04
05
06
07
08
09
1
10
100
101
102
103
104
105
106
107
108
109
11
110
111
112
113
114
115
116
117
118
119
12
120
121
122
123
124
125
126
127
128
129
13
130
131
132
133
134
135
136
137
138
139
14
140
141
142
143
144
145
146
147
148
149
15
150
151
152
153
154
155
156
157
158
159
16
160
161
162
163
164
165
166
167
168
169
17
170
171
172
173
174
175
176
177
178
179
18
180
181
182
183
184
185
186
187
188
189
19
190
191
192
193
194
195
196
197
198
199
2
20
200
2007
2011
2013
2014
202
203
206
207
208
21
210
212
213
214
216
218
219
22
220
221
224
23
24
25
26
263
264
266
27
28
29
3
30
31
314
32
33
34
35
36
37
38
39
4
40
41
42
43
44
45
46
47
48
49
5
50
51
52
53
54
55
56
57
58
59
6
60
61
62
63
64
65
66
67
68
69
7
70
71
72
73
74
75
76
77
78
79
8
80
81
82
83
84
85
86
87
87276
88
89
9
90
91
92
93
94
95
96
97
978
98
99
:
;
<
=
>
?
@
[
\
]
^
_
`
a
ab
abandon
abandoned
abha
abhimanyu
abiding
abl
able
abode
about
above
abs
absence
ac
acc
accent
accepted
accompanied
accord
according
account
act
acting
action
actions
active
acts
ad
add
added
addition
addressed
adhya
adj
adorned
adv
advice
advised
adyumna
aff
affection
affix
afflicted
afraid
after
again
against
agastya
age
agitated
agni
agreed
agreement
ah
aim
air
aitareya
aitbr
ak
aka
aks
ala
all
alone
along
already
also
although
altindisches
always
alya
am
ama
among
amr
an
ana
anam
ancient
and
andhakas
anger
angry
animal
animals
another
answer
anus
any
anything
aor
apa
api
apparently
appear
appearance
appeared
appears
application
applied
approach
approached
ar
ara
are
area
argument
arjuna
arm
armed
arms
army
around
arranged
arrived
arrow
arrows
art
as
asa
ascetic
ask
asked
assembly
associated
association
asura
asuras
at
ata
atapatha
atharvaveda
ati
atra
atriya
atriyas
attached
attachment
attack
attacked
attain
attained
attendant
attendants
attended
auspicious
austerities
author
authority
authors
av
ava
avas
away
aya
b
ba
back
bad
bala
balara
bali
bamboo
bank
banks
bar
base
based
basis
bath
bathing
battle
be
bear
bearing
beautiful
beauty
became
because
become
becomes
becoming
bed
bee
been
before
began
beginning
behind
being
beings
belonging
beloved
below
bent
best
better
between
beyond
bg
bh
bha
bhag
bhagavad
bharata
bharati
bhartr
bhat
bhi
bhp
bhpr
bhr
bhu
big
bird
birds
birth
bk
black
blessed
blood
blow
blue
bo
bodies
body
bom
book
books
boon
born
both
bound
bow
boy
br
bra
brahma
brahman
brahmin
branch
break
breaking
breast
breath
bright
bring
bringing
broken
brother
brothers
brought
brown
bu
buddh
buddha
buddhist
bull
burn
burning
burnt
business
but
butter
bv
by
bya
byed
byung
bzhin
c
ca
cad
caiva
calendopedia
call
called
calling
came
can
candra
cane
cannot
capable
capital
car
care
carriage
carried
carry
carrying
case
cases
cast
caste
cat
cattle
caus
causal
cause
caused
causes
causing
cd
celebrated
celestial
century
ceremony
certain
cf
ch
cha
chand
change
changed
chapter
chapters
character
characteristic
characteristics
chariot
charioteer
chariots
che
chen
chief
child
children
chos
chup
ci
circle
cit
city
cl
class
classes
clear
clearly
clever
close
cloth
clothes
cloud
clouds
co
cognition
col
cold
collected
collection
colour
coloured
com
combination
come
coming
comm
command
commentary
common
commonly
comp
company
compared
complete
completely
composed
composition
compound
compounds
con
conclusion
condition
conduct
conjunction
connected
connection
conquered
consciousness
consequence
consider
considered
consisting
constellation
contact
containing
contains
content
contents
control
copper
corn
corr
correct
corresponding
cotton
could
countries
country
course
court
cover
covered
covering
cow
cows
created
creation
creeper
crooked
cross
crow
cruel
cry
cuckoo
current
curse
cursed
cut
cutting
cv
d
da
dag
daily
daks
dam
dan
dana
dance
dancing
dang
danger
dark
darkness
das
dat
date
daughter
daughters
day
days
dbang
de
dead
dear
death
decided
deeds
deep
deer
defeat
defeated
deities
deity
delhi
delight
delighted
demon
demons
denotes
dependent
deprived
derived
des
descendant
descendants
described
description
desid
desire
desired
desires
desirous
destroy
destroyed
destroyer
destroying
destruction
details
deva
devas
development
devi
devoted
devotion
dh
dha
dharma
dharmas
dhi
dhr
dhu
dhya
di
dice
dictionary
did
die
difference
different
difficult
digitized
direct
direction
directions
dis
disease
displaystyle
distance
distinction
distinguished
distress
district
divide
divided
divine
division
divisions
divya
djvu
dk
dmigs
do
doctrine
does
dog
doing
don
done
door
doubt
doubtful
down
dr
dra
drama
draupadi
draw
drawing
drawn
dress
drink
drinking
dron
drop
drug
drum
drupada
dry
du
due
duh
durga
during
duryodhana
dus
dust
duties
duty
dv
dva
dvi
dwelling
dynasty
dzin
e
each
ear
earlier
early
earth
easily
east
eastern
easy
eat
eaten
eating
ed
edition
effect
effort
eight
eighth
either
eka
elements
elephant
elephants
else
emended
eminent
employed
en
enable
end
ending
endowed
ends
enemies
enemy
energy
engaged
english
enjoyment
enter
entered
entire
entry
epic
epithet
equal
es
esp
especially
essence
established
et
etc
eternal
etra
european
eva
even
evening
event
events
ever
every
everything
evidence
evil
example
examples
excellent
except
excessive
exist
existence
expedition
explain
explained
explains
explanation
expressed
expression
extent
eya
eye
eyed
eyes
f
fa
face
fact
faith
fall
fallen
falling
false
fame
family
famous
far
fast
father
fault
favour
fear
feeling
feet
fell
felt
fem
female
festival
few
ff
field
fierce
fifth
fig
fight
fighting
figure
filled
final
find
finding
fine
finger
fire
firm
first
fish
fit
five
fixed
flesh
flight
flow
flower
flowers
flowing
fly
follow
followed
follower
following
follows
fond
food
foot
for
force
forehead
forest
form
formation
formed
former
formerly
forming
forms
forth
fortune
fought
found
four
fourth
fr
fragrant
free
freed
friend
friends
from
front
fruit
fruits
ft
full
fully
funeral
furnished
further
fut
future
g
ga
gada
gain
gal
game
gan
gandharva
gandharvas
ganges
ganita
gara
garden
garland
garment
garud
gas
gate
gaut
gautama
gavata
gave
gd
gen
general
generally
get
gets
getting
gha
ghat
ghee
gi
gift
gifts
girl
gita
give
given
gives
giving
gk
gloss
gnas
go
goat
gobh
god
goddess
gods
goes
going
gold
golden
gone
good
google
got
government
gr
gra
grain
gram
grammar
grass
great
green
grief
ground
group
grow
growing
grub
gu
guard
gun
guru
gveda
gyi
gyur
h
ha
had
hair
haka
half
ham
hand
hands
handsome
hanu
happened
happiness
happy
hard
hari
hariv
has
have
having
hcar
hcat
he
head
heap
hear
heard
hearing
heart
heat
heaven
heavenly
held
hell
help
hence
her
here
hermit
hermitage
hero
heroes
hi
high
higher
highest
highly
hill
him
himavant
himself
hindi
hindu
hira
hiran
his
history
hit
hita
hman
hold
holding
hole
holy
home
honey
honour
honoured
horse
horses
hot
house
how
however
hparis
html
http
https
hu
human
hundred
hurt
husband
hymn
hymns
i
ib
ibid
icch
id
idea
if
ifc
ih
ii
iii
ika
iks
ill
image
immediately
imperative
impf
importance
important
in
included
including
increase
ind
indeed
index
india
indian
individual
indo
indra
inf
inferior
information
ing
injure
inscr
insect
instance
instr
instrument
intelligence
intelligent
intended
intens
intercourse
interest
into
introduction
iron
irr
is
isbn
it
ita
iti
its
itself
iv
iva
ix
j
ja
jain
jan
jana
janamejaya
janapada
janapadas
jara
jasaneyi
jasu
jat
jaya
jayadratha
jayas
jewel
jewels
ji
jk
jn
joined
journal
journey
joy
juice
just
k
ka
kalin
kam
kan
kara
karma
karn
kas
kat
katha
kau
kaurava
kauravas
kaus
keep
keeper
keeping
kekayas
kept
kh
kha
khs
khya
ki
kill
killed
killing
kim
kind
kinds
king
kingdom
kings
kir
knew
know
knowing
knowledge
known
knows
kr
kraun
ks
ku
kubera
kula
kull
kum
kun
kunti
kuru
kuruks
kurus
kus
kyi
l
la
lake
laks
lalit
lam
lan
land
lang
language
languages
lar
large
las
last
lat
later
lati
latter
lava
law
lay
lch
le
lead
leader
leading
leaf
learned
learning
leave
leaves
leaving
leben
led
left
legs
length
less
let
letter
letters
li
library
life
light
like
lin
line
lines
lion
liquor
list
listed
lit
literature
little
live
lived
lives
living
ll
lo
loc
location
loka
long
look
looked
looking
lord
loss
lost
lotus
loud
love
lover
low
lower
lta
lunar
lustre
lva
lying
m
ma
made
magical
maha
main
maitrs
make
makes
making
male
man
manes
manifest
manner
mansion
mant
mantra
manu
many
mar
march
mark
marked
marriage
married
mas
master
material
matter
may
maya
mb
mbh
mci
me
mean
meaning
means
meant
measure
med
medicinal
medicine
meditation
meet
meeting
megh
member
men
mental
mention
mentioned
mere
merely
merit
meru
met
method
metre
mf
mfn
mi
middle
might
mighty
milk
mind
minister
missile
mitra
mixed
mk
mn
mngon
mo
mode
modern
moment
money
monkey
month
months
moon
more
morning
most
mother
mothers
motion
mountain
mountains
mouth
move
moving
mr
ms
msa
mss
mtshan
mu
much
multitude
mun
music
musical
must
mv
mw
my
mythical
n
na
nadi
nah
naigh
naish
naks
nam
name
named
names
nara
nas
natural
nature
ncert
nd
ndha
near
necessary
neck
nectar
neg
neither
neuter
never
new
news
next
ni
night
nine
nir
nis
no
noble
noise
nom
non
none
nor
north
northern
nose
not
note
notes
nothing
noun
nouns
now
nr
nt
nta
nti
number
numbers
nut
nya
nyid
o
object
objects
oblation
observance
observed
obtain
obtained
obtaining
occasion
occur
occurring
occurs
ocean
of
off
offer
offered
offering
offerings
office
official
offset
offspring
often
oh
oil
old
om
omits
omitted
on
once
one
oneself
only
open
opinion
opp
opposed
opposite
or
order
org
organ
organs
oriental
origin
original
originally
ornament
other
others
otherwise
our
out
outside
over
overcome
owl
own
p
pa
padma
page
pagenum
pain
palace
palm
pan
par
para
paras
part
partic
particle
particular
parts
parva
parvan
pas
pass
passage
passages
passed
passing
passion
past
pat
path
pati
patr
pdf
peace
peacock
peculiar
penance
people
pepper
per
perception
perfect
perfection
perform
performance
performed
performing
perfume
perhaps
period
person
personified
persons
pf
ph
philosophy
pi
piece
pieces
pin
pita
pl
place
placed
places
planet
planets
plant
plants
play
please
pleased
pleasing
pleasure
po
poem
poet
point
pointed
points
poison
pond
poor
portion
position
possessed
possessing
possession
possible
post
posture
pot
power
powerful
pp
pr
pra
prab
prabha
practice
practised
praise
praised
praja
prakrit
prati
pre
prec
preceding
preceptor
prepared
presence
present
presented
press
previous
pride
priest
prince
princess
principal
prob
probably
proceeding
process
produce
produced
producing
production
proofreadpage
proper
properly
property
prosperity
protect
protected
protection
proud
ps
pt
pu
public
pun
punishment
pupil
pur
pura
pure
purified
purpose
purus
pus
put
putting
q
qualities
quality
quantity
quarter
queen
question
quick
quickly
quite
quoted
r
ra
rab
race
rada
ragh
rain
raised
raka
ram
rama
ran
rang
range
rarely
ras
rat
rata
ratavars
ratha
rather
ratna
ravas
rays
rd
re
reach
reached
reaching
read
reading
reads
ready
real
reality
really
reason
receive
received
red
refer
reference
referred
refers
refuge
regard
regarded
region
rekha
related
relating
relation
released
religious
remain
remainder
remaining
remove
removed
removing
repeated
reply
represented
request
requested
res
resembling
residence
respect
respectively
rest
result
return
returned
rh
ri
rice
rich
riding
right
rigveda
rin
ring
rise
rising
rite
rites
ritual
river
rivers
rkp
rn
rnam
ro
road
rock
room
root
roots
rope
round
row
royal
rpra
rs
rtha
rtl
rtogs
rtt
ru
rudra
rule
ruled
ruler
rules
run
running
ruta
rv
rva
rvati
rya
ryas
s
sa
sabha
sacred
sacrifice
sacrifices
sacrificial
sage
sages
saha
sahadeva
said
saint
sake
salt
sam
sama
same
samhita
samskrit
samskrita
samved
san
sana
sandal
sankara
sanskrit
sarasvati
sarva
sarvad
sarve
sat
satisfied
saw
say
saying
says
sch
school
science
scil
script
scriptural
sea
search
season
seat
second
secondary
secret
section
see
seed
seeing
seems
seen
self
sems
send
sense
senses
sent
sentence
separate
separated
separation
seq
series
serpent
serpents
servant
serve
service
set
setting
seven
seventh
several
sexual
sg
shadow
shaking
shall
shape
share
sharp
she
shell
shes
shine
shining
short
should
show
shows
si
side
sides
sight
sign
silver
similar
similarly
simple
sin
since
sindhu
sing
single
sins
sister
site
sitting
situated
six
sixth
size
sk
skanda
skandha
skin
skt
sky
sleep
small
smell
snake
snang
so
society
soft
solar
soma
some
something
sometimes
son
song
sons
soon
sorrow
sort
soul
sound
sounds
source
south
southern
space
speak
speaking
special
species
speech
speed
spirit
spiritual
splendour
spoken
sport
spot
spread
spring
spyod
square
sr
sri
ss
st
staff
stage
stand
standing
stanza
star
stars
started
state
stated
statement
states
stay
stem
stems
stenzler
stha
stick
still
stinapura
stone
stood
stop
story
stra
stream
strength
striking
string
strong
struck
studien
study
su
sub
subject
substance
such
suffering
suffix
sugar
sugri
suitable
sum
sun
suparn
superior
support
supposed
supreme
sura
surrounded
sus
sutra
sva
sweet
sword
sya
syllable
syllables
system
t
ta
tad
tada
tah
tail
taittiri
take
taken
takes
taking
talk
tam
tan
tara
tas
taste
tasya
tatah
tatha
tato
tatra
taught
tbr
te
teacher
teaching
tears
teeth
tell
template
temple
ten
tenses
term
terms
tes
text
texts
tfrac
th
tha
than
that
the
their
them
themselves
then
there
therefore
these
they
thief
thing
things
think
thinking
third
this
thob
thoroughly
those
though
thought
thousand
thousands
thread
three
throat
through
throw
throwing
thrown
thus
ti
tih
time
times
tion
tis
title
tma
to
together
told
tongue
too
took
top
touch
towards
town
tr
tra
tradition
translation
tree
trees
tribe
tribute
true
truth
ts
tu
tup
turn
turned
turning
tv
tva
twelve
twenty
twice
two
tya
tyaki
type
tys
u
uka
ukra
un
una
unadi
under
understand
understanding
understood
union
united
universal
universe
university
unknown
up
upa
upanis
upon
upper
upwards
ura
us
use
used
using
usual
usually
uttara
v
va
vai
vainateya
vais
vajra
value
vam
vamedha
van
vana
var
vara
varbr
variety
various
varn
vars
varun
vas
vasis
vasu
vasudeva
vata
vati
vattha
ve
ved
veda
vedas
vedic
vehicle
verb
verse
verses
very
vessel
vet
vgr
vi
victory
view
vii
viii
vikr
village
vira
virtue
virtuous
vis
vishn
visible
visit
visited
viz
voice
vol
vop
vow
vowel
vp
vr
vs
vya
vyu
w
want
wanted
war
warrior
warriors
was
watch
water
waters
way
ways
we
weak
wealth
weapon
weapons
wearing
weber
website
weight
welfare
well
went
were
west
western
what
whatever
wheel
when
where
whether
which
while
white
who
whole
whom
whose
why
wicked
wide
wife
wild
will
wind
wisdom
wise
wish
wishing
with
within
without
wives
wk
woman
womb
women
wood
word
words
work
works
world
worldly
worlds
worm
worn
worship
worshipped
worthy
would
writing
written
wrong
www
x
xi
xii
xiii
xiv
xix
xv
xvi
xvii
xviii
xx
xxx
y
ya
yajn
yaka
yaks
yam
yama
yamuna
yan
yana
yang
yapa
yas
yate
yatha
yati
yatra
ye
year
years
yellow
yet
yh
yin
yo
yoga
yongs
you
young
younger
your
youth
youtube
yu
yudhis
yuga
z
zimmer
zy
{
|
}
~


¢
£
¥
¦
§
©
«
¬
®
°
²
³
·
¹
º
»
×
ð
ˈ
ː
˚
̀
́
̂
̃
̄
̆
̇
̈
̊
̌
̐
̣
̥
̦
̧
̨
َ
۔
ँ
ं
ः
अ
अउ
अक
अकर
अकल
अकस
अख
अखण
अग
अगच
अगन
अगम
अगल
अगस
अघ
अङ
अच
अचल
अचलन
अचलसज
अज
अजन
अजम
अजर
अजस
अञ
अट
अड
अण
अत
अतएव
अतत
अतन
अतश
अतस
अथ
अथर
अथव
अद
अदत
अदन
अदर
अध
अधम
अधर
अधस
अन
अनक
अनङ
अनड
अनत
अनध
अनन
अनप
अनभ
अनय
अनर
अनल
अनव
अनवस
अनस
अप
अपक
अपच
अपत
अपद
अपन
अपम
अपर
अपरम
अपरस
अपव
अपवर
अपश
अपस
अपह
अब
अभ
अभक
अभय
अभव
अभवत
अभवन
अम
अमत
अमन
अमर
अमरक
अय
अयच
अयत
अयथ
अयन
अयम
अयमप
अयमर
अयस
अर
अरण
अरत
अल
अलक
अलग
अलङ
अलम
अव
अवक
अवग
अवगम
अवच
अवज
अवत
अवद
अवदत
अवध
अवन
अवभ
अवम
अवयव
अवर
अवल
अवलम
अवश
अवस
अवसर
अवह
अश
अशक
अशन
अष
अस
असक
असङ
असत
असद
असन
असम
असमर
असर
असह
अह
अहङ
अहन
अहम
अहमप
अहर
आ
आक
आकर
आख
आग
आगच
आगत
आगन
आगम
आगमन
आघ
आङ
आच
आचक
आचम
आचर
आचरण
आचरन
आज
आजग
आञ
आट
आड
आढ
आण
आत
आतप
आथर
आद
आदत
आदद
आदध
आदर
आध
आन
आनन
आनय
आनर
आप
आपक
आपत
आपद
आपन
आपस
आफ
आब
आभ
आम
आमन
आमय
आय
आयत
आयतन
आयन
आयय
आयस
आर
आरक
आरण
आरब
आरभ
आरम
आल
आलभ
आलम
आलय
आलस
आव
आवन
आवय
आवर
आवरण
आवश
आश
आशङ
आशय
आष
आस
आसक
आसत
आसन
आह
आहत
आहर
आहवन
इ
इक
इग
इङ
इच
इज
इञ
इट
इड
इण
इत
इतच
इतर
इतरथ
इतरस
इतश
इतस
इद
इदन
इदम
इदमप
इध
इन
इनक
इभ
इम
इमम
इय
इयत
इयम
इयर
इर
इल
इळ
इव
इश
इष
इषम
इस
इसक
इसम
इसल
इसस
इह
ई
ईक
ईज
ईड
ईत
ईद
ईप
ईम
ईय
ईर
ईश
ईष
ईषत
ईषद
ईस
ईह
उ
उक
उख
उग
उच
उज
उञ
उड
उण
उत
उद
उदक
उदकम
उदग
उदङ
उदध
उदन
उदप
उदय
उदयन
उदर
उन
उनक
उप
उपक
उपग
उपच
उपज
उपत
उपद
उपदध
उपध
उपन
उपप
उपपत
उपपद
उपपन
उपभ
उपम
उपमण
उपय
उपयन
उपर
उपल
उपलक
उपलब
उपलभ
उपव
उपश
उपस
उपसङ
उपसद
उपसर
उपह
उभ
उभय
उभयत
उभयथ
उभयम
उभयस
उम
उर
उरस
उल
उव
उश
उशन
उष
उषस
उस
उसक
उह
ऊ
ऊच
ऊत
ऊतय
ऊध
ऊन
ऊपर
ऊर
ऊष
ऊह
ऋ
ऋक
ऋग
ऋच
ऋज
ऋण
ऋत
ऋतम
ऋतव
ऋतस
ऋद
ऋध
ऋभ
ऋष
ऋषभ
ऋषय
ऋषयश
ऌ
ए
एक
एकक
एकत
एकद
एकध
एकन
एकप
एकम
एकय
एकर
एकव
एकवचन
एकश
एकस
एच
एण
एत
एतच
एतत
एतद
एतदन
एतदप
एतदर
एतन
एतम
एतय
एतर
एतस
एद
एध
एन
एनम
एप
एभ
एम
एर
एरण
एल
एव
एवक
एवञ
एवम
एवमत
एवमन
एवमप
एवमस
एश
एष
एस
एह
ऐ
ऐक
ऐच
ऐत
ऐन
ऐर
ऐश
ऐस
ऐह
ओ
ओक
ओङ
ओज
ओजस
ओड
ओत
ओदन
ओन
ओम
ओर
ओल
ओष
ओषध
ओषधय
ओह
औ
औच
औत
औद
औप
और
औश
औष
औषध
औह
क
कक
ककर
ककल
कख
कग
कगत
कङ
कच
कचक
कचत
कचन
कज
कजन
कजम
कञ
कट
कटक
कटन
कटम
कटस
कठ
कड
कण
कणम
कत
कतत
कतन
कतम
कतय
कतर
कथ
कथञ
कथन
कथनम
कथम
कथमन
कथमप
कथमस
कथय
कथयत
कथयन
कथयस
कद
कदन
कदम
कदर
कदल
कध
कधर
कन
कनक
कनम
कप
कपक
कपञ
कपट
कपत
कपद
कपर
कफ
कफप
कफल
कफव
कब
कबन
कभ
कभक
कम
कमण
कमत
कमध
कमन
कमप
कमभ
कमर
कमल
कमव
कमस
कमह
कय
कयज
कयत
कयन
कर
करक
करग
करज
करञ
करण
करणक
करणत
करणन
करणप
करणभ
करणम
करणय
करणव
करणश
करणस
करत
करतल
करद
करन
करप
करभ
करम
करय
करर
करव
करश
करस
करह
कल
कलक
कलङ
कलत
कलन
कलम
कलय
कलयत
कलव
कलश
कलस
कलह
कव
कवच
कवचन
कवचनम
कवत
कवद
कवन
कवय
कवर
कवल
कवस
कश
कशत
कशततम
कशब
कशर
कष
कस
कसङ
कसत
कसद
कसन
कसप
कसभ
कसम
कसर
कह
कहत
ख
खक
खकर
खग
खङ
खच
खचक
खज
खञ
खट
खड
खण
खत
खद
खध
खन
खनत
खनन
खनम
खप
खब
खभ
खम
खमन
खमस
खय
खयत
खर
खरम
खरस
खल
खलत
खलन
खलम
खव
खश
खस
खसम
खह
ग
गई
गक
गकम
गकर
गकल
गग
गगत
गगन
गघ
गङ
गच
गज
गजन
गजप
गजम
गजव
गजस
गञ
गड
गण
गणक
गणन
गणप
गणपत
गणम
गणय
गणस
गत
गतक
गतज
गतत
गतद
गतन
गतप
गतम
गतय
गतर
गतव
गतवत
गतश
गतस
गद
गदत
गदन
गदम
गदय
गदर
गध
गधर
गन
गप
गपक
गपत
गपद
गपर
गफल
गब
गबल
गभ
गभङ
गभस
गम
गमक
गमण
गमत
गमद
गमध
गमन
गमनक
गमनम
गमनस
गमप
गमभ
गमम
गमय
गमयत
गमर
गमव
गमश
गमस
गमह
गय
गयत
गर
गरक
गरण
गरत
गरम
गरव
गरस
गरह
गल
गलक
गलग
गलत
गलद
गलन
गलप
गलम
गलव
गलस
गळ
गव
गवचन
गवत
गवतप
गवतम
गवद
गवन
गवम
गवय
गवर
गवल
गवश
गवस
गश
गशब
गष
गस
गसङ
गसन
गसम
गसहस
गह
गहन
गहर
घ
घक
घज
घञ
घट
घटक
घटत
घटन
घटम
घटस
घण
घत
घद
घन
घनत
घनप
घनम
घनस
घप
घम
घय
घर
घव
घवम
घवस
घश
घस
ङ
ङक
ङन
ङस
च
चक
चकत
चकप
चकम
चकर
चकल
चकस
चख
चग
चगव
चङ
चच
चचत
चज
चजन
चञ
चट
चटक
चण
चणक
चत
चतन
चतस
चद
चदश
चध
चन
चनक
चनत
चनद
चनप
चनम
चनय
चनव
चनस
चप
चपञ
चपर
चपल
चब
चभ
चम
चमत
चमन
चमम
चमर
चमस
चमह
चय
चयट
चयत
चयन
चयब
चयम
चयस
चर
चरक
चरकस
चरण
चरणम
चरणय
चरणस
चरत
चरन
चरम
चरस
चल
चलक
चलच
चलत
चलन
चलम
चलस
चलसज
चव
चवक
चवर
चश
चशत
चशब
चष
चस
चसप
चसम
चह
छ
छक
छङ
छट
छत
छतम
छथ
छद
छन
छप
छब
छम
छय
छर
छल
छव
छश
छस
ज
जक
जकत
जकन
जकम
जकर
जकस
जग
जगच
जगज
जगण
जगत
जगद
जगन
जगर
जघ
जघन
जङ
जच
जज
जञ
जट
जठर
जड
जडत
जत
जतरङ
जद
जध
जधर
जन
जनक
जनकत
जनकस
जनत
जनद
जनन
जनप
जनपद
जनपर
जनभ
जनम
जनमन
जनय
जनयत
जनयन
जनव
जनवर
जनश
जनस
जनसङ
जनसम
जप
जपत
जपन
जब
जभ
जम
जमदग
जमध
जमन
जय
जयक
जयत
जयद
जयन
जयप
जयम
जयश
जयस
जर
जरत
जरम
जरय
जरस
जल
जलक
जलज
जलत
जलद
जलध
जलन
जलप
जलम
जलमह
जलय
जलव
जलश
जलस
जव
जवत
जवन
जवर
जवल
जश
जशब
जस
जसत
जसन
जसम
जह
जहत
झ
झट
झत
झर
झल
ञ
ञक
ञकम
ञकर
ञत
ञद
ञदत
ञन
ञप
ञपत
ञभ
ञम
ञय
ञव
ञवल
ञश
ञस
ट
टक
टकम
टकर
टकव
टकस
टग
टङ
टच
टज
टजन
टत
टतम
टतय
टतर
टद
टध
टन
टनम
टप
टपत
टपम
टपर
टफल
टब
टभ
टम
टमत
टमध
टमन
टमप
टमस
टय
टयत
टयन
टयम
टयस
टर
टरम
टल
टव
टवत
टवर
टश
टशत
टशब
टस
टसम
टह
ठ
ठक
ठग
ठच
ठज
ठञ
ठड
ठत
ठतम
ठद
ठन
ठप
ठपद
ठपर
ठभ
ठम
ठमध
ठमह
ठय
ठर
ठल
ठव
ठश
ठस
ड
डक
डकम
डग
डङ
डच
डज
डड
डत
डद
डध
डन
डनम
डप
डपम
डब
डभ
डम
डमण
डमर
डय
डयत
डयन
डर
डल
डलक
डलम
डलय
डलस
डव
डवत
डश
डशभ
डस
ढ
ढक
ढच
ढत
ढद
ढन
ढप
ढभ
ढम
ढय
ढर
ढव
ढश
ढस
ण
णक
णकम
णकर
णकल
णकलश
णग
णगण
णघ
णच
णचत
णचन
णज
णजन
णञ
णत
णतम
णतय
णतर
णद
णध
णधर
णन
णनम
णप
णपक
णपत
णपद
णपर
णब
णभ
णभक
णम
णमण
णमत
णमध
णमन
णमप
णमभ
णमय
णमर
णमस
णय
णयज
णयत
णयन
णयस
णर
णरत
णल
णलक
णव
णवक
णवचन
णवत
णवद
णवन
णवम
णवर
णवल
णवस
णश
णशब
णशर
णस
णसङ
णसम
णसर
णह
णहर
णहस
त
तइत
तक
तकक
तकण
तकत
तकन
तकप
तकफ
तकम
तकय
तकर
तकरण
तकल
तकव
तकश
तकस
तख
तग
तगण
तगत
तगन
तगर
तघ
तङ
तच
तचक
तचत
तचन
तचर
तज
तजन
तजल
तञ
तट
तटम
तटस
तड
तण
तत
ततत
ततद
ततन
ततम
ततय
ततर
ततश
ततस
तथ
तथम
तद
तदक
तदग
तदङ
तदण
तदत
तदद
तदध
तदन
तदनन
तदप
तदभ
तदम
तदय
तदर
तदल
तदव
तदवस
तदश
तदस
तदसत
तदह
तध
तधन
तधर
तन
तनक
तनत
तनद
तनन
तनप
तनम
तनय
तनयन
तनयस
तनर
तनव
तनश
तनस
तप
तपक
तपञ
तपत
तपद
तपन
तपर
तपश
तपस
तफल
तब
तबक
तबन
तबल
तभ
तभक
तभव
तम
तमक
तमग
तमङ
तमच
तमज
तमञ
तमण
तमत
तमथ
तमद
तमध
तमन
तमनन
तमनस
तमप
तमब
तमभ
तमम
तमय
तमर
तमल
तमव
तमवर
तमश
तमस
तमह
तय
तयज
तयत
तयन
तयम
तयश
तयस
तर
तरक
तरकल
तरखण
तरग
तरगत
तरङ
तरच
तरज
तरण
तरत
तरतन
तरद
तरध
तरन
तरप
तरपद
तरपदस
तरपर
तरभ
तरम
तरमन
तरमप
तरमस
तरय
तरर
तरल
तरव
तरवर
तरश
तरशत
तरशततम
तरस
तरसम
तरह
तल
तलक
तलत
तलम
तलव
तलस
तव
तवक
तवचन
तवत
तवद
तवन
तवप
तवम
तवर
तवल
तवश
तवस
तवह
तश
तशक
तशङ
तशत
तशब
तशर
तशस
तष
तस
तसङ
तसत
तसद
तसन
तसप
तसम
तसमय
तसमस
तसर
तह
तहर
तहव
तहस
थ
थक
थकत
थकम
थकर
थकल
थग
थगत
थङ
थच
थज
थञ
थण
थत
थतत
थतय
थद
थदर
थध
थन
थनम
थनय
थप
थपत
थपर
थब
थभ
थम
थमत
थमध
थमन
थमप
थमभ
थमर
थमस
थमह
थय
थयत
थयन
थर
थल
थलक
थलम
थलस
थव
थवत
थवद
थवर
थश
थशब
थस
थसत
थसन
थसम
थह
द
दक
दकक
दकत
दकन
दकप
दकम
दकर
दकल
दकव
दकस
दख
दग
दगत
दघ
दङ
दच
दचन
दज
दञ
दण
दत
दतन
दतल
दथ
दद
ददत
ददर
दध
दधत
दधद
दधन
दधर
दन
दनक
दनत
दनद
दनन
दनप
दनपर
दनभ
दनम
दनय
दनर
दनव
दनश
दनस
दनसरस
दप
दपक
दपत
दपद
दपर
दब
दभ
दम
दमग
दमत
दमध
दमन
दमनक
दमप
दमब
दमभ
दमम
दमय
दमयन
दमर
दमव
दमस
दमह
दय
दयक
दयग
दयत
दयद
दयन
दयप
दयम
दयय
दयव
दयश
दयस
दर
दरक
दरण
दरत
दरद
दरप
दरम
दरव
दरश
दरस
दल
दलक
दलम
दव
दवत
दवद
दवन
दवर
दवश
दवस
दश
दशक
दशकप
दशग
दशत
दशद
दशध
दशन
दशप
दशब
दशभ
दशम
दशय
दशर
दशरथ
दशरथस
दशलक
दशव
दशवर
दशस
दशसहस
दष
दस
दसत
दसन
दसम
दसरस
दह
दहत
दहन
दहर
ध
धक
धकत
धकप
धकभ
धकम
धकर
धकल
धकव
धकस
धग
धच
धचन
धज
धजन
धञ
धट
धठ
धत
धतम
धतय
धद
धध
धधर
धन
धनक
धनञ
धनत
धनद
धनध
धनन
धनप
धनपत
धनभ
धनम
धनय
धनर
धनव
धनवत
धनश
धनस
धनह
धप
धपद
धपर
धफल
धब
धभ
धम
धमत
धमध
धमन
धमप
धमभ
धमर
धमस
धय
धयत
धयन
धयस
धर
धरक
धरण
धरत
धरन
धरम
धरस
धल
धलक
धव
धवत
धवद
धवन
धवम
धवर
धवल
धवश
धवस
धश
धशब
धस
धसत
धसम
धह
न
नक
नकम
नकर
नकल
नकस
नख
नग
नगण
नगत
नगम
नगर
नगरम
नगरस
नघ
नङ
नच
नचक
नचत
नज
नजन
नञ
नट
नड
नण
नत
नतत
नतन
नतप
नतम
नतय
नतर
नतस
नथ
नद
नदत
नदन
नदर
नध
नधर
नन
ननन
ननम
ननर
ननस
नप
नपक
नपञ
नपत
नपद
नपन
नपर
नफल
नब
नबल
नभ
नभक
नभस
नम
नमक
नमग
नमण
नमत
नमथ
नमद
नमध
नमन
नमनन
नमप
नमभ
नमम
नमय
नमर
नमव
नमश
नमस
नमह
नय
नयज
नयत
नयन
नयनम
नयनय
नयनस
नयम
नयश
नयस
नर
नरक
नरत
नरद
नरन
नरप
नरपत
नरभ
नरम
नरय
नरर
नरव
नरश
नरस
नरह
नल
नलक
नलम
नलस
नव
नवक
नवग
नवच
नवज
नवत
नवद
नवदन
नवध
नवन
नवप
नवभ
नवम
नवय
नवर
नवल
नवव
नवश
नवस
नश
नशक
नशत
नशब
नष
नस
नसङ
नसत
नसद
नसन
नसप
नसभ
नसम
नसमय
नसर
नसस
नसह
नह
नहन
नहम
प
पक
पकण
पकत
पकन
पकप
पकम
पकर
पकरण
पकल
पकव
पकस
पग
पगच
पगत
पगन
पगम
पघ
पङ
पच
पचक
पचत
पचन
पचय
पचर
पज
पजन
पञ
पट
पटल
पटस
पटह
पठ
पठत
पठन
पड
पढ
पण
पणक
पणन
पणप
पणम
पणमस
पणव
पणस
पत
पतङ
पतञ
पतत
पतद
पतन
पतय
पतर
पतस
पथ
पथम
पद
पदक
पदच
पदत
पदद
पदध
पदन
पदप
पदम
पदय
पदर
पदव
पदश
पदस
पध
पधर
पन
पनक
पनत
पनप
पनम
पनय
पनयन
पनव
पनस
पप
पपत
पपद
पपन
पपर
पफल
पब
पभ
पम
पमत
पमध
पमन
पमप
पमम
पमय
पमर
पमस
पमह
पय
पयत
पयद
पयन
पयस
पर
परक
परग
परच
परञ
परत
परतन
परतर
परद
परन
परप
परपक
परपर
परब
परभ
परम
परमक
परमत
परमद
परमन
परमप
परमम
परमय
परमर
परमव
परमश
परमस
परमह
परय
परर
परल
परव
परश
परस
परह
पल
पलक
पलत
पलद
पलब
पलभ
पलम
पलस
पव
पवत
पवद
पवन
पवम
पवर
पवस
पश
पशब
पशम
पशमन
पशव
पष
पस
पसङ
पसत
पसद
पसन
पसम
पसर
पह
पहत
पहन
पहम
पहर
पहरण
पहल
फ
फक
फट
फण
फत
फर
फल
फलक
फलकम
फलत
फलद
फलन
फलप
फलभ
फलम
फलय
फलव
फलवत
फलश
फलस
फस
ब
बई
बक
बकम
बख
बखण
बग
बङ
बच
बज
बट
बड
बढ
बण
बत
बद
बदर
बध
बन
बनत
बनम
बप
बब
बबन
बभ
बम
बय
बर
बरधर
बरम
बरस
बल
बलक
बलत
बलद
बलप
बलभद
बलम
बलय
बलर
बलव
बलवत
बलवद
बलवन
बलवर
बलश
बलस
बव
बवत
बश
बष
बस
बह
बहव
भ
भक
भकर
भग
भगण
भगत
भगन
भगम
भगव
भगवच
भगवत
भगवद
भगवन
भगस
भङ
भच
भचक
भज
भजत
भजन
भजम
भजस
भञ
भट
भण
भत
भद
भदन
भध
भन
भनम
भप
भपर
भभ
भम
भय
भयक
भयङ
भयत
भयथ
भयद
भयन
भयप
भयभ
भयम
भयव
भयस
भर
भरण
भरणभ
भरणम
भरत
भरतर
भरतस
भरद
भरन
भरम
भल
भलक
भव
भवक
भवच
भवत
भवतस
भवथ
भवद
भवन
भवनम
भवप
भवभ
भवम
भवर
भवव
भवश
भवस
भश
भष
भस
भसम
भह
म
मक
मकत
मकन
मकप
मकम
मकर
मकरण
मकरन
मकल
मकव
मकस
मख
मखण
मग
मगत
मगतम
मगध
मगन
मगर
मघ
मघव
मघवन
मङ
मच
मचक
मचन
मचर
मज
मजन
मजम
मञ
मट
मठ
मड
मण
मणक
मणग
मणत
मणप
मणभ
मणम
मणय
मणव
मणश
मणस
मत
मतङ
मतत
मतद
मतन
मतम
मतय
मतर
मतस
मथ
मथन
मद
मदक
मदग
मदत
मदन
मदनस
मदभ
मदम
मदर
मदल
मदव
मदस
मध
मधर
मन
मनक
मनन
मनप
मनम
मनय
मनर
मनव
मनश
मनस
मनसस
मप
मपक
मपत
मपद
मपर
मपश
मफल
मफलप
मब
मबन
मबल
मभ
मभक
मभद
मम
ममण
ममत
ममध
ममन
ममप
ममभ
ममय
ममर
ममस
ममह
मय
मयक
मयज
मयट
मयत
मयन
मयम
मयश
मयस
मर
मरक
मरण
मरणम
मरणस
मरत
मरथ
मरन
मरम
मरव
मरश
मरस
मरह
मल
मलक
मलत
मलप
मलम
मलय
मलस
मव
मवत
मवद
मवध
मवन
मवर
मवल
मवश
मवस
मश
मशक
मशत
मशब
मशर
मष
मस
मसङ
मसत
मसद
मसन
मसम
मसर
मसहस
मह
महच
महत
महद
महन
महप
महम
महर
महस
य
यक
यकक
यकत
यकथ
यकन
यकप
यकम
यकर
यकरण
यकरत
यकल
यकव
यकश
यकस
यख
यखण
यग
यगण
यगत
यगन
यगम
यगर
यघ
यङ
यच
यचक
यचत
यचन
यचर
यज
यजत
यजन
यजम
यजय
यजस
यञ
यट
यड
यण
यणप
यणभ
यणम
यणश
यणस
यत
यतक
यतत
यतद
यतन
यतनम
यतप
यतम
यतमम
यतमस
यतय
यतर
यतरस
यतव
यतश
यतस
यथ
यथम
यथर
यथव
यद
यदक
यदग
यदत
यदद
यदध
यदन
यदप
यदभ
यदम
यदय
यदर
यदव
यदश
यदस
यदह
यध
यधन
यधर
यन
यनक
यनत
यनन
यनप
यनभ
यनम
यनय
यनर
यनव
यनश
यनस
यप
यपक
यपञ
यपत
यपद
यपर
यपरत
यपरम
यपश
यपस
यफल
यब
यबन
यबल
यभ
यभक
यभट
यभव
यभवत
यम
यमक
यमग
यमङ
यमच
यमज
यमण
यमत
यमथ
यमद
यमध
यमन
यमप
यमपर
यमब
यमभ
यमम
यमय
यमयत
यमर
यमरट
यमल
यमव
यमश
यमष
यमस
यमह
यय
ययक
ययग
ययज
ययत
ययन
ययनम
ययनव
ययनस
ययप
ययम
ययय
ययलक
ययव
ययश
ययस
यर
यरक
यरत
यरश
यरस
यरह
यल
यलक
यलङ
यलम
यव
यवक
यवग
यवगम
यवच
यवचन
यवज
यवत
यवद
यवध
यवन
यवप
यवम
यवयव
यवर
यवल
यवश
यवस
यवह
यवहर
यवहरत
यश
यशक
यशङ
यशत
यशब
यशर
यशश
यशस
यष
यस
यसक
यसख
यसङ
यसत
यसद
यसन
यसनम
यसभ
यसम
यसमन
यसर
यसवन
यसस
यसह
यह
यहन
यहम
यहर
यहस
र
रक
रकक
रकट
रकण
रकत
रकथ
रकथनम
रकद
रकन
रकप
रकम
रकर
रकरण
रकरणम
रकरणस
रकल
रकव
रकश
रकस
रख
रखण
रखन
रग
रगण
रगत
रगद
रगन
रगम
रगमन
रगर
रगल
रघ
रघट
रङ
रच
रचक
रचण
रचत
रचन
रचय
रचयत
रचर
रचरण
रचरत
रचल
रचलत
रज
रजक
रजत
रजतम
रजतस
रजन
रजनन
रजप
रजम
रजय
रजल
रजस
रञ
रट
रड
रण
रणक
रणग
रणत
रणद
रणधर
रणन
रणप
रणभ
रणम
रणमन
रणय
रणयन
रणर
रणव
रणश
रणस
रत
रतक
रतत
रतद
रतन
रतप
रतपत
रतभ
रतम
रतय
रतर
रतव
रतवर
रतश
रतस
रथ
रथक
रथत
रथन
रथम
रथमखण
रथमज
रथमत
रथमद
रथमप
रथमम
रथमय
रथमव
रथमस
रथय
रथव
रथस
रद
रदक
रदण
रदत
रदद
रदन
रदम
रदर
रदश
रदस
रध
रधन
रधर
रन
रनन
रनर
रनष
रप
रपक
रपञ
रपट
रपण
रपत
रपद
रपन
रपय
रपर
रपरत
रपल
रपव
रपश
रफ
रफल
रब
रबन
रबल
रभ
रभक
रभङ
रभञ
रभत
रभद
रभन
रभम
रभय
रभव
रभवत
रभवन
रभस
रम
रमक
रमकर
रमग
रमङ
रमच
रमज
रमञ
रमण
रमणम
रमत
रमथ
रमद
रमध
रमन
रमप
रमपद
रमभ
रमम
रमय
रमयत
रमर
रमल
रमव
रमवत
रमश
रमस
रमसम
रमह
रय
रयक
रयच
रयज
रयण
रयत
रयद
रयन
रयप
रयभ
रयम
रयय
रयव
रयश
रयस
रर
ररक
ररत
ररथ
ररस
ररह
रल
रलक
रलङ
रलत
रलब
रलम
रलय
रव
रवक
रवग
रवच
रवचन
रवज
रवण
रवणम
रवणस
रवत
रवद
रवदन
रवध
रवन
रवप
रवम
रवयव
रवर
रवल
रवव
रवश
रवस
रवह
रवहत
रवहन
रश
रशक
रशङ
रशत
रशन
रशब
रशम
रशमन
रशर
रशश
रशस
रष
रस
रसक
रसग
रसङ
रसज
रसञ
रसट
रसत
रसद
रसन
रसप
रसब
रसभ
रसम
रसमन
रसय
रसर
रसरत
रसव
रसवत
रसश
रसस
रससरत
रसह
रसहस
रह
रहक
रहग
रहण
रहणप
रहणम
रहणस
रहत
रहद
रहन
रहप
रहभ
रहम
रहय
रहर
रहरण
रहरत
रहव
रहश
रहस
रहसन
ल
लक
लकण
लकत
लकन
लकप
लकम
लकर
लकल
लकव
लकस
लख
लग
लगणन
लगत
लघ
लङ
लच
लचक
लचर
लज
लजन
लञ
लट
लड
लण
लत
लतय
लतर
लथ
लद
लध
लधर
लन
लनक
लनम
लनस
लप
लपक
लपञ
लपत
लपद
लपन
लपर
लफल
लब
लबन
लभ
लभत
लभन
लभम
लभस
लम
लमण
लमत
लमध
लमन
लमप
लमर
लमस
लमह
लय
लयत
लयन
लयम
लयस
लर
लल
ललन
लव
लवक
लवङ
लवण
लवत
लवन
लवम
लवर
लवल
लवश
लवस
लश
लशब
लशर
लष
लस
लसक
लसत
लसद
लसन
लसम
लसर
लह
लहर
लहस
ळ
ळम
व
वक
वकत
वकन
वकप
वकम
वकर
वकल
वकव
वकस
वख
वखण
वग
वगच
वगण
वगत
वगतम
वगन
वगम
वगर
वघ
वङ
वच
वचक
वचत
वचन
वचनप
वचनम
वचनमब
वचनव
वचनस
वचम
वचर
वचस
वज
वजत
वजन
वजम
वजस
वञ
वट
वड
वडव
वण
वणत
वणम
वणस
वत
वतक
वतत
वतन
वतप
वतम
वतय
वतर
वतव
वतश
वतस
वथ
वद
वदक
वदत
वदध
वदन
वदभ
वदम
वदर
वदव
वदश
वदस
वध
वधन
वधम
वधय
वधर
वधस
वन
वनक
वनग
वनगर
वनत
वनद
वनन
वनप
वनभ
वनम
वनय
वनर
वनव
वनश
वनस
वप
वपक
वपच
वपट
वपत
वपद
वपदप
वपदस
वपन
वपर
वपश
वफल
वब
वबन
वबल
वभ
वभक
वम
वमक
वमग
वमङ
वमज
वमण
वमत
वमथ
वमद
वमध
वमन
वमप
वमभ
वमम
वमय
वमर
वमव
वमश
वमस
वमह
वय
वयक
वयज
वयजन
वयत
वयथ
वयन
वयप
वयब
वयम
वयमन
वयमप
वयय
वयव
वयवत
वयवस
वयश
वयस
वर
वरक
वरग
वरच
वरज
वरजङ
वरजस
वरण
वरणम
वरणस
वरत
वरथ
वरद
वरन
वरप
वरभ
वरम
वरमन
वरय
वरर
वरल
वरव
वरवर
वरश
वरस
वरसम
वरह
वल
वलक
वलग
वलङ
वलज
वलत
वलद
वलन
वलभ
वलम
वलय
वलव
वलस
वळ
वव
ववक
ववच
ववचन
ववत
ववद
ववध
ववन
ववर
ववल
ववश
ववस
वश
वशक
वशङ
वशत
वशब
वशम
वशर
वशस
वष
वषट
वस
वसक
वसङ
वसत
वसथ
वसद
वसन
वसम
वसर
वसव
वसवर
वसस
वसह
वह
वहण
वहत
वहन
वहम
वहर
वहस
श
शक
शकट
शकत
शकम
शकर
शकल
शकस
शग
शङ
शच
शज
शञ
शट
शठ
शण
शत
शतक
शतग
शतत
शततम
शतद
शतध
शतन
शतप
शतपत
शतभ
शतम
शतय
शतर
शतव
शतश
शतस
शतसहस
शद
शदक
शदध
शदर
शध
शधर
शन
शनक
शनन
शनप
शनम
शनय
शनव
शनश
शनस
शप
शपत
शपथ
शपर
शफ
शब
शबर
शबल
शभ
शम
शमध
शमन
शमप
शमभ
शमय
शमयत
शमस
शमह
शय
शयत
शयन
शयप
शयम
शयव
शयस
शर
शरण
शरणम
शरत
शरथ
शरद
शरभ
शरम
शरव
शरस
शरह
शल
शलक
शलम
शव
शवत
शवद
शवम
शवर
शवस
शश
शशक
शशब
शष
शस
शसन
शसम
शह
ष
षक
षकत
षकम
षकर
षकस
षग
षगत
षगन
षघ
षङ
षच
षचर
षज
षजन
षजम
षञ
षट
षड
षडक
षडङ
षडश
षडह
षण
षणक
षणत
षणतय
षणद
षणन
षणप
षणपर
षणभ
षणम
षणमन
षणमप
षणय
षणलक
षणव
षणश
षणस
षणसम
षत
षतम
षतय
षतस
षथ
षद
षदन
षदम
षदर
षध
षधम
षधय
षधर
षन
षप
षपत
षपद
षपय
षपर
षब
षभ
षभक
षभध
षभस
षम
षमज
षमत
षमध
षमन
षमप
षमभ
षमम
षमय
षमव
षमस
षमह
षय
षयक
षयकत
षयकर
षयज
षयत
षयतय
षयद
षयन
षयप
षयभ
षयम
षयव
षयश
षयस
षर
षरक
षरत
षरन
षरप
षरम
षरव
षरस
षरह
षल
षलक
षव
षवचन
षवत
षवद
षवन
षवर
षवश
षश
षशत
षशब
षष
षस
षसम
षसस
षसहस
षह
षहर
स
सक
सकत
सकम
सकर
सकल
सकलव
सकलस
सकस
सख
सखण
सग
सगण
सगत
सगर
सघ
सङ
सच
सचत
सचन
सचर
सज
सजन
सञ
सट
सण
सत
सतत
सततम
सतर
सद
सदन
सदम
सदर
सदस
सदसत
सदसद
सध
सधर
सधस
सन
सनक
सनत
सनन
सनप
सनम
सनय
सनव
सनस
सप
सपक
सपत
सपद
सपर
सफ
सफल
सब
सबक
सबन
सबल
सभ
सभक
सम
समक
समग
समङ
समच
समज
समञ
समण
समत
समद
समध
समन
समनन
समप
समपद
समभ
समभवत
समम
समय
समर
समल
समव
समवर
समवस
समश
समष
समस
समह
सय
सयत
सयन
सर
सरक
सरण
सरत
सरद
सरन
सरम
सरय
सरल
सरस
सल
सलक
सलम
सलय
सव
सवत
सवदत
सवन
सवनम
सवम
सवर
सवस
सश
सशब
सशर
सस
ससम
ससर
सह
सहक
सहचर
सहज
सहत
सहद
सहन
सहभ
सहम
सहय
सहर
सहव
सहस
ह
हक
हकत
हकम
हकर
हग
हङ
हच
हचर
हज
हञ
हट
हठ
हण
हणम
हत
हतत
हतम
हतव
हतश
हतस
हथ
हद
हदय
हध
हन
हनदत
हनन
हनम
हनस
हप
हपत
हपर
हब
हभ
हम
हमध
हमन
हमप
हमय
हमस
हय
हयग
हयत
हयन
हयम
हर
हरक
हरण
हरणम
हरत
हरन
हरम
हरय
हरस
हल
हलन
हलम
हव
हवत
हवन
हवम
हवर
हश
हस
हसत
हसन
हसम
हह
़
ऽ
ऽइ
ऽइत
ऽइव
ऽक
ऽकर
ऽख
ऽग
ऽघ
ऽङ
ऽच
ऽज
ऽञ
ऽण
ऽत
ऽतस
ऽथ
ऽथव
ऽद
ऽध
ऽधम
ऽधर
ऽन
ऽनघ
ऽनन
ऽनय
ऽनर
ऽनल
ऽप
ऽपत
ऽपर
ऽपव
ऽपश
ऽब
ऽभ
ऽभव
ऽभवत
ऽभवद
ऽभवन
ऽम
ऽमत
ऽमन
ऽमर
ऽय
ऽयन
ऽयम
ऽर
ऽरण
ऽल
ऽलङ
ऽव
ऽवक
ऽवगम
ऽवत
ऽवद
ऽवध
ऽवन
ऽवभ
ऽवयव
ऽवर
ऽवल
ऽवश
ऽवस
ऽश
ऽष
ऽस
ऽसत
ऽसद
ऽसम
ऽह
ऽहन
ऽहम
ऽहमस
ऽहर
ऽऽ
ऽऽक
ऽऽग
ऽऽच
ऽऽज
ऽऽत
ऽऽद
ऽऽन
ऽऽनन
ऽऽप
ऽऽय
ऽऽर
ऽऽव
ऽऽश
ऽऽस
ऽऽह
ा
ि
ी
ु
ू
ृ
ॄ
ॅ
ॆ
े
ै
ॉ
ॊ
ो
ौ
्
ॎ
ॐ
॑
॒
ॠ
ॡ
ॢ
।
॥
०
००
०००
००१
००२
००३
००४
००५
००६
००७
००८
००९
०१
०१०
०११
०१२
०१३
०१४
०१५
०१६
०१७
०१८
०१९
०२
०२०
०२१
०२२
०२३
०२४
०२५
०२६
०२७
०२८
०२९
०३
०३०
०३१
०३२
०३५
०३८
०४
०४०
०५
०६
०६६
०६७
०७
०७०
०७२
०७९
०८
०९
०९४
१
१०
१००
१०००
१०१
१०२
१०३
१०४
१०५
१०६
१०७
१०८
१०९
११
११०
१११
११२
११३
११४
११५
११६
११७
११८
११९
१२
१२०
१२१
१२२
१२३
१२४
१२५
१२६
१२७
१२८
१२९
१३
१३०
१३१
१३२
१३३
१३४
१३५
१३६
१३७
१३८
१३९
१४
१४०
१४१
१४२
१४३
१४४
१४५
१४६
१४७
१४८
१४९
१५
१५०
१५१
१५२
१५३
१५४
१५५
१५६
१५७
१५८
१५९
१६
१६०
१६१
१६२
१६३
१६४
१६५
१६६
१६७
१६८
१६९
१७
१७०
१७१
१७२
१७३
१७४
१७५
१७६
१७७
१७८
१७९
१८
१८०
१८१
१८२
१८३
१८४
१८५
१८६
१८७
१८८
१८९
१९
१९०
१९१
१९२
१९३
१९४
१९५
१९६
१९७
१९८
१९९
२
२०
२००
२००१
२०१
२०११
२०२
२०३
२०४
२०५
२०६
२०७
२०८
२०९
२१
२१०
२११
२१२
२१३
२१४
२१५
२१६
२१७
२१८
२१९
२२
२२०
२२१
२२२
२२३
२२४
२२५
२२६
२२७
२२८
२२९
२३
२३०
२३१
२३२
२३३
२३४
२३४५
२३५
२३६
२३७
२३८
२३९
२४
२४०
२४१
२४२
२४३
२४४
२४५
२४६
२४७
२४८
२४९
२५
२५०
२५१
२५२
२५३
२५४
२५५
२५६
२५७
२५८
२५९
२६
२६०
२६१
२६२
२६३
२६४
२६५
२६६
२६७
२६८
२६९
२७
२७०
२७१
२७२
२७३
२७४
२७५
२७६
२७७
२७८
२७९
२८
२८०
२८१
२८२
२८३
२८४
२८५
२८६
२८७
२८८
२८९
२९
२९०
२९१
२९२
२९३
२९४
२९५
२९६
२९७
२९८
२९९
३
३०
३००
३०१
३०२
३०३
३०४
३०५
३०६
३०७
३०८
३०९
३१
३१०
३११
३१२
३१३
३१४
३१५
३१६
३१७
३१८
३१९
३२
३२०
३२१
३२२
३२३
३२४
३२५
३२६
३२७
३२८
३२९
३३
३३०
३३१
३३२
३३३
३३४
३३५
३३६
३३७
३३८
३३९
३४
३४०
३४१
३४२
३४३
३४४
३४५
३४६
३४७
३४८
३४९
३५
३५०
३५१
३५२
३५३
३५४
३५५
३५६
३५७
३५८
३५९
३६
३६०
३६१
३६२
३६३
३६४
३६५
३६६
३६७
३६८
३६९
३७
३७०
३७१
३७२
३७३
३७४
३७५
३७६
३७७
३७८
३७९
३८
३८०
३८१
३८२
३८३
३८४
३८५
३८६
३८७
३८८
३८९
३९
३९१
३९२
३९३
३९४
३९५
३९६
३९७
३९८
३९९
४
४०
४००
४०१
४०२
४०३
४०४
४०६
४०७
४०८
४०९
४१
४१०
४११
४१२
४१३
४१४
४१५
४१६
४१७
४१८
४१९
४२
४२०
४२१
४२२
४२३
४२४
४२५
४२७
४२८
४३
४३१
४३२
४३३
४३४
४३५
४३६
४३८
४३९
४४
४४१
४४३
४४४
४४६
४४७
४५
४५०
४५२
४५३
४५५
४५६
४५८
४५९
४६
४६१
४६३
४६४
४६६
४६८
४६९
४७
४७१
४७८
४८
४८४
४८६
४८८
४९
४९०
५
५०
५००
५१
५२
५२५
५३
५४
५५
५६
५७
५८
५९
६
६०
६१
६२
६३
६४
६५
६६
६७
६८
६९
७
७०
७१
७२
७३
७४
७५
७६
७७
७८
७९
८
८०
८१
८२
८३
८४
८५
८६
८७
८८
८९
९
९०
९१
९२
९३
९४
९५
९६
९७
९८
९९
॰
ং
ক
গ
জ
ড
ত
দ
ধ
ন
প
ব
ম
য
র
ল
শ
ষ
স
হ
়
া
ি
ী
ু
ে
্
ৰ
ં
ક
જ
ત
દ
ન
પ
મ
ય
ર
લ
વ
સ
ા
િ
ી
ુ
ૂ
ે
ો
્
க
கள
ங
ச
ட
ண
த
தல
ந
ன
ப
ம
ய
ர
ற
ல
ள
ழ
வ
ஷ
ஸ
ா
ி
ீ
ு
ூ
ெ
ே
ை
்
ం
క
గ
చ
జ
ట
డ
త
ద
ధ
న
ప
బ
భ
మ
య
ర
ల
వ
శ
ష
స
ా
ి
ీ
ు
ూ
ె
ే
ొ
ో
్
ౖ
ಂ
ಕ
ಗ
ಚ
ಜ
ಟ
ಡ
ಣ
ತ
ದ
ಧ
ನ
ಪ
ಬ
ಭ
ಮ
ಯ
ರ
ಲ
ಳ
ವ
ಶ
ಷ
ಸ
ಹ
ಾ
ಿ
ು
ೂ
ೃ
ೆ
್
ೕ
ೖ
೦
ം
ക
ഗ
ങ
ച
ജ
ഞ
ട
ണ
ത
ഥ
ദ
ധ
ന
പ
ബ
ഭ
മ
യ
ര
റ
ല
ള
ഴ
വ
ശ
ഷ
സ
ഹ
ാ
ി
ീ
ു
ൂ
ൃ
െ
േ
ൈ
്
་
།
༡
༢
༣
ཀ
ཁ
ག
གཅ
གཉ
གནས
གཞ
གཟ
གས
ང
ངས
ཅ
ཅན
ཆ
ཇ
ཉ
ཏ
ཐ
ད
དག
དང
དབ
དབང
དམ
ན
ནད
ནས
པ
པའ
པར
ཕ
བ
བག
བད
བཞ
བཟ
བའ
བར
བས
མ
མང
མཆ
མཐ
མཚན
མས
ཚ
ཞ
ཟ
འ
འཁ
འག
འཇ
འཐ
འད
འབ
འཛ
ཡ
ཡང
ར
རང
རབ
ལ
ལམ
ལས
ཤ
ས
ཨ
ཱ
ི
ུ
ེ
ོ
ྐ
ྒ
ྔ
ྕ
ྗ
ྙ
ྟ
ྡ
ྣ
ྤ
ྦ
ྨ
ྩ
ྫ
ྭ
ྱ
ྲ
ླ
ྷ
ፃ
᳐
᳒
᳘
ᳪ
᳭
ᳲ
​
‌
‍
‎
–
—
―
‘
’
“
”
•
…
€
™
←
→
↔
↷
−
√
③
④
⑦
■
▪
▫
●
⺀
⺄
⺆
⺈
⺊
⺌
⺕
⺝
⺸
⺼
⿰
⿱
⿲
⿳
⿴
⿵
⿶
⿷
⿸
⿹
⿺
⿻
、
。
〢
く
と
゙
コ
マ
ユ
ー
㇁
㇂
㇄
㇇
㇈
㇉
㇓
㐁
㐄
㐅
㐌
㐫
㐬
㐭
㐮
㐱
㑒
㒵
㒸
㒼
㓁
㓞
㔾
㕛
㕣
㖾
㘝
㚅
㚇
㚔
㚘
㝉
㝡
㝴
㝵
㞋
㞢
㞷
㠩
㠭
㠯
㡀
㡭
㡿
㢲
㢴
㣇
㣺
㥯
㪅
㫄
㫐
㫒
㫺
㬅
㬎
㬥
㬰
㲋
㳄
㷠
㸒
㸚
㸦
㼌
㼲
㽞
㿟
䀠
䂞
䍃
䏍
䒑
䖍
䖒
䖝
䖵
䙴
䚻
䜌
䝿
䡛
䧹
䪞
一
丁
丂
七
丄
丅
丆
万
丈
三
上
下
丌
不
与
丏
丐
丑
专
且
丕
世
丘
丙
业
东
丞
丢
丣
两
严
並
丨
丩
个
丫
丬
中
丮
丰
丱
串
丵
丶
丷
丸
丹
为
主
丽
丿
乀
乂
乃
久
乆
乇
么
义
之
乌
乍
乎
乏
乐
乑
乔
乖
乗
乘
乙
乚
乛
乜
九
乞
也
习
乡
乳
乾
亀
亅
了
亇
予
争
事
二
亍
于
亏
亐
云
互
亓
五
井
亘
亚
亜
亞
亟
亠
亡
亢
交
亥
亦
产
亨
亩
享
京
亭
亮
亯
亰
亲
亳
亶
亷
人
亻
亼
亾
仁
今
介
仌
从
仐
仑
仒
仓
仕
他
付
仝
代
令
以
任
企
伊
伏
伐
休
会
伯
但
位
何
佘
余
作
佥
使
來
侈
侌
侖
侯
侵
便
保
俞
信
修
倉
倍
候
倠
備
僉
僕
儿
兀
允
兂
元
兄
充
兆
兇
先
光
兊
克
兌
免
兑
兒
兓
兔
党
兜
兟
入
全
兩
兪
八
公
六
兮
兰
共
关
兵
其
具
典
兹
兼
冀
冂
冃
冄
内
冈
冉
冊
冋
册
再
冎
冏
冐
冒
冓
冖
冗
冘
军
农
冝
冡
冥
冫
冬
冷
几
凡
凢
凵
凶
凷
凸
凹
出
函
凾
刀
刁
刂
刃
刄
刅
分
切
刍
刑
刕
刖
列
刘
则
初
別
利
别
到
制
刺
則
削
剌
前
剡
剽
劉
力
功
加
劦
助
劫
劳
劵
勃
勇
勉
勒
動
務
勞
勤
勹
勺
勻
勾
勿
匀
匂
包
匆
匈
匊
匋
匍
匕
化
北
匚
匝
匡
匪
匱
匸
匹
区
医
匽
匿
區
十
卂
千
卄
卅
卆
升
午
卉
半
卌
华
卑
卒
卓
单
卖
南
卜
卝
卞
占
卡
卢
卣
卤
卦
卩
卪
卬
卯
印
危
即
却
卵
卷
卸
卻
厂
厃
厄
历
厈
厉
厌
厓
厘
厚
原
厤
厥
厨
厭
厲
厶
厷
厸
去
厼
厽
叀
参
參
叅
又
叉
及
友
双
反
叐
发
叒
叔
叕
取
受
叚
叜
叟
口
古
句
另
叩
只
召
可
台
叱
史
右
叵
号
司
叹
吂
各
吅
合
吉
吊
吋
同
名
后
吏
向
吕
君
吝
吞
否
含
启
吳
吴
吹
吾
呂
呆
呈
告
员
呙
周
命
咅
和
咎
咠
咢
咨
咸
咼
哀
品
哉
員
哥
哲
唐
商
啇
問
啚
啬
啻
善
喜
喬
單
喿
嗇
噩
嚴
囊
囗
囘
囙
囚
四
回
囟
因
囧
囬
困
囱
囷
固
国
圂
圅
國
圍
圓
土
圡
圣
圥
在
圭
地
圶
圼
坐
坒
坚
坴
垂
垔
垚
埀
埋
埶
執
基
堂
堅
堆
堇
堯
塞
墨
壘
士
壬
壯
声
壳
壴
壹
壺
壽
夂
处
夅
夆
备
夊
夋
夌
复
夏
夒
夕
外
夗
夘
多
夜
夢
大
夨
天
太
夫
夬
夭
央
失
夲
头
夷
夸
夹
夻
夾
奂
奄
奇
奈
奉
奎
奏
奐
契
奓
奔
奚
奞
奠
奢
奥
奭
女
奴
奻
好
如
妄
妙
妟
妥
妻
妾
姑
委
姜
威
娄
婁
婴
嬰
嬴
子
孑
孔
孕
孖
字
存
孚
孛
孝
孟
季
孤
学
孫
孱
學
宀
宁
宂
它
宅
宇
守
安
宋
完
宏
宓
宗
官
定
宛
宜
宝
客
宣
室
宮
宰
害
家
容
宾
宿
寄
寅
密
富
寒
察
寧
審
寫
寬
寮
寸
对
寺
寻
寽
対
寿
封
尃
射
将
將
專
尉
尊
尋
尌
對
小
少
尒
尓
尔
尖
尗
尚
尞
尢
尣
尤
尧
尨
尭
就
尸
尹
尺
尻
尼
尽
尾
尿
局
居
屈
屋
屎
屏
屑
展
屖
屚
属
屠
屡
屬
屮
屯
屰
山
屵
屾
岁
岂
岑
岡
岩
岳
岸
峯
島
崇
崑
崔
崖
崙
崩
嵬
嶲
巂
巛
川
州
巟
巠
巢
巤
工
左
巧
巨
巩
巫
差
己
已
巳
巴
巷
巸
巽
巾
巿
帀
市
布
希
帚
帛
帝
带
師
席
帶
常
干
平
年
幵
并
幷
幸
幺
幻
幼
幽
幾
广
広
庄
床
底
店
庚
府
度
庫
庭
庶
康
庸
廉
廌
廛
廣
廩
廴
延
廷
建
廾
廿
开
弁
弃
弄
弇
弋
式
弓
弔
引
弗
弘
弜
弟
弥
弦
弱
張
強
强
彊
彌
彎
彐
彑
当
彔
录
彖
彗
彡
形
彥
彦
彧
彭
彳
役
彼
往
待
律
徒
得
徙
從
復
微
徵
心
忄
必
忌
忍
志
忝
忠
忩
快
念
忽
忿
思
怠
急
怱
恆
恒
恩
恭
息
悉
患
悤
悲
悶
惠
惡
惢
愁
愈
意
愛
感
慈
慧
慮
憂
憲
應
戀
戈
戉
戊
戋
戌
戍
戎
成
我
戒
戔
或
戚
戠
戢
截
戲
戶
户
戹
戼
戾
房
所
扁
扇
手
扌
才
打
托
执
承
折
拉
拜
拿
掌
推
提
摩
支
攴
攵
收
攸
改
放
政
敄
敏
敕
敖
敗
敝
敞
敢
散
敦
敫
敬
数
敷
數
斂
文
斉
斊
斗
斤
斥
斩
斬
斯
新
方
於
施
斿
旁
旋
族
无
旡
既
旣
日
旦
旧
旨
早
旬
旱
旲
时
旾
昆
昇
昌
昍
明
昏
易
昔
昗
昜
星
春
昬
是
昱
昴
昷
時
晃
晋
晏
普
景
晶
智
暑
暴
曇
曩
曰
曲
曳
更
曷
書
曹
曼
曾
替
最
朁
會
月
有
朋
服
朔
朕
朗
望
朝
木
朩
未
末
本
札
朮
术
朱
朵
朶
朿
杀
杏
杜
束
条
来
東
杲
杳
松
析
林
枚
果
枝
枲
枼
某
柔
查
柬
柰
柴
栗
桀
桑
桼
梁
條
梟
梨
棘
棠
棥
森
楚
業
楽
榮
樂
樊
欠
次
欣
欮
欲
欶
欽
款
歆
歇
歛
止
正
此
步
武
歨
歪
歮
歯
歰
歲
歴
歷
歸
歹
歺
死
殳
段
殷
殸
殹
殺
殻
殿
毋
毌
母
每
毒
比
毕
毚
毛
毳
氏
氐
民
气
氣
水
氵
氶
氷
永
氺
氾
求
汝
汞
江
沃
沓
沙
沝
泉
法
波
泣
泥
泰
洛
洪
活
派
流
浦
浪
浮
淡
淮
清
渚
渠
湯
滿
漸
火
灬
灭
灰
灵
灷
炅
炎
炏
炗
炙
炭
為
烈
烏
烝
焉
無
焦
焱
然
煞
熊
熏
燕
營
燮
爪
爫
爭
爯
爰
爱
爲
爵
父
爻
爽
爾
爿
片
牙
牚
牛
牜
牟
牢
牧
牪
牽
犀
犬
犭
犮
狂
狄
狊
独
狺
猋
猒
猪
献
獻
玄
率
玉
王
玟
玨
珎
班
琴
瑟
瑩
瓜
瓦
甘
甚
生
産
用
甫
甬
田
由
甲
申
电
甶
男
甸
甹
画
甾
畀
界
畏
畐
留
畜
畟
畢
畧
畨
番
畫
異
畱
當
畺
畾
疊
疋
疌
疑
疒
疾
癶
癸
癹
登
發
白
百
皀
皃
的
皆
皇
皋
皐
皕
皮
皷
皿
盃
盆
盇
盈
益
盍
盎
监
盒
盖
盛
盡
監
盤
盧
目
直
相
盾
省
眇
眉
看
眔
眞
真
眷
眼
眾
着
睘
睪
睿
瞏
瞢
瞿
矍
矛
矞
矢
矣
知
矦
短
石
破
碎
磊
磨
示
礻
礼
祟
票
祭
禀
禁
禸
禹
禺
离
禽
禾
禿
秀
秃
秉
秋
科
秝
秦
移
稟
穀
穌
穴
究
穹
空
穿
突
窄
窒
立
竒
竜
竝
竟
章
童
竹
笑
笠
筆
等
答
箕
算
箴
節
篤
篭
米
粉
粛
粟
粤
粦
粲
糞
糸
糹
系
約
納
素
索
紫
累
細
絜
絫
絲
維
綿
縣
繇
纍
纟
缶
网
罒
罔
罕
罗
罙
罡
罢
罪
署
罷
羅
羊
羌
羍
美
羔
羕
羗
羞
羡
羣
群
義
羲
羸
羽
翁
翏
習
翕
翟
翠
翼
老
耂
考
者
耆
而
耎
耑
耒
耳
耴
耶
耷
聂
聊
聖
聚
聶
聿
肀
肃
肅
肉
肖
肙
肥
肩
肯
育
肴
胃
背
胡
胥
能
脊
脩
膚
臣
臤
臧
自
臬
臭
臯
臱
至
致
臺
臼
臽
臾
臿
舀
舂
舄
與
興
舉
舌
舍
舛
舜
舞
舟
般
艮
良
色
艸
艹
艾
芒
芔
芬
芮
花
芳
芺
芻
苔
苗
苟
若
苦
英
茶
茸
荅
草
荒
荣
荼
莆
莧
莫
莽
菆
菊
菐
華
萬
落
葉
著
葛
董
葵
蒙
蒦
蒼
蓋
蓬
蓺
蔑
蔡
蕉
蕭
薄
薛
薦
薰
藍
藏
藥
蘭
虍
虎
虐
虒
虔
處
虖
虗
虘
虚
虛
虜
虞
虫
虽
蚤
蚩
蜀
蜜
蟲
蠡
血
行
衍
衛
衣
衤
表
衮
衰
袁
袞
褭
褱
襄
襾
西
覀
要
覃
見
規
覓
覧
親
覽
见
角
解
言
訁
訇
計
詹
誩
諸
讠
谷
豆
豈
豊
豐
豕
豖
豙
象
豦
豩
豪
豸
貇
貝
貞
貟
負
貢
貧
貪
貫
責
貳
貴
買
費
賁
資
賈
賏
賓
賔
賛
賞
賢
賣
質
賴
贊
贝
贡
责
贯
贲
贵
赖
赞
赤
赦
走
越
足
路
蹇
身
躬
車
軍
軎
軟
輦
车
辛
辜
辟
辥
辰
辱
農
辵
辶
边
达
过
近
连
迷
追
退
送
逆
逐
通
速
造
逢
連
逮
進
遀
遂
過
道
達
遣
適
遷
遺
邊
邑
邕
那
邦
邪
郎
部
郭
都
鄉
酉
酋
配
酓
釆
采
里
重
野
量
金
釒
錢
钅
長
镸
长
門
閃
閉
開
閏
閑
閒
間
閔
閵
閻
闌
门
间
闷
阑
阜
阝
阿
降
陳
隆
隊
隋
隡
隨
隱
隶
隹
隺
隻
隼
隽
难
雀
雁
集
雈
雋
雍
雐
雔
雙
雚
雜
雝
離
難
雨
雩
雪
雲
零
雷
需
霍
霜
霝
霞
霸
靈
靑
青
非
靡
面
靣
革
韋
韦
韭
韯
韱
音
頁
頃
項
須
頗
頡
頻
顛
页
風
风
飛
飞
食
飠
養
饣
首
香
馬
馮
駦
马
骨
高
髟
鬥
鬯
鬲
鬼
魚
魯
鮮
鱼
鲁
鳥
鳳
鸟
鹵
鹿
麃
麗
麥
麦
麻
黃
黄
黍
黎
黑
黒
黨
黹
黽
黾
鼎
鼓
鼠
鼻
齊
齋
齐
齒
齿
龍
龙
龜
龟
龠
龰
龱
龴
龵
龶
龷
龸
龹
꣡
꣢
꣣
꣤
꣥
꣫
꣬
꣯
ꣲ
ꣳ






者
艹
﻿
？
､
�
𠀁
𠀃
𠀆
𠀉
𠀎
𠀐
𠁁
𠁣
𠂆
𠂇
𠂈
𠂉
𠂊
𠂋
𠂎
𠂒
𠂔
𠂛
𠂡
𠂢
𠂤
𠂬
𠂭
𠂹
𠃊
𠃋
𠃌
𠃍
𠃎
𠃑
𠃓
𠃔
𠃜
𠄌
𠄎
𠄠
𠄢
𠆢
𠆥
𠇍
𠈌
𠌵
𠓜
𠔉
𠔥
𠔼
𠔽
𠔿
𠕀
𠕁
𠕋
𠘧
𠘨
𠙻
𠙼
𠚏
𠚒
𠚤
𠚪
𠣏
𠤎
𠤕
𠥓
𠦄
𠦑
𠦝
𠧒
𠧗
𠧪
𠩺
𠪚
𠫓
𠫔
𠫤
𠬛
𠬝
𠬞
𠬢
𠬤
𠬶
𠮛
𠮦
𠮷
𠯑
𠱠
𠳮
𠷎
𡈼
𡉀
𡉵
𡌥
𡍮
𡏳
𡕒
𡕩
𡕰
𡖅
𡗗
𡗜
𡘆
𡘤
𡧱
𡨄
𡩧
𡬠
𡭽
𡰣
𡰥
𡰪
𡰯
𡰱
𡷈
𡸁
𡿨
𡿩
𡿪
𡿺
𢀖
𢀛
𢀩
𢁙
𢆉
𢆰
𢆶
𢇁
𢇇
𢉖
𢌬
𢌿
𢏚
𢑑
𢑚
𢖻
𢙣
𢛳
𢦏
𢦒
𢧵
𢼄
𢾕
𣁋
𣄼
𣅀
𣅽
𣍘
𣎳
𣎵
𣏋
𣏼
𣗥
𣥂
𣥖
𣦵
𣦼
𣧄
𣪊
𣪠
𣬉
𣳾
𣶒
𤇾
𤊽
𤐫
𤓰
𤔔
𤕨
𤣩
𤰇
𤰔
𤰞
𤴓
𤴔
𤽄
𥁑
𥁕
𥃦
𥃩
𥃭
𥇡
𥑟
𥘅
𥘈
𥝢
𥫗
𥱡
𦈢
𦉪
𦉬
𦉼
𦍌
𦍒
𦎧
𦐇
𦓔
𦔮
𦘒
𦙃
𦚏
𦣝
𦣞
𦣻
𦥑
𦥔
𦥯
𦨉
𦭝
𦰩
𧆞
𧈧
𧘇
𧰨
𧴪
𧴮
𧵩
𧾷
𨸏
𨾴
𩙿
𩠐
𩫏
𩵋
𪉷
𪜀
𪟽
𪠲
𪩲
𫇦
𫔭
𫜸
𫝀
𫠣
𫠩
𫢉
𫥞
𫩏
𫩠
𫪡
𫲽
𫶧
𬀷
𬐘
𬗌
𬙙
𬛸
𬜯
𬟩
𬯁
𬴘
𬺻
𬼉
𬼖
𭀰
𭁈
𭁨
𭅰
𭑈
𭕄
𭗼
𭤨
𭥫
𭻾
𮅕
𮊿
𮍌
𮍏
𮓗
𮥼
𮧮
廾
𰀁
𰀄
𰀈
𰀉
𰀕
𰀠
𰀡
𰀢
𰀪
𰁜
𰃮
𰆊
𰆘
𰋙
𰕎
𰢴
𰧭
𰯲
􀁛
􀂢
􀂣
􀃈
􀃉
􀃊
􀃍
􀃏
􀃑
􀃖
􀃗
􀃚
􀃛
􀃜
􀃞
􀃟
􀃠
􀃣
􀃥
􀃦
􀃧
􀃨
􀃩
􀃪
􀄐
􀄒
􀄟
􀄡
􀄤
􀄮
􀆨
􀆫
􀇐
􀇑
􀇒
􀇓
􀇺
􀇽
􀇾
􀈣
􀈤
􀈶
􀈾
􀉍
􀉨
􀉪
􀉮
􀍧
􀍨
􀍩
􀍪
􀍬
0--
01--
02--
03--
04--
05--
06--
07--
08--
09--
20--
22--
23--
24--
25--
26--
27--
28--
29--
30--
31--
32--
33--
34--
35--
36--
37--
38--
39--
50--
a--
ab--
abhi--
abo--
abun--
ac--
acc--
acqui--
ad--
add--
ado--
adva--
agree--
ah--
ai--
ak--
al--
altern--
am--
amo--
an--
ana--
ano--
anu--
any--
apa--
app--
appo--
appre--
appro--
aps--
ar--
ara--
arch--
arm--
arro--
as--
asc--
assi--
assu--
astr--
at--
atten--
au--
aug--
av--
ava--
avo--
b--
ba--
bar--
be--
beg--
ben--
bene--
bh--
bha--
bho--
bi--
bo--
boi--
br--
bre--
bro--
bs--
bsg--
bst--
bu--
buil--
by--
bz--
c--
ca--
cal--
calcu--
cam--
car--
ce--
ced--
cen--
ch--
ci--
circu--
cit--
cl--
cle--
clean--
co--
commen--
con--
concea--
conf--
consec--
conve--
coo--
cre--
cri--
cro--
cu--
cus--
cy--
d--
da--
dam--
de--
dece--
decl--
deco--
def--
defi--
defin--
dep--
deri--
desc--
devo--
dha--
di--
dia--
dig--
dimi--
dis--
do--
doub--
dr--
dre--
du--
e--
eag--
ecli--
ed--
el--
ele--
em--
emb--
en--
end--
enume--
equ--
er--
es--
et--
evi--
ex--
exc--
excell--
exer--
extre--
f--
fa--
fami--
fe--
feat--
fi--
fin--
flo--
flu--
fly--
fo--
for--
fore--
fr--
frequ--
func--
g--
ga--
gan--
gar--
ge--
gene--
gh--
gi--
glo--
go--
gr--
gra--
grand--
gre--
gro--
gu--
gz--
h--
ha--
hab--
har--
has--
he--
heal--
hi--
him--
ho--
hosti--
hu--
i--
id--
iden--
ig--
im--
in--
incarna--
inci--
indep--
indi--
inf--
inhab--
inser--
inst--
inte--
inten--
inter--
inve--
is--
it--
j--
ja--
jas--
ji--
jo--
ju--
k--
ka--
kai--
kal--
ke--
kh--
ki--
kins--
kr--
ku--
l--
la--
le--
li--
libe--
lo--
lu--
m--
ma--
maha--
maj--
man--
manu--
mat--
mbo--
me--
med--
mendi--
mer--
mi--
mid--
mis--
mist--
mlec--
mn--
mo--
mor--
mth--
mu--
multi--
my--
n--
na--
nai--
nar--
ne--
neg--
ni--
no--
nu--
nume--
o--
ob--
obst--
om--
on--
oper--
opp--
or--
out--
over--
p--
pa--
par--
pe--
pen--
per--
ph--
phen--
philo--
phy--
pi--
pl--
pla--
ple--
po--
popu--
por--
pr--
pra--
prac--
pre--
prepara--
pri--
prin--
pro--
proce--
procu--
prof--
prom--
pros--
pu--
publi--
purifi--
q--
qu--
r--
ra--
ram--
rau--
rd--
re--
recit--
ref--
regu--
rejec--
reli--
rende--
rep--
requi--
res--
rest--
rg--
rh--
ri--
rj--
ro--
ru--
rubb--
s--
sa--
sac--
sam--
san--
sar--
sat--
sau--
sby--
sc--
scatte--
scho--
se--
secu--
see--
seiz--
sen--
serv--
ses--
sett--
sg--
sh--
si--
sid--
sk--
sla--
smi--
sn--
so--
sol--
sp--
spe--
spl--
spr--
sprink--
st--
ste--
stu--
sty--
su--
sub--
succ--
succes--
sugg--
sum--
sun--
super--
supp--
sur--
sva--
sw--
sy--
t--
ta--
tan--
te--
tem--
ter--
th--
ti--
to--
tor--
tr--
trans--
tre--
tremb--
tri--
troub--
ts--
tu--
tur--
u--
ud--
un--
under--
up--
upa--
us--
ut--
utte--
v--
va--
vai--
var--
ve--
vi--
vic--
vid--
vio--
vo--
vr--
vya--
w--
wa--
wal--
we--
wee--
wi--
win--
with--
wo--
won--
wor--
xx--
y--
ya--
yo--
yu--
z--
zodi--
अ--
अक--
अज--
अन--
अप--
अर--
अल--
अव--
अस--
आ--
आभ--
आम--
आव--
इ--
ई--
उ--
उद--
उपक--
ऊ--
ऋ--
ऌ--
ए--
एक--
एव--
ऐ--
ऑ--
ओ--
औ--
औप--
क--
कच--
कज--
कट--
कण--
कन--
कम--
कर--
कल--
ख--
खम--
खर--
खल--
ग--
गज--
गण--
गत--
गन--
गम--
गर--
गल--
घ--
घट--
घन--
ङ--
च--
चक--
चन--
चम--
चय--
चर--
चल--
छ--
ज--
जन--
जप--
जय--
जर--
जल--
जव--
झ--
ञ--
ट--
टक--
टन--
टम--
टस--
ठ--
ड--
डन--
डल--
डव--
डश--
ढ--
ण--
णक--
णन--
णम--
णर--
णव--
त--
तक--
तग--
तज--
तत--
तन--
तप--
तभ--
तर--
तल--
तश--
तस--
थ--
थक--
थग--
थम--
थल--
द--
दक--
दग--
दज--
दन--
दप--
दभ--
दम--
दय--
दर--
दल--
दव--
दश--
दस--
ध--
धक--
धग--
धन--
धम--
धर--
धव--
धस--
न--
नक--
नख--
नज--
नत--
नद--
नन--
नप--
नभ--
नय--
नर--
नल--
नव--
नश--
नस--
प--
पक--
पट--
पण--
पद--
पम--
पय--
पर--
पल--
पव--
पस--
फ--
फल--
ब--
बक--
बर--
बल--
भ--
भन--
भय--
भव--
म--
मक--
मग--
मज--
मत--
मद--
मन--
मप--
मभ--
मम--
मय--
मर--
मल--
मव--
मह--
य--
यक--
यग--
यच--
यज--
यण--
यत--
यन--
यप--
यभ--
यर--
यव--
यश--
यस--
र--
रक--
रग--
रज--
रण--
रत--
रथ--
रद--
रन--
रप--
रभ--
रय--
रर--
रल--
रव--
रह--
ल--
लक--
लज--
लन--
लम--
लय--
लल--
लव--
ळ--
व--
वक--
वज--
वट--
वण--
वत--
वद--
वध--
वन--
वभ--
वय--
वर--
वव--
वश--
श--
शक--
शग--
शत--
शद--
शन--
शम--
शय--
शर--
शल--
शव--
शश--
ष--
षक--
षण--
षत--
षप--
षम--
षय--
षर--
षव--
षश--
षस--
स--
सक--
सन--
सभ--
सर--
सव--
सह--
ह--
हत--
हन--
हम--
हर--
हल--
ऽ--
ऽन--
ऽप--
ऽव--
ऽऽ--
ॐ--
ॠ--
०४--
०५--
०६--
०७--
०८--
०९--
५०--
அ--
க--
த--
ப--
ம--
ய--
ர--
வ--
ರ--
അ--
ക--
ത--
പ--
ര--
വ--
ག--
ཆ--
ཐ--
ད--
ན--
བ--
མ--
ཟ--
འ--
ར--
ལ--
--0
--00
--1
--2
--3
--4
--5
--6
--7
--8
--9
--a
--able
--age
--ah
--al
--als
--am
--an
--ance
--ant
--ants
--ar
--ard
--ary
--as
--ase
--at
--ate
--ated
--ation
--b
--ba
--ble
--bs
--c
--ca
--cal
--ce
--ced
--cent
--ces
--ch
--cing
--ck
--cs
--ct
--cted
--cting
--cts
--cy
--d
--da
--de
--ded
--der
--di
--ding
--ds
--dy
--e
--ea
--ead
--ect
--ed
--ee
--el
--ely
--em
--en
--ena
--ence
--ened
--ening
--ens
--ent
--ents
--eous
--ep
--ept
--er
--ered
--erence
--ers
--ery
--es
--ess
--est
--et
--eve
--ew
--ey
--f
--fe
--fic
--fied
--ful
--g
--ga
--ge
--ged
--ger
--gical
--go
--gs
--gue
--h
--ha
--hed
--hi
--hing
--hip
--hood
--hya
--i
--ia
--ial
--ian
--iance
--iant
--iate
--ic
--ica
--ical
--ice
--ick
--id
--ied
--ience
--ient
--ies
--ight
--ih
--il
--ilt
--ily
--im
--in
--ination
--ine
--ined
--ing
--ini
--ion
--ions
--ious
--ir
--is
--ise
--ish
--ism
--ist
--it
--ite
--ity
--ive
--ivity
--ized
--j
--ja
--jn
--jury
--k
--ka
--ke
--kh
--ki
--kr
--ks
--l
--la
--ld
--le
--lect
--led
--les
--less
--ley
--lf
--ling
--lk
--logy
--ls
--lt
--ly
--m
--ma
--man
--ment
--mp
--ms
--n
--na
--nary
--nce
--nd
--nda
--ne
--ned
--ner
--ness
--ng
--nger
--ngs
--ni
--ning
--nity
--ns
--nt
--nta
--ntly
--nts
--ny
--o
--od
--og
--ol
--ology
--om
--on
--onal
--ons
--or
--ors
--ory
--os
--ose
--ot
--ou
--ough
--ous
--ow
--owed
--p
--pa
--pe
--ped
--phy
--ping
--ple
--r
--ra
--ral
--rd
--re
--red
--rence
--rge
--ri
--rity
--rm
--rn
--rnal
--ron
--rry
--rs
--rt
--rted
--rty
--ru
--ry
--s
--sa
--sam
--se
--sed
--ses
--sh
--shing
--ship
--sion
--sive
--sor
--ss
--st
--stituted
--sy
--sya
--t
--ta
--tain
--tained
--tala
--te
--ted
--teen
--teenth
--ter
--th
--tha
--ti
--tic
--ties
--tinct
--ting
--tive
--tle
--tly
--to
--tor
--tory
--ts
--tu
--tude
--ty
--u
--ub
--uced
--uent
--ugh
--ught
--ul
--um
--uous
--ur
--ure
--us
--usion
--ut
--ute
--v
--va
--val
--vat
--ve
--ves
--vi
--ving
--vr
--w
--wards
--wn
--x
--y
--ya
--yed
--yer
--yus
--ze
--ऄ
--ई
--क
--कत
--कम
--कर
--कल
--ख
--ग
--गत
--गन
--गम
--गर
--घ
--ङ
--च
--चन
--छ
--ज
--जन
--झ
--ञ
--ट
--ठ
--ड
--ढ
--ण
--णम
--णस
--त
--तन
--तम
--तय
--तस
--थ
--द
--दत
--दन
--दर
--ध
--धर
--न
--नन
--नम
--नय
--नस
--प
--पक
--पत
--पद
--पर
--फ
--ब
--भ
--म
--मण
--मत
--मध
--मन
--मप
--मभ
--मय
--मर
--मव
--मस
--मह
--य
--यत
--यन
--यव
--यस
--र
--रण
--रत
--रन
--रम
--रव
--रस
--ल
--लक
--लम
--ळ
--व
--वत
--वद
--वन
--वर
--वश
--वस
--श
--शक
--शब
--ष
--स
--सत
--सन
--सम
--ह
--हम
--हर
--हस
--ऽ
--०
--१
--२
--३
--४
--५
--६
--७
--८
--९
--ག
--ང
--ད
--ན
--མ
--འ
--ལ
--ས
