!
"
#
##0
##1
##10
##11
##12
##13
##14
##15
##16
##17
##18
##19
##2
##20
##21
##22
##23
##24
##25
##26
##27
##28
##29
##3
##30
##31
##32
##33
##34
##35
##36
##37
##38
##39
##4
##40
##41
##42
##43
##44
##45
##46
##47
##48
##49
##5
##50
##51
##52
##53
##54
##55
##56
##57
##58
##59
##6
##60
##61
##62
##63
##64
##65
##66
##67
##68
##69
##7
##70
##71
##72
##73
##74
##75
##76
##77
##78
##79
##8
##80
##81
##82
##83
##84
##85
##86
##87
##88
##89
##9
##90
##91
##92
##93
##94
##95
##96
##97
##98
##99
$
%
&
'
(
)
*
+
,
-
.
/
0
00
000
0004
00052490
00052491
0008350
001
0011456
001389
002
00238
0035
0049
00632
006504
0067
009
00963
01
0100000
0108
01254
0138
01515020
01765
02
02002834
0205255
0212
0242
02787
03
03134
03158
0320
03210
0327
033
03545
0360
0365
04
05
0501674
0505025
0585317631
06
0606440
0610732
0610785
07
0705
0708
0746
08
08053
0806
08253
0878
09
0903
0909
1
10
100
1000
1002
1005
1007
1008
101
1012
102
103
1039
104
1046
105
1051
106
106195
1063
1063773706110065
107
1075
107569809
1079
108
1086
1088
109
1090
1093
109453
1097
11
110
1101
110166057
1103
1105
1107
111
1111
112
113
1134
114
1147
115
116
1163
117
1173
118
1183
119
12
120
1201
12049124
1207
121
12148
122
123
124
12411
125
125898
1259
126
127
128
1286
129
13
130
1307
1308
1309
130903
131
1310
132
133
1338
134
135
136
1365
136736
137
138
138416
139
14
140
1405
1406
1408
141
1412194
141278
142
143
1432
144
145
1458
146
147
148
149
1497
15
150
1500
1501
1502
1503
151
1511
152
1521
153
1538
154
155
1551
156
1562
156705
157
15707237
158
159
16
160
1605
1606
1607
1609
161
1610
162
1629
163
1634
1639616
164
1642
165
166
167
168
1683
169
17
170
171
172
1726
173
174
1743
175
1752
176
1769
177
178
179
1790
1796
179654
18
180
1800
1803
1804
1805
1807
1808
181
18174
1818
182
1821
183
1830
1831
1832
1833
1835
1836
1837
1839
184
1840
1842
1843
1844
1845
1846
1847
1848
1849
185
1850
1851
1852
1853
1854
1855
1856
1857
1858
1859
186
1860
1861
1862
1864
1865
1866
1867
1868
1869
187
1870
1871
1872
1873
1874
1875
1876
1877
1878
1879
188
1880
1881
1882
1883
1884
1885
1886
1887
1888
1889
189
1890
1891
1892
1893
1894
1895
1896
1897
1898
1899
19
190
1900
1901
1902
1903
1904
1905
1906
1907
1908
1909
191
1910
1911
1912
1913
1914
1915
1916
1917
1918
1919
192
1920
1921
1922
1923
1924
1925
1926
1927
1928
1929
193
1930
1931
1932
1933
1934
1935
1936
1937
1938
1939
194
1940
1941
1942
1943
1944
1945
1946
1947
1948
1949
195
1950
1951
1952
1953
1954
1955
1956
1957
1958
1959
196
1960
1961
1962
1963
1964
1965
1966
1967
1968
1969
197
1970
1971
1972
1973
1974
1975
1976
1977
1978
1979
198
1980
1981
1982
1983
1984
1985
1986
1987
1988
1989
199
1990
1991
1992
1993
1994
1995
1996
1997
1998
1999
2
20
200
2000
2001
2002
20020943
2003
2004
20042523
2005
2006
20065224
2007
200710776
20078357
2008
2009
20090308010816
201
2010
201014188
201016423
2011
201117691
2012
2013
201322302
201322511
201323226
2014
20147
2015
201528048
2016
2017
2018
2019
202
2020
2021
20210101
2022
203
204
2041
205
2052
206
20689
207
208
209
21
210
211
212
2129
213
2132
2133
2134
2135
2136
2137
214
214195
2146
215
216
2164
217
218
2189
219
22
220
221
222
223
2237
224
225
226
227
228
229
2294
23
230
2300
2306
231
232
233
234
235
236
237
238
239
24
240
240600000
241
241600000
242
243
244
245
246
247
248
249
2491
25
250
251
252
2525
253
254
255
256
2560563
2560698
257
258
259
26
260
261
262
263
264
265
266
267
268
269
27
270
271
272
273
274
275
276
277
2770
278
279
28
280
2800
281
282
283
284
2843
285
286
287
288
289
29
290
291
2914
292
293
294
295
296
2966
297
29717
298
2981593
299
3
30
300
3000
301
302
303
304
305
306
307
308
309
31
310
311
312
313
314
315
316
317
318
3189
319
32
320
321
322
322488
323
324
325
326
327
328
32859555
329
33
330
331
332
333
334
335
336
3363419
337
338
339
34
340
341
342
343
344
345
346
347
348
349
35
350
3504917
351
352
353
354
355
356
357
358
359
36
360
361
362
363
364
365
366
367
368
369
37
370
371
372
373
3737
374
375
376
377
378
379
38
380
381
382
383
384
3847
385
386
387
3873
388
3881
389
39
390
391
392
393
394
39422
395
396
397
398
399
3994
4
40
400
4002
401
402
403
404
405
406
407
408
409
41
410
411
412
413
414
41434
415
416
417
4173183
418
419
42
420
4206943
421
422
42274
423
42356
424
425
426
427
428
4284
429
43
430
431
431550
4316069
432
434
4344
435
4357
4365
437
438
439
44
440
442
443
444
445
4458
446
447
448
449
45
450
4500
451
452
453
45352
454
455
456
457
458
45846
46
460
462
463
464
465
466
46628
468
469
47
470
472
473
474
475
476
478
479
48
480
4800
482
4846
485
486
487
488
49
490
491
492
493
494
495
496
498
498708
499
5
50
500
5000
500062
500071
501
502
503
508
51
510
510201
512
5139
516
516636
517
518
52
520
52072
521
523716
525
528
53
530
531
532
533
534
53566
537
538
54
540
541
542
543
544
545
545058
5451
55
550
55000
551
553
555
558
56
560
561
56284482
564
566
569
57
570
573
5734
574
575
576
579
58
580
582
5822
585
588
59
590
595
6
60
600
605
608
6093
61
610
616
6161
619
62
6253
6256
6280
63
630
632
6337
636
6361
637
637413
64
640
641
642
645
65
650
65296603
653
655
66
664
67
671
676
6773
68
682
683
6849
6873
688
689
69
690
691
698
699
7
70
700
709
71
7106
711
7137
714
72
7203
7213
722
725
727
728
73
732
735
739
74
743
746
75
750
755
759
76
763
764
764739
77
771
7737
78
79
790
791
7941
8
80
800
8006001
807
809
81
812420
813
82
8205
8213
83
830106
836
84
84054356
8442
84433
8459
845937
85
85401
86
87
8711
878
88
88459
88810
889
89
8902852
896
897
9
90
900
91
9103
911
91674
92
925
93
94
95
953
96
961
966
97
978
9783642297182
9785386009687
98
99
992
:
;
<
=
>
?
[
\
]
^
_
a
aa
aas
abril
abruftabelleabrufen
absolute
abt
abundances
ac
accurate
acs
acsst
active
activity
ad
adelman
administraciones
administrati
administrativ
administrative
aec
ag
age
agencia
agency
ahn
aip
aise
ak
akc
akce
al
alam
albareti
albert
alegeri
alegerilor
ales
alexandroff
all
alldata
alle
am
american
americanfactfinder
amtliches
an
analysis
and
anders
anderson
andersson
anderton
andrews
ani
ann
annals
annual
ano
any
ap
api
apl
apsi
ar
aragonesa
archinform
archive
are
area
ark
arnouts
arrest
art
arxiv
as
asas
ascc
asna
asnost
asp
aspx
assafin
association
associations
ast
asteroids
astro
astron
astronomical
astronomy
astrophys
astrophysical
astrophysics
at
atlas
au
aubourg
ausgewa
austria
authority
autonomous
averaged
ay
az
b
ba
backnumber
baden
bag
bagnulo
bahc
bailey
baillard
balbinot
banc
band
bao
barlow
barnes
baryon
bas
base
based
bases
basketball
bastian
batson
batten
bautista
bayerisches
bayern
baylac
bb
bc
bd
bdl
be
beichman
benton
berichte
berichtsmonate
berlin
bernhard
bertin
between
bevo
bevoelkerung
bevoelkgebiet
bezirke
bf
bg
bhutan
bianchi
bil
binaries
binary
biroul
black
blanco
blicas
blick
blickgem
blitz
blyth
bnf
bo
body
boeche
bois
boissier
boleti
books
bosch
boselli
both
boundary
bp
bpt
br
brandenburg
brandt
brasileiro
brasław
bratislava
brazil
bresu
bright
brightest
brown
bsb
bu
bulletin
bumthang
bundesla
bureau
burnage
business
buta
butcher
bvb
by
bychkov
bychkova
c
ca
caetano
cambridge
canada
cannon
canton
cappellari
capps
carbon
care
carpenter
cartographic
casagrande
cassini
cat
catalans
catalog
catalogo
catalogs
catalogue
catalunya
causi
cd
cdp
ce
ced
cedsci
celkem
cen
census
centimeter
central
cerga
cetty
cf
cgi
ch
cha
chang
changement
chapelle
chapman
charts
che
chemical
chemically
chemin
chen
chester
chiappini
chicago
chis
ci
cia
cifras
cisdet
cities
city
classification
classifications
classified
climate
cloud
cluster
clusters
co
codes
college
color
com
coma
comets
commerce
common
communales
communes
communities
comparison
compilation
complete
componenete
comune
comuni
consortium
content
continuitat
corbin
cortese
corwin
cosmicflows
costa
cote
council
counties
county
courtois
cowley
cp
cph
cret
criteria
crook
csu
csv
cuillandre
cumhuriyet
cutri
cuzk
cz
cze
czech
czso
d
da
dades
das
data
database
datasets
datejo
datos
dauersiedlungsraum
davies
db
dbinet
dbscripts
dd
de
decennial
declaran
decreto
deg
del
dels
dem
demo
demographic
den
department
depuis
der
des
descriptions
designated
destatis
detailed
development
df
dfae
di
diagram
dias
diciembre
dictionary
diffusion
digital
digos
dimensional
dimentional
din
disc
discussion
distributions
do
dobes
doc
documentation
dog
doi
dokument
dokumente
dolni
dolphin
dostupne
download
dr
draper
driel
dss
dte
du
dubois
ducati
duflot
duniłowicze
dunlop
dus
dwarf
dwornik
dynt
dzieje
dziejo
dzisien
e
early
eberhardt
eberly
ec
eclipsing
ed
edition
edouard
edp
edu
effective
efigi
eg
ehess
einwohnerzahl
ek
el
electoral
eleventh
elias
elor
elsevier
emsellem
en
encarta
enciclopedia
encyclopedia
enero
english
enke
enlarged
entidades
epos
er
es
eska
eske
esky
eso
espan
espanya
est
estadi
estado
estatal
estati
estatisticas
estimate
estimates
estimativas
et
etne
etoiles
eu
european
eva
evans
evolucio
evolution
evolutionary
excel
experiment
explore
extension
extragalactic
f
fa
fabricius
facilities
factfinder
fairall
falco
fe
feature
federal
fehrenbach
ferrarese
fiche
fico
field
fields
fifth
figon
figueras
file
files
final
first
fisher
fl
fla
flower
fm
for
forbes
format
formation
formowanie
forveille
foto
fouque
fourth
fr
franc
france
francis
freistaat
freistaates
from
fu
function
fundamental
g
ga
gabriel
gaia
galactic
galaxies
galaxy
gales
galex
gallica
garci
gault
gazetteer
ge
gebhardt
gebietsstand
geller
gemeinden
gemeindeverzeichnis
general
genesis
gennaio
genty
geogra
geografia
geograficzny
geographic
geological
geonames
geonet
george
georges
geospatial
gilmore
gimen
giovanelli
githubusercontent
gks
global
globular
gmina
go
goals
gob
gomez
gontcharov
google
gouv
gov
government
graham
gran
granicy
grao
grebel
green
grenier
grosso
group
groups
gs
gsc
gsi
gu
guvics
gwyn
gło
h
ha
hacienda
hallet
handbook
harvard
haynes
hd
he
heidelberg
heinis
heinrich
hemisphere
henry
herschel
hg
hgmn
hipparcos
historicky
history
hkodcis
hledi
hlten
hlter
ho
hobby
hog
holes
horni
houk
hr
hrsg
htm
html
http
https
hu
huchra
hunting
i
ia
iana
iau
ibge
ic
icarus
ice
id
idescat
iei
ietova
igbe
ii
iii
ile
im
in
ina
income
index
india
indicadores
indocorrcod
ine
inebase
information
infraestructures
infrared
innosti
ins
insee
institute
instituto
interferometry
international
internet
investigation
iop
ipac
ir
iras
irso
is
isbn
iso
isolated
iss
issn
istat
it
italiane
iv
izbrani
j
jacobs
jahresbeginn
james
jana
japan
jarrett
jaschek
jean
jeweils
jezdu
jiny
jo
joe
john
johnson
jones
jopdf
jordi
joseph
journal
jp
jpl
jsonapi
jsp
judet
julien
july
jupitertrojans
k
ka
karachentsev
kazalniki
kc
kent
kerrod
kharchenko
kinematics
kis
kleijn
ko
kochanek
kochukhov
kod
kodcis
kokujyoho
kon
koper
kordopatis
korec
kotze
kov
kova
kovice
kr
krabal
kraje
krajnovic
kreisfreien
krhova
kris
kro
ku
kunder
ky
l
la
labor
ladislav
land
landesamt
landkreise
lapparent
large
las
lauko
laverny
le
leavenworth
leborgne
leda
lee
leeuwen
legacy
legifrance
lehnert
lene
lenenia
lenenie
lepine
lerner
les
lestwa
letno
lett
letters
levato
levitation
lewis
lexikon
ley
lez
lfstat
lg
lhota
li
library
lidove
limited
line
linear
lists
lkerung
lkerungsentwicklung
llc
lm
local
locale
locales
localita
localities
locuint
loire
london
loneos
los
lpa
ltekin
lu
luminosity
lunar
luri
lutz
lycosa
lı
m
ma
machine
macri
madej
mader
madore
magellanic
magnetic
magnitudes
mahalle
main
makarov
makarova
maly
manfroid
map
mapas
marcela
marne
marth
martimbeau
martin
mass
mayor
mccarthy
mcclure
mcd
mcdermid
mcmillan
md
mdr
me
mean
measurement
measurements
media
mellier
mencho
mennessier
menseki
mer
mercury
merkmalen
meta
metadata
metallic
metallicity
meteors
meyssonnier
mez
mezir
mf
miasta
mic
michaud
michigan
micron
mie
miejscowos
miestnej
milky
million
miloslav
minchin
mind
ministerio
ministerstvo
minor
minorplanetcenter
minule
mit
mitronova
mmerich
mn
mnras
modern
mon
monatsende
mont
montagne
monteiro
monthly
moore
mora
morphology
morrell
morrison
motions
movie
mpc
msk
msn
mu
mun
municipal
municipalities
municipality
municipii
municipios
municipis
munst
n
na
nach
nachr
nacional
nad
najnowsze
nakladatelstvi
names
nasa
naselja
national
nauka
nbn
ncaa
nder
ndez
ndigen
ndiges
ne
nearby
nes
net
new
news
ngc
nibles
nice
niedersachsen
nigreichs
ninth
nj
nls
nm
no
nom
nomenclator
nomenclature
nord
north
northern
not
notices
nova
nove
noviembre
noviny
np
nr
ntul
nu
nuclei
number
numjo
numtexte
ny
nyc
o
obc
obce
obci
obcine
obe
object
obs
observations
observatory
observing
obyvatel
october
octobre
od
oe
of
office
official
officiel
officielle
oficial
oficiales
okr
okresy
ol
old
oliveira
olsztyn
on
online
open
operation
oproti
optical
optically
or
oras
orbits
org
organiza
ortschaften
ortsverzeichnis
oscillation
otevrena
ottobre
oup
ov
ovice
oxford
p
pa
pacific
padre
padro
page
pagedebut
pagefin
pahre
paladini
parameters
park
parker
parsons
pas
paturel
paunzen
pavol
paz
pdf
pe
peculiar
pellegrini
pello
peng
people
perraut
peste
peter
petit
petrlova
ph
photometric
photometrically
photometry
php
phtml
physics
pickering
pierre
piffl
piotr
piskunov
pittsburgh
pl
place
places
planet
planeta
planetary
planetarynames
platforma
platforması
po
poblacio
poc
podrocje
pojezierze
polarimetry
polic
politisch
politischen
polletno
polskiego
polskiej
poparh
popest
popolazione
populacao
populat
population
populations
por
portant
positions
postakodu
postaux
poste
poverty
powiat
powiatu
powiaty
pp
pr
praha
pre
preb
prebivalstvo
predictions
prehl
press
preston
prieto
primari
processes
processing
produkte
program
programs
project
proper
properties
province
provinces
provincias
prugniel
pt
ptt
pu
pub
public
publication
publications
publikationen
publique
published
publishing
pulkovo
px
pxweb
q
quartal
quasars
que
r
ra
radial
radiales
radiometry
rar
raudeau
rave
raw
ray
rd
re
read
real
recensa
recensement
recio
redshift
reduction
ref
reference
referidas
region
regionales
regioni
regions
registro
reguladora
relacio
related
relation
release
releases
remco
ren
renson
report
republika
republiky
res
residente
resolver
resolving
resultantes
resultat
review
revised
revisio
rey
rezultatele
riche
rizzi
rk
ro
robin
rocznik
ron
rotation
rotational
royal
royer
rpl
rs
rt
ru
ruian
russell
ry
rzeczypospolitej
s
sa
sachsen
sadler
saint
sainte
sample
san
santa
sb
scale
scap
schilbach
schmadel
schneider
scholz
schwekendiek
science
sciences
scientific
scitani
scott
sdss
se
seabroke
search
seibert
selbsta
select
selected
selection
selectionname
seltab
seo
sequence
ser
series
server
sestava
sexes
sh
show
shulyak
si
sie
sille
simbad
sin
sistatdb
site
sk
ska
ske
ski
skorowidz
skrutskie
sky
sloan
slovak
slovakia
slovenija
slovenska
slovenskej
small
smith
so
sobreira
soc
sociais
social
society
soo
sorce
souboru
souc
source
sous
southern
space
spacewatch
spanish
spectra
spectral
spectrophotometry
spectroscopic
spiral
spolu
sports
spra
springer
springob
sr
st
sta
stabila
star
stare
starosti
stars
stat
state
states
statistical
statisticky
statistics
statistik
statistikdaten
statistikportal
statistiques
statistische
status
statystyczny
steinmetz
stellar
stephan
stevilo
stica
stiening
strom
struc
structures
stu
studies
study
su
summary
sunyaev
superficie
supermassive
superweb
supplement
supplements
sur
surface
survey
surveys
sus
swift
synthesis
system
systems
słownik
t
ta
tab
table
tables
tableviewlayout
tadr
targeted
tas
te
technical
telescope
th
the
their
thek
theoretical
thilker
third
ti
tid
time
title
tku
tna
tnej
to
tolma
tom
torra
total
totals
town
tr
tra
track
tre
ts
tu
tully
tur
twelfth
two
txt
tycho
type
types
u
ua
uab
ucac
uesac
uk
ultraviolet
un
und
union
unit
united
universe
university
unspecified
untranslated
up
upper
uppsala
urban
urn
urza
us
usgs
usporiadani
utc
uts
v
va
val
valas
valentini
validation
valle
van
var
variable
vaucouleurs
vc
ve
veda
velocities
velocity
version
versus
verzeichnis
verzeichniss
ves
vezi
vi
view
vii
viii
vila
viliam
ville
virgo
vishniac
visible
visually
vitesses
vizier
vj
vne
vneho
vnom
vnu
voja
vojensky
vol
volko
vollsta
volume
votruba
voyer
vs
vseti
vy
vyc
vyd
vysledky
vznikaji
w
walsh
warszawa
washington
watson
way
wayback
weather
web
webcitation
webcuzk
webrzs
weekly
weinberg
whitaker
wiatowej
wicenec
wiki
wikidata
wikisky
wilejka
wilen
wiley
wilhelm
william
williams
wilson
with
wka
wnba
wny
woelfel
wojnie
wojno
wolumin
world
wr
wschodniej
wu
wuerttemberg
www
wycoff
wyder
wykaz
x
xi
xii
xiii
xiv
xix
xls
xlsx
xmain
xn
xpgid
xpid
xportal
xslt
xv
xvi
xvii
xviii
xx
y
year
yeniko
yes
york
young
yu
yıldırım
z
za
zacharias
zaritsky
zdenko
zellner
zemi
zemne
zemnom
zemnospra
zensus
ziemia
zip
zme
zorec
zr
zu
zubriczky
zwitter
{
|
}
~
«
­
°
±
²
³
»
×
æ
ı
ıq
ə
ʹ
ˈ
ː
̀
́
̂
̃
̄
̆
̇
̈
̊
̋
̌
̓
̔
̣
̦
̧
̨
͂
α
β
δ
λ
ν
ς
а
абадан
абат
абатан
абатскан
абруццо
абу
авангард
август
августа
августехь
авегӏон
авеи
авила
австри
австрии
австрин
авт
автономин
автор
аг
агари
агеева
агентство
агӏденаш
агӏдеш
агӏеж
агӏмогӏ
агӏо
агӏонаш
агӏора
агӏри
адам
адаман
адамии
адана
аджарин
адидже
адии
адм
административан
административно
администраци
администрацин
администрация
адрес
адресов
адыгеи
адыгея
аелла
аз
аздина
азера
азерб
азербаи
аззам
ази
азин
азован
азории
аи
ак
акад
академин
акваторера
аквитани
аки
аккъии
акмолан
аксаи
аксараи
аксе
акте
актобен
актов
актриса
актуална
актуальные
акха
акъари
акъарии
акъарин
акъонаш
ала
алабама
алаи
алар
аларан
алба
алеи
александр
александрин
александро
александрован
александровка
александровкан
александровскан
александровски
алексеевка
алексеевкан
алексеевскан
алексеевски
алексеи
алексино
алессандри
али
аликанте
алматан
алнашин
ало
алсама
алссам
алссама
алтаи
алташ
аль
альба
алье
альметьевскан
альпаш
альто
аляска
ам
амалан
амалаш
амалех
амалехь
амалии
амало
аман
амаси
америки
америкин
амма
амплитуда
амуран
амурскои
ан
аналитическии
анан
анатоли
анатолин
англ
андгӏе
андерсон
андреаполан
андреевка
андреевски
андреи
анкара
анна
аннан
аномалеш
анри
антали
антициклон
антициклонан
антициклонаш
антициклонии
антоновка
антоново
антропован
анхальт
аоста
апрелан
апрелера
апрелехь
апрель
апули
ар
ара
арад
аран
арахецна
арахьара
арбакир
ардатован
ардахӏан
арджеш
аре
аренан
аренаш
аренашкахь
аренашца
арении
арзамасан
аризона
арканзас
арктикан
арктикера
арм
арсеньеван
арскан
артвин
артист
архангельскан
архиван
архиви
аса
асан
асанан
асанера
асанехь
асехь
аскизан
асср
аст
астероид
астероидии
асти
астраханскои
астрель
астрономо
астрофото
ат
атагӏа
атантикан
аткарскан
атлантикан
атлантикера
атлантикин
атлас
атмосфера
атмосферан
атмосферехь
атта
аургазин
афанасьеван
афи
африкин
ах
ахархои
ахгӏаи
ахча
ац
ацш
ачык
аштаркханан
аьзни
аьккхина
аьккхира
аьлла
аьлча
аьлчи
аьрру
аьтто
аьтту
аьхка
аьхке
аьхкенан
аьхкенна
аьхкенца
б
ба
бабаеван
бабушкинан
бабынинан
бавари
баганан
багратионовскан
багӏ
бад
бадахос
баден
база
базар
базарни
баи
баия
бакеу
бакин
баккхии
бакъ
бакъду
бакъо
бакъонан
бакъонаш
баланс
балезинан
баликесир
балка
балканах
балкании
балкарскои
балкхарои
балтикаи
бан
бар
бара
барам
барамал
бараман
бараме
барамера
барамерачу
барамехь
баран
барановичин
барановка
бараново
бардан
барз
баро
барселона
барсуки
барт
бартин
барышан
барятинан
бас
басеги
басешкахь
баск
баскетболан
баскетболхо
бассеи
батецкан
баткенан
батман
баттахь
бафраннан
баха
бахам
бахаман
бахархои
баххалц
бахьан
бахьана
бахьна
бахьнехь
бац
башкираш
башкирии
башкортостан
баштанкан
башха
башхалла
башхаллаш
башхаллашца
баьчча
бгӏе
бгӏеи
бгӏетань
бгӏи
бе
бежаницин
бежецкан
без
беи
бекхна
бекъа
беларуси
беларусь
белгородан
белгородскои
беле
бели
белинан
белинскан
белира
белозерскан
белорус
белоруссехь
белоруссин
белхало
белхалои
белхан
белхаш
белыничин
бель
бельфогӏан
бен
београд
бер
бераш
бергамо
бердал
бердаца
бере
березинан
березовка
березовкан
берестовицан
берии
беркате
берриг
бертан
берш
бес
бесаралла
беттан
беттанаш
беттанашкахь
беха
бецаш
беш
бешенковичин
би
библиотека
бии
бил
билгала
билгалаи
билгалдан
билгалдолу
билгали
билганза
биледжик
бин
бина
бингоьл
биография
биологин
бира
бистрица
битлис
бихор
бич
благовещенскан
благоевградан
бо
бобруи
бовха
богдановка
богеми
богородицкан
богородскан
бодлея
бодьян
бозу
бои
бок
боккха
боккъала
бокситогорскан
болалуш
болг
болгарин
более
бологин
болотнин
болу
болуш
болх
болхован
болчу
большая
большеселон
большие
большое
большои
бомон
бон
бонне
бор
боран
борзанан
борисовка
борисовн
борисово
борисоглебскан
борки
боровичин
боровскан
бородино
борок
бос
ботошань
боуэлл
бохалла
боханан
боху
бохуш
боцу
боцучу
боцуш
боьран
боьранаш
брага
браганса
бразилии
бразилин
бразилия
бразильскии
браи
бранденбург
браничево
бранко
бранку
браславан
брасован
братислава
братскан
брашов
бреи
бреила
брестан
брешиа
британин
брод
брокгауза
броја
брянскан
брянскои
бу
буа
бугурусланан
бугӏ
бугӏгунди
буда
бузеу
бузулукан
буи
буинскан
бургасан
бургенланд
бургос
бурдур
бурса
буряти
бурятии
бурятин
буса
бутан
бутана
бутт
бух
бухара
бухах
буш
буьи
буьрка
буьрса
быково
быхован
бышеван
бюро
бяла
бӏаьста
бӏаьстачул
бӏаьсте
бӏаьстен
бӏаьстенан
бӏаьстенна
бӏе
бӏешарахь
бӏешеран
бӏешерашкахь
бӏешо
бӏостанехьа
в
ва
вавожан
вагаи
вагӏ
вагӏенн
ваи
валдаи
вале
валенси
валле
валуи
валь
валье
вальядолид
валя
ван
вандеи
вара
варламова
вармия
варнавинан
варнан
вары
вас
василево
васильевка
васильевски
васлуи
ватанабэ
вахара
вачан
ваша
вашингтон
вашкин
введение
ве
вега
вегетацин
вегӏ
веи
век
века
векал
велижан
велика
велике
велики
великии
великопольскан
великотырновон
велира
велла
велли
вельке
вельскан
вена
вене
венеран
венето
венеци
венсан
вера
верещагинан
вермонт
верх
верхнедвинскан
верхни
верхнии
верхняя
верховажьен
верховьен
вес
весе
весели
вест
вестник
вестфали
весь
весьегонскан
ветлуган
вехара
вешин
ви
виана
виета
визеу
вии
вик
википеди
виктор
вила
вилегодскан
вилеи
вилен
вилла
виллагӏ
вилле
виллегӏ
вилледж
вилча
виль
вилье
вильнев
вильнон
вильноьв
вильянуэва
вильяр
вина
винницан
виноградовскан
виргини
виргиния
висконсин
витебскан
вице
вичуган
вишеран
вишня
вка
вкан
владивостокскца
владимир
владимиран
владимирехь
владимировка
владимирскои
власти
вн
внесении
во
вовшахтасар
вовшахтоьхна
вогезаш
водород
воеводаллин
воеводинан
воеводство
воеи
вожеган
вознесенскан
возничии
вои
воклуьз
волавелира
волган
волгоградан
волгоградскои
волжскан
волинан
волково
волковысскан
волован
вологдин
воложинан
волоколамскан
волоконовкан
волосован
волотан
волоче
волу
волуш
волхован
волчу
волынскан
вольскан
вольф
воля
воронежан
воронино
воронован
ворх
ворхӏ
воскресенскан
воскресенски
восток
восточни
воткинскан
вохман
впн
вранча
времени
время
врх
все
всеволожскан
всероссии
всесоюзная
вскан
второи
ву
вукмировић
вулька
вуьртемберг
възраст
выборган
выгоничин
вып
выползово
выселки
высоки
высоково
высочина
вытегран
вышни
вье
вьеи
вьенна
вьоь
вязникин
вязьман
г
га
габровон
гаврилов
гагаринан
гагӏ
гагӏонна
газан
газета
газиантеп
гаи
галактика
галактикаш
галац
галичан
галл
галла
галхо
ган
гатчинан
гвадалахара
гвардеи
гвардин
гг
ггӏан
ггӏанд
гдован
геи
гена
генахь
генри
геогр
географии
географин
географические
географическии
географических
географическое
география
геодезии
геологин
георгии
герга
гергара
гергарчу
гергахь
гергга
герельс
герз
германин
германия
германская
гессен
гидра
гии
гилл
гиллс
гильфердинг
гильфердинга
гималаи
гиресун
гисэ
гл
глава
главна
глазован
глазуновкан
глинкан
глубокин
глусскан
гмина
гминера
го
гован
говзалла
говзаллин
говзанча
год
года
годов
году
гои
гол
головина
голышманован
гольштеи
гомелан
гора
горан
гордеевкан
горж
горин
гориця
горка
горки
горкин
горни
горномарии
город
города
городам
городецан
городище
городов
городок
городокан
городским
городских
городского
городскому
гороховецан
горшечнин
горы
государственное
государственнои
государственныи
гоьи
гояс
гр
градец
градова
градусал
градусе
граждании
гражданска
гранада
гранди
границ
греи
гроднон
грозненскии
грозныи
гросу
гроув
грузии
груневельд
грязовецан
гуарда
губернатор
губерни
губкинан
гулам
гуламехь
гуламии
гули
гунаш
гуо
гуон
гуона
гуонан
гуонара
гуонехь
гуп
гура
гурахь
гурин
гурьевскан
гусь
гута
гуттар
гуттара
гуттарен
гуттаренна
гуш
гуьи
гуьмуьшхӏане
гуьрж
гуьржии
гэмпшир
гӏ
гӏа
гӏажарии
гӏазакхии
гӏаи
гӏала
гӏалан
гӏаланаш
гӏалара
гӏалат
гӏалахь
гӏалгӏаи
гӏалин
гӏалмакхои
гӏап
гӏараваьлла
гӏаттам
гӏачун
гӏаш
гӏебартои
гӏезалои
гӏеи
гӏелло
гӏеми
гӏеххьа
гӏивьегӏ
гӏии
гӏиргӏазои
гӏирма
гӏирман
гӏирс
гӏо
гӏои
гӏомен
гӏон
гӏона
гӏоролаш
гӏоронаш
гӏош
гӏоьнца
гӏуа
гӏуллакх
гӏуллакхаш
гӏуллакхии
гӏуллакххо
гӏур
гӏура
д
да
дагестан
даи
даиман
даккхарна
даккхии
даккъии
дакота
дакъа
дакъалецира
дакъалоцу
дакъолгаш
дакъош
дала
даладо
далан
далматован
дальни
дам
дан
данилован
данкован
данные
данным
данных
дар
дара
даран
дарж
даржарах
даржехь
дарра
дарц
дату
даха
дахар
дахаран
дахо
дахьа
дац
дацаре
дацахь
даьлча
даьржина
даьхна
двинан
двор
дгӏом
де
дебе
дебеонь
дегӏастанан
дедовичин
дез
деза
деи
декабрехь
декабрь
декабря
декадашкахь
декадехь
декхъехь
декъа
декъан
декъахо
декъашхо
декъера
декъехь
дела
делан
делахь
деле
деление
дели
делира
делла
дель
дельберг
деменскан
демидован
демократин
демоскоп
демянскан
ден
дени
денои
денош
деношца
департамент
департаментан
депутат
дер
дерг
деревня
державна
дерз
дерриг
дет
детин
деха
дехачу
дехха
дехьа
дехьаи
деш
деша
дешар
дешаран
дж
джавахетин
джалал
джанан
джании
джеи
джел
джерси
джованни
джон
джорджи
джули
джумхӏурии
джурджу
дзержинскан
дзонгхагехь
ди
диаметр
диаметрехь
диекхна
дии
дика
дикка
димбовица
дин
дина
динамика
динамо
динан
динг
дира
дирекция
диснан
дитташ
диффузи
для
дмитриеван
дмитриевка
дмитрован
дмитровскан
днепран
днепропетровскан
днон
до
добринкан
добричин
добрянкан
довха
довхачу
дог
догӏан
догӏанан
догӏанаш
догӏдонь
догӏнаш
догӏу
догӏучу
доза
дозанашца
дозане
дозанехь
дои
доккха
доккхаха
доккху
доктор
докшицин
докъаран
дол
долалуш
долара
долгин
долгорукован
долж
долии
долина
доллучу
долни
долу
долуш
долчу
дом
домак
домброва
домодедован
дон
донан
донецкан
доп
дополнении
дор
дора
дорогобужан
дохалла
дохаллехь
дохаллин
дохдалар
дохдарна
дохделча
дохк
дохкаллин
доца
доцу
доцуш
доцца
дош
дошам
доьзал
доьзалехь
доьзна
др
древнюю
државен
дрибинан
дрогичинан
дружба
ду
дубнан
дубнон
дубрава
дуброва
дубровка
дубровкан
дубровнан
дуброво
дуккха
дукха
дукхалла
дукхаллии
дукхаллин
дукхах
дукхаха
дукхахдерг
дукхахьа
дукхахьолахь
дукъ
дукъал
дукъо
думиничин
духовщинан
душетин
дуь
дуьздже
дуьи
дуьне
дуьнена
дуьненаи
дуьненан
дуьненахь
дуьххьара
дуьххьарлера
дуьхьал
дуьхьала
дуьхьало
дюи
дятлован
дӏа
дӏаи
дӏатесна
дӏатовжар
дӏахилар
дӏахьо
дӏаялар
е
ев
евек
еврази
европера
европехь
европин
еглиз
его
егорьевскан
егӏ
единиц
единорог
единыи
ее
ежегодник
еза
еи
екатеринбург
екатеринбургца
екатериновка
екхна
екъа
екъна
елена
елецан
елира
елла
еллачу
ельникин
ельнян
ен
енан
еникоьи
енисеи
енн
ер
ере
ерзар
ермишан
ерриг
ерригроссии
ершичин
ершован
ет
етничка
етноконфесионални
етьенн
ефрона
еха
ехь
еш
ешили
ж
жабинкан
жаи
жамбылан
жамӏ
жамӏехь
жан
жарковскан
же
жегӏ
жегӏмен
железногорскан
желт
желтои
женщин
жераи
жердевкан
животные
жигара
жигарадевлча
жигаралла
жигӏонда
жиздран
жизни
жизнь
жима
жирковскан
жирона
жирятинан
жителеи
житковичин
житомиран
жлобинан
жмеринкан
жогӏж
жос
жуан
жудецан
жукован
жуковкан
жуково
жульен
журавле
журнал
жуьгтии
жуьгӏа
жуьльен
жӏаи
з
за
забаи
заболотье
заборье
завод
заводан
заволжскан
завтра
завьялован
задонскан
заечар
заза
заи
закарпатьен
закон
заларин
залегощан
залесье
зальцбург
заманан
заманахь
заманаш
заманашца
заманехь
зан
заозерье
заокскан
западни
западно
заполье
запорожьен
зараи
заречни
заречье
зарубежным
зарубежных
заря
захарован
захарово
зве
звезды
звенигован
звенигородкан
зе
зеи
зеле
зелени
зеленоградскан
зеленодольскан
зельван
земля
земо
зерендан
зерноградан
зимовникин
зира
златибор
злин
знаменка
знаменскан
зовка
зовкан
золотухинан
зона
зонан
зонах
зонашкахь
зонгулдак
зонера
зонехь
зонии
зонин
зону
зорба
зубова
зубцован
зуда
зударии
зуеван
и
ибн
иван
ивано
ивановка
ивановн
иваново
ивановски
ивановскои
ивацевичин
ивелин
ивьенан
игран
игӏдир
идентификаци
идентификации
из
иза
избирательное
изд
издание
издательство
изегӏ
измалкован
изменении
измир
износкин
изображение
ии
ил
илегӏ
или
иллина
иллинера
иллинои
иллира
иль
ильинка
ильино
ильинскан
ильински
им
имени
имеретин
император
императоран
импери
империи
империн
ин
ина
инарла
инверсеш
инг
ингалс
ингалсан
ингашан
ингушетии
ингушское
индекс
индексаш
индиана
индрик
инжавинан
инзан
инствата
институт
института
институтан
интервью
интернет
информации
информация
инчу
иоганн
ир
ира
иркутскан
иркутскои
иркутскца
исаково
исбаьхьаллин
искитиман
ислам
исламан
исп
испан
испани
испании
испанин
испарта
исраилехь
исследовании
иссык
ист
истегӏа
истера
истехь
истмала
исторехь
истори
истории
историн
историческая
историческии
историю
история
истран
исттехь
исчислении
исчисления
итал
итали
италин
итогам
итоги
итон
итт
их
ичалкин
иш
иша
ишиман
ишимбаи
ишкол
ишколан
ишта
иштта
иэдарш
июлан
июлехь
июль
июля
июнан
июнехь
июнь
к
ка
кабардино
кавказ
кавказа
кавказан
кавказскии
кад
кадоман
кадуи
кадыи
каждому
каждую
казарма
казахстан
каи
как
калабри
калачан
калдехьара
кале
калининградан
калининскан
калинковичин
калиновка
калитван
калифорни
калугин
калужскои
калхьалхара
кальвадос
кальскан
кальского
калязинан
кам
каменец
каменецан
каменецкии
каменка
каменкан
каменскан
камень
камешкован
кампани
кампань
кампо
кампос
кан
канавезе
кандидат
канзас
канталь
кантемировкан
кантен
кантон
кантонан
канэда
капитан
кара
карабуьк
карагаи
карагандан
караи
караман
карачеван
караш
каргапольен
каргополан
кардымован
карелин
карии
карл
карловы
каролина
карс
карскан
карта
картасы
карте
картлин
картографии
картография
картол
карты
карьера
касерес
касимован
каспии
кастамону
кастель
кастельно
кастельон
касторнан
кат
каталог
каталогехь
катарина
категори
кахӏраманмараш
качуган
кашарин
кашинан
каширан
каширскан
каштелу
каьлбаьджаьран
кбр
кв
квадратан
квасников
квемо
кг
кгӏистоф
кгӏоьз
кгӏуа
ке
кегии
кедан
кезан
кеи
келераш
кема
кемеровн
кемеровскои
кентукки
кеп
кепар
кепара
кепаш
кер
керла
керлачу
кесова
кест
кеста
кетован
кехат
кечи
ки
киеван
киевн
кизнеран
кии
килемарин
километр
килс
килсан
киль
кима
кимовскан
кимрин
кин
кинан
кингисеппан
кинелан
кинешман
кино
кинон
киреевскан
киржачан
кириккале
кириллован
киришин
киркларели
кировн
кирово
кировоградан
кировскан
кировскои
кирсанован
киршехӏир
кисловодскехь
китаи
китами
китт
кичменгски
кишертан
киі
ккал
кладр
клаи
класс
классан
классик
клепикин
клетнян
клеть
клецкан
климат
климатан
климататан
климатера
климатические
климаткхолларан
климатна
климато
климован
климовичин
клинан
клинцин
кличевн
клуб
клубан
клуж
ключ
ключи
км
кн
книга
книжное
ко
кобаяси
кобринан
кован
ковелан
ковернинан
ковн
ково
коврован
ковылкинан
когӏгӏез
код
коджаэли
коды
кожуунан
козельскан
козловка
козлово
кои
коимбра
кологриван
коломб
коломнан
колони
колорадо
колпнан
колубара
кольчугинан
команда
командехь
командин
комаричин
коми
комии
комитет
комитетан
коммуна
коммунан
коммунах
коммунаш
коммунера
коммунистии
комо
композитор
комсомольскан
кон
конакован
конвекцин
конвекцина
конде
кондопоган
кони
коннектикут
конотопан
коношан
константинован
константиновка
констанца
конте
континенталалла
континенталан
континенталла
континенталлии
континентан
конференција
коныше
координаташ
копи
копылан
кораблинан
кореи
кореличин
корма
коростенан
корочан
корсакован
корсика
корта
корюковкан
косан
космосан
костанаи
костино
костромин
костромскои
костюковичин
косцельны
кот
котельничан
котласан
котлякова
коче
кошеле
кошкинан
коьллаш
коьрта
коьртаниг
коьртачу
коьртехь
крае
краи
кралове
краматорскан
красная
красни
краснин
красноармеи
красноборскан
красногвардеи
красногородскан
красногорскан
краснодаран
красное
краснознаменскан
краснокамскан
красносельскан
краснослободскан
краснояран
красноярскан
красноярскца
красныи
кратер
кратеран
краткая
краткие
краю
края
кременецан
кременчуган
крестцин
кривои
крик
кричеван
кромин
кропивницкан
круглин
крупкин
крус
крутои
крымскан
кстован
кубинскан
кубок
кувандыкан
кувшинован
кугӏ
кугӏсель
кудымкаран
куедан
куженеран
кузнецкан
кузнецова
кузнецово
куи
кукморан
кулан
культура
культурашна
культурин
кунгуран
кунео
куньян
купинан
курганан
курганскои
куркинан
курскан
курскои
кусиро
кутан
куьг
куьи
куьтахӏи
куэнка
куявско
кх
кхаа
кхааннах
кхазакхаш
кхазакхстанан
кхазакхстанехула
кхаи
кхарачои
кхача
кхачаи
кхачар
кхаччалц
кхаьллан
кхаьчна
кхелхина
кхелхира
кхераме
кхета
кхетадо
кхетар
кхеташо
кхеташонан
кхетта
кхечарех
кхечира
кхечу
кхии
кхиина
кхин
кхира
кхо
кхоалгӏа
кховдии
кхозлагӏчу
кхолладелла
кхоллаелла
кхоллаи
кхоллало
кхоллалучу
кхоллам
кхолламан
кхолларан
кхоллаяларан
кхоллаяларна
кхочу
кхочучу
кхочуш
кхоччуш
кхоъ
кхоьллина
кхоьллинчу
кхоьллинчул
кхоьллира
кху
кхуза
кхузара
кхузахь
кхуллу
кхуллуш
кхуьи
кхуьлина
кхуьу
къ
къаи
къам
къастало
къастош
къаьмнии
къаьста
къаьстачу
къаьсташ
къаьстина
къба
къегина
къекъарца
къекъаш
къии
къилба
къилбан
къилбаседа
къилбаседера
къилбаседехь
къилбаседехьа
къилбехахь
къилбехь
къилбехьа
къилбехьара
къилбседа
към
къобал
къоларг
къоман
къора
кызыл
кызылордан
кырджалин
кэролин
кі
књига
кӏажахь
кӏаи
кӏант
кӏахетин
кӏеда
кӏеззиг
кӏезиг
кӏиранбуса
кӏоргенехь
кӏотар
кӏошт
кӏоштан
кӏоштара
кӏоштаркашчуннии
кӏоштахь
кӏошташ
кӏошташкара
кӏошташкарчуннии
кӏошташкахь
кӏошташкахьчул
кӏоште
л
ла
лабастид
лабаьхна
лабинскан
лаваль
лагӏи
ладаме
лаи
лак
лакха
лакхара
лакхарчу
лакхахь
лаллин
лало
лам
ламанан
лан
лана
ланд
ландаш
ландехан
ландшафтии
лаптева
лараран
ларарца
лас
лат
латаран
латархо
латинан
латта
латталелоран
латтан
латтана
латтано
латтар
латтарех
латтаро
лауреат
лаха
лахара
лахь
лацио
лачу
лаьмнаш
лаьмнашкахь
лаьмнии
лаьтта
лаьттаи
лаьттан
лаьттачу
лаьтташ
лаьттина
лаьттира
лаьцна
лађевић
лгота
ле
лебедева
лебедь
лебушании
лебяжьен
лев
левзина
левзира
левитаци
леже
лежневан
лез
леи
лекха
лела
леладо
лелаи
лелар
лелаш
лелии
лело
лелош
ленан
ленд
ленинан
ленинградан
ленинградскои
ленинск
ленинскан
леон
лепар
лепаран
лепелан
лер
лерина
леррана
леррина
лес
леснои
лет
летнее
лецира
лечхуми
ли
либерец
ливнин
лигури
лидан
лии
лимузен
лина
линан
лиознан
липецкан
липецкои
липовка
лира
лискинан
лиссабон
литература
литературин
литературы
лихославлан
лкам
лкован
ло
лован
ловза
ловзар
ловзаран
ловзарии
ловзархо
ловзаш
ловзуш
ловка
ловкан
лово
ловски
лог
логои
логӏан
лодеи
лодзинскан
лозегӏ
лок
локалној
локнян
локхалла
ломан
ломбарди
ломоносова
ломоносован
лон
лор
лору
лоруш
лос
лотошинан
лоттуьи
лоцу
лоьмар
лу
луагӏ
луагӏа
луагӏан
луагӏе
лубнин
луг
луган
луганскан
лузан
луи
луизиана
лука
лукин
лукино
луларчу
луны
луон
лури
лухан
луховицин
луцкан
луш
луьра
луьсталла
лыскован
ль
львован
льгован
льеи
любанан
любиман
любинскан
люблинан
любытинан
людинован
лямбиран
ляховичин
м
ма
магаданскои
магаданца
магнитан
магнитии
магӏи
магӏитим
магӏн
магӏна
магӏсель
магӏсии
магӏтен
мадрид
маж
мазовин
мазурин
маи
макан
макарово
макарьеван
македонин
македонија
макнот
макова
макс
максатихан
максимум
максимуман
максимумашна
макстат
мактааралан
мала
малати
малая
мале
мали
малии
малиновка
малоархангельскан
малое
малопольскан
малоярославецан
малх
малхбале
малхбален
малхбалехь
малхбалехьа
малхбера
малхбуза
малхбузан
малхбузен
малхбузера
малхбузехь
малхбузехьа
малые
малыи
малым
мамадышан
ман
мангалан
маниса
манов
мансии
мантурован
манш
маньи
мар
марамуреш
мараньян
мардин
маре
мари
марии
мария
марке
марково
марксан
маркхалаш
мармаран
марсан
март
марта
мартан
мартехь
мартин
мартино
мархаш
мархии
маршах
марьино
мас
масала
масех
масии
массанхьа
массачусетс
массаш
массаша
массашна
массашца
массех
массии
массо
матвеев
материалы
материк
материкан
маттахь
мату
матч
матчехь
маунт
мах
махачкала
махкахь
мациев
мачва
машан
маьждиг
маьлхан
маьрша
маьӏна
мая
маяк
мај
мб
мглинан
мдж
ме
мегар
мегӏ
медведеван
медвежьегорскан
медвенкан
медынан
междуреченскан
мез
мезенан
мезьегӏ
меи
мекленбург
мексико
мел
меленкин
мелхан
мен
мении
мениль
меркурии
мерсин
меса
мессьен
места
местного
местности
место
метах
метеорологин
метр
меттан
меттанаш
меттании
меттахӏоттии
меттехь
меттиг
меттиган
меттигаш
меттигашкахь
меттигера
меттигерчу
меттигехь
меттигии
механизм
мехаш
мехашца
мехединць
мехкан
мехкашкахь
мехца
мещовскан
мидал
микроданные
микрокӏошт
микрокӏошташ
милан
миллерован
миллион
милославскан
мин
минас
минимум
министр
миннесота
минот
минскан
миорин
мир
мира
миргородан
мирни
миссисипи
миссури
михаи
михаил
михалево
мичиган
мичуринскан
мишель
мкинан
млн
мм
мо
могиле
могилев
могӏа
могӏам
могӏбиан
могӏис
можа
можаи
можган
мозаик
мозель
мозыран
мои
мокшанан
молдав
молдавии
молдавин
молдавия
молдова
молодечнан
молокован
мон
монастырщинан
монголера
монголи
монтань
монтгӏеи
монте
монтегуь
монтиньи
монферрато
морави
моравич
моравия
моргаушин
мордован
мордовин
мордовия
моркин
моршанскан
мосальскан
моск
москва
москваца
московскии
московскои
москох
москохан
москохахь
москохца
мостинан
мотт
мох
мохе
мохк
мошенскан
моьгӏт
моьз
мркос
мс
мск
мстиславлан
мтианетин
мтп
мугӏла
мужчин
музеи
музыкин
мулен
муниципалан
муниципалитет
муниципалитетам
муниципалитетан
муниципалитеташ
муниципалитетлары
муниципалитетов
муниципального
муниципальное
муниципальныи
муниципальным
муниципальных
мур
муреш
мурманскои
муроман
муса
муссоналлин
муссонан
муссонии
мутье
муха
муххале
мухьаммад
муш
муьлххачу
муьран
муьрашкахь
муьрехь
мценскан
мцхета
мытищин
мышкинан
мэн
мэриленд
мюнхен
мяделан
мякотин
н
на
наварра
навлян
нагахь
наггахь
над
названии
названия
называевскан
наи
налоган
нальчик
нан
нана
наокеанан
наро
народная
народов
нарынан
наса
населе
населени
население
населением
населението
населения
населенные
населенным
населенных
населення
насељима
настоящ
наук
наука
наукам
науки
научнои
нах
наха
нахь
национален
национална
национального
национальное
национальнои
национальность
национальностям
национальныи
начало
начу
наш
наявного
не
небраска
невелан
невиль
невскан
недвижимости
неи
неклиновскан
некоузан
некрасовскан
некъ
некъан
некъашна
некъе
некъии
нелидован
нель
нем
неманан
немирован
немцои
ненан
неопр
нерехтан
несвижан
несеуд
нестерован
нехан
неян
ни
нива
нижегородская
нижегородскои
нижнее
нижнесилезин
нижнеудинскан
нижни
нижние
нижнии
нижняя
низам
нии
ник
никитино
никифоров
никола
николаевка
николаевн
николаи
николо
никольскан
никольски
никольское
никулино
нин
нисло
нисса
ницкъ
ницца
ниш
нка
нланд
нмут
нна
нному
нные
нным
нных
но
нова
нован
новая
новгород
новгородан
новгородскои
нове
нови
новии
новинка
новкъахь
ново
новоград
новогрудокан
новодеревеньковскан
новодугинан
новое
новозыбкован
новокузнецкан
новомосковскан
новоржеван
новосе
новоселки
новосергиевкан
новосибирскан
новосибирскои
новосилан
новосокольникин
новости
новоузенскан
новоукраинкан
новохопе
новы
новые
новыи
ногинскан
ногӏ
ногӏманди
нои
ноль
нормера
норт
норти
нотгӏ
ноу
нох
нохч
нохчии
ночью
ноябран
ноябрендә
ноябрера
ноябрехь
ноябрь
нс
нт
нуьи
нш
ны
ныи
нытван
ньевгӏ
нью
нюксеницан
нямц
няндоман
о
об
обен
обзор
областан
областана
областашца
областе
областеи
областера
областехь
области
область
обоянан
образовании
образования
образованиям
образующих
обсерваторехь
обслужване
общ
общая
общественные
общественным
общин
община
общини
объект
объектии
ова
овегӏнь
овл
овлу
овлуш
овлуьи
овха
овхачу
овхо
овхонан
овхонаш
овхонашца
огаи
огаре
огиз
огӏ
огӏа
огӏн
огӏу
огӏуш
од
одессан
одинцовон
одоеван
ож
оза
озгат
озе
озерки
озеро
ои
оидзуми
окан
окато
океан
океанан
океанашна
океане
океанера
океании
оккха
оккху
оккхуш
оклахома
округ
округа
округам
округов
окружным
окс
окситани
октмо
октябран
октябрехь
октябрь
октябрьскан
октябрьски
октябрьскии
октября
октябряхь
окуловкан
окъалла
окъаллаш
окъаллин
олаелира
олан
оле
оленинан
олии
олимпии
оломоуц
олонецан
олт
олу
олура
олучу
олуш
олчу
оль
ольховаткан
ольховка
ом
омар
оминг
омскан
омскои
омскца
он
она
онам
онда
оне
онеган
онкарахӏисар
онна
онных
онов
ополен
опочкан
оптикан
општина
ор
ора
орам
ораматаш
ораматии
орбиташна
орга
орган
органан
организација
ордан
орден
орду
оре
орегон
оренбурган
оренбургскои
орехово
орион
оричин
орк
орлован
орловка
орловскан
орловскои
орографин
оршанан
оршанкан
осан
осиновка
осиповичин
осколан
османии
осташкован
остров
острован
островецан
островскан
острогожскан
от
отар
отв
отдельных
официалан
официальныи
оханскан
охло
оху
охъярна
охьадогӏу
охьатаьӏна
оца
оценка
оцу
оцун
оцург
оцучу
оцуш
оцуьна
оццу
очанаш
очании
оче
очерк
очко
ошан
ошмянин
оьгу
оьду
оьздангаллин
оьзна
оьр
оьрс
оьрсаша
оьрсии
оьху
оьшу
оьшуш
оӏ
п
па
пави
павинан
павлован
павловка
павлово
павловскан
павлодаран
паи
паленсия
палехан
палкинан
паломар
пан
пана
панан
панаш
панинан
панчу
параиба
парана
паргӏат
паргӏато
пардубице
париж
парк
партин
паруса
парфеньеван
парфинан
паулу
пауль
пачхьалкх
пачхьалкхан
пачхьалкхаш
пачхьалкхии
паччахь
паччахьан
пгӏе
пгӏованс
пгӏовансан
пе
педро
пеи
пекуляран
пен
пензенскои
пензин
пенон
пенсильвани
пер
первая
перви
первомаи
перевод
переводить
переи
перемышлан
переписи
перепись
переславлан
периода
пермии
пермского
пернамбуку
перфектурехь
пески
пестован
пестякин
пети
петриковн
петрова
петровка
петрово
петровскан
петровски
петропавловка
петушкин
печатня
печорин
пи
пиауи
пигӏенеи
пик
пикагӏди
пинеган
пинскан
пирот
пичета
пко
плавскан
план
планета
платформа
плеи
плен
плесецкан
плесси
пло
пловдиван
пльзень
плюссан
по
поветан
погаран
погоде
погорелка
погост
погӏ
под
податоци
подаци
подгоренскан
подгорни
поддорьен
подкарпатан
подлясьен
подольскан
подосиновецан
подпорожьен
пои
покровка
покровскан
покровски
пол
поле
полен
полесскан
политика
политикин
политическои
пологин
положение
полоцкан
полтаван
полтавкан
полу
поль
польскан
польша
польше
польшин
полюсан
полякии
поляна
полянан
полянского
померани
поморав
поморскан
пон
попис
поповка
порт
порталы
порту
португали
португалин
португалия
порхован
порядке
посадан
посе
поселении
поселения
поселениям
поселкам
поселков
пособие
поспелов
поставин
постановление
постановлении
постоянен
постоянного
похвистневан
почепан
починок
починокан
пошехоньен
поштан
поэт
пояна
правда
правдинскан
правительства
правительство
правительствон
правовых
прахова
преглед
председатель
президент
президента
президентан
премьер
пресс
при
приволжскан
признании
приложение
прилукин
приморскан
приморского
приморьен
приозерскан
припадност
природа
природные
пристенан
проблемы
провинцехь
провинци
провинцин
прогноз
программа
прогресс
проект
проекты
прокопьевскан
промышленнин
пронскан
профессионалан
профессор
профиль
прохоров
прохоровкан
процессаш
процессаша
пружанин
пряжан
пскован
пуату
публикация
пугаче
пудожан
пуи
пунктам
пунктов
пункту
пункты
пурган
пустошкан
путь
путятинан
пуховичин
пучежан
пушкинан
пушкински
пуьи
пуэбла
пфальц
пчинья
пыталован
пьегӏ
пьегӏгӏ
пьемонт
пьетро
р
ра
рабочии
радиации
радиацин
радиацино
раж
развития
размещение
разрезе
разъезд
раи
раменскан
раменье
рамешкин
рамонан
ран
рана
рандин
расина
растения
рача
раш
рашка
рг
ре
реал
реаль
регион
регионан
регионашка
регионера
регионехь
регистрация
ред
редакциеи
реестр
реестран
режиссе
реза
результаты
реи
рекреацин
рельеф
рельефан
рен
ренан
ренаш
република
републици
републички
респонденташ
республика
республикашкахь
республике
республикехь
республики
республикин
реформы
рецензенты
речицан
речка
ржаксан
ржеван
рз
ри
ривер
ридж
ризе
рио
рипол
риу
рия
рнген
ро
роберт
ровнан
роган
рогаче
рогнединан
рогӏера
родионово
родникин
рок
рокка
року
роль
роман
романовка
романья
ромнин
рославлан
россехь
росси
россии
россия
россонинан
россошан
росстат
ростовн
ростовскои
роща
рскан
рсфср
ртищеван
ру
рубежом
руда
рудня
руднян
рузаевкан
рузан
рузманца
рум
руман
румыни
румынии
румынин
рус
руссан
русская
русски
русские
русскии
русско
рф
рыбинскан
рыбни
рыбнин
рыльскан
ряжскан
рязанан
рязанехьчул
рязанскои
с
са
савез
савинан
савино
савиньи
сагӏт
сагӏта
садаӏаран
садови
саи
сакари
саксони
саламанка
саль
самарин
самарскои
самборан
самегрело
самои
самора
самоуправи
самоуправление
самоуправления
самсун
самцхе
сан
саналган
санашца
сандован
санкт
санна
сант
санта
сантарен
санто
санту
санчурскан
сарагоса
сараи
сараин
саракташан
саратовн
саратовскои
сардини
саркисов
саркисова
сасован
сато
сату
саут
сафонован
саха
сахалинан
сахалинская
сахалинскои
сахьт
сахьтан
сахьтана
сахьташкахь
сахьтехь
сахьтии
сацадо
сацам
сацамца
сборник
сванети
сведения
свентокшискан
свердловн
свердловскан
свердловскои
светлогорскан
свислочан
се
сеара
себежан
севваь
севгӏ
северин
севернин
северныи
северо
северскан
севскан
сеговия
сегӏ
седа
седарчашкахь
седарчашна
седарчех
седарчии
седин
сеи
сек
селаж
селе
селиванован
селижарован
селище
село
селтин
сель
сельским
сельских
сельского
сельскому
сельцо
сема
семано
семе
семеновка
семилукин
сен
сена
сенаторов
сенаторова
сеннан
сент
сентябран
сентябрера
сентябрехь
сентябрь
серб
сербин
сербия
сергеевка
сергеи
сергиев
сергиевскан
середина
сери
серия
серло
сернуран
серпухован
серра
сехьа
си
сибиу
сибрехан
сибрехара
сиван
сивас
сигӏ
сизал
сии
сиирт
силезин
силезия
силу
силья
симидзу
син
синельникован
синлун
синоп
сипатех
сипташ
сипташца
сиптии
сирла
система
системан
системехь
системы
сити
сих
сиха
сицили
ск
скан
ская
ски
ские
скии
ского
ское
скои
ском
скопинан
скорпион
славгородан
славскан
сланцин
сливкера
слобода
слободан
слободка
слободскои
слов
словак
словакии
словакин
словареи
словари
словарь
словен
словени
словении
словенин
словения
слониман
служба
службы
слуцкан
см
смолевичин
смоленскан
смоленскои
смолянан
сморгонан
со
собинкан
собрание
сов
совгӏат
совгӏатан
совгӏатхо
совегӏ
совет
совета
советан
советии
советскан
советская
советски
современных
совхоза
соединенные
соколан
соколово
сокольскан
сокорро
солдатскан
солигаличан
солигорскан
соликамскан
солнечногорскан
солнечнои
солнцеван
соль
сольцин
сомма
сон
сона
сонкован
сория
сорокино
соскован
соснован
сосновка
сосновкан
сосновскан
сост
состав
составе
составители
состоянию
софин
социалан
социалистии
сочехьчул
сочинении
соьлжа
союза
союзан
спас
спасскан
спб
спектран
спектрашкахь
спирован
список
спорт
спорта
спортан
справочник
справочников
спринг
спрингс
србије
србији
србију
среднегодовая
среднерусски
средни
сср
ссрс
ссср
ст
ставрополан
ставрополехь
ставропольского
стаг
стална
становин
становите
становника
становништво
станци
стара
старая
старе
стари
старии
старицан
стародубан
старое
старожилован
старозагоран
старост
старцев
старые
старыи
статистика
статистике
статистики
статистикин
статистику
статистически
статистическии
статистическое
статус
статья
стве
ство
степнои
стереотип
стигал
столбцин
столинан
стоьмаш
стоьмии
стр
стран
странам
странах
страны
стрелец
стрии
струги
студентии
ступинан
су
субъектов
суворован
суджан
судиславан
судогдан
сузакан
суздалан
суксунан
сул
сулеи
сулинан
суль
сумин
суражан
сурскан
сурт
сус
сусанинан
суун
сухиничин
сучава
суьгӏ
суьи
суьльпис
суьрташ
схьа
схьаи
схьакхачарна
сша
сызранан
сыче
сьерра
сямжан
січня
т
та
таб
табл
таблица
тавдан
тагӏн
таи
также
таласан
талдоман
талламан
талован
тамбовн
тамбовскои
тан
танасковић
тар
таран
тарасовскан
тарбагатаи
тардолуьи
тарло
тарногскан
таро
тарусан
тархьама
татарскан
татарстан
татистикин
таутенбург
тахана
таханлера
тахо
тацинскан
таш
таштаголан
тверан
тверскои
те
театр
театран
тег
теи
текирдагӏ
текущего
телам
телеорман
телескопан
телец
теллина
темникован
температура
температуран
температураш
температурашца
теннесси
тера
терахь
терго
теркан
терме
термин
тернополан
терр
территориального
территориальное
территориальнои
территориальном
территориальных
территории
территориям
теруэль
техас
техка
техникин
ти
тии
тиллина
тиман
тимиш
тина
типа
типу
тира
тироль
тихвинан
ткъа
то
тоба
тобан
тобанан
тобольскан
тован
тогучинан
тогӏенаш
тогӏенехь
тое
тои
токаре
токат
толам
толамхо
толедо
толочинан
толстои
том
томах
томскан
томскои
топлич
топографическая
топонимическии
топонимия
торжокан
торопецан
торре
торрес
торъялан
тоскана
тоснан
тотьман
тоьуш
тоьуши
тоьхна
трабзон
тренер
тренеран
трентино
тренто
троицкан
троицки
тропикан
тропикера
троснан
трубчевскан
тс
тта
ттаза
ту
туван
тугӏ
туи
тулгӏенаш
тулин
тулунан
тульскои
тунан
тунджели
тура
турекан
турин
турк
туркестанан
туркои
турку
турпал
турс
туруои
тутаевн
тутуков
тухуш
туш
туьи
туьллуьи
туьринген
тыва
тырговиштен
тысячи
тюкалинскан
тюменан
тӏаккха
тӏамехь
тӏаналлии
тӏаьххьара
тӏаьххьарчу
тӏаьхь
тӏаьхьа
тӏаьхьарчу
тӏе
тӏеда
тӏекхаччалц
тӏекхета
тӏекхочуш
тӏеман
тӏемаш
тӏера
тӏетаьӏӏа
тӏех
тӏехула
тӏехуларчу
тӏехулонан
тӏехулоне
тӏехь
тӏехьа
тӏехьара
тӏехьчулла
тӏиера
тӏом
тӏуналла
тӏуьна
у
уаз
уаза
уан
уван
уварован
уггар
уггаре
угличан
угран
удмурташ
удмурти
удмуртии
удмуртин
удомлян
уезд
узгенан
уздан
узловин
уи
указ
уккхии
уккъера
укр
украина
украинаш
украинехь
украинин
украины
украі
укъа
укъаи
укъара
укъаралла
укъараллера
укъараллин
укъахь
уллера
уллехь
уллорчу
уллохь
улус
улусан
ульянован
ульяновскан
ульяновская
ульяновскои
уманан
ун
унечан
университет
университета
университетан
упознајте
упоредни
управление
управления
урал
уралдехьех
урало
урам
урата
уренан
урицкан
урт
урхалла
урхаллин
урюпинскан
усвятин
условия
усманан
усольен
уссурии
устецк
устрои
усть
устье
устьян
устюган
устюжнан
утратившими
ухаи
ухатуху
участок
уче
учебное
учетом
уш
ушак
ушачин
уьи
уьртан
уьш
уэда
уэска
ф
фаи
фактор
фактории
фактория
факторш
факультет
фамили
фатежан
фгӏанс
фгӏанш
фгӏен
фе
фебруар
февралан
февралехь
февраль
федералан
федеральная
федеральнои
федеральныи
федеральных
федеративная
федерации
федерацин
федоровка
федоровкан
феи
феодализма
ферзикован
фз
физика
физикин
филологических
философ
философии
фильм
финистегӏ
финляндехь
фирован
флорида
фо
фогӏе
фогӏж
фоминскан
фон
фонтен
фонтене
формате
форт
фотографическии
фр
фрагезеш
франк
франковскан
франц
франци
франции
францин
французии
французских
фрегези
фриули
фс
фурманован
футболан
футболист
фуэнте
х
хаа
хаало
хаалуш
хаам
хаамаш
хаамашца
хаамии
хабаровскан
хабаровского
хаван
хаза
хаи
хакаси
хакасин
хакасия
хала
халкъан
халкъашна
хамар
хамаран
хан
ханты
хара
харгита
харита
харовскан
харш
харькован
хаси
хасковон
хастоьмаш
хаутен
хаъал
хаьржира
хвастовичин
хвои
хелин
хенал
хенан
хенахь
хенаца
херсонан
хи
хии
хила
хилар
хиларан
хиларна
хиларо
хиларца
хилии
хилира
хилла
хиллачу
химин
хин
хир
хира
хиславичин
хиш
хмельникан
хмельницкан
хозяи
хои
холм
холман
холмогорин
хольт
хомутовкан
хотынецан
хрустальнин
хуан
худа
художник
хунедоара
хутор
хууш
хуьлу
хуьлуш
хь
хьажа
хьажии
хьажорг
хьаи
хьакъ
хьал
хьалха
хьалхара
хьалхарчу
хьаьжжина
хьаьжна
хьесапашца
хьехархо
хьехархои
хьии
хьовзадо
хьокху
хьолах
хьолахь
хьолаш
хьолашкахь
хьолехь
хьоло
хьост
хьостан
хьоькху
хьун
хӏаваан
хӏаваии
хӏаваин
хӏаван
хӏаваъ
хӏаи
хӏара
хӏатаи
хӏинди
хӏиндин
хӏинца
хӏирии
хӏиттаи
хӏогӏдан
хӏокху
хӏора
хӏорд
хӏордан
хӏордашна
хӏоттам
хӏоттаман
хӏоттамии
хӏоттамца
хӏоттии
хӏоьттина
хӏоьттира
хӏума
хӏуманаш
хӏунда
хӏутту
ц
ца
цадалар
цакхочу
цало
цалун
цалучу
цалуш
цаман
цамаш
цар
цара
царех
царехь
царна
цасоццаш
цахилии
цахуьлу
цаьрца
цаялар
цаяларца
цаяро
цево
целинан
целиннин
цельсин
центавр
центгӏ
центр
центральное
центральныи
центрам
центран
центров
цера
церан
церкован
цигахь
ции
циклон
циклонан
циклонаш
циклонашца
циклонии
цина
цинчу
цира
циркуляцех
циркуляции
циркуляцин
циркуляцица
цитатии
цифровои
цкъа
цо
цу
цул
цунах
цундела
цунна
цуо
цуш
цуьна
цуьнан
цуьнга
цуьнца
цхьа
цхьаа
цхьабосса
цхьадолчу
цхьаи
цхьан
цхьана
цхьанатоьхна
цхьанаэшшара
цхьанаэшшаралла
цхьацца
цхьаццанхьа
цхьаъ
цхьаьна
цхьаьнатоьхна
цхьаьнаэшшара
цы
цӏа
цӏарах
цӏарца
цӏе
цӏен
цӏераш
цӏеххьана
цӏии
ч
ча
чагодан
чаи
чан
чанаккале
чанин
чанкири
чаплыгинан
часовую
часовых
часть
часы
чаусин
чашникин
че
чекхболуш
чекхдолуш
чекхи
чекхъяккхира
чекхъяьккхира
человек
челябинскан
челябинскои
чемпион
чемпионат
чемпионатан
чемпионатехь
чемпионатии
чепецкан
червенан
червоноградан
чергазии
чердынан
черемисинован
черемхован
череповецан
черкассин
чернан
черниговн
черновцин
чернушкан
черных
черняховскан
черткован
чех
чехии
чехин
чехка
чехован
чечено
чеченскии
чеченского
чеченскои
чечерскан
чечни
чечня
чеш
чисельність
численности
численность
чкаловскан
чкъор
чкъоьраца
чкъоьрнаш
чкъоьрнашкара
чкъоьрнашна
чолхалло
чолхечу
чорум
чоруман
чохь
чоь
чоьнан
чоьхьара
чоьхьарчу
что
чу
чубаии
чуваш
чувашаш
чувашин
чувашскои
чудован
чуи
чул
чура
чусовои
чухломан
чухула
чучкован
чуьра
чуяхка
чӏагӏи
чӏагӏло
чӏогӏа
ш
ша
шабалинан
шаблыкинан
шагӏанта
шадерг
шадринскан
шаи
шам
шампань
шан
шанлиурфа
шапель
шара
шаран
шаранган
шарахь
шарканан
шарковщинан
шарьян
шатель
шатесна
шатии
шато
шатрован
шатуран
шаховскан
шахуньян
шахьар
шацкан
шаьш
швеи
шебекинан
шевченко
шегӏ
шеи
шекснан
шеллало
шелонан
шелонаш
шелонашца
шелте
шелъелла
шен
шена
шенан
шенкурскан
шенталан
шепетовкан
шера
шеран
шераш
шерашкахь
шере
шерии
шетан
шеш
ши
шида
шии
шила
шилован
шимскан
шина
шира
ширачу
ширнак
шиъ
шклован
школа
шлезвиг
шо
шозза
шолгӏа
шолгӏачу
шолгӏачул
шораллашкахь
шораллера
шораллехь
шораллин
шорта
шортта
шосткан
шотландин
штаи
штат
штатан
штатера
штатии
штаты
штири
шу
шумеи
шумилинан
шумячин
шуьи
шуян
шчына
ще
щучинан
э
эвла
эвлан
эвлахь
эгеи
эгӏ
эгӏо
эдвард
эдирне
эз
эзар
эи
экваторан
экз
экономикин
экономических
эл
эла
элан
элаьзигӏ
элеанор
электронныи
элементаш
элира
эль
эльст
эмилия
эн
эна
эндатэ
эндгӏ
энергин
энциклопеди
энциклопедии
энциклопедическии
энциклопедических
энциклопедия
эрал
эрана
эрзинджан
эрзурум
эрик
эрк
эркан
эркаш
эрм
эрмалои
эртилан
эскар
эскаран
эскишехӏир
эссонна
эст
этьен
эффекташ
эхиг
эхиган
эшшар
эшшара
ю
юбилеи
южан
южныи
юити
юкаменскан
юккъара
юккъе
юккъера
юккъераоьрсии
юккъерачу
юккъерчу
юккъехь
юкъ
юкъа
юкъаи
юкъара
юкъараллавикихаамаш
юкъараллин
юкъахь
юпитеран
юргамышан
юрган
юрии
юрлан
юрт
юрьев
юрьевецан
юсьван
юта
юха
юхаерзар
юханехьа
юхахьовзадо
юхнован
юьззина
юьи
юькъаллаш
юьртабахамна
юьртан
юьстича
юьххьехь
юьхьанца
я
ябланич
яворован
яздархо
яздархои
яздина
язи
язык
языка
яи
яккхии
яккхинарг
яковлеван
якутин
якутия
якутскца
якшур
якъон
ялаи
яломица
ялташна
ялтехь
яман
ян
январан
январехь
январь
января
яп
япон
японии
японин
япония
японское
яр
яра
яран
яранскан
яркован
ярославлан
ярославская
ярцеван
ясногорскан
ясси
яхьа
яхьар
яьккхина
яьккхира
яьхкича
ђурић
і
іаьнца
језик
језички
љубоја
һ
ӏ
ӏа
ӏабдул
ӏадат
ӏаи
ӏаламан
ӏалашо
ӏам
ӏаткъам
ӏаткъаман
ӏаткъамбо
ӏаткъамии
ӏаткъамца
ӏаш
ӏашца
ӏаьн
ӏаьна
ӏаьнан
ӏаьнаре
ӏаьнца
ӏаьр
ӏаьрбии
ӏаьржа
ӏаьца
ӏедал
ӏедалан
ӏедало
ӏии
ӏилманан
ӏилмании
ӏилманча
ӏилманчаш
ӏилманчо
ӏиндагӏа
ӏуьи
արդյունքները
բառարան
բնակավայրերի
բնակչությունը
երևան
երևանի
զ
թ
խորհրդային
կորկոտյան
համալսարան
հայաստանի
հանրապետության
հարակից
հարյուրամյակում
մարդահամարի
շրջանների
պետական
վերջին
տեղանունների
և
،
ا
ب
ر
ك
ل
م
ن
و
ي
َ
ُ
ِ
ّ
ْ
ٓ
ٔ
ٕ
ा
ि
ी
्
აღწერა
ეროვნული
ივლისი
მოსახლეობის
ნოემბერი
სამსახური
საქართველოს
საყოველთაო
სექტემბერი
სტატისტიკის
‎
‐
–
—
―
‘
’
“
”
„
†
•
…
′
″
№
→
↔
↷
−
∼
③
④
⑦
⺀
⺄
⺆
⺈
⺊
⺌
⺕
⺝
⺸
⺼
⿰
⿱
⿲
⿳
⿴
⿵
⿶
⿷
⿸
⿹
⿺
⿻
〢
い
お
か
き
し
つ
て
と
の
゙
゚
イ
コ
サ
シ
セ
タ
ッ
テ
ト
フ
ヘ
ホ
ム
ユ
ラ
ン
・
ー
㇁
㇂
㇄
㇇
㇈
㇉
㇓
㐁
㐄
㐅
㐌
㐫
㐬
㐭
㐮
㐱
㑒
㒵
㒸
㒼
㓁
㓞
㔾
㕛
㕣
㖾
㘝
㚅
㚇
㚔
㚘
㝉
㝡
㝴
㝵
㞋
㞢
㞷
㠩
㠭
㠯
㡀
㡭
㡿
㢲
㢴
㣇
㣺
㥯
㪅
㫄
㫐
㫒
㫺
㬅
㬎
㬥
㬰
㲋
㳄
㷠
㸒
㸚
㸦
㼌
㼲
㽞
㿟
䀠
䂞
䍃
䏍
䒑
䖍
䖒
䖝
䖵
䙴
䚻
䜌
䝿
䡛
䧹
䪞
一
丁
丂
七
丄
丅
丆
万
丈
三
上
下
丌
不
与
丏
丐
丑
专
且
丕
世
丘
丙
业
东
丞
丢
丣
两
严
並
丨
丩
个
丫
丬
中
丮
丰
丱
串
丵
丶
丷
丸
丹
为
主
丽
丿
乀
乂
乃
久
乆
乇
么
义
之
乌
乍
乎
乏
乐
乑
乔
乖
乗
乘
乙
乚
乛
乜
九
乞
也
习
乡
乳
乾
亀
亅
了
亇
予
争
事
二
亍
于
亏
亐
云
互
亓
五
井
亘
亚
亜
亞
亟
亠
亡
亢
交
亥
亦
产
亨
亩
享
京
亭
亮
亯
亰
亲
亳
亶
亷
人
亻
亼
亾
仁
今
介
仌
从
仐
仑
仒
仓
仕
他
付
仝
代
令
以
任
企
伊
伏
伐
休
会
伯
但
位
住
佐
何
佘
余
作
佥
使
來
侈
侌
侖
侯
侵
便
保
俞
信
修
倉
倍
候
倠
備
僉
僕
儿
兀
允
兂
元
兄
充
兆
兇
先
光
兊
克
兌
免
兑
兒
兓
兔
党
兜
兟
入
全
兩
兪
八
公
六
兮
兰
共
关
兵
其
具
典
兹
兼
冀
冂
冃
冄
内
冈
冉
冊
冋
册
再
冎
冏
冐
冒
冓
冖
冗
冘
军
农
冝
冡
冥
冫
冬
冷
几
凡
凢
凵
凶
凷
凸
凹
出
函
凾
刀
刁
刂
刃
刄
刅
分
切
刍
刑
刕
刖
列
刘
则
初
別
利
别
到
制
刺
則
削
剌
前
剡
剽
劉
力
功
加
劦
助
劫
劳
劵
勃
勇
勉
勒
動
務
勞
勢
勤
勹
勺
勻
勾
勿
匀
匂
包
匆
匈
匊
匋
匍
匕
化
北
匚
匝
匡
匪
匱
匸
匹
区
医
匽
匿
區
十
卂
千
卄
卅
卆
升
午
卉
半
卌
华
卑
卒
卓
单
卖
南
卜
卝
卞
占
卡
卢
卣
卤
卦
卩
卪
卬
卯
印
危
即
却
卵
卷
卸
卻
厂
厃
厄
历
厈
厉
厌
厓
厘
厚
原
厤
厥
厨
厭
厲
厶
厷
厸
去
厼
厽
叀
参
參
叅
又
叉
及
友
双
反
叐
发
叒
叔
叕
取
受
叚
叜
叟
口
古
句
另
叩
只
召
可
台
叱
史
右
叵
号
司
叹
吂
各
吅
合
吉
吊
吋
同
名
后
吏
向
吕
君
吝
吞
否
含
启
吳
吴
吹
吾
呂
呆
呈
告
员
呙
周
命
咅
和
咎
咠
咢
咨
咸
咼
哀
品
哉
員
哥
哲
唐
商
啇
問
啚
啬
啻
善
喜
喬
單
喿
嗇
噩
嚴
囊
囗
囘
囙
囚
四
回
囟
因
囧
囬
困
囱
囷
固
国
圂
圅
國
圍
圓
土
圡
圣
圥
在
圭
地
圶
圼
坐
坒
坚
坴
垂
垔
垚
埀
埋
城
埶
執
基
埼
堂
堅
堆
堇
堯
報
塞
墨
壘
士
壬
壯
声
壳
壴
壹
壺
壽
夂
处
夅
夆
备
夊
夋
夌
复
夏
夒
夕
外
夗
夘
多
夜
夢
大
夨
天
太
夫
夬
夭
央
失
夲
头
夷
夸
夹
夻
夾
奂
奄
奇
奈
奉
奎
奏
奐
契
奓
奔
奚
奞
奠
奢
奥
奭
女
奴
奻
好
如
妄
妙
妟
妥
妻
妾
姑
委
姜
威
娄
婁
婴
嬰
嬴
子
孑
孔
孕
孖
字
存
孚
孛
孝
孟
季
孤
学
孫
孱
學
宀
宁
宂
它
宅
宇
守
安
宋
完
宏
宓
宗
官
定
宛
宜
宝
客
宣
室
宮
宰
害
家
容
宾
宿
寄
寅
密
富
寒
察
寧
審
寫
寬
寮
寸
对
寺
寻
寽
対
寿
封
尃
射
将
將
專
尉
尊
尋
尌
對
小
少
尒
尓
尔
尖
尗
尚
尞
尢
尣
尤
尧
尨
尭
就
尸
尹
尺
尻
尼
尽
尾
尿
局
居
屈
屋
屎
屏
屑
展
屖
屚
属
屠
屡
屬
屮
屯
屰
山
屵
屾
岁
岂
岑
岡
岩
岳
岸
峯
島
崇
崎
崑
崔
崖
崙
崩
嵬
嶲
巂
巛
川
州
巟
巠
巢
巤
工
左
巧
巨
巩
巫
差
己
已
巳
巴
巷
巸
巽
巾
巿
帀
市
布
希
帚
帛
帝
带
師
席
帯
帶
常
干
平
年
幵
并
幷
幸
幺
幻
幼
幽
幾
广
広
庄
床
底
店
庚
府
度
庫
庭
庶
康
庸
廉
廌
廛
廣
廩
廴
延
廷
建
廾
廿
开
弁
弃
弄
弇
弋
式
弓
弔
引
弗
弘
弜
弟
弥
弦
弱
張
強
强
彊
彌
彎
彐
彑
当
彔
录
彖
彗
彡
形
彥
彦
彧
彭
彳
役
彼
往
待
律
徒
得
徙
從
復
微
徵
心
忄
必
忌
忍
志
忝
忠
忩
快
念
忽
忿
思
怠
急
怱
恆
恒
恩
恭
息
悉
患
悤
悲
悶
情
惠
惡
惢
愁
愈
意
愛
感
慈
慧
慮
憂
憲
應
戀
戈
戉
戊
戋
戌
戍
戎
成
我
戒
戔
或
戚
戠
戢
截
戲
戶
户
戹
戼
戾
房
所
扁
扇
手
扌
才
打
托
执
承
折
拉
拜
拿
掌
推
提
摩
支
攴
攵
收
攸
改
放
政
敄
敏
敕
敖
敗
敝
敞
敢
散
敦
敫
敬
数
敷
數
斂
文
斉
斊
斗
斤
斥
斩
斬
斯
新
方
於
施
斿
旁
旋
族
无
旡
既
旣
日
旦
旧
旨
早
旬
旱
旲
时
旾
昆
昇
昌
昍
明
昏
易
昔
昗
昜
星
春
昬
是
昱
昴
昷
時
晃
晋
晏
普
景
晶
智
暑
暴
曇
曩
曰
曲
曳
更
曷
書
曹
曼
曾
替
最
朁
會
月
有
朋
服
朔
朕
朗
望
朝
木
朩
未
末
本
札
朮
术
朱
朵
朶
朿
杀
杏
村
杜
束
条
来
東
杲
杳
松
析
林
枚
果
枝
枲
枼
某
柔
查
柬
柰
柴
査
栗
桀
桑
桼
梁
條
梟
梨
棘
棠
棥
森
楚
業
楽
概
榮
樂
樊
欠
次
欣
欮
欲
欶
欽
款
歆
歇
歛
止
正
此
步
武
歨
歪
歮
歯
歰
歲
歴
歷
歸
歹
歺
死
殳
段
殷
殸
殹
殺
殻
殿
毋
毌
母
毎
每
毒
比
毕
毚
毛
毳
氏
氐
民
气
氣
水
氵
氶
氷
永
氺
氾
求
汝
汞
江
沃
沓
沙
沝
治
泉
法
波
泣
泥
泰
洛
洪
活
派
流
浦
浪
浮
淡
淮
清
渚
渠
湯
滿
漸
潟
火
灬
灭
灰
灵
灷
炅
炎
炏
炗
炙
炭
為
烈
烏
烝
焉
無
焦
焱
然
煞
熊
熏
燕
營
燮
爪
爫
爭
爯
爰
爱
爲
爵
父
爻
爽
爾
爿
片
牙
牚
牛
牜
牟
牢
牧
牪
牽
犀
犬
犭
犮
狂
狄
狊
独
狺
猋
猒
猪
献
獻
玄
率
玉
王
玟
玨
珎
班
現
琴
瑟
瑩
瓜
瓦
甘
甚
生
産
用
甫
甬
田
由
甲
申
电
甶
男
甸
甹
町
画
甾
畀
界
畏
畐
留
畜
畟
畢
畧
畨
番
畫
異
畱
當
畺
畾
疊
疋
疌
疑
疒
疾
癶
癸
癹
登
發
白
百
皀
皃
的
皆
皇
皋
皐
皕
皮
皷
皿
盃
盆
盇
盈
益
盍
盎
监
盒
盖
盛
盡
監
盤
盧
目
直
相
盾
省
眇
眉
看
県
眔
眞
真
眷
眼
眾
着
睘
睪
睿
瞏
瞢
瞿
矍
矛
矞
矢
矣
知
矦
短
石
破
碎
磊
磨
示
礻
礼
神
祟
票
祭
禀
禁
福
禸
禹
禺
离
禽
禾
禿
秀
秃
秉
秋
科
秝
秦
移
稟
穀
穌
積
穴
究
穹
空
穿
突
窄
窒
立
竒
竜
竝
竟
章
童
竹
笑
笠
筆
等
答
箕
算
箴
節
篤
篭
米
粉
粛
粟
粤
粦
粲
糞
糸
糹
系
約
納
素
索
紫
累
細
絜
絫
統
絲
維
綿
総
縣
繇
纍
纟
缶
网
罒
罔
罕
罗
罙
罡
罢
罪
署
罷
羅
羊
羌
羍
美
羔
羕
羗
羞
羡
羣
群
義
羲
羸
羽
翁
翏
習
翕
翟
翠
翼
老
耂
考
者
耆
而
耎
耑
耒
耳
耴
耶
耷
聂
聊
聖
聚
聶
聿
肀
肃
肅
肉
肖
肙
肥
肩
肯
育
肴
胃
背
胡
胥
能
脊
脩
膚
臣
臤
臧
自
臬
臭
臯
臱
至
致
臺
臼
臽
臾
臿
舀
舂
舄
與
興
舉
舌
舍
舛
舜
舞
舟
般
艮
良
色
艸
艹
艾
芒
芔
芬
芮
花
芳
芺
芻
苔
苗
苟
若
苦
英
茨
茶
茸
荅
草
荒
荣
荼
莆
莧
莫
莽
菆
菊
菐
華
萬
落
葉
著
葛
董
葵
蒙
蒦
蒼
蓋
蓬
蓺
蔑
蔡
蕉
蕭
薄
薛
薦
薰
藍
藏
藤
藥
蘭
虍
虎
虐
虒
虔
處
虖
虗
虘
虚
虛
虜
虞
虫
虽
蚤
蚩
蜀
蜜
蟲
蠡
血
行
衍
衛
衣
衤
表
衮
衰
袁
袞
裕
褭
褱
襄
襾
西
覀
要
覃
見
規
覓
覧
親
覽
见
角
解
言
訁
訇
計
詹
誩
課
調
諸
讠
谷
豆
豈
豊
豐
豕
豖
豙
象
豦
豩
豪
豸
貇
貝
貞
貟
負
貢
貧
貪
貫
責
貳
貴
買
費
賀
賁
資
賈
賏
賓
賔
賛
賞
賢
賣
質
賴
贊
贝
贡
责
贯
贲
贵
赖
赞
赤
赦
走
越
足
路
蹇
身
躬
車
軍
軎
軟
輦
车
辛
辜
辟
辥
辰
辱
農
辵
辶
边
达
过
近
连
迷
追
退
送
逆
逐
通
速
造
逢
連
逮
進
遀
遂
過
道
達
遣
適
遷
遺
邊
邑
邕
那
邦
邪
郎
部
郭
都
鄉
酉
酋
配
酓
釆
采
里
重
野
量
金
釒
錢
钅
長
镸
长
門
閃
閉
開
閏
閑
閒
間
閔
閵
閻
闌
门
间
闷
阑
阜
阝
阪
阿
降
陳
隆
隊
隋
隡
隨
隱
隶
隹
隺
隻
隼
隽
难
雀
雁
集
雈
雋
雍
雐
雔
雙
雚
雜
雝
離
難
雨
雩
雪
雲
零
雷
需
霍
霜
霝
霞
霸
靈
靑
青
非
靡
面
靣
革
韋
韦
韭
韯
韱
音
頁
頃
項
須
頗
頡
頻
顛
页
風
风
飛
飞
食
飠
養
饣
首
香
馬
馮
駦
马
骨
高
髟
鬥
鬯
鬲
鬼
魚
魯
鮮
鱼
鲁
鳥
鳳
鸟
鹵
鹿
麃
麗
麥
麦
麻
黃
黄
黍
黎
黑
黒
黨
黹
黽
黾
鼎
鼓
鼠
鼻
齊
齋
齐
齒
齿
龍
龙
龜
龟
龠
龰
龱
龴
龵
龶
龷
龸
龹
者
艹
﻿
（
）
／
：
？
｜
�
𠀁
𠀃
𠀆
𠀉
𠀎
𠀐
𠁁
𠁣
𠂆
𠂇
𠂈
𠂉
𠂊
𠂋
𠂎
𠂒
𠂔
𠂛
𠂡
𠂢
𠂤
𠂬
𠂭
𠂹
𠃊
𠃋
𠃌
𠃍
𠃎
𠃑
𠃓
𠃔
𠃜
𠄌
𠄎
𠄠
𠄢
𠆢
𠆥
𠇍
𠈌
𠌵
𠓜
𠔉
𠔥
𠔼
𠔽
𠔿
𠕀
𠕁
𠕋
𠘧
𠘨
𠙻
𠙼
𠚏
𠚒
𠚤
𠚪
𠣏
𠤎
𠤕
𠥓
𠦄
𠦑
𠦝
𠧒
𠧗
𠧪
𠩺
𠪚
𠫓
𠫔
𠫤
𠬛
𠬝
𠬞
𠬢
𠬤
𠬶
𠮛
𠮦
𠮷
𠯑
𠱠
𠳮
𠷎
𡈼
𡉀
𡉵
𡌥
𡍮
𡏳
𡕒
𡕩
𡕰
𡖅
𡗗
𡗜
𡘆
𡘤
𡧱
𡨄
𡩧
𡬠
𡭽
𡰣
𡰥
𡰪
𡰯
𡰱
𡷈
𡸁
𡿨
𡿩
𡿪
𡿺
𢀖
𢀛
𢀩
𢁙
𢆉
𢆰
𢆶
𢇁
𢇇
𢉖
𢌬
𢌿
𢏚
𢑑
𢑚
𢖻
𢙣
𢛳
𢦏
𢦒
𢧵
𢼄
𢾕
𣁋
𣄼
𣅀
𣅽
𣍘
𣎳
𣎵
𣏋
𣏼
𣗥
𣥂
𣥖
𣦵
𣦼
𣧄
𣪊
𣪠
𣬉
𣳾
𣶒
𤇾
𤊽
𤐫
𤓰
𤔔
𤕨
𤣩
𤰇
𤰔
𤰞
𤴓
𤴔
𤽄
𥁑
𥁕
𥃦
𥃩
𥃭
𥇡
𥑟
𥘅
𥘈
𥝢
𥫗
𥱡
𦈢
𦉪
𦉬
𦉼
𦍌
𦍒
𦎧
𦐇
𦓔
𦔮
𦘒
𦙃
𦚏
𦣝
𦣞
𦣻
𦥑
𦥔
𦥯
𦨉
𦭝
𦰩
𧆞
𧈧
𧘇
𧰨
𧴪
𧴮
𧵩
𧾷
𨸏
𨾴
𩙿
𩠐
𩫏
𩵋
𪉷
𪜀
𪟽
𪠲
𪩲
𫇦
𫔭
𫜸
𫝀
𫠣
𫠩
𫢉
𫥞
𫩏
𫩠
𫪡
𫲽
𫶧
𬀷
𬐘
𬗌
𬙙
𬛸
𬜯
𬟩
𬯁
𬴘
𬺻
𬼉
𬼖
𭀰
𭁈
𭁨
𭅰
𭑈
𭕄
𭗼
𭤨
𭥫
𭻾
𮅕
𮊿
𮍌
𮍏
𮓗
𮥼
𮧮
廾
𰀁
𰀄
𰀈
𰀉
𰀕
𰀠
𰀡
𰀢
𰀪
𰁜
𰃮
𰆊
𰆘
𰋙
𰕎
𰢴
𰧭
𰯲
00--
01--
01121--
01241--
02--
0208--
0208114--
02301--
0230157--
0230158--
0230159--
0230160--
0230161--
02321--
03--
0302--
0302103--
0302104--
03161--
04--
0404--
0404108--
0404167--
0404168--
04221--
04281--
05--
05101--
05261--
06--
0606--
0606109--
0606110--
0606112--
06181--
07--
07141--
07142--
0714270--
0714271--
08--
09--
429--
43--
44--
45--
452--
453--
46--
47--
48--
49--
50--
51--
52--
53--
54--
55--
56--
57--
58--
59--
60--
61--
62--
63--
64--
65--
66--
67--
68--
69--
70--
71--
72--
73--
74--
75--
76--
77--
78--
79--
80--
81--
82--
83--
84--
85--
86--
87--
88--
89--
90--
91--
92--
93--
94--
95--
96--
97--
98--
99--
a--
ac--
ad--
ak--
al--
am--
an--
ap--
ar--
as--
at--
au--
av--
ay--
azer--
b--
ba--
bal--
bar--
be--
beau--
bel--
ben--
ber--
bib--
bibliog--
bo--
br--
bu--
c--
ca--
cal--
cali--
cam--
can--
car--
ce--
cem--
cer--
ch--
chris--
ci--
co--
col--
com--
con--
const--
cor--
cou--
d--
da--
de--
determ--
di--
do--
dr--
du--
e--
ec--
ed--
el--
em--
en--
er--
es--
eu--
f--
fa--
fe--
fer--
fi--
fl--
fo--
fr--
fri--
fu--
g--
ga--
gal--
ge--
ger--
go--
gon--
gre--
gu--
h--
ha--
hacı--
har--
he--
her--
hi--
his--
ho--
hr--
hu--
i--
il--
im--
in--
ir--
is--
it--
j--
jan--
je--
jo--
ju--
k--
ka--
kara--
kay--
ke--
ko--
kr--
ku--
kı--
l--
la--
langu--
lau--
le--
li--
lo--
lou--
lu--
m--
ma--
mal--
man--
mar--
mau--
me--
mem--
mes--
mi--
mo--
mol--
mor--
mu--
n--
na--
ne--
neu--
no--
nu--
o--
od--
ol--
or--
orig--
otvor--
ou--
ov--
p--
pa--
par--
part--
pe--
per--
pl--
plat--
po--
pr--
pro--
prof--
pu--
q--
r--
ra--
re--
ri--
ro--
ru--
rus--
s--
sa--
sal--
sarı--
sau--
sch--
se--
sh--
si--
slov--
so--
sou--
spec--
st--
ste--
su--
super--
t--
ta--
te--
tem--
tempera--
ter--
th--
ti--
to--
tor--
tr--
tu--
u--
un--
us--
v--
ve--
vel--
ver--
vi--
vil--
vo--
w--
wer--
who--
wi--
x--
y--
yen--
yu--
z--
za--
ı--
а--
аб--
аба--
абду--
абра--
абх--
ав--
ави--
австр--
аг--
агӏ--
ад--
аз--
ак--
акбу--
аксе--
аксу--
аку--
акча--
ал--
ала--
алаг--
але--
алек--
али--
аллах--
алти--
аль--
ам--
амаз--
ан--
ана--
андр--
ани--
анса--
ант--
анти--
анто--
ань--
ап--
ар--
ара--
арахе--
архангель--
архи--
архитек--
ас--
ассоци--
ат--
атяш--
афана--
афри--
ах--
ахь--
ац--
аш--
аша--
аь--
аьк--
б--
ба--
багӏ--
баз--
бак--
бакъ--
бал--
балак--
балах--
балашо--
бан--
бар--
бас--
бат--
бах--
баш--
баьк--
баьх--
бгӏуь--
бе--
бев--
бегӏ--
без--
бек--
бел--
бело--
бель--
беля--
бен--
бер--
бес--
бет--
бех--
бжез--
би--
бил--
билгал--
биографиче--
бир--
бла--
благо--
бли--
бо--
боб--
бобро--
бог--
бого--
бож--
боз--
бок--
бол--
бола--
боль--
бон--
бор--
бори--
боро--
бох--
боь--
боьр--
бр--
бра--
браг--
бре--
бри--
бро--
бру--
бу--
буд--
бул--
бур--
бура--
бури--
бус--
бутыр--
буь--
буьс--
бы--
бь--
бӏаь--
бӏе--
в--
ва--
вал--
валь--
ван--
вар--
вас--
василь--
вась--
вах--
ваьл--
ве--
вев--
веж--
век--
вел--
вели--
вен--
вер--
верши--
вет--
ви--
вил--
виль--
вин--
вино--
винь--
вир--
вис--
вит--
виш--
вла--
во--
вов--
вод--
воз--
возне--
возник--
возра--
вок--
вол--
воло--
волч--
воль--
воп--
вор--
воро--
ворон--
вра--
вре--
все--
вто--
ву--
вы--
высо--
выш--
вь--
вя--
вялі--
г--
га--
габ--
гав--
гаг--
гал--
гали--
галь--
гам--
ган--
гар--
гвар--
гг--
ггӏ--
ге--
ген--
гер--
ги--
гил--
гим--
гир--
гл--
гла--
гле--
глу--
глуш--
го--
гов--
гол--
голова--
гон--
гор--
госу--
государ--
гоч--
гоь--
гоьк--
гр--
гра--
гре--
гри--
гру--
груп--
гу--
гугӏ--
гул--
гур--
гусе--
гуь--
гь--
гӏ--
гӏа--
гӏе--
гӏер--
гӏи--
гӏир--
гӏиш--
гӏо--
гӏу--
гӏув--
гӏуь--
д--
да--
даз--
дак--
дал--
дам--
дан--
данило--
дар--
даро--
дах--
дац--
даш--
даь--
даьк--
даьх--
де--
дев--
дек--
дел--
деми--
дер--
дет--
деш--
дж--
джан--
дже--
джек--
джи--
джу--
дз--
дзю--
ди--
дил--
дин--
дис--
дит--
дмитро--
до--
доб--
док--
доку--
дол--
дола--
дом--
дон--
дотта--
доц--
доь--
др--
драм--
древ--
дру--
друж--
ду--
дуб--
дубо--
дуь--
дуэ--
дь--
дю--
дӏа--
е--
ев--
евро--
егӏ--
ек--
екатер--
ел--
елиза--
елхо--
ель--
ен--
ени--
епи--
ер--
ере--
ермо--
ес--
еси--
ест--
ет--
еш--
ешил--
ж--
жа--
жан--
жар--
же--
жи--
жу--
жура--
жуь--
жӏа--
з--
за--
зах--
здр--
зе--
зим--
зо--
золо--
зу--
и--
ибраг--
ив--
иваш--
иг--
игл--
игна--
из--
ил--
или--
им--
ин--
инфор--
ир--
ира--
ис--
иса--
исбаь--
иск--
искус--
исм--
исследо--
ист--
источ--
ито--
ич--
иш--
иэ--
к--
ка--
кагӏ--
кад--
каз--
каза--
казан--
кал--
кала--
кали--
каль--
кам--
кан--
кана--
кап--
кар--
кара--
карг--
карь--
кас--
каст--
кастиль--
кат--
каш--
кв--
кг--
кгӏ--
кгӏе--
ке--
кен--
кер--
кеч--
кеш--
ки--
кин--
кир--
кирил--
кирх--
киш--
кла--
кле--
клегӏ--
клет--
кли--
кло--
кня--
ко--
ков--
когӏ--
кож--
кожу--
коз--
кок--
кол--
коло--
колы--
коль--
ком--
комм--
комп--
комсомоль--
кон--
константино--
конфе--
коп--
кор--
коро--
кос--
кост--
кот--
коч--
кош--
коьр--
кр--
кра--
крас--
красно--
краснодар--
краснояр--
кре--
кри--
крив--
кро--
кру--
круп--
крути--
круш--
кры--
крю--
ку--
куб--
куз--
кузне--
кузь--
кули--
куль--
кун--
кур--
кург--
кури--
курча--
куш--
куь--
куяв--
кх--
кхе--
кхел--
кхер--
кхи--
къ--
къаьм--
къе--
къов--
къовса--
къоларг--
къуръ--
кы--
кь--
кӏ--
кӏе--
кӏен--
кӏор--
л--
ла--
лав--
лаг--
лагӏ--
лаз--
лам--
лан--
лап--
лар--
лат--
лау--
лах--
лач--
ле--
лебед--
лег--
лек--
лен--
ленинград--
лер--
леч--
ли--
лиг--
лин--
линь--
лип--
лит--
ло--
лов--
лоз--
лозо--
лон--
лопа--
лоь--
лу--
луб--
луж--
луч--
луь--
лы--
ль--
лю--
люб--
любо--
ля--
лі--
м--
ма--
маг--
мага--
маго--
магӏ--
маз--
мазо--
мак--
мал--
маль--
мама--
ман--
мар--
марьяно--
мас--
масш--
мат--
мате--
матери--
мах--
маш--
маьӏ--
ме--
мед--
медве--
меди--
меж--
между--
меже--
мель--
мен--
мер--
мес--
мет--
мех--
мехкдаь--
ми--
мико--
мил--
мин--
мир--
мис--
мити--
мих--
миш--
мо--
мов--
мог--
могӏ--
моз--
мок--
мол--
моло--
мон--
мор--
мош--
му--
музы--
мун--
мур--
мурман--
мус--
мут--
муь--
муьль--
мы--
мыс--
мя--
н--
на--
нава--
наз--
нан--
нар--
науч--
наци--
не--
нев--
невшехӏ--
некра--
нерчин--
ни--
нидер--
ник--
нис--
но--
нов--
ново--
нор--
ноь--
нс--
ну--
нур--
нуь--
о--
об--
обще--
ов--
огӏ--
од--
ож--
оз--
оза--
ок--
око--
ол--
ола--
оли--
олим--
олимпиа--
оль--
ом--
он--
оп--
опа--
опи--
ор--
ос--
оси--
ост--
от--
отв--
оф--
офици--
ох--
охь--
охьа--
оь--
оьздан--
п--
па--
пав--
пал--
паль--
памят--
пан--
пар--
пара--
парламен--
пас--
пат--
пах--
паш--
пе--
пегӏ--
пер--
пере--
пес--
пет--
петар--
петер--
петро--
пеш--
пи--
пиро--
пись--
пича--
пле--
пло--
плу--
по--
погр--
под--
подля--
пож--
пок--
пол--
политиче--
поло--
пом--
пон--
пос--
пот--
поч--
пра--
пре--
пред--
прези--
преоб--
при--
про--
произве--
промышлен--
пру--
пруд--
пу--
пуш--
пуь--
пуэр--
пх--
пхь--
пши--
пь--
пя--
р--
ра--
рад--
раз--
рам--
рас--
расс--
ре--
реч--
ри--
ро--
род--
рож--
рожде--
роз--
рон--
рос--
ру--
руб--
руд--
руз--
рус--
ры--
ря--
с--
са--
саб--
сав--
сагӏ--
сал--
саль--
сам--
сан--
сар--
сара--
сари--
сас--
све--
свет--
сви--
сво--
се--
сед--
секре--
сел--
сели--
сель--
сем--
сен--
сер--
серг--
сес--
си--
сибир--
сив--
сил--
сим--
син--
сит--
ск--
ско--
ску--
сла--
слав--
сли--
см--
смир--
со--
соб--
собо--
сов--
совре--
соко--
сол--
соло--
соп--
сор--
сос--
сот--
соци--
соч--
соь--
спи--
спра--
сред--
ст--
ста--
стан--
стар--
старо--
сте--
степано--
стеф--
сто--
струк--
сту--
стше--
су--
сул--
сур--
сурса--
сух--
суь--
схе--
схьа--
сы--
сь--
сью--
сю--
ся--
т--
та--
тал--
тан--
тар--
тара--
татар--
таш--
тгӏ--
тгӏе--
те--
тегӏ--
тек--
теле--
тен--
теп--
тер--
тере--
терно--
тес--
тех--
техно--
ти--
тил--
тимо--
тих--
то--
тол--
том--
тон--
топ--
тор--
тоь--
тра--
тре--
три--
тро--
троиц--
тру--
ту--
тул--
тур--
турни--
туь--
туьр--
ты--
ть--
тю--
тӏ--
тӏа--
тӏе--
тӏул--
у--
ува--
уз--
уи--
ук--
укъа--
ул--
уль--
ун--
ур--
уржу--
урт--
ус--
успен--
уст--
ут--
уф--
ух--
уч--
уча--
уь--
уьгӏ--
ф--
фа--
фар--
фат--
фгӏ--
фе--
фегӏ--
федер--
федо--
фер--
фи--
фил--
фило--
фла--
фле--
фло--
фо--
фон--
фор--
фос--
фр--
фрес--
фри--
фро--
фрон--
фу--
фут--
футбо--
х--
ха--
хал--
хам--
хар--
харж--
хаьрж--
хе--
хел--
хен--
хет--
хи--
хил--
хо--
хор--
хот--
хро--
ху--
хун--
хь--
хьаь--
хьаьж--
хье--
хьуь--
хӏ--
хӏа--
хӏал--
хӏин--
хӏот--
хӏу--
ц--
ца--
цам--
це--
цер--
ци--
циль--
цу--
цхьа--
ч--
ча--
чал--
чам--
чап--
чар--
че--
чекх--
чел--
чер--
чере--
черем--
черниго--
черно--
чече--
чи--
чин--
чир--
чис--
чисто--
чиш--
чкъ--
чо--
чу--
чӏа--
чӏагӏ--
ш--
ша--
шагӏ--
шал--
шам--
шан--
шар--
шас--
шат--
шах--
шахӏин--
ше--
шев--
шер--
ши--
шил--
шир--
шиш--
шо--
шос--
шу--
шум--
ще--
щер--
щучь--
ы--
э--
эвен--
эк--
экс--
эл--
электро--
эль--
эм--
эн--
эр--
эри--
эс--
эск--
эспи--
этно--
эш--
ю--
юж--
юкъа--
юни--
юр--
юри--
юридиче--
юь--
я--
яб--
яз--
як--
яков--
ял--
ям--
ян--
яно--
яр--
яс--
яш--
яьл--
яьрж--
і--
ӏ--
ӏа--
ӏе--
ӏи--
ӏил--
ӏу--
ا--
ب--
--0
--00
--01
--02
--022
--03
--032
--04
--042
--05
--052
--06
--07
--08
--09
--1
--10
--1032
--1052
--11
--12
--13
--14
--15
--16
--17
--18
--19
--2
--20
--2042
--2062
--21
--22
--23
--24
--25
--26
--27
--28
--29
--3
--30
--31
--32
--33
--34
--35
--36
--37
--38
--39
--4
--40
--4052
--41
--42
--43
--44
--45
--46
--47
--48
--49
--5
--50
--5032
--5042
--5052
--51
--514
--52
--53
--54
--55
--56
--57
--58
--59
--6
--60
--61
--62
--63
--64
--65
--66
--67
--68
--69
--7
--70
--7032
--7052
--71
--72
--73
--74
--75
--76
--77
--78
--79
--8
--80
--81
--819
--82
--83
--84
--85
--86
--87
--88
--89
--9
--90
--91
--92
--93
--94
--95
--96
--97
--98
--99
--a
--ac
--ad
--ag
--ak
--al
--am
--an
--ar
--as
--ation
--au
--aud
--aux
--b
--c
--ca
--ce
--ch
--ck
--co
--cr
--ct
--cts
--cık
--d
--da
--de
--do
--e
--ec
--ed
--el
--en
--ent
--er
--ers
--es
--et
--ey
--ez
--f
--fa
--fic
--g
--ge
--ges
--h
--he
--i
--ia
--ial
--ian
--ic
--ica
--ie
--ier
--ies
--if
--ight
--il
--im
--in
--ing
--ings
--ion
--is
--it
--ity
--ium
--ix
--k
--ka
--ke
--ki
--klı
--ko
--ky
--l
--la
--lar
--ld
--le
--ler
--li
--lia
--ll
--lla
--lle
--lli
--llo
--lly
--lo
--ls
--ly
--lı
--m
--ma
--man
--mann
--me
--ment
--mi
--mo
--n
--na
--nc
--nce
--nd
--ne
--ng
--ni
--nia
--nk
--nn
--no
--ns
--nt
--ny
--o
--og
--oire
--ok
--on
--ons
--os
--ov
--ova
--p
--pe
--r
--ra
--rd
--re
--rg
--ri
--rie
--rn
--ro
--rr
--rs
--rt
--rts
--ry
--s
--se
--si
--so
--son
--ss
--st
--t
--ta
--tal
--te
--ted
--ter
--tes
--th
--ti
--tion
--to
--ton
--tor
--try
--ts
--ty
--u
--ue
--ul
--ult
--um
--ur
--urt
--us
--ut
--ux
--v
--va
--ve
--vice
--vo
--w
--wn
--wo
--x
--xt
--y
--ya
--ye
--z
--ı
--ık
--а
--ав
--ава
--агӏ
--ад
--ада
--аев
--аево
--аж
--аз
--аи
--ак
--акан
--ал
--але
--алла
--аллин
--ам
--ан
--ана
--ани
--ания
--ано
--аново
--ант
--ар
--ара
--арг
--ари
--арш
--ас
--ат
--ате
--ау
--аф
--ах
--ахо
--ахь
--ац
--аца
--аци
--аш
--аша
--ашин
--ашка
--ашкахь
--ашна
--ашца
--ая
--б
--ба
--бак
--бах
--бе
--бегӏ
--беи
--бек
--би
--бо
--бы
--бье
--в
--ва
--ван
--вац
--вая
--ве
--вен
--вец
--вець
--ви
--вилл
--вин
--вич
--вичи
--вка
--вки
--вн
--вна
--во
--вое
--вр
--вс
--вск
--вска
--вское
--вуд
--вци
--вцы
--вы
--вые
--выи
--вічы
--г
--га
--гал
--ган
--гаш
--ге
--ген
--ги
--гин
--гино
--го
--гон
--град
--гу
--гӏ
--гӏг
--гӏе
--гӏи
--д
--да
--даран
--даш
--даьлла
--дгӏ
--де
--дес
--дж
--джа
--джи
--джик
--джо
--дз
--ди
--дия
--дка
--дни
--дное
--до
--дов
--дон
--дт
--ду
--ды
--дье
--е
--ев
--ева
--еван
--евич
--евка
--евн
--ево
--евскан
--евски
--егӏ
--ед
--еда
--ее
--ез
--езе
--еи
--ек
--ел
--елло
--ель
--ем
--емии
--ен
--ена
--ение
--ении
--ения
--енка
--ент
--ень
--ер
--ера
--ерос
--ес
--есс
--ет
--етт
--еу
--ех
--ехь
--ец
--ецан
--ець
--еш
--ешть
--ж
--жа
--же
--жи
--жице
--жни
--жо
--жок
--жу
--жье
--з
--за
--зак
--зе
--зи
--зии
--зин
--зино
--зм
--зо
--зово
--зу
--зы
--зье
--и
--иан
--ив
--иг
--ид
--ие
--из
--ии
--ик
--ика
--ики
--икнан
--ико
--илово
--им
--ин
--ини
--инка
--ино
--иново
--инье
--иньи
--иньяк
--ио
--ис
--иска
--ист
--ит
--их
--иха
--ица
--ице
--ицы
--иця
--ич
--ича
--ичи
--иш
--ище
--ия
--к
--ка
--кан
--кара
--касы
--кахь
--каш
--кая
--ке
--ки
--кли
--ко
--ков
--кова
--кое
--коьи
--кс
--кт
--ктор
--ку
--кув
--кі
--л
--ла
--лан
--лар
--лаш
--лг
--ле
--лен
--лера
--лехь
--ли
--лин
--лиха
--лия
--лк
--лка
--лки
--лл
--лла
--лли
--ллин
--лло
--ллс
--ло
--лов
--лои
--лс
--лу
--лха
--лц
--лы
--лыи
--ль
--льд
--лье
--льная
--льо
--лья
--ля
--м
--ма
--маш
--ме
--мед
--ми
--мии
--мо
--мон
--му
--мы
--мье
--н
--на
--нак
--нал
--нан
--нар
--наш
--ная
--нг
--нда
--не
--нево
--нее
--нен
--нер
--нера
--нехь
--нец
--нешть
--нж
--ни
--ниг
--ние
--нии
--нин
--нио
--ница
--ния
--нк
--нка
--нки
--нко
--нн
--нна
--нная
--нного
--но
--нов
--новски
--ного
--ное
--нон
--ность
--нс
--нсе
--нскан
--нски
--нт
--нти
--ну
--нуа
--нув
--нца
--нцы
--нчу
--ны
--ные
--ныи
--ным
--ных
--нь
--нье
--ньи
--ньо
--нья
--ньяк
--ньяно
--ня
--няя
--о
--ов
--ова
--ован
--ове
--ови
--ович
--овичи
--овка
--ово
--овски
--овы
--овье
--огин
--ого
--ое
--ои
--ок
--ол
--ола
--оль
--ом
--он
--ор
--ос
--отт
--ош
--оь
--оьи
--п
--па
--пе
--пи
--пп
--пу
--пы
--пье
--р
--ра
--ран
--рг
--рд
--ре
--рес
--рехь
--ри
--рии
--рин
--риха
--рия
--рк
--рка
--рлин
--рн
--рна
--рная
--рни
--рно
--рня
--ро
--ров
--рово
--рои
--рс
--рск
--рт
--ру
--рхен
--рхо
--рца
--рчу
--рш
--ры
--рь
--рье
--ря
--с
--са
--саев
--саи
--сак
--свилл
--се
--си
--сия
--ск
--ска
--скан
--ская
--ске
--ски
--скии
--ско
--ского
--ское
--скои
--со
--сон
--сс
--ссе
--сси
--ст
--ста
--стан
--ства
--сти
--сть
--су
--сы
--сь
--сье
--т
--та
--таль
--тан
--тгӏ
--те
--тель
--тен
--тер
--техь
--ти
--тик
--тин
--тино
--тис
--тка
--тки
--тни
--то
--тов
--тово
--тон
--тор
--тс
--тт
--ту
--ты
--ть
--тье
--тьево
--у
--уа
--ув
--угӏ
--уд
--уз
--уи
--ул
--ум
--ума
--ун
--унан
--уо
--уп
--ур
--ура
--ург
--ус
--ут
--уш
--уь
--ф
--фа
--фан
--фе
--фи
--филд
--фогӏ
--фф
--х
--ха
--хе
--хи
--хо
--хов
--хово
--хои
--хоша
--ху
--хув
--хула
--хь
--хьа
--хьарчу
--хӏ
--ц
--ца
--цан
--це
--ци
--цин
--ция
--цк
--цке
--цки
--цо
--цово
--ццо
--цы
--ць
--ця
--ч
--ча
--че
--чех
--чи
--чии
--чин
--чино
--чиха
--чка
--чки
--чна
--чная
--чни
--чо
--чу
--чул
--чун
--чь
--чье
--чьен
--ш
--ша
--шан
--ше
--шеван
--шево
--ши
--шин
--шино
--шка
--шкахь
--шки
--шна
--шня
--шо
--ште
--шть
--шца
--шье
--ща
--ще
--щи
--ъ
--ы
--ые
--ыи
--ым
--ынь
--ых
--ыш
--ь
--ьа
--ье
--ьевка
--ьево
--ьз
--ьи
--ьино
--ьк
--ьки
--ьн
--ьна
--ьне
--ьни
--ьо
--ьон
--ьос
--ьоь
--ьс
--ьск
--ью
--ья
--ьяк
--ьян
--ьяно
--ьяс
--э
--эцна
--ю
--я
--ября
--як
--ям
--ян
--янка
--яно
--яны
--яр
--яс
--ята
--яьлла
--і
--ӏ
--ӏа
--ӏе
--ӏи
--ӏии
--ӏн
--ӏо
--ӏон
--ӏф
