!
"
#
##0
##1
##10
##11
##12
##13
##14
##15
##16
##17
##18
##19
##2
##20
##21
##22
##23
##24
##25
##26
##27
##28
##29
##3
##30
##31
##32
##33
##34
##35
##36
##37
##38
##39
##4
##40
##41
##42
##43
##44
##45
##46
##47
##48
##49
##5
##50
##51
##52
##53
##54
##55
##56
##57
##58
##59
##6
##60
##61
##62
##63
##64
##65
##66
##67
##68
##69
##7
##70
##71
##72
##73
##74
##75
##76
##77
##78
##79
##8
##80
##81
##82
##83
##84
##85
##86
##87
##88
##89
##9
##90
##91
##92
##93
##94
##95
##96
##97
##98
##99
$
%
&
'
(
)
*
+
,
-
.
/
0
00
000
004
008388
01
012
018
019
02
020
022
028020
03
031400000
04
041
042
045
048
05
050
051
055
06
060
064
066
07
070
074
075
0764509
08
082
09
091
094
096
097
098300000
1
10
100
101
101300000
102
103
104
105
106
107
108
109
11
110
1100
111
112
113
114
115
116
117
118
119
12
120
121
122
123
124
125
126
127
128
129
13
130
131
132
133
134
135
136
137
138
139
14
140
140100000
141
141100000
142
143
144
145
146
147
148
149
15
150
151
152
153
154
155
156
157
158
159
16
160
160200000
160300000
161
162
163
164
165
166
167
168
169
17
170
171
172
173
174
175
176
177
178
179
18
180
181
182
183
184
185
186
187
1876
1878
188
1885
1888
189
1899
19
190
1903
1907
191
1915
1917
192
1922
1925
1927
1928
193
1930
1931
1934
194
1940
1941
1942
1944
1945
1946
1948
1949
195
1950
1951
1952
1953
1955
1957
1959
196
1960
1961
1963
1964
1965
1966
1967
1968
1969
197
1970
1971
1972
1973
1974
1975
1976
1977
1978
1979
198
1980
1981
1982
1983
1984
1985
1986
1987
1988
1989
199
1990
1991
1992
1993
1994
1995
1996
1997
1998
1999
2
20
200
2000
2001
2002
2003
2004
2005
2006
2007
2008
2009
201
2010
2011
2012
2013
2014
20140317
2015
2016
2017
2018
20180206131414
2019
202
2020
2021
2022
203
204
205
206
207
208
209
21
210
212
213
214
215
216
217
218
22
220
221
224
225
226
227
228
23
230
231
232
233
234
235
236
237
238
239
24
240
241
242
243
244
245
246
247
249
25
250
251
252
253
254
255
256
257
258
26
260
263
265
267
268
269
27
271
272
273
274
275
276
278
279
28
280
281
282
283
284
285
286
287
288
289
29
290
291
293
294
295
297
299
3
30
300
301
302
303
304
305
306
307
308
31
310
311
312
313
314
317
318
319
32
320
321
322
323
324
325
326
327
328
329
33
330
331
333
334
339
34
340
341
342
343
344
345
346
347
35
350
351
352
353
354
355
356
357
358
36
360
361
363
365
366
367
37
372
373
374
376
38
380
381
382
385
388
389
39
390
392
393
394
395
396
397
398
399
4
40
400
401
402
403
404
405
406
407
408
409
41
410
411
412
413
414
415
416
418
419
42
420
422
424
425
426
428
429
43
430
432
433
434
435
437
438
439
44
440
443
444
445
446
447
448
449
45
450
451
452
453
455
456
457
458
459
46
460
461
462
463
464
465
466
469
47
470
471
472
473
475
476
478
479
48
480
482
484
485
486
488
49
490
491
492
493
494
495
496
497
498
499
5
50
500
501
502
503
504
507
51
510
511
512
513
514
516
517
518
519
52
520
521
522
523
524
525
527
53
531
533
534
535
536
537
538
539
54
540
542
545
546
547
548
55
551
552
554
556
558
559
56
560
561
564
566
567
568
57
570
571
573
574
576
579
58
580
581
582
583
585
587
588
589
59
591
592
593
594
595
596
599
6
60
600
603
604
605
606
607
608
61
612
617
618
62
620
621
623
625
626
628
629
63
632
635
637
639
64
640
641
642
644
645
646
648
649
65
650
651
652
653
654
656
657
658
659
66
660
662
663
664
667
669
67
670
671
672
674
675
676
678
679
68
680
682
683
685
686
688
69
690
692
693
694
696
697
699
7
70
700
702
703
704
705
706
707
708
709
71
711
712
713
714
718
719
72
720
722
727
728
729
73
730
731
735
736
737
738
739
74
743
744
747
75
750
752
753
756
758
76
763
764
767
768
77
770
771
776
778
78
781
784
785
786
788
789
79
791
792
794
795
796
798
799
8
80
800
802
803
804
805
807
808
809
81
813
814
816
819
82
823
828
83
830
831
832
835
836
838
839
84
840
842
843
846
847
848
849
85
851
853
855
858
86
865
867
868
869
87
871
872
873
874
875
878
879
88
881
884
886
887
89
890
891
892
893
895
896
897
898
899
9
90
900
901
902
906
908
909
91
911
918
92
920
923
927
928
93
932
933
936
94
942
943
948
949
95
952
953
954
956
958
96
9607
9608
962
965
968
969
97
971
973
974
977
978
98
984
988
989
99
990
992
993
:
;
<
=
>
?
@
[
]
_
a
aayos
aba
abaca
abad
abaga
abagatan
abajo
abala
abalang
abalaten
abang
abangon
abangonan
abasto
abay
abayag
abba
abc
abeba
abellana
abig
abo
abong
abot
about
abra
abraham
abridged
abril
abs
abucay
abung
ac
acacia
academy
accept
access
according
achievement
across
act
acting
action
activestats
actor
actors
actress
ad
ada
adam
adams
addaan
added
adele
aderal
adios
adjacent
administrative
adonias
aduas
adult
afca
afrancia
africa
after
ag
aga
agagi
agagik
again
agak
agan
agawa
agawaan
agay
agaylay
agda
age
agency
ageo
agew
agi
agik
agimat
agka
agko
agla
aglipay
agmo
agnetha
agni
agno
agoncillo
agos
agosto
agpapada
agta
agto
aguada
aguilar
aguin
aguinaldo
agusan
agustin
agutayan
ah
ahan
ahazias
ai
air
aires
airport
ais
ak
aka
akabatan
akanengneng
akar
akasulat
akila
akin
aking
akis
aklan
aklat
aklatan
akmonen
ako
akoen
aktor
aktres
akulaw
al
ala
alabat
alabel
alagey
alak
alama
alaminos
alan
alang
alangalang
alangilan
alapan
alar
alas
alay
albay
alberto
album
albums
alcala
alcaldi
alcasid
aleg
alegre
alegria
alejandro
aleluya
alemanya
alfonso
ali
aliaga
alias
aliber
alicia
alig
aliguas
alikas
alikna
aliling
alimbawa
alis
aliwa
aliwan
alkalde
all
allen
allgame
alliance
allmovie
allmusic
alma
almost
alo
alog
alone
along
alpabeto
also
alta
altar
alto
alu
always
alyas
am
ama
amado
amaga
amak
aman
amas
amay
amaya
amayamay
amazon
ambagel
ambalanga
ambasa
ambelat
ambetel
ambolong
ambulong
amen
america
american
americanradiohistory
amerika
ami
amin
aminsan
amo
amoli
among
amontay
amor
ampatuan
ampetang
amta
amtaen
amtak
amy
an
ana
anabu
anaconda
anahao
anahaw
anahawan
anak
anako
anao
anap
anapan
anapen
and
anda
andeket
anderson
andi
ando
andokey
andorra
andrea
andres
andukey
anem
anengneng
ang
angan
angel
angeles
angels
angga
anggaan
anggad
anggaman
anggan
anggano
anggapo
anggapoy
anghel
anghil
angibaki
angigalang
angob
ani
aniban
anibong
anibongan
anilao
animal
animated
anime
anislag
anislagan
anlong
ann
anna
annalyn
anne
annie
anniversary
announce
announced
announces
annual
anoling
anon
anonang
anonotan
anos
another
ansakit
anta
anthem
anthony
antikey
antipolo
antique
anto
antokaman
anton
antonino
antonio
antoy
antz
anuling
any
ao
aoit
ap
apa
apad
apalabas
apat
apatiran
apaya
apayao
apian
aping
aplaya
apo
apostol
apoy
apple
appreciation
april
aquino
ar
ara
arab
arabo
arado
aral
arap
arapan
arapen
arari
ararin
arawi
arawin
archive
archived
archives
are
area
areas
arellano
argao
argentina
ari
ariel
arin
aripen
aritao
arkham
armenia
armm
arms
army
aro
arom
aron
around
arroyo
article
articles
articolo
artikulo
artist
artista
artists
arts
arum
arumog
as
asa
asabi
asan
asawa
asia
asian
asin
asinan
asingan
asinger
asingger
asipulo
asis
aslum
aso
asp
aspx
association
astorga
asumpal
asuncion
at
atabay
atagey
atan
atap
atateng
atawag
ateng
atimonan
atlantic
atok
attack
atulayan
au
audiovisual
august
augustine
aurelio
aurora
austin
austinfilmcritics
australia
australian
austria
author
autonomous
av
ave
avengers
average
awa
awak
awan
awang
awaran
award
awards
awardscircuit
awardsdaily
awardswatch
awat
awaten
away
awfj
awit
ay
aya
ayam
ayaman
ayan
ayari
ayat
ayayam
ayayep
ayep
ayon
aysing
ayungon
ayusan
azerbaijan
b
ba
baan
baay
baba
babaeng
babag
babai
babay
babilonia
baboy
babuyan
baby
bac
bacao
bacayawan
bach
back
baclayan
baclayon
bacolod
bacong
bacsay
bacsil
bacungan
bad
badak
badiang
badiangan
badiangon
bafta
bag
baga
bagacay
bagakay
bagat
bagay
bagbag
bago
bagoaingud
bagong
bagoong
bagtic
bagua
baguio
bagumbayan
bahagi
bahasa
bahay
bahi
bai
baing
bairan
bajac
bajo
baka
bakal
bakat
bakes
bakit
bala
balabag
balagbag
balagtas
balanac
balang
balanga
balangbang
balante
balao
balas
balatong
balayang
balayong
balbalan
balbaleg
baleg
baler
balet
balete
baley
balibago
balibalin
balikas
balili
balimbing
balindong
balingasag
balingit
balintad
balintawak
balita
balite
baliti
balitok
balituk
baliw
baliwag
balkot
ballade
balo
balocawe
balogo
balon
balong
balot
baloto
baloy
baluarte
balubad
balud
balugo
baluk
balungao
baluno
balut
bamban
bambang
bambi
ban
banaba
banahao
banao
banaoang
banaue
banawang
banay
banaybanay
banban
banbanan
banca
bancal
banda
bandera
bang
banga
bangad
bangar
bangat
bangbang
bangco
bangkal
bangko
bangon
bangsamoro
bangued
bangus
bani
banilad
bank
banks
bannawag
banoa
bansa
bansan
bantay
bantayan
bantigue
bantog
bantud
bantug
banua
bao
baog
baracbac
barack
barangay
baranggay
barangka
barangobong
baras
barasan
barayong
barbara
barbra
barcelona
bario
barira
barit
barobo
barongis
baroy
barra
barrio
bartolome
basa
basag
basak
base
basenotes
basiao
basilan
basista
basketball
baso
basud
bat
bata
bataan
batad
batanes
batang
batangan
batangas
batas
batasan
batay
batayan
batik
batman
bato
batong
batu
batuan
bauan
bautista
bawang
bawasan
bawat
bay
bayabao
bayabas
bayambang
bayan
bayanan
bayang
bayani
bayanihan
bayaong
baybay
baybayin
bayog
bayong
bb
bbc
bc
bd
be
beach
beast
beat
beatles
beautiful
beauty
became
because
become
bee
been
beethoven
before
behind
behindthevoiceactors
being
beklew
bekta
belaro
belas
belen
belgium
belhika
believe
belong
benaya
benedicto
benefit
beneg
benerablen
bengat
bengatla
bengatlan
benguet
benigno
benito
benton
bernabe
bernardo
bersyon
besao
best
bet
betel
better
between
beyond
bgy
bhutan
biasong
bibii
bibiin
bibil
bible
biblia
bical
bicol
bicutan
bieber
biek
biernes
big
biga
bigla
biglan
bii
biin
bilang
bilay
bili
bilin
biliran
billboard
bilonget
bin
binaba
binagaan
binalonan
binangonan
binanuahan
binmaley
binmilay
binuangan
bird
birhen
birthday
bisain
bise
biskeg
bislig
bita
bitaugan
bite
bitewen
bito
bitoon
biz
black
blas
blessed
blica
bliss
blockbuster
blog
blood
blue
blues
bo
board
boat
bobon
bocboc
body
bogbogtong
bogo
bogtong
bohe
bohol
bokal
bokig
bokor
bokura
bold
boleg
bolinao
bolivia
bolo
bolog
bolong
bolongna
bolos
bon
bonbon
bone
bong
bonga
bongabong
bongao
bongay
bongbong
bongbongan
bongdo
bonifacio
bontoc
book
books
bordertown
born
bosnia
boston
botbot
boulevard
bounce
box
boxofficemojo
boy
boys
br
brat
brave
bravo
brazil
break
breaking
brgy
brian
bridge
brie
bring
british
britney
broadcast
broadcasting
broadway
broken
brown
btva
buadi
buadiposo
bual
bualan
buan
buaya
buayan
bubong
bubonga
bubuan
bucal
bucana
bucandala
bucao
buchanan
bud
buek
buena
buenasuerte
buenavista
buenlag
buenos
bug
bugallon
bugang
bugho
bugnay
bugtong
buhang
buhangin
buhay
building
bukal
bukas
bukid
bukidnon
bula
bulacan
bulak
bulaklak
bulala
bulalacao
bulan
bulao
bulawan
bulbulala
bulgariya
buli
bulihan
bulletin
bulo
bulod
buluan
bulusan
bunawan
bunay
bundok
bunga
bungahan
bungay
bungro
buntay
buntong
buong
burabod
burak
burgos
buri
burol
bus
busay
bush
business
businesswire
but
butig
buton
butong
butterfly
butuan
buyo
by
bye
c
ca
cabacungan
cabadiangan
cabagn
cabanbanan
cabangahan
cabangaran
cabangcalan
cabarasan
cabaritan
cabaroan
cabaruan
cabasaran
cabatuan
cabayugan
cabcaben
cabecera
caboloan
cabong
cabugao
cabulihan
cabuluan
cabunga
cabungaan
cabungahan
cabuyao
cacao
cadayonan
cadena
cadingilan
cadiz
cag
cagamutan
cagay
cagayan
cagmanaba
caingin
calabarzon
calaca
calamagui
calamba
calantas
calao
calaoagan
calaocan
calapan
calasiao
calatagan
calatrava
calauag
calawag
calayan
calayugan
calbayog
calero
california
calintaan
calipayan
call
callao
calling
calo
caloocan
calpi
calumpang
calunasan
calvario
calzada
camachile
camagong
camalig
camambugan
camanga
camangaan
camansi
camarines
camarinessur
camiguin
camiling
camp
campo
campong
can
canaan
canada
canadian
canal
canan
cancion
candabong
candelaria
candiis
cang
caniogan
cansilayan
caoayan
capacuan
capas
cape
capita
capital
capitan
capitol
capiz
capri
capt
captain
capul
car
caracas
caraga
care
carey
caridad
carla
carlos
carmelo
carmen
carmona
carol
carolina
carolyn
carpenter
carry
cartoon
casay
cash
cashbox
cashboxmagazine
casiguran
casilagan
casili
cast
castan
castilla
castillo
castro
cat
catadman
catagbacan
catalina
cataloging
catanduanes
catarman
category
catholic
catmon
catungan
cauayan
causwagan
cavite
cawa
cawayan
cawayanan
cawit
cbd
cbn
cebu
cebuana
cebuano
cecilia
celebrities
celebrity
cell
census
censuses
center
central
centro
century
cerca
certification
cervantes
chan
change
channel
charo
chart
charts
cher
chicago
chicken
chico
chief
child
chile
china
chinese
choice
chorus
chris
christian
christmas
chronicle
church
cia
cinco
cinema
circle
ciro
cite
cities
city
ciudad
clara
clarin
clarke
claro
class
classification
claveria
clinic
club
cnn
co
coastal
code
cogon
col
cold
collection
collectionscanada
colombia
colon
columbia
columbus
columns
com
comaromi
come
comedy
comes
comic
comics
comin
commercial
committee
commons
commonwealth
communications
communicators
communion
community
company
completa
complete
compostela
computer
concepcion
concert
concio
concordia
conference
congress
consolacion
consuelo
contemporary
content
continental
control
copy
copyright
coral
corazon
cordillera
cordova
core
cormatan
corner
corporation
corregidor
cortes
costa
cotabato
cotabatoprov
council
countries
country
counts
court
covering
cph
crazy
credits
crew
cristina
cristo
cristobal
critic
critics
cross
crossing
cruz
cry
css
cuba
cubay
culasi
culasian
culture
cupang
current
currents
curva
cut
cuyapo
d
da
daan
daang
dacu
dad
dado
daga
dagat
dagatan
dagdagan
dagem
dagiti
dagohoy
dagum
dagupan
dahil
dahilig
dai
daily
daiset
dait
daitoy
daja
dakbayan
dakel
dakerakel
dakkel
daku
dala
dalama
dalan
dalawang
dalayap
dalem
dalid
dalig
dalin
dallas
dammang
dan
danao
danawan
dancalan
dance
danganan
dangol
daniel
danlagan
dansalan
danum
dao
dap
dapat
dapdap
dapit
dapitan
daray
dargis
dark
darling
dasal
dasol
data
database
datag
datagan
datal
date
dati
datin
dating
datu
daulo
davao
dave
david
davis
dawis
dawn
day
daya
dayap
dayat
dayew
dayhagan
days
db
dc
ddc
de
dead
deadline
dear
death
debut
debuts
decade
december
decimal
declared
deen
deep
del
dela
delgado
deming
demo
democratic
den
dengel
dengelen
denver
department
deral
deremen
detroit
dewey
di
dia
diad
diana
diaryo
diaz
dictionary
did
didn
die
diego
dig
digital
dika
diking
diksionaryo
dila
dilabayan
dilak
dilausan
dili
diliman
dilimbayan
dilin
dilo
diman
dimasalang
dimayon
dimonyo
din
dinaga
dinamarka
dingding
dingle
dino
dionisio
dios
diot
director
directory
discography
discover
disiembre
disney
dist
distance
district
distrito
disyembre
dita
ditan
dito
divino
division
divisoria
divorce
diya
diyad
diyos
dizon
dj
do
doctor
documentary
dodoma
dokiumento
dolores
dominates
domingo
don
dont
door
doors
doreen
dorian
dorongan
dos
double
down
download
dr
dragon
drama
dream
drift
drive
driver
du
dua
duaran
duay
dueg
duets
duga
dugo
duhat
duka
dulag
dulangan
dulao
dulong
duma
dumalinao
dumalneg
dungon
duos
dupri
duran
during
dusaen
dvd
dwara
dwaran
dya
dyad
dyus
e
each
eagle
early
earth
east
eastern
easy
eat
ebat
ebert
echo
ecija
economic
ecopy
ecuador
ed
eda
eden
edisyon
edit
edition
editor
edom
education
eges
ehemplo
eight
ekal
ekalen
ekron
el
electric
elek
elementary
elena
eleng
elias
elizabeth
em
embarcadero
emilio
eminem
emiratos
emma
emmanuel
emotion
empire
empireonline
en
enatey
end
endgame
enero
eng
english
enianak
enlightened
enough
enrique
enriquez
entertainer
entertainment
entry
enumerated
ep
episode
era
eras
eric
erik
ermen
ermita
error
erwin
es
esamar
eskwelaan
espan
espana
espaniol
espanol
espanya
esperanza
espino
espinosa
espirito
espiritu
estaca
estado
estados
estancia
estasiyon
estate
este
esteban
estoniya
estrada
estrella
et
etc
eternal
etonline
eufemia
eugenio
europa
europe
european
ev
evangelista
even
event
events
ever
every
everybody
ew
example
exclusive
expanding
expect
explicit
extension
ey
eyag
eyes
f
fa
fabian
fabrica
face
facebook
factbook
facts
fair
fall
falling
falls
false
fame
familia
family
famous
famy
far
fashion
father
fatima
favorite
fe
feat
feature
features
featuring
feb
february
feel
felipe
female
ferdinand
fernandez
fernando
ferrer
festival
ff
fidel
field
fiesta
fiestay
fight
file
files
filipina
filipinas
filipino
film
filmography
films
filomena
finalists
finance
find
finlande
fire
first
fish
fishing
five
flags
flight
flora
flores
florida
flowers
fm
fnlc
fobj
following
food
fool
foot
for
forbes
foreign
forest
forever
forget
form
former
formerly
fort
fortuna
found
foundation
four
fox
fr
fragrance
franc
france
francia
francis
francisca
francisco
franklin
fransia
freddie
free
french
friend
friendship
from
ft
fu
fugu
full
fullcredits
fun
fury
fwww
g
ga
gabay
gabi
gabon
gabriel
gabu
gadongan
gaga
gaganapin
gagawaen
gala
galang
galaw
galera
gali
galicia
galiken
galilea
galin
gallery
gamay
gambler
game
games
gamespot
gamet
ganagana
gang
ganggan
gapan
gapas
gapo
gapoy
garci
garcia
garden
garita
gata
gatas
gatgaten
gawa
gawad
gawaen
gaway
gayaga
gayon
gayong
gc
ge
gen
gendat
general
geographic
george
georgia
german
germany
gerona
get
getma
gets
ghost
gibraltar
gif
gift
gigli
gil
gilig
gimmapo
ginagamit
ginawa
gines
ginmapo
girl
girls
give
glaad
glad
glamour
glan
glass
global
globe
globes
gloria
gma
go
gobernador
gobierno
gobyerno
god
goes
gogon
going
gold
golden
golf
golion
gomez
gonigon
gonzales
good
goodbye
goode
google
gordon
got
gotham
gov
governance
government
grace
gracia
grammar
grammy
granada
grand
grande
grant
grasya
great
greatest
greatness
green
gregorio
gregory
gresia
griyego
group
grupo
gua
guadalupe
guangxi
guardian
gubat
gud
guibuangan
guide
guild
guillermo
guimaras
guimba
guindapunan
guinea
guinhawa
guinobatan
guintas
guiwanon
gulf
gulod
gumaca
gumagamit
gun
gutalac
guti
guy
guyam
guyana
guzman
h
ha
hacienda
had
hadad
hadji
hagonoy
hair
halang
halimbawa
hall
hallelujah
han
hand
hands
hanggan
hanggang
hapon
happy
hard
harley
harmony
harrison
hart
harvnb
has
have
haven
hawaii
hayastan
he
head
headlines
hear
heart
heavy
heights
helen
hello
help
hen
her
here
hermosa
hero
herodes
heroes
hersegobina
herzegovina
hesus
hey
hi
hide
high
highly
higit
hill
hills
hindang
hindi
hip
hirit
his
history
hit
hits
ho
hold
holland
hollywood
hollywoodreporter
holy
home
homes
honey
hong
honor
honored
honorees
honors
hoot
hope
hoshi
hospital
host
hosting
hot
hotel
house
household
households
housing
houston
how
htm
html
http
https
hu
huang
hugpa
hulio
hulo
hulyo
human
hundred
hung
hunio
hunyo
huwit
i
iba
ibaba
ibabaga
ibabang
ibabao
ibaga
ibagam
ibang
ibayo
ibig
ibo
ice
iceland
ichiro
icon
id
idi
idol
if
ifugao
igalang
igang
iglesia
ign
ignacio
ii
iii
ika
ikaindan
ikakana
ikalawang
ikanta
ikaw
ikinuha
iknol
ikol
ilaban
ilagan
ilalim
ilalo
ilang
ilaud
ilawod
ilaya
ilayang
ildefonso
ili
ilian
ilihan
ilik
ilio
iliw
ilocos
ilog
iloilo
ilokano
iloko
image
imagen
iman
imano
imay
imbaga
imbagad
imbaki
imbes
imdb
imelda
imis
impamalsa
impatey
impirador
importante
imus
in
ina
inabasan
inagew
inalad
inan
inanak
inang
inangoban
inararok
inaro
inatey
inateyan
inawa
inay
inc
include
including
indang
independent
index
india
indiana
indie
indiewire
indonesia
industry
iner
inerman
ines
infanta
infinity
info
information
ing
ingal
ingen
ingey
ingganggan
ingles
ingud
inianak
initdan
initiative
inkatoo
inkianak
inkibantak
inkuan
inkuanen
inkuanto
inkuantod
inmebat
inmolin
inmonan
inpatey
insan
insane
inside
insipay
inspiration
instagram
institute
insulat
inter
interest
interior
international
internet
interpret
interview
interviews
intiron
into
intsik
inudaran
invalid
ipa
ipatalos
ipatey
ipawil
ipil
iprage
ira
irad
iramay
iran
irap
iray
iraya
ireland
irirap
irish
irishman
irlanda
irlande
iron
is
isa
isaac
isabel
isabela
isabi
isaklang
isalita
isan
isang
isbn
isian
isidro
isip
isla
islam
island
islands
ispiritu
israel
israelita
issn
isu
it
itaas
italia
italian
italiano
italy
itan
itarok
itayo
itdan
item
iter
iti
ito
its
itunes
iv
ix
iya
iyan
j
jacinto
jack
jackson
jacob
jad
jaena
jakarta
jake
jalandoni
james
janipaan
january
japan
japanese
jaro
jasaan
jason
javier
jay
jean
jennifer
jeremy
jermaine
jerry
jersey
jerusalem
jessica
jessie
jessy
jesu
jesukristo
jesus
jhad
jhekia
jhina
jhtml
jim
jimenez
jimmy
joaquin
jocelyn
joe
joey
johansson
john
johnson
join
jojo
jollibee
jolo
jones
jordan
jorge
jose
josef
josefa
josefina
joseph
journal
journalists
jr
jsp
juan
juda
judas
juday
judge
judy
julian
julio
julugan
july
junction
june
junior
jupiter
just
justice
justin
juventud
k
ka
kaabigan
kaaro
kabaleg
kabaliksan
kabat
kabay
kabayancentral
kabayo
kabesera
kabkabat
kabuasan
kabuntalan
kabwasan
kabyangay
kad
kada
kadagiti
kadia
kadingilan
kagagawa
kagalang
kagalangan
kagawaan
kagawasan
kahayag
kahayagan
kahit
kahoy
kaiba
kailalakan
kaipapanan
kairapan
kakaaro
kakabatan
kakanayon
kakanen
kakapuyan
kalakal
kalanganan
kalaw
kalawakan
kalayaan
kalayan
kalendario
kaliber
kalibo
kalibutan
kalilangan
kalinga
kalsada
kamag
kamalir
kamambogan
kamarerua
kamarerwa
kamatayan
kamen
kami
kamid
kamin
kan
kanen
kanepegan
kang
kangrunaan
kanian
kanilang
kankanta
kanluran
kanlurang
kanta
kantaan
kanunotan
kanyan
kanyang
kaogsan
kaonoran
kapag
kapalaran
kapaldwan
kapampangan
kapara
kapatagan
kapigan
kapisag
kapital
kapitan
kapuloan
karakel
karaklan
karayan
kareenan
kas
kasabi
kasakbayan
kasal
kasalanan
kasalanay
kasalukuyang
kasama
kasaysayan
kasi
kasian
kastila
kasumpal
kataoan
katawan
kate
kategorya
katekep
katipunan
katoowan
katulangan
katwaan
kauswagan
kawalaan
kawanay
kawayan
kawes
kawit
kay
kaya
kayapa
kayari
kayaryan
kayo
kayod
kayon
kazakstan
kekerewen
kem
ken
kennedy
kerew
kesey
ket
kevin
key
keys
khz
ki
kibawe
kids
kien
kiew
kila
kilala
kilalaban
kiling
kilometres
kim
kimberly
kimey
kimi
kind
kindi
kinen
king
kingdom
kingfisher
kini
kipapasen
kipro
kiss
kita
kiyka
klase
klasiy
km
know
known
ko
kod
kodigo
kolor
komon
komoy
kompositor
komun
komunidad
komuy
kon
kong
kono
kopya
korderoy
korea
koro
koronadal
kosaka
koy
kristo
kroasiya
krus
kua
kuan
kuanen
kuanto
kuantod
kuarta
kuay
kudarat
kugip
kulang
kultura
kumadua
kumadwa
kumadwan
kumalima
kumaliman
kumanem
kumapat
kumatlo
kumatlon
kundi
kung
kuro
kuya
kuyak
kwarta
kyoto
l
la
labak
laban
labangan
labas
labat
labay
labi
labin
labnig
labrador
labu
labut
lac
lad
lady
laen
lagawe
lagi
laguna
lagundi
lahat
lahi
lake
laki
lakin
lakit
lala
lalaki
lalakin
lalawigan
lalo
lalon
lam
lamac
laman
lamang
lamao
lambayong
lambengat
lamet
laminusa
lamot
lamut
lan
lana
lanag
lanang
lanao
lanas
land
landing
lang
langit
langka
langkap
language
languages
langub
languyan
lanipga
lanot
lantawan
lanti
lao
laoac
laoag
laos
laot
lap
lapag
lapinig
lapo
lapor
lapu
lapud
lapuz
lara
larak
larap
laray
large
largest
larry
larson
las
lasip
last
latbia
late
later
latest
latimes
latin
latina
latino
latitude
latuan
laud
laughter
laum
laurel
laut
law
lawa
lawaan
lawang
lawas
lawigan
lawis
lay
laya
layag
laylay
lds
le
lea
lead
leads
league
leave
lee
left
legan
legaspi
legazpi
legend
lego
lejos
lemery
lend
lengua
leo
leon
leonardo
les
let
letra
lewis
leyte
lgu
lhuillier
liangan
libas
liber
libertad
liberty
libis
libjo
libo
libod
libon
library
libro
libsong
libtong
libungan
libya
lico
lidong
lie
life
lifetime
liga
ligas
ligaya
ligliwa
like
liket
liknaan
likud
lil
lila
liliw
liloan
lilod
lim
lima
limam
limay
limbon
limon
linao
linaoa
linawa
linawam
lindongan
line
lingayen
link
linma
linmabas
linmad
lino
linuk
lioaoa
liong
lipa
lipata
lipay
lipit
lipunan
list
lista
listaan
lists
little
lituania
live
liwan
liwanag
liwawa
liwayway
liyang
liyestenstayn
ll
llanera
lo
lobo
loboc
lobok
local
lokasiyon
lokasyon
lomboy
london
lonely
long
longos
lonoy
loob
looc
look
lopez
lord
lorem
lorenzo
loreto
los
lost
louis
lourdes
love
loving
lower
loyola
lt
ltskog
lua
luak
luan
lubay
lubigan
lubo
lubong
lucanin
lucas
lucban
lucena
lucia
lucky
lugar
luis
lukas
luma
lumangbayan
lumba
lumbac
lumbaca
lumbacaingud
lumbang
lumbangan
lumbatan
lumbayao
lumbia
lumikha
luna
lunas
lunes
lungib
lungsod
lupa
lupi
luuk
luya
luyag
luyang
luz
luzon
luzong
lyric
m
ma
maaaring
maabig
maalaala
maaro
maaron
maasim
maasin
mabalin
mabalinmo
mabato
mabetbet
mabilay
mabini
mablin
mabolo
mabuhay
mabunga
macapagal
macario
macarthur
machine
macopa
mad
madamba
madanding
madaya
maddela
made
madonna
maermen
mag
magagamit
magalang
magallanes
magano
magazine
magdalena
magdalo
magellan
magic
maging
magkaroon
magmaliw
magsano
magsaysay
magugpo
maguindanao
maguing
mahaba
mahabang
mahal
maharlika
mahayag
mahayahay
mailioak
main
maingal
mainit
mairap
maite
maitim
maitoto
maitum
major
makabat
makapal
makapansalita
makapanyarin
makapoy
makati
make
makes
making
maksil
mala
malabago
malabo
malabon
malag
malagasang
malaki
malaking
malalag
malamig
malanday
malapad
malapatan
malapoc
malasin
malay
malaya
malayo
malaysia
malbog
malet
malibago
maliga
maligaya
maliit
maliket
malinak
malinao
malinew
malinis
malita
malitbog
maliwanag
malobago
malolos
malta
malungon
malungun
malvar
mama
mamasapano
mambajao
mambog
mamburao
maminsan
man
mana
manaayam
manag
management
managsulat
manaloto
manamaandi
manamalsa
manangilaban
manaoag
manaol
manari
manases
manaul
manaya
manepeg
mang
manga
mangaawit
mangaldan
mangan
mangancion
mangaro
mangasi
mangasika
mangatarem
mangga
manggagawa
manggahan
manggalang
mangiiter
mangiter
mangyakar
mangyan
manila
manipud
manisia
manlapud
manngaran
manohla
manok
manoley
mansasakit
mansasalita
mansiansia
mansiansian
mansulat
manual
manuel
many
maoges
maong
map
mapaga
mapahamak
mapalad
mapandan
mapangasi
mapantao
maputi
mar
marakep
marami
marang
marantao
mararakep
marasbaras
maravilla
marawi
marc
marcelino
marcelo
march
marcos
mareen
margarita
mari
maria
mariah
mariahcarey
marian
mariano
marigondon
marikina
marikit
marilyn
marinaut
marinduque
marine
marino
mario
mariveles
mark
market
markos
marogong
marriage
marso
martin
martires
maruksa
marvel
mary
mas
masagana
masakbay
masalukot
masamit
masanto
masanton
masantos
masaya
masbate
masedoniya
masiglat
masiken
maslak
maslog
masulok
mat
mata
mataas
matak
matalag
matalonggaring
matam
matampay
matanda
matandang
matanog
matatagpuan
mate
mateo
mati
matias
matin
matnog
matonung
matoor
matt
matua
matungao
matuwan
mauban
maugat
mauges
maui
maung
mauswagon
max
may
maya
mayaman
mayana
mayao
maynila
mayo
mayor
maysa
mazinger
me
medalla
media
medical
medicion
medien
medina
melag
melba
melvil
member
memorial
men
mendez
mendiola
mendoza
mercado
mercedes
mercury
mesa
mesias
met
metres
metro
metropolitan
mexico
mga
mi
miami
michael
michelle
mid
middle
midtimbang
miembro
miguel
mikabat
mikasakey
mikasi
mila
milagrosa
million
milyon
mimaropa
min
mina
minaj
minanga
mind
mindanao
mindoro
mine
ministro
minsan
minuyan
mira
miranda
misalamat
misamis
miss
missy
mistake
misterio
misterioy
mitchell
mix
miy
mizuki
mkbmemorial
mo
moak
mod
model
modelo
modern
mohon
moises
mojo
mojon
moldavia
molina
molino
mon
monaco
monbon
mondo
monet
money
monghe
monica
montay
monte
montenegro
montes
montevideo
montserrat
moonlight
morales
more
morocco
morong
morrison
most
mother
motion
mount
mountain
moved
moves
movie
movies
moy
mr
mt
mtv
much
mula
mulawin
muling
mulman
multimedia
mun
mundo
municipal
municipality
municipio
munti
munting
musia
music
musical
musika
muslim
muzon
mw
my
myanmar
n
na
naananap
naanap
naandi
naani
nabunturan
nacional
nadngel
nag
naga
nagagawa
nagalang
nagan
nagba
nagcarlan
naging
nagmaliw
nagnap
nagrebcan
nagsabaran
naguilian
nai
naic
naimano
naka
nakar
nakaukolan
nakaukulan
nakuha
nala
nalasin
nalingwanan
nalsian
nalvo
nam
naman
name
named
names
namnama
nan
nanang
nanarian
nanay
nanayam
nanengneng
nang
nangalisan
nangka
nanitonde
nankakasalanan
nankasalanan
nanlapo
nanlapu
nanlapuan
nanlapud
nansalita
nansinan
nap
napelag
naplag
napno
napnoy
napo
narasan
narayew
narciso
narengel
narra
narvacan
nasaan
nasuli
natalusan
natan
nataniel
natay
nation
national
natividad
nato
nature
nausar
naval
navarro
navotas
navy
nayari
nayarian
nayarin
naynay
nayon
nazareno
nazaret
nazareth
nbc
ncr
nd
nda
ne
near
need
neglia
negosyo
negros
nen
nengneng
nengnengen
nepal
nepeg
ner
net
netflix
netherlands
network
nevada
never
new
news
newspapers
newton
next
nextbestpicture
ng
nga
ngalngali
ngalngalin
ngan
ngaran
ngaray
ngarem
ngayon
ngipen
nguroy
ni
nia
niadtong
nianak
nibaga
nibaliw
nick
nickelodeon
nicki
nicolas
nid
nielsen
night
nikuan
nin
ninja
nino
ninoy
niog
nipa
nipaakar
nipakar
nito
niugan
niy
niya
nl
nlc
nme
no
nobyembre
nod
nods
noise
nominados
nominated
nomination
nominations
nominees
noms
non
nonok
nonot
noong
nora
normal
norsk
norte
north
northern
norue
norway
not
notes
noticias
nova
november
now
nrj
nsamar
nso
nstra
nu
nua
nuestro
nueva
nuevo
number
numero
nun
nunot
nusa
o
oadman
oala
oalay
ob
obama
obet
obrero
obsessed
oc
ocampo
occidental
ocean
oceans
oclc
october
od
odd
odin
odino
odiong
odiongan
oeste
of
off
office
official
officialcharts
ofisial
ofisyal
og
ogan
ogie
oh
ohio
oic
oil
ok
oktobre
oktubre
ol
ola
olango
old
oley
olo
olongapo
omar
ombangon
omman
ommo
ompan
ompaoil
ompatey
ompawil
on
onabig
onan
once
one
onebat
onepage
ong
onia
onla
online
only
onona
onong
onor
onsabi
onsabid
onsalat
onsamar
ontan
ontay
onung
onya
onyay
open
opisyal
oquendo
or
oras
order
ore
org
oriental
original
orihinal
oring
oro
oroquieta
os
oscar
oscars
osmen
ospital
ot
other
otoko
otot
otto
our
out
over
own
oy
oz
p
pa
paabigen
paano
pablo
pacac
pacific
pacifico
paco
pad
padilla
padre
pag
paga
pagadian
pagalamatan
pagalongan
pagalungan
pagatpat
pagayawan
pagbabago
page
pageo
pages
pagew
paggamit
pagitan
pagkakaisa
paglat
pagsangahan
pahina
painter
painting
pait
paitan
pajo
pakadnonotan
pakaoley
pakayari
paksa
palale
palanas
palandey
palao
palar
palaris
palawan
palayan
palbangon
palengke
palico
palina
paliparan
palm
palma
palo
pamagat
pamamagitan
pambansang
pamilihan
pamilya
pampanga
pamplona
pan
pana
panaayaman
panag
panahon
panamegley
panan
panangan
panangaro
panangasi
panangasim
pananginan
pananisia
panaon
panapaan
panarian
panay
panayaman
pandan
pandanan
pandanon
panday
pandayan
pang
pangako
panganiban
pangao
pangaran
pangarap
pangasinan
pangasinense
pangdan
pangi
pangil
pangkalahatang
panglima
pangpang
pangulo
pangunahing
pankanawnawa
panliketan
pano
panon
panoy
panpalinewan
pansol
pantalan
pantao
pantaon
pantar
pantay
pantoc
panyo
pao
papaya
papulasyon
para
parad
parada
paradise
paraguay
paraiso
parang
parasite
paratong
pare
parehong
pari
parian
parina
paris
park
parker
part
parte
party
pasay
pascual
pasen
pasig
pasil
pasnok
pasnuk
paso
pasong
past
pasyalan
pasyente
patac
patag
patar
patey
pati
patnanungan
patong
patricio
paul
pawa
paway
pawil
pay
payao
payapa
payong
paz
pca
pdf
peace
peak
pebrero
pedro
pegley
peles
pelikula
pen
peninsula
people
peoples
peopleschoice
pep
pepe
pequen
per
perdona
perdonaen
perez
perform
performance
performances
person
peru
petang
peteg
peter
pg
ph
philatlas
philippine
philippines
philosophy
photos
php
pi
pia
piagapo
pian
piano
piape
pias
picasso
picture
pictures
piece
pig
pigaran
pigaray
pikakasi
pikasi
pila
pilak
pilalek
pilar
pili
pilipinas
pilipino
pilit
pimentel
pin
pinabli
pinablin
pinagbayanan
pinagbuklod
pinaka
pinalsa
pindangan
pindolonan
pinili
pinmaway
pinmawil
pio
pirawat
pirdonaen
pisa
pisasalamat
pising
pista
pistay
pitbull
pito
pitogo
piyan
place
placer
placid
plan
planner
plant
plaridel
plato
play
playbill
plaza
please
ploning
pluma
plumak
po
pob
poblacio
poblacion
poctol
poe
poet
pogi
pogo
point
pokel
pokok
poland
polen
police
politician
politika
politiko
poll
pollstar
polo
polong
polynesian
pond
pondol
pong
ponong
pontevedra
pony
pooc
pook
pool
poolan
poona
pop
popsugar
popular
populasyon
population
port
portal
portrait
portugal
portuguese
positions
post
power
pozorrubio
pp
pr
prayer
pre
premiere
premio
premios
prenza
present
presente
presented
president
presidente
press
priest
prince
princesa
princess
print
prisoner
prize
prnewswire
probinsya
problema
production
productions
produkto
profile
profit
progreso
project
promise
proper
propita
prosperidad
provcode
provided
province
provincial
provname
prutas
psa
psgc
pu
pualas
public
publication
publish
pueg
puerto
pugo
pula
pulang
pull
pulo
pulong
pulot
pundaquit
pungtod
punod
punong
punta
puntod
punud
pure
purisima
puro
purok
pusa
puso
pusok
pusom
puson
puti
putik
puting
puto
putol
q
que
queen
quezon
quick
quiling
quilo
quinn
quintin
quirino
r
ra
rad
radio
radyo
rafael
ragay
ragondingan
rain
rajah
ramain
ramon
ramos
ran
ranao
rang
rap
rawis
ray
raya
raymundo
razzie
razzies
rd
re
read
readers
reagan
real
receive
record
recordings
recto
red
ref
refs
regal
regcode
regine
region
regional
regions
regname
rehiyon
release
released
releases
remedios
remix
reporter
reports
repu
republic
republika
resources
results
retrieved
returns
reveals
review
reviews
revilla
revolution
rey
reyes
reyna
rhea
rica
ricafrente
ricardo
rice
richard
rider
right
rights
rimos
rin
ring
rio
rita
rite
rito
river
rivera
riverside
rizal
rizaluna
road
rob
robert
robin
robocon
robot
rock
rockonthenet
rodriguez
roger
rogerebert
roll
rolling
rollingstone
roma
roman
romaniya
romano
romblon
rome
romeo
romualdez
ron
ronda
roof
room
roque
rosa
rosales
rosario
rosary
rosas
rose
rosing
rotten
rottentomatoes
round
roxas
royce
rpm
rrj
ru
ruiz
rule
rupert
rural
rusia
ryan
s
sa
saan
saba
sabang
sabangan
sabi
sabit
sabrina
sabtang
sacsac
sadoc
saew
sag
sagay
sagor
sagrada
saguing
sagur
said
saint
sakey
sakit
sakop
saksakey
sala
salamat
salapungan
salay
salazar
salcedo
sales
sali
salinas
salinity
salita
salitan
salog
salong
salsal
salt
salud
salug
salvacion
salvador
salve
sama
samal
saman
samar
samay
sambag
sambulawan
samit
sampaguita
sampaloc
sampao
sampot
san
sananey
sanasawa
sanchez
sandayong
sanduan
sanga
sangay
sangi
sanka
sankabalgan
sankaili
sankakabatan
sankamundoan
sankanayarian
sankatageyan
sanlasus
sanlibo
santa
santan
santander
santiago
santo
santol
santor
santos
sap
sapa
sapad
sapang
sara
sarag
sarama
saramay
sarangani
saray
saraya
sarayan
sasantos
satan
satay
satellite
saturday
saturn
saudi
sawang
sawmill
say
saya
sayan
sayao
sayaw
says
scarlett
scene
school
science
scoop
scotia
scott
scottish
screen
script
se
sea
search
seas
season
seattle
seba
sebastian
second
see
sekular
selectnomination
selena
sen
senator
sengeg
senshi
sensus
sepanyol
separated
september
septiyembre
sergio
series
service
services
sesamo
set
seth
settlement
seven
sevilla
sexiest
shake
shariff
she
shelf
short
show
showbiz
showinterpret
shows
shqip
si
siak
siansia
siansian
sibeg
sibugay
sibul
sibulan
sica
sick
sico
side
sierra
sigay
sigayan
siglo
sign
sigud
siguro
sika
sikami
sikan
sikara
sikaran
sikaray
sikat
sikatayo
sikato
sikaton
sikatoy
sikatuna
sikay
sikayo
sikayon
sikayoy
silang
silangan
silangang
silew
sili
silong
silver
simba
simbaan
simon
sin
sinag
sinalatan
sinapangan
since
sindangan
sing
singa
singer
single
singles
sinmabi
sinmabid
sinmabiy
sinsuat
siocon
siopa
siopaman
siopay
sipan
siquijor
sira
sirang
sirin
sison
sistema
sister
site
siudad
siya
siyudad
siyudadya
size
skin
sky
slave
sleep
sleyte
slobakiya
slovenia
sm
small
smash
smell
snoop
so
soblian
soccsksargen
social
society
socorro
sogod
soledad
solis
solomon
solong
some
someone
something
somiorang
son
sondalo
song
songbird
songs
sonny
sora
soriano
soro
sorsogon
sotto
sound
sounds
soundtrack
south
southeast
southern
spain
spanish
spears
special
specie
speech
spielvan
spirit
sports
spotlight
spread
spring
springs
sq
square
sr
sra
srbija
st
sta
staaten
staff
stand
standard
star
starring
stars
starts
state
states
station
statistics
stay
stefflon
sterreich
steve
stewart
stick
still
stm
sto
stone
stones
stop
store
stories
story
straight
strange
stranger
street
streisand
string
strong
stronger
stub
studio
study
style
styles
su
sua
sual
suarez
suba
subdivision
subic
sudlon
suerte
sugar
sugat
sugbo
sugod
sukat
sulat
sultan
sulu
sumampalataya
summary
summer
sun
sunday
sung
sunshine
super
sur
surat
suraten
surface
surigao
suso
suyo
sverige
sweep
sweet
switzerland
system
t
ta
taal
tab
taba
tabang
tabao
tabi
tabing
table
taboc
tabok
tabon
taboy
tabu
tabuan
tabuc
tabucan
tabugon
tabuk
tabunan
tabunok
tacas
tachi
tacloban
tadyuko
taft
tag
taga
tagalog
tagas
tagaytay
tagbac
tagey
tagoloan
tagoranao
tagum
tagumbao
tagumpay
tai
taisan
taiwan
taiyou
taka
takad
take
takes
taklay
takot
tala
talaba
talaga
talahib
talavera
talayan
talba
talent
talintao
talipao
talisay
talisayan
talitay
talk
talks
talo
talogtog
talon
talora
taloran
taloy
talusan
tambac
tambak
tambal
tambis
tambo
tamontaka
tampakan
tamparan
tampilisan
tampol
tan
tanaman
tanamanan
tanauan
tanawan
tanda
tandag
tandang
tanday
tandu
tangbo
tangcal
tanggal
tangub
tanol
tanza
tanzang
taoen
taon
taong
tapew
tapi
tapian
tapul
tara
taraka
tarimanin
tarlac
tasi
tatakae
tatawagen
tatay
tatlong
tawag
tawagan
tawen
tawi
tawid
tay
tayabas
taylor
tayo
tayon
tayoy
taytay
tayug
te
team
tear
technology
teen
teenage
tejero
telebision
telebisyon
telefono
television
tell
template
teodoro
tepet
teresa
teresita
termino
text
tfc
th
thailand
than
thank
that
the
theguardian
their
them
theme
then
there
these
thewrap
they
things
third
this
thomas
those
three
thrones
through
throw
ti
tiaong
tibag
tie
tigbao
tigbauan
tigbawan
tiguib
till
timba
time
times
timplo
tin
tina
tinago
tinambacan
tinapay
tinawag
tinepet
tingnan
tinmokotok
tinoc
tipan
tipo
tipolo
tipon
tirinsira
title
tiwi
to
toclong
tod
today
todd
together
toktok
tokyo
toledo
tolentino
tolosa
tom
tomas
tomatoes
tomo
ton
tonda
tondo
tong
tonga
tongtong
too
toon
top
tops
tori
toronto
torre
torres
total
totoo
totood
totoom
totoon
tots
tour
tourism
town
townsite
toy
trabaho
trade
trailer
train
transatlantic
transformers
travel
travers
trece
tree
tres
tribu
trinidad
triple
triumphant
trl
trouble
true
trung
tt
tu
tua
tuan
tuba
tubaran
tubig
tubigan
tubigon
tubo
tubod
tuboran
tubuan
tubungan
tuburan
tuca
tudela
tugas
tugaya
tugop
tuguegarao
tuka
tukso
tula
tulay
tulo
tulong
tulunan
tunga
tungawan
tungkol
tupas
turismo
turista
turkiyo
turn
turod
tuwan
tuy
tv
tvbythenumbers
tweet
twitter
two
type
tzebuerg
u
ubay
ubbog
ubos
ug
ugali
ugalim
ugao
ugaw
ugugaw
uk
ukraniya
ula
ulay
ulo
ulupan
uma
umingan
umpian
un
una
unaan
unang
und
under
understand
uneven
unggaro
ungus
uni
unibersidad
unido
unidos
union
united
universal
university
univision
unla
uno
unong
untan
unveiled
up
upang
update
updating
upi
upon
upper
uran
urbanized
urbiztondo
urdaneta
urduja
url
urljpg
uruguay
uruguayan
us
usa
usaren
use
used
using
uson
ussm
usuv
uta
uuri
uusaren
v
valdez
valencia
valenzuela
valle
valley
value
values
van
vancouver
vanguard
variety
various
vatikano
ve
vegas
velasquez
venecia
venezuela
vera
verde
vereinigte
veronica
version
very
verzosa
vevo
vh
vi
via
vic
vicente
victor
victoria
victory
vida
video
videos
vie
viejo
vietnam
view
viga
vigan
vii
viii
villa
villaflor
village
villahermosa
villamil
villanueva
villareal
villarica
villasis
vincent
virac
virgen
virginia
visayas
vision
vista
vito
viva
vizcaya
vma
vocabulario
vogue
voice
voices
vol
volume
vote
vs
w
wa
wade
wadtan
wadyad
wafca
waga
waiting
wakas
wala
walad
walan
walang
walay
walk
walker
walking
walo
wanna
want
wao
war
waray
ward
warm
wars
was
washington
waste
watch
water
waterfall
waters
watson
wawa
way
we
weather
web
webcitation
websayt
website
wedding
week
weekly
well
were
west
weste
western
wfcc
what
when
where
which
white
who
why
wide
wife
wika
wiki
wikidata
wikipedia
wild
will
william
williams
win
wine
winner
winners
wino
wins
winter
wintermusicconference
wire
with
without
wo
woman
women
won
wonder
wood
word
work
works
world
worldmusicawards
worlds
worth
wow
writer
wubblog
wubbzy
www
x
xi
xii
y
ya
yahoo
yakal
yaman
yan
yang
yaung
yay
ye
year
years
yellow
yes
yo
yod
yon
york
yorong
you
young
your
youth
youtube
yoy
yume
z
zambales
zamboanga
zamboangadelnorte
zamora
zap
zapote
zaragosa
zaragoza
zds
zhuang
zion
zip
zone
zorobabel
{
|
}
~
«
°
²
´
·
»
¿
ʻ
ʼ
ˈ
̀
́
̂
̃
̄
̆
̈
̊
̌
̓
̔
̣
̧
̱
͂
α
ε
η
ν
ο
ς
ω
न
ം
ള
ാ
་
မ
ာ
း
်
ႂ
᾽
–
—
‘
’
“
”
…
′
↔
↷
③
④
⑦
⺀
⺄
⺆
⺈
⺊
⺌
⺕
⺝
⺸
⺼
⿰
⿱
⿲
⿳
⿴
⿵
⿶
⿷
⿸
⿹
⿺
⿻
、
。
「
」
『
』
〢
あ
い
う
え
お
か
き
く
け
こ
さ
し
す
せ
そ
た
ち
っ
つ
て
と
な
に
の
は
ひ
ふ
へ
ほ
ま
み
む
め
も
ゃ
や
ゆ
ょ
よ
ら
り
る
れ
ろ
わ
を
ん
゙
゚
ァ
ア
ィ
イ
ウ
ェ
エ
ォ
オ
カ
キ
ク
ケ
コ
サ
シ
ス
セ
ソ
タ
チ
ッ
ツ
テ
ト
ナ
ニ
ネ
ハ
ヒ
フ
ヘ
ホ
マ
ミ
ム
メ
ャ
ヤ
ュ
ユ
ョ
ラ
リ
ル
レ
ロ
ワ
ン
・
ー
㇁
㇂
㇄
㇇
㇈
㇉
㇓
㐁
㐄
㐅
㐌
㐫
㐬
㐭
㐮
㐱
㑒
㒵
㒸
㒼
㓁
㓞
㔾
㕛
㕣
㖾
㘝
㚅
㚇
㚔
㚘
㝉
㝡
㝴
㝵
㞋
㞢
㞷
㠩
㠭
㠯
㡀
㡭
㡿
㢲
㢴
㣇
㣺
㥯
㪅
㫄
㫐
㫒
㫺
㬅
㬎
㬥
㬰
㲋
㳄
㷠
㸒
㸚
㸦
㼌
㼲
㽞
㿟
䀠
䂞
䍃
䏍
䒑
䖍
䖒
䖝
䖵
䙴
䚻
䜌
䝿
䡛
䧹
䪞
一
丁
丂
七
丄
丅
丆
万
丈
三
上
下
丌
不
与
丏
丐
丑
专
且
丕
世
丘
丙
业
东
丞
丢
丣
两
严
並
丨
丩
个
丫
丬
中
丮
丰
丱
串
丵
丶
丷
丸
丹
为
主
丽
丿
乀
乂
乃
久
乆
乇
么
义
之
乌
乍
乎
乏
乐
乑
乔
乖
乗
乘
乙
乚
乛
乜
九
乞
也
习
乡
乳
乾
亀
亅
了
亇
予
争
事
二
亍
于
亏
亐
云
互
亓
五
井
亘
亚
亜
亞
亟
亠
亡
亢
交
亥
亦
产
亨
亩
享
京
亭
亮
亯
亰
亲
亳
亶
亷
人
亻
亼
亾
仁
今
介
仌
从
仐
仑
仒
仓
仕
他
付
仝
代
令
以
仮
仲
任
企
伊
伏
伐
休
会
伝
伯
但
位
体
何
佘
余
作
佥
使
來
侈
侌
侖
侯
侵
便
保
俞
信
修
倉
倍
候
倠
備
僉
僕
儿
兀
允
兂
元
兄
充
兆
兇
先
光
兊
克
兌
免
兑
兒
兓
兔
党
兜
兟
入
全
兩
兪
八
公
六
兮
兰
共
关
兵
其
具
典
兹
兼
冀
冂
冃
冄
内
冈
冉
冊
冋
册
再
冎
冏
冐
冒
冓
冖
冗
冘
军
农
冝
冡
冥
冫
冬
冷
几
凡
凢
凵
凶
凷
凸
凹
出
函
凾
刀
刁
刂
刃
刄
刅
分
切
刍
刑
刕
刖
列
刘
则
初
別
利
别
到
制
刺
則
削
剌
前
剡
剽
劉
力
功
加
劦
助
劫
劳
劵
勃
勇
勉
勒
動
務
勝
勞
勤
勹
勺
勻
勾
勿
匀
匂
包
匆
匈
匊
匋
匍
匕
化
北
匚
匝
匡
匪
匱
匸
匹
区
医
匽
匿
區
十
卂
千
卄
卅
卆
升
午
卉
半
卌
华
卑
卒
卓
单
卖
南
卜
卝
卞
占
卡
卢
卣
卤
卦
卩
卪
卬
卯
印
危
即
却
卵
卷
卸
卻
厂
厃
厄
历
厈
厉
厌
厓
厘
厚
原
厤
厥
厨
厭
厲
厶
厷
厸
去
厼
厽
叀
参
參
叅
又
叉
及
友
双
反
叐
发
叒
叔
叕
取
受
叚
叜
叟
口
古
句
另
叩
只
召
可
台
叱
史
右
叵
号
司
叹
吂
各
吅
合
吉
吊
吋
同
名
后
吏
向
吕
君
吝
吞
吠
否
含
启
吳
吴
吹
吾
呂
呆
呈
告
员
呙
周
命
咅
和
咎
咠
咢
咨
咸
咼
哀
品
哉
員
哥
哲
唄
唐
唯
商
啇
問
啚
啬
啻
善
喜
喬
單
喿
嗇
噩
嚴
囊
囗
囘
囙
囚
四
回
囟
因
囧
囬
困
囱
囷
固
国
圂
圅
國
圍
圓
土
圡
圣
圥
在
圭
地
圶
圼
坂
坐
坒
坚
坴
垂
垔
垚
埀
埋
埶
執
基
堂
堅
堆
堇
堯
塞
墨
壘
士
壬
壯
声
壳
壴
壹
壺
壽
夂
处
夅
夆
备
夊
夋
夌
复
夏
夒
夕
外
夗
夘
多
夜
夢
大
夨
天
太
夫
夬
夭
央
失
夲
头
夷
夸
夹
夻
夾
奂
奄
奇
奈
奉
奎
奏
奐
契
奓
奔
奚
奞
奠
奢
奥
奭
女
奴
奻
好
如
妄
妙
妟
妥
妻
妾
姑
委
姜
威
娄
婁
婴
嬰
嬴
子
孑
孔
孕
孖
字
存
孚
孛
孝
孟
季
孤
学
孫
孱
學
宀
宁
宂
它
宅
宇
守
安
宋
完
宏
宓
宗
官
定
宛
宜
宝
客
宣
室
宮
宰
害
家
容
宾
宿
寄
寅
密
富
寒
察
寧
審
寫
寬
寮
寸
对
寺
寻
寽
対
寿
封
尃
射
将
將
專
尉
尊
尋
尌
對
小
少
尒
尓
尔
尖
尗
尚
尞
尢
尣
尤
尧
尨
尭
就
尸
尹
尺
尻
尼
尽
尾
尿
局
居
屈
屋
屎
屏
屑
展
屖
屚
属
屠
屡
屬
屮
屯
屰
山
屵
屾
岁
岂
岑
岡
岩
岳
岸
峯
島
崇
崑
崔
崖
崙
崩
嵬
嶲
巂
巛
川
州
巟
巠
巢
巤
工
左
巧
巨
巩
巫
差
己
已
巳
巴
巷
巸
巽
巾
巿
帀
市
布
希
帚
帛
帝
带
師
席
帰
帶
常
干
平
年
幵
并
幷
幸
幺
幻
幼
幽
幾
广
広
庄
床
底
店
庚
府
度
庫
庭
庶
康
庸
廉
廌
廛
廣
廩
廴
延
廷
建
廾
廿
开
弁
弃
弄
弇
弋
式
弓
弔
引
弗
弘
弜
弟
弥
弦
弱
張
強
强
弾
彊
彌
彎
彐
彑
当
彔
录
彖
彗
彡
形
彥
彦
彧
彭
彳
役
彼
往
待
律
徒
得
徙
從
復
微
徵
心
忄
必
忌
忍
志
忝
忠
忩
快
念
忽
忿
怒
思
怠
急
怱
恆
恒
恩
恭
息
悉
患
悤
悲
悶
情
惠
惡
惢
愁
愈
意
愛
感
慈
慧
慮
憂
憲
應
懐
戀
戈
戉
戊
戋
戌
戍
戎
成
我
戒
戔
或
戚
戠
戢
戦
截
戲
戶
户
戹
戼
戾
房
所
扁
扇
手
扌
才
打
托
执
承
折
拉
拜
拿
掌
推
提
摩
支
攴
攵
收
攸
改
放
政
敄
敏
敕
敖
敗
敝
敞
敢
散
敦
敫
敬
数
敵
敷
數
斂
文
斉
斊
斗
斤
斥
斩
斬
斯
新
方
於
施
斿
旁
旅
旋
族
无
旡
既
旣
日
旦
旧
旨
早
旬
旱
旲
时
旾
昆
昇
昌
昍
明
昏
易
昔
昗
昜
星
春
昬
是
昱
昴
昷
時
晃
晋
晏
普
景
晶
智
暑
暴
曇
曩
曰
曲
曳
更
曷
書
曹
曼
曾
替
最
朁
會
月
有
朋
服
朔
朕
朗
望
朝
木
朩
未
末
本
札
朮
术
朱
朵
朶
朿
杀
杏
杜
束
条
来
東
杲
杳
松
析
林
枚
果
枝
枲
枼
某
柔
查
柬
柰
柴
栗
桀
桑
桼
梁
條
梟
梨
棘
棠
棥
森
楚
業
楽
榮
樂
樊
橋
欠
次
欣
欮
欲
欶
欽
款
歆
歇
歌
歛
止
正
此
步
武
歨
歪
歮
歯
歰
歲
歴
歷
歸
歹
歺
死
殳
段
殷
殸
殹
殺
殻
殿
毋
毌
母
每
毒
比
毕
毚
毛
毳
氏
氐
民
气
気
氣
水
氵
氶
氷
永
氺
氾
求
汝
汞
江
沃
沓
沙
沝
沢
河
治
泉
法
波
泣
泥
泰
洛
洪
活
派
流
浦
浪
浮
海
淡
淮
清
渚
渠
湯
滿
漸
火
灬
灭
灰
灵
灷
炅
炎
炏
炗
炙
炭
為
烈
烏
烝
焉
無
焦
焱
然
煞
熊
熏
熱
燃
燕
營
燮
爆
爪
爫
爭
爯
爰
爱
爲
爵
父
爻
爽
爾
爿
片
牙
牚
牛
牜
牟
牢
牧
物
牪
牽
犀
犬
犭
犮
狂
狄
狊
独
狺
猋
猒
猪
献
獅
獣
獻
玄
率
玉
王
玟
玨
珎
班
琴
瑟
瑩
瓜
瓦
甘
甚
生
産
用
甫
甬
田
由
甲
申
电
甶
男
甸
甹
画
甾
畀
界
畏
畐
留
畜
畟
畢
畧
畨
番
畫
異
畱
當
畺
畾
疊
疋
疌
疑
疒
疾
癶
癸
癹
発
登
發
白
百
皀
皃
的
皆
皇
皋
皐
皕
皮
皷
皿
盃
盆
盇
盈
益
盍
盎
监
盒
盖
盛
盡
監
盤
盧
目
直
相
盾
省
眇
眉
看
眔
眞
真
眷
眼
眾
着
睘
睪
睿
瞏
瞢
瞬
瞿
矍
矛
矞
矢
矣
知
矦
短
石
破
碎
磊
磨
示
礻
礼
社
神
祟
票
祭
禀
禁
禸
禹
禺
离
禽
禾
禿
秀
秃
秉
秋
科
秝
秦
移
稟
穀
穌
穴
究
穹
空
穿
突
窄
窒
立
竒
竜
竝
竟
章
童
竹
笑
笠
筆
等
答
箕
算
箴
節
篤
篭
米
粉
粛
粟
粤
粦
粲
糞
糸
糹
系
約
納
素
索
紫
累
細
絜
絫
絲
維
綿
線
縣
繇
纍
纟
缶
网
罒
罔
罕
罗
罙
罡
罢
罪
署
罷
羅
羊
羌
羍
美
羔
羕
羗
羞
羡
羣
群
義
羲
羸
羽
翁
翏
習
翕
翟
翠
翼
老
耂
考
者
耆
而
耎
耑
耒
耳
耴
耶
耷
聂
聊
聖
聚
聶
聿
肀
肃
肅
肉
肖
肙
肥
肩
肯
育
肴
胃
背
胡
胥
能
脊
脩
膚
臣
臤
臧
自
臬
臭
臯
臱
至
致
臺
臼
臽
臾
臿
舀
舂
舄
與
興
舉
舌
舍
舛
舜
舞
舟
般
艮
良
色
艸
艹
艾
芒
芔
芬
芮
花
芳
芺
芻
苔
苗
苟
若
苦
英
茶
茸
荅
草
荒
荣
荼
莆
莧
莫
莽
菆
菊
菐
華
萬
落
葉
著
葛
董
葵
蒙
蒦
蒼
蓋
蓬
蓺
蔑
蔡
蕉
蕭
薄
薛
薦
薰
藍
藏
藤
藥
蘭
虍
虎
虐
虒
虔
處
虖
虗
虘
虚
虛
虜
虞
虫
虽
蚤
蚩
蜀
蜜
蟲
蠡
血
行
衍
衛
衣
衤
表
衮
衰
袁
袞
褭
褱
襄
襾
西
覀
要
覃
見
規
覓
覧
親
覽
见
角
解
言
訁
訇
計
記
詹
語
誩
説
誰
諸
讃
讠
谷
豆
豈
豊
豐
豕
豖
豙
象
豦
豩
豪
豸
貇
貝
貞
貟
負
貢
貧
貪
貫
責
貳
貴
買
費
賁
資
賈
賏
賓
賔
賛
賞
賢
賣
質
賴
贊
贝
贡
责
贯
贲
贵
赖
赞
赤
赦
走
超
越
足
路
蹇
身
躬
車
軍
軎
軟
輝
輦
车
辛
辜
辟
辥
辰
辱
農
辵
辶
边
达
过
近
连
迷
追
退
送
逆
逐
通
速
造
逢
連
逮
進
遀
遂
過
道
達
遠
遣
適
遷
遺
邊
邑
邕
那
邦
邪
郎
部
郭
都
鄉
酉
酋
配
酓
釆
采
里
重
野
量
金
釒
鉄
銀
鋼
錢
钅
長
镸
长
門
閃
閉
開
閏
閑
閒
間
閔
閵
閻
闌
门
间
闷
阑
阜
阝
阿
降
陳
険
陽
隆
隊
隋
隡
隨
隱
隶
隹
隺
隻
隼
隽
难
雀
雁
集
雈
雋
雍
雐
雔
雙
雚
雜
雝
離
難
雨
雩
雪
雲
零
雷
需
霍
霜
霝
霞
霸
靈
靑
青
非
靡
面
靣
革
韋
韦
韭
韯
韱
音
頁
頃
項
須
頗
頡
頻
顛
页
風
风
飛
飞
食
飠
養
饣
首
香
馬
馮
駦
马
骨
高
髟
鬥
鬯
鬲
鬼
魂
魔
魚
魯
鮮
鱼
鲁
鳥
鳳
鸟
鹵
鹿
麃
麗
麥
麦
麻
黃
黄
黍
黎
黑
黒
黨
黹
黽
黾
鼎
鼓
鼠
鼻
齊
齋
齐
齒
齿
龍
龙
龜
龟
龠
龰
龱
龴
龵
龶
龷
龸
龹
者
艹
（
）
，
：
？
～
･
𠀁
𠀃
𠀆
𠀉
𠀎
𠀐
𠁁
𠁣
𠂆
𠂇
𠂈
𠂉
𠂊
𠂋
𠂎
𠂒
𠂔
𠂛
𠂡
𠂢
𠂤
𠂬
𠂭
𠂹
𠃊
𠃋
𠃌
𠃍
𠃎
𠃑
𠃓
𠃔
𠃜
𠄌
𠄎
𠄠
𠄢
𠆢
𠆥
𠇍
𠈌
𠌵
𠓜
𠔉
𠔥
𠔼
𠔽
𠔿
𠕀
𠕁
𠕋
𠘧
𠘨
𠙻
𠙼
𠚏
𠚒
𠚤
𠚪
𠣏
𠤎
𠤕
𠥓
𠦄
𠦑
𠦝
𠧒
𠧗
𠧪
𠩺
𠪚
𠫓
𠫔
𠫤
𠬛
𠬝
𠬞
𠬢
𠬤
𠬶
𠮛
𠮦
𠮷
𠯑
𠱠
𠳮
𠷎
𡈼
𡉀
𡉵
𡌥
𡍮
𡏳
𡕒
𡕩
𡕰
𡖅
𡗗
𡗜
𡘆
𡘤
𡧱
𡨄
𡩧
𡬠
𡭽
𡰣
𡰥
𡰪
𡰯
𡰱
𡷈
𡸁
𡿨
𡿩
𡿪
𡿺
𢀖
𢀛
𢀩
𢁙
𢆉
𢆰
𢆶
𢇁
𢇇
𢉖
𢌬
𢌿
𢏚
𢑑
𢑚
𢖻
𢙣
𢛳
𢦏
𢦒
𢧵
𢼄
𢾕
𣁋
𣄼
𣅀
𣅽
𣍘
𣎳
𣎵
𣏋
𣏼
𣗥
𣥂
𣥖
𣦵
𣦼
𣧄
𣪊
𣪠
𣬉
𣳾
𣶒
𤇾
𤊽
𤐫
𤓰
𤔔
𤕨
𤣩
𤰇
𤰔
𤰞
𤴓
𤴔
𤽄
𥁑
𥁕
𥃦
𥃩
𥃭
𥇡
𥑟
𥘅
𥘈
𥝢
𥫗
𥱡
𦈢
𦉪
𦉬
𦉼
𦍌
𦍒
𦎧
𦐇
𦓔
𦔮
𦘒
𦙃
𦚏
𦣝
𦣞
𦣻
𦥑
𦥔
𦥯
𦨉
𦭝
𦰩
𧆞
𧈧
𧘇
𧰨
𧴪
𧴮
𧵩
𧾷
𨸏
𨾴
𩙿
𩠐
𩫏
𩵋
𪉷
𪜀
𪟽
𪠲
𪩲
𫇦
𫔭
𫜸
𫝀
𫠣
𫠩
𫢉
𫥞
𫩏
𫩠
𫪡
𫲽
𫶧
𬀷
𬐘
𬗌
𬙙
𬛸
𬜯
𬟩
𬯁
𬴘
𬺻
𬼉
𬼖
𭀰
𭁈
𭁨
𭅰
𭑈
𭕄
𭗼
𭤨
𭥫
𭻾
𮅕
𮊿
𮍌
𮍏
𮓗
𮥼
𮧮
廾
𰀁
𰀄
𰀈
𰀉
𰀕
𰀠
𰀡
𰀢
𰀪
𰁜
𰃮
𰆊
𰆘
𰋙
𰕎
𰢴
𰧭
𰯲
00--
02--
03--
04--
120--
37--
44--
93--
94--
95--
96--
97--
a--
ab--
aba--
ac--
ad--
addi--
adri--
ag--
aga--
agu--
agui--
ah--
air--
ak--
aka--
aku--
al--
ala--
ale--
ali--
all--
alu--
am--
ama--
aman--
ami--
an--
ana--
anc--
ang--
ani--
ans--
any--
ap--
api--
aqu--
ar--
ara--
arc--
ari--
as--
at--
ati--
au--
av--
ay--
ayu--
b--
ba--
bac--
bad--
bak--
bal--
bala--
bali--
bam--
ban--
bar--
bas--
bay--
be--
beg--
bel--
ben--
bend--
ber--
bi--
bib--
bibliog--
bin--
bir--
bis--
bit--
bo--
bok--
bol--
bom--
bor--
br--
bro--
bu--
bug--
bul--
bun--
bur--
but--
c--
ca--
cab--
cabi--
cag--
cal--
calang--
caling--
calu--
calubi--
calum--
cam--
can--
cani--
car--
casan--
cat--
catu--
ce--
cele--
cem--
cf--
cha--
char--
chi--
cl--
cla--
co--
com--
compo--
con--
cor--
corpo--
cot--
cr--
cre--
cris--
cry--
cu--
cuen--
cull--
cur--
cut--
d--
da--
dag--
dak--
dal--
dalu--
dam--
dan--
dang--
dangc--
de--
den--
der--
di--
dia--
din--
dis--
do--
domini--
dr--
du--
dua--
e--
ec--
ed--
edu--
el--
elec--
em--
en--
end--
eng--
ep--
equat--
ere--
es--
esp--
esti--
et--
ev--
ex--
ext--
extre--
f--
fa--
fe--
fer--
fi--
fin--
flo--
fon--
fr--
fu--
fun--
g--
ga--
gan--
gar--
ge--
gen--
geo--
gi--
gina--
go--
gonz--
gr--
gra--
gro--
gu--
gua--
gui--
guin--
guina--
gus--
h--
ha--
hag--
hagui--
ham--
he--
heart--
her--
hesu--
hi--
hina--
hinun--
his--
ho--
hol--
hu--
hus--
i--
iba--
id--
if--
ig--
ii--
ik--
ika--
ill--
ilo--
im--
impa--
in--
ina--
inaz--
indu--
ing--
inka--
inki--
ino--
inpan--
introduc--
ipa--
is--
isa--
isu--
it--
iv--
iya--
j--
ja--
jac--
jag--
jam--
je--
jesu--
ji--
jo--
joh--
ju--
k--
ka--
kabu--
kal--
kan--
kap--
kar--
kas--
katu--
kawa--
kay--
ke--
ki--
kib--
kilo--
kin--
ko--
kor--
kris--
ku--
kuma--
l--
la--
lac--
laga--
lagu--
laguin--
lam--
lan--
lang--
lap--
las--
le--
leg--
len--
li--
libr--
libu--
lig--
lik--
lim--
lin--
lina--
lio--
ll--
lo--
loc--
lok--
lu--
lub--
luc--
lug--
luk--
lum--
lun--
lus--
m--
ma--
mab--
mac--
maca--
mad--
mag--
magu--
maka--
makapa--
mal--
mala--
mali--
mam--
mama--
man--
mana--
manag--
mang--
mangipa--
manon--
manpa--
map--
mapa--
mar--
mara--
maragon--
mari--
mas--
mat--
may--
mc--
me--
mel--
mer--
mi--
mic--
mid--
mil--
mim--
mo--
mog--
mon--
monte--
mor--
mou--
mu--
mun--
mus--
my--
n--
na--
nab--
nag--
nagu--
nak--
nal--
nam--
nan--
nap--
nata--
natu--
naul--
nav--
ne--
nen--
new--
ng--
nga--
ni--
nid--
nilik--
no--
nob--
nor--
north--
nu--
ny--
o--
oa--
ob--
oc--
occ--
og--
om--
on--
ona--
ong--
or--
org--
ori--
os--
ot--
over--
p--
pa--
pac--
pad--
pag--
pak--
paka--
pal--
pam--
pan--
pana--
panag--
panama--
pang--
pangan--
pani--
para--
pas--
pat--
pay--
pe--
pep--
per--
pet--
pi--
pid--
pig--
pika--
pin--
pinag--
pinaka--
pl--
plu--
po--
poc--
pol--
pr--
pre--
pri--
priba--
princ--
pro--
pu--
pul--
pun--
qu--
qui--
r--
ra--
re--
reg--
reve--
rhy--
ri--
ris--
riv--
ro--
ru--
s--
sa--
sab--
sacra--
sag--
sak--
sal--
sam--
san--
sang--
sanka--
sap--
sar--
say--
sc--
se--
sec--
ser--
sha--
shi--
sho--
si--
sib--
sibu--
sim--
sin--
six--
sm--
so--
sol--
some--
spi--
st--
ste--
step--
su--
sub--
sud--
sug--
sul--
sum--
sumi--
sun--
sur--
sw--
swa--
swe--
t--
ta--
tab--
tacu--
tag--
tagu--
tal--
tala--
tam--
tamb--
tan--
tang--
tap--
tay--
te--
tek--
tem--
ter--
th--
ti--
tin--
tina--
to--
tok--
tol--
tor--
tr--
trad--
tri--
tu--
tub--
tuk--
tul--
tum--
tur--
u--
ug--
ultra--
um--
uma--
un--
ung--
uni--
ur--
us--
v--
vac--
ve--
ven--
ver--
vi--
villa--
w--
wa--
wad--
wal--
war--
we--
web--
whe--
wiki--
wil--
wild--
win--
wor--
x--
xi--
y--
ya--
yo--
z--
ze--
--0
--1
--2
--3
--4
--5
--6
--7
--8
--9
--a
--aan
--ab
--able
--ably
--ac
--acan
--ad
--ado
--aen
--ag
--ago
--ah
--ai
--ak
--akey
--al
--ald
--am
--an
--anan
--ano
--ao
--ap
--ar
--ary
--as
--at
--ates
--ation
--atuan
--ature
--aw
--awan
--ay
--az
--b
--ba
--bag
--bakin
--ban
--bao
--bas
--bat
--bato
--bay
--bayan
--be
--bia
--ble
--bo
--bog
--bok
--bong
--bot
--bu
--buk
--bul
--c
--ca
--cab
--cal
--can
--cao
--cat
--cay
--cca
--ce
--cen
--ch
--cho
--ci
--cio
--cion
--ck
--co
--con
--cs
--ct
--d
--da
--dad
--dag
--dan
--de
--dem
--der
--di
--dio
--do
--doc
--dol
--dor
--ds
--duan
--dy
--e
--ect
--ed
--ef
--eg
--ei
--ein
--ek
--el
--ela
--em
--en
--ena
--ent
--eo
--er
--ero
--ers
--ery
--es
--est
--et
--ew
--ey
--ez
--f
--ful
--g
--ga
--gan
--gao
--gar
--garen
--gas
--gay
--gey
--gg
--ggol
--gh
--ghan
--ght
--gio
--gka
--go
--gon
--gro
--gs
--gue
--guete
--gui
--guian
--h
--han
--hay
--he
--hed
--hi
--hic
--hin
--ht
--hy
--i
--ia
--ial
--ian
--iana
--ias
--ib
--ic
--ical
--ick
--id
--ida
--ie
--ies
--ig
--igan
--igay
--ik
--ikna
--il
--illa
--ilo
--ils
--im
--imum
--in
--ine
--ing
--ino
--io
--ion
--ip
--ir
--is
--it
--ite
--ities
--ity
--ive
--ize
--ja
--jan
--jo
--k
--ka
--kan
--kas
--ke
--kelaw
--ki
--kin
--knab
--ko
--kor
--ky
--l
--la
--laan
--lag
--lam
--lan
--lang
--lao
--lat
--ld
--ldo
--le
--lek
--lem
--les
--li
--lian
--lig
--ligue
--lik
--lin
--lis
--lit
--ll
--lly
--lo
--log
--lon
--lora
--loy
--ls
--lsa
--lud
--lugan
--lum
--lus
--ly
--m
--ma
--maliw
--man
--mban
--mbre
--me
--mi
--mit
--mo
--mpa
--mpo
--ms
--mu
--n
--na
--nac
--nan
--nao
--nas
--nay
--nce
--ndan
--ne
--neg
--neng
--nes
--ney
--ng
--nga
--ngan
--ngas
--ngil
--ngon
--ni
--nia
--nir
--no
--not
--ns
--nt
--nte
--nti
--ny
--o
--oa
--oan
--ob
--oc
--od
--oen
--og
--ok
--ol
--oli
--om
--on
--ona
--onal
--ong
--onotan
--ons
--op
--or
--os
--ot
--ow
--oy
--p
--pa
--pao
--pat
--pe
--ped
--pet
--pit
--po
--poy
--ps
--pt
--puan
--quit
--r
--ra
--raan
--ral
--ran
--rao
--rd
--re
--res
--rg
--ri
--ria
--ries
--rio
--rk
--rm
--rn
--ro
--rog
--rom
--ros
--roy
--rra
--rrow
--rry
--rs
--rt
--ry
--s
--sa
--sak
--san
--say
--se
--seb
--sed
--ses
--sh
--si
--sia
--sig
--sion
--sk
--so
--sol
--ss
--st
--star
--ster
--sud
--t
--ta
--tad
--tak
--tal
--tan
--tao
--tas
--tch
--te
--ted
--ter
--tes
--tey
--th
--ti
--tian
--tic
--tion
--tle
--to
--tol
--tor
--tro
--ts
--tt
--ty
--tz
--u
--ua
--uan
--uay
--ub
--ud
--ue
--ug
--ugan
--ui
--uis
--uite
--ul
--uld
--ulin
--um
--un
--ungan
--ur
--urce
--ure
--urs
--us
--ut
--ution
--uto
--uyo
--uza
--v
--va
--ve
--w
--wa
--wag
--wak
--wan
--wanan
--wat
--way
--we
--wen
--west
--wi
--wit
--x
--y
--ya
--yag
--yagan
--yal
--yan
--yao
--yari
--yat
--yn
--yo
--yon
--z
--za
--ze
--zo
--ɐ
