!
"
#
##0
##1
##10
##11
##12
##13
##14
##15
##16
##17
##18
##19
##2
##20
##21
##22
##23
##24
##25
##26
##27
##28
##29
##3
##30
##31
##32
##33
##34
##35
##36
##37
##38
##39
##4
##40
##41
##42
##43
##44
##45
##46
##47
##48
##49
##5
##50
##51
##52
##53
##54
##55
##56
##57
##58
##59
##6
##60
##61
##62
##63
##64
##65
##66
##67
##68
##69
##7
##70
##71
##72
##73
##74
##75
##76
##77
##78
##79
##8
##80
##81
##82
##83
##84
##85
##86
##87
##88
##89
##9
##90
##91
##92
##93
##94
##95
##96
##97
##98
##99
$
%
&
'
(
)
*
+
,
-
.
/
0
000
01
0140
02
03
04
05
06
07
08
09
1
10
100
1000
1001
1002
101
1010
1016
102
1020
1030
104
1040
105
1050
1060
1070
108
1080
109
1090
1093
11
110
1100
1109
111
1110
1111
112
1120
1130
1140
115
1150
1160
117
1170
118
1180
1190
12
120
1200
121
1210
122
1220
1230
1240
125
1250
126
1260
1270
128
1280
1289
129
1290
13
130
1300
1310
1320
1330
1340
135
1350
1360
1365
1370
1380
139
1390
14
140
1400
1410
1420
1430
1440
1450
1460
1469
1470
148
1480
1489
149
1490
1499
15
150
1500
1510
152
1520
1529
1530
1540
155
1550
156
1560
1570
1580
1585
159
1590
16
160
1600
1610
1620
163
1630
1640
1643
165
1650
1660
1670
168
1680
169
1690
17
170
1700
1710
1720
1727
1730
1740
1750
1760
1770
178
1780
179
1790
18
180
1800
1809
1810
1812
182
1820
1825
183
1830
1840
185
1850
1853
1858
1860
1861
1867
1870
1871
1874
1879
1880
1883
189
1890
1895
1897
1899
19
190
1900
1902
1903
1905
1906
1910
1911
1912
1916
1917
1918
1919
1920
1921
1922
1923
1924
1925
1926
1927
1928
1929
193
1930
1931
1932
1934
1935
1936
1937
1938
1939
194
1940
1941
1942
1943
1945
1946
1947
1948
1949
1950
1951
1952
1953
1954
1955
1956
1957
1958
1959
1960
1961
1962
1963
1964
1966
1967
1968
1969
197
1970
1971
1972
1973
1974
1975
1976
1977
1978
1979
1980
1981
1982
1983
1984
1985
1986
1987
1988
1989
199
1990
1991
1992
1993
1994
1995
1996
1997
1998
1999
2
20
200
2000
2001
2002
2003
2004
2005
2006
2007
2008
2009
201
2010
2011
2012
2013
2014
2015
2016
2017
2018
2019
2020
2021
2022
2037
204
206
209
2095
21
210
2100
215
216
219
22
220
2200
229
23
230
23245604
233
235
236
239
24
240
242
243
244
247
249
25
250
257
258
259
26
260
261
27
270
272
275
278
279
28
280
281
282
283
284
285
286
287
289
29
290
291
294
298
299
3
30
300
301
302
306
307
308
309
31
310
311
312
313
314
315
316
317
318
319
32
320
321
322
323
324
325
326
327
328
329
33
330
331
332
333
336
34
340
349
35
350
351
356
36
360
365
366
367
37
370
374
38
380
382
389
39
390
392
4
40
400
401
406
407
41
410
42
420
43
430
44
440
45
450
451
453
46
460
463
47
470
48
480
489
49
490
5
50
500
507
51
510
519
52
520
53
530
533
54
540
549
55
550
557
56
560
57
570
58
580
59
590
6
60
600
61
610
615
61728
62
620
624
63
630
639
64
640
646
65
650
660
669
67
670
6736
679
68
680
685
69
690
696
7
70
700
707
71
710
717
720
727
73
730
733
737
74
740
747
749
75
750
755
76
760
768
77
770
777
78
780
783
789
79
790
792
8
80
800
801
803
810
820
83
830
84
840
85
850
859
86
860
87
870
873
874
88
880
883
89
890
899
9
90
900
91
910
92
920
93
930
94
940
95
950
96
960
961
967
97
970
978
979
98
980
983
9859
988
989
99
990
999
:
;
<
=
>
?
@
[
\
]
^
_
a
aar
aba
abelana
about
academy
access
account
achievement
acornhoek
adelaide
administrative
aepyceros
affairs
africa
african
africans
afrika
afrikaans
afrikaanse
after
aga
against
agala
aganang
age
agency
agis
ago
agostose
agrizzi
agulhas
agwe
ahlola
aids
air
airlines
airport
airways
akanyets
akarelletsa
akarets
akteur
al
ala
albert
ale
alex
alexandra
alexandria
alexkor
alfred
algeria
alice
aliwal
all
allanridge
allegations
allen
alliance
also
am
ama
amahlathi
amajuba
amalia
amana
amanago
amashabalala
amathole
amega
amegago
america
american
amerika
amerikaanse
amogela
amogelegago
amogelwa
amogets
amongwaledipharephare
amopresidente
amsterdam
an
ana
anago
analysis
anc
anchor
anchors
and
ane
aneng
angelo
anglican
angola
ani
ankole
ann
ano
anong
another
antarctica
anti
ao
apara
apartheid
aporele
april
araba
arabela
archive
archived
arctic
are
area
areas
armenia
arogana
aroganego
aroganya
arots
arthur
article
as
asia
aspx
association
at
ate
atile
atlantic
atlantis
atlegilego
atona
ats
au
augrabies
august
australia
authority
authors
award
b
ba
baagi
baahlodi
baapostola
baard
baartman
babedi
bachelor
back
badiris
badudi
baemedi
baerase
baetapele
baeti
bafsa
bago
bagolo
bagwera
bahlabani
bahlankedi
baile
bain
baithuti
baka
bakeng
bakgethwa
bakile
bakoloni
bakriste
bakwa
bakwena
balaodi
baleen
balfour
balwa
bammala
bana
baneng
bang
bangwe
bank
banna
bants
bao
bapa
bapago
bapala
bapalami
bapalwa
bapedi
bapets
barack
baraloki
bararo
barbara
barberton
barkly
barwarre
bas
basadi
base
based
basetsana
baskin
baso
baswa
bathekgi
batho
bathobaso
bathong
bats
batsomi
batswadi
bay
bbc
be
bea
beach
beaufort
because
been
before
begile
begilwe
bego
begwa
behind
beile
beilwego
beke
bekeng
bekker
bekkersdal
bela
belega
belegets
belegwa
belegwe
belgium
below
beluga
belugas
beng
benin
benoni
berg
bergrivier
berlin
bethesda
bethlehem
between
bewa
beyers
bezuidenhout
bhisho
bibele
big
bile
bilego
bilione
billion
binh
bissau
bitou
bits
bizana
bja
bjale
bjalo
bjang
bjo
bjoko
bjoo
black
blinkwater
bloemfontein
bloemhof
bloomberg
blouberg
blubber
blue
bn
bo
boa
boahlodi
board
bobedi
bobeng
bochabela
bodiba
bodikela
bodits
bodulo
bodumedi
boeing
boela
boelets
boema
boemo
boemong
boetapele
boeti
boetse
bofsa
bogale
bogare
bogareng
bogela
bogobe
bogolo
bogologolo
bogos
bogosi
bohlaba
bohlabela
bohlale
bohlano
bohlatse
bohle
bohloko
bohlokwa
bohwa
boiketlo
boima
boimana
boipus
boiteko
boithaopo
boithomelo
boitshwaro
boitumelong
bojanala
bokagodimo
bokamoso
bokgabo
bokgole
bokgoni
bokoloniale
bokriste
boksburg
bolaya
boledis
bolekgolo
bolela
bolelago
bolelwa
bolelwago
boleng
bolesome
boleta
bolets
boloka
bolokwa
bolumo
bolwets
bomakgolo
bomasomehlano
bomasomenne
bomasomepedi
bomasomes
bomasomesenyane
bomasomeseswai
bomasometharo
bomasometshela
bomenets
bona
bonagala
bonagalago
bonala
bone
bong
bongaka
bongwe
bonkgetheng
bonnyane
bonolo
bonts
bonwa
book
boost
bopa
bopago
bophara
bophelo
bophelong
bophirima
bopresidente
bops
boradipolotiki
boraditaba
boraro
border
born
boroa
borutho
borwa
borwabodikela
bos
bosasa
bosenyane
bosenyi
boseswai
bosets
boshof
bosnia
boso
boss
botebong
botee
botelele
botha
bothaville
botho
bothops
botlalo
bots
botse
botshabelo
botshelela
botswana
bouta
bowhead
box
boya
boyena
brak
brakpan
brandfort
brazil
bredasdorp
breede
brenda
brenton
brian
britannica
british
brits
bronkhorstspruit
brookings
buffalo
building
built
buka
bula
bulela
bultfontein
burden
bureau
burgersdorp
burgersfort
burkina
burundi
bus
bushbuckridge
business
businesslive
but
buts
buysdorp
by
c
caledon
call
called
cambridge
cameroon
camp
camps
can
canada
cape
capital
capricorn
capture
carl
carletonville
case
castile
category
cato
causes
cdc
cederberg
cele
celow
census
center
centimetres
central
centre
century
ceres
cetacean
cetshwayo
chabane
chad
chair
chairman
chalo
charges
charlotte
chatsworth
chatu
check
chelete
chief
chile
china
chris
christiana
chronological
church
chweu
cite
citizen
city
citypress
claims
clare
clarens
clarkebury
classes
click
co
coast
coastal
code
college
collins
color
coloured
com
comins
commercial
commission
committee
commons
commonwealth
communication
communist
community
company
conference
congo
congress
constitutional
contact
content
contracts
control
convention
copy
cornelia
coronavirus
corporation
corruption
cosatu
council
councillor
countries
country
court
covid
cradock
crane
cream
criminal
crisis
cs
css
ctitle
culture
current
currently
cyril
d
da
dabi
dag
daily
dalindyebo
dam
dangor
danie
dannhauser
darling
data
date
dateheader
dates
david
davis
dawid
day
days
dc
de
dead
deal
dealesville
death
debe
december
deep
default
defghi
degree
del
delareyville
delportshoop
democratic
denel
deneysville
department
deputy
der
desemere
despatch
destinations
development
dewetsdorp
di
diamusi
diaparo
dibatsela
dibe
dibeke
dibeng
dibets
dibilione
diboko
dibokwane
dibopego
dibopiwa
dibouto
dictionary
did
didiris
die
diela
dienywa
dife
difofane
difoka
digital
dihlabeng
dihlaka
dihlakahlaka
dihlapi
dihlogo
dihlongwa
dihlopha
diiri
dijo
dikalafi
dikamano
dikaonafats
dikarolo
dikarolong
dikatse
dike
dikepe
dikete
dikgahlego
dikgato
dikgetho
dikgethong
dikgetsi
dikgofa
dikgokagano
dikgolo
dikgomo
dikgopolo
dikgwebo
dikgwedi
dikgweding
dikhamphani
dikhilograma
dikhilomithara
dikhwets
dikolo
dikologa
dikoloni
dikonteraka
dikos
dikota
dikotsi
dikutollo
dilego
dilete
dileteng
dilo
dimela
dimilione
dimithara
dimps
dinaga
dinageng
dinaka
dinako
dinala
dinamane
dingangis
dingwe
dinoka
dinokana
dinomoro
dintlha
dintlo
dints
dintwa
dinyakis
dinyakwa
diofisi
diopedi
dipaleseng
dipalo
dipalopalo
dipapadi
dipeelets
dipego
diphalane
diphapos
dipharasaete
diphedi
diphego
diphetelo
diphetho
diphetogo
diphoofolo
diphos
dipoelo
dipolante
dipolelo
dipolitiki
dipolokelo
dipolotiki
diporofense
dipots
diprofense
diprofenseng
dipudi
dira
diragala
dirago
diranta
dire
director
direga
diregile
dirile
dirilego
dirilwe
dirilwego
diripa
diris
dirwa
dirwe
dis
disease
diseases
disele
disemere
displaystyle
district
ditaba
ditatofats
diteko
ditekolo
ditheko
ditheo
ditheris
ditho
dithoto
dithunya
dithuto
ditiragalo
ditirelo
ditiris
ditiro
ditlabela
ditlamorago
ditlhahlobo
ditlhaka
ditlhaselo
ditokelo
ditokologo
ditona
ditone
ditoropo
ditoropong
dits
ditsebe
ditsebi
ditseno
ditshadi
ditshenyagalelo
ditshepedis
ditsobotla
ditumelelano
ditumelo
division
djibouti
dlamini
do
does
doi
dolphin
dong
doornkop
doornlaagte
dr
drakenstein
driefontein
du
duarte
dubai
ducati
dudu
due
dukathole
dula
dulago
duma
dumela
dumelela
dumelelane
dumelets
dumelwa
dundee
duplicates
durban
during
dutch
duts
dwarf
e
ea
each
earth
east
eastern
eba
ebe
ebeletso
ebile
ebola
economic
ed
eden
edenburg
edenville
edi
edition
edits
education
edward
ee
eelwa
efe
efela
eff
ega
ego
egypt
ehlanzeni
either
eke
ekonomi
ekurhuleni
ela
elands
elang
ele
election
electoral
elego
eleng
elets
elias
elim
elizabeth
elsevier
em
ema
emadlangeni
emakhazeni
emalahleni
emela
emergency
emets
emfuleni
emirates
emis
empa
emsie
emthanjeni
en
ena
enale
enca
encyclopedia
ene
eng
engcobo
english
enngwe
enoch
entsoeng
enyane
eo
eoh
eona
ephraim
equatorial
era
ere
eritrea
error
esego
eskom
established
establishment
estate
estcourt
eswatini
et
eta
etela
etelela
etelets
ethekwini
ethiopia
etihad
ets
etsa
etsoa
eups
europa
europe
events
every
ewa
ewn
example
excelsior
executive
explosive
extra
eya
eye
f
fa
fact
faith
falls
fana
fao
fapa
fapafapana
fapana
fapane
fapanego
fapaneng
farm
farming
fase
faso
fassie
fatima
fauresmith
fc
fe
febereware
february
federation
fedis
fedits
feela
fela
felego
felela
felelets
felelwa
felets
fenya
fepa
ferreira
feta
fetago
fetakgomo
fetang
fetela
fetelwa
fetets
fetilego
fetis
fetisisa
fetoga
fetoge
fetogile
fetola
fetos
fetots
fets
fezile
ficksburg
fighters
fihla
fihlela
fihlelela
file
filimi
filwe
filwego
fin
finds
first
fis
fish
five
fiwa
fixed
flats
fletcher
floyd
fo
fofa
foka
fokola
fokots
following
food
for
fora
force
forest
former
fort
found
foundation
four
fouriesburg
fr
frac
franc
franca
france
frances
francis
frankfort
fraser
free
freedom
frere
from
front
ft
fukushima
full
fund
furse
fuselage
g
ga
gabo
gabon
gaborone
gabotse
gae
gaes
gaetsewe
gago
gagolo
gagwe
gama
gamagara
gammogo
gana
ganedits
ganets
ganne
gants
ganyenyane
gape
gapelets
garden
gardens
gare
garib
gariep
gas
gata
gate
gatee
gatelela
gatis
gauta
gauteng
gb
gdp
ge
general
generic
george
germiston
gert
ges
get
ghana
gillitts
gini
give
gives
giyani
glen
global
go
goba
gobane
gobotse
godilego
godimo
godira
godis
goedgevonden
gofeta
gogolo
gola
golegwa
golo
gomme
gona
gore
gotee
gots
gov
govan
government
goya
gqabi
graaff
great
greater
green
greenland
gregorian
grey
greytown
groblersdal
groot
group
groups
grove
guardian
guide
guinea
gupta
guptas
gwa
gwala
gwe
gwede
h
ha
haba
habats
habeng
had
hae
haena
haga
hago
hall
hamburg
hamlet
hammarskjo
hamphani
handbook
hani
hanover
hansen
hantam
harding
hare
harrismith
harry
hartbeespoort
hartebeespoort
has
have
hawks
hazyview
he
head
header
healdtown
health
hears
heidelberg
heiko
heilbron
heledipharephare
helena
helete
helo
help
hema
hendrina
hene
hennenman
hepatitis
here
heritage
hermanus
hertzogville
herzegovina
hessequa
hi
high
highway
hika
hilafats
hill
hillcrest
hills
him
hipi
hirelets
his
hisi
histori
historing
history
hits
hiv
hlabisa
hlakola
hlalos
hlaloswa
hlama
hlanganani
hlano
hlaola
hlaolwa
hlapa
hlapi
hlatlama
hlatse
hlatsela
hlatsets
hleng
hlogo
hlohleledits
hlohlelets
hloka
hloko
hlokofets
hlokomela
hlola
hlolwa
hloma
hlomilwe
hlongwa
hlopha
hlots
hluhluwe
hlweka
hlwekis
ho
hobhouse
hoedspruit
hoganets
hogsback
hologo
home
homis
hona
hoop
hoopstad
hope
hore
hos
hots
house
houses
housing
how
however
html
http
https
hudugela
human
humanega
humanegago
humpback
hupamabaka
hupamabakeng
hupamaka
hupets
hwa
hwedits
hwets
hwilego
i
iaea
iboa
ice
idol
idols
ifp
ignored
ii
ikana
ikemets
ikemis
ikgwedi
ile
ilego
ilembe
ileng
impala
impendle
in
inc
including
income
independent
index
india
indian
industrial
indwe
infection
infectious
infinitive
information
ing
inquiry
ins
insag
institute
institution
instrument
intasteri
interlingue
international
internet
interview
intia
into
intsika
invalid
inxuba
inya
inyo
iol
ipa
ipilets
iprage
ipshina
ireland
irelets
iri
is
isaac
isbn
isipingo
island
iso
israel
issn
it
ita
ithekgile
ithuta
ithutela
itis
itlhagis
itokis
itokolla
its
iucn
ivoire
ivory
iwc
ix
ixopo
j
ja
jacob
jacobsdal
jagersfontein
jago
james
jamestown
jan
janaware
jane
jansenville
january
japane
jason
jb
jeffreys
jeremane
jessica
jessie
jesu
joale
joalo
joaloka
joalokaha
job
joe
johannesburg
john
johns
jonas
journal
jozini
jpg
js
judicial
julae
julius
july
june
justice
jwa
k
ka
kabago
kabinete
kabineteng
kadimo
kae
kagisano
kagiso
kago
kahlolo
kai
kakarets
kakaretso
kalafi
kalafo
kamano
kamiesberg
kamma
kamogelo
kamoka
kamora
kamorago
kanana
kane
kang
kannaland
kaonafats
kaone
kapa
karabelo
karolo
karolong
karoo
katanela
katlego
katolos
katse
kaunda
ke
kei
kemedi
kempton
kenela
kenilworth
kenneth
kenti
kenya
kereke
kestell
keywords
kgaets
kgahlanong
kgahlego
kgale
kgalema
kganets
kgaots
kgapelets
kgarebe
kgatelelo
kgatelopele
kgathile
kgati
kgatlhanong
kgato
kgaufsi
kgauswi
kgetha
kgethegilego
kgethile
kgethilwe
kgethilwego
kgetho
kgethollo
kgethologanyo
kgethwa
kgethwe
kgetlengrivier
kgobokets
kgodis
kgokagano
kgole
kgolegong
kgolo
kgolokgolo
kgoma
kgomo
kgona
kgonagalago
kgonagalo
kgone
kgonthis
kgonts
kgopela
kgopelo
kgopelwa
kgopets
kgopolo
kgoro
kgorong
kgorotsheko
kgos
kgosi
kgotla
kgwagagolo
kgwagakete
kgwebis
kgwebo
kgwedi
kgwele
khama
khamphani
khanye
khayamnandi
kheis
khoi
kholo
khomis
khonferenseng
khonferentshe
khonferentsheng
khuduthamaga
khuets
khuts
khwezi
kile
kimberley
king
kingdom
kirkwood
kitima
kleinbaai
klerksdorp
kloof
km
know
known
knysna
ko
kobong
kodwa
koffiefontein
kokets
kokstad
kolobets
komiti
komitiphethis
konaona
konteraka
kontinente
kontinenteng
kopana
kopanego
kopaneng
kopano
kopanong
kopanywa
kopelo
koppies
korea
kosmos
koster
kotane
kotikoti
kotsi
kotsing
kou
kouga
krill
kriste
kroonstad
kruger
krugersdorp
kruiper
ks
ku
kua
kubu
kudu
kudukudu
kuruman
kwa
kwadukuza
kwagalago
kwazulu
kwes
l
la
labobedi
labohlano
labone
laboraro
ladismith
lady
ladybrand
ladysmith
laedits
laets
lahlegelwa
lahlela
laingsburg
lake
lalela
lamola
lancet
land
langa
langeberg
language
laola
lapa
lapeng
last
latela
latelago
latelana
latelwa
latin
latofadits
latofats
latola
law
lawn
lb
ld
le
leader
leago
league
leano
lebadi
lebaka
lebana
lebane
lebanego
lebatong
lebelela
lebelelwa
lebelets
lebelo
lebelong
lebis
lebits
lebitso
leboa
lebopong
lebowa
lee
leeudoringstad
lefa
lefapha
lefapheng
lefas
lefasana
lefasaneng
lefase
lefaseng
lefats
lefelo
lefelong
lefsa
lega
legae
legato
legatong
lego
legodimo
legodimong
legolo
lehlakoreng
lehono
lehu
lehumo
lehwelere
leihlo
leina
leis
leishmaniasis
lejweleputswa
leka
lekala
lekana
lekanago
lekanego
lekanyedits
lekga
lekgolo
lekgolong
lekgotla
lekola
lekwa
lelapa
leleme
lelokelelo
leloko
lemoga
lemogegago
lemogwa
lena
lenaneo
lenaneong
leng
lengwalo
lengwe
lents
lentsoe
lenyalo
leo
leone
leoto
lepelle
lephaka
lephalale
lephegwana
lephera
leprosy
lerata
leratadima
lerato
leruarua
lerumo
les
lesolo
lesome
lesometee
lesotho
leswa
leswika
leswikana
leswiswi
letaba
letadi
letelwa
letets
letlakala
letlalo
letlalong
letlapa
letlase
letlhaka
letlotlo
letona
lets
letsemeng
letsogo
letsogong
letswalo
leuba
lewatle
lewatleng
lewedi
li
libakeng
liberia
libya
lichtenburg
life
lifofane
lii
lik
likarolo
like
lime
limilione
limited
limpopo
linaheng
lindley
line
ling
lingua
link
linked
links
lipapali
list
lits
little
lliki
llm
lo
local
located
location
loga
lokis
lokolla
lokollwa
lokolots
lona
london
longwa
lonmin
louis
lozano
luckhoff
lufthansa
lutheran
luthuli
lwa
lwants
lwela
lyse
m
ma
maafrika
maaka
maano
maanomabe
maatla
mabadi
mabaka
mabakeng
mabapi
mabedi
mabopane
maburu
mabuza
machaba
machine
maclear
madagascar
made
madi
madibeng
maemo
maemong
mafahla
mafasana
mafase
mafelelo
mafelelong
mafelo
mafelong
mafolofolo
mafube
magaeng
magapu
magareng
magashule
magato
magodimong
magolo
mahikeng
mahlabisadihlong
mahlakore
mahlakoreng
mahlano
mahlo
mahu
maikarabelo
maikemis
mail
main
maina
maindia
maint
maitekelo
maiteko
maitemogelo
maitshwaro
major
makala
makana
make
makga
makgaung
makgoba
makgolo
makgolohlano
makgolonne
makgolopedi
makgolos
makgolosenyane
makgoloseswai
makgolotharo
makgolotshela
makgonthe
makgowa
makhado
makhuduthamaga
makhura
makomonisi
mala
malapa
malaria
malawi
maleba
malema
maleme
mali
malmesbury
maloko
malome
maluti
malwets
mamelodi
mamusa
man
manaka
mananeo
mandela
mane
mang
mangaung
mangwalo
mangwe
mannya
mannyane
mantashe
manthole
mantle
mants
mantsopa
many
manyenyane
manzana
maoto
map
maphelo
maphodisa
maphoto
maquassi
marapo
mararo
marble
marburg
march
mare
maria
marianne
marikana
mark
marks
marloth
marrian
maruarua
marula
maruleng
mary
mas
masepala
mashatile
masilonyana
masome
masomehlano
masomenne
masomepedi
masomes
masomesenyane
masomeseswai
masometharo
masometshela
maswao
maswi
matala
matatiele
mathata
mathbf
mather
mathomo
mathomong
matjhabeng
matla
matlafats
matlakala
matlala
matlotlo
mats
matsogo
matswalo
matumba
matzikama
mauritania
mauritius
maverick
mawande
mawatle
mawatleng
may
mayors
mbalula
mbeki
mbhashe
mbhazima
mbombela
mbuzini
mckinsey
mdantsane
me
means
mebala
mebedi
mebus
mec
media
medical
medicine
mediro
meepo
meer
meetse
meetseng
megolo
mehla
mehlala
mehlano
mehlape
mehlare
mehleng
mehuta
mei
mekgatlo
mekgwa
melao
melaotshepedis
melato
melawana
mele
mellwane
meloko
melomo
member
memel
menang
mengwaga
mengwageng
mengwe
meno
menola
mentor
ments
menwana
mephato
merafong
meraro
merero
mes
methopo
metropolitan
mets
metse
metsimaholo
mexico
mgcawu
mgijima
mhlaba
mhlongo
mhlontlo
middelburg
middledrift
midrand
milione
military
million
mine
mining
minister
mitha
mitochondrial
mk
mkhize
mkhondo
mma
mmagwe
mmala
mmalwa
mmasepala
mme
mmele
mmeleng
mmereko
mmino
mmogo
mmole
mmoleledi
mmus
mmusogae
mnquma
mo
moahlodi
moakanyets
modimo
modimolle
modiri
modiris
modiro
modjadjiskloof
modulasetulo
module
modumo
moemedi
moetapele
mofenyi
mofsa
mofutsanyana
mogalakwena
mogale
moganets
mogoeng
mogolo
mogwase
mohlagare
mohlagase
mohlala
mohlare
mohlomongwe
mohokare
mohola
mohuta
mohwibidu
moiloa
moka
mokgahlo
mokgatlo
mokgethwa
mokgoro
mokgwa
mokhanselara
mokhatlo
mokibelo
mokokotlo
mokonyane
mokopane
mokori
mokoti
mola
molao
molaodi
molaong
molaotheo
molato
molefe
moleketi
molekong
molema
molomo
molopo
molwela
mompati
mona
monagano
monetary
moneyweb
mong
mongodipharephare
mongoli
mongwadi
mongwaledi
mongwaledipharephare
mongwe
monna
mono
month
moo
mooi
mookgophong
mopani
mophenkgis
mopitlo
mopresedente
mopresidente
moputso
moqhaka
morabe
morafe
morago
moraloki
moraloko
moranang
more
morena
morero
moretele
morgenzon
moriri
mormon
morocco
moroka
morolong
moroto
mortality
morula
morutis
morwa
mos
mosadi
mosegamanye
mosegare
mosela
moses
moso
mossel
most
mothalo
motheo
motheong
motho
mothomoso
mothopo
motlanthe
motlats
mots
motsana
motse
motseng
motsesetoropo
motsheganong
motshekga
motsoaledi
mount
mouth
movement
mowe
moya
moyane
mozambique
mp
mpa
mpe
mphato
mps
mpsha
mpshafats
mpumalanga
msukaligwa
mthatha
mtn
mtubatuba
mtunzini
multiple
municipal
municipalities
municipality
musina
must
mutale
mya
myeni
mysticete
mysticetes
mzamomhle
n
na
naga
nagana
naganwa
nageng
nago
nako
nakong
nakwana
nala
nale
naledi
nalego
nama
namahadi
namakwa
namane
name
named
namela
names
namibia
nang
narwhals
nasa
natal
natala
natasha
national
nations
nature
naude
nd
ndlambe
ne
nea
near
nec
neglected
nelson
nelspruit
nene
neng
nephi
nepo
net
netefats
netherlands
new
newcastle
news
newton
next
ng
ngaka
ngangis
ngata
ngoe
ngoyi
ngqushwa
ngwadis
ngwaga
ngwagakete
ngwagakgolo
ngwagamolele
ngwagasome
ngwageng
ngwagengkete
ngwagengkgolo
ngwagengsome
ngwakakete
ngwala
ngwalwa
ngwana
ngwathe
ngwatobos
nhlanhla
nigel
niger
nigeria
nka
nkabinde
nkandla
nkang
nkangala
nketoana
nkga
nkgetheng
nkgokolo
nkomazi
nkonkobe
nkonyeni
nkosazana
nkosi
nkumpi
nna
nne
nnete
nngwe
nnos
nnoto
nnyane
no
nobel
nofemere
noka
nokeng
nolofats
nomoro
nomvula
nongoma
nonyana
north
northern
norway
norwegian
nos
not
note
nova
november
now
npa
nquthu
ntle
ntlo
ntlong
ntombela
nts
ntse
ntsho
ntwa
nuclear
num
number
nutrition
nwa
nwala
nyaka
nyakago
nyake
nyakega
nyakegago
nyakile
nyakilego
nyakis
nyalana
nyandeni
nyane
nyants
nyats
nyets
nyuklea
nywa
nywaga
nywageng
nzo
o
oa
oba
obama
observations
observatory
ocean
oceania
october
odendaalsrus
odontocete
of
ofe
off
office
official
ogae
ogg
ohle
oka
okets
old
ole
olifants
olifantshoek
olos
oma
omago
ome
omepedi
omi
omile
omilego
omis
omo
omong
on
ona
onalego
onchocerciasis
one
ong
online
only
ontario
op
opela
opele
open
ophondweni
or
orange
oranjeville
orca
order
orense
org
organisation
organization
original
orinoco
orkney
oro
oselegae
other
otto
oudtshoorn
out
outer
outside
over
overberg
overstrand
owned
oxford
p
paarl
pacific
page
pages
paid
pakistan
pakteria
palamente
palelwa
palo
palogare
palomoka
pan
papadi
papali
paradise
parameter
paris
park
part
party
parys
patensie
paternoster
paterson
paul
pdf
peace
peakanyo
peba
pedi
pego
pejana
pela
pele
peleng
peli
pella
peninsula
pennsylvania
people
peopleareknowledge
period
person
peter
petrus
peu
phadimago
phadis
phagamego
phahameng
phala
phalaborwa
phapano
phapos
phatlalala
phatlalats
phatlalets
phato
phekolo
phela
phelago
phenkgis
phepo
phepompe
pherekgong
phetelo
phetets
phetha
phethagats
phetogo
phetolelo
phetos
phihlelelo
philadelphia
philippolis
phis
pho
phofung
phokots
pholisi
pholos
phoofolo
phos
php
phumelela
phuphu
phupu
phuthaditjhaba
phuthego
phuti
pic
piet
pietermaritzburg
piketberg
pilione
pinetown
pits
pixley
place
places
platinum
pleat
plessis
plettenberg
pmid
po
point
poland
polante
polanteng
polao
polasa
poledis
polelo
police
political
politics
politikus
polokego
polokwane
polotiki
pono
ponto
ponts
pop
population
poraebete
porofense
porofensing
porpoise
port
portal
portugal
poso
post
potchefstroom
potego
potential
pots
potsdam
pound
power
pp
praebete
presidency
president
presidente
press
pressreader
pretoria
primary
prime
prince
prize
production
profense
profenseng
profile
programme
project
projeke
protest
protine
prots
provided
province
provincial
ps
public
publishers
puku
pukung
puo
pus
pwv
pygmy
q
qalong
qantas
queenstown
qunu
r
ra
rabies
race
radipolotiki
railway
raka
rakgwebo
rakwa
ralala
raloka
ralokwa
ramaphosa
ramokgopa
ramotshere
rand
randfontein
range
rankuwa
ranta
raper
raraganego
rata
ratago
rate
rathoke
ray
raymond
re
rea
reagan
realo
rebecca
ref
refs
region
regional
regulatory
reinet
reitz
reka
rekis
related
rema
rena
reneke
repabliki
report
republic
research
reserve
residents
resort
rest
retrieved
return
review
rhodes
richards
richmond
richtersveld
ridge
riebeek
rietfontein
right
rights
rile
river
riverside
ro
road
roads
robala
robbins
rock
rocks
rola
role
roma
romela
romelwa
ronald
rotogela
route
roux
rouxville
rulagants
rulaganya
ruruga
russia
rust
rustenburg
ruta
ruth
rwala
rwanda
s
sa
saa
sabata
sabc
sabie
sacp
sacu
sadc
safety
sahara
saharan
sahistory
saint
sakhisizwe
saldanha
salt
same
sandton
sanger
sangeres
sanitation
sarah
sars
saso
sasolburg
says
schistosomiasis
school
schools
schweizer
science
se
sea
seabe
seat
sebaka
sebakeng
sebeletsa
sebelisa
sebelisoa
sebete
sebetsang
sebjalebjale
seboka
sebokeng
seboko
sebopego
seburu
sechele
second
secondary
section
security
sedibeng
sediris
see
seemo
seets
sefahlego
sefe
sefofane
sefoka
sefora
segagabi
segerika
sego
segolo
segomotsi
segonyana
sehla
sehlakahlaka
sehleng
sehlodi
sehlogo
sehlopha
seisimane
sekepe
sekete
sekgoba
sekhukhune
sekis
sekolo
sekolong
sekriste
selegae
selekane
selemo
selete
seleteng
selo
seme
semmus
semorafe
sena
senegal
sengwalwa
sengwe
sennyane
senqu
senya
senyane
seo
seopedi
sepedi
sepedis
sepela
sepelelana
sepets
sephetho
sephiri
sephiring
sepolotiki
september
seretse
seriti
serolane
service
services
ses
sesa
sesotho
seswa
seswai
seswants
seswati
set
setebele
setemere
setensele
setereke
setho
sethosa
setlogo
sets
setsebi
setsonga
setsoto
setswana
settlement
setulo
setulong
seven
sewelo
seychelles
seymour
sezulu
shanduka
sheet
shepstone
shilling
shilowa
shingwedzi
sibande
side
sierra
simon
since
singapore
singh
sir
sisulu
site
situated
siu
six
siyancuma
siyathemba
sizwe
skeerpoort
skrywer
slovo
small
smithfield
so
sola
somalia
somerset
sona
sonar
sontaga
soria
source
south
southern
soweto
sp
spain
special
species
springbok
springs
squid
ssa
st
stadensrus
stalingrad
standard
standerton
star
state
states
station
statistics
status
steelpoort
stella
stellenbosch
step
steve
steyn
steynsburg
steynsrus
still
story
strandfontein
street
stub
students
study
su
sub
suburb
such
sudan
suggested
suid
sum
summit
sunday
survives
swana
swanago
swane
swanela
swanelago
swanets
swants
swara
swartland
swartruggens
swarwa
swellendam
swere
swerwe
swerwego
swikiri
switzerland
sworn
system
systematic
t
taba
table
taelo
taerea
taets
tag
takes
tala
tambo
tanzania
taolo
tatagwe
tate
tatelano
tatso
tau
taung
taxonomy
tb
te
tebalelo
technology
tee
teemane
tekanyets
tekanyo
tekatekano
telele
tema
tembeka
tembisa
temo
temogo
temokrasi
template
teng
testimony
text
th
thaba
thabazimbi
thabo
than
thapo
tharo
that
thata
thato
the
theewaterskloof
theilwe
theilwego
their
thekga
thekgile
thekgo
thekgwa
theknolots
theko
them
thembelihle
thembisile
then
thepa
there
these
theunissen
they
thibela
thibelo
thibelwa
things
this
thohoyandou
thoilete
thoko
thoma
thomas
thomile
thomilego
thomilwe
thopa
thopile
thops
thornhill
thoto
three
through
thulaganyo
thulamela
thuma
thus
thutafase
thutamahlale
thutaphedi
thutlwa
thuto
thwala
thwalwa
thwe
thwego
thwets
thwii
tiilego
tiis
tikologo
tikologong
tikwana
time
times
timeslive
tiragalo
tirelo
tiris
tiro
title
tla
tlago
tlais
tlalelets
tlase
tle
tlets
tlhabollo
tlhago
tlhahlo
tlhaloso
tlhamego
tlhano
tlhokego
tlhokomelo
tlholo
tlhompho
tlhwekis
tlile
tlis
tlo
tloga
tlogago
tlogela
tlogelwa
tloha
tlola
tlos
tlou
tlwaelega
tlwaelegile
tlwaelegilego
tlwaelo
tlwaets
to
today
togo
toka
tokelo
tokologo
tom
tona
tonakgolo
tonki
tony
tonyago
too
top
toropo
toropokgolo
toropokgolokgolo
toropong
tourism
town
township
townships
tr
tracy
trade
train
transnet
transvaal
travel
treatment
trichardt
trillian
trompsburg
tropical
trump
trust
ts
tsa
tsamaea
tsamaeang
tsamaiso
tsantsabane
tse
tseba
tsebagats
tsebe
tsebega
tsebegago
tsebis
tsebja
tsebjago
tsebje
tsebo
tsejoa
tsela
tseleng
tsena
tsene
tsenela
tsenelets
tsenya
tseo
tsepame
tsetse
tshadi
tshedimos
tshekatsheko
tsheko
tshela
tshelelago
tshenyo
tshepedis
tshepo
tsheretshere
tshiame
tshwane
tshwete
tsoang
tsoga
tsogo
tsoma
tsongwa
tsos
tswa
tswadis
tswaing
tswala
tswalela
tswalets
tswelopele
tu
tubatse
tugela
tuma
tumelelano
tumelelo
tumelo
tumilego
tumis
tunisia
turfloop
turkey
tutuets
tweeling
tweespruit
twitter
two
tzaneen
u
ubuhlebezwe
ubuntu
udf
uganda
ugu
uitenhage
uk
ukraine
ulundi
umdoni
umgungundlovu
umhlabuyalingana
umhlanga
umis
umjindi
umkhanyakude
umkhonto
umsobomvu
umzimkhulu
umzimvubu
umzinyathi
umzumbe
un
under
union
unions
unit
united
university
unknown
up
upa
upago
update
upington
upo
upologo
url
us
usa
usd
use
used
using
ussr
uthis
uthukela
utolots
uwo
v
vaal
vaalbank
valley
van
vanderbijlpark
ventersburg
ventersdorp
venterstad
vereeniging
verkeerdevlei
verulam
very
vhembe
vibes
vicente
victor
victoria
vietnam
view
viljoensdrif
viljoenskroon
village
villiers
vir
virginia
virus
viruses
vol
vosloorus
vrede
vredefort
vryburg
vryheid
vulamehlo
w
wa
wago
walter
wana
war
warden
was
washington
watch
water
waterberg
waterval
watson
wayback
we
web
website
weekday
wego
wela
welago
welapele
wele
weledits
welela
welelago
welets
welkom
wepener
were
wesselsbron
west
western
westonaria
wets
weu
whale
what
when
which
while
white
whitney
who
wiki
wikimedia
wikipedia
will
william
williams
winburg
winelands
winnie
witbank
with
without
witwatersrand
witzenberg
wo
wolmaransstad
wolseley
women
wona
woo
worcester
work
world
would
www
x
xhariep
xlv
y
ya
yaba
yago
ye
year
years
yellow
yena
yeno
yeo
yethemba
yethu
yo
yona
yoo
york
you
youth
yunibesithi
yunibesithing
yuropa
z
za
zambia
zastron
zealand
zeerust
zf
zika
zille
zimbabwe
zizi
zondo
zululand
zuma
zweli
{
|
}
£
§
°
²
·
×
łobez
ˈ
ˌ
ː
̀
́
̂
̃
̄
̈
̌
̧
̭
β
и
​
–
—
‘
’
“
”
„
†
′
″
⁄
↔
↷
≈
③
④
⑦
⺀
⺄
⺆
⺈
⺊
⺌
⺕
⺝
⺸
⺼
⿰
⿱
⿲
⿳
⿴
⿵
⿶
⿷
⿸
⿹
⿺
⿻
〢
コ
ユ
㇁
㇂
㇄
㇇
㇈
㇉
㇓
㐁
㐄
㐅
㐌
㐫
㐬
㐭
㐮
㐱
㑒
㒵
㒸
㒼
㓁
㓞
㔾
㕛
㕣
㖾
㘝
㚅
㚇
㚔
㚘
㝉
㝡
㝴
㝵
㞋
㞢
㞷
㠩
㠭
㠯
㡀
㡭
㡿
㢲
㢴
㣇
㣺
㥯
㪅
㫄
㫐
㫒
㫺
㬅
㬎
㬥
㬰
㲋
㳄
㷠
㸒
㸚
㸦
㼌
㼲
㽞
㿟
䀠
䂞
䍃
䏍
䒑
䖍
䖒
䖝
䖵
䙴
䚻
䜌
䝿
䡛
䧹
䪞
一
丁
丂
七
丄
丅
丆
万
丈
三
上
下
丌
不
与
丏
丐
丑
专
且
丕
世
丘
丙
业
东
丞
丢
丣
两
严
並
丨
丩
个
丫
丬
中
丮
丰
丱
串
丵
丶
丷
丸
丹
为
主
丽
丿
乀
乂
乃
久
乆
乇
么
义
之
乌
乍
乎
乏
乐
乑
乔
乖
乗
乘
乙
乚
乛
乜
九
乞
也
习
乡
乳
乾
亀
亅
了
亇
予
争
事
二
亍
于
亏
亐
云
互
亓
五
井
亘
亚
亜
亞
亟
亠
亡
亢
交
亥
亦
产
亨
亩
享
京
亭
亮
亯
亰
亲
亳
亶
亷
人
亻
亼
亾
仁
今
介
仌
从
仐
仑
仒
仓
仕
他
付
仝
代
令
以
任
企
伊
伏
伐
休
会
伯
但
位
何
佘
余
作
佥
使
來
侈
侌
侖
侯
侵
便
保
俞
信
修
倉
倍
候
倠
備
僉
僕
儿
兀
允
兂
元
兄
充
兆
兇
先
光
兊
克
兌
免
兑
兒
兓
兔
党
兜
兟
入
全
兩
兪
八
公
六
兮
兰
共
关
兵
其
具
典
兹
兼
冀
冂
冃
冄
内
冈
冉
冊
冋
册
再
冎
冏
冐
冒
冓
冖
冗
冘
军
农
冝
冡
冥
冫
冬
冷
几
凡
凢
凵
凶
凷
凸
凹
出
函
凾
刀
刁
刂
刃
刄
刅
分
切
刍
刑
刕
刖
列
刘
则
初
別
利
别
到
制
刺
則
削
剌
前
剡
剽
劉
力
功
加
劦
助
劫
劳
劵
勃
勇
勉
勒
動
務
勞
勤
勹
勺
勻
勾
勿
匀
匂
包
匆
匈
匊
匋
匍
匕
化
北
匚
匝
匡
匪
匱
匸
匹
区
医
匽
匿
區
十
卂
千
卄
卅
卆
升
午
卉
半
卌
华
卑
卒
卓
单
卖
南
卜
卝
卞
占
卡
卢
卣
卤
卦
卩
卪
卬
卯
印
危
即
却
卵
卷
卸
卻
厂
厃
厄
历
厈
厉
厌
厓
厘
厚
原
厤
厥
厨
厭
厲
厶
厷
厸
去
厼
厽
叀
参
參
叅
又
叉
及
友
双
反
叐
发
叒
叔
叕
取
受
叚
叜
叟
口
古
句
另
叩
只
召
可
台
叱
史
右
叵
号
司
叹
吂
各
吅
合
吉
吊
吋
同
名
后
吏
向
吕
君
吝
吞
否
含
启
吳
吴
吹
吾
呂
呆
呈
告
员
呙
周
命
咅
和
咎
咠
咢
咨
咸
咼
哀
品
哉
員
哥
哲
唐
商
啇
問
啚
啬
啻
善
喜
喬
單
喿
嗇
噩
嚴
囊
囗
囘
囙
囚
四
回
囟
因
囧
囬
困
囱
囷
固
国
圂
圅
國
圍
圓
土
圡
圣
圥
在
圭
地
圶
圼
坐
坒
坚
坴
垂
垔
垚
埀
埋
埶
執
基
堂
堅
堆
堇
堯
塞
墨
壘
士
壬
壯
声
壳
壴
壹
壺
壽
夂
处
夅
夆
备
夊
夋
夌
复
夏
夒
夕
外
夗
夘
多
夜
夢
大
夨
天
太
夫
夬
夭
央
失
夲
头
夷
夸
夹
夻
夾
奂
奄
奇
奈
奉
奎
奏
奐
契
奓
奔
奚
奞
奠
奢
奥
奭
女
奴
奻
好
如
妄
妙
妟
妥
妻
妾
姑
委
姜
威
娄
婁
婴
嬰
嬴
子
孑
孔
孕
孖
字
存
孚
孛
孝
孟
季
孤
学
孫
孱
學
宀
宁
宂
它
宅
宇
守
安
宋
完
宏
宓
宗
官
定
宛
宜
宝
客
宣
室
宮
宰
害
家
容
宾
宿
寄
寅
密
富
寒
察
寧
審
寫
寬
寮
寸
对
寺
寻
寽
対
寿
封
尃
射
将
將
專
尉
尊
尋
尌
對
小
少
尒
尓
尔
尖
尗
尚
尞
尢
尣
尤
尧
尨
尭
就
尸
尹
尺
尻
尼
尽
尾
尿
局
居
屈
屋
屎
屏
屑
展
屖
屚
属
屠
屡
屬
屮
屯
屰
山
屵
屾
岁
岂
岑
岡
岩
岳
岸
峯
島
崇
崑
崔
崖
崙
崩
嵬
嶲
巂
巛
川
州
巟
巠
巢
巤
工
左
巧
巨
巩
巫
差
己
已
巳
巴
巷
巸
巽
巾
巿
帀
市
布
希
帚
帛
帝
带
師
席
帶
常
干
平
年
幵
并
幷
幸
幺
幻
幼
幽
幾
广
広
庄
床
底
店
庚
府
度
庫
庭
庶
康
庸
廉
廌
廛
廣
廩
廴
延
廷
建
廾
廿
开
弁
弃
弄
弇
弋
式
弓
弔
引
弗
弘
弜
弟
弥
弦
弱
張
強
强
彊
彌
彎
彐
彑
当
彔
录
彖
彗
彡
形
彥
彦
彧
彭
彳
役
彼
往
待
律
徒
得
徙
從
復
微
徵
心
忄
必
忌
忍
志
忝
忠
忩
快
念
忽
忿
思
怠
急
怱
恆
恒
恩
恭
息
悉
患
悤
悲
悶
惠
惡
惢
愁
愈
意
愛
感
慈
慧
慮
憂
憲
應
戀
戈
戉
戊
戋
戌
戍
戎
成
我
戒
戔
或
戚
戠
戢
截
戲
戶
户
戹
戼
戾
房
所
扁
扇
手
扌
才
打
托
执
承
折
拉
拜
拿
掌
推
提
摩
支
攴
攵
收
攸
改
放
政
敄
敏
敕
敖
敗
敝
敞
敢
散
敦
敫
敬
数
敷
數
斂
文
斉
斊
斗
斤
斥
斩
斬
斯
新
方
於
施
斿
旁
旋
族
无
旡
既
旣
日
旦
旧
旨
早
旬
旱
旲
时
旾
昆
昇
昌
昍
明
昏
易
昔
昗
昜
星
春
昬
是
昱
昴
昷
時
晃
晋
晏
普
景
晶
智
暑
暴
曇
曩
曰
曲
曳
更
曷
書
曹
曼
曾
替
最
朁
會
月
有
朋
服
朔
朕
朗
望
朝
木
朩
未
末
本
札
朮
术
朱
朵
朶
朿
杀
杏
杜
束
条
来
東
杲
杳
松
析
林
枚
果
枝
枲
枼
某
柔
查
柬
柰
柴
栗
桀
桑
桼
梁
條
梟
梨
棘
棠
棥
森
楚
業
楽
榮
樂
樊
欠
次
欣
欮
欲
欶
欽
款
歆
歇
歛
止
正
此
步
武
歨
歪
歮
歯
歰
歲
歴
歷
歸
歹
歺
死
殳
段
殷
殸
殹
殺
殻
殿
毋
毌
母
每
毒
比
毕
毚
毛
毳
氏
氐
民
气
氣
水
氵
氶
氷
永
氺
氾
求
汝
汞
江
沃
沓
沙
沝
泉
法
波
泣
泥
泰
洛
洪
活
派
流
浦
浪
浮
淡
淮
清
渚
渠
湯
滿
漸
火
灬
灭
灰
灵
灷
炅
炎
炏
炗
炙
炭
為
烈
烏
烝
焉
無
焦
焱
然
煞
熊
熏
燕
營
燮
爪
爫
爭
爯
爰
爱
爲
爵
父
爻
爽
爾
爿
片
牙
牚
牛
牜
牟
牢
牧
牪
牽
犀
犬
犭
犮
狂
狄
狊
独
狺
猋
猒
猪
献
獻
玄
率
玉
王
玟
玨
珎
班
琴
瑟
瑩
瓜
瓦
甘
甚
生
産
用
甫
甬
田
由
甲
申
电
甶
男
甸
甹
画
甾
畀
界
畏
畐
留
畜
畟
畢
畧
畨
番
畫
異
畱
當
畺
畾
疊
疋
疌
疑
疒
疾
癶
癸
癹
登
發
白
百
皀
皃
的
皆
皇
皋
皐
皕
皮
皷
皿
盃
盆
盇
盈
益
盍
盎
监
盒
盖
盛
盡
監
盤
盧
目
直
相
盾
省
眇
眉
看
眔
眞
真
眷
眼
眾
着
睘
睪
睿
瞏
瞢
瞿
矍
矛
矞
矢
矣
知
矦
短
石
破
碎
磊
磨
示
礻
礼
祟
票
祭
禀
禁
禸
禹
禺
离
禽
禾
禿
秀
秃
秉
秋
科
秝
秦
移
稟
穀
穌
穴
究
穹
空
穿
突
窄
窒
立
竒
竜
竝
竟
章
童
竹
笑
笠
筆
等
答
箕
算
箴
節
篤
篭
米
粉
粛
粟
粤
粦
粲
糞
糸
糹
系
約
納
素
索
紫
累
細
絜
絫
絲
維
綿
縣
繇
纍
纟
缶
网
罒
罔
罕
罗
罙
罡
罢
罪
署
罷
羅
羊
羌
羍
美
羔
羕
羗
羞
羡
羣
群
義
羲
羸
羽
翁
翏
習
翕
翟
翠
翼
老
耂
考
者
耆
而
耎
耑
耒
耳
耴
耶
耷
聂
聊
聖
聚
聶
聿
肀
肃
肅
肉
肖
肙
肥
肩
肯
育
肴
胃
背
胡
胥
能
脊
脩
膚
臣
臤
臧
自
臬
臭
臯
臱
至
致
臺
臼
臽
臾
臿
舀
舂
舄
與
興
舉
舌
舍
舛
舜
舞
舟
般
艮
良
色
艸
艹
艾
芒
芔
芬
芮
花
芳
芺
芻
苔
苗
苟
若
苦
英
茶
茸
荅
草
荒
荣
荼
莆
莧
莫
莽
菆
菊
菐
華
萬
落
葉
著
葛
董
葵
蒙
蒦
蒼
蓋
蓬
蓺
蔑
蔡
蕉
蕭
薄
薛
薦
薰
藍
藏
藥
蘭
虍
虎
虐
虒
虔
處
虖
虗
虘
虚
虛
虜
虞
虫
虽
蚤
蚩
蜀
蜜
蟲
蠡
血
行
衍
衛
衣
衤
表
衮
衰
袁
袞
褭
褱
襄
襾
西
覀
要
覃
見
規
覓
覧
親
覽
见
角
解
言
訁
訇
計
詹
誩
諸
讠
谷
豆
豈
豊
豐
豕
豖
豙
象
豦
豩
豪
豸
貇
貝
貞
貟
負
貢
貧
貪
貫
責
貳
貴
買
費
賁
資
賈
賏
賓
賔
賛
賞
賢
賣
質
賴
贊
贝
贡
责
贯
贲
贵
赖
赞
赤
赦
走
越
足
路
蹇
身
躬
車
軍
軎
軟
輦
车
辛
辜
辟
辥
辰
辱
農
辵
辶
边
达
过
近
连
迷
追
退
送
逆
逐
通
速
造
逢
連
逮
進
遀
遂
過
道
達
遣
適
遷
遺
邊
邑
邕
那
邦
邪
郎
部
郭
都
鄉
酉
酋
配
酓
釆
采
里
重
野
量
金
釒
錢
钅
長
镸
长
門
閃
閉
開
閏
閑
閒
間
閔
閵
閻
闌
门
间
闷
阑
阜
阝
阿
降
陳
隆
隊
隋
隡
隨
隱
隶
隹
隺
隻
隼
隽
难
雀
雁
集
雈
雋
雍
雐
雔
雙
雚
雜
雝
離
難
雨
雩
雪
雲
零
雷
需
霍
霜
霝
霞
霸
靈
靑
青
非
靡
面
靣
革
韋
韦
韭
韯
韱
音
頁
頃
項
須
頗
頡
頻
顛
页
風
风
飛
飞
食
飠
養
饣
首
香
馬
馮
駦
马
骨
高
髟
鬥
鬯
鬲
鬼
魚
魯
鮮
鱼
鲁
鳥
鳳
鸟
鹵
鹿
麃
麗
麥
麦
麻
黃
黄
黍
黎
黑
黒
黨
黹
黽
黾
鼎
鼓
鼠
鼻
齊
齋
齐
齒
齿
龍
龙
龜
龟
龠
龰
龱
龴
龵
龶
龷
龸
龹
者
艹
﻿
？
𠀁
𠀃
𠀆
𠀉
𠀎
𠀐
𠁁
𠁣
𠂆
𠂇
𠂈
𠂉
𠂊
𠂋
𠂎
𠂒
𠂔
𠂛
𠂡
𠂢
𠂤
𠂬
𠂭
𠂹
𠃊
𠃋
𠃌
𠃍
𠃎
𠃑
𠃓
𠃔
𠃜
𠄌
𠄎
𠄠
𠄢
𠆢
𠆥
𠇍
𠈌
𠌵
𠓜
𠔉
𠔥
𠔼
𠔽
𠔿
𠕀
𠕁
𠕋
𠘧
𠘨
𠙻
𠙼
𠚏
𠚒
𠚤
𠚪
𠣏
𠤎
𠤕
𠥓
𠦄
𠦑
𠦝
𠧒
𠧗
𠧪
𠩺
𠪚
𠫓
𠫔
𠫤
𠬛
𠬝
𠬞
𠬢
𠬤
𠬶
𠮛
𠮦
𠮷
𠯑
𠱠
𠳮
𠷎
𡈼
𡉀
𡉵
𡌥
𡍮
𡏳
𡕒
𡕩
𡕰
𡖅
𡗗
𡗜
𡘆
𡘤
𡧱
𡨄
𡩧
𡬠
𡭽
𡰣
𡰥
𡰪
𡰯
𡰱
𡷈
𡸁
𡿨
𡿩
𡿪
𡿺
𢀖
𢀛
𢀩
𢁙
𢆉
𢆰
𢆶
𢇁
𢇇
𢉖
𢌬
𢌿
𢏚
𢑑
𢑚
𢖻
𢙣
𢛳
𢦏
𢦒
𢧵
𢼄
𢾕
𣁋
𣄼
𣅀
𣅽
𣍘
𣎳
𣎵
𣏋
𣏼
𣗥
𣥂
𣥖
𣦵
𣦼
𣧄
𣪊
𣪠
𣬉
𣳾
𣶒
𤇾
𤊽
𤐫
𤓰
𤔔
𤕨
𤣩
𤰇
𤰔
𤰞
𤴓
𤴔
𤽄
𥁑
𥁕
𥃦
𥃩
𥃭
𥇡
𥑟
𥘅
𥘈
𥝢
𥫗
𥱡
𦈢
𦉪
𦉬
𦉼
𦍌
𦍒
𦎧
𦐇
𦓔
𦔮
𦘒
𦙃
𦚏
𦣝
𦣞
𦣻
𦥑
𦥔
𦥯
𦨉
𦭝
𦰩
𧆞
𧈧
𧘇
𧰨
𧴪
𧴮
𧵩
𧾷
𨸏
𨾴
𩙿
𩠐
𩫏
𩵋
𪉷
𪜀
𪟽
𪠲
𪩲
𫇦
𫔭
𫜸
𫝀
𫠣
𫠩
𫢉
𫥞
𫩏
𫩠
𫪡
𫲽
𫶧
𬀷
𬐘
𬗌
𬙙
𬛸
𬜯
𬟩
𬯁
𬴘
𬺻
𬼉
𬼖
𭀰
𭁈
𭁨
𭅰
𭑈
𭕄
𭗼
𭤨
𭥫
𭻾
𮅕
𮊿
𮍌
𮍏
𮓗
𮥼
𮧮
廾
𰀁
𰀄
𰀈
𰀉
𰀕
𰀠
𰀡
𰀢
𰀪
𰁜
𰃮
𰆊
𰆘
𰋙
𰕎
𰢴
𰧭
𰯲
0--
10--
11--
12--
13--
14--
15--
16--
17--
18--
19--
20--
21--
57--
6--
64--
7--
8--
a--
ab--
abe--
aber--
abra--
ac--
act--
ad--
ag--
agil--
air--
al--
all--
am--
an--
and--
ap--
app--
ar--
aro--
as--
at--
au--
av--
b--
ba--
bah--
bal--
ban--
bar--
be--
bei--
bel--
bi--
bitter--
bo--
boi--
bon--
bopil--
bov--
br--
brit--
bu--
buffel--
buffels--
bul--
c--
car--
caro--
cas--
ce--
cen--
ch--
cha--
char--
chi--
cil--
clo--
co--
col--
com--
con--
conf--
const--
cont--
cri--
cur--
d--
da--
de--
di--
dih--
dik--
din--
dip--
dipo--
ditl--
ditlha--
ditu--
do--
dor--
du--
e--
ea--
ed--
ee--
eer--
eg--
el--
em--
en--
epidem--
er--
et--
ex--
f--
fa--
fal--
fe--
fet--
feto--
fi--
fin--
fo--
for--
fr--
fu--
g--
ga--
gan--
ge--
ger--
go--
good--
gra--
grow--
gu--
h--
ha--
har--
he--
her--
hi--
hla--
hlah--
hlo--
ho--
hof--
hol--
hun--
hw--
i--
ikara--
iko--
im--
ima--
in--
investi--
iphe--
ire--
is--
it--
j--
ja--
jo--
jud--
k--
ka--
kan--
kar--
katho--
ke--
ken--
kga--
kgao--
kgo--
kha--
khe--
kho--
khu--
ki--
kilo--
kle--
klein--
ko--
kolo--
kra--
krans--
kro--
krom--
ku--
kwa--
kwe--
l--
la--
lam--
lao--
le--
lea--
leba--
lebo--
leboa--
leh--
lehla--
leka--
lemo--
les--
lesome--
li--
lin--
lo--
lokolog--
lu--
luk--
ly--
m--
ma--
mab--
mac--
mago--
mah--
mai--
mak--
mal--
male--
mam--
man--
mar--
mari--
mas--
mat--
math--
mcdo--
me--
melo--
memo--
menye--
mer--
mhl--
mi--
mid--
min--
mo--
mod--
moe--
mogo--
moh--
mok--
mola--
mole--
mon--
mor--
mos--
mp--
mpha--
mur--
mus--
n--
na--
nc--
nd--
ne--
nel--
new--
ng--
ngwa--
ni--
no--
nya--
o--
oa--
okto--
ol--
on--
op--
opper--
or--
os--
ot--
outb--
oxpec--
p--
pa--
pap--
pe--
ped--
pha--
phara--
phe--
phi--
pho--
pi--
pla--
po--
pola--
potgi--
pr--
pro--
prob--
prog--
pu--
publis--
q--
qu--
r--
ra--
rac--
rak--
ramo--
rand--
re--
red--
requi--
rev--
ri--
riet--
rietv--
ro--
rob--
rober--
roode--
rorqu--
ros--
rose--
ru--
s--
sa--
scho--
se--
sea--
sebe--
sebo--
sec--
seh--
sek--
sen--
set--
sex--
sha--
shi--
si--
siya--
sm--
so--
soci--
sp--
spr--
st--
stat--
ster--
stu--
sty--
su--
sub--
swar--
swe--
t--
ta--
tar--
te--
territ--
th--
tha--
tho--
thu--
ti--
tl--
tla--
tlha--
tlho--
tlo--
tlwa--
to--
tr--
trans--
tri--
ts--
tsh--
tshe--
tso--
tu--
u--
uit--
um--
un--
up--
v--
ven--
ver--
vis--
w--
wa--
wal--
we--
wel--
wi--
wil--
win--
wind--
wit--
writ--
x--
ye--
z--
zenz--
--0
--1
--2
--3
--4
--5
--6
--66
--7
--72
--8
--81
--82
--9
--a
--aai
--ad
--aff
--ai
--al
--ale
--am
--an
--ana
--ang
--ar
--ary
--as
--at
--atsi
--ba
--baai
--be
--bi
--bis
--bo
--bu
--burg
--by
--c
--ce
--ch
--chfontein
--ck
--cted
--ctor
--d
--da
--dal
--dale
--de
--ded
--deni
--di
--dia
--dimo
--dini
--dorp
--drif
--du
--dwe
--dy
--e
--ea
--echt
--ed
--ef
--ek
--el
--elo
--em
--en
--eng
--eni
--ent
--ep
--epelo
--er
--erg
--ers
--ersburg
--erville
--es
--est
--et
--ets
--f
--fa
--ff
--field
--fo
--fontein
--ful
--futa
--g
--ga
--gala
--gane
--ganyi
--ge
--gelo
--go
--h
--ha
--ham
--he
--hego
--heni
--hi
--hla
--hle
--ho
--hoa
--hoek
--hof
--hong
--i
--ia
--ial
--ic
--id
--ie
--ier
--ies
--if
--ift
--il
--in
--ine
--ing
--ini
--ion
--is
--ite
--ivier
--izakhe
--k
--ka
--kal
--ke
--keng
--kgo
--kgolo
--kgwa
--ki
--ko
--kop
--kraal
--kwe
--l
--la
--laagte
--lala
--lane
--lano
--ld
--lds
--le
--lela
--lelo
--lem
--leni
--lf
--li
--lie
--lio
--ll
--lla
--llo
--lly
--lo
--long
--ls
--lwa
--lwe
--ly
--m
--ma
--mbia
--me
--med
--ment
--mi
--mis
--mo
--ms
--my
--n
--na
--nburg
--nce
--ncy
--nd
--nda
--ndal
--ndar
--ne
--nego
--neng
--neni
--ner
--ng
--ngo
--ni
--nkulu
--no
--nos
--ns
--nse
--nt
--nte
--ntein
--nto
--nts
--ntu
--nville
--ny
--nya
--nyana
--nzi
--o
--odi
--ofats
--ogy
--ok
--oko
--ola
--olo
--on
--ong
--oort
--or
--ord
--ort
--os
--ot
--otso
--p
--pa
--pe
--pedi
--pi
--po
--pruit
--pt
--r
--ra
--rapy
--rd
--re
--ren
--rew
--ri
--ria
--rivier
--rly
--ro
--ron
--room
--rp
--rry
--rs
--rt
--rton
--ru
--ruit
--rville
--ry
--s
--sa
--sbaai
--sburg
--sdorp
--se
--sh
--ship
--si
--sia
--sion
--sis
--spruit
--ss
--st
--stad
--t
--ta
--tan
--tant
--te
--ted
--tee
--ter
--ters
--tes
--th
--tha
--thi
--thini
--ti
--tin
--tion
--tions
--to
--ton
--ts
--tsi
--tt
--twa
--ty
--u
--ue
--um
--ur
--urg
--us
--ution
--uw
--uze
--v
--vale
--ve
--vel
--ver
--vi
--ville
--vlei
--w
--wa
--we
--well
--weni
--wini
--wn
--wood
--ws
--x
--y
--ya
--yi
--yo
--ys
--z
--za
--zi
--я
