!
"
#
##0
##1
##10
##11
##12
##13
##14
##15
##16
##17
##18
##19
##2
##20
##21
##22
##23
##24
##25
##26
##27
##28
##29
##3
##30
##31
##32
##33
##34
##35
##36
##37
##38
##39
##4
##40
##41
##42
##43
##44
##45
##46
##47
##48
##49
##5
##50
##51
##52
##53
##54
##55
##56
##57
##58
##59
##6
##60
##61
##62
##63
##64
##65
##66
##67
##68
##69
##7
##70
##71
##72
##73
##74
##75
##76
##77
##78
##79
##8
##80
##81
##82
##83
##84
##85
##86
##87
##88
##89
##9
##90
##91
##92
##93
##94
##95
##96
##97
##98
##99
$
%
&
'
(
)
*
+
,
-
.
/
0
000
003257
004
005
00862
01
0140
02
03
03770
04
05
06
07
08
09
1
10
100
1000
1001
1002
10053
101
1016
102
103
1038
104
105
1056
106
10665
108
1093
11
110
111
1111
112
1136
115
117
118
119
12
120
121
1270
129
13
130
1321
1324
135
1373
1374
1389
1394
14
1400
1404
141
1415
1452
14651858
1466
1483
1492
1493
1497
15
150
1506
1517
1519
1536
154
1543
1564
158
16
160
1600
1607
1608
1622
163
1642
165
17
175
1755
1764
1765
1769
1771
1774
1775
1776
1778
1779
1780
1783
1789
1791
1792
1793
1796
1797
1799
18
180
1800
1804
1806
1807
1810
1815
1818
1821
1830
1831
1839
1842
1845
1848
1851
1853
1854
1855
1859
1860
1861
1864
1865
1866
1870
1871
1879
188
1880
1881
1882
1884
1885
1886
1887
1889
1890
1892
1895
19
1900
1902
1904
1906
1907
1908
1911
1912
1914
1915
1916
1917
1918
1919
1920
1921
1922
1923
1924
1926
1927
1929
193
1930
1933
1934
1935
1936
1937
1938
1939
1940
1941
1942
1943
1944
1945
1946
1947
1948
1949
1950
1951
1952
1953
1954
1955
1957
1958
1959
196
1960
1961
1962
1963
1964
1965
1966
1967
1968
1969
1970
1971
1972
1973
1974
1975
1976
1977
1978
1979
1980
1981
1982
1983
1984
1985
1986
1987
1988
1989
1990
1991
1992
1993
1994
1995
1996
1997
1998
1999
2
20
200
2000
2001
2002
2003
2004
2005
2006
2007
2008
2009
201
2010
2011
2012
2013
2014
2015
2016
2017
2018
2019
2020
2021
2022
204
206
21
212
215
22
23
230
24
240
249
25
250
25530442
26
26063472
26320265
268
27
28
280
29
296
3
30
300
301
31
315
32
323
33
34
343
349
35
350
354
36
360
365
37
379
38
380
385
386
388
39
4
40
400
403
408
41
42
43
433
4340604
44
45
46
4643
47
48
49
5
50
500
51
52
520
521
53
54
55
555
56
57
58
59
6
60
600
602
61
61682
62
622
63
64
65
650
66
67
6736
68
69
7
70
700
71
72
7236
73
7384
74
743
75
750
76
77
78
787
79
8
80
800
81
82
83
84
85
86
86950
87
88
89
89042
9
90
900
908
91
913
92
93
94
95
96
967
97
978
9780983263135
9781284057560
98
99
9963
9995
:
;
<
=
>
?
[
\
]
^
_
`
a
aa
aada
aadaak
aadaam
aadama
aaday
aah
aajo
aajoom
aajowoo
aak
aakimoo
aal
aale
aali
aalihii
aamerig
aamerik
aamiin
aamina
aan
aanal
aane
aange
aar
aaral
aare
aareel
aareelu
aari
aarloo
aarn
aaroo
aaroona
aartu
aaru
aat
aata
aaw
aawal
aawlu
aawte
aawteef
aawteefi
aax
aay
aaya
aaye
aayi
aayoon
aaytal
ab
abaas
abajada
abal
abdoulaye
abdu
abdul
abdulaay
abdullaah
abel
abidjan
abii
abiibu
abiihi
abo
aboo
aboobakrin
abool
about
absolu
abuu
abuubakar
ac
aca
acacia
acade
accessed
accord
acct
achada
action
activite
acute
ad
ada
adab
adam
adama
adan
addaymaanii
addiis
addina
adduna
addunay
ade
adenauer
aderito
adiratig
administration
adolescent
adolf
adpios
adults
aduna
ae
aeroporto
af
afeer
afganistaan
afia
afirig
africa
africaine
africaines
africains
african
africana
afrig
afrigu
afrik
afrika
afrique
after
afyon
ag
agaaf
against
agaripa
agas
age
agence
ago
agsee
agsi
ah
ahad
ahakay
ahloubadar
ahlu
ahlul
ahmad
ahmadou
ahmadu
ahmadul
ahmed
ahuuthu
ahuuzu
ai
aimer
air
airborne
airways
ais
aise
aj
ajam
aji
ajj
ajjana
ajju
ajjuma
ajkat
ajn
ajoo
aju
ajug
ak
aka
akaademi
ake
aki
akit
akk
akka
akkug
aksasin
aku
akub
akug
akuk
akum
akusativo
akuw
al
alaa
alaaji
alaaxira
alag
alal
alalam
alali
alamaan
alamaanug
alan
albaani
albani
albert
alburi
alchemie
ale
alegsa
alex
alexandre
alfa
alfred
alfuutiyu
alhaaji
alhamdu
ali
aliyu
aliyun
aljabr
aljeeri
alkaati
alkande
alkol
alku
all
allaa
allaahuma
allaaxira
allafrica
allaziina
allemagne
aller
alliance
alliyu
almaami
almaan
almamy
almasi
almeida
aloon
alp
alpha
alphabet
alquraan
alsaas
alseeri
alternance
altine
alto
alximis
alxuraan
alxuraanam
alxuran
aly
am
ama
amaa
amaale
amaana
amaat
amadi
amadores
amadou
amadu
amagul
amal
amale
amaloon
amam
amar
amari
amas
amati
amatul
amdi
ame
amee
america
american
amerig
amerigo
amerik
amewu
amewul
ami
amiin
amiko
amina
aminata
amna
amnesty
amon
amoo
amoon
amos
ampere
amrii
ams
amsatu
amu
amug
amul
amulub
amun
amunu
amutoon
an
ana
analyse
analysis
anam
anamam
anami
anamug
anas
anbiyaawu
ancien
anciennes
ancos
and
andalusi
andasa
andi
andoor
ane
ang
angale
angalikaan
angalteer
anglais
angle
anglikaan
angolaa
animal
anmcv
anne
ansaar
anstatau
ant
anta
antau
ante
anti
antibiotic
antibiotik
anto
aof
ap
apolo
app
appel
apre
april
aq
aqq
aqqu
aqqub
aqsaa
aqu
ar
araab
araabi
araam
araamal
arab
arabe
arabi
arabia
araf
arafa
arafi
arafu
aram
aras
archime
archive
archived
archives
ardi
are
area
aristo
arithmetical
armal
armale
armalu
arme
armeel
armeeni
arminaat
arminaatu
arqam
arrondissement
arsenal
art
arthur
article
artikolo
artu
as
asaka
asamaan
asan
aserbayjaan
asf
asi
asia
asian
asie
asiri
askan
askanale
askanam
askani
askanoo
askanu
asmaau
asp
aspx
assalaamu
assessment
association
assomada
asta
at
ataaya
atam
aten
athe
ati
atkinson
atlantik
atlantique
atlas
atle
atomique
atoum
att
attajalliil
attal
atte
atteel
atteelu
attekaay
atti
attum
atu
atum
au
aucun
august
aujourd
australian
automatique
autorite
autres
aux
available
avant
avec
avoir
avril
aw
awa
awaase
awal
awale
awiril
awiyee
awra
awril
aws
ax
axal
axe
axtaara
axtu
axum
ay
ayam
ayca
aydara
ayi
ayib
ayibal
ayibam
ayibi
ayiti
aysa
ayu
ayube
aŋ
b
ba
baa
baab
baaba
baadoola
baag
baagante
baak
baal
baam
baamtu
baamu
baana
baar
baara
baaraam
baaram
baari
baat
baatam
baati
baatin
baatinub
baatu
baatub
baatukaay
baawo
baax
baaxa
baaxal
baaxantal
baaxi
baaxoo
baaxoon
baaxu
baaxul
baay
baayam
baayi
baayima
baayu
babacar
babilon
bacon
bacte
bacterial
bacterie
badar
badri
badrin
bagaas
bagaasi
bah
bahrayni
bahru
bairro
baixo
baj
baji
bakan
bakkan
bakkanam
bakr
bakteri
bal
bala
balaa
balaam
balaas
bale
balise
balkaan
ball
balluwaay
balluwaayu
bam
bamba
bambara
bamu
bamuy
ban
banaana
bandonj
bang
banglaades
banii
banji
banjul
bank
banku
banoo
banqaasu
bant
bantam
bantu
banu
baqara
bar
baraay
baraayu
barab
barabam
barabi
barabu
barabub
barag
barak
barakaatuhuu
baraxlu
barbon
barcelona
bare
baree
bari
barig
baril
barina
bariwaa
bariwu
bariwul
bariy
barke
barkeb
barkeel
barkeelu
barkeem
barma
bartlett
bas
basaŋ
base
based
bashiir
bashiiru
basic
basiira
basiiru
basin
basis
bat
bata
bataaxal
bataaxalub
bataaxel
bataaxelam
bataaxeli
batay
batlimos
bavar
bawal
bawol
bawoo
bax
baxa
baxal
baxdaad
bay
bayaal
bayaan
bayern
bayi
bayit
bayitam
bayiti
baykat
baynug
baynuk
bayti
bayyi
bayyima
bb
bba
bbaal
bbal
bbale
bbaloo
bbalu
bbam
bbar
bbc
bbe
bbee
bbi
bboon
bbu
bbug
bcg
be
bec
becon
beddiku
bee
beek
beeki
been
beer
bees
beey
beg
begal
begg
beira
bej
bejjan
bekkoor
bela
belaarus
bele
beljig
beljik
ben
bene
benee
beneen
benesuwela
benfica
benin
benn
bennaan
bennaanu
bennal
bennale
bennalug
benneel
benneelu
bennett
benni
benno
bennog
bennoo
bennoog
bennoom
bennte
bennug
bensudaa
benten
bepp
beppu
ber
berber
bereb
bereesil
berenis
berger
berlin
berlitz
berr
berri
beru
bes
bess
betani
bett
bette
bettoon
bew
bey
bi
bibliographie
bibliothe
bic
bidaa
bidda
biddiw
bidiw
bidoq
big
bihaa
bii
biibe
biig
biir
biiram
biiri
biiru
biirul
biirum
bijj
bijjaakon
bijjaan
bijjee
bijji
bika
bil
bile
billaahi
bilyoŋi
bim
bimu
bin
bind
bindal
bindalal
bindam
bindante
binde
bindee
bindkat
bindkati
bindoo
bindoon
bindu
binta
bio
biographie
bipolaire
bipolar
bir
biral
biralal
bire
biri
biritani
bis
bisaawo
bisawo
bisi
bismarck
bismil
bissau
bisu
bisub
bit
bite
biteem
biti
bitib
bitim
biy
bj
black
blackburn
bloc
blues
bmj
bn
bnu
bo
boa
boavista
bob
bobu
bocc
boddante
boddanteg
body
boeing
bokk
bokkaale
bokkal
bokkam
bokkee
bokki
bokkoo
bokkoon
bokksee
bokksi
bokku
bokkul
bokkun
bokkutoon
boliibi
bombe
bon
bonan
bonaparte
boni
boo
booba
boobaa
boobee
boobii
boobu
boobule
book
books
boole
boolee
booloo
boor
boot
booy
bop
bopam
bopp
boppam
boppi
boppu
boppub
bor
boram
borma
borom
boroom
boroomam
borooman
boroomi
boroomug
bos
bosni
boston
botafogo
botswana
bou
boy
boyal
boyet
boyot
branca
branco
brasaawiil
brava
bre
bread
break
breesil
bresil
brisson
britani
britannica
brown
brumaire
brusiya
brusiyaa
bu
buc
budapest
buddee
buddi
buddin
buftu
bug
bugul
bukki
bul
buleen
bulgaari
bulgari
bulletin
bulu
bum
bumu
bun
bundasrat
bundu
bunt
bunti
buntu
buntub
bunu
bunuy
burden
bureau
burkina
burkinaa
burub
buruundi
buruxel
buso
but
butaan
buu
buub
buubakar
buum
buumi
buumu
buur
buuram
buurba
buuri
buuru
buurub
buxaari
buy
by
c
ca
caa
caabi
caada
caadaay
caaday
caage
caageenug
caak
caam
caat
caaxaan
caay
cabec
cabo
cabot
cadd
cafka
cag
cahiers
calao
caldeiras
calendar
calhau
calheta
calmette
calven
cam
cambar
cambridge
cammoon
camp
campe
campeef
campeefi
campeonato
campo
campora
campus
can
canadian
canc
cancer
cang
cangaay
cangug
cant
cap
cape
capital
capricorne
car
caram
care
carlinger
carlos
carte
cartier
cas
casamance
case
cases
cat
catarina
cati
catul
cause
causes
cavour
caw
cawarte
cawarteg
cawartey
cax
cay
cbt
cc
cca
ccaal
ccante
cce
ccee
cceel
cci
ccoo
ccoon
ccoor
cctld
ccu
ccug
ccuwaay
cd
cdc
cdot
ce
ceddo
cee
ceeb
ceek
ceen
cees
ceet
cek
cekoslaafi
cekoslawaki
cekoslowaki
cell
cembre
cempteŋ
cen
censo
center
centers
central
centralisation
centre
century
cer
cere
ceri
cerno
ces
cesti
cette
cey
ch
cha
challenges
cham
chambre
chang
change
chapitre
chapter
charge
charles
chat
chaucer
che
check
cheikh
chelsea
chen
chest
chez
chiites
child
childhood
children
china
chine
chinese
chre
chronic
ci
cib
cidade
cifaay
cig
ciipe
cilf
cim
cin
cis
cisse
cite
city
civil
civilisation
civilization
ciw
ciy
cj
claude
cle
clemenceau
climate
clinic
clinical
clinics
club
clube
cm
co
coat
cochrane
code
cofeel
cofeelam
cofeelug
cokkaas
col
coldaar
cole
coles
coll
collaborators
collection
collectivisme
collectivite
college
colombo
coloniale
colonialisme
colonie
com
combretum
come
comme
communautarisme
communaute
commune
communes
communication
communisme
community
comparative
compose
comprendre
compulsive
computer
condition
conditions
confe
confre
cong
connaissances
connexe
conomie
conomique
conomiques
conque
conseil
conside
considered
content
contribution
control
converter
coobare
coobareem
coobarewu
coona
coonab
coonay
coono
coope
coow
coppat
coppite
coppiteeg
copy
coqueluche
coran
coro
coronavirus
correia
corsica
cosaan
cosaanam
cosaani
cosaano
cosaanoo
cosaanu
cosaanul
coud
cough
could
coulomb
countries
country
cour
course
cov
cova
covid
cp
cre
crisis
criture
croix
cruz
cs
ct
cu
culture
culturelle
cultures
cuq
current
cuub
cuubug
cv
cycle
d
da
daa
daadi
daaj
daakaande
daal
daam
daamar
daan
daana
daanaka
daane
daaneel
daanoo
daanu
daar
daara
daaraam
daaram
daaray
daaru
daarul
daarur
daas
daataa
daaw
daawu
daawuda
daawul
daawun
daawunu
daay
dab
daba
daf
dafa
dafay
dafe
dag
dagan
dagana
daganal
daganul
dagg
dagge
daily
daj
dajale
dajaloo
daje
dajeb
dajee
dajeek
dajeeki
dajeel
dajeg
dajewaat
dakaar
dakaaru
dakar
dakaru
dakk
dakkal
dal
dalal
dalam
daldi
dale
dalee
dali
daliil
dalinu
daloon
dalu
dalub
dama
damaa
damay
damm
dammeel
dammte
dan
dana
danaa
danan
dananu
danay
danga
dangaa
dangay
dangeen
daniel
daniy
dank
danki
danku
dankub
danmaark
danmark
danoo
dans
danseg
danu
danuy
dapat
daq
daqaar
dar
dara
daraame
daraja
darajaam
darajawu
darajay
darkase
darra
das
data
database
date
david
davis
daw
dawaan
dawaanu
dawal
dawalkatu
dawme
day
daymaan
dayo
dayob
dayoo
dayoob
dayoom
dc
dd
ddaat
ddaay
ddaayal
ddaaye
ddaayoon
ddaayug
ddal
ddale
ddalee
ddaliinu
ddalikoo
ddaliku
dde
ddi
ddina
ddiya
ddoo
ddoom
ddoon
ddu
ddug
ddukat
ddul
dduna
ddunaam
ddunaay
ddunay
dduw
de
death
deccukay
december
dee
deel
deem
dees
deesi
deesu
deesul
deet
deewal
deewee
def
defaat
defal
defale
defalee
defaloon
defar
defaraat
defaral
defare
defaree
defaroon
defarug
defati
defe
defee
defees
defi
defiin
defloo
defoon
defsi
defu
deful
defun
deg
degg
degge
deggoo
deglu
dek
dekk
dekkal
dekkalaat
dekkiwaat
dekku
del
delhi
dell
dello
delloo
delloosi
dellooti
delloowaat
dellu
dellusee
dellusi
delluwaat
delluwaay
delseeti
delsi
delta
deltu
deluxe
dem
demal
demam
demandoo
demandoodi
demati
demb
demba
deme
demee
demiin
demin
demokaraasi
demokaraatik
demokraasi
demoon
den
denc
denci
dencu
dencukaay
dend
dendoon
dendu
deng
dengi
denk
denkaane
denkoon
depaas
department
deppa
deppite
depression
depressive
deqale
der
deram
derby
dereet
dereetam
deret
deretam
deru
des
desa
desal
desambar
dese
deseetu
desen
desoon
desportiva
desportivo
dess
detaa
deuk
deux
development
dewen
dex
dexam
dexu
dexub
dexug
dey
df
di
diagnosis
diagnostic
diallo
dias
diaspora
diatta
diaye
dib
dibbto
dibe
dictionary
dictionnaire
die
dieng
dieu
diffe
dig
digaale
digal
digale
digalee
digaloon
digam
digante
diganteem
dige
digg
diggale
diggam
diggante
digganteek
digganteem
diggdoomu
digge
diggi
diggu
diggub
digi
digle
digoo
digoon
diig
diigiit
diine
diineem
diinewu
diiney
diir
diiru
diirub
diis
diisaayu
diisoo
diisook
diisoowaale
diiwaan
diiwaanam
diiwaani
diiwaanu
diiwaanub
diiŋat
diiŋatkat
diiŋatoon
dijj
diju
dikk
dikkal
dikkale
dikkalee
dikkaloon
dikke
dikkee
dikkoon
diko
diktaatoor
diktal
dila
dim
dimasq
dimb
dimbalante
dimbale
dimbalee
dimbali
dimblante
dimblanteg
dimble
dimblee
dimbli
din
dina
dinaa
dinan
dinanu
dinay
dindi
dinga
dio
diola
diolas
diome
diop
diounni
diourbel
diplomasi
dir
direct
direction
director
diriku
dis
disability
disambar
disco
disease
diseases
disk
disorder
disorders
displaystyle
dispute
distancing
dition
ditions
dittax
diw
diwaan
diwaani
diwaanu
diwaar
diy
dj
djibril
do
doctorat
documentation
dof
dog
dogal
dogalam
dogalee
dogalub
doge
doggantal
dogiit
dogoo
dogoon
dogu
doi
doj
doji
doju
dokh
doktoor
doktoraa
dolaar
dolli
dolliku
dollil
dolliy
dom
domain
domaine
domingos
dominikaan
domo
domu
don
done
dong
donga
dongaam
dongay
dongo
donkaasi
donn
donne
donnu
donte
doo
doog
doole
dooleel
dooleem
dooleg
doolerandu
doolerandug
dooley
dooli
doom
doomam
doomi
doomu
doon
doonadi
doonatul
doone
doonee
dooni
doonoon
doonte
doonul
doonun
doonutoon
door
doora
doore
dooree
dootoo
dootu
dootul
doox
doq
doqam
dorog
dorogewu
dos
dose
dossier
dott
dottu
dottub
dox
doxadi
doxal
doxale
doxaliin
doxaliinam
doxaliinu
doxalin
doxalinu
doxalkat
doxalukaay
doxam
doxande
doxandeem
doxe
doxee
doxi
doxiin
doxiinu
doxoon
doxub
doxug
doy
doyadi
doyadig
doyadil
doye
doyloo
doylu
doyluloo
doyodil
doyoon
doyul
dr
draga
droit
drug
drugbox
dsm
dt
du
duarte
ducation
dug
dugal
dugg
duggal
duggale
duggaloon
duggati
dugge
duggee
duggoon
duggsee
duggsi
duggu
duggug
dugo
dugub
dugubi
dul
duli
duma
dumaa
dumont
dun
dund
dundal
dundale
dundam
dundat
dunde
dundiin
dundiinu
dundin
dundoon
dundu
dundug
dundul
duni
dunu
dunub
duppe
duppee
dur
during
dursu
duus
duusi
duwaan
duy
dz
e
earth
east
eastern
eau
eb
ebad
ebola
ecaboverde
eco
economic
economist
ecoopi
ecopi
ed
ede
edicef
edinburgh
edited
edition
editions
editor
edward
ee
eef
eefam
eek
eeku
eekuna
eel
eelu
een
eent
eenteel
eenteelu
eenti
eer
eeri
ees
eet
eeti
eewant
eex
ef
efam
efar
efe
efes
effect
effective
effects
efficacy
efi
efu
efug
eg
egal
egam
ege
egg
egi
egliis
egliisu
egliisub
ego
egoon
egu
egub
ehess
einstein
ej
ejpeek
eju
ejug
ejus
ek
ekontiŋ
eku
ekwadoor
el
elam
elektron
elektronik
elen
elettronica
eli
elif
elktron
elktronik
elle
ellen
elli
elsevier
elu
elub
elug
elul
em
eme
emee
emeer
emeeri
emergency
emerging
emmanuel
emoon
emoyeni
empire
emtaan
emu
en
encyclopedia
end
endo
endoneesi
endonesi
endustri
ene
enee
eneen
enekaay
energie
energy
eney
engineering
england
english
eni
enn
ennat
enseignement
ensemble
ent
enteel
enti
entre
entu
enu
enub
enug
environmental
epatit
epidemiol
epidemiological
epidemiology
epoko
epp
er
eral
erasmus
ere
ereb
eree
ereem
erey
eri
eriitere
eritere
erlu
erodd
eroo
eru
eruwaay
es
ese
eske
esloweeni
espaan
espace
espagnol
espargos
esperanto
essai
essential
essentialmedicines
est
esta
estadio
estas
estati
esti
estooni
estrela
estus
esu
eswatini
et
etaa
etaasini
etal
etale
etat
etats
etc
ete
etewoo
ett
etteelu
etti
etum
euge
europe
european
eux
evidence
ew
ewal
ewalam
ewale
ewalee
ewali
ewalug
ewam
ewi
ewiriyee
ewoo
ewoon
ewte
ewtoo
ewu
ewug
ewul
ewum
ex
exal
exemple
expe
expectancy
expert
exte
extra
ey
eyaale
eyal
eyalam
eyam
eye
eyi
eykat
eykati
eykatu
eyloo
eyu
eyub
eyuwaay
ezi
ezidaleka
f
fa
faa
faadal
faagaagal
faal
faale
faalewul
faan
faaris
faas
faaso
faat
faatee
faati
faatiha
faatima
faatiya
faatoo
faatu
faatug
faaw
fab
fabaceae
fac
face
fact
facts
faculte
fadlin
faf
fafalnaaw
fagaru
faggu
faggul
faire
faj
faja
fajal
fajar
faje
fajj
fajoo
faju
fajum
fajuwaay
fajuwaayu
fal
falaa
falastin
falkland
fall
fallu
falu
fam
famak
famille
fan
fanaan
fanam
fande
fandiko
fandikoo
fandikoom
fandiku
fandikukaay
fandikukat
fani
fann
fanweer
fanweeri
fao
faqiih
far
fara
faraan
faraans
faraas
faraase
faraday
faral
faraldi
faramfacce
faramface
faran
faranse
farata
farataal
farataam
faratay
farba
fare
fari
farlu
faroon
fas
fasante
fasantikoo
fase
fasi
faso
fasong
fasoo
fasoon
fasu
fatan
fatik
fatou
fatt
fattali
fattalukaay
faww
fawwu
fay
fayal
faye
fayu
fayyu
fayyug
fazdah
fc
fcf
fe
febaru
february
fecc
fecci
feddali
federaal
federb
fee
feebar
feebari
feebaru
feek
feem
feen
fees
feesal
feetale
feete
feetewoo
feetewul
feexal
feey
feg
fegal
fegu
fekk
fekke
fekkee
fekkoon
fekksi
femme
femmes
fen
fendi
feneen
fenk
fenkug
fenn
fenqoo
fent
fentkat
fentoon
fepp
feppmaandu
feppsaal
fer
fere
fern
ferreira
fes
fetal
fett
feu
fexe
fexee
fexeel
fey
fi
fiche
ficus
figueira
figures
fii
fiil
fiir
fiire
fiiroo
fiiru
fil
filadefi
filadelfi
file
filipe
filipiin
filipin
film
filosofi
fimne
fin
finances
fini
finlaand
finland
fipp
fippi
fippoon
fippu
fippug
fiq
firee
firenze
firi
firil
firisi
firnde
firndeel
first
fish
fishbase
fisiya
fisiyaa
fit
fital
fitna
fitnaal
fitnay
fiy
fka
fkay
flammarion
flante
flantee
flanteek
flanteem
fleuve
flu
fm
fo
fofou
fog
fogloo
fogo
folli
fon
fondation
fonde
fondland
fonk
fonkoon
fonseca
fonte
foo
food
foofa
foofee
foofu
foon
foot
football
fopp
for
force
formation
forme
formio
forse
forta
fortes
foundation
fourni
fowe
foyte
foŋsaneer
fr
fra
fraans
fraanse
fraas
frac
franc
francais
france
francis
franco
francophone
frank
frankfort
franklin
frans
franse
fransis
fransiskaan
fransisko
fransuwaa
fre
fred
frederick
fredrick
free
from
front
fruit
fu
fuglu
fuglug
fuglukat
fukk
fukke
fukkeel
fukkeelu
fukki
ful
fulbe
fulla
fullawu
fumu
fun
funk
fuqarcee
fuqarci
furaat
furna
futebol
fuuf
fuuta
fuutiyu
g
ga
gaa
gaal
gaalam
gaali
gaalug
gaalum
gaambi
gaan
gaar
gaaral
gaaraloon
gaaru
gaas
gaaw
gaawa
gaawal
gaawantu
gaawe
gaawo
gaawu
gaay
gaaya
gaayam
gabon
gabong
gaboŋ
gabu
gafakag
gajaga
gal
galaas
galag
galagu
galais
galaise
galaises
galas
galaxndiku
gale
galileo
gallaxndiku
galoon
gam
gama
gambi
gambia
gambie
gammu
gamu
gan
gana
ganaar
ganaaw
ganale
gancax
gane
ganee
gannaar
gannaaw
gannar
gar
garaafi
garab
garabam
garabi
garabu
garabug
garambasaa
garaw
gargamboose
garibaldi
garmi
gas
gasi
gaston
gatas
gatt
gaw
gawar
gawu
gay
gaynde
gaza
gbd
gd
ge
gee
geej
geeju
geejug
geek
geen
geer
gees
geewub
gelaw
gelawaar
gemmin
gen
gendiku
gene
geneen
general
geneva
geneve
genn
genna
gennam
genne
gennee
gennoon
genova
gent
geo
george
gepp
ger
gereg
geres
gerte
gestu
get
gey
gg
gga
ggaani
ggal
ggalal
ggale
ggalee
ggaleem
ggalem
ggaley
ggalu
ggalug
ggalukaay
ggalukaayu
ggam
ggan
ggane
ggante
ggasante
ggat
ggatal
ggati
ggatkat
ggatu
ggatug
gge
ggee
ggi
ggiin
gglu
ggoo
ggook
ggoom
ggoon
ggu
ggug
ggul
ggun
ggunu
ggutoon
gi
gii
giim
giimal
giin
giir
giiram
giiri
giiru
giirug
gil
gile
gilinug
gimin
gin
ginaar
ginaaw
ginaawam
ginaawug
ginaw
gindee
gindi
gindiku
gine
gineg
ginnaaw
ginnaawam
ginnaw
ginne
gion
gional
gions
giovanni
gir
girees
girondins
gis
gisal
gisam
gise
gisee
giseel
gisiin
gisiini
gisiinu
gisoon
giss
gisu
gisul
give
giy
gle
glekaay
global
globe
gloo
glu
glul
gmal
gmalsi
gnu
go
gobar
god
gog
goj
golf
golfub
golo
gomez
gondiku
gone
gongikubaat
gongikuwaay
gongikuwaayu
goo
good
googa
googee
google
googu
goon
goor
goore
goornamaa
goornamaab
goornamaay
goornoor
gor
gore
goree
goreel
goreg
gosaas
gott
gotti
gouv
gouvernance
gouvernement
gouverneur
gov
government
gox
goxaan
goxaani
goxam
goxi
goxu
goxub
gr
gramatiko
grammaire
grand
granda
grande
grant
gre
great
gregori
gres
grinits
gro
gros
group
groups
gte
gu
gudd
guddaay
guddaayam
guddaayu
guddal
gudde
guddi
guddig
guddu
gue
guerre
gug
gui
guidance
guide
guidelines
guine
guinea
gul
gum
guma
gumba
gun
gune
gunge
guno
gunu
gusto
guur
guy
guyaab
guyaana
guyaar
h
ha
haa
haafis
haaj
haal
haalam
haalamiin
haalamiina
haalu
haamir
haasim
habbaas
habiibullaah
hadara
hadiis
hadson
hadyu
haj
hakka
halaa
halal
halawi
halaykum
hamburg
hamburger
hamdi
hamdu
hamilton
hammaa
hanbal
handbook
haniifa
haqaba
haqiiqa
haqqa
haqqi
haraam
hard
harmattan
harris
has
hasaasiil
hasan
hasbunaal
hasiir
hassan
hathbi
have
hawfii
haysam
hayyaan
haziim
hc
hdl
he
head
health
hebdomadaire
hegel
help
henri
henry
hepatite
hepatitis
heritage
hess
hibaad
high
hiisaa
hikma
hill
himma
himraan
hinda
hip
hisaab
histoire
historical
historio
history
hitler
hive
hizzati
ho
hohenzellern
holand
holistin
home
homme
hommes
homo
hong
hongri
hop
how
hs
htm
html
http
https
hubil
hui
human
huwa
hz
i
iana
ibbi
ibliis
ibn
ibnu
ibra
ibraahiim
ibraahiima
ibraahima
ibraayma
ibrahima
ibre
ibriiz
id
ide
identite
idriisa
if
ifaada
ifan
ig
ignored
igreja
ii
iid
iii
iil
iisaa
ikati
ikoo
iku
il
ilaa
ilaaha
ilal
ilayhi
ilha
ilhas
ilhe
illa
illaa
illaaha
illal
illness
ilu
imaam
imaamul
images
imam
imbraato
imbraatoor
imbraatooru
imbraatoorug
imbrato
imbratoor
imbratooru
immunization
impact
impo
important
in
ina
incidence
including
incorrecte
indaale
inde
index
indi
indian
indicator
indikvorto
indil
individu
indiwul
indo
indonesia
industrie
ine
infection
infections
infectious
influenza
infobox
information
informations
informazioni
iniweersite
iniwersite
injiil
injuries
inna
innaa
innal
inniya
insa
inseps
institut
institute
instituto
instrument
int
inte
inter
international
internet
introduction
invention
iprage
iraag
iraak
iraan
irempt
irlaand
irland
irwaaun
is
isaa
isaj
isbn
ise
isin
isipt
islaam
islaand
islam
islamic
islamique
island
islands
ispaan
israayil
israe
israel
israyil
issa
issn
issues
it
itaali
itali
italiano
italie
itam
itemid
its
iu
ivoire
iy
iyon
izifo
j
ja
jaa
jaabi
jaabir
jaadu
jaaduwul
jaale
jaam
jaamam
jaami
jaamoo
jaamoom
jaamu
jaamub
jaan
jaar
jaara
jaarale
jaaram
jaaratu
jaare
jaari
jaaro
jaaroon
jaaru
jaaseem
jaasi
jaasiy
jaata
jaawale
jaaxal
jaaxle
jaay
jaayaat
jaayante
jaaye
jaaykat
jaaykati
jaaysi
jabar
jabaram
jabaroo
jacopins
jacques
jafaan
jafal
jafe
jafee
jafeem
jafey
jagal
jagle
jagleel
jagleele
jagleem
jagley
jagoo
jaguar
jahfar
jahlin
jal
jalambaan
jalaxu
jalgati
jalon
jaloore
jalooreem
jam
jama
jamano
jamarloo
jamayka
jambaar
jambur
james
jamiihil
jamm
jamono
jamonoo
jamonoom
jamonoy
jamoon
jamu
jan
janeer
janela
jang
jangale
jangaro
jangat
jangoro
jangu
janook
jant
january
janvier
japon
japp
jappale
jappe
jappee
jappu
jaq
jar
jaraaf
jarbu
jarin
jarul
jasbul
jataay
jataayam
jataayi
jataayu
jataayub
jaw
jawa
jawali
jawalsi
jawrin
jawu
jaww
jawwi
jawwu
jax
jaxal
jaxan
jaxase
jaxasoo
jaxasook
jaxate
jaxiloo
jaxu
jay
jbijjaakon
jbijjaan
jdoxalukaay
je
jean
jebbi
jee
jeego
jeem
jeemoon
jeemul
jeeri
jees
jeewal
jeex
jeexal
jeexaloon
jeexe
jeexee
jeexiit
jeexiital
jeexiitalu
jege
jegee
jegeel
jegeele
jegeente
jegen
jegesil
jegge
jeggi
jekk
jekkee
jekki
jel
jem
jeneen
jeng
jengal
jenn
jenner
jeoorji
jepp
jeqi
jeqiku
jeune
jeŋ
jfepp
jfeppal
jg
ji
jib
jibal
jibalug
jibriil
jibuti
jidda
jige
jigeen
jigeeni
jigeenu
jigge
jii
jiilaani
jiin
jiital
jiitalug
jiite
jiitle
jiitu
jiixi
jikko
jikkoom
jikkoy
jilbert
jimblang
jimbulang
jimmy
jims
jinaan
jinax
jinne
jinni
jirim
jiwu
jiy
jiyaar
jiyoloji
jj
jjale
jjana
jjanay
jjee
jji
jjuma
jn
jo
joa
jog
joge
jogee
jogge
john
johnson
joj
jokk
jokkale
jokkoo
jokkook
jokkoom
jola
jolli
jolof
jom
jomb
jones
jongante
jonj
jonjoo
jonjoodi
jonson
joo
joob
joof
jooja
joojale
joojee
jooju
joola
joolaa
joom
joon
joop
joor
joowukaay
jooy
joqalante
joqalanteg
jordaani
jordanie
jorge
joriku
jort
jorte
jortoon
jortu
jose
josef
joseph
jot
jotaayu
jotal
jote
jotee
jotoon
jottali
jotu
jotug
jotul
joule
jour
journal
jox
joxal
joxati
joxe
joxee
joxon
joxoon
joy
joyal
joyale
joyu
joŋante
jpg
jtekkaaral
ju
jub
jubal
jubale
jubloo
jublu
jublusi
jubluwaay
jubluwaayam
jubluwaayi
jubluwu
juboo
juboog
judd
juddal
juddo
juddoo
juddoom
juddu
juddug
judduwaat
jug
jugal
jugati
juge
jugee
jugoon
juillet
juin
jukki
julit
jullee
julleek
julleem
julli
jullig
jullil
jullit
julliti
julliy
july
jum
jumaa
jumaadas
jumaay
jumi
jumla
jumtukaay
jumtukaayam
jumtukaayi
jumtukaayu
jumtuwaay
jun
june
juni
junj
junneek
junni
junniy
jur
jural
juram
jurati
jurbel
jurdund
juridique
juro
juroom
juroomeelu
juroomi
juroon
jurukaay
jurukaayu
justice
juuf
juur
juventude
juxraaf
juy
k
ka
kaa
kaaba
kaabu
kaad
kaaf
kaamil
kaana
kaapvchamp
kaaraange
kaaraangey
kaarange
kaare
kaas
kaasa
kaasamaas
kaay
kabiir
kabraal
kaddu
kaf
kafaara
kafe
kafor
kafour
kafrin
kaj
kajoor
kala
kalahaari
kalfen
kamara
kamerun
kan
kanaari
kanada
kanadaa
kanam
kanamam
kanamu
kanamug
kangam
kano
kaolack
kap
karaama
karaamay
karasol
karayib
karbonari
karce
kariim
karite
karolaayna
karolin
kart
karthala
kasakistaan
kaso
kasob
kat
katedraal
katolig
katu
kaw
kawam
kawar
kawe
kawee
kaweel
kawewaay
kawey
kawi
kawkab
kawlak
kawlax
kawri
kawu
kax
kay
kayit
kayta
kaŋ
ke
kebe
kee
keen
keep
keer
kees
keesug
kem
kemam
kemu
kemub
ken
keneen
kenn
keno
kenoy
kenu
kenya
kepp
keppaarug
ker
keraan
keraanam
keram
kerkeraan
kero
keroog
kerook
kersa
kerug
kese
kewel
key
keyta
keŋ
kheer
khz
ki
kiel
kii
kiimaan
kiimaani
kiiraay
kilifa
kilifaam
kilifag
kilifawu
kilifay
kilifte
kilifteef
kilifteefam
kilifteefug
kilima
kilo
kilomet
kimya
kimyaa
kin
king
kinshasa
kio
kirist
kiswahili
kiu
kiy
kj
kk
kka
kkaa
kkaale
kkaam
kkaan
kkaani
kkaanu
kkaanum
kkaar
kkaaram
kkaari
kkaarloo
kkal
kkale
kkalekaay
kkaloo
kkaloon
kkam
kkamti
kkandoo
kkandoom
kkantal
kkantale
kkarloo
kkatee
kkati
kkatiku
kkay
kke
kkee
kket
kkewu
kki
kkiin
kkloo
kkoo
kkoon
kksi
kku
kkub
kkug
kkukati
kkul
kkusaan
kkute
kkuteef
kkuw
kkuwaay
kkuwaayu
klaasik
klimaa
klimaab
km
know
known
ko
koba
kocc
kodefee
kodiwaar
koju
kojug
kok
kokki
koko
kol
koldaa
koli
kollarante
kollare
kollareg
kolle
koloombi
kolu
kolub
kom
komikon
komonwelth
komoor
komprenas
kon
konaakiri
kong
kongo
kongoo
kongres
konkoroŋ
konrad
kontar
kontaroon
koo
kook
kooka
kooku
koolute
kooluteg
koom
koomam
koomi
koomu
koor
kooram
koorug
kooy
kopernic
koppar
kordoba
kore
korent
kori
korite
korona
koronaawiris
korwaasi
kos
kot
kow
koy
koŋ
krist
kristaa
ku
kuba
kubaa
kube
kujje
kullu
kulo
kum
kumba
kumpa
kumu
kun
kunye
kuran
kure
kureel
kureeli
kureelu
kureelub
kureelug
kurel
kuwet
kuy
kuŋ
l
la
laa
laab
laabal
laabiir
laabiire
laaf
laago
laah
laaha
laahi
laahil
laahir
laahu
laaj
laajee
laajoon
laajul
laal
laalante
laalee
laalu
laalul
laamaaru
laat
laata
laataa
laax
laay
laaya
lab
labbe
laboratory
ladab
lafan
lafyette
lagoa
lahaay
lahuu
lai
lakk
lakkal
lakkee
lakku
lakkug
lako
lakum
lal
lalu
lalub
lam
lama
laman
lamb
lamiin
lamin
lammen
lan
lancet
lang
language
langue
langues
lankmbe
lanu
lanuy
larry
lasasin
last
lat
lati
latii
latin
latitude
latjoor
laurence
lave
law
lawal
lawbe
lawee
lawtan
laxas
lay
layal
layalkat
layoo
laytaay
lazii
laziina
lbati
lbatiku
lbe
lbeen
lbeeni
lbeenu
lbeenug
lc
le
league
learning
lebal
lebu
lectronique
lee
leeb
leeg
leegi
leekol
leel
leem
leen
leena
leeni
leer
leeral
leeralaat
leerale
leeraloon
leeralu
leeram
leere
leerug
leerul
lees
leetar
lef
lefi
lefum
leita
lekk
lekkee
lekool
lekoolu
lele
lem
lemu
len
leneen
lenn
leonardo
leopold
lepp
lerni
leru
les
lesoto
lesourd
leste
leto
lettre
lettres
leur
lew
lewaayi
lewet
lewopool
lewu
lex
leyoon
li
libaa
libaŋ
libe
libeeria
liberia
liberiyaa
liberte
libi
libre
libro
liechtenstein
lif
life
liga
lige
ligeey
ligeeyal
ligeeyam
ligeeye
ligeeyi
ligeeykat
ligeeyloo
ligeeyu
ligeeyub
ligge
liggeey
liggeeyam
liggeeye
liggeeyu
liggey
ligne
ligue
lihsaan
lii
liif
liig
liir
liiru
liis
liise
liitar
lijaasa
lijanti
lije
lijjantee
lijjanti
like
liko
lil
lillaah
lillaahi
lim
lima
limaa
limaamu
limal
limi
limit
limu
limub
limuy
lin
line
lingeer
lingoom
lingvo
link
linu
lion
liquide
lire
lis
lisboa
lisbon
lislaam
list
liste
literature
litofski
litte
lituwaani
lituwani
lived
liy
liyoo
ll
lla
llaa
llaama
llaamay
llaan
llaate
llaaxira
llaay
llaf
llal
llala
llalag
llalay
llale
llaliku
llaloon
llam
llankoor
llarba
llare
llay
lle
llee
lleeku
lli
lliyoom
lliyu
llo
lloo
llu
llub
llug
llum
lluwa
lluwaay
lmal
lme
lo
local
locale
locales
logique
loi
lois
loj
lokaal
lol
lolli
lolu
lombardia
londar
london
long
longitude
longtemps
longue
longueur
lonk
lonkoo
lonkooy
lonkoyoon
lonlatikva
loo
loof
lool
loola
looloo
loolu
loon
looy
lopes
lopitaal
loppanti
lor
loraange
loraangey
lore
loren
lorens
lorentz
lori
loroo
loru
lotig
lott
lottal
lottoon
louga
louis
lourenc
louxha
love
lox
loxo
loxob
loxog
loxol
loxoom
loxoy
ltd
lu
lub
ludul
lug
luga
lui
lujum
lul
lum
lume
lumu
lumuy
lun
luni
lunu
luther
luu
luug
luwaa
luwis
luxamburg
luy
m
ma
maa
maad
maaget
maaja
maajoor
maal
maalaaka
maalig
maalik
maam
maamaati
maamam
maame
maami
maamoom
maamu
maanaa
maanaam
maanaan
maandu
maandute
maanduteg
maane
maangi
maar
maars
maas
maasam
maase
maaska
maatam
maay
maayomba
mabba
macc
mace
machine
madagaskaar
made
madi
madiina
madina
madira
mag
magal
magam
magellan
magg
maggal
maghreb
magi
magma
magu
mahama
maharam
mahiya
mai
mail
maint
maio
mais
maison
majaxate
major
mak
make
maki
makk
makka
mako
mal
mala
malaaka
malaakay
malaria
malawi
male
maleesi
mali
malick
malt
mam
mamaalig
mamaalik
mamadu
mambe
mame
mammoor
man
mana
manaam
manaama
manadee
management
manal
manam
manante
manatu
manatul
manatun
manatunoo
manchester
mandarga
mandargay
mande
mandeŋ
manding
mandinke
mandiŋ
mane
manee
manees
maneesu
maneesul
mang
mani
manie
manke
manna
mannaan
manoo
manoon
mansa
mant
manta
manu
manual
manuel
manul
manun
manunu
manut
manutoon
map
maqaama
mar
maraakes
marcelo
march
mari
maria
mariama
marie
marino
marins
maritime
marjaan
mark
marog
marok
marook
mars
marsaal
marsandiis
marsandiisi
marse
marshal
marsiya
martin
martins
marwa
maryaama
maryama
mas
masa
masaa
masaalikul
masaan
masala
masalam
masalay
maseduwaan
maseduwan
masin
masjidul
mask
masks
maslaa
master
masu
masul
masumaa
masun
masut
mat
matal
matalal
matale
matam
mate
matee
matematig
mathbf
mathrm
matie
mato
matt
matu
matug
matul
matuwaay
maurice
mawaahibul
mawaarina
max
maxrib
maxtaar
maxwell
may
maya
mayam
maye
mayewaakon
maymuna
mayoon
mayu
mazzini
mb
mba
mbaa
mbaag
mbaal
mbaaliya
mbaam
mbaar
mbaare
mbaari
mbaarloo
mbaaw
mbaax
mbaay
mbacke
mbakke
mbal
mbale
mbalee
mbali
mbalig
mbalka
mbalkam
mbam
mbamb
mban
mbar
mbara
mbas
mbass
mbassum
mbat
mbaxana
mbay
mbaye
mbayum
mbe
mbedd
mbeex
mbegte
mbej
mbell
mbelli
mberum
mbetteel
mbi
mbide
mbiit
mbind
mbindam
mbinde
mbindeef
mbindi
mbindiin
mbindiinu
mbindum
mbir
mbiram
mbiri
mbiru
mbirum
mblee
mbli
mblig
mbo
mbokk
mbokkam
mbokki
mbokkoo
mbokkte
mbokkum
mboleem
mbon
mboo
mbool
mboolaay
mboolaayam
mboolaayi
mboolaayu
mboole
mbooleem
mbooleen
mboolem
mbooloo
mbooloom
mboolooy
mboon
mboor
mbootaay
mbootaayi
mbootaayu
mbootaayug
mbootayu
mboq
mbow
mbu
mbubb
mbubboo
mbubum
mbugal
mbugalum
mbulaan
mbulaanu
mbulaanug
mbur
mburu
mbuur
mbuus
mc
mcgraw
mcing
mdr
me
measles
mebat
mebe
mecce
meccem
medical
medicine
medicines
medina
mee
meek
meen
meer
mees
meetar
meew
mekanig
meksik
mel
melal
melaneesi
melax
melni
melnii
melo
melokaan
melokaanam
melokaani
melokaanu
meloom
meloon
melosuuf
melow
meloy
melul
memory
men
mena
meneen
meningite
meningitis
meningococcal
menn
menna
ment
mental
mepp
mer
meram
mere
meridien
merloo
meroon
mes
message
met
meta
metal
metar
meti
metit
metitu
metternich
metti
mettiit
mettit
meum
mhz
mi
mia
mica
michael
michel
michiavelli
mico
microbiology
middle
mie
miguel
mihraab
mii
miil
miimiya
miin
miinoon
miir
miiru
miixa
mikroneesi
milano
milieux
milimet
milion
milioŋ
milioŋi
militaire
miliyaar
miliyoŋ
miliyoŋi
milyaar
milyong
milyoŋ
milyoŋi
min
minal
minanul
minas
minash
mindelense
mindelo
mine
mingi
minine
ministar
ministe
ministres
minorite
mio
mira
misaal
misaali
misaalum
mise
misig
misik
misisipi
misk
miskiin
misra
missaal
miy
mj
mk
mkrasj
ml
mloo
mm
mmaan
mmaar
mmaarloo
mmaarlook
mmal
mmam
mme
mmee
mmeel
mmeelam
mmen
mmi
mmin
mmkat
mmon
mmoon
mmoonteek
mmu
mmwr
mn
mo
mocratique
mode
model
modena
modou
moggi
mogui
mohamed
mohammed
moi
moins
moire
mokk
mokkal
mokkaloon
moko
moldaawi
molo
mom
momar
mon
monaako
monato
monde
monod
monte
monteiro
montesquieu
montevideo
moo
moodi
moodu
mook
mooko
mool
moolu
moolub
moolukaayu
moom
mooma
moomadi
moomee
moomeel
moomeelam
moomeeli
moomeelug
moomoon
moomu
moon
moongi
moor
moos
mooy
mor
morbidity
more
moroom
moroomam
moroomi
mort
mortality
mos
mosal
mosambig
mosambik
mosby
mosque
most
mosteiros
motnan
mottali
mottalil
mou
mouride
mourides
mouridisme
moussa
moy
moyen
moyens
moytu
mozdahir
mp
mpaan
mpal
msi
mtee
mu
mucc
mucce
mucci
muccug
mudd
mudi
mug
muhammad
muhammadin
muhammadu
muhammadul
muhammat
muhammed
muharram
mujj
mujjantal
mujje
mujjee
mujji
mujjoon
mujjug
muka
mukallaf
mukk
mul
mulaay
muluŋ
mum
mun
munaa
mundo
mungi
muni
munic
municipal
muraabituun
murid
muridam
muriid
murit
muritam
mursaliin
musaa
musal
musalal
musale
muse
museum
musiba
muslim
muslu
mussolini
mustafa
mustafaa
mustahiin
mutalib
mutungi
muucu
muun
muur
muure
muuroon
muuru
muurum
muus
muusa
muusaa
muxaddam
muxtaar
muy
mw
my
mycobacterium
n
na
naa
naagu
naagul
naaj
naaje
naak
naal
naalam
naali
naaloon
naalub
naan
naanal
naar
naari
naasu
naat
naataange
naaw
naaxsaay
naaxsaayal
nabii
nabiyu
nacc
nacional
nadiim
nafiis
nag
naggu
nahju
nahwu
nairobi
naj
nak
naka
nako
nakoo
nal
nala
nale
nali
naloon
nalug
nam
namandiru
name
nameel
namibi
namm
nammee
namu
nan
nancoo
nanga
nangay
nangoo
nangooti
nangu
nangul
nangulee
nanguwaat
nanguwu
nanguwul
nanguwutoon
nani
nanoo
nanook
nanu
napolen
napoleon
napoli
napoliyon
napp
nappkat
naq
naqa
naqar
naqari
naqarlu
nar
naroon
nas
nasa
nasaraan
nasaraanal
nasaraanalkat
nasaxal
nasi
nataal
nataali
nataalu
natal
natee
nation
national
nationale
nationalisme
nations
natt
nattale
nattam
natte
nattee
nattoo
nattu
nattub
nattukaay
nature
naviguer
naw
nawet
nax
nay
nb
nc
ncam
ncax
nchen
ncia
ncov
ncu
ncum
nd
nda
ndaale
ndaam
ndaay
ndab
ndaje
ndajeem
ndajem
ndajey
ndak
ndakaaru
ndakaru
ndal
ndaloon
ndam
ndamu
ndamul
ndand
ndandoo
ndandoom
ndaqoo
ndar
ndare
ndarga
ndargaal
ndargaam
ndargab
ndargam
ndargay
ndarma
ndati
ndaw
ndawaan
ndawal
ndawam
ndawi
ndawu
ndawul
ndax
ndaxte
nday
ndayam
ndayi
nde
ndee
ndeek
ndeel
ndeelu
ndeeluwaan
ndeem
ndeer
ndefar
ndegam
ndenkaane
ndey
ndeyi
ndi
ndiaye
ndigal
ndigalam
ndigali
ndigalul
ndige
ndiir
ndiiwaan
ndiiwaani
ndijoor
ndijooram
ndiko
ndikoo
ndiku
ndima
ndimal
ndimbal
ndimbalam
ndimbalu
ndimbalul
ndir
ndiŋ
ndo
ndoddum
ndof
ndogal
ndogalu
ndokkeel
ndoktoor
ndollant
ndollent
ndombaam
ndombo
ndomboy
ndonga
ndongo
ndono
ndool
ndoon
ndoorteelu
ndox
ndoxe
ndoxum
ndu
ndul
ndumbe
ndun
ndundat
nduroo
ndutoon
nduur
nduwaan
ne
neb
nee
needle
neeg
neegub
neek
neel
neem
neen
neena
neenal
neenaloon
nees
neeti
neew
neewal
neewi
neewoon
neewte
neex
neexal
neexalu
neexalub
neexe
neexee
neexoon
neexu
neexum
neggandiku
nek
nekk
nekkal
nekkaloon
nekkam
nekkati
nekke
nekkee
nekki
nekkiin
nekkiinam
nekkiinu
nekkin
nekkinu
nekkon
nekkoo
nekkoon
nekkte
nekku
nekkug
nekkul
nekkunu
nekkutoon
nekkuwaay
neko
nekoon
nelaw
nelson
nemmeeku
nemmeekukat
nemmiku
neneen
nenn
nepaal
nes
net
nettalee
nettali
nettaliy
network
new
news
newsiland
newton
newwi
ng
nga
ngaa
ngaan
ngaana
ngaay
ngaayoo
ngacc
ngal
ngale
ngalee
ngaleek
ngaleem
ngalekat
ngalekatu
ngalem
ngalteer
ngam
ngan
nganale
ngank
ngannaay
ngara
ngarab
ngartaajoo
ngass
ngat
ngatu
ngay
nge
ngee
ngeen
ngeer
ngelaw
ngelawi
ngelawul
ngente
ngi
ngii
ngiir
ngiit
ngin
ngir
ngirug
ngistal
ngkat
ngo
ngol
ngom
ngone
ngoo
ngook
ngoom
ngoon
ngoonug
ngoor
ngooru
ngor
ngoram
ngornamaŋ
ngoro
ngoroy
ngu
ngub
ngug
ngul
ngum
ngun
ngunaay
ngunoom
ngunu
nguur
nguuraan
nguuraanam
nguuraani
nguuram
nguuri
nguuru
nguurug
nguy
ni
nia
niang
niari
nicolau
nie
niew
nihmal
nii
niil
niimaa
niir
niis
niit
niitu
nijaayam
nijeer
niki
niko
nimero
nimh
nimu
nin
nio
niokolo
niou
niral
niroo
nirook
nirool
niroole
niru
niseer
niseeria
niseeriya
niseeriyaa
niseria
niseriya
nit
nitam
nite
niti
nitn
nitt
nitu
nitug
niu
nixmaa
niy
nj
nja
njaaj
njaajaan
njaam
njaambur
njaare
njaareem
njaay
njaayum
njaboot
njabootam
njabootu
njabootub
njabootug
njaf
njang
njangale
njangat
njar
njarin
njaru
njaxas
nje
njeexit
njeexitu
njekk
nji
njiilul
njiit
njiiti
njiitlaay
njiitu
njiitug
njiitul
njo
njobbaxtalu
njolloor
njool
njoolaay
njooy
njort
njortam
njot
njoxe
njub
njudde
njunj
njur
njure
njuuj
njuumte
njuumteg
njuux
nk
nkaafu
nkaane
nkale
nkaloo
nkaloon
nkam
nkar
nke
nkee
nkeel
nkeg
nki
nkoo
nkoon
nkoonte
nkoonteek
nkoonteel
nku
nkub
nloo
nn
nna
nnaar
nnaaram
nnaaru
nnaay
nnaayal
nnaayam
nnaayu
nnaayul
nnal
nnam
nne
nnee
nneel
nneeti
nneex
nneexu
nnent
nni
nnoon
nnu
nnug
no
nob
nobel
nocci
nocciku
nodd
noflaay
noir
noire
nom
nomme
non
nonu
noo
noom
noon
noona
noonam
nooni
noonoo
noonu
noor
noos
noot
nooy
nooyal
nopp
noppal
noppalu
noppee
noppi
nord
norte
north
northern
norweej
norwej
nos
nosaat
nose
nosiin
nosiinu
nosoon
noste
nosteem
nosteg
nostey
nosu
nosub
nosukaay
not
notal
note
notee
notes
notoon
notre
nouvelle
nouvelles
nova
novel
novels
november
novo
nowa
nowambar
nowembar
noyyi
nq
nqaas
nqaasam
nqaasi
nqaasoo
nqaasu
nqaasub
nt
ntam
nte
ntewoo
nti
ntimet
ntoodil
ntu
ntul
nu
nucle
nuit
nul
nume
numero
numu
nun
nutrition
nuul
nuur
nuuraakon
nuy
nuyoo
nuyyoo
nuyyu
nuyyul
o
ob
oba
obe
observer
obsessive
obu
occasion
occidentale
ocd
ocean
october
octobre
oddi
odu
of
ofeen
office
official
officiel
ofisel
ogal
ogg
ogo
ogol
ogust
ohm
ok
okanye
oktobar
oktoobar
ol
olaand
oland
old
oli
olo
ologie
olu
olukaay
olukaayu
olute
om
omar
omburgero
omi
oms
omu
on
onde
ondes
one
ongal
oni
only
onoris
ont
onu
onusida
onze
oo
ook
oom
oon
ooy
ooŋ
op
open
opinion
opold
oppeere
option
or
ora
oral
oram
ordre
ore
oree
orenstein
org
organisation
organization
organizm
ori
orient
origin
original
origine
origines
oris
orlando
ornamaa
orob
orobug
oroon
orto
ortodoksi
oru
orug
orul
os
osaa
oseyaani
oso
osoras
ostraali
ostrali
ot
otal
otan
other
oti
oto
otomatik
otris
otu
otum
ou
ouest
oumar
our
ousmane
out
outbreak
outille
ouvrage
over
ow
ox
oxe
oxford
oy
oŋal
p
pa
paab
paaka
paap
paate
pac
pacc
pacifik
page
pages
paix
paj
pajum
pakistaan
pakk
pal
palaas
palam
palanteer
palastin
palato
palestiin
palestin
pali
palug
panamaa
pandemic
paper
papuwasi
par
paraguwaay
parameter
parc
pare
pari
paris
parlamaa
parlamaab
parlons
parloo
parma
part
partenariat
parti
participo
particules
partie
pas
pasifig
pasifik
pass
passer
paste
pasu
patel
pathogen
patient
patients
patro
paul
paulense
pax
paxum
pay
payoor
pays
pcr
pdf
pe
pecc
pedra
pedro
peege
peek
peen
peer
peeram
peey
peeyi
peeyu
peeyub
pegg
peggi
peggu
pen
pencum
penda
pengembangkan
penkoom
penku
penkub
penkug
pense
people
pepp
per
period
person
personne
persono
perspective
perspectives
pert
pertinence
pertussis
peru
perusahaan
peter
petit
petrarch
petrol
peul
peuple
peut
pexe
pexeem
pexem
pexey
pg
pharmacopoeia
phi
philadelphia
philosophie
phone
php
physique
pi
picc
picos
pie
piemonte
pierre
pikiir
piri
pisidi
pl
place
plan
plej
pli
pluralo
plus
pluton
pmc
pmeg
pmid
pnud
po
pocket
podoor
poe
point
pole
police
polineesi
polio
politig
politigam
politigkati
politigu
politique
politiques
pollution
polo
polon
pom
pomp
pon
ponk
ponki
ponku
pont
ponta
pool
poortorikoo
pop
popileer
popp
population
por
porge
poroxaan
port
portail
porte
porter
portigaal
portigee
portion
porto
portugaal
portugal
pos
pose
position
poson
possessive
post
pot
poto
pour
pouvoir
pp
ppa
ppaaya
ppal
ppale
ppaloo
ppaloon
ppam
ppandi
ppante
ppe
ppee
ppi
ppiitum
pplante
pplanteek
pplanteg
pple
pplee
ppndal
ppo
ppoo
ppoog
ppook
ppoon
ppoowul
ppte
ppu
ppul
ppum
practice
praia
praise
prc
pre
preesip
premie
premier
president
presqu
press
prevalence
prevent
preventable
preventing
prevention
preventive
pri
price
primeira
principe
principes
principles
prix
proceedings
production
produire
produit
produits
produk
profitoo
prograam
prograamu
program
programme
programmes
prophe
proprie
protection
protestant
protestants
proteus
proteyin
proton
proverbes
psc
pseudotolithus
psychiatric
psychiatry
psychology
pt
ptsd
pub
public
publication
publications
publie
publique
published
publishers
publishing
pulaar
pullaar
pur
puso
put
putuxlu
puukarewu
puur
px
q
qa
qaada
qaama
qaar
qal
qale
qalee
qaleek
qalikoo
qam
qami
qare
qasu
qat
qatoo
qatu
qe
qee
qi
qibt
qo
qoo
qoon
qq
qqu
qu
quateur
qudoom
quds
que
quelle
question
questions
qug
qui
quilibre
quote
quotidien
qura
quraysin
r
ra
raadda
raajihuun
raas
raay
raaya
raayob
rab
rabbanaa
rabbi
rabbika
rabbil
rabi
rabiihul
rabiihus
radi
radio
radioe
rafet
rafetal
rafete
rafeti
rafetug
rafle
rafleel
ragal
ragaloon
raglu
rahiimi
rahmaan
rahmaanir
rahmatul
raj
rajab
rajiimi
rajloo
rajo
rakam
rakk
rakkam
rakki
ral
rale
ralinu
raloon
ram
ramadaan
rambaaj
ramos
ramu
ramul
ran
randu
range
rante
rap
rapport
rasuul
rasuulul
rat
rataxal
ration
rature
raw
rawante
rawati
rawatina
rawee
rawoon
rax
raxas
raxasu
raxoon
ray
rayal
raye
rayee
rayn
rayoon
rayug
rbo
re
rec
reccu
recherche
recherches
record
ree
reek
reen
reenam
reeni
reenu
reer
reeroo
reesal
reew
reewam
reewi
reewu
reewum
ref
referred
reg
region
regional
registry
rei
rek
rekk
rekki
related
relations
religieuse
religion
ren
renaissance
rence
rences
rendi
report
republic
republicain
republig
republik
republika
res
research
resen
resistance
retrieved
reuters
review
reviews
revue
rew
rey
rga
rgi
rgu
rho
ri
ria
rialisme
ribaat
ribeira
ric
richard
richart
rie
rieur
rif
riif
riin
riir
riis
riisi
riit
rikk
rin
rio
riode
rip
rique
risk
rite
rito
river
riye
rj
rlaay
rliif
rlu
rlukaay
rluwiin
rma
rmaande
rmaandeem
rmaandey
rmande
rme
rngal
rngalu
rnge
ro
robert
robespierre
roccee
rock
rodisiya
rodisiyaa
rodrigues
roger
roi
rom
romaani
romain
roman
romani
romb
romboon
ron
ronam
ronu
roo
rood
roog
room
roon
roose
root
ropplaan
rot
rote
rouge
rougeole
rousseau
roy
roye
royte
royuwaay
rr
rs
rse
rsssf
rt
rtc
rte
rtel
rtemaa
rtey
rti
rtu
ru
rub
rubin
rufisque
rug
rukkoo
rukoo
rul
rum
run
ruq
rural
rus
rusi
rusloo
ruu
ruug
ruur
ruuroon
ruus
ruuwam
ruwaayom
ruwandaa
rw
ryan
rzea
s
sa
saa
saab
saaba
saabaam
saabay
saabit
saabu
saadiq
saafara
saag
saajo
saal
saaliwu
saalu
saalum
saalumam
saalumu
saam
saambi
saamo
saan
saanii
saaniya
saar
saara
saari
saaru
saasa
saasumaan
saatir
saay
saayir
sab
sabab
sababi
sabablu
sababoon
sababu
saboote
sadwa
saf
safaa
safaan
safaanoo
safaanu
safaanub
safaanukaay
safaq
safar
safara
safety
saful
sag
sago
sagoom
sahaaba
sahara
sahbaan
sahdu
sahel
sahiid
sahwatul
saint
sakk
sakkan
sakku
saksoni
saksoniya
sal
salaam
salaamun
salaan
salaatu
salamansa
sali
saliou
sall
salli
salool
salt
saltige
salukaay
saluumu
salvador
sam
sama
samaawaati
samab
samag
samam
samaw
samay
samb
samba
sambi
samirin
samp
sampe
sampoon
sampu
samuel
samwie
samwiye
samy
san
sana
sanaar
sanc
sancaan
sancam
sancati
sance
sancee
sanci
sancoom
sancoon
sancu
sancug
sancuy
sandikaay
sandwich
sang
sanger
sangoo
sangu
sangub
sanitation
sanni
sanoosi
sansibaar
sant
santa
santaane
santal
sante
santee
santi
santiago
santo
sao
sapiens
sapo
sapoŋ
sar
saraa
sarax
saraxalekat
saraxe
saraxndiku
saraxule
sarden
sariiha
sariiya
sariya
sarr
sarsaara
sart
sartam
sarti
sartoon
sartu
sas
sasam
satala
satalit
sattumbar
satumbar
saudi
saunders
savoia
saw
sawaal
sawaana
sawar
sawara
sawaraam
sawarloo
sawaroon
sawat
sawdit
sax
saxaar
saxal
saxalal
saxalam
saxali
saxaloon
saxe
saxee
saxoon
saxug
saxul
say
saytaane
saytaanir
saytoo
saytu
saytubiddiw
sayyidinaa
sc
schizophrenia
school
science
sciences
scoreshelf
scorpion
scott
screening
sd
se
seawater
sebbe
sebtambar
seck
secretariat
sedaar
sedatle
sedd
seddale
seddalee
seddaliku
seddatle
seddoo
see
seede
seen
seenegaal
seeni
seeniy
seenu
seenub
seenug
seenum
seenuw
seer
seere
seereel
seereer
seet
seetaan
seetal
seetee
seeti
seetlu
seetsi
seex
seexal
seexi
seexu
seey
segam
segg
seggat
sekk
sekkare
seland
selil
sell
sellal
sellam
selli
sellug
selon
sembe
sen
sena
sencampus
senegaal
senegal
senegalensis
senegambia
seneraal
senge
senghor
sengoor
senn
sentation
sentu
septa
september
septembre
seq
seqoo
seqooy
seral
serbi
sereer
serer
serigne
serin
serra
sert
serum
server
services
ses
sesaar
set
setal
setembro
setlu
settantal
severity
sew
sewogaraafi
sex
sexaw
sey
seydinaa
seysel
seŋoor
shaam
shalswig
shaytaanir
sheet
sheex
sheexi
sheexu
sheexul
shw
si
siaare
sib
sibbiru
sibeel
sibiru
siburu
sid
sida
sidaa
siddeem
siddi
side
sidente
sidents
sidit
sie
siecle
siggcoor
siggi
signe
signs
sii
siidi
siidiya
siin
siise
siiw
siiwal
siiwe
siiwoon
siiya
sikk
silaa
silaan
silatigi
sili
silla
silqihda
silva
simaa
simbaawe
simbaawee
simi
simili
simon
sin
sinaa
sine
sinemaa
singapoor
sinjaata
sintra
sipar
siraa
siraat
siri
sisaal
sisil
sistem
site
situation
siw
siwe
siwil
siwis
siwoon
siy
siyaare
siyaareji
siyaaresi
siyorix
sk
skaneer
ski
slaaf
slaay
slaayi
slaayu
small
sn
so
sobe
socc
soccerway
soce
social
sociale
sociales
socialiste
socie
society
soda
sodaar
sodit
sofiet
sofyet
soi
soj
sol
solal
soldaar
soldaaram
soldaari
soleil
solo
solofrayn
solom
solomon
soloo
solos
somaali
somali
sometimes
sommeil
son
sonal
song
songaay
songee
songoon
songu
sonn
sonnal
sonnale
sonnalee
sonne
sonnle
sonnoon
sonnu
sons
sont
soo
soob
soobe
soobee
soobu
soobukati
soof
soog
sooga
sooke
soon
sooninke
soop
sooroolub
soose
soosu
soow
soowu
sooy
sopotamie
sopp
soppal
soppali
soppalikaay
soppe
soppee
soppeekoo
soppeeku
soppeem
soppi
soppikoo
soppiku
soppoon
soqeekoo
soqikoo
sor
soree
soreente
sorewul
sori
soril
soriwaay
soriwul
sorriwante
sos
sosal
sose
sosee
sosoo
sosoon
sosu
sosug
sot
soto
sottee
sotti
sottiku
sottil
sottiwaayu
source
sous
south
sow
sowee
sowu
soww
sowwoom
sowwu
sowwub
soxla
soxlaa
soxlaal
soxlaalul
soxlawoo
soxlawu
soxlawul
soxna
soxnaam
soxot
spe
specific
sport
sporting
spread
ss
ssri
st
staad
stadiums
standard
state
statement
states
statistical
statistique
statistiques
steak
steinmetz
stephen
stica
stoo
stoom
stop
straali
strasbourg
strasburg
strategies
strateji
stress
structure
stu
stubiddiw
studies
studio
study
stug
stuji
stukat
stuwaay
stuy
su
sub
suba
subhaana
sud
sudaan
sudan
sudee
suede
sufic
suhaybu
suicide
sujjo
sujo
sujood
sukkandikoo
sukkandiku
sukkandikukaay
sul
sulaymaan
sulet
suleymaan
sultaan
sulye
sumb
summary
summiku
sump
sun
suna
sunguf
suniy
sunjata
sunna
sunnaam
sunnas
sunnay
sunu
sunub
sunug
sunuy
supe
suppl
suqali
suqaliku
sur
suraas
surface
surnaal
sutura
suturaal
sutuxlu
suuf
suufam
suufe
suufi
suufu
suufus
suukar
suul
suumiyaa
suuna
suux
suuxat
suwaasilaand
suwayli
suwe
suwed
suweed
suwes
suwis
suy
sv
swingli
sy
sylla
symptoms
syste
system
systematic
systeme
t
ta
taa
taab
taabal
taal
taalati
taalib
taalibe
taalibeb
taalibeem
taalibey
taalif
taalifal
taalifam
taalifi
taalifkat
taalifoon
taalis
taaloon
taalube
taalubeb
taalubeem
taalubey
taamu
taan
taar
taaral
taariix
taariixkat
taariixu
taarix
taarixkat
taarixu
taaru
taarub
taawam
taawub
taax
taaxe
taaya
taayif
taaywaan
tab
taba
tabaski
tabax
tabaxi
tabaxiin
tabaxoon
tabb
tabe
table
tableau
tablesk
tablo
tabular
tacitus
taf
tafsiir
tag
tagg
taggat
tagge
taggoon
tahaalaa
tait
tak
takk
takkaay
takku
tal
talaata
tali
talu
tam
tamattuh
tambale
tambalee
tambali
tamit
tamn
tamxarit
tan
tandarma
tane
tanfuzuu
tang
tangaay
tanganyika
tangoor
tank
tanqe
tansani
tapoo
tapoog
tappaan
tappoo
taq
taqale
taqaloo
taqalook
taqoo
taqoon
tar
taraay
taraayu
tarascon
tarbiya
tare
tari
tariixa
taroon
tarqiya
tarrafal
tas
tasaare
tasaaroo
tasam
tasawuf
tasawwuf
tase
tasee
task
tasoon
tasug
tat
tata
tats
tavares
taw
tawaaf
tawaaful
tawat
tawati
tawfeex
tawfeexal
tawhiid
tawreet
tawub
tax
taxa
taxan
taxaw
taxawaay
taxawaayam
taxawaayu
taxawaayub
taxawal
taxawalaat
taxawalee
taxawaloon
taxawe
taxawee
taxawlu
taxawoon
taxawu
taxna
taxoon
taxu
taxul
taxut
taxutoon
tay
tayba
taylor
taysiirul
tb
te
techniques
technology
tedd
teddnga
teddngaam
teddngay
tee
teel
teelu
teemeer
teemeeri
teen
teere
teereb
teereem
teerey
teertu
teeru
teet
teew
teewaayu
teewal
teewe
teewlu
teewoon
teewu
teewul
teey
teeyal
teeyug
tef
tefes
tefesi
tefesu
tefesug
teg
tegaat
tegaloo
tegati
tege
tegee
teggi
teggiin
teggil
teggiloon
teggu
tegi
tegoo
tegoodi
tegoon
tegtal
tegtale
tegtalub
tegu
tegul
tek
tekk
tekkaaral
tekkaaralaan
tekkee
tekkeem
tekkeerlu
tekki
tekkiwul
tekruur
teksi
tekuruur
tele
temb
tembam
tembar
tembe
tembee
tembte
tembteg
tembug
tempo
temps
tenk
tepp
teqale
ter
teraanga
teral
terale
tere
teree
tereem
terelin
terewu
terewul
term
terme
terra
terre
terrestre
terute
tes
tesalonig
test
testing
tewodoor
texe
texeedi
texeel
text
texte
tey
teye
th
than
that
the
them
therapy
there
they
thiam
thie
third
this
thomas
three
ti
tibb
tico
tie
tiers
tigi
tiijaan
tiim
tiir
tiis
tiit
tiitaange
tiital
tiitale
tiitange
tiitloo
tijji
tikkujara
tilim
tilimal
tim
time
times
timis
tin
tiniisi
tinisi
tio
tique
tiramakan
tiriyoonf
tirki
tisbaar
tissooli
tit
title
tito
tiu
tiwaawan
tiwaawon
tj
to
tobuso
tockus
toftal
toftale
toftaloo
togg
toggale
toggi
togo
toj
tol
toll
tollale
tollalee
tollee
tolloo
tollook
tollool
tolloon
tollu
tolluwaay
tolluwaayam
tolluwaayu
tolook
tomaas
tomb
tombe
tombub
tome
ton
tono
tonowu
tontoo
tontu
toog
toogal
toogee
toogu
toogul
toogunu
took
tooke
tool
toolam
tooli
toolu
toolub
toon
tooro
tooy
top
topp
toppante
toppati
toppatoo
toppekat
toppkatu
toppoon
topptoo
toppu
toq
toqu
toro
toroxal
toroxlu
toroxte
toscana
touba
toubab
touray
toure
tous
tout
town
tr
tradition
traditionnelle
traduction
trafford
traite
trans
transcontinental
transmission
traore
traumatic
travadores
travail
tre
treatment
trends
trigo
tripoli
triques
trise
trois
tropique
ts
tt
ttal
ttali
ttalikoo
ttaliku
ttalikul
ttalil
ttam
ttan
ttanal
ttanam
ttanu
ttanug
tte
tteb
ttee
tteem
tteg
ttekaay
ttekaayu
ttekat
tteloo
ttewaay
ttey
tti
ttoon
ttu
ttub
ttug
tu
tub
tubaab
tubaap
tubbee
tuberculosis
tuberkuloos
tudd
tuddal
tuddati
tudde
tuddee
tuddees
tuddoon
tuddu
tude
tudes
tudiants
tudoon
tugal
tugalasi
tukk
tukke
tukkee
tukkeem
tukki
tukkib
tukkikat
tukkiy
tukklo
tukkloor
tukulo
tukuloor
tul
tum
tumbar
tumbra
tumbrankeel
tumbura
tund
tundi
tundu
tunduw
tuniisi
tunisi
tur
turam
ture
turi
turkey
turki
turquie
turu
tus
tusngalu
tuub
tuuba
tuubaa
tuubee
tuubloo
tuubul
tuufu
tuumaal
tuur
tuuru
tuut
tuutee
tuuti
tux
tuxal
tuxale
tuxaloon
tuxoo
tuxu
tuxug
two
ty
types
u
uaramus
ub
ubale
ubbee
ubbeeku
ubbi
ubbiku
ubbil
ubbite
ubn
ucad
ufawwidu
ufiwoon
ug
ugandaa
ugb
uk
ukk
ukkaakon
ukreen
ukuba
ul
ultramarina
um
umar
umm
umma
umra
un
under
une
unesco
ungi
unia
unies
union
unis
unite
united
universite
university
unknown
untranslated
unu
up
update
upp
urdun
uruguwaay
us
usa
usd
use
used
usmaan
ustaas
usuul
ut
utc
uuf
uufoon
uul
uy
v
va
vaccination
vaccine
vaccines
value
van
vasco
ve
vec
velha
veloppement
venezia
veni
venues
ver
verde
vermelho
versailles
vert
veto
vi
via
viana
vice
vicente
victor
vide
video
vie
vienne
view
vih
viieelu
vila
village
ville
villes
vin
vinci
violence
viral
virgin
virus
visage
vision
vista
vol
volt
voltaire
volume
volumes
volution
vortaro
vorton
voyage
w
wa
waa
waaj
waaja
waajal
waajale
waaji
waajur
waajuram
waalo
waame
waan
waar
waaraate
waare
waaso
waat
waaw
waawaaw
waawug
waax
waaxi
waaxub
waay
waayam
waaye
wacc
wacce
wacci
waccu
wadd
wahyu
wakh
wakiil
wal
wala
walante
walate
wales
waliif
wall
walla
wallaahi
wallaahu
wallaate
wallante
wallay
walle
walliyu
wallu
wallug
wallum
walu
walug
waly
wamaa
wan
wanag
wane
wang
wann
want
wante
war
wara
warahmatul
waral
waraloon
waralu
waralub
ware
waree
wareef
warees
warlu
warlul
waroon
warsaw
wart
warte
warteefi
waru
warul
waruwaay
was
wasalaam
wasalaamu
wasalaamun
washington
wasiila
wasington
wata
watatukaay
water
wati
watt
wattoo
wattoom
wattu
wax
waxaat
waxal
waxam
waxambaane
waxambaanee
waxante
waxantu
waxati
waxe
waxee
waxeef
waxees
waxi
waxiin
waxiinu
waxin
waxni
waxoon
waxtaan
waxtaane
waxtaanu
waxtoom
waxtu
waxtuw
waxtuy
waxu
waxul
waxuma
waxun
waxunu
waxutoon
way
wayam
wayback
waye
wayjur
wayjuram
waykat
wayndare
we
weah
wearing
web
website
weccante
weccee
wedam
weddi
wee
weekly
ween
weer
weeri
weert
weeru
wees
weesoo
weesu
weesuwul
weesuwunu
weesuwutoon
weetal
weex
weg
wekku
wen
weneen
wenn
wepp
wer
werante
weree
wergi
wergu
wert
wesaare
wesar
west
western
wet
wetam
wetu
wetug
wex
wey
what
when
where
which
white
who
whois
whooping
wi
wicc
wide
wietnaam
wii
wikbaatukaay
wiki
wikimedia
wikipedia
wilaaya
wilaayaam
wiley
wilgeer
will
william
williams
wilson
wilyaam
wird
wirdam
wirdul
wirduw
wirgo
wiris
wirus
wis
wisaare
wisaaroo
witaamin
with
witt
wiy
wiye
wiyetnaam
wkly
wo
wogaraafi
wolof
wolofal
wolofi
wolteer
woman
women
wommat
wommatal
wommate
wommatiin
wommatoo
wommatu
wommatug
wommatukaay
won
wone
wonee
wonke
woo
woolu
woom
woomle
woon
woor
woorul
woote
wooteb
wootee
wooteem
wooteg
woowa
woowe
woowee
woowu
wooye
wopp
wor
wori
world
worma
wormaal
wormaalal
woroom
woroomi
woru
wos
wote
wotey
wottee
would
wow
wowee
woy
woyam
woyi
woykat
woykati
woykatu
woyof
woyofal
wrin
wrinam
wrini
wrinu
wu
wub
wug
wuhan
wul
wum
wun
wund
wurus
wurusu
wut
wutal
wutaloon
wute
wuti
wutoon
wutu
wuude
wuutal
wuutale
wuute
wuutee
wuuteeg
wuuteek
wuuteel
wuuteg
wuutu
wuutuloxo
wuy
wuyyu
wuyyusi
ww
wwu
www
x
xa
xaabaabal
xaadim
xaadir
xaadiriya
xaaj
xaaji
xaajoon
xaaju
xaajub
xaal
xaalee
xaali
xaalis
xaalisu
xaalu
xaar
xaarun
xaatim
xaatimoon
xaay
xaayra
xad
xadi
xadiija
xadiim
xadir
xaj
xajal
xajjale
xal
xala
xalaat
xalaatam
xalaate
xalaati
xalaatkat
xalaatoon
xalaatu
xalaatub
xalam
xalat
xale
xalifa
xalifaam
xalifab
xaliil
xalima
xam
xamadi
xamal
xamale
xamalee
xamam
xamantane
xamantani
xamante
xame
xamee
xamees
xami
xamle
xamlu
xamluwaay
xammee
xamne
xamni
xamoo
xamoon
xamu
xamub
xamug
xamul
xamuma
xamun
xamunu
xamutoon
xan
xanaa
xante
xar
xarala
xaralay
xaralaymbe
xaran
xarbaax
xare
xareb
xaree
xareem
xarefulwoon
xarekat
xarekatam
xarekati
xarem
xarey
xari
xarit
xaritam
xariti
xaritoo
xaritu
xaritub
xarm
xarnu
xarnub
xaru
xas
xasaayid
xasaayit
xasam
xasaw
xasida
xasidaam
xasidag
xasiday
xasraj
xat
xatal
xathii
xatu
xaw
xawa
xawaariq
xawma
xawoon
xay
xaybu
xayma
xaymaa
xayna
xayra
xayri
xayrin
xayrul
xaysar
xayug
xazaalii
xe
xeeb
xeebu
xeej
xeemeem
xeen
xeer
xeet
xeetal
xeetam
xeeti
xeetu
xeewal
xeewale
xeewali
xeex
xeexal
xeexam
xeexe
xeexi
xeexle
xeexoon
xeexu
xeexub
xejj
xel
xelal
xelalkat
xelam
xeli
xelkoom
xelli
xellu
xeltu
xeltug
xeltukat
xelu
xelum
xemmeem
xemmem
xemmemte
xemmemteefi
xerawlu
xeren
xet
xettali
xettaliku
xetug
xew
xewar
xewee
xewi
xewoon
xewu
xi
xibaar
xibaarfeppal
xibaari
xibaaru
xibaarukaay
xibla
xiibon
xiif
xiima
xiin
xiir
xiirtal
xiirtale
xiirtalu
xiirtalug
xiirtalukaay
xilaafa
xisa
xisaam
xisay
xiv
xix
xixeelu
xiyaam
xo
xob
xobam
xobi
xobu
xocc
xol
xolam
xoli
xolub
xonk
xonq
xool
xoolaat
xoolal
xoole
xoolee
xoolkat
xoos
xoot
xootal
xoox
xop
xor
xorom
xoromu
xott
xotti
xottite
xu
xudar
xudoos
xul
xuloo
xuloob
xuloowaaleem
xumaak
xumbe
xunn
xunt
xunti
xupp
xuppe
xur
xuraan
xuraysin
xuru
xustantin
xutba
xutbakat
xuus
y
ya
yaa
yaakaar
yaakaari
yaakaaroon
yaangi
yaarabal
yaari
yaasiin
yaatal
yaatoo
yaatoom
yaatu
yaatug
yaatuwaay
yaatuwaayam
yaatuwaayu
yaay
yaayam
yaayi
yaayu
yabal
yabaloon
yag
yagg
yahood
yahoodi
yahuud
yal
yala
yale
yalla
yalu
yalwaan
yam
yamale
yamaleb
yaman
yamb
yamoo
yamoon
yamsaskal
yamu
yamul
yamun
yamutoon
yan
yaneen
yang
yani
yanqo
yanu
yanub
yaq
yaqiin
yaqq
yaqqute
yaqu
yar
yaraax
yaradiku
yaram
yaramam
yaramu
yare
yaroo
yaru
yatt
yattkat
yaw
yawma
yawmal
yawut
yax
yaxal
yaxam
yaxantoom
yaxantu
yaxantug
yaxantukat
yaxya
yay
yayoo
yazifuun
ye
year
years
yedd
yee
yeeg
yeegam
yeek
yeeme
yeen
yeene
yeenee
yeeneen
yees
yeesal
yeesalaat
yeesu
yeete
yeew
yeex
yeexal
yeexe
yegg
yegsi
yekkati
yekkatiku
yell
yelleef
yelleefam
yelleefi
yelleefu
yem
yemale
yemoo
yen
yena
yendoo
yendu
yeneen
yeneeni
yengu
yenn
yennat
yenneen
yenu
yep
yepp
yere
yerusalem
yesu
yett
yewenal
yewwu
yewwute
yewwuteg
yi
yii
yiir
yile
yilif
yilifoon
yilimaan
yin
yinkiiwal
yit
yitam
yite
yiteem
yitewoo
yitte
yitteel
yitteeloon
yitteem
yittewoo
yittey
yitu
yiw
yiwam
yiy
ylu
yo
yobb
yobbaale
yobboo
yobbooti
yobbu
yogoslawi
yokk
yokkoon
yokku
yokkug
yokkute
yol
yolaakon
yolet
yolom
yomb
yombal
yombalal
yombul
yonant
yonantam
yonent
yonentam
yonente
yonentub
yong
yonnant
yonnantam
yonnantub
yonnat
yonnee
yonneeti
yonnent
yonni
yoo
yool
yoolub
yoon
yoonal
yoonam
yooni
yoonu
yoor
yooya
yooyale
yooyee
yooyu
yooyule
yoq
yoqat
yor
yoral
yore
yoree
yori
yoriin
yoriinu
york
yoro
yoroon
yorul
yos
you
young
your
yow
yowaana
yoxo
yoxoom
yoxoy
yoy
yt
ytaane
yu
yude
yukaay
yul
yulaqaahaa
yum
yun
yuni
yunus
yurdan
yuridka
yuur
yuusuf
yuuxu
yuy
yye
yyee
yyeel
yyi
yyikoo
yyil
yyima
yyiwoon
yyiwu
z
za
zahabul
zannuuni
zifo
zika
zu
zudoor
zulu
{
|
}
~
§
«
°
²
·
º
»
×
ø
ŋ
ŋa
ŋaayoo
ŋacci
ŋas
ŋe
ŋoy
œuvre
ƭat
̀
́
̂
̃
̄
̆
̇
̈
̊
̋
̌
̓
̣
̧
̨
͂
α
γ
δ
η
ο
ρ
σ
φ
ω
ϕ
а
в
голтвянськии
е
и
киі
м
ме
на
ни
о
р
с
т
та
украі
ְ
ִ
ֵ
ֶ
ַ
ָ
ֹ
ּ
ׁ
א
ב
ד
ה
ו
י
כ
ל
מ
ן
נ
ע
פ
ר
ש
ا
ال
الا
الله
ام
ب
ة
ت
ث
ج
ح
خ
د
ذ
ر
ز
س
ش
ص
ض
ط
ع
ف
ق
ك
ل
لا
م
ن
ه
و
وا
ون
ى
ي
ين
ً
ٌ
ٍ
َ
ُ
ِ
ّ
ْ
ٓ
ٔ
ٕ
٪
ٰ
ۡ
۬
ा
्
​
‌
‎
–
—
‘
’
“
”
„
•
…
′
″
⁡
→
↔
↷
−
∫
⋅
③
④
⑦
▪
▬
☆
☉
☽
☾
♁
⯓
⺀
⺄
⺆
⺈
⺊
⺌
⺕
⺝
⺸
⺼
⿰
⿱
⿲
⿳
⿴
⿵
⿶
⿷
⿸
⿹
⿺
⿻
〢
コ
ユ
㇁
㇂
㇄
㇇
㇈
㇉
㇓
㐁
㐄
㐅
㐌
㐫
㐬
㐭
㐮
㐱
㑒
㒵
㒸
㒼
㓁
㓞
㔾
㕛
㕣
㖾
㘝
㚅
㚇
㚔
㚘
㝉
㝡
㝴
㝵
㞋
㞢
㞷
㠩
㠭
㠯
㡀
㡭
㡿
㢲
㢴
㣇
㣺
㥯
㪅
㫄
㫐
㫒
㫺
㬅
㬎
㬥
㬰
㲋
㳄
㷠
㸒
㸚
㸦
㼌
㼲
㽞
㿟
䀠
䂞
䍃
䏍
䒑
䖍
䖒
䖝
䖵
䙴
䚻
䜌
䝿
䡛
䧹
䪞
一
丁
丂
七
丄
丅
丆
万
丈
三
上
下
丌
不
与
丏
丐
丑
专
且
丕
世
丘
丙
业
东
丞
丢
丣
两
严
並
丨
丩
个
丫
丬
中
丮
丰
丱
串
丵
丶
丷
丸
丹
为
主
丽
丿
乀
乂
乃
久
乆
乇
么
义
之
乌
乍
乎
乏
乐
乑
乔
乖
乗
乘
乙
乚
乛
乜
九
乞
也
习
乡
乳
乾
亀
亅
了
亇
予
争
事
二
亍
于
亏
亐
云
互
亓
五
井
亘
亚
亜
亞
亟
亠
亡
亢
交
亥
亦
产
亨
亩
享
京
亭
亮
亯
亰
亲
亳
亶
亷
人
亻
亼
亾
仁
今
介
仌
从
仐
仑
仒
仓
仕
他
付
仝
代
令
以
任
企
伊
伏
伐
休
会
伯
但
位
何
佘
余
作
佥
使
來
侈
侌
侖
侯
侵
便
保
俞
信
修
倉
倍
候
倠
備
僉
僕
儿
兀
允
兂
元
兄
充
兆
兇
先
光
兊
克
兌
免
兑
兒
兓
兔
党
兜
兟
入
全
兩
兪
八
公
六
兮
兰
共
关
兵
其
具
典
兹
兼
冀
冂
冃
冄
内
冈
冉
冊
冋
册
再
冎
冏
冐
冒
冓
冖
冗
冘
军
农
冝
冡
冥
冫
冬
冷
几
凡
凢
凵
凶
凷
凸
凹
出
函
凾
刀
刁
刂
刃
刄
刅
分
切
刍
刑
刕
刖
列
刘
则
初
別
利
别
到
制
刺
則
削
剌
前
剡
剽
劉
力
功
加
劦
助
劫
劳
劵
勃
勇
勉
勒
動
務
勞
勤
勹
勺
勻
勾
勿
匀
匂
包
匆
匈
匊
匋
匍
匕
化
北
匚
匝
匡
匪
匱
匸
匹
区
医
匽
匿
區
十
卂
千
卄
卅
卆
升
午
卉
半
卌
华
卑
卒
卓
单
卖
南
卜
卝
卞
占
卡
卢
卣
卤
卦
卩
卪
卬
卯
印
危
即
却
卵
卷
卸
卻
厂
厃
厄
历
厈
厉
厌
厓
厘
厚
原
厤
厥
厨
厭
厲
厶
厷
厸
去
厼
厽
叀
参
參
叅
又
叉
及
友
双
反
叐
发
叒
叔
叕
取
受
叚
叜
叟
口
古
句
另
叩
只
召
可
台
叱
史
右
叵
号
司
叹
吂
各
吅
合
吉
吊
吋
同
名
后
吏
向
吕
君
吝
吞
否
含
启
吳
吴
吹
吾
呂
呆
呈
告
员
呙
周
命
咅
和
咎
咠
咢
咨
咸
咼
哀
品
哉
員
哥
哲
唐
商
啇
問
啚
啬
啻
善
喜
喬
單
喿
嗇
噩
嚴
囊
囗
囘
囙
囚
四
回
囟
因
囧
囬
困
囱
囷
固
国
圂
圅
國
圍
圓
土
圡
圣
圥
在
圭
地
圶
圼
坐
坒
坚
坴
垂
垔
垚
埀
埋
埶
執
基
堂
堅
堆
堇
堯
塞
墨
壘
士
壬
壯
声
壳
壴
壹
壺
壽
夂
处
夅
夆
备
夊
夋
夌
复
夏
夒
夕
外
夗
夘
多
夜
夢
大
夨
天
太
夫
夬
夭
央
失
夲
头
夷
夸
夹
夻
夾
奂
奄
奇
奈
奉
奎
奏
奐
契
奓
奔
奚
奞
奠
奢
奥
奭
女
奴
奻
好
如
妄
妙
妟
妥
妻
妾
姑
委
姜
威
娄
婁
婴
嬰
嬴
子
孑
孔
孕
孖
字
存
孚
孛
孝
孟
季
孤
学
孫
孱
學
宀
宁
宂
它
宅
宇
守
安
宋
完
宏
宓
宗
官
定
宛
宜
宝
客
宣
室
宮
宰
害
家
容
宾
宿
寄
寅
密
富
寒
察
寧
審
寫
寬
寮
寸
对
寺
寻
寽
対
寿
封
尃
射
将
將
專
尉
尊
尋
尌
對
小
少
尒
尓
尔
尖
尗
尚
尞
尢
尣
尤
尧
尨
尭
就
尸
尹
尺
尻
尼
尽
尾
尿
局
居
屈
屋
屎
屏
屑
展
屖
屚
属
屠
屡
屬
屮
屯
屰
山
屵
屾
岁
岂
岑
岡
岩
岳
岸
峯
島
崇
崑
崔
崖
崙
崩
嵬
嶲
巂
巛
川
州
巟
巠
巢
巤
工
左
巧
巨
巩
巫
差
己
已
巳
巴
巷
巸
巽
巾
巿
帀
市
布
希
帚
帛
帝
带
師
席
帶
常
干
平
年
幵
并
幷
幸
幺
幻
幼
幽
幾
广
広
庄
床
底
店
庚
府
度
庫
庭
庶
康
庸
廉
廌
廛
廣
廩
廴
延
廷
建
廾
廿
开
弁
弃
弄
弇
弋
式
弓
弔
引
弗
弘
弜
弟
弥
弦
弱
張
強
强
彊
彌
彎
彐
彑
当
彔
录
彖
彗
彡
形
彥
彦
彧
彭
彳
役
彼
往
待
律
徒
得
徙
從
復
微
徵
心
忄
必
忌
忍
志
忝
忠
忩
快
念
忽
忿
思
怠
急
怱
恆
恒
恩
恭
息
悉
患
悤
悲
悶
惠
惡
惢
愁
愈
意
愛
感
慈
慧
慮
憂
憲
應
戀
戈
戉
戊
戋
戌
戍
戎
成
我
戒
戔
或
戚
戠
戢
截
戲
戶
户
戹
戼
戾
房
所
扁
扇
手
扌
才
打
托
执
承
折
拉
拜
拿
掌
推
提
摩
支
攴
攵
收
攸
改
放
政
敄
敏
敕
敖
敗
敝
敞
敢
散
敦
敫
敬
数
敷
數
斂
文
斉
斊
斗
斤
斥
斩
斬
斯
新
方
於
施
斿
旁
旋
族
无
旡
既
旣
日
旦
旧
旨
早
旬
旱
旲
时
旾
昆
昇
昌
昍
明
昏
易
昔
昗
昜
星
春
昬
是
昱
昴
昷
時
晃
晋
晏
普
景
晶
智
暑
暴
曇
曩
曰
曲
曳
更
曷
書
曹
曼
曾
替
最
朁
會
月
有
朋
服
朔
朕
朗
望
朝
木
朩
未
末
本
札
朮
术
朱
朵
朶
朿
杀
杏
杜
束
条
来
東
杲
杳
松
析
林
枚
果
枝
枲
枼
某
柔
查
柬
柰
柴
栗
桀
桑
桼
梁
條
梟
梨
棘
棠
棥
森
楚
業
楽
榮
樂
樊
欠
次
欣
欮
欲
欶
欽
款
歆
歇
歛
止
正
此
步
武
歨
歪
歮
歯
歰
歲
歴
歷
歸
歹
歺
死
殳
段
殷
殸
殹
殺
殻
殿
毋
毌
母
每
毒
比
毕
毚
毛
毳
氏
氐
民
气
氣
水
氵
氶
氷
永
氺
氾
求
汝
汞
江
沃
沓
沙
沝
泉
法
波
泣
泥
泰
洛
洪
活
派
流
浦
浪
浮
淡
淮
清
渚
渠
湯
滿
漸
澳
火
灬
灭
灰
灵
灷
炅
炎
炏
炗
炙
炭
為
烈
烏
烝
焉
無
焦
焱
然
煞
熊
熏
燕
營
燮
爪
爫
爭
爯
爰
爱
爲
爵
父
爻
爽
爾
爿
片
牙
牚
牛
牜
牟
牢
牧
牪
牽
犀
犬
犭
犮
狂
狄
狊
独
狺
猋
猒
猪
献
獻
玄
率
玉
王
玟
玨
珎
班
琴
瑟
瑩
瓜
瓦
甘
甚
生
産
用
甫
甬
田
由
甲
申
电
甶
男
甸
甹
画
甾
畀
界
畏
畐
留
畜
畟
畢
畧
畨
番
畫
異
畱
當
畺
畾
疊
疋
疌
疑
疒
疾
癶
癸
癹
登
發
白
百
皀
皃
的
皆
皇
皋
皐
皕
皮
皷
皿
盃
盆
盇
盈
益
盍
盎
监
盒
盖
盛
盡
監
盤
盧
目
直
相
盾
省
眇
眉
看
眔
眞
真
眷
眼
眾
着
睘
睪
睿
瞏
瞢
瞿
矍
矛
矞
矢
矣
知
矦
短
石
破
碎
磊
磨
示
礻
礼
祟
票
祭
禀
禁
禸
禹
禺
离
禽
禾
禿
秀
秃
秉
秋
科
秝
秦
移
稟
穀
穌
穴
究
穹
空
穿
突
窄
窒
立
竒
竜
竝
竟
章
童
竹
笑
笠
筆
等
答
箕
算
箴
節
篤
篭
米
粉
粛
粟
粤
粦
粲
糞
糸
糹
系
約
納
素
索
紫
累
細
絜
絫
絲
維
綿
縣
繇
纍
纟
缶
网
罒
罔
罕
罗
罙
罡
罢
罪
署
罷
羅
羊
羌
羍
美
羔
羕
羗
羞
羡
羣
群
義
羲
羸
羽
翁
翏
習
翕
翟
翠
翼
老
耂
考
者
耆
而
耎
耑
耒
耳
耴
耶
耷
聂
聊
聖
聚
聶
聿
肀
肃
肅
肉
肖
肙
肥
肩
肯
育
肴
胃
背
胡
胥
能
脊
脩
膚
臣
臤
臧
自
臬
臭
臯
臱
至
致
臺
臼
臽
臾
臿
舀
舂
舄
與
興
舉
舌
舍
舛
舜
舞
舟
般
艮
良
色
艸
艹
艾
芒
芔
芬
芮
花
芳
芺
芻
苔
苗
苟
若
苦
英
茶
茸
荅
草
荒
荣
荼
莆
莧
莫
莽
菆
菊
菐
華
萬
落
葉
著
葛
董
葵
蒙
蒦
蒼
蓋
蓬
蓺
蔑
蔡
蕉
蕭
薄
薛
薦
薰
藍
藏
藥
蘭
虍
虎
虐
虒
虔
處
虖
虗
虘
虚
虛
虜
虞
虫
虽
蚤
蚩
蜀
蜜
蟲
蠡
血
行
衍
衛
衣
衤
表
衮
衰
袁
袞
褭
褱
襄
襾
西
覀
要
覃
見
規
覓
覧
親
覽
见
角
解
言
訁
訇
計
詹
誩
諸
讠
谷
豆
豈
豊
豐
豕
豖
豙
象
豦
豩
豪
豸
貇
貝
貞
貟
負
貢
貧
貪
貫
責
貳
貴
買
費
賁
資
賈
賏
賓
賔
賛
賞
賢
賣
質
賴
贊
贝
贡
责
贯
贲
贵
赖
赞
赤
赦
走
越
足
路
蹇
身
躬
車
軍
軎
軟
輦
车
辛
辜
辟
辥
辰
辱
農
辵
辶
边
达
过
近
连
迷
追
退
送
逆
逐
通
速
造
逢
連
逮
進
遀
遂
過
道
達
遣
適
遷
遺
邊
邑
邕
那
邦
邪
郎
部
郭
都
鄉
酉
酋
配
酓
釆
采
里
重
野
量
金
釒
錢
钅
長
镸
长
門
閃
閉
開
閏
閑
閒
間
閔
閵
閻
闌
门
间
闷
阑
阜
阝
阿
降
陳
隆
隊
隋
隡
隨
隱
隶
隹
隺
隻
隼
隽
难
雀
雁
集
雈
雋
雍
雐
雔
雙
雚
雜
雝
離
難
雨
雩
雪
雲
零
雷
需
霍
霜
霝
霞
霸
靈
靑
青
非
靡
面
靣
革
韋
韦
韭
韯
韱
音
頁
頃
項
須
頗
頡
頻
顛
页
風
风
飛
飞
食
飠
養
饣
首
香
馬
馮
駦
马
骨
高
髟
鬥
鬯
鬲
鬼
魚
魯
鮮
鱼
鲁
鳥
鳳
鸟
鹵
鹿
麃
麗
麥
麦
麻
黃
黄
黍
黎
黑
黒
黨
黹
黽
黾
鼎
鼓
鼠
鼻
齊
齋
齐
齒
齿
龍
龙
龜
龟
龠
龰
龱
龴
龵
龶
龷
龸
龹
者
艹
︎
？
￼
🜨
𠀁
𠀃
𠀆
𠀉
𠀎
𠀐
𠁁
𠁣
𠂆
𠂇
𠂈
𠂉
𠂊
𠂋
𠂎
𠂒
𠂔
𠂛
𠂡
𠂢
𠂤
𠂬
𠂭
𠂹
𠃊
𠃋
𠃌
𠃍
𠃎
𠃑
𠃓
𠃔
𠃜
𠄌
𠄎
𠄠
𠄢
𠆢
𠆥
𠇍
𠈌
𠌵
𠓜
𠔉
𠔥
𠔼
𠔽
𠔿
𠕀
𠕁
𠕋
𠘧
𠘨
𠙻
𠙼
𠚏
𠚒
𠚤
𠚪
𠣏
𠤎
𠤕
𠥓
𠦄
𠦑
𠦝
𠧒
𠧗
𠧪
𠩺
𠪚
𠫓
𠫔
𠫤
𠬛
𠬝
𠬞
𠬢
𠬤
𠬶
𠮛
𠮦
𠮷
𠯑
𠱠
𠳮
𠷎
𡈼
𡉀
𡉵
𡌥
𡍮
𡏳
𡕒
𡕩
𡕰
𡖅
𡗗
𡗜
𡘆
𡘤
𡧱
𡨄
𡩧
𡬠
𡭽
𡰣
𡰥
𡰪
𡰯
𡰱
𡷈
𡸁
𡿨
𡿩
𡿪
𡿺
𢀖
𢀛
𢀩
𢁙
𢆉
𢆰
𢆶
𢇁
𢇇
𢉖
𢌬
𢌿
𢏚
𢑑
𢑚
𢖻
𢙣
𢛳
𢦏
𢦒
𢧵
𢼄
𢾕
𣁋
𣄼
𣅀
𣅽
𣍘
𣎳
𣎵
𣏋
𣏼
𣗥
𣥂
𣥖
𣦵
𣦼
𣧄
𣪊
𣪠
𣬉
𣳾
𣶒
𤇾
𤊽
𤐫
𤓰
𤔔
𤕨
𤣩
𤰇
𤰔
𤰞
𤴓
𤴔
𤽄
𥁑
𥁕
𥃦
𥃩
𥃭
𥇡
𥑟
𥘅
𥘈
𥝢
𥫗
𥱡
𦈢
𦉪
𦉬
𦉼
𦍌
𦍒
𦎧
𦐇
𦓔
𦔮
𦘒
𦙃
𦚏
𦣝
𦣞
𦣻
𦥑
𦥔
𦥯
𦨉
𦭝
𦰩
𧆞
𧈧
𧘇
𧰨
𧴪
𧴮
𧵩
𧾷
𨸏
𨾴
𩙿
𩠐
𩫏
𩵋
𪉷
𪜀
𪟽
𪠲
𪩲
𫇦
𫔭
𫜸
𫝀
𫠣
𫠩
𫢉
𫥞
𫩏
𫩠
𫪡
𫲽
𫶧
𬀷
𬐘
𬗌
𬙙
𬛸
𬜯
𬟩
𬯁
𬴘
𬺻
𬼉
𬼖
𭀰
𭁈
𭁨
𭅰
𭑈
𭕄
𭗼
𭤨
𭥫
𭻾
𮅕
𮊿
𮍌
𮍏
𮓗
𮥼
𮧮
廾
𰀁
𰀄
𰀈
𰀉
𰀕
𰀠
𰀡
𰀢
𰀪
𰁜
𰃮
𰆊
𰆘
𰋙
𰕎
𰢴
𰧭
𰯲
0--
03--
05--
10--
11--
12--
13--
14--
15--
16--
17--
18--
19--
20--
21--
23--
2773--
29--
31--
32--
41--
60--
978--
a--
aa--
aan--
aar--
ab--
ac--
ad--
ada--
administr--
af--
ag--
agricul--
ah--
ai--
aj--
ak--
al--
alek--
am--
ame--
an--
ana--
and--
ang--
antide--
ap--
appro--
aq--
aqu--
ar--
arach--
are--
ari--
as--
aso--
at--
att--
au--
ava--
aw--
ax--
ay--
aza--
b--
ba--
baa--
baci--
bah--
bal--
bam--
ban--
bar--
bas--
bay--
bb--
bbax--
be--
beg--
bel--
ben--
ber--
bet--
beu--
bi--
bib--
bijj--
bil--
bo--
bohi--
bokk--
bor--
bou--
bra--
bri--
bu--
but--
buu--
c--
ca--
caa--
call--
car--
cc--
ce--
cer--
ch--
cha--
che--
chi--
chri--
christ--
ci--
cla--
co--
col--
com--
con--
conf--
confi--
const--
cor--
cri--
cu--
cul--
d--
da--
dal--
dan--
day--
dd--
de--
dee--
def--
defu--
deli--
di--
diffe--
dis--
dj--
do--
doct--
docu--
dog--
dok--
doo--
dor--
dos--
dox--
doy--
doyo--
dr--
du--
e--
eb--
ed--
edu--
eg--
egy--
ej--
ek--
el--
elect--
eli--
em--
en--
ene--
ent--
er--
es--
eu--
euro--
ew--
ex--
ezi--
f--
fa--
faa--
fad--
fal--
far--
fas--
fav--
fay--
fe--
fee--
feg--
fer--
fesaluk--
few--
fi--
fir--
fo--
fon--
for--
fra--
fu--
fun--
g--
ga--
gal--
gan--
gar--
gaz--
ge--
geo--
ger--
gg--
gga--
ggu--
gil--
gis--
gla--
go--
gor--
gr--
gri--
gu--
h--
ha--
habii--
ham--
hamaza--
har--
has--
hay--
he--
hi--
hika--
hin--
his--
ho--
hu--
hun--
i--
id--
ide--
if--
il--
imi--
in--
inde--
initi--
install--
inter--
is--
it--
iz--
j--
ja--
jaa--
jaam--
jal--
jam--
jar--
jatt--
jawha--
je--
ji--
jj--
jo--
jot--
jox--
ju--
jub--
jug--
k--
ka--
kaa--
kal--
kan--
kar--
kat--
ke--
kem--
ki--
kir--
kk--
kka--
ko--
kol--
kolom--
kom--
kon--
kor--
ku--
kun--
kuut--
l--
la--
laa--
lab--
lah--
lar--
lat--
lau--
lay--
le--
lect--
ler--
li--
lib--
lin--
liv--
lla--
lli--
lo--
lu--
lub--
luk--
luu--
m--
ma--
maa--
maaki--
mag--
mah--
maj--
mal--
mam--
man--
mar--
mas--
maw--
may--
mb--
mbaa--
mbe--
mbi--
mbu--
me--
memb--
men--
met--
mi--
mic--
mil--
min--
mm--
mo--
moha--
mom--
mon--
mondi--
moo--
mor--
mos--
mou--
mouve--
mp--
mu--
muf--
muha--
murt--
mus--
musri--
must--
musul--
my--
n--
na--
naa--
naw--
nda--
nday--
ndey--
ndi--
ndo--
ne--
net--
new--
ng--
ngle--
ngo--
ngu--
ni--
nih--
nj--
nja--
nje--
njeex--
njo--
nk--
nn--
nna--
no--
nom--
nq--
nt--
nti--
nu--
o--
ob--
of--
ok--
ol--
om--
on--
oo--
op--
oper--
or--
ora--
organ--
os--
ot--
ow--
ox--
p--
pa--
pal--
par--
pe--
pediat--
pen--
per--
physi--
pi--
pie--
pl--
plu--
pneum--
po--
poli--
pom--
pos--
pp--
ppa--
ppi--
prati--
pre--
pri--
pro--
prob--
psych--
pu--
pul--
q--
qa--
qq--
qu--
quel--
qui--
r--
ra--
rah--
ral--
ram--
rap--
raw--
ray--
re--
recense--
recom--
ref--
reg--
ren--
res--
respi--
rey--
ri--
rid--
rme--
ro--
rot--
ru--
s--
sa--
saa--
sab--
sah--
sak--
saka--
salva--
san--
sar--
saxu--
sayyi--
sc--
sch--
sci--
se--
sen--
senee--
ser--
set--
sey--
sha--
shaaza--
shel--
sho--
si--
sig--
sil--
sin--
siy--
sk--
so--
sol--
soo--
sopp--
sos--
sosu--
sou--
spa--
spe--
st--
stu--
su--
suf--
suici--
sul--
sur--
suu--
t--
ta--
tai--
taj--
tam--
taq--
tar--
tas--
taw--
tax--
tay--
te--
tee--
teg--
ter--
th--
the--
thi--
ti--
tin--
to--
ton--
tooy--
tr--
tra--
tri--
tte--
tu--
tub--
tur--
u--
ub--
ul--
um--
un--
uni--
urba--
us--
v--
va--
vati--
ve--
ver--
vi--
vo--
vol--
vul--
w--
wa--
waj--
wal--
war--
was--
wax--
we--
weg--
wer--
wi--
wil--
wo--
won--
wone--
woy--
wu--
wut--
wuut--
x--
xa--
xam--
xan--
xar--
xay--
xe--
xi--
xo--
xol--
xu--
xur--
y--
ya--
yaa--
yah--
yam--
yamku--
yan--
yar--
yax--
ye--
yen--
yi--
yo--
yu--
z--
za--
ŋa--
р--
с--
ا--
ن--
و--
ي--
--0
--00
--1
--2
--3
--4
--5
--6
--7
--77
--8
--9
--a
--aa
--aab
--aah
--aakoon
--aam
--aan
--aas
--aat
--aate
--aati
--aatu
--aay
--aayu
--ab
--acio
--ad
--adi
--ado
--ag
--age
--agne
--agul
--ah
--ai
--aire
--aj
--ak
--al
--ale
--alee
--alu
--am
--ama
--an
--ana
--ani
--ans
--ant
--ante
--ants
--anu
--ar
--ara
--ard
--ari
--arloo
--aro
--ary
--as
--ase
--at
--ata
--atal
--ate
--ati
--atu
--atul
--atun
--au
--aux
--aw
--awu
--ax
--ay
--ayu
--az
--b
--ba
--be
--bi
--bo
--bro
--bu
--burg
--c
--ca
--cal
--ce
--ch
--ci
--ck
--co
--ct
--cted
--ction
--d
--da
--dah
--dam
--dd
--de
--di
--dia
--dies
--dii
--diku
--dium
--do
--dom
--ds
--du
--e
--eb
--ed
--edi
--ee
--eel
--een
--ees
--ef
--eg
--eira
--ek
--el
--ele
--em
--eman
--ement
--en
--er
--era
--ero
--ers
--es
--et
--eti
--eu
--eur
--ey
--f
--fa
--ff
--fi
--fih
--fu
--ful
--g
--ga
--ge
--ght
--gi
--gie
--go
--gu
--gul
--gy
--h
--ha
--he
--hi
--hii
--him
--ho
--hul
--hum
--humul
--huu
--i
--ia
--ian
--ib
--ic
--ical
--id
--ie
--ien
--ier
--if
--ig
--ihil
--ihu
--ii
--iim
--iin
--iir
--iit
--ija
--ik
--iku
--il
--ila
--ile
--im
--in
--ing
--ini
--ino
--ins
--inu
--io
--ion
--ions
--iq
--ir
--ira
--ire
--iro
--iru
--is
--isme
--it
--ital
--ite
--ito
--itu
--ive
--ix
--iy
--iya
--iyaa
--iyu
--j
--ja
--jen
--ji
--jo
--k
--ka
--kaa
--kaay
--kaayu
--kal
--kat
--kati
--katu
--kh
--ki
--kir
--ko
--kon
--koo
--ku
--kum
--l
--la
--laa
--lah
--lar
--ld
--le
--leen
--ler
--leurs
--ley
--lf
--li
--liku
--lit
--ll
--lle
--lo
--logy
--lon
--loo
--ls
--lu
--ly
--m
--ma
--me
--mi
--mo
--ms
--mu
--n
--na
--nal
--nce
--nd
--ne
--nes
--ney
--ng
--ni
--nig
--nka
--nke
--no
--ns
--nt
--nta
--nte
--nto
--nts
--nu
--o
--odi
--of
--og
--oj
--ok
--ol
--ole
--om
--on
--ons
--oo
--ook
--oom
--oon
--oor
--or
--oro
--ors
--ory
--os
--ot
--ou
--oune
--ous
--out
--ow
--oye
--oŋ
--p
--phe
--ple
--po
--ps
--pu
--q
--qa
--que
--r
--ra
--raal
--rc
--rd
--re
--rg
--ri
--ris
--rn
--rnal
--ro
--row
--rs
--ru
--ry
--s
--sa
--sation
--say
--se
--see
--sh
--si
--sion
--sir
--sky
--sme
--so
--son
--sr
--ss
--ssion
--sso
--st
--ste
--stics
--sts
--su
--t
--ta
--tal
--te
--tee
--teur
--th
--ti
--tia
--tik
--til
--tion
--tivo
--to
--too
--toon
--ts
--tt
--tte
--tu
--tul
--tun
--tunu
--ty
--u
--ub
--ud
--ue
--ug
--uk
--ukaay
--ul
--um
--un
--unu
--ur
--ure
--urs
--us
--ut
--uu
--uub
--uuka
--uun
--uur
--uw
--uwaay
--ux
--uz
--v
--ve
--ves
--vo
--w
--wa
--waat
--waay
--waayu
--wam
--we
--wi
--wn
--woo
--woon
--wu
--wul
--wun
--wunu
--wut
--x
--xa
--xe
--xt
--xtal
--y
--ya
--yaat
--ye
--yi
--yni
--ynu
--yo
--yon
--yu
--z
--ze
--zi
--zo
--ŋ
--в
--и
