!
"
#
##0
##1
##10
##11
##12
##13
##14
##15
##16
##17
##18
##19
##2
##20
##21
##22
##23
##24
##25
##26
##27
##28
##29
##3
##30
##31
##32
##33
##34
##35
##36
##37
##38
##39
##4
##40
##41
##42
##43
##44
##45
##46
##47
##48
##49
##5
##50
##51
##52
##53
##54
##55
##56
##57
##58
##59
##6
##60
##61
##62
##63
##64
##65
##66
##67
##68
##69
##7
##70
##71
##72
##73
##74
##75
##76
##77
##78
##79
##8
##80
##81
##82
##83
##84
##85
##86
##87
##88
##89
##9
##90
##91
##92
##93
##94
##95
##96
##97
##98
##99
$
%
&
'
(
)
*
+
,
-
.
/
0
00
000
0001
001
002
0022
007
01
02
020
03
04
05
06
07
08
09
1
10
100
1000
10000
10001
1001
1002
1007
101
1010
1016
1017
1019
102
1024
103
1037
1038
104
105
106
107
108
1080
1086
109
1093
11
110
1100
11000
1101
1103
1109
111
1111
112
113
114
115
116
117
1177
118
119
12
120
1200
121
12148
122
123
124
125
126
127
128
129
13
130
1300
131
132
133
134
135
136
137
138
139
14
140
1400
141
142
143
1431
144
1448
145
146
147
148
149
1492
15
150
1500
1501
151
152
1521
153
154
155
156
157
1572
158
1582
159
16
160
1600
1605
161
1610
162
163
164
1644
1646
165
1650
166
1661
1662
1669
167
168
1689
169
17
170
1700
1701
171
172
1728
173
174
175
1750
1758
176
1762
1769
177
1774
1775
1776
1778
178
1780
1781
1782
1783
1786
1788
1789
179
1790
1791
1792
1793
1794
1795
1796
1797
1798
1799
18
180
1800
1801
1802
1803
1804
1805
1806
1807
1808
1809
181
1810
1811
1812
1813
1814
1815
1816
1817
1818
1819
182
1820
1821
1822
1823
1824
1825
1826
1827
1828
1829
183
1830
1831
1832
1833
1834
1835
1836
1837
1838
1839
184
1840
1841
1842
1843
1844
1845
1846
1847
1848
1849
185
1850
1851
1852
1853
1854
1855
1856
1857
1858
1859
186
1860
1861
1862
1863
1864
1865
1866
1867
1868
1869
187
1870
1871
1872
1873
1874
1875
1876
1877
1878
1879
188
1880
1881
1882
1883
1884
1885
1886
1887
1888
1889
189
1890
1891
1892
1893
1894
1895
1896
1897
1898
1899
19
190
1900
1901
1902
1903
1904
1905
1906
1907
1908
1909
191
1910
1911
1912
1913
1914
1915
1916
1917
1918
1919
192
1920
1921
1922
1923
1924
1925
1926
1927
1928
1929
193
1930
1931
1932
1933
1934
1935
1936
1937
1938
1939
194
1940
1941
1942
1943
1944
1945
1946
1947
1948
1949
195
1950
1951
1952
1953
1954
1955
1956
1957
1958
1959
196
1960
1961
1962
1963
1964
1965
1966
1967
1968
1969
197
1970
1971
1972
1973
1974
1975
1976
1977
1978
1979
198
1980
1981
1982
1983
1984
1985
1986
1987
1988
1989
199
1990
1991
1992
1993
1994
1995
1996
1997
1998
1999
2
20
200
2000
2001
2002
2003
2004
2005
2006
2007
2008
2009
201
2010
2011
2012
2013
2014
2015
2016
2017
2018
2019
202
2020
2021
2022
2023
2024
2025
203
204
205
206
207
208
209
21
210
211
212
213
214
215
216
217
218
219
22
220
221
222
223
224
225
226
227
228
229
23
230
231
232
233
234
235
236
237
238
239
24
240
241
242
243
244
245
246
247
248
249
25
250
2500
251
252
253
254
255
256
257
258
259
26
260
2600
261
262
263
264
265
266
267
268
269
27
270
271
272
273
274
275
276
277
278
279
28
280
281
282
283
284
285
286
287
288
289
29
290
291
292
293
294
295
296
297
298
299
3
30
300
3000
301
302
303
304
305
306
307
308
309
31
310
311
312
313
314
315
316
3166
317
318
319
32
320
321
322
323
324
325
326
327
328
329
33
330
331
332
333
334
335
336
337
338
339
34
340
341
342
343
344
345
346
347
348
349
35
350
351
352
353
354
355
356
357
358
359
36
360
361
362
363
364
365
366
367
368
369
37
370
371
372
373
374
375
376
377
378
379
38
380
381
383
384
385
386
387
388
389
39
390
391
392
393
394
395
396
397
398
399
4
40
400
4000
401
402
403
404
405
406
407
408
41
410
411
412
413
415
416
417
418
419
42
420
421
422
423
424
425
426
428
429
43
430
432
433
4331
434
435
436
438
439
44
440
441
442
444
446
448
449
45
450
451
452
453
455
456
457
458
459
46
460
463
464
465
466
467
469
47
470
471
473
475
476
477
478
479
48
480
483
484
485
486
489
49
490
493
495
499
5
50
500
5000
501
502
503
504
505
506
507
509
51
510
511
512
513
515
517
518
519
52
520
521
522
525
527
528
529
53
530
531
532
533
5338
534
535
536
54
540
541
545
55
550
551
553
554
555
556
557
56
560
565
569
57
575
576
577
579
58
580
581
583
584
585
589
59
590
592
599
6
60
600
6000
601
602
603
604
605
606
607
608
609
61
610
6108
611
612
613
614
615
617
618
619
62
620
621
625
626
627
63
630
639
64
640
641
642
646
649
65
650
66
660
664
666
668
67
670
671
672
673
674
677
678
679
68
680
681
682
683
684
69
690
691
7
70
700
7000
701
705
707
71
710
717
72
720
721
722
729
73
730
737
74
741
742
747
75
750
751
752
755
757
759
76
760
762
767
77
770
775
777
78
780
786
79
795
796
8
80
800
8000
801
802
804
81
810
82
820
824
83
830
831
84
840
85
850
852
86
860
867
87
870
88
880
881
881903
8859
886
888
89
890
9
90
900
903
904
905
907
91
911
914
917
92
920
924959
925
93
930
933
934
935
936
937
939
94
940
945
947
948
95
950
951
952
955
957
96
960
961
962
965
967
968
969
97
970
971
973
975
976
978
979
98
980
981
982
983
985
986
988
99
999
:
;
<
=
>
?
@
[
\
]
^
_
`
a
aa
aaa
aaron
ab
abc
abdul
aberdeen
ability
abm
about
above
absolute
abstract
abu
ac
academic
academy
access
accessdate
accessed
accessyear
accidental
according
account
accreditations
ace
aci
acid
acm
across
act
action
activation
active
activity
actor
ad
ada
adam
adams
adaptive
add
addison
address
adele
adhd
adidas
adjustment
administration
administrative
adobe
adrian
adult
advanced
advances
advantage
adventure
ae
aec
aero
aespa
aesthetics
af
afc
affairs
afghanistan
afp
africa
african
after
ag
again
against
age
aged
agency
agent
agreement
agriculture
agrostophyllum
aguilera
ah
ahead
ai
aid
ain
air
airbus
aircraft
airlines
airplay
airport
airways
ais
ajuga
ak
akb
akon
al
alan
alba
albert
album
albums
alex
alexander
alfred
algebra
algorithm
algorithms
ali
alice
alicia
aligned
alison
alive
all
allan
allcinema
allen
alliance
allison
allmovie
allmusic
allocine
allowed
allstar
almost
alone
alpha
alphabet
alphago
also
alternative
alvin
always
am
amanda
amazing
amazon
amber
amd
ame
america
american
among
amsterdam
amy
an
analysis
anatomy
ancient
and
anderson
andre
andrea
andreas
andrew
andrews
android
andy
angel
angela
angeles
angels
angle
anglican
anh
animal
animals
animation
anime
ann
anna
annals
anne
annie
anniversary
announces
annual
another
anson
anthony
anti
antonio
any
anywhere
ao
aol
ap
apistogramma
apm
app
appl
apple
appledaily
application
applications
applied
approach
approaches
apps
april
aq
aquarii
ar
ara
arc
arch
archi
architectural
architecture
archive
archived
archives
are
area
areas
arena
argentina
argument
aria
aristotle
ark
armed
arms
armstrong
army
arnold
around
array
arsenal
art
arthur
article
articles
artificial
artist
artists
arts
arxiv
as
ascii
ashley
asia
asian
ask
asp
aspx
assembly
assessment
associated
associates
association
astro
astronomical
astronomy
at
athlon
atlantic
atlas
atmospheric
atomic
atp
attack
attacks
attention
atv
au
audi
audio
auditory
auf
aug
august
aus
austin
australia
australian
austria
austrian
austriancharts
author
authority
authors
auto
automata
automatic
autumn
aux
av
available
avenue
average
aviation
award
awards
away
ax
b
ba
baa
baak
baan
baat
baau
babiana
baby
bach
back
background
bad
bai
bailey
bak
baker
balance
ball
ballade
ballet
ballethub
baltimore
ban
band
bang
bangkok
bank
banking
bar
barbara
barcelona
barkley
baron
barry
base
based
basic
basics
basis
basketball
bass
bat
battle
bay
bayesian
bb
bbc
bbs
bc
bd
bdfa
bdfutbol
be
beach
beaked
bean
bear
beat
beatles
beautiful
beauty
became
because
become
bedford
bee
been
bees
before
begin
beginner
beginning
behavior
behavioral
behaviour
behind
bei
beijing
being
belief
believe
bell
bella
ben
benedict
beng
benjamin
bennett
berkeley
berlin
bernard
bersillon
best
beta
better
between
beyonce
beyond
bf
bhutan
bi
bias
bibcode
bible
bibsys
biden
big
biggest
bilibili
bill
billboard
billion
billy
bin
binary
bing
bingo
bio
biodiversity
biographical
biography
biological
biology
bird
birds
birth
birthday
birthdays
bishop
bit
biu
biz
bl
blachot
black
blackwell
blake
blind
block
blog
blondes
blood
bloomberg
blue
blues
bmatrix
bmg
bnf
bo
board
bob
bobby
boca
bodies
body
boeing
bois
bok
bold
boldsymbol
bomb
bon
bond
bong
bonnie
bonus
book
books
boris
born
borneo
boss
boston
bot
both
bou
box
boy
boys
boyz
bp
bpm
br
bradley
brain
branch
brand
brane
brasil
brave
brazil
brazilian
break
breaking
brian
bridge
brief
bristol
britain
britannica
british
britney
broadcasting
brookhaven
brooks
brother
brothers
brown
browser
brt
bruce
brunei
bruno
brunswick
bryan
bs
bu
bug
bui
build
building
built
bukit
bulletin
bun
bundesverband
bureau
bus
buses
bush
business
but
butterflies
butterfly
by
c
ca
caa
caan
cab
cable
cafe
cai
calculus
calendar
california
call
called
calls
cam
cambridge
cameron
camp
campaign
campbell
can
canada
canadian
cancer
canciones
candy
canis
canter
canton
cantonese
cao
cap
capacity
cape
capital
captain
car
carbon
card
care
career
carey
carl
carlo
carlos
carmen
carol
caroline
carrie
carroll
carry
carter
case
cases
cash
casino
cast
castle
cat
catalog
catch
category
catherine
catholic
cats
cau
cause
causes
cave
cb
cbc
cbe
cbs
cc
cctld
cctv
cd
cdot
cdots
ce
celine
cell
cells
cellular
cengage
census
center
central
centre
century
ceo
ceoi
ceon
cephalophus
cerebral
certificate
certifications
cf
cfilm
cg
cgi
ch
cha
chai
chain
challenge
challenges
champion
champions
championship
chan
chance
chang
change
changes
changing
channel
chaos
chapelle
chapman
chapter
character
characteristics
characters
charge
charles
charlie
charlotte
chart
charts
chartverfolgung
chase
chat
chau
chaunax
che
check
chelsea
chem
chemical
chemistry
chen
cheng
cherry
chess
cheuk
cheung
chi
chicago
chicken
chief
child
children
chill
chin
china
chinensis
chinese
ching
chiu
chloe
chn
cho
choi
choice
chong
chow
chris
christian
christina
christine
christmas
christopher
chrome
chronicle
chu
chun
chung
church
ci
cia
cid
cin
cine
cinema
cing
circle
circuit
citation
cite
cities
citizen
city
ciu
civic
civil
civilian
ck
cl
claims
claire
clan
clark
clarke
class
classement
classic
classical
classics
classification
claude
clear
clement
click
clifford
climate
clinical
cln
clock
close
closed
cloud
club
cluster
clusters
cm
cmsm
cn
cna
cnn
cnt
co
coach
coast
coaster
coauthors
coco
code
codes
coding
coefficient
coeng
coffee
cognition
cognitive
cohen
coi
cold
coldplay
cole
colin
collaboration
collar
colle
collection
college
collins
color
columbia
com
combat
come
comes
comic
coming
command
commerce
commercial
commission
committee
common
commons
commonwealth
communication
communications
communion
community
companies
companion
company
comparative
comparison
compass
competition
competitive
complete
complex
complexity
component
composition
compositions
comprehensive
computation
computational
computer
computers
computing
con
concept
concepts
conceptual
concert
concise
concorde
conditional
conditions
conference
confirmed
confirms
conflict
cong
congress
connection
connor
consciousness
conservation
console
constant
constitution
construction
consumer
consumption
contact
contemporary
content
contest
context
continuous
contributions
control
convention
cook
cookies
cool
cooper
cooperation
copy
coral
core
cornell
corona
coronavirus
corporate
corporation
corpus
correlation
corresponding
cortex
cos
cost
cot
cou
could
council
count
counter
counties
countries
country
county
courier
course
court
cov
cover
covid
cox
cp
cpu
cr
craig
crash
crawford
crazy
crc
cre
cream
create
created
creating
creation
creative
creativity
credit
credits
crenicichla
creole
crime
crimea
crisis
critical
critics
crocus
cross
crossrail
crown
cry
cryptostylis
crystal
cs
csc
csdsm
csmsm
ct
cu
cuhk
cuk
cultural
culture
cung
cup
cure
current
curve
cut
cv
cx
cy
cyberpunk
cycle
cyu
cyun
czech
d
da
daai
daan
daat
daddy
daerah
dai
daily
dak
dale
dall
dam
dame
dan
dance
dancing
dang
dangerous
daniel
danish
danny
dans
dark
dart
darwin
das
dat
data
database
date
datenbank
dating
dau
dave
david
davies
davis
dawn
day
days
db
dc
dd
ddr
de
dead
deal
dean
dear
death
debut
dec
decade
decay
december
decision
dee
deep
def
default
defence
defense
deficit
defined
definition
dei
deism
del
delay
delica
della
delta
demand
demi
demo
democracy
democratic
den
denis
denmark
dennis
deoi
deon
department
depth
der
derek
des
description
design
destiny
detail
details
detection
detective
deutsche
deutschland
deux
developer
development
developmental
device
df
dfrac
di
dia
dialect
diamond
diana
diane
diary
dick
dickson
dict
dictionary
did
die
diego
dies
difference
differences
different
differential
difficulty
digest
digital
dik
dilemma
dim
dimensional
din
ding
dio
diocese
dip
direct
directions
director
directory
disc
disco
discography
discogs
discovery
discrete
discussion
disease
disney
disorder
disorders
display
displaystyle
distance
distributed
distribution
district
diu
diversity
division
dj
dm
dna
do
doc
doctor
document
documentary
documents
does
dog
dogs
doi
dollar
dolphin
domain
domestic
dominic
don
donald
dong
door
dos
dot
dots
dou
double
doug
douglas
dove
dover
down
download
dq
dr
dragon
dragons
drama
draw
dream
dreams
drive
driven
driving
drug
ds
dss
dt
du
dual
due
duk
duke
duncan
dung
during
dutch
dutchcharts
dv
dvd
dw
dx
dy
dylan
dynamic
dynamics
dynasty
dz
e
ea
each
eagle
early
earth
earthquake
east
eastern
easy
eat
eb
ec
echo
ecological
ecology
economic
economics
economist
economy
ed
eddie
edgar
edge
edinburgh
edit
edited
editing
edition
editor
editors
edmund
eds
edu
education
educational
edward
edwards
edwin
eeg
ef
effect
effective
effects
efficiency
egypt
ei
eight
el
elaine
election
elections
electric
electrical
electronic
electronics
element
elementary
elements
eleven
elizabeth
ell
elle
ellen
elliott
ellis
else
elsevier
elsie
em
email
emberiza
emergency
emi
emily
emma
empire
empirical
empty
en
encore
encyclopaedia
encyclopedia
encyclopædia
end
endangered
ending
endless
ends
energy
eng
engine
engineer
engineering
engineers
england
english
enough
ent
enter
enterprise
entertainment
entropy
entry
enviro
environment
environmental
environments
enya
ep
episode
epochtimes
equation
equations
equilibrium
equiv
er
era
eric
ernest
ernst
erp
error
es
escape
espan
espn
essay
essays
essential
est
estate
estimation
et
eta
etc
etf
ethics
ethnic
ethnologue
ettoday
etymology
eu
eugene
euler
euphorbia
eure
euro
europa
europe
european
eurovision
eva
evaluation
evans
even
evening
event
events
ever
every
everything
evidence
evil
evolution
evolutionary
ex
examination
example
examples
exceeded
excel
exchange
exclusive
executive
exhibition
exile
exist
exo
exp
expansion
expected
experience
experiences
experiment
experimental
experiments
expert
explained
explicit
exploration
explorer
exploring
express
expression
extended
extension
external
extra
extracted
extreme
eye
eyes
f
fa
faa
faan
faat
face
facebook
fact
factbook
factor
factors
factory
facts
faculty
fai
failure
fair
fairy
faith
falcon
fall
fallacies
fallacy
falling
false
falun
fame
family
famous
fan
fans
fantastic
fantasy
faq
far
fashion
fast
fat
fate
father
fb
fbi
fbref
fc
fdg
fe
fear
feat
feature
features
featuring
feb
february
fed
federal
federation
feedback
feel
fei
felis
felix
fernando
ferry
festival
few
feynman
ff
fi
fichefilm
fiction
field
fields
fifa
fifth
fight
fighter
fighting
figures
file
files
film
filmaffinity
films
final
finally
finance
financial
find
finding
fine
finite
finland
fire
firefox
firm
first
fischer
fish
fisher
fit
fitness
five
fl
flag
flash
flat
flight
float
flora
florence
florida
flow
flower
fly
flying
fm
fo
focus
folk
following
fong
fonsi
food
foot
football
footballdatabase
for
forall
forbes
force
forces
ford
foreach
foreign
forest
forever
form
formal
format
formation
former
forms
formula
fort
fortune
forum
forward
foster
found
foundation
foundations
four
fourth
fox
fr
frac
framework
franc
france
francis
francisco
frank
franklin
frankreich
franz
fraser
fred
frederick
free
freebase
freedom
freeman
french
frequency
fresh
fricative
friday
friedrich
friend
friends
friv
from
front
frontal
frontier
frontiers
fruit
fsdsm
fsmsm
ft
fu
fuk
full
fullcredits
fun
function
functional
functions
fund
fundamental
fundamentals
fung
funk
further
fuso
future
fx
g
ga
gaa
gaai
gaak
gaan
gaap
gaau
gabriel
gaga
gai
galactic
galaxy
gales
galex
gallery
gam
gamasutra
game
gamer
games
gaming
gamma
gan
gang
gaon
gap
gard
garden
gardens
gardner
garonne
gary
gas
gat
gate
gau
gavin
gay
gazette
gazetteer
gb
gbm
gbs
gc
gcd
gdp
ge
gear
geeksforgeeks
gei
gemini
gen
gene
general
generation
generic
genes
genesis
genetic
genetics
genre
genus
geoffrey
geographic
geoi
geometry
george
georges
georgia
geq
gerald
gerlista
germain
german
germany
gers
get
gets
getting
gfk
ghost
gi
gia
giant
gibson
gigi
gik
gilbert
gin
ging
giovanni
girl
girls
git
github
give
given
gives
glass
glenn
global
globe
globular
gloria
glossary
gmbh
gnu
go
goal
god
goes
going
gok
gold
golden
golf
gone
gong
good
goodbye
google
gordon
got
goto
gou
gov
government
governor
gps
gq
grace
gradient
graham
gram
grammar
grammy
grand
grande
grant
graph
graphic
graphics
grave
gray
great
greater
greatest
greece
greek
green
greenwood
greg
gregory
grey
grimmie
grotz
ground
group
groups
grove
growth
gt
gu
guangdong
guangzhou
guardian
gui
guide
guidelines
guinea
guinness
guk
gun
gung
guy
gwaan
gwai
gwan
gwo
gwok
gwong
h
ha
haa
haai
haak
haau
hack
had
hai
hak
hal
half
hall
halo
ham
hamilton
han
hand
handbook
hands
hang
hanglemezkiado
hans
hap
haplochromis
happy
harbour
hard
hardwell
harold
harper
harris
harrison
harry
hartmann
harv
harvard
has
hat
hau
haute
have
haven
hawaii
hbo
hcl
hd
he
head
headline
health
heart
hearts
heat
heaven
hei
heidelberg
held
helen
helena
hell
hello
help
henri
henry
heoi
her
herald
herbert
here
heritage
herman
hero
heroes
heung
hey
hf
hg
hi
hidden
hide
hierarchy
high
higher
highway
hill
him
hin
hing
hip
hirundo
his
historic
historical
history
hit
hito
hitoradio
hitpara
hitparade
hits
hiu
hk
hkej
hket
hkfa
hkg
hkiff
ho
hoa
hochwasser
hocl
hoeng
hoi
hok
hold
holden
holdings
holiday
holland
hollywood
holy
home
homepage
hon
honda
honey
hong
hongkong
honourable
hop
hope
hopkins
horror
horse
hospital
hot
hotel
hou
hour
hours
house
housing
houston
how
howard
however
hoy
hp
hr
htm
html
http
https
hu
hua
huang
hub
hudson
hue
hugh
hughes
hugo
hui
human
humans
hung
hunt
hunter
hurt
hybrid
hyperactivity
hypothesis
hyun
hz
i
ia
ian
iana
iata
ib
ibm
ibn
ic
icao
ice
icon
icu
id
idea
ideas
identification
identity
idol
ids
idsm
ie
iec
ieee
if
iff
ifpi
ig
ign
ignored
ii
iii
ij
il
ildis
ili
illinois
illustrated
im
image
images
imagination
imagine
imdb
imf
img
impact
imperial
implementation
implications
implies
important
ims
imsm
in
inc
include
includes
including
income
independence
independent
index
india
indian
indiana
individual
indonesia
industrial
industry
inference
infinite
influence
info
information
infty
ink
innovation
input
inquiry
insee
inside
insider
instagram
instant
institute
institution
instrumental
int
integrated
integration
intel
intellectual
intelligence
intelligent
inter
interaction
interactions
interactive
interest
interface
internal
international
internet
interpretation
interview
into
introduction
invalid
investigation
investment
io
ios
ip
ipa
ipad
iphone
ipod
iq
ir
iran
iraq
iras
ireland
iris
irish
iron
is
isaac
isbn
islam
islamic
island
islands
isle
iso
isomer
isotope
isotopes
isotopic
israel
issn
issue
issues
iszdb
it
italian
italiana
italic
italy
item
itf
its
itsc
itunes
itv
iucn
iupac
iv
ix
j
ja
jaa
jaaroverzicht
jaaroverzichten
jack
jackie
jackson
jacky
jacob
jacques
jahrescharts
jahreshitparade
jake
jam
james
jamie
jan
jane
janet
january
japan
japanese
jason
jat
jau
java
javascript
jay
jazz
je
jean
jef
jeff
jeffrey
jennifer
jenny
jer
jeremy
jerry
jersey
jessica
jessie
jewish
jfl
jh
ji
jiang
jik
jill
jim
jimmy
jin
jing
jip
jiu
jj
jl
jo
joan
job
joe
joek
joel
joeng
joey
johan
johann
john
johnny
johns
johnson
johor
joint
jolin
jon
jonathan
jones
jordan
jose
joseph
josh
joshua
journal
journey
jovi
joy
joyce
jp
jpg
jr
jstor
ju
juan
judy
juk
juli
julia
julian
julie
julien
july
jump
jun
june
jung
junior
just
justice
justin
jw
jyu
jyun
jyut
k
ka
kaa
kai
kam
kan
kangaroo
kanton
kap
kara
karaoke
karen
karl
kate
katherine
kathir
katie
katy
kau
kay
kb
kbs
ke
keep
kei
keith
kelly
ken
kendy
kennedy
kenneth
kenny
kent
keoi
kevin
key
keys
kg
khalifa
khan
kho
ki
kid
kids
kill
killed
killer
killing
kim
kin
kinabalu
kind
king
kingdom
kiss
kit
kitty
kiu
kkbox
kl
klein
klq
km
knight
know
knowledge
known
knox
ko
kok
kol
kong
korea
korean
kostov
kowloon
kr
kristian
ktv
ku
kuala
kuk
kung
kurt
kutta
kwai
kwan
kwok
kwong
ky
kyle
kz
l
la
laa
laai
laam
laan
laap
lab
labor
laboratory
labour
lady
lai
lake
lam
lamb
lambda
lan
land
landscape
lane
lang
langle
language
languages
lap
large
largest
larry
las
last
late
latent
later
latest
latin
latino
lau
laughing
launch
launches
laura
laurent
law
lawrence
laws
lay
layer
lc
ldots
le
lead
leader
leadership
league
learn
learning
least
leave
lecture
lectures
led
lee
left
legacy
legal
legend
legends
lego
legume
lei
leicester
leng
length
lennon
lens
leo
leoi
leon
leonard
leong
leot
lepus
leq
les
lescharts
leslie
less
lesser
lessons
let
letter
letters
leung
level
lewis
leyland
lg
lgbt
li
liang
liberty
library
license
lide
lie
life
lifetime
light
lihkg
lik
like
lily
lim
limit
limited
limits
lin
lincoln
linda
line
linear
lines
ling
linguistic
linguistics
link
links
linnaeus
linux
lion
lionel
lisa
lisp
list
lista
listen
lists
lit
literary
literature
little
liu
live
liverpool
lives
living
ll
llc
ller
lloyd
ln
lna
lni
lo
lobe
local
location
loeng
log
logic
loi
loir
lok
london
lonely
long
look
looking
loop
lord
lorde
los
loss
lost
lot
lou
loud
louis
louise
love
lover
loving
low
lower
lp
lr
lt
ltd
lu
lua
lucas
lucky
lucy
ludwig
lui
luigi
luis
luk
luke
lulu
lumpur
luna
lunar
lunch
lung
lupus
lv
ly
lynn
lyrics
lyun
m
ma
maa
maan
maau
mac
macao
macau
machi
machine
machines
macmillan
madam
made
madrid
magazine
maggie
magic
magnetic
magyar
mahasz
mai
mail
main
maint
major
mak
make
makerville
makes
making
malay
malaysia
malaysiakini
malaysian
malcolm
male
mall
mama
mammals
man
management
manager
manchester
mandy
manhattan
manjaro
manual
manuel
many
map
mapping
maps
mar
marc
march
marco
marcus
margaret
mari
maria
mariah
marie
marine
mario
mark
market
marketing
markets
markov
markup
maroon
mars
marshall
martin
mary
masked
mass
massachusetts
masses
master
masterchef
mat
match
material
materials
math
mathbb
mathbf
mathcal
mathematical
mathematics
mathit
mathrm
mathworld
matrix
matt
matter
matters
matthew
mau
maurice
max
maxwell
may
mayer
mayor
mb
mbb
mbc
mbe
mbg
mbox
mbs
mc
mcdonald
mcgraw
md
me
mean
meaning
means
measure
measurement
measures
mech
mechanical
mechanics
mechanism
mechanisms
medal
media
medical
medicine
medien
medieval
medium
meet
meeting
mega
mei
melbourne
melody
member
members
memorial
memory
men
mendes
mental
mer
mercury
merriam
message
messenger
messier
meta
metacritic
metal
meteorological
method
methodology
methods
metro
metrolyrics
metropolitan
mexican
mexico
meyer
mg
mh
mhz
mi
mia
michael
michel
michelle
michigan
microsoft
mid
middle
midi
midnight
might
miguel
mike
mil
miles
military
milk
mill
miller
million
min
minaj
mind
minecraft
ming
mini
mining
minister
ministry
minor
minutes
mirror
misia
miss
missing
mission
mit
mitchell
miu
mix
mixed
mjd
mk
ml
mlit
mm
mmn
mmorpg
mn
mo
mobile
mod
mode
model
modeling
modelling
models
modern
module
moe
mojo
mok
mole
molecular
moment
mon
monday
monetary
money
mong
monica
monitor
monkey
monster
monte
month
monthly
moon
moore
moov
moral
more
morgan
morning
morris
morrison
moscow
most
mother
motion
motivation
motor
mou
mount
mountain
mountains
mouse
move
movement
moves
movie
movies
moving
mozart
mozilla
mp
mr
mrs
ms
msn
mt
mtr
mtv
mu
much
mui
muk
multi
multiple
mun
mung
municipal
murder
murphy
murray
muscle
muse
museum
music
musical
musicians
musicline
musicradio
musikindustrie
must
mv
mx
my
myfc
myotis
myself
myspace
myth
mytv
n
na
naa
naam
nabla
nam
name
named
names
nan
nancy
nang
narrative
nasa
nash
nat
natalie
nathan
nation
national
nations
native
natural
nature
naval
naver
navy
nba
nbc
nc
nd
nde
ndez
ne
near
nebula
nec
necessary
nederlandse
need
negative
nei
neil
nelson
neo
neoi
neptune
neq
nervous
net
netflix
netherlands
netscape
network
networks
neumann
neural
neurobiology
neurology
neuron
neuronal
neurons
neurophysiology
neurosci
neuroscience
never
new
neway
newman
news
newtalk
newton
next
nf
ng
nga
ngaa
ngaai
ngaan
ngai
ngan
ngau
ngc
ngo
ngoi
ngok
ngon
ngu
nguye
nh
nha
nhk
ni
nicholas
nick
nicki
nicolas
nicole
nie
nielsen
night
nike
nilsson
nim
nin
nina
nine
ning
nintendo
nj
nk
nl
nlp
nm
no
nobel
nobelprize
nobody
node
nohlen
noi
noise
nok
non
normal
normals
norman
north
northern
norton
norvig
norway
norwegian
norwegiancharts
not
note
notes
nothing
nou
nov
nova
novel
november
now
nownews
np
npc
nr
ns
nt
nu
nubase
nuc
nuclear
nudat
null
number
numbers
nutrient
nutrition
nv
nvidia
ny
nz
o
obe
object
observations
observatory
ocean
oceanic
oclc
oct
october
oeis
of
off
office
officer
official
offiziellecharts
oficia
often
oh
oi
oil
ois
ok
ol
old
oliver
olivia
olympic
olympics
omega
omniglot
on
once
one
online
only
oop
op
open
opening
opera
operating
operation
operations
operatorname
opinion
optare
optical
optimal
optimization
or
oral
orange
orchestra
order
org
organic
organisation
organization
organizational
organizations
oricon
oriental
orientaldaily
oriented
orienteering
origin
original
origins
os
oscar
ot
other
others
otimes
otto
ou
our
out
outlook
output
over
overline
overview
owen
own
oxford
p
pa
paai
paak
paang
pac
pacific
pagasa
page
pages
pai
painting
pak
pakistan
palace
palgrave
palm
palmer
pan
pang
panthera
paper
papers
par
para
paradigm
paradise
parallel
parameter
parameters
parietal
paris
park
parker
parliament
parliamentary
part
partial
particle
party
pas
pass
passenger
passion
password
passwords
past
pat
patent
path
patients
patricia
patrick
pattern
patterns
paul
pay
pc
pd
pdf
pdsm
pe
peace
peak
pearl
pearson
pedro
pei
pempheris
pen
penang
peng
penguin
pennsylvania
people
per
perception
perfect
performance
period
perry
person
personal
personality
perspective
perspectives
pet
peter
petit
petrel
pfa
pg
ph
pha
phase
phi
phil
philadelphia
philip
philippe
philippines
phillip
phillips
philosophical
philosophy
phishing
pho
phoenix
phone
phonographic
phononet
photo
photos
php
phu
phylogeny
phys
physical
physics
physiology
pi
piano
picture
pictures
pie
piece
pierre
pin
ping
pink
pitch
piu
pizza
pk
pl
place
places
plan
plane
planet
planetary
planets
planning
plant
plants
platform
platin
platinum
play
player
players
playground
playing
playstation
plaza
plc
plos
plot
plus
pm
pmatrix
pmc
pmid
pmsm
po
pocket
point
pointe
points
pok
poke
police
policy
polish
political
politics
pong
pool
poon
pop
popular
population
populations
port
portal
porter
portrait
portugal
portuguese
position
positions
positive
possible
post
potential
potter
pou
pour
power
pp
pr
practical
practice
pre
prefix
prefrontal
premier
premium
prentice
present
presents
president
presidential
press
pressure
pretty
prevention
price
primary
prime
prince
princess
princeton
principal
principle
principles
print
printing
priscilla
prisoner
private
prize
pro
probability
problem
problems
proc
procedural
proceedings
process
processes
processing
producer
product
production
products
professional
professor
profile
program
programme
programming
programs
progress
project
prometheus
promise
promotion
pronunciation
proof
properties
property
protection
province
provincia
ps
psychiatry
psychological
psychology
pt
pu
pub
public
publication
publications
published
publisher
publishers
publishing
pui
pulau
pun
punctuation
pure
purple
put
putin
python
q
qatar
qq
qua
quad
quality
quantitative
quantum
quarterly
que
queen
quest
question
questions
quo
quora
quote
quranacademy
r
ra
race
rachel
racing
rad
radiation
radio
radioactive
rail
railway
rain
rainbow
ralph
ram
random
range
rangle
rank
ranking
rankings
rap
rapid
rapper
rare
rat
rate
rational
raton
rault
ray
raymond
rb
rd
rdzong
re
reaction
read
reader
reading
ready
real
reality
really
reason
reasoning
rebecca
recent
recognition
record
recorded
recording
records
recurrent
red
reed
ref
reference
references
region
regional
register
regression
regulation
reilly
reinforcement
related
relation
relations
relationship
relativity
release
released
releases
reliability
religion
religious
remember
remix
ren
renaissance
rene
report
reporter
reports
representation
representations
republic
requires
res
research
reserve
reservoir
resident
resolution
resource
resources
response
result
results
retrieved
return
returns
reuters
rev
revealed
review
reviews
revised
revisited
revolution
reward
reynolds
rfi
rg
rgen
rho
rhythm
rhythmic
ri
rica
ricardo
rice
rich
richard
richie
rick
ricky
right
rightarrow
rights
riley
ring
rings
rio
rise
rising
risk
river
rk
rm
rna
ro
road
roadshow
rob
robbie
robert
roberto
roberts
robertson
robin
robinson
robot
robotics
robynn
rock
rodriguez
roger
rogers
roland
role
roll
rolling
rom
roma
roman
romance
romanian
rome
ron
ronald
ronson
room
root
roots
ros
rosa
rose
ross
round
route
routemaster
routledge
roy
royal
royale
rpg
rpm
rrt
rs
rslista
rsssf
rt
rthk
ru
rubberband
ruby
rule
rules
run
runge
running
rural
rush
russell
russia
russian
ryan
s
sa
saa
saam
saan
saang
saat
sabah
saddle
safety
saga
sage
sai
said
saint
sainte
sales
sam
same
sammi
sample
samsung
samuel
san
sanders
sandy
sang
santa
santos
sao
sap
sarah
sarawak
sars
sat
satellite
saturn
sau
saudi
save
saving
say
says
sbs
sc
scala
scale
scania
scheme
schmidt
schneider
school
schools
schuster
schweizer
sci
science
sciences
scientific
scientist
scientists
score
scotland
scott
scottish
screen
script
sculpture
sd
sdss
se
sea
seal
sean
search
season
sebastian
sec
second
secondary
secret
secretary
section
security
seds
see
seed
seen
sei
sek
select
selected
selection
self
selling
semantic
sen
seng
senior
sense
sensitivity
sensory
seoi
seon
seot
seoul
sept
september
sequence
series
server
service
services
set
setn
sets
seven
several
sex
sexual
sf
sg
sh
sha
shadow
shah
shallow
shan
shanghai
shape
share
sharon
sharp
shaw
shawn
she
sheeran
sheet
shek
shell
shen
sheung
shi
shift
shin
shine
shing
shirley
shooter
shooting
shop
shopping
short
shot
should
show
showbiz
shows
shrew
shtml
shu
shui
si
sica
side
sigma
sign
signal
sik
silence
silva
silver
sim
simon
simple
simpson
simpsons
simulation
sin
sina
since
sinchew
sing
singapore
singer
singh
singlar
single
singles
sino
sir
sister
sit
site
sites
siu
six
size
sk
skin
sky
sla
slam
sleep
slotop
slovak
slow
sm
small
smart
smg
smith
snh
snow
so
soc
soccer
soccerbase
soccerway
social
society
sociology
socket
soeng
soft
software
sohu
sok
solar
solid
solo
solomon
solution
solutions
solving
some
someone
something
son
song
songs
sons
sony
soo
sorbus
sou
soul
sound
soundtrack
source
sources
sous
south
southeast
southern
soviet
sp
space
spain
span
spanish
spatial
spears
special
specialist
species
specific
specified
speech
speed
spencer
spider
spike
spin
spirit
spirits
sport
sports
spot
spotify
spotted
spring
springer
sqrt
square
squirrel
sr
sri
ss
sse
st
stable
stadium
staff
stage
stagecoach
stand
standard
standards
standing
stanford
stanley
star
stars
start
started
state
statement
states
static
station
stations
statistical
statistics
stats
status
stay
std
steam
steel
stefan
step
stephanie
stephen
steps
steve
steven
stevens
stewart
still
stochastic
stock
stone
stop
stopklatka
storage
store
stories
storm
story
straight
straits
strategic
strategies
strategy
stream
streaming
street
streptococcus
stress
string
stripmarker
strong
structural
structure
structures
sts
stuart
student
students
studies
studio
studios
study
style
su
sub
subject
subset
subseteq
success
such
sugar
suggested
suk
sullivan
sultan
sum
summary
summer
sun
sunday
sung
sungai
sunny
sunshine
sup
super
supper
supply
support
sur
surah
surface
surgery
survey
survival
survive
survivor
susan
sverigetopplistan
swan
sweden
swedish
swedishcharts
sweet
swift
swim
swimming
swiss
swisscharts
switch
sword
sydney
symphony
symposium
syndrome
synthesis
system
systematic
systems
syu
syun
syut
sze
szo
t
ta
taai
taam
taan
taap
table
tafsir
tag
tai
tailed
taipei
taiwan
tak
take
taken
takes
taking
tale
tales
taliban
talk
talks
tam
taman
tan
tang
tango
tank
tao
target
task
taste
tat
tau
taxonomy
taylor
tbs
tc
tcg
td
tdk
te
tea
teacher
teaching
team
teams
tech
technical
technique
techniques
technologies
technology
ted
telegram
telegraph
television
tell
temperature
template
templatestyles
temple
temporal
ten
tendu
tennis
term
terminal
terms
territory
terry
test
testing
tests
texas
text
textbf
texts
textstyle
tfrac
th
tha
thai
thailand
than
thanh
that
the
theatre
their
them
theme
then
theorem
theoretical
theories
theory
therapy
there
thermodynamics
these
theta
they
thi
thibault
thie
thing
things
think
thinking
third
this
tho
thomas
thompson
thomson
those
thought
thousand
threatened
three
through
thu
thymus
ti
tibetan
tie
tiffany
tiger
tilde
tim
time
timeline
times
timothy
tin
ting
tips
tit
title
tiu
tl
tmdb
to
today
todd
together
toi
tok
tokyo
tom
tommy
tomorrow
tones
tong
tonight
tony
too
tool
tools
top
tophit
topick
toronto
total
tou
touch
tour
tourism
toward
towards
tower
town
tp
tr
tra
track
tracks
trade
trading
tradition
traditional
traffic
train
training
traits
trans
transactions
transbus
transfer
transformer
transit
transition
translated
translation
transport
transportation
travel
tre
treatment
treaty
tree
trees
trends
trevor
tri
trial
triangle
tribute
trie
trinity
trip
tro
tropes
tropical
trouble
tru
true
trump
trust
truth
try
ts
tsai
tsang
tse
tsing
tsuen
tsui
tsz
tt
tu
tube
tuen
tun
tung
tunnel
turdus
turing
turkey
turkish
turn
turner
turns
tutorial
tv
tvb
tvbs
tvc
tw
twenty
twilight
twin
twins
twitter
two
tx
type
types
typhoon
tyun
u
ua
uber
uc
uefa
ugly
uk
ukraine
ukrainian
ultimate
ultratop
um
un
una
uncertainty
und
under
underground
understanding
une
unesco
unicode
union
uniq
unit
united
units
unity
universal
universe
university
unix
unknown
unrecognized
until
up
update
updated
upon
upper
uptown
urban
url
ursa
us
usa
usb
use
used
user
users
uses
using
utc
uwants
v
va
vaccine
val
valentine
validity
valley
value
values
van
vancouver
var
varepsilon
variable
variables
variance
variation
variety
various
varphi
vcd
vdots
ve
vec
vector
vegas
vehicle
vehicles
velocity
venus
ver
verlag
version
versus
very
vetse
vg
vi
via
vice
victor
victoria
victory
video
videos
vie
vietnam
vietnamese
view
vii
viii
village
ville
vincent
vip
virgin
virginia
virtual
virus
vision
visit
vista
visual
vitas
viu
viutv
viva
vo
vocal
vogue
voice
voiced
voiceless
voices
void
vol
vole
volume
von
voronoi
vote
vr
vs
vu
vulnerable
vum
w
wa
waa
waan
wah
wai
wales
walk
walker
wall
wallace
walter
waltz
wan
wang
wanna
want
wapstra
war
ward
warfare
warner
warning
warren
wars
was
washington
wat
watch
water
watson
wave
waves
way
wayback
wayne
ways
we
weapon
weather
weaver
web
webb
webcite
weber
website
webster
week
weekly
wei
weights
welcome
well
wells
wen
wenweipo
were
wesley
west
western
whale
what
when
where
which
while
white
whitney
who
whois
whole
why
wi
wide
wii
wiki
wikidata
wikilink
wikipedia
wikisky
wild
wildlife
wiley
wilhelm
will
william
williams
wilson
win
wind
windows
wing
winners
wins
winter
wisconsin
wish
with
within
without
wiz
wm
wmoov
wo
wolf
wolfram
wolves
woman
women
won
wonder
wonderful
wong
wood
word
words
work
working
works
workshop
world
worldfootball
worlds
worldwide
worth
would
wp
wright
write
writer
writing
written
wta
wu
wui
wun
wwe
wwf
www
x
xa
xbox
xi
xii
xiii
xiv
xls
xlsx
xp
xu
xua
xuehua
xx
xxgk
xy
y
ya
yahoo
yale
yam
yan
yang
yat
yau
ye
year
years
yee
yellow
yes
yesasia
yet
yeung
yi
yin
ying
yip
yiu
yo
york
you
young
your
yourself
youth
youtube
youtuber
yscc
yu
yuan
yue
yuen
yule
yun
yung
z
za
zaa
zaak
zaam
zaap
zai
zan
zang
zaobao
zard
zat
zau
ze
zealand
zek
zeng
zeoi
zeon
zero
zh
zhang
zhao
zheng
zhi
zhou
zhu
zi
zik
zim
zin
zing
zit
ziu
zk
zo
zoe
zoeng
zoi
zok
zone
zong
zoo
zou
zu
zuk
zung
zyu
zyun
{
|
}
~

£
¥
§
¨
©
«
¬
­
®
¯
°
±
²
³
´
µ
·
¹
º
»
½
×
æ
÷
ø
đ
đa
đe
đi
đie
đo
đu
ı
ŋ
œ
ɐ
ɑ
ɔ
ɕ
ə
ɛ
ɡ
ɪ
ɬ
ɵ
ɸ
ʁ
ʂ
ʃ
ʊ
ʋ
ʑ
ʒ
ʔ
ʰ
ʲ
ʷ
ʹ
ʻ
ʼ
ʾ
ʿ
ˀ
ˇ
ˈ
ˊ
ˋ
ˌ
ː
˙
˥
˧
˨
˩
̀
́
̂
̃
̄
̆
̇
̈
̉
̊
̋
̌
̍
̓
̔
̚
̛
̞
̣
̥
̦
̧
̨
̩
̪
̯
̱
̸
͂
͡
΄
α
β
γ
δ
ε
ζ
η
θ
ι
κ
λ
μ
ν
ξ
ο
π
ρ
ς
σ
τ
υ
φ
χ
ψ
ω
ϑ
ϕ
ϵ
а
в
г
д
е
ж
з
и
к
л
м
мы
н
на
не
о
п
с
т
у
э
я
і
֏
ְ
ִ
ֵ
ֶ
ַ
ָ
ֹ
ּ
ׁ
א
ב
ה
י
כ
ל
נ
ר
ש
ת
،
ا
د
ر
م
و
ي
َ
ُ
ِ
ّ
ٓ
ٔ
ٕ
ं
क
ग
ज
ड
ण
त
द
ध
न
प
ब
भ
म
य
र
ल
व
श
ष
स
ह
़
ा
ि
ी
ु
ू
ृ
े
ै
ो
्
ব
র
ল
া
ি
্
க
ச
ட
த
ந
ன
ப
ம
ய
ர
ல
வ
ா
ி
ு
ெ
ே
ை
்
ാ
്
ก
ข
ง
จ
ช
ณ
ด
ต
ท
น
บ
ป
ผ
พ
ภ
ม
ย
ร
ล
ว
ศ
ส
อ
ั
า
ิ
ี
ึ
ื
ุ
ู
็
่
้
์
་
།
ག
ང
ཆ
ད
ན
བ
མ
ར
ལ
ས
ི
ུ
ེ
ོ
ྐ
ྒ
ྩ
ྫ
ྱ
ྲ
ྷ
က
င
စ
တ
န
ပ
မ
ရ
လ
ာ
ိ
ီ
ု
ေ
့
း
္
်
ျ
ြ
ှ
년
្
​
‌
‍
‎
‏
‐
–
—
―
‖
‘
’
“
”
„
†
•
…
‧
‬
‭
‰
′
″
‹
›
※
⁄
⁡
⁴
⁵
⁶
₂
₃
₄
€
⃞
⃣
℃
℉
ℏ
ℓ
№
™
ℵ
ⅰ
ⅱ
ⅲ
ⅳ
ⅶ
←
↑
→
↓
↔
↗
↦
↷
↺
⇄
⇆
⇒
∀
∂
∃
∅
∆
∇
∈
∊
∏
∑
−
∖
∗
∘
∙
√
∞
∠
∣
∧
∩
∪
∫
∼
≅
≈
≡
≤
≥
≪
≫
⊂
⊃
⊆
⊇
⊕
⊗
⊙
⊥
⋅
⋆
⋮
⋯
⋱
①
②
③
④
⑦
─
━
│
║
╱
▇
█
■
□
▢
△
▶
○
◎
●
◢
◤
★
☆
☰
☱
☲
☳
☴
☵
☶
☷
♂
♈
♉
♊
♋
♌
♍
♎
♏
♐
♑
♒
♓
♠
♣
♥
♦
♪
♭
♯
⚖
✨
⟨
⟩
⟶
⟹
⟺
⸺
⺀
⺄
⺆
⺈
⺊
⺌
⺕
⺝
⺸
⺼
⿰
⿱
⿲
⿳
⿴
⿵
⿶
⿷
⿸
⿹
⿺
⿻
、
。
々
〇
〈
〉
《
》
「
」
『
』
【
】
〔
〕
〜
〡
〢
ぁ
あ
ぃ
い
う
え
お
か
き
く
け
こ
さ
し
す
せ
そ
た
ち
っ
つ
て
と
な
に
ぬ
ね
の
は
ひ
ふ
へ
ほ
ま
み
む
め
も
ゃ
や
ゅ
ゆ
ょ
よ
ら
り
る
れ
ろ
わ
を
ん
゙
゚
゜
ゝ
ァ
ア
ィ
イ
ゥ
ウ
ェ
エ
ォ
オ
カ
キ
ク
ケ
コ
サ
シ
ス
セ
ソ
タ
チ
ッ
ツ
テ
ト
ナ
ニ
ヌ
ネ
ノ
ハ
ヒ
フ
ヘ
ホ
マ
ミ
ム
メ
モ
ャ
ヤ
ュ
ユ
ョ
ヨ
ラ
リ
ル
レ
ロ
ワ
ヲ
ン
ヶ
・
ー
ㄅ
ㄆ
ㄇ
ㄉ
ㄊ
ㄋ
ㄌ
ㄍ
ㄎ
ㄏ
ㄐ
ㄑ
ㄒ
ㄗ
ㄙ
ㄚ
ㄛ
ㄝ
ㄞ
ㄟ
ㄡ
ㄣ
ㄥ
ㄧ
ㄨ
ㄩ
ㄫ
ㅅ
ㆿ
㇁
㇂
㇄
㇇
㇈
㇉
㇓
ㇵ
㎡
㐁
㐄
㐅
㐌
㐫
㐬
㐭
㐮
㐱
㑒
㒵
㒸
㒼
㓁
㓞
㔶
㔷
㔻
㔾
㕔
㕛
㕣
㖭
㖾
㗂
㗎
㘝
㘵
㚅
㚇
㚔
㚘
㚻
㛪
㜺
㝉
㝡
㝴
㝵
㞋
㞗
㞘
㞢
㞷
㠩
㠭
㠯
㡀
㡭
㡿
㢲
㢴
㣇
㣺
㥯
㨃
㩒
㪅
㫄
㫐
㫒
㫺
㬅
㬎
㬥
㬰
㲋
㳄
㴓
㷠
㷫
㸒
㸚
㸦
㻗
㼌
㼲
㽞
㿟
䀠
䂞
䃟
䊆
䊦
䍃
䏍
䒑
䓪
䖍
䖒
䖝
䖵
䘆
䘙
䙴
䚻
䜌
䝿
䡛
䤵
䧹
䪞
䯀
䴉
一
丁
丂
七
丄
丅
丆
万
丈
三
上
下
丌
不
与
丏
丐
丑
专
且
丕
世
丘
丙
业
丛
东
丝
丞
丟
両
丢
丣
两
严
並
丧
丨
丩
个
丫
丬
中
丮
丰
丱
串
临
丵
丶
丷
丸
丹
为
主
丼
丽
举
丿
乀
乂
乃
久
乆
乇
么
义
之
乌
乍
乎
乏
乐
乑
乒
乓
乔
乖
乗
乘
乙
乚
乛
乜
九
乞
也
习
乡
书
乩
买
乱
乳
乸
乾
亀
亂
亅
了
亇
予
争
事
二
亍
于
亏
亐
云
互
亓
五
井
亘
亙
亚
些
亜
亞
亟
亠
亡
亢
交
亥
亦
产
亨
亩
享
京
亭
亮
亯
亰
亲
亳
亶
亷
人
亻
亼
亾
亿
什
仁
仂
仃
仄
仅
仆
仇
今
介
仌
仍
从
仏
仐
仑
仒
仓
仔
仕
他
仗
付
仙
仝
仟
仡
代
令
以
仨
仪
仫
们
仮
仰
仲
件
价
任
份
仿
企
伉
伊
伍
伎
伏
伐
休
伕
众
优
伙
会
伝
伟
传
伤
伦
伯
估
伴
伶
伷
伸
伺
似
伽
佃
但
佇
佈
位
低
住
佐
佑
体
佔
何
佗
佘
余
佚
佛
作
佞
佟
你
佢
佣
佤
佥
佩
佬
佮
佰
佳
併
佶
佻
佼
使
侃
侄
來
侈
例
侌
侍
侏
侑
侖
侗
侘
供
依
侠
侣
侦
侨
侮
侯
侵
侶
侷
便
俁
係
促
俄
俊
俎
俏
俐
俑
俗
俘
俚
保
俞
俟
俠
信
俣
俬
修
俯
俱
俳
俶
俸
俺
俾
倆
倉
個
倌
倍
們
倒
倔
倖
倘
候
倚
借
倠
倡
倣
値
倦
倩
倪
倫
倬
倭
倶
值
倾
偃
假
偈
偉
偏
偕
做
停
健
偲
側
偵
偶
偷
偽
傀
傅
傈
傍
傑
傕
傘
備
傚
傢
傣
催
傭
傲
傳
債
傷
傻
傾
僅
僆
僉
僊
働
像
僑
僕
僖
僚
僞
僥
僧
僭
僮
僱
僳
僵
價
僻
儀
儁
儂
億
儆
儇
儉
儋
儒
儕
儘
償
儠
儡
優
儲
儷
儼
儿
兀
允
兂
元
兄
充
兆
兇
先
光
兊
克
兌
免
児
兑
兒
兓
兔
兗
党
兜
兟
兢
入
內
全
兩
兪
八
公
六
兮
兰
共
关
兴
兵
其
具
典
兹
养
兼
冀
冂
冃
冄
内
円
冇
冈
冉
冊
冋
册
再
冎
冏
冐
冑
冒
冓
冕
冖
冗
冘
写
冚
军
农
冝
冠
冡
冢
冤
冥
冧
冨
冪
冫
冬
冯
冰
冲
决
况
冶
冷
冻
冼
净
准
凈
凉
凋
凌
凍
减
凛
凜
凝
几
凡
凢
凤
凪
凭
凯
凰
凱
凳
凵
凶
凷
凸
凹
出
击
凼
函
凾
刀
刁
刂
刃
刄
刅
分
切
刈
刊
刋
刍
刎
刑
划
刕
刖
列
刘
则
刚
创
初
删
判
別
刨
利
刪
别
刮
到
制
刷
券
刹
刺
刻
剁
剃
則
削
剋
剌
前
剎
剑
剔
剖
剛
剝
剡
剣
剦
剧
剩
剪
副
割
創
剷
剽
剿
劃
劄
劇
劈
劉
劊
劍
劏
劑
力
办
功
加
务
劣
劦
动
助
努
劫
劭
励
劲
劳
労
劵
効
劾
势
勁
勃
勅
勇
勉
勋
勐
勑
勒
動
勗
勘
務
勛
勝
勞
募
勢
勣
勤
勩
勱
勲
勳
勵
勷
勸
勹
勺
勻
勾
勿
匀
匂
包
匆
匈
匊
匋
匍
匏
匕
化
北
匙
匚
匝
匠
匡
匣
匪
匯
匱
匸
匹
区
医
匽
匾
匿
區
十
卂
千
卄
卅
卆
升
午
卉
半
卌
卍
华
协
卑
卒
卓
協
单
卖
南
単
博
卜
卝
卞
占
卡
卢
卣
卤
卦
卧
卩
卪
卫
卬
卯
印
危
即
却
卵
卷
卸
卻
卽
卿
厂
厃
厄
厅
历
厈
厉
压
厌
厏
厓
厘
厚
厝
原
厠
厢
厤
厥
厦
厨
厭
厲
厳
厶
厷
厸
去
厼
厽
县
叀
叁
参
參
叄
叅
又
叉
及
友
双
反
収
叐
发
叒
叔
叕
取
受
变
叙
叚
叛
叜
叟
叠
叡
叢
口
古
句
另
叨
叩
只
叫
召
叭
叮
可
台
叱
史
右
叵
叶
号
司
叹
叻
叾
吁
吂
吃
各
吅
合
吉
吊
吋
同
名
后
吏
吐
向
吒
吓
吔
吕
吖
吗
君
吝
吞
吟
吠
吡
否
吧
吩
含
听
启
吱
吲
吳
吴
吵
吶
吸
吹
吻
吼
吽
吾
呀
呂
呃
呆
呈
告
呎
呑
呔
员
呙
呢
呤
呦
周
呱
味
呵
呷
呸
呻
呼
命
咀
咁
咃
咄
咅
咆
咇
咋
和
咎
咏
咐
咒
咔
咕
咖
咗
咚
咠
咢
咤
咦
咨
咩
咪
咫
咬
咭
咯
咱
咲
咳
咸
咼
咽
咿
哀
品
哂
哄
哆
哇
哈
哉
哋
响
哎
哔
哚
員
哥
哦
哨
哩
哪
哭
哮
哲
哺
哼
哽
唁
唂
唄
唅
唆
唇
唉
唏
唐
唑
唔
唞
唥
唧
唨
唪
售
唯
唱
唷
唸
唻
唾
啀
啃
啄
商
啇
啉
啊
啋
問
啓
啖
啚
啜
啞
啟
啡
啤
啥
啦
啩
啪
啫
啬
啱
啲
啶
啷
啹
啻
啼
喀
喂
喃
善
喆
喇
喉
喊
喋
喎
喐
喔
喘
喙
喚
喜
喝
喥
喦
喧
喪
喫
喬
單
喰
喱
喲
喳
喵
営
喺
喻
喼
喿
嗅
嗆
嗇
嗌
嗎
嗑
嗒
嗓
嗚
嗜
嗟
嗡
嗣
嗤
嗨
嗮
嗯
嗰
嗱
嗲
嗶
嗽
嘀
嘅
嘆
嘈
嘉
嘌
嘍
嘎
嘏
嘑
嘔
嘗
嘘
嘚
嘛
嘜
嘞
嘟
嘢
嘥
嘧
嘩
嘭
嘯
嘰
嘲
嘴
嘶
嘸
嘹
嘻
嘿
噁
噃
噉
噌
噍
噎
噏
噓
噗
噚
噝
噠
噢
噣
噤
器
噩
噪
噬
噯
噱
噲
噴
噶
噸
噹
噻
噼
嚇
嚎
嚏
嚐
嚕
嚙
嚜
嚟
嚡
嚤
嚦
嚨
嚫
嚮
嚳
嚴
嚷
嚼
嚿
囂
囈
囉
囊
囍
囑
囓
囗
囘
囙
囚
四
囝
回
囟
因
囡
团
団
囤
囧
囪
囬
园
困
囱
図
围
囷
固
国
图
囿
圂
圃
圅
圆
圈
圉
國
圍
圏
園
圓
圖
團
圜
土
圡
圣
圥
在
圩
圭
地
圳
圶
场
圻
圼
圾
址
坂
均
坊
坍
坎
坏
坐
坑
坒
块
坚
坛
坠
坡
坤
坦
坨
坪
坭
坯
坳
坴
坵
坷
坺
垂
垃
型
垓
垔
垚
垠
垢
垣
垧
垮
垸
垻
埀
埃
埈
埋
城
埐
埔
埕
埗
埞
域
埠
埡
埤
埭
埲
埶
執
埸
培
基
埼
堀
堂
堃
堅
堆
堇
堊
堡
堤
堪
堯
堰
報
場
堵
堺
堿
塊
塌
塑
塔
塗
塘
塚
塞
塡
塢
塩
填
塱
塲
塵
塹
塽
塾
墀
境
墅
墉
墊
墓
増
墙
墜
增
墟
墨
墩
墪
墬
墮
墳
墻
墾
壁
壆
壇
壊
壎
壑
壓
壕
壘
壙
壞
壟
壠
壢
壤
壩
士
壬
壮
壯
声
売
壳
壴
壹
壺
壽
夂
处
夅
夆
备
変
夊
夋
夌
复
夏
夒
夔
夕
外
夗
夘
夙
多
夜
够
夠
夢
夥
大
夨
天
太
夫
夬
夭
央
夯
失
夲
头
夷
夸
夹
夺
夻
夾
奀
奂
奄
奇
奈
奉
奋
奎
奏
奐
契
奓
奔
奕
奖
套
奘
奚
奞
奠
奢
奥
奧
奪
奬
奭
奮
女
奴
奶
奸
她
奻
好
如
妃
妄
妇
妈
妊
妍
妒
妓
妖
妙
妝
妞
妟
妤
妥
妨
妮
妲
妳
妹
妻
妾
姆
姉
姊
始
姍
姐
姑
姒
姓
委
姖
姗
姚
姜
姝
姣
姥
姦
姨
姪
姫
姬
姵
姸
姻
姿
威
娃
娄
娅
娇
娉
娑
娘
娛
娜
娟
娠
娣
娥
娩
娱
娶
娸
娼
婁
婆
婉
婕
婚
婢
婦
婧
婪
婭
婴
婷
婺
婿
媒
媚
媛
媞
媧
媯
媲
媳
媺
媽
媾
嫁
嫂
嫉
嫌
嫖
嫗
嫡
嫣
嫦
嫩
嫲
嫺
嫻
嫿
嬅
嬈
嬉
嬋
嬌
嬛
嬢
嬤
嬪
嬰
嬲
嬴
嬸
嬿
孀
孃
孋
子
孑
孔
孕
孖
字
存
孙
孚
孛
孜
孝
孟
孢
季
孤
学
孩
孫
孭
孰
孱
孲
孵
學
孺
孻
孽
孿
宀
宁
宂
它
宅
宇
守
安
宋
完
宏
宓
宕
宗
官
宙
定
宛
宜
宝
实
実
审
客
宣
室
宥
宦
宪
宫
宮
宰
害
宴
宵
家
宸
容
宽
宾
宿
寂
寄
寅
密
寇
富
寐
寒
寓
寛
寞
察
寡
寢
寥
實
寧
寨
審
寫
寬
寮
寰
寳
寵
寶
寸
对
寺
寻
导
寽
対
寿
封
専
尃
射
将
將
專
尉
尊
尋
尌
對
導
小
尐
少
尒
尓
尔
尖
尗
尘
尙
尚
尝
尞
尢
尣
尤
尧
尨
尬
尭
就
尷
尸
尹
尺
尻
尼
尽
尾
尿
局
屁
层
屄
居
屆
屈
届
屋
屌
屍
屎
屏
屐
屑
展
屖
屘
屙
屚
屛
属
屠
屡
屢
層
履
屬
屭
屮
屯
屰
山
屵
屹
屻
屾
岀
岁
岂
岃
岌
岐
岑
岔
岗
岚
岛
岜
岡
岩
岫
岬
岭
岱
岳
岷
岸
峇
峒
峙
峠
峡
峨
峪
峭
峯
峰
峴
島
峻
峽
崁
崇
崍
崎
崑
崔
崖
崗
崙
崛
崢
崧
崩
崴
崽
嵊
嵋
嵌
嵐
嵩
嵬
嵯
嶂
嶄
嶇
嶋
嶗
嶠
嶲
嶸
嶺
嶼
嶽
巂
巅
巌
巍
巒
巔
巖
巛
川
州
巟
巠
巡
巢
巤
工
左
巧
巨
巩
巫
差
己
已
巳
巴
巷
巸
巻
巽
巾
巿
帀
市
布
帅
帆
师
希
帑
帕
帖
帘
帚
帛
帝
帥
带
師
席
帮
帯
帰
帳
帶
帷
常
帽
幀
幅
幌
幔
幕
幗
幟
幡
幢
幣
幪
幫
干
平
年
幵
并
幷
幸
幹
幺
幻
幼
幽
幾
广
庁
広
庄
庆
庇
床
序
库
应
底
庖
店
庙
庚
府
庥
度
座
庫
庭
庯
庵
庶
康
庸
庾
廁
廂
廃
廄
廈
廉
廊
廌
廓
廖
廙
廚
廛
廝
廟
廠
廡
廢
廣
廩
廬
廳
廴
延
廷
廸
建
廻
廾
廿
开
弁
异
弃
弄
弇
弈
弊
弋
弍
式
弒
弓
弔
引
弗
弘
弛
弜
弟
张
弢
弥
弦
弧
弩
弭
弱
張
弶
強
弹
强
弼
弾
彈
彊
彌
彎
彐
彑
归
当
彔
录
彖
彗
彙
彜
彝
彡
形
彣
彤
彥
彦
彧
彩
彪
彫
彬
彭
彰
影
彳
彷
役
彼
彿
往
征
徂
待
徇
很
徊
律
後
徐
徑
徒
得
徘
徙
從
徠
御
徨
復
循
徬
徭
微
徳
徵
德
徹
徼
徽
心
忄
必
忆
忌
忍
忐
忑
忒
志
忘
忙
応
忝
忠
忧
忩
快
忱
念
忻
忽
忿
怀
态
怎
怒
怕
怖
怜
思
怠
怡
急
性
怨
怪
怯
怱
总
恁
恂
恃
恆
恋
恍
恐
恒
恕
恙
恢
恣
恤
恥
恨
恩
恪
恬
恭
息
恰
恵
恶
悄
悅
悉
悌
悍
悔
悖
悚
悟
悠
患
悤
悦
您
悪
悬
悲
悴
悵
悶
悸
悼
悽
情
惇
惊
惋
惑
惕
惗
惘
惚
惜
惟
惠
惡
惢
惣
惨
惰
惱
惲
想
惶
惹
惺
惻
愁
愃
愈
愉
愍
愎
意
愔
愕
愚
愛
感
愧
愨
愴
愷
愿
慄
慇
慈
態
慌
慎
慕
慘
慚
慟
慢
慣
慤
慧
慨
慫
慮
慰
慳
慶
慷
慾
憂
憎
憐
憑
憓
憔
憙
憚
憤
憧
憨
憩
憫
憬
憲
憶
憾
懂
懇
懈
應
懋
懦
懲
懵
懶
懷
懸
懺
懼
懽
懾
懿
戀
戇
戈
戉
戊
戋
戌
戍
戎
戏
成
我
戒
戔
戕
或
战
戙
戚
戛
戟
戠
戡
戢
戥
戦
戩
截
戮
戯
戰
戲
戳
戴
戶
户
戸
戹
戼
戾
房
所
扁
扇
扈
扉
手
扌
才
扎
扑
扒
打
扔
托
扚
扛
扣
执
扩
扫
扬
扭
扮
扯
扱
扳
扶
批
扼
扽
找
承
技
抄
抆
抉
把
抌
抑
抒
抓
投
抖
抗
折
抛
抜
抢
护
报
抨
披
抬
抱
抵
抹
抺
押
抽
拂
拃
担
拆
拇
拈
拉
拋
拌
拍
拎
拏
拐
拒
拓
拔
拖
拗
拘
拙
拚
招
拜
拟
拡
拥
括
拭
拮
拯
拱
拳
拷
拼
拾
拿
持
挂
挃
指
挈
按
挐
挑
挖
挙
挥
挨
挪
挫
振
挹
挺
挽
挾
挿
捅
捆
捉
捋
捌
捍
捏
捐
捕
捜
捞
损
换
捧
捨
捩
捫
据
捱
捲
捶
捷
捹
捺
捻
捽
掀
掁
掂
掃
授
掉
掌
掏
掐
排
掕
掖
掗
掘
掙
掛
掟
掠
採
探
掣
接
控
推
掩
措
掰
掹
掾
揀
揄
揆
揈
揉
描
提
插
揖
揚
換
揜
揞
握
揣
揦
揩
揪
揭
揮
援
揶
揸
揹
揼
揽
揾
損
搏
搓
搔
搖
搗
搜
搞
搣
搦
搪
搬
搭
搲
搵
搶
携
搽
搾
摄
摇
摑
摔
摘
摞
摟
摣
摥
摧
摩
摯
摱
摷
摸
摹
摺
摻
撃
撅
撇
撈
撐
撑
撒
撓
撕
撘
撚
撞
撠
撣
撤
撥
撩
撫
撬
播
撮
撰
撲
撳
撻
撼
撾
撿
擁
擂
擄
擅
擇
擊
擋
操
擎
擒
擔
擗
擘
據
擠
擡
擢
擦
擧
擬
擰
擱
擲
擴
擷
擸
擺
擼
擾
攀
攆
攋
攏
攔
攘
攜
攝
攞
攢
攣
攤
攪
攬
支
攰
攴
攵
收
攷
攸
改
攻
放
政
敄
故
效
敌
敍
敎
敏
救
敕
敖
敗
敘
教
敝
敞
敢
散
敦
敫
敬
数
敲
整
敵
敷
數
斂
斃
文
斉
斊
斌
斎
斐
斑
斗
料
斛
斜
斝
斟
斡
斤
斥
斧
斩
斬
断
斯
新
斷
方
於
施
斿
旁
旃
旄
旅
旋
旌
族
旒
旖
旗
无
旡
既
旣
日
旦
旧
旨
早
旬
旭
旮
旯
旱
旲
时
旺
旻
旼
旾
昀
昂
昃
昆
昇
昉
昊
昌
昍
明
昏
昑
易
昔
昕
昗
昜
星
映
春
昧
昨
昪
昫
昬
昭
是
昰
昱
昴
昵
昶
昷
昺
显
晁
時
晃
晄
晉
晋
晌
晏
晒
晓
晗
晚
晝
晞
晟
晤
晦
晨
晩
普
景
晰
晴
晶
晷
智
晾
暁
暂
暄
暇
暈
暉
暎
暐
暑
暖
暗
暘
暢
暦
暨
暫
暮
暱
暴
暹
曄
曆
曇
曉
曖
曙
曚
曜
曝
曠
曦
曩
曬
曰
曱
曲
曳
更
曷
書
曹
曺
曼
曾
替
最
朁
會
月
有
朊
朋
服
朏
朐
朔
朕
朗
望
朝
期
朢
朦
朧
木
朩
未
末
本
札
朮
术
朱
朴
朵
朶
机
朽
朿
杀
杂
权
杆
杈
杉
李
杏
材
村
杓
杖
杘
杜
杞
束
杠
条
来
杧
杨
杭
杯
杰
東
杲
杳
杵
杷
杼
松
板
极
构
枇
枉
枋
析
枕
林
枚
果
枝
枢
枣
枪
枫
枯
枱
枲
枳
枴
架
枷
枸
枹
枼
柀
柄
柊
柏
某
柑
柒
染
柔
柘
柙
柚
柜
柝
柞
柢
查
柩
柬
柯
柰
柱
柳
柴
柵
柷
査
柿
栃
栄
标
栋
栏
树
栓
栖
栗
校
栢
栩
株
栱
栲
样
核
根
格
栽
桀
桁
桂
桃
桄
桅
框
案
桉
桌
桐
桑
桓
桔
桕
桜
档
桥
桫
桴
桶
桷
桼
桿
梁
梅
梆
梓
梔
梗
梘
條
梟
梢
梦
梧
梨
梭
梯
械
梳
梵
梶
检
棄
棉
棋
棍
棐
棒
棓
棕
棗
棘
棚
棟
棠
棣
棥
棧
棨
森
棯
棱
棲
棵
棹
棺
棻
椅
椋
植
椎
椏
椒
椗
検
椰
椴
椽
椿
楂
楊
楓
楔
楙
楚
楝
楞
楠
楢
楣
楨
楫
業
楯
極
楷
楸
楹
楼
楽
概
榄
榆
榊
榎
榔
榕
榖
榘
榛
榜
榨
榫
榭
榮
榴
榷
榻
槁
槃
構
槌
槍
槎
槐
槓
様
槙
槟
槤
槪
槲
槳
槻
槽
槿
樁
樂
樅
樊
樋
樑
樓
樖
樘
標
樞
樟
模
樣
樨
権
横
樫
樱
樴
樵
樸
樹
樺
樽
樾
橄
橇
橈
橋
橘
橙
橛
機
橡
橢
橫
檀
檄
檇
檎
檐
檔
檗
檜
檠
檢
檬
檯
檳
檸
檻
櫃
櫈
櫓
櫚
櫛
櫟
櫥
櫳
櫸
櫻
欄
權
欏
欒
欖
欠
次
欢
欣
欧
欬
欮
欲
欶
欸
欺
欽
款
歆
歇
歉
歌
歎
歐
歙
歛
歟
歡
止
正
此
步
武
歧
歨
歩
歪
歮
歯
歰
歲
歳
歴
歷
歸
歹
歺
死
歿
殂
殃
殆
殉
殊
残
殖
殘
殞
殤
殭
殮
殯
殲
殳
段
殷
殸
殹
殺
殻
殼
殿
毀
毁
毅
毆
毋
毌
母
毎
每
毒
毓
比
毕
毗
毘
毚
毛
毡
毫
毬
毯
毳
毽
氂
氈
氏
氐
民
氓
气
氖
気
氘
氙
氚
氛
氟
氡
氣
氦
氧
氨
氪
氫
氬
氮
氯
氰
水
氵
氶
氷
永
氹
氺
氼
氾
汀
汁
求
汇
汉
汎
汐
汕
汗
汙
汛
汜
汝
汞
江
池
污
汤
汧
汨
汪
汰
汲
汴
汶
決
汽
汾
沁
沂
沃
沅
沈
沉
沊
沌
沐
沒
沓
沔
沖
沙
沚
沛
沝
沟
没
沢
沥
沧
沪
沫
沮
沱
河
沸
油
治
沼
沽
沾
沿
況
泂
泄
泉
泊
泌
泓
法
泗
泛
泠
泡
波
泣
泥
注
泪
泫
泮
泯
泰
泳
泵
泼
泽
洁
洄
洋
洒
洗
洙
洛
洞
洢
津
洧
洩
洪
洮
洱
洲
洵
洶
洸
洺
活
洽
派
流
浄
浅
测
济
浓
浙
浚
浜
浞
浠
浣
浦
浩
浪
浬
浮
浴
海
浸
涂
涅
涇
消
涉
涌
涎
涓
涕
涙
涛
润
涨
涪
涮
涯
液
涵
涸
涼
涿
淀
淄
淅
淆
淇
淋
淌
淏
淑
淒
淖
淘
淙
淚
淝
淞
淡
淤
淥
淦
淨
淩
淪
淫
淬
淮
淯
深
淳
淵
淶
混
淸
淹
淺
添
淼
清
済
渉
渋
渐
渕
渙
渚
減
渝
渟
渠
渡
渣
渤
渥
渦
温
測
渭
港
渲
渴
游
渺
渾
湃
湄
湉
湊
湍
湓
湖
湘
湛
湜
湞
湟
湧
湮
湯
湴
湼
湾
湿
満
溉
溏
源
準
溜
溝
溟
溢
溥
溦
溧
溪
溫
溯
溱
溴
溶
溷
溺
溼
滁
滂
滄
滅
滇
滉
滋
滌
滎
滑
滓
滔
滕
滘
滙
滚
滝
满
滢
滨
滩
滬
滯
滲
滴
滷
滸
滾
滿
漁
漂
漆
漏
漓
演
漕
漖
漠
漢
漣
漩
漪
漫
漬
漯
漱
漲
漳
漸
漾
漿
潁
潑
潔
潘
潛
潜
潞
潟
潢
潤
潦
潭
潮
潯
潰
潺
潼
潽
澀
澂
澄
澆
澇
澈
澌
澍
澎
澔
澗
澜
澠
澡
澤
澧
澪
澱
澳
澹
激
濁
濂
濃
濊
濕
濘
濛
濞
濟
濠
濡
濤
濫
濬
濮
濯
濰
濱
濵
濶
濺
濼
濾
瀅
瀆
瀉
瀋
瀍
瀏
瀑
瀕
瀘
瀚
瀛
瀝
瀞
瀟
瀡
瀦
瀧
瀨
瀬
瀰
瀾
灃
灆
灌
灑
灕
灘
灝
灞
灣
灤
火
灬
灭
灯
灰
灵
灶
灷
灸
灼
災
灾
炅
炆
炉
炊
炎
炏
炑
炒
炔
炗
炘
炙
炤
炫
炬
炭
炮
炯
炳
炸
点
為
烂
烈
烊
烏
烘
烙
烚
烝
烟
烤
烧
热
烯
烱
烴
烷
烹
烽
焉
焊
焌
焓
焕
焗
焙
焚
焜
焞
無
焦
焫
焯
焰
焱
然
焼
煇
煉
煊
煌
煎
煒
煖
煙
煜
煞
煠
煤
煥
煦
照
煨
煩
煬
煮
煲
煸
煽
熄
熊
熏
熒
熔
熙
熟
熠
熨
熬
熱
熲
熵
熹
熾
燁
燂
燃
燄
燈
燉
燊
燎
燒
燕
燙
燜
營
燥
燦
燧
燬
燭
燮
燴
燶
燻
燼
燾
燿
爆
爍
爐
爛
爟
爨
爪
爫
爬
爭
爯
爰
爱
爲
爵
父
爷
爸
爹
爺
爻
爽
爾
爿
牀
牁
牂
牆
片
版
牌
牒
牘
牙
牚
牛
牜
牝
牟
牠
牡
牢
牧
物
牪
牯
牲
牴
牵
特
牺
牽
犀
犁
犂
犍
犒
犖
犛
犢
犧
犬
犭
犮
犯
犰
状
狀
狂
狄
狊
狐
狒
狗
狙
狠
狡
狨
狩
独
狭
狮
狱
狳
狷
狸
狹
狺
狼
狽
猁
猋
猎
猒
猖
猛
猜
猝
猞
猥
猩
猪
猫
猬
献
猴
猶
猷
猻
猾
猿
獁
獄
獅
獎
獒
獗
獛
獠
獣
獨
獰
獲
獴
獵
獷
獸
獺
獻
獼
獾
玄
率
玉
王
玖
玗
玛
玟
玥
玧
玨
玩
玫
环
现
玲
玳
玷
玹
玻
珀
珂
珅
珈
珉
珊
珍
珎
珏
珓
珞
珠
珣
珥
珩
珪
班
珮
珺
現
球
琅
理
琇
琉
琊
琍
琔
琚
琛
琢
琤
琥
琦
琨
琪
琬
琮
琰
琳
琴
琵
琶
琺
琼
琿
瑀
瑁
瑂
瑄
瑋
瑕
瑙
瑚
瑛
瑜
瑞
瑟
瑠
瑣
瑤
瑩
瑪
瑭
瑯
瑰
瑱
瑶
瑾
璀
璃
璆
璇
璉
璋
璐
璘
璜
璞
璟
璠
璣
璦
璧
璨
璩
環
璽
璿
瓊
瓏
瓔
瓘
瓚
瓜
瓠
瓢
瓣
瓦
瓮
瓶
瓷
甂
甄
甌
甍
甑
甕
甘
甚
甜
生
產
産
甥
甦
用
甩
甫
甬
甯
田
由
甲
申
甴
电
甶
男
甸
甹
町
画
甾
畀
畅
畈
畋
界
畏
畐
畑
畔
留
畜
畝
畟
畠
畢
略
畧
畨
番
畫
畬
異
畱
畲
畵
當
畸
畹
畺
畾
畿
疆
疇
疊
疋
疌
疍
疎
疏
疑
疒
疗
疚
疣
疤
疥
疫
疯
疱
疲
疴
疵
疸
疹
疼
疽
疾
病
症
痊
痔
痕
痘
痙
痛
痞
痢
痣
痧
痰
痲
痳
痴
痹
痺
痾
痿
瘀
瘋
瘌
瘍
瘓
瘟
瘠
瘡
瘤
瘦
瘧
瘰
瘴
瘾
療
癆
癇
癌
癐
癒
癖
癡
癢
癥
癩
癬
癮
癱
癲
癶
癸
癹
発
登
發
白
百
皀
皂
皃
的
皆
皇
皈
皋
皎
皐
皓
皕
皖
皚
皮
皴
皷
皺
皿
盂
盃
盅
盆
盇
盈
益
盍
盎
监
盒
盔
盖
盗
盘
盛
盜
盞
盟
盡
監
盤
盥
盧
盪
目
盯
盱
盲
直
相
盼
盾
省
眇
眈
眉
看
県
眔
眙
眛
眞
真
眠
眨
眩
眭
眶
眷
眸
眺
眼
眾
着
睇
睎
睏
睘
睚
睛
睜
睞
睡
睢
督
睦
睪
睫
睬
睹
睺
睼
睽
睾
睿
瞄
瞌
瞎
瞏
瞓
瞞
瞢
瞪
瞬
瞭
瞰
瞳
瞻
瞽
瞿
矇
矍
矗
矚
矛
矜
矞
矢
矣
知
矦
矩
短
矮
矯
石
矽
矿
码
砂
砌
砍
砒
研
砝
砥
砦
砧
砬
砲
破
砵
砷
砸
础
硃
硅
硏
硒
硕
硝
硤
硫
硬
确
硯
硼
碁
碇
碉
碌
碍
碎
碑
碓
碖
碗
碘
碚
碟
碣
碧
碩
碭
碰
碱
碲
碳
確
碼
碾
磁
磅
磊
磋
磐
磚
磡
磧
磨
磬
磯
磷
磺
磾
礁
礎
礙
礦
礪
礫
礬
礮
示
礻
礼
社
祀
祁
祂
祆
祇
祈
祉
祐
祕
祖
祗
祘
祚
祛
祜
祝
神
祟
祠
祢
祥
票
祭
祸
祺
祼
祿
禀
禁
禄
禅
禍
禎
福
禕
禛
禡
禤
禦
禧
禪
禮
禰
禱
禶
禸
禹
禺
离
禽
禾
禿
秀
私
秃
秉
秋
种
科
秒
秘
秝
租
秣
秤
秦
秧
秩
秭
积
称
移
稀
稅
稈
程
稍
税
稔
稗
稚
稜
稟
稠
種
稱
稲
稷
稹
稻
稼
稽
稿
穀
穂
穆
穌
積
穎
穏
穗
穢
穩
穫
穰
穴
究
穹
空
穿
突
窄
窈
窒
窓
窕
窖
窗
窝
窟
窩
窪
窮
窯
窰
窺
窿
竄
竅
竇
竈
竉
竊
立
竒
站
竜
竝
竞
竟
章
竣
童
竪
竭
端
競
竹
竺
竿
笈
笋
笏
笑
笔
笘
笙
笛
笞
笠
符
笨
笪
第
笭
笳
笹
筆
等
筊
筋
筍
筏
筐
筑
筒
答
策
筠
筧
筩
筱
筲
筵
筷
筹
签
简
箇
箋
箍
箏
箔
箕
算
管
箭
箱
箴
箸
節
篁
範
篆
篇
築
篋
篙
篠
篡
篤
篩
篪
篭
篮
篷
篾
簇
簋
簒
簕
簡
簧
簪
簫
簷
簸
簽
簾
簿
籃
籌
籍
籐
籟
籠
籣
籤
籬
籮
籲
米
类
籽
粉
粑
粒
粕
粗
粘
粛
粟
粤
粥
粦
粧
粱
粲
粵
粹
粽
精
粿
糊
糍
糕
糖
糙
糜
糞
糟
糠
糧
糭
糯
糰
糴
糶
糸
糹
系
糾
紀
紂
約
紅
紇
紉
紊
紋
納
紐
紓
純
紗
紘
紙
級
紛
紜
素
紡
索
紥
紧
紫
紬
紮
累
細
紳
紹
紺
終
絃
組
絆
経
結
絕
絛
絜
絞
絡
絢
給
絨
絫
絮
統
絲
絳
絵
絶
絹
綁
綉
綏
綑
經
継
続
綜
綝
綟
綠
綢
綣
綦
綫
綬
維
綰
綱
網
綴
綵
綷
綸
綺
綻
綽
綾
綿
緊
緋
総
緑
緒
緘
線
緝
緞
締
緡
緣
編
緩
緬
緯
緲
練
緹
緻
縄
縈
縉
縊
縛
縞
縣
縫
縮
縱
縷
縹
總
績
繁
繃
繆
繇
繑
繒
織
繕
繙
繚
繞
繡
繩
繪
繫
繭
繯
繳
繹
繼
繽
繾
纂
續
纍
纏
纓
纖
纘
纜
纟
纠
红
约
级
纪
纬
纯
纳
纵
纷
纸
纽
线
练
组
细
织
终
绍
绎
经
结
绘
给
络
绝
统
绣
继
绩
绪
续
维
绸
综
绿
缅
编
缘
缮
缶
缸
缺
缽
罂
罄
罅
罉
罌
罐
网
罒
罔
罕
罗
罘
罙
罚
罟
罡
罢
罩
罪
置
罰
署
罵
罷
罹
羅
羈
羊
羋
羌
羍
美
羔
羕
羗
羚
羞
羡
羣
群
羥
羧
羨
義
羯
羲
羸
羹
羽
羿
翀
翁
翅
翊
翌
翎
翏
習
翔
翕
翟
翠
翡
翦
翩
翬
翰
翱
翳
翹
翻
翼
耀
老
耂
考
者
耆
而
耍
耎
耐
耑
耒
耕
耖
耗
耘
耙
耳
耴
耶
耷
耽
耿
聂
聆
聊
职
联
聖
聘
聚
聞
聡
聪
聯
聰
聲
聳
聴
聵
聶
職
聽
聾
聿
肀
肃
肄
肅
肆
肇
肉
肋
肌
肖
肘
肙
肚
肛
肝
股
肢
肥
肩
肪
肯
肱
育
肴
肺
肼
肽
胃
胆
背
胎
胐
胖
胚
胛
胜
胞
胡
胤
胥
胭
胰
胱
胳
胵
胶
胸
胺
能
脂
脅
脆
脇
脈
脉
脊
脑
脖
脚
脛
脣
脧
脩
脫
脯
脱
脷
脸
脹
脾
腈
腊
腋
腌
腍
腎
腐
腑
腓
腔
腕
腥
腦
腩
腫
腮
腰
腱
腳
腸
腹
腺
腾
腿
膀
膈
膊
膏
膚
膛
膜
膝
膠
膥
膨
膩
膳
膶
膺
膽
膾
膿
臀
臂
臆
臉
臊
臍
臏
臘
臟
臣
臤
臥
臧
臨
自
臬
臭
臯
臱
至
致
臺
臻
臼
臽
臾
臿
舀
舂
舄
舅
舆
與
興
舉
舊
舌
舍
舎
舐
舒
舔
舖
舗
舘
舛
舜
舞
舟
舢
舨
航
舫
般
舵
舶
舷
船
舺
艇
艋
艏
艘
艙
艦
艮
良
艱
色
艳
艶
艷
艸
艹
艺
艾
节
芃
芊
芋
芍
芎
芒
芔
芙
芝
芡
芥
芦
芪
芫
芬
芭
芮
芯
花
芳
芷
芸
芹
芺
芻
芽
芾
苏
苑
苓
苔
苕
苗
苛
苞
苟
苡
苣
若
苦
苫
苯
英
苳
苴
苷
苹
苻
茂
范
茄
茅
茉
茗
茘
茛
茜
茨
茫
茭
茯
茱
茲
茴
茵
茶
茸
茹
荀
荃
荅
荆
草
荊
荐
荒
荔
荣
药
荳
荷
荻
荼
荽
莆
莉
莊
莎
莒
莓
莖
莘
莞
莢
莧
莨
莪
莫
莱
莲
获
莹
莽
菀
菁
菅
菆
菇
菈
菊
菌
菏
菐
菓
菖
菘
菜
菟
菠
菡
菢
菩
菫
華
菱
菲
菴
菸
萃
萄
萇
萊
萌
萍
萎
萝
营
萧
萨
萩
萬
萱
萸
萼
落
葆
葉
著
葛
葡
董
葦
葩
葫
葬
葭
葯
葰
葱
葳
葵
葶
葷
葺
蒂
蒋
蒐
蒙
蒜
蒞
蒟
蒦
蒨
蒯
蒲
蒴
蒸
蒼
蒽
蒿
蓀
蓁
蓄
蓆
蓉
蓋
蓑
蓓
蓝
蓢
蓬
蓮
蓺
蓼
蔑
蔓
蔔
蔗
蔘
蔚
蔡
蔣
蔥
蔦
蔬
蔭
蔴
蔵
蔻
蔽
蕃
蕉
蕊
蕎
蕓
蕙
蕤
蕨
蕩
蕪
蕭
蕷
蕹
蕾
薄
薇
薈
薊
薏
薑
薔
薗
薙
薛
薜
薦
薨
薩
薪
薫
薬
薯
薰
薹
藁
藉
藍
藏
藐
藕
藜
藝
藤
藥
藩
藪
藶
藹
藺
藻
蘄
蘅
蘆
蘇
蘊
蘋
蘑
蘚
蘢
蘭
蘸
蘼
蘿
虍
虎
虐
虒
虔
處
虖
虗
虘
虚
虛
虜
虞
號
虢
虧
虫
虬
虱
虹
虺
虻
虽
虾
蚂
蚊
蚌
蚓
蚜
蚣
蚤
蚧
蚩
蚪
蚯
蚱
蚵
蚺
蛀
蛆
蛇
蛉
蛋
蛙
蛛
蛟
蛤
蛭
蛸
蛹
蛺
蛻
蛾
蜀
蜂
蜃
蜆
蜈
蜍
蜑
蜓
蜘
蜚
蜜
蜞
蜢
蜥
蜩
蜱
蜴
蜷
蜻
蝉
蝌
蝎
蝕
蝗
蝙
蝟
蝠
蝦
蝨
蝪
蝮
蝰
蝴
蝶
蝸
螂
螃
螄
螈
融
螞
螢
螣
螭
螯
螳
螺
蟀
蟄
蟆
蟋
蟌
蟎
蟑
蟒
蟝
蟠
蟥
蟧
蟬
蟲
蟹
蟻
蟾
蠄
蠅
蠍
蠏
蠑
蠔
蠕
蠖
蠟
蠡
蠢
蠣
蠱
蠶
蠻
血
衆
衊
行
衍
衎
術
衔
街
衙
衛
衝
衞
衡
衢
衣
衤
补
表
衫
衮
衰
衲
衷
衹
衾
衿
袁
袂
袋
袍
袒
袖
袛
袞
被
袭
袱
裀
裁
裂
装
裇
裏
裔
裕
裘
裙
補
裝
裟
裡
裨
裳
裴
裸
裹
製
複
褐
褒
褓
褔
褚
褥
褦
褪
褫
褭
褱
褲
褶
褸
褻
襄
襌
襟
襪
襯
襲
襾
西
覀
要
覃
覆
覇
見
規
覓
視
覚
覦
覧
親
覬
覲
観
覺
覽
觀
见
观
规
视
览
觉
角
觚
觜
解
触
觳
觴
觸
言
訁
訂
訃
訇
計
訊
訌
討
訓
訕
訖
託
記
訛
訝
訟
訢
訣
訥
訪
設
許
訳
訴
訶
診
註
証
訾
詁
詆
詏
詐
詒
詔
評
詛
詝
詞
詠
詡
詢
詣
試
詧
詩
詫
詬
詭
詮
詰
話
該
詳
詹
詼
誃
誅
誇
誉
誌
認
誓
誕
誘
語
誠
誡
誣
誤
誥
誦
誨
誩
說
説
読
誰
課
誹
誼
調
談
請
諏
諒
論
諗
諜
諝
諡
諤
諦
諧
諫
諭
諮
諱
諳
諶
諷
諸
諺
諾
謀
謁
謂
謊
謎
謐
謔
謖
謗
謙
謚
講
謝
謠
謡
謦
謨
謫
謬
謳
謹
謾
譁
證
譏
譒
識
譙
譚
譜
警
譬
譯
議
譴
護
譽
讀
讉
變
讎
讒
讓
讚
讠
计
订
认
讨
让
训
议
讯
记
讲
许
论
设
访
证
评
识
诈
诉
诊
词
译
试
诗
诚
话
诞
询
该
详
语
误
说
请
诺
读
课
谁
调
谈
谊
谋
谎
谐
谜
谢
谣
谦
谭
谱
谴
谷
谿
豁
豆
豈
豉
豊
豌
豎
豐
豔
豕
豖
豙
豚
象
豦
豨
豩
豪
豫
豬
豳
豸
豹
豺
貂
貅
貇
貊
貌
貍
貓
貔
貘
貝
貞
貟
負
財
貢
貧
貨
販
貪
貫
責
貯
貳
貴
貶
買
貸
費
貼
貽
貿
賀
賁
賂
賃
賄
資
賈
賊
賏
賑
賒
賓
賔
賛
賜
賞
賠
賡
賢
賣
賤
賦
質
賬
賭
賴
賺
購
賽
贄
贅
贇
贈
贊
贍
贏
贓
贔
贖
贛
贝
贞
负
贡
财
责
贤
败
货
质
贪
贫
购
贯
贲
贴
贵
贸
费
贺
贾
资
赌
赏
赔
赖
赚
赛
赞
赢
赤
赦
赧
赫
赭
走
赳
赴
赵
赶
起
趁
趄
超
越
趋
趕
趙
趟
趣
趨
趯
趲
足
趴
趺
趾
跃
跆
跋
跌
跑
跗
跛
距
跟
跡
跣
跤
跨
跩
跪
路
跳
践
踊
踎
踏
踐
踝
踞
踢
踩
踪
踭
踰
踴
踵
踹
蹂
蹄
蹇
蹈
蹊
蹋
蹟
蹤
蹦
蹬
蹲
蹴
蹶
蹺
蹼
躁
躂
躄
躉
躋
躍
躝
躪
身
躬
躲
躺
軀
車
軋
軌
軍
軎
軑
軒
軚
軛
軟
転
軫
軭
軸
軻
軼
軾
較
載
輋
輒
輓
輔
輕
輛
輝
輞
輟
輦
輩
輪
輯
輸
輻
輾
輿
轄
轅
轆
轉
轍
轎
轟
轤
车
轨
轩
转
轮
软
轰
轻
载
较
辅
辆
辉
辑
输
辛
辜
辞
辟
辣
辥
辦
辨
辭
辮
辯
辰
辱
農
辵
辶
边
辺
辻
込
辽
达
辿
迁
迂
迄
迅
过
迈
迎
运
近
返
还
这
进
远
违
连
迟
迢
迤
迥
迦
迪
迫
迭
述
迴
迷
迹
迺
追
迾
退
送
适
逃
逄
逅
逆
选
逍
透
逐
逑
递
途
逕
逖
逗
這
通
逛
逝
逞
速
造
逢
連
逮
逯
週
進
逳
逴
逵
逸
逼
逾
遀
遁
遂
遇
遊
運
遍
過
遏
遐
道
達
違
遗
遙
遜
遝
遞
遠
遢
遣
遥
遨
適
遭
遮
遯
遲
遴
遵
遷
選
遺
遼
避
邀
邁
邂
邃
還
邇
邈
邊
邋
邏
邑
邓
邕
邙
邢
那
邦
邨
邪
邮
邯
邰
邱
邳
邴
邵
邶
邸
邹
郁
郃
郅
郊
郎
郑
郗
郜
郝
郡
郢
郤
部
郫
郭
郴
郵
郷
都
郾
鄂
鄆
鄉
鄒
鄔
鄕
鄖
鄘
鄙
鄞
鄢
鄧
鄩
鄭
鄮
鄯
鄰
鄱
鄲
鄴
鄺
酆
酈
酉
酋
酌
配
酎
酒
酓
酗
酚
酢
酥
酪
酬
酮
酯
酰
酵
酶
酷
酸
醂
醃
醇
醉
醋
醍
醐
醒
醚
醛
醜
醞
醣
醫
醬
醮
醯
醴
釀
釁
釆
采
釉
释
釋
里
重
野
量
釐
金
釒
釔
釗
釘
釙
釜
針
釣
釤
釧
釩
釵
釷
釹
鈀
鈁
鈄
鈅
鈇
鈉
鈍
鈎
鈐
鈔
鈕
鈞
鈣
鈦
鈧
鈪
鈴
鈷
鈸
鈹
鈺
鈾
鈿
鉀
鉄
鉅
鉆
鉈
鉉
鉍
鉎
鉑
鉕
鉗
鉛
鉞
鉢
鉤
鉦
鉬
鉴
鉸
鉻
鉼
銀
銃
銅
銑
銓
銖
銘
銚
銜
銡
銣
銥
銦
銨
銫
銬
銭
銮
銲
銳
銶
銷
銹
銻
銼
鋁
鋅
鋇
鋒
鋕
鋤
鋪
鋭
鋯
鋰
鋸
鋹
鋼
錀
錄
錐
錒
錔
錕
錘
錚
錛
錞
錠
錡
錢
錦
錨
錫
錮
錯
録
錳
錶
鍇
鍊
鍋
鍍
鍔
鍘
鍚
鍛
鍬
鍵
鍶
鍺
鍼
鍾
鎂
鎅
鎊
鎌
鎏
鎔
鎖
鎗
鎘
鎚
鎢
鎧
鎬
鎭
鎮
鎳
鎵
鏇
鏈
鏌
鏐
鏗
鏘
鏞
鏟
鏡
鏢
鏤
鏵
鏸
鏹
鏽
鐐
鐖
鐘
鐙
鐮
鐲
鐳
鐵
鐸
鐺
鑄
鑊
鑌
鑑
鑒
鑣
鑫
鑭
鑰
鑲
鑴
鑷
鑼
鑽
鑾
鑿
钅
针
钉
钟
钢
钦
钧
钱
铁
铃
铜
铧
铭
银
销
锁
锋
锐
错
锡
锦
镇
镜
長
镸
长
門
閂
閃
閆
閉
開
閎
閏
閑
閒
間
閔
閘
閡
関
閣
閤
閥
閨
閩
閪
閬
閭
閱
閲
閵
閶
閹
閻
閼
閾
闆
闇
闊
闋
闌
闍
闐
闓
闔
闕
闖
闘
關
闞
闡
闢
门
闪
闭
问
闲
间
闷
闹
闻
闽
阁
阅
阑
阜
阝
队
阡
阪
阬
阮
阯
阱
防
阳
阵
阶
阻
阿
陀
陂
附
际
陆
陈
陋
陌
降
限
陔
陕
陛
陜
陝
陞
陟
陡
院
陣
除
险
陪
陬
陰
陲
陳
陵
陶
陷
陸
険
陽
隅
隆
隈
隊
隋
隍
階
随
隐
隔
隕
隗
隘
隙
際
障
隠
隡
隣
隧
隨
險
隱
隴
隶
隷
隸
隹
隺
隻
隼
隽
难
雀
雁
雄
雅
集
雇
雈
雉
雋
雌
雍
雎
雐
雑
雒
雔
雕
雖
雙
雚
雛
雜
雝
雞
離
難
雨
雩
雪
雯
雲
零
雷
雹
電
雾
需
霄
霅
霆
震
霈
霉
霊
霍
霎
霏
霑
霓
霖
霜
霝
霞
霧
霰
露
霸
霹
霽
霾
靂
靄
靈
靑
青
靓
靖
静
靚
靛
靜
非
靠
靡
面
靣
革
靳
靴
靶
靺
靼
鞅
鞋
鞍
鞏
鞘
鞠
鞦
鞨
鞭
韃
韆
韋
韌
韓
韙
韜
韞
韡
韦
韩
韭
韮
韯
韱
音
韵
韶
韻
響
頁
頂
頃
項
順
須
頊
頌
預
頑
頒
頓
頗
領
頜
頠
頡
頤
頦
頭
頰
頴
頷
頸
頹
頻
頼
顆
題
額
顎
顏
顒
顓
顔
顕
願
顛
類
顥
顧
顫
顯
顱
顳
页
顶
项
顺
须
顾
顿
颁
预
领
频
颖
题
颜
额
風
颯
颱
颳
颶
颺
飄
飆
飈
风
飘
飙
飛
飞
食
飠
飢
飪
飮
飯
飲
飴
飼
飽
飾
餃
餅
餉
養
餌
餐
餓
餘
餚
餞
餡
館
餬
餵
餸
餾
饅
饉
饋
饌
饑
饒
饗
饣
饭
饮
饰
馆
首
馗
香
馥
馨
馬
馭
馮
馱
馳
馴
駁
駅
駆
駐
駒
駕
駖
駙
駛
駝
駟
駡
駢
駦
駭
駱
駿
騁
騎
騏
騒
験
騙
騤
騫
騭
騮
騰
騷
騾
驁
驃
驄
驅
驊
驍
驕
驗
驚
驛
驟
驢
驤
驥
驪
马
驱
驳
驻
驾
骂
验
骑
骗
骨
骰
骷
骸
骹
骼
髀
髁
髏
髒
髓
體
髖
高
髙
髟
髦
髧
髪
髮
髯
髹
髻
鬃
鬅
鬆
鬍
鬚
鬟
鬢
鬣
鬥
鬧
鬩
鬬
鬭
鬯
鬱
鬲
鬻
鬼
魁
魂
魄
魅
魏
魔
魚
魨
魯
魴
魷
鮋
鮎
鮑
鮒
鮓
鮟
鮨
鮪
鮫
鮭
鮮
鯀
鯇
鯉
鯊
鯓
鯖
鯛
鯡
鯤
鯥
鯨
鯪
鯭
鯰
鯷
鯽
鰂
鰍
鰓
鰕
鰨
鰭
鰱
鰲
鰹
鰺
鰻
鱀
鱇
鱈
鱉
鱒
鱔
鱗
鱘
鱟
鱧
鱲
鱷
鱸
鱺
鱼
鲁
鲜
鳥
鳧
鳩
鳯
鳳
鳴
鳶
鳽
鴇
鴉
鴒
鴕
鴛
鴝
鴞
鴟
鴣
鴦
鴨
鴴
鴷
鴻
鴿
鵐
鵑
鵜
鵝
鵞
鵠
鵡
鵪
鵬
鵯
鵰
鵲
鶇
鶉
鶘
鶚
鶡
鶯
鶲
鶴
鶺
鶻
鶿
鷀
鷂
鷄
鷈
鷓
鷗
鷯
鷲
鷸
鷹
鷺
鷿
鸌
鸕
鸚
鸛
鸝
鸞
鸟
鸡
鸣
鸦
鸿
鹅
鹏
鹤
鹰
鹵
鹹
鹼
鹽
鹿
麂
麃
麋
麒
麓
麖
麗
麝
麟
麥
麦
麩
麪
麯
麴
麵
麻
麼
麽
麾
麿
黃
黄
黍
黎
黏
黐
黑
黒
黔
默
黛
黜
點
黥
黨
黯
黴
黹
黻
黽
黾
鼆
鼇
鼎
鼐
鼓
鼠
鼩
鼬
鼯
鼱
鼴
鼷
鼻
鼾
齊
齋
齐
齒
齡
齢
齣
齦
齶
齿
龄
龍
龐
龑
龔
龕
龙
龚
龜
龟
龠
龢
龰
龱
龴
龵
龶
龷
龸
龹

者
艹
︎
️
︰
︱
﹐
﹑
﹔
﹕
﹗
﹙
﹚
﹣
﻿
！
＂
＃
％
＆
（
）
＊
＋
，
－
．
／
０
１
２
３
４
５
６
７
８
９
：
；
＜
＝
＞
？
＠
［
］
ａ
ｂ
ｃ
ｄ
ｅ
ｆ
ｇ
ｈ
ｉ
ｊ
ｋ
ｌ
ｍ
ｎ
ｏ
ｐ
ｒ
ｓ
ｔ
ｕ
ｗ
ｘ
ｙ
ｚ
｜
～
｢
｣
､
･
￥
�
🔥
𠀁
𠀃
𠀆
𠀉
𠀎
𠀐
𠀤
𠁁
𠁣
𠂆
𠂇
𠂈
𠂉
𠂊
𠂋
𠂎
𠂒
𠂔
𠂛
𠂡
𠂢
𠂤
𠂬
𠂭
𠂹
𠃊
𠃋
𠃌
𠃍
𠃎
𠃑
𠃓
𠃔
𠃜
𠄌
𠄎
𠄠
𠄢
𠆢
𠆥
𠇍
𠈌
𠊎
𠊛
𠌵
𠒇
𠓜
𠔉
𠔥
𠔼
𠔽
𠔿
𠕀
𠕁
𠕋
𠘧
𠘨
𠙻
𠙼
𠚏
𠚒
𠚤
𠚪
𠝹
𠣏
𠤎
𠤕
𠥓
𠦄
𠦑
𠦝
𠧒
𠧗
𠧪
𠩺
𠪚
𠫓
𠫔
𠫤
𠫾
𠬛
𠬝
𠬞
𠬠
𠬢
𠬤
𠬶
𠮛
𠮦
𠮷
𠯑
𠱁
𠱠
𠳮
𠵱
𠵿
𠷎
𠹺
𡁵
𡁻
𡃁
𡈼
𡉀
𡉵
𡌥
𡍮
𡏳
𡑝
𡕒
𡕩
𡕰
𡖅
𡗗
𡗜
𡘆
𡘤
𡧱
𡨄
𡩋
𡩧
𡬠
𡭽
𡰣
𡰥
𡰪
𡰯
𡰱
𡳞
𡷈
𡸁
𡿨
𡿩
𡿪
𡿺
𢀖
𢀛
𢀩
𢁙
𢃇
𢆉
𢆡
𢆥
𢆰
𢆶
𢇁
𢇇
𢉖
𢌬
𢌿
𢏚
𢑑
𢑚
𢖻
𢙣
𢛳
𢦏
𢦒
𢧵
𢫏
𢬿
𢱕
𢳂
𢶍
𢼄
𢾕
𣁋
𣄼
𣅀
𣅽
𣍘
𣎳
𣎵
𣏋
𣏼
𣗥
𣥂
𣥖
𣦵
𣦼
𣧄
𣪊
𣪠
𣬉
𣲷
𣳾
𣶒
𤇾
𤊽
𤐫
𤒹
𤓰
𤔔
𤕨
𤗲
𤘅
𤣩
𤰇
𤰔
𤰞
𤴓
𤴔
𤽄
𥁑
𥁕
𥃦
𥃩
𥃭
𥄫
𥇡
𥑟
𥘅
𥘈
𥝢
𥫗
𥱡
𦈢
𦉪
𦉬
𦉼
𦍌
𦍒
𦎧
𦐇
𦓔
𦔮
𦘒
𦙃
𦚏
𦣝
𦣞
𦣻
𦥑
𦥔
𦥯
𦨉
𦭝
𦰩
𧆞
𧇣
𧈧
𧊅
𧒽
𧗱
𧘇
𧩙
𧰨
𧴪
𧴮
𧵑
𧵩
𧾷
𨂾
𨈓
𨋢
𨳍
𨳒
𨸏
𨾴
𩙿
𩠐
𩫏
𩵋
𩶘
𪉷
𪐀
𪜀
𪟽
𪠲
𪩲
𫇦
𫔭
𫜸
𫝀
𫠣
𫠩
𫢉
𫥞
𫩏
𫩠
𫪡
𫲽
𫶧
𬀷
𬐘
𬗌
𬙙
𬛸
𬜯
𬟩
𬯁
𬴘
𬺻
𬼉
𬼖
𭀰
𭁈
𭁨
𭅰
𭑈
𭕄
𭗼
𭤨
𭥫
𭻾
𮅕
𮊿
𮍌
𮍏
𮓗
𮥼
𮧮
廾
𰀁
𰀄
𰀈
𰀉
𰀕
𰀠
𰀡
𰀢
𰀪
𰁜
𰃮
𰆊
𰆘
𰋙
𰕎
𰢴
𰧭
𰯲
00--
01--
02--
03--
04--
05--
06--
07--
08--
09--
38--
43--
44--
46--
47--
48--
49--
50--
51--
52--
53--
54--
55--
56--
57--
58--
59--
61--
62--
63--
64--
65--
66--
67--
68--
69--
70--
71--
72--
73--
74--
75--
76--
77--
78--
79--
80--
81--
82--
83--
84--
85--
86--
87--
88--
89--
90--
91--
92--
93--
94--
95--
96--
97--
978--
98--
99--
a--
aa--
ab--
abra--
ac--
accele--
accid--
accu--
acou--
acu--
ad--
adol--
ae--
aero--
af--
affe--
ag--
ah--
ai--
air--
ak--
al--
all--
alte--
am--
an--
analy--
and--
ang--
ano--
ans--
antar--
anthropo--
any--
ao--
ap--
app--
approxi--
aqu--
ar--
ara--
arch--
art--
as--
ash--
asse--
assi--
astro--
at--
ath--
au--
aus--
auto--
av--
ax--
b--
ba--
back--
bad--
bal--
balan--
ban--
bar--
base--
bat--
bau--
be--
beau--
bel--
ben--
ber--
bert--
bi--
biblio--
big--
bio--
bl--
bo--
bon--
boo--
bot--
bou--
bow--
br--
bre--
bro--
broad--
bu--
budd--
bulg--
bun--
bur--
by--
c--
ca--
cal--
calcu--
cali--
cam--
can--
cap--
car--
cat--
cau--
cd--
ce--
cele--
cent--
cer--
cere--
cert--
ch--
cha--
che--
chi--
china--
cho--
ci--
cin--
cir--
cl--
cly--
cn--
co--
coll--
colo--
com--
con--
const--
coor--
cor--
corre--
cort--
cos--
cou--
cov--
cr--
crim--
cris--
crit--
cro--
cru--
crypto--
cs--
ct--
cu--
cur--
custo--
cy--
cyber--
cycl--
d--
da--
dam--
dar--
de--
dec--
decla--
def--
deg--
del--
demo--
den--
depen--
der--
des--
dha--
di--
dia--
diff--
diplo--
disa--
disp--
dist--
dj--
do--
dr--
drac--
du--
dur--
dw--
dy--
e--
ea--
ear--
eb--
ec--
econome--
ed--
ef--
eg--
ei--
el--
ele--
elec--
electro--
elep--
em--
embe--
emer--
emot--
en--
end--
eng--
entre--
ep--
epid--
epis--
epistemo--
equ--
er--
ergo--
es--
est--
et--
eu--
euro--
ex--
exer--
exp--
f--
fa--
far--
fau--
fe--
fed--
fer--
fi--
fire--
fl--
fle--
flo--
flor--
flu--
fo--
for--
fr--
fre--
frie--
fu--
g--
ga--
gali--
gall--
game--
gar--
gas--
gat--
ge--
gen--
gene--
geo--
ger--
germ--
gi--
gli--
glo--
glu--
go--
god--
gra--
gre--
gri--
gro--
gru--
gu--
gui--
gun--
gy--
h--
ha--
ham--
hand--
hap--
har--
harm--
hart--
has--
haw--
hay--
he--
hel--
hen--
her--
hi--
high--
hil--
hippo--
his--
hit--
hk--
ho--
hoff--
hol--
home--
homo--
hon--
hor--
hot--
hu--
hur--
hy--
hyper--
i--
ia--
ib--
ic--
id--
if--
ig--
il--
illu--
illust--
im--
impul--
in--
inc--
indi--
indu--
infe--
info--
ing--
init--
inno--
insp--
inst--
instru--
int--
integ--
inter--
inva--
inve--
io--
ip--
ir--
is--
isab--
it--
iv--
j--
ja--
jan--
japo--
je--
jen--
jer--
ji--
jo--
ju--
jud--
k--
ka--
kan--
ke--
ken--
key--
ki--
kit--
kl--
knu--
ko--
kr--
kris--
ku--
ky--
l--
la--
lab--
lady--
lam--
lan--
lau--
le--
legi--
lexi--
li--
libe--
life--
lit--
lo--
lock--
lophio--
lu--
ly--
m--
ma--
mac--
macro--
madagas--
mag--
mah--
main--
mal--
man--
manu--
mar--
mat--
may--
mb--
mc--
me--
med--
medi--
mega--
memo--
men--
mer--
meta--
mete--
mi--
micr--
micro--
mid--
mig--
mil--
min--
mn--
mo--
mon--
mono--
moo--
moon--
mor--
mori--
morpho--
mu--
multi--
mus--
my--
n--
na--
naci--
nan--
nar--
navi--
nc--
ne--
neig--
neo--
nepen--
ner--
neu--
neuro--
new--
news--
ng--
ni--
nig--
no--
non--
nor--
not--
nt--
nu--
ny--
o--
oak--
obs--
obser--
occ--
oh--
ok--
ol--
old--
oliv--
oly--
olymp--
omn--
on--
one--
op--
open--
opport--
or--
orie--
os--
ot--
ou--
out--
over--
p--
pa--
pan--
par--
para--
pat--
path--
pay--
pe--
pen--
per--
pet--
ph--
pheno--
phono--
photo--
pi--
pl--
play--
plu--
po--
pol--
poli--
poly--
pop--
por--
post--
pp--
pr--
pra--
pre--
prim--
pro--
propa--
proto--
provi--
psy--
psycho--
psychome--
pu--
pur--
puzz--
py--
q--
qu--
qua--
quo--
r--
ra--
rap--
rat--
re--
rece--
recom--
red--
refer--
reg--
regu--
rein--
rela--
ren--
requ--
res--
resis--
reti--
ri--
riyou--
ro--
rob--
rock--
rou--
ru--
s--
sa--
sal--
salv--
sam--
san--
sau--
sc--
scar--
sch--
scha--
scho--
se--
sea--
see--
sen--
ser--
set--
sh--
sha--
shi--
sho--
show--
si--
sie--
sig--
sim--
sk--
sky--
slo--
sm--
sna--
so--
socio--
sol--
some--
song--
sp--
spec--
st--
star--
stat--
ste--
ster--
stimu--
stri--
stu--
su--
sub--
sum--
sun--
sup--
super--
supplem--
sur--
susp--
sust--
sy--
sylv--
symb--
symm--
symp--
syna--
synt--
t--
ta--
tan--
tax--
tc--
te--
tele--
temp--
ten--
ter--
terri--
th--
tha--
the--
thu--
ti--
time--
to--
tor--
tra--
trans--
tri--
ts--
tu--
tw--
ty--
u--
uc--
ult--
um--
un--
under--
univer--
up--
us--
uti--
v--
va--
vacc--
val--
van--
var--
ve--
ver--
vi--
viol--
vla--
vo--
vol--
vr--
vu--
w--
wa--
wag--
wal--
war--
we--
web--
wel--
west--
whe--
wi--
wiki--
wil--
win--
wo--
wolf--
wood--
word--
wu--
wy--
x--
xa--
xi--
xx--
y--
ya--
ye--
yi--
yo--
yu--
z--
za--
ze--
zh--
zi--
zo--
zoo--
zu--
ν--
τ--
а--
в--
д--
з--
и--
к--
м--
н--
о--
п--
с--
т--
тр--
ال--
น--
เ--
--0
--00
--01
--02
--03
--04
--06
--08
--1
--11
--12
--17
--2
--22
--23
--24
--25
--28
--3
--33
--37
--39
--4
--43
--44
--45
--46
--5
--50
--51
--52
--56
--58
--6
--61
--67
--69
--7
--72
--77
--78
--8
--81
--83
--88
--89
--9
--94
--95
--96
--99
--a
--able
--ac
--aca
--ad
--ade
--ado
--ae
--age
--aging
--ah
--ai
--ak
--al
--ale
--am
--ama
--an
--ana
--ance
--ane
--ang
--ani
--ano
--ans
--ant
--ar
--ard
--ary
--as
--ast
--at
--ata
--ate
--ated
--ates
--ating
--ation
--ations
--ative
--ator
--att
--ature
--atus
--au
--aw
--ax
--ay
--b
--ba
--back
--bal
--be
--ber
--berg
--bia
--bian
--bic
--ble
--bo
--box
--bs
--bt
--burg
--bury
--bus
--by
--c
--ca
--cal
--cat
--ce
--ced
--cent
--cer
--ces
--ch
--charts
--cht
--ci
--cio
--ck
--cks
--cle
--co
--craft
--cs
--ct
--cted
--ction
--ctions
--ctive
--cus
--cy
--d
--da
--dae
--day
--de
--ded
--di
--die
--disciplinary
--dition
--dl
--dler
--do
--dom
--dor
--dox
--dra
--dro
--ds
--du
--dus
--dy
--e
--ea
--eal
--ean
--eau
--ect
--ects
--ed
--edia
--ee
--ees
--eg
--ei
--ein
--ek
--el
--ela
--eld
--em
--en
--ence
--eness
--ennium
--ens
--ensis
--ensive
--ent
--eo
--er
--ern
--ers
--ert
--ery
--es
--ese
--ess
--est
--et
--eto
--ets
--ett
--eur
--eus
--ew
--ews
--ey
--ez
--f
--fen
--fer
--ff
--field
--ft
--ful
--g
--ga
--ge
--gel
--ger
--ges
--gg
--ggs
--gh
--ght
--ghton
--ghts
--gic
--go
--gon
--gs
--gus
--h
--ha
--ham
--he
--hed
--hen
--hes
--hi
--hic
--hip
--hir
--hk
--hl
--hn
--ho
--hood
--ht
--hus
--hy
--i
--ia
--iac
--ial
--ian
--ias
--ible
--ic
--ica
--ical
--ich
--ick
--ico
--ics
--id
--ida
--idae
--ide
--ie
--ied
--iel
--ien
--ient
--ier
--ies
--ification
--ified
--ig
--ii
--ik
--il
--ila
--ile
--ill
--ils
--im
--imate
--in
--ina
--ine
--ing
--ings
--ington
--ini
--ino
--ins
--io
--ion
--ional
--ions
--ior
--ious
--ique
--ir
--ira
--ire
--is
--ise
--ish
--ism
--ist
--istic
--ists
--it
--ita
--ite
--ities
--ito
--ity
--ium
--ius
--ive
--ivities
--ivity
--ix
--ization
--ize
--ized
--j
--ja
--ji
--k
--ka
--ke
--ker
--ki
--kle
--ko
--ks
--ku
--ky
--l
--la
--land
--lar
--ld
--le
--led
--ler
--let
--ley
--lf
--li
--lia
--line
--link
--lio
--lis
--list
--lk
--ll
--lla
--lle
--lli
--lly
--lm
--lo
--logus
--lon
--lore
--ls
--lt
--lty
--lus
--ly
--lyn
--m
--ma
--mad
--man
--map
--me
--med
--ment
--mes
--mi
--mic
--mie
--mo
--ms
--my
--mys
--n
--na
--nah
--nal
--nce
--nd
--nda
--ne
--ned
--nel
--nell
--ner
--ners
--nes
--ness
--net
--news
--ney
--ng
--ni
--nia
--nic
--nis
--nity
--nn
--nna
--nne
--no
--nor
--ns
--nsis
--nt
--ntly
--nts
--nus
--ny
--o
--oa
--oc
--ochromis
--ock
--od
--oe
--og
--ogy
--ok
--ol
--ola
--ological
--ology
--om
--oma
--ome
--omic
--on
--one
--ong
--ons
--ony
--oo
--ood
--op
--ops
--or
--ord
--ore
--ores
--orm
--ors
--ort
--ory
--os
--osa
--ose
--ot
--oto
--ous
--out
--ov
--ova
--ow
--ows
--ox
--oy
--p
--pa
--pal
--pe
--ped
--pes
--pf
--pling
--posed
--ppe
--ps
--pse
--pt
--pus
--py
--q
--r
--ra
--ral
--ran
--rant
--rc
--rd
--re
--rg
--ri
--ria
--ric
--rie
--ries
--rin
--rina
--ris
--rity
--rl
--rmacology
--rmal
--rman
--rn
--rne
--ro
--row
--rp
--rr
--rry
--rs
--rson
--rt
--rta
--ru
--rus
--ry
--ryl
--s
--sa
--se
--sed
--sen
--ser
--ses
--sey
--sh
--ship
--shire
--si
--sia
--sion
--sis
--ski
--sm
--so
--son
--sor
--ss
--ssa
--sson
--st
--stein
--ster
--ston
--su
--sus
--sy
--t
--ta
--tal
--tar
--tary
--te
--ted
--teenth
--ter
--tes
--tf
--th
--thy
--ti
--tial
--tic
--tion
--tions
--tis
--tive
--tle
--tled
--tles
--tling
--to
--ton
--tone
--tor
--toria
--tors
--town
--ts
--tt
--tta
--tte
--tti
--ttle
--tu
--ture
--tus
--tv
--ty
--tz
--u
--ua
--ual
--uary
--uation
--ud
--ude
--ue
--ues
--ugh
--ui
--uit
--ul
--ula
--ulus
--um
--un
--ung
--up
--ur
--ura
--ure
--urus
--us
--uss
--ut
--ute
--ux
--uz
--v
--va
--val
--ve
--ved
--ven
--ves
--vin
--ving
--vised
--vo
--vy
--w
--wa
--ware
--way
--wick
--ws
--x
--y
--ya
--ye
--yer
--yn
--ys
--z
--za
--ze
--zer
--zo
--zy
--zz
--zzy
--α
--ς
--а
--д
--да
--е
--и
--ии
--к
--ои
--т
--у
--ы
--я
--і
--د
--ن
