!
"
#
##0
##1
##10
##11
##12
##13
##14
##15
##16
##17
##18
##19
##2
##20
##21
##22
##23
##24
##25
##26
##27
##28
##29
##3
##30
##31
##32
##33
##34
##35
##36
##37
##38
##39
##4
##40
##41
##42
##43
##44
##45
##46
##47
##48
##49
##5
##50
##51
##52
##53
##54
##55
##56
##57
##58
##59
##6
##60
##61
##62
##63
##64
##65
##66
##67
##68
##69
##7
##70
##71
##72
##73
##74
##75
##76
##77
##78
##79
##8
##80
##81
##82
##83
##84
##85
##86
##87
##88
##89
##9
##90
##91
##92
##93
##94
##95
##96
##97
##98
##99
$
%
&
'
(
)
*
+
,
-
.
/
0
00
000
0000
001
01
02
03
04
05
06
07
08
09
1
10
100
1000
1002
1007
101
1016
102
1021
103
1038
104
105
106
107
108
1080
1086
109
1093
11
110
111
1111
112
1126
113
114
115
116
117
118
119
12
120
1200
121
122
123
124
125
126
127
128
129
13
130
131
132
133
134
135
136
137
138
139
14
140
141
142
143
144
145
146
147
148
149
15
150
1500
151
152
153
154
155
156
157
158
159
16
160
1600
161
162
163
164
165
166
167
168
169
17
170
171
172
173
174
175
176
177
178
179
18
180
1800
1801
181
182
183
184
1840
1846
1848
185
1850
1857
1858
1859
186
1860
1861
1862
1863
1864
1865
1866
1867
1868
1869
187
1870
1871
1872
1873
1874
1875
1876
1877
1878
1879
188
1880
1881
1882
1883
1884
1885
1886
1887
1888
1889
189
1890
1891
1892
1893
1894
1895
1896
1897
1898
1899
19
190
1900
1901
1902
1903
1904
1905
1906
1907
1908
1909
191
1910
1911
1912
1913
1914
1915
1916
1917
1918
1919
192
1920
1921
1922
1923
1924
1925
1926
1927
1928
1929
193
1930
1931
1932
1933
1934
1935
1936
1937
1938
1939
194
1940
1941
1942
1943
1944
1945
1946
1947
1948
1949
195
1950
1951
1952
1953
1954
1955
1956
1957
1958
1959
196
1960
1961
1962
1963
1964
1965
1966
1967
1968
1969
197
1970
1971
1972
1973
1974
1975
1976
1977
1978
1979
198
1980
1981
1982
1983
1984
1985
1986
1987
1988
1989
199
1990
1991
1992
1993
1994
1995
1996
1997
1998
1999
2
20
200
2000
2001
2002
2003
2004
2005
2006
2007
2008
2009
201
2010
2011
2012
2013
2014
2015
2016
20160305033159
2017
2018
2019
202
2020
2021
2022
203
204
205
206
207
208
209
21
210
211
212
213
214
215
216
217
218
219
22
220
221
222
223
224
225
226
227
228
229
23
230
2305
2307
231
232
233
234
235
237
238
239
24
240
241
243
245
247
248
25
250
251
252
253
255
256
258
259
26
260
261
262
265
266
269
27
270
271
275
28
280
281
29
290
291
3
30
300
3000
301
305
31
310
311
312
313
317
32
320
321
323
325
33
330
333
34
340
35
350
36
360
365
37
370
375
38
380
387
39
4
40
400
4000
41
415
42
43
44
45
450
46
47
471
48
49
5
50
500
5000
51
52
520
521
53
54
540
55
550
56
57
58
59
6
60
600
61
62
63
64
65
650
66
67
68
69
7
70
700
71
72
73
74
75
750
76
77
78
79
8
80
800
81
82
83
84
85
86
87
88
89
8913
9
90
900
91
92
93
94
95
955
96
97
978
98
99
:
;
<
=
>
?
@
[
\
]
^
_
`
a
aa
ab
abc
about
abstract
ac
academic
academy
access
accessdate
accessed
according
account
acid
act
action
active
activity
actor
actress
ad
adam
address
administration
administrative
advanced
ae
af
affairs
afghan
afghanistan
africa
african
after
again
against
age
agency
agent
agreement
agricultural
agriculture
ahmed
ai
aid
air
airport
akademi
al
alan
alexander
ali
all
allen
allowed
alpha
also
am
amazon
america
american
among
an
analysis
ancient
and
andaman
andhra
andrew
angeles
angle
animal
animals
anna
announced
announces
annual
another
anthony
anti
any
ap
apple
application
applications
applied
appointed
approach
apr
april
ar
archaeological
archaeology
archchinese
architecture
archive
archived
archives
are
area
areas
army
around
array
art
arthur
article
articles
articleshow
arts
as
asia
asian
asiatic
asp
aspx
assam
assembly
assessment
associated
association
astronomical
astronomy
at
atlas
atomic
attack
attempt
au
audio
aug
august
australia
australian
author
authority
authors
auto
automatic
available
award
awards
away
ax
b
ba
back
balance
ball
banarsidass
band
bangalore
bangladesh
bank
bar
base
based
basic
battle
bbc
bc
bd
be
become
becomes
been
before
begin
behind
behindwoods
being
bell
bengal
berlin
best
beta
between
beyond
bf
bharat
bibcode
bible
big
bihar
bill
bin
binary
bio
biographical
biography
biological
biology
bird
birdlife
birds
birth
birthday
bit
bjp
bl
black
blks
block
blog
blogspot
blood
blue
board
body
bold
bollywood
bombay
bond
bone
book
books
border
born
boston
box
br
brain
branch
break
brian
bridge
brief
brill
britain
britannica
british
brown
bruce
buddhist
building
bulletin
bureau
bus
business
but
bwv
by
bytes
c
ca
cabinet
calcutta
california
call
called
cambridge
campaign
can
canada
canadian
cancer
candidate
capital
captain
car
carbon
card
care
case
cases
cast
caste
cat
catalog
catalogue
catholic
caturvedi
cause
cc
cd
cdot
ce
cell
cells
census
censusindia
center
central
centre
century
ceylon
cgi
ch
chain
chandra
change
channel
chapter
character
charge
charles
chart
check
chem
chemical
chemistry
chennai
chess
chicago
chief
child
children
china
chinese
chris
christian
christopher
chronicle
chronology
church
cia
cinema
cinesouth
circle
circuit
citation
cities
city
civil
civilization
cl
class
classical
classification
climate
clinical
close
cloth
club
cm
cms
cnn
co
code
coimbatore
cold
collaboration
collection
college
colombo
color
colour
columbia
com
come
commercial
commission
commissioner
committee
common
commonwealth
communication
communications
community
companion
company
comparative
complete
complex
compound
compounds
comprehensive
computer
concept
conference
conflict
congress
conservation
constant
constituencies
constituency
constitution
construction
contact
contemporary
content
control
copper
copy
copyright
core
coronavirus
corporation
cos
cost
cotton
could
council
countries
country
county
course
court
covid
cr
crc
creativecommons
cricinfo
cricket
crisis
critical
cross
crystal
cs
ct
cu
cultural
culture
cup
current
cut
cycle
d
da
daily
dam
dan
dance
daniel
dark
das
data
database
date
daughter
david
dawn
day
days
dc
dcode
ddsa
de
dead
death
dec
deccan
december
dedicated
deed
deep
defence
defined
definition
del
delhi
delta
demand
democracy
density
department
der
des
description
design
detail
details
development
devi
device
dharmapuri
di
dictionary
did
die
dies
different
digital
dinamalar
dinamani
direct
director
directorate
directory
discovery
disease
diseases
disk
display
displaystyle
distribution
district
districts
diversity
division
dna
do
document
documents
does
dog
doi
domain
don
donald
double
douglas
down
dq
dr
drive
drug
dry
dsal
du
due
during
dx
dynasty
e
each
early
earth
earthquake
east
eastern
ece
eci
ecology
economic
economics
economictimes
economy
ecumenical
ed
edge
edited
edition
editor
eds
edu
education
educational
edward
effect
effects
egypt
egyptian
ei
eight
el
elected
election
elections
electric
electronic
element
elements
elephant
elizabeth
elsevier
empire
en
encyclopaedia
encyclopedia
encyclopædia
end
energy
engine
engineering
england
english
entertainment
entry
environment
environmental
eric
error
es
espn
espncricinfo
essays
et
etc
ethnic
eu
europe
european
even
event
events
ever
evidence
evolution
ex
exchange
exclusive
experience
express
external
extra
eye
f
face
facebook
fact
factor
facts
fall
falling
false
family
fast
father
fe
features
feb
february
federal
federation
feed
female
festival
field
fifa
file
files
film
filmography
films
final
financial
find
fire
first
firstpost
fish
five
fl
flight
flow
flower
focus
food
foot
football
for
forbes
force
forces
foreign
forest
form
format
formation
former
fort
forum
found
foundation
four
fourth
fox
fr
frac
france
francis
frank
free
freedom
french
frequency
friday
from
front
frontcover
fruit
ft
fu
full
function
fund
future
g
ga
gallery
game
games
gandhi
garden
gas
gazette
gazetteer
gb
ge
gender
gene
general
genetic
genetics
geographic
geography
george
german
germany
get
gets
girl
give
given
glass
global
go
goa
god
goes
gold
golden
good
google
gov
government
governor
govt
gram
grand
great
greek
green
greenwood
ground
group
groups
growth
guardian
guide
gujarat
gupta
guru
h
ha
had
hair
half
hall
hand
handbook
hard
harvard
has
have
having
he
head
health
heart
heat
held
help
henry
her
herald
here
heritage
hero
hi
high
higher
hill
him
hindi
hindu
hinduism
hindustan
hindustantimes
his
historic
historical
history
hit
hl
ho
hollywood
holy
home
hong
horse
hospital
host
hot
house
housing
how
htm
html
http
https
human
hyderabad
i
ian
ibn
icc
ice
id
identity
if
ignored
ii
iii
il
illustrated
image
images
imdb
impact
imperial
in
inc
including
independence
independent
index
india
indiaglitz
indian
indianexpress
indiatimes
indiatoday
indo
indonesia
indowordnet
indus
industrial
industry
info
information
infty
inorganic
inscriptions
inside
institute
int
intelligence
interactive
interest
internal
international
internet
interview
into
introduction
invalid
iran
iraq
iron
is
isbn
islam
islamic
island
islands
iso
israel
issue
issues
ist
it
italic
its
iucn
iucnredlist
iv
j
ja
jack
jaffna
jain
james
jan
january
japan
japanese
jean
jersey
jewish
john
johnson
joins
joint
jonathan
jones
joseph
journal
journey
jpg
jr
jsp
jstor
jul
july
jump
jun
june
just
justice
k
ka
karnataka
kashmir
kenneth
kerala
key
kg
khan
killed
kim
kind
king
kingdom
kings
km
know
knowledge
known
ko
kolkata
kong
korea
krishna
krishnagiri
kuala
kumar
kx
l
la
laboratory
labour
lady
lake
lal
land
language
languages
lanka
lankan
large
largest
las
last
late
later
latest
launch
launches
law
laws
le
lead
leader
leaf
league
learning
least
leaves
lee
left
legal
legalcode
legislative
length
les
letter
letters
level
lewis
li
library
life
light
like
lim
limited
line
linear
link
list
literary
literature
little
live
lives
living
lk
ln
local
log
logic
lok
london
long
look
lord
los
loss
lost
louis
love
low
lower
lpg
ltd
lua
m
ma
machine
macmillan
made
madhya
madras
madurai
magazine
magnetic
maharashtra
mahendra
mail
main
maint
major
make
makes
making
malayalam
malaysia
malaysian
male
man
management
manual
many
map
maps
mar
march
maria
marine
mark
market
markup
marriage
martin
marvel
mary
mass
master
match
material
materials
mathbf
mathematical
mathematics
mathrm
matrix
matter
max
may
mcalpin
mcgraw
md
me
meaning
med
medal
media
medical
medicine
medieval
meet
member
members
memorial
memory
men
menon
metal
method
methods
metro
metropolitan
mi
michael
microsoft
mid
middle
military
milk
miller
million
mind
mineral
minister
ministry
minor
mirror
missing
mission
mit
mla
mlas
mm
mobile
mode
model
modern
modi
module
mohan
molecular
money
month
monthly
moon
more
most
mother
motilal
motion
motor
mountain
movement
movie
movies
mp
mr
ms
mtv
mu
muhammad
multi
multiple
mumbai
municipal
murder
museum
music
muslim
my
mysore
n
na
nadu
name
named
names
nasa
nation
national
nations
natural
nature
nd
ndtv
ne
near
need
nepal
net
network
new
newindianexpress
news
newspaper
next
ng
nh
nic
night
nih
nil
niosh
no
nobel
nobelprize
non
norman
north
northern
not
note
notes
nov
november
now
nuclear
number
numbers
nutrition
ny
nytimes
o
obituary
object
observatory
ocean
oct
october
odi
of
off
office
officer
official
oh
oil
old
olympic
olympics
on
one
onefivenine
oneindia
onepage
online
only
open
operation
operations
operatorname
opinion
optical
or
order
org
organic
organization
oriental
origin
original
origins
other
others
ots
our
out
over
overview
own
oxford
oxide
p
pa
pacific
padma
page
pages
pakistan
palace
panchayat
panel
paper
papers
parameter
parent
paris
park
parliament
parliamentary
part
partial
party
passes
past
path
patrick
paul
pay
pc
pdf
peace
penguin
people
per
performance
period
persian
person
personal
perspective
perspectives
peter
pg
ph
phase
philip
philippines
philosophy
photo
photos
php
physical
physics
physiology
pi
picture
pictures
pk
place
places
plan
plane
planet
planning
plant
plants
plate
play
player
pm
pocket
point
police
policy
political
politics
polls
popular
population
port
portal
position
post
potential
power
pp
pr
practice
pradesh
prasad
pre
present
president
press
pressure
prevention
price
primary
prime
princeton
principles
print
printing
printsec
private
prize
problem
problems
proceedings
process
processing
product
production
products
prof
professor
profile
program
programme
project
properties
property
protection
protein
province
provincial
provisional
psychology
pt
pub
public
publication
publications
publicdomain
published
publisher
publishers
publishing
pubmed
punjab
pvt
q
quality
quarter
queen
r
ra
race
radiation
radio
rail
railway
rain
raj
raja
rajasthan
rajya
ram
random
range
rao
rape
rate
ratio
ray
rd
re
reaction
read
real
record
records
red
reddy
rediff
ref
reference
references
region
regional
regions
register
registrar
related
relations
release
religion
religious
report
reporter
reports
reprint
republic
res
research
reserve
resistance
resource
resources
response
result
results
retrieved
return
reuters
rev
revenue
review
reviews
revised
revolution
rice
richard
right
rights
ring
rise
risk
river
rlts
road
robert
rock
roger
role
roman
root
round
routledge
roy
royal
rs
ru
rule
rules
run
rural
russell
russia
russian
s
sa
sabha
sacred
safety
sahitya
said
saint
salt
same
san
sanctuary
sanskrit
satellite
say
says
sc
scale
school
schools
sci
science
sciences
scientific
scientist
scientists
scott
screen
se
sea
search
season
second
secondary
secret
secretariat
secretary
section
security
see
seed
selected
self
sen
sep
september
series
service
services
set
seven
sex
sexual
shah
share
sharma
she
sheet
shooting
short
should
show
shri
si
side
sify
sig
sigma
sign
signal
silk
silver
sim
simon
sin
since
singapore
singer
singh
single
sir
site
sites
six
size
sky
small
smith
so
soc
social
society
sociologist
sodium
software
soil
solar
solid
some
son
song
songs
sons
sound
source
sources
south
southeast
southern
space
spanish
special
species
specific
speech
speed
sport
sports
spring
springer
sq
sqrt
square
sri
st
stadium
staff
stage
stand
standard
stanford
star
stars
start
state
statement
states
station
statistical
statistics
status
steel
stephen
steven
still
stm
stock
stone
storage
store
stories
story
stream
street
strength
structure
students
studies
study
style
sub
such
sum
summary
summer
sun
sunday
super
support
supreme
surface
survey
susan
syndrome
syntheses
synthesis
system
systematic
systems
t
ta
table
tag
take
takes
talk
talks
tamil
tamilnadu
tamils
tamilvu
tan
tantum
tax
taxonomy
taylor
te
tea
team
tech
technical
technology
telangana
telegraph
television
telugu
temperature
temple
temples
ten
term
terminal
terms
test
text
tfrac
th
than
that
the
theguardian
thehindu
their
them
theorem
theory
therapy
there
thermal
these
theta
they
things
third
this
thomas
thought
threatened
three
through
ti
tiger
time
times
timesofindia
title
tl
tls
tn
tnmaps
tnrd
to
today
todays
tom
top
total
tour
tourism
tower
town
towns
tp
tr
track
trade
tradition
traditional
train
training
trans
transfer
translated
translation
transport
travel
treatment
tree
trial
triangle
tribune
true
trust
tt
tube
turn
tv
twitter
two
type
u
uk
ukraine
un
und
under
understanding
unesco
unfit
union
unit
united
units
universal
universe
university
unknown
unrecognized
up
update
updated
updates
upper
urban
url
us
usa
use
used
user
using
v
va
validation
valley
value
values
van
variety
ve
ved
verlag
version
very
vi
video
videos
view
vii
vijay
vikatan
village
villages
violence
virtual
virus
vision
visit
visual
vlist
voice
vol
volume
von
votes
vs
w
wall
walter
war
was
washington
watch
water
wave
way
we
weather
web
website
webster
week
weekly
weight
welcome
well
were
west
western
what
wheel
when
where
which
while
white
who
why
wife
wiki
wikimedia
wikipedia
wikisource
wild
wildlife
wiley
will
william
williams
wilson
win
wind
windows
winners
wins
winter
wire
wise
with
without
woman
women
won
wood
word
words
work
working
works
world
worldwide
would
wrestling
writer
writing
wwe
www
x
y
yadav
yahoo
year
years
yellow
york
you
young
your
youth
youtube
z
zealand
zee
zero
zone
{
|
}
~



¢
£
¤
§
©
«
­
®
¯
°
±
²
µ
·
»
½
×
ƒ
ə
ʲ
ʻ
ˈ
ˌ
ː
̀
́
̂
̃
̄
̆
̇
̈
̉
̊
̌
̓
̔
̛
̣
̧
̨
̱
̲
̸
͂
α
β
γ
δ
ε
ζ
η
θ
ι
λ
μ
ν
ο
π
ρ
ς
σ
τ
φ
ω
ϕ
в
г
и
о
россии
с
ְ
ִ
ָ
ּ
ؕ
ء
ا
ال
الل
ان
ب
ة
ت
ث
ج
ح
خ
د
ذ
ر
ز
س
ش
ص
ض
ط
ظ
ع
غ
ف
ق
ك
ل
م
ن
ه
و
ى
ي
ً
ٌ
ٍ
َ
ُ
ِ
ّ
ْ
ٓ
ٔ
ٕ
ٖ
ٗ
ٮ
ٰ
ک
ۖ
ۙ
ۚ
ۢ
ۤ
ँ
ं
ः
ई
ए
क
ख
ग
घ
च
छ
ज
ट
ठ
ड
ण
त
थ
द
ध
न
प
फ
ब
भ
म
य
र
ल
व
श
ष
स
ह
़
ा
ि
ी
ु
ू
ृ
े
ै
ो
ौ
्
।
ক
গ
জ
ত
দ
ন
প
ব
ম
য
র
ল
শ
স
হ
়
া
ি
ী
ু
ে
্
ਾ
ੀ
ા
િ
ી
ે
્
ஃ
ஃக
ஃப
ஃபர
ஃவ
அ
அஃக
அஃத
அக
அகங
அகச
அகண
அகத
அகந
அகன
அகப
அகம
அகமத
அகர
அகரம
அகரவர
அகற
அகல
அகலத
அகலம
அகழ
அகவ
அகஸ
அங
அச
அசட
அசர
அசல
அஜ
அஞ
அட
அடக
அடங
அடம
அடர
அடல
அண
அணங
அத
அதன
அதர
அதற
அந
அன
அனந
அனல
அப
அபர
அம
அமர
அமரர
அமல
அய
அயன
அயர
அயல
அர
அரக
அரங
அரச
அரசக
அரசன
அரசம
அரசமரப
அரசர
அரசவ
அரண
அரப
அரம
அரவ
அற
அறக
அறங
அறத
அறந
அறன
அறப
அறம
அறவ
அல
அலக
அலங
அலட
அலம
அலர
அலற
அள
அளக
அளந
அளப
அளவ
அளவற
அழ
அழக
அழகன
அழகர
அழற
அழல
அவ
அவக
அவங
அவச
அவசர
அவசரம
அவத
அவதர
அவந
அவன
அவனத
அவம
அவமத
அவர
அவரத
அவரவர
அவற
அவல
அவள
அவளத
அஷ
அஸ
அஹ
ஆ
ஆஃப
ஆக
ஆகக
ஆகத
ஆகம
ஆகல
ஆகவ
ஆகஸ
ஆங
ஆச
ஆஞ
ஆட
ஆடப
ஆடம
ஆடல
ஆடவர
ஆண
ஆத
ஆதர
ஆதரவ
ஆதரவள
ஆதல
ஆந
ஆன
ஆனத
ஆனந
ஆனவ
ஆப
ஆபத
ஆம
ஆய
ஆயத
ஆயனர
ஆயர
ஆர
ஆரஞ
ஆரண
ஆரத
ஆரம
ஆரவ
ஆற
ஆல
ஆலங
ஆலன
ஆலப
ஆலம
ஆலய
ஆலயங
ஆலயத
ஆலயம
ஆள
ஆளப
ஆழ
ஆழத
ஆழம
ஆவ
ஆவண
ஆவணங
ஆவணத
ஆவணப
ஆவணம
ஆவத
ஆவர
ஆவல
ஆஷ
ஆஸ
இ
இஃத
இக
இகல
இகழ
இங
இச
இஞ
இட
இடக
இடங
இடத
இடப
இடம
இடர
இடவ
இண
இணக
இணங
இத
இதன
இதம
இதய
இதயத
இதயம
இதர
இதற
இதழ
இந
இன
இனக
இனங
இனத
இனப
இனம
இனவ
இப
இம
இமயமல
இய
இயக
இயங
இயந
இயன
இயம
இயர
இயற
இயல
இயலவ
இர
இரக
இரகச
இரங
இரச
இரட
இரண
இரத
இரந
இரப
இரய
இரவ
இற
இறக
இறங
இறந
இறப
இறவ
இல
இலக
இலங
இலட
இலண
இலத
இலம
இலவச
இலவசம
இள
இளக
இளங
இளஞ
இளந
இளம
இளவ
இளவரச
இளவரசன
இளவரசர
இழ
இழக
இழந
இழப
இவ
இவன
இவனத
இவர
இவரத
இவற
இவள
இஷ
இஸ
ஈ
ஈக
ஈங
ஈச
ஈசன
ஈட
ஈண
ஈத
ஈதர
ஈந
ஈன
ஈப
ஈம
ஈய
ஈயம
ஈர
ஈரப
ஈரம
ஈரல
ஈற
ஈல
ஈழ
ஈழத
ஈழப
ஈவ
ஈஸ
உ
உக
உகந
உங
உச
உட
உடன
உடனட
உடம
உடற
உடல
உண
உணர
உணரப
உணவ
உணவகங
உத
உதட
உதய
உதயணன
உதயம
உதற
உதவ
உந
உன
உனக
உனத
உப
உபக
உபகரணங
உபச
உபசன
உபசர
உபத
உபந
உபய
உம
உமக
உமத
உமர
உய
உயர
உயரத
உயரம
உர
உரத
உரம
உற
உறக
உறங
உறவ
உல
உலக
உலகக
உலகங
உலகத
உலகப
உலகம
உலகள
உலகளவ
உலர
உலவ
உள
உளத
உளப
உளம
உளர
உளவ
உழ
உழவ
உழவர
உவ
உவக
உவந
உவம
உவர
உஷ
உஸ
ஊ
ஊக
ஊச
ஊசல
ஊஞ
ஊட
ஊடக
ஊடகக
ஊடகங
ஊடகத
ஊடகம
ஊடகவ
ஊடல
ஊத
ஊன
ஊனம
ஊம
ஊர
ஊரக
ஊற
ஊழ
ஊழல
எ
எஃக
எஃப
எஆச
எக
எங
எச
எஜம
எஞ
எட
எண
எத
எதன
எதற
எந
என
எனக
எனச
எனத
எனப
எனல
எனவ
எப
எம
எமக
எமத
எமன
எய
எர
எற
எல
எலக
எள
எழ
எவ
எவன
எவர
எஸ
ஏ
ஏக
ஏகப
ஏங
ஏச
ஏஜ
ஏஞ
ஏட
ஏண
ஏத
ஏந
ஏன
ஏப
ஏம
ஏய
ஏர
ஏற
ஏறக
ஏறத
ஏல
ஏலக
ஏழ
ஏவ
ஏவப
ஏவல
ஐ
ஐஎஸ
ஐக
ஐங
ஐச
ஐட
ஐத
ஐதர
ஐதரசன
ஐந
ஐன
ஐப
ஐம
ஐய
ஐயங
ஐயன
ஐயப
ஐயம
ஐயர
ஐர
ஐவர
ஐஸ
ஒ
ஒக
ஒங
ஒச
ஒட
ஒண
ஒத
ஒன
ஒப
ஒம
ஒய
ஒர
ஒரத
ஒற
ஒல
ஒள
ஒளவ
ஒழ
ஒவ
ஓ
ஓக
ஓங
ஓச
ஓட
ஓத
ஓந
ஓன
ஓப
ஓம
ஓய
ஓர
ஓரங
ஓரத
ஓரம
ஓரளவ
ஓல
ஓவ
ஓவர
க
கக
ககம
கங
கச
கசக
கசப
கஜ
கஞ
கட
கடக
கடங
கடச
கடத
கடந
கடன
கடப
கடம
கடற
கடல
கடவ
கண
கணக
கணங
கணத
கணப
கணபத
கணம
கணவ
கணவன
கணவர
கத
கதக
கதன
கதம
கதர
கதற
கதவ
கந
கன
கனக
கனங
கனட
கனத
கனன
கனம
கனல
கனவ
கப
கபட
கம
கமட
கமண
கமத
கமம
கமர
கமற
கமல
கமலக
கமலம
கமள
கமழ
கய
கயம
கயல
கர
கரக
கரங
கரச
கரசர
கரட
கரண
கரணம
கரத
கரந
கரன
கரப
கரம
கரர
கரவ
கரவர
கற
கல
கலக
கலகம
கலங
கலச
கலத
கலந
கலன
கலப
கலம
கலர
கலவ
கலவரத
கலவரம
கள
களக
களங
களஞ
களத
களன
களப
களம
களர
களற
களவ
களவர
கழ
கழக
கழகக
கழகங
கழகச
கழகத
கழகப
கழகம
கழன
கழப
கழற
கழல
கவ
கவசம
கவட
கவதர
கவன
கவனத
கவனம
கவர
கவல
கவழக
கஷ
கஸ
கஹ
ங
ஙனம
ச
சக
சகத
சகன
சகப
சகம
சகர
சகல
சங
சச
சஞ
சட
சடங
சண
சணம
சணல
சத
சதம
சதவ
சந
சன
சனக
சனங
சனத
சனந
சனம
சனர
சனல
சனவர
சப
சபக
சபதம
சபர
சம
சமக
சமச
சமட
சமண
சமணம
சமணர
சமத
சமந
சமன
சமம
சமய
சமயக
சமயங
சமயச
சமயத
சமயப
சமயம
சமர
சமவ
சமஸ
சய
சயங
சயத
சயன
சயம
சயர
சர
சரக
சரச
சரண
சரணட
சரணம
சரத
சரப
சரம
சரள
சரவ
சரவணன
சரஸ
சற
சல
சலத
சலப
சலம
சலவ
சள
சவ
சவன
சவம
சவர
சஸ
ஜ
ஜக
ஜகத
ஜகந
ஜங
ஜச
ஜட
ஜத
ஜந
ஜன
ஜனங
ஜனத
ஜனந
ஜனம
ஜனவர
ஜப
ஜம
ஜய
ஜயக
ஜயநகர
ஜயன
ஜயம
ஜர
ஜல
ஜவ
ஜவஹர
ஜஸ
ஜஹ
ஞ
ஞன
ஞர
ட
டக
டகக
டகங
டகச
டகத
டகப
டகம
டகர
டங
டச
டசப
டஞ
டட
டடக
டடங
டடத
டடம
டண
டணத
டணம
டத
டதங
டதன
டதம
டதற
டந
டன
டனம
டனர
டனவ
டப
டபங
டபட
டபத
டபம
டம
டமன
டய
டயங
டயத
டயம
டயர
டர
டரங
டரச
டரட
டரம
டற
டல
டலக
டலங
டலத
டலம
டள
டளவ
டழ
டவ
டவட
டவண
டவன
டவம
டவர
டவற
டவள
டஸ
ண
ணக
ணகத
ணகம
ணங
ணச
ணசப
ணட
ணத
ணந
ணன
ணப
ணம
ணமட
ணமல
ணய
ணயங
ணயச
ணயத
ணயம
ணர
ணற
ணல
ணளவ
ணவ
ணவன
ணவர
த
தக
தகக
தகங
தகட
தகத
தகன
தகப
தகம
தகர
தகவ
தகவம
தகவல
தங
தச
தசம
தஞ
தட
தடக
தடகள
தடங
தடத
தடம
தடவ
தண
தணர
தத
ததன
ததற
தந
தன
தனக
தனங
தனத
தனன
தனப
தனம
தனர
தனவ
தப
தபட
தம
தமக
தமங
தமட
தமத
தமன
தமர
தமற
தமல
தய
தயக
தயங
தயத
தயம
தயவ
தர
தரக
தரகம
தரங
தரச
தரண
தரத
தரந
தரன
தரப
தரம
தரர
தரல
தரவ
தரவர
தற
தறல
தல
தலங
தலத
தலன
தலம
தலர
தள
தளங
தளத
தளப
தளபத
தளம
தளர
தளவ
தழ
தழல
தவ
தவக
தவச
தவண
தவத
தவன
தவப
தவம
தவர
தவற
தவல
தவள
தவழ
தஸ
ந
நக
நகர
நகரங
நகரத
நகரப
நகரம
நகல
நங
நச
நஞ
நட
நடக
நடத
நடந
நடன
நடனக
நடனத
நடனம
நடப
நடம
நடர
நடவ
நடவட
நண
நத
நந
நன
நனவ
நப
நபர
நம
நமக
நமச
நமத
நய
நயத
நயந
நயன
நயம
நர
நரக
நரகத
நரகம
நரச
நரம
நற
நல
நலக
நலங
நலத
நலன
நலம
நலவ
நள
நழ
நவ
நவக
நவந
நவம
நவர
நஷ
ன
னக
னகத
னகம
னகர
னகரன
னங
னச
னசம
னசர
னஞ
னட
னடத
னடம
னண
னத
னதம
னந
னன
னப
னபட
னம
னமண
னமலர
னய
னர
னரங
னரச
னரத
னரம
னரல
னற
னல
னள
னழ
னவ
னவன
னவர
னவற
னவள
னஸ
ப
பக
பகங
பகட
பகத
பகப
பகம
பகர
பகற
பகல
பகவ
பகவத
பங
பச
பஜ
பஜன
பஞ
பட
படக
படங
படச
படத
படப
படம
படர
படல
படலத
படலம
படவ
பண
பணக
பணத
பணப
பணம
பணவ
பத
பதக
பதங
பதத
பதன
பதப
பதம
பதர
பதற
பதவ
பந
பன
பனங
பனம
பனர
பனவ
பப
பம
பமட
பமண
பய
பயக
பயங
பயண
பயணங
பயணத
பயணம
பயத
பயந
பயன
பயனர
பயனற
பயப
பயம
பயர
பயற
பயல
பர
பரக
பரங
பரச
பரஞ
பரட
பரண
பரத
பரதந
பரதன
பரந
பரன
பரப
பரபரப
பரம
பரமக
பரமச
பரர
பரல
பரவ
பரவல
பரவள
பரஸ
பற
பறக
பறந
பறப
பறவ
பல
பலக
பலச
பலத
பலந
பலன
பலப
பலபட
பலம
பலர
பலவ
பலவக
பலவற
பள
பளத
பளபளப
பளம
பளவ
பழ
பழக
பழங
பழச
பழத
பழந
பழன
பழம
பவ
பவங
பவத
பவன
பவம
பவர
பவற
பவள
பஷ
பஸ
பஹ
ம
மக
மகத
மகன
மகப
மகம
மகர
மகரந
மகள
மகவ
மங
மச
மஜ
மஞ
மட
மடக
மடங
மடத
மடந
மடம
மடல
மண
மணக
மணங
மணச
மணத
மணந
மணன
மணப
மணம
மணமகன
மணமகள
மணர
மணற
மணல
மணவ
மத
மதக
மதங
மதச
மதத
மதன
மதப
மதம
மதர
மந
மன
மனக
மனங
மனச
மனத
மனந
மனப
மனம
மனவ
மப
மம
மய
மயக
மயங
மயம
மர
மரக
மரங
மரச
மரண
மரணத
மரணதண
மரணம
மரணமட
மரத
மரன
மரப
மரபண
மரம
மரவ
மற
மறக
மறத
மறந
மறப
மறவ
மறவர
மல
மலக
மலட
மலத
மலப
மலம
மலர
மள
மளவ
மழ
மழல
மவ
மவர
மஸ
மஹ
ய
யக
யகக
யகங
யகத
யகன
யகப
யகம
யகர
யகரம
யங
யச
யசர
யஞ
யட
யடக
யண
யணத
யணன
யணப
யணம
யத
யதன
யதர
யதற
யதள
யதளத
யதளம
யந
யநல
யன
யனவ
யனவற
யப
யபட
யம
யமங
யமட
யமன
யமனம
யமர
யமற
யமல
யய
யர
யரங
யரச
யரசன
யரசர
யரத
யரம
யற
யல
யலக
யலகங
யலகம
யலம
யலர
யலற
யலல
யள
யளவ
யழ
யவ
யவந
யவன
யவர
யவற
யவள
யஸ
ர
ரக
ரகங
ரகச
ரகத
ரகம
ரகர
ரகரம
ரங
ரச
ரசங
ரசன
ரசம
ரசவ
ரஜ
ரஜன
ரஞ
ரட
ரண
ரணங
ரணத
ரணப
ரணம
ரணர
ரத
ரதக
ரதங
ரதத
ரதன
ரதப
ரதம
ரதமர
ரதர
ரந
ரன
ரப
ரபஞ
ரபத
ரபந
ரபல
ரபலம
ரம
ரமங
ரமச
ரமஞ
ரமட
ரமண
ரமத
ரமன
ரமப
ரமம
ரமல
ரய
ரர
ரரச
ரரசன
ரரசர
ரற
ரல
ரள
ரளத
ரளம
ரளவ
ரழ
ரவ
ரவங
ரவத
ரவன
ரவம
ரவர
ரவல
ரவலர
ரஷ
ரஸ
ரஹ
ற
றக
றங
றச
றஞ
றட
றண
றத
றதன
றதற
றந
றநகர
றன
றனன
றனர
றனவ
றப
றபட
றம
றமட
றமற
றமள
றர
றரச
றரசர
றற
றல
றள
றளவ
றழ
றவ
றவன
றவர
றவற
றவள
ல
லக
லகங
லகட
லகண
லகத
லகப
லகம
லகர
லகல
லங
லச
லஜ
லஞ
லட
லண
லத
லதனம
லதளத
லந
லநட
லன
லப
லபம
லம
லமண
லமன
லய
லயங
லயத
லயன
லயம
லர
லற
லறம
லல
லள
லழகர
லவ
லவக
லவன
லவர
லவரப
லவற
லவழ
லஸ
ள
ளக
ளகர
ளங
ளச
ளட
ளடக
ளடங
ளண
ளத
ளந
ளன
ளனம
ளனர
ளப
ளபட
ளம
ளர
ளரங
ளற
ளல
ளளவ
ளவ
ளவன
ளவர
ளஸ
ழ
ழக
ழகத
ழகம
ழங
ழச
ழட
ழத
ழந
ழன
ழப
ழம
ழர
ழரச
ழற
ழல
ழவ
ழவன
ழவர
வ
வக
வகங
வகச
வகத
வகன
வகப
வகம
வகர
வங
வச
வசத
வசந
வசனங
வசனம
வசப
வசம
வஜ
வஞ
வட
வடக
வடகர
வடச
வடத
வடந
வடப
வடம
வடவ
வண
வணக
வணங
வணன
வத
வதந
வதன
வதம
வதற
வந
வன
வனக
வனங
வனட
வனத
வனந
வனப
வனம
வனர
வனவ
வனவற
வப
வம
வமன
வமற
வய
வயச
வயத
வயந
வயப
வயல
வர
வரக
வரங
வரச
வரட
வரண
வரத
வரதர
வரன
வரப
வரம
வரர
வரல
வரவ
வரவழ
வற
வறட
வறண
வல
வலக
வலகங
வலகத
வலகம
வலங
வலச
வலத
வலன
வலப
வலம
வலர
வள
வளங
வளத
வளந
வளப
வளம
வளர
வளரக
வளவ
வளவன
வழ
வழக
வழங
வழம
வவ
வஸ
ஶ
ஷ
ஷக
ஷங
ஷட
ஷண
ஷத
ஷன
ஷனல
ஷப
ஷம
ஷயங
ஷயத
ஷயம
ஷர
ஷல
ஸ
ஸன
ஸப
ஸம
ஸர
ஸல
ஸஸ
ஹ
ஹக
ஹங
ஹச
ஹஜ
ஹட
ஹத
ஹன
ஹப
ஹம
ஹர
ஹல
ஹவ
ா
ி
ீ
ு
ூ
ெ
ே
ை
்
ௗ
௧
௨
௩
௪
௫
௬
௭
௮
௸
ం
క
గ
చ
జ
ట
డ
త
ద
న
ప
బ
మ
య
ర
ల
వ
శ
ష
స
ా
ి
ీ
ు
ూ
ె
ే
ొ
ో
్
ౖ
ಂ
ಕ
ಗ
ತ
ದ
ನ
ಪ
ಮ
ಯ
ರ
ಲ
ವ
ಸ
ಾ
ಿ
ು
ೂ
ೆ
್
ೕ
ം
ക
ഗ
ങ
ച
ജ
ഞ
ട
ണ
ത
ദ
ധ
ന
പ
ബ
മ
യ
ര
റ
ല
ള
വ
ശ
ഷ
സ
ഹ
ാ
ി
ീ
ു
ൂ
െ
േ
ൈ
്
ක
ත
ද
න
ප
ම
ය
ර
ල
ව
ශ
ස
හ
්
ා
ැ
ි
ී
ු
ෙ
ั
ิ
ี
ื
ุ
ู
่
้
์
་
င
ာ
ိ
ု
ေ
း
်
​
‌
‍
‎
‏
‐
–
—
―
‖
‘
’
“
”
†
•
…
′
″
⁄
⁠
⁡
€
₹
№
←
↑
→
↔
↷
∀
∂
∈
∏
∑
−
∗
∘
√
∞
∠
∩
∫
≈
≡
≤
≥
⋅
⋮
⋯
③
④
⑦
─
△
○
●
◯
★
⚬
✸
✽
❖
⟶
⺀
⺄
⺆
⺈
⺊
⺌
⺕
⺝
⺸
⺼
⿰
⿱
⿲
⿳
⿴
⿵
⿶
⿷
⿸
⿹
⿺
⿻
、
。
〢
か
て
と
に
の
る
゙
コ
ユ
ー
㇁
㇂
㇄
㇇
㇈
㇉
㇓
㐁
㐄
㐅
㐌
㐫
㐬
㐭
㐮
㐱
㑒
㒵
㒸
㒼
㓁
㓞
㔾
㕛
㕣
㖾
㘝
㚅
㚇
㚔
㚘
㝉
㝡
㝴
㝵
㞋
㞢
㞷
㠩
㠭
㠯
㡀
㡭
㡿
㢲
㢴
㣇
㣺
㥯
㪅
㫄
㫐
㫒
㫺
㬅
㬎
㬥
㬰
㲋
㳄
㷠
㸒
㸚
㸦
㼌
㼲
㽞
㿟
䀠
䂞
䍃
䏍
䒑
䖍
䖒
䖝
䖵
䙴
䚻
䜌
䝿
䡛
䧹
䪞
一
丁
丂
七
丄
丅
丆
万
丈
三
上
下
丌
不
与
丏
丐
丑
专
且
丕
世
丘
丙
业
东
丞
丢
丣
两
严
並
丨
丩
个
丫
丬
中
丮
丰
丱
串
丵
丶
丷
丸
丹
为
主
丽
丿
乀
乂
乃
久
乆
乇
么
义
之
乌
乍
乎
乏
乐
乑
乔
乖
乗
乘
乙
乚
乛
乜
九
乞
也
习
乡
乳
乾
亀
亅
了
亇
予
争
事
二
亍
于
亏
亐
云
互
亓
五
井
亘
亚
亜
亞
亟
亠
亡
亢
交
亥
亦
产
亨
亩
享
京
亭
亮
亯
亰
亲
亳
亶
亷
人
亻
亼
亾
仁
今
介
仌
从
仐
仑
仒
仓
仕
他
付
仝
代
令
以
任
企
伊
伏
伐
休
会
伯
但
位
何
佘
余
作
佥
使
來
侈
侌
侖
侯
侵
便
保
俞
信
修
倉
倍
候
倠
備
僉
僕
儿
兀
允
兂
元
兄
充
兆
兇
先
光
兊
克
兌
免
兑
兒
兓
兔
党
兜
兟
入
全
兩
兪
八
公
六
兮
兰
共
关
兵
其
具
典
兹
兼
冀
冂
冃
冄
内
冈
冉
冊
冋
册
再
冎
冏
冐
冒
冓
冖
冗
冘
军
农
冝
冡
冥
冫
冬
冷
几
凡
凢
凵
凶
凷
凸
凹
出
函
凾
刀
刁
刂
刃
刄
刅
分
切
刍
刑
刕
刖
列
刘
则
初
別
利
别
到
制
刺
則
削
剌
前
剡
剽
劉
力
功
加
劦
助
劫
劳
劵
勃
勇
勉
勒
動
務
勞
勤
勹
勺
勻
勾
勿
匀
匂
包
匆
匈
匊
匋
匍
匕
化
北
匚
匝
匡
匪
匱
匸
匹
区
医
匽
匿
區
十
卂
千
卄
卅
卆
升
午
卉
半
卌
华
卑
卒
卓
单
卖
南
卜
卝
卞
占
卡
卢
卣
卤
卦
卩
卪
卬
卯
印
危
即
却
卵
卷
卸
卻
厂
厃
厄
历
厈
厉
厌
厓
厘
厚
原
厤
厥
厨
厭
厲
厶
厷
厸
去
厼
厽
叀
参
參
叅
又
叉
及
友
双
反
叐
发
叒
叔
叕
取
受
叚
叜
叟
口
古
句
另
叩
只
召
可
台
叱
史
右
叵
号
司
叹
吂
各
吅
合
吉
吊
吋
同
名
后
吏
向
吕
君
吝
吞
否
含
启
吳
吴
吹
吾
呂
呆
呈
告
员
呙
周
命
咅
和
咎
咠
咢
咨
咸
咼
哀
品
哉
員
哥
哲
唐
商
啇
問
啚
啬
啻
善
喜
喬
單
喿
嗇
噩
嚴
囊
囗
囘
囙
囚
四
回
囟
因
囧
囬
困
囱
囷
固
国
圂
圅
國
圍
圓
土
圡
圣
圥
在
圭
地
圶
圼
坐
坒
坚
坴
垂
垔
垚
埀
埋
埶
執
基
堂
堅
堆
堇
堯
塞
墨
壘
士
壬
壯
声
壳
壴
壹
壺
壽
夂
处
夅
夆
备
夊
夋
夌
复
夏
夒
夕
外
夗
夘
多
夜
夢
大
夨
天
太
夫
夬
夭
央
失
夲
头
夷
夸
夹
夻
夾
奂
奄
奇
奈
奉
奎
奏
奐
契
奓
奔
奚
奞
奠
奢
奥
奭
女
奴
奻
好
如
妄
妙
妟
妥
妻
妾
姑
委
姜
威
娄
婁
婴
嬰
嬴
子
孑
孔
孕
孖
字
存
孚
孛
孝
孟
季
孤
学
孫
孱
學
宀
宁
宂
它
宅
宇
守
安
宋
完
宏
宓
宗
官
定
宛
宜
宝
客
宣
室
宮
宰
害
家
容
宾
宿
寄
寅
密
富
寒
察
寧
審
寫
寬
寮
寸
对
寺
寻
寽
対
寿
封
尃
射
将
將
專
尉
尊
尋
尌
對
小
少
尒
尓
尔
尖
尗
尚
尞
尢
尣
尤
尧
尨
尭
就
尸
尹
尺
尻
尼
尽
尾
尿
局
居
屈
屋
屎
屏
屑
展
屖
屚
属
屠
屡
屬
屮
屯
屰
山
屵
屾
岁
岂
岑
岡
岩
岳
岸
峯
島
崇
崑
崔
崖
崙
崩
嵬
嶲
巂
巛
川
州
巟
巠
巢
巤
工
左
巧
巨
巩
巫
差
己
已
巳
巴
巷
巸
巽
巾
巿
帀
市
布
希
帚
帛
帝
带
師
席
帶
常
干
平
年
幵
并
幷
幸
幺
幻
幼
幽
幾
广
広
庄
床
底
店
庚
府
度
庫
庭
庶
康
庸
廉
廌
廛
廣
廩
廴
延
廷
建
廾
廿
开
弁
弃
弄
弇
弋
式
弓
弔
引
弗
弘
弜
弟
弥
弦
弱
張
強
强
彊
彌
彎
彐
彑
当
彔
录
彖
彗
彡
形
彥
彦
彧
彭
彳
役
彼
往
待
律
徒
得
徙
從
復
微
徵
心
忄
必
忌
忍
志
忝
忠
忩
快
念
忽
忿
思
怠
急
怱
恆
恒
恩
恭
息
悉
患
悤
悲
悶
惠
惡
惢
愁
愈
意
愛
感
慈
慧
慮
憂
憲
應
戀
戈
戉
戊
戋
戌
戍
戎
成
我
戒
戔
或
戚
戠
戢
截
戲
戶
户
戹
戼
戾
房
所
扁
扇
手
扌
才
打
托
执
承
折
拉
拜
拿
掌
推
提
摩
支
攴
攵
收
攸
改
放
政
敄
敏
敕
敖
敗
敝
敞
敢
散
敦
敫
敬
数
敷
數
斂
文
斉
斊
斗
斤
斥
斩
斬
斯
新
方
於
施
斿
旁
旋
族
无
旡
既
旣
日
旦
旧
旨
早
旬
旱
旲
时
旾
昆
昇
昌
昍
明
昏
易
昔
昗
昜
星
春
昬
是
昱
昴
昷
時
晃
晋
晏
普
景
晶
智
暑
暴
曇
曩
曰
曲
曳
更
曷
書
曹
曼
曾
替
最
朁
會
月
有
朋
服
朔
朕
朗
望
朝
木
朩
未
末
本
札
朮
术
朱
朵
朶
朿
杀
杏
杜
束
条
来
東
杲
杳
松
析
林
枚
果
枝
枲
枼
某
柔
查
柬
柰
柴
栗
桀
桑
桼
梁
條
梟
梨
棘
棠
棥
森
楚
業
楽
榮
樂
樊
欠
次
欣
欮
欲
欶
欽
款
歆
歇
歛
止
正
此
步
武
歨
歪
歮
歯
歰
歲
歴
歷
歸
歹
歺
死
殳
段
殷
殸
殹
殺
殻
殿
毋
毌
母
每
毒
比
毕
毚
毛
毳
氏
氐
民
气
氣
水
氵
氶
氷
永
氺
氾
求
汝
汞
江
沃
沓
沙
沝
泉
法
波
泣
泥
泰
洛
洪
活
派
流
浦
浪
浮
淡
淮
清
渚
渠
湯
滿
漸
火
灬
灭
灰
灵
灷
炅
炎
炏
炗
炙
炭
為
烈
烏
烝
焉
無
焦
焱
然
煞
熊
熏
燕
營
燮
爪
爫
爭
爯
爰
爱
爲
爵
父
爻
爽
爾
爿
片
牙
牚
牛
牜
牟
牢
牧
牪
牽
犀
犬
犭
犮
狂
狄
狊
独
狺
猋
猒
猪
献
獻
玄
率
玉
王
玟
玨
珎
班
琴
瑟
瑩
瓜
瓦
甘
甚
生
産
用
甫
甬
田
由
甲
申
电
甶
男
甸
甹
画
甾
畀
界
畏
畐
留
畜
畟
畢
畧
畨
番
畫
異
畱
當
畺
畾
疊
疋
疌
疑
疒
疾
癶
癸
癹
登
發
白
百
皀
皃
的
皆
皇
皋
皐
皕
皮
皷
皿
盃
盆
盇
盈
益
盍
盎
监
盒
盖
盛
盡
監
盤
盧
目
直
相
盾
省
眇
眉
看
眔
眞
真
眷
眼
眾
着
睘
睪
睿
瞏
瞢
瞿
矍
矛
矞
矢
矣
知
矦
短
石
破
碎
磊
磨
示
礻
礼
祟
票
祭
禀
禁
禸
禹
禺
离
禽
禾
禿
秀
秃
秉
秋
科
秝
秦
移
稟
穀
穌
穴
究
穹
空
穿
突
窄
窒
立
竒
竜
竝
竟
章
童
竹
笑
笠
筆
等
答
箕
算
箴
節
篤
篭
米
粉
粛
粟
粤
粦
粲
糞
糸
糹
系
約
納
素
索
紫
累
細
絜
絫
絲
維
綿
縣
繇
纍
纟
缶
网
罒
罔
罕
罗
罙
罡
罢
罪
署
罷
羅
羊
羌
羍
美
羔
羕
羗
羞
羡
羣
群
義
羲
羸
羽
翁
翏
習
翕
翟
翠
翼
老
耂
考
者
耆
而
耎
耑
耒
耳
耴
耶
耷
聂
聊
聖
聚
聶
聿
肀
肃
肅
肉
肖
肙
肥
肩
肯
育
肴
胃
背
胡
胥
能
脊
脩
膚
臣
臤
臧
自
臬
臭
臯
臱
至
致
臺
臼
臽
臾
臿
舀
舂
舄
與
興
舉
舌
舍
舛
舜
舞
舟
般
艮
良
色
艸
艹
艾
芒
芔
芬
芮
花
芳
芺
芻
苔
苗
苟
若
苦
英
茶
茸
荅
草
荒
荣
荼
莆
莧
莫
莽
菆
菊
菐
華
萬
落
葉
著
葛
董
葵
蒙
蒦
蒼
蓋
蓬
蓺
蔑
蔡
蕉
蕭
薄
薛
薦
薰
藍
藏
藥
蘭
虍
虎
虐
虒
虔
處
虖
虗
虘
虚
虛
虜
虞
虫
虽
蚤
蚩
蜀
蜜
蟲
蠡
血
行
衍
衛
衣
衤
表
衮
衰
袁
袞
褭
褱
襄
襾
西
覀
要
覃
見
規
覓
覧
親
覽
见
角
解
言
訁
訇
計
詹
誩
諸
讠
谷
豆
豈
豊
豐
豕
豖
豙
象
豦
豩
豪
豸
貇
貝
貞
貟
負
貢
貧
貪
貫
責
貳
貴
買
費
賁
資
賈
賏
賓
賔
賛
賞
賢
賣
質
賴
贊
贝
贡
责
贯
贲
贵
赖
赞
赤
赦
走
越
足
路
蹇
身
躬
車
軍
軎
軟
輦
车
辛
辜
辟
辥
辰
辱
農
辵
辶
边
达
过
近
连
迷
追
退
送
逆
逐
通
速
造
逢
連
逮
進
遀
遂
過
道
達
遣
適
遷
遺
邊
邑
邕
那
邦
邪
郎
部
郭
都
鄉
酉
酋
配
酓
釆
采
里
重
野
量
金
釒
錢
钅
長
镸
长
門
閃
閉
開
閏
閑
閒
間
閔
閵
閻
闌
门
间
闷
阑
阜
阝
阿
降
陳
隆
隊
隋
隡
隨
隱
隶
隹
隺
隻
隼
隽
难
雀
雁
集
雈
雋
雍
雐
雔
雙
雚
雜
雝
離
難
雨
雩
雪
雲
零
雷
需
霍
霜
霝
霞
霸
靈
靑
青
非
靡
面
靣
革
韋
韦
韭
韯
韱
音
頁
頃
項
須
頗
頡
頻
顛
页
風
风
飛
飞
食
飠
養
饣
首
香
馬
馮
駦
马
骨
高
髟
鬥
鬯
鬲
鬼
魚
魯
鮮
鱼
鲁
鳥
鳳
鸟
鹵
鹿
麃
麗
麥
麦
麻
黃
黄
黍
黎
黑
黒
黨
黹
黽
黾
鼎
鼓
鼠
鼻
齊
齋
齐
齒
齿
龍
龙
龜
龟
龠
龰
龱
龴
龵
龶
龷
龸
龹


者
艹
﻿
（
）
，
？
𝑥
𠀁
𠀃
𠀆
𠀉
𠀎
𠀐
𠁁
𠁣
𠂆
𠂇
𠂈
𠂉
𠂊
𠂋
𠂎
𠂒
𠂔
𠂛
𠂡
𠂢
𠂤
𠂬
𠂭
𠂹
𠃊
𠃋
𠃌
𠃍
𠃎
𠃑
𠃓
𠃔
𠃜
𠄌
𠄎
𠄠
𠄢
𠆢
𠆥
𠇍
𠈌
𠌵
𠓜
𠔉
𠔥
𠔼
𠔽
𠔿
𠕀
𠕁
𠕋
𠘧
𠘨
𠙻
𠙼
𠚏
𠚒
𠚤
𠚪
𠣏
𠤎
𠤕
𠥓
𠦄
𠦑
𠦝
𠧒
𠧗
𠧪
𠩺
𠪚
𠫓
𠫔
𠫤
𠬛
𠬝
𠬞
𠬢
𠬤
𠬶
𠮛
𠮦
𠮷
𠯑
𠱠
𠳮
𠷎
𡈼
𡉀
𡉵
𡌥
𡍮
𡏳
𡕒
𡕩
𡕰
𡖅
𡗗
𡗜
𡘆
𡘤
𡧱
𡨄
𡩧
𡬠
𡭽
𡰣
𡰥
𡰪
𡰯
𡰱
𡷈
𡸁
𡿨
𡿩
𡿪
𡿺
𢀖
𢀛
𢀩
𢁙
𢆉
𢆰
𢆶
𢇁
𢇇
𢉖
𢌬
𢌿
𢏚
𢑑
𢑚
𢖻
𢙣
𢛳
𢦏
𢦒
𢧵
𢼄
𢾕
𣁋
𣄼
𣅀
𣅽
𣍘
𣎳
𣎵
𣏋
𣏼
𣗥
𣥂
𣥖
𣦵
𣦼
𣧄
𣪊
𣪠
𣬉
𣳾
𣶒
𤇾
𤊽
𤐫
𤓰
𤔔
𤕨
𤣩
𤰇
𤰔
𤰞
𤴓
𤴔
𤽄
𥁑
𥁕
𥃦
𥃩
𥃭
𥇡
𥑟
𥘅
𥘈
𥝢
𥫗
𥱡
𦈢
𦉪
𦉬
𦉼
𦍌
𦍒
𦎧
𦐇
𦓔
𦔮
𦘒
𦙃
𦚏
𦣝
𦣞
𦣻
𦥑
𦥔
𦥯
𦨉
𦭝
𦰩
𧆞
𧈧
𧘇
𧰨
𧴪
𧴮
𧵩
𧾷
𨸏
𨾴
𩙿
𩠐
𩫏
𩵋
𪉷
𪜀
𪟽
𪠲
𪩲
𫇦
𫔭
𫜸
𫝀
𫠣
𫠩
𫢉
𫥞
𫩏
𫩠
𫪡
𫲽
𫶧
𬀷
𬐘
𬗌
𬙙
𬛸
𬜯
𬟩
𬯁
𬴘
𬺻
𬼉
𬼖
𭀰
𭁈
𭁨
𭅰
𭑈
𭕄
𭗼
𭤨
𭥫
𭻾
𮅕
𮊿
𮍌
𮍏
𮓗
𮥼
𮧮
廾
𰀁
𰀄
𰀈
𰀉
𰀕
𰀠
𰀡
𰀢
𰀪
𰁜
𰃮
𰆊
𰆘
𰋙
𰕎
𰢴
𰧭
𰯲
00--
01--
02--
03--
04--
05--
06--
07--
08--
09--
24--
26--
27--
28--
29--
30--
31--
32--
33--
34--
35--
36--
37--
38--
39--
40--
41--
42--
43--
44--
45--
46--
47--
48--
49--
50--
51--
53--
54--
55--
56--
57--
58--
59--
60--
61--
62--
67--
70--
71--
72--
73--
74--
75--
76--
77--
78--
79--
80--
81--
82--
83--
84--
85--
86--
87--
88--
89--
90--
92--
93--
95--
978--
99--
a--
aa--
ab--
abo--
ac--
acce--
activ--
ad--
addi--
ado--
af--
aff--
ag--
ah--
ai--
air--
aj--
ak--
al--
all--
alter--
am--
an--
anthropo--
ap--
apo--
appe--
ar--
arch--
arr--
art--
as--
ash--
astr--
astro--
at--
au--
ave--
avi--
ax--
az--
b--
ba--
back--
ban--
bang--
bar--
be--
beha--
ben--
ber--
berk--
bha--
bi--
bio--
bis--
bl--
bo--
bor--
br--
brah--
bre--
bro--
broad--
bu--
bud--
budd--
bul--
bur--
c--
ca--
cal--
calcu--
can--
capa--
car--
cas--
cat--
ce--
cele--
cen--
cer--
ch--
cham--
char--
che--
chi--
chl--
cho--
ci--
cit--
citiz--
cl--
cle--
cli--
co--
col--
colle--
com--
comp--
con--
cond--
condu--
confir--
conne--
const--
contr--
contri--
coo--
cor--
corp--
corre--
cr--
cre--
cri--
cro--
cru--
cu--
cur--
cy--
d--
da--
dam--
dar--
de--
deccan--
decla--
def--
deg--
den--
dete--
dha--
di--
dia--
diffe--
dis--
disc--
dist--
distri--
do--
dr--
dra--
dre--
du--
dur--
dy--
dyna--
e--
ear--
eco--
econo--
ed--
ei--
el--
ele--
electro--
em--
emer--
emi--
en--
epi--
equ--
equati--
er--
es--
esti--
et--
eu--
eva--
ex--
exe--
exp--
experi--
expl--
f--
fa--
fact--
fai--
fam--
far--
fe--
fel--
fer--
fi--
figu--
fil--
fin--
fix--
fl--
flo--
flu--
fly--
fo--
fol--
for--
fore--
fr--
fri--
fu--
fur--
g--
ga--
gal--
gar--
gau--
ge--
gen--
gene--
geo--
gi--
gil--
go--
god--
gr--
gra--
gre--
gro--
gu--
gun--
h--
ha--
han--
har--
harr--
haw--
hay--
haz--
he--
her--
hi--
high--
ho--
hol--
home--
horiz--
hu--
hun--
hund--
hus--
hy--
hydr--
hydro--
i--
ib--
id--
ide--
il--
imm--
imp--
impor--
in--
indi--
inf--
infe--
influ--
initi--
inst--
instru--
insu--
integ--
inter--
inve--
investi--
ir--
ire--
is--
it--
j--
ja--
jay--
je--
jes--
jo--
joh--
jos--
ju--
jud--
k--
ka--
kal--
kan--
kar--
ke--
kha--
ki--
kil--
kis--
ko--
ku--
l--
la--
laksh--
lam--
lan--
lau--
le--
lea--
li--
life--
lin--
lingu--
liqu--
lo--
lu--
ly--
m--
ma--
mad--
mag--
maha--
mal--
mala--
man--
math--
mcc--
me--
mech--
mel--
mem--
mer--
mes--
meteoro--
mexi--
mi--
micro--
mig--
mil--
min--
minu--
mis--
mo--
moh--
mon--
monu--
mor--
mu--
muk--
mur--
my--
n--
na--
ne--
nega--
neighb--
nel--
neu--
neuro--
new--
news--
ni--
nico--
no--
nomi--
nor--
not--
nu--
o--
obser--
observa--
occup--
on--
opti--
or--
ori--
os--
osc--
out--
over--
p--
pa--
pac--
pal--
pan--
par--
para--
pas--
pe--
pear--
pen--
per--
pet--
ph--
phil--
philo--
phy--
pi--
pil--
pin--
pl--
pla--
ple--
plura--
pm--
po--
poly--
pon--
posi--
pr--
pra--
pre--
prepa--
pri--
pro--
prog--
prote--
psychi--
psycho--
pu--
pul--
pun--
purpo--
py--
q--
qu--
ques--
quo--
r--
ra--
raj--
ran--
re--
rece--
reg--
regu--
rela--
remo--
requi--
res--
ri--
ro--
ru--
ry--
s--
sa--
sal--
san--
sar--
sau--
sc--
sch--
sche--
scho--
scri--
se--
sel--
sele--
sen--
sequ--
ser--
seri--
sh--
sha--
shan--
shi--
sho--
si--
sk--
sl--
sla--
sli--
so--
sol--
solu--
sp--
spa--
spe--
spect--
spi--
spir--
squ--
st--
ste--
sto--
str--
stra--
stru--
stu--
su--
sub--
succ--
sugge--
sul--
sun--
supple--
sur--
sw--
swe--
swit--
sy--
sym--
syn--
t--
ta--
tal--
tar--
te--
tele--
temp--
ter--
terr--
th--
the--
thi--
tho--
thr--
ti--
tiru--
to--
tor--
tr--
trans--
tre--
tri--
tro--
tru--
tu--
tur--
tw--
u--
ul--
un--
unive--
up--
uplo--
ur--
us--
utt--
v--
va--
val--
var--
vari--
ve--
ven--
ver--
vi--
vin--
virg--
vo--
vol--
w--
wai--
wal--
we--
web--
wi--
wil--
wis--
wo--
wor--
wr--
writ--
x--
y--
yo--
yu--
z--
zoo--
ا--
ـ--
و--
अ--
क--
प--
म--
र--
स--
ஃ--
அ--
அப--
ஆ--
ஆச--
ஆண--
ஆப--
இ--
இம--
இல--
ஈ--
உ--
உத--
ஊ--
ஏ--
ஐ--
ஒ--
ஓ--
க--
கன--
கம--
கவ--
ங--
ச--
சக--
சட--
சத--
சம--
சல--
சவ--
ஜன--
ஜய--
ஜவ--
ஞ--
ட--
ண--
த--
தச--
தட--
தம--
தல--
ந--
ன--
ப--
பவ--
ய--
யம--
யர--
ர--
ரக--
ரம--
ற--
ல--
லத--
லம--
ள--
ளர--
வ--
வச--
வல--
ஷ--
ஸ--
ஹ--
യ--
--0
--00
--1
--2
--3
--4
--5
--6
--7
--8
--9
--a
--abad
--able
--ad
--ae
--ag
--age
--ah
--ai
--aj
--ak
--ake
--al
--ale
--ally
--als
--am
--an
--ana
--ance
--ane
--ani
--ant
--ar
--ard
--aries
--arrow
--ary
--as
--at
--ata
--ate
--ated
--ates
--ath
--atic
--ating
--ation
--ations
--ative
--ator
--ay
--b
--ba
--ber
--berg
--bi
--ble
--bo
--bs
--bu
--c
--ca
--cal
--ce
--ced
--cent
--ces
--ch
--cher
--chi
--cing
--ck
--cle
--co
--col
--craft
--cs
--ct
--ction
--cts
--cus
--cy
--d
--da
--day
--ddy
--de
--ded
--di
--ding
--do
--ds
--du
--dy
--e
--ea
--eae
--ed
--ee
--ef
--ein
--ek
--el
--ell
--ely
--em
--en
--ence
--ent
--ents
--ep
--er
--era
--ern
--ers
--ert
--ery
--es
--esh
--ess
--est
--et
--ew
--ey
--ez
--f
--ff
--fied
--ful
--fy
--g
--ga
--gam
--ge
--ged
--gen
--ger
--ges
--gh
--gi
--gic
--ging
--go
--gs
--gy
--h
--ha
--ham
--han
--he
--hed
--hes
--hew
--hi
--hing
--hip
--hood
--ht
--hu
--i
--ia
--ial
--ian
--ic
--ica
--ical
--ick
--ics
--id
--ide
--ie
--ied
--ier
--ies
--ight
--ik
--ika
--il
--ile
--im
--in
--ina
--india
--ine
--ing
--ings
--ini
--ins
--io
--ion
--ional
--ions
--ior
--ious
--ip
--ipur
--ique
--ir
--is
--ise
--ish
--ision
--ism
--ist
--ists
--it
--ita
--ite
--ities
--ition
--ity
--ium
--ius
--ive
--ix
--iya
--ization
--ized
--j
--ji
--k
--ka
--kar
--ke
--ker
--kh
--ki
--kia
--ks
--l
--la
--lar
--ld
--le
--led
--ler
--less
--ley
--lf
--li
--lia
--lic
--lin
--line
--ling
--lity
--ll
--lla
--lle
--lls
--lly
--lm
--lo
--ls
--lt
--lude
--lus
--ly
--m
--ma
--maaj
--man
--me
--ment
--mic
--min
--ming
--mo
--mony
--ms
--my
--n
--na
--nal
--nam
--nce
--ncy
--nd
--nda
--nds
--ne
--ned
--ner
--nes
--ness
--news
--ng
--ngs
--ni
--nia
--ning
--nium
--nk
--nn
--no
--ns
--nse
--nt
--ntic
--nts
--nty
--num
--ny
--o
--oc
--ock
--od
--og
--ok
--ol
--ols
--om
--ome
--omy
--on
--onal
--ond
--ons
--ood
--op
--ops
--or
--oria
--orm
--ors
--ory
--os
--ot
--oud
--ough
--ous
--ow
--oy
--p
--pe
--pedia
--ph
--phic
--phy
--ple
--ply
--ps
--pur
--put
--q
--que
--r
--ra
--racy
--ral
--ran
--rator
--rd
--re
--rence
--rg
--ri
--ria
--ric
--rier
--ries
--rk
--rl
--rn
--ro
--roid
--roll
--ron
--row
--rry
--rs
--rt
--rum
--ry
--s
--sa
--se
--sed
--ser
--ses
--sh
--sha
--ship
--si
--sia
--sion
--sis
--sive
--sk
--sm
--sn
--son
--sor
--ss
--st
--ster
--stic
--sy
--t
--ta
--tal
--tary
--tation
--te
--ted
--ter
--tes
--th
--tha
--thi
--ti
--tial
--tic
--ties
--ting
--tion
--tions
--tive
--tle
--to
--ton
--tor
--tory
--tra
--tric
--try
--ts
--tt
--tu
--tude
--tum
--ture
--tus
--ty
--tz
--u
--ua
--ual
--ud
--ue
--ul
--ula
--ular
--ult
--um
--up
--ur
--ural
--ure
--uri
--us
--ut
--ution
--v
--va
--ve
--vy
--w
--wa
--way
--ways
--x
--y
--ya
--yan
--yer
--yl
--ys
--z
--za
--ze
--и
--க
--கத
--கம
--ங
--ச
--சப
--சம
--ஜ
--ஞ
--ட
--ண
--த
--ந
--ன
--ப
--ம
--ய
--யம
--ர
--ரங
--ரத
--ரப
--ரம
--ற
--ல
--ள
--ளவ
--ழ
--வ
--வர
--ஸ
--ஹ
