!
"
#
##0
##1
##10
##11
##12
##13
##14
##15
##16
##17
##18
##19
##2
##20
##21
##22
##23
##24
##25
##26
##27
##28
##29
##3
##30
##31
##32
##33
##34
##35
##36
##37
##38
##39
##4
##40
##41
##42
##43
##44
##45
##46
##47
##48
##49
##5
##50
##51
##52
##53
##54
##55
##56
##57
##58
##59
##6
##60
##61
##62
##63
##64
##65
##66
##67
##68
##69
##7
##70
##71
##72
##73
##74
##75
##76
##77
##78
##79
##8
##80
##81
##82
##83
##84
##85
##86
##87
##88
##89
##9
##90
##91
##92
##93
##94
##95
##96
##97
##98
##99
$
%
&
'
(
)
*
+
,
-
.
/
0
00
000
0000
01
02
03
04
05
06
07
08
09
1
10
100
101
102
103
104
105
106
107
108
109
1097
11
110
1101
1103
111
112
113
114
115
116
117
118
119
12
120
121
122
123
124
125
126
127
128
129
13
130
131
132
133
134
135
136
137
138
139
14
140
141
142
143
144
145
146
147
148
149
15
150
151
152
153
154
155
156
157
158
159
16
160
161
162
163
164
165
166
167
168
169
17
170
1706
171
172
173
174
175
1753
1758
176
1763
1766
1767
1768
177
1773
1775
1776
1777
1778
178
1780
1781
1782
1783
1785
1786
1787
1788
1789
179
1790
1791
1792
1793
1794
1795
1796
1797
1798
1799
18
180
1800
1801
1802
1803
1804
1805
1806
1807
1808
1809
181
1810
1811
1812
1813
1814
1815
1816
1817
1818
1819
182
1820
1821
1822
1823
1824
1825
1826
1827
1828
1829
183
1830
1831
1832
1833
1834
1835
1836
1837
1838
1839
184
1840
1841
1842
1843
1844
1845
1846
1847
1848
1849
185
1850
1851
1852
1853
1854
1855
1856
1857
1858
1859
186
1860
1861
1862
1863
1864
1865
1866
1867
1868
1869
187
1870
1871
1872
1873
1874
1875
1876
1877
1878
1879
188
1880
1881
1882
1883
1884
1885
1886
1887
1888
1889
189
1890
1891
1892
1893
1894
1895
1896
1897
1898
1899
19
190
1900
1901
1902
1903
1904
1905
1906
1907
1908
1909
191
1910
1911
1912
1913
1914
1915
1916
1917
1918
1919
192
1920
1921
1922
1923
1924
1925
1926
1927
1928
1929
193
1930
1931
1932
1933
1934
1935
1936
1937
1938
1939
194
1940
1941
1942
1943
1944
1945
1946
1947
1948
1949
195
1950
1951
1952
1953
1954
1955
1956
1957
1958
1959
196
1960
1961
1962
1963
1964
1965
1966
1967
1968
1969
197
1970
1971
1972
1973
1974
1975
1976
1977
1978
1979
198
1980
1981
1982
1983
1984
1985
1986
1987
1988
1989
199
1990
1991
1992
1993
1994
1995
1996
1997
1998
1999
2
20
200
2000
2001
2002
2003
2004
2005
2006
2007
2008
2009
201
2010
2011
2012
2013
2014
2015
2016
2017
2018
2019
202
2020
2022
203
204
205
206
207
208
209
21
210
211
212
213
214
215
216
217
218
219
22
220
221
222
223
224
225
226
227
228
229
23
230
231
232
233
234
235
236
237
238
239
24
240
241
242
243
244
245
246
247
248
249
25
250
251
252
253
254
255
256
257
258
259
26
260
261
262
263
264
265
266
2669
267
268
269
27
270
271
272
273
274
275
276
277
278
279
28
280
281
282
283
284
285
286
287
288
289
29
290
2905
291
292
293
294
295
296
297
298
2988
2989
299
3
30
300
301
302
303
304
305
306
307
308
309
31
310
311
312
313
314
315
316
317
318
319
32
320
321
322
323
3232
324
325
326
327
328
329
33
330
331
332
333
334
335
336
337
338
339
34
340
341
342
343
344
345
346
347
348
349
35
350
351
352
353
354
355
356
357
358
359
36
360
361
362
363
364
365
366
367
368
369
37
370
371
372
373
374
375
376
377
378
379
38
380
381
382
383
384
385
386
387
388
389
39
390
391
392
393
394
395
396
397
398
399
4
40
400
401
402
403
404
405
406
407
408
409
41
410
411
412
413
414
415
416
417
418
419
42
420
421
422
423
424
425
426
427
428
429
43
430
431
432
433
434
435
436
437
438
439
44
440
441
442
443
444
445
446
447
448
449
45
450
451
452
453
454
455
456
457
458
459
46
460
461
462
463
464
465
466
467
468
469
47
470
471
472
47260
473
474
475
476
477
478
479
48
480
481
482
483
484
485
486
487
488
489
49
490
491
492
493
494
495
496
497
498
499
5
50
500
501
502
503
504
505
506
507
508
509
51
510
511
512
513
514
515
516
517
518
519
52
520
521
522
523
524
525
526
527
528
529
53
530
531
532
533
534
535
536
537
538
539
54
540
541
542
543
544
545
547
548
549
55
550
551
552
553
554
555
556
557
558
559
56
560
561
562
563
564
565
566
567
569
57
570
571
572
573
574
575
576
577
578
579
58
580
581
583
584
585
586
587
588
589
59
592
593
594
595
597
598
599
6
60
600
602
603
604
605
6050
607
608
609
61
611
612
613
614
618
619
62
622
623
624
625
627
628
63
630
631
632
635
636
637
64
640
644
648
649
65
654
655
656
658
659
66
661
665
667
67
671
672
673
674
68
680
684
686
687
69
690
691
693
697
7
70
700
702
704
706
71
72
727
73
74
747
749
75
755
759
76
763
765
768
77
771
776
78
781
784
79
792
794
8
80
81
82
824
827
83
832
833
84
842
845
85
857356
86
87
88
885850
89
9
90
908
91
92
93
930
939
94
95
96
97
971
978
98
989
99
:
;
<
=
>
?
[
\
]
_
`
a
aa
aada
aaron
abbott
abbreviata
abdominalis
abel
abele
abellini
aberrans
abh
abhandlungen
abnormis
about
abraham
abraxas
abril
abruzzo
abt
abteilung
abucay
abutilon
abuyen
abyssinica
ac
acacia
acad
acade
academia
academiae
academic
academie
academy
acalles
acalolepta
acalypha
acanthaceae
acanthocephala
acanthocinini
acantholimon
acari
acarida
acarina
acarology
accademia
accessdate
account
acer
acerentomidae
achaearanea
achetidae
achias
achilidae
achille
achterberg
acianthera
acleris
acmaeodera
acraea
acrid
acrida
acrididae
acridiens
acridiidae
acridinae
acridiodea
acridoidea
acridomorpha
acritus
acrocercops
acroceridae
acronicta
acrophyllini
acropora
acrydiinae
act
acta
actiniaria
actinidiaceae
actinodaphne
actinopterygii
aculeata
acuminata
acuminatus
acuta
acutus
acyrthosiphon
ad
ada
adam
adams
adansonia
addenda
addison
additamenta
additional
additions
adelaide
adelbert
adelelmo
adenia
adesmia
adiantum
adicella
adiciones
adiectis
adinandra
adjacent
adjectis
adlaw
adlbauer
administratibo
adolf
adolph
adolphe
adolpho
adoretus
adrian
adrien
adult
advances
ae
aechmea
aedes
aegyptobia
aeletes
aelurillus
aenictus
aeonium
aequalis
aeschynanthus
aeschynomene
aeshnidae
aetideidae
af
afd
affinis
affinities
afghanistan
afr
afric
africa
africain
africaine
africaines
africains
african
africana
africanus
afrika
afrikanische
afrikanischen
afrikas
afrique
afrotropical
agabus
agalliopsis
agalmyla
agamidae
agaonidae
agapetes
agapetus
agaricaceae
agaricales
agarwal
agassiz
agathis
agathosma
agave
agelenidae
agi
agilis
aglaia
agonopterix
agonum
agosto
agr
agraria
agri
agrias
agric
agricola
agricole
agricoltura
agricultura
agricultural
agriculture
agrilus
agromyza
agromyzidae
agronomia
agrostis
agrostophyllum
agrotis
agrypon
agsob
ahmad
ahmed
ahrens
aided
aime
ain
air
aires
airy
ais
aise
aisne
aizoaceae
ajg
akad
akademie
akademien
akademiens
akademii
akademiya
akbar
aktor
al
alabagrus
alabama
alain
alan
alaska
alastor
alata
alba
albany
albanya
albatross
albert
alberto
albescens
albicans
albida
albifrons
albin
albizia
albomaculata
albrecht
albuca
album
alchemilla
alcock
alcuni
alcyoniidae
aldrich
alec
alegre
aleiodes
aleksandr
alemanya
aleocharinae
alessandro
alexander
alexandre
aleyrodidae
alfred
algeria
algerie
algernon
algunos
ali
all
alla
allan
allen
aller
allied
allier
allies
allium
allocosa
allodia
allograpta
allopauropus
allophylus
alluaud
alluaudi
alluaudomyia
alma
almeida
aloe
alopecosa
alpaida
alpes
alpheus
alpina
alpinia
alpinus
alsace
also
alston
alstroemeria
alternans
alternaria
alticola
alto
alucita
alves
alwin
alysia
alysiinae
alyssum
alyxia
am
amabilis
amando
amaoka
amara
amaranthaceae
amaranthus
amaryllidaceae
amata
amateur
amaurobiidae
amazon
amazonas
amazonia
amazonica
ambigua
amblyomma
amblypsilopus
amblyseius
ame
amegilla
amer
america
american
americana
americanos
americanus
americas
amerika
amerikano
amerikas
ames
amihanan
amiota
ammannia
ammophila
ammotheidae
amo
amoena
amomum
among
amorphophallus
amp
ampelisca
ampelocissus
ampharetidae
amphiacusta
amphibia
amphibian
amphibians
amphibien
amphinemura
amphioplus
amphipoda
amphiporus
amphiura
amphiuridae
ampulex
amsterdam
amurensis
amyema
an
ana
anabarhynchus
anacardiaceae
anacroneuria
anagrus
anagyrus
anais
anak
anal
anales
analis
analysis
anaphes
anaplecta
anaplectidae
anareolatae
anastatus
anastrepha
anat
anathallis
anatomia
anatomie
anaulacomera
anaxipha
anceps
ancistrocerus
and
andaluci
anders
anderson
andersson
andes
andina
andre
andrea
andreas
andrei
andrejevitj
andrena
andrenidae
andrew
andrews
andrey
andriashev
andropogon
androsace
andrzej
anemia
angay
angeles
angelica
angewandte
angola
angolensis
angraecum
angrenzenden
angulata
angulatus
angusta
angustata
angustifolia
angustifrons
angustipennis
angustus
anhalt
animal
animalia
animals
animaux
anisodes
ann
anna
annalen
annales
annali
annals
anne
annecke
annelida
anneliden
annelids
anni
annis
annls
annona
annonaceae
annonbase
annotated
annual
annulata
annulatus
annulicornis
annulipes
anobiidae
anochetus
anolis
anomala
anomalon
anomaloninae
anomalus
anopheles
anoplodactylus
anoplura
anostostomatidae
anostraca
ant
antarctic
antarctica
antennalis
antennata
antepipona
anthicidae
anthidium
anthomyia
anthomyiidae
anthonomus
anthony
anthophora
anthozoa
anthrax
anthuridae
anthurium
antidesma
antill
antilles
antilocust
antocha
antoine
antoinette
anton
antonio
antrocephalus
anura
anyphaenidae
anz
anzeiger
ao
aoki
aonidiella
aou
apamea
apanteles
apatania
aphaenogaster
aphaniosoma
aphanogmus
aphelandra
aphelinidae
aphelinus
aphid
aphidae
aphididae
aphidiidae
aphidius
aphidoidea
aphids
aphidsf
aphis
aphodiidae
aphodiinae
aphodius
aphonopelma
aphroditidae
aphrophoridae
aphyosemion
aphytis
apiaceae
apicalis
apidae
apiocera
apion
aplidium
apocephalus
apocrita
apocynaceae
apoderus
apogon
apogonia
apogonidae
apoidea
apolysis
app
appartenant
appendicula
appendiculata
appendix
appl
applied
applique
apre
april
aprionus
aprostocetus
aptroot
aquatic
aquifoliaceae
aquila
aquitaine
arabia
arabica
arabis
araceae
arachn
arachnid
arachnida
arachniden
arachnides
arachniodes
arachnoidea
arachnol
arachnologiques
arachnology
arachnothryx
aracnidi
aradus
araga
arago
araigne
araignees
araliaceae
aram
aran
aranae
aranas
araneae
aranei
araneida
araneidae
araneides
araneus
aranhas
arb
arbeiten
arbor
arborea
arcangeli
arch
archer
archibald
archiblattidae
archidendron
archipel
archipelago
archiv
archive
archived
archives
archytas
arctic
arctica
arctiidae
arctosa
arcuata
ardenne
ardennes
ardisia
are
area
areas
arecaceae
arenaria
arenes
arenicola
areolatae
arg
argent
argentea
argentina
argentino
argentinos
argia
argostemma
argoviensis
argyra
argyreia
argyrodes
argyrolobium
arisaema
aristida
aristolochia
aristolochiaceae
arizona
arizonensis
ark
arkiv
arktischen
armadillidae
armadillidiidae
armadillidium
armand
armata
armatus
armenia
armor
armored
armoured
arn
arnett
arnold
arnott
arquivos
arrenurus
arrow
art
artemisia
arten
artes
arthonia
arthropod
arthropoda
arthropods
arthur
article
articulata
artikulo
artois
arts
arx
as
asa
asarum
ascalaphidae
ascher
ascidiacea
asclepias
ascochyta
ascogaster
ascomycetes
ascomycota
asellidae
asellota
aseminae
ashmead
asia
asiae
asian
asiat
asiatic
asiatica
asie
asien
asilidae
asilus
askew
aspalathus
asparagaceae
asparagus
asper
aspera
aspergillus
asperula
asphondylia
aspidiotini
aspidiotus
aspidistra
aspilota
aspleniaceae
asplenium
asplundia
aspo
assam
assamensis
assimilis
associated
association
astacidae
astaena
asteraceae
asterina
asteroidea
astracantha
astragalus
astropecten
astyanax
asura
asya
asyndetus
at
ataenius
atarba
atas
atelopus
ater
ateuchus
atherigona
atheta
athetine
athripsodes
athyriaceae
athyrium
athysanella
atlantic
atlantica
atlanticus
atlantique
atlantiques
atlas
atopsyche
atra
atractodes
atractus
atrata
atratus
atrichopogon
atriplex
attacking
attems
attenuata
attenuatus
atti
attidae
attila
au
aube
aubert
auchenorrhyncha
auckland
auct
aucta
aude
audenaerde
audinet
auf
aufsatz
augener
augochlora
augochloropsis
august
auguste
augustine
augusto
augustus
aulacaspis
aulacidae
aurantiaca
aurata
aurea
auriculata
aurivillius
aus
ausbeute
aussereuropaischer
aust
austen
austin
austr
austral
australasian
australe
australia
australian
australien
australiens
australiensis
australis
australischen
austria
austro
austrobaileya
austrolimnophila
aut
authors
auto
autonoma
autoserica
autres
auvergne
aux
available
avec
aves
avril
avulsos
awards
awtor
axel
axillaris
axinella
axonopus
ayyar
az
azteca
azur
b
ba
babiana
bacanius
baccharis
bachicoltura
bactrocera
bacunculini
bad
baden
baehr
baert
bag
bagridae
bahamas
bahia
bahiensis
bahin
bailey
baill
baillargeon
baillon
bailly
baird
baja
bak
baker
bakeri
balachowsky
balansae
balclutha
balfour
balitoridae
balke
balkema
ball
ballana
balogh
balsaminaceae
balthasar
bambusa
banchinae
band
bank
banks
banksi
banksia
banska
baptist
baptiste
baranggay
barat
baraud
barba
barbacenia
barbara
barbata
barbosa
barbus
barcelona
barichneumon
baridius
baris
bark
barker
barleria
barnard
barneby
barnes
baron
barr
barrier
barrigada
barrio
barrion
barros
barton
bartsch
barychelidae
baryo
baryscapus
bas
basalis
base
based
basel
basidiomycota
basilia
basiliensa
basin
basse
bassin
bassler
bassus
bat
batakan
bates
batrachians
batracomorphus
bauchot
baudry
bauer
bauhinia
baumann
bavaria
bay
bayer
bbc
bd
bdelloidea
be
beamer
bean
bearbeitet
beardsley
beaufortia
bec
becc
beccaloni
beccari
beccarii
beck
becker
beckeri
bee
beer
bees
beethoven
beetle
beetles
behavior
bei
beibl
beier
beih
beijing
beilschmiedia
being
beitr
beitra
beitrag
beitrage
bekannte
bekannten
belg
belge
belgian
belgique
belgium
belhika
belize
bell
bella
bellamy
bellan
belokobylskij
belonging
bembidion
bemerkungen
ben
benedict
beng
bengal
bengalensis
benine
benjamin
benn
bennett
benoist
benoit
benoy
benth
bentham
benthic
bentos
ber
berberis
berg
bergquist
bericht
berichte
berichten
berk
berkeley
berl
berland
berlese
berlin
berliner
bermuda
bern
bernard
bernardino
bernhard
bernice
berry
bersyon
berthoumieu
bertolani
bertus
beru
beschreibung
beschreibungen
beschrieben
beskrifning
besleria
besonderer
bestimmungsbu
betula
between
beziehung
bezzi
bezzia
bhutan
bi
bianchi
bibio
bibionidae
bibliographic
bibliography
biblioth
bibron
bickel
bicknell
bicolor
bicornis
bidens
bidentata
bidrag
bienko
bifasciata
bifida
bifurcata
bigot
bihang
bijdr
bijdragen
bilineata
bill
billboard
bimaculata
bimaculatus
bingham
bio
biodiversidad
biodiversity
biogeography
biography
biol
biolo
biologi
biologia
biologica
biological
biologie
biologiques
biologische
biology
bionomics
bipunctata
birds
birmania
bis
bisan
bisby
bishen
bisher
bishop
bispinosa
bittacus
bitter
bivalvia
bivittata
bl
bla
blaberidae
blaberoidea
black
blackburn
blackith
blackwall
blackwelder
blacus
blaesoxipha
blake
blakea
blanchard
blanco
blatchley
blattaria
blattariae
blattellidae
blattidae
blattodea
blattodeasf
blattoidea
blechnum
bledius
bleeker
blenniidae
blephariceridae
blepharis
blica
blu
blume
blumea
bner
bo
board
bock
bockka
bodenfauna
bodenheimer
bodotriidae
boechera
boeckeler
bogan
bohart
boheman
boidin
boisduval
boiss
boissier
bol
bolboceratidae
boleti
boletim
boletin
boletina
boli
bolitoglossa
bolivar
bolivari
bolivaritettix
bolivia
boliviana
boliviensis
boll
bollettino
bologna
bolton
bolus
bomarea
bombay
bombus
bombyliidae
bombylius
bon
bond
bonn
bonpland
bonplandia
bony
book
books
bopyridae
bor
boraginaceae
borchsenius
borealis
borgmeier
borhidi
boring
boris
borisovitsch
borissova
borneensis
borneo
bornmu
borntraeger
boronia
borowski
bosmans
bosse
bosser
boston
bostrichidae
bot
botanic
botanical
botanique
botanischen
botanophila
botany
bothalia
botryosphaeriaceae
botting
boucek
boucomont
boulenger
bound
boundy
bourdot
bourgogne
bourgoin
bowerbank
box
boyko
br
brachiaria
brachionidae
brachiopod
brachiopoda
brachymeria
brachypogon
brachyptera
brachystelma
bracon
braconid
braconidae
braconiden
braconides
braconids
braconinae
bracteata
brade
bradea
bradford
bradley
bradysia
bragg
brahmina
brain
branch
branchiopoda
brand
brandegee
brandenburg
brandt
bras
brasil
brasileira
brasilien
brasiliensis
brassicaceae
brauer
braun
braunsapis
brazil
brazilian
bre
bremek
bremekamp
bremen
brenan
brenske
bres
brescovit
breslau
bretagne
brethes
breuning
brevicauda
breviceps
brevicornis
brevipalpus
brevipennis
brevipes
brevirostris
brevis
brian
bridson
brief
briggs
brigitte
brignoli
brill
brinck
brinton
brischke
brit
britain
britannica
british
britton
brittonia
brixia
bro
brock
bromeliaceae
bromus
brooker
brooklyn
broome
brot
brote
brown
browni
brtek
bru
bruce
bruch
bruchinae
bruchophagus
brues
brulle
brunel
bruner
brunetti
brunettia
brunnea
brunner
brunnescens
brunneus
brussels
brux
bruxelles
bruyns
bryan
bryant
bryobia
bryozoa
bu
buchnera
buckup
budapest
budde
buddleja
buellia
buenos
bufonidae
bug
bugs
buhl
buitenz
buitenzorg
bulan
bulbophyllum
bulbostylis
bulgaria
bull
bullata
bulletin
bundesversuchanstalt
bunge
bungto
bunium
bunzo
bupleurum
buprestidae
buprestoidea
burbank
burckhardt
bureau
burgeon
burgess
burgos
burks
burm
burma
burmeister
burmeistera
burr
burret
bursera
burseraceae
burton
burtt
bush
busk
but
butang
butler
butnga
butterfly
buxus
buzzetti
bv
by
byers
byrsonima
bystrica
bythitidae
byttneria
c
ca
cab
caccobius
cachoplistinae
cacia
cacopsylla
cact
cactaceae
caelifera
caen
caerulea
caesalpinia
cahiers
cairns
calabria
calacademy
caladenia
calais
calamagrostis
calamus
calandra
calanthe
calathea
calcarata
calceolaria
calcicola
calcutta
caldasia
caldwell
cale
caledonia
calif
california
californica
californicus
calliandra
callionymidae
callionymus
calliopsis
calliphora
calliphoridae
callistethus
callyspongia
calophyllaceae
calophyllum
caloplaca
caloptilia
calvados
calvert
calyptranthes
camaenidae
cambaridae
cambarus
cambodge
cambridge
camellia
cameron
cameroon
camicas
camille
camillo
campagnes
campania
campanula
campanulaceae
campbell
campestris
campiglossa
campodorus
campoletis
camponotus
campoplex
campos
campsicnemus
campylaspis
campyloneurus
camus
can
canad
canada
canadensis
canadian
canadien
canariensis
canarium
canary
canberra
candida
candolle
candollea
canescens
cannon
canterbury
canthidium
canthium
canthon
canton
canu
cap
cape
capensis
capinera
capitata
capnia
capniidae
caporiacco
capparaceae
capparis
caprifoliaceae
capuron
carabidae
carabodes
caracas
caracte
caragana
carangidae
carbonell
carcelia
cardamine
careproctus
carex
caribbean
caridean
carinata
carinatus
carl
carlgren
carlo
carlos
carlyle
carnegie
carnevali
carol
caroli
carolin
carolina
carolinensis
carolus
carpelimus
carpenter
carr
carter
carum
carvalho
caryophyllaceae
cas
casearia
casey
casimir
casinaria
cassia
castanea
castaneus
castanopsis
castelnau
castianeira
castilho
castilla
castilleja
castillo
castro
cat
cata
catalog
catalogo
catalogue
catalogus
catalun
catantopidae
catantopinae
catarina
catasetum
catasticta
caterino
catfish
catfishes
catharsius
catocala
cattleya
caucasica
caucasus
caudata
caudatus
caudell
caumont
cavanilles
cave
cavendishia
cavp
ccidos
ccw
cd
cdata
ce
cecidomyia
cecidomyiidae
cecil
cedusa
celastraceae
celebensis
celebes
celebica
census
cent
centaurea
center
centipedes
centr
central
centralbl
centrale
centrali
centralis
centre
centris
centro
centroame
centromerus
centropogon
century
cephalaria
cephalodella
cephalopoda
cephalopods
cephalops
cephalotes
ceraclea
ceramb
cerambycid
cerambycidae
cerambycidarum
cerambyciden
cerambycidæ
cerambycinae
cerambycoidea
cerapachys
ceraphron
ceraspis
cerastium
ceratina
ceratitis
ceratobaeus
ceratophyllidae
ceratophysella
ceratopogon
ceratopogonidae
ceratostylis
cercopidae
cercopiden
cercopoidea
cercospora
cerebratulus
ceres
ceresium
ceriana
cerococcus
cerodontha
ceropegia
ceroplastes
certain
ces
cestrum
cet
cetoniden
cetoniidae
cetoniinae
cette
ceuthophilus
ceuthorrhynchus
ceylon
ch
cha
chace
chaenochela
chaetomium
chaetonotidae
chaetonotus
chafers
chaitophorus
chal
chalc
chalcid
chalcididae
chalcidites
chalciditum
chalcidoid
chalcidoidea
chalcis
chalcosyrphus
chalinidae
challenger
cham
chamaecrista
chamaedorea
chamaemyiidae
chamberlin
chamisso
champ
champagne
chandler
chang
change
changes
channel
chantaramongkol
chao
chapman
characidae
characiformes
characteribus
characteristics
characters
charaxes
charente
charentes
charles
charlotte
charopidae
chart
charts
chase
chassalia
chaudhri
che
check
checklist
checklists
cheek
cheilanthes
cheiloneurus
cheilosia
cheilotrichia
cheiracanthium
chelifera
chelodesmidae
cheloninae
chelonus
chemsak
chen
cheng
chenopodium
cher
chernetidae
cheumatopsyche
chevrolat
chi
chiang
chicago
chickering
chiefly
chil
chile
chilena
chilensis
chilicola
chilobase
chilopoda
chilopoden
chilopods
chimarra
china
chine
chinensis
chinese
ching
chinoise
chionaspis
chiovenda
chirita
chironomidae
chironomus
chiroptera
chiu
chlamydopsis
chloridolum
chloris
chloroclystis
chlorophorus
chlorophytum
chloropidae
chlorops
chlorotettix
chod
choen
choisy
chopard
chordata
chorebus
chorisoneura
chorisoneuridae
chorthippus
chou
chr
christ
christenson
christiaan
christian
christoph
christophe
christopher
chromatomyia
chromis
chromosome
chron
chrysina
chrysobalanaceae
chrysobothris
chrysocharis
chrysomelidae
chrysometa
chrysonotomyia
chrysopa
chrysophyllum
chrysopidae
chrysopilus
chrysops
chrysosoma
chrysotoxum
chrysotus
chthoniidae
chthonius
chu
chun
chusquea
chyliza
chytridiomycota
ci
cicadellidae
cicadellinae
cichlid
cichlidae
cichlids
cicindela
cicurina
cidos
cie
cienc
ciencias
cienti
cies
cifiques
cigliano
ciliata
cinara
cincinnati
cincta
cinerascens
cinerea
cinereus
cingulata
cinnamomum
cipa
circular
cirolana
cirolanidae
cirratulidae
cirrospilus
cirsium
cis
cissus
cite
cited
cites
citrina
citrus
city
civ
civico
cixiidae
cixius
ck
cking
cksichtigung
cl
claassen
clade
cladistic
cladochaeta
cladonia
cladosporium
claoxylon
clara
clarence
clarendon
clark
clarke
class
classe
classes
classification
classis
clastrier
clathria
claude
clavata
clavatus
clayton
cleisostoma
cleistanthus
clemens
clements
cleome
cleonus
clidemia
clifford
cliffortia
clinocera
clinodiplosis
clinton
clitumnini
clofeta
cloffa
clonaria
clovia
club
clubiona
clubionidae
clupeidae
clusia
clusiaceae
clusiidae
clytus
cnidaria
cnidoscolus
co
coan
coast
coastal
coasts
cobitidae
coccid
coccidae
cocciden
coccides
coccids
coccinea
coccinellidae
cocciniglie
coccobius
coccoidea
coccoloba
coccophagus
coccus
cochenilles
cochinillas
cockerell
code
coelichneumon
coelioxys
coelogyne
coelorinchus
coelotes
coenagrionidae
coenonympha
coenosia
coffea
cogn
cognata
cogniaux
cohen
col
cola
colastes
colchicum
cole
colec
coleo
coleophora
coleoptera
coleopteren
coleopteres
coleopterists
coleopterologische
coleopterorum
coleopterous
colin
coll
collaris
collecta
collected
collecting
collection
collections
college
collembola
colletes
colletidae
colletinae
collin
collina
collins
colobothea
colombia
colombiana
colon
coloradensis
colorado
colors
colpochila
colte
colubridae
columbia
columbiana
columbus
columnea
com
combinations
combretaceae
combretum
comisio
comm
commelina
commelinaceae
comments
commiphora
commission
common
commonwealth
communis
comp
compacta
compagno
companhia
company
comparata
comparative
compere
comple
complete
complex
comprenant
compressa
computer
comstock
comte
comune
comunidad
con
conabio
concinna
concolor
condado
condylostylus
conferta
confidence
confinis
conflict
confluens
confusa
confusus
congesta
congo
congoensis
congress
conhecimento
conica
conidae
conifer
coniopterygidae
coniopteryx
conioscinella
conle
connaissance
connarus
connecticut
connection
connues
connus
conocephalus
conocidos
conocimiento
conocybe
conophyma
conophytum
conopidae
conops
conoscenza
conostigmus
conotrachelus
conrad
conservation
consimilis
consp
conspectus
constantine
constricta
contained
contarinia
continental
continuatio
continued
contr
contrib
contribuic
contribution
contributions
contributo
control
convolvulaceae
convolvulus
cook
cooke
cool
cooper
cooperative
cope
copeia
copel
copeland
copelatus
copenhagen
copepods
copestylum
copidosoma
coppins
copris
coprophagen
coprosma
copy
coquillett
coral
corallimorpharia
cordata
cordia
cordifolia
cordilura
corduliidae
corethrella
coriacea
corinnidae
cormocephalus
cornelis
cornelius
cornell
corner
cornuta
cornutus
coronata
corpuz
corre
corrections
corrigenda
corse
cortinariaceae
cortinarius
corybas
corydalidae
corydoras
corymbia
corynoptera
cosmoscarta
costa
costalis
costaricensis
costata
costello
costus
cote
cotesia
cotoneaster
couleur
council
countries
country
county
cousinia
coussarea
cowan
cox
cracoviensia
craib
crambidae
craneflies
craspedolepta
crassa
crassicornis
crassifolia
crassipes
crassula
crassulaceae
crassus
crataegus
cratichneumon
cratyna
craugastor
craven
crawford
crayfishes
cremastinae
cremastus
crematogaster
crenata
crenicichla
crenulata
crepidium
cresson
cribb
cricket
crickets
cricotopus
crinita
crinum
cristata
cristatus
cristo
critical
critique
crits
croat
crocidura
crocus
croizat
crops
crotalaria
crother
croton
crous
crustacea
crustacean
crustaceans
cruz
cryptantha
cryptanura
cryptinae
cryptocarya
cryptocercidae
cryptochironomus
cryptops
cryptorhynchus
cryptus
cs
csic
csiro
ctenidae
ctenitis
ctenophora
ctenophthalmus
ctenotus
ctenus
cuatrec
cuatrecasas
cuba
cubana
cubaris
cubensis
cubitt
cucurbitaceae
culex
culham
culicidae
culicoides
cult
cultivated
culturais
culture
cum
cumacea
cunaxidae
cuneata
cunningham
cunoniaceae
cuphea
curac
curculio
curculionidae
curcuma
curitiba
curran
current
cursoria
curt
curta
curtara
curtis
curvata
cuscuta
cushman
cuspidata
custodian
cutler
cuvier
cyanea
cyanopterus
cyathea
cyatheaceae
cybaeus
cybianthus
cybister
cycas
cyclaspis
cyclocephala
cyclosa
cyclosorus
cydistomyia
cylindrica
cylindromyia
cymothoidae
cynanchum
cynometra
cynorkis
cyperaceae
cyperus
cyphostemma
cyprinidae
cypriniformes
cyprinodontidae
cyrtandra
cyrtochilum
cyrtodactylus
cyrtopogon
cyrus
czech
czerepanov
d
da
dacnusa
dacnusini
dactylorhiza
dacus
daemonorops
dagat
daget
dahl
dahlem
dahlgren
dahms
dai
dakar
dako
dakota
dal
dalbergia
dale
dalea
dalechampia
dall
dalla
dalman
dalnauka
dalton
damaeus
damalis
damo
dan
dana
daniel
danish
dans
danser
dansk
danzig
daphne
dapit
dariusz
darrel
darwiniana
das
dasch
dasineura
dasiops
dasybasis
dasychira
dasyhelea
dasyvalgus
data
database
databases
date
datos
daucus
davenport
david
davidson
davies
davis
dawson
day
db
dc
de
dead
deans
debilis
decaisne
decapod
decapoda
december
dechambre
decipiens
decock
decora
decorata
decticinae
decumbens
deeann
deeleman
deep
defaut
defined
definitions
degli
dehra
dei
dejean
del
delhi
delia
delias
delicata
delicatula
dell
della
delle
delong
delosperma
delphacidae
delphacodes
delta
deltocephalus
delucchi
dem
demange
demonax
demospongiae
den
dendrobium
dendrocerus
dendrochilum
dendronephthya
dendrophile
dendrophthora
dendropsophus
dendy
deng
denis
denkschr
denmark
dennis
densiflora
dentata
dentatus
denticulata
denton
deos
departamento
department
deposited
depressa
depressus
dept
der
derbidae
dermaptera
dermestidae
derris
dertiere
des
descamps
descoings
descr
described
descric
descripsit
description
descriptiones
descriptionibus
descriptions
descriptive
descriptorum
descritti
descrizione
desert
deserticola
desertorum
designations
designazione
desmet
desmodium
desmopachria
desutter
desvoidy
detailed
details
deutsch
deutsche
deutschen
deutschlands
deux
deuxie
development
dewalt
deyrolle
di
diadegma
diadelia
diagn
diagnosen
diagnoses
diagnosis
diagnost
diagnostycznych
diakonoff
diamant
diamantes
diamesa
diane
dianthus
diapheromeridae
diaphorus
diaporthe
dias
diaspididae
diaspidinae
diaspidini
diaspidiotus
diaspine
diastylis
dichaea
dichaetomyia
dichapetalum
dichochrysa
dichomeris
dichotomius
dickinson
dicliptera
dicranomyia
dicranophoridae
dicranota
dicrotendipes
dict
dictionary
dictyna
dictynidae
dictyopharidae
dictyoptera
dida
didemnidae
didemnum
didymocarpus
didz
die
diederich
diego
diels
dieter
dietrich
different
differentiis
difficilis
diffusa
digital
digitaria
digitata
digonogastra
diin
diksyunaryo
dilatata
dilleniaceae
dillon
dilma
dilophus
dimidiata
dimidiatus
ding
dinotrema
dioctria
dioscorea
dioscoreaceae
diospyros
diphascon
diphyus
diplazium
diplazontinae
diplopoda
diplopoden
diplopodes
diplopodorum
diplopteridae
diplotaxis
dipluridae
diplusodon
diplycosia
dipoena
dipsacaceae
dipt
diptera
dipterocarpaceae
dipterorum
dique
directory
diri
dirsh
disa
dischidia
discolor
discovered
discovery
discussion
diseases
disney
disophrys
dispar
dissimilis
distans
distant
distenia
disteniidae
distincta
distinctus
distoleon
distribution
distributions
district
distrito
disyembre
ditassa
diterrane
diteur
dition
div
divaricata
divergens
divers
diversa
diverses
diversity
divisa
divisio
division
dixa
dlabola
dmitriev
dmitriy
dmytro
do
doblies
docalidia
documents
docums
dodd
dodge
dodson
dohrniphora
doi
dolicheremaeus
dolichoderus
dolichopeza
dolichopodidae
dolichopus
dolomedes
dombeya
domin
dominguez
dominican
don
donald
dong
donie
donnell
donner
dorcadion
dordogne
doria
dorkeld
dorn
dorsalis
dorstenia
dorvilleidae
doryctinae
dos
dothideomycetes
dott
douard
doubs
douce
douglas
dov
downey
dr
draba
draconarius
dracula
draft
dragonflies
drake
drapetis
drassodes
drassyllus
dredged
drei
drepanosticta
dresden
dressler
drew
drimia
dritter
dro
drosanthemum
drosera
droseraceae
drosophila
drosophilidae
druce
drymeia
dryopteridaceae
dryopteris
drypetes
dsc
dsee
du
dubia
dubiaranea
dubius
ducke
duda
dufourea
duguetia
duha
dume
dumont
dun
dunal
duncan
dunn
durand
durante
durden
during
duro
dusona
dutch
duzee
dwight
dworakowska
dwyer
dyar
dyckia
dyer
dynastidae
dynastinae
dypsis
dysaphis
dyschoriste
dysdera
dysderidae
dysmicoccus
dysoxylum
dytiscidae
e
eacute
eades
earle
early
east
eastern
eastop
eau
eaux
eb
ebenaceae
eberhard
eburia
echeveria
echinata
echiniscus
echinodermata
echinoderms
ecnomus
ecol
ecological
ecology
econ
economic
ectobiidae
ecuador
ed
edgar
edinb
edinburgh
edipucrs
editio
edition
editions
editor
editors
edmond
edmund
edn
edred
eds
eduard
eduardo
edvard
edward
edwards
edwardsi
edwardsiana
edwin
eels
efferia
egon
egypt
egypte
ehara
ehlers
ehrenberg
ehrmann
eigenmann
eight
eilema
ein
eine
einer
einige
einiger
ek
ekman
el
elachertus
elachista
elaeagnus
elaeocarpaceae
elaeocarpus
elaphoglossum
elaphropeza
elasmobranch
elasmobranchii
elasmobranchs
elasmus
elata
elatostema
elegans
elegantula
elena
elenco
eleocharis
elephantomyia
eleutheratorum
eleutherodactylus
eleven
elfried
elias
elimia
eliott
elix
eliza
elizabeth
elke
elleanthus
ellipteroides
elliptica
ellis
ellsworth
elmer
elongata
elongatum
elongatus
elymus
elytra
em
emanuel
emarginata
embelia
emberizidae
embioptera
embrik
emden
emeljanov
emendata
emerson
emerton
emery
emig
emil
emile
emilia
emilio
emmo
emo
emphasis
empididae
empire
empis
empoasca
empoascanara
en
encarsia
encentrum
encycl
encyclia
encyclope
encyclopedia
encyrtid
encyrtidae
end
endangered
endasys
endemic
enderlein
endiandra
endlicher
endro
enemies
eneopterinae
enero
engelmann
engl
england
engler
english
enicospilus
enlumine
enne
enrico
enrique
ensifera
ensign
enslin
ent
entedon
entognatha
entoloma
entom
entomofauna
entomol
entomolo
entomologen
entomologi
entomologia
entomologiae
entomologica
entomologicae
entomological
entomologicheskoe
entomologicheskoye
entomologicke
entomologiczne
entomologicæ
entomologie
entomologique
entomologiques
entomologische
entomologischen
entomologischer
entomologisches
entomologisk
entomologist
entomology
entomophaga
entomotaxonomia
enum
enumeratio
environment
environmental
environs
eos
eosentomidae
eosentomon
eotetranychus
epeolus
ephemeroptera
ephraim
ephydridae
epicaridea
epicauta
epicr
epicypta
epidendrum
epilampridae
epilamproidea
epilobium
epiphragma
epirhyssa
er
eragrostis
eratoneura
erde
erebia
erechthias
erecta
eremophila
ergebnisse
eria
eric
erica
ericaceae
erich
erichson
ericsson
erigeron
erigone
erik
eriocaulaceae
eriocaulon
eriococcidae
eriococcus
eriogonum
erioptera
eriosema
eriospermum
eristalinus
eristalis
erl
ernest
ernst
erodium
erpe
errantia
erse
erster
eryngium
erysimum
erythranthe
erythridula
erythrina
erythroneura
erythroneurini
erythroxylum
es
esben
eschmeyer
escobar
escola
esenbeck
esenbeckia
esp
espan
espanya
espe
especes
especie
especies
espi
esq
essai
essig
estado
estados
estola
estuary
estudio
estudios
estudo
estudos
et
etc
etheostoma
ethiopia
ethiopian
ethmia
etlingera
etude
etudes
euagathis
eubazus
eucalyptus
eucera
eucharitidae
eucosma
eudistoma
eudorylas
euge
eugen
eugene
eugenia
euglossa
euglyphis
eukiefferiella
eulalia
eulechria
eulophia
eulophidae
eumastacidae
eumastacoidea
eumenes
eumenidae
eumenidi
eumerus
eunice
eunicidae
eunidia
euodynerus
euonymus
euophrys
eupelmidae
eupelmus
eupeodes
euphausiids
euphorbia
euphorbiaceae
euphoresia
euphorinae
euphranta
euphrasia
euphyia
eupithecia
euplectrus
euplexoptera
euploea
euproctis
euprosopia
eupteryx
eur
eure
eurhadina
europa
europaea
europaischen
europas
europe
european
eurya
eurytoma
eurytomidae
euseius
eustala
eustomias
euthalia
euxesta
euxoa
evaniidae
evans
evarcha
evenhuis
evers
evgenii
evich
evol
evolution
evolutionary
evolvulus
ewald
ex
exactas
excavata
excelsa
excluding
exclusive
exechia
exell
exetastes
exigua
exiguus
exilis
eximia
exocelina
exocentrus
exochus
exoprosopa
exorista
exotic
exotico
exotische
exp
expe
exped
expedition
expeditions
experiment
experimental
explor
exploration
expose
extant
extra
extremadura
ez
f
fa
fabaceae
fabricii
fabricius
fac
faculte
faculty
fagaceae
fain
fairfield
fairmaire
falcata
fall
fallax
fallen
false
fam
familia
familiarum
familie
familien
families
famille
familles
family
fan
fang
fannia
fanniidae
fao
far
faramea
farfante
fargeau
farjon
fasc
fasciata
fasciatus
fasciculata
fascicule
fauchald
fauna
faunae
faunal
faune
fauni
faunistic
faunistica
fauny
fautin
fauvel
favret
fbva
fe
fea
feb
february
fed
fedde
feddes
federal
federated
fedotova
fedtschenko
feeding
felder
felix
felt
female
femoralis
fenestrata
feng
fenn
fennah
fenner
fennica
fer
ferdinand
fern
ferna
fernald
fernandes
fernandez
fernando
ferns
ferox
ferrara
ferraris
ferreira
ferrero
ferris
ferruginea
ferrugineus
ferula
festschrift
festuca
few
ffer
fi
fica
fico
ficus
fide
fidena
fieber
field
fieldiana
fig
figs
figure
figures
fiji
fil
file
files
filiformis
filipes
filippo
film
fimbriata
fimbristylis
finali
fines
finland
fiorinia
firenze
first
fisch
fischer
fischeri
fish
fishbase
fisher
fisheries
fishery
fishes
fishing
fisicas
fitch
five
fixation
fl
flatidae
flatiden
flava
flavescens
flavicornis
flavida
flavipennis
flavipes
flaviventris
flavus
fleas
fletcher
flexuosa
flies
flint
flora
florae
flore
flores
florestal
floribunda
florida
floridana
floridanus
floridensis
flow
fly
fo
foddai
foerster
foldi
folia
foliosa
fond
fondamental
fontana
food
for
forbes
forcipomyia
forel
forening
forest
forestry
forests
forficulidae
formerly
formes
formica
formicidae
formosa
formosana
formosanus
formosus
forms
forrest
forsch
forschungsreise
forsok
forst
forster
forstlichen
forstlicher
fortsetzung
fosberg
fossil
foster
found
foundation
four
fourth
fowler
fox
fr
fra
fragilis
fragm
fragmenta
fragrans
franc
francaise
france
franch
franche
franchet
francis
francisco
franco
francois
frangile
frank
frankfurt
franklin
fransya
franz
fraser
fraterna
fre
frea
fred
frederic
frederick
frederico
frederik
free
freeman
french
fresh
freshwat
freshwater
freunde
frey
freycinetia
freyhof
freytag
fricke
friedrich
fries
friese
frison
fritillaria
fritz
frodin
froeschner
froese
froggatt
from
frontalis
frontispice
frost
fruhstorfer
fruit
fruticosa
fryxell
fu
fuchsia
fuckel
fujian
fulgens
fulgoridae
fulgoroidea
fulgoromorpha
fuliginosa
fuller
fulva
fulvipes
fulvus
fumipennis
funebris
fung
fungi
fungorum
funkhouser
funna
fur
furcata
furcatus
further
fusarium
fusca
fuscipennis
fuscipes
fuscus
fusiformis
fuzetek
fversigt
g
ga
gabon
gabriel
gadiform
gadiformes
gagea
gagne
gagnep
gagnepain
gahan
gainesville
gajbe
galactia
galapagos
galeodes
galiano
galicia
galileo
galium
gall
gallut
galumna
galumnidae
gamble
gams
ganoderma
garay
garci
garcia
garcinia
gard
garden
gardenia
gardens
gardner
gardneri
gargara
garonne
garra
gart
gary
gastrancistrus
gastropoda
gastrotricha
gates
gattung
gattungen
gauld
gaultheria
gaurax
gay
gayle
gaz
gazette
gbif
gdn
ge
gebiete
gebietes
geburtstage
geer
geissorhiza
gekkonidae
gelabert
gelechiidae
gelis
gemminger
gen
gene
genera
general
generale
genere
generi
generic
genero
generum
geneve
geniculata
genista
genitalia
genootsch
genootschap
genova
genre
genres
gentiana
gentianaceae
gentianella
gentry
genuina
genus
geobot
geodia
geoffrey
geoffroy
geogr
geographic
geographical
geographie
geological
geology
geometridae
geophilidae
geophilomorpha
geophilus
georg
george
georges
georgia
geotrupidae
ger
gerais
geraniaceae
geranium
geranomyia
gerhard
germain
german
germany
germar
geron
gers
gerstaecker
gertsch
ges
gesammelt
gesammelten
gesellsch
gesellschaft
gesneriaceae
geum
ghana
ghosh
giacomo
gibbosa
gibbs
gibson
gica
gicas
gico
gide
giesbert
gigantea
giganteus
gigas
giglio
gihapon
gilbert
gilg
gill
gillet
gillett
gillette
gilmour
gin
ginbahin
ginhatag
ginhimo
ginhipos
ginhulagway
ginklasipika
ginkuha
gion
gionale
giordani
giovanni
girard
girault
gironde
giuseppe
glaber
glabra
glabrata
glabrescens
glacialis
gladiolus
glandulosa
glaphyra
glasby
glauca
glaucescens
gleason
glenea
gli
global
globba
globis
globosa
glochidion
glomera
glomerata
glomeris
glossosoma
glossosomatidae
glycaspis
glycera
glycyphana
glypta
glyptothorax
gmelin
gmina
gnamptogenys
gnaphosa
gnaphosidae
gnaphosoidea
gnathia
gnato
gnidia
gnophomyia
gnophos
go
gob
gobiidae
gobyerno
godfrey
godman
godoy
goera
goerodes
goetghebuer
goldblatt
golfe
golovatch
gomesa
gomez
gomphidae
gomphocerinae
gomphodesmidae
gonatocerus
goniothalamus
gonolobus
gonomyia
gontscharov
gonza
gonzalez
goodenia
goodeniaceae
goodyera
google
gopher
gordon
gorochov
gorton
gory
goryphus
gosse
gottfried
gottlieb
gould
gounelle
goux
govaerts
government
gracile
gracilipes
gracilis
gracillariidae
gracillima
graf
graham
granados
granara
grandcolas
grande
grandiflora
grandifolia
grandis
granger
grant
granulata
granulatus
granulosa
graphics
graphidaceae
graphium
graptomyza
grasshopper
grasshoppers
gravenhage
gravenhorst
gray
graz
great
greece
green
greene
greenland
gregoriano
gregory
grenadiers
gressitt
gressitti
gressoria
greuter
grevillea
grewia
griffini
griffithii
griffiths
grimaldi
gripopterygidae
grisea
griseb
grisebach
grisescens
griseus
grissell
griswold
grootaert
grossheim
grosso
ground
group
groupe
groups
grove
grube
grupo
gruppe
gruyter
gryllacriden
gryllacrididae
gryllacris
gryllidae
gryllides
gryllinae
gryllini
grylloidea
gryllomorphini
grylloptera
gryllotalpidae
gryllus
grymnogryllini
gryon
gsater
gsd
gsds
gu
guadalajara
guadeloupe
guam
guangxi
guangzhou
guatemala
guatemalensis
guatteria
gud
gue
guettarda
guglielmone
guia
guiana
guianensis
guide
guides
guidetti
guido
guilherme
guillarmod
guillaume
guillaumin
guine
guinea
guineensis
gulf
gullan
gummi
gunnar
guo
gupta
gurney
gusarov
gusenleitner
gustaf
gustav
gustavo
guttata
guy
guyana
guyane
guzmania
gymnosporia
gymnothorax
gynacantha
gynoplistia
gypona
gypsophila
h
ha
haan
habana
habenaria
habermehl
habits
habronattus
habrotrocha
hackel
hadena
hadi
hadton
haemaphysalis
haematopota
hafniae
hagan
hagen
hague
hahnia
hahniidae
hainan
hainanensis
haines
haiti
hakea
haldeman
hale
halecium
halichondria
haliclona
halictidae
halictus
haliday
hall
halle
hallier
hamata
hamburg
hamburger
hamburgischen
hamilton
hamlett
hammer
hampshire
hampson
han
hance
hancock
hand
handb
handbook
handbuch
handl
handlingar
hanitsch
hanley
hans
hansen
hanson
hansson
haplochromis
hapon
hara
harani
harbin
hardy
harling
harmothoe
harms
harold
harpactea
harpagophoridae
harpalus
harris
harrison
harry
hart
harten
hartley
hartman
hartmann
hartmeyer
harv
harvard
harvey
harz
has
hastata
hatch
haut
haute
hautes
hawaii
hawaiian
hawaiiensis
haworth
haworthia
hayashi
hayat
hayata
hayden
hayward
he
hebard
hebei
hedqvist
hedwigia
hedychium
hedyotis
hedysarum
heemstra
heft
hefte
heikki
heinrich
heinz
helena
helenae
heleomyzidae
helianthemum
helichrysum
helicia
heliconia
heliconius
helicopsyche
helictotrichon
helina
heliophanus
heliophila
heliotropium
helius
heller
helmut
helotiaceae
helotiales
help
hem
hemerobiidae
hemerobius
hemerodromia
hemidactylus
hemimeridae
hemipt
hemiptera
hemisphere
hempel
hemsl
hemsley
henckelia
hendel
henderson
hendrik
hennemann
hennig
hennings
henrard
henri
henrik
henry
henryi
hentschel
hentz
heptapteridae
her
heracleum
herausgegeben
herb
herbert
hercostomus
heriades
hering
herman
hermann
hermannia
hernandez
herpetofauna
herpetological
herpetology
herre
herrich
herrings
herrn
hervy
hesionidae
hesperiidae
hesse
het
heteralonia
heterochelus
heteronyx
heterophylla
heteropoda
heteroptera
heteropterys
heterospilus
hewitt
hexacorallians
hexacorals
hexatoma
heyer
heywood
hi
hibbertia
hibiscus
hieracium
hiern
hierodula
hieronymus
higgins
high
hil
hilara
hilarempis
hilaris
hilbig
hilgardia
hill
hille
hilliard
hills
himalaya
himalayensis
himenopteros
hin
hind
hini
hipo
hippa
hippeastrum
hippoboscidae
hippolyte
hira
hiroshi
hirsuta
hirsutus
hirta
hirtella
hirtodrosophila
hirtz
his
hispaniola
hispida
hist
hister
histeridae
histeroidea
histoire
historia
historical
historico
history
hit
hitchcock
hitherto
hiton
hiya
hjalmar
hjortstam
hler
hn
hner
ho
hobbs
hochberg
hochstetter
hockeria
hodgson
hoehne
hoese
hoffer
hoffman
hoffmann
hoffmannia
hofmuseums
hogna
hokkaido
holl
hollis
holm
holmgren
holmiae
hololepta
holorusia
holothuroidea
holotrichia
holstein
holthuis
holtt
holub
holzschuh
hom
homalium
homalomena
home
homoneura
homopt
homopte
homoptera
homopteren
homopterous
honduras
hong
hongchang
honolulu
hood
hook
hooker
hookeri
hooper
hope
hopea
hopkins
hoplia
hoplitis
hoplopleura
hopper
horace
horae
horak
horn
horned
horrida
horst
horstmann
hort
horti
horticulture
horton
host
hosts
hot
hottes
hou
houghton
house
housed
hovore
how
howard
howden
howell
hoy
hoya
hr
hsia
hsu
htm
html
http
https
hu
hua
huang
hub
hubbard
huber
hubert
huckett
hucusque
hudson
hugh
hughes
hugo
hui
hull
hulyo
human
humbert
humbertii
humboldt
humeralis
humilis
hunan
hung
hungarian
hungarica
hungaricae
hungarici
hungary
hunt
hunter
hunyo
hurd
hureau
hutchings
hutchinson
hutton
hyalina
hyalonema
hyaloscyphaceae
hybanthus
hybomitra
hybos
hybosoridae
hybotidae
hydaticus
hyde
hydnophytum
hydractinia
hydraena
hydraenidae
hydrellia
hydrobiologia
hydrobiologica
hydrobiosidae
hydrocotyle
hydroides
hydrophiidae
hydrophilidae
hydrophiloidea
hydrophorus
hydroporus
hydropsyche
hydropsychidae
hydroptila
hydroptilidae
hydrotaea
hydrovatus
hydrozoa
hygrophila
hylaeus
hylarana
hylidae
hyllus
hym
hyme
hymedesmia
hymenochaetaceae
hymenochaete
hymenophyllaceae
hymenophyllum
hymenoptera
hymenopteren
hymenopteres
hymenopterorum
hymenopterous
hypena
hyperaspis
hypericaceae
hypericum
hyperolius
hyphessobrycon
hypochthonellidae
hypoestes
hypogastrura
hypogastruridae
hypoponera
hyposoter
hypostomus
hypotrachyna
hypoxis
hypoxylon
hypsibiidae
hypsiboas
hysteropterum
hystrichopsyllidae
hystrix
i
ian
iba
ibe
iberica
ibidionini
ic
ice
ichneumon
ichneumonen
ichneumonid
ichneumonidae
ichneumoniden
ichneumonides
ichneumoninae
ichneumonoidea
ichneumonologia
ichneumonologica
ichthyol
ici
icon
id
idaea
identification
identity
idiocera
idiocerus
idiops
idris
ifan
ig
ignacio
ignatz
ignaz
igor
ihap
iheringia
ihre
ii
iii
ika
ikaduha
ikalima
ikatulo
il
ilarom
ildis
ile
iles
ilex
ilina
ill
ille
illies
illiesia
illiger
illinois
illustr
illustrata
illustrated
illustrations
ilyich
im
imajima
imbricata
immaculata
immature
imp
impatiens
impe
imperial
imperiale
imperyo
impormasyon
importance
important
impressum
imprimerie
in
inaequalis
inc
incana
incerta
incertae
incertus
incisa
incl
included
including
inconspicua
ind
inde
indes
index
india
indian
indiana
indias
indica
indicus
indien
indies
indigofera
individual
indo
indochina
indonesia
indre
industrial
industry
indya
inermis
infesting
inflata
inform
information
inga
ingram
ingrisch
inhabiting
ini
iningles
injurious
inland
inocybe
inornata
inornatus
inostemma
inra
ins
inscitiae
insect
insecta
insecten
insectes
insectorum
insectos
insects
insecutor
insekten
insektenbiologie
insektenfamilie
insel
inseln
insetos
insetti
insignis
insolita
inst
institut
instituta
institute
institution
instituto
instituts
insularis
int
integrated
interactive
interest
interesting
intermedia
intermedium
intermedius
international
internet
interrupta
interruptus
into
introduced
introduction
invalid
inventaire
inventory
invertebr
invertebrata
invertebrate
invertebrates
investigations
ioc
iopi
iowa
ipakita
iphiaulax
ipni
ipomoea
ira
iran
iranica
iraq
iredale
ireland
irena
iridaceae
iris
irregularis
irwin
is
isaac
isabel
isachne
isbn
ischen
ischnochiton
ischnochitonidae
ischnoptera
ise
ishii
isidore
isla
island
islands
islas
isles
isnb
isoetes
isohypsibius
isomyia
isonychus
isoperla
isophya
isopod
isopoda
isopoden
isopodes
isopods
isotomidae
israel
issidae
issue
istanbul
istituto
it
ital
italia
italian
italiana
italiane
italiano
italochrysa
italy
italya
itatiaia
ithaca
itinere
itis
ito
iton
its
iucn
iulis
iv
ivan
ivanovich
ivanovitsch
ivie
ivoire
ivory
iwamoto
ix
ixodes
ixodida
ixodidae
ixora
iya
izvestiya
j
ja
jaap
jack
jackson
jacob
jacobi
jacobson
jacobsoni
jacobus
jacot
jacq
jacquemontia
jacques
jacquin
jago
jahrb
jahrbu
jahrbuch
jahre
jahren
jakob
jamaica
jamaicensis
james
jan
janeiro
jangoux
janson
january
jap
japaga
japan
japanese
japanische
japans
japonica
japonicus
jard
jaroslav
jason
jatropha
java
javana
javanica
jb
je
jean
jeekel
jeff
jeffrey
jena
jennifer
jensen
jersey
jerusalem
jerzy
jesus
jhingran
ji
jiang
jin
jirkov
jl
jnict
jo
joa
jocque
johan
johann
johannes
johannsen
john
johns
johnson
johnsoni
johnston
jonathan
jones
jong
joppa
jordan
jose
josef
joseph
jour
jourbook
journ
journal
joyce
jr
ju
juan
judson
jules
julian
julidae
julien
julius
julus
july
jumping
juncaceae
juncus
june
junior
junk
jura
jusqu
jussieu
justicia
k
ka
kababarak
kabahin
kabisay
kag
kahoronan
kai
kaiserlich
kaiserlichen
kalanchoe
kalawdan
kalayaan
kalb
kalendaryo
kalibutan
kaltenbach
kalyptorhynchia
kamerun
kamijo
kan
kanan
kanda
kane
kannedom
kansas
kapital
karat
karel
karg
karl
karling
karny
karrer
karsch
karsten
karuhaan
karyotype
kasawangan
kasparyan
kaszabi
katalog
kataloge
katapos
katawhan
katherine
kato
katoliko
katundan
katydid
katydids
kavkaza
kawai
kay
kazakhstan
keay
keirans
keith
kelly
kendrick
kenneth
kenntnis
kenntniss
kennzeichnung
kensley
kenthal
kenya
kermes
kermesidae
keroplatidae
kerrich
kertesz
kessler
kevan
kevin
kew
key
keys
keyserling
khan
kieffer
kiev
kilalado
kiliae
kilimandjaro
killip
kim
kimmins
kinabalu
kinatsila
kinberg
king
kingdom
kirby
kiril
kirk
kirkaldy
kiser
kl
kladograma
klapa
klase
klasse
klaus
klimaszewski
klotzsch
klug
kluwer
km
knight
knowledge
knowlton
known
knull
knuth
ko
kobayashi
koch
koehler
koehne
koeltz
kokujev
kolbe
koleopterologische
kologie
komarov
komo
komunidad
komyun
kon
kong
kongl
kongliga
koninklijk
koninklijke
konowia
kontyu
korea
korean
kos
koste
kosterm
kostermans
kostjukov
kosztarab
kota
koteja
kott
kottelat
koyama
koza
kozlov
kraatz
krabbe
kraenzl
kraenzlin
krakow
kral
kramer
krapovickas
kraus
krause
krauss
kreis
kriechbaumer
krieger
krikken
krishna
kristian
kroasya
krober
krombein
krug
krupp
krypt
ku
kuijt
kulang
kulczynski
kullander
kumar
kumata
kun
kundi
kungliga
kunkel
kunth
kuntze
kunze
kurt
kurtzman
kurz
kusigemati
kussakin
kutob
kuwana
kybos
kze
l
la
lab
labeo
laboratorio
laboratory
laboulbeniaceae
labridae
lac
laccophilus
lacertidae
lachenalia
lachner
lacordaire
lacroix
lacustris
ladislaus
laeta
laevigata
laevis
lake
lalawigan
lallemand
lam
lamarche
lamarck
lamb
lambers
lambert
lambillionea
lameere
lamellicorn
lamellicornes
lamellicornia
lamiaceae
lamiaires
lamiales
lamiidae
lamiidæ
lamiinae
lamponidae
lampranthus
lanata
lancaster
lance
lanceolata
land
landes
lane
lang
lange
langerhans
langes
language
languedoc
lanka
lankesteriana
lansberge
laos
laphria
laporte
large
lars
larsen
larson
larvae
las
lasalle
laserpitium
lasianthus
lasioglossum
lasioptera
lasius
last
lat
lata
late
lateralis
lathyrus
laticeps
latifolia
latifrons
latin
latipennis
lato
latr
latreille
latus
laubenfels
lauraceae
laurence
laurent
laurentii
lauterbach
lauxaniidae
lawrence
laxa
laxiflora
lazio
ldl
le
lea
leach
lead
leader
leaf
leafhoppers
leafl
leandra
leandri
lebbe
lecane
lecanidae
lecanodiaspis
lecanora
lecanoraceae
lechevalier
lecomte
leconte
lectotipi
lectotype
lectotypes
lecythidaceae
ledebour
ledovitogo
lee
leech
legrand
legumes
legumineuses
leguminosae
lehmann
lehr
leia
leiden
leif
leiophron
leioproctus
leipzig
leita
leitao
lek
lemann
leme
lendenfeld
leng
leningrad
lentibulariaceae
leo
leon
leonard
leonardi
leonardo
leone
leonhard
leopold
leotiomycetes
lepadella
lepanthes
lepeletier
lepesme
lepida
lepidagathis
lepidiota
lepidium
lepidodexia
lepidonotus
lepidoptera
lepidosaphes
lepidostoma
lepidostomatidae
lepindex
leporinus
leptacis
leptataspis
lepthyphantes
leptocentrus
leptocera
leptoceridae
leptocerus
leptochilus
leptochiton
leptoconops
leptodactylus
leptogaster
leptogenys
leptogium
leptogorgia
leptonema
leptospermum
leptosphaeria
leptotarsus
leptothorax
leptotyphlops
lepturges
lepturinae
ler
lerista
leroy
les
leslie
lesne
lessert
lestes
lestin
lestodiplosis
lethrus
letters
lettres
leucandra
leucania
leucauge
leucocelis
leucochrysa
leucophenga
leucopis
leucopogon
leucospis
leucothyreus
leuctra
leuctridae
leur
leurs
level
levi
levis
lewis
leyden
leyte
lez
lfte
li
lia
liacarus
liang
lias
liaslight
liasnames
libellulidae
libnotes
librairie
library
licania
lice
lich
lichenized
lichenol
lichenologistvol
lichtenstein
licuala
lides
lie
liebermann
liede
lieferung
lieftinck
life
ligusticum
ligyra
like
liliaceae
liliopsida
lilium
lilloa
lilloana
lily
lim
lima
limacodidae
limbata
limburg
limenitis
liminaire
limitrophes
limnebius
limnephilidae
limnephilus
limnichidae
limnophila
limnophora
limnophyes
limonia
limoniidae
limonium
limosina
limousin
lin
linaria
lincei
lincoln
lindau
linden
linder
lindinger
lindl
lindley
lindleyana
lindner
lindsaea
line
linearifolia
linearis
lineata
lineatus
lineus
ling
lingnan
link
linn
linnaea
linnaemya
linnaeus
linnavuori
linne
linnean
linsley
linum
linyphiid
linyphiidae
linzer
lio
liocranidae
liolaemus
liparetrus
liparidae
liparis
lipotriches
lipsiae
liriomyza
lisboa
lisbon
lispe
lispocephala
lissodendoryx
lissonota
list
lista
listados
liste
lists
literature
lithobiidae
lithobiomorpha
lithobius
lithocarpus
lito
litoralis
litoria
litsea
litsinger
little
littoral
littoralis
liu
liv
liverpool
living
liwat
lix
lixus
lizard
lizards
ll
ller
lloyd
lloydia
lma
lo
lobanov
lobata
lobelia
localities
locis
locust
locustidae
locusts
lodovico
loesener
loew
loganiaceae
logo
logunov
loi
loir
loire
lokal
lomaptera
lombardiya
lonchaea
lonchaeidae
lonchocarpus
lonchodini
lond
london
londt
long
longchamps
longhorned
longicauda
longiceps
longico
longicollis
longicorn
longicornes
longicornia
longicornis
longiflora
longifolia
longipennis
longipes
longirostris
longispina
longo
longworth
lonicera
loomis
lopes
lopez
lophodermium
loranthaceae
lord
lorenz
loricariidae
lorraine
los
lot
lotononis
lotto
lotus
louis
lousebase
love
lower
lowry
loxosceles
ltd
lu
luc
lucas
lucena
lucida
lucien
lucilia
lucjan
ludwig
luer
lugar
lugubris
luigi
luis
luiz
lumbricillus
lumbrineridae
lumbrineris
lumbsch
lund
lundae
lundell
lupinus
lutea
luteola
lutescens
luteus
luteyn
luther
lutzomyia
luzula
lxviii
lyangouzov
lycaena
lycaenidae
lycianthes
lycium
lycophytes
lycoriella
lycosa
lycosidae
lygosoma
lyman
lymantriidae
lynch
lyneborg
lyon
lyons
lysandra
lysimachia
lyssomanes
lythraceae
lzel
m
ma
maas
mabibilngan
macaranga
macbride
macfie
macgillivray
machado
machaerium
machilus
machimus
machine
macleay
macquart
macrantha
macrobiotidae
macrobiotus
macrobrachium
macrocarpa
macrocarpaea
macrocentrus
macrocera
macrodactylus
macromia
macrophylla
macropsis
macrosiphoniella
macrosiphum
macrostemum
macroteleia
macrouridae
maculata
maculatus
maculipennis
maculosa
madagasca
madagascar
madagascariensis
made
madeira
madhuca
madison
madrid
maechidius
maesa
mag
magasin
magazin
magazine
magellanes
magna
magnifica
magnolia
magnoliopsida
magnus
maguire
mah
mahanungod
mahendra
mahunka
maiden
main
maine
mainly
maint
maire
major
makino
malabarba
malacostraca
maladera
malawi
malaxis
malay
malayan
malayana
malayischen
malaysia
malaysian
malcolm
maldanidae
male
males
malesi
malesia
malgache
mali
malicky
malloch
mallophora
mallotus
malme
malmgren
malpighia
malpighiaceae
malvaceae
mamaev
mamet
mammal
mammalia
mammalian
mammals
mammillaria
man
management
mancha
manche
mandevilla
manettia
manfred
mangulo
mani
manihot
manila
mann
manning
manota
mant
mantidae
mantispa
mantispidae
mantissa
mantodea
mantodeasf
manual
manuel
manunurat
manuscript
mao
map
mar
marantaceae
marasmiaceae
marc
marcel
march
marchant
marco
marcus
mare
margaret
margarinotus
margarodidae
marginalis
marginata
marginatus
mari
maria
mariae
marian
marie
marina
marine
mario
maritima
maritime
marius
mark
markgr
markham
markle
marlierea
marmorata
marmoratus
marne
maroc
marotta
marsdenia
marseille
marseul
marsh
marshall
marshalli
marso
mart
martelli
martens
martha
marti
martin
martinez
martini
martins
martius
martynov
marullo
marusik
mary
maryland
mas
masao
masaridae
masaridi
mascareignes
mascarene
masdevallia
masi
maskell
mason
masovya
mass
massa
massachusetts
massee
mast
masters
masuda
masunod
mate
matelea
material
materials
math
mathematisch
mathis
matile
matique
mato
matsumura
matsumurana
matthews
maucci
maurice
maurie
mauritius
maurits
max
maxillaria
maxillopoda
maxim
maxima
maximilian
maximowicz
maxon
maxwell
may
mayda
mayflies
mayfly
mayo
mayr
maytenus
mazur
mazz
mcallister
mcalpine
mccoy
mcdiarmid
mcintosh
mckamey
mckenzie
mclachlan
mcmurtry
mcvaugh
me
mealy
mealybug
mealybugs
mecistocephalus
mecklenburg
meconematinae
mecoptera
med
meddelelser
meded
mededelingen
medetera
media
mediae
medicago
medical
medina
medinilla
mediterranea
mediterranean
medler
medvedev
meeres
meetings
megachile
megachilidae
megalopodidae
megaloptera
megapodagrionidae
megaselia
megastigmus
mehiko
meigen
meijere
meillon
meinander
meinert
meioneta
meisner
meissn
melaleuca
melaloncha
melanagromyza
melanaspis
melander
melanoplinae
melanoplus
melastomataceae
melbourne
meliaceae
melica
melichar
melicope
meliosma
melissodes
melitaea
melle
mello
melnet
melo
meloidae
melolonthidae
melolonthiden
melolonthini
melzer
mem
membracidae
membracoidea
membranacea
memecylon
memoir
memoire
memoires
memoirs
memorias
memorie
menemerus
menezes
menon
menor
menstruus
ment
mentzelia
menzies
mer
mercet
mergus
meriania
meridionale
meridionalis
merionoeda
merodon
meromyza
merosargus
merr
merremia
merrill
meru
meruliaceae
mesa
mesembr
mesembryanthemum
mesnil
mesoamerica
mesochorinae
mesochorus
mesoleius
mesoleptus
mesopolobus
mesorhaga
mesosa
mesostigmata
messor
metallica
metaphycus
metastelma
metazygia
metcalf
meteorus
meth
metopius
metriocnemus
meurthe
meuse
mex
mexican
mexicana
mexicanus
mexico
mey
meyer
meyeri
meyrick
mez
mga
micans
micaria
micas
mich
michael
michaelsen
michel
michener
michigan
mickel
miconia
micrantha
micrathena
micro
microcarpa
microchelonus
microchilus
microcionidae
microdon
microentomology
microgaster
microhylidae
microinvertebrates
microlepidoptera
microlicia
micromus
micronesia
micronesian
micropezidae
microphylla
microplitis
micropsectra
microserica
microstylum
microterys
middle
midi
midl
midland
mie
miers
mifflin
migeon
miguel
miiz
mikania
mikhail
milano
mile
miles
mill
millenium
miller
milleri
millettia
millidge
millipede
millipedes
milne
miltogramma
mimela
mimosa
mimosaceae
minas
minelli
minettia
minima
minimus
ministe
ministry
minnesota
minor
minoru
minturn
minuartia
minus
minuscula
minuta
minutissima
minutus
mipte
miq
miquel
mira
mirabilis
miranda
miridae
misc
miscellanea
miscellaneous
mischocyttarus
mishchenko
miss
mission
missione
mississippi
missouri
misumenops
mit
mitchell
mite
mites
mitsuhiro
mitt
mitteilungen
mitteleuropa
mitteleuropas
miturgidae
mixta
mktg
mm
mme
mniej
mo
mochokidae
modern
modesta
modestus
modicogryllus
mogoplistidae
mogoplistinae
mohammad
mohrig
moire
moires
moirs
moldenke
molecular
molgula
mollis
mollusca
mollusks
molophilus
momoi
monachii
monaco
monde
mongolia
mongolica
monhystera
monne
monnina
monniot
monochamus
monog
monogononta
monogr
monografia
monografieen
monograph
monographia
monographiae
monographic
monographie
monographs
monohelea
monomorium
monro
mont
montana
montanum
montanus
monthly
monticola
montipora
moore
moorei
mor
moraceae
moraea
moraes
morales
moran
morawitz
mordecai
mordellidae
mordellistena
more
moreira
morel
morgan
moriarty
morillo
morinda
moritz
morley
mormyridae
morocco
moron
morpho
morphological
morphologie
morphology
morris
morrison
morse
mortensen
morton
moscou
moscow
moselle
mosely
moser
moskva
mosqua
most
mostly
motschulsky
mound
mount
mountain
mountains
moure
mouriri
mowd
mozambique
mr
mrac
mt
mtv
mu
mucronata
mucuna
muell
mueller
muelleri
muesebeck
muhammad
muhlenbergia
muir
mulhouse
muller
mulsant
multiflora
multiple
muma
munchen
munda
mundi
munich
munisipalidad
munisipyo
munnopsidae
munro
muraltia
muricata
muridae
murina
murray
murrill
mus
musca
muscidae
muse
musea
musee
musei
museo
museu
museum
museums
mushi
music
mussaenda
musser
mutabilis
mx
my
myanmar
myartseva
mycale
mycalesis
mycena
mycetophila
mycetophilidae
mycodrosophila
mycol
mycologia
mycomya
mycosphaerella
mycosphaerellaceae
mycotaxon
mycotaxonvol
myctophidae
mydaea
mydidae
myers
mykol
myllocerus
mymaridae
myndus
myosotis
myospila
myotis
myrcia
myriapod
myriapoda
myriapoden
myriapodes
myriopoda
myriopoden
myristica
myristicaceae
myrmarachne
myrmecia
myrmecophilinae
myrmeleon
myrmeleontidae
myrmica
myrsine
myrtaceae
mysida
mysidae
mysidia
mythicomyia
myzostoma
myzostomida
møller
n
na
nac
nach
nachrichten
nachrichtenblatt
nachtr
nachtrag
nacional
nad
nadudultan
nag
nagin
naglalakip
nagtikang
nahabilin
nahamutang
nahilalakip
nakahara
nakai
nakalista
nal
nam
name
named
namen
names
namibia
nana
nangangarat
nannastacidae
nanophyes
nanus
napoli
napp
napulo
narcissus
narendran
narita
nasa
nash
naskrecki
nasod
nasuta
nat
natal
natalensis
natawo
nathaniel
nation
national
nationale
nationalis
native
natl
natn
natu
natur
naturae
natural
naturale
naturales
naturali
naturalist
naturaliste
naturalistes
nature
naturelle
naturelles
naturels
naturf
naturforschenden
naturforschender
naturgeschichte
naturh
naturhist
naturhistorischen
naturhistorisches
naturhistorisk
naturk
naturkunde
naturw
naturwiss
naturwissenschaften
naturwissenschaftliche
naturwissenschaftlichen
naturæ
natuurhist
natuurhistorisch
naubos
naudin
nauk
nauka
naukowe
nava
navas
navia
nch
nchen
nchez
ncias
nd
ndez
ne
neal
near
nearctic
nearctica
nebraska
nebst
nebulosa
necrosciini
nectandra
nectarinia
nectria
nectriaceae
ned
nederlandes
nederlandse
needham
neerl
neerup
nees
neglecta
neglectus
negli
negrobov
neighbouring
neivamyrmex
nel
nella
nelson
nematoda
nematomorpha
nemertae
nemertea
nemertina
nemertini
nemesia
nemesiidae
nemobiini
nemotelus
nemoura
nemouridae
neobisiidae
neobisium
neoconocephalus
neoempheria
neolasioptera
neolitsea
neolophonotus
neomochtherus
neopanorpa
neoperla
neoregelia
neoscona
neoseiulus
neoserica
neotrichia
neotro
neotrop
neotropica
neotropical
neotropicale
neotropischen
nepal
nepalensis
nepenthes
nephrotoma
nephtheidae
nepticula
neptis
neptosternus
neptune
nereididae
nereis
nero
neros
nervosa
nesticus
net
netelia
netherlands
network
neu
neubeschreibungen
neue
neuen
neuer
neurigona
neuro
neuroleon
neuroptera
neuropteren
neuropterida
neuropteroid
neuropteroidea
nevada
nevadensis
neville
new
newly
newm
newman
news
newsletter
newstead
newton
nez
nf
ng
nga
ngadto
ngan
ngaran
ngel
nguyen
nherr
nhm
ni
nicaragua
nicholas
nickle
nicolai
nicolas
nicolaus
nicolson
nie
niedbala
niedersachsen
nielsen
nielson
niem
niger
nigeria
nigl
niglich
niglichen
nigra
nigrescens
nigricans
nigriceps
nigricornis
nigrifrons
nigripennis
nigripes
nigrita
nigriventris
nigrum
niisato
nijhof
nikolai
nikolaus
nil
nilsson
nimba
nine
nipponica
nira
nishida
nitens
nitida
nitidus
nitra
nivalis
nivea
nixon
niya
nizinski
nky
nn
no
nobilis
nobyembre
nocticolidae
noctuidae
nodc
nodosa
nogrady
noguera
noire
nom
noma
nomada
nomen
nomenclator
nomenclatural
nomenclature
nomia
nomina
nompar
non
nonfried
nopte
nord
nordic
norenburg
normal
norman
normandie
norops
norris
norte
norteame
north
northeastern
northern
northwest
northwestern
norton
noruega
norway
nos
not
nota
notabilis
notas
notata
notatus
note
notes
nothoblattidae
notice
notiphila
notizbl
notodontidae
notommatidae
notophthiracarus
nototriche
notropis
notul
notulae
nouv
nouveau
nouveaute
nouveaux
nouvelle
nouvelles
nov
nova
novae
novarum
novas
november
novi
novit
novitates
novo
novon
novos
novosti
noyes
nr
nther
nu
nuda
nueva
nuevas
nuevo
nuevos
number
nunomura
nuova
nuove
nuovi
nuovo
nupserha
nutans
nuttall
nuytsia
nwards
ny
nya
nyctemera
nylander
nymphalidae
nymphon
nzib
o
oakes
obadiah
oberea
obereopsis
oberonia
obesa
oblast
obliqua
oblonga
oblongifolia
obovata
obozr
obozrenie
obozreniye
obozrenye
obscura
obscurus
observ
observationibus
observations
obshch
obshchestva
obsoleta
obtusa
occ
occas
occasional
occidentale
occidentales
occidentalis
occur
occurring
oce
ocean
oceanogr
ocellata
ocellatus
och
ochi
ochnaceae
ochoa
ochracea
ochrotrichia
ochthebius
oclc
ocotea
oct
octave
october
octomeria
octopoda
octopus
oculata
ocyptamus
oder
odoardo
odonata
odonates
odonatologica
odontocera
odontomyia
odontopygidae
odore
odostomia
odynerus
oecanthidae
oecetis
oecophoridae
oedipodinae
oenanthe
oenothera
of
off
office
official
officina
ofversigt
og
ogcodes
ohashi
ohaus
ohbayashi
ohio
ohwi
ois
oise
okada
okeana
oklahoma
oktubre
ol
ola
old
oldenlandia
oldroyd
ole
olesicampe
oliarus
oligochaeta
oligomyrmex
oligonychus
oligosita
olios
oliv
olivacea
olivaceus
olive
oliveira
oliver
olivier
olof
ologamasidae
ologamasidbase
om
oman
ommata
ommatius
omnes
omphale
on
onagraceae
oncideres
oncidium
oncostemum
one
onesia
onitis
online
ono
onobrychis
onosma
ontario
onthophagides
onthophagus
onuphidae
onuphis
onychophora
ooencyrtus
oonopidae
oosterbroek
op
opaca
open
opera
ophiacantha
ophiacanthidae
ophichthidae
ophidiiform
ophiomyia
ophion
ophioninae
ophiorrhiza
ophiothrix
ophiuridae
ophiuroidea
ophrys
opiinae
opisyal
opius
opogona
oppiidae
opredelitel
opredeliteli
opte
opuntia
opuscula
or
orb
orbigny
orbiniidae
orchard
orchid
orchidaceae
orchids
orconectes
order
orders
ordines
ordnung
ordo
ordre
oregon
oreocharis
oreodera
oreogrammitis
oreopanax
orfelia
org
organised
organisms
organization
orgilus
oribatella
oribatida
oribatula
orient
oriental
orientale
orientales
orientalis
orientalischen
origin
original
orihinal
orimarga
ormerod
ormosia
ormyrus
ornata
ornatus
orne
ornebius
ornithogalum
ornithologists
orobanchaceae
orobanche
orphnus
orquideologia
orrell
orsodacnidae
orstom
ortega
orth
ortheziidae
orthocladius
orthopte
orthoptera
orthopterans
orthopterasf
orthopteren
orthopterenfauna
orthopterist
orthopterists
orthopteroid
orthopteroidea
orthopterorum
orthopterous
orthosia
orthotrichia
ortiz
orto
orton
ortopteroides
ortotteri
os
osaka
osborn
osbornellus
oscar
oskar
oslo
osmia
osmiini
osmylidae
ossaea
ossian
ost
ostafrika
ostafrikas
ostariophysi
osteichthyes
osten
ostracoda
oswald
oswaldo
otago
other
others
otho
otiorhynchus
otiorrhynchus
otostigmus
ottawa
otte
otterbein
otto
ou
ouest
oulopterygidae
our
ouratea
ouvrard
ov
ovalis
ovata
ovatus
over
overseas
oxalidaceae
oxalis
oxford
oxycera
oxyethira
oxyhaloidae
oxyopes
oxyopidae
oxypetalum
oxypoda
oxyrhachis
oxyteline
oxytropis
oyakawa
ozyptila
p
pa
pablo
pac
pachnoda
pachybrachis
pachycondyla
pachydema
pacific
pacifica
pacifico
pacificus
packard
paepalanthus
pag
pagdumara
page
pageno
pages
pagkayana
paglinawan
paik
pakistan
pakli
pala
palaearctic
palaearktischen
palaemonidae
palaemonoidea
palaeorhiza
palaquium
palatinate
palearctic
palicourea
pallas
pallens
pallescens
pallida
pallidus
pallipes
palm
palmer
palmeri
palms
palpomyia
paludosa
palustris
pambansa
pamphagidae
pamunuan
pan
panahon
panam
panama
panamensis
pandanaceae
pandanus
panesthiidae
paniculata
panicum
panimalay
panorpa
panorpidae
panzer
pap
papa
pape
paper
papers
paphiopedilum
papilio
papilion
papilionidae
papilionoideae
papillosa
papp
papua
papuan
papuana
papuani
par
para
paraboea
paraclius
paradoxa
paradoxosomatidae
paradoxus
paraensis
paraguay
paragus
paralastor
paralimna
paralimnophila
paraliparis
parallela
paramonov
parana
parancistrocerus
parasite
parasites
parasitic
parasitica
parasitiformes
parasitoid
parasitoids
parasmittina
parastacidae
parastasia
parathesis
paratrechina
paratropus
parc
pardosa
parent
parhost
parin
paris
park
parker
parkeri
parkhurst
parlatoria
parmasto
parmeliaceae
parnassius
paronychia
parque
parris
pars
parsonsia
part
parte
partial
particular
partie
parts
parva
parviflora
parvifolia
parvula
parvulus
parvus
pas
pascoe
paspalum
passiflora
passifloraceae
pat
patch
patellapis
patens
pathologie
patricia
patrick
patrimoines
patterns
patula
pauciflora
paugy
paul
paula
paulian
pauliani
paulista
paullinia
paulo
paulus
pauly
pauropoda
pauropodidae
pav
pavanelli
pavetta
pavonia
pax
paxton
pays
pdf
pe
pebrero
peces
peck
peckham
peckhamia
pectinata
pectinicornia
pectoralis
pediciidae
pedicularis
pediobius
pedro
pedunculata
pegomya
pei
pelargonium
pelastoneurus
pelecopsis
peleteria
pelidnota
pellegrin
pellenes
pellizzari
pellucida
pen
penaeoid
pendant
pendula
peng
penicillium
peninsula
peninsular
peninsularis
pennell
pennington
pennsylvania
penny
penstemon
pentacentrinae
pentaphylacaceae
pentatomidae
people
peperomia
per
percheron
perciformes
percy
perdita
pereira
perez
pergalumna
periclimenes
pericoma
perilampidae
perilampus
perilitus
peristylus
perkins
perlidae
perlodidae
pero
peromyia
perplexa
perrier
perrieri
perry
pers
persea
persica
persicaria
persimilis
persoon
persoonia
pertusaria
peru
peruana
peruviana
peruvianus
pesca
pesquisas
pest
pests
peter
peters
petersbourg
petersburg
petersen
peterson
petiolata
petit
petr
petra
petrak
petro
petromyzontidae
petrovich
petrovitz
petrunkevitch
petter
pettibone
peu
peucedanum
pez
pezzi
pflanzenfam
pflanzenr
pflanzenreich
pg
ph
phacelia
phaedrotoma
phaenocarpa
phalangopsinae
phan
phaneropteridae
phaneropteriden
phaneropterinae
phanerotoma
phaonia
pharaphodius
phasgonuridae
phasia
phasmatidae
phasmatodea
phasmid
phasmida
phasmidae
phasmidasf
phasmiden
phasmids
phasmoptera
pheidole
phelister
phellinus
phenacoccus
phengodidae
pherbellia
phibalosomini
phidippus
phil
philad
philadelphia
philautus
philip
philipp
philippe
philippi
philippine
philippinen
philippinensis
philippines
phillip
phillips
philobota
philodendron
philodromidae
philodromus
philoliche
philopotamidae
philosciidae
philosepedon
philosophical
philosophy
phlaeothripidae
phlebotomine
phlebotomus
phlegmariurus
phlegra
pholcidae
pholcus
phoma
phomopsis
phora
phoradendron
phorbia
phoridae
phoronida
phortica
phreatia
phronia
phrynobatrachus
phryxe
phthiracaridae
phthiracarus
phygadeuon
phylica
phylinae
phyllachora
phyllachoraceae
phyllachorales
phyllanthaceae
phyllanthus
phyllobius
phyllocnistis
phyllodoce
phyllodocidae
phyllodromica
phyllonorycter
phyllophaga
phyllosticta
phylogenetic
phylogenetisches
phylogenie
phylogeny
phylum
phys
physalis
physaria
physciaceae
physique
physis
physocephala
phytobia
phytocoris
phytodietus
phytoliriomyza
phytologia
phytomyza
phytopathologica
phytosciara
phytoseiid
phytoseiidae
phytoseiidbase
phytoseius
phytotax
phytotaxa
pic
picardie
picea
pickard
picos
picta
pictet
pictus
pidonia
piemonte
pier
pierfelice
pieridae
pierre
pieter
pila
pilato
pilea
pilg
pilipinas
pillans
pilosa
pilosella
pilosus
pilsbry
pilzk
pimelea
pimpinella
pimpla
pimplinae
pinaagi
pinaceae
pinahalipot
pinanga
ping
pinguicula
pinto
pinus
piotr
piper
piperac
piperaceae
pipoly
pipunculidae
piracicaba
pirata
pisauridae
pisces
pismo
pitcairnia
pitkin
pito
pittier
pittosporum
pityophthorus
piza
pl
plagiognathus
plagithmysus
plana
planch
planchon
planchonella
planipennia
plant
plantae
plantaginaceae
plantago
plantarum
plantas
planters
plants
plata
platanthera
plate
plateau
plates
platnick
platycheirus
platycleis
platygaster
platygastridae
platyhelminthes
platylabus
platypalpus
platypus
platysoma
platystele
platystomatidae
plebejus
plecia
plecoptera
plecopterasf
plectiscidea
plectris
plenum
pleospora
pleosporaceae
pleosporales
plethodontidae
pleuraphodius
pleurothallis
plexauridae
pls
plumbaginaceae
plumularia
plus
po
poa
poaceae
poblacion
poco
pocock
podagrion
podlech
podocarpus
podos
podostemaceae
poeciliidae
poecilimon
poeppig
pohl
poiret
poissons
poitou
polana
poland
polemoniaceae
polhill
polikhety
polis
polish
polistes
polita
politus
polkinghorne
poll
pollenia
pollock
polonaise
polonya
polskie
polyalthia
polycarpa
polycentropodidae
polycentropus
polychaeta
polychaete
polychaeten
polychaetes
polychaetous
polyche
polychrotidae
polyclinidae
polycyrtus
polydesmida
polydesmidae
polydesmus
polydora
polydrosus
polygala
polygalaceae
polygonaceae
polygonum
polynema
polynoidae
polypedilum
polyphaga
polyphylla
polyplectropus
polypodiaceae
polyporaceae
polyrhachis
polyscias
polystachya
polystichum
polytechnic
pomacentridae
pomeranya
ponder
pont
poore
pop
popillia
popov
populasyon
population
populus
por
porcellio
porcellionidae
porifera
porina
porphir
porricondyla
port
portal
porter
portici
porto
portugal
portulaca
post
poste
potentilla
pothyne
pour
pouteria
powell
poyde
pp
practical
pradesh
prado
praecox
pragae
praha
prain
prance
prantl
prasophyllum
pratt
prawns
praze
pre
predators
predatory
prefectura
prefektura
preferences
preliminary
premie
premier
pres
present
presl
press
pretoria
preuss
preussischen
previously
pri
pridgeon
prima
primary
primera
primula
primulaceae
prince
princeps
principalmente
princis
pringlei
prins
prinsloo
printing
prionides
prionidæ
prioninae
prionospio
prior
pristaulacus
pristimantis
pristomerus
pritchard
pro
proasellus
probinsya
problems
proc
procambarus
proceedings
procera
procladius
proctor
procumbens
prod
prodidomidae
prodr
prodromus
producta
prof
professor
proft
program
programme
project
promachus
propinqua
propose
proprioseiopsis
proscopiidae
proseriata
prosevania
prosimulium
prosoplus
prosopocera
prosthechea
prostrata
protaetia
protapanteles
protea
proteaceae
protection
protium
protonemura
protoneuridae
protozoans
protura
prout
provancher
provenant
provence
province
provincia
provincial
proxima
proximus
pruinosa
prunus
psammotettix
psapharochrus
psectrocladius
pselaphidae
pselliophora
pseudagrion
pseudaulacaspis
pseudepipona
pseuderanthemum
pseudicius
pseudocercospora
pseudococcidae
pseudococcus
pseudomyrmex
pseudonapomyza
pseudopanurgus
pseudophasmatidae
pseudophylliden
pseudophyllinae
pseudophyllinen
pseudopoda
pseudosmittia
psidium
psila
psittacanthus
psittacidae
psoralea
psyche
psychoda
psychodidae
psychomyia
psychomyiidae
psychotria
psyl
psylla
psyllaephagus
psyllidae
psyllids
psylloidea
pt
ptecticus
pteridaceae
pteris
pterolophia
pteromalidae
pteromalus
pteronemobius
pteroplistinae
pteros
pterostichus
pterostylis
pu
pub
puberula
pubescens
publ
public
publicac
publicaties
publication
publications
published
publishers
publishing
puccinellia
puccinia
pucciniaceae
puerto
pulchella
pulchellus
pulcher
pulcherrima
pulchra
puliciphora
pulitzer
pulmonata
pulong
pultenaea
pulvinaria
pumila
pumilio
pumilus
punctata
punctatus
puncticollis
punctipennis
punctulata
pungens
punoan
puntius
purcell
puro
purposes
purpurascens
purpurea
pusa
pusilla
pusillus
putoidae
puy
puya
puyde
puydi
pycnogonida
pycreus
pygmaea
pygmaeus
pyralidae
pyramica
pyramidellidae
pyrausta
pyre
pyrgomorphidae
pyrgotidae
pyronemataceae
q
qinghai
quadrata
quae
quarantine
quarterly
quartinia
quate
quatrefages
quatrieme
que
quebec
queensland
queiroz
quelques
quentin
quercus
quero
quezon
qui
quicke
quinn
quip
r
ra
raccolti
racemosa
radcl
radiata
radlk
radlkofer
rafael
raffles
rafinesque
ragge
ragni
rainbow
rajidae
rajiformes
rale
raleigh
ralph
ramakrishna
ramalinaceae
ramb
rambold
rambur
rambycides
rami
ramme
ramos
ramosa
ramularia
ramulus
rancho
randall
ranidae
ranunculaceae
ranunculus
rao
rard
rare
raros
rast
rastenii
ratzeburg
rauh
rault
rauno
raven
ravenna
ray
raymond
rays
rbg
rchb
rd
re
read
reading
real
reale
reared
rearing
rec
recent
recently
rech
recherches
rechinger
reclassification
recommended
record
recorded
records
recueil
recueillis
red
redefinition
redescription
redhead
redia
redtenbacher
reducta
reed
reeder
reef
reeks
reese
ref
reference
references
reflexa
reformata
reg
regalis
regan
regarding
regel
regia
region
regional
regioni
regions
register
regna
regni
regnum
rehder
rehiyon
rehm
rehn
reiche
reichenbach
reichenbachia
reid
reinhard
reinhold
reinwardtia
reip
reipubl
reis
reise
reiss
reitter
related
relation
relationships
remarkable
remarks
remarques
remaudie
ren
renaud
rendle
rendus
rene
rentz
rep
repens
repert
report
reports
repositories
reptile
reptiles
reptilia
reptilien
repu
republic
republica
republika
res
research
reserve
resource
resources
restio
restionaceae
results
reteporella
reticulata
reticulatus
retrieved
retusa
reuter
rev
review
revis
revisa
revised
revisio
revision
revisional
revisionary
revisions
revista
revta
revue
reynolds
rez
rezenten
rg
rhabdoblatta
rhabdomastix
rhaconotus
rhagio
rhagionidae
rhamnaceae
rhamnus
rhamphomyia
rhandlingar
rhantus
rhaphidophora
rhaphidophoridae
rhaphidophoroidea
rhaphium
rhaphuma
rhein
rheinlande
rheotanytarsus
rhin
rhine
rhineland
rhinella
rhiniidae
rhinocricus
rhinotragini
rhipidia
rhizoecus
rho
rhodacaridae
rhodesia
rhodesiella
rhododendron
rhodora
rhopalomyia
rhyacophila
rhyacophilidae
rhynchaenus
rhynchites
rhynchosia
rhynchospora
rhynchota
rhyssemus
rhytidoponera
rhytiphora
rhytismataceae
rhytismatales
ri
ria
riale
riaux
ribaut
ribeiro
ribes
ric
rica
ricaniidae
ricardo
rice
rich
richard
richards
richardson
richman
ricker
rico
ridionale
ridl
ridley
rie
riedl
rieurement
riga
rigida
rijks
ril
riley
rin
ringuey
rinorea
rio
rioja
rios
riparia
rique
riques
ris
risbec
rita
rito
rivadavia
rivellia
river
rivista
rivularis
rivulidae
rivulus
rj
rmer
rnberg
rneos
rner
rnios
ro
robert
roberto
roberts
robertson
robineau
robins
robinson
robson
robusta
robustum
robustus
robyns
rocha
rock
rocky
rodentia
rodne
rodolfo
rodr
rodrigo
rodrigues
rodriguez
roemer
roewer
rogadinae
rogas
roger
rogers
rohdendorf
rohwer
roi
rojas
roland
rolf
rolfe
rom
roma
romagna
romaleidae
roman
romania
romano
rome
romulea
ronald
roncus
rondani
rondeletia
ronderos
rondon
ronimo
ropalidia
roper
ropica
roret
rosa
rosaceae
rose
rosea
rosen
rosenst
roskov
ross
rossi
rossica
rossicae
rossii
rostrata
rostratus
rotatoria
roth
rothschild
rotifera
rotterdam
rotundata
rotundifolia
roussillon
roux
rowell
rowland
roxb
roxburgh
roy
royal
royale
royen
rozprawy
rsr
rster
rttemberg
ru
rubens
rubescens
rubiaceae
rubiginosa
rubra
rubus
rudd
rudgea
rudis
rudolf
rudolph
rudy
ruellia
rufa
rufescens
ruficeps
ruficollis
ruficornis
rufipes
rufiventris
rufus
ruggiero
rugosa
rugosus
ruiz
rumex
rundschau
rupert
rupestris
rupicola
rus
rusby
ruschia
russe
russell
russia
russian
russo
russula
russulaceae
rusya
rutaceae
rutelidae
ruteliden
rutelinae
ry
rydberg
ryland
rysunkow
ryukyu
ryvarden
s
sa
saale
sabah
sabella
sabellariidae
sabellidae
sabicea
sabrosky
sacc
saccardo
saccharomycetales
saccharomycetes
sacken
sada
saeger
saether
saggio
sahara
saigusa
saint
sainte
saito
salacia
salamanca
salatan
salazar
saldanha
salicaceae
salix
salog
salsola
saltatoria
salticid
salticidae
salticiddb
salticus
salvador
salvia
salvin
samar
sammlung
sammlungen
samoa
samuel
samuels
san
sanders
sandflies
sando
sanguinea
sanjappa
sankt
santa
santalaceae
santiago
santis
santo
santos
santschi
sao
saocat
sapindaceae
sapotaceae
sapporo
saprinus
sapromyza
saprosites
sara
sarawak
sarcophaga
sarcophagidae
sarcoptiformes
sardinya
sargus
saropogon
sars
sarthe
sasa
sasakawa
satyrus
saudi
saunders
saurauia
sauria
saussure
saussurea
sauter
sauteri
savchenko
savoie
saxatilis
saxicola
saxifraga
saxifragaceae
saxony
say
saylor
sayop
sc
scabra
scaevola
scale
scalenet
scales
scambus
scand
scandens
scandinaviae
scandinavica
scaphoideus
scaphytopius
scaptia
scaptodrosophila
scaptomyza
scarabaeidae
scarabaeiden
scarabaeoidea
scarabaeus
scarabs
scatella
scathophagidae
scatopsidae
scelio
scelionidae
sceloporus
scenopinidae
scenopinus
scha
schaeffer
schauff
schaum
schaus
schefflera
scheller
scheloribates
schenkel
schenkling
schildla
schildlaus
schiner
schinz
schismatoglottis
schistura
schizonycha
schizoprymnus
schizotetranychus
schlechtendal
schlechter
schlechteri
schlegel
schleswig
schltdl
schltr
schlupfwespen
schluss
schmid
schmidt
schmidti
schmiedeknecht
schmitz
schmutterer
schneider
scho
schockaert
schoenus
school
schoolmeesters
schott
schotte
schoutedeni
schrank
schriftenreihe
schro
schubart
schuh
schult
schultes
schultz
schulz
schulze
schum
schumann
schuster
schwant
schwartz
schwarz
schwedischen
schweinf
schweinfurth
schweinitz
schweiz
schweizerischen
schwenke
sci
sciaenidae
sciapus
sciara
sciaridae
science
sciences
scient
scientiarum
scientific
scientifique
scientifiques
scienze
scinax
scincidae
sciomyzidae
sciophila
sclater
scleria
scleropterinae
scoble
scolopendridae
scolopendromorpha
scoparia
scopoli
scopula
scorpaenidae
scott
scripta
scrophularia
scrophulariaceae
scudder
scuola
scutellaris
scutellata
scymnus
scythris
scytodes
se
sea
seas
sebastes
secamone
second
sect
sectio
section
secunda
secundum
sedentaria
sedis
sedum
see
seeno
seevers
segers
seguy
sei
seine
selaginella
selaginellaceae
selago
selbyana
selecta
selected
selena
selenops
selinum
selliguea
selys
semiothisa
sen
senberg
senckenb
senckenberg
senckenbergiana
senckenbergischen
senecio
senegal
senegalensis
senna
sensu
sentro
seow
sep
sepia
sepsidae
september
septentrionalis
septoria
septyembre
ser
sereno
sergei
sergentomyia
sergestoid
sergey
serica
sericea
serie
series
serixia
serjania
serpentes
serpula
serpulidae
serra
serranidae
serrata
serratus
sertularella
sertulariidae
serv
server
service
services
serville
servir
seseli
setaria
setigera
setodes
setosa
setosus
seven
several
severnogo
seychelles
seyrig
shaanxi
shadab
shafee
shallow
shanghai
shannonomyia
shanxi
shao
sharkey
sharks
sharma
sharp
shaw
shawn
shear
sheets
shehbaz
shelf
shelford
shelley
shells
shenefelt
sheng
shi
shiel
shikoku
shilling
shinonaga
shiraki
shorea
short
shrimps
shrubs
si
siam
siamensis
siberia
sibirica
siboga
sic
sichuan
sicilia
sida
sideroxylon
sidney
siedlce
sierra
sierwald
sigfrid
sigismund
signata
signatus
signoret
siit
sikkimensis
sil
silba
silene
silesya
siluriformes
silva
silveira
silvestri
silvia
similis
simmons
simon
simoni
simplex
simpson
simulans
simuliidae
simulium
sin
sinclair
sinensis
singapore
singbahan
singer
singh
single
singles
singularis
sinica
sinicae
sinirangan
sinoni
sinophorus
sinuata
sinularia
siphocampylus
siphona
siphonaptera
sipuncula
sist
sistema
sistematica
sistens
sisyrinchium
site
sithole
sitticus
sitz
sitzungsberichte
sivec
six
sixth
sjo
skates
skelley
skelton
skuse
sladen
slawomir
sleum
sliwa
sloanea
slovakia
sm
small
smaller
smicridea
smilax
smith
smithi
smithii
smiths
smithson
smithsonian
smittia
smittina
snake
snakes
snyder
so
sobralia
sobre
soc
social
socie
sociedad
sociedade
societa
societas
societatis
societe
society
sodiro
soest
soft
soika
solanaceae
solange
solanum
solem
solenopsis
soli
solitari
solomon
solva
somalia
some
somme
sommer
son
sond
sonder
song
songs
soo
sophie
sophronica
sorbus
sordariomycetes
sordida
sorex
soria
soricidae
soror
soula
soulier
sound
source
sous
south
southeast
southeastern
southern
southwest
southwestern
soviet
sowerby
soyka
sp
spain
spangler
spanish
sparasion
sparassidae
spathius
spathulata
spb
spe
spearman
spec
special
specie
specierum
species
speciesfungorum
specimens
speciosa
speciosus
specklinia
spectabilis
speg
spegazzini
spelda
spencer
spermacoce
sphaeroceridae
sphaerodactylus
sphaeromatidae
sphaerostephanos
sphecidae
sphecodes
sphegina
sphenomorphus
sphex
sphingidae
sphingonotus
spicata
spidcat
spider
spiders
spigelia
spilogona
spilosoma
spinifera
spinipes
spinnen
spinola
spinosa
spinosus
spinotarsus
spinulosa
spionidae
spiraea
spirorbis
spirostreptidae
spirostreptomorpha
spirostreptus
spix
spixiana
splendens
splendida
spmweb
spolia
sponge
sponges
spongia
spongiaires
spongien
sporobolus
spp
sprague
spreng
spring
springer
spruce
squamata
squez
sri
ssr
sssr
st
sta
staatlichen
staatliches
staatssamml
stackelberg
stactobia
stages
staines
stal
stalle
standard
standl
standley
stanford
stanley
stapf
stapfia
staphylinidae
starfishes
stark
starnes
stary
state
states
station
status
staudinger
staurogyne
ste
steamer
steatoda
stebnicka
stedt
stefan
stefaniola
stefano
stegana
stein
steindachner
steiner
stelis
stellaria
stellata
stelletta
stenodynerus
stenoma
stenopelmatidae
stenopelmatoidea
stenophylla
stenopneusticae
stenopogon
stenotabanus
stenus
stepanowitsch
stephan
stephen
stephens
stephenson
sterculia
sternorrhyncha
sterr
sterreichischen
stettin
stettiner
steud
steudel
steven
stevens
stewart
steyerm
steyermark
steyermarkii
steyskal
stichopogon
stick
sticos
stiewe
stigmaphyllon
stilobezzia
stimpson
stipa
sto
stock
stockh
stockholm
stone
stonedahl
stoneflies
stonefly
stor
storena
storia
storozhenko
storr
story
str
strabomantidae
straits
strand
strandi
strangalia
strasser
stratiomyidae
stratiomys
streblocera
strepsiptera
streptocarpus
striata
striatus
stricta
strigosa
strobilanthes
strobl
strongylosoma
strophariaceae
structure
strumigenys
struthanthus
strychnos
stsl
stuart
stud
studi
studia
studien
studies
studio
study
stueber
stuttgart
stuttgarter
styelidae
stygobromus
stylidium
stylogaster
stylops
styrax
styria
styringomyia
su
sub
subba
subfam
subfamiliae
subfamilies
subfamily
subgen
subgenera
subgenus
subi
suborbo
suborder
subordo
subspecies
subtilis
subtribe
suc
succ
sucking
suctobelbella
sud
sudan
sueciae
sueo
sugad
sugar
sui
suillia
suisse
suite
sul
sulawesi
sulcata
sulcatus
sulla
sulpiz
sultats
sumala
sumatera
sumatra
sumatrana
sumatrensis
summary
summerh
summerhayes
sumptu
sun
superba
superfamily
superior
superiore
suppl
supple
supplement
supplementary
supplementum
sur
surinam
suriname
surinamensis
surrounding
surv
survey
sutton
suturalis
suzuki
svensk
svenska
sverige
sw
swallen
swartz
swartzia
sweden
swedish
sweeney
sweet
swertia
switzerland
swiza
syahan
sybra
sydney
sydow
sydowia
sykes
syll
syllidae
syllis
sylvain
sylvatica
sylvestris
sylvicola
sylviidae
symb
symphyla
sympiesis
symplecta
symplectoscyphus
symplocaceae
symplocos
symposium
sympycnus
syn
synaldis
synave
syneches
synema
syngnathidae
syngonanthus
synodontis
synonymic
synonymicus
synonymie
synonymies
synonymis
synonyms
synonymy
synop
synopeas
synopses
synopsis
synoptic
syntormon
syria
syrphidae
syrphoctonus
sysmyr
syst
syste
system
systema
systematic
systematica
systematics
systematicus
systematik
systematische
systems
systoechus
systropus
syudad
syzeuctus
syzygium
szepligeti
szeptycki
szlach
szlachetko
szynski
t
ta
tab
tabanidae
tabanus
tabernaemontana
table
tables
tachina
tachinidae
tachydromia
tachytrechus
taczanowski
taeniophyllum
tag
tagalog
taiti
taiwan
taiwanensis
takagi
takahashi
taken
takenoshin
takiya
tale
talwar
tamerlan
tan
tanaidacea
tanaka
tanasevitch
tang
tantilla
tanyproctus
tanypus
tanytarsus
tanzania
tao
taraxacum
tardigrada
tardigrade
tardigrades
tarenna
targioni
tarn
tarsalis
tasmania
tat
tatsuya
tavakilian
tawo
taxa
taxapad
taxon
taxono
taxonomic
taxonomie
taxonomische
taxonomy
taylor
taylori
te
tech
technical
technology
tectaria
tegenaria
teil
telenga
teleostei
telipogon
telmatoscopus
telopea
temelucha
temminck
ten
tenella
tenera
tenison
tennessee
tenuifolia
tenuipalpidae
tenuipalpidbase
tenuipalpus
tenuipes
tenuis
teocchi
teodor
tephritidae
tephritis
tephrosia
tepper
ter
terebellidae
tereznikova
termeszetrajzi
terminalia
terminalis
ternstroemia
terra
terrestres
terrestria
terrestrial
territories
territory
terry
tersbourg
tervuren
tes
testacea
testaceus
testudines
tethya
tetracanthella
tetragnatha
tetragnathidae
tetragoneura
tetraloniella
tetramesa
tetramorium
tetranychidae
tetranychus
tetrastemma
tetrastichinae
tetrastichus
tetrastigma
tetrigidae
tetriginae
tetrigoidea
tetrix
tettigonia
tettigoniidae
tettigonioidea
teucholabis
teuchophorus
teugels
teuthida
texana
texanus
texas
text
th
thagria
thai
thailand
thalictrum
thanatus
tharra
that
thaumalea
thaxter
the
thecla
theil
their
theischinger
thelymitra
thelypteridaceae
thelypteris
theobald
theodor
theodore
theodoric
theraphosidae
thereva
therevidae
thericleidae
theridiidae
theridion
thes
theses
thesis
thesium
thgen
thie
thiele
thiere
thinophilus
third
thirty
this
thodique
thomas
thomisidae
thomisus
thompson
thoms
thomson
thomsoniani
thoracica
thorell
threatened
three
thripidae
thrips
thrixspermum
through
thrypticus
thu
thulin
thunberg
thunbergia
thuringia
thwaites
thymelaeaceae
thyreus
thyrididae
thys
thysanoptera
tibet
tibialis
tibouchina
tica
tick
ticks
ticksbase
tico
tidskr
tidskrift
tienne
tiere
tierformen
tierkunde
tierreich
tigr
tijdschr
tijdschrift
tikader
tikang
till
tillandsia
tillyard
tim
timberlake
time
times
timm
timonius
tinatawag
tinea
tineidae
tinkham
tinmudlok
tinodes
tipi
tipicos
tipos
tipula
tipulidae
titan
title
tjeder
tmarus
tmesisternus
to
tobias
today
together
togo
tohru
tokai
tokuichi
tokunaga
tokyo
tol
toledo
toll
tologie
tom
tomas
tomaspis
tome
tomentella
tomentosa
tomitaro
tomosvaryella
tomus
tong
tonkinensis
tonnoir
top
topsent
tord
torino
torr
torre
torrey
torsten
tortricidae
torymidae
torymus
tos
toscana
tosquinet
tot
toulouse
tournefortia
tous
towards
town
townes
townsend
toxomerus
toxorhina
toxorhynchites
toyohi
tr
trab
trabajos
trachelas
tracheophyta
tragia
tranfaglia
trans
transactions
translated
translation
transvaal
transvaalensis
transversa
trappe
trathala
traub
trav
travail
tre
treadwell
tree
trees
trel
trelease
trentepohlia
trentino
tres
treubia
trewavas
tria
triaenodes
triana
triangularis
triaspis
trib
tribal
tribe
tribes
tribo
tribu
tribus
tricentrus
trichilia
trichocera
trichocerca
trichocomaceae
trichogramma
trichogrammatidae
tricholomataceae
trichomycteridae
trichomycterus
trichomyia
trichoniscidae
trichoniscus
trichonta
trichoptera
trichosalpinx
trichosanthes
tricimba
tricolor
tricorynus
tricyphona
tridactyloidea
tridens
tridentata
triepeolus
trifasciata
trifolium
trigonella
trigonidiinae
trigonidium
trimest
trinidad
trinius
trionymus
trioxys
trioza
triozidae
triphleba
triplophysa
tripteroides
tristis
triumfetta
trixoscelis
trjapitzin
trochalus
trochilidae
trochosa
trogidae
troglohyphantes
trois
troisie
trombidiformes
trop
tropaeolum
tropical
tropicale
tropiduchidae
tropiduridae
tropischen
trox
trudy
true
truman
truncata
truncatus
trupanea
trustees
trypeticus
tryphon
tryphoninae
tsacas
tsai
tseng
tsina
tter
ttingen
tu
tuberculata
tuberculatus
tuberosa
tubificidae
tubtob
tucker
tude
tudes
tuig
tulasne
tulipa
tullgren
tulo
tuna
tungod
turbellaria
turbonilla
turczaninow
turgeon
turin
turkey
turkish
turkmenistan
turner
turnera
turneri
tuthill
tutin
tuttle
tutzing
twenty
two
tychius
tylophora
tympanogaster
type
typen
types
typhlocyba
typhlocybinae
typhlodromus
typhlopidae
typhlops
typi
typosyllis
tyrannidae
tyrannochthonius
tzvelev
u
uber
ubersicht
ubirajara
uc
ucd
uchida
ueber
uebersicht
uetz
ufige
ug
ugalde
uganda
ugsa
uhler
uk
ukraine
ulf
ulidiidae
ulmer
uloboridae
ulohan
um
uma
umbellata
umbellifer
umbellifers
umbrosa
un
una
uncinata
und
under
understanding
undescribed
undulata
une
unesco
ungarischen
ungricht
unicolor
unidos
uniflora
uniformis
union
unionidae
united
univ
universal
universidad
universidade
universita
universitatis
universite
university
unknown
unom
unrecorded
unter
untersuchungen
up
upat
update
updated
updates
upemba
upod
upon
upper
uppsala
uppstallning
upsal
upsaliae
uranotaenia
urb
urban
urgleptes
url
urmo
uroleucon
uromyces
urophora
urophyllum
urosigalphus
urss
urticaceae
uruguay
uruigbaw
uruubos
us
usa
usda
use
used
user
uska
ussr
ussuriensis
usually
utah
utahensis
utetes
utrecht
utricularia
uuml
uusahan
uvaria
uvarov
uyeno
uzbekistan
v
va
vaccinium
vacelet
vachal
vagans
vahl
vaillant
val
valencia
valenciana
valenciennes
valeriana
valeton
valid
valida
validus
valle
valley
value
values
van
vandel
vanilla
vanuatu
var
vargas
vari
varia
variabilis
varians
variation
variegata
variegatus
various
varipes
varius
varronia
varshney
vasc
vascular
vasculares
vasil
vasilievich
vaud
ve
vecchione
veg
vegetal
vel
velarifictorus
velenovsky
vell
vellozia
velutina
veneto
venez
venezia
venezillo
venezuela
venosa
ventralis
venturia
venusta
venustus
vepidi
ver
verbascum
verbreitung
verdcourt
verde
verein
vereine
vereines
vereins
vereniging
verh
verhandelingen
verhandlungen
verhoeff
verlag
vernalis
vernon
vernonia
verona
veronica
verrallina
verrill
verrucaria
verrucariaceae
verrucosa
versicolor
version
versuch
vertebrates
verteneuil
verticillata
verzeichnis
verzeichniss
vespa
vespidae
vespidi
vespoidea
vestita
vestnik
vet
vetensk
vetenskaps
vetenskapsakademiens
vezda
vi
viaggio
viburnum
vicia
vicina
vicine
vicinity
vicinus
vickery
victor
victoria
vidal
vidensk
videnskabelige
video
vieillot
vienna
vienne
viereck
vietnam
viggiani
vigna
vignes
vii
viii
viktor
vila
vilaine
villa
ville
villeneuve
villiers
villosa
villosus
vincent
vincetoxicum
viola
violacea
violaceae
viperidae
vipio
virens
virescens
virgata
virgin
virginia
viridis
visaya
viscum
vision
vitaceae
vitiensis
vitis
vittata
vittatus
vlaams
vladimir
vladivostok
vo
vochysia
vogel
voisins
vol
volker
vollesen
vols
volume
volumen
volumes
vom
von
voor
vorla
vorpommern
vorwiegend
vosges
voss
voy
voyage
vratislaviae
vre
vriesea
vropte
vulgaris
vyssh
w
wa
wageningen
wagner
wahl
wahlberg
wahlenbergia
walckenaer
walckenaeria
wales
walker
walkeri
wall
wallace
walley
wallich
walsh
walsingham
walter
walters
wang
wanless
war
waray
warb
warburg
warchalowska
ward
warncke
warren
warsaw
warszawa
was
wash
washington
wasp
wasps
wasshausen
water
waterhouse
waters
watling
wats
watson
watsonia
wattenwyl
waw
wayback
wayne
wcsp
weaver
web
webb
webbia
weber
weberbaueri
websayt
website
webster
weddell
wegrzynowicz
wei
weidner
weinmannia
weiss
weiterer
welbourn
wells
welt
wen
wendell
wenig
werff
werner
werneri
wernham
wesmael
wesolowska
west
western
westfalens
westphalia
westwood
wetensch
wetenschappen
wever
wharton
wheeler
wheeleri
which
white
whiteflies
whitehead
whitten
wicklow
wiebes
wiedemann
wiedemannia
wien
wiener
wight
wikilink
wikstroemia
wild
wilde
wildlife
wilhelm
wilhem
wilkinson
willard
willd
willdenow
willdenowia
willem
willemse
willi
william
williams
williamsi
willink
willis
williston
willy
wilson
wilsoni
wilton
wimmer
winaray
winston
winter
winthemia
wirth
wisconsin
wiss
wissenschaften
wissenschaftliche
wissenschaftlichen
with
within
witte
wittmer
wojciech
wolf
wolff
wolfgang
wolfsgarden
wollaston
women
wong
wood
woods
woodson
work
working
works
world
wormaldia
worms
wright
wrightia
writ
wsrp
wu
wulp
wunderlich
wurdack
www
wyeomyia
wytsman
x
xanthophyllum
xanthopimpla
xanthorhoe
xanthorrhoeaceae
xanthosoma
xaver
xenia
xenylla
xestocephalus
xi
xiangwei
xiao
xico
xie
xii
xiii
xingbao
xiphidiopsis
xiv
xix
xizang
xorides
xoridinae
xu
xue
xv
xvi
xvii
xviii
xx
xxi
xxii
xxiii
xxiv
xxv
xxvi
xxvii
xxviii
xylariaceae
xyleborus
xylocopa
xylopia
xylosma
xylota
xylotrechus
xyridaceae
xyris
xysticus
xystodesmidae
y
yale
yan
yana
yang
yanus
yat
ye
year
years
yeast
yelicones
yemen
yi
yin
yinaknan
ying
yllenus
yonne
york
yoshimoto
yoshino
you
young
yu
yuan
yunck
yuncker
yunnan
yunnanensis
yves
z
zabka
zahlbr
zahlbruckner
zaire
zaitzev
zajciw
zamora
zanthoxylum
zapparoli
zaragoza
ze
zeal
zealand
zebra
zehntner
zeitschr
zeitschrift
zeitung
zeller
zelotes
zentral
zerova
zeszyty
zethus
zetterstedt
zeylanica
zh
zhang
zhao
zhejiang
zheng
zhiltzova
zhong
zhongshan
zhou
zhu
zhurn
zhurnal
zika
zimbabwe
zingiber
zingiberaceae
ziziphus
znanych
zoarcidae
zobodat
zodariidae
zodarion
zompro
zone
zoogeographic
zoogeography
zool
zoolo
zoologi
zoologia
zoologica
zoologicae
zoological
zoologicheskii
zoologicheskogo
zoologici
zoologico
zoologie
zoologii
zoologique
zoologiques
zoologisch
zoologische
zoologischen
zoologischer
zoology
zoonomen
zoosystematica
zootaxa
zootaxonomica
zoraida
zosterops
zu
zum
zur
zusammenstellung
zwei
zweite
zweiter
zwick
zwickau
zygaena
zygomycetes
zygomycota
zygoptera
zygothrica
{
|
}
~
¦
«
°
²
´
·
»
ˈ
ː
̀
́
̂
̃
̄
̆
̇
̈
̊
̌
̓
̣
̧
̨
α
َ
ั
ิ
ุ
်
‎
–
—
‘
’
“
”
•
…
′
→
↔
↷
③
④
⑦
△
♀
♂
⺀
⺄
⺆
⺈
⺊
⺌
⺕
⺝
⺸
⺼
⿰
⿱
⿲
⿳
⿴
⿵
⿶
⿷
⿸
⿹
⿺
⿻
〢
の
゙
イ
ク
コ
シ
ス
ト
ハ
マ
ユ
ラ
ン
ー
㇁
㇂
㇄
㇇
㇈
㇉
㇓
㐁
㐄
㐅
㐌
㐫
㐬
㐭
㐮
㐱
㑒
㒵
㒸
㒼
㓁
㓞
㔾
㕛
㕣
㖾
㘝
㚅
㚇
㚔
㚘
㝉
㝡
㝴
㝵
㞋
㞢
㞷
㠩
㠭
㠯
㡀
㡭
㡿
㢲
㢴
㣇
㣺
㥯
㪅
㫄
㫐
㫒
㫺
㬅
㬎
㬥
㬰
㲋
㳄
㷠
㸒
㸚
㸦
㼌
㼲
㽞
㿟
䀠
䂞
䍃
䏍
䒑
䖍
䖒
䖝
䖵
䙴
䚻
䜌
䝿
䡛
䧹
䪞
一
丁
丂
七
丄
丅
丆
万
丈
三
上
下
丌
不
与
丏
丐
丑
专
且
丕
世
丘
丙
业
东
丞
丢
丣
两
严
並
丨
丩
个
丫
丬
中
丮
丰
丱
串
丵
丶
丷
丸
丹
为
主
丽
丿
乀
乂
乃
久
乆
乇
么
义
之
乌
乍
乎
乏
乐
乑
乔
乖
乗
乘
乙
乚
乛
乜
九
乞
也
习
乡
乳
乾
亀
亅
了
亇
予
争
事
二
亍
于
亏
亐
云
互
亓
五
井
亘
亚
亜
亞
亟
亠
亡
亢
交
亥
亦
产
亨
亩
享
京
亭
亮
亯
亰
亲
亳
亶
亷
人
亻
亼
亾
仁
今
介
仌
从
仐
仑
仒
仓
仕
他
付
仝
代
令
以
任
企
伊
伏
伐
休
会
伯
但
位
何
佘
余
作
佥
使
來
侈
侌
侖
侯
侵
便
保
俞
信
修
倉
倍
候
倠
備
僉
僕
儿
兀
允
兂
元
兄
充
兆
兇
先
光
兊
克
兌
免
兑
兒
兓
兔
党
兜
兟
入
全
兩
兪
八
公
六
兮
兰
共
关
兵
其
具
典
兹
兼
冀
冂
冃
冄
内
冈
冉
冊
冋
册
再
冎
冏
冐
冒
冓
冖
冗
冘
军
农
冝
冡
冥
冫
冬
冷
几
凡
凢
凵
凶
凷
凸
凹
出
函
凾
刀
刁
刂
刃
刄
刅
分
切
刍
刑
刕
刖
列
刘
则
初
別
利
别
到
制
刺
則
削
剌
前
剡
剽
劉
力
功
加
劦
助
劫
劳
劵
勃
勇
勉
勒
動
務
勞
勤
勹
勺
勻
勾
勿
匀
匂
包
匆
匈
匊
匋
匍
匕
化
北
匚
匝
匡
匪
匱
匸
匹
区
医
匽
匿
區
十
卂
千
卄
卅
卆
升
午
卉
半
卌
华
卑
卒
卓
单
卖
南
卜
卝
卞
占
卡
卢
卣
卤
卦
卩
卪
卬
卯
印
危
即
却
卵
卷
卸
卻
厂
厃
厄
历
厈
厉
厌
厓
厘
厚
原
厤
厥
厨
厭
厲
厶
厷
厸
去
厼
厽
叀
参
參
叅
又
叉
及
友
双
反
叐
发
叒
叔
叕
取
受
叚
叜
叟
口
古
句
另
叩
只
召
可
台
叱
史
右
叵
号
司
叹
吂
各
吅
合
吉
吊
吋
同
名
后
吏
向
吕
君
吝
吞
否
含
启
吳
吴
吹
吾
呂
呆
呈
告
员
呙
周
命
咅
和
咎
咠
咢
咨
咸
咼
哀
品
哉
員
哥
哲
唐
商
啇
問
啚
啬
啻
善
喜
喬
單
喿
嗇
噩
嚴
囊
囗
囘
囙
囚
四
回
囟
因
囧
囬
困
囱
囷
固
国
圂
圅
國
圍
圓
土
圡
圣
圥
在
圭
地
圶
圼
坐
坒
坚
坴
垂
垔
垚
埀
埋
埶
執
基
堂
堅
堆
堇
堯
塞
墨
壘
士
壬
壯
声
壳
壴
壹
壺
壽
夂
处
夅
夆
备
夊
夋
夌
复
夏
夒
夕
外
夗
夘
多
夜
夢
大
夨
天
太
夫
夬
夭
央
失
夲
头
夷
夸
夹
夻
夾
奂
奄
奇
奈
奉
奎
奏
奐
契
奓
奔
奚
奞
奠
奢
奥
奭
女
奴
奻
好
如
妄
妙
妟
妥
妻
妾
姑
委
姜
威
娄
婁
婴
嬰
嬴
子
孑
孔
孕
孖
字
存
孚
孛
孝
孟
季
孤
学
孫
孱
學
宀
宁
宂
它
宅
宇
守
安
宋
完
宏
宓
宗
官
定
宛
宜
宝
客
宣
室
宮
宰
害
家
容
宾
宿
寄
寅
密
富
寒
察
寧
審
寫
寬
寮
寸
对
寺
寻
寽
対
寿
封
尃
射
将
將
專
尉
尊
尋
尌
對
小
少
尒
尓
尔
尖
尗
尚
尞
尢
尣
尤
尧
尨
尭
就
尸
尹
尺
尻
尼
尽
尾
尿
局
居
屈
屋
屎
屏
屑
展
屖
屚
属
屠
屡
屬
屮
屯
屰
山
屵
屾
岁
岂
岑
岡
岩
岳
岸
峯
島
崇
崑
崔
崖
崙
崩
嵬
嶲
巂
巛
川
州
巟
巠
巢
巤
工
左
巧
巨
巩
巫
差
己
已
巳
巴
巷
巸
巽
巾
巿
帀
市
布
希
帚
帛
帝
带
師
席
帶
常
干
平
年
幵
并
幷
幸
幺
幻
幼
幽
幾
广
広
庄
床
底
店
庚
府
度
庫
庭
庶
康
庸
廉
廌
廛
廣
廩
廴
延
廷
建
廾
廿
开
弁
弃
弄
弇
弋
式
弓
弔
引
弗
弘
弜
弟
弥
弦
弱
張
強
强
彊
彌
彎
彐
彑
当
彔
录
彖
彗
彡
形
彥
彦
彧
彭
彳
役
彼
往
待
律
徒
得
徙
從
復
微
徵
心
忄
必
忌
忍
志
忝
忠
忩
快
念
忽
忿
思
怠
急
怱
恆
恒
恩
恭
息
悉
患
悤
悲
悶
惠
惡
惢
愁
愈
意
愛
感
慈
慧
慮
憂
憲
應
戀
戈
戉
戊
戋
戌
戍
戎
成
我
戒
戔
或
戚
戠
戢
截
戲
戶
户
戹
戼
戾
房
所
扁
扇
手
扌
才
打
托
执
承
折
拉
拜
拿
掌
推
提
摩
支
攴
攵
收
攸
改
放
政
敄
敏
敕
敖
敗
敝
敞
敢
散
敦
敫
敬
数
敷
數
斂
文
斉
斊
斗
斤
斥
斩
斬
斯
新
方
於
施
斿
旁
旋
族
无
旡
既
旣
日
旦
旧
旨
早
旬
旱
旲
时
旾
昆
昇
昌
昍
明
昏
易
昔
昗
昜
星
春
昬
是
昱
昴
昷
時
晃
晋
晏
普
景
晶
智
暑
暴
曇
曩
曰
曲
曳
更
曷
書
曹
曼
曾
替
最
朁
會
月
有
朋
服
朔
朕
朗
望
朝
木
朩
未
末
本
札
朮
术
朱
朵
朶
朿
杀
杏
杜
束
条
来
東
杲
杳
松
析
林
枚
果
枝
枲
枼
某
柔
查
柬
柰
柴
栗
桀
桑
桼
梁
條
梟
梨
棘
棠
棥
森
楚
業
楽
榮
樂
樊
欠
次
欣
欮
欲
欶
欽
款
歆
歇
歛
止
正
此
步
武
歨
歪
歮
歯
歰
歲
歴
歷
歸
歹
歺
死
殳
段
殷
殸
殹
殺
殻
殿
毋
毌
母
每
毒
比
毕
毚
毛
毳
氏
氐
民
气
氣
水
氵
氶
氷
永
氺
氾
求
汝
汞
江
沃
沓
沙
沝
泉
法
波
泣
泥
泰
洛
洪
活
派
流
浦
浪
浮
淡
淮
清
渚
渠
湯
滿
漸
火
灬
灭
灰
灵
灷
炅
炎
炏
炗
炙
炭
為
烈
烏
烝
焉
無
焦
焱
然
煞
熊
熏
燕
營
燮
爪
爫
爭
爯
爰
爱
爲
爵
父
爻
爽
爾
爿
片
牙
牚
牛
牜
牟
牢
牧
牪
牽
犀
犬
犭
犮
狂
狄
狊
独
狺
猋
猒
猪
献
獻
玄
率
玉
王
玟
玨
珎
班
琴
瑟
瑩
瓜
瓦
甘
甚
生
産
用
甫
甬
田
由
甲
申
电
甶
男
甸
甹
画
甾
畀
界
畏
畐
留
畜
畟
畢
畧
畨
番
畫
異
畱
當
畺
畾
疊
疋
疌
疑
疒
疾
癶
癸
癹
登
發
白
百
皀
皃
的
皆
皇
皋
皐
皕
皮
皷
皿
盃
盆
盇
盈
益
盍
盎
监
盒
盖
盛
盡
監
盤
盧
目
直
相
盾
省
眇
眉
看
眔
眞
真
眷
眼
眾
着
睘
睪
睿
瞏
瞢
瞿
矍
矛
矞
矢
矣
知
矦
短
石
破
碎
磊
磨
示
礻
礼
祟
票
祭
禀
禁
禸
禹
禺
离
禽
禾
禿
秀
秃
秉
秋
科
秝
秦
移
稟
穀
穌
穴
究
穹
空
穿
突
窄
窒
立
竒
竜
竝
竟
章
童
竹
笑
笠
筆
等
答
箕
算
箴
節
篤
篭
米
粉
粛
粟
粤
粦
粲
糞
糸
糹
系
約
納
素
索
紫
累
細
絜
絫
絲
維
綿
縣
繇
纍
纟
缶
网
罒
罔
罕
罗
罙
罡
罢
罪
署
罷
羅
羊
羌
羍
美
羔
羕
羗
羞
羡
羣
群
義
羲
羸
羽
翁
翏
習
翕
翟
翠
翼
老
耂
考
者
耆
而
耎
耑
耒
耳
耴
耶
耷
聂
聊
聖
聚
聶
聿
肀
肃
肅
肉
肖
肙
肥
肩
肯
育
肴
胃
背
胡
胥
能
脊
脩
膚
臣
臤
臧
自
臬
臭
臯
臱
至
致
臺
臼
臽
臾
臿
舀
舂
舄
與
興
舉
舌
舍
舛
舜
舞
舟
般
艮
良
色
艸
艹
艾
芒
芔
芬
芮
花
芳
芺
芻
苔
苗
苟
若
苦
英
茶
茸
荅
草
荒
荣
荼
莆
莧
莫
莽
菆
菊
菐
華
萬
落
葉
著
葛
董
葵
蒙
蒦
蒼
蓋
蓬
蓺
蔑
蔡
蕉
蕭
薄
薛
薦
薰
藍
藏
藥
蘭
虍
虎
虐
虒
虔
處
虖
虗
虘
虚
虛
虜
虞
虫
虽
蚤
蚩
蜀
蜜
蟲
蠡
血
行
衍
衛
衣
衤
表
衮
衰
袁
袞
褭
褱
襄
襾
西
覀
要
覃
見
規
覓
覧
親
覽
见
角
解
言
訁
訇
計
詹
誩
諸
讠
谷
豆
豈
豊
豐
豕
豖
豙
象
豦
豩
豪
豸
貇
貝
貞
貟
負
貢
貧
貪
貫
責
貳
貴
買
費
賁
資
賈
賏
賓
賔
賛
賞
賢
賣
質
賴
贊
贝
贡
责
贯
贲
贵
赖
赞
赤
赦
走
越
足
路
蹇
身
躬
車
軍
軎
軟
輦
车
辛
辜
辟
辥
辰
辱
農
辵
辶
边
达
过
近
连
迷
追
退
送
逆
逐
通
速
造
逢
連
逮
進
遀
遂
過
道
達
遣
適
遷
遺
邊
邑
邕
那
邦
邪
郎
部
郭
都
鄉
酉
酋
配
酓
釆
采
里
重
野
量
金
釒
錢
钅
長
镸
长
門
閃
閉
開
閏
閑
閒
間
閔
閵
閻
闌
门
间
闷
阑
阜
阝
阿
降
陳
隆
隊
隋
隡
隨
隱
隶
隹
隺
隻
隼
隽
难
雀
雁
集
雈
雋
雍
雐
雔
雙
雚
雜
雝
離
難
雨
雩
雪
雲
零
雷
需
霍
霜
霝
霞
霸
靈
靑
青
非
靡
面
靣
革
韋
韦
韭
韯
韱
音
頁
頃
項
須
頗
頡
頻
顛
页
風
风
飛
飞
食
飠
養
饣
首
香
馬
馮
駦
马
骨
高
髟
鬥
鬯
鬲
鬼
魚
魯
鮮
鱼
鲁
鳥
鳳
鸟
鹵
鹿
麃
麗
麥
麦
麻
黃
黄
黍
黎
黑
黒
黨
黹
黽
黾
鼎
鼓
鼠
鼻
齊
齋
齐
齒
齿
龍
龙
龜
龟
龠
龰
龱
龴
龵
龶
龷
龸
龹
者
艹
﻿
？
�
𠀁
𠀃
𠀆
𠀉
𠀎
𠀐
𠁁
𠁣
𠂆
𠂇
𠂈
𠂉
𠂊
𠂋
𠂎
𠂒
𠂔
𠂛
𠂡
𠂢
𠂤
𠂬
𠂭
𠂹
𠃊
𠃋
𠃌
𠃍
𠃎
𠃑
𠃓
𠃔
𠃜
𠄌
𠄎
𠄠
𠄢
𠆢
𠆥
𠇍
𠈌
𠌵
𠓜
𠔉
𠔥
𠔼
𠔽
𠔿
𠕀
𠕁
𠕋
𠘧
𠘨
𠙻
𠙼
𠚏
𠚒
𠚤
𠚪
𠣏
𠤎
𠤕
𠥓
𠦄
𠦑
𠦝
𠧒
𠧗
𠧪
𠩺
𠪚
𠫓
𠫔
𠫤
𠬛
𠬝
𠬞
𠬢
𠬤
𠬶
𠮛
𠮦
𠮷
𠯑
𠱠
𠳮
𠷎
𡈼
𡉀
𡉵
𡌥
𡍮
𡏳
𡕒
𡕩
𡕰
𡖅
𡗗
𡗜
𡘆
𡘤
𡧱
𡨄
𡩧
𡬠
𡭽
𡰣
𡰥
𡰪
𡰯
𡰱
𡷈
𡸁
𡿨
𡿩
𡿪
𡿺
𢀖
𢀛
𢀩
𢁙
𢆉
𢆰
𢆶
𢇁
𢇇
𢉖
𢌬
𢌿
𢏚
𢑑
𢑚
𢖻
𢙣
𢛳
𢦏
𢦒
𢧵
𢼄
𢾕
𣁋
𣄼
𣅀
𣅽
𣍘
𣎳
𣎵
𣏋
𣏼
𣗥
𣥂
𣥖
𣦵
𣦼
𣧄
𣪊
𣪠
𣬉
𣳾
𣶒
𤇾
𤊽
𤐫
𤓰
𤔔
𤕨
𤣩
𤰇
𤰔
𤰞
𤴓
𤴔
𤽄
𥁑
𥁕
𥃦
𥃩
𥃭
𥇡
𥑟
𥘅
𥘈
𥝢
𥫗
𥱡
𦈢
𦉪
𦉬
𦉼
𦍌
𦍒
𦎧
𦐇
𦓔
𦔮
𦘒
𦙃
𦚏
𦣝
𦣞
𦣻
𦥑
𦥔
𦥯
𦨉
𦭝
𦰩
𧆞
𧈧
𧘇
𧰨
𧴪
𧴮
𧵩
𧾷
𨸏
𨾴
𩙿
𩠐
𩫏
𩵋
𪉷
𪜀
𪟽
𪠲
𪩲
𫇦
𫔭
𫜸
𫝀
𫠣
𫠩
𫢉
𫥞
𫩏
𫩠
𫪡
𫲽
𫶧
𬀷
𬐘
𬗌
𬙙
𬛸
𬜯
𬟩
𬯁
𬴘
𬺻
𬼉
𬼖
𭀰
𭁈
𭁨
𭅰
𭑈
𭕄
𭗼
𭤨
𭥫
𭻾
𮅕
𮊿
𮍌
𮍏
𮓗
𮥼
𮧮
廾
𰀁
𰀄
𰀈
𰀉
𰀕
𰀠
𰀡
𰀢
𰀪
𰁜
𰃮
𰆊
𰆘
𰋙
𰕎
𰢴
𰧭
𰯲
90--
a--
aa--
ab--
aba--
abd--
abi--
abl--
abr--
abys--
ac--
aca--
acae--
acant--
acantho--
acaro--
accip--
acha--
aci--
acicu--
acre--
acro--
act--
actin--
actu--
acu--
acut--
acuti--
ad--
ade--
adel--
aden--
adox--
ae--
aeg--
aegi--
aego--
aegy--
aene--
aeth--
af--
affi--
afg--
afr--
afro--
ag--
aga--
agath--
age--
agla--
ago--
agr--
agu--
ah--
ak--
al--
ala--
albi--
albo--
alci--
ale--
alek--
alex--
ali--
all--
allo--
alo--
alp--
alph--
alt--
alta--
alter--
alysi--
am--
ama--
amau--
amauro--
ambi--
ambly--
ambo--
ame--
ammo--
amp--
amphi--
ampli--
amy--
an--
ana--
anch--
anco--
ancy--
and--
anel--
ang--
ange--
angu--
angust--
angusti--
angustifo--
anis--
aniso--
anisop--
anne--
anno--
annu--
ano--
anographi--
anom--
anop--
anoplo--
ant--
anten--
antho--
anti--
antio--
anu--
anuro--
any--
anyph--
ao--
ap--
aph--
aphel--
apho--
aphro--
aphy--
api--
apicu--
apiom--
apl--
aply--
apo--
app--
apseu--
apt--
apter--
apu--
ar--
ara--
arc--
arch--
arctu--
arcuat--
ard--
are--
arg--
argy--
ari--
aris--
arm--
arma--
arme--
armig--
arn--
aro--
arra--
art--
arta--
arthr--
articu--
aru--
arund--
as--
asa--
asco--
ash--
aso--
asp--
aspid--
ast--
aste--
aster--
astr--
astro--
asy--
at--
athy--
atk--
atri--
atro--
atta--
atte--
aty--
au--
aulac--
aulacos--
aulo--
auranti--
aure--
auri--
auro--
aus--
austro--
aut--
autum--
ava--
avi--
avicula--
avul--
axi--
ay--
az--
azerbai--
b--
ba--
bac--
baci--
back--
bae--
baet--
bag--
bak--
bal--
bala--
balea--
balt--
bam--
ban--
bar--
bara--
barbi--
bart--
bary--
bas--
basi--
basidiomy--
bat--
bathy--
batra--
bau--
bay--
be--
bea--
beau--
bed--
behavi--
bel--
belo--
bem--
ben--
ber--
berg--
bertr--
bes--
best--
bestimmungsta--
bet--
bey--
bi--
bibl--
bibli--
bieber--
bill--
bio--
bir--
bis--
bit--
bl--
bla--
blen--
blepha--
blepharo--
blo--
bly--
bo--
boc--
boer--
boett--
bog--
bogo--
bohem--
bol--
bom--
bomby--
bon--
bona--
boop--
bor--
bos--
bot--
bothr--
bou--
bouc--
boug--
bour--
bous--
bow--
boy--
br--
bra--
brac--
brach--
brachi--
brachy--
brad--
brady--
bre--
brevi--
bri--
bris--
bro--
brome--
brongni--
bru--
bry--
bryo--
bu--
buc--
bucci--
buccu--
buch--
buf--
bul--
bulga--
bunt--
bur--
burk--
buru--
bus--
but--
bux--
by--
byr--
c--
ca--
cab--
cae--
caeci--
caeno--
caeru--
caf--
cal--
cala--
calam--
calca--
cali--
call--
calli--
callim--
callit--
callop--
calo--
caly--
calyco--
calypt--
cam--
cambe--
camp--
campo--
campople--
campt--
campy--
campylo--
can--
cana--
canalicu--
cap--
car--
cara--
card--
cardi--
cardioc--
cari--
carni--
carpo--
cart--
cary--
caryophy--
cas--
cat--
cata--
catha--
cau--
cauc--
cauli--
caverni--
cavi--
cay--
cazi--
ce--
cec--
cella--
celle--
celt--
ceno--
cenoco--
ceph--
cephal--
cephalo--
cer--
cera--
cerat--
cerato--
ceratos--
cerco--
cercop--
ceri--
cero--
cervi--
ch--
cha--
chaet--
chaeto--
chaetog--
chaetop--
chamae--
char--
charac--
chau--
che--
chees--
cher--
chi--
chia--
chiro--
chlo--
chloro--
cho--
chon--
chondr--
chondro--
chor--
chorde--
choriz--
chrom--
chry--
chryso--
chy--
ci--
cica--
cinc--
cine--
cingu--
cinn--
cir--
circum--
cis--
citr--
ck--
cl--
cla--
clad--
clado--
clari--
clastop--
clat--
clavi--
cle--
cleid--
cleis--
clem--
cler--
cli--
clin--
cly--
clype--
clyt--
cne--
cni--
co--
cob--
coc--
cocci--
cocco--
coch--
cochi--
cock--
coel--
coelo--
coelos--
coen--
coeru--
col--
colo--
colos--
colum--
com--
comp--
con--
consi--
conta--
contin--
copi--
copt--
copto--
cor--
cora--
cord--
core--
cori--
cornu--
coro--
corru--
cort--
cory--
corym--
coryph--
coryth--
cos--
cosm--
cot--
cott--
cou--
coul--
cour--
court--
cow--
cra--
crani--
cras--
craspe--
crassi--
cre--
crem--
cri--
cribr--
cris--
crit--
cro--
crocodi--
cros--
cru--
cruci--
cry--
crypt--
crypto--
cryptop--
cten--
cu--
cuc--
cucu--
cuen--
cun--
cunei--
cup--
cur--
curvi--
cus--
cuspid--
cy--
cyan--
cycl--
cyclo--
cyclop--
cylin--
cymbi--
cymo--
cynip--
cynog--
cyph--
cypri--
cyprino--
cyr--
cyrto--
cysto--
cze--
czer--
d--
da--
dacty--
dactylo--
dafr--
dal--
dam--
damer--
damsel--
dan--
daph--
dar--
darw--
das--
dasy--
dau--
de--
dec--
deca--
dece--
decl--
deco--
decur--
defi--
del--
delto--
den--
dendro--
denn--
denti--
denticu--
der--
des--
desig--
deu--
dev--
di--
dia--
diac--
diad--
diaph--
diapt--
dic--
dich--
diche--
dicho--
dicra--
didy--
die--
dif--
dig--
dimor--
din--
dinar--
dino--
dio--
diog--
diop--
dios--
dip--
diph--
dipl--
diplec--
diplo--
dir--
dis--
disc--
disci--
disco--
disp--
disser--
dist--
distin--
diu--
diva--
dix--
do--
doc--
dog--
doles--
dolo--
dom--
dome--
don--
dor--
dory--
doryc--
dou--
dr--
dra--
drac--
drans--
dre--
drechs--
drepan--
dru--
drum--
dry--
du--
dubi--
dud--
dul--
dupl--
dur--
duru--
dy--
dys--
dziedz--
e--
ea--
eb--
ebur--
ec--
eche--
echi--
echino--
echinorhy--
eck--
eco--
ecto--
ed--
ef--
eg--
ehr--
ei--
eic--
ek--
el--
ela--
elac--
elaph--
ele--
elec--
electr--
elem--
eleu--
elisa--
elli--
ely--
em--
embi--
en--
end--
ensi--
ent--
eo--
eor--
ep--
epac--
eph--
epi--
epig--
epineph--
epipl--
epis--
epit--
equat--
er--
erec--
erem--
eremo--
eri--
erig--
erio--
erit--
erlan--
ery--
eryth--
erythro--
es--
esca--
estr--
estua--
et--
eti--
eu--
eube--
euc--
eucha--
eug--
eulo--
eum--
euma--
eup--
eupha--
euphr--
eur--
eury--
euryg--
eus--
euschm--
euse--
eusp--
eutric--
ev--
ever--
evi--
ex--
exca--
exce--
exe--
exo--
exog--
exp--
exter--
ey--
f--
fa--
fair--
fal--
falci--
far--
fast--
fau--
fe--
featu--
fel--
fene--
fer--
fergu--
ferru--
fest--
feu--
fi--
fif--
fil--
fili--
fimbri--
fin--
fini--
fir--
fis--
fistu--
fitz--
fl--
fla--
flabel--
flac--
flage--
flavi--
flavo--
flens--
flor--
flori--
fluvi--
fo--
fol--
fon--
for--
forst--
fos--
fove--
fr--
fra--
fre--
fri--
frin--
fron--
fru--
fu--
ful--
fulgori--
fuli--
fulvi--
fulvo--
fune--
fur--
furci--
fusc--
fusci--
fusco--
fusi--
g--
ga--
gal--
gala--
galz--
gam--
gamma--
gar--
gastr--
gastro--
gau--
gaudi--
ge--
gek--
gem--
gen--
geo--
geop--
geotr--
gephy--
ger--
ges--
gi--
giac--
gian--
gib--
gibbo--
gid--
gida--
gig--
gigant--
gil--
gim--
gin--
giu--
gla--
glab--
glaphy--
glauc--
gle--
glo--
globi--
globu--
glu--
glyce--
glyph--
glypt--
gnampto--
gnaph--
gnat--
go--
goe--
gol--
gom--
gomph--
goni--
gonias--
gono--
goo--
gor--
gorg--
gos--
gou--
goy--
goz--
gra--
graci--
gracili--
grae--
gramm--
grand--
grandi--
grani--
granu--
graph--
grati--
grau--
gre--
green--
gri--
griechen--
grif--
grigo--
gro--
groen--
gru--
gry--
gryll--
gryllo--
gu--
gua--
guang--
gue--
gui--
guig--
gut--
gutier--
gy--
gym--
gymna--
gymno--
gymnog--
gymnos--
gyro--
h--
ha--
habi--
habr--
habro--
had--
hadro--
hae--
haem--
hag--
hak--
hal--
hali--
halo--
ham--
hama--
han--
hapl--
haplo--
har--
has--
hass--
haussk--
hawk--
hay--
he--
hebe--
heca--
hed--
hedy--
hel--
heli--
helico--
helio--
hell--
helm--
helo--
hem--
hemi--
hen--
hend--
heni--
hept--
hepta--
her--
herd--
herpe--
hespe--
hespero--
heter--
heterac--
hetero--
heterony--
heterop--
heteros--
heu--
hew--
hex--
hexa--
hey--
hi--
hick--
hier--
hil--
hilde--
hipp--
hippo--
hir--
hirti--
his--
hl--
hn--
ho--
hol--
holco--
holm--
holo--
hom--
homal--
homo--
hoog--
hopl--
hoplo--
hoplop--
hor--
hors--
hou--
hr--
hu--
hua--
hub--
hum--
hut--
hy--
hyal--
hybr--
hydno--
hydr--
hydro--
hygro--
hylo--
hyme--
hyp--
hyper--
hyph--
hypo--
hypoc--
hypsi--
i--
ibe--
ic--
id--
idi--
ig--
igu--
il--
ill--
ilo--
ily--
im--
ima--
imit--
imp--
in--
ina--
inc--
ind--
indist--
indo--
infl--
infu--
ing--
inop--
inqui--
ins--
instru--
int--
integri--
inter--
interes--
invest--
io--
iph--
ir--
iri--
irro--
is--
isch--
ischno--
ishi--
iso--
isog--
isop--
it--
ita--
iv--
j--
ja--
jan--
jans--
jap--
je--
jenk--
jer--
jes--
jew--
ji--
jo--
joa--
ju--
juc--
jug--
jun--
juni--
k--
ka--
kai--
kam--
kame--
kan--
kap--
kar--
kara--
kas--
kasa--
kat--
ke--
kel--
ken--
ker--
kha--
ki--
kiel--
kil--
kilom--
kim--
kin--
kina--
kir--
kis--
kit--
kivu--
kl--
kne--
kni--
kno--
ko--
koenig--
kohl--
kolo--
kom--
kon--
kor--
kot--
kra--
kraepe--
kri--
kris--
kru--
ku--
kuh--
kul--
kura--
kus--
kuz--
kwa--
l--
la--
lab--
lac--
lachn--
lae--
laevi--
lag--
lago--
lam--
lamel--
lamii--
lan--
lanci--
land--
lanu--
laop--
lap--
lapp--
lar--
las--
lat--
late--
lati--
latifo--
lau--
law--
laxi--
le--
lec--
lecith--
lecy--
leder--
leeu--
leg--
lei--
lellin--
lem--
len--
lent--
leo--
lep--
lepid--
lepido--
lepidos--
lepis--
lepra--
lept--
lepto--
leptog--
leptop--
leptos--
leptu--
les--
leth--
leuc--
leucad--
leuco--
leucos--
ley--
li--
liba--
libra--
lieb--
lig--
ligu--
lim--
limni--
limno--
lin--
lind--
lio--
lip--
liph--
lipo--
lis--
lisso--
lit--
lith--
litho--
lithos--
lito--
liv--
lk--
ll--
lo--
lob--
lobo--
loc--
loh--
lom--
lonch--
long--
longi--
loph--
lopho--
lou--
low--
lox--
loxos--
loy--
lu--
luc--
lum--
lund--
lusi--
lut--
lute--
lutr--
luz--
ly--
lyce--
lyci--
lyco--
lycopo--
lygo--
lynd--
lysi--
m--
ma--
mac--
mace--
maci--
mack--
macra--
macro--
macrog--
macu--
maculi--
mad--
mada--
mae--
mag--
magni--
mai--
mak--
maka--
mal--
mala--
malac--
mall--
man--
mangi--
mar--
marga--
mas--
mat--
matsu--
mau--
max--
may--
mc--
mccosk--
mcd--
mcg--
mck--
me--
meco--
med--
mega--
megalo--
megasp--
mei--
mel--
mela--
melan--
melano--
melanos--
meli--
melit--
mell--
mem--
membrani--
men--
mend--
mer--
merid--
mes--
meso--
met--
meta--
metac--
mete--
metr--
metro--
mi--
mic--
micra--
micran--
micro--
micru--
mid--
mig--
mik--
mil--
mildb--
mili--
milic--
mily--
mim--
mimu--
min--
mina--
mind--
mini--
minu--
minuti--
miri--
miro--
mis--
mit--
mix--
mo--
modi--
mol--
moll--
moluc--
mon--
mona--
monar--
monats--
monax--
mong--
monhy--
moni--
mono--
monte--
mor--
mos--
mou--
mu--
mucro--
mugil--
muk--
mul--
mult--
multi--
muni--
munt--
mur--
mura--
mus--
musci--
mut--
my--
myc--
myco--
mygalo--
myr--
myrio--
myrme--
myrmeco--
myrmo--
mytil--
myz--
n--
na--
nag--
naka--
nan--
nann--
nano--
napo--
nar--
nas--
nase--
nat--
nau--
naut--
nd--
ne--
nea--
nebu--
nec--
ned--
neg--
nema--
nemer--
nemo--
nemopt--
neo--
neoco--
neode--
neoechinorhy--
neol--
neom--
neop--
neos--
neph--
ner--
nervi--
neso--
nest--
net--
neu--
new--
ng--
ni--
nie--
nig--
nigri--
nigro--
nigromacu--
nik--
niko--
nikola--
nilo--
niph--
nipp--
nit--
nitid--
no--
noc--
nodi--
nodu--
noor--
nor--
nord--
nos--
noso--
not--
notho--
noto--
notop--
novae--
novo--
nu--
nubi--
nudi--
nur--
nutt--
ny--
nyc--
nycti--
nym--
nymph--
o--
oaxac--
ob--
obe--
ober--
obl--
obliqu--
obscu--
obscuri--
obso--
obtu--
obtusi--
occid--
och--
oct--
octo--
ocu--
ocula--
od--
odi--
odo--
odon--
odonto--
oe--
oeco--
oed--
oen--
oer--
oes--
oest--
of--
og--
oh--
ok--
oka--
okina--
oku--
ol--
olig--
oligo--
om--
on--
onch--
one--
onis--
ony--
onych--
op--
ophe--
ophi--
ophio--
ophiog--
opili--
opis--
opisth--
opistog--
or--
orb--
ore--
oreo--
oreop--
ores--
org--
ori--
orni--
ornith--
orop--
orph--
orso--
oryz--
os--
osci--
ost--
ot--
ou--
ov--
ovali--
ovi--
ox--
oxi--
oxy--
oxyto--
oz--
p--
pa--
pab--
pac--
pachy--
pag--
pagka--
pagu--
pal--
pall--
pallid--
pallidi--
palpim--
palu--
pam--
pan--
pap--
par--
para--
parme--
paro--
parvi--
pas--
pat--
pau--
pauc--
pauci--
paw--
pay--
pe--
pear--
pect--
pectin--
peda--
pedi--
pego--
pel--
pele--
peli--
pell--
pelo--
pelori--
pelta--
pemph--
pen--
penta--
per--
pereg--
peri--
peric--
peris--
perit--
pet--
peta--
petalo--
peti--
petro--
pfei--
pfl--
ph--
pha--
phac--
phae--
phaeo--
phaeosphae--
phal--
phalacro--
phaner--
phanero--
phas--
phel--
phen--
pher--
phi--
phil--
phle--
phloeo--
pho--
phor--
phot--
photog--
phrag--
phry--
phthi--
phy--
phyll--
phyllo--
phyto--
pi--
pic--
pid--
piet--
pig--
pil--
pili--
pilos--
pim--
pimelo--
pin--
pini--
pip--
pipt--
pipuncu--
pis--
pisi--
pit--
pita--
pitt--
pittos--
pl--
pla--
plac--
plagi--
plagio--
plan--
plani--
plano--
plat--
platy--
platyr--
plau--
ple--
plec--
pleco--
plecto--
plectr--
plei--
plesi--
pletho--
pleur--
pleuro--
plic--
plo--
plu--
plum--
po--
podo--
poe--
poeci--
poecilo--
pogo--
pogono--
pol--
poli--
polit--
poly--
polygo--
polygy--
polyph--
polypo--
polyst--
poma--
por--
porphy--
porphyro--
post--
pota--
pow--
poz--
pra--
prae--
pre--
pri--
prin--
pro--
probo--
prog--
proto--
protori--
pru--
pruin--
psa--
psamm--
psammo--
psammop--
psathy--
pseu--
pseuda--
pseudan--
pseude--
pseudi--
pseudo--
pseudon--
pseudos--
psil--
pso--
psoro--
psy--
pt--
pter--
ptero--
pterom--
ptil--
ptilo--
pty--
ptych--
pu--
pul--
pull--
pulvi--
punc--
punct--
puncti--
punctu--
pur--
purpu--
pustu--
py--
pyc--
pycno--
pygo--
pyr--
pyrg--
pyrgo--
pyri--
pyro--
pyu--
q--
qu--
quad--
quadra--
quadri--
quat--
que--
qui--
quin--
quinque--
r--
ra--
rad--
radi--
raf--
ram--
rap--
raph--
ras--
rat--
rau--
ray--
raz--
rd--
re--
rec--
red--
ree--
rei--
reic--
reli--
rem--
remi--
ren--
rep--
res--
resul--
reticu--
retr--
rey--
rg--
rha--
rhabd--
rhaco--
rhago--
rhe--
rhi--
rhip--
rhiz--
rhizop--
rhizotr--
rho--
rhodo--
rhopa--
rhopalo--
rhy--
rhyn--
rhynch--
rhyncho--
rhys--
ri--
rie--
rig--
rin--
rit--
ro--
rob--
rod--
rol--
roll--
roth--
rotu--
rotund--
rou--
roz--
ru--
rubi--
rubic--
rubr--
rubri--
rubro--
rude--
ruf--
rufi--
rufo--
rugi--
rugo--
rugu--
ruh--
rum--
rus--
rut--
rute--
ry--
s--
sa--
sabu--
sad--
sag--
sagit--
sal--
sali--
salici--
salmo--
salo--
sam--
san--
sand--
sap--
sar--
sarco--
sard--
sarg--
sas--
sat--
satur--
saty--
sau--
saw--
sc--
sca--
scabr--
scal--
scala--
scali--
scaph--
scara--
scat--
scatop--
scel--
sch--
sche--
schi--
schis--
schiz--
schizo--
schizop--
schr--
sci--
scia--
scler--
sco--
scol--
scolop--
scor--
scot--
scri--
scro--
scu--
scute--
scy--
scyto--
se--
sebast--
sec--
securi--
see--
seg--
sei--
sel--
sele--
seleno--
sem--
seme--
semi--
sen--
sep--
septem--
ser--
seric--
serru--
ses--
sesi--
sessili--
set--
seta--
seti--
sex--
sey--
sha--
shan--
she--
shi--
sho--
shu--
si--
sibi--
sibo--
sid--
sieb--
sig--
siga--
signi--
sik--
sil--
silvi--
sim--
simo--
simpl--
simu--
sin--
sino--
sip--
siph--
siphono--
sipy--
sisy--
sito--
sjo--
sk--
ska--
slo--
sm--
smarag--
smil--
sno--
so--
sol--
sola--
sole--
sord--
sou--
sp--
spa--
spar--
spat--
spathi--
spatu--
spe--
spermo--
spha--
sphaer--
sphaero--
sphe--
spheno--
spher--
spi--
spicu--
spil--
spilo--
spin--
spini--
spinu--
spiro--
sple--
spo--
spon--
spor--
spu--
squ--
squam--
squamu--
st--
sta--
staat--
staphy--
stau--
ste--
steen--
steh--
steier--
steno--
ster--
sti--
stic--
sticto--
stig--
stigma--
stil--
stipu--
stir--
sto--
str--
streb--
strept--
stri--
strig--
stucken--
sty--
styli--
stylo--
su--
sua--
sub--
subses--
subu--
sud--
sue--
suf--
sug--
sul--
sulci--
sum--
sun--
super--
sur--
sve--
sw--
swain--
sy--
syco--
syl--
sym--
symph--
syn--
syrph--
sz--
sze--
t--
ta--
tachy--
tad--
taeni--
tai--
tak--
taka--
tal--
tali--
tam--
tan--
tany--
tap--
tapei--
tar--
tara--
taschk--
tasm--
tat--
tau--
te--
tec--
tele--
teleo--
tem--
ten--
teneb--
tenth--
tenui--
teph--
ter--
tes--
tessm--
tetr--
tetra--
tetrac--
tetrao--
tett--
tettig--
tex--
th--
tha--
thal--
thalas--
tham--
thamno--
thau--
the--
thele--
theo--
theop--
thi--
thiene--
tho--
thom--
thor--
thou--
thra--
thry--
thu--
thy--
thymo--
thyri--
ti--
tian--
tibi--
tier--
tig--
tim--
tin--
tipp--
tis--
tit--
to--
tol--
tom--
ton--
tonk--
tor--
torqu--
torto--
tos--
tou--
tox--
toz--
tr--
tra--
trac--
trachy--
trago--
trans--
tre--
tri--
triangu--
tric--
tricha--
tricho--
trichog--
trid--
trig--
trigon--
trigono--
tril--
trilo--
trim--
trimacu--
trin--
trio--
tript--
tris--
trisp--
trit--
trivit--
tro--
troch--
trog--
tru--
trun--
try--
tsc--
tsu--
tu--
tubercu--
tubi--
tubu--
tubuli--
tum--
tur--
tura--
turbi--
turkes--
turkm--
ty--
tylo--
tym--
typh--
typhlo--
tz--
u--
uda--
ug--
ukra--
ul--
uli--
ulo--
um--
umbr--
un--
unci--
undu--
ungu--
uni--
unic--
unter--
up--
ur--
ura--
urce--
uro--
uru--
us--
ustilagi--
ut--
v--
va--
val--
van--
vancou--
vas--
ve--
ven--
vene--
ventr--
venu--
ver--
vert--
vest--
vi--
vie--
vig--
vil--
vill--
vin--
virg--
viri--
viridi--
vit--
vivi--
vla--
vo--
vol--
vorder--
vseso--
vul--
w--
wa--
wal--
wald--
wall--
wand--
was--
we--
wei--
wel--
wen--
wend--
wes--
west--
wet--
wett--
whit--
wi--
wick--
wieden--
wies--
wil--
wilk--
win--
wing--
wintre--
wir--
wissen--
wo--
wol--
wood--
wu--
wul--
wy--
wygodz--
x--
xant--
xantho--
xen--
xeno--
xenop--
xer--
xerop--
xi--
xin--
xiph--
xl--
xx--
xy--
xyla--
xylo--
y--
ya--
yam--
yas--
ye--
yes--
yi--
yos--
yu--
yus--
z--
za--
zam--
zan--
zash--
ze--
zer--
zeu--
zey--
zh--
zi--
zim--
zimmer--
zo--
zon--
zoo--
zoogeog--
zop--
zor--
zu--
zy--
zygo--
zygophy--
--0
--1
--2
--3
--4
--5
--6
--7
--8
--9
--a
--aar
--abe
--abo
--ac
--aca
--acea
--aceae
--aceum
--aceus
--ach
--achus
--achya
--achys
--achyum
--acia
--acidae
--acris
--actus
--ad
--ades
--adius
--ado
--ador
--ae
--aea
--aei
--aeidae
--aena
--aensis
--aeopsis
--aeta
--aeus
--afi
--ag
--aga
--age
--agne
--ago
--agus
--ah
--ai
--aia
--aica
--ais
--ak
--aka
--aker
--aki
--al
--ala
--ald
--ale
--ales
--alia
--alis
--alum
--alus
--alyx
--am
--ama
--aman
--amia
--amus
--an
--ana
--and
--andra
--anella
--anensis
--anes
--ang
--anga
--ani
--ania
--anica
--anidae
--anii
--ano
--ans
--antes
--anthus
--anum
--anus
--ao
--ap
--aphy
--apia
--aps
--apus
--ar
--ara
--arata
--arax
--ard
--ardi
--ardia
--are
--ari
--aria
--ariae
--aris
--arius
--arpa
--arpus
--ars
--arsis
--arum
--arus
--ary
--as
--ase
--asi
--asis
--asma
--aspis
--assus
--asus
--at
--ata
--ate
--atella
--ates
--ath
--ati
--atia
--atidae
--atina
--ation
--ations
--ato
--ator
--atum
--atura
--atus
--aty
--au
--aud
--auda
--aulis
--aux
--ava
--aw
--awa
--ax
--ay
--aya
--ayo
--b
--ba
--baena
--bb
--be
--bea
--bi
--bia
--bidae
--biidae
--bile
--bilis
--bium
--bius
--ble
--bn
--bo
--bra
--bs
--burg
--burgh
--bus
--by
--c
--ca
--caceae
--cae
--calyx
--cana
--carpa
--carpus
--carta
--cc
--ccus
--ce
--cea
--ceae
--celis
--cella
--cens
--censis
--cephala
--cephalus
--ceps
--cera
--cerus
--ceum
--ceus
--ch
--che
--chia
--chlora
--chne
--cho
--cht
--chus
--chya
--chys
--ci
--cia
--ciara
--cidae
--cidia
--cina
--cinae
--cio
--cis
--cium
--ck
--cke
--cki
--cks
--cnemis
--co
--copus
--cornis
--cos
--cra
--cris
--ct
--cta
--ctes
--ctidae
--cting
--ctis
--cts
--ctum
--ctus
--ctyla
--ctylidae
--ctylus
--cu
--cula
--culum
--culus
--cum
--cus
--cy
--cybe
--cyna
--cypha
--cyrtus
--d
--da
--dactylus
--dad
--dae
--dberg
--dd
--de
--dea
--den
--des
--dge
--di
--dia
--dica
--dii
--diidae
--din
--dina
--dinae
--dini
--dinidae
--dion
--dis
--dium
--dius
--dl
--dna
--do
--donica
--dora
--dorf
--dr
--dra
--drium
--dron
--drus
--ds
--dt
--dto
--du
--dum
--dus
--dy
--e
--ea
--eaceae
--eae
--eal
--eata
--eatus
--ebia
--ebra
--ec
--eca
--ecia
--ecken
--ecta
--ectus
--ed
--eda
--edia
--edon
--ee
--een
--ees
--ef
--ege
--egia
--egra
--eh
--ei
--eia
--eid
--eidae
--eilus
--eiro
--eis
--eius
--ek
--eki
--el
--ela
--eld
--ele
--eli
--elia
--elis
--ell
--ella
--elle
--elli
--ellidae
--ellum
--ellus
--elma
--elus
--elys
--em
--ema
--eman
--emia
--emis
--emma
--emon
--emum
--emus
--en
--ena
--enae
--ence
--ene
--enes
--eni
--enia
--enius
--ens
--ense
--ensis
--ent
--enus
--eo
--eon
--epalum
--ephala
--ephalus
--er
--era
--erata
--ere
--eren
--eres
--eri
--eridae
--erina
--erior
--eris
--erna
--ernes
--ernus
--ero
--erophyllum
--eropogon
--eros
--ers
--ersa
--ert
--erta
--erum
--erus
--erva
--ervis
--ery
--eryx
--es
--esa
--escens
--ese
--esi
--esia
--ess
--essa
--est
--et
--eta
--etes
--ethus
--eti
--etia
--etis
--eto
--eton
--etosa
--ett
--ette
--etti
--ettix
--etum
--etus
--eum
--eura
--eurus
--eus
--ev
--eva
--evich
--ew
--ex
--exa
--ey
--eyi
--ez
--ezia
--f
--fa
--fauna
--fe
--feld
--feldt
--fex
--ff
--fia
--frons
--ft
--fus
--g
--ga
--gae
--gan
--gas
--ge
--gei
--gen
--gensis
--gg
--gh
--ght
--gi
--gia
--gii
--gio
--gis
--gl
--gma
--gn
--gny
--go
--gomphus
--gon
--gonia
--gr
--gra
--gramma
--grapha
--gs
--gton
--gum
--guna
--gus
--gyne
--h
--ha
--haceae
--hae
--haeta
--haga
--ham
--havn
--he
--hea
--heca
--heilung
--heim
--hela
--hella
--hen
--hensis
--hera
--hes
--hi
--hia
--hias
--hidae
--hii
--hiidae
--himo
--his
--hium
--hiza
--hl
--hlebia
--hm
--ho
--hoe
--hoides
--holis
--hon
--hor
--hora
--horax
--hos
--hr
--hra
--hria
--hrips
--hrix
--hrum
--hrus
--hrys
--hs
--ht
--hum
--hura
--hus
--hy
--hya
--hylax
--hylla
--hyllum
--hys
--i
--ia
--iaca
--iacea
--iaceae
--iae
--ial
--iale
--iam
--ian
--iana
--ianum
--ianus
--ias
--iata
--iates
--iatum
--iatus
--ibia
--ibus
--ic
--ica
--icae
--ical
--icata
--icauda
--icaulis
--ich
--icha
--ichia
--ichthys
--ichus
--icles
--ico
--icoides
--icola
--icollis
--icornis
--ics
--icta
--ictus
--icula
--iculus
--icum
--icus
--id
--ida
--idad
--idae
--idas
--ide
--idea
--iden
--idens
--ider
--ides
--idi
--idia
--ididae
--idion
--idiotus
--idis
--idium
--ido
--ids
--idum
--idus
--ie
--iei
--iella
--iellidae
--ien
--iens
--iense
--iensis
--ier
--iera
--ieri
--ies
--ieu
--if
--ifera
--iffe
--ific
--ifolia
--ifolium
--iformis
--ifrons
--ig
--iga
--igata
--igena
--iger
--igera
--igma
--ii
--iid
--iida
--iidae
--iinae
--iini
--ik
--ike
--iko
--il
--ila
--ilia
--ilis
--illa
--illo
--iloba
--ilus
--im
--ima
--imidae
--imus
--imyia
--in
--ina
--inaceae
--inae
--inata
--inatus
--ine
--inea
--ineata
--inella
--inensis
--ines
--ing
--inger
--ingi
--ingia
--ings
--ington
--ini
--inidae
--inii
--ino
--inosa
--ins
--inum
--inus
--io
--iodea
--ioidea
--ioides
--iola
--ion
--iones
--ioni
--ionia
--ions
--iope
--iophora
--iops
--iopsis
--ior
--iorum
--ios
--iosa
--iota
--ip
--ipa
--ipalpis
--ipeds
--ipennis
--ipes
--iphon
--ips
--ipta
--ipus
--ique
--ir
--ire
--iridae
--iro
--is
--isa
--isca
--isch
--ische
--iscus
--iseta
--ish
--isi
--isia
--isii
--ism
--iss
--issa
--issima
--issus
--ist
--ista
--istes
--isus
--it
--ita
--itarsis
--ite
--ited
--ites
--iti
--itia
--itus
--ity
--itz
--iulus
--ium
--ius
--iva
--ive
--iventris
--ix
--iz
--iza
--ization
--j
--ja
--jev
--ji
--jo
--k
--ka
--kae
--kawa
--kd
--ke
--kei
--ken
--ker
--ki
--kia
--kii
--kin
--kina
--ko
--koi
--kov
--ks
--ku
--kunde
--ky
--l
--la
--lae
--lain
--lan
--lana
--land
--lans
--lanus
--lar
--las
--law
--lax
--ld
--le
--lei
--len
--lensis
--lepis
--ler
--les
--ley
--leyi
--lf
--li
--lia
--lidae
--lies
--lii
--liidae
--lina
--linus
--lis
--lk
--ll
--lla
--llata
--llatum
--llatus
--lle
--llelus
--llensis
--lli
--llia
--llidae
--llii
--llis
--llium
--llo
--llum
--llus
--lm
--lmi
--ln
--lo
--loa
--lobium
--lobus
--logia
--logus
--loma
--lon
--lops
--lor
--lora
--lov
--lpa
--lpis
--lpus
--ls
--lt
--lta
--ltz
--luag
--lum
--lus
--ly
--lys
--lyx
--m
--ma
--mae
--mai
--malus
--man
--mann
--mata
--matidae
--mb
--me
--mea
--mella
--men
--mensis
--menus
--mes
--mi
--mia
--mic
--mica
--midae
--mii
--miidae
--mina
--mination
--ming
--mir
--mis
--ml
--mma
--mmiulus
--mo
--moides
--mon
--mp
--mpa
--mphus
--mpus
--ms
--mu
--mum
--mur
--mus
--my
--myia
--mylus
--mys
--myza
--n
--na
--nae
--naea
--nan
--nas
--nb
--nc
--nca
--nce
--ncia
--ncta
--nctus
--ncus
--ncy
--nd
--nda
--nde
--nder
--ndi
--ndii
--ndo
--ndra
--ndus
--ne
--nea
--nei
--nema
--nemis
--nen
--nense
--nensis
--ner
--nera
--neri
--nes
--ney
--ng
--ngebietes
--ngen
--ngia
--nh
--ni
--nia
--niaceae
--nica
--nicum
--nicus
--nid
--nidae
--nii
--niidae
--nik
--nina
--ning
--nini
--nis
--nische
--nischen
--niscus
--nium
--nius
--nk
--nko
--nm
--nn
--nna
--nne
--no
--noi
--noidea
--noides
--non
--nops
--nopsis
--nor
--nos
--ns
--nsa
--nse
--nses
--nsis
--nske
--nsya
--nt
--nta
--nte
--ntha
--nthrax
--nthura
--nthus
--nti
--ntia
--ntin
--ntis
--ntly
--nto
--nton
--ntonia
--ntops
--ntosus
--ntris
--ntron
--ntrus
--nts
--ntus
--ntz
--nula
--num
--nura
--nus
--ny
--nyx
--nz
--nza
--nzo
--o
--oa
--oba
--obea
--obia
--obium
--obius
--obus
--ocalyx
--ocarpa
--ocarpus
--ocheilus
--ochus
--ock
--ocladius
--ocnemia
--ocnemis
--od
--oda
--odaeus
--odea
--odes
--odi
--odia
--odina
--odiscus
--odium
--odius
--odus
--oe
--oea
--oensis
--og
--ogaster
--ogia
--ogica
--ogical
--ogie
--ogobius
--ogon
--ogy
--ohyla
--oi
--oid
--oidea
--oides
--oiulus
--ok
--oka
--oks
--ol
--ola
--olatus
--oli
--olia
--olica
--olidae
--olis
--ollis
--olobium
--ologia
--ologica
--ology
--olophus
--olus
--oluta
--om
--oma
--omatida
--omatidae
--ome
--omella
--omia
--omidae
--omorpha
--omum
--omus
--omy
--omya
--omyces
--omyia
--omys
--omyza
--on
--ona
--ong
--oni
--onia
--onicum
--onidae
--onii
--onis
--oniscus
--ons
--ont
--onta
--onus
--onymia
--onyx
--oo
--op
--opa
--opeltis
--operla
--ophaga
--ophilus
--ophora
--ophus
--ophylax
--ophylla
--ophyllum
--ophytum
--opia
--opis
--opoda
--opora
--oporus
--oppia
--ops
--opsis
--opus
--or
--ora
--orata
--orax
--ore
--orella
--orema
--orensis
--ores
--ori
--oria
--oridae
--oris
--orium
--ornis
--orpha
--orphus
--ort
--ortus
--orum
--orus
--ory
--os
--osa
--oscia
--ose
--osia
--osis
--osoma
--ostigma
--osum
--osus
--ot
--ota
--otarsus
--otettix
--otheca
--oti
--otia
--otidae
--otis
--ots
--ott
--otti
--otum
--otus
--otylus
--ou
--ough
--oun
--ous
--ov
--ova
--ovi
--ovich
--ow
--oway
--ox
--oxus
--oxylon
--oy
--ozoa
--ozona
--ozoon
--p
--pa
--palpa
--palum
--pe
--perma
--permum
--pes
--pesia
--pex
--pf
--ph
--pha
--phaera
--phaga
--phala
--phalus
--phasma
--phe
--pheus
--phia
--phidae
--phis
--phoides
--phorus
--phs
--phum
--phus
--phylax
--phylla
--phyllia
--phyllum
--pi
--pia
--pidae
--pidus
--pilus
--pin
--pina
--pinosus
--pis
--pius
--pnus
--po
--pod
--poda
--pogon
--pon
--pona
--pongia
--pora
--ppa
--ppia
--pr
--ps
--psis
--pt
--pta
--ptera
--pteryx
--ptila
--ptis
--ptomydas
--ptus
--pus
--pyga
--pyge
--pygus
--q
--que
--r
--ra
--racus
--rad
--rae
--raea
--rai
--ral
--rals
--ram
--ramma
--ran
--rana
--rantha
--ras
--rata
--ratus
--rax
--rb
--rca
--rch
--rcus
--rd
--rdi
--rdia
--rdo
--rds
--rdt
--re
--rea
--rei
--rella
--rema
--ren
--rensis
--res
--reus
--rf
--rg
--rge
--rgia
--rgus
--rhynchus
--ri
--ria
--riana
--ricensis
--rid
--ridae
--ridge
--rii
--riidae
--riinae
--rima
--rimus
--rina
--ring
--rini
--rio
--ris
--ritia
--rium
--rius
--rix
--rk
--rke
--rma
--rmum
--rn
--rna
--rne
--rnia
--rnis
--rnum
--rnus
--ro
--roa
--rologiques
--rologische
--ron
--ronia
--ropis
--rops
--ropsis
--ros
--rosia
--rous
--rov
--rpa
--rpha
--rpum
--rpus
--rr
--rra
--rry
--rs
--rsa
--rsia
--rsis
--rsus
--rt
--rta
--rti
--rtz
--rula
--rum
--rus
--rvis
--ry
--rya
--ryal
--ryi
--ryne
--ryo
--rys
--rysa
--ryum
--ryx
--s
--sa
--saceae
--sae
--sb
--sburg
--sca
--scens
--sch
--sche
--schen
--schna
--sco
--scus
--se
--sella
--sellata
--sema
--sen
--ses
--setia
--sf
--sh
--ship
--si
--sia
--sie
--sii
--sima
--simum
--sin
--sion
--sis
--sischen
--sit
--sita
--sius
--sk
--ski
--skii
--skoi
--sky
--sma
--sman
--smia
--smus
--so
--soma
--son
--soni
--sopis
--spis
--spora
--sq
--ss
--ssa
--sse
--sson
--ssus
--st
--sta
--ster
--stes
--sthes
--sti
--stia
--stis
--strum
--stus
--su
--sum
--sus
--sya
--syon
--sz
--t
--ta
--taceae
--tachys
--tae
--tal
--tala
--talis
--talum
--tarius
--tas
--tata
--tatus
--te
--tea
--ted
--teen
--tei
--tel
--tella
--ten
--tendipes
--ter
--tes
--tettix
--teus
--tex
--th
--tha
--thaceae
--the
--thera
--thi
--thia
--thias
--thonius
--thrax
--thus
--ti
--tia
--tias
--tibia
--tic
--tics
--ticta
--ticum
--ticus
--tida
--tidae
--tidia
--tie
--tier
--tigma
--tii
--tiidae
--tila
--tilis
--tin
--tina
--tinae
--ting
--tini
--tinus
--tion
--tions
--tipes
--tis
--tische
--tium
--tius
--tive
--tle
--to
--toidea
--toides
--toma
--ton
--tona
--toni
--tonia
--tonidae
--tonii
--tor
--torta
--torum
--tosa
--tra
--tre
--tri
--trica
--tris
--trix
--tro
--trum
--trus
--ts
--tsa
--tsu
--tt
--tta
--tte
--ttella
--tti
--ttii
--ttix
--tto
--tukod
--tula
--tulus
--tum
--tura
--ture
--tus
--ty
--tyla
--tylidae
--tylus
--tys
--tz
--tze
--tzi
--u
--ua
--ub
--uca
--uctus
--ud
--uda
--udhuri
--udia
--udus
--ue
--uel
--uensis
--uer
--ugh
--ui
--uicornis
--uin
--uis
--ul
--ula
--ular
--ulare
--ulenta
--uli
--ulidae
--ulis
--ult
--ulta
--ulum
--ulus
--um
--un
--ung
--ungen
--uosa
--up
--upes
--ur
--ura
--urg
--uridae
--urk
--urs
--urt
--urus
--urva
--urvata
--us
--usia
--ut
--uta
--uti
--utia
--utus
--ux
--uza
--v
--va
--vae
--ve
--ven
--ves
--vexa
--vi
--via
--vich
--vie
--view
--vin
--vis
--vitj
--vius
--vol
--vra
--vsky
--vus
--vy
--w
--wa
--wan
--we
--well
--wi
--wig
--wii
--wl
--wski
--wskii
--wskyi
--x
--xa
--xia
--xis
--xus
--xylon
--xys
--y
--ya
--yae
--yama
--yar
--yas
--yc
--yce
--ycea
--ye
--yer
--yga
--yge
--ygia
--ygidae
--ygus
--yi
--yia
--yidae
--yl
--yla
--ylax
--ylidae
--ylis
--ylla
--yllis
--yllum
--yllus
--ylum
--ylus
--yma
--yn
--yna
--yne
--ynh
--ynia
--ynus
--yo
--yol
--yon
--yops
--yos
--yphia
--ypogon
--yptera
--yra
--yrea
--ys
--ysa
--ysia
--ysis
--ytia
--ytus
--yum
--yura
--yx
--yza
--z
--za
--zar
--ze
--zel
--zen
--zi
--zia
--zii
--zio
--zo
--zu
--zzi
--æ
