!
"
#
##0
##1
##10
##11
##12
##13
##14
##15
##16
##17
##18
##19
##2
##20
##21
##22
##23
##24
##25
##26
##27
##28
##29
##3
##30
##31
##32
##33
##34
##35
##36
##37
##38
##39
##4
##40
##41
##42
##43
##44
##45
##46
##47
##48
##49
##5
##50
##51
##52
##53
##54
##55
##56
##57
##58
##59
##6
##60
##61
##62
##63
##64
##65
##66
##67
##68
##69
##7
##70
##71
##72
##73
##74
##75
##76
##77
##78
##79
##8
##80
##81
##82
##83
##84
##85
##86
##87
##88
##89
##9
##90
##91
##92
##93
##94
##95
##96
##97
##98
##99
$
%
&
'
(
)
*
,
-
.
/
0
00
000
01
02
03
04
05
06
07
08
09
1
10
100
102
107
11
110
1136
1194
12
124
13
14
1452
15
150
1565
16
1600
1652
17
1727
1743
1776
18
1800
1807
1822
1845
1848
1850
1851
1858
1860
1870
1874
1878
1883
1886
1889
1891
1893
1894
1897
19
1900
1904
1906
1908
1909
1911
1912
1913
1914
1915
1916
1918
1919
1920
1921
1922
1923
1924
1925
1926
1927
1928
1929
1930
1931
1932
1933
1934
1935
1936
1937
1938
1939
1940
1941
1942
1943
1944
1945
1946
1947
1948
1949
1950
1951
1952
1953
1954
1955
1956
1957
1958
1959
1960
1961
1962
1963
1964
1965
1966
1967
1968
1969
1970
1971
1972
1973
1974
1975
1976
1977
1978
1979
1980
1981
1982
1983
1984
1985
1986
1987
1988
1989
1990
1991
1992
1993
1994
1995
1996
1997
1998
1999
2
20
200
2000
2001
2002
2003
2004
2005
2006
2007
2008
2009
2010
2011
2012
2013
2014
2015
2016
2017
2018
2019
2020
2021
2022
21
22
23
24
25
26
27
28
29
3
30
300
3000
31
32
33
34
35
36
37
38
39
4
40
400
41
42
43
44
45
46
47
48
49
5
50
500
51
52
54
55
56
57
59
6
60
66
67
69
7
70
75
76
77
79
8
80
81
85
9
90
91
95
96
978
99
999
:
;
=
?
@
[
]
^
_
`
a
aaace
ab
aba
abacha
abasama
abass
abayomi
abba
abdul
abdulahi
abdulkadir
abdullah
abdullahi
abe
abeni
abeokuta
abia
abidjan
abigail
abimbola
abina
abiodun
abiola
abo
aboh
abohusun
abomey
about
abraham
abu
abubakar
abubakr
abuja
abz
academy
accra
achebe
acipa
action
actor
actress
ad
ada
adadoji
adajahu
adam
adamson
adamu
adandozan
adavo
ade
adebayo
adebimpe
adebisi
adeboye
adedeji
adedimeji
adegbite
adekola
adekoya
adekunle
adelabu
adele
adeleke
ademola
adeniji
adeniran
adenuga
adeola
adeolu
adeosun
adesua
adetona
adewale
adewusi
adeyemi
adeyemo
adi
adide
adino
administration
ado
adoji
adonu
adrien
adu
adua
adult
adun
adunni
adusi
afafa
afanume
afe
afeez
affairs
afi
afinplo
afintin
aflanme
aflika
aflikanu
afo
afolayan
africa
africaines
african
africana
afrique
afro
afuje
aga
agahome
agahu
agahun
agaie
agaja
agamathen
agano
aganu
agasa
agayiyi
agba
agbaje
agban
agbanlin
agbara
agbasa
agbasago
agbasagonu
agbasalan
agbasalilo
agbawhinwhle
agbawhiwhle
agbawhle
agbe
agbegbe
agbo
age
agege
agewaji
aglipa
aglo
ago
agosu
agriculture
agu
agun
agwara
agya
aha
ahi
ahime
ahisino
ahli
ahmadu
ahmed
aho
ahoho
aholu
ahovi
ahu
ahun
ahunme
ahunzo
ai
aidonugo
aidowhe
aigba
aigbadename
aigbano
aigbe
aiho
aihon
aihu
aihun
aihunbasito
aihunda
aihundagbe
aihundaji
aihundato
aihundida
aihunkanto
aihunto
aimate
aime
aina
air
airlines
airport
aisha
aivi
aiyeola
aja
ajaka
ajale
ajankusu
ajao
ajara
ajasin
ajasse
ajayi
aje
ajegunle
ajido
ajiji
ajijime
ajinnaku
ajo
ajoga
ajose
ajoto
aka
akan
akande
akanni
akarakumo
akbar
akenzua
aki
akin
akinlade
akinnifesi
akinola
akinsanya
akintola
akinwunmi
akiza
akla
aklasu
aklekle
ako
akoka
akoko
akokoe
akonka
akran
aku
akue
akure
akwa
akwe
al
ala
alaba
alabi
alabiki
alade
alaho
alausa
alavo
albert
ale
alex
alexander
alfred
algeria
alhaji
ali
aliglo
alihiame
aliho
alihogbo
aliklan
alimosho
alinpo
alipa
aliplite
aliyu
alkali
all
alla
alli
alliance
almo
alo
alokan
aloyi
alu
alue
aluko
alunlunsun
am
ama
amaka
amamu
amasin
amasinzo
amazon
ambode
ambrose
ame
amelika
america
american
ami
amino
aminu
amisa
amiyo
amlo
amo
amosu
amsterdam
amuka
amvca
an
ana
anademe
anadena
anadename
anadenanu
anadenanuto
anadidenanu
anambra
anazo
and
andrew
anezi
ange
angel
angeles
anglican
anikulapo
animal
anko
anne
annual
ano
another
anthony
antioku
ao
aoto
aovi
apa
apadewhe
apajle
apapa
apart
apawhe
apc
aplan
apo
apoe
apostolic
apotin
aquino
ar
ara
arabia
arabic
arago
archive
archived
are
area
aregbesola
ari
arinze
army
aro
arochukwu
arrows
art
arts
as
asa
ase
asi
asia
asidan
asio
asis
asisa
asiyo
asli
aslo
aso
assembly
association
asu
asuka
asus
at
ata
ate
atete
ati
atiku
atin
atinpe
atinsinse
atlanta
atlantic
atlantik
ato
attah
attahiru
attoh
au
august
augustine
australia
authority
avase
aviation
aviha
avivo
avla
avo
avoseh
avu
avun
avunlo
awa
awagba
awanu
award
awards
awe
awele
aweno
aweto
awewesun
awha
awhan
awhanfun
awhanfunnu
awhanfunto
awhanga
awhangan
awhangbenu
awhanpa
awo
awobuluyi
awolo
awolowo
awori
awu
awubibo
awubla
awufie
awugble
awuhia
awuhio
awupo
awuso
awutu
awutugonu
awuwiwlena
awuwlena
awuyiya
aya
ayaje
aye
ayetoro
ayi
ayidedai
ayidego
ayidonugo
ayidosun
ayiha
ayilinle
ayimate
ayimaten
ayiname
ayinde
ayo
ayoka
ayoma
ayu
aza
azan
azangaagbe
aze
azi
azikiwe
azin
azinpono
azo
azon
azui
b
ba
baale
baba
babajide
babalola
babangida
babasi
babatunde
babilo
baby
bachelor
back
bad
badagry
bafarawa
bagauda
bai
bailey
bako
balekun
balewa
balo
balogun
bamidele
ban
band
banjo
bank
bano
bapte
baptist
bar
barcelona
bardem
barrister
basa
basanjo
basi
basina
basiname
basito
bato
battle
bauchi
bayelsa
bayero
bayi
bayito
bayol
bayowa
bbc
bc
be
beali
beautiful
bellanaija
bello
ben
bene
benin
benjamin
benson
benue
beplame
berlin
bernard
bernhardt
bese
beso
best
beyond
bi
bia
biafra
bibasi
bibayi
bibe
bibio
bibla
bible
biblu
bibo
bida
big
billion
bimbo
bin
bini
bio
biography
biology
birmingham
birnin
bis
bishop
bisi
bisola
bla
black
bladopo
blanu
blanulo
blavo
ble
blebu
blench
bleun
bliki
blo
blood
blossom
blow
blue
blueprint
bo
board
bois
boko
bola
bolaji
bon
boni
book
books
borgu
born
borno
bos
boso
bosso
box
boy
boys
branch
brazil
bri
bride
bridge
brief
brila
britain
british
broadcasting
brother
brown
bu
buba
buchi
buhari
building
bukky
buko
bukunmi
bureau
burkina
buse
business
by
bɔ
bɛ
c
calabar
california
cambridge
cameroon
can
canada
capital
caribbean
casablanca
castle
category
cathedral
catholic
ce
cela
center
central
centre
century
certificate
cfr
chairman
chanchaga
change
chapter
charles
che
chemistry
chicago
chicken
chickens
chico
chidumga
chief
child
children
chile
china
chinonso
chinyere
choice
choufli
chris
chrisland
christ
christian
christmas
christopher
chronicle
chukwudi
chukwujekwu
church
cicipu
cinda
cinq
cinquante
cipu
citation
city
civil
class
club
cms
cnn
co
coast
code
coker
cole
college
columbia
com
come
comedy
comes
coming
command
commerce
commercial
commission
committee
commonwealth
commotion
communication
communications
community
company
comparative
complex
comprehensive
computer
con
conference
confucius
congo
congress
contemporary
continental
corbusier
corporation
corps
cotonou
council
court
covid
crime
croatia
cross
crown
crowther
cry
culture
cup
d
da
daa
daddy
dado
daga
dagbe
dagbedagbe
dagbeme
dagbeno
dagbewa
daho
dahodaho
dahomey
dai
daihun
daily
daite
dakar
dakore
dale
dali
dam
damijo
damilola
damlo
dan
dance
dandan
dandannu
danfafa
dangerous
danialou
daniel
danu
dapana
dapo
dasa
dasin
date
datin
dato
dauda
daughter
david
davido
davies
davu
dawayya
dawe
dawhe
day
dayi
dayo
days
de
dead
deanana
debo
december
dede
dedo
dee
deen
degbe
dego
degree
dehe
dehlan
deji
dekannu
dekannuje
deko
del
dele
delta
deme
democracy
democratic
denanuto
department
depo
depope
deputy
des
desmond
desperate
destiny
detiti
deto
deux
development
devi
devizo
devo
dewe
di
diary
dibla
diblayi
diblayin
dibu
dictionary
dida
didadodo
dide
didepo
didese
dideto
didi
didio
dido
didoai
didohia
didohlan
didona
die
dieu
diga
digital
diho
dike
dikko
dile
din
dinate
dinde
dindin
dindo
dindona
dino
dio
diploma
director
disa
district
dite
division
dix
diyi
diyin
dji
dla
dlan
dlapo
dle
do
doai
doako
doalo
doas
doayi
doctor
dodego
dodinanu
dodinnanu
dodinnanuto
dodo
dodonu
doe
dogbedevome
dogbo
dogo
dohe
dohia
dohla
dohlan
doho
doi
doko
dole
dollar
dom
dome
domingos
dominic
domo
don
dona
donald
donne
donu
donugo
door
dopa
dope
dopo
dopodopo
dopolo
dopoto
dotana
dote
doto
dotoai
dotowhe
dotozo
dotuhome
dovive
dovo
dowato
dowe
dowhenu
doye
doyin
dr
drama
dream
drive
du
duaho
dudu
duga
dugan
dugbe
dugu
duhun
duke
dukoso
dunu
duro
dutch
duto
duvivi
dɔ
e
eagle
east
ebele
ebitu
ebonyi
ebun
ebute
echeruo
economic
economics
ed
ede
edetiti
edidi
edition
editions
edo
edu
education
educational
edward
ees
efik
egbe
egbehe
egbeso
egbezangbe
egbi
egbuson
egharevba
egipti
egiptinu
ego
egun
egyptian
ehe
ehele
eight
eji
ejiofor
ekeinde
ekiti
eko
ekpo
eku
ekukinam
ekun
el
elan
ele
elemosho
elijah
elizabeth
elizade
ema
embassy
eme
emecheta
emeka
emi
emirate
emito
emmanuel
emotional
empire
en
end
ene
enfant
engineering
england
english
eni
eno
entertainment
enugu
ep
epe
eri
ero
es
esan
esin
eso
esogan
esoro
espone
est
estate
esther
et
ete
etim
etle
eto
etomi
etomo
etsako
etsu
europe
evans
everest
evi
evolution
ewa
ewhe
ewo
excellence
executive
exhibition
experience
express
exquisite
eyi
eyin
eyindo
eyo
eze
f
fa
face
faculty
faith
faithia
fakeye
falo
falz
fame
family
farida
fasanmi
fashion
fashola
faso
fatai
fataka
father
fati
fatima
fe
february
federal
felix
fellow
female
femelle
femi
femme
festival
fi
fibe
fiction
fide
fidele
fidepope
fidevo
fidinde
fie
fifa
fifle
fifo
fifty
fihe
file
fille
film
films
filmu
filo
fin
fine
finfin
finflin
finino
finland
fino
fire
first
five
fix
flala
flans
flanse
flansegbe
flansenu
fle
flin
flinflin
flo
flower
fm
fo
fodio
folawiyo
food
for
forbes
force
forces
ford
forest
former
forty
foto
foundation
four
france
frances
francis
frank
frederick
free
freedom
french
from
fruit
ft
fu
fuji
fulani
fun
funawha
funawhan
funmi
funnawha
fɔ
g
ga
gaa
gabaro
gabon
gabriel
gaga
galadima
gallery
galo
gambari
game
games
gan
gandego
gando
gandu
gandudeji
gandudome
gandudu
ganduto
gangan
ganhiho
ganji
ganme
gannugannu
ganpame
gante
ganzinpo
garba
garc
gauge
gawata
gba
gbado
gbagli
gbagyi
gbaja
gbajabiamila
gbakija
gbako
gbakun
gban
gbanato
gbanewhe
gbangba
gbanja
gbanto
gbape
gbau
gbawha
gbawhan
gbayipe
gbe
gbede
gbedewema
gbedide
gbehoso
gbehu
gbeji
gbejizo
gbekanlin
gbeko
gbeme
gbemima
gbenga
gbenu
gbesiso
gbeta
gbetato
gbeto
gbeyinyan
gbi
gbigba
gbigble
gbigblo
gbigbo
gblagbla
gblame
gble
gbleawu
gbleawuna
gblehome
gblingblin
gblo
gbloada
gbo
gbogan
gbon
gbonkan
gbonu
ge
gee
gegenu
general
genevieve
george
georgia
germany
get
ghana
ghetto
ghezo
ghost
gi
gigo
gigono
gigopana
gigopaname
gijimasu
ginglo
girl
girls
given
gle
glele
glelile
gleme
glensigbe
glesi
glezo
gli
glinte
glo
global
go
gobir
god
godia
godo
godome
godona
godono
godoto
gods
godwin
goes
gogan
gold
golf
gollmer
gombe
gome
gomiyo
good
goodluck
gorge
gospel
goto
government
grammar
grand
great
green
gregory
gromee
group
gu
guardian
guinea
gun
gungbe
gunnu
gunnugbeji
gupa
gurara
gwandara
gwari
gwendolen
h
ha
hafsat
hagbe
hajiya
hal
halima
hall
hand
hanjigbe
hanjiji
hanjito
hankanto
hansino
hanzin
harcourt
harvard
has
hassan
hausa
hausagbe
hausanu
he
head
health
heart
heaven
heblu
heblugbe
heblunu
heinemann
helen
hell
hen
henry
her
herbert
here
heritage
heyin
hi
hia
hiadonu
hiawe
hie
high
higher
hihia
hiho
hihodo
hill
hinhe
hinho
hip
his
historical
history
hitler
hiv
hla
hladio
hlan
hlape
hlo
ho
hoavu
hoavun
hode
hodide
hodido
hodo
hodoto
hoduto
hogbe
hoho
hohowhenu
hokanseme
holy
home
hon
honour
honu
hop
hope
hopodona
hoso
hospital
hotel
hoto
houngbe
hour
house
howard
hoyido
hoyidokanji
html
http
https
hu
hubert
hudo
hugan
huhlo
huhu
hui
huit
human
humo
hun
hundeyin
hundogan
hundote
hunhlo
hunhun
hunkunto
hunnukun
hunsingan
hunwhe
hunyanhunyan
husun
huto
huve
huwaji
hɔ
i
ianto
ianwe
ianweto
iato
iaweto
iba
ibadan
ibiam
ibibio
ibom
ibrahim
ibu
ice
ict
idah
iddo
idi
idiat
idoma
idopo
idopoto
idowu
idris
idumota
ie
if
ife
ifeanyi
ifelodun
igala
igba
igbo
igboho
igbomina
igbonu
igwe
ihenacho
ii
iii
ije
ijebu
ijesha
ijo
ika
ike
ikeduba
ikeja
ikorodu
ikotun
ikoyi
il
ila
ilara
ilaro
ile
ilesa
ilesanmi
ilesha
illinois
ilorin
imasuen
imdb
ime
imf
imiekuri
imo
in
ina
inato
inawe
inaweto
inc
independent
india
indian
indigenous
indonesia
industry
ine
information
inheritance
ini
initiative
innovation
ins
institute
inte
international
internet
introduction
inu
inumidun
inuwa
investment
inyama
inyo
io
ipa
ipo
iran
ire
ireland
ireti
iroko
is
isa
isaac
isale
isbn
ise
ishaq
isime
isin
islaeli
islaelivi
island
isoko
isola
isolo
issn
it
ita
italy
ite
itire
ito
itsekiri
ivi
ivoire
iwa
iwe
iweala
iwo
iwoye
iya
iyawo
iye
izuzu
j
ja
jaale
jack
jackson
jacob
jacobs
jaguda
jai
jakande
jalade
james
jamila
jan
january
janwe
japan
jaya
je
jean
jebba
jee
jehovah
jei
jelusale
jenifa
jesu
ji
jiawu
jibe
jide
jideji
jigawa
jiha
jihan
jihun
jije
jiji
jijizan
jijla
jijlado
jijle
jijo
jikun
jim
jimi
jimmy
jinuku
jinukun
jipa
jisun
jito
jivi
jiwheye
jiwheyewhe
jla
jlado
jladobasito
jladoto
jlato
jle
jlo
jo
jodo
joe
john
johnson
joke
jona
jonathan
jones
jono
jos
jose
joseph
joshua
journal
journalism
journey
joy
ju
jude
judo
juju
julius
july
jumoke
jump
june
jupita
just
justice
juwayi
jɔ
k
ka
kado
kaduna
kainji
kaka
kakadoi
kakaje
kakanda
kakati
kakatimo
kalu
kambari
kamuku
kan
kanawa
kanayo
kanbio
kandai
kande
kandegba
kandeko
kando
kankloso
kankon
kanlin
kanlinmo
kanna
kannu
kannywood
kano
kans
kanse
kanto
kanu
kanuri
kanwe
kanweko
karai
kastina
katcha
katoliki
katsina
kavi
kay
kayode
kazdarli
ke
kealo
keeping
kelani
kelechi
kemi
kennedy
kerikeri
ketu
key
ki
kid
kidjo
kija
kiklo
kilimanjaro
kilome
kilomita
kilusi
king
kingdom
kings
kinka
kinkan
kinkandai
kinkanto
kinko
kinnikinni
kinu
kiss
kla
klan
kle
klepto
kleun
kli
klisti
klistiani
klo
klohugan
kluno
km
knik
ko
koato
koewhedopoto
kogi
koklo
koko
kola
kolawole
kontagora
konuku
konukunato
konukunaweto
konukundopo
konukundopoto
konukune
koo
kosi
koso
kosofe
kosoko
koto
kou
kryvyi
ku
kuavo
kudiho
kudu
kue
kukah
kukuna
kukuto
kumbari
kun
kunkan
kunkun
kunle
kunno
kunnu
kunnudenu
kunnudeto
kuno
kunto
kupa
kuru
kuti
kuto
kuve
kuye
kwara
kwe
kyiv
kzanda
kɔ
kɛ
l
la
label
ladi
ladies
ladio
ladioho
ladipo
lady
lafia
lagbaja
lagos
lake
lalo
lame
lan
land
language
languages
lanme
lanre
lapai
last
late
lateef
latin
law
lcda
le
lead
leadership
league
learning
ledo
left
legacy
lehe
lekki
leone
les
let
level
lezun
lgd
li
liai
liberia
library
lidosun
life
lifin
light
liho
lika
likanu
likun
lila
lile
lili
lilian
liman
limited
lin
lincoln
linfin
linguistics
linle
linlin
linlinhiato
linlinho
linlinkanto
linlinname
linlinwe
linlinwekanto
linlinwhe
linlinzo
list
literature
literatures
little
liva
live
lives
livi
living
liyasun
lizo
ll
lo
loboto
local
lodo
lokoja
lola
lolo
lome
lomu
lomunu
london
lopa
lopo
los
lost
louis
love
ltd
lu
luck
ludu
luduta
luhiho
luhogbe
luhoto
luigba
luzo
lɔ
lɛ
m
ma
macaulay
macmillan
madam
madawaki
made
mado
madonukun
madrid
magazine
magbe
magbo
magic
mahe
mahmoud
mahopo
mai
maiduguri
maili
main
mainland
maja
major
makama
make
makoko
male
malenu
malenuga
mallam
mama
man
management
mandela
manga
manuel
mapote
march
margaret
maria
marie
mariga
marilyn
marina
mark
market
marriage
married
martin
martins
mary
maryam
maryland
mas
mashegu
maso
mass
massachusetts
master
mathematics
mathieu
matin
matindo
matinto
mausi
mawu
may
mayin
mayo
mbaise
mbe
mbu
mc
me
means
mecca
medele
media
medical
mehe
melaye
member
memorial
men
meplo
mercy
merit
meta
methodist
metta
mexico
meyer
mfr
mi
michael
middle
mide
midwifery
mijan
mike
mile
military
million
milomilo
mima
mimiko
mimo
minasu
mind
minister
ministry
minna
mio
mipamawu
miracle
mirror
mis
misimawu
miss
mission
missionary
mito
miyo
mle
mlo
mo
model
modern
mofe
mogaji
mohamed
mohamma
mohammed
mokin
mokwa
mon
money
monroe
monument
more
moremi
morning
morocco
morrocco
mose
moses
moshood
mosque
most
mother
moto
motors
movement
movie
movies
mpli
mr
mrs
mtn
mtv
mu
muhammad
muhammadu
muhammed
munya
murtala
musa
museum
mushin
music
muslim
must
mustapha
mutaldi
muyiwa
my
mɔ
mɛ
n
na
nado
nae
nagba
nagbe
nagudu
naguji
nai
naija
naijilia
naijilianu
naira
nake
nalina
nalito
nalo
name
nami
namoda
nancy
nanu
nasarawa
naso
nation
national
nations
naval
navy
nawata
nawe
nawha
nawu
nawudopo
nayo
nazi
nbasi
nbo
nbu
ncnc
nd
nda
ndagbe
ndai
ndato
nde
ndeji
ndena
ndename
ndi
ndida
ndido
ndio
ndo
ndoai
ndohlan
ndokwa
ndonu
ndopo
ndote
ndotena
ndoto
nduto
ne
need
needed
nen
nento
nepal
neptune
net
neuf
new
news
newspaper
nfo
nfu
nfunfun
nfunnu
nfunto
ng
nga
ngaji
ngan
ngba
ngban
ngbato
ngbe
ngbedopo
ngbenu
ngbigba
ngble
ngblo
ngbo
ngle
nglinte
ngo
ngodo
ngozi
nha
nhe
nhiho
nhlan
nho
nhome
nhoto
nhu
nhugan
nhungan
ni
nice
nido
nife
niger
nigeria
nigerian
night
nikaa
nike
nikikodoname
nile
nina
nine
nineteenth
nino
niye
nje
nji
njiawu
njiji
njinu
njito
nka
nkan
nkanto
nke
nkem
nko
nku
nkue
nkun
nla
nlato
nliho
nlin
nlinye
nlinzinto
nlo
nma
nme
nmi
nmle
nmo
nna
nnachi
nnaji
nnamdi
nname
nne
nnewi
nni
nno
nnu
nnugbo
nnukun
nnukunato
nnukunawe
nnukunaweto
nnukundopo
nnukundopoto
nnukune
nnukunnuje
nnume
nnumuno
nnupo
nnusi
nnuto
nnuyo
no
noa
nobel
nollywood
nom
non
norma
north
northern
not
note
nouria
novel
november
novi
novo
now
npa
npame
npan
npe
npinplo
nplo
npo
npono
ns
nsagun
nsato
nse
nsi
nsigbe
nsin
nsino
nsise
nso
nsu
nsukka
nsun
nta
nte
ntin
ntinme
ntinslo
ntlo
nto
ntu
nu
nubayito
nubio
nudagbe
nudanu
nude
nudego
nudele
nudepope
nudevo
nudi
nudida
nudide
nudido
nudindo
nudo
nudopolo
nududu
nue
nugbaje
nugbe
nugbo
nugbono
nuglo
nugonu
nugopipe
nugopo
nuhahun
nuhe
nuhewutu
nuhiho
nuho
nuhoho
nuhu
nuhudo
nujijla
nujijo
nujino
nujo
nujonu
nukanto
nukiko
nukikodoname
nukinkan
nuko
nuku
nukun
nukunato
nukunawe
nukunaweto
nukundeji
nukundido
nukundopo
nukundopoto
nukune
nukunhunhun
nukunke
nukunme
nukunmo
nukunnuje
nukunnumo
nukunpedego
nukunpedo
nukunpedome
nukunpedonugoto
nukunpipedo
nukunso
nukunto
nukunwhiwhe
nule
nulila
nulinle
nulo
nume
numiimo
numimo
numo
nunina
nunnuyo
nuno
nunu
nupas
nupe
nupenu
nupinplo
nupinpo
nuplo
nupo
nursery
nursing
nus
nusa
nusate
nusato
nusisa
nusiso
nuso
nusu
nususu
nutindo
nutite
nutogbe
nuvi
nuvikun
nuvo
nuwa
nuwadopo
nuwe
nuwha
nuwiwa
nuyise
nuyiwa
nuyiwadome
nuyizan
nuylankan
nuyo
nuzedonuko
nuzinza
nuzinzan
nuzo
nve
nvi
nvo
nvona
nvu
nwa
nwaji
nwan
nwanu
nwate
nwato
nwe
nwezun
nwhanpe
nwhe
nwiwa
nwosu
nwun
ny
nye
nyi
nyin
nyinyo
nyiyi
nyizo
nylankan
nyo
nyuu
nze
nzekwu
nzinpo
nzo
nɔ
nɛ
o
oba
obafemi
obalende
obasanjo
obaseki
obey
obi
obio
oble
obo
obokun
oboni
oclc
october
oda
odaa
odan
ode
odo
odu
oduduwa
odunlade
oduoye
of
ofa
ofe
offa
office
officer
ofi
ofin
ofligo
oflin
oflo
ofr
ofu
oga
ogan
ogangbakun
ogante
ogba
ogbaro
ogbe
ogbi
ogbo
ogbonna
oge
ogede
ogedengbe
ogendengbe
ogiame
ogidan
ogle
oglo
ogo
ogu
ogun
ogunsanya
oguzangbe
oh
oha
ohan
ohe
ohi
ohia
ohla
oho
ohu
ohun
ohuwaji
oil
oja
ojan
oje
ojle
ojlo
ojo
oju
ojuelegba
oka
okafor
okan
oke
okechukwu
okeke
okle
oklo
okluno
oko
okoh
okonjo
okoro
okoto
okoya
okpella
oku
okun
okupe
okuta
ola
olabisi
oladele
oladipo
olaide
olaiya
olamide
olan
olasunkanmi
olatunji
olawunmi
olawuyi
olayinka
old
olo
olojo
olowo
olowu
olu
olufemi
olupo
olus
olusegun
oluwa
oluwasina
oma
omar
ome
omi
omo
omobola
omobolanle
omotola
omotunde
omu
omuhunu
on
ona
onabanjo
onabolu
onasanya
ondo
one
oni
onilude
oniroko
onitsha
ono
onor
onu
oodua
oon
ooni
opa
opagbe
ope
open
opera
opli
oplo
oploji
opo
or
ora
orange
orangun
order
org
organizzato
ori
original
orile
orin
orji
orlando
oro
oronsen
os
ose
oshin
oshodi
oshoffa
oshogbo
osi
osin
oslu
oso
osogbo
osu
osun
osuofia
ota
otan
otannugbo
otanwa
otanwe
otanwekanto
ote
other
others
otlo
oto
otodaho
otogan
otogbo
otoho
otovi
otto
otu
ou
ouidah
our
out
outstanding
ova
ove
ovi
ovisunnu
ovivi
ovivu
oviyo
ovo
ovu
ovuwhenu
owa
owalo
owan
owanvu
owanyi
owanyin
owe
oweho
owerri
owese
owha
owhe
owhi
owhle
owi
owo
owode
owoh
owope
owu
oxford
oye
oyetoro
oyi
oyin
oyingbo
oylo
oyo
oza
oze
ozi
p
pa
paa
paaki
paali
pain
palace
paladisi
palm
palme
palmer
pame
pan
pannuko
panu
papa
paracetamol
parakou
paris
park
partecipa
party
pas
passion
pataki
pato
patrick
paul
pdp
pe
peace
pede
pegan
pehe
peko
pemu
penicillin
pennsylvania
pentecostal
penugo
penuku
penukun
penukundo
people
performance
pete
peter
petersburg
petlezi
petlezin
petroleum
pevi
ph
phant
phd
phillip
phillips
phore
pi
picture
pictures
pidgin
pierre
pinpe
pinpin
pinplo
pinpo
pipa
pipe
pipehe
pipli
pita
pla
plaba
place
plame
plan
plane
plateau
play
pli
plidopo
plipli
plo
po
podo
poetry
poison
poland
police
polite
political
polytechnic
pongu
pono
ponu
pop
pope
popole
port
porto
portugal
portuguese
post
postal
posu
potin
poun
power
pp
pr
praise
prayer
pre
premier
premium
present
president
press
prest
primary
prince
princess
principal
prize
prof
professor
profile
programme
progressive
progressives
project
property
pu
public
publications
publishers
pulse
punch
putin
pɛ
q
quarante
quatre
que
queen
r
ra
radio
rafi
rahama
rahman
rainbow
ralia
ramadan
ransome
rauf
razaq
re
real
reality
recognition
red
redeemer
regi
relations
republic
rerengejen
research
retrieved
return
rev
review
ri
richard
rih
rimi
rin
ringim
rita
river
rivers
ro
road
robert
rock
roger
rogo
romance
ronke
rotimi
route
royal
ruby
rukayya
rumawa
run
russell
russia
russian
s
sa
saa
saba
sacrifice
sadau
sade
sadoko
sagbohan
sahara
saheed
saint
saki
sakle
salami
salt
sam
samue
samuel
san
sand
sandy
sango
sani
sanni
sanu
sanusi
sanvo
sanwo
sapele
saraki
sarki
sarkin
satani
sate
satin
sato
saturn
saud
saudi
save
sawhe
saya
says
school
schools
science
scolari
scotland
se
season
second
secondary
secret
sedote
segun
sekan
sekanfun
seminary
senator
senegal
senior
senu
sept
september
series
seriki
service
setonu
seven
sex
shadows
sharia
sharon
shashere
she
shehu
shekkarau
shettima
shiroro
shola
short
show
shuga
si
sia
sianu
sidi
sidopo
sidopoto
sierra
sigba
signifie
sika
sikiru
silent
silva
simeon
simon
sin
sinago
sinai
sine
sinima
sinimabayito
sinimo
sinli
sinme
sinnimo
sinsan
sinse
sinsen
sinsie
sinsinye
sinsinyen
sinye
sio
sir
sisa
sise
sisi
sisle
siso
sisosiso
sister
sisters
six
sixteen
sla
slave
slessor
smith
so
soap
sobowale
social
society
sogan
sogbe
soglo
sokoto
sola
soldier
solomon
some
son
song
sony
soul
south
southern
souza
soviet
soyinka
spain
spanish
special
sports
square
st
stadium
staff
standard
star
stars
state
states
statue
steli
stevenson
stober
stoiki
stories
story
street
student
students
studies
studio
study
su
suaho
sub
sud
suhugan
sule
suleiman
suleja
sultan
sun
sunday
sunfo
sunme
sunmi
sunnu
sunnusi
sunny
sunwhle
sunzanhiawe
super
supo
supporting
surulere
survey
susu
susugege
suwe
sweden
sweet
switzerland
sɔ
sɛ
t
ta
taba
tabla
tado
tadudu
tafa
tafawa
tafo
tai
taidi
taitanik
taiwo
take
taki
takin
takue
tales
talon
tame
tamma
tan
tangan
taraba
tata
tato
taun
tave
tavo
te
teacher
teaching
tears
technical
technology
tedidi
tedo
tee
tegbesu
tejuosho
tejuoso
tekan
tele
television
televizio
televizion
temple
ten
tena
tevi
tewa
text
th
that
the
theatre
there
they
third
thirty
this
thisday
tho
thomas
three
thriller
ti
tiata
tijani
time
times
timothy
tin
tindo
tinsel
tinta
tintan
tintengbe
tintindo
tinto
tinubu
titan
titengbe
titi
title
tito
titobasina
titobasinanu
tiwa
tle
tli
tliki
tlo
tlu
tluto
to
tobacco
todaho
todido
todin
todohukanji
tofi
toga
togan
togante
togbo
togboga
togbogan
togo
togodo
toho
tohodido
tohodo
tohome
toke
tokyo
tolanme
toli
tome
tomorrow
ton
toniyo
tono
tonudido
tonudo
tonusise
tony
too
top
tope
topo
toro
tosin
tourism
tout
tovi
towe
tower
towhan
town
townsend
towry
toyin
toyota
trade
traditional
training
trans
translation
travel
tre
treasure
tree
trente
trois
trouble
trust
truth
tsamiya
tu
tukla
tukladome
tuli
tun
tunde
tundote
tunis
tunisia
turaki
tutu
tv
twenty
twins
two
tzu
tɔ
tɛ
u
uche
udechukwu
udokwu
uk
ukah
ukiwe
ukraine
umar
umaru
umuahia
un
uncp
under
unesco
unicef
union
united
university
up
uranus
urban
us
usa
usman
uwo
uyo
uzochukwu
v
va
van
vanguard
ve
velekete
vi
viavi
victor
victoria
victory
vide
video
vidio
viewers
vijiji
vijinu
village
ville
vingt
vipe
virgin
visunnu
visunu
vive
vivi
vivo
viye
viyo
vladimir
vlavo
vo
vobibla
vodide
vodidi
vodu
vodun
vogbingbo
voice
vol
von
vono
voovo
vothuno
vounvoun
vovo
vu
vude
vudevude
vuwhenu
vɛ
w
wa
wadohia
waec
wahab
waji
wajo
wale
walk
walo
wamakko
wamo
wanu
war
warisi
warri
warrior
was
wase
washington
waso
watch
wato
wawas
wawhe
wayi
waziri
wazo
wazon
we
wealth
web
webb
weda
wedding
wedegbe
wedudu
weduto
week
wefo
wehihia
weho
wehome
weka
wekanhlanme
wekante
wekantin
wekanto
wekinkan
weku
wekun
welcome
wema
weme
wepinplo
wepiplo
weplo
wepo
wese
weseto
wesley
west
western
weta
wewe
weyo
weze
wezinzin
wezun
wha
whan
whanpe
what
whe
whedele
whega
whegan
whegbe
whehe
wheho
whehodido
whehodo
whejai
whejisun
whekanlin
whele
whelo
wheme
whemito
when
whene
wheno
whenu
whenue
whenuena
whenuho
whepo
whepoponu
whesi
wheto
whevi
wheyiho
wheze
whi
which
whinnu
whinnuse
whinwhe
whinwhle
white
whiwhe
whla
whladopo
whlasusu
whle
whlepo
who
why
whydah
wi
wiato
wiawe
wiaweto
widopo
widopoto
wie
wife
wiki
wikipedia
wikiweze
will
william
williams
williamson
wilson
winner
wintinwintin
with
wiwa
wiwe
wiweji
wiwle
wiwo
wizkid
wla
wle
wlealo
wleawu
wleawuna
wlebona
wleme
wlu
wo
wole
woman
women
won
wood
workers
world
wright
wu
wuje
wunme
wurld
wushishi
wutu
www
wy
wz
wɔ
x
y
ya
yaba
yabo
yahaya
yahweh
yaji
yake
yakubu
yan
yansun
yanto
yanwle
yar
yawu
yayi
ye
year
years
yede
yedele
yedo
yelo
yeme
yemi
yero
yeto
yewa
yewande
yewle
yi
yiaga
yido
yidogo
yidogona
yidogoname
yidoto
yigbaji
yigbe
yigo
yigona
yiho
yii
yin
yina
yindidi
yindo
yinho
yinka
yinko
yinmo
yinu
yinuko
yinuwa
yinuwado
yinwana
yinwanna
yinyan
yinyin
yinyo
yinyone
yise
yiseno
yishau
yite
yito
yiwa
yiwanna
yiya
yiyi
yiyidogo
yiyiza
yiyizan
yiylo
yizan
ylan
ylankan
ylo
yo
yobe
yomi
yonnu
york
yoru
yoruba
you
young
your
yours
youth
youtube
yovo
yovogbe
yovogbeme
yovotome
yovoze
yozo
yu
yugbeji
yusa
yusuf
yuu
yuyu
z
za
zain
zainab
zaki
zamnagawa
zamudio
zan
zangbeto
zanhe
zanheme
zanme
zannu
zaria
ze
zealand
zedai
zedaito
zee
zelensky
zepo
zeus
zeynab
zi
zin
zindonuko
zingbejizo
zinje
zinpo
zinsou
zinvlu
zinzan
zinzin
zinzinje
zinzo
zizan
zize
zizedai
zizedo
zizeje
zlo
zo
zohunhun
zoke
zomo
zosun
zu
zun
zungbo
zungbome
zungeru
zɔ
{
}
°
²
×
ɓ
ɔ
ɛ
ɡ
ɡa
ɡo
ɡɔ
ʃi
ʒa
ʒi
ʒo
ʒɔ
ʒɛ
ʷ
ː
̀
́
̂
̃
̄
̆
̈
̌
̣
̧
͡
в
ا
ة
م
ي
‐
–
—
‘
’
“
”
•
′
″
₦
€
↔
↷
−
③
④
⑦
♀
♁
♂
⺀
⺄
⺆
⺈
⺊
⺌
⺕
⺝
⺸
⺼
⿰
⿱
⿲
⿳
⿴
⿵
⿶
⿷
⿸
⿹
⿺
⿻
〢
コ
ユ
㇁
㇂
㇄
㇇
㇈
㇉
㇓
㐁
㐄
㐅
㐌
㐫
㐬
㐭
㐮
㐱
㑒
㒵
㒸
㒼
㓁
㓞
㔾
㕛
㕣
㖾
㘝
㚅
㚇
㚔
㚘
㝉
㝡
㝴
㝵
㞋
㞢
㞷
㠩
㠭
㠯
㡀
㡭
㡿
㢲
㢴
㣇
㣺
㥯
㪅
㫄
㫐
㫒
㫺
㬅
㬎
㬥
㬰
㲋
㳄
㷠
㸒
㸚
㸦
㼌
㼲
㽞
㿟
䀠
䂞
䍃
䏍
䒑
䖍
䖒
䖝
䖵
䙴
䚻
䜌
䝿
䡛
䧹
䪞
一
丁
丂
七
丄
丅
丆
万
丈
三
上
下
丌
不
与
丏
丐
丑
专
且
丕
世
丘
丙
业
东
丞
丢
丣
两
严
並
丨
丩
个
丫
丬
中
丮
丰
丱
串
丵
丶
丷
丸
丹
为
主
丽
丿
乀
乂
乃
久
乆
乇
么
义
之
乌
乍
乎
乏
乐
乑
乔
乖
乗
乘
乙
乚
乛
乜
九
乞
也
习
乡
乳
乾
亀
亅
了
亇
予
争
事
二
亍
于
亏
亐
云
互
亓
五
井
亘
亚
亜
亞
亟
亠
亡
亢
交
亥
亦
产
亨
亩
享
京
亭
亮
亯
亰
亲
亳
亶
亷
人
亻
亼
亾
仁
今
介
仌
从
仐
仑
仒
仓
仕
他
付
仝
代
令
以
任
企
伊
伏
伐
休
会
伯
但
位
何
佘
余
作
佥
使
來
侈
侌
侖
侯
侵
便
保
俞
信
修
倉
倍
候
倠
備
僉
僕
儿
兀
允
兂
元
兄
充
兆
兇
先
光
兊
克
兌
免
兑
兒
兓
兔
党
兜
兟
入
全
兩
兪
八
公
六
兮
兰
共
关
兵
其
具
典
兹
兼
冀
冂
冃
冄
内
冈
冉
冊
冋
册
再
冎
冏
冐
冒
冓
冖
冗
冘
军
农
冝
冡
冥
冫
冬
冷
几
凡
凢
凵
凶
凷
凸
凹
出
函
凾
刀
刁
刂
刃
刄
刅
分
切
刍
刑
刕
刖
列
刘
则
初
別
利
别
到
制
刺
則
削
剌
前
剡
剽
劉
力
功
加
劦
助
劫
劳
劵
勃
勇
勉
勒
動
務
勞
勤
勹
勺
勻
勾
勿
匀
匂
包
匆
匈
匊
匋
匍
匕
化
北
匚
匝
匡
匪
匱
匸
匹
区
医
匽
匿
區
十
卂
千
卄
卅
卆
升
午
卉
半
卌
华
卑
卒
卓
单
卖
南
卜
卝
卞
占
卡
卢
卣
卤
卦
卩
卪
卬
卯
印
危
即
却
卵
卷
卸
卻
厂
厃
厄
历
厈
厉
厌
厓
厘
厚
原
厤
厥
厨
厭
厲
厶
厷
厸
去
厼
厽
叀
参
參
叅
又
叉
及
友
双
反
叐
发
叒
叔
叕
取
受
叚
叜
叟
口
古
句
另
叩
只
召
可
台
叱
史
右
叵
号
司
叹
吂
各
吅
合
吉
吊
吋
同
名
后
吏
向
吕
君
吝
吞
否
含
启
吳
吴
吹
吾
呂
呆
呈
告
员
呙
周
命
咅
和
咎
咠
咢
咨
咸
咼
哀
品
哉
員
哥
哲
唐
商
啇
問
啚
啬
啻
善
喜
喬
單
喿
嗇
噩
嚴
囊
囗
囘
囙
囚
四
回
囟
因
囧
囬
困
囱
囷
固
国
圂
圅
國
圍
圓
土
圡
圣
圥
在
圭
地
圶
圼
坐
坒
坚
坴
垂
垔
垚
埀
埋
埶
執
基
堂
堅
堆
堇
堯
塞
墨
壘
士
壬
壯
声
壳
壴
壹
壺
壽
夂
处
夅
夆
备
夊
夋
夌
复
夏
夒
夕
外
夗
夘
多
夜
夢
大
夨
天
太
夫
夬
夭
央
失
夲
头
夷
夸
夹
夻
夾
奂
奄
奇
奈
奉
奎
奏
奐
契
奓
奔
奚
奞
奠
奢
奥
奭
女
奴
奻
好
如
妄
妙
妟
妥
妻
妾
姑
委
姜
威
娄
婁
婴
嬰
嬴
子
孑
孔
孕
孖
字
存
孚
孛
孝
孟
季
孤
学
孫
孱
學
宀
宁
宂
它
宅
宇
守
安
宋
完
宏
宓
宗
官
定
宛
宜
宝
客
宣
室
宮
宰
害
家
容
宾
宿
寄
寅
密
富
寒
察
寧
審
寫
寬
寮
寸
对
寺
寻
寽
対
寿
封
尃
射
将
將
專
尉
尊
尋
尌
對
小
少
尒
尓
尔
尖
尗
尚
尞
尢
尣
尤
尧
尨
尭
就
尸
尹
尺
尻
尼
尽
尾
尿
局
居
屈
屋
屎
屏
屑
展
屖
屚
属
屠
屡
屬
屮
屯
屰
山
屵
屾
岁
岂
岑
岡
岩
岳
岸
峯
島
崇
崑
崔
崖
崙
崩
嵬
嶲
巂
巛
川
州
巟
巠
巢
巤
工
左
巧
巨
巩
巫
差
己
已
巳
巴
巷
巸
巽
巾
巿
帀
市
布
希
帚
帛
帝
带
師
席
帶
常
干
平
年
幵
并
幷
幸
幺
幻
幼
幽
幾
广
広
庄
床
底
店
庚
府
度
庫
庭
庶
康
庸
廉
廌
廛
廣
廩
廴
延
廷
建
廾
廿
开
弁
弃
弄
弇
弋
式
弓
弔
引
弗
弘
弜
弟
弥
弦
弱
張
強
强
彊
彌
彎
彐
彑
当
彔
录
彖
彗
彡
形
彥
彦
彧
彭
彳
役
彼
往
待
律
徒
得
徙
從
復
微
徵
心
忄
必
忌
忍
志
忝
忠
忩
快
念
忽
忿
思
怠
急
怱
恆
恒
恩
恭
息
悉
患
悤
悲
悶
惠
惡
惢
愁
愈
意
愛
感
慈
慧
慮
憂
憲
應
戀
戈
戉
戊
戋
戌
戍
戎
成
我
戒
戔
或
戚
戠
戢
截
戲
戶
户
戹
戼
戾
房
所
扁
扇
手
扌
才
打
托
执
承
折
拉
拜
拿
掌
推
提
摩
支
攴
攵
收
攸
改
放
政
敄
敏
敕
敖
敗
敝
敞
敢
散
敦
敫
敬
数
敷
數
斂
文
斉
斊
斗
斤
斥
斩
斬
斯
新
方
於
施
斿
旁
旋
族
无
旡
既
旣
日
旦
旧
旨
早
旬
旱
旲
时
旾
昆
昇
昌
昍
明
昏
易
昔
昗
昜
星
春
昬
是
昱
昴
昷
時
晃
晋
晏
普
景
晶
智
暑
暴
曇
曩
曰
曲
曳
更
曷
書
曹
曼
曾
替
最
朁
會
月
有
朋
服
朔
朕
朗
望
朝
木
朩
未
末
本
札
朮
术
朱
朵
朶
朿
杀
杏
杜
束
条
来
東
杲
杳
松
析
林
枚
果
枝
枲
枼
某
柔
查
柬
柰
柴
栗
桀
桑
桼
梁
條
梟
梨
棘
棠
棥
森
楚
業
楽
榮
樂
樊
欠
次
欣
欮
欲
欶
欽
款
歆
歇
歛
止
正
此
步
武
歨
歪
歮
歯
歰
歲
歴
歷
歸
歹
歺
死
殳
段
殷
殸
殹
殺
殻
殿
毋
毌
母
每
毒
比
毕
毚
毛
毳
氏
氐
民
气
氣
水
氵
氶
氷
永
氺
氾
求
汝
汞
江
沃
沓
沙
沝
泉
法
波
泣
泥
泰
洛
洪
活
派
流
浦
浪
浮
淡
淮
清
渚
渠
湯
滿
漸
火
灬
灭
灰
灵
灷
炅
炎
炏
炗
炙
炭
為
烈
烏
烝
焉
無
焦
焱
然
煞
熊
熏
燕
營
燮
爪
爫
爭
爯
爰
爱
爲
爵
父
爻
爽
爾
爿
片
牙
牚
牛
牜
牟
牢
牧
牪
牽
犀
犬
犭
犮
狂
狄
狊
独
狺
猋
猒
猪
献
獻
玄
率
玉
王
玟
玨
珎
班
琴
瑟
瑩
瓜
瓦
甘
甚
生
産
用
甫
甬
田
由
甲
申
电
甶
男
甸
甹
画
甾
畀
界
畏
畐
留
畜
畟
畢
畧
畨
番
畫
異
畱
當
畺
畾
疊
疋
疌
疑
疒
疾
癶
癸
癹
登
發
白
百
皀
皃
的
皆
皇
皋
皐
皕
皮
皷
皿
盃
盆
盇
盈
益
盍
盎
监
盒
盖
盛
盡
監
盤
盧
目
直
相
盾
省
眇
眉
看
眔
眞
真
眷
眼
眾
着
睘
睪
睿
瞏
瞢
瞿
矍
矛
矞
矢
矣
知
矦
短
石
破
碎
磊
磨
示
礻
礼
祟
票
祭
禀
禁
禸
禹
禺
离
禽
禾
禿
秀
秃
秉
秋
科
秝
秦
移
稟
穀
穌
穴
究
穹
空
穿
突
窄
窒
立
竒
竜
竝
竟
章
童
竹
笑
笠
筆
等
答
箕
算
箴
節
篤
篭
米
粉
粛
粟
粤
粦
粲
糞
糸
糹
系
約
納
素
索
紫
累
細
絜
絫
絲
維
綿
縣
繇
纍
纟
缶
网
罒
罔
罕
罗
罙
罡
罢
罪
署
罷
羅
羊
羌
羍
美
羔
羕
羗
羞
羡
羣
群
義
羲
羸
羽
翁
翏
習
翕
翟
翠
翼
老
耂
考
者
耆
而
耎
耑
耒
耳
耴
耶
耷
聂
聊
聖
聚
聶
聿
肀
肃
肅
肉
肖
肙
肥
肩
肯
育
肴
胃
背
胡
胥
能
脊
脩
膚
臣
臤
臧
自
臬
臭
臯
臱
至
致
臺
臼
臽
臾
臿
舀
舂
舄
與
興
舉
舌
舍
舛
舜
舞
舟
般
艮
良
色
艸
艹
艾
芒
芔
芬
芮
花
芳
芺
芻
苔
苗
苟
若
苦
英
茶
茸
荅
草
荒
荣
荼
莆
莧
莫
莽
菆
菊
菐
華
萬
落
葉
著
葛
董
葵
蒙
蒦
蒼
蓋
蓬
蓺
蔑
蔡
蕉
蕭
薄
薛
薦
薰
藍
藏
藥
蘭
虍
虎
虐
虒
虔
處
虖
虗
虘
虚
虛
虜
虞
虫
虽
蚤
蚩
蜀
蜜
蟲
蠡
血
行
衍
衛
衣
衤
表
衮
衰
袁
袞
褭
褱
襄
襾
西
覀
要
覃
見
規
覓
覧
親
覽
见
角
解
言
訁
訇
計
詹
誩
諸
讠
谷
豆
豈
豊
豐
豕
豖
豙
象
豦
豩
豪
豸
貇
貝
貞
貟
負
貢
貧
貪
貫
責
貳
貴
買
費
賁
資
賈
賏
賓
賔
賛
賞
賢
賣
質
賴
贊
贝
贡
责
贯
贲
贵
赖
赞
赤
赦
走
越
足
路
蹇
身
躬
車
軍
軎
軟
輦
车
辛
辜
辟
辥
辰
辱
農
辵
辶
边
达
过
近
连
迷
追
退
送
逆
逐
通
速
造
逢
連
逮
進
遀
遂
過
道
達
遣
適
遷
遺
邊
邑
邕
那
邦
邪
郎
部
郭
都
鄉
酉
酋
配
酓
釆
采
里
重
野
量
金
釒
錢
钅
長
镸
长
門
閃
閉
開
閏
閑
閒
間
閔
閵
閻
闌
门
间
闷
阑
阜
阝
阿
降
陳
隆
隊
隋
隡
隨
隱
隶
隹
隺
隻
隼
隽
难
雀
雁
集
雈
雋
雍
雐
雔
雙
雚
雜
雝
離
難
雨
雩
雪
雲
零
雷
需
霍
霜
霝
霞
霸
靈
靑
青
非
靡
面
靣
革
韋
韦
韭
韯
韱
音
頁
頃
項
須
頗
頡
頻
顛
页
風
风
飛
飞
食
飠
養
饣
首
香
馬
馮
駦
马
骨
高
髟
鬥
鬯
鬲
鬼
魚
魯
鮮
鱼
鲁
鳥
鳳
鸟
鹵
鹿
麃
麗
麥
麦
麻
黃
黄
黍
黎
黑
黒
黨
黹
黽
黾
鼎
鼓
鼠
鼻
齊
齋
齐
齒
齿
龍
龙
龜
龟
龠
龰
龱
龴
龵
龶
龷
龸
龹
者
艹
ﺎ
ﺑ
ﺔ
ﺤ
ﺪ
ﺮ
ﺰ
ﺴ
ﻌ
ﻓ
ﻘ
ﻛ
ﻟ
ﻣ
ﻤ
ﻦ
ﻧ
ﻨ
ﻫ
ﻮ
ﻳ
ﻴ
？
🜨
𠀁
𠀃
𠀆
𠀉
𠀎
𠀐
𠁁
𠁣
𠂆
𠂇
𠂈
𠂉
𠂊
𠂋
𠂎
𠂒
𠂔
𠂛
𠂡
𠂢
𠂤
𠂬
𠂭
𠂹
𠃊
𠃋
𠃌
𠃍
𠃎
𠃑
𠃓
𠃔
𠃜
𠄌
𠄎
𠄠
𠄢
𠆢
𠆥
𠇍
𠈌
𠌵
𠓜
𠔉
𠔥
𠔼
𠔽
𠔿
𠕀
𠕁
𠕋
𠘧
𠘨
𠙻
𠙼
𠚏
𠚒
𠚤
𠚪
𠣏
𠤎
𠤕
𠥓
𠦄
𠦑
𠦝
𠧒
𠧗
𠧪
𠩺
𠪚
𠫓
𠫔
𠫤
𠬛
𠬝
𠬞
𠬢
𠬤
𠬶
𠮛
𠮦
𠮷
𠯑
𠱠
𠳮
𠷎
𡈼
𡉀
𡉵
𡌥
𡍮
𡏳
𡕒
𡕩
𡕰
𡖅
𡗗
𡗜
𡘆
𡘤
𡧱
𡨄
𡩧
𡬠
𡭽
𡰣
𡰥
𡰪
𡰯
𡰱
𡷈
𡸁
𡿨
𡿩
𡿪
𡿺
𢀖
𢀛
𢀩
𢁙
𢆉
𢆰
𢆶
𢇁
𢇇
𢉖
𢌬
𢌿
𢏚
𢑑
𢑚
𢖻
𢙣
𢛳
𢦏
𢦒
𢧵
𢼄
𢾕
𣁋
𣄼
𣅀
𣅽
𣍘
𣎳
𣎵
𣏋
𣏼
𣗥
𣥂
𣥖
𣦵
𣦼
𣧄
𣪊
𣪠
𣬉
𣳾
𣶒
𤇾
𤊽
𤐫
𤓰
𤔔
𤕨
𤣩
𤰇
𤰔
𤰞
𤴓
𤴔
𤽄
𥁑
𥁕
𥃦
𥃩
𥃭
𥇡
𥑟
𥘅
𥘈
𥝢
𥫗
𥱡
𦈢
𦉪
𦉬
𦉼
𦍌
𦍒
𦎧
𦐇
𦓔
𦔮
𦘒
𦙃
𦚏
𦣝
𦣞
𦣻
𦥑
𦥔
𦥯
𦨉
𦭝
𦰩
𧆞
𧈧
𧘇
𧰨
𧴪
𧴮
𧵩
𧾷
𨸏
𨾴
𩙿
𩠐
𩫏
𩵋
𪉷
𪜀
𪟽
𪠲
𪩲
𫇦
𫔭
𫜸
𫝀
𫠣
𫠩
𫢉
𫥞
𫩏
𫩠
𫪡
𫲽
𫶧
𬀷
𬐘
𬗌
𬙙
𬛸
𬜯
𬟩
𬯁
𬴘
𬺻
𬼉
𬼖
𭀰
𭁈
𭁨
𭅰
𭑈
𭕄
𭗼
𭤨
𭥫
𭻾
𮅕
𮊿
𮍌
𮍏
𮓗
𮥼
𮧮
廾
𰀁
𰀄
𰀈
𰀉
𰀕
𰀠
𰀡
𰀢
𰀪
𰁜
𰃮
𰆊
𰆘
𰋙
𰕎
𰢴
𰧭
𰯲
13--
14--
16--
17--
18--
19--
5--
6--
7--
8--
9--
a--
ab--
abdul--
ac--
acti--
ad--
ade--
admini--
af--
afi--
ag--
ah--
ai--
aji--
ajo--
ak--
akin--
al--
ala--
ali--
am--
ama--
an--
ani--
ans--
ar--
as--
asa--
assi--
at--
atu--
au--
auto--
avun--
aw--
awo--
awu--
ayihun--
ayo--
b--
ba--
bas--
be--
bel--
ben--
ber--
bi--
bles--
bo--
bra--
bre--
bri--
bu--
c--
ca--
cas--
ce--
cele--
cha--
chan--
che--
chi--
co--
cob--
com--
con--
cor--
cou--
cultu--
cur--
d--
da--
dan--
danu--
de--
des--
di--
din--
dise--
do--
dou--
doug--
dr--
du--
e--
ebi--
ed--
ef--
eg--
el--
ele--
en--
epis--
ere--
es--
esc--
et--
ex--
eze--
f--
fa--
fag--
fe--
fi--
fin--
fo--
for--
foto--
fri--
fu--
g--
ga--
gam--
gan--
gar--
gban--
gbe--
gbi--
gbo--
ge--
gi--
go--
gra--
gradu--
gu--
gui--
h--
ha--
ham--
har--
hel--
hi--
ho--
hom--
hor--
hu--
hun--
i--
ibe--
ibi--
ido--
ija--
ike--
il--
ima--
in--
is--
isi--
j--
ja--
jar--
jaru--
je--
jh--
ji--
jo--
ju--
k--
ka--
ke--
ki--
ko--
kpo--
kri--
ku--
l--
la--
lagos--
le--
li--
lo--
lu--
m--
ma--
man--
mat--
mau--
mc--
me--
medic--
mes--
mi--
mo--
mor--
more--
mou--
mu--
my--
n--
na--
nen--
ng--
ni--
nji--
nna--
nnu--
no--
nor--
nu--
nuku--
nur--
nus--
nwa--
nwo--
ny--
o--
oba--
odo--
odu--
og--
ogi--
ohan--
ok--
oke--
oki--
ola--
olo--
olu--
olym--
on--
oni--
onye--
or--
ori--
os--
osu--
otan--
owe--
oye--
oyin--
p--
pa--
pai--
par--
pat--
pe--
per--
ph--
phy--
pi--
plu--
po--
pr--
pro--
publi--
qu--
r--
ra--
ray--
re--
red--
reli--
respo--
ri--
ro--
ru--
s--
sa--
sam--
se--
ser--
sha--
shi--
sho--
si--
sil--
sin--
so--
sor--
sou--
spi--
st--
step--
su--
sum--
sun--
sy--
t--
ta--
tan--
te--
ter--
th--
the--
ti--
tla--
to--
tr--
tri--
tu--
tur--
u--
un--
v--
va--
ve--
vi--
vo--
wa--
we--
wh--
whe--
wi--
wri--
wu--
x--
ya--
yan--
yas--
ye--
yede--
yi--
yu--
zam--
ze--
zi--
zin--
zize--
ɡ--
--0
--1
--2
--3
--4
--5
--53
--6
--63
--7
--73
--8
--82
--9
--a
--able
--ac
--ah
--ai
--aire
--ak
--al
--an
--ato
--au
--awa
--b
--ba
--be
--bi
--bia
--bo
--bs
--c
--ca
--cal
--ce
--ch
--chukwu
--cia
--cial
--cs
--ct
--ction
--cts
--d
--da
--de
--denu
--di
--do
--dopo
--dor
--ds
--du
--dy
--e
--ed
--el
--em
--en
--er
--ers
--es
--f
--fa
--fe
--fo
--fu
--g
--ga
--gan
--gbe
--gbo
--ge
--ger
--gh
--ght
--gi
--go
--gs
--gue
--guistic
--gwu
--h
--he
--hi
--ho
--hu
--i
--ia
--ian
--ic
--id
--ie
--in
--ing
--io
--ir
--ist
--ity
--ix
--ja
--je
--ji
--jo
--ju
--k
--ka
--kanto
--ke
--ki
--ko
--ku
--kun
--l
--la
--lade
--lan
--layo
--ld
--le
--ley
--lf
--li
--lk
--ll
--lle
--lo
--ls
--lu
--ly
--m
--ma
--me
--mezon
--mi
--mic
--ming
--mo
--mu
--n
--na
--nah
--name
--nce
--nci
--ncy
--nd
--ne
--ner
--ng
--ni
--nino
--nnu
--no
--nt
--nto
--nts
--nu
--ny
--o
--ol
--ola
--on
--ons
--ow
--p
--pa
--pe
--phy
--po
--q
--r
--ra
--ral
--rd
--rds
--re
--remi
--res
--ri
--rin
--rk
--rn
--ro
--rry
--rs
--rt
--ru
--rview
--ry
--s
--sa
--se
--sh
--si
--sk
--so
--ss
--ssou
--st
--ster
--sty
--su
--sun
--t
--ta
--te
--ted
--ter
--ters
--th
--ti
--tics
--tion
--to
--tola
--ts
--tte
--tty
--tu
--ty
--u
--ud
--ugh
--um
--un
--ur
--ure
--uru
--us
--ut
--ux
--va
--ve
--ves
--vi
--vu
--w
--wa
--way
--we
--whe
--wo
--wu
--x
--y
--ya
--yan
--ye
--yi
--yn
--yo
--z
--za
--ze
--zo
--zy
--zz
