!
"
#
##0
##1
##10
##11
##12
##13
##14
##15
##16
##17
##18
##19
##2
##20
##21
##22
##23
##24
##25
##26
##27
##28
##29
##3
##30
##31
##32
##33
##34
##35
##36
##37
##38
##39
##4
##40
##41
##42
##43
##44
##45
##46
##47
##48
##49
##5
##50
##51
##52
##53
##54
##55
##56
##57
##58
##59
##6
##60
##61
##62
##63
##64
##65
##66
##67
##68
##69
##7
##70
##71
##72
##73
##74
##75
##76
##77
##78
##79
##8
##80
##81
##82
##83
##84
##85
##86
##87
##88
##89
##9
##90
##91
##92
##93
##94
##95
##96
##97
##98
##99
$
%
&
'
(
)
*
+
,
-
.
/
0
00
000
01
02
03
036
04
05
06
07
08
09
0971
1
10
100
1016
11
12
13
14
15
16
17
18
19
1942
1947
1950
1954
1955
1956
1960
1961
1962
1964
1965
1967
1968
1969
1970
1971
1972
1973
1974
1975
1976
1977
1978
1979
1980
1981
1982
1983
1984
1985
1986
1987
1988
1989
1990
1991
1992
1993
1994
1995
1996
1997
1998
1999
2
20
200
2000
2001
2002
2003
2004
2005
2006
2007
2008
2009
2010
2011
2012
2013
2014
2015
2016
2017
2018
2019
2020
2021
2022
21
22
23
24
25
26
27
28
29
3
30
300
31
32
33
34
35
36
37
38
39
4
40
400
41
4163
42
43
44
45
46
47
48
49
5
50
500
51
52
53
54
55
56
57
58
59
6
60
61
62
63
64
65
66
7
70
71
72
73
74
75
751
77
8
80
81
82
83
85
87
88
9
90
91
92
93
94
95
96
97
978
99
:
;
<
=
>
?
@
[
\
]
^
_
`
a
aa
abc
about
ac
academy
access
accessdate
accessed
act
action
actor
actress
ad
administration
ae
af
affairs
afghanistan
africa
african
after
against
age
agency
air
airlines
airport
airways
al
alexander
ali
align
all
alpha
also
am
amazon
ambedkar
ame
america
american
amerika
amerikansk
among
an
ana
analysis
ancient
and
andrew
angarwata
animal
annual
another
any
apple
april
ar
arab
archive
archived
are
area
army
around
art
article
articles
articleshow
artist
arts
arunima
arz
as
asia
asian
aspx
assembly
association
ast
at
atlas
attack
au
august
australia
author
authority
authors
av
award
awards
away
az
azb
b
ba
back
ban
bangladesh
bank
bar
based
basho
battle
bbc
be
became
been
before
being
bell
bengal
benz
best
between
bf
bg
bhaskar
bho
bi
bibcode
big
bill
biography
birthday
bjp
black
blog
blue
bn
bo
board
body
bollywood
bombay
book
bookganga
books
born
boss
bot
both
box
br
britannica
british
bros
brown
bs
buddhism
buddhist
building
bureau
business
but
by
c
ca
california
called
cambridge
camila
can
canada
capital
car
case
cast
caste
castro
ce
ceb
cena
census
censusindia
center
central
centre
century
ch
change
channel
chapter
character
charles
check
chennai
chief
children
china
chinese
christian
ci
cinema
cite
cities
city
ckb
class
climate
climategraphics
club
cms
cn
co
code
college
com
commission
committee
common
commons
community
company
complete
computer
conflict
congress
constituencies
constituency
constitution
content
control
copy
copyright
coronavirus
corporation
cos
council
counties
countries
country
county
court
covid
cricinfo
cricket
cs
cu
cultural
culture
cup
current
cy
cyrl
d
da
dag
daily
dalit
dance
das
data
database
date
david
day
days
dc
dchb
de
dead
deadurl
death
dec
deccan
december
del
delhi
delimitation
den
department
der
des
details
development
devi
di
dictionary
did
die
dies
different
digital
din
dina
director
disid
disney
displaystyle
district
districts
districtsdetails
division
divya
dna
do
dog
doi
donald
douglas
down
dr
ds
du
due
during
dvn
e
each
early
earth
east
ec
economic
ed
edition
eds
edu
education
educational
edward
el
elected
election
elevator
elizabeth
em
empire
empty
en
encyclopedia
end
energy
engineering
england
english
entertainment
eo
es
esakal
espn
espncricinfo
et
eu
europe
european
every
express
ext
external
extra
f
fa
facebook
facts
family
fc
fe
february
federation
felis
female
festival
festivals
fi
field
fifa
film
films
final
financial
find
firefox
first
firstpost
five
fo
following
food
football
for
forbes
force
foreign
form
former
found
foundation
four
fox
fr
frac
franc
france
free
freedom
french
from
ft
fu
fuel
full
future
fy
g
ga
game
games
gandhi
gb
gd
gdg
ge
gender
general
george
german
get
gets
giant
gl
global
gmail
go
god
golden
good
google
gordon
gov
government
governor
govt
grand
great
green
grid
group
gsw
gu
guardian
guide
gupta
guru
h
ha
had
han
handbook
hank
hans
hant
has
have
he
health
held
henry
her
herald
here
heritage
hi
high
highway
him
hindi
hindu
hinduism
hindustan
his
historical
history
hk
ho
hollywood
home
hound
house
how
however
hr
hsb
ht
htm
html
http
https
hu
human
hungama
hy
i
ia
icc
ice
id
identity
ie
if
ignored
ii
iii
im
imdb
in
inc
includes
including
incredibleindia
independence
independent
index
india
indiaas
indian
indiana
indiatimes
indien
indies
indio
indisk
industry
info
information
instagram
institute
international
internet
interview
into
introduction
io
iphone
ipl
ireland
is
isbn
island
issn
issue
ist
it
its
iv
j
ja
james
jan
january
japan
japanese
jean
john
joseph
joshi
joshincha
journal
jpg
jr
jstor
july
june
just
justice
jv
k
ka
kapoor
karnataka
kashmir
ke
kerala
key
khan
ki
king
kingdom
kk
km
kn
know
knowledge
known
ko
kosovo
krishna
ku
kumar
ky
l
la
lady
lakshya
land
language
languages
lanka
large
last
lat
latest
latn
latur
law
lb
le
leader
league
learning
left
legislative
les
level
li
library
life
like
limited
line
link
list
literature
liv
live
living
ln
lo
local
lok
lokmat
loksatta
london
long
look
los
love
lower
lt
ltd
lu
luis
lv
m
ma
mac
machine
madagascar
maddie
made
magazine
maha
maharashtra
maharashtratimes
mai
mail
main
maint
major
make
making
man
management
many
map
mapsofindia
mar
marathi
march
margin
maria
mark
market
mary
master
match
matches
mathbf
mathrm
matsuo
may
mc
mcdonald
mcdonnell
md
me
means
media
mediawiki
medical
medicine
meet
mehta
members
men
mercedes
merrill
meta
metro
mg
mh
mi
michael
microsoft
mid
mig
million
min
minecraft
minister
ministry
mirror
miss
missing
mission
mk
ml
mn
mo
model
modern
modi
month
moon
more
most
mother
mouse
movement
movie
movies
mozilla
mr
ms
mt
mu
mubarak
multiple
mumbai
museum
music
muslim
my
n
na
nagpur
name
named
names
nan
naruhito
nat
nation
national
nations
natural
nature
nb
nd
nds
ndtv
ne
nehru
nepal
net
netflix
network
new
news
newspaper
next
ng
nh
ni
nic
nl
nn
no
nobel
non
north
not
note
notes
nov
november
now
nu
number
numeric
o
oc
oclc
october
odi
of
off
office
official
often
og
old
oliver
olympic
on
one
online
only
open
or
order
org
organization
origin
original
os
other
others
our
out
over
own
oxford
p
pa
padma
page
pagenum
pages
pakistan
palghar
panda
pap
paper
parameter
paris
park
parliamentary
part
party
paul
pdf
penalty
people
per
performance
period
permanent
person
peter
pg
philosophy
photos
php
pi
pl
place
play
played
player
players
pm
pmid
pnb
po
poem
point
points
poli
police
political
politician
politics
politiker
popular
population
por
position
post
power
pp
pradesh
prakash
prakashan
pre
president
press
prime
prince
private
prix
prize
profile
project
proofreadpage
ps
psychology
pt
public
publication
publications
published
publishers
publishing
punctuation
pune
pvt
px
q
qu
que
quickfacts
quot
r
ra
race
radio
railway
raj
rajya
ram
rao
rd
re
real
received
record
records
red
rediff
ref
references
region
release
religion
religious
report
reports
republic
requires
rescuers
research
result
results
retrieved
reuters
review
ri
richard
right
rights
river
ro
road
robert
role
rot
routledge
row
rowspan
roy
royal
rs
ru
russia
s
sa
sabah
sabha
sah
sahitya
said
saint
same
san
sanskrit
sat
says
sc
schedule
school
schools
science
sciences
scn
sco
scope
scott
sd
se
sea
search
season
second
section
security
see
self
sen
september
series
service
services
set
sex
sexual
sg
sh
shah
shall
sharad
sharma
she
shodh
short
should
show
shri
si
sid
sin
since
singer
singh
sinha
site
sk
sl
small
smith
so
social
society
software
some
son
song
sort
source
south
space
special
species
sport
sports
sq
squad
sr
sri
st
stadium
staff
standard
star
stars
start
state
states
station
statistical
statistics
status
still
stories
story
students
studies
study
style
su
subdistrict
such
sun
sunil
support
survey
sv
sw
system
systems
t
ta
table
tag
take
takes
tamil
tarask
tata
taylor
te
team
technology
telangana
television
template
temple
tenista
tennis
test
text
tg
th
than
thane
that
the
their
them
then
theory
there
these
they
third
this
thomas
those
three
through
ti
tico
tiger
time
times
timesofindia
title
tl
tnn
to
today
top
topics
toss
tour
tourism
tournament
town
tr
translation
travel
tree
tribune
trp
trust
tt
tu
tv
tw
two
type
u
uit
uk
un
und
under
union
unit
united
university
unknown
unrecognized
up
updated
ur
url
us
usa
use
used
using
uz
v
va
value
van
ve
vec
very
vi
video
vidhan
vidhansabha
view
village
villageinfo
visitor
vo
voice
vol
volume
von
vs
w
wa
walter
war
warner
was
washington
watch
water
way
wayback
we
weather
web
website
well
were
west
western
what
when
where
which
while
white
who
why
width
wiki
wikilink
wikimedia
wikipedia
wiktionary
will
william
williams
win
windows
winners
wins
with
within
without
woman
women
won
work
works
world
would
wuu
www
x
xi
xmf
y
ya
year
years
yi
yn
yo
york
you
your
youtube
yue
z
za
zealand
zee
zh
zimbabwe
{
|
}
~

£
¤
©
«
°
±
²
³
¶
·
»
½
×
æ
÷
ı
ʹ
ʻ
ʼ
ˈ
ː
̀
́
̂
̃
̄
̆
̇
̈
̉
̊
̋
̌
̍
̓
̛
̣
̤
̥
̦
̧
̨
̱
͡
α
β
γ
δ
ε
η
θ
ι
λ
μ
ν
ο
π
ρ
ς
σ
τ
της
φ
ψ
ω
ϕ
а
в
г
з
и
к
л
м
н
на
о
р
с
т
у
х
і
ִ
ַ
ָ
ּ
ג
י
،
ا
الا
ب
د
ر
س
ف
في
ل
م
من
ن
و
ي
َ
ُ
ِ
ّ
ٓ
ٔ
ٕ
ہ
ی
ے
܀
ނ
ރ
ކ
އ
މ
ފ
ތ
ލ
ސ
ޓ
ޔ
ަ
ާ
ި
ު
ެ
ް
߫
߬
߲
ँ
ं
ः
अ
अक
अकबर
अकर
अकल
अकस
अख
अखत
अग
अगत
अगद
अगर
अगस
अघ
अच
अज
अजब
अजम
अजय
अजर
अझ
अझरब
अट
अटक
अटल
अटलब
अटळ
अठ
अठर
अड
अडक
अडकल
अडचण
अडथळ
अडव
अण
अत
अतर
अथ
अथर
अथव
अद
अदल
अध
अधम
अधर
अन
अनध
अनन
अनप
अनम
अनर
अनस
अप
अपक
अपघ
अपत
अपन
अपभ
अपम
अपयश
अपर
अपल
अपव
अपहरण
अफ
अफग
अब
अभ
अभय
अम
अमक
अमद
अमर
अमल
अमळन
अय
अयशस
अर
अरच
अरण
अरब
अरमन
अरव
अल
अलक
अलग
अळ
अव
अवक
अवग
अवगत
अवघ
अवघड
अवच
अवचट
अवज
अवत
अवतरण
अवतरल
अवध
अवन
अवयव
अवर
अवल
अवश
अवस
अवसर
अश
अशक
अष
अस
असण
असत
असप
असपर
असम
असमर
असल
असह
अह
अहम
अहमद
अहमदनगर
अहमदप
अहर
अहल
अहव
आ
आइक
आई
आईकड
आईच
आईन
आईब
आईल
आईवड
आईस
आउट
आक
आकड
आकर
आकलन
आकळ
आख
आखण
आखल
आग
आगग
आगम
आगमन
आगर
आगरकर
आगळ
आघ
आघव
आच
आचर
आचरण
आचरत
आज
आजक
आजच
आजत
आजप
आजपर
आजम
आजवर
आजवरच
आजह
आझ
आझम
आट
आटप
आठ
आठव
आठवड
आठवण
आठवत
आठवल
आड
आडन
आडव
आढ
आढळ
आढळण
आढळत
आढळल
आण
आणख
आणण
आणत
आणल
आत
आतड
आतल
आथ
आद
आदम
आदर
आदल
आध
आन
आप
आपच
आपट
आपण
आपणच
आपणप
आपणह
आपत
आपल
आपस
आफ
आब
आभ
आम
आमच
आमट
आमद
आय
आयएमड
आयएस
आयक
आयकर
आयच
आयट
आयड
आयत
आयन
आयप
आयफ
आयब
आयर
आयल
आयस
आर
आरक
आरड
आरत
आरप
आरम
आरश
आरस
आल
आळ
आळव
आळश
आळस
आव
आवड
आवडण
आवडत
आवडल
आवर
आवरण
आवळ
आवश
आश
आशय
आष
आस
आसक
आसन
आसप
आसम
आसर
आह
आहस
इ
इएसप
इक
इकड
इग
इगतप
इच
इचलकर
इज
इझ
इट
इटम
इटल
इड
इत
इतक
इतर
इतरत
इतरह
इथ
इथल
इद
इन
इनच
इनस
इप
इफ
इब
इम
इमर
इय
इयत
इयर
इर
इल
इव
इश
इष
इस
इसम
इसव
इह
इहल
ई
ईएसप
ईक
ईग
ईच
ईज
ईझ
ईट
ईड
ईत
ईद
ईन
ईनगर
ईप
ईपर
ईफ
ईब
ईम
ईमध
ईय
ईर
ईल
ईलच
ईव
ईवर
ईश
ईस
ईसर
उ
उक
उकल
उग
उगम
उगव
उगवण
उगवत
उगवल
उघड
उघडण
उघडत
उघडपण
उघडल
उच
उचल
उचलण
उचलत
उचलल
उज
उजळ
उजव
उझब
उट
उठ
उठत
उठल
उठव
उठवल
उड
उडण
उडत
उडव
उण
उत
उतर
उतरण
उतरत
उतरल
उतरव
उथ
उथळ
उद
उदक
उदग
उदय
उदयप
उदर
उदरन
उध
उधळ
उन
उप
उपक
उपकरण
उपख
उपग
उपच
उपज
उपजत
उपजल
उपद
उपन
उपनगर
उपनद
उपप
उपपत
उपभ
उपम
उपय
उपर
उपलब
उपव
उपश
उपस
उपह
उफ
उब
उभ
उभय
उभयत
उम
उमज
उमटत
उमटल
उमर
उमरख
उमरग
उर
उरण
उरत
उरल
उल
उलगड
उलट
उलटपक
उलथ
उळ
उव
उश
उष
उस
उसन
उसळ
उसळल
ऊ
ऊक
ऊच
ऊत
ऊथ
ऊद
ऊन
ऊनच
ऊनह
ऊब
ऊर
ऊल
ऊळ
ऊस
ऊह
ऋ
ऋग
ऋण
ऋत
ऋष
ऌ
ऍ
ऍक
ऍन
ए
एअर
एक
एकक
एकच
एकज
एकट
एकत
एकतर
एकद
एकदम
एकन
एकप
एकपण
एकम
एकमत
एकर
एकल
एकव
एकवचन
एकश
एकस
एकह
एख
एग
एच
एचआयव
एचड
एज
एजन
एट
एटर
एड
एडवर
एत
एतद
एतन
एथ
एन
एनज
एनड
एनस
एप
एफ
एब
एम
एमब
एमस
एयर
एर
एरल
एरव
एल
एलएल
एव
एवढ
एश
एशन
एशनच
एस
एसज
एसट
एसस
ऐ
ऐक
ऐकण
ऐकत
ऐकल
ऐत
ऐन
ऐर
ऐवज
ऐश
ऐस
ऐह
ऑ
ऑक
ऑकल
ऑगस
ऑट
ऑड
ऑन
ऑनर
ऑनल
ऑप
ऑपर
ऑफ
ऑफर
ऑब
ऑर
ऑल
ऑस
ओ
ओक
ओग
ओघ
ओच
ओझ
ओट
ओठ
ओड
ओढ
ओढण
ओढत
ओढल
ओत
ओन
ओप
ओपन
ओब
ओम
ओर
ओरड
ओल
ओळ
ओळख
ओळखण
ओळखत
ओळखल
ओव
ओवर
ओश
ओस
ओह
औ
औच
औद
औपच
और
औषध
औस
क
कइन
कक
ककथ
ककल
कग
कगण
कघर
कच
कचर
कज
कजण
कझ
कट
कटक
कटकट
कटच
कटत
कटर
कटल
कठ
कड
कडक
कडकड
कडच
कडव
कढ
कण
कणकवल
कणच
कणस
कत
कथ
कथन
कद
कदम
कध
कन
कनक
कप
कपट
कपड
कपण
कपर
कफ
कब
कबड
कबर
कभ
कम
कमक
कमज
कमत
कमतरत
कमध
कमर
कमल
कमळ
कय
कर
करक
करकर
करच
करड
करण
करणच
करत
करद
करन
करप
करम
करमण
करमरकर
करर
करल
करव
करश
करस
कल
कलक
कलकत
कलन
कलम
कलर
कलश
कलह
कळ
कळण
कळत
कळद
कळप
कळम
कळल
कळव
कळवण
कळवल
कळवळ
कळस
कव
कवच
कवचन
कवट
कवठ
कवड
कवण
कवत
कवन
कवय
कवर
कवल
कवळ
कवस
कश
कष
कस
कसत
कसन
कसनश
कसब
कसभ
कसम
कसल
कह
ख
खक
खग
खच
खज
खट
खटपट
खटल
खड
खडक
खडतर
खडस
खण
खत
खद
खन
खनन
खनभ
खनस
खप
खपण
खपत
खबर
खबरद
खभ
खम
खय
खर
खरच
खरप
खरश
खल
खलन
खळ
खव
खवट
खवण
खवत
खवल
खस
खह
ग
गक
गकर
गग
गगन
गच
गज
गजन
गजर
गजळ
गझ
गझल
गट
गठ
गड
गडकर
गडच
गडद
गडबड
गढ
गण
गणक
गणग
गणघ
गणन
गणपत
गणपतर
गणर
गणल
गणव
गत
गतस
गद
गदपत
गदर
गध
गन
गप
गपत
गफ
गब
गभ
गम
गमत
गमध
गमन
गमरवर
गय
गर
गरक
गरग
गरज
गरण
गरम
गरर
गरव
गरश
गल
गलक
गलच
गलत
गलम
गळ
गळत
गळय
गळव
गव
गवई
गवड
गवण
गवत
गवर
गवल
गवळ
गवळण
गश
गस
गह
गहन
घ
घक
घट
घटक
घटत
घटन
घटस
घड
घडण
घडत
घडल
घडव
घडवण
घडवत
घडवल
घण
घत
घद
घन
घनत
घनद
घनम
घम
घर
घरक
घरग
घरच
घरट
घल
घळ
घव
घश
घस
घसरल
ङ
ङमय
च
चक
चकत
चकमक
चकर
चग
चच
चट
चटक
चटकन
चटण
चड
चढ
चढण
चढत
चढल
चढव
चढवल
चण
चत
चद
चन
चप
चपट
चपळ
चब
चबर
चभ
चम
चमक
चमच
चमत
चमध
चमह
चय
चर
चरण
चरत
चरब
चरल
चल
चलच
चलत
चलन
चलर
चळ
चळवळ
चव
चवट
चवड
चवण
चवत
चवथ
चवद
चवर
चवल
चश
चष
चषक
चस
चह
छ
छट
छत
छन
छप
छपर
छब
छल
छळ
ज
जक
जकड
जकत
जकन
जकर
जखम
जग
जगज
जगड
जगण
जगत
जगद
जगन
जगप
जगभर
जगल
जघर
जच
जज
जट
जठर
जड
जडणघडण
जडत
जडल
जण
जत
जतन
जद
जध
जन
जनक
जनगणन
जनच
जनज
जनत
जनन
जनम
जनर
जनरल
जनव
जनश
जनस
जनसम
जनह
जप
जपच
जपण
जपत
जपतर
जपल
जब
जबर
जबरदस
जबलप
जभ
जभक
जम
जमण
जमत
जमध
जमन
जमल
जमव
जमश
जमह
जय
जयक
जयकर
जयजयक
जयत
जयद
जयनगर
जयप
जयर
जयव
जयश
जयस
जर
जरचन
जल
जलद
जलदगत
जलप
जलव
जलस
जळ
जळग
जळत
जव
जवट
जवण
जवत
जवर
जवल
जवळ
जवळच
जवळजवळ
जवळप
जवस
जश
जस
जसजस
जसत
जह
झ
झक
झग
झगड
झच
झटक
झण
झन
झप
झम
झर
झल
झळ
झळक
झव
झस
ञ
ञत
ट
टक
टकक
टकच
टकम
टकर
टकळ
टख
टग
टच
टज
टड
टण
टणकर
टणम
टत
टद
टन
टनच
टनन
टनमध
टप
टपट
टपण
टफ
टब
टभ
टभट
टभर
टम
टमटम
टमध
टय
टर
टरच
टरट
टरड
टरन
टरप
टरफ
टरमध
टरल
टरवर
टरस
टरह
टल
टलच
टलमध
टलर
टळ
टव
टवड
टवर
टश
टस
टह
ठ
ठक
ठग
ठच
ठड
ठण
ठत
ठन
ठप
ठब
ठबळ
ठभ
ठम
ठय
ठर
ठरण
ठरत
ठरल
ठरव
ठरवण
ठरवत
ठरवल
ठल
ठळक
ठळकपण
ठव
ठवण
ठवत
ठवल
ठश
ठस
ड
डक
डकड
डकर
डकरव
डख
डग
डघ
डच
डज
डण
डणगड
डत
डद
डध
डन
डनच
डनमध
डनल
डप
डपण
डफ
डब
डबल
डम
डमच
डमध
डमन
डय
डर
डरच
डरन
डरल
डल
डळ
डव
डवण
डवत
डवर
डवल
डवलश
डवळ
डश
डस
डह
ढ
ढकल
ढकलण
ढकलल
ढग
ढच
ढण
ढत
ढतच
ढद
ढर
ढरप
ढल
ढळ
ढव
ढवण
ढवत
ढवल
ढवळ
ढस
ण
णक
णकट
णकर
णख
णग
णघ
णच
णज
णझ
णण
णत
णद
णध
णधर
णन
णप
णपण
णपत
णपदक
णब
णभ
णम
णमध
णय
णर
णल
णव
णवण
णवत
णवर
णवल
णश
णस
णह
त
तएवज
तऐवज
तक
तकथ
तकम
तकर
तकल
तकव
तख
तग
तगट
तगड
तगत
तच
तचर
तज
तजन
तजम
तट
तटब
तटस
तड
तडक
तडज
तण
तत
तथ
तद
तदन
तध
तन
तनक
तनत
तनप
तनश
तप
तपक
तपण
तपत
तपद
तपर
तपश
तपस
तफ
तब
तबग
तबद
तबल
तभ
तम
तमज
तमध
तमपल
तमह
तय
तर
तरक
तरच
तरज
तरण
तरत
तरद
तरप
तरभ
तरम
तरर
तरल
तरव
तरस
तरह
तल
तलव
तळ
तळमळ
तळल
तळवलकर
तव
तवचन
तवण
तवत
तवन
तवर
तवल
तवव
तश
तशत
तस
तसतस
तसम
तसर
तसल
तह
तहस
थ
थक
थकल
थग
थच
थट
थड
थडग
थत
थतज
थन
थप
थपण
थपर
थम
थय
थर
थल
थळ
थव
थवर
थश
थस
थह
द
दक
दकत
दकर
दख
दखल
दग
दगड
दघन
दच
दज
दड
दडपण
दडल
दण
दत
दद
दध
दन
दनक
दनखर
दनश
दप
दफ
दब
दभ
दम
दमट
दमण
दमध
दमय
दय
दयन
दयव
दयस
दर
दरच
दरड
दरन
दरब
दरम
दरमह
दरर
दरल
दरव
दरवर
दरस
दल
दलच
दलदल
दलव
दलह
दळ
दळण
दळणवळण
दळव
दव
दवड
दवण
दवत
दवर
दवल
दश
दशक
दशम
दशरथ
दशलक
दशह
दस
दसर
दह
दहन
दहशत
दहशतव
ध
धक
धग
धच
धड
धडक
धडपड
धण
धत
धतश
धन
धनक
धनगर
धनव
धनस
धप
धपण
धब
धबधब
धभ
धम
धमक
धय
धर
धरण
धरत
धरल
धरवड
धल
धळ
धव
धवट
धवन
धवर
धश
धशतक
धस
धह
न
नई
नऊ
नक
नकड
नकर
नकल
नकळत
नख
नग
नगड
नगण
नगर
नगरकर
नगरप
नगरस
नच
नज
नजर
नझ
नट
नटल
नड
नण
नत
नतर
नतळ
नथ
नद
नदर
नध
नधन
नधर
नन
नप
नपण
नपत
नपद
नपर
नफ
नब
नबर
नभ
नम
नमध
नमन
नमस
नय
नयन
नर
नरक
नरख
नरद
नरन
नरस
नरहर
नल
नलग
नळ
नव
नवग
नवज
नवट
नवण
नवत
नवन
नवनव
नवभ
नवम
नवय
नवर
नवल
नवव
नवश
नवस
नश
नष
नस
नसण
नसत
नसप
नसभ
नसम
नसर
नसल
नसश
नसह
नह
प
पक
पकड
पकडण
पकडल
पकत
पकर
पकल
पख
पग
पगड
पच
पचन
पज
पट
पटक
पटकथ
पटकन
पटण
पटत
पटन
पटल
पटव
पटवर
पठ
पठण
पड
पडण
पडत
पडद
पडपट
पडल
पढ
पण
पणज
पणत
पणन
पत
पतच
पतन
पतर
पथ
पथक
पथन
पद
पदक
पदच
पदभ
पदर
पदव
पदस
पध
पन
पनव
पप
पपद
पब
पभ
पम
पमध
पय
पर
परक
परकर
परग
परगण
परच
परज
परण
परत
परतत
परतफ
परतल
परद
परन
परप
परफ
परब
परभण
परम
परमह
परर
परल
परळ
परव
परवड
परवडण
परश
परस
परह
पल
पलटण
पळ
पळग
पळण
पळत
पळव
पळश
पळस
पव
पवण
पवत
पवन
पवय
पवर
पवल
पश
पष
पस
पसम
पसर
पसरण
पसरत
पसरल
पसरव
पह
फ
फक
फच
फज
फट
फटक
फड
फडक
फडण
फडणव
फण
फणस
फत
फतव
फन
फर
फरक
फरन
फल
फलक
फलटण
फलन
फळ
फव
फस
फसल
फसव
फसवण
ब
बई
बईच
बईत
बईमध
बईल
बईस
बईह
बक
बकर
बख
बखर
बग
बगद
बगळ
बघ
बघण
बघत
बच
बचत
बज
बट
बड
बडत
बडबड
बडव
बढ
बढत
बण
बत
बतच
बद
बदक
बदन
बदल
बदलण
बदलत
बदलल
बध
बन
बनण
बनत
बनल
बनव
बनवण
बनवत
बनवल
बप
बफ
बब
बम
बमध
बय
बर
बरख
बरच
बरठ
बरत
बरन
बरप
बरम
बरमध
बरल
बरव
बरस
बल
बलक
बलर
बलव
बलस
बळ
बळक
बळकट
बळव
बव
बवण
बवत
बवर
बवल
बश
बस
बसच
बसण
बसत
बसन
बसल
बसव
बसवण
बसवल
बसस
बह
बहर
बहल
भ
भक
भग
भगत
भगतस
भगव
भगवत
भगवद
भज
भजत
भजन
भट
भटक
भटज
भटब
भड
भडक
भण
भत
भद
भध
भन
भप
भम
भय
भर
भरण
भरत
भरतन
भरप
भरभर
भरल
भरव
भरवण
भरवल
भरवस
भल
भलत
भळ
भव
भवण
भवत
भवन
भवर
भवल
भवव
भवस
भस
म
मऊ
मक
मकत
मकथ
मकथन
मकर
मकरण
मख
मग
मगध
मगर
मघ
मच
मचक
मचर
मज
मजक
मजप
मजब
मजल
मट
मठ
मड
मडक
मढ
मण
मणग
मणज
मणत
मणर
मणव
मत
मतत
मतद
मतप
मतभ
मथ
मद
मदत
मदन
मदर
मध
मधम
मधल
मन
मनगर
मनच
मनद
मनन
मनम
मनर
मनव
मनस
मप
मपण
मपत
मपर
मफ
मब
मभ
मभर
मम
ममत
ममध
ममरण
मय
मर
मरण
मरत
मरस
मल
मलक
मलब
मलबज
मलय
मळ
मव
मवर
मश
मशत
मशह
मस
मसन
मसभ
मसलत
मह
महत
महद
महम
महर
महल
महस
य
यक
यकत
यकथ
यकर
यकल
यकव
यकश
यख
यग
यगड
यगर
यघटन
यच
यछट
यज
यजन
यजम
यझ
यझर
यट
यटक
यटन
यटनस
यड
यडर
यण
यणर
यत
यतक
यतन
यतश
यथ
यद
यदर
यदल
यदळ
यध
यधर
यन
यनच
यनन
यनमध
यनर
यनल
यनश
यप
यपण
यपद
यपदक
यपर
यफ
यफल
यब
यबर
यबल
यबळ
यबह
यभ
यभर
यम
यमक
यमगत
यमच
यमद
यमन
यमप
यममध
यमय
यमर
यमल
यमवर
यमस
यय
ययन
यर
यरच
यरचन
यरत
यरल
यरस
यल
यलच
यलढ
यव
यवत
यवतम
यवध
यवन
यवर
यवस
यवह
यश
यशव
यशस
यष
यस
यसन
यसपर
यसभ
यसम
यह
र
रक
रकट
रकड
रकत
रकम
रकर
रकरण
रकल
रख
रखम
रखर
रग
रगट
रगड
रगण
रगत
रगर
रगल
रघ
रघर
रच
रचण
रचन
रचल
रज
रजत
रजन
रजनन
रजप
रजस
रझ
रट
रठ
रड
रडण
रडत
रडल
रडव
रण
रणग
रणज
रणत
रणन
रणप
रणपण
रणम
रणय
रणव
रत
रतक
रतच
रतन
रतभर
रतम
रतर
रतरत
रतल
रतव
रथ
रथम
रथमच
रथमत
रद
रदक
रदय
रदर
रध
रधन
रधर
रन
रनगर
रप
रपट
रपटग
रपटस
रपड
रपण
रपत
रपद
रपर
रफ
रफळ
रब
रबर
रबल
रबळ
रभ
रभर
रम
रमक
रमगड
रमच
रमण
रमणध
रमत
रमतव
रमद
रमध
रमन
रमप
रमम
रमय
रमर
रमल
रमळ
रमव
रमश
रमस
रमह
रय
रयत
रर
ररक
रल
रलय
रळ
रळक
रळच
रळमध
रळय
रव
रवक
रवचन
रवठ
रवड
रवण
रवत
रवन
रवय
रवर
रवल
रवळ
रवस
रश
रशक
रशस
रष
रस
रसग
रसच
रसद
रसन
रसप
रसम
रसमज
रसरण
रसव
रह
रहण
रहद
रहम
रहर
रहस
ल
लई
लक
लकड
लकत
लकम
लकर
लकल
लकव
लख
लखन
लग
लगणन
लगत
लगतच
लघ
लघर
लघव
लच
लज
लझ
लट
लठ
लड
लढ
लढण
लढत
लढल
लढव
लढवय
लढवल
लण
लत
लतत
लतर
लथ
लद
लध
लन
लनप
लप
लपट
लपण
लपत
लपर
लपल
लपव
लफ
लब
लबच
लबर
लभ
लभभ
लम
लमज
लमत
लमध
लय
लयच
लर
लरच
लल
लळ
लव
लवकर
लवकरच
लवच
लवट
लवड
लवण
लवत
लवर
लवल
लश
लष
लस
लसर
लह
लहर
ळ
ळक
ळकत
ळकर
ळख
ळग
ळगड
ळगण
ळगत
ळगल
ळघ
ळच
ळज
ळण
ळत
ळद
ळन
ळप
ळपट
ळपण
ळपर
ळब
ळभ
ळम
ळमध
ळय
ळर
ळल
ळव
ळवण
ळवत
ळवल
ळश
ळस
ळसर
ळह
व
वई
वक
वकर
वख
वग
वगड
वगण
वगत
वगळ
वगळण
वगळत
वगळल
वघ
वघर
वच
वचन
वचषक
वछत
वज
वजण
वजन
वजय
वझ
वट
वटच
वटपर
वटव
वठ
वड
वडक
वडग
वडण
वडत
वडर
वडल
वढ
वण
वणक
वणव
वत
वतच
वतन
वतनद
वतय
वतर
वथ
वद
वदत
वदन
वदर
वदल
वध
वधन
वधर
वन
वनक
वनग
वनगर
वनच
वनड
वनद
वनम
वनर
वनव
वनश
वनस
वनसत
वप
वपट
वपण
वपद
वपर
वपळ
वफलक
वब
वभ
वभक
वम
वमध
वय
वयम
वयस
वर
वरक
वरकर
वरख
वरग
वरच
वरचढ
वरण
वरणव
वरत
वरद
वरन
वरप
वरम
वरल
वरव
वरवर
वरस
वरह
वल
वलग
वलन
वलय
वळ
वळट
वळण
वळत
वळल
वळव
वळस
वळसर
वव
ववत
ववर
वश
वशक
वस
वसई
वसत
वसन
वसभर
वसम
वसल
वसव
वसवल
वह
वहन
श
शक
शकण
शकत
शकर
शकल
शग
शच
शज
शत
शतक
शद
शन
शनच
शनन
शनम
शनमध
शनर
शनल
शनवर
शनस
शप
शपथ
शपर
शफ
शब
शबर
शभ
शभक
शभर
शम
शमध
शमन
शय
शयन
शर
शरच
शरण
शरद
शरम
शल
शलत
शव
शवत
शवर
शवल
शवस
शश
शस
शह
शहर
ष
षक
षग
षच
षज
षट
षटक
षड
षण
षणक
षणतज
षणभर
षणम
षणव
षणस
षणह
षत
षद
षध
षन
षप
षपण
षपद
षब
षभ
षभर
षम
षमत
षय
षयक
षयर
षयव
षयस
षर
षरत
षरश
षल
षलव
षव
षवर
षवल
षश
षष
षस
षह
स
सई
सईद
सक
सकट
सकड
सकर
सकल
सकळ
सख
सग
सगड
सगढ
सगळ
सच
सज
सजव
सट
सड
सडक
सण
सत
सतत
सततच
सतर
सद
सदग
सदन
सदर
सदस
सध
सन
सनक
सनच
सनद
सनन
सनर
सनल
सप
सपट
सपण
सपर
सफ
सफर
सफल
सब
सबब
सबर
सबळ
सबस
सभ
सम
समक
समग
समज
समजण
समजत
समजल
समझ
समत
समद
समध
समन
समभ
समय
समर
समरस
समल
समव
समश
समस
समसम
सय
सर
सरक
सरकत
सरच
सरड
सरण
सरत
सरद
सरन
सरप
सरल
सरळ
सरळर
सरश
सरस
सरहद
सल
सलग
सलम
सळ
सळण
सळत
सळल
सव
सवड
सवत
सवय
सवर
सवलत
सश
सशक
सशस
सष
सस
ससह
सह
सहक
सहज
सहजच
सहजत
सहजपण
सहद
सहन
सहभ
सहमत
सहय
सहल
सहव
सहस
ह
हक
हग
हगड
हच
हचल
हज
हजर
हजरत
हट
हटकर
हटल
हटव
हटवण
हड
हडप
हण
हणज
हणण
हणत
हणतस
हणम
हणल
हणव
हणस
हत
हतव
हद
हदग
हन
हनत
हप
हब
हभ
हम
हमख
हमद
हय
हर
हरकत
हरच
हरण
हरत
हरन
हरप
हरभर
हरम
हरय
हरल
हरव
हरवल
हल
हलक
हलत
हलपम
हलव
हलवण
हलवल
हळ
हळद
हव
हश
हस
हसण
हसत
हसन
हसरस
हसल
़
ऽ
ऽध
ऽन
ऽप
ऽस
ा
ि
ी
ु
ू
ृ
ॄ
ॅ
ॆ
े
ै
ॉ
ॊ
ो
ौ
्
ॐ
॑
॒
॔
ॠ
ॢ
।
॥
०
००
०००
०१
०२
०३
०४
०५
०६
०७
०८
०९
१
१०
१००
१०००
१०१
१०२
१०३
१०४
१०४२
१०५
१०५०
१०६
१०७
१०८
१०९
११
११०
१११
११२
११३
११४
११५
११६
११७
११८
११९
१२
१२०
१२००
१२१
१२२
१२३
१२४
१२५
१२५०
१२६
१२७
१२८
१२९
१३
१३०
१३००
१३१
१३२
१३३
१३४
१३५
१३६
१३८
१४
१४०
१४१
१४२
१४३
१४४
१४५
१४७
१४८
१५
१५०
१५००
१५१
१५२
१५३
१५४
१५५
१५९
१६
१६०
१६१
१६२०
१६४
१६५
१६६
१६७
१६८
१६९
१७
१७०
१७५
१७६
१८
१८०
१८००
१८१८
१८४८
१८५
१८५७
१८६
१८६०
१८६१
१८६२
१८६४
१८६५
१८६७
१८६९
१८७०
१८७१
१८७२
१८७४
१८७६
१८७७
१८७९
१८८०
१८८१
१८८२
१८८३
१८८४
१८८५
१८८६
१८८७
१८८८
१८८९
१८९०
१८९१
१८९२
१८९३
१८९४
१८९५
१८९६
१८९७
१८९८
१८९९
१९
१९०
१९००
१९०१
१९०२
१९०३
१९०४
१९०५
१९०६
१९०७
१९०८
१९०९
१९१०
१९११
१९१२
१९१३
१९१४
१९१५
१९१६
१९१७
१९१८
१९१९
१९२०
१९२१
१९२२
१९२३
१९२४
१९२५
१९२६
१९२७
१९२८
१९२९
१९३०
१९३१
१९३२
१९३३
१९३४
१९३५
१९३६
१९३७
१९३८
१९३९
१९४०
१९४१
१९४२
१९४३
१९४४
१९४५
१९४६
१९४७
१९४८
१९४९
१९५
१९५०
१९५१
१९५२
१९५३
१९५४
१९५५
१९५६
१९५७
१९५८
१९५९
१९६०
१९६१
१९६२
१९६३
१९६४
१९६५
१९६६
१९६७
१९६८
१९६९
१९७०
१९७१
१९७२
१९७३
१९७४
१९७५
१९७६
१९७७
१९७८
१९७९
१९८०
१९८१
१९८२
१९८३
१९८४
१९८५
१९८६
१९८७
१९८८
१९८९
१९९०
१९९१
१९९२
१९९३
१९९४
१९९५
१९९६
१९९७
१९९८
१९९९
२
२०
२००
२०००
२००१
२००२
२००३
२००४
२००५
२००६
२००७
२००८
२००९
२०१
२०१०
२०११
२०१२
२०१३
२०१४
२०१५
२०१६
२०१७
२०१८
२०१९
२०२०
२०२१
२०२२
२१
२१०
२२
२२०
२२५
२२६०
२३
२३०
२४
२४०
२५
२५०
२६
२६०
२७
२७०
२८
२८८
२९
३
३०
३००
३०००
३१
३२
३२०
३३
३३०
३४
३४०
३५
३५०
३६
३६०
३७
३७०
३८
३९
४
४०
४००
४१
४२
४२०
४३
४४
४५
४५०
४६
४६०
४७
४७०
४८
४९
४९०
५
५०
५००
५०००
५१
५२
५३
५४
५४५
५५
५५०
५५५
५६
५६०
५७
५८
५९
६
६०
६००
६१
६१०
६२
६२०
६३
६४
६४०
६५
६६
६७
६८
६९
७
७०
७००
७१
७२
७२०
७३
७४
७५
७५०
७६
७६०
७६७
७७
७८
७८०
७९
८
८०
८००
८१
८२
८३
८४
८४८
८५
८५०
८६
८७
८८
८९
८९०
९
९०
९००
९१
९२
९३
९४
९५
९५०
९६
९७
९७५
९८
९८०
९८५
९९
९९०
९९५
॰
ॲ
ॲक
ॲग
ॲट
ॲड
ॲडम
ॲडव
ॲथल
ॲन
ॲप
ॲम
ॲर
ॲल
ॲलन
ॲव
ॲश
ॲस
ঁ
ং
অ
ই
ও
ক
খ
গ
ঙ
চ
ছ
জ
ঞ
ট
ঠ
ড
ণ
ত
থ
দ
ধ
ন
প
ফ
ব
ভ
ম
য
র
রত
ল
শ
ষ
স
হ
়
া
ি
ী
ু
ূ
ৃ
ে
ৈ
্
ৗ
ৰ
ৱ
ਂ
ਆ
ਕ
ਖ
ਗ
ਚ
ਜ
ਟ
ਡ
ਤ
ਦ
ਨ
ਪ
ਫ
ਬ
ਭ
ਮ
ਰ
ਲ
ਵ
ਸ
ਹ
਼
ਾ
ਿ
ੀ
ੁ
ੂ
ੇ
ੈ
ੋ
੍
ੰ
ੱ
ં
ક
ગ
ચ
જ
ટ
ડ
ણ
ત
દ
ન
પ
બ
ભ
મ
ય
ર
લ
વ
શ
ષ
સ
હ
ા
િ
ી
ુ
ૂ
ે
ો
્
ଂ
କ
ଗ
ଚ
ଜ
ଞ
ଟ
ଡ
ଣ
ତ
ଦ
ନ
ପ
ବ
ଭ
ମ
ର
ଲ
ଳ
ଶ
ଷ
ସ
ହ
଼
ା
ି
ୀ
ୁ
ୃ
େ
୍
ୟ
அ
க
ங
ச
ஜ
ட
ண
த
ந
ன
ப
ம
ய
ர
ற
ல
ள
ழ
வ
ஷ
ஸ
ா
ி
ீ
ு
ூ
ெ
ே
ை
்
ం
అ
క
ఖ
గ
చ
జ
ట
డ
ణ
త
ద
ధ
న
ప
ఫ
బ
భ
మ
య
ర
ల
వ
శ
ష
స
హ
ా
ి
ీ
ు
ూ
ృ
ె
ే
ొ
ో
్
ౖ
ಂ
ಕ
ಗ
ಚ
ಜ
ಟ
ಡ
ಣ
ತ
ದ
ಧ
ನ
ಪ
ಬ
ಭ
ಮ
ಯ
ರ
ಲ
ಳ
ವ
ಶ
ಷ
ಸ
ಹ
ಾ
ಿ
ು
ೂ
ೃ
ೆ
್
ೕ
ೖ
ം
ക
ഖ
ഗ
ങ
ച
ജ
ട
ഡ
ണ
ത
ഥ
ദ
ധ
ന
പ
ഫ
ബ
ഭ
മ
യ
ര
റ
ല
ള
വ
ശ
ഷ
സ
ഹ
ാ
ി
ീ
ു
ൂ
ൃ
െ
േ
ൈ
്
ൻ
ർ
ൽ
ൾ
ං
ක
ග
ජ
ට
ඩ
ත
ද
න
ප
බ
ම
ය
ර
ල
ව
ස
හ
්
ා
ැ
ි
ී
ු
ෙ
ก
ง
จ
ช
ด
ต
ท
น
พ
ม
ย
ร
ล
ว
ส
อ
ั
ิ
ี
ื
ุ
ู
็
่
้
์
ັ
་
།
ར
ལ
ས
ི
ོ
က
ခ
ဂ
င
စ
ဆ
တ
ဒ
န
ပ
ဗ
ဘ
မ
ယ
ရ
လ
ဝ
သ
အ
ါ
ာ
ိ
ီ
ု
ူ
ေ
ဲ
ံ
့
း
္
်
ျ
ြ
ွ
ှ
ក
ន
ម
រ
ល
ស
ា
ិ
ី
ុ
ូ
េ
ំ
្
​
‌
‍
‎
–
—
―
‖
‘
’
‛
“
”
†
‡
•
…
′
″
⁡
€
₹
←
↑
→
↔
↷
⇨
∂
−
√
∞
∴
≈
⋅
③
④
⑦
│
▄
■
□
▪
◆
●
◼
★
☐
♣
♦
❋
❖
⟶
ⴳ
⺀
⺄
⺆
⺈
⺊
⺌
⺕
⺝
⺸
⺼
⿰
⿱
⿲
⿳
⿴
⿵
⿶
⿷
⿸
⿹
⿺
⿻
、
《
》
「
」
〢
い
お
か
き
け
さ
し
す
た
つ
て
と
な
に
の
は
ひ
ま
も
り
る
れ
を
ん
゙
゚
ァ
ア
ィ
イ
ゥ
ウ
ェ
エ
ォ
オ
カ
キ
ク
ケ
コ
サ
シ
ス
セ
ソ
タ
チ
ッ
ツ
テ
ト
ナ
ニ
ヌ
ネ
ノ
ハ
ヒ
フ
ヘ
ホ
マ
ミ
ム
メ
モ
ャ
ヤ
ュ
ユ
ョ
ラ
リ
ル
レ
ロ
ワ
ン
・
ー
㇁
㇂
㇄
㇇
㇈
㇉
㇓
㐁
㐄
㐅
㐌
㐫
㐬
㐭
㐮
㐱
㑒
㒵
㒸
㒼
㓁
㓞
㔾
㕛
㕣
㖾
㘝
㚅
㚇
㚔
㚘
㝉
㝡
㝴
㝵
㞋
㞢
㞷
㠩
㠭
㠯
㡀
㡭
㡿
㢲
㢴
㣇
㣺
㥯
㪅
㫄
㫐
㫒
㫺
㬅
㬎
㬥
㬰
㲋
㳄
㷠
㸒
㸚
㸦
㼌
㼲
㽞
㿟
䀠
䂞
䍃
䏍
䒑
䖍
䖒
䖝
䖵
䙴
䚻
䜌
䝿
䡛
䧹
䪞
一
丁
丂
七
丄
丅
丆
万
丈
三
上
下
丌
不
与
丏
丐
丑
专
且
丕
世
丘
丙
业
东
丞
丢
丣
两
严
並
丨
丩
个
丫
丬
中
丮
丰
丱
串
丵
丶
丷
丸
丹
为
主
丽
丿
乀
乂
乃
久
乆
乇
么
义
之
乌
乍
乎
乏
乐
乑
乔
乖
乗
乘
乙
乚
乛
乜
九
乞
也
习
乡
乳
乾
亀
亅
了
亇
予
争
事
二
亍
于
亏
亐
云
互
亓
五
井
亘
亚
亜
亞
亟
亠
亡
亢
交
亥
亦
产
亨
亩
享
京
亭
亮
亯
亰
亲
亳
亶
亷
人
亻
亼
亾
什
仁
今
介
仌
从
仐
仑
仒
仓
仕
他
付
仝
代
令
以
件
任
企
伊
伏
伐
休
会
伯
但
位
体
何
佘
余
佛
作
佥
使
來
侈
侌
侖
侯
侵
便
俄
保
俞
信
修
俱
倉
倍
候
倠
備
僉
像
僕
優
儿
兀
允
兂
元
兄
充
兆
兇
先
光
兊
克
兌
免
兑
兒
兓
兔
党
兜
兟
入
內
全
兩
兪
八
公
六
兮
兰
共
关
兵
其
具
典
兹
兼
冀
冂
冃
冄
内
冈
冉
冊
冋
册
再
冎
冏
冐
冒
冓
冖
冗
冘
军
农
冝
冠
冡
冥
冫
冬
冷
几
凡
凢
凵
凶
凷
凸
凹
出
函
凾
刀
刁
刂
刃
刄
刅
分
切
刍
刑
刕
刖
列
刘
则
初
別
利
别
到
制
刺
則
削
剌
前
剡
剽
劇
劉
力
功
加
劦
动
助
努
劫
劳
劵
勃
勇
勉
勒
動
務
勞
勤
勹
勺
勻
勾
勿
匀
匂
包
匆
匈
匊
匋
匍
匕
化
北
匚
匝
匡
匪
匱
匸
匹
区
医
匽
匿
區
十
卂
千
卄
卅
卆
升
午
卉
半
卌
华
卑
卒
卓
单
卖
南
博
卜
卝
卞
占
卡
卢
卣
卤
卦
卩
卪
卬
卯
印
危
即
却
卵
卷
卸
卻
厂
厃
厄
历
厈
厉
厌
厓
厘
厚
原
厤
厥
厨
厭
厲
厶
厷
厸
去
厼
厽
叀
参
參
叅
又
叉
及
友
双
反
叐
发
叒
叔
叕
取
受
叚
叜
叟
口
古
句
另
叩
只
召
可
台
叱
史
右
叵
号
司
叹
吂
各
吅
合
吉
吊
吋
同
名
后
吏
向
吕
君
吝
吞
否
含
启
吳
吴
吹
吾
呂
呆
呈
告
员
呙
周
命
咅
和
咎
咠
咢
咨
咸
咼
哀
品
哈
哉
員
哥
哲
唐
商
啇
問
啚
啬
啻
善
喜
喬
單
喿
嗇
噩
嚴
囊
囗
囘
囙
囚
四
回
囟
因
囧
囬
困
囱
囷
固
国
圂
圅
國
圍
圓
土
圡
圣
圥
在
圭
地
圶
场
圼
坐
坒
坚
坦
坴
垂
型
垔
垚
埀
埃
埋
城
埶
執
基
堂
堅
堆
堇
堯
場
塔
塞
墨
壘
士
壬
壯
声
壳
壴
壹
壺
壽
夂
处
夅
夆
备
夊
夋
夌
复
夏
夒
夕
外
夗
夘
多
夜
夢
大
夨
天
太
夫
夬
夭
央
失
夲
头
夷
夸
夹
夻
夾
奂
奄
奇
奈
奉
奎
奏
奐
契
奓
奔
奖
奚
奞
奠
奢
奥
奧
奭
女
奴
奻
好
如
妄
妙
妟
妥
妻
妾
姆
姐
姑
委
姜
威
娄
娜
婁
婴
媒
嬰
嬴
子
孑
孔
孕
孖
字
存
孚
孛
孝
孟
季
孤
学
孫
孱
學
宀
宁
宂
它
宅
宇
守
安
宋
完
宏
宓
宗
官
定
宛
宜
宝
客
宣
室
宮
宰
害
家
容
宾
宿
寄
寅
密
富
寒
察
寧
審
寫
寬
寮
寸
对
寺
寻
寽
対
寿
封
尃
射
将
將
專
尉
尊
尋
尌
對
小
少
尒
尓
尔
尖
尗
尚
尞
尢
尣
尤
尧
尨
尭
就
尸
尹
尺
尻
尼
尽
尾
尿
局
居
屈
屋
屎
屏
屑
展
屖
屚
属
屠
屡
屬
屮
屯
屰
山
屵
屾
岁
岂
岑
岛
岡
岩
岳
岸
峯
島
崇
崑
崔
崖
崙
崩
嵬
嶲
巂
巛
川
州
巟
巠
巢
巤
工
左
巧
巨
巩
巫
差
己
已
巳
巴
巷
巸
巽
巾
巿
帀
市
布
希
帕
帚
帛
帝
带
師
席
帶
常
干
平
年
幵
并
幷
幸
幺
幻
幼
幽
幾
广
広
庄
床
库
底
店
庚
府
度
庫
庭
庶
康
庸
廉
廌
廛
廣
廩
廴
延
廷
建
廾
廿
开
弁
弃
弄
弇
弋
式
弓
弔
引
弗
弘
弜
弟
弥
弦
弱
張
強
强
彊
彌
彎
彐
彑
当
彔
录
彖
彗
彡
形
彥
彦
彧
彭
影
彳
役
彼
往
待
律
後
徒
得
徙
從
復
微
徵
德
心
忄
必
忌
忍
志
忝
忠
忩
快
念
忽
忿
思
怠
急
性
怱
恆
恒
恩
恭
息
悉
患
悤
悲
悶
惠
惡
惢
愁
愈
意
愛
感
慈
慧
慮
憂
憲
應
戀
戈
戉
戊
戋
戌
戍
戎
成
我
戒
戔
或
战
戚
戠
戢
截
戰
戲
戴
戶
户
戹
戼
戾
房
所
扁
扇
手
扌
才
打
托
执
承
技
折
拉
拜
拿
掌
探
推
提
摩
播
支
攴
攵
收
攸
改
放
政
敄
敏
敕
敖
敗
教
敝
敞
敢
散
敦
敫
敬
数
敷
數
斂
文
斉
斊
斗
斤
斥
斩
斬
斯
新
方
於
施
斿
旁
旋
族
无
旡
既
旣
日
旦
旧
旨
早
旬
旱
旲
时
旾
昆
昇
昌
昍
明
昏
易
昔
昗
昜
星
映
春
昬
是
昱
昴
昷
時
晃
晋
晏
普
景
晶
智
暑
暴
曇
曩
曰
曲
曳
更
曷
書
曹
曼
曾
替
最
朁
會
月
有
朋
服
朔
朕
朗
望
朝
期
木
朩
未
末
本
札
朮
术
朱
朵
朶
机
朿
杀
李
杏
杜
束
条
来
東
杲
杳
松
板
析
林
枚
果
枝
枲
枼
某
染
柔
查
柬
柰
柴
树
栗
核
根
格
桀
桑
桼
梁
梅
條
梟
梨
棘
棠
棥
森
楚
業
楽
榮
樂
樊
樹
機
欠
次
欣
欮
欲
欶
欽
款
歆
歇
歌
歛
止
正
此
步
武
歧
歨
歪
歮
歯
歰
歲
歴
歷
歸
歹
歺
死
殳
段
殷
殸
殹
殺
殻
殿
毋
毌
母
每
毒
比
毕
毚
毛
毳
氏
氐
民
气
氣
水
氵
氶
氷
永
氺
氾
求
汉
汝
汞
江
沃
沓
沙
沝
河
油
治
泉
法
波
泣
泥
泰
洋
洛
洪
洲
活
派
流
浦
浪
浮
海
消
淡
淮
清
渚
渠
港
湯
源
滿
演
漢
漸
火
灬
灭
灰
灵
灷
炅
炎
炏
炗
炙
炭
為
烈
烏
烝
焉
無
焦
焱
然
煞
熊
熏
燕
營
燮
爪
爫
爭
爯
爰
爱
爲
爵
父
爻
爽
爾
爿
片
牙
牚
牛
牜
牟
牢
牧
物
牪
特
牽
犀
犬
犭
犮
狂
狄
狊
狗
独
狺
猋
猒
猪
献
獎
獻
玄
率
玉
王
玟
玨
珎
班
球
理
琴
瑞
瑟
瑩
瓜
瓦
甘
甚
生
産
用
甫
甬
田
由
甲
申
电
甶
男
甸
甹
画
甾
畀
界
畏
畐
留
畜
畟
畢
略
畧
畨
番
畫
異
畱
當
畺
畾
疊
疋
疌
疑
疒
疫
疾
病
症
癶
癸
癹
発
登
發
白
百
皀
皃
的
皆
皇
皋
皐
皕
皮
皷
皿
盃
盆
盇
盈
益
盍
盎
监
盒
盖
盛
盡
監
盤
盧
目
直
相
盾
省
眇
眉
看
県
眔
眞
真
眷
眼
眾
着
睘
督
睪
睿
瞏
瞢
瞿
矍
矛
矞
矢
矣
知
矦
短
石
研
破
碎
磊
磨
示
礻
礼
社
神
祟
票
祭
禀
禁
福
禸
禹
禺
离
禽
禾
禿
秀
秃
秉
秋
科
秝
秦
移
程
稟
穀
穆
穌
穴
究
穹
空
穿
突
窄
窒
立
竒
竜
竝
竟
章
童
竹
笑
笠
第
筆
等
答
箕
算
管
箴
節
篤
篭
米
粉
粛
粟
粤
粦
粲
糞
糸
糹
系
約
納
素
索
紫
累
細
組
絜
絫
統
絲
經
維
網
綿
縣
繇
織
纍
纟
约
纳
组
织
维
缶
网
罒
罔
罕
罗
罙
罡
罢
罪
署
罷
羅
羊
羌
羍
美
羔
羕
羗
羞
羡
羣
群
義
羲
羸
羽
翁
翏
習
翕
翟
翠
翰
翼
老
耂
考
者
耆
而
耎
耑
耒
耳
耴
耶
耷
聂
聊
聖
聚
聶
聿
肀
肃
肅
肉
肖
肙
肥
肩
肯
育
肴
胃
背
胡
胥
能
脊
脩
膚
臣
臤
臧
自
臬
臭
臯
臱
至
致
臺
臼
臽
臾
臿
舀
舂
舄
與
興
舉
舌
舍
舛
舜
舞
舟
航
般
艮
良
色
艸
艹
艾
节
芒
芔
芬
芮
花
芳
芺
芻
苏
苔
苗
苟
若
苦
英
苹
茶
茸
荅
草
荒
荣
荼
莆
莉
莎
莧
莫
莽
菆
菊
菐
華
菲
萊
萨
萬
落
葉
著
葛
董
葵
蒂
蒙
蒦
蒼
蓋
蓬
蓺
蔑
蔡
蕉
蕭
薄
薛
薦
薩
薰
藍
藏
藥
蘇
蘋
蘭
虍
虎
虐
虒
虔
處
虖
虗
虘
虚
虛
虜
虞
虫
虽
蚤
蚩
蜀
蜂
蜜
蟲
蠡
血
衆
行
衍
術
衛
衣
衤
表
衮
衰
袁
袞
褭
褱
襄
襾
西
覀
要
覃
見
規
覓
視
覧
親
覽
见
视
角
解
言
訁
訇
計
記
詹
語
誩
諸
讠
记
诺
谢
谷
豆
豈
豊
豐
豕
豖
豙
象
豦
豩
豪
豸
貇
貝
貞
貟
負
貢
貧
貪
貫
責
貳
貴
買
費
賁
資
賈
賏
賓
賔
賛
賞
賢
賣
質
賴
賽
贊
贝
贡
责
贯
贲
贵
赖
赛
赞
赤
赦
赫
走
超
越
足
跨
路
蹇
身
躬
車
軍
軎
軟
輦
车
辛
辜
辟
辥
辰
辱
農
辵
辶
边
达
过
近
连
迪
迷
追
退
送
逆
逐
通
速
造
逢
連
逮
進
遀
遂
運
過
道
達
遣
適
遷
選
遺
邊
邑
邕
那
邦
邪
郎
部
郭
都
鄉
酉
酋
配
酓
釆
采
里
重
野
量
金
釒
錢
钅
長
镸
长
門
閃
閉
開
閏
閑
閒
間
閔
閵
閻
闌
门
间
闷
闻
阑
阜
阝
阿
际
降
院
陳
陸
隆
隊
隋
際
隡
隨
險
隱
隶
隹
隺
隻
隼
隽
难
雀
雁
集
雈
雋
雍
雐
雔
雙
雚
雜
雝
離
難
雨
雩
雪
雲
零
雷
電
需
霍
霜
霝
霞
霸
靈
靑
青
非
靡
面
靣
革
韋
韦
韭
韯
韱
音
頁
頃
項
須
頗
頡
頻
顛
類
页
频
風
风
飛
飞
食
飠
養
餐
館
饣
首
香
馬
馮
駦
马
骨
體
高
髟
鬥
鬯
鬲
鬼
魚
魯
鮮
鱼
鲁
鳥
鳳
鸟
鹵
鹿
麃
麗
麥
麦
麻
黃
黄
黍
黎
黑
黒
默
黨
黹
黽
黾
鼎
鼓
鼠
鼻
齊
齋
齐
齒
齿
龍
龙
龜
龟
龠
龰
龱
龴
龵
龶
龷
龸
龹
ꯁ
ꯂ
ꯃ
ꯄ
ꯔ
ꯛ
ꯣ
ꯤ
ꯥ
ꯦ
ꯨ
者
艹
️
﻿
（
）
，
＝
？
🌍
𠀁
𠀃
𠀆
𠀉
𠀎
𠀐
𠁁
𠁣
𠂆
𠂇
𠂈
𠂉
𠂊
𠂋
𠂎
𠂒
𠂔
𠂛
𠂡
𠂢
𠂤
𠂬
𠂭
𠂹
𠃊
𠃋
𠃌
𠃍
𠃎
𠃑
𠃓
𠃔
𠃜
𠄌
𠄎
𠄠
𠄢
𠆢
𠆥
𠇍
𠈌
𠌵
𠓜
𠔉
𠔥
𠔼
𠔽
𠔿
𠕀
𠕁
𠕋
𠘧
𠘨
𠙻
𠙼
𠚏
𠚒
𠚤
𠚪
𠣏
𠤎
𠤕
𠥓
𠦄
𠦑
𠦝
𠧒
𠧗
𠧪
𠩺
𠪚
𠫓
𠫔
𠫤
𠬛
𠬝
𠬞
𠬢
𠬤
𠬶
𠮛
𠮦
𠮷
𠯑
𠱠
𠳮
𠷎
𡈼
𡉀
𡉵
𡌥
𡍮
𡏳
𡕒
𡕩
𡕰
𡖅
𡗗
𡗜
𡘆
𡘤
𡧱
𡨄
𡩧
𡬠
𡭽
𡰣
𡰥
𡰪
𡰯
𡰱
𡷈
𡸁
𡿨
𡿩
𡿪
𡿺
𢀖
𢀛
𢀩
𢁙
𢆉
𢆰
𢆶
𢇁
𢇇
𢉖
𢌬
𢌿
𢏚
𢑑
𢑚
𢖻
𢙣
𢛳
𢦏
𢦒
𢧵
𢼄
𢾕
𣁋
𣄼
𣅀
𣅽
𣍘
𣎳
𣎵
𣏋
𣏼
𣗥
𣥂
𣥖
𣦵
𣦼
𣧄
𣪊
𣪠
𣬉
𣳾
𣶒
𤇾
𤊽
𤐫
𤓰
𤔔
𤕨
𤣩
𤰇
𤰔
𤰞
𤴓
𤴔
𤽄
𥁑
𥁕
𥃦
𥃩
𥃭
𥇡
𥑟
𥘅
𥘈
𥝢
𥫗
𥱡
𦈢
𦉪
𦉬
𦉼
𦍌
𦍒
𦎧
𦐇
𦓔
𦔮
𦘒
𦙃
𦚏
𦣝
𦣞
𦣻
𦥑
𦥔
𦥯
𦨉
𦭝
𦰩
𧆞
𧈧
𧘇
𧰨
𧴪
𧴮
𧵩
𧾷
𨸏
𨾴
𩙿
𩠐
𩫏
𩵋
𪉷
𪜀
𪟽
𪠲
𪩲
𫇦
𫔭
𫜸
𫝀
𫠣
𫠩
𫢉
𫥞
𫩏
𫩠
𫪡
𫲽
𫶧
𬀷
𬐘
𬗌
𬙙
𬛸
𬜯
𬟩
𬯁
𬴘
𬺻
𬼉
𬼖
𭀰
𭁈
𭁨
𭅰
𭑈
𭕄
𭗼
𭤨
𭥫
𭻾
𮅕
𮊿
𮍌
𮍏
𮓗
𮥼
𮧮
廾
𰀁
𰀄
𰀈
𰀉
𰀕
𰀠
𰀡
𰀢
𰀪
𰁜
𰃮
𰆊
𰆘
𰋙
𰕎
𰢴
𰧭
𰯲
00--
10--
11--
12--
13--
14--
15--
16--
17--
18--
19--
20--
21--
22--
23--
24--
25--
26--
27--
28--
29--
30--
31--
32--
33--
34--
35--
36--
37--
38--
39--
40--
41--
42--
43--
44--
45--
6--
7--
8--
9--
a--
aa--
ab--
ac--
acco--
ad--
af--
aga--
agri--
ah--
air--
ak--
aka--
al--
am--
an--
anim--
anno--
app--
appe--
appli--
ar--
arch--
as--
at--
attr--
au--
auto--
av--
az--
b--
ba--
bam--
be--
beg--
ben--
ber--
berg--
bha--
bhar--
bhu--
bi--
bib--
bio--
bir--
biz--
bo--
br--
bre--
broad--
bu--
budd--
bur--
c--
ca--
cal--
cam--
can--
car--
ce--
cele--
cer--
ch--
cha--
cham--
char--
chi--
cho--
chri--
ci--
cla--
cle--
cli--
co--
col--
collec--
colo--
com--
commu--
con--
conn--
conser--
const--
conti--
contr--
contri--
coo--
cor--
cra--
cre--
cri--
cro--
cu--
cy--
d--
da--
de--
defi--
democ--
deve--
di--
dis--
disc--
dist--
distri--
do--
doc--
docu--
dr--
du--
dyn--
e--
ec--
ed--
ef--
el--
elec--
em--
emi--
en--
eng--
environ--
equ--
er--
es--
esti--
et--
eu--
ex--
exam--
exclu--
f--
fa--
fai--
fal--
far--
fe--
fer--
fi--
fig--
flig--
flo--
fo--
fol--
fr--
frie--
fu--
g--
ga--
gaz--
ge--
gene--
geog--
gi--
giv--
gl--
go--
gra--
gre--
gro--
gu--
h--
ha--
har--
he--
hel--
hi--
ho--
hol--
hos--
hu--
hund--
hus--
hy--
i--
ia--
im--
in--
indi--
indu--
influ--
ing--
inst--
inte--
intel--
inter--
is--
it--
j--
ja--
je--
jen--
jo--
ju--
k--
ka--
kal--
kan--
kar--
ke--
kha--
ki--
kil--
kir--
ko--
kol--
kon--
kri--
ku--
l--
la--
laun--
le--
li--
lig--
lo--
lock--
lok--
lu--
m--
ma--
mad--
mal--
mala--
man--
mas--
mc--
me--
mem--
memo--
men--
mer--
mi--
mil--
mo--
mon--
mor--
moun--
mu--
muk--
mur--
my--
n--
na--
nd--
ne--
ni--
no--
nor--
nu--
nuc--
o--
oba--
obser--
oc--
oce--
on--
or--
os--
out--
p--
pa--
pal--
pan--
par--
pas--
pay--
pe--
pen--
per--
pet--
phi--
pho--
phy--
pi--
pic--
pl--
po--
pra--
prab--
prac--
pre--
pri--
prin--
pro--
produc--
prog--
provi--
pu--
publi--
pun--
pur--
q--
qu--
r--
ra--
rad--
raj--
ran--
rat--
re--
recog--
reg--
repre--
res--
ri--
ro--
rou--
ru--
s--
sa--
sac--
sar--
sc--
scien--
se--
sec--
ser--
sh--
si--
sig--
sk--
sl--
so--
sp--
spa--
spe--
spec--
spi--
spo--
spri--
st--
stat--
ste--
sti--
stra--
stre--
stu--
su--
sub--
subj--
suc--
suk--
sum--
sur--
sw--
t--
ta--
tan--
tar--
te--
teac--
tech--
tele--
teni--
ter--
th--
tha--
the--
thoug--
ti--
to--
tr--
tra--
trad--
trai--
tran--
trans--
tre--
tri--
tru--
tu--
tur--
tw--
u--
uk--
un--
uni--
unive--
up--
ur--
us--
v--
va--
val--
ve--
ver--
vi--
vic--
vid--
vio--
vo--
w--
wa--
we--
wel--
wi--
wiki--
wil--
wis--
wor--
wri--
x--
y--
ya--
yo--
z--
za--
đ--
α--
ν--
τ--
а--
америк--
ба--
в--
г--
з--
и--
к--
ка--
ко--
л--
м--
ма--
р--
с--
ск--
т--
ا--
ال--
اله--
ب--
جا--
د--
ر--
س--
ش--
ف--
ل--
م--
مر--
ن--
هن--
و--
ک--
अ--
अड--
अन--
अप--
अफ--
अर--
आ--
आई--
आत--
आद--
आप--
आम--
आय--
आर--
इ--
इट--
इन--
ई--
ईट--
उ--
उक--
उप--
उम--
ऊ--
ऋ--
ऍ--
ऎ--
ए--
एक--
एच--
एन--
एफ--
एम--
एर--
एल--
एस--
ऐ--
ऑ--
ओ--
ओढ--
ओस--
औ--
क--
कट--
कण--
कम--
कर--
कळ--
कस--
ख--
खट--
खड--
खर--
खल--
खळ--
खव--
ग--
गज--
गड--
गत--
गन--
गर--
गल--
गव--
घ--
घन--
घर--
घस--
ङ--
च--
चक--
चन--
चप--
चर--
छ--
ज--
जन--
जय--
जल--
जळ--
जस--
झ--
ञ--
ट--
टक--
टन--
टर--
ठ--
ड--
डर--
ढ--
ण--
त--
तड--
तन--
तर--
तळ--
तस--
थ--
थर--
द--
दड--
दन--
दर--
दव--
ध--
धन--
धर--
न--
नट--
नर--
नव--
प--
पक--
पड--
पण--
पद--
पर--
फ--
फर--
ब--
बई--
बट--
बन--
बर--
बल--
बळ--
भ--
भय--
भर--
भव--
म--
मज--
मण--
मत--
मन--
मर--
मल--
मळ--
मस--
य--
यन--
यर--
यल--
र--
रक--
रघ--
रज--
रव--
रस--
ल--
लग--
लट--
लब--
ळ--
व--
वड--
वन--
वर--
वल--
वळ--
वस--
श--
शत--
शन--
ष--
षण--
स--
सन--
सम--
सर--
सव--
सह--
ह--
हण--
हत--
हन--
हम--
हर--
हल--
हस--
ऽ--
ॠ--
१३--
१४--
१५--
१६--
१७--
१८--
२०--
२१--
२५--
ॲ--
অ--
আ--
ই--
ক--
জ--
প--
ব--
ম--
র--
স--
ର--
அ--
இ--
க--
ச--
ட--
த--
ப--
ம--
ய--
ர--
வ--
ర--
ರ--
അ--
ഇ--
ക--
യ--
ര--
--0
--1
--2
--3
--4
--5
--6
--67
--69
--7
--76
--78
--8
--84
--86
--89
--9
--98
--a
--abad
--able
--ad
--ada
--ah
--ai
--ail
--ain
--aji
--ak
--al
--als
--am
--an
--ance
--ang
--ani
--ans
--ant
--ar
--ara
--ary
--as
--at
--ata
--ate
--ated
--ates
--atic
--ating
--ation
--ations
--ay
--b
--ble
--c
--ca
--cal
--ce
--ced
--cer
--ces
--ch
--che
--ck
--co
--cs
--ct
--cted
--ction
--cts
--cy
--d
--da
--de
--ded
--di
--dle
--do
--dra
--ds
--dy
--e
--ea
--eae
--eb
--ed
--ee
--eer
--ef
--ek
--el
--ela
--em
--emic
--en
--ent
--ents
--ep
--er
--ern
--ers
--ert
--es
--esh
--est
--et
--ett
--eur
--ey
--f
--fic
--ful
--fy
--g
--ga
--ge
--ger
--ges
--gi
--gical
--ging
--go
--graph
--gs
--gy
--h
--ha
--he
--hi
--i
--ia
--ial
--ian
--ic
--ica
--ical
--ics
--id
--ie
--ied
--ies
--ign
--ik
--ika
--il
--ild
--in
--ina
--ine
--ing
--ings
--io
--ion
--ional
--ions
--ip
--ir
--ire
--is
--ish
--ism
--ist
--it
--ita
--ite
--ities
--ity
--ive
--j
--ja
--ji
--k
--ka
--kar
--ke
--kh
--ki
--ko
--ks
--l
--la
--lar
--ld
--le
--ler
--ley
--lf
--li
--lity
--lk
--ll
--lla
--lle
--ller
--lls
--lly
--lm
--lo
--logy
--ls
--ly
--m
--ma
--man
--mb
--me
--ment
--mi
--mic
--ms
--n
--na
--nce
--nces
--nd
--ndo
--ne
--ned
--ner
--nes
--ney
--ng
--ngs
--ni
--nia
--nk
--no
--ns
--nt
--nte
--nts
--ny
--o
--od
--ok
--ol
--ological
--ology
--om
--on
--onal
--ons
--op
--or
--ore
--ors
--os
--ot
--ou
--ough
--ous
--p
--pa
--pe
--phy
--pt
--pu
--pur
--q
--r
--ra
--ral
--ran
--rat
--rd
--re
--res
--rg
--ri
--ria
--ries
--ring
--rk
--rm
--rn
--rns
--ro
--rry
--rs
--rt
--ry
--s
--sa
--se
--sed
--ses
--sh
--shi
--si
--sis
--sk
--son
--ss
--st
--ster
--sts
--t
--ta
--tal
--tary
--tation
--te
--ted
--ter
--tes
--th
--ti
--tic
--ties
--tin
--ting
--tion
--tions
--tive
--to
--ton
--tor
--tory
--tra
--tri
--tric
--ts
--tt
--tta
--ty
--u
--ua
--ud
--ue
--ul
--um
--up
--ur
--ure
--us
--ut
--ution
--v
--va
--val
--ve
--ved
--ves
--vy
--w
--wa
--x
--y
--ya
--yan
--yd
--z
--ze
--α
--ι
--ς
--υ
--а
--д
--е
--и
--ии
--к
--ка
--н
--о
--он
--р
--с
--т
--я
--і
--ת
--ا
--ان
--ة
--ت
--د
--ر
--ز
--س
--ل
--م
--ن
--ه
--و
--ي
--ية
--ی
--ई
--ए
--एस
--क
--कर
--ख
--ग
--गड
--गर
--घ
--ङ
--च
--चन
--छ
--ज
--झ
--ट
--ठ
--ड
--ढ
--ण
--त
--थ
--द
--ध
--न
--प
--पट
--पण
--फ
--ब
--भ
--म
--मध
--य
--र
--ल
--ळ
--व
--वण
--वर
--वल
--श
--शक
--ष
--स
--ह
--०
--००
--१
--१०
--२
--३
--४
--५
--६
--७
--८
--९
