!
"
#
##0
##1
##10
##11
##12
##13
##14
##15
##16
##17
##18
##19
##2
##20
##21
##22
##23
##24
##25
##26
##27
##28
##29
##3
##30
##31
##32
##33
##34
##35
##36
##37
##38
##39
##4
##40
##41
##42
##43
##44
##45
##46
##47
##48
##49
##5
##50
##51
##52
##53
##54
##55
##56
##57
##58
##59
##6
##60
##61
##62
##63
##64
##65
##66
##67
##68
##69
##7
##70
##71
##72
##73
##74
##75
##76
##77
##78
##79
##8
##80
##81
##82
##83
##84
##85
##86
##87
##88
##89
##9
##90
##91
##92
##93
##94
##95
##96
##97
##98
##99
$
%
&
'
(
)
*
+
,
-
.
/
0
00
000
001
004
007
01
014
02
03
04
041
05
06
07
08
09
1
10
100
1000
1007
101
1016
102
1021
103
1038
104
105
106
107
108
109
11
110
111
1111
112
113
114
115
116
117
118
119
12
120
1200
121
122
123
1230
124
125
126
127
128
129
13
130
1300
131
132
133
134
135
136
138
139
14
140
1400
141
142
143
144
145
1453
146
1469
147
1472
1475
148
149
1492
15
150
1500
151
1519
152
1520
153
154
1541
155
1550
1554
1558
156
1561
1562
1564
157
157436210791112172
158
1580
1584
1591
1598
16
160
1600
1603
1604
1606
161
1611
1613
1616
162
163
1631
1635
164
1640
1641
165
166
1660
1666
167
168
169
17
170
1700
1707
171
172
173
174
1742
175
1755
176
177
1770
1776
1778
178
1783
1788
179
1795
1798
18
180
1800
1801
1805
1808
1809
181
1810
1812
1813
1814
1815
182
1820
1821
1824
1825
1826
1828
183
1830
1832
1833
1834
1836
1837
1838
184
1842
1843
1844
1845
1848
185
1850
1852
1853
1854
1855
1856
1857
1858
1859
186
1860
1863
1864
1865
1866
1867
1868
1869
1870
1871
1872
1873
1874
1875
1876
1877
1878
1879
1880
1881
1882
1883
1884
1885
1886
1887
1888
1889
189
1890
1891
1892
1893
1894
1895
1896
1897
1898
1899
19
190
1900
1901
1902
1903
1904
1905
1906
1907
1908
1909
191
1910
1911
1912
1913
1914
1915
1916
1917
1918
1919
192
1920
1921
1922
1923
1924
1925
1926
1927
1928
1929
193
1930
1931
1932
1933
1934
1935
1936
1937
1938
1939
194
1940
1941
1942
1943
1944
1945
1946
1947
1948
1949
1950
1951
1952
1953
1954
1955
1956
1957
1958
1959
196
1960
1961
1962
1963
1964
1965
1966
1967
1968
1969
197
1970
19702
1971
1972
1973
1974
1975
1976
1977
1978
1979
198
1980
1981
1982
1983
1984
1985
1986
1987
1988
1989
199
1990
1991
1992
1993
1994
1995
1996
19969
1997
1998
1999
2
20
200
2000
2001
2002
200237
2003
2004
2005
2006
2007
2008
2009
201
2010
2011
2012
2013
2014
2015
2016
2017
2018
2019
202
2020
2021
2022
203
204
205
206
207
208
209
21
210
211
212
213
214
215
216
217
2174
218
219
22
220
221
222
223
224
225
226
227
228
229
23
230
232
233
234
235
236
237
239
24
240
241
242189
243
244
245
246
247
248
249
25
250
251
252
253
254
255
256
257
258
259
26
260
261
262
263
264
265
266
267
269
27
270
271
272
273
274
275
276
277
278
279
28
280
281
282
287
29
290
291
293
294
295
297
298
299
3
30
300
3000
301
303
305
306
307
308
309
31
310
311
312
313
314
315
317
318
319
32
320
321
322
323
324
325
326
327
328
329
33
330
331
332
333
334
335
336
337
338
339
34
340
341
342
343
344
345
346
347
348
349
35
350
351
352
353
354
355
356
358
359
36
360
361
362
364
365
366
37
370
375
379
38
380
39
390
392
394
395
397
398
39816686
399
4
40
400
4000
401
405
4092
41
410
412
415
42
43
430
436
44
45
450
457
458
46
460
466
47
471
48
480
482
484
486
49
5
50
500
5000
504
51
510
515
52
520
53
54
544
55
550
56
562
57
570
58
580
582
59
590
6
60
600
61
610
615
618
62
621
63
630
631
639
64
640
65
650
66
660
666
67
676
68
69
690
7
70
700
7000
71
711
72
73
74
745
7492
75
750
76
77
78
780
79
8
80
800
81
82
83
839
84
85
856
86
860
87
88
89
899
9
90
900
91
910
92
924
927
93
937
94
95
950
96
962
964
968
97
970
978
98
986
99
998
:
;
<
=
>
?
@
[
\
]
^
_
`
a
aa
ab
aba
abada
abadi
abahu
abaju
abaldona
aballa
aballo
abarca
abastecimientu
abati
abaxu
abc
abel
abemus
abi
abia
abian
abieltu
abierta
abiertas
abiertu
abiertus
abita
abitacionis
abitan
abitantis
abitau
abitual
abitualmenti
ablativu
aboca
abocal
abogau
abolicio
abonda
abondas
abondu
abondus
aboriginal
abostu
about
abrac
abrevia
abreviatura
abreviaturas
abreviau
abri
abrieru
abril
abriura
abu
abundanti
abundantis
ac
acaba
acabaeru
acabal
acabbal
acaberu
acaberus
acabiha
acabihal
acabiho
acabija
acabijo
acabo
acad
acade
academia
academic
academy
acae
acaemia
acampa
accesit
accio
ace
acebi
aceel
aceite
aceiti
aceleracio
acen
acentu
acentua
acentuacio
acentus
acerca
aceru
acessu
acesu
aceta
acetre
acetu
aceu
aceus
achelensi
achiperri
acia
acibi
acienta
acienti
acio
acion
acionis
acogia
acohi
acoloca
acompan
aconteci
acontecimientus
acontecio
acontina
acontinal
acontinan
acontinarun
acontino
acordi
acorri
acro
acta
activa
activacio
activated
activia
activiais
activida
actividad
actividais
activista
activity
actor
actri
actris
actu
actual
actualida
actualidad
actualis
actualmente
actualmenti
actus
acu
acua
acuarelas
acuedutu
acuerdu
acui
acumulacio
acun
acupa
acupo
acusativu
ad
ada
adalid
adam
adapta
adaptacio
adata
adatacion
adecua
adecuau
adema
adentru
adi
adif
aditivus
adjetivu
administracio
adn
adocio
adolf
adolfo
adoracio
adota
adotau
adoto
adrados
adrentu
adria
adrianu
adulto
adultos
adultu
adultus
adventure
ae
aeijzaa
aeronavi
aeropueltu
aeru
aerupuertu
afa
afe
afecha
afechau
afecta
afectan
afeta
affair
affaires
afganista
afi
aficio
afina
afirma
afluenti
afluentis
afonsu
afotu
afotus
afra
africa
african
africana
africanu
africanus
afro
after
ag
agan
agarris
age
aged
agencia
agenti
agentis
aging
agora
agosto
agostu
agra
agraeci
agraria
agregaci
agri
agric
agricoltura
agricultura
agricurtura
agro
agroecologi
agrupa
agrupacio
agrupacionis
agu
agua
aguas
agus
agusti
agustu
agut
ah
ahentis
ahi
ahigal
ahila
ahilandu
ahora
ahoril
ahorra
ahorran
ahorros
ahuera
ahuntaol
ahuyil
ahuyo
ai
aicio
aids
aiga
ailla
ain
aina
air
aire
aires
airi
airis
airlines
airways
aise
aisla
aislamientu
aislau
aiti
ajedrez
aju
ajunta
ajuntan
aku
al
ala
alaba
alabri
alago
alal
alamea
alampandu
alan
alandu
alanhi
alantri
alanus
alarco
alas
alaska
alatra
alatriste
alau
alavo
alba
albaceti
albala
albane
albarca
albarcan
albelia
alberga
albert
alberto
albertu
albin
albonda
albondas
albondu
albondus
albuera
album
albuquerqui
alburquerque
alc
alca
alcac
alcala
alcalde
alcaldi
alcanc
alcardi
alcedo
alceu
alcibi
alcibin
alcibio
alcifro
alco
alcol
alconchel
alcontral
alcornoqui
alcue
alcuentra
alcuentraba
alcuentraban
alcuentral
alcuentralsi
alcuentramus
alcuentran
alcuentrau
alcuerdu
alcuerdus
alde
aldea
aldeas
aldehueras
aldigu
ale
alego
alegri
alehandru
alejandria
alejandro
alejandru
alejau
alema
aleman
alemana
alemanas
alemania
alemanis
alentejano
alentejo
ales
alessandro
aletas
alevanta
alevantarun
alex
alexander
alexandre
alfa
alfabe
alfabetu
alfabetus
alfaguara
alfareria
alfonso
alfred
alfredo
algas
algo
algotra
algotras
algotru
algotrus
algu
alguer
algunas
algunos
algunus
alhambra
ali
alia
alianc
alianza
aliau
aliaus
alicante
alicanti
alico
alicuandu
alifanti
alimenta
alimentacio
alimentan
alimentaria
alimentu
alimentus
alis
alizacio
aljetivu
aljetivus
all
alla
allan
alli
allina
alma
almagro
almaza
almendralehu
almendraleju
almenistra
almenistracio
almenistracion
almenistrativa
almenistrativamenti
almenistrativas
almenistrativu
almenistrativus
almeria
almienta
alministracio
alministrativa
alministrativu
almiracionis
almodo
almonti
alo
alogu
alonso
alos
alpes
alpis
alquiril
alquirio
alrededol
alreol
alreoris
alta
altamira
altas
alteracio
alteracionis
alterations
alterna
alternativa
altitu
alto
altocumulus
altol
altonci
altoncis
altu
altura
altus
alu
aluegu
alugu
aluminatu
aluminiu
alunu
alunus
alusio
aluspue
aluspues
alvar
alvarado
alve
alvierti
alzheimer
am
ama
amac
amadeus
amanti
amargosu
amarilla
amarillu
amas
amazonas
ambas
ambiental
ambiente
ambienti
ambientis
ambiqui
ambro
amburgu
ambus
ame
amen
amenac
amenalmenti
amenaza
amenazadas
ameno
amenu
america
american
americana
americanu
americanus
amientu
amigos
amigu
amigus
aminoa
amista
amo
amol
amor
amora
amos
amosfe
amphibian
amplia
ampliacio
ampliamenti
ampliu
ampria
ampriacio
ampriu
amsterdam
amu
amuralla
amus
an
ana
anal
anales
anali
analo
analogia
anato
anatolia
anatolian
anatomi
anc
anceps
ancha
anchiano
ancho
anchu
anchura
ancien
and
anda
andaba
andal
andalu
andaluci
andalucia
andaluzi
andaluzia
andanciu
andando
andaris
andas
andenantis
anderson
andi
andorra
andrade
andre
andrea
andrew
andro
andu
anduvu
andy
ane
anego
anfibius
anfiteatru
angan
ange
angel
angela
angeles
angelo
anglo
anglosajo
angola
angu
anguan
anguna
angunas
angunu
angunus
anhinojo
ani
anillus
anima
animacio
animacion
animal
animales
animalia
animalis
animation
animau
animaus
aniversa
ann
anna
annales
anne
annecy
ano
anomali
anombra
anombrau
anoressia
another
anque
ans
ansi
ansia
ansimesmu
ant
anta
antan
ante
antena
antepasau
anteriol
anteriolmenti
anterior
anterioris
anteriormenti
antes
anthocyanins
anthology
anthony
anti
antibio
anticuerpus
antiga
antigu
antigua
antiguamenti
antiguas
antiguo
antigus
antiguu
antiguus
antillas
antioxidant
antioxidanti
antioxidantis
antis
anto
antoci
antocianinas
antocis
antoine
antologi
antologia
anton
antoni
antonia
antoninu
antonio
antropologi
antruehu
antrueju
antruejus
anu
anual
anualis
anualmenti
anuhea
anuncio
anus
anzas
anzina
ao
aol
aoris
aoristu
ap
apaeci
apaecin
apaf
apaicel
apaici
apaicin
apaicio
apaiciu
apan
aparatu
aparda
aparecel
apareci
aparecin
aparecio
aparentementi
aparenti
aparicio
aparicion
aparti
apella
apellau
apelli
apelliu
apen
apenas
apeninas
apeninus
apertura
apetitu
apg
aplex
aplica
aplicacio
aplicacionis
apo
apolo
apolodoru
apolu
apopto
apoptosis
apoptosoma
apoptotic
aporta
aportal
aportandu
apoyal
apoyu
apple
applications
apreba
aprebau
apreciau
aprendel
aprepara
apresenta
apreva
aprica
apricacio
apricacionis
apricandu
aprico
april
aprosimadamenti
aprosimamenti
aprossimadamenti
aprovechamientu
aproximacio
aproximadamenti
apuntes
apuntis
aqua
aquel
aquella
aquellas
aquellu
aquellus
aqui
aquina
aquita
ar
ara
arabi
arabia
arabic
arabis
arago
aragoc
aragone
aragonesa
aran
arane
aranja
aras
aratu
arboterapia
arbu
arbus
arc
arca
arcai
arcaica
arcaicu
arcanc
arcanci
arcende
arcensu
archipie
archivau
archive
archivo
archivos
archivu
archivus
arciendi
arcilla
arcu
arcus
ardilla
are
area
arena
arenas
arge
argel
argelia
argentina
argentinu
argu
argunas
argunus
arhentina
aria
arias
ariel
aristas
aristo
aristocra
aristocracia
aritme
arma
armas
armau
arme
armenia
armeniu
armo
armoni
arn
arpa
arqueas
arqueolo
arqui
arquio
arquiolo
arquiologi
arquiteto
arquitetu
arquitetura
arra
arradiu
arranca
arraya
arrayau
arrayu
arrayus
arrecogi
arrecohi
arrecuperacio
arrecuperal
arreglu
arrejuntal
arremata
arrematal
arremeti
arreol
arrepan
arrepara
arreprehenta
arreprehentan
arrepresenta
arriba
arribita
arro
arroea
arroyo
arroyu
arroyus
arroz
ars
art
arta
artamenti
artas
arte
artes
artesani
artesanus
arthur
arti
article
articles
articulo
artificial
artificialis
artis
artista
artistas
artitu
artro
arts
artu
artuestremen
artura
arturo
artus
arun
arvu
arvus
as
asamblea
asclepiadea
asclepiadeus
ascomienc
asemeja
asen
asenta
asentamientu
asesinatu
asfa
asi
asia
asiahamientu
asiaja
asiajau
asina
asinque
asistencia
asisti
asocia
asociacio
asociacionis
asociau
asociaus
asoluta
asolutivu
asolutu
asp
aspe
aspeci
aspecis
aspectu
aspectus
aspera
aspetu
aspetus
aspira
aspiracio
aspiracionis
assamblea
assambrea
asse
assen
assentamientus
assessinatu
assessinau
assi
assigura
assimilacio
assin
assina
assinque
assiti
assitia
assitial
assitiamientu
assitian
assitiarun
assitiau
assitiaus
assitio
associacio
associated
association
assoluta
assolutu
assuntus
asta
asteroidi
astra
astro
astrono
astronomi
astronomia
astru
astrus
astu
astul
astulione
astur
asturiana
asturiano
asturianu
asturias
asturlione
asumi
asuncio
asuntus
at
ata
atacal
ataqui
ataquis
atarugau
atena
atenas
atencio
atendiendu
atenea
ateneo
ateniensi
aterric
athletic
atiha
atihu
atihus
atija
atijanti
atijau
atiju
atijus
ativa
ativia
ativiais
ativida
atividais
ativu
atla
atlas
atle
atmo
atmosfe
ato
atol
atoll
atopa
atopan
atopau
atopo
ator
atorga
atoris
atp
atra
atrai
atravesa
atravessau
atraviesa
atraviessa
atri
atribui
atributus
atribuyi
atthis
atu
atua
atuacio
atuacionis
atual
atualia
atualis
atualmenti
atus
au
audecha
audechan
audrey
augua
auguas
augusta
auguste
augusto
augustu
augustus
aula
aumenta
aumental
aumentu
aun
aunque
aurelio
aurelius
aurora
aus
ausencia
austra
austral
australia
australian
australiana
austri
austria
auta
aute
auto
autobu
autol
autolis
automo
automobis
autono
autonomi
autonomia
autopista
autopistas
autor
autoria
autorida
autoris
autovia
autovias
autu
autubu
autubusis
autuno
autunomia
autupista
autupistas
autuvia
autuvias
avan
avana
avanc
avanci
avancis
ave
avehantau
avel
avemus
avenida
aventura
aventuras
aves
avesta
avezis
avi
avia
avile
avio
avionis
avis
aviv
avn
avogau
award
awards
away
ay
aya
ayala
ayt
ayu
ayua
ayual
ayuda
ayuntamiento
ayuntamientu
ayuntamientus
ayuso
az
azabal
azeiti
azerbaiya
azeri
azetuna
azetunas
azituna
azitunas
aznar
azu
azufri
azul
azulado
b
ba
baaho
baajo
baby
bac
bacas
bach
bachilleratu
back
bacterias
bad
badaho
badajo
badajoz
baetica
baez
bagu
baha
bahamari
bahas
bahia
bahu
bahus
bai
baia
bailal
bailaus
baja
bajas
bajista
bajo
baju
bajus
bal
balba
balboa
balburda
balburdas
balca
balcanis
balearis
bali
baloncestu
balonmanu
bamako
bambi
bambolla
ban
bana
bancu
bancus
band
banda
bandas
bandea
bandeal
bandera
bandolerus
bandu
bandul
bandus
bang
bangguru
bangkok
bangladesh
banu
baobab
bar
barban
barbara
barca
barcelona
barco
barcu
barcus
bardi
baris
barngarla
baro
barra
barrau
barreado
barrera
barriga
barril
barrilis
barriu
barrius
barroca
barrocu
barros
barru
barruecus
barrunta
barrus
bartolome
bas
basa
basau
basaus
base
basi
basic
basis
basque
bastanti
batalla
batallas
bateri
bateria
baterias
bati
bau
bautismu
bautista
baviera
baxa
baxas
baxu
baxus
bay
bayet
baza
bbc
bc
bcl
bd
be
beata
beatles
beaumont
beauty
bebe
bebel
bebi
beethoven
beijing
bejarano
bel
bele
belfast
belga
belgas
belici
bella
bellas
bellec
belleza
belli
belo
belsana
beltra
ben
benditu
benedicta
beneficiu
bengala
beni
benidorm
benito
benitu
benjamin
bent
beo
bereber
bereberis
berenguer
berg
berkeley
berlanga
berli
berlin
bermejo
berna
bernal
bernard
beru
besaye
best
bet
beta
better
between
bha
bi
bia
bian
bibil
biblia
biblioteca
bibliugra
bibliuteca
bica
bicas
bicha
bichinus
bicho
bichu
bichus
bicu
bicus
bidasoa
biden
bielorru
bielorrussia
biembru
biembrus
bien
bienestal
bienis
big
biga
bigu
bilbao
bilbau
bilingu
bilis
bill
billetis
billonis
billota
bin
bina
bio
biobi
biochemistry
biodiversity
biogra
biografi
biografia
biografias
biography
biol
biolo
biologi
biologia
biological
biology
biomedical
biomole
bioqui
biosfera
bird
birds
birmingham
bisiestu
bisiestus
bissau
bita
bitat
bitus
biu
biulohia
bius
bizantinu
bizkaia
black
blanca
blanco
blancu
blancus
blas
blaso
blast
bleu
blia
blica
blicas
blico
blicu
blicus
blog
blogspot
blood
bloque
bloqui
bloquis
blues
bo
boa
bob
boca
boccoli
boe
bolas
boleti
boli
bolon
bolsa
bolsas
bomba
bombay
bonaparte
bonus
book
books
boqueronis
boquiqui
borbo
borbonis
boreal
borgon
borkowski
bos
bosch
bosna
bosnia
bosque
bosqui
bosquis
bota
bote
botica
boticariu
boticas
botsuana
bovinu
box
boy
boyal
br
brac
branca
brancas
brancu
brancus
bras
brasil
brasilen
bravo
bremen
bretan
breto
breve
brevi
brevis
bria
brian
brica
bricas
bricu
bricus
bridges
brief
briega
brillanti
brita
britannica
british
briu
brlpo
bro
broc
bronci
bru
bruce
brujas
brun
bruni
bruno
bruselas
brutu
bu
bucarest
buco
buda
budapest
buddha
buddhism
budismo
budismu
budista
buen
buena
bueno
buenos
buhoyu
bula
bulga
bulgaria
bull
bulus
bun
buracu
buracus
burdeus
burgo
burgos
burgus
burquina
burundi
busca
buscal
buscandu
buscaol
buscaoris
bush
business
bustamante
but
buta
butri
buur
by
bz
c
ca
caa
caas
caballeros
caballerus
caballu
caballus
caban
cabec
cabecera
caberus
cabeza
cabi
cabo
cabra
cabras
cabrerus
cabu
cabusia
cac
caceren
cacharreru
cacharru
cachinu
cachinus
cachu
cachus
caco
cada
cadas
cadena
cadis
cael
caena
caesar
cafe
cafeteria
caha
cai
caia
cairu
caja
cajal
cal
cala
calabac
calabria
calahorra
calanda
calandariu
calc
calci
calciu
calcium
calcula
caldereta
caldero
calenda
cali
calia
calic
calida
calienti
califatu
califica
calificacio
california
calle
calli
callis
calo
calol
calori
calpe
calpu
calru
calurosus
calvo
calzada
cam
camarasa
cambeal
cambeo
cambia
cambio
cambiu
cambius
camboya
cambridge
cameron
cameros
cameru
camino
caminu
caminus
camionis
camiso
campamentu
campan
campana
campanas
campeo
campeonatu
campin
campio
campo
campos
campu
campus
campusinus
camus
can
cana
canada
canadiensi
canal
canalis
canarias
cancer
canchal
canchalis
cancho
canchu
canchus
cancio
cancion
cancionero
canciones
cancionis
cancri
cancru
candidatu
candidatura
cannes
cano
canon
canta
cantaba
cantabria
cantal
cantandu
cantanti
cantantis
cantaris
cantau
cantautol
cantea
cantera
canti
cantia
cantiais
cantida
cantidais
canto
cantol
canton
cantora
cantos
cantu
cantus
cao
capa
capacia
capaciais
capacida
capacitacio
capacitation
capacity
capas
capaz
capazis
capi
capilla
capita
capital
capitalia
capitalis
capitalista
caput
caputo
caquinus
car
cara
caraba
caracas
caracteri
caracteriza
caraiteri
caraiteris
caraiteriza
caraiterizan
caraiti
caras
caratel
carateri
carateric
carateris
carateriza
caravas
carbo
carbonatu
carbonu
carc
carcavosu
carci
carcu
carcula
carden
cardenal
cardiff
cards
care
carga
cargas
cargau
cargo
cargu
cargus
caribi
carisma
carl
carlistas
carlo
carlos
carlus
carmen
carmona
carnaval
carne
carni
carolina
caroline
carotenoidis
carotenu
carrera
carreras
carretera
carreteras
carrilis
carrus
carta
cartas
caru
carza
cas
casa
casado
casal
casamientu
casaris
casas
casau
casca
cascu
caseri
casi
casillas
caso
caspasa
caspasas
caspase
caspases
caspiu
cast
castan
castellana
castellanas
castellaneu
castellano
castellanu
castellanus
castello
castelo
castigal
castigu
castilla
castillanu
castillo
castillu
castillus
castro
castu
castuera
castuo
casu
casus
cat
cata
catal
catala
catalana
catalanis
catalans
catalina
catalizaoris
catalog
cataloga
catalun
catalunya
catedra
catedral
catedrali
categori
categoria
categorias
caterina
cato
catorzi
cauci
caudal
caudillu
causa
causal
causas
causau
causo
causu
cautiva
cautivo
cautivu
cavallerus
cavila
cayendu
cayi
cayo
cazasta
cazris
cb
cc
ccr
cd
cdc
ce
cea
ceas
cebolla
ceborrincho
ceclavi
cefet
ceillu
celca
celcana
celebra
celebraba
celebracio
celebracionis
celebral
celebralsi
celebran
celebrandu
celebrau
celebro
celesti
celestial
celestis
cell
cells
cellular
celso
celta
celtas
celulal
celular
celularis
cementu
cementus
cemii
cena
cencia
cencias
cenic
censu
census
center
centi
centra
central
centralis
centraliza
centre
centro
centroafricana
centros
centru
centrus
century
cenzillu
cera
cerca
cercana
cercanas
cercani
cercania
cercanias
cercanu
cercanus
cercuitu
cerculacio
cerculaeru
cerculal
cercunflehu
cercusta
cerden
cerdu
cereal
cerealis
cerebru
ceres
cerimo
cerni
cerquina
cerro
cerru
certa
certamin
ceru
cervantes
cervera
cesa
cesar
cesi
cesis
ceu
ceus
ceuta
ceva
cevil
cevilis
cevilizacio
cevilizacion
cevilizacionis
cf
cgi
ch
cha
chaco
chad
chamba
chambau
chambus
chamizo
chan
change
channel
chanu
chanus
char
characterization
charca
charcas
charles
charlotte
chascu
chascus
che
checa
checu
chega
chegal
chegan
chegandu
chegarun
chegau
chego
cheirus
chelu
chem
chemical
chemistry
chi
chiang
chica
chicago
chicas
chicu
chicus
chile
chilena
chilenu
chili
chilla
china
ching
chinu
chinus
chipilen
chipilo
chipri
chiquenina
chiqueninas
chiqueninu
chiqueninus
chiquina
chiquinas
chiquinina
chiquininas
chiquininu
chiquininus
chiquinu
chirivehis
chiscano
chiscanoi
choc
chocolati
chomsky
chris
christi
christian
christmas
christopher
churchill
ci
cia
ciaania
ciaanus
ciais
cias
cibuen
cicero
ciclista
ciclu
ciclus
cida
cidade
cidais
cidu
cidus
cie
ciegu
cielo
cielu
cielus
cien
ciencia
ciencias
cient
cienti
cientu
cientus
cierta
ciertas
ciertu
ciertus
ciervu
ciervus
cies
cifra
cifras
cigu
cii
ciis
cil
cili
cilleros
cilmenti
cima
cimera
cimeras
cimeru
cimu
cinco
cincu
cincuenta
cine
cinema
cinematogra
cini
cinta
cintas
cio
circu
circuit
circuitu
circuitus
circula
circulacio
circulal
circulatoriu
cirgu
ciri
cis
cita
citas
citocromu
citu
city
ciu
ciua
ciuda
ciudad
ciudadanus
cius
ciutat
civil
civilis
cl
cla
cladu
clara
claramenti
clarendon
clari
clarke
claru
clasificacio
classical
classification
clau
claudia
claudio
clausura
cle
cleanti
clemente
clements
cleu
cleus
cli
clima
climas
climate
climi
climis
clinical
clinker
clito
clitu
cliu
clius
club
clubis
cm
cn
cnica
cnicas
co
coa
coalicio
cobain
cobertura
cobitis
cobri
cochi
cocina
cocus
code
cogel
cogi
cognomen
cohen
coi
coigu
coigus
coimbra
coincidi
coincidiendu
col
cola
colabora
colaboracio
colabutau
colas
colby
cole
coleccio
colecio
colecionis
colecionistas
colectivu
colegio
colegiu
coletol
colinas
colla
collaciu
collection
college
colo
colocacio
colofo
colol
colombia
colon
colonia
colonial
colonias
colonic
colonizacio
colonizacion
colonus
coloquial
coloquio
color
colora
coloracio
coloracionis
colorau
colores
coloris
colos
coltura
coltural
colturalis
colturas
columbia
columbus
columna
coluna
colunas
com
comarca
comarcal
comarcas
combati
combina
combinacio
combustibli
come
comedia
comel
comelcial
comenta
comercial
comercialis
comerciu
comi
comia
comienc
comin
comisio
comite
commons
commonwealth
como
comotti
compa
compan
companion
company
compara
comparacio
comparanti
comparantis
comparti
compartin
compay
compete
competencias
competicio
complehu
complejas
compleju
complejus
complementu
completa
completamenti
complete
completes
completu
complutensi
compo
componenti
componentis
componi
componieru
componin
comportamientu
comportamientus
composicio
composicionis
compositol
compositoris
compostela
comprendel
comprendi
compreta
compretal
compretamenti
compretu
compricau
comprometi
compromisu
compuesta
compuestas
compuestu
compuestus
compusicio
compusiendu
compusu
comte
comu
comuelgu
comun
comunas
comune
comunia
comuniais
comunica
comunicacio
comunicacion
comunicacionis
comunicau
comunida
comunidad
comunidais
comunis
comunismu
comunista
comunistas
con
cona
conas
conce
concecio
concedi
concedio
concehalis
concehu
conceju
concelho
concencia
concentra
concentracio
concentracionis
concentran
concepcio
conceptu
conceptus
concert
concesio
concetu
concetus
conceutu
conceyu
concha
conciencia
conciertu
conciertus
concreta
concretamenti
concretu
concretus
conculsu
concursante
concurso
concursu
condalgu
condau
conde
condenau
condenaus
condensa
condi
condicio
condicionis
condita
conduta
conel
confederacio
confere
conferencia
confieri
conflictu
conflitu
conflitus
confluencia
confundil
congo
congreso
congressu
congressus
congresu
congresus
congu
conholman
conhorman
conhuntu
conhuntus
conjugacio
conjuntu
conjuntus
conmemora
conmemoral
cono
conoce
conocel
conocemus
conocencia
conoci
conocia
conocias
conocido
conocimientu
conocimientus
conocin
conocio
conociu
conocius
conos
conquista
conquistaol
conquistaoris
conquistau
conquisto
conrad
consecue
consecuencia
consegui
conseguil
conseguiu
conseheria
consehu
consejeru
consejo
conseju
conselva
conselvacio
conselval
conselvan
conselvato
conselvau
conselvaus
consequ
conserva
conservacio
conservan
conservaol
conservation
conservaus
considera
consideral
consideralsi
consideran
considerandu
considerau
consideraus
consiera
consieral
consieralsi
consieran
consierau
consigui
consiguil
consiguio
consiguiu
consistenti
consisti
consistia
consona
consonanti
consonantis
constanti
constantis
constitucio
constitucion
constitucional
constitui
constituiu
constituyenti
constituyi
constituyin
construccio
construcio
construi
construia
construil
construiu
consu
consulta
consultado
consultau
consumi
consumidor
consumu
contaba
contact
contactu
contal
contaminacio
contandu
contatu
contautu
contempora
contenel
conteni
contenido
conteniu
contenius
content
contes
contest
contestu
contestus
conti
contie
contien
contieni
contienin
contina
continacio
continental
continentalis
continenti
continentis
continu
continua
continuacio
continuo
continus
contra
contracio
contrariu
contrasti
contratu
contribucio
control
controla
controlal
conurbacio
convelsio
convencio
convencional
convencionis
conventu
conventus
converti
convertil
convertilsi
convertiu
convielti
convierti
conviltiendu
conviltio
convirtie
convirtiendu
convirtio
convive
convivencia
convoo
cook
cooper
coordena
coordinacio
coordinador
copa
cope
copial
copias
coptu
cora
corac
coral
coralis
corazo
corbin
cordena
corderu
cordillera
cordo
cordube
core
corea
coreanu
coria
cornalvu
corne
cornell
cornutu
coro
corona
coronado
coronas
coronel
corporal
corpus
corral
correa
correas
correl
correol
corresponde
correspondencia
correspondi
correspondienti
correspondientis
correspondin
correta
corretu
correu
corri
corrienti
corrientis
corrobla
corta
cortas
corte
cortec
corteza
corti
cortiju
cortijus
cortinus
cortis
cortometraji
cortu
cortus
coru
corun
cosa
cosas
coslada
cosme
cosovu
costa
costanti
costantinopla
costas
costera
costeras
costitu
costitucio
costitucional
costitui
costituia
costituyin
costrucio
costrucionis
costrui
costruia
costruias
costruicio
costruil
costruiu
costruyerun
costruyi
costruyin
costruyo
costumbres
costumbri
costumbris
cotidiana
coubertin
country
covalentis
cozina
cra
crara
craramenti
craru
crasi
crasifica
crasificacio
crasificacionis
crasificaus
crasifico
crasis
crassi
crassifica
crassificacio
crassis
crata
cratas
crati
cravi
crazy
cre
crea
creacio
creal
creau
crecel
creci
crecias
creciendu
crecienti
crecimientu
crecin
crecio
creencias
crei
crein
creo
creta
creu
crex
creye
cri
cria
criacio
criacion
criaeru
crial
criandu
criaol
criau
criaus
crime
crimea
crimin
crimson
crio
crisi
crisis
cristal
cristalinas
cristalis
cristiana
cristianas
cristianismu
cristianu
cristianus
cristina
cristo
cristu
crite
criteriu
criterius
critica
critical
critu
cro
croa
croacia
croata
croma
croquetas
cru
cruc
crus
crusta
cruz
cruza
csic
ctea
cter
ctica
cticamenti
cticu
ctonas
ctor
ctrica
ctricas
cu
cua
cuadru
cuaharinga
cuaharingal
cuaharingo
cuaharingui
cuairau
cuairaus
cuairus
cual
cuala
cualas
cualesquiel
cualis
cualisquia
cualisquiel
cualquier
cualquiera
cuando
cuandu
cuantis
cuantu
cuarc
cuarta
cuartu
cuartus
cuasi
cuatro
cuatru
cuba
cubierta
cubiertu
cubri
cubril
cudia
cudiau
cue
cueldas
cuelpu
cuelpus
cuenca
cuenta
cuentaba
cuentabris
cuentan
cuentandu
cuentava
cuento
cuentos
cuentu
cuentus
cuerda
cuerdas
cuerpo
cuerpu
cuerpus
cueru
cuestio
cueva
cuevas
cula
culas
culo
culos
culsu
cultiva
cultivu
cultivus
cultu
cultura
cultural
culturalis
culturas
cultus
culu
culus
cumbri
cumplil
cumpril
cumprimentu
cumprimientu
cumpriu
cumu
cumulonimbus
cumulus
cun
cura
curia
curie
curitiba
curr
current
curso
cursu
cursus
curtivus
curtu
curtura
curtural
curturalis
curturas
curvas
cusano
custio
custionis
cuya
cuyas
cuyu
cuyus
cv
cycloheximide
d
da
daba
daban
dai
daimiel
dakar
dal
dalcuerdu
dalgunas
dali
dalma
dalsi
dama
dambas
dambus
dan
danc
dance
dandu
dane
danesa
danesis
dangunas
dangunus
daniel
dans
dantis
danu
danubiu
dao
dara
dari
darre
darwin
das
dat
data
database
datan
dati
dativu
datos
datu
datus
dau
daus
david
davies
day
ddr
de
dea
dead
death
debati
debe
deben
debi
debin
debiu
deca
december
decidio
deciendin
decisio
decisionis
deciyo
declara
declaracio
declarau
declaro
declinacio
declivi
decora
decoracio
decrara
decrarau
decreto
decretu
decumental
decumentu
decumentus
dedica
dedicau
defendel
defendia
defendiendu
defensa
defensol
defere
deferencia
deferencial
deferencias
deferenti
deferentis
defiendi
defini
definia
definicio
definicionis
definido
definil
definin
definitiva
definitivamenti
definiu
degli
degradacio
dehesa
deica
deida
deja
dejo
del
dela
delantri
delas
delfi
delgado
delhi
delitus
dell
della
dellas
delle
dellus
delo
delos
dels
delta
deltas
deluxe
dem
dema
demanda
demasiau
demo
democra
democracia
demogra
demostrau
demu
demuestra
den
dende
dendi
dengu
denguna
dengunu
denomina
denominacio
denominacionis
denominal
denominan
denominas
denominau
denominaus
denomino
densia
densida
densiguia
density
dental
dentri
dentru
deo
departamentu
departamentus
depatra
depende
dependent
dependera
dependi
dependiendu
dependienti
dependientis
dependin
depo
deportes
deporti
deportis
deportiva
deportivo
deportivu
deprendel
deprendiendu
deprendieru
deprendio
deprendiu
depressio
deputa
deputacio
deputau
deputaus
deque
der
derecha
derecho
derechu
derechus
derek
derigenti
derigi
derigia
derigio
derihi
derihia
deriva
derivau
derivaus
derive
derrota
des
desabita
desapaiciu
desaparicio
desaparta
desapartaus
desarrolla
desarrollal
desarrollan
desarrollarun
desarrollau
desarrollo
desarrollu
descargas
descartes
descendants
descendienti
descendientis
descensu
desciendi
desconcertantes
desconoci
descrebil
describi
describil
descricio
descripcio
descritas
descritu
descubiertu
descubrimientu
descubrimientus
descubrio
desde
desdi
dese
desemboca
desembocaura
desempen
desenroamientu
desepara
deseu
deseus
desi
desieltu
desiertu
designa
desigual
desina
desinal
desine
desiste
desistentis
desisti
desistia
desistil
desistin
desplazamientu
despue
desquitandu
dessa
dessepara
dessi
dessiste
dessistentis
dessisti
dessistin
desta
destaca
destacal
destacan
destacandu
destacau
destacaus
destas
destendi
destendia
destendio
destendiu
destensio
destension
destensu
desti
destiendi
destin
destina
destinau
destinaus
destincio
destingui
destinguil
destinguin
destinta
destintas
destintu
destintus
destinu
destrac
destribucio
destritu
destritus
destruia
destruiu
destu
destus
desvius
detallis
detelmina
determina
determinal
determinau
determinaus
detra
deu
deuda
deudas
deus
development
develsus
devi
devii
deviia
deviin
deviiu
deviius
devin
devinia
devinida
devisio
devision
devisionis
deviu
devocio
dexisti
dexo
di
dia
diacri
dial
diale
dialectales
dialecto
dialectologi
dialectu
dialectus
dialetal
dialetalis
dialetu
dialetus
dialeutalis
dialeutu
dialeutus
dialogi
diana
diaria
diario
diariu
dias
diato
diatriba
diba
diban
dibuju
dibujus
dica
dicaprio
dicas
diccionari
diccionario
dicha
dichas
dichu
dichus
dici
diciembre
diciembri
diciona
dicionariu
dick
dico
dictionary
dicu
dicus
dida
didu
die
diego
diendu
dientis
dierun
dies
dieta
diez
difere
diferencia
diferenciacio
diferencian
diferencias
diferentes
diferenti
diferentis
difi
dificultosu
difusio
digestio
digestivu
digital
digo
digu
dijon
dil
dimana
dimanaus
dimensionis
dimpue
din
dina
dinamarca
dinasti
dinastia
dinero
dineru
dinger
dinosaurius
dio
dioni
dios
diosa
diosis
diploma
diputacio
diputau
diputaus
dir
direccio
direcio
direcionis
directa
directamenti
director
directu
direta
diretamenti
direto
diretol
diretu
dirigi
dirigia
dis
discapacidad
disci
disciplina
disciplinas
discogra
discogs
discu
discurri
discursos
discursu
discus
dise
disease
disen
disiertu
disminucio
disney
displaystyle
disponi
disponibri
disponibris
disposicio
dispositivu
dispositivus
dispue
dispuesinu
dispuntan
disques
dista
distancia
distincio
distinguil
distintas
distintus
distribucio
distribuieru
distritu
distritus
disueltu
dita
ditaol
ditaura
ditions
ditongu
ditongus
ditus
diu
dius
diva
divelsas
divelsus
diversas
diversia
diversida
diversio
diversity
diversus
dividi
divina
divisio
divo
divulgacio
divulgaol
diz
dizia
diziembri
dizil
dizin
dj
dna
do
dobli
dobri
dobris
doci
doctor
doctrina
documental
documents
documentu
documentus
dog
doi
dolmin
dolol
dolores
dom
dome
domen
domi
domicianu
domin
domina
dominacio
dominanti
dominau
domingo
domingu
dominicana
dominiu
dominius
don
donald
donde
dondi
donetsk
dong
donostia
dora
dormida
dorsal
dos
dota
dotol
dotoral
dotras
dotrina
dotrinas
dotru
dotrus
dotu
double
douro
dozi
dq
dr
drae
drago
drama
dramaturgu
drentu
dricu
driu
driver
drogas
du
dua
duas
dubli
dublin
ducau
duci
ducis
dudas
duen
duero
dueru
dui
dula
dulce
dulci
dun
duna
dunant
dunas
dunu
dunus
duo
duosa
duosu
duque
duqui
dura
duracio
duran
durante
duranti
durban
during
duro
duru
dus
duu
dvd
dyeus
e
ea
earth
easo
eberie
eberien
ebi
ebia
ebin
ebiu
ebrea
ebreu
ebru
ec
ecas
ececio
ecetu
echal
ecolo
econo
economi
economia
economista
ecosistema
ecosistemas
ectarias
ecu
ecuacio
ecuacionis
ecuatorial
ed
eda
edad
edc
edgar
edicio
edicion
ediciones
edicionis
edicions
edificiu
edificius
edil
edimburgu
edita
edition
editor
editora
editores
editorial
eds
edu
eduardo
educa
educac
educacio
educacion
educativa
edward
ee
eeuu
efe
efectu
efectus
efetu
efetus
efeutu
effect
egeu
egi
egiptu
egitu
egu
eh
eha
ehal
ehandu
ehe
ehemplu
ehempru
ehemprus
ehi
eho
ehpan
ehpena
ehta
ehti
ehtremen
ei
eica
eicau
eicio
eicionis
eico
eiffel
eifi
eificacio
eificiu
eificius
ein
eine
einstein
eital
ej
ejal
eje
ejecucio
ejecutivu
ejemplaris
ejemplo
ejemplu
ejemplus
ejempru
ejemprus
ejerci
ejerciciu
ejerciu
ejo
el
ela
elaboracio
elaborau
eladio
elam
elas
elderly
ele
elea
eleccionis
elecio
elecionis
electro
electromagne
electronis
elegi
elegiu
elehias
elemental
elemento
elementos
elements
elementu
elementus
elena
eleni
elesia
eletricida
eletro
eletroacu
eletronis
eletu
eleutronis
eleva
elevacio
elevau
elfdalianu
elhas
eli
elimentu
elimentus
elimina
eliminacio
eliminal
elisa
elizabeth
ella
ellas
ello
ellos
ellu
ellus
elmundo
eloy
elpais
elperiodicoextremadura
els
elsevier
elta
elu
elus
elva
elvas
elvi
elvin
em
embahu
embaju
embalgu
embalsi
embalsis
embargu
embaxu
emblema
embras
embutius
eme
emerita
emeritensi
emeritensis
emi
emigracio
emigrantis
emigrau
emil
emilianu
emilio
eminentimenti
emiratus
emisfe
emisferio
emisferiu
emisio
emisionis
emisol
emissoras
emiti
emitin
emocio
emocionis
emparenta
empe
empenc
emperaol
emperaoris
emperial
emperiu
empi
emplea
emporta
emportancia
emportanti
emportantis
emprea
empreau
empreaus
emprencipio
emprentacio
empresa
empresariu
empresas
empreu
empuestus
empunta
empuntal
en
ena
enantis
enas
encabec
encanta
encarga
encargaus
encargo
encargu
enceta
encetal
encetara
encetau
enceto
encetu
enciclopedia
enciclopeya
encima
encina
enclavi
enclui
encluil
encluin
encluius
enclusu
encluyendu
encluyi
enco
encomienda
encontra
encontral
encontralsi
encontrau
encorporacio
encravi
encrui
encrusu
encruyendu
encubaora
encuentra
encuentran
encuentro
encuentru
encuesta
encuestaus
encyclopedia
end
ende
endefiniu
endenantis
endentru
endepe
endepende
endependencia
endependienti
endependientis
endependizo
endespue
endespues
endi
endica
endical
endicandu
endicativu
endigual
endilgal
endilgui
endilguis
endirgaol
endirgui
endirguis
endirgus
endispue
endispues
endividual
endividualis
endividus
endrentu
endretu
endu
endustria
endustrial
endustrialis
endustrias
eneida
enel
enemigu
enemigus
energe
energi
enerhia
enero
eneru
enfa
enfantil
enfenecio
enfermeda
enfermedadis
enfermu
enfinitu
enflue
enfluencia
enfluencias
enfluyentis
enfrue
enfruencia
enfruenciau
enfruye
enfruyentis
engan
engenieria
engenieru
english
engloba
engu
enhalla
enhama
enhenieria
enholma
enholmacio
enhorma
enhormacio
enhormau
enicial
enicio
enlaci
enlacis
enlia
enlio
enllena
enmigrantis
eno
enormi
enormis
enos
enporta
enportanti
enportantis
enque
enqui
enrique
enriqui
ensayu
ensayus
ensen
ensin
enstitucionis
enstrumentus
entalli
entavi
entavia
ente
entegral
entegrau
enteletual
enteletualis
entelpretacio
entencio
entendel
entendia
entendiu
entensa
entensivu
ententa
entental
entento
ententu
ententus
enteosu
entera
enteracio
enteracionis
enteramenti
enteras
entere
enteresanti
enterinu
enteriol
enternacional
enternacionalis
enternu
enteru
enterus
enti
entia
entiais
entida
entidais
entiendi
entis
entitula
entitulau
ento
entoavi
entonces
entoncis
entornu
entovi
entovia
entra
entral
entran
entrandu
entrarun
entre
entrenacional
entrenacionalis
entretenimientu
entrevista
entri
entriega
entrinacional
entrinacionalis
entrinacionalmenti
entrivista
entro
entrod
entroucio
entry
enu
enus
envadio
envasio
envasionis
envasoris
envejecimientu
enventa
enventol
envestigacio
envestigacionis
envestigaeru
envestigaol
environment
envita
enzima
enzimas
eo
ep
epe
epi
epictetu
epicu
epigrama
epigramas
episcopal
epistulae
epoca
epocas
epopeya
eportiva
equadol
equatorial
equi
equili
equilibriu
equipu
equipus
equival
equivalenti
er
era
eraclitu
eran
ercegovina
ere
ergativu
erguijuela
eric
erik
eris
eritrea
ermana
ermanu
ermida
ermita
ero
erodium
eros
erosio
errol
error
erta
ertas
ertu
eru
eruditu
erus
erva
ervi
ervin
es
esa
esarrolla
esarrollau
esarrollu
esas
esboc
esc
esca
escala
escalas
escamas
escan
escandinavia
escapa
escasa
escasas
escassas
escavacionis
esce
escena
escenas
esclavitu
esclavus
esclusiva
esclusivamenti
esco
escobar
escoce
escocia
escolal
escomenc
escomienc
escontra
escorial
escrebi
escrebia
escrebias
escrebiendu
escrebieru
escrebil
escrebio
escrebiol
escrebiora
escrebioris
escrebiu
escrebiura
escrevi
escrevieru
escrevil
escrevio
escreviol
escreviora
escreviu
escreviura
escribi
escribio
escribiol
escribiola
escricio
escricionis
escrita
escritas
escrito
escritores
escritoris
escritu
escritura
escritus
escrivienti
escrivientis
escu
escuela
escuelas
escultol
escultura
esculturas
escurtol
escuru
escurus
ese
esencial
esencialis
eses
esfe
esfera
esferas
esferu
esgalac
esgarras
eshuerc
esi
esiodu
eslavus
eslova
eslovaquia
eslove
esmenc
esmienc
esmienza
esmincio
esmirna
eso
esp
espa
espacial
espacialis
espacio
espaciu
espacius
espada
espalda
espan
espana
espanha
espanhol
espansio
esparta
espe
especi
especial
especialic
especialis
especialista
especializa
especialmente
especialmenti
especies
especii
especiis
especis
espedicio
espedicion
espena
espenal
espeno
esperanc
esperanza
espere
esperimenta
espermatoddoidi
espermatoddoidis
esperria
esperrio
espertu
espertus
espeta
espetaoris
espetru
espetu
espetus
espezis
espi
espino
espinosa
espiral
espiralis
espiritual
esplendol
esploraol
esplotacio
esplotiva
espo
espondeu
esponenti
esponentis
esponta
espora
esportacionis
esposa
esposicio
esposicionis
espranacio
espresa
espresal
espresio
espressa
esprica
esprical
esprimenta
esprimental
esprimentan
esprimentau
esprimento
espritu
espronceda
esprotacio
espublicau
espubrica
espubricacio
espubrical
espubrican
espubricandu
espubricarun
espubricau
espubricaus
espubrico
esqueletu
esquema
esquerda
esquierda
esquilu
essa
essas
esse
essencialis
essesti
essestin
essi
essistencia
essisti
essistin
essu
essus
est
esta
estaba
estaban
estabilia
establecel
estableci
establecimientu
establecimientus
establecio
estableciu
establi
estacio
estacionalis
estacionis
estadi
estado
estados
estai
estal
estallido
estambul
estamus
estan
estandaric
estandu
estanti
estar
estara
estas
estatal
estatalis
estatua
estatus
estatuto
estatutu
estau
estaunidensi
estauniensi
estauniensis
estaus
estauta
estava
estavan
estayu
este
esteban
estendia
estendiu
estensa
estensio
estension
estensu
estensus
esteriol
esterioris
esterna
estesi
esti
estiano
estiendi
estiendin
estila
estilan
estilu
estilus
estima
estimacionis
estimula
estimulacio
estincio
estio
estitucio
estitucional
estitucionis
estitutu
estitutus
estival
esto
estocolmu
estoica
estoicismu
estoicu
estoicus
estol
estonia
estoniu
estoria
estorial
estoriaol
estoriaoris
estoriogra
estos
estrael
estrai
estran
estrate
estrategia
estraterrestri
estre
estrechu
estrella
estrellas
estrellinas
estrema
estremau
estremaura
estremen
estremu
estremus
estrena
estreno
estrenu
estri
estribacionis
estritu
estrofa
estrordina
estructura
estructural
estructuras
estrumentacio
estrumental
estrumentu
estrumentus
estrumpiu
estrutura
estrutural
estruturas
estu
estuariu
estuarius
estudia
estudial
estudiantis
estudio
estudios
estudis
estudiu
estudius
estus
estuviendu
estuvu
estuya
estuyaeru
estuyal
estuyandu
estuyanti
estuyantis
estuyo
estuyosus
estuyu
estuyus
esu
esus
et
eta
etapa
etapas
etc
eterna
etero
ethnologue
etimolo
etimologi
etiopia
etiqueta
etnogra
etnografi
etu
eu
euca
eucariotas
eufo
euge
eugenio
eula
euler
europa
europapress
europe
europea
european
europeu
euros
eurovision
euru
eurus
euskadi
euskal
euskera
ev
eva
eventu
eventus
everest
every
evi
evidencia
evie
evis
evital
evitan
evolucio
evolution
evus
ex
excepcio
exe
exemplu
existe
existen
existencia
existi
existil
existin
expansio
experencia
experimental
exposicio
expresio
extensio
extiendi
extincio
extran
extremadura
extremau
extremaura
extremen
exupe
eyaculacio
eyaculau
eyos
ez
ezil
f
fa
fabra
fabrica
fabricacio
fabricantis
fabricaus
fabuleux
facebook
facha
faci
facilida
facilital
fact
factor
factoris
faculta
facultais
facurta
fadu
fagus
fajalauza
fala
falantis
falar
falco
fall
false
falta
fama
fami
familia
familial
familiar
familiaris
familias
famosa
famosas
famosu
famosus
fan
fani
fantasia
farka
faro
farta
faru
fas
fase
fasi
fasis
fasu
fatoris
fatu
fauna
faustina
favol
favorabri
favoreci
faye
fc
fcgi
fe
feature
febrero
fecha
fechas
federacio
federacion
federal
federau
federaus
federico
feel
fegura
feguran
feijo
feira
felipe
femenina
femeninu
femininu
femininus
femme
feni
feno
feqiye
feras
feria
ferial
ferias
fermi
ferna
fernando
fernandu
ferrer
ferrocarril
ferrovia
fertilization
feru
ferus
fest
festejus
festival
festivalinu
festivalis
fesu
fet
feu
fi
fibra
fibras
fica
ficamenti
ficas
ficha
ficio
fico
ficos
ficu
ficus
fidias
fiebri
fiel
field
fiesta
fiestas
fifa
figura
figuras
fija
fila
file
filipinas
film
filmaffinity
filo
filolo
filologi
filologia
filoso
filosofi
filosofia
filu
filus
filusofi
filusofia
fin
fina
final
finalia
finalis
finalista
finalmenti
financial
financieru
finas
finca
fincas
fine
finis
finla
finlande
finlandia
finu
finura
firefox
firma
firmo
first
fiscal
fisher
fisiolo
fisiologi
fiyi
fla
flagela
flamenco
flamencu
flandes
flechas
flor
flora
flore
florencia
flores
florida
fluju
fluvial
fluvialis
fluyi
fm
fo
focu
foi
folasterus
folclo
folclori
folio
folk
folklo
folklore
folklori
fomentacio
fone
fonema
fonemas
fonseca
fonu
fonus
food
football
for
foral
foras
forestal
foriatus
forma
formacio
formal
formalmenti
forman
formandu
formas
formato
formau
formientu
foro
fortaleza
fortuna
foru
fosfatu
foto
fotogra
fotografi
fotorrecepcio
fotos
fotosi
foundation
fox
fr
fra
frabical
fracasu
fracu
fragmenta
fragmentacio
fragmentation
fragmentos
fraguau
fraili
framentus
franc
franca
france
francesa
francesas
francesc
francesco
francesis
francia
francis
francisco
franciscu
franco
francu
francus
franja
frank
frankfurt
franquismu
franquista
franz
frasi
frasis
frauta
frautas
fre
frecue
frecuencia
frecuentementi
frecuenti
frecuentis
fred
free
fregenal
french
frente
frenti
frequ
frescu
frescus
fresno
fresnu
freud
fri
fria
frica
fricativu
friedrich
fritas
friu
friulanu
frius
frol
frolis
from
frontera
fronteric
frora
froris
fruta
frutalis
frutas
frutu
frutus
fruyi
ft
fu
fubolista
fubu
fubulista
fuchs
fue
fuente
fuentes
fuera
fuerte
fuerza
fuga
fujimori
full
funcio
functional
funda
fundacio
fundamental
fundamentalmenti
fundaol
fundo
funeral
furlan
furriona
furrionas
fusio
fusion
futbol
futura
future
futurista
futuro
g
ga
gabineti
gabo
gabriel
gacha
gadu
gae
gafotas
gaita
gaius
gala
galaicu
galassia
galassias
gale
galeri
gali
galia
galicia
galilei
galileo
galis
galisteu
gallardo
gallaro
gallega
gallego
gallegu
gallu
gallus
galu
gama
gambia
game
gamelan
gamma
gamu
gan
gana
ganaderi
ganaera
ganaeria
ganal
ganaol
ganaora
ganaoris
ganar
ganau
gangis
gano
garci
garcia
garden
garganta
gargantas
gargu
garland
garona
garrido
garrovillas
gary
gas
gasco
gaseosa
gaseosu
gasis
gaspachu
gasta
gastaba
gastaban
gastaeru
gastal
gastalsi
gastan
gastandu
gastau
gastaus
gastava
gastavan
gasteiz
gasto
gastronomia
gastu
gastus
gata
gates
gato
gatu
gau
gaudi
gavilla
gay
gayu
ge
gelma
gelmana
gelmanamientu
gelmanu
gelmanus
gen
genas
gene
genera
generacio
generacionis
general
generalis
generalitat
generalmenti
generation
genes
geni
genis
genitivu
genoma
gente
genti
gentili
gentiliciu
gentis
genu
genus
geo
geogra
geografi
geografia
geographic
geolo
geologi
geologia
geome
geometri
george
georges
georgia
georgianu
georgicae
ger
gerais
germa
germania
germanu
germanus
germany
geru
gerundivu
getafe
ghana
ghibelli
ghil
gi
gia
gibraltar
gica
gicamenti
gicas
gico
gicu
gicus
gijo
gil
gimi
gimin
gimnasia
gin
gina
ginas
ginebra
ginis
giorgio
giovanni
gipuzkoa
gira
girl
gitanus
giu
gius
giuseppe
gla
glacial
glasgow
glico
glo
global
globe
globo
globu
glu
gluco
gnulinex
go
goa
gobernal
gobernaol
gobernau
gobi
gobielnu
gobielnus
gobierno
gobiernu
gobiernus
goc
gocha
godfather
godoy
gogh
goia
gol
gold
golden
goleadoras
golfu
golis
golpi
golvel
golvio
gonu
gonza
gonzalo
good
google
gora
gordu
gormaz
gorpi
gorra
gorvel
gorvierun
gorvio
gotas
gottfried
goulou
goundarou
gov
governaol
government
goviernu
goviernus
goya
gps
gr
gra
graba
grabacionis
grabal
graban
grabarun
grabau
grabaus
gracia
gracial
gracias
gradient
gradual
grafi
grafia
grafu
grafus
grama
gramatical
gramaticalis
grami
gramus
gran
grana
granada
granadilla
granados
granai
granailla
granainas
grand
grande
grandes
grandi
grandis
grandol
granel
grani
granitu
granja
grant
granu
granus
grape
grasas
grasus
grau
graus
grava
gravea
graveda
graves
gravi
gravis
gray
gre
great
greatest
grec
grecia
greda
gredos
greek
green
greenwich
gregorianu
gregorio
gregu
grenoble
greus
griega
griegas
griego
griegos
griegu
griegus
gris
grito
groenla
group
growth
grupo
grupu
grupus
gs
gu
gua
guadalajara
guadalenti
guadalquivil
guadalupe
guadalupi
guadiana
guadix
gual
guangxi
guarda
guardamar
guardia
guaren
guarru
guarrus
guas
guatemala
guayana
guayaquil
gueda
guerra
guerras
guerrero
guerreru
guez
guggenheim
gui
guia
guide
guijitu
guijo
guiju
guila
guillermo
guinea
guipal
guipu
guitarrista
gurulla
gustave
gustavo
gustu
gutie
guu
guus
guyana
gynecology
h
ha
hab
haba
haber
habi
habitantes
habitantis
habla
hablaol
hablato
hace
hacen
hacer
haci
hacia
hadel
hadi
hadra
hae
hag
haga
hai
hall
halla
hallan
hallau
halta
han
handbook
hanks
hannibal
hanoi
hans
hapo
happy
hara
harbour
hardi
harina
harold
harramplas
harris
harta
harvard
harvey
has
hasta
hata
hatu
have
hawaii
hay
haya
haze
hazel
hazelsi
hazelu
hazi
hazia
hazian
hazienda
haziendu
hazin
hazino
he
health
heart
heath
heaven
heavy
hebo
hebreru
hebrew
hecha
hechas
hecho
hechos
hechu
hechura
hechus
hector
hefi
heitu
hela
helena
helipi
hell
helloween
helma
helmana
helmanamientu
helmanu
help
helsinki
hembra
hembras
hemelus
hemisferiu
henares
hene
heneracio
heneracionis
heneral
heneralis
heneralmenti
heni
henri
henrique
henry
henti
heogra
hepa
hepatitis
her
hera
herbert
hercegovina
hercules
here
herencia
herguijuela
heritage
herma
hermana
hermanu
hermanus
hermoso
herna
hernandu
herramienta
herramientas
herrera
herrero
herria
herti
herva
herzegovina
hesa
hesas
hestio
hesto
heugra
hevia
hi
hica
hicas
hicu
hicus
hidalgo
hidro
hidu
hidun
hielu
hiendas
hierru
high
higuera
hihtoria
hija
hijo
hijos
hijovejo
hiju
hijus
hilipinas
hill
himalaya
himin
hin
hina
hinas
hinis
his
hispania
histo
historia
historiae
historias
historique
history
hitler
hits
hiu
hius
hiv
hiziendu
hiziera
hizierun
hizo
hizu
hizun
hl
hm
ho
hoa
hogal
hogan
hogar
hoi
hojas
hollywood
holma
holmacio
holmacionis
holmal
holman
holmandu
holmarun
holmas
holmatu
holmau
holmaus
holmo
hom
hombre
hombres
hombri
home
homenaji
homo
homoge
hondo
hondu
hondura
honduras
hondus
hong
hongus
honor
honorio
hopkins
hora
horas
horizonte
horma
hormaba
hormacio
hormacionis
hormal
hormalmenti
horman
hormandu
hormas
hormatu
hormau
hormaus
hormi
hormo
hormona
hornus
hospederi
hospital
hot
hotel
hound
house
hovin
how
hoy
hoyos
hoyus
hs
htm
html
http
https
hu
hua
huan
huang
huatl
hubble
huchea
huchean
hucheau
hucheaus
hudicial
hudius
hue
huega
huegu
huegus
huendu
huenti
huentis
huera
hueran
hueraparti
huerc
hueron
huerta
huertementi
huerti
huertimenti
huertis
huerun
huerza
huerzas
huesi
huessi
hueu
hugaol
hughes
hugo
hui
huliu
human
humana
humanas
humans
humanu
humanus
humeda
huncio
huncion
hunciona
huncional
huncionalis
huncionamientu
huncionan
hunciones
huncionis
hunda
hundacio
hundacion
hundaeuru
hundal
hundamental
hundamentalis
hundamentalmenti
hundamentu
hundaol
hundaoris
hundarun
hundau
hundea
hundo
hunt
hunta
huntas
hunter
huntu
huntus
hurdes
hurdis
huri
hurisdicio
hurtado
hussein
husti
hutura
huturas
huturu
hy
hydrogem
hydrogen
hymnus
hɛ
i
ia
ian
ias
iba
iban
ibarra
ibe
iberia
iberu
iberus
ibi
ibidem
ibielnu
ibielnus
ibn
ic
ica
ice
icha
ichu
iciona
icu
icus
id
idea
ideal
idealis
ideas
identia
identidad
identifica
identificacio
identifical
ideolo
ideologi
ideologia
idi
idil
idioma
idiomas
idra
idratacio
idratalsi
idratau
idro
idrogra
idrugra
iendu
ientia
ies
if
iglesias
ignacio
igo
igresia
igu
igual
igualda
igualis
igualmenti
igus
iha
ihu
ihus
ii
iicio
iii
iil
iin
iiu
ija
ijas
iju
ijus
il
ilas
ildivo
ile
ilegal
ilesia
illa
illinois
ilta
ilustracio
ilustres
ilustri
im
ima
imagen
imagin
imagis
imahin
imalaya
imdb
immanuel
impatu
impe
imperator
imperio
imperiu
implica
importancia
importantes
importanti
importantis
impresa
impresarialis
impresas
improve
in
ina
inagura
inas
inaugura
inc
inca
incheon
inciertu
inclu
inclui
incluin
inclusu
incluyen
incluyendu
incluyi
incluyin
increases
inda
independence
independiente
independienti
index
indi
india
indias
indica
indiu
individualis
individus
indo
indone
indonesia
indu
induced
induci
induismu
induropea
induropeas
induropeu
industria
industrial
ine
infa
infancia
infante
infantil
infecio
infeciones
inferiol
inferior
infertile
infiernus
infinitivu
infinitivus
infinito
infinitu
influencia
info
informa
informacio
information
infraestrutura
infraestruturas
infraordin
ingalaterra
ingestion
ingle
ingre
ingresa
ingresu
ingresus
inhibicio
inhtitutu
ini
inicia
inicial
inicialis
iniciativa
inicio
inlustri
inlustris
inmigrantis
inn
innovacio
inora
inorga
inque
inqui
inregularis
insen
insetus
instalacionis
institucionis
institut
institute
instituto
insulal
int
integra
integral
integrau
inteligencia
intensa
intensida
intensu
interacionis
intere
interiol
interior
interna
internacional
internacionalis
internacionalmenti
international
internazional
internet
internu
internus
interpretacio
intervalu
intervalus
intervieni
inti
into
intracellular
intracelular
intri
introduccio
introduction
inu
inus
invasio
invencio
inventarius
invertebraus
investigacio
investigacionis
investigaol
investigaora
invielnu
invielnus
involucra
io
ion
ionis
ipa
ipasu
ipo
iponati
iprage
iqui
iquiespe
iquipedia
iquipeya
ir
ira
irania
iraq
iraqui
irene
iris
irlanda
irlande
irlandesa
irlandesis
iro
iron
iru
irun
is
isaac
isabel
isbn
isidro
isidru
isima
isimas
isimu
isla
islam
island
islande
islandesis
islas
ismael
iso
ispa
ispania
ispanu
ispanus
isque
isquierda
israel
israeli
issima
issimu
issn
ist
ista
istas
istica
isticas
istriotu
istrumentu
istrumentus
it
ita
italia
italiana
italianas
italiano
italianu
italianus
italy
ito
its
iu
iucn
iulia
ius
iv
iva
ivielnu
iviernu
ix
iyendu
izi
izia
izil
izin
iziona
izionariu
iziu
izquierda
iðil
j
ja
jackson
jacques
jadel
jadi
jae
jaime
jaimita
jamaica
jamendo
james
jamo
jan
janeiro
jansen
japan
japanese
japo
japone
japonesa
jar
jardi
jardinis
jarta
jason
jasta
jata
java
javane
javanesis
javier
jazz
jaði
jcgm
je
jean
jecha
jechu
jeff
jeffrey
jefi
jehova
jeitu
jendrik
jeneru
jennifer
jenny
jeno
jera
jerez
jero
jersey
jerte
jerti
jerusale
jesu
jesucristu
jesus
jf
jg
jicu
jidu
jim
jime
jimmy
jm
jo
joa
joan
joaqui
joaquim
jobs
joe
joey
johan
johann
john
johnson
jolma
jonathan
jones
jordania
jordi
jorge
jorma
jose
josep
joseph
journal
jov
joventu
jovin
jpg
jr
ju
juan
juana
jubilacio
judeoespan
judi
judicial
judicialis
jue
juega
juegaol
juegaoris
juego
juegos
juegu
juegus
juendu
juera
juerun
juerza
juevis
juga
jugaol
jugaoris
jugo
juguete
juguetes
jui
julia
julian
julianu
julie
julio
juliu
jun
juncal
june
junio
junior
juniu
junta
junto
juntu
juntus
jurado
juri
just
justicia
justifica
justu
juvenal
juvenil
juventu
k
ka
kai
kaiser
kalliopi
kan
kant
kara
karachi
karak
karl
ke
keeper
kelly
ken
kenneth
keroncong
kevin
keys
kg
ki
kids
kiel
kien
kiev
kilo
kim
king
kingdom
km
ko
koma
kon
konfederated
kong
korean
koreatimes
kro
ku
kumzari
kurdu
kuro
kuwait
ky
l
la
lab
laba
labas
laberinto
labial
laboa
labol
labor
laboratoriu
laboratory
labraoris
labu
labus
labuta
labutal
labutan
labutu
labutus
lacambra
laden
ladinu
lado
ladrillu
lady
lae
laga
lago
lagu
laguna
lagunas
lagus
lah
lairo
lake
lam
lama
lana
lanc
land
landea
landeal
landean
landeandu
landeru
landerus
landeu
landeus
lane
langosta
langostus
language
languages
lanka
lanzamientu
lao
laos
lapi
lar
larga
largas
largo
largol
largometraji
largu
largus
laris
larry
las
lasexta
lat
lateral
lateralis
lati
latin
latina
latinas
latinizau
latinu
latinus
latitu
lato
lau
laura
laureau
laurent
laus
lava
lavau
lavuto
lavutu
lavutus
law
lawrence
lbum
lcicu
lcitu
lciu
lculu
lculus
le
league
leal
lecciones
lechi
lechu
led
leda
lee
legacy
legal
legalis
legane
legau
legend
legi
legislacio
legislativa
legislativu
legislatura
lehi
lei
leipzig
leis
lejana
lejaune
lema
len
lengua
lenguagi
lenguaje
lenguaji
lenguas
lenin
lentamenti
lenzen
leo
leon
leonard
leonardo
leone
leonesa
leopold
les
lesbu
let
leto
letonia
letra
letras
letura
leturas
leu
leucemia
leucocitus
levantal
levantamientu
levels
lexicon
ley
leyel
leyenda
leyendas
leyis
leyo
lez
lgia
lgica
lhica
li
lia
lias
libe
libera
liberacio
liberal
liberalis
liberalismu
liberta
libertad
libertais
libia
library
libre
libreri
libri
libris
libro
libros
libru
librus
lica
licas
lice
licencia
licenciau
licencio
lici
lico
licopenu
licos
licu
licus
lida
liddell
lidu
lidus
lie
life
liga
ligas
ligera
ligeramenti
ligeru
light
ligiu
ligur
lihera
liheru
liherus
lihiu
liiv
like
lima
limes
limita
limitau
limitaus
limo
limpieza
lin
linda
lindi
lindis
lindl
line
lineal
lines
linex
linfa
lingala
lingu
lingua
linguistic
linguistics
linu
linux
lio
lion
lione
lionesa
lionis
lios
lippincott
liquiamenti
lis
lisa
lisboa
lisi
lisis
list
lista
listas
listau
lit
litera
literalmenti
literaria
literariu
literarius
literatura
liti
litoral
litru
litrus
little
litua
lituania
lituanu
liu
lius
liv
live
living
lix
ll
lla
llama
llamaba
llamaban
llamada
llamadas
llamal
llamalsi
llaman
llamas
llamau
llamaus
llamo
llanu
llanura
llanuras
llanus
llaos
llega
llegal
llegan
llegandu
llegara
llegarun
llegau
llego
lleida
llengua
llerena
lleva
llevaba
lleval
llevan
llevandu
llevara
llevarun
llevau
llevo
lli
lliberta
lliga
llingua
llobregat
llu
llui
lluvia
lluvias
lmata
lminu
lminus
lo
lobo
lobu
lobus
local
localia
localiais
localida
localidad
localidais
localis
locativu
locu
locucionis
lodigiano
logo
logos
logra
logral
lograndu
logro
logron
logrosa
logrus
logu
logus
loh
loira
loire
loja
lomas
lombardia
lombardu
lombu
lombus
lomu
london
londres
londri
londris
long
longitu
longitudis
longol
longu
lonhitu
lope
lor
lord
lorenzo
los
louis
love
lozano
lta
ltia
ltica
lticas
lticu
lticus
ltima
ltimo
ltimos
ltimu
ltimus
ltiplis
lu
lua
luc
lucanu
lucas
lucha
luchis
luci
lucius
ludwig
luego
luenga
luengahi
luengaji
luengas
luengu
luengua
luenguas
lugal
lugansk
lugar
lugaris
lugu
lui
luigi
luis
luisa
lula
lulas
lum
lumen
luminosida
luminosu
luna
lunis
lup
luque
lus
lusita
lusitania
lusitanus
luso
lussembulgu
lussemburgu
luz
lvarez
lvaro
lvez
lycopene
lyon
m
ma
mac
macau
macedo
macedonia
machos
machu
machus
macic
macizu
macmillan
macu
madagascal
madagascar
made
madeira
madre
madri
madrid
madril
madron
maea
maera
maestra
maestro
maestru
maestrus
magazine
magdalena
magic
magni
magnitu
magnu
magreb
mahoma
mai
maiden
mail
main
maior
mairi
mairil
mairilen
mairilis
mairon
mais
maja
mal
mala
malaria
malaui
malayu
malgrat
malhin
mali
mallorca
maloti
malotia
malotias
malpartia
malta
malte
malus
mama
mamaen
mami
man
manantialis
manc
mancala
mancha
manchas
manchester
mancomunia
mancomunida
manda
mandari
mandarun
mandatu
mando
mandu
mane
manera
maneras
manhattan
manifestacio
manifestacionis
manifiestu
mano
manolito
manolo
manos
manque
manqui
mantenel
manteniendu
mantenimientu
manteniu
mantieni
mantienin
mantuvu
mantuvun
manu
manual
manualis
manuel
manuela
manus
manuscritus
manzano
mao
maori
map
mapa
mapas
maqueta
maquetismu
maquina
mar
mara
maras
marc
marca
marcal
marcandu
marcas
marcau
marcaus
marcelo
march
marcha
marche
marchena
marci
marcial
marcialis
marco
marcomanus
marcos
marcu
marcus
mare
mareas
marfil
marhin
mari
maria
mariano
maricona
marie
marina
marinas
marinu
marinus
mario
maris
mariu
marjorie
markers
marque
marro
marroqui
marru
marruecu
marruecus
marrus
marshall
marta
marti
martin
martinica
martis
marx
marxist
marxista
mary
marzo
marzu
mas
masa
masas
masculina
masculinu
masculinus
masiva
masivu
maso
massa
massas
mata
matachel
matal
matanc
matanza
mate
matema
matematicos
mateo
mateos
materia
material
materiales
materialis
materias
materna
mati
matilde
mato
matrimon
matrimoniu
matteo
matter
matthew
mau
maurice
mauriciu
maurizio
max
maximus
may
maya
mayo
mayol
mayor
mayori
mayoria
mayoris
mayorita
mayoritariamenti
mayu
mbeal
mbeu
mbeus
mbia
mbicu
mbicus
mbitu
mbitus
mbiu
mbolu
mbolus
mbulu
mc
mcdonald
mcgraw
me
meandrus
meca
mecanismu
mecanismus
mechanics
med
medalla
medea
medecina
medelli
medi
media
medianti
medias
medical
medicina
medicine
medieval
mediko
medil
medina
medinaceli
medio
medios
mediterra
mediu
medius
medlineplus
mehol
mehoris
meia
meicu
meiu
meius
mejol
mejor
mejora
mejoris
melatonin
melatonina
melecina
melilla
melital
melitaris
melo
melodi
membrana
membru
memo
memoria
memorias
men
mencio
mene
menes
menis
meniste
menistru
menistrus
menol
menor
menoris
menos
mensaji
menta
mental
mentau
mentaus
mente
menti
mentris
menu
menudu
menus
mera
merca
mercado
mercal
mercau
mercaus
mercedes
mercu
mercuriu
meridianu
meridional
merino
meriyanu
meriyonal
meriyonalis
mero
meru
merus
mes
mesa
meseta
mesis
mesma
mesmaenti
mesmamenti
mesmas
mesmitu
mesmo
mesmu
mesmus
mestel
mestura
mesturandu
mesturas
met
meta
metabo
metabolism
metabolismu
metafi
metais
metal
metalis
metals
meteorolo
method
meti
metro
metropolitana
metropolitanu
metru
metrupolitana
metrus
mexico
meya
meyanti
meyas
meyaus
meyeval
meyevalis
meyia
meyianti
meyius
meyu
meyudi
meyudia
meyus
mez
mezcla
mg
mi
mia
miaja
miajadas
miajo
mica
micamenti
micas
mice
michael
michel
michelangelo
micheli
michigan
mico
micos
microbiol
microbiologi
microbiology
microne
microsco
microsoft
micu
micus
middle
midi
mie
miel
mieloidi
mielra
mielru
miembru
miembrus
mienta
mientan
mientis
mientras
mientris
mieu
migas
migracio
migracionis
miguel
mihina
mii
miia
miil
mijina
mijol
mijoris
mike
mikel
mil
mila
milagro
mile
mileniu
milenius
milenta
miles
miliarius
milie
milis
milital
militar
militaris
millas
millo
millonario
millones
millonis
min
mina
minas
minecraft
mineral
mineralis
mineria
minermu
minerva
minh
minis
ministe
ministerio
ministeriu
ministru
ministrus
minol
minor
minori
minorias
minsk
minu
minus
minutos
minutus
mir
mira
miranda
mirande
mirlo
miro
miru
mirus
mis
misa
mismo
miss
miste
mit
mita
mitad
miti
mitileni
mitis
mitochondrial
mitocondria
mitocondrial
mitocondrialis
mitocondrias
mitologi
mitologia
mitolohia
mitos
mitu
mitus
miu
mius
mixta
mkwh
ml
mm
mo
moa
moc
mocea
moda
mode
modelu
modelus
modern
moderna
moderno
modernu
modernus
modesto
modifica
modo
modu
moe
moelna
moelnu
moelu
moelus
moerna
moernas
moernu
moernus
mois
moise
mol
molda
moldavia
moldavu
mole
moleculal
molecular
molecularis
molina
molinu
molinus
moll
molla
momentu
momentus
mon
mona
monago
monarca
monarqui
monarquia
monaste
monasterio
monasteriu
monde
monea
moneas
monecipiu
moneda
monedas
monesteriu
moneta
monfragu
mongol
mongolia
monici
monicipal
monicipalis
monicipiu
monicipius
mono
monocitus
monolingu
monosaca
monsters
monta
montan
montanchi
monte
montehermoso
montenegru
montermosu
montero
montes
monti
montiju
montimayor
montis
monumental
monumentu
monumentus
moon
mora
moral
morales
moralis
moras
morcillas
more
morena
moreno
morfema
morfemas
morfolo
morfologi
morfologia
morgan
moril
mormo
moro
mortalis
morte
morus
mos
mosaic
moscova
moscu
mosotrus
most
mostral
mostu
motacilla
moti
motivu
motivus
moto
motol
motoris
motril
mou
mouretii
mous
mouskouri
movel
movelsi
movement
movicio
movicion
movie
movilida
movimiento
movimientu
movimientus
moza
mozambiqui
mozart
mozilla
mp
mpia
mpicu
mpicus
mr
msnm
msterdam
mtv
mu
mua
muacio
muacionis
mual
muan
muandu
muarun
muc
mucha
muchachu
muchas
mucho
muchos
muchu
muchus
muehal
muelna
muelnu
muelnus
muelti
muelu
mueri
muerta
muerte
muerti
muertis
muertu
muertus
muestra
muestral
muestran
muestras
muestro
muestru
muevi
muevin
mugeris
muhammad
muhel
muheris
mui
mujel
mujer
mujeres
mujeris
mula
multimedia
multitu
mulu
mulus
mun
munc
mundi
mundial
mundialis
mundo
mundu
munich
munici
municipal
municipalis
municipio
municipiu
municipium
municipius
muo
muralla
murallas
murcia
murcianu
murio
murray
murtitu
muru
murus
mus
musas
museo
museu
museum
museus
music
musica
musical
musicalis
muso
musotrus
must
musulma
musulmana
musulmanis
muy
mx
my
myanmar
myce
myeloid
myspace
n
na
nabus
nace
nacel
nacencia
naci
nacin
nacio
nacion
nacional
nacionalia
nacionaliais
nacionalis
nacionalismu
nacionalista
nacionalistas
nacionis
naciu
nacu
nadie
nai
naidi
naina
nam
nama
namibia
nana
nangunas
nangunus
nano
nanoceria
nanofluid
nanoparti
nanoparticles
napoleo
napoleon
napoli
napolitanu
naranja
narra
narracio
narraol
narrativa
nas
nasa
nasal
nasalis
nat
nata
natal
national
nativa
nativus
natl
natural
naturalec
naturales
naturaleza
naturalis
naturalista
nature
naumanni
naval
navalmoral
navarra
navarro
navarru
navasfrias
navegacio
navi
navia
navigator
navis
nazi
nazis
nchez
ncia
ncian
ncias
ncipi
nd
ndal
ndalus
ndaru
ndencia
ndez
ndi
ndia
ndias
ndici
ndicu
ndido
ndiu
ndius
ndola
ndose
ndosi
ndu
ndula
ndulas
nduli
ndulus
ndusi
ndussi
ne
nea
neas
nebulosas
neca
necesida
necro
necrosis
neerlande
nefeli
nefi
negativa
negativas
negativu
nego
negocius
negra
negras
negro
negru
negrus
nel
nela
nella
nellas
nellus
nelson
nengu
nenguna
nengunu
neo
neoli
nepal
nero
neru
nerus
nerviosu
nes
nesa
neseza
nesi
nesis
nessa
nessec
nessi
nesta
nestas
nesti
nestus
net
neta
neto
netscape
netu
neu
neuli
neuronas
neus
neutral
neutro
neutronis
neutru
new
news
newton
nez
ng
ngaru
ngel
ngeles
ngu
ngua
nguas
nguez
ngulu
nh
nha
ni
nia
nias
nic
nica
nicamenti
nicara
nicaragua
nicas
niccolo
nich
nico
nicola
nicolas
nicolau
nicu
nicus
nidi
nidji
niervu
nieto
nietu
nieve
nieves
nievi
nigeria
night
nigi
nih
nilu
nima
nimas
nimo
nimu
nimus
nin
ninguna
nio
nirgi
niru
nirus
nirvana
nis
nita
nitro
niu
nius
nivel
nivelis
nlm
nm
nmenti
no
nobel
noble
nobli
noblis
nobri
noche
nochi
nochis
noe
noemi
nolis
nolma
nolmal
nolmalmenti
nolmas
nom
noma
nomas
nombra
nombrau
nombre
nombreria
nombri
nombris
nombro
nome
nomenclatura
nomina
nominal
nominalis
nominativu
nominau
nominees
nomu
nomus
non
nordesti
noresti
norma
normal
normalis
normalizacio
normalmenti
norman
normas
normativa
norociental
noroesti
norte
north
northern
norti
nortiame
noruega
noruegu
nos
nossa
nostanti
not
nota
notabli
notablis
notabri
notacio
notas
nothomb
noti
noticia
noticias
notras
notrus
nov
nova
novas
novela
novelas
novelda
novelista
november
novena
noventa
novenu
noviembre
noviembri
novo
now
ns
nscritu
nseca
nsitu
nsula
nsuli
ntabra
ntabru
ntalu
ntara
ntesi
ntesis
nther
ntica
nticas
nticu
nticus
ntimus
ntoma
ntomas
nu
nubis
nucleal
nuclear
nuclearis
nucleicus
nucleo
nucleu
nucliu
nuclius
nuestra
nuestro
nuestros
nuestru
nuestrus
nueva
nuevamenti
nuevas
nuevi
nuevinu
nuevo
nuevos
nuevu
nuevus
nula
nulus
numa
numbers
numeracio
numeral
numerosas
numerosus
numiracio
numirosas
numirosus
nun
nuna
nunca
nunu
nus
nutricio
nutrientis
nutrition
nutritional
nuversida
nuversidais
nuversitaria
nuvi
nuvis
ny
o
oa
obama
obi
obispu
objetivu
objetivus
objetos
objetu
objetus
obligau
obra
obras
obrero
obreru
obres
observa
observacionis
obstanti
obstetrics
obtencio
obtieni
obtuvu
ocana
ocasionalmenti
ocasionis
ocassio
ocassionis
occidental
occitan
oce
ocea
oceani
oceania
oceanu
ochenta
ochu
ocidental
ocidentalis
ocidenti
ociental
ocientalis
ocienti
ocio
ocitanu
ociu
oclusiva
oclusivas
oclusivu
octava
october
octubre
octubri
ocupa
ocupacio
ocupan
ocupau
ocupo
ocurri
ocurrio
od
oda
odas
odu
oehti
oesti
of
official
officinalis
ofi
ofical
oficial
oficialis
oficialmenti
oficina
oficinas
ofrecel
ofreci
ofrecin
ofrecio
ogan
oguan
oh
ohetivu
ohetivus
ohetu
ohetus
ohio
ohus
oi
oiasso
oil
ois
oja
ojas
ojetivu
ojetu
ojetus
ojo
ojos
oju
ojus
oka
ol
ola
olanda
olande
olanu
olas
old
oles
olganic
olganismus
olganiza
olganizacio
oli
olimpia
olis
oliva
olive
oliveira
olivenc
oliventino
oliventinu
olivenza
oliver
olivera
oliverus
olivia
olivu
olivus
oma
ombri
ombris
ome
omenahi
omeru
omni
omo
oms
on
ona
onard
onas
once
onci
onda
ondas
onde
ondi
one
onepage
ones
onis
online
only
onol
onu
onzi
op
open
opera
operacio
operacionis
operadora
operativu
opinan
opinio
opinionis
opo
oportu
oposicio
oposicion
optical
opuestu
opulo
opus
or
ora
oracio
oracionis
oral
oralis
oras
orato
oratoria
orchestra
orden
ordena
ordenaol
ordenaoris
ordenau
ordeno
order
ordin
ordina
orellana
orental
orenti
org
orga
organic
organismu
organismus
organiza
organizacio
organizacion
organizacionis
organization
organizau
ori
orienta
orientacio
oriental
orientalis
oriente
orienti
origen
origin
origina
original
originalis
originalmenti
originaria
originariu
origino
origins
orihin
orihina
orihinal
orihinalis
orilla
orillas
orina
orio
oriol
oris
oriu
oriunda
oriundu
orizontalis
orleans
ormigo
oro
orogra
orquesta
orqui
orru
ortega
ortiz
orto
ortogra
ortografi
ortografia
ortugrafia
oru
os
osa
osas
osborne
oscar
oscars
oscec
oscila
oscura
osma
ospital
ossi
ossidanti
ossidativu
ostanti
ostenta
osu
osus
ota
otan
otavu
otel
otelis
otenel
other
oti
otieni
otolgau
otomanu
oton
otorga
otra
otras
otro
otros
otru
otrus
otto
otubri
otuvu
ou
oui
oup
out
outstanding
outubri
ov
ovehas
oveja
ovejas
over
overloads
ovi
oviedo
ovieu
ovocitu
oxford
oxidacio
oxidative
oxidativu
oxygen
oyi
oz
p
pa
pablo
pacensi
paci
pacienti
pacientis
pacific
paco
padilla
padre
padro
paeci
pag
paga
pagal
page
pages
pagodinho
pagu
pagus
pai
paici
paicia
paicin
pairi
pairis
pais
paisahi
paisaji
paisis
paji
pakista
pal
pala
palabra
palabras
palacio
palacios
palaciu
palantri
palas
pale
palencia
paleoli
palermo
palermu
palestina
palla
pallabra
palli
palma
palmare
palmas
palomeru
palos
palra
palraba
palraban
palral
palramentu
palran
palrandu
palranti
palrantis
palras
palrau
palro
palti
palu
palus
pamela
pamplona
pan
panama
pandemia
pandi
panfi
paniagua
panorama
pantalla
pantallas
pantanu
pantanus
pantuflo
paolo
papa
papel
papelis
papers
papiru
papu
papua
paque
paquista
par
para
parabra
parabras
parabrina
paracas
paradima
paraguai
parahi
paral
paralelas
paralelu
parana
parcial
parcialmenti
pardu
pare
pareci
paredes
pareja
parejas
parelis
parentescu
pari
pariente
parientis
paris
park
parla
parlamento
parlamentu
parlanjhe
parme
parque
parqui
parquis
parra
parro
parroquia
parroquial
parroquias
part
parte
partes
parti
partia
partici
participa
participacio
participal
participan
participantis
participarun
participau
participo
particulal
particular
particularis
particularmenti
partidarius
partido
partidos
partiendu
partil
partin
partir
partis
partitivu
partiu
partius
paru
parvordin
pas
pasa
pasaherus
pasajerus
pasal
pasan
pasandu
pasau
pascua
pascual
paseu
pasio
paso
pasos
passa
passal
passan
passandu
passarun
passau
passio
passiva
passo
passu
past
pasta
pastizzi
pastoris
pastus
pasu
pasus
patas
patata
patatas
patenti
pateraggelos
paterna
pathet
patiu
pato
patolo
patolu
patra
patria
patricia
patrick
patrimon
patro
patrocinaol
patrona
patronatu
patronis
patu
paul
paulo
pausa
pavimentu
pavli
pax
paz
pazu
pc
pdf
pe
peace
peahi
peces
pecho
pechu
peci
pecis
pedani
pedio
pediorista
pedro
pedru
pega
pegas
peiru
pelayo
peli
peligru
pelitasqui
pelle
pelog
pelota
peloto
pelra
pelu
pen
pena
penco
pendienti
pendientis
penetracio
penguin
peni
penicla
peninsula
peninsulal
peninsularis
penny
pensaba
pensaeru
pensal
pensaol
pensaoris
pensau
penta
pentium
penu
people
pepe
pequen
pequi
per
pera
peralis
peralta
peras
percussio
perda
perdel
perdi
perdiendu
perdierun
perdio
perdiu
perdo
pereira
perez
perfetu
perfil
performance
peri
perio
periodismu
periodista
periodistica
periodu
periodus
periou
peripate
periu
perla
permanenti
permiti
permitin
pero
peroxide
perru
perrunillas
perrus
persa
persas
persii
persona
personajes
personal
personalia
personas
perteneci
pertenecienti
pertenecin
peru
peruana
peruanu
pesa
pesal
pesau
pesaus
pesca
pescaoris
pescuec
pescueza
pesi
peso
pessoa
pessonas
pesti
pesu
petaba
peter
petersburgu
petit
petro
petroliu
pez
pezi
pg
ph
pharmacological
pharsalia
phil
philadelphia
philippe
phone
phong
php
phu
phylogeny
physics
physiology
pi
pia
pianu
pias
pib
pic
pica
picamenti
picapeci
picas
picasso
piccardo
pico
pictures
picu
picus
pidamenti
pide
pidi
pidio
pidu
pidus
pie
piec
piedra
piel
piemonte
piensa
piera
pieras
pierdi
pierle
piero
pierre
pies
pieza
piezas
piezis
pigmentus
pii
piil
pil
pila
pilal
pilar
pilotu
pimento
pimientus
pin
pineal
pinicla
piniclas
pinocchio
pinochet
pinos
pinta
pintal
pinto
pintol
pintor
pintura
pinturas
pinus
pinyin
pio
pioneru
piornal
pira
piraha
pirata
piratas
pirateria
pirineus
pisa
piscina
pista
pistas
pisus
pita
pitago
pitarra
pitcairn
piti
pito
pitu
piu
pius
pizarro
pl
pla
placa
place
placentarius
plan
plana
planeta
plant
planta
plantarum
plantas
planu
plasencia
plasma
plasmodium
plata
plataforma
plato
plaza
please
plena
plenu
pli
plontinu
plontu
plumas
plums
plural
pluricelularis
plus
plutarcu
pm
pmc
pmid
pnas
pnv
po
poblacio
pobracio
pobrema
pobremas
poc
poca
pocas
pocket
poco
pocu
pocus
podemos
poder
podra
podri
podria
podus
poe
poel
poema
poemas
poemus
poeris
poesi
poesia
poeta
poetas
pograma
pogramacio
pogramas
poipa
poitevin
poke
pol
pola
polaca
polacu
polaris
polas
polcima
pole
poli
polici
polideportivo
polinesia
polis
polite
politica
political
politics
polito
polo
polon
polonia
polos
polque
polu
polus
polvu
polyglotta
pombahu
pompeu
pompeyu
pompo
pon
poncima
pondi
pone
ponel
poni
ponienti
ponin
pons
pontevedra
pontifi
pop
popa
populal
populalmenti
popular
populares
popularia
popularis
poquinas
poquinu
poquinus
por
porcentagi
porcentaji
porcio
porel
pornogra
pornografia
pornu
porque
porqui
porrina
port
porta
portal
porteru
portland
porto
portrait
portugal
portugue
portuguesa
portuguesas
portuguesis
pos
posa
poseel
posei
posein
posesio
posibilia
posible
posiblementi
posibli
posiblis
posibri
posicio
posicion
posicionis
posin
positiva
positivas
positive
positivu
possei
possein
possibilia
possibli
possibri
possibrimenti
possibris
possimenti
post
postal
postalis
posteriol
posteriolmenti
posterior
posterioris
posteriormenti
postri
postula
postura
potasiu
pote
potencia
potencial
potencialis
potencias
potenti
potential
pou
poulain
power
pozu
pozuelu
pp
pr
pra
prac
praca
pracentina
prado
praenomen
praenomina
praga
pragas
pran
praneta
pranetas
pranta
prantas
prantilla
pranu
prase
prasencia
prat
prata
pratahorma
pratica
pratinu
pratus
praya
prayas
praza
pre
preba
prebas
preceiu
precibi
precipitacio
precipitacionis
precisio
precius
precura
precurandu
precuro
predicau
predominanti
preestoria
prefecio
preferenti
prefeta
prefetu
prefihu
prefiju
pregunta
preguntas
prehessol
premio
premios
premisu
premita
premiti
premitia
premitil
premitin
premitio
premiu
premius
prena
prenci
prencipal
prencipalis
prencipalmenti
prencipau
prencipia
prencipian
prencipiarun
prencipinu
prencipio
prencipiu
prencipius
prensa
prenu
prenuncia
prenunciacio
prenuncial
prenunciau
preparacio
preposicio
prepuesta
prerromanas
presa
presas
prese
presencia
present
presenta
presentacio
presentador
presental
presentan
presentandu
presentaol
presentaora
presentau
presenti
presentis
presento
presidencia
presidente
presidenti
presie
presiencia
presiencialis
presienti
presio
presona
presonahi
presonahis
presonal
presonalia
presonas
press
presse
pressona
pressonagi
pressonagis
pressonahi
pressonahis
pressonajis
pressonal
pressonalis
pressonas
presta
presti
presto
presupuestu
pretendi
pretenecel
preteneci
pretenecia
pretenecienti
pretenecientis
pretenecin
pretenecio
pretol
preve
prevencio
previamenti
previle
previu
prevoca
prevocandu
prevoco
prex
pri
priberam
prima
primaria
primavera
primel
primer
primera
primeras
primeros
primeru
primerus
primilla
primitivas
primitivu
primo
primu
primus
prince
principal
principales
principalis
principalmenti
prisma
priva
privau
privaus
pro
probablementi
probabli
probi
probis
problema
problemas
probrema
probremas
proc
procariotas
procaspasa
procedentis
procedi
procedimientus
procee
proceenti
proceentis
procei
proceimientus
procein
procesamientu
procesio
proceso
processu
processus
procesu
procesus
proclamo
prod
produccio
produci
producil
producin
producio
producion
production
productions
productu
productus
produju
produtol
produtu
produtus
produzi
produzin
produzio
proel
profesional
profesol
profesor
profesoris
professional
professionalis
professol
professor
professoris
profeta
profissional
profundida
progesterone
programa
programas
progresu
prohunda
prohundu
project
proli
prometeu
promeyu
promocio
promovel
promu
promuevi
pronombri
pronombris
prontu
pronunciacio
pronunciau
propagacio
propaganda
propia
propiamenti
propias
propiea
propieais
propieda
propiedadis
propiedais
propiu
propius
propo
propolciona
proponi
proporcio
proporciona
proporcionis
propuesta
prosa
prosas
proserpina
protagonista
protagonistas
protecio
protects
protegel
protegi
protehiu
protehius
protei
protestas
proto
protocolu
protocolus
protonis
prouci
proucia
proucil
proucin
proucio
prouciu
proutu
proutus
provenc
provencia
provenientis
provi
provie
provien
provieni
provinci
provincia
provincial
provincialis
provincias
provisional
provoca
provocal
provocandu
provocau
provoco
proyecto
proyectu
proyetu
proyetus
proyeutu
proyeutus
prueba
prumas
prunus
prural
pruralis
pruvincia
ps
pse
psicolo
psicologi
psoe
psychology
pteru
pterus
pticas
pticu
pu
pub
publica
publicacio
publicaciones
publication
publications
publicau
publicia
publio
publique
publishers
publishing
publius
pubrica
pubricacio
pubricacionis
pubricita
pubrico
puc
puca
pudel
pudra
pudria
pue
puea
puean
puebla
pueblacio
pueblo
pueblos
pueblu
pueblus
puebra
puebracio
puebracion
puebracional
puebracionis
puebraoris
puebrau
puebraus
puebrinu
puebru
puebrus
puede
pueden
puedi
puedin
puei
puein
pueis
puel
puelles
puelmi
puema
puemas
puemus
puen
puente
puenti
puentis
pueri
puerien
pueris
puerta
puertal
puertas
puerto
puertu
puertus
pues
puesi
puesia
puesta
puestas
puestu
puestus
pueta
puetas
pui
pula
puli
pulicia
puliu
pulmonis
pulu
pulus
pun
puna
punica
punk
punta
puntas
punto
puntos
puntu
puntus
pur
pura
puras
puri
purtugal
purtugue
purtuguesa
purtuguesas
purtuguesis
puru
pus
pushkin
pusicio
pusiendu
pusitiva
pusu
pusun
putin
puu
puun
puye
puyendu
puyera
puyeran
px
q
qa
qm
qu
qua
quadus
quairau
quairaus
qual
quala
qualis
qualisquiel
qualquiel
qualquiera
quando
quandu
quantis
quantu
quarenta
quarta
quartet
quartu
quartus
quasi
quasique
quatre
quatru
que
quea
queaban
quean
queandu
quearun
queau
quebec
queen
queo
quercus
querel
querencia
queri
queria
queronea
quesu
quesus
quevedo
qui
quia
quias
quicia
quida
quidu
quie
quiel
quien
quienis
quiere
quieri
quijote
quiju
quilo
quilometrus
quina
quinas
quinta
quintana
quintilianu
quintu
quintus
quirguista
quiro
quitandu
quitarra
quitarras
quitarrista
quitu
quiu
quius
quizia
quo
r
ra
rabat
rabe
rabel
rabi
rabin
rabis
rabu
rac
rach
racional
racionalis
radiacio
radic
radical
radicalis
radio
radiofo
radioifusio
rado
rae
rafael
rahman
rai
raical
rail
raizis
rala
ralph
ralu
rama
ramas
rambla
rambuta
rami
ramo
ramos
rampling
ramu
ramus
rangu
raramenti
ras
rasgu
rasgus
rat
rau
ravel
ray
raya
raymond
rayo
rayu
rayus
raza
razo
razonis
rbara
rbarus
rbia
rbita
rbiu
rbius
rbol
rboles
rbolis
rcega
rcia
rcitu
rcitus
rciu
rcolis
rculo
rculu
rculus
rd
rdenis
rdia
rdicu
rdida
rdoba
rduba
re
rea
reacio
reacion
reacionis
reactivas
reagan
real
reales
realia
realic
realida
realis
realiza
realizacio
realizal
realizan
realizau
realizo
realmenti
realworld
reas
reazio
reazionis
rebeldis
rebelio
rebollal
rebollar
rec
recebi
recebio
receptoris
receta
rechac
recibi
recibil
recibin
recibio
recienti
recientis
recintu
recitalis
reclama
reco
recogi
recomienda
reconoce
reconocel
reconocencia
reconoci
reconocia
reconocimientu
reconocimientus
reconocin
reconociu
reconocius
reconquista
recopa
recopilacio
recopilato
record
records
recorri
recorriu
recostruia
recuairu
recuerda
recuerdos
reculsus
recuperacio
recuperal
recursos
recursu
recursus
red
redacio
redi
redis
redondo
redox
reduce
reduci
reducio
redupricacion
reduziu
ref
refere
referencia
referencias
referendum
referenti
referentis
referil
referilsi
refieri
refierin
refiriendosi
reflexiones
refreja
regachu
regachus
regia
regimin
regio
region
regional
regionalis
regionalismu
regionalista
regionis
registra
registrus
reglas
regras
regressa
regula
regulacio
regulal
regulan
regulaol
regularis
regulated
regulau
rehio
rehional
rehionalis
rehionis
reholma
reholmas
rehorma
rehormas
rei
reina
reinau
reino
reinu
reinus
reis
relacio
relaciona
relacionan
relacionau
relacionaus
relacionis
relata
relationship
relativa
relativamenti
relativas
relativida
relativu
relatos
relatu
relatus
release
relevanti
relevantis
relievi
religio
religion
religionis
religiosa
religiosas
religiosu
religiosus
relihio
relihiosa
rellenal
reloj
remaneci
remanenti
remato
rembrandt
remesclas
remix
remolacha
remonta
remontan
remotu
remuecu
renace
renacentista
renacimientu
renaissance
renaixenc
rene
renfe
renombrau
renombri
renta
renti
renuncia
reol
reor
repartias
repartius
reperto
repitin
replicacio
reponse
report
representa
representacio
representacion
representacionis
representaeru
represental
representan
representandu
representanti
representantis
representativa
representativu
representau
representava
repressentanti
reproducin
reproducio
reproducion
reproduction
repu
republic
republicanu
republik
republika
repubricanu
reputacio
requieri
requilorios
res
rescrei
rescuers
research
reserva
reservas
resi
resie
resiste
resistencia
resistenti
resistentis
resnick
resolucio
resolvel
resonando
resonandu
resono
respectivamenti
respectivas
respectu
respeta
respetivamenti
respetivas
respetivi
respetu
respiracio
respiratoriu
responsabli
responsablis
respuesta
restanti
restaura
restauracio
restauranti
restaurantis
restu
restus
resu
resulta
resultanti
resultau
resultaus
resulto
resumin
resurta
resurtau
resurtaus
reti
retilis
retira
retiro
retiru
reto
retola
retorno
retrataura
retrieved
retro
retu
reu
reunio
reus
rev
revacaerus
reve
reverte
review
reviews
revista
revistas
revivil
revolucio
revolucion
revolution
rey
reyes
rez
rezensionen
rezie
rezienti
rezientis
rganu
rganus
rhead
ri
ria
rial
rialia
rian
rias
riau
riba
ribera
ric
rica
ricamenti
ricardo
ricas
rice
richard
rico
ricu
ricus
rida
ridus
riegu
riesgu
riesgus
rif
rii
rimas
rimu
rimus
rin
rinco
rio
rioha
rioja
rios
riquec
riqueza
ris
risi
rita
ritmu
rito
ritu
ritualis
ritus
riu
rius
rival
rivas
river
rivera
rivista
rj
rmica
rmino
rminu
rminus
rms
rmula
rnia
rniu
ro
road
robert
roberto
roberts
robinson
robles
robli
robo
robot
robots
robrea
roca
rocas
roci
rock
rocosus
roda
rodea
rodri
rodrigo
roger
roi
roja
rojas
roju
rojus
rola
role
roll
roma
roman
romana
romanas
romance
romanche
romanci
romancis
romani
romano
romanticismu
romanu
romanus
romeria
romero
ron
ronald
ronda
room
rooney
ropa
ros
rosa
rosado
rosas
rose
rosello
roso
ross
rotacio
rotacismu
rotterdam
routledge
roxu
royal
rpura
rquicu
rrez
rriu
rrius
rs
rsicu
rsiu
rtica
rticu
rtil
rtilis
rtima
rtimas
rtimu
rtimus
ru
ruanda
rube
rubio
ruea
rueda
rufu
rugby
rui
ruina
ruinas
ruiu
ruiz
rumania
rumanu
rumba
runcha
runchaeru
runchal
runchas
runcho
rupestris
rural
ruralis
rusa
rusia
russa
russell
russia
russian
russu
rustrius
rusu
rusus
ruta
rutas
rvolis
ry
ryan
s
sa
sabe
sabel
sabemus
saber
saberis
sabi
sabiu
sabol
sabor
saboris
sabulugal
sabulugaris
saca
sacal
sacan
sacarosa
sacarun
saceldoti
sacerdoti
saco
sacru
safari
safu
saga
sagra
sagrau
sagraus
sahara
sahurdo
saint
sainz
sajo
sal
sala
salamanca
salas
salgado
sali
salia
salicina
saliendu
salienti
salil
salin
salio
salis
salmantinus
salo
salol
salomo
salt
salu
salud
salva
salvador
salvaol
salvat
salvo
samanta
samba
samoa
samu
samuel
san
sandro
sangre
sangri
sangui
sant
santa
santana
santandel
santander
santano
santare
santas
santi
santiago
santiagu
santo
santos
santu
santua
santuariu
santus
sapiens
sar
sara
sarah
sarajevo
sarajevu
sardu
sarte
sate
sati
sativa
satu
satura
saturacio
saturae
saturnu
saudita
sc
scar
scara
schmitt
school
schro
schwarze
sci
science
scientific
scott
scritu
scua
scula
sculu
sculus
sd
se
sea
sean
search
seasonal
sebastia
sebastian
seborga
seca
secio
secreta
secretariu
secretu
secu
secuela
secuencia
secuencias
secunda
secus
sedi
sedimentus
sedra
sedri
sedria
sedrie
sefardi
segovia
segregacio
segretariu
segu
segui
segunda
segundera
segunderu
segundo
segundu
segundus
segura
seguranc
segurancia
seguru
sei
seimentus
seis
sel
selecio
selecion
selecta
selena
seleniu
selenium
sellu
selvi
selvidumbri
sema
semana
semanas
semi
semilaris
semilla
semin
semina
seminal
seminograma
semio
semitonu
semo
sempri
sen
sena
senaol
senau
sencilla
seneca
senegal
senifica
senifical
senificativa
senificau
sensacio
sensibli
sensiblis
sensibri
sente
senti
sentimientu
sentimientus
sentir
sentiu
sentius
senu
seo
seoul
separa
separacio
separau
september
septentrional
septiembre
septiembri
sequ
sequi
ser
sera
serapias
serbia
serbiu
serena
sergio
seri
serie
series
serii
seris
sero
serotonina
serrai
serraillana
serraillanu
serrana
serrano
servi
servicio
servicios
serviciu
servicius
servil
ses
sesenta
sesio
sessu
sessual
sessualis
sesta
sestu
set
setas
setenta
setentrional
setentrionalis
setiembri
setol
setoris
seu
seudo
seus
seven
sevilla
sex
sexting
sexu
sexual
seya
seyan
sfera
sforu
shakespeare
shanghai
sharp
she
shek
shock
should
show
shu
si
sia
sias
siberia
sica
sicamenti
sicas
sici
sicilia
siciliana
sicilianu
sico
sicolo
sicologia
sicos
sicu
sicus
sida
side
sidney
sido
sie
siegru
siegrus
siempre
siempri
siendu
sienti
siero
sierra
sierras
sierru
sierrus
sieti
siglas
siglo
siglu
sigmund
signal
signals
significa
significant
significau
signu
signus
sigras
sigru
sigrus
sigu
sigue
sigui
siguia
siguiendu
siguientes
siguienti
siguientis
siguierun
siguil
siguin
siguio
sigun
sigura
siguru
sihtema
sil
sila
silabogramas
sile
silgueru
sili
silis
silo
silva
silvestri
silvestris
silvio
sima
simas
simienti
simientis
similal
similar
similaris
simo
simon
simplementi
simpli
simplificau
simplis
simpri
simprimenti
simpris
simpson
simu
simus
sin
sina
sindicatus
sinfoni
sinfonia
sing
singapore
sings
singulal
singularis
sinifica
sino
sinta
sintama
sintamas
sintassi
sinte
sintetiza
sintetizaoris
sintiu
sinu
sinus
sio
siquiera
sir
siracusa
siria
sirvi
sirviendu
sirvin
sirvio
sis
sistema
sistemas
sitacio
site
sites
sitiu
sitius
situ
situa
situacio
situacion
situacionis
situau
situs
siu
sius
ski
slendro
slovenia
smicu
smith
smo
smu
snia
so
sobera
soberani
soberania
soberanu
sobre
sobresal
sobresalin
sobrevivil
sobri
sobrinombri
sobrito
sobrivivil
social
sociales
socialis
socialismu
socialista
socialistas
sociea
socieais
socieda
sociedad
sociedais
society
socio
sociolingu
sociologi
sociologia
sociu
sodiu
sofia
sofos
software
sofu
sofus
sol
sola
solal
solamenti
solana
solar
solaris
soldau
soldaus
sole
solea
soledad
soleni
soli
solita
solo
solsticiu
solu
solublis
solucio
solus
soma
sombra
somos
son
sona
sonatas
sonau
sonaus
sonda
song
songs
soni
sonin
sonis
soniu
sonius
sonora
sonoras
sonoru
sonorus
sopa
soporti
sorda
sordas
sordau
sordu
soria
sorpresa
sos
sosteni
sostriba
sostriban
sostribu
soto
sotru
sou
soukous
sound
soundtrack
source
south
souvenir
sovie
soy
sp
spain
spanish
species
spera
sperm
spermatozoa
spiritu
spiru
spongebob
sport
sporting
springer
sr
sri
ss
ssia
ssica
ssicas
ssicu
ssicus
ssidu
ssima
ssimas
ssimu
ssimus
ssitu
ssiu
st
sta
stalin
standard
star
stas
stata
state
states
statistics
status
ste
stephen
stestain
steve
steven
stevens
sti
stica
sticas
stico
sticos
sticu
sticus
stil
stoles
storia
story
streamer
stress
stria
structure
stu
studies
studios
study
stumu
stus
su
sua
suavi
suavis
subasta
subcontinenti
subil
sublevaus
subordin
subordina
sucedio
sucesio
sucesivus
sucessol
sucontinenti
sud
suda
sudame
sudesti
sue
sueca
suecia
suecu
suele
sueli
suelin
suelu
suelus
suen
suerti
suevus
suficientementi
suficienti
suficientimenti
suficientis
sufiju
sufijus
sufri
sufril
sufrin
sufrio
sugrupu
suhetu
suic
suicido
suitable
suite
suiza
sujetu
sujetus
sul
sula
sulesti
sulfatoxymelatonin
sulfatu
sulfatus
sulfuru
sulla
suloesti
suma
suministru
sun
sung
sunset
super
supera
superal
superan
superandu
superfamilia
superfi
superfici
superficie
superficii
superficis
superiol
superior
superioris
supero
supicopa
supiendu
supifi
supo
suponel
suponi
suponia
suprema
supremu
supuesta
supuestu
supusu
sur
suresti
surinam
suroesti
sus
susan
susta
sustancia
sustancias
sustantivu
sustantivus
sustentacio
sustitucio
sustitucionis
sustitui
sustituil
sustituiu
sustituyo
sustratu
suterra
suvarnabhumi
suya
suyu
suyus
sydney
system
t
ta
table
tabra
tabras
tac
tacu
taekwondo
tahu
taibilla
taifa
taifas
taila
taipei
taiwa
taiwan
tajo
taju
tal
talavera
tales
talis
talla
tallel
taller
talleris
tallu
talu
tam
taman
tamara
tambie
tamboril
tamboris
tamie
tamien
tamil
tan
tanto
tantu
tantus
tanza
taoyuan
tapa
tapocu
tapsigargina
tar
tarde
tardi
tardia
tardinu
tarea
tareas
tarragona
tas
tasa
tasas
taskent
taxonomi
tayiquista
taylor
tba
tbol
te
teatral
teatralis
teatro
teatru
teatrus
technology
techu
tecnolo
tecnologi
tecraus
tedra
teji
tejiu
tejius
tel
tela
telaran
tele
telecinco
telefo
telenovelas
telescopiu
televisio
teli
telifonu
telivisio
telminacio
telminacionis
telo
tem
tema
temas
temblar
temperatura
temperaturas
templa
templau
templu
templus
tempo
tempora
temporada
temporal
temporalmenti
temprana
tempranillo
tempranu
tempru
tempura
ten
tende
tendel
tendencia
tendra
tendri
tenel
tenemus
tener
tenerife
tenerifi
tenga
tengan
tengo
teni
tenia
teniendu
tenienti
tenis
tenista
teniu
tenologi
tenologia
tensio
tentu
tentudi
tenulohia
teo
teofrastu
teori
teoria
teorias
ter
tera
tercel
tercera
terceru
terciu
terem
teresa
termina
terminacio
terminal
termino
termodina
terra
terrakota
terremotu
terrenu
terrenus
terrestri
terrestris
territo
territorial
territorialis
territorialmenti
territorios
territoriu
territorius
terro
terrorista
terroristas
teruel
tes
tesi
tesis
tesoro
tesoru
tessa
test
testamentu
testigus
testil
testimon
testu
testus
tesu
tetra
teu
texas
text
textos
teyran
th
tha
thaj
than
thapsigargin
that
the
their
theories
theory
therapy
there
they
this
tho
thomas
through
ti
tia
tibe
tica
ticaenti
ticamenti
ticas
tico
ticos
ticu
ticus
tidus
tie
tiempo
tiempos
tiempu
tiempus
tien
tiendi
tiendin
tiene
tienen
tieni
tienin
tienis
tierra
tierras
tigris
tiin
tiini
tiinin
tiktok
til
tili
tilis
tilu
tilus
tim
tima
timbri
time
times
timo
timol
timu
timus
tina
tincio
tini
tinia
tinian
tinin
tiniu
tinta
tintas
tipu
tipus
tique
tira
tiras
tiro
tirteu
tiru
tis
title
titu
tiu
tius
tnf
tnfa
tnica
to
toa
toas
tobagu
toca
tocal
tocan
tocandu
tocanti
tocantis
toco
tod
toda
todas
todd
tode
todo
todos
todu
todus
toga
togu
toi
tokyo
tol
tola
tolas
toledo
toleu
tolkien
tolo
tolomeu
tolos
tolosa
tom
toma
tomal
tomandu
tomarun
tomatis
tomau
tome
tomo
tomos
tomu
tomus
ton
tona
tonal
tonga
tonu
tonus
top
topan
topo
toponi
toponimia
topus
tor
tora
toria
torias
tormantus
tormenta
tormes
tornavacas
torneu
tornu
toro
toronto
torre
torrejo
torres
torri
torris
tortilla
toru
torus
tos
toscana
toscanu
tosi
tossantus
total
totalia
totalmenti
tou
tour
toure
tours
tous
tout
tovar
tozu
tozus
tr
tra
trabaju
trac
trad
tradicio
tradicion
tradicional
tradicionalis
tradicionalmenti
tradicionis
traduci
traducio
traducion
traducionis
traduciu
tradutol
trael
trage
tragedias
trahanu
trahe
trahlau
trai
traicio
traicional
traicionalis
traicionalmenti
traicionis
trajanu
tramp
tramu
tramus
trang
transcripcio
transduction
transferencia
transicio
transistol
transistor
transistoris
transitivus
transmisio
transmission
transportal
transporti
tranvi
tranvia
tras
trascricio
trascurri
trasholma
trasmiti
trasporti
trastornu
trastornus
trata
trataba
tratal
tratalsi
tratamientu
tratan
tratandu
tratau
trataus
trato
tratu
traucio
trauciu
trave
travis
trayeto
tre
trebahu
trebahus
trebaja
trebajal
trebajandu
trebajau
trebajo
trebaju
trebajus
trecel
treci
tree
tren
trends
trenis
trenta
trentiu
tres
trevehu
trezi
tri
tria
triangulal
tribu
tribunal
tribus
tribute
trica
tricas
tricu
tricus
trigo
trigu
trincheras
trinia
tris
triu
triunfu
tro
trocaicu
trofus
troncu
tronu
tropas
tropical
tropicalis
troqueu
troya
trugillu
truhillu
trujillo
trujillu
trump
trung
trupi
tu
tube
tubinga
tuenti
tula
tulo
tulquia
tulu
tulus
tumba
tumbas
tumoris
tupa
turca
turcu
turcus
turi
turismo
turismu
turkmenista
turkvisio
turmalina
turner
turqui
turquia
tus
tuviendu
tuviera
tuvieran
tuvio
tuvu
tuvun
tv
tve
tvp
twitter
two
typha
u
ua
ubica
ubu
ubun
uca
ucasu
ucd
uceda
uclidi
ucra
ucrania
ucranianu
ud
udis
udiu
ue
uefa
uela
uelu
uelus
uelva
uevus
ufmg
ufrati
ugan
uganda
ugua
uguan
uguas
ui
uita
uk
ula
ulica
ulicas
ulicu
ulm
ultramar
ultramari
ultravioleta
um
uma
umana
umanas
umania
umaniais
umanida
umanista
umanu
umanus
umea
umenta
umentu
umu
un
una
unaids
unamuno
unas
und
une
uned
unesco
ungri
ungria
uni
unia
uniais
unias
unida
unidad
unidades
unidais
unidas
uniensi
unifica
unio
union
uniprovincial
unite
united
units
uniu
unius
univelsal
univelsia
univelsiais
univelsita
univelsu
universal
universalis
universe
universia
universiais
universida
universidad
universidade
universita
universitariu
university
universu
uno
unos
unta
unu
unus
up
upon
upper
upr
ur
ura
uralis
urbana
urbanas
urbanic
urbanismu
urbanu
urbanus
urbe
urdu
ure
urea
uri
urinary
url
uroasia
urocopa
uropa
uropea
uropeas
uropeu
uropeus
urovisio
urss
uruguai
uruguay
urus
us
usa
usal
usan
usandu
usau
usi
usiu
uso
ustria
usu
usua
usual
usualmenti
usuarius
usus
utah
utc
utica
uticas
utiliza
utilizacio
utilizada
utilizan
utilizau
utiliða
utol
utoris
uu
uva
uvas
uzbequista
v
va
vaca
vacas
vaci
vacuna
vacunu
vai
val
valcorcheru
valdastillas
valde
valdelacalzada
valdelacarc
valdivia
vale
valencia
valenciana
valencianu
valencianus
valenti
valeriano
vali
valladoli
valladolid
vallas
valle
valli
vallis
valo
valol
valor
valoris
valos
valverde
valverdi
van
vanguard
vanuatu
vapol
vapor
var
vara
vari
varia
variable
variabli
variablis
variabri
variacio
variacionis
varial
varian
variandu
varianti
variantis
varias
variau
variea
varieais
varieda
variedais
varios
varius
varo
varonis
varro
varso
varsovia
vasari
vasca
vasco
vascu
vascular
vascus
vasu
vasus
vaticanu
ve
vea
veces
vecinos
vecis
ved
veda
vedi
vedis
vega
vegas
vegetacio
vegetal
vegetalis
vehetacio
vehetal
vehetalis
vehi
vei
veinti
vel
vela
velai
velal
velaqui
velardo
velei
velequi
velilla
vella
velocia
velocida
veloi
veloqui
velsi
velsinus
velsio
velsion
velsionis
velsu
velsus
ven
venas
vencel
vencio
vendel
vendin
vene
venec
venecia
venecianu
venetu
venezuela
veni
venis
venta
ventaja
ventanas
venti
vento
ventura
venu
venus
ver
vera
veranu
verbal
verbalis
verbu
verbus
verda
verdaera
verdaeru
verdaerus
verdais
verde
verdi
verdis
verduras
verea
vergi
verhi
verna
verrocchio
versio
version
versionis
versos
versu
versus
vertebra
vertebrata
vertebraus
vertical
verticalis
vertienti
vertu
veru
verus
very
ves
vescovo
vesi
vesita
vesital
vesitas
vespasianu
vetonis
vez
vezerus
vezi
vezinus
vezis
vezzosi
vgorod
vi
via
viagi
viaherus
viahi
viaje
viaji
viajis
viajo
vias
vicente
vicenti
victor
victoria
vida
video
videoxuegus
vidriu
vidu
vie
vieha
viehu
vieja
viejo
vieju
viejus
vien
viena
viendu
vieni
vienin
vienris
viento
vientu
vientus
viernis
viesca
vietnam
vietnamita
view
vige
vigenti
vigin
vigol
vigu
vih
vii
viii
viini
vil
vila
vilgin
vilhin
vilis
villa
villacan
villafranca
villalba
villamiel
villanovense
villanueva
villar
villarreal
villas
ville
villuercas
vin
vincent
vinci
vincula
vini
vinia
vinil
vino
vinu
vinun
vinus
vio
violencia
violenta
violentas
violi
viral
virgen
virgi
virgin
viriatu
virreinatu
virtu
virtual
virus
viscaya
viscosida
visibli
visigo
visigoa
visigodus
visigous
visio
vision
vista
vistas
vistu
visual
visualis
vita
vitae
vital
vitamina
vito
vitoria
vitro
viu
viudas
viva
vivas
vive
vivi
vivia
vivian
vivienda
viviendas
viviendu
vivientis
vivierun
vivil
vivin
vivio
vivir
vivira
vivo
vivu
vivus
vizcaya
vizinas
vizinus
vladi
vladimir
vladivostok
vo
voca
vocabula
vocabulario
vocabulariu
vocal
vocalis
voces
voivodatu
vol
volca
volcas
volga
volo
volu
volucio
volucion
volucionandu
volucionau
volume
volumen
volumi
volumin
volunta
von
vora
voru
vorus
vos
vostell
votacio
votacionis
votu
votus
voz
vozi
vozis
vranu
vranus
vrk
vuelo
vuelta
vuelu
vuelus
vuestra
vuk
vulgar
vurgal
vusotrus
vv
vysotski
w
wa
wagner
wales
walker
wallace
walt
walter
wanna
want
war
was
washington
water
way
we
web
webelements
website
well
wellington
west
wg
what
when
which
white
who
wiesbaden
wiki
wikimedia
wikipe
wikipedia
wikiquote
wilbur
wild
wiley
wilhelm
will
william
williams
wilson
wind
windows
wine
winners
wins
winston
with
wo
wolfgang
womad
woman
wood
woodard
wordpress
words
works
world
wright
wu
wuhan
www
wyoming
x
xa
xabo
xai
xapone
xaru
xe
xefi
xere
xerti
xi
xica
xicas
xico
xicu
xidu
xii
xiii
xima
ximo
ximu
xitu
xiv
xix
xose
xuegus
xv
xvi
xvii
xviii
xx
xxi
y
ya
yacimientu
yacimientus
yahoo
yambu
yambus
yanguas
yangzi
ye
year
years
yelu
yemen
yenissei
yerba
yessu
yibuti
yo
yod
york
you
young
your
youtube
youtuber
yu
yugoslavia
yukio
yun
yusti
z
za
zafra
zagal
zagala
zagalas
zagalis
zaidi
zal
zambrano
zapatero
zape
zaqui
zar
zaragoza
zarza
ze
zeca
zeit
zelanda
zeno
zeppelin
zeu
zeus
zia
zimbagu
zipi
zis
ziu
zo
zona
zonas
zoroastrian
zoroastrianism
zoroastrismu
zquez
zu
zuckermann
zurbara
zurich
{
|
}
~
¡
§
ª
«
­
®
°
²
³
´
·
¹
º
»
½
¿
×
æ
ð
ø
đo
łobez
ŋ
ɐ
ɑ
ɔ
ə
ɛ
ɣ
ɪ
ɸ
ɺ
ɾ
ʃ
ʊ
ʰ
ʲ
ʻ
ʼ
ʿ
ˈ
ˉ
ˌ
ː
ːˈ
˘
˥
̀
́
̂
̃
̄
̆
̇
̈
̉
̊
̋
̌
̓
̔
̛
̞
̟
̣
̦
̧
̨
̪
̯
͂
ͅ
͡
α
αι
απ
απο
ας
β
βιβλι
γ
γα
γε
για
γιω
γος
γραμματικη
δ
δα
δε
δη
δης
δι
δια
διδακτικω
δο
δρο
δυ
ε
ει
εκδοσε
επιτυχι
ες
ευ
ζ
ζω
η
θ
θα
θε
θη
ι
κ
κα
και
κη
κης
κι
κο
κος
κου
κυ
λ
λα
λασσα
λε
λη
λης
λι
λιος
λο
λος
λυ
μ
μα
μαι
ματα
με
μενα
μη
μην
μι
μια
μοι
μου
ν
να
νεοελληνικη
νες
νη
νης
νι
νομα
νος
νυ
νω
νων
ξ
ο
οι
οργανισμο
ος
ου
π
πα
παρα
πε
περι
πες
πι
πλα
πο
που
πουλος
προ
πτω
ρ
ρα
ργος
ρι
ρος
ρω
ς
σ
σα
σε
σι
σις
σμου
στε
στη
στην
στι
στις
στο
συ
τ
τα
τε
τη
την
της
τι
τιμα
τις
το
τος
του
τους
τραγου
τρι
τρυ
τω
των
υ
φ
φαινο
φι
φυ
φω
χ
χνη
χτα
χω
ψ
ω
ων
ως
ϙ
ϝ
ϟ
а
в
г
д
и
л
н
република
у
і
ְ
ִ
ֵ
ֶ
ַ
ָ
ֹ
ּ
ׁ
א
ב
ד
ה
ו
ח
י
ל
מ
נ
ק
ר
ש
ת
،
ا
ال
الا
العربية
ب
بن
ة
ت
ج
ح
خ
د
ذ
ر
ز
س
ش
ط
ع
ف
في
ق
ك
ل
م
محمد
من
ن
ه
و
ي
ٌ
ٍ
َ
ُ
ِ
ّ
ْ
ٓ
ٔ
ٕ
ं
क
ग
ज
त
थ
द
ध
न
प
भ
म
य
र
ल
स
ा
ि
ी
ु
्
া
্
ੀ
க
ச
ட
ன
ம
ர
ா
ி
ு
ெ
ை
்
ක
ත
ර
්
ා
ී
ุ
་
ག
ལ
ུ
ྲ
ជ
ព
រ
ា
្
᾿
῾
​
‍
‎
–
—
‘
’
“
”
„
†
•
…
‰
′
″
₂
₃
€
™
↑
→
↔
↷
−
⋅
③
④
⑦
♯
ⴰ
ⴳ
ⴷ
ⴻ
ⵔ
ⵜ
ⵢ
ⵣ
⺀
⺄
⺆
⺈
⺊
⺌
⺕
⺝
⺸
⺼
⿰
⿱
⿲
⿳
⿴
⿵
⿶
⿷
⿸
⿹
⿺
⿻
『
』
〢
い
え
お
か
き
こ
し
す
せ
そ
て
と
な
ぬ
の
は
ひ
へ
ま
む
も
ゆ
ら
り
る
ろ
ゐ
ゑ
を
ん
゙
イ
コ
タ
ト
ナ
マ
ユ
㇁
㇂
㇄
㇇
㇈
㇉
㇓
㐁
㐄
㐅
㐌
㐫
㐬
㐭
㐮
㐱
㑒
㒵
㒸
㒼
㓁
㓞
㔾
㕛
㕣
㖾
㘝
㚅
㚇
㚔
㚘
㝉
㝡
㝴
㝵
㞋
㞢
㞷
㠩
㠭
㠯
㡀
㡭
㡿
㢲
㢴
㣇
㣺
㥯
㪅
㫄
㫐
㫒
㫺
㬅
㬎
㬥
㬰
㲋
㳄
㷠
㸒
㸚
㸦
㼌
㼲
㽞
㿟
䀠
䂞
䍃
䏍
䒑
䖍
䖒
䖝
䖵
䙴
䚻
䜌
䝿
䡛
䧹
䪞
一
丁
丂
七
丄
丅
丆
万
丈
三
上
下
丌
不
与
丏
丐
丑
专
且
丕
世
丘
丙
业
东
丞
丢
丣
两
严
並
丨
丩
个
丫
丬
中
丮
丰
丱
串
丵
丶
丷
丸
丹
为
主
丽
丿
乀
乂
乃
久
乆
乇
么
义
之
乌
乍
乎
乏
乐
乑
乔
乖
乗
乘
乙
乚
乛
乜
九
乞
也
习
乡
乳
乾
亀
亅
了
亇
予
争
事
二
亍
于
亏
亐
云
互
亓
五
井
亘
亚
亜
亞
亟
亠
亡
亢
交
亥
亦
产
亨
亩
享
京
亭
亮
亯
亰
亲
亳
亶
亷
人
亻
亼
亾
仁
今
介
仌
从
仐
仑
仒
仓
仕
他
付
仝
代
令
以
任
企
伊
伏
伐
休
会
伯
但
位
何
佘
余
作
佥
使
來
侈
侌
侖
侯
侵
便
保
俞
信
修
倉
倍
候
倠
備
僉
僕
儿
兀
允
兂
元
兄
充
兆
兇
先
光
兊
克
兌
免
兑
兒
兓
兔
党
兜
兟
入
全
兩
兪
八
公
六
兮
兰
共
关
兵
其
具
典
兹
兼
冀
冂
冃
冄
内
冈
冉
冊
冋
册
再
冎
冏
冐
冒
冓
冖
冗
冘
军
农
冝
冡
冥
冫
冬
冷
几
凡
凢
凵
凶
凷
凸
凹
出
函
凾
刀
刁
刂
刃
刄
刅
分
切
刍
刑
刕
刖
列
刘
则
初
別
利
别
到
制
刺
則
削
剌
前
剡
剽
劉
力
功
加
劦
助
劫
劳
劵
勃
勇
勉
勒
動
務
勞
勤
勹
勺
勻
勾
勿
匀
匂
包
匆
匈
匊
匋
匍
匕
化
北
匚
匝
匡
匪
匱
匸
匹
区
医
匽
匿
區
十
卂
千
卄
卅
卆
升
午
卉
半
卌
华
卑
卒
卓
单
卖
南
卜
卝
卞
占
卡
卢
卣
卤
卦
卩
卪
卬
卯
印
危
即
却
卵
卷
卸
卻
厂
厃
厄
历
厈
厉
厌
厓
厘
厚
原
厤
厥
厨
厭
厲
厶
厷
厸
去
厼
厽
叀
参
參
叅
又
叉
及
友
双
反
叐
发
叒
叔
叕
取
受
叚
叜
叟
口
古
句
另
叩
只
召
可
台
叱
史
右
叵
号
司
叹
吂
各
吅
合
吉
吊
吋
同
名
后
吏
向
吕
君
吝
吞
否
含
启
吳
吴
吹
吾
呂
呆
呈
告
员
呙
周
命
咅
和
咎
咠
咢
咨
咸
咼
哀
品
哉
員
哥
哲
唐
商
啇
問
啚
啬
啻
善
喜
喬
單
喿
嗇
噩
嚴
囊
囗
囘
囙
囚
四
回
囟
因
囧
囬
困
囱
囷
固
国
圂
圅
國
圍
圓
土
圡
圣
圥
在
圭
地
圶
圼
坐
坒
坚
坴
垂
垔
垚
埀
埋
埶
執
基
堂
堅
堆
堇
堯
塞
墨
壘
士
壬
壯
声
壳
壴
壹
壺
壽
夂
处
夅
夆
备
夊
夋
夌
复
夏
夒
夕
外
夗
夘
多
夜
夢
大
夨
天
太
夫
夬
夭
央
失
夲
头
夷
夸
夹
夻
夾
奂
奄
奇
奈
奉
奎
奏
奐
契
奓
奔
奚
奞
奠
奢
奥
奭
女
奴
奻
好
如
妄
妈
妙
妟
妥
妻
妾
姑
委
姜
威
娄
娜
婁
婴
媽
嬰
嬴
子
孑
孔
孕
孖
字
存
孚
孛
孝
孟
季
孤
学
孫
孱
學
宀
宁
宂
它
宅
宇
守
安
宋
完
宏
宓
宗
官
定
宛
宜
宝
客
宣
室
宮
宰
害
家
容
宾
宿
寄
寅
密
富
寒
察
寧
審
寫
寬
寮
寸
对
寺
寻
寽
対
寿
封
尃
射
将
將
專
尉
尊
尋
尌
對
小
少
尒
尓
尔
尖
尗
尚
尞
尢
尣
尤
尧
尨
尭
就
尸
尹
尺
尻
尼
尽
尾
尿
局
居
屈
屋
屎
屏
屑
展
屖
屚
属
屠
屡
屬
屮
屯
屰
山
屵
屾
岁
岂
岑
岡
岩
岳
岸
峯
島
崇
崑
崔
崖
崙
崩
嵬
嶲
巂
巛
川
州
巟
巠
巢
巤
工
左
巧
巨
巩
巫
差
己
已
巳
巴
巷
巸
巽
巾
巿
帀
市
布
希
帚
帛
帝
带
師
席
帶
常
干
平
年
幵
并
幷
幸
幺
幻
幼
幽
幾
广
広
庄
床
底
店
庚
府
度
庫
庭
庶
康
庸
廉
廌
廛
廣
廩
廴
延
廷
建
廾
廿
开
弁
弃
弄
弇
弋
式
弓
弔
引
弗
弘
弜
弟
弥
弦
弱
張
強
强
彊
彌
彎
彐
彑
当
彔
录
彖
彗
彡
形
彥
彦
彧
彭
彳
役
彼
往
待
律
徒
得
徙
從
復
微
徵
德
徽
心
忄
必
忌
忍
志
忝
忠
忩
快
念
忽
忿
思
怠
急
怱
恆
恒
恩
恭
息
悉
患
悤
悲
悶
惠
惡
惢
愁
愈
意
愛
感
慈
慧
慮
憂
憲
應
戀
戈
戉
戊
戋
戌
戍
戎
成
我
戒
戔
或
戚
戠
戢
截
戲
戶
户
戹
戼
戾
房
所
扁
扇
手
扌
才
打
托
执
承
折
拉
拜
拿
掌
推
提
摩
支
攴
攵
收
攸
改
放
政
敄
敏
敕
敖
敗
敝
敞
敢
散
敦
敫
敬
数
敷
數
斂
文
斉
斊
斗
斤
斥
斩
斬
斯
新
方
於
施
斿
旁
旋
族
无
旡
既
旣
日
旦
旧
旨
早
旬
旱
旲
时
旾
昆
昇
昌
昍
明
昏
易
昔
昗
昜
星
春
昬
是
昱
昴
昷
時
晃
晋
晏
普
景
晶
智
暑
暴
曇
曩
曰
曲
曳
更
曷
書
曹
曼
曾
替
最
朁
會
月
有
朋
服
朔
朕
朗
望
朝
木
朩
未
末
本
札
朮
术
朱
朵
朶
朿
杀
杏
杜
束
条
来
東
杲
杳
松
析
林
枚
果
枝
枲
枼
某
柔
查
柬
柰
柴
栗
桀
桑
桼
梁
條
梟
梨
棋
棘
棠
棥
森
楚
業
楽
榮
樂
樊
欠
次
欣
欮
欲
欶
欽
款
歆
歇
歛
止
正
此
步
武
歨
歪
歮
歯
歰
歲
歴
歷
歸
歹
歺
死
殳
段
殷
殸
殹
殺
殻
殿
毋
毌
母
每
毒
比
毕
毚
毛
毳
氏
氐
民
气
氣
水
氵
氶
氷
永
氺
氾
求
汉
汝
汞
江
沃
沓
沙
沝
泉
法
波
泣
泥
泰
洛
洪
活
派
流
浦
浪
浮
海
淡
淮
清
渚
渠
湘
湯
滿
漸
火
灬
灭
灰
灵
灷
炅
炎
炏
炗
炙
炭
為
烈
烏
烝
焉
無
焦
焱
然
煎
煞
熊
熏
燕
營
燮
爪
爫
爭
爯
爰
爱
爲
爵
父
爻
爽
爾
爿
片
牙
牚
牛
牜
牟
牢
牧
牪
牽
犀
犬
犭
犮
狂
狄
狊
独
狺
猋
猒
猪
献
獨
獻
玄
率
玉
王
玟
玨
现
珎
班
現
琴
瑟
瑩
璠
瓜
瓦
甘
甚
生
産
用
甫
甬
田
由
甲
申
电
甶
男
甸
甹
画
甾
畀
界
畏
畐
留
畜
畟
畢
畧
畨
番
畫
異
畱
當
畺
畾
疊
疋
疌
疑
疒
疾
癶
癸
癹
登
發
白
百
皀
皃
的
皆
皇
皋
皐
皕
皮
皷
皿
盃
盆
盇
盈
益
盍
盎
监
盒
盖
盛
盡
監
盤
盧
目
直
相
盾
省
眇
眉
看
眔
眞
真
眷
眼
眾
着
睘
睪
睿
瞏
瞢
瞿
矍
矛
矞
矢
矣
知
矦
短
石
破
碎
磊
磨
示
礻
礼
神
祟
票
祭
禀
禁
禸
禹
禺
离
禽
禾
禿
秀
秃
秉
秋
科
秝
秦
移
稟
穀
穆
穌
穴
究
穹
空
穿
突
窄
窒
立
竒
竜
竝
竟
章
童
竹
笑
笠
筆
等
答
箕
算
箴
節
篤
篭
米
粉
粛
粟
粤
粦
粲
糞
糸
糹
系
約
納
素
索
紫
累
細
絜
絫
絲
經
維
綿
縣
繇
纍
纟
缶
网
罒
罔
罕
罗
罙
罡
罢
罪
署
罷
羅
羊
羌
羍
美
羔
羕
羗
羞
羡
羣
群
義
羲
羸
羽
翁
翏
習
翕
翟
翠
翼
老
耂
考
者
耆
而
耎
耑
耒
耳
耴
耶
耷
聂
聊
聖
聚
聶
聿
肀
肃
肅
肉
肖
肙
肥
肩
肯
育
肴
胃
背
胡
胥
能
脊
脩
膚
臣
臤
臧
自
臬
臭
臯
臱
至
致
臺
臼
臽
臾
臿
舀
舂
舄
與
興
舉
舌
舍
舛
舜
舞
舟
般
艮
良
色
艸
艹
艾
芒
芔
芬
芮
花
芳
芺
芻
苔
苗
苟
若
苦
英
茶
茸
荅
草
荒
荣
荼
莆
莧
莫
莽
菆
菊
菐
華
萬
落
葉
著
葛
董
葵
蒙
蒦
蒼
蓋
蓬
蓺
蔑
蔡
蕉
蕭
薄
薛
薦
薰
藍
藏
藥
蘭
虍
虎
虐
虒
虔
處
虖
虗
虘
虚
虛
虜
虞
虫
虽
蚤
蚩
蜀
蜜
蟲
蠡
血
行
衍
衛
衣
衤
表
衮
衰
袁
袞
褭
褱
襄
襾
西
覀
要
覃
見
規
覓
覧
親
覽
见
角
解
言
訁
訇
計
話
詹
語
誩
諸
讠
话
语
谷
豆
豈
豊
豐
豕
豖
豙
象
豦
豩
豪
豸
貇
貝
貞
貟
負
貢
貧
貪
貫
責
貳
貴
買
費
賁
資
賈
賏
賓
賔
賛
賞
賢
賣
質
賴
贊
贝
贡
责
贯
贲
贵
赖
赞
赤
赦
走
越
足
路
蹇
身
躬
車
軍
軎
軟
輦
车
辛
辜
辟
辥
辰
辱
農
辵
辶
边
达
过
近
连
迷
追
退
送
逆
逐
通
速
造
逢
連
逮
進
遀
遂
過
道
達
遣
適
遷
遺
邊
邑
邕
那
邦
邪
郎
部
郭
都
鄉
酉
酋
配
酓
釆
采
里
重
野
量
金
釒
錢
钅
長
镸
长
門
閃
閉
開
閏
閑
閒
間
閔
閵
閻
闌
门
间
闷
阑
阜
阝
阿
降
陳
隆
隊
隋
隡
隨
隱
隶
隹
隺
隻
隼
隽
难
雀
雁
集
雈
雋
雍
雐
雔
雙
雚
雜
雝
離
難
雨
雩
雪
雲
零
雷
需
霍
霜
霝
霞
霸
靈
靑
青
非
靡
面
靣
革
韋
韓
韦
韭
韯
韱
音
頁
頃
項
須
頗
頡
頻
顛
页
風
风
飛
飞
食
飠
養
饣
首
香
馬
馮
駦
马
骨
高
髟
鬥
鬯
鬲
鬼
魚
魯
鮮
鱼
鲁
鳥
鳳
鸟
鹵
鹿
麃
麗
麥
麦
麻
黃
黄
黍
黎
黑
黒
黨
黹
黽
黾
鼎
鼓
鼠
鼻
齊
齋
齐
齒
齿
龍
龙
龜
龟
龠
龰
龱
龴
龵
龶
龷
龸
龹
者
艹
ﺍ
ﺎ
ﻟ
ﻤ
ﻬ
ﻮ
？
𠀁
𠀃
𠀆
𠀉
𠀎
𠀐
𠁁
𠁣
𠂆
𠂇
𠂈
𠂉
𠂊
𠂋
𠂎
𠂒
𠂔
𠂛
𠂡
𠂢
𠂤
𠂬
𠂭
𠂹
𠃊
𠃋
𠃌
𠃍
𠃎
𠃑
𠃓
𠃔
𠃜
𠄌
𠄎
𠄠
𠄢
𠆢
𠆥
𠇍
𠈌
𠌵
𠓜
𠔉
𠔥
𠔼
𠔽
𠔿
𠕀
𠕁
𠕋
𠘧
𠘨
𠙻
𠙼
𠚏
𠚒
𠚤
𠚪
𠣏
𠤎
𠤕
𠥓
𠦄
𠦑
𠦝
𠧒
𠧗
𠧪
𠩺
𠪚
𠫓
𠫔
𠫤
𠬛
𠬝
𠬞
𠬢
𠬤
𠬶
𠮛
𠮦
𠮷
𠯑
𠱠
𠳮
𠷎
𡈼
𡉀
𡉵
𡌥
𡍮
𡏳
𡕒
𡕩
𡕰
𡖅
𡗗
𡗜
𡘆
𡘤
𡧱
𡨄
𡩧
𡬠
𡭽
𡰣
𡰥
𡰪
𡰯
𡰱
𡷈
𡸁
𡿨
𡿩
𡿪
𡿺
𢀖
𢀛
𢀩
𢁙
𢆉
𢆰
𢆶
𢇁
𢇇
𢉖
𢌬
𢌿
𢏚
𢑑
𢑚
𢖻
𢙣
𢛳
𢦏
𢦒
𢧵
𢼄
𢾕
𣁋
𣄼
𣅀
𣅽
𣍘
𣎳
𣎵
𣏋
𣏼
𣗥
𣥂
𣥖
𣦵
𣦼
𣧄
𣪊
𣪠
𣬉
𣳾
𣶒
𤇾
𤊽
𤐫
𤓰
𤔔
𤕨
𤣩
𤰇
𤰔
𤰞
𤴓
𤴔
𤽄
𥁑
𥁕
𥃦
𥃩
𥃭
𥇡
𥑟
𥘅
𥘈
𥝢
𥫗
𥱡
𦈢
𦉪
𦉬
𦉼
𦍌
𦍒
𦎧
𦐇
𦓔
𦔮
𦘒
𦙃
𦚏
𦣝
𦣞
𦣻
𦥑
𦥔
𦥯
𦨉
𦭝
𦰩
𧆞
𧈧
𧘇
𧰨
𧴪
𧴮
𧵩
𧾷
𨸏
𨾴
𩙿
𩠐
𩫏
𩵋
𪉷
𪜀
𪟽
𪠲
𪩲
𫇦
𫔭
𫜸
𫝀
𫠣
𫠩
𫢉
𫥞
𫩏
𫩠
𫪡
𫲽
𫶧
𬀷
𬐘
𬗌
𬙙
𬛸
𬜯
𬟩
𬯁
𬴘
𬺻
𬼉
𬼖
𭀰
𭁈
𭁨
𭅰
𭑈
𭕄
𭗼
𭤨
𭥫
𭻾
𮅕
𮊿
𮍌
𮍏
𮓗
𮥼
𮧮
廾
𰀁
𰀄
𰀈
𰀉
𰀕
𰀠
𰀡
𰀢
𰀪
𰁜
𰃮
𰆊
𰆘
𰋙
𰕎
𰢴
𰧭
𰯲
00--
15--
72--
78--
81--
84--
85--
92--
978--
98--
a--
ab--
aba--
abal--
aband--
aber--
abi--
abo--
abu--
abund--
ac--
ace--
aci--
acon--
acontece--
acor--
acu--
ad--
adi--
ado--
ae--
aero--
afi--
ag--
aglu--
agre--
agu--
ah--
ai--
aje--
al--
ala--
alar--
albond--
ale--
alente--
ali--
alma--
alta--
alu--
alve--
am--
ama--
ami--
amo--
an--
ana--
anc--
and--
ang--
ani--
ann--
anti--
anu--
ao--
ap--
apre--
apro--
apros--
aprove--
apu--
ar--
ara--
arc--
arcil--
are--
arre--
arrecup--
arte--
arti--
as--
asi--
asolu--
asor--
at--
ata--
atel--
ato--
au--
aus--
auto--
av--
ave--
avi--
ay--
az--
b--
ba--
bac--
bai--
bal--
bam--
bar--
bas--
be--
beha--
bel--
bene--
ber--
bi--
biblio--
bien--
bio--
bo--
boni--
bor--
bos--
br--
bre--
bu--
bun--
bur--
burgu--
c--
ca--
cab--
cabr--
cac--
cachi--
caec--
cal--
cala--
calen--
cam--
can--
capa--
capi--
car--
cara--
cardio--
carto--
casa--
cast--
cat--
cd--
ce--
cen--
cer--
cercun--
cere--
ch--
cha--
cham--
char--
chi--
chiri--
ci--
cia--
cin--
cir--
cis--
cl--
cla--
clasi--
cle--
cloro--
cn--
co--
cod--
col--
cola--
com--
come--
compu--
con--
condu--
conse--
cor--
cord--
cordina--
coreo--
corpor--
cost--
cou--
coun--
cra--
cre--
cri--
cro--
cu--
cua--
cue--
cul--
cump--
cur--
cy--
d--
da--
dal--
dan--
dar--
de--
deci--
decu--
defe--
defens--
degi--
del--
dele--
demet--
den--
densa--
depart--
depre--
der--
des--
desce--
desen--
detec--
di--
dia--
die--
dig--
dio--
diri--
dis--
disol--
disti--
do--
docu--
dome--
domi--
don--
dr--
du--
dum--
dur--
dy--
e--
ea--
ebe--
ec--
ecu--
ed--
edif--
efe--
efi--
eh--
ehtre--
ehtu--
ei--
ej--
ejecu--
el--
ele--
elec--
electri--
eli--
elpe--
em--
emi--
empl--
en--
encre--
end--
endi--
enfo--
enfron--
engre--
enic--
enja--
ente--
entel--
enter--
enti--
entri--
enva--
ep--
epi--
episo--
epor--
er--
era--
ere--
es--
esa--
esbor--
esc--
escru--
escu--
esp--
espar--
espue--
esqui--
est--
estru--
et--
etxe--
eu--
euro--
ev--
eva--
ex--
exam--
expl--
expli--
exter--
extre--
f--
fa--
fal--
fan--
far--
favo--
fe--
fecun--
fecunda--
femin--
fer--
ferru--
fi--
figu--
fil--
filo--
fina--
fir--
fla--
fles--
fo--
for--
fr--
fra--
frag--
fregu--
fri--
fron--
fu--
fuen--
func--
fur--
g--
ga--
galli--
gar--
gas--
gau--
ge--
geo--
geru--
gi--
gla--
go--
gol--
gor--
gr--
gra--
gre--
grif--
gu--
gua--
guberna--
gui--
h--
ha--
habi--
ham--
har--
he--
hel--
her--
here--
hi--
hin--
his--
ho--
hol--
hor--
horti--
hu--
hunda--
hy--
i--
ic--
id--
ideo--
idru--
if--
ig--
il--
illus--
ilus--
im--
in--
ina--
inc--
incomp--
incor--
incre--
indi--
indo--
ine--
infec--
infla--
influ--
infra--
ingini--
inmun--
inov--
insec--
insp--
insta--
institu--
instru--
int--
inter--
intro--
inund--
ir--
is--
ist--
it--
iu--
j--
ja--
jam--
je--
jet--
ji--
jo--
jom--
jor--
ju--
jui--
jum--
k--
ka--
ke--
key--
ki--
ko--
kri--
ku--
l--
la--
lae--
lal--
lan--
lau--
le--
len--
les--
let--
li--
lin--
ll--
lli--
llu--
lo--
lom--
lou--
lti--
lu--
luc--
lv--
ly--
m--
ma--
mac--
macro--
mag--
mal--
man--
manif--
manu--
mar--
margu--
mari--
mas--
mathe--
mau--
mc--
me--
meiterra--
melez--
men--
mer--
meri--
mes--
mi--
micro--
mie--
migra--
mik--
mil--
min--
mira--
mo--
moe--
mol--
mon--
mono--
monte--
monum--
mor--
mora--
mos--
mp--
mu--
muc--
mul--
mun--
mur--
mus--
my--
n--
na--
nalgo--
nalgu--
nan--
nar--
nat--
nava--
nd--
ne--
nea--
negr--
neo--
ner--
nes--
neu--
ng--
ni--
nizh--
nm--
no--
noc--
nom--
nor--
nos--
ns--
nu--
num--
o--
oa--
ob--
obje--
obr--
obri--
octa--
od--
of--
ofen--
offi--
ofi--
ol--
on--
op--
opue--
or--
ori--
orni--
os--
ov--
oxi--
p--
pa--
pal--
pala--
paleon--
palra--
pan--
par--
para--
parla--
pas--
pasi--
pata--
patri--
pe--
pedr--
pen--
pensa--
per--
peregr--
pes--
pess--
ph--
pho--
phy--
pi--
pie--
pin--
pio--
pl--
pla--
plu--
po--
poli--
pomp--
pop--
por--
porce--
pos--
pr--
pra--
prac--
pre--
prece--
prehen--
prer--
pri--
pro--
proc--
produ--
prohu--
prote--
protest--
ps--
pu--
pub--
pue--
pul--
pur--
q--
qa--
qua--
que--
qui--
r--
ra--
radio--
ran--
rat--
ratif--
rci--
rd--
rdi--
re--
rea--
rec--
recep--
red--
ref--
regi--
regla--
rei--
ren--
res--
respons--
reta--
reu--
rev--
rho--
ri--
rial--
rin--
ro--
rob--
ros--
rs--
rti--
ru--
rui--
run--
rust--
s--
sa--
sacra--
sal--
salman--
san--
sanita--
sar--
sc--
sch--
se--
sea--
sedi--
sei--
sel--
seme--
semicondu--
sen--
ser--
serra--
sex--
sha--
shan--
si--
sil--
sim--
sin--
so--
sol--
soli--
son--
sor--
sos--
sp--
spea--
ss--
st--
sta--
stan--
ste--
stu--
su--
sub--
suce--
sud--
sudia--
suje--
sul--
sun--
super--
suplemen--
sur--
surgi--
sus--
t--
ta--
tabr--
taja--
tal--
tam--
tar--
tax--
te--
tele--
tem--
ten--
teo--
ter--
teu--
th--
ti--
tin--
to--
tol--
topo--
tor--
toxi--
tr--
tra--
tran--
trans--
tras--
tre--
tres--
tri--
trig--
tro--
tru--
tu--
tul--
tur--
tut--
u--
ua--
uca--
uce--
ud--
ue--
ui--
ul--
um--
un--
uni--
up--
ur--
us--
v--
va--
val--
valde--
vale--
van--
var--
ve--
veci--
ved--
veg--
ven--
ver--
vesti--
vet--
veð--
vi--
via--
viabi--
vice--
video--
vio--
vir--
viz--
vo--
vol--
vos--
vuel--
w--
wa--
wal--
wat--
we--
web--
wiki--
wil--
wo--
x--
xa--
xe--
xi--
xx--
y--
ya--
ye--
yu--
z--
za--
ze--
zim--
zo--
zu--
ɑ--
ɾ--
α--
ασ--
αυ--
β--
γ--
γε--
δ--
δυ--
ε--
ζ--
η--
θ--
κ--
κα--
λ--
μ--
μαχ--
με--
ν--
ντα--
ξ--
π--
παρ--
πο--
ποι--
ρ--
σ--
τ--
τρ--
φ--
φω--
χ--
н--
و--
--0
--1
--2
--3
--4
--5
--6
--7
--8
--9
--a
--ac
--acio
--ade
--ades
--ado
--agi
--ai
--ak
--al
--alis
--als
--ami
--an
--ana
--andu
--anu
--ar
--aria
--ario
--aris
--ariu
--as
--au
--b
--ba
--ban
--be
--beau
--bert
--bi
--ble
--bli
--blis
--blo
--blu
--bo
--bra
--bri
--bris
--bs
--bu
--bus
--c
--ca
--cal
--carburus
--cat
--cau
--cci
--ccio
--ce
--cel
--cer
--ces
--ch
--cha
--chas
--cho
--chu
--chus
--ci
--cia
--cin
--cio
--cion
--cional
--ciones
--cionis
--cipa
--cis
--ciu
--cius
--ck
--cles
--co
--cos
--crita
--cs
--cta
--cts
--ctu
--cu
--cus
--cutiva
--d
--da
--dabli
--dacio
--dad
--dal
--das
--dd
--de
--del
--dera
--dero
--des
--dh
--dhi
--di
--dia
--dio
--dis
--dismo
--do
--dol
--dor
--dores
--doris
--dos
--dra
--dre
--dria
--dro
--ds
--du
--dy
--e
--ea
--eal
--ec
--ece
--ecio
--eco
--ed
--eda
--edo
--ega
--ego
--eiro
--eis
--eja
--el
--ela
--elo
--em
--ema
--en
--enc
--endo
--endu
--eni
--ensi
--ent
--ente
--enti
--entu
--eo
--er
--era
--eras
--eri
--eria
--ern
--ero
--erru
--ers
--eru
--erun
--erus
--es
--esa
--et
--etes
--eti
--eto
--eu
--eus
--ew
--ey
--eza
--f
--fa
--fe
--ff
--fi
--fia
--fica
--fo
--fs
--fu
--fus
--g
--ga
--gal
--ge
--gem
--ges
--ght
--gi
--gia
--gio
--glia
--gma
--gn
--go
--gra
--gri
--gru
--grus
--gs
--gu
--gy
--h
--ha
--hal
--ham
--he
--hed
--henta
--hi
--hia
--his
--ho
--hu
--hus
--i
--ia
--iais
--ial
--ian
--iana
--iano
--ias
--iau
--ic
--ica
--icio
--ico
--ics
--icu
--ida
--idad
--ie
--ierra
--ig
--igu
--il
--ila
--ilo
--in
--ina
--ine
--ing
--ino
--inos
--inu
--inus
--io
--iol
--ion
--ior
--ique
--ire
--iri
--iril
--is
--isa
--isio
--ismu
--ista
--it
--ita
--itaria
--itu
--ity
--iu
--ius
--iva
--ive
--ivia
--ivu
--ivus
--ix
--iza
--izacio
--izan
--ization
--izau
--izu
--j
--ja
--jal
--jas
--je
--ji
--jis
--jo
--ju
--jus
--k
--ka
--key
--ki
--kin
--ks
--ku
--l
--la
--lacio
--lacionis
--lada
--ladal
--lal
--lar
--las
--lau
--ld
--le
--lea
--leja
--lera
--leru
--lerus
--les
--lf
--lga
--li
--lia
--lic
--lis
--lita
--ll
--lla
--llas
--lle
--llo
--llu
--lmosu
--lna
--lo
--logy
--lohia
--lon
--ls
--lsi
--lts
--ltu
--lu
--lus
--ly
--m
--ma
--man
--mane
--mas
--mbo
--mbra
--mbu
--me
--mel
--men
--mente
--menti
--mentu
--mentus
--mi
--mia
--miento
--mientu
--mientus
--mista
--mmar
--mo
--ms
--mu
--mus
--my
--n
--na
--nal
--nalis
--namientu
--nandu
--nariu
--nas
--nau
--naus
--nc
--nce
--nces
--nci
--ncia
--ncial
--ncialis
--ncias
--ncio
--nco
--nd
--nda
--nde
--ndel
--ndi
--ndia
--ndo
--ndu
--ne
--nel
--ner
--nera
--nes
--net
--neta
--ng
--nga
--nge
--ni
--nia
--nida
--nih
--nil
--nis
--nismu
--niu
--nius
--nn
--no
--nos
--nova
--ns
--nsi
--nt
--nta
--ntal
--nte
--ntes
--nti
--ntinu
--ntis
--nto
--ntro
--nts
--ntu
--ntus
--nu
--num
--nus
--ny
--nzi
--nzia
--nzo
--o
--ock
--ok
--ol
--olo
--om
--on
--onis
--ons
--ope
--or
--ora
--oris
--os
--oso
--osu
--ot
--ota
--ow
--p
--pa
--pcio
--pe
--phy
--pi
--pia
--po
--pto
--pu
--puta
--qui
--quiera
--r
--ra
--racio
--rada
--ral
--ras
--rat
--rativu
--rau
--rava
--rc
--rcel
--rci
--rd
--rda
--rdu
--re
--recel
--recio
--rel
--ren
--rera
--reri
--res
--reta
--rga
--rgo
--ri
--ria
--ril
--rinus
--rio
--ris
--rismu
--riu
--rius
--rk
--rm
--rn
--rna
--rno
--rnu
--ro
--row
--roy
--rpi
--rqui
--rra
--rral
--rs
--rt
--rta
--rte
--rti
--rto
--rtu
--ru
--ruga
--rum
--run
--rus
--ry
--s
--sa
--sal
--sas
--sau
--sca
--scu
--se
--ses
--sh
--si
--sia
--sio
--sis
--siu
--sivu
--sk
--ska
--sma
--smu
--smus
--so
--son
--spo
--ss
--ssa
--ssi
--ssis
--sso
--ssu
--st
--sta
--stas
--stio
--sto
--su
--sus
--t
--ta
--tal
--tan
--tana
--tariu
--tas
--tau
--te
--teca
--tei
--ter
--terus
--tes
--th
--ti
--tic
--ties
--tin
--ting
--tio
--tion
--tions
--tis
--tiu
--tiva
--tivas
--tivu
--tivus
--tizacio
--tney
--to
--ton
--toriu
--tos
--tra
--tre
--tru
--ts
--tt
--ttle
--tu
--tual
--tura
--turas
--tus
--ty
--tz
--u
--ual
--uga
--uhu
--ui
--uju
--ul
--ulo
--ult
--um
--un
--ur
--ura
--us
--ux
--uzil
--uzio
--v
--va
--van
--vaol
--vas
--ve
--vi
--vic
--viera
--vis
--vo
--voca
--vu
--vus
--w
--wn
--x
--xa
--xo
--xu
--y
--ya
--yendu
--yi
--yin
--yo
--ys
--z
--za
--zacio
--zagi
--zal
--zas
--zaus
--ze
--zi
--zio
--zo
--zon
--zu
--α
--η
--ι
--ις
--ν
--νι
--νον
--ο
--ρι
--ς
--τα
--υ
--υς
--ψα
--ω
--م
--ى
