!
"
#
##0
##1
##10
##11
##12
##13
##14
##15
##16
##17
##18
##19
##2
##20
##21
##22
##23
##24
##25
##26
##27
##28
##29
##3
##30
##31
##32
##33
##34
##35
##36
##37
##38
##39
##4
##40
##41
##42
##43
##44
##45
##46
##47
##48
##49
##5
##50
##51
##52
##53
##54
##55
##56
##57
##58
##59
##6
##60
##61
##62
##63
##64
##65
##66
##67
##68
##69
##7
##70
##71
##72
##73
##74
##75
##76
##77
##78
##79
##8
##80
##81
##82
##83
##84
##85
##86
##87
##88
##89
##9
##90
##91
##92
##93
##94
##95
##96
##97
##98
##99
$
%
&
'
(
)
*
+
,
-
.
/
0
00
000
01
0140
02
03
04
05
06
07
08
09
1
10
100
1002
101
1016
104
106
11
110
116
12
120
124
125
126
128
13
14
14651858
15
150
153
16
17
1776
179
18
180
182
19
1907
1910
1911
1912
1917
1918
1920
1927
1929
193
1932
1935
1940
1941
1942
1944
1945
1946
1949
1950
1951
1952
1953
1954
1956
1957
1958
1959
1960
1961
1962
1963
1964
1965
1966
1967
1968
1969
1970
1971
1972
1973
1974
1975
1976
1977
1978
1979
198
1980
1981
1982
1983
1984
1985
1986
1987
1988
1989
1990
1991
1992
1993
1994
1995
1996
1997
1998
1999
2
20
200
2000
2001
2002
2003
2004
2005
2006
2007
2008
2009
2010
2011
2012
2013
2014
2015
2016
2017
2018
2019
2020
2021
2022
21
210
22
220
23
230
235
24
240
25
250
258
26
261
262
27
270
28
29
293
3
30
300
31
316
32
320
33
34
35
350
36
37
38
380
39
4
40
400
41
42
43
44
45
451
46
47
48
49
5
50
500
51
52
53
54
55
56
57
58
6
60
61
63
65
6736
7
70
700
707
71
72
727
73
737
74
747
75
750
76
77
78
8
80
800
81
82
83
84
85
87
9
90
900
91
92
93
94
95
96
97
978
98
9837
99
:
;
<
=
>
?
[
\
]
^
_
`
a
aa
aba
abo
abortion
about
absolute
ac
accessed
acellular
acid
act
ad
adjective
administrative
adolescent
adopted
adverb
ae
afghanistan
aforika
africa
african
africans
afrika
afrikaans
afrikaner
after
against
age
agency
aha
ahloleloa
ahmed
aids
air
airlines
airplanes
airport
aka
akarelletsa
akaretsa
akaretsang
al
albamo
album
alchemy
alexander
alfred
algeria
alice
align
aliwal
all
alliance
also
alternative
am
ama
amahanngoa
amahlathi
amana
amanang
amang
amapiano
amathole
ameha
amehang
america
american
amerika
amohela
amohelang
amoheloa
amohetse
amsterdam
an
ana
analysis
anc
and
ang
angola
answer
anthem
anti
antibiotic
any
ao
apara
apartheid
apple
april
arab
araba
arabela
archive
archived
are
area
arguments
arms
arohana
arohaneng
arola
arolelana
aroloa
arotsoe
art
arthur
article
arts
as
asia
ask
associated
association
asteroid
at
ata
ate
athe
atile
atileng
atisa
atlantic
atleha
atlehileng
august
australia
austria
autonomous
avengers
awards
azerbaijan
b
ba
baahi
baartman
babe
babedi
babeli
baboledi
baboon
babuelli
bach
bacha
bachelor
back
bad
baden
badly
badudi
baegepeta
baemeli
baesekele
baeta
baetapele
baeti
baetsi
bafaladi
bafe
bafokeng
bafubedu
bafubelu
bafula
bahahlauli
bahanyetsi
bahlabani
bahlahlobisisi
bahlaping
bahlodisane
baholo
baithuti
baitseki
bajaki
baka
bakaakang
bakae
bakana
bakang
bake
bakeng
bakgunong
bakgutshwanyane
bakhunong
bakhutshoaneane
bakile
bakoang
baktheria
baku
bakubung
bakuli
bakwa
bakwang
bakwena
bala
balebeli
baleha
balekane
balelele
bana
banab
banana
banareng
bane
banene
baneng
bang
bangata
bangladesh
bank
banka
banna
bantu
banyane
bao
bapala
bapalami
bapedi
baphuthing
bapinki
bapisa
bapisoa
bapresidente
baputsoa
baputswa
bara
barack
bararo
barbara
bareki
basadi
basading
basali
basebeletsi
basebetsi
based
basehla
basele
basesane
basoeu
basootho
basotho
basutoland
basweu
batala
bataung
batenya
batho
bathong
bathusi
batjha
batjhitja
batla
batlang
batle
batlile
batloung
batona
batonana
bats
batshehadi
batsho
batshweneng
batsoali
bavaria
bay
bbc
bcg
be
beach
beau
beaufort
beautiful
become
bed
beef
been
beg
beha
beke
bekeng
bela
belarus
beleha
belehwa
benedito
beng
benin
berea
berlin
bese
betri
better
between
beyers
bgcolor
bicycle
biden
big
bile
bileng
bilione
billboard
bina
bing
biography
birth
bitcoin
bite
bits
bitsa
bitsitse
bitsoa
bitsoang
bitswa
bitswang
bizana
biznews
bja
bjalo
black
blanket
bless
blindness
bloemfontein
bloomberg
blue
bmj
bo
boahelani
boahloli
bobe
bobebe
bobedi
bobeli
bobodu
bobolu
bocha
bochabela
bochochisi
bodikela
bodumedi
boeing
boela
boema
boemeli
boemo
boemong
boeona
boetapele
boetse
bofe
bofelong
bofetoheli
bofubedu
bofubelu
bofuma
bogolo
bohahlauli
bohanyetsi
bohareng
bohlale
bohlano
bohle
bohloko
bohlokoa
bohlokwa
boholo
boholong
boikarabello
boikemisetso
boiketlo
boikutlo
boima
boimana
boinots
boipelaetso
boiphihlelo
boipiletso
boipuso
boiteko
boithabiso
boitlamo
boits
boitsebiso
boitshwaro
bokaakang
bokae
bokamoso
bokana
bokella
bokelloa
bokgoni
bokgunong
bokgutshwanyane
bokhoni
bokhunong
bokhutshoaneane
boko
bokolone
bokuli
bolaea
bolaile
bolaoa
bolaoli
bolaya
bolayang
bolela
bolelang
bolelele
bolella
boleloa
bolelwa
bolelwago
boleng
bolepi
boletse
boletsoeng
bolo
boloetse
boloka
bolokehileng
bolokile
bolokiloe
bolokolohi
bolou
bolulo
bolumeli
bolwetse
bomasepala
bomenemene
bomme
bomong
bona
bonahala
bonahalang
bone
bonene
bong
bongaka
bongata
bonna
bonnete
bonngoe
bonoa
bonolo
bonono
bonts
bontsha
bontshang
bonyane
boo
book
books
bopaki
bophahamo
bophara
bophelo
bophelong
bophirima
bophirimela
bopinki
bopresidente
boputsoa
boputswa
boralitaba
boraro
borena
borithane
bork
born
boroa
borwa
bosehla
bosele
bosesane
bosholu
bosiu
bosnia
bosoeu
bosootho
bosweu
botala
boteng
botenya
bothata
botho
botjha
botjhaba
botjhabela
botjhitja
botlalo
botlamuoeng
botle
botlokotsebe
boto
botona
botonana
bots
botsa
botshehadi
botsho
botsitso
botswana
botumo
bouto
box
boy
brazil
brithani
british
brno
broom
brooms
brown
bua
buang
bucharest
buella
buffalo
buile
buisana
buka
bukantsoe
bukantswe
bula
bulehileng
buoa
burden
burger
burgersdorp
burundi
bus
busang
bush
bushpig
but
buterin
butha
buthe
butle
buuoa
buuoang
by
c
ca
cabinet
california
call
cambridge
cameroon
camptown
can
canada
canal
canaria
canarias
canary
cannabis
cao
cap
cape
capital
capricorn
capture
car
care
cars
castle
category
cattle
cause
causes
cd
cdc
cell
cemetery
census
center
centers
central
centre
certain
chaena
change
chankaneng
channel
chapter
charles
chart
charts
chate
chechisoa
check
chelete
chesang
chicken
chickens
chief
chiefs
child
children
chile
china
chinese
chris
citation
cities
citizen
city
clan
class
classes
clear
clinical
clinton
close
cm
co
coat
cochrane
college
colombia
colony
colour
coloured
coloureds
colspan
columbia
columbus
com
come
commercial
commission
common
commonwealth
community
comoros
computer
concord
congo
congress
construction
contraception
control
copy
coronavirus
cosafa
cosatu
cough
could
counties
countries
country
county
cov
covid
cow
cows
crane
cream
create
crocodile
crosby
ct
cub
culture
cup
current
cut
cyan
cyril
d
da
dabi
daily
dailymaverick
dark
data
database
date
david
day
dc
de
dead
deal
death
dec
december
decoration
degree
del
delaware
democratic
democrats
demokrasi
demonstrative
denmark
department
departments
der
derivative
des
details
determined
determines
development
dew
di
diagnosis
diaparo
dibakeng
dibeke
diboko
dibouto
dibuka
dictionaries
dictionary
die
diente
dieta
dife
different
dihlopha
dijithale
dijo
dikarolo
dikeledi
diketsahalo
diketso
dikgang
dikgetho
dikgoho
dikgomo
dikgwedi
dikhothane
dikobo
dikokwanahloko
dikolo
dikolobemoru
dilemo
dilemong
dimakatso
dimilione
diminutive
dimpho
dinaha
dinaheng
dinako
dinama
ding
dintho
dintja
dintsintsi
dinwamadi
dipalo
dipatlisiso
dipere
diphoofolo
dipina
dipolotiki
diporofense
dipotso
dipuo
diqoso
direction
disease
diseases
disebediswa
disebo
disele
district
districts
ditaba
ditekanyetso
diteko
ditho
dititjhere
ditjhaba
ditjhelete
ditlamorao
ditokelo
ditonana
dits
ditsela
ditsheho
ditshwaetso
divided
divouto
dj
djibouti
dlamini
dna
do
does
dog
dogs
doi
donkey
down
dr
drama
dress
drink
drug
du
dubai
duiker
dula
dulang
dumas
dumela
durban
during
dutch
e
ea
eaba
eang
eanong
earth
east
eastern
eat
eba
ebe
ebeletso
ebelisano
ebeliso
ebetso
ebetsong
ebile
ebola
economic
economist
ecuador
ed
edition
education
edward
ee
eena
efe
eff
effect
egepeta
eggs
ego
ehali
ehelitsoeng
ehetsa
ehetsi
ehetso
eka
ekaba
eketsa
eketseha
eketsehileng
el
ele
elela
eleng
elephant
eletseng
elizabeth
elliott
elsevier
elundini
elvis
ema
eme
emela
emelang
emergency
emetse
emirates
emisa
emma
empa
empty
en
ena
enca
encyclopedia
ene
eng
engelane
england
english
enjene
enta
ente
entertainment
entoa
entse
entseng
entsoe
entsoeng
entswe
entsweng
entwa
entwe
enyehelo
eo
eohle
eona
ep
epe
epehi
epidemiol
epidemiology
epo
era
eritrea
error
es
esale
eseng
esita
estonia
et
etela
etella
etelletseng
etelletsoeng
ethiopia
etlehile
etsa
etsahala
etsahetse
etsahetseng
etsang
etse
etselitsoe
etso
etsoa
etsopele
etswa
etswang
europe
european
evening
evidence
example
excuse
executive
exist
expanding
export
f
fa
face
facebook
fact
fallela
family
fana
fanang
fane
fanoeng
fapana
fapane
fapaneng
fariki
fats
fax
fe
feberu
february
federal
federation
fedisa
fedtraw
feela
fela
feleng
feletseng
felisa
felisoa
fella
felletseng
female
feminine
feta
fetang
fetelletseng
fetesisa
fetileng
fetisa
fetisisa
fetisoa
fetiswa
fetoha
fetohang
fetohile
fetola
fetolela
fetoloa
fever
fezile
fgm
fiela
fifa
fight
fihla
fihlela
fihlile
file
filimi
filiming
film
filosofi
financial
finland
first
fish
flag
flags
fly
fo
fofa
fokola
fokolang
fokotsa
fokotseha
fokotsehile
folaga
folakha
foleng
fonane
fonaneng
food
football
for
fora
forbes
foreisetata
foreistata
form
forms
fort
fosahetse
fosahetseng
found
foundation
fr
franc
france
francis
free
freedom
freistata
french
friend
friends
from
fromea
front
ft
fu
fubedu
fubelu
fula
fumana
fumane
fumaneha
fumanehang
fumaneng
fumanoa
fumanwa
fumanwe
fuoa
fuoe
fuselage
futhi
futsanehileng
future
fuwa
fuwe
g
ga
gallery
gauta
gauteng
ge
gedleyihlekisa
general
geneva
genital
george
georgia
gift
gifts
ginwala
girl
girls
given
giyani
global
go
goat
goats
goba
gold
golden
good
goodbye
google
gordhan
gore
goud
gov
government
gqabi
grahamstown
gran
grandfather
grazing
great
greater
greek
green
grey
group
guardian
guayaquil
guidance
guide
guinea
gupta
gurira
gynecology
h
ha
haba
habeli
habo
habonolo
hadi
hae
haeba
haga
haha
haholo
haholoanyane
haholoholo
hajoale
hakae
hakanya
hale
halofo
hamburg
hamilton
hammoho
hamorao
hampe
hamphani
hana
hanang
hang
hangata
hanne
hansen
hantle
hantlentle
hanyane
hanyetsa
hanyetsanang
hao
hapa
hape
hapile
hapileng
har
hara
harding
hare
has
hasana
hat
hatella
hatholike
hatisa
hats
hau
haufi
haufinyane
have
he
head
healdtown
health
hebrew
helena
helicopters
hello
help
helper
hema
hemik
hepatitis
here
herzegovina
heso
hi
high
highest
hill
hillary
hilomithara
hindi
hip
hippopotamus
hira
hiriloeng
his
histori
historing
history
hit
hiv
hlaba
hlaha
hlahang
hlahe
hlahelletseng
hlahetse
hlahetseng
hlahile
hlahileng
hlahisa
hlahisitse
hlahisitsoe
hlahisitsoeng
hlahisoa
hlahisoang
hlahiswa
hlahlama
hlahlamang
hlahloba
hlahlojoa
hlahlojwa
hlaka
hlakileng
hlakola
hlakoloa
hlakubele
hlalosa
hlalosang
hlalositsoe
hlalosoa
hlalosoang
hlano
hlaseloa
hlatswa
hle
hleng
hlo
hloahloa
hloka
hlokahala
hlokahalang
hlokahetse
hlokang
hloko
hlokoa
hlokomela
hlokometse
hlola
hloleha
hlompha
hlomphehang
hlompho
hlooho
hlophisa
hlophisitsoeng
hlotse
ho
hoa
hoba
hobane
hobaneng
hobe
hodima
hodimo
hoek
hofe
hofihlela
hofubedu
hofubelu
hoholo
hoja
hokaakang
hokae
hokana
hokgunong
hokgutshwanyane
hokhunong
hokhutshoaneane
hola
hole
holelele
holim
holimo
holisa
holo
holy
home
hona
honene
hong
hongata
honthinente
honyane
hoo
hop
hopinki
hopkins
hoputsoa
hoputswa
hore
horse
horses
hosehla
hosele
hosesane
hosoeu
hosootho
hosweu
hotala
hotenya
hotjha
hotjhitja
hotle
hotloha
hotona
hotonana
hotshehadi
hotsho
house
how
hoya
hp
htm
html
http
https
huge
hula
human
hungary
hunter
hut
i
iai
iberia
iceland
id
idiom
idioms
if
ii
iii
ikamahanya
ikarabella
ikemetse
ikemetseng
ikemiselitse
ikemiselitseng
ikgethang
ikhethang
ikhethileng
ikhula
ikopanya
ikutloa
ila
ilafalo
ile
ileng
ilia
im
ima
imo
imoloho
important
in
ina
include
indasteri
independent
index
india
indicate
indicates
indonesia
inehela
infection
infectious
infobox
information
ing
instagram
instance
instead
institute
int
international
inthaneteng
into
iol
ipapisitse
ipatileng
ipl
iponahatsa
iprage
ipusang
iran
iraq
ireland
ireletsa
ireletso
is
isa
isbn
isi
island
islands
iso
isoa
issn
issues
it
italy
itekanetseng
ithali
ithuta
ithutile
itiso
itoe
itokolla
itokolle
its
itse
itseng
iu
izikhothane
j
ja
jack
jackson
jacob
jama
james
jan
january
japane
japanese
jazz
jeff
jeffreys
jele
jeokrafi
jeremane
jersey
joale
joalo
joaloka
joalokaha
joang
joe
johannesburg
john
johns
johnson
joins
jordan
jose
joseph
journal
joyous
jul
julius
july
june
justice
jwale
jwalo
jwaloka
k
ka
kaakang
kaap
kabo
kabza
kae
kaha
kahare
kahisano
kahlolo
kahlolong
kaho
kaholimo
kahoo
kajeno
kakaretso
kakhulu
kako
kalafo
kalimbwe
kamano
kamehla
kamma
kamo
kamoo
kamora
kana
kanale
kananelo
kang
kanna
kantle
kaofela
kapa
kapele
kappa
karabelo
karabo
kariki
karohano
karolelano
karolo
karolong
kasumba
katleho
katoloso
katse
kau
ke
kei
keketseho
keledi
kelello
kelellong
kena
kenana
kenang
kene
kenela
kenella
kentse
kenya
kenyeleditse
kenyelelitsoe
kenyeletsa
kenyeletsang
kenyeletsoa
kenyeletswa
kenyelletsa
kenyelletsang
kereke
kerekeng
ketane
kete
ketsahalo
ketso
kg
kgafetsa
kgahlanong
kgale
kgang
kgauta
kgetha
kgethollo
kgethwa
kgoedi
kgohlela
kgoho
kgolo
kgomo
kgona
kgone
kgothaletsa
kgothaletswa
kgotso
kgotsong
kgubedu
kgunong
kgutla
kgutshwanyane
kgwedi
kgweditharo
khabinete
khaello
khafetsa
khahlano
khahlanong
khaitseli
khale
khampani
khamphani
khang
khanya
khanyetso
khaola
khatello
khatiso
khato
khau
khauta
khaya
khetha
khethehileng
khetheloa
khethiloe
khethiloeng
khetho
khethoa
khetholla
khethollo
kho
khoebo
khoekhoe
khoeli
khoeling
khohlela
khoho
khoisan
kholo
khomishene
khomo
khona
khopolo
khothalelitse
khothaletsa
khothaletsoa
khotso
khoutu
khoza
khubelu
khunong
khutla
khutlela
khutlisa
khutlisetsa
khutlisitsoe
khuts
khutshoaneane
khutsitseng
kile
kileng
killer
king
kingdom
kings
kirkwood
kiss
km
know
known
ko
koahela
koalloa
koaloa
kobo
koetlisa
koetliso
kokwanahloko
kolecheng
kolobe
kolobemoru
kolobeng
koloi
koluoa
komisi
komiti
kong
konteraka
kontinente
kontinenteng
kopa
kopana
kopanang
kopane
kopanela
kopaneng
kopanngoa
kopano
kopanong
kopanya
kopile
kopo
koranta
korea
kosovo
kotsi
kotsing
kou
kouga
kraj
kroatia
kroonstad
ku
kubu
kudu
kula
kutloisiso
kw
kwaito
kwala
kwazulu
kwena
l
la
labohlano
labone
laboraro
lady
laela
lahla
lahleheloa
lakatsa
lancet
lane
language
languages
laola
lapeng
las
latela
latelang
lateloa
latex
latin
latola
laugh
laughters
law
le
league
leano
lebaka
lebala
lebaleng
lebatooa
lebe
lebelo
lebese
lebisa
lebisang
lebisitse
lebitso
leboa
leboea
leboha
lebopo
lebopong
lebota
lebotho
lebowa
leboya
lecha
leele
leeto
lefa
lefapha
lefapheng
lefats
lefatshe
lefatsheng
lefe
lefielo
lefile
lefu
lefuba
lefubedu
lefubelu
lefung
lefutso
lego
leha
lehae
lehlakore
lehlakoreng
lehloyo
lehoatata
leholimo
leholo
leishmaniasis
lejwe
leka
lekaakang
lekae
lekala
lekana
lekanang
lekaneng
lekgetlo
lekgolo
lekgotla
lekgunong
lekgutshwanyane
lekhetho
lekhetlo
lekholo
lekholong
lekhotla
lekhotleng
lekhunong
lekhutshoaneane
lekola
lekunutu
lelapa
lelapeng
leleka
lelekoa
lelele
lelelele
leleme
leloko
lemoha
lena
lenane
lenaneng
lenaneo
lenaneong
lenene
leng
lengata
lengolo
lenngoeng
lentsoe
lenyalo
lenyane
leo
leoatle
leoatleng
leopard
lepatong
lepera
lepetjo
lepheo
lepinki
leprosy
leputsoa
leputswa
leqephe
leqhubu
lerato
leribe
lerotholi
leruo
lesea
lesehla
lesela
lesele
leseli
leseling
lesesane
leshome
lesoeu
lesole
lesootho
lesotho
lesweu
letaba
letala
letenya
lethathamong
letho
letjha
letjhitja
letlalo
letlapa
letle
leto
letona
letonana
letoto
letotong
lets
letsatsi
letsatsing
letse
letshehadi
letsho
letsie
letsoalo
letsoho
letter
lgbt
li
lia
lialbamo
liaparo
libaka
libakeng
libaktheria
libeke
liberia
libese
libetsa
libini
liboko
libomo
libouto
librarian
libuka
libya
lichaba
lichelete
liente
lifaele
lifate
life
lifilimi
lifiliming
lifofane
lifolakha
light
lihlahisoa
lihlekehleke
lihlekehlekeng
lihlong
lihlooho
lihlopha
lihora
lijana
lijo
lik
likamano
likarabo
likarolo
likaroloana
likarolong
likeleli
likepe
likete
liketsahalo
liketso
likgoedi
likhakanyo
likhang
likhase
likhau
likhetho
likhethong
likhoeli
likhohlano
likhoho
likhokahano
likhomo
likhopolo
liki
likobo
likokoana
likolo
likolobemoru
likoloi
likopano
likopi
likotsi
lilemo
lilemong
liletsa
lille
limakatso
limaske
limela
limilione
limited
limithara
limo
limpho
limpopo
linaha
linaheng
linako
linaleli
linama
line
ling
lingoliloeng
lingoloa
link
linomoro
lintho
lintja
lintlha
lintoa
linyeoe
lion
lipakeng
lipaki
lipalangoang
lipale
lipalo
lipampiri
lipapali
lipatlisiso
liperesente
liphallelo
liphate
liphatlalatso
liphetho
liphetoho
liphio
liphoofolo
lipina
lipolotiki
lipolotiking
lipotso
liprofinse
lipuisano
lipuisanong
lipuo
lipuong
liqeto
liqoso
liranta
lirekoto
lisebelisoa
lisebo
lisekoere
list
lit
litaba
litefo
litekanyetso
liteko
literal
literally
litereke
lithaba
lithahasello
lithane
litheipi
litheko
lithethefatsi
lithibela
lithibelo
litho
lithuto
litlaleho
litlamorao
litlhaloso
litlhapi
litlhoko
litloaelo
litloholo
litlolo
litokelo
litoropo
lits
litsebi
litsela
litsheho
litsi
little
livaerase
live
livouto
lla
lo
loana
loants
loanword
local
loetse
lohle
lokela
lokelang
loketseng
lokisa
lokisoa
lokolla
lokolloa
lokolloe
lokollotsoe
lokollotsoeng
loma
lona
london
long
longwa
lonmin
lord
lorry
los
louis
love
lower
lua
luck
lufthansa
lula
lulang
lumela
lumella
lumellana
lumellane
luthuli
lwana
lwetse
m
ma
maaforika
maafrika
maano
maarabia
mabaka
mabanta
mabapi
mabe
mabedi
mabeli
mabitso
mabotho
machaba
machabeng
madagascar
made
madi
madikizela
madrid
maele
maemo
maemong
maeto
mafe
mafelong
mafeteng
mafielo
mafolofolo
mafora
mafu
mafubedu
mafubelu
mafung
mafura
magashule
magazine
mahala
mahareng
mahe
mahlaba
mahlale
mahlano
mahlo
mahlobo
maholo
maiketsetso
maikutlo
mail
majoe
major
makaakang
makae
makala
makana
makasine
makatsang
makatso
make
makeisheneng
makes
makgoba
makgolo
makgunong
makgutshwanyane
makhapetla
makhetlo
makholo
makhotla
makhubu
makhunong
makhutshoaneane
makomonisi
mala
malagasy
malapa
malapeng
malaria
malawi
male
malelele
malema
maleme
mali
maloa
malta
malwetse
mamela
mamello
mamoseleme
man
management
mananeo
mandela
mane
manene
mang
mangata
mangaung
mangolo
mangwe
mantaha
mantlha
mants
mantsoe
manual
many
manyalo
manyane
maoatle
maoto
map
maphorisa
mapinki
mapolesa
maputsoa
maputswa
marabi
maraka
marang
mararo
march
mare
marena
mariha
marikana
maro
martin
maruleng
mary
masea
masehla
masekela
masele
maselese
masepala
maseru
masesane
mashome
mask
maske
masks
masoeu
masole
masootho
master
masweu
matala
matenya
matha
mathata
mathoasong
mathomo
matichere
matjha
matjhaba
matjhitja
matla
matlafatsa
matle
matlo
matona
matonana
mats
matsatsi
matsatsing
matsete
matshehadi
matsho
matshwafong
matshwao
matsoalloa
matsoho
maverick
max
may
mayotte
mazulu
mbeki
mbhashe
mccain
mcconnell
mdr
me
meaho
meaning
measles
meat
mebe
mebuso
mecha
media
medical
medicine
mediterranean
meeli
mefe
mefubedu
mefubelu
mefuta
mehala
mehato
mehla
mehlala
mehlano
mehleng
meholo
mehopolo
mekaakang
mekana
mekete
mekgunong
mekgutshwanyane
mekgwa
mekha
mekhahlelo
mekhatlo
mekhoa
mekhunong
mekhutshoaneane
mekorotlo
melao
melapo
melata
mele
melelele
melemo
meleng
meli
melumo
mene
menene
meng
mengata
menyane
menyetla
mepinki
meputsoa
meputswa
merabe
merafo
meraro
merero
meriana
meru
merusu
mese
mesebetsi
mesehla
mesele
mesesane
mesoeu
mesootho
mesweu
metala
metenya
methapo
metjha
metjhitja
metle
metona
metonana
metse
metseng
metshehadi
metsho
metsi
metsimaholo
metsing
metso
metsoalle
metsotso
mexico
mhlaba
mi
michael
microbiology
middle
milione
military
milk
million
mine
mining
minisi
minister
mino
mm
mmala
mmalwa
mmasepala
mme
mmedi
mmele
mmeleng
mmesa
mmino
mmoho
mmole
mmoro
mmus
mmuso
mmutla
mnquma
mo
moafrika
moahi
moahlodi
moahloli
moamoheli
mobe
mobu
mocha
mocheso
mochini
mochochisi
model
modulasetulo
module
modumo
moea
moeeng
moelelo
moeletsi
moeli
moeling
moemeli
moetapele
moeti
moetlo
moetlong
moetsi
mofe
mofolo
mofubedu
mofubelu
mofuta
mohala
mohale
mohanyetsi
mohato
mohau
mohla
mohlabani
mohlahisi
mohlahlobi
mohlala
mohlodi
mohlokomedi
mohlokomeli
mohloli
mohlomong
mohlophisi
moho
mohoebi
mohokare
moholo
mohope
mohopolo
moithuti
moka
mokaakang
mokae
mokana
mokete
moketeng
mokga
mokgahlelo
mokgatlo
mokgoro
mokgunong
mokgutshwanyane
mokgwa
mokha
mokhatlo
mokhatlong
mokhehle
mokhethoa
mokhoa
mokhoro
mokhotlong
mokhunong
mokhutshoaneane
mokokotlo
mokoloto
mokopi
mokorotlo
mokotla
molaetsa
molao
molaoli
molaong
molaotheo
molato
molekane
molelele
molemo
molemong
molimo
moloko
molomo
molula
molulasetulo
molumo
mona
monate
monene
money
mong
mongata
monghali
mongodi
mongoli
monna
month
monyane
monyenyane
monyetla
moo
mookameli
moon
mopani
mopapa
mopinki
moporesidente
mopresidente
moprofesa
moputso
moputsoa
moputswa
moqapi
moqebelo
moqhaka
moqolotsi
moqosi
mor
mora
morabe
morali
moralo
morao
morara
more
morekisi
morena
morero
morethetho
moriana
morija
morning
morobe
morocco
moroko
moroto
mortality
moru
moruo
moruong
moruti
mosadi
mosali
moscow
mose
mosebeletsi
mosebetsi
mosebetsing
mosehla
mosele
mosesane
moshanyana
moshemane
moshoeshoe
mosireletsi
mosoeu
mosootho
most
mostly
mosuoe
mosweu
motala
motenya
motha
mothehi
motheo
mother
motho
mothusi
motjha
motjhitja
motlakase
motlanthe
motlatsi
motle
motona
motonana
mots
motsamaisi
motsana
motse
motsekapa
motsemoholo
motseng
motsheanong
motshehadi
motsho
motso
motsoako
motsoalle
motswako
mount
mountain
mouth
movement
moya
mozambique
mp
mpa
mpe
mphalane
mphela
mpho
mphonyana
mpshe
mpumalanga
mthethwa
mtn
much
muelli
mugabe
multi
municipalities
municipality
munusamy
music
musisi
muso
must
mutilation
mutton
my
mycobacterium
n
na
naga
naha
nahana
naheng
nai
nakamoto
nako
nakoana
nakong
nakwana
nalane
nalaneng
nale
nam
nama
name
namela
names
namibia
namibian
nang
nare
nascar
natal
natala
nation
national
nations
nato
naude
ncha
nchafatsa
ncov
ndebele
ndlambe
ndpp
ne
neane
nec
nek
nelson
nene
neng
neonatal
nepahetseng
nepo
net
nete
netefalitsoeng
netefatsa
netherlands
network
new
news
newspaper
ng
nga
ngaka
ngata
ngcuka
ngoana
ngoe
ngola
ngolisoa
ngolla
ngotse
ngotsoe
ngotsoeng
ngqushwa
nguni
ngwana
ngwathe
nh
nhlokomhaka
ni
nice
nicely
nichd
nicholson
nigeria
night
nih
nil
nile
nka
nkandla
nkang
nkeloa
nkile
nkiloeng
nko
nkoa
nkoe
nkosazana
nku
nkuoa
nkwe
nna
nne
nnete
nngwe
no
noka
nomoro
north
northern
norway
not
note
noun
nouns
novel
november
npa
ntantala
ntaramane
ntat
ntate
ntatemoholo
ntho
nthusa
ntja
ntjha
ntlafatsa
ntlafatso
ntle
ntlha
ntlo
ntlong
ntlu
ntoa
ntoeng
ntombela
nts
ntse
ntseng
ntsha
ntshetsopele
ntsho
ntuli
num
number
nwa
nyala
nyalane
nyaloa
nyane
nyatsa
nyenyane
nyenyefatsa
nyeoe
nyeoeng
nzo
o
oa
oaelitsoeng
oaetsanoang
oaetso
oaetsoa
oana
oanang
oane
oants
oanyane
oao
oara
oarelo
oaro
oaroa
oaruoa
obama
obstetrics
ocean
oceania
october
oele
oeu
of
ofe
official
ofisi
ohle
okelo
old
oli
olo
omis
on
ona
onchocerciasis
one
ong
online
only
oo
oona
open
opereishene
opinion
or
orange
org
organisation
organization
origin
original
orthography
other
otla
otlego
our
out
outbreak
over
own
oxford
p
pa
pac
pacific
page
pakeng
palamente
palamenteng
pale
palesa
palin
palmer
palo
pampiri
pan
pandemic
panther
papali
paper
paramente
paris
parole
part
party
past
pathogen
patlisiso
patricia
paul
pcr
pdf
peace
pedi
peisong
pejana
pel
pela
pele
pelehi
peli
pen
peo
people
pepa
pere
perehadi
peresente
perfect
person
perspectives
pertussis
peru
peter
peto
phahama
phahameng
phalaborwa
phallela
phallo
phapang
pharaletseng
pharalletseng
phatlalalitse
phatlalalitsoe
phatlalalitsoeng
phatlalatsa
phatlalatso
phatlalatsoa
phatloha
phato
pheha
phekolo
phela
phelang
phello
phepo
pherekano
pherekgong
pherekhong
pheta
phetha
phethahala
phethahatso
phethile
phetisetso
phetiso
phetoang
phetohelo
phetoho
phetolelo
phetse
phetseng
philadelphia
philippines
pho
phoka
phokotso
pholletsa
phomola
phoofolo
phoso
phrases
phumantsho
phupjane
phuptjane
phupu
phuputso
phuthi
phyllis
piano
pietermaritzburg
pig
pina
pink
pinki
pitika
place
planning
platinum
play
plural
pluto
pmc
pmid
pneumonia
po
podi
pokello
poland
polanete
polao
polelo
poleloana
polio
polokeho
polokwane
pono
poone
pop
popelong
population
pork
porofense
porofenseng
porofensi
port
portugal
portuguese
position
positions
poso
possession
possessive
post
pota
potileng
potlakileng
potlako
potoloha
potoloho
potso
pp
pravin
prayer
prefixes
pregnancy
premier
present
president
presley
press
pressreader
pretoria
prevention
price
probably
production
profinse
profinseng
pronoun
pronouns
protocol
provense
proverbs
province
provinces
psychology
pub
public
published
pudungwana
puisano
puisanong
pula
pule
pulungoana
puo
puong
puso
putlama
putsoa
putswa
q
qacha
qala
qalang
qalile
qalileng
qalong
qantas
qeta
qetela
qetella
qetellong
qetile
qetileng
qeto
qhala
qhoma
qoba
qobella
qobelloa
qoqa
qosa
qoso
qosoa
quantitative
quantity
question
questions
quthing
r
ra
rabara
rabbit
rabies
race
radibuka
radio
rafilosofi
raha
ralipolotiki
ramaphosa
ramotse
rang
ranjeni
rao
rapela
rarahaneng
rarolla
rasaense
rashea
rata
ratang
ray
raymond
rd
re
read
real
rec
record
red
ref
refer
region
regional
regions
reha
rehoa
reka
rekisa
rekisitse
rekisoang
rekota
rekoto
related
relation
relations
rena
renault
reng
rephabliki
rephaboliki
report
reproductive
republic
rera
reretsoe
rerile
reschorente
research
retrieved
return
returned
reuters
review
reviews
rhine
rhodes
richard
riga
rin
rio
risa
river
ro
road
roala
robala
robbins
robedi
robeli
robert
robong
roma
romania
romeloa
rona
rooyen
rosado
round
route
rttemberg
ru
rubber
rubella
ruileng
russia
ruta
rwanda
s
sa
sabc
sacp
sadc
sadr
saena
saense
sahara
sahel
sahrawi
saint
sala
sale
salesperson
san
sandal
santa
santos
sapa
sarah
sars
saturday
saunders
saxony
schabir
schistosomiasis
school
science
scissors
scorpion
scott
script
se
sea
seafrekanse
seafrikanse
seanamarena
searabia
search
season
seat
sebaka
sebakeng
sebapadi
sebapali
sebe
sebedisa
sebediswa
sebele
sebeletsa
sebelisa
sebelisang
sebelisitse
sebelisitsoeng
sebelisoa
sebelisoang
sebelitse
sebete
sebetsa
sebetsana
sebetsanang
sebetsang
sebetse
sebetseng
sebini
sebo
seboka
sebokeng
seboko
sebopeho
sebui
seburu
sechaba
sechabeng
section
see
seea
seeiso
seeta
sefahleho
sefate
sefe
sefofane
sefora
sefuba
sefubedu
sefubelu
segerike
sego
segujarati
seha
seheberu
sehla
sehlekehleke
sehlekehlekeng
sehlohlolong
sehlooho
sehloohong
sehlopha
sehlopheng
seholo
seipone
sejana
sejeremane
sekaakang
sekae
sekana
sekepe
sekete
sekgahla
sekgunong
sekgutshwanyane
sekhahla
sekholopane
sekhunong
sekhutshoaneane
sekolo
sekolong
sel
selatine
sele
selekane
selelele
selemo
selemong
sell
sells
seme
semelo
semmus
semmuso
semolao
sena
senang
senate
senator
sendebele
senene
seng
sengata
sengoli
sengoloa
senoelo
senola
senotlolo
senqu
sentences
senya
senyane
senyeha
senyehelwa
senyesemane
seo
seoa
sepanishe
sepedi
sepetlele
sepetleleng
sepheo
sephetho
sephutheloana
sepinki
sepoleseng
sepotoketsi
sepotokisi
september
sepuo
seputsoa
seputswa
serbia
seretse
series
seroki
services
sesa
sesane
sesebelisoa
sesehla
sesele
sesesane
sesoeu
sesole
sesoleng
sesootho
sesosa
sesotho
seswati
sesweu
setala
setaliana
seteishene
setenya
setereke
seterekeng
sethala
setho
setifikeiti
setjha
setjhaba
setjhabeng
setjhitja
setle
setona
setonana
sets
setsebi
setseng
setshehadi
setsho
setsi
setsing
setso
setsonga
setswana
setulo
setulong
seven
sevenda
sexhosa
sezulu
shah
shaik
shaka
shall
sheba
shebella
shebile
sheep
sheet
sheridan
shirt
shoele
shoes
short
shwa
siea
sieo
sierra
signs
similar
sing
singapore
singh
single
singular
sireletsa
sistimi
sisulu
site
sitisa
sitoa
six
ske
slovenia
small
smith
so
sobukwe
social
society
socks
soeu
sohle
somalia
some
something
sometimes
sona
song
songs
sontaha
sootho
sotho
south
southern
soviet
soweto
spain
spanish
speak
speaker
special
specific
spelling
spellings
spoken
spotify
spread
sq
square
sr
st
star
state
states
statistics
status
stay
stem
steynsburg
stone
stub
students
studies
studio
study
subject
sudan
suez
suffix
suit
sun
sunday
supa
supileng
supposed
surprises
susumetsa
swanets
swati
swaziland
sweep
sweu
switzerland
syndrome
synonym
systematic
t
ta
taba
tabeng
table
taelo
tahlehelo
takatso
take
tala
tamil
tants
taolo
tataiso
tau
tawana
tb
tbilisi
te
teacher
teachers
tears
tebello
tebileng
tebogo
teide
tekano
tekanyetso
tekanyo
teko
telegram
telegraph
telele
temo
template
tenerife
teng
tense
tenya
tepic
terene
term
teronkong
tesla
th
thaba
thabo
thales
thank
thapelo
tharo
that
thata
the
theatre
theha
thehile
thehiloe
thehiloeng
their
thekiso
theknoloji
theko
thelevishene
theoha
theola
thepa
therapy
there
these
they
thibela
thibelang
thibelo
thibelwa
thick
thimola
thin
things
this
tho
thobalano
thoe
thoeng
thoko
thomas
through
thunngoa
thusa
thusitse
thuso
thuto
ti
tie
tiisa
tikoloho
tikolohong
time
times
timesphela
tjena
tjha
tjhelete
tjhitja
tla
tlaase
tlaleha
tlalehile
tlalehiloe
tlaleho
tlalehoa
tlama
tlameha
tlang
tlas
tlasa
tlase
tlhabollo
tlhahiso
tlhahlobo
tlhaho
tlhaloso
tlhapi
tlhaselo
tlhekefetso
tlho
tlhokahalo
tlhoko
tlhokomeliso
tlhokomelo
tlholisano
tlhompho
tlisa
tlisitsoe
tlo
tloaelehileng
tloaelo
tloha
tlohaea
tlohela
tlolo
tlosa
tlosoa
tlotla
tlotse
tlou
tlwaelehileng
tlwaelo
to
tobana
tobane
tobileng
toeba
together
toka
tokelo
tokoloho
tokomane
tona
tonakgolo
tonakholo
tonana
top
toropo
toropong
tosac
totems
town
township
trade
traditional
train
transkei
translated
translation
transmission
travel
treatment
tresor
trousers
trump
ts
tsa
tsamaea
tsamaeang
tsamaile
tsamaisa
tsamaisang
tsamaiso
tsamaisoa
tsamaisong
tsamaya
tse
tseba
tsebahala
tsebahalang
tsebang
tsebe
tsebisa
tsebo
tsejoa
tsejoang
tsejoe
tsejoeng
tsejwa
tsejwang
tseka
tsela
tseleng
tsena
tseo
tsepamisitse
tshebediso
tshebeletso
tshebetso
tsheha
tshehadi
tsheho
tsheletseng
tshepo
tshesane
tshisinyo
tshitwe
tsho
tshwaeditsweng
tshwaetsa
tshwaetso
tshwaetswa
tshwaetswang
tshwanang
tshwara
tshwene
tshwere
tsitsitseng
tsoa
tsoang
tsoela
tsoelang
tsoelo
tsoetseng
tsoeu
tsohle
tsona
tsosa
tsosang
tsositsoe
tsosolosa
tsotellehe
tsotsitaal
tswa
tswana
tswang
tswela
tswelang
tswetseng
tsweu
tuberculosis
tulo
tuma
tumellano
tumello
tumelo
tumme
tummeng
turkey
tv
tweba
two
tzaneen
u
ubuntu
uganda
ugly
uhadi
uk
ukraine
un
unam
under
undp
unicef
union
unions
unisa
unit
united
university
univesithi
univesithing
unknown
up
update
urdu
uropa
us
usa
usage
use
used
usually
usumetso
utc
utloa
utloisisa
v
va
vaccine
vaccines
vaerase
valley
value
values
van
variant
various
vatican
venda
verb
version
very
video
vienna
vietnam
vine
virus
viruses
visceral
vlamertinge
voc
volleyball
vote
votes
vouta
voutela
vouto
w
wa
wago
wait
wales
walk
walter
want
war
warthogs
was
washington
watch
water
we
wearing
web
webosaete
weekly
well
wena
went
west
western
westphalia
what
when
where
which
whispers
white
who
whooping
wiki
wikipedia
wild
will
william
williams
winners
winnie
with
witwatersrand
wkly
woman
women
word
words
work
world
worldwide
write
writer
writes
written
wu
wuhan
www
x
xa
xhosa
xi
xitwananisi
y
ya
yaba
ye
year
years
yellow
yena
yeo
yes
yona
yonder
york
you
young
your
youth
youtube
ypres
yr
yugoslavia
yuropa
z
za
zambia
zero
zika
zille
zimbabwe
zondo
zulu
zuma
{
|
}
£
°
²
´
×
ʱ
ˈ
ː
̀
́
̂
̃
̄
̆
̇
̈
̉
̊
̌
̛
̣
̦
̧
̨
̭
͂
ं
स
ा
ि
्
া
ు
​
‎
–
—
‘
’
“
”
†
•
…
″
↔
↷
③
④
⑦
☉
⯓
⺀
⺄
⺆
⺈
⺊
⺌
⺕
⺝
⺸
⺼
⿰
⿱
⿲
⿳
⿴
⿵
⿶
⿷
⿸
⿹
⿺
⿻
〢
コ
ユ
㇁
㇂
㇄
㇇
㇈
㇉
㇓
㐁
㐄
㐅
㐌
㐫
㐬
㐭
㐮
㐱
㑒
㒵
㒸
㒼
㓁
㓞
㔾
㕛
㕣
㖾
㘝
㚅
㚇
㚔
㚘
㝉
㝡
㝴
㝵
㞋
㞢
㞷
㠩
㠭
㠯
㡀
㡭
㡿
㢲
㢴
㣇
㣺
㥯
㪅
㫄
㫐
㫒
㫺
㬅
㬎
㬥
㬰
㲋
㳄
㷠
㸒
㸚
㸦
㼌
㼲
㽞
㿟
䀠
䂞
䍃
䏍
䒑
䖍
䖒
䖝
䖵
䙴
䚻
䜌
䝿
䡛
䧹
䪞
一
丁
丂
七
丄
丅
丆
万
丈
三
上
下
丌
不
与
丏
丐
丑
专
且
丕
世
丘
丙
业
东
丞
丢
丣
两
严
並
丨
丩
个
丫
丬
中
丮
丰
丱
串
丵
丶
丷
丸
丹
为
主
丽
丿
乀
乂
乃
久
乆
乇
么
义
之
乌
乍
乎
乏
乐
乑
乔
乖
乗
乘
乙
乚
乛
乜
九
乞
也
习
乡
乳
乾
亀
亅
了
亇
予
争
事
二
亍
于
亏
亐
云
互
亓
五
井
亘
亚
亜
亞
亟
亠
亡
亢
交
亥
亦
产
亨
亩
享
京
亭
亮
亯
亰
亲
亳
亶
亷
人
亻
亼
亾
仁
今
介
仌
从
仐
仑
仒
仓
仕
他
付
仝
代
令
以
任
企
伊
伏
伐
休
会
伯
但
位
何
佘
余
作
佥
使
來
侈
侌
侖
侯
侵
便
保
俞
信
修
倉
倍
候
倠
備
僉
僕
儿
兀
允
兂
元
兄
充
兆
兇
先
光
兊
克
兌
免
兑
兒
兓
兔
党
兜
兟
入
全
兩
兪
八
公
六
兮
兰
共
关
兵
其
具
典
兹
兼
冀
冂
冃
冄
内
冈
冉
冊
冋
册
再
冎
冏
冐
冒
冓
冖
冗
冘
军
农
冝
冡
冥
冫
冬
冷
几
凡
凢
凵
凶
凷
凸
凹
出
函
凾
刀
刁
刂
刃
刄
刅
分
切
刍
刑
刕
刖
列
刘
则
初
別
利
别
到
制
刺
則
削
剌
前
剡
剽
劉
力
功
加
劦
助
劫
劳
劵
勃
勇
勉
勒
動
務
勞
勤
勹
勺
勻
勾
勿
匀
匂
包
匆
匈
匊
匋
匍
匕
化
北
匚
匝
匡
匪
匱
匸
匹
区
医
匽
匿
區
十
卂
千
卄
卅
卆
升
午
卉
半
卌
华
卑
卒
卓
单
卖
南
卜
卝
卞
占
卡
卢
卣
卤
卦
卩
卪
卬
卯
印
危
即
却
卵
卷
卸
卻
厂
厃
厄
历
厈
厉
厌
厓
厘
厚
原
厤
厥
厨
厭
厲
厶
厷
厸
去
厼
厽
叀
参
參
叅
又
叉
及
友
双
反
叐
发
叒
叔
叕
取
受
叚
叜
叟
口
古
句
另
叩
只
召
可
台
叱
史
右
叵
号
司
叹
吂
各
吅
合
吉
吊
吋
同
名
后
吏
向
吕
君
吝
吞
否
含
启
吳
吴
吹
吾
呂
呆
呈
告
员
呙
周
命
咅
和
咎
咠
咢
咨
咸
咼
哀
品
哉
員
哥
哲
唐
商
啇
問
啚
啬
啻
善
喜
喬
單
喿
嗇
噩
嚴
囊
囗
囘
囙
囚
四
回
囟
因
囧
囬
困
囱
囷
固
国
圂
圅
國
圍
圓
土
圡
圣
圥
在
圭
地
圶
圼
坐
坒
坚
坴
垂
垔
垚
埀
埋
埶
執
基
堂
堅
堆
堇
堯
塞
墨
壘
士
壬
壯
声
壳
壴
壹
壺
壽
夂
处
夅
夆
备
夊
夋
夌
复
夏
夒
夕
外
夗
夘
多
夜
夢
大
夨
天
太
夫
夬
夭
央
失
夲
头
夷
夸
夹
夻
夾
奂
奄
奇
奈
奉
奎
奏
奐
契
奓
奔
奚
奞
奠
奢
奥
奭
女
奴
奻
好
如
妄
妙
妟
妥
妻
妾
姑
委
姜
威
娄
婁
婴
嬰
嬴
子
孑
孔
孕
孖
字
存
孚
孛
孝
孟
季
孤
学
孫
孱
學
宀
宁
宂
它
宅
宇
守
安
宋
完
宏
宓
宗
官
定
宛
宜
宝
客
宣
室
宮
宰
害
家
容
宾
宿
寄
寅
密
富
寒
察
寧
審
寫
寬
寮
寸
对
寺
寻
寽
対
寿
封
尃
射
将
將
專
尉
尊
尋
尌
對
小
少
尒
尓
尔
尖
尗
尚
尞
尢
尣
尤
尧
尨
尭
就
尸
尹
尺
尻
尼
尽
尾
尿
局
居
屈
屋
屎
屏
屑
展
屖
屚
属
屠
屡
屬
屮
屯
屰
山
屵
屾
岁
岂
岑
岡
岩
岳
岸
峯
島
崇
崑
崔
崖
崙
崩
嵬
嶲
巂
巛
川
州
巟
巠
巢
巤
工
左
巧
巨
巩
巫
差
己
已
巳
巴
巷
巸
巽
巾
巿
帀
市
布
希
帚
帛
帝
带
師
席
帶
常
干
平
年
幵
并
幷
幸
幺
幻
幼
幽
幾
广
広
庄
床
底
店
庚
府
度
庫
庭
庶
康
庸
廉
廌
廛
廣
廩
廴
延
廷
建
廾
廿
开
弁
弃
弄
弇
弋
式
弓
弔
引
弗
弘
弜
弟
弥
弦
弱
張
強
强
彊
彌
彎
彐
彑
当
彔
录
彖
彗
彡
形
彥
彦
彧
彭
彳
役
彼
往
待
律
徒
得
徙
從
復
微
徵
心
忄
必
忌
忍
志
忝
忠
忩
快
念
忽
忿
思
怠
急
怱
恆
恒
恩
恭
息
悉
患
悤
悲
悶
惠
惡
惢
愁
愈
意
愛
感
慈
慧
慮
憂
憲
應
戀
戈
戉
戊
戋
戌
戍
戎
成
我
戒
戔
或
戚
戠
戢
截
戲
戶
户
戹
戼
戾
房
所
扁
扇
手
扌
才
打
托
执
承
折
拉
拜
拿
掌
推
提
摩
支
攴
攵
收
攸
改
放
政
敄
敏
敕
敖
敗
敝
敞
敢
散
敦
敫
敬
数
敷
數
斂
文
斉
斊
斗
斤
斥
斩
斬
斯
新
方
於
施
斿
旁
旋
族
无
旡
既
旣
日
旦
旧
旨
早
旬
旱
旲
时
旾
昆
昇
昌
昍
明
昏
易
昔
昗
昜
星
春
昬
是
昱
昴
昷
時
晃
晋
晏
普
景
晶
智
暑
暴
曇
曩
曰
曲
曳
更
曷
書
曹
曼
曾
替
最
朁
會
月
有
朋
服
朔
朕
朗
望
朝
木
朩
未
末
本
札
朮
术
朱
朵
朶
朿
杀
杏
杜
束
条
来
東
杲
杳
松
析
林
枚
果
枝
枲
枼
某
柔
查
柬
柰
柴
栗
桀
桑
桼
梁
條
梟
梨
棘
棠
棥
森
楚
業
楽
榮
樂
樊
欠
次
欣
欮
欲
欶
欽
款
歆
歇
歛
止
正
此
步
武
歨
歪
歮
歯
歰
歲
歴
歷
歸
歹
歺
死
殳
段
殷
殸
殹
殺
殻
殿
毋
毌
母
每
毒
比
毕
毚
毛
毳
氏
氐
民
气
氣
水
氵
氶
氷
永
氺
氾
求
汝
汞
江
沃
沓
沙
沝
泉
法
波
泣
泥
泰
洛
洪
活
派
流
浦
浪
浮
淡
淮
清
渚
渠
湯
滿
漸
火
灬
灭
灰
灵
灷
炅
炎
炏
炗
炙
炭
為
烈
烏
烝
焉
無
焦
焱
然
煞
熊
熏
燕
營
燮
爪
爫
爭
爯
爰
爱
爲
爵
父
爻
爽
爾
爿
片
牙
牚
牛
牜
牟
牢
牧
牪
牽
犀
犬
犭
犮
狂
狄
狊
独
狺
猋
猒
猪
献
獻
玄
率
玉
王
玟
玨
珎
班
琴
瑟
瑩
瓜
瓦
甘
甚
生
産
用
甫
甬
田
由
甲
申
电
甶
男
甸
甹
画
甾
畀
界
畏
畐
留
畜
畟
畢
畧
畨
番
畫
異
畱
當
畺
畾
疊
疋
疌
疑
疒
疾
癶
癸
癹
登
發
白
百
皀
皃
的
皆
皇
皋
皐
皕
皮
皷
皿
盃
盆
盇
盈
益
盍
盎
监
盒
盖
盛
盡
監
盤
盧
目
直
相
盾
省
眇
眉
看
眔
眞
真
眷
眼
眾
着
睘
睪
睿
瞏
瞢
瞿
矍
矛
矞
矢
矣
知
矦
短
石
破
碎
磊
磨
示
礻
礼
祟
票
祭
禀
禁
禸
禹
禺
离
禽
禾
禿
秀
秃
秉
秋
科
秝
秦
移
稟
穀
穌
穴
究
穹
空
穿
突
窄
窒
立
竒
竜
竝
竟
章
童
竹
笑
笠
筆
等
答
箕
算
箴
節
篤
篭
米
粉
粛
粟
粤
粦
粲
糞
糸
糹
系
約
納
素
索
紫
累
細
絜
絫
絲
維
綿
縣
繇
纍
纟
缶
网
罒
罔
罕
罗
罙
罡
罢
罪
署
罷
羅
羊
羌
羍
美
羔
羕
羗
羞
羡
羣
群
義
羲
羸
羽
翁
翏
習
翕
翟
翠
翼
老
耂
考
者
耆
而
耎
耑
耒
耳
耴
耶
耷
聂
聊
聖
聚
聶
聿
肀
肃
肅
肉
肖
肙
肥
肩
肯
育
肴
胃
背
胡
胥
能
脊
脩
膚
臣
臤
臧
自
臬
臭
臯
臱
至
致
臺
臼
臽
臾
臿
舀
舂
舄
與
興
舉
舌
舍
舛
舜
舞
舟
般
艮
良
色
艸
艹
艾
芒
芔
芬
芮
花
芳
芺
芻
苔
苗
苟
若
苦
英
茶
茸
荅
草
荒
荣
荼
莆
莧
莫
莽
菆
菊
菐
華
萬
落
葉
著
葛
董
葵
蒙
蒦
蒼
蓋
蓬
蓺
蔑
蔡
蕉
蕭
薄
薛
薦
薰
藍
藏
藥
蘭
虍
虎
虐
虒
虔
處
虖
虗
虘
虚
虛
虜
虞
虫
虽
蚤
蚩
蜀
蜜
蟲
蠡
血
行
衍
衛
衣
衤
表
衮
衰
袁
袞
褭
褱
襄
襾
西
覀
要
覃
見
規
覓
覧
親
覽
见
角
解
言
訁
訇
計
詹
誩
諸
讠
谷
豆
豈
豊
豐
豕
豖
豙
象
豦
豩
豪
豸
貇
貝
貞
貟
負
貢
貧
貪
貫
責
貳
貴
買
費
賁
資
賈
賏
賓
賔
賛
賞
賢
賣
質
賴
贊
贝
贡
责
贯
贲
贵
赖
赞
赤
赦
走
越
足
路
蹇
身
躬
車
軍
軎
軟
輦
车
辛
辜
辟
辥
辰
辱
農
辵
辶
边
达
过
近
连
迷
追
退
送
逆
逐
通
速
造
逢
連
逮
進
遀
遂
過
道
達
遣
適
遷
遺
邊
邑
邕
那
邦
邪
郎
部
郭
都
鄉
酉
酋
配
酓
釆
采
里
重
野
量
金
釒
錢
钅
長
镸
长
門
閃
閉
開
閏
閑
閒
間
閔
閵
閻
闌
门
间
闷
阑
阜
阝
阿
降
陳
隆
隊
隋
隡
隨
隱
隶
隹
隺
隻
隼
隽
难
雀
雁
集
雈
雋
雍
雐
雔
雙
雚
雜
雝
離
難
雨
雩
雪
雲
零
雷
需
霍
霜
霝
霞
霸
靈
靑
青
非
靡
面
靣
革
韋
韦
韭
韯
韱
音
頁
頃
項
須
頗
頡
頻
顛
页
風
风
飛
飞
食
飠
養
饣
首
香
馬
馮
駦
马
骨
高
髟
鬥
鬯
鬲
鬼
魚
魯
鮮
鱼
鲁
鳥
鳳
鸟
鹵
鹿
麃
麗
麥
麦
麻
黃
黄
黍
黎
黑
黒
黨
黹
黽
黾
鼎
鼓
鼠
鼻
齊
齋
齐
齒
齿
龍
龙
龜
龟
龠
龰
龱
龴
龵
龶
龷
龸
龹
者
艹
？
🜨
𠀁
𠀃
𠀆
𠀉
𠀎
𠀐
𠁁
𠁣
𠂆
𠂇
𠂈
𠂉
𠂊
𠂋
𠂎
𠂒
𠂔
𠂛
𠂡
𠂢
𠂤
𠂬
𠂭
𠂹
𠃊
𠃋
𠃌
𠃍
𠃎
𠃑
𠃓
𠃔
𠃜
𠄌
𠄎
𠄠
𠄢
𠆢
𠆥
𠇍
𠈌
𠌵
𠓜
𠔉
𠔥
𠔼
𠔽
𠔿
𠕀
𠕁
𠕋
𠘧
𠘨
𠙻
𠙼
𠚏
𠚒
𠚤
𠚪
𠣏
𠤎
𠤕
𠥓
𠦄
𠦑
𠦝
𠧒
𠧗
𠧪
𠩺
𠪚
𠫓
𠫔
𠫤
𠬛
𠬝
𠬞
𠬢
𠬤
𠬶
𠮛
𠮦
𠮷
𠯑
𠱠
𠳮
𠷎
𡈼
𡉀
𡉵
𡌥
𡍮
𡏳
𡕒
𡕩
𡕰
𡖅
𡗗
𡗜
𡘆
𡘤
𡧱
𡨄
𡩧
𡬠
𡭽
𡰣
𡰥
𡰪
𡰯
𡰱
𡷈
𡸁
𡿨
𡿩
𡿪
𡿺
𢀖
𢀛
𢀩
𢁙
𢆉
𢆰
𢆶
𢇁
𢇇
𢉖
𢌬
𢌿
𢏚
𢑑
𢑚
𢖻
𢙣
𢛳
𢦏
𢦒
𢧵
𢼄
𢾕
𣁋
𣄼
𣅀
𣅽
𣍘
𣎳
𣎵
𣏋
𣏼
𣗥
𣥂
𣥖
𣦵
𣦼
𣧄
𣪊
𣪠
𣬉
𣳾
𣶒
𤇾
𤊽
𤐫
𤓰
𤔔
𤕨
𤣩
𤰇
𤰔
𤰞
𤴓
𤴔
𤽄
𥁑
𥁕
𥃦
𥃩
𥃭
𥇡
𥑟
𥘅
𥘈
𥝢
𥫗
𥱡
𦈢
𦉪
𦉬
𦉼
𦍌
𦍒
𦎧
𦐇
𦓔
𦔮
𦘒
𦙃
𦚏
𦣝
𦣞
𦣻
𦥑
𦥔
𦥯
𦨉
𦭝
𦰩
𧆞
𧈧
𧘇
𧰨
𧴪
𧴮
𧵩
𧾷
𨸏
𨾴
𩙿
𩠐
𩫏
𩵋
𪉷
𪜀
𪟽
𪠲
𪩲
𫇦
𫔭
𫜸
𫝀
𫠣
𫠩
𫢉
𫥞
𫩏
𫩠
𫪡
𫲽
𫶧
𬀷
𬐘
𬗌
𬙙
𬛸
𬜯
𬟩
𬯁
𬴘
𬺻
𬼉
𬼖
𭀰
𭁈
𭁨
𭅰
𭑈
𭕄
𭗼
𭤨
𭥫
𭻾
𮅕
𮊿
𮍌
𮍏
𮓗
𮥼
𮧮
廾
𰀁
𰀄
𰀈
𰀉
𰀕
𰀠
𰀡
𰀢
𰀪
𰁜
𰃮
𰆊
𰆘
𰋙
𰕎
𰢴
𰧭
𰯲
00--
11--
13--
17--
18--
19--
5--
6--
7--
8--
a--
abe--
ac--
acc--
ad--
air--
al--
ale--
am--
amo--
an--
app--
ar--
argu--
as--
at--
au--
av--
b--
ba--
bahla--
bak--
bal--
bar--
be--
ber--
bi--
bin--
bo--
boa--
boi--
boit--
bok--
bong--
boqhe--
bor--
bro--
bu--
bur--
c--
ca--
cal--
cha--
che--
chi--
ci--
cin--
cle--
co--
com--
con--
const--
cr--
d--
da--
de--
di--
dia--
dibe--
difa--
dije--
dike--
diko--
dip--
diphe--
dis--
dist--
div--
do--
du--
e--
ed--
ehe--
eke--
ele--
em--
en--
ep--
er--
es--
etsa--
ev--
f--
fa--
fe--
fel--
fer--
feti--
feto--
fi--
flo--
fo--
foko--
fr--
fri--
futhu--
g--
ga--
ge--
gen--
ger--
go--
gu--
h--
ha--
hae--
hakanye--
han--
hat--
he--
her--
hi--
hla--
hlahe--
hli--
hlo--
hloek--
ho--
hol--
hu--
i--
im--
in--
indi--
inf--
ip--
ipa--
is--
isi--
it--
j--
ja--
je--
jim--
jo--
k--
ka--
kan--
kar--
ke--
ken--
kg--
kgo--
kgoth--
kha--
kho--
khutli--
ki--
ko--
kra--
ku--
kw--
l--
la--
le--
leb--
lef--
lehla--
lera--
li--
lie--
lik--
lip--
liphep--
lit--
litl--
litla--
lo--
loko--
lu--
lumel--
m--
ma--
mab--
mac--
makg--
man--
mao--
map--
maq--
mar--
mari--
marri--
mas--
mata--
maur--
me--
mec--
mi--
mic--
mir--
mo--
moc--
mon--
mu--
mur--
my--
n--
na--
ne--
netefa--
ng--
ni--
no--
nor--
ntlafa--
ntshe--
ny--
nya--
nye--
o--
oa--
oe--
oen--
oka--
op--
or--
p--
pa--
pal--
para--
pe--
pepe--
per--
pet--
pha--
phatlala--
phe--
phi--
pho--
pi--
pla--
po--
pr--
pra--
pre--
prev--
pro--
proje--
prov--
q--
qal--
qhe--
qo--
r--
ra--
re--
res--
respe--
respi--
rev--
ri--
ro--
rob--
ru--
s--
sa--
se--
sec--
sep--
sepa--
seta--
shi--
si--
sili--
sire--
sk--
so--
sp--
st--
stev--
stri--
stu--
su--
sup--
sur--
sw--
swe--
sy--
t--
ta--
tal--
te--
tech--
th--
tha--
thaha--
the--
tho--
thu--
ti--
tla--
tli--
tloae--
to--
trans--
tropi--
tru--
ts--
tsh--
tshe--
tshwa--
tso--
tu--
tur--
u--
um--
un--
univer--
ur--
utlo--
v--
ve--
veli--
vi--
vict--
w--
wa--
we--
web--
win--
y--
ye--
z--
za--
đ--
--0
--1
--2
--3
--4
--5
--6
--69
--7
--8
--9
--a
--able
--ae
--aff
--aka
--ako
--al
--am
--amo
--an
--ana
--ane
--aneous
--ang
--ano
--apa
--ar
--ard
--arua
--au
--b
--ba
--be
--ble
--bo
--c
--ca
--cal
--ce
--ces
--ch
--che
--ck
--co
--ctive
--d
--dale
--de
--di
--ds
--dy
--e
--ebo
--ec
--ed
--ek
--el
--ela
--elo
--en
--ence
--eng
--er
--ere
--ers
--es
--est
--et
--f
--fala
--g
--ge
--ger
--gical
--go
--h
--ha
--hale
--hali
--he
--helo
--helwa
--heng
--hile
--hitse
--ho
--ht
--hwa
--hwele
--i
--ia
--ial
--ian
--ic
--ica
--ice
--ics
--ie
--ign
--il
--ile
--iloe
--ime
--in
--ine
--ing
--ion
--ir
--ira
--irs
--ist
--it
--ive
--ja
--k
--ka
--ke
--keng
--kgane
--ki
--ko
--ky
--l
--la
--land
--lang
--ld
--le
--led
--li
--ll
--lla
--lle
--lli
--llo
--lloa
--lo
--loa
--loe
--logy
--lt
--lugu
--lwa
--ly
--m
--ma
--man
--me
--mela
--ment
--mente
--mo
--mputa
--ms
--n
--na
--nce
--nd
--nda
--nds
--ne
--ng
--ni
--nia
--nkele
--nki
--nn
--no
--ns
--nse
--nstere
--nt
--nte
--ntsoe
--ntsoeng
--ntswe
--ny
--nya
--nyana
--nyo
--o
--oa
--oang
--oe
--oeng
--ogy
--ok
--okerafi
--ol
--ola
--ole
--olwa
--on
--ong
--ons
--or
--p
--pa
--pe
--pha
--pi
--po
--ps
--putsi
--qane
--r
--ra
--rasi
--rd
--re
--rence
--rhagic
--ri
--ria
--ris
--rk
--rl
--ro
--rs
--rt
--ry
--s
--sa
--se
--sh
--she
--shi
--si
--so
--soa
--son
--ss
--ste
--su
--sutu
--swa
--t
--ta
--te
--ter
--tes
--thi
--thy
--ti
--ting
--tion
--tive
--to
--ton
--tor
--tory
--ts
--tsa
--tse
--tsi
--tso
--tsoe
--tsoeng
--tt
--ty
--u
--ue
--ught
--ula
--ult
--um
--ur
--urt
--us
--v
--ve
--ver
--vi
--vo
--w
--wa
--we
--wele
--weng
--x
--xt
--y
--ya
--yo
--z
--za
--zi
