!
"
#
##0
##1
##10
##11
##12
##13
##14
##15
##16
##17
##18
##19
##2
##20
##21
##22
##23
##24
##25
##26
##27
##28
##29
##3
##30
##31
##32
##33
##34
##35
##36
##37
##38
##39
##4
##40
##41
##42
##43
##44
##45
##46
##47
##48
##49
##5
##50
##51
##52
##53
##54
##55
##56
##57
##58
##59
##6
##60
##61
##62
##63
##64
##65
##66
##67
##68
##69
##7
##70
##71
##72
##73
##74
##75
##76
##77
##78
##79
##8
##80
##81
##82
##83
##84
##85
##86
##87
##88
##89
##9
##90
##91
##92
##93
##94
##95
##96
##97
##98
##99
$
%
&
'
(
)
*
+
,
-
.
/
0
00
000
01
02
03
04
05
06
07
08
09
1
10
100
1016
103
104
105
106
1080
109
1093
11
110
1111
116
12
122
125
127
128
13
130
131
132
13960
14
140
143
144
15
16
17
18
180
19
1913
1921
1945
1970
1972
1980
1983
1988
1989
1990
1991
1992
1993
1993160
1995
1996
1997
1998
1999
2
20
2000
2001
2002
2003
2004
2005
2006
2007
2008
2009
2010
2011
2012
2013
2014
2015
2016
20160915135020
2017
2018
2019
2020
2021
2022
208
21
22
23
24
25
26
264901065
27
28
29
3
30
31
32
33
34
35
359
36
360
37
38
39
4
40
41
44
45
46
460207
465325
47
48
49
5
50
500
51
52
53
54
55
56
57
58
59
592
6
60
61
63
639
64
65
66
67
69
7
70
7099
71
72919
73
75
76
78
7835
8
80
800
81
8178358642
82
83
8324
84
84318
849
85
853
86
864
87
88
9
90
91149
92
93
94
95
96
97
978
98
99
:
;
<
=
>
?
@
[
]
_
`
a
aa
aaaamaaj
aadmi
aam
aap
ab
about
above
abs
abstract
ac
academic
academy
access
accessed
according
acfu
achilles
act
action
active
activist
activists
ad
additional
address
administration
adventure
ae
aewa
aewahoecaaqag
aewahoecaaqaw
aewahoecaeqaw
aewahoecamqag
aewaxoecaeqag
aewaxoecaqqag
aewb
af
affairs
afghanistan
africa
african
after
again
against
agamemnon
age
agency
ages
agreement
agriculture
ahongbi
ahukewi
ahukewiapqabnpvxahusztgghtxlc
ahukewid
ahukewihzubh
ahukewim
ahukewin
ahukewj
ahukewja
ahukewjbgl
ahukewjc
ahukewjdilyp
ahukewjf
ahukewjh
ahukewjhou
ahukewjokkbb
ahukewjso
ahukewjz
air
ajax
akademi
akham
akongj
akongjamba
al
albanian
alekk
alexa
alice
all
along
alpha
alphabet
alphabetical
also
alto
am
ama
amadi
amailon
amazon
amazonian
amazons
ame
america
american
americas
amnesty
among
amp
an
analysis
ancient
and
andaman
andrew
andriy
andro
android
anganghal
angkor
anglo
angom
ani
animal
animation
anne
annie
anniversary
another
ant
anthony
anthropological
anthropology
anti
any
ap
apakpa
aphrodite
apollo
apollodorus
app
apple
apr
april
arab
arabia
arabic
arambai
arambam
archaeological
archaeology
architecture
archive
archived
archives
are
area
areas
ares
argentina
argonauts
argos
arizona
ark
armenian
army
around
arsenal
art
article
articles
artist
arts
aryan
as
asia
asian
asp
aspx
ass
assam
assamese
assembly
assets
association
associations
at
athena
athens
atkinson
atlantic
atlas
attempt
atuq
au
august
aur
australia
author
authors
auto
automatically
available
award
awards
azerbaijan
b
ba
baaaamaaj
back
background
bad
bags
bahadur
bahasa
bamboo
banana
bangladesh
bank
base
based
basho
basket
battle
bbc
bc
be
bear
bears
beast
beat
beauty
became
become
been
before
begins
behind
being
beings
bengal
bengali
benzema
berry
best
between
bibcode
bible
bidyarani
big
bih
bill
billion
bin
bino
bio
biography
biological
biology
bird
birds
biren
birth
bitcoin
biw
bjp
bks
bl
black
block
blog
blood
bloomberg
blue
blues
bmp
bnwahuu
boar
board
boat
body
bond
bones
book
books
bor
border
born
both
box
boy
br
brazil
brazilian
bridge
brief
bright
bring
britain
britannica
british
brother
brown
bu
buddha
building
built
bull
bunch
bureau
burma
burman
business
but
bx
by
c
ca
calendar
california
call
called
calydonian
cambridge
can
canada
canadian
candidate
capital
car
care
carl
carpenter
case
cat
category
caucasus
cave
cbd
cd
ce
celebration
cell
celsius
census
censusindia
center
central
centre
century
ceo
cfm
cg
ch
cha
chai
chain
champion
champions
chandra
change
changes
chanu
chaoren
chaos
chapter
character
characters
charles
chart
charter
cheion
cheitharol
chelsea
chemical
chemistry
chief
child
children
chile
chin
china
chinese
chongtham
christ
christian
chronicle
chronicles
cid
cinema
ciraitangba
circumcised
citation
cite
cities
city
cius
civilization
cjk
cl
class
classes
classical
classification
clean
clever
client
climate
clock
cloth
club
clytemnestra
cm
cms
cn
co
coast
cobra
cock
code
codes
collaborative
collection
colombia
color
colour
colours
columbia
com
combining
come
comes
commission
commissioner
committee
common
commons
commonwealth
communication
communities
community
company
comparative
comparison
compiled
complete
completed
complex
computer
computers
concept
conflict
congo
congress
connection
conservapedia
conservation
considered
consortium
constellation
constitution
construction
containing
contains
contemporary
content
contest
context
contract
contributors
control
convention
copa
copy
coronavirus
corresponding
cost
could
council
countries
country
course
court
create
created
creates
creating
creation
creator
crete
crisis
cristiano
critical
croatia
crow
ct
ctitle
cultural
culture
cup
curie
current
cycle
cyprus
cyrillic
czsqkvmveuc
d
da
daaaamaaj
daily
dali
dance
dances
daniel
dark
das
data
database
date
daughter
daughters
david
day
days
dc
ddosq
de
dead
deal
death
dec
december
declaration
decline
deer
default
defenders
defined
definition
definitions
deg
degrees
deity
del
delhi
dell
della
deltora
democracy
democratic
department
der
des
description
desert
design
desk
detail
details
deutsch
developed
development
devi
df
dhaka
di
dialect
dialects
dictionary
did
die
different
digital
diomedes
direct
discovery
discussion
disease
display
district
districts
division
dli
do
doc
doctor
document
documents
does
dog
doi
doing
doll
domain
donald
double
down
dq
dr
dragon
drama
dream
drew
du
dubai
due
during
dwaaqbaj
dx
dzlxdpei
e
ea
each
eagle
early
earth
earthjustice
east
eastern
eat
ebaaaamaaj
ebuthou
echeveria
ecological
ecology
economic
economist
economy
ed
edge
edit
edited
editing
edition
editions
editor
editorial
editors
edu
education
educational
edward
ee
eepung
egypt
egyptian
ei
eight
eighty
either
el
election
elections
electronic
element
elements
elephant
eleusis
elis
elizabeth
elsevier
emergence
emission
emoinu
empire
en
encyc
encyclopaedia
encyclopedia
encyclopedias
encyclopædia
end
endless
endonym
energy
engine
english
ennead
ensemble
entry
environment
environmental
epic
epsubpageextractor
epsubpageselector
era
erang
erect
erection
erichthonius
ernaux
ernet
error
es
esc
espan
esperanto
espn
established
este
et
etc
ethnic
ethnologue
etoconsortium
etuahvqfx
eu
euro
europa
europe
european
evaluation
evangelista
evelyn
even
event
events
ever
every
everyone
evolution
evolutionary
examining
example
executive
exist
expert
exploits
export
express
extended
extensions
extra
f
fa
face
facebook
fact
factbook
factors
facts
fahrenheit
fal
fall
false
family
fans
farmer
fashion
fast
father
fb
fc
fdx
fe
feature
features
february
federation
feet
felipe
female
feminism
festival
ff
fff
field
fifa
fifty
fig
fight
fighters
figure
figures
file
files
film
films
final
financial
find
finding
finger
fire
first
fish
five
flaccid
flagdeco
flamengo
flesh
flower
fly
flying
focus
folk
folklore
folks
folktale
folktales
following
font
food
foolish
foot
football
for
forbes
force
forehead
foreskin
forest
form
former
forms
forty
fought
found
foundation
foundations
founded
founder
four
fox
fr
franc
france
francisco
free
freedom
french
friend
friendly
friends
frog
from
front
frontier
fruit
fs
ft
full
fully
function
fund
fundamental
future
g
ga
gallimard
game
games
garden
gautam
gb
gdp
general
genetic
genitalia
geographic
geography
george
georgia
georgian
german
germany
get
getelementsbyclassname
gets
gi
giant
gifted
girl
girls
giroud
give
given
glans
glass
glimpses
global
glorious
glory
glottolog
gmzuaaaamaaj
go
goal
goals
god
goddess
goddesses
gods
gold
golden
goldilocks
good
google
gopi
gourd
gov
government
govt
gp
grade
grammar
grammars
grammatical
great
greatest
greece
greek
greeks
green
greenpeace
gritsenko
groom
group
growth
gs
guardian
guide
guifei
guinea
gupta
gws
gxjoaaaayaaj
gxqedwaaqbaj
gyan
h
had
haflong
hair
half
hand
handbook
handle
hangoi
hangul
haoba
haodigam
happened
happy
hare
harinongnang
harriet
harvard
has
have
having
he
head
headlines
health
healthy
heart
hebrew
heelel
height
heinemann
held
helen
help
helped
henjunaha
henry
her
heracles
here
heritage
hero
hesiod
hi
high
highly
hijam
hill
hills
him
himachal
himalayan
hindi
hindu
hinduism
hingchabi
hippolyta
his
historic
historical
history
hl
hmbhcoyba
hoax
holy
home
homer
hong
horse
houdong
hour
house
housing
how
however
hr
hrdeg
htm
html
http
https
huidrom
human
hundred
hunt
husband
hussein
hy
hymn
i
ibcahxngbloq
ibn
iboyaima
id
if
ii
iii
il
iliad
ilon
im
ima
image
images
imphal
imphaltimes
important
in
ina
inc
includes
including
independent
index
india
indian
indigenous
indonesia
indus
industry
info
infobox
information
ink
insect
institute
institutions
int
intelligence
interaction
international
internet
interview
into
introduction
invalid
ip
ipa
iran
iraq
iraqi
ireland
irom
iron
is
isbn
islamic
island
islands
iso
israel
issn
issue
issues
istres
it
italian
italy
item
itgo
its
iucn
iv
iyintk
j
ja
jack
jacob
james
jammu
jan
january
japan
japanese
jason
jean
jharkhand
jimmy
jingpho
johannes
john
jones
jose
joseph
journal
jpbgutz
jpg
jr
jsp
jstor
ju
july
june
junior
jupiter
just
justice
jzxahxjxzgghd
k
ka
kabaw
kabui
kakching
kami
kangba
kangbas
kangla
kanglaonline
kanglei
kangleipak
kangleirol
kao
kashmir
kazakhstan
kbu
keep
keioiba
keithelmanbi
key
khamba
khambana
khamlangba
khan
khao
kharkiv
khb
khdbqb
khoirentak
khomdan
khong
kht
khuman
khurkhul
khutshangbi
khuyoi
khuyol
khuyon
kia
kids
killed
king
kingdom
kings
klmdb
km
know
knowledge
known
ko
koi
kom
korea
korean
korouhanba
koubru
kuki
kumar
kumbaba
kuranganayani
kyiv
l
la
ladakh
lady
lagos
lai
laid
laihui
lainingthou
laipak
lairembi
lairen
lairenlakpam
lais
laishram
lake
laliga
lamhui
land
lang
langmaiching
langmei
langmeidong
language
languages
laos
lapiths
large
larry
last
late
later
latest
latin
latvia
law
lcp
le
leader
league
learners
learning
least
leaves
lebanon
lee
leela
left
legal
legend
legendary
leh
leikai
leikharol
leima
leipzig
leishemlon
leithak
lemita
les
letter
letters
level
levy
li
library
life
light
ligue
like
lime
limited
line
linguistic
linguistics
linguists
link
linked
links
lion
lioness
lisam
list
listed
listen
lists
literary
literature
little
live
liverpool
living
local
location
logo
loinapa
lois
loktak
loktongbam
london
long
longman
lord
loris
los
lost
lotus
louis
lourembam
lousing
love
lover
low
lower
lpg
ltd
ltuahvw
lu
lua
luish
lukhrabi
lulu
luwang
lv
lvpuaaaamaaj
lə
m
ma
mac
macha
machi
machil
machine
made
madrid
magazine
magic
mahao
maiba
main
major
make
makes
makhonmani
making
makok
male
man
manao
mangang
manganleibi
manipur
manipuri
many
map
mapan
mapu
maqaamaaj
mar
march
marie
marigold
marine
mark
market
marks
martin
marup
mary
mass
massachusetts
masturbation
match
material
math
mathematical
mathematics
matisoff
matter
max
may
mayek
mb
md
me
mean
meaning
means
medal
media
mediawiki
medical
mee
meena
meet
meetei
meeteis
meghalaya
meireima
meitei
melon
member
members
memorial
memories
men
mercury
meristem
merriam
mes
mesolithic
messi
meta
metre
mexico
mi
michael
michigan
middle
milan
military
million
min
mind
mindeg
minister
ministry
minorities
minority
minos
minute
mirabai
miscellaneous
mittal
mo
mobile
mode
modern
module
moirang
moirangthem
mon
monetary
mongsaba
monkey
month
months
montpellier
moon
more
moriri
most
mostly
mother
mount
mountain
mountains
mouse
move
movement
movie
movies
mp
mr
mrs
ms
much
multilingual
multiple
mumbai
muse
museum
music
must
mutua
my
myanmar
mycenae
mysteries
myth
mythology
myths
n
na
nakamoto
name
named
names
nancy
naorem
napachik
nasa
nation
national
nations
nationsonline
native
natural
nature
navigation
ncbi
nd
ndtv
ne
near
nederlands
need
needed
nenow
neolithic
nepal
net
netherlands
network
new
news
newspaper
next
ng
ngabong
ngaleima
nganthoi
ngantureng
ni
nic
nigeria
night
nih
nil
nile
nine
ninety
ningombam
ningthou
ningthoujam
nior
nkmwaqaaiaaj
nl
nlm
nm
nmbhrt
no
nobel
non
nongda
nongpok
nongsaba
nongsha
nongshaba
nongthang
normal
north
northeast
northern
norwegian
not
note
notice
noun
novel
november
now
nt
ntknr
nuclear
number
numit
nupedia
nuxic
nynorsk
o
oak
object
ocean
oct
october
odysseus
odyssey
oecaiqag
oecayqaw
oedipus
of
off
offerings
office
officer
official
offline
often
ohchr
oibi
oil
oinam
ol
old
olivier
olympic
olympics
on
onba
one
onepage
oneworld
online
only
open
opens
oq
or
orange
orchid
ordeals
order
org
organ
organization
oriental
origin
original
origins
oriya
os
osiris
osnova
other
others
ots
our
out
outlook
over
own
oxford
p
pa
paakhangba
paddy
page
pages
painting
pakhangba
pakistan
palace
palaeolithic
paleolithic
palo
pandion
panthoibi
pao
paper
papers
paris
park
parliament
parratt
parrot
part
participated
particular
parts
party
passes
passion
past
patron
patula
paul
pdf
pdiqplxahxlzjgghrh
pe
pea
peace
peasants
pebble
pebet
penguin
penis
people
peoples
per
perform
period
perseus
person
personification
peru
peter
petrovich
pg
ph
phaba
phayeng
philippines
philosopher
philosophy
photos
phou
phouoibi
php
phrase
physics
pi
pierre
pig
place
places
planck
plane
planet
planning
plant
plants
plastic
plate
player
players
pm
pmc
pmid
pneumonia
point
points
pokpa
poland
policy
polish
political
politics
pollution
polo
poor
population
pork
portal
portugal
portuguese
position
post
pot
pothashang
pottery
poverty
power
pp
pr
practice
practices
pradesh
pre
prefecture
premier
present
presentation
president
press
prestigious
price
primary
prince
princess
princeton
principles
print
private
prize
procedures
proceedings
process
production
professionnel
profile
profit
program
programme
project
projects
promise
pronunciation
protect
protection
protesters
proto
proud
provided
proxy
pt
pu
pub
public
publication
publications
published
publisher
publishers
publishing
pukok
punctuation
punjabi
punshiba
putin
putting
puwarimeitei
puya
px
python
q
qatar
qq
qqa
qrpedia
qu
quality
que
queen
quest
question
quickly
quills
quipe
quotations
r
ra
race
radius
railway
rain
rajasthan
random
range
rapporteur
rather
rd
re
read
reading
real
rebecca
recent
recognized
record
red
redir
ref
refer
reference
references
referred
refs
region
regional
regions
registrar
related
relationship
release
released
reliability
religion
religions
religious
renaissance
replica
report
reports
represented
republic
request
res
rescued
research
researchgate
resources
response
result
results
retold
retracted
retrieved
return
returned
reuters
rev
revenge
review
reviews
revolution
revolutionary
revolutionized
rice
rich
richard
right
rights
rishi
river
ro
robert
rock
role
roman
romania
romanized
romansh
rome
ronaldo
rose
rotate
round
routledge
roy
royal
rttemberg
ru
rule
rules
run
russia
russian
s
sa
sacred
saddam
sahitya
said
sailed
saint
salai
salt
sam
same
sameer
samman
san
sanagi
sanajaoba
sanamahi
sangai
sanger
sanskrit
satoshi
saudi
save
say
says
school
schools
science
sciences
scientific
scientists
sclient
scores
screened
script
scripts
se
sea
sealfon
search
searchwithinvolume
season
sec
secdeg
second
secret
section
security
see
seer
sekmai
selected
self
semi
sense
sep
separate
september
serie
series
serp
serpent
server
servers
service
session
set
seven
seventy
several
sex
sexual
shah
shankar
share
shaved
shayon
she
sheep
shilla
shoots
short
should
show
shown
shows
sidaba
side
sig
sign
significant
signs
sil
silver
simple
sin
sinam
since
singapore
singh
sir
sister
site
sites
six
sixth
sixty
size
sky
sleep
sljaaaamaaj
slow
small
smith
snake
snippet
snow
so
social
socialist
society
software
solar
solid
some
sometimes
somi
son
song
songbu
sons
soul
source
sources
south
southern
soviet
space
spain
span
spandeg
spanish
sparta
speaker
speakers
speaks
special
species
specific
specify
speech
spider
spirit
spoken
sport
sports
spot
spring
sq
square
sr
src
srhuahv
st
stadium
staff
stalin
standard
standards
star
stars
start
state
statehood
statement
states
statistics
stats
status
still
stock
stone
stop
storage
stories
story
strategies
street
strength
striker
strikes
strong
structure
struggle
studies
studio
study
style
sub
subject
such
suchi
sudan
summer
sun
sunak
supplement
supposed
suresh
surface
surname
surrogate
survey
susan
sustainable
swedish
sxsrf
symbol
symbols
syntax
system
systems
t
taangja
table
tag
tagalog
tagetes
tags
tai
taibang
taiwan
tajikistan
take
taken
takes
tales
tamil
tangja
taodanba
taoroinai
taothingmang
taret
taro
task
taste
tat
tb
tbm
te
teacher
team
tech
technique
technology
telegraph
telegraphindia
telescope
television
telling
telugu
temperature
temple
ten
tenawa
tengnoupal
term
terms
terrestrial
territories
territory
texas
text
textbook
texts
th
tha
than
thangcha
thangjing
tharon
that
the
theatre
theba
thebes
theguardian
their
them
themanipurpage
theory
there
therefore
thesangaiexpress
these
theseus
they
thilel
things
thingujam
third
thirty
this
thoibi
thomas
those
thou
though
thought
thousand
thouwaimichak
thrace
three
throne
through
thum
thumleima
tibeto
tiger
tim
time
timeline
times
tina
tissue
title
to
today
tokyo
tom
tomorrow
tompok
tongue
tony
too
tools
top
topic
topics
toronto
tortoise
total
tottenham
tourism
tournament
tours
toward
town
toxics
tract
trade
tradition
traditional
transform
transl
translation
travel
travels
treaties
treaty
tree
tribute
trick
tried
trilogy
tripod
trojan
troy
true
truth
tso
turkey
turning
turns
tv
twenty
twin
twitter
two
type
u
uchek
uefa
uk
ukraine
ukrainian
um
un
unabridged
uncircumcised
uncircumsized
uncyclopedia
und
under
underworld
unenvironment
unep
unesco
unicef
unicode
unified
union
united
universal
universe
university
unknown
unrecognized
until
up
updated
uploads
upper
upward
urban
urdu
url
uruguay
us
usa
usage
use
used
user
users
uses
using
usually
utuahvmyysbhyzubi
v
va
valley
value
van
var
variation
variety
various
vatican
ve
ved
vegetables
verb
version
versions
very
vi
via
victory
video
vie
vietnam
view
villa
village
vini
vinicius
virginia
virtual
visious
visual
vladimir
vo
vocabulary
voice
vol
volume
volumes
volunteer
volunteers
vs
vti
vuitton
vzgvzwaeb
vzzxahvuex
w
wahengbam
wakoklon
wales
wall
wangbren
wankhede
want
war
wari
warm
warrior
wars
was
washington
waste
wat
watch
water
way
wayback
we
web
webb
webkittransform
website
webster
week
weightlifting
well
were
werner
west
western
what
when
where
which
while
white
who
whole
whose
why
wide
widely
widow
width
wife
wiki
wikidata
wikimedia
wikinews
wikipedia
wikipedias
wikis
wikisource
wiktionary
wild
wildlife
wiley
will
william
win
wind
winner
winning
wins
wit
witch
with
without
wolf
woman
women
womens
wonder
wonderland
wood
word
words
work
working
works
world
worldometers
worshipped
would
wp
writing
written
wu
www
x
xahwxydgghqqdatk
xdtbhuahuvydgghywybkoq
xiaomi
y
ya
yahxeqksfhv
yale
yandex
yang
year
years
yek
yellow
yi
yibkaaaamaaj
yoimayai
york
you
young
younger
your
youth
ytvahwpbyskhvntbb
yumlembam
z
zealand
zeus
zh
zzxjwlw
{
|
}
~
£
§
«
°
²
»
×
æ
ɑ
ɒ
ə
ʊ
ʰ
ʻ
ˈ
ˌ
ː
ːˈ
̀
́
̂
̃
̄
̆
̇
̈
̊
̋
̌
̑
̓
̔
̛
̞
̣
̤
̧
̨
̪
̯
͂
͡
α
ας
β
ε
η
ι
ο
ς
в
н
у
украі
і
ا
اغاني
ال
العربية
الك
اللهجة
ب
ة
سيف
ع
فارسی
ل
م
ن
نبيل
و
ي
ً
َ
ُ
ِ
ّ
ْ
ٓ
ٔ
ٕ
ی
ܐ
ܵ
ं
ः
क
कर
ख
ग
च
ज
झ
ञ
ट
ठ
ड
ण
त
थ
द
ध
न
नम
प
ब
भ
म
मर
मह
य
र
रह
ल
व
वत
वन
वर
श
ष
स
सर
सरस
ह
़
ा
ि
ी
ु
ू
ृ
े
ै
ो
ौ
्
।
॥
ং
ঃ
অদ
অন
অম
অমদ
অর
অস
অহ
অৱ
ই
ইগ
ইচ
ইন
ইব
ইম
ইর
উ
ও
ওইব
ওবগ
ক
কপ
খ
গ
ঙ
ঙথ
চ
জ
ঞ
ত
তম
থ
দ
দগ
দন
ন
নখ
নদ
নব
নবগ
নবন
প
ফ
ব
বগ
বদ
বন
ম
মক
মঙ
মত
মদ
মন
মপ
মব
ময
মর
মশ
মস
য
র
রম
ল
লগ
লম
শ
স
হ
হর
়
া
ি
ী
ু
ূ
ে
ৈ
্
ৎ
ৎপ
ৗ
১
৭
ৱ
ਜ
ਪ
ਬ
ਸ
ਾ
ੀ
ੰ
ପ
ି
க
ழ
ா
ி
ு
்
గ
త
ల
ు
ె
ം
ള
ാ
്
กเร
งก
ต
น
ฟต
ยนพล
ร
ล
ว
ส
อ
ั
ิ
ี
ื
ุ
็
่
้
์
་
ག
མ
ོ
က
င
တ
ဒ
န
ဘ
မ
သ
ဟ
ာ
ိ
ု
ေ
ဲ
ဳ
ံ
း
္
်
ျ
ြ
ှ
ၚ
한국어
​
‌
‍
‎
‑
–
—
‘
’
“
”
•
′
″
℅
№
↔
↷
−
③
④
⑦
☉
⚡
⯓
ⲉ
ⲏ
ⲓ
ⲙ
ⲛ
ⲣ
ⲧ
ⲭ
⺀
⺄
⺆
⺈
⺊
⺌
⺕
⺝
⺸
⺼
⿰
⿱
⿲
⿳
⿴
⿵
⿶
⿷
⿸
⿹
⿺
⿻
『
』
〢
え
か
き
け
て
と
に
の
ひ
む
も
ん
゙
イ
コ
ス
ト
ハ
ユ
ラ
リ
ル
ロ
ン
ー
㇁
㇂
㇄
㇇
㇈
㇉
㇓
㐁
㐄
㐅
㐌
㐫
㐬
㐭
㐮
㐱
㑒
㒵
㒸
㒼
㓁
㓞
㔾
㕛
㕣
㖾
㘝
㚅
㚇
㚔
㚘
㝉
㝡
㝴
㝵
㞋
㞢
㞷
㠩
㠭
㠯
㡀
㡭
㡿
㢲
㢴
㣇
㣺
㥯
㪅
㫄
㫐
㫒
㫺
㬅
㬎
㬥
㬰
㲋
㳄
㷠
㸒
㸚
㸦
㼌
㼲
㽞
㿟
䀠
䂞
䍃
䏍
䒑
䖍
䖒
䖝
䖵
䙴
䚻
䜌
䝿
䡛
䧹
䪞
一
丁
丂
七
丄
丅
丆
万
丈
三
上
下
丌
不
与
丏
丐
丑
专
且
丕
世
丘
丙
业
东
丞
丢
丣
两
严
並
丨
丩
个
丫
丬
中
丮
丰
丱
串
丵
丶
丷
丸
丹
为
主
丽
丿
乀
乂
乃
久
乆
乇
么
义
之
乌
乍
乎
乏
乐
乑
乔
乖
乗
乘
乙
乚
乛
乜
九
乞
也
习
乡
乳
乾
亀
亅
了
亇
予
争
事
二
亍
于
亏
亐
云
互
亓
五
井
亘
亚
亜
亞
亟
亠
亡
亢
交
亥
亦
产
亨
亩
享
京
亭
亮
亯
亰
亲
亳
亶
亷
人
亻
亼
亾
仁
今
介
仌
从
仐
仑
仒
仓
仕
他
付
仝
代
令
以
任
企
伊
伏
伐
休
会
伯
但
位
何
佘
余
作
佥
使
來
侈
侌
侖
侯
侵
便
保
俞
信
修
俺
倉
倍
候
倠
備
僉
僕
儿
兀
允
兂
元
兄
充
兆
兇
先
光
兊
克
兌
免
兑
兒
兓
兔
党
兜
兟
入
全
兩
兪
八
公
六
兮
兰
共
关
兵
其
具
典
兹
兼
冀
冂
冃
冄
内
冈
冉
冊
冋
册
再
冎
冏
冐
冒
冓
冖
冗
冘
军
农
冝
冡
冥
冫
冬
冷
几
凡
凢
凵
凶
凷
凸
凹
出
函
凾
刀
刁
刂
刃
刄
刅
分
切
刍
刑
刕
刖
列
刘
则
初
別
利
别
到
制
刺
則
削
剌
前
剡
剽
劉
力
功
加
劦
助
劫
劳
劵
勃
勇
勉
勒
動
務
勞
勤
勹
勺
勻
勾
勿
匀
匂
包
匆
匈
匊
匋
匍
匕
化
北
匚
匝
匡
匪
匱
匸
匹
区
医
匽
匿
區
十
卂
千
卄
卅
卆
升
午
卉
半
卌
华
卑
卒
卓
单
卖
南
卜
卝
卞
占
卡
卢
卣
卤
卦
卩
卪
卬
卯
印
危
即
却
卵
卷
卸
卻
厂
厃
厄
历
厈
厉
厌
厓
厘
厚
原
厤
厥
厨
厭
厲
厶
厷
厸
去
厼
厽
叀
参
參
叅
又
叉
及
友
双
反
叐
发
叒
叔
叕
取
受
叚
叜
叟
口
古
句
另
叩
只
召
可
台
叱
史
右
叵
号
司
叹
吂
各
吅
合
吉
吊
吋
同
名
后
吏
向
吕
君
吝
吞
否
含
启
吳
吴
吹
吾
呂
呆
呈
告
员
呙
周
命
咅
和
咎
咠
咢
咨
咸
咼
哀
品
哉
員
哥
哲
唐
商
啇
問
啚
啬
啻
善
喜
喬
單
喿
嗇
噩
嚴
囊
囗
囘
囙
囚
四
回
囟
因
囧
囬
困
囱
囷
固
国
圂
圅
國
圍
圓
土
圡
圣
圥
在
圭
地
圶
圼
坐
坒
坚
坴
垂
垔
垚
埀
埋
埶
執
基
堂
堅
堆
堇
堯
塞
墨
壘
士
壬
壯
声
壳
壴
壹
壺
壽
夂
处
夅
夆
备
夊
夋
夌
复
夏
夒
夕
外
夗
夘
多
夜
夢
大
夨
天
太
夫
夬
夭
央
失
夲
头
夷
夸
夹
夻
夾
奂
奄
奇
奈
奉
奎
奏
奐
契
奓
奔
奚
奞
奠
奢
奥
奭
女
奴
奻
好
如
妄
妙
妟
妥
妻
妾
姑
委
姜
威
娄
婁
婴
媧
嬰
嬴
子
孑
孔
孕
孖
字
存
孚
孛
孝
孟
季
孤
学
孫
孱
學
宀
宁
宂
它
宅
宇
守
安
宋
完
宏
宓
宗
官
宙
定
宛
宜
宝
客
宣
室
宮
宰
害
家
容
宾
宿
寄
寅
密
富
寒
察
寧
審
寫
寬
寮
寸
对
寺
寻
寽
対
寿
封
尃
射
将
將
專
尉
尊
尋
尌
對
小
少
尒
尓
尔
尖
尗
尚
尞
尢
尣
尤
尧
尨
尭
就
尸
尹
尺
尻
尼
尽
尾
尿
局
居
屈
屋
屎
屏
屑
展
屖
屚
属
屠
屡
屬
屮
屯
屰
山
屵
屾
岁
岂
岑
岡
岩
岳
岸
峯
島
崇
崑
崔
崖
崙
崩
嵬
嶲
巂
巛
川
州
巟
巠
巢
巤
工
左
巧
巨
巩
巫
差
己
已
巳
巴
巷
巸
巽
巾
巿
帀
市
布
希
帚
帛
帝
带
師
席
帶
常
干
平
年
幵
并
幷
幸
幹
幺
幻
幼
幽
幾
广
広
庄
床
底
店
庚
府
度
庫
庭
庶
康
庸
廉
廌
廛
廣
廩
廴
延
廷
建
廾
廿
开
弁
弃
弄
弇
弋
式
弓
弔
引
弗
弘
弜
弟
弥
弦
弱
張
強
强
彊
彌
彎
彐
彑
当
彔
录
彖
彗
彡
形
彥
彦
彧
彭
彳
役
彼
往
待
律
徒
得
徙
從
復
微
徵
心
忄
必
忌
忍
志
忝
忠
忩
快
念
忽
忿
思
怠
急
怱
恆
恒
恩
恭
息
悉
悟
患
悤
悲
悶
惠
惡
惢
愁
愈
意
愛
感
慈
慧
慮
憂
憲
應
懶
戀
戈
戉
戊
戋
戌
戍
戎
成
我
戒
戔
或
戚
戠
戢
戦
截
戲
戶
户
戹
戼
戾
房
所
扁
扇
手
扌
才
打
托
执
承
折
拉
拜
拿
掌
推
提
搜
摩
支
攴
攵
收
攸
改
放
政
敄
敏
敕
敖
敗
敝
敞
敢
散
敦
敫
敬
数
敷
數
斂
文
斉
斊
斗
斤
斥
斩
斬
斯
新
方
於
施
斿
旁
旋
族
无
旡
既
旣
日
旦
旧
旨
早
旬
旱
旲
时
旾
昆
昇
昌
昍
明
昏
易
昔
昗
昜
星
春
昬
是
昱
昴
昷
時
晃
晋
晏
普
景
晶
智
暑
暴
曇
曩
曰
曲
曳
更
曷
書
曹
曼
曾
替
最
朁
會
月
有
朋
服
朔
朕
朗
望
朝
木
朩
未
末
本
札
朮
术
朱
朵
朶
朿
杀
杏
杜
束
条
来
東
杲
杳
松
析
林
枚
果
枝
枲
枼
某
柔
查
柬
柰
柴
栗
桀
桑
桼
梁
條
梟
梨
棘
棠
棥
森
楊
楚
業
楽
榮
構
樂
樊
欠
次
欣
欮
欲
欶
欽
款
歆
歇
歛
止
正
此
步
武
歨
歪
歮
歯
歰
歲
歴
歷
歸
歹
歺
死
殳
段
殷
殸
殹
殺
殻
殿
毋
毌
母
每
毒
比
毕
毚
毛
毳
氏
氐
民
气
氣
水
氵
氶
氷
永
氺
氾
求
汝
汞
江
沃
沓
沙
沝
河
泉
法
波
泣
泥
泰
洛
洪
活
派
流
浦
浪
浮
海
淡
淮
清
渚
渠
湯
滿
漸
火
灬
灭
灰
灵
灷
炅
炎
炏
炒
炗
炙
炭
為
烈
烏
烝
焉
無
焦
焱
然
煞
熊
熏
燕
營
燮
爪
爫
爭
爯
爰
爱
爲
爵
父
爻
爽
爾
爿
片
牙
牚
牛
牜
牟
牢
牧
牪
牽
犀
犬
犭
犮
狂
狄
狊
独
狺
猋
猒
猪
献
猴
獻
玄
率
玉
王
玟
玨
珎
班
琴
瑟
瑩
瓜
瓦
甘
甚
生
産
用
甫
甬
田
由
甲
申
电
甶
男
甸
甹
画
甾
畀
界
畏
畐
留
畜
畟
畢
畧
畨
番
畫
異
畱
當
畺
畾
疊
疋
疌
疑
疒
疾
癶
癸
癹
登
發
白
百
皀
皃
的
皆
皇
皋
皐
皕
皮
皷
皿
盃
盆
盇
盈
益
盍
盎
监
盒
盖
盛
盡
監
盤
盧
目
直
相
盾
省
眇
眉
看
眔
眞
真
眷
眼
眾
着
睘
睪
睿
瞏
瞢
瞿
矍
矛
矞
矢
矣
知
矦
短
石
研
破
碎
磊
磨
示
礻
礼
祖
祝
神
祟
票
祭
禀
禁
禸
禹
禺
离
禽
禾
禿
秀
秃
秉
秋
科
秝
秦
移
稟
穀
穌
穴
究
穹
空
穿
突
窄
窒
立
竒
竜
竝
竟
章
童
竹
笑
笠
筆
等
答
箕
算
箴
節
篤
篭
米
粉
粛
粟
粤
粦
粲
粵
糞
糸
糹
系
約
納
素
索
紫
累
細
絜
絫
絲
維
綿
縣
繇
纍
纟
缶
网
罒
罔
罕
罗
罙
罡
罢
罪
署
罷
羅
羊
羌
羍
美
羔
羕
羗
羞
羡
羣
群
義
羲
羸
羽
翁
翏
習
翕
翟
翠
翼
老
耂
考
者
耆
而
耎
耑
耒
耳
耴
耶
耷
聂
聊
聖
聚
聶
聿
肀
肃
肅
肉
肖
肙
肥
肩
肯
育
肴
胃
背
胡
胥
能
脊
脩
膚
臣
臤
臧
自
臬
臭
臯
臱
至
致
臺
臼
臽
臾
臿
舀
舂
舄
與
興
舉
舌
舍
舛
舜
舞
舟
般
艮
良
色
艸
艹
艾
节
芒
芔
芬
芮
花
芳
芺
芻
苔
苗
苟
若
苦
英
茶
茸
荅
草
荒
荣
荼
莆
莧
莫
莽
菆
菊
菐
華
萬
落
葉
著
葛
董
葵
蒙
蒦
蒼
蓋
蓬
蓺
蔑
蔡
蕉
蕭
薄
薛
薦
薰
藍
藏
藤
藥
蘭
虍
虎
虐
虒
虔
處
虖
虗
虘
虚
虛
虜
虞
虫
虽
蚤
蚩
蜀
蜜
融
蟲
蠡
血
行
衍
衛
衣
衤
表
衮
衰
袁
袞
褭
褱
襄
襾
西
覀
要
覃
見
規
覓
覧
親
覽
见
角
解
言
訁
訇
計
詹
語
誩
諸
讠
谷
豆
豈
豊
豐
豕
豖
豙
象
豦
豩
豪
豸
貇
貝
貞
貟
負
貢
貧
貪
貫
責
貳
貴
買
費
賁
資
賈
賏
賓
賔
賛
賞
賢
賣
質
賴
贊
贝
贡
责
贯
贲
贵
赖
赞
赤
赦
走
越
足
路
蹇
身
躬
車
軍
軎
軟
輦
车
辛
辜
辟
辥
辰
辱
農
辵
辶
边
达
过
近
连
迷
追
退
送
逆
逐
通
速
造
逢
連
逮
進
遀
遂
過
道
達
遣
適
遷
遺
邊
邑
邕
那
邦
邪
郎
部
郭
都
鄉
酉
酋
配
酓
釆
采
里
重
野
量
金
釒
錢
钅
長
镸
长
門
閃
閉
開
閏
閑
閒
間
閔
関
閵
閻
闌
门
间
闷
阑
阜
阝
阳
阴
阿
降
陳
隆
隊
隋
隡
隨
隱
隶
隹
隺
隻
隼
隽
难
雀
雁
集
雈
雋
雍
雐
雔
雙
雚
雜
雝
離
難
雨
雩
雪
雲
零
雷
需
霍
霜
霝
霞
霸
靈
靑
青
非
靡
面
靣
革
韋
韦
韭
韯
韱
音
頁
頃
項
須
頗
頡
頻
顛
页
風
风
飛
飞
食
飠
養
饣
首
香
馬
馮
駦
马
骨
高
髟
鬥
鬯
鬲
鬼
魚
魯
鮮
鱼
鲁
鳥
鳳
鸟
鹵
鹿
麃
麗
麥
麦
麻
黃
黄
黍
黎
黑
黒
黨
黹
黽
黾
鼎
鼓
鼠
鼻
齊
齋
齐
齒
齿
龍
龙
龜
龟
龠
龰
龱
龴
龵
龶
龷
龸
龹
ꫠ
ꫡ
ꫤ
ꫨ
ꫪ
ꫬ
꫰
꫱
ꫲ
ꯀ
ꯁ
ꯂ
ꯃ
ꯄ
ꯅ
ꯆ
ꯇ
ꯈ
ꯉ
ꯊ
ꯋ
ꯌ
ꯍ
ꯎ
ꯏ
ꯐ
ꯑ
ꯒ
ꯓ
ꯔ
ꯕ
ꯖ
ꯗ
ꯘ
ꯙ
ꯚ
ꯛ
ꯜ
ꯝ
ꯞ
ꯟ
ꯠ
ꯡ
ꯢ
ꯣ
ꯤ
ꯥ
ꯦ
ꯧ
ꯨ
ꯩ
ꯪ
꯫
꯬
꯭
꯰
꯱
꯲
꯳
꯴
꯵
꯶
꯷
꯸
꯹
者
艹
﻿
（
）
：
？
🇦
🇧
🇪
🇬
🇮
🇰
🇳
🇷
🇸
🇺
🜨
𠀁
𠀃
𠀆
𠀉
𠀎
𠀐
𠁁
𠁣
𠂆
𠂇
𠂈
𠂉
𠂊
𠂋
𠂎
𠂒
𠂔
𠂛
𠂡
𠂢
𠂤
𠂬
𠂭
𠂹
𠃊
𠃋
𠃌
𠃍
𠃎
𠃑
𠃓
𠃔
𠃜
𠄌
𠄎
𠄠
𠄢
𠆢
𠆥
𠇍
𠈌
𠌵
𠓜
𠔉
𠔥
𠔼
𠔽
𠔿
𠕀
𠕁
𠕋
𠘧
𠘨
𠙻
𠙼
𠚏
𠚒
𠚤
𠚪
𠣏
𠤎
𠤕
𠥓
𠦄
𠦑
𠦝
𠧒
𠧗
𠧪
𠩺
𠪚
𠫓
𠫔
𠫤
𠬛
𠬝
𠬞
𠬢
𠬤
𠬶
𠮛
𠮦
𠮷
𠯑
𠱠
𠳮
𠷎
𡈼
𡉀
𡉵
𡌥
𡍮
𡏳
𡕒
𡕩
𡕰
𡖅
𡗗
𡗜
𡘆
𡘤
𡧱
𡨄
𡩧
𡬠
𡭽
𡰣
𡰥
𡰪
𡰯
𡰱
𡷈
𡸁
𡿨
𡿩
𡿪
𡿺
𢀖
𢀛
𢀩
𢁙
𢆉
𢆰
𢆶
𢇁
𢇇
𢉖
𢌬
𢌿
𢏚
𢑑
𢑚
𢖻
𢙣
𢛳
𢦏
𢦒
𢧵
𢼄
𢾕
𣁋
𣄼
𣅀
𣅽
𣍘
𣎳
𣎵
𣏋
𣏼
𣗥
𣥂
𣥖
𣦵
𣦼
𣧄
𣪊
𣪠
𣬉
𣳾
𣶒
𤇾
𤊽
𤐫
𤓰
𤔔
𤕨
𤣩
𤰇
𤰔
𤰞
𤴓
𤴔
𤽄
𥁑
𥁕
𥃦
𥃩
𥃭
𥇡
𥑟
𥘅
𥘈
𥝢
𥫗
𥱡
𦈢
𦉪
𦉬
𦉼
𦍌
𦍒
𦎧
𦐇
𦓔
𦔮
𦘒
𦙃
𦚏
𦣝
𦣞
𦣻
𦥑
𦥔
𦥯
𦨉
𦭝
𦰩
𧆞
𧈧
𧘇
𧰨
𧴪
𧴮
𧵩
𧾷
𨸏
𨾴
𩙿
𩠐
𩫏
𩵋
𪉷
𪜀
𪟽
𪠲
𪩲
𫇦
𫔭
𫜸
𫝀
𫠣
𫠩
𫢉
𫥞
𫩏
𫩠
𫪡
𫲽
𫶧
𬀷
𬐘
𬗌
𬙙
𬛸
𬜯
𬟩
𬯁
𬴘
𬺻
𬼉
𬼖
𭀰
𭁈
𭁨
𭅰
𭑈
𭕄
𭗼
𭤨
𭥫
𭻾
𮅕
𮊿
𮍌
𮍏
𮓗
𮥼
𮧮
廾
𰀁
𰀄
𰀈
𰀉
𰀕
𰀠
𰀡
𰀢
𰀪
𰁜
𰃮
𰆊
𰆘
𰋙
𰕎
𰢴
𰧭
𰯲
00--
01--
07--
11--
14--
15--
16--
18--
19--
31--
4--
6--
7--
9--
a--
aa--
ab--
ac--
ace--
ach--
ad--
ae--
aewbh--
ag--
ak--
al--
am--
an--
ang--
annu--
ap--
ar--
as--
astro--
at--
au--
ave--
b--
ba--
bag--
bar--
be--
begin--
bi--
bio--
bl--
bloo--
bo--
bos--
br--
bra--
brow--
bu--
budd--
butter--
c--
ca--
cas--
ce--
cele--
ch--
chdo--
cho--
ci--
citiz--
cl--
cla--
co--
col--
com--
con--
conne--
conser--
const--
cont--
coo--
coor--
cor--
crim--
cu--
cur--
d--
da--
de--
demog--
depe--
des--
develo--
di--
dig--
dis--
distri--
do--
dr--
du--
dyna--
e--
eco--
ee--
effe--
ei--
ejacu--
el--
ele--
emerg--
en--
enti--
epi--
er--
es--
est--
et--
evi--
ex--
ext--
f--
fa--
fe--
ficti--
fin--
fl--
fo--
for--
fr--
fu--
g--
ga--
ge--
gen--
gh--
gi--
go--
gra--
gre--
grim--
gu--
h--
ha--
ham--
he--
hi--
hil--
hmb--
ho--
hol--
hon--
hor--
hos--
hu--
hun--
i--
id--
im--
in--
indi--
india--
influ--
inst--
int--
inte--
inter--
inve--
ir--
is--
j--
ja--
jo--
jor--
ju--
k--
ka--
kan--
kar--
ke--
kei--
kh--
ki--
ko--
ku--
l--
la--
lam--
lan--
land--
laun--
le--
lea--
leis--
li--
lithu--
lo--
lu--
m--
ma--
mag--
mah--
man--
mb--
mbh--
me--
mer--
mete--
mi--
mis--
mo--
mol--
mor--
mort--
mot--
mu--
munic--
mus--
my--
n--
na--
ne--
ng--
no--
ny--
o--
obser--
oe--
oeca--
on--
or--
ot--
out--
over--
p--
pa--
pal--
pe--
pea--
per--
pet--
ph--
phil--
pho--
photog--
pi--
pie--
pied--
plu--
po--
pol--
poly--
possi--
pr--
pra--
pre--
pri--
pro--
pu--
purp--
q--
qu--
r--
ra--
rac--
re--
ri--
rid--
ro--
row--
ru--
s--
sa--
sacr--
sat--
sch--
se--
sent--
ser--
sh--
sha--
sim--
sk--
so--
spe--
spec--
spel--
squ--
st--
su--
sub--
sum--
supp--
sur--
sw--
swe--
t--
tal--
te--
th--
the--
ti--
to--
tra--
tre--
tri--
tru--
u--
ua--
uah--
uk--
ul--
un--
up--
us--
ut--
v--
ve--
ver--
vi--
vultu--
w--
wa--
we--
wel--
whe--
wor--
wr--
x--
xah--
y--
ya--
yc--
ye--
z--
р--
ب--
च--
त--
प--
म--
य--
र--
व--
स--
অ--
ই--
উ--
ও--
ক--
খ--
ঙ--
ত--
থ--
দ--
ন--
প--
ম--
র--
ল--
শ--
ৎ--
--0
--1
--2
--3
--4
--5
--6
--7
--74
--77
--8
--9
--94
--a
--ad
--ae
--agi
--ah
--ain
--aj
--ak
--al
--am
--an
--ana
--ar
--ary
--as
--at
--ate
--ated
--atic
--ation
--ator
--aw
--ay
--ayaaj
--b
--ba
--back
--bal
--bam
--berg
--bi
--ble
--c
--cal
--cceqoae
--ce
--ced
--ces
--ch
--ck
--ct
--cts
--cy
--d
--da
--de
--dha
--dhou
--do
--ds
--e
--ec
--eck
--ed
--el
--em
--en
--ence
--ent
--ep
--er
--eri
--ers
--es
--ess
--est
--et
--ev
--ey
--f
--ful
--g
--ga
--gba
--ge
--ger
--gi
--gol
--gs
--h
--ha
--ham
--hand
--he
--hi
--hv
--hxf
--hz
--i
--ia
--iaaj
--ian
--ic
--ica
--ical
--ics
--id
--ie
--ies
--in
--ine
--ing
--ini
--io
--ion
--ions
--ir
--is
--isation
--ism
--ist
--itan
--ite
--ity
--ium
--ive
--ix
--j
--jing
--k
--ka
--kar
--ke
--kq
--ks
--ky
--l
--la
--ld
--le
--li
--lia
--ll
--lly
--lm
--logy
--loi
--ls
--ly
--m
--ma
--man
--me
--ment
--ms
--n
--na
--nce
--nda
--ne
--ned
--ner
--ness
--ng
--ni
--nia
--noecamqaw
--ns
--nt
--nts
--nut
--o
--od
--ogical
--ology
--om
--on
--op
--or
--ors
--ory
--os
--ot
--ought
--ow
--ows
--p
--phic
--phs
--phy
--ply
--post
--ps
--q
--qbaj
--r
--ra
--rated
--rd
--re
--rge
--ri
--ria
--rn
--rns
--rs
--rt
--rts
--ry
--s
--sa
--se
--sh
--sian
--sion
--ski
--sm
--son
--ss
--st
--t
--ta
--tal
--tan
--te
--ted
--ter
--tes
--th
--thing
--ti
--tial
--tic
--ting
--tion
--tions
--tive
--to
--toire
--ts
--ty
--u
--ua
--ue
--uel
--ugh
--um
--ur
--ure
--us
--ution
--uto
--uu
--v
--va
--vo
--vy
--w
--wa
--wn
--ws
--x
--xoecamqag
--xoecaqqaw
--y
--yma
--ys
--z
--za
--ze
--а
--и
--ا
--ی
--ক
--গ
--ব
--ম
