!
"
#
##0
##1
##10
##11
##12
##13
##14
##15
##16
##17
##18
##19
##2
##20
##21
##22
##23
##24
##25
##26
##27
##28
##29
##3
##30
##31
##32
##33
##34
##35
##36
##37
##38
##39
##4
##40
##41
##42
##43
##44
##45
##46
##47
##48
##49
##5
##50
##51
##52
##53
##54
##55
##56
##57
##58
##59
##6
##60
##61
##62
##63
##64
##65
##66
##67
##68
##69
##7
##70
##71
##72
##73
##74
##75
##76
##77
##78
##79
##8
##80
##81
##82
##83
##84
##85
##86
##87
##88
##89
##9
##90
##91
##92
##93
##94
##95
##96
##97
##98
##99
%
&
'
(
)
*
+
,
-
.
/
0
00
000
01
02
0240
03
04
05
06
07
0732
08
09
1
10
100
1000
101
102
103
104
105
106
1066
107
107343683
108
10855166
109
1099
11
110
1100
111
11191
112
113
114
115
116
117
118
119
1194038
12
120
121
122
123
124
125
126
127
128
129
13
130
131
132
133
134
135
13550863
136
137
138
139
14
140
14005
141
142
143
144
145
146
147
1479
148
1489
149
1492
15
150
1500
1502
151
1517
1519
152
1520
1525
1527
153
1533
154
1541
1547
155
1552
1553
156
1564
157
1570
1571
15728928
1578
158
1584
1586
159
1596
16
160
1600
1609
161
1610
1611
1612
1616
162
1626
163
1632
164
1642
1649
165
1650
1658
166
1660
1667
167
168
1681
1682
169
1690
1697
1699
17
170
1700
170109
1703
1704
1707
1708
171
1710
1712
1713
1715
1716
1717
1718
1719
172
1722
1723
1724
1726
1727
1728
17299517
173
1730
1733
1736
17378135
1738
174
1740
1741
1743
1744
1745
1746
1749
175
1750
1752
1753
1754
1755
1756
1757
1758
1759
176
1760
1761
1762
1764
1766
1768
1769
177
1770
1771
1772
1773
1774
1775
1776
1777
1778
178
1780
1781
1782
1783
1784
1785
1786
1787
1788
1789
179
1790
1791
1792
1793
1794
1795
1796
1797
1798
1799
18
180
1800
1801
1802
1803
1804
1805
1806
1807
1808
1809
181
1810
1811
1812
1813
1814
1815
1816
1817
1818
1819
182
1820
1821
1822
1823
1824
1825
1826
1827
1828
1829
183
1830
1831
1832
1833
183333
1834
1835
1836
1837
1838
1839
184
1840
1841
1842
1843
1844
1845
1846
1847
1848
1849
185
1850
1851
1852
1853
1854
1855
1856
1857
1858
1859
186
1860
1861
1862
1863
1864
1865
1866
1867
1868
1869
187
1870
1871
1872
1873
1874
1875
1876
1877
1878
1879
188
1880
1881
1882
1883
1884
1885
1886
1887
1888
1889
189
1890
1891
1892
1893
1894
1895
1896
1897
1898
1899
19
190
1900
1901
1902
1903
1904
1905
1906
1907
1908
1909
19098835
191
1910
1911
1912
1913
1914
1915
1916
1917
1918
1919
192
1920
1921
1922
1923
1924
1925
1926
1927
1928
1929
193
1930
1931
1932
1933
1934
1935
193563
1936
1937
1938
1939
194
1940
1941
1942
1943
1944
1945
1946
1947
1948
1949
195
1950
1951
1952
1953
1954
1955
1956
1957
1958
1959
196
1960
1961
1962
1963
1964
1965
1966
1967
1968
1969
197
1970
1971
1972
1973
1974
1975
1976
1977
1978
1979
198
1980
1981
1982
1983
1984
1985
1986
1987
1988
1989
199
1990
19908137
1991
1992
1993
19938912
1994
1995
1996
1997
1998
1999
2
20
200
2000
2001
2002
2003
2004
2005
2006
2007
2008
2009
201
2010
2011
2012
2013
2014
2015
2016
2017
2018
2019
2020
2021
2022
203
204
205
206
207
208
209
21
210
211
212
213
214
214195
215
216
217
218
219
22
220
2200
221
222
223
224
225
226
227
228
229
23
230
231
232
233
234
235
236
237
237227
23766566
238
239
24
240
241
242
243
244
245
246
247
248
249
25
250
251
252
253
254
255
256
256507
257
26
260
261
262
2624680
264
265
265049
266
266667
267
268
269
27
270
271
273
27302
274
275
276
277
278
28
280
281
282
283
283333
284
285
286
287
288
289
29
290
291
292
2928358
293
294
295
296
297
298
29861311
299
3
30
300
3000
301
302
303
304
304037
305
306
307
308
309
31
310
312
313
314
315
316
317
318
319
32
320
321
322
323
324
325
326
327
328
32859555
329
33
330
331
332
333
334
334294
335
336
337
338
339
34
340
341
342
343
344
345
346
347
348
349
35
350
351
352
353
354
355
356
357
358
359
36
360
362
3621644
363
364
365
36578
366667
37
371
373
37312
3738605
378
379
38
384
387
39
395
399
4
40
400
401
4061728
41
410
415
416
42
4231499
4239850
429
43
430
4330203
433333
438
44
442
45
450
4521357
455
46
460
464
466667
47
472
473
475
476
48
480
488
49
492
5
50
500
5000
506
5061737
509
51
510
52
528
53
531
533
5375741
54
540
5401570
55
550
56
560
57
570
58
580
59
59640277
6
60
600
602358
606
61
62
63
63056
637413
639
64
642
65
650
652062
66
666667
67
68
680
69
7
70
700
71
716667
717
72
73
730
74
740495
744
75
750
752
76
762
764739
7659
77
77541206
78
783333
79
8
80
800
81
816667
82
826
83
84
85
85329271
856636
86
8601
866667
87
88
89
9
90
900
91
916667
92
93
933333
94
95
951
952204
96
97
978
98
980
99
:
;
<
=
>
?
@
[
\
]
^
_
a
aa
aaronsohnia
abbreviata
abbreviatum
abelmoschus
aberrans
aberta
abierta
abies
about
ac
acad
acampe
acanthaceae
acanthephippium
acaulis
accepted
acianthera
acianthus
acicularis
acineta
acinonyx
aconitoides
acostaea
acrolophia
act
acta
aculeata
acuminata
acuminatum
acutifolia
ada
adams
adansonia
adatok
adenoncos
administrativ
adrianae
aegean
aemula
aerangis
aeranthes
aerides
af
affinis
africa
african
africana
afrika
ag
aganisia
agathis
agency
aglossorrhyncha
agric
ailanthus
ajania
akarere
akc
akebia
aktuell
al
alaska
alata
alba
albertiana
albiflora
albopurpurea
album
alcelaphus
alces
alcoquiana
aleut
algeria
alibertia
all
alle
allenii
alnus
aloysia
alp
alpina
alpinia
alps
alstroemeria
alta
altensteinia
alticola
altissima
alutiiq
alvaradoa
am
amabilis
amazonica
amboinensis
ambrosia
ame
amer
america
americana
ames
amhra
amitostigma
amoena
amparoana
an
anacamptis
anacardiaceae
anathallis
anatolica
anceps
ancipitia
and
andmed
andmete
andreetta
andreettae
angola
anguloa
angustifolia
angustilabia
ann
annamensis
annona
annonaceae
anoectochilus
anomala
antennifera
anthoceros
anthropophora
antilla
antilles
aperti
aphelandra
aphylla
apiculata
apifera
apocalyptica
apoda
apostasia
appendicula
appendiculata
apple
apus
aquila
ar
arabian
arachnis
arachnites
arachnitiformis
aralia
araliaceae
araneola
araucaria
araucariaceae
arbor
arch
archinform
archive
arcticus
arctos
arcuata
are
area
areas
arenas
argentina
argolica
aristata
arizonica
ark
armandii
armeniaca
aromatica
arq
art
article
articles
articulata
arts
as
ascendens
ascocentrum
ascoglossum
asia
asiat
asp
aspasia
asperata
aspidogyne
aspx
assam
aster
asteraceae
asteriscus
astronium
astronomical
at
ateles
atkla
atlantica
atrocinerea
atropurpurea
attenuata
atvira
atwood
au
auct
august
aurantiaca
aurantiacum
aurea
aurelia
auriculata
aurita
aurorae
ausgewa
austral
australasia
australia
australis
avatud
aver
averyanova
avicennia
avis
avoimen
awards
axis
aymoninii
az
b
ba
badan
baffin
bahamas
bailey
baill
baker
bal
balansae
baleares
balfouriana
balsamorhiza
bane
bank
banksii
barb
barbata
barbosella
barkeria
barros
bas
baskervilla
basshunter
bat
bateman
bates
baumann
bay
bb
bbc
bc
bd
be
beatles
beccarii
beih
bella
ben
benn
bennettii
benth
berlin
bertolonii
best
betula
betulaceae
bhfiann
bhutan
bi
bianch
biathlonresults
bicallosa
bicarinata
bicolor
bicornis
bidwillii
biez
bifida
biflora
bifolia
bifrenaria
bijdr
bikkia
biloba
biography
biol
bipinnula
biscutella
bl
blancoi
bleacherreport
bletia
bletilla
blica
blue
blume
blumea
bnf
bo
board
bobolenin
boeing
bogor
bojer
bol
bolivia
boliviana
boliviensis
bolus
bolusiana
bombyliflora
bonnet
bonplandia
book
books
borbonica
borealis
borneensis
borneo
bosnia
bosser
boston
bot
botswana
botton
bouvardia
bovidae
box
br
brachiata
brachionidium
brachychiton
brachylaena
brachystele
bracteata
brade
bradea
bradei
brand
bras
brasil
brasiliensis
brassavola
brassia
brazil
brenesia
brevifolia
brevipes
brevis
brit
britannica
bromheadia
broughtonia
brunnescens
brutia
bu
buchtienii
budapest
buitenzorg
bul
bulbosa
bull
bureau
burns
burundi
butcheri
by
byrne
byron
c
ca
caespitosa
calanthe
calathea
calcarata
calceolaris
californica
callitrichidae
callitris
calocedrus
calophylla
calopogon
calypso
calypsus
cambridge
cameroon
camii
campbellii
campestris
campylocentrum
camus
canada
canaliculata
candica
candida
candidum
canna
canthium
cape
capensis
capreolus
cardiophylla
caribaea
caribbean
carinata
carnevali
carpathians
carr
carry
carya
caryocar
casasia
cash
castro
casuarina
catalpa
catasetum
catling
cattleya
caucaea
caucasus
caudata
caularthron
caulescens
cav
cayman
cc
cdot
cebus
celebica
cenisia
cens
census
central
centralbl
centrale
centroame
cephalanthera
cephalantheropsis
cephalanthus
cephalophus
cephalotes
ceratostylis
cercopithecidae
cernua
cervidae
cervus
ch
chamaegastrodia
chase
cheirodendron
cheirostylis
chen
chevak
chiapas
chile
chiloglottis
chilopogon
chiloschista
chinensis
chlorantha
christenson
chron
chrysantha
chrysanthemum
chrysocycnis
chugach
chukinder
chysis
chytroglossa
cia
ciliaris
ciliata
ciliolata
cinerea
cirrhaea
cirrhopetalum
cite
cities
citrina
citrus
city
citypopulation
ckbr
clade
clandestina
clareae
clarke
clarkei
clausa
clavata
clavicornis
cleistogama
clem
clowesia
club
co
coccinea
cochleanthes
cochlearis
cochleata
cochlioda
code
coelia
cogn
coilostylis
collina
colombiana
colon
colorata
colubrina
columnaris
com
comber
comedy
commerce
common
commons
communis
compacta
companion
company
comparettia
components
compressa
concinna
concolor
condorensis
confusa
congesta
congo
connect
connochaetes
conopsea
content
contorta
contr
cooperi
coprosma
corallorhiza
cordata
cordem
cordifolia
cordigera
coriacea
corneliana
cornuta
correll
corse
coryanthes
corybas
corycium
corymborkis
corymbosa
cosmos
costaricensis
countries
country
covid
crassicaudatus
crassifolia
crassilabia
crataegus
cremastra
crete
cretica
cribb
cricetulus
cricetus
crimea
crinita
crispa
cristata
croatia
crocodeilanthe
croix
crucianella
cryptarrhena
cryptocentrum
cryptostylis
cs
cuba
cubensis
cucullata
cugtun
culture
cuneata
cunninghamii
cup
cupania
cupressaceae
cuspidata
cych
cyclopogon
cycnoches
cygnus
cylindrica
cymbidiella
cynocephalus
cynorkis
cypripedium
cyprus
cyrtopodium
cyrtostylis
d
da
dacrydium
dactylorhiza
dados
dahlia
dajov
dalessandroi
dalstro
dalstroemii
dama
damaliscus
danesch
dansk
danych
dart
das
data
database
datan
dataplattform
date
dati
datos
datu
datumoj
david
day
db
dc
de
dea
debilis
decipiens
decora
del
delavayi
delforge
delhi
deltoides
demo
den
dendrobium
dendrochilum
dendrocopos
dendrophylax
densa
densiflora
denticulata
department
deppeana
der
des
deschise
destatis
development
devillers
devlok
di
dia
dialect
dichaea
dichromanthus
dictionary
didactylus
didymoplexis
die
dies
dietr
digitata
dilatata
diodia
diplocaulobium
dipodium
dipterocarpus
disa
discolor
disperis
displaystyle
distans
disticha
diuris
do
doc
dockrill
dockrillia
dod
dodson
dodsonii
dog
dombeya
domingensis
domingoa
dominican
don
donald
donkey
donne
doritis
downie
download
dr
dracontia
dracula
drakaea
drakensberg
dressler
dresslerella
dressleri
dressleria
drumana
dryadum
drymoda
dsee
du
duckeella
dukes
dunst
dunstervillei
dunstervilleorum
duomenu
duque
durand
durangensis
duranta
durio
dusenii
dutra
dz
dztwo
e
earina
earth
east
eastern
ec
echinacea
economic
ecornuta
ecuador
ed
edition
eds
edulis
edwards
ee
eesti
effusa
ehir
ekmanii
el
elata
elatum
elegans
elegantula
eleutherococcus
elliptica
elmeri
elongata
elongatia
emarginata
en
ena
enciklopedija
encyclopædia
end
endara
endl
endres
engelmannii
engl
england
engler
english
ephippium
epiblastus
epidendrum
epigeneium
epipactis
epipogium
equestris
equinum
equus
erecta
eriochilus
eritrea
erl
ernodea
erosa
es
escobar
escobariana
escobarii
eskimo
esmeralda
especie
espejo
est
estado
estimates
et
ethiopia
ethnologue
eu
eudorcas
eugenii
eulophia
eulophiella
europa
europe
euterpe
ex
exaltata
excelsa
exigua
exilis
f
fabri
facebook
fact
factbook
facts
falcata
falcatifolium
fan
far
fargesii
fasciata
fasciculata
fawc
federal
feffer
felidae
ferox
ferr
ferruginea
ferrum
fi
figures
files
filiformis
fimbriata
fimbriatum
find
finet
finno
firma
firmiana
first
fittonia
fitzg
fl
flabellata
flaccida
flava
flavescens
flavum
fleischm
flexuosa
flickingeria
flora
floribunda
florida
fm
foldats
foliosa
foorumi
for
formerly
formosa
formosana
forrestii
forst
fortunella
foundation
fouquieria
fowlie
fractiflexa
fragaria
fragrans
frapp
free
french
from
fu
fuchsii
fuciflora
fukuy
fulgens
full
fulva
fun
fund
funkiella
fusca
fuscicollis
g
gagnep
galago
galeandra
galearis
galeata
galeola
galeotti
galeottiana
garay
garayi
gard
gardneri
garganica
garnettii
gastrochilus
gazella
gazetteer
gdp
ge
gemeinden
gemeindeverzeichnis
gen
general
gentryi
genyorchis
geoffroyi
geonet
geophyte
geoportaal
george
georgia
georgian
georgii
gerais
gerekiyor
gerlach
ghillanyi
gibbosa
gibbs
gibbsiae
gigantea
gigas
gili
gks
glabra
glandulosa
glauca
globosa
glomera
glumacea
glutinosa
gnd
go
gomphichis
gongora
gonza
goodyera
google
goore
gordonia
gorilla
gov
govenia
government
gracile
gracilipes
gracilis
graminea
graminifolia
graminoides
grammar
grammatophyllum
grande
grandiflora
grandiflorus
grandifolia
grandis
grave
graveolens
gray
great
greenlandic
greenw
greggii
griff
griffithii
griseb
group
gsater
gu
guarianthe
guatemala
guatemalensis
guettarda
guillaumin
guine
guinea
gus
guttata
guyana
gymnadenia
h
ha
habenaria
hagsateri
hainanensis
haiti
halesia
half
haliaeetus
hamburg
hamelia
hand
hannover
hapalorchis
har
hartwegii
harv
harveyana
hashim
hasta
hatschbachii
hawkes
hayata
he
heldreichii
helleborine
heller
helsinki
hemipilia
hemsl
henryi
herb
heringeri
hermans
herminium
herrerae
hertel
herzegovina
herzogii
hespenh
heterophylla
hexalectris
hexisea
hi
hickelii
hieraaetus
higgins
hills
himalaya
himalayas
himantoglossum
hindi
hippotragus
hirsuta
hirth
hirtz
hirtzii
hispaniola
hispida
hist
history
hlten
ho
hochr
hoehne
hoehnea
hoehnei
hoeijeri
holcoglossum
holoserica
holosericea
holothrix
holttum
home
hook
hooker
hookeri
hookeriana
hopper
houlletia
house
how
href
htm
html
http
https
hu
human
humilis
hung
hunt
huntleya
i
iana
ibu
ice
icon
id
ig
ii
iii
ik
il
ill
imbricata
imirenge
imperialis
in
ina
inaequalis
inc
incana
incarnata
incubacea
indes
index
india
indian
indica
indicators
indices
indo
indonesia
ined
inflata
info
inform
information
insectifera
insignis
inst
institute
insularis
intara
intelligence
intermedia
international
internet
intonsa
introduction
inuit
inuktitut
inuttut
inuvialuktun
iprage
ipsea
ir
iran
ireland
iricolor
is
isabelia
isamaa
isbn
island
islands
iso
isochilus
israel
issn
istat
it
italica
italy
its
iv
ix
ixora
izh
izhlife
j
ja
jacquinia
jahrb
jakarta
jaliscana
jamaica
jamaicensis
janeiro
jansson
japonica
japonicum
jard
jasminum
java
javanica
je
jeanes
jenny
jeux
jezoensis
jo
john
johnsonii
jones
jorullensis
joseph
jost
journal
jpg
jstor
jubatus
jumellea
juniperus
juva
k
ka
kalaallisut
kale
kanna
kashunamiut
katangensis
katiorum
ke
kegeliella
kenn
kew
kinabaluensis
king
kingdom
kingii
kirkii
kittr
klotzsch
ko
kobus
koellensteinia
kommersant
koosseis
kraenzl
kraenzlinella
krameri
kreodanthus
kreutz
ku
kuhlhasseltia
kunth
kuntze
kwazulu
l
la
lacaena
laciniata
ladenbergia
laenderregionen
laevigata
laevis
lagerstroemia
lake
lam
lamb
lamellata
lanata
lanceolata
lancifolia
land
lang
language
languages
lantz
larix
lasianthus
lasiocarpa
lasioglossa
latifolia
latifolium
latilabris
latipetala
laubenfels
lauterbach
lawrence
laxa
laxiflora
le
leafl
lecanorchis
lehm
lehmannii
leiophylla
leo
leochilus
leontopithecus
leopardus
lepanthes
lepanthopsis
leptailurus
leptotes
les
lesser
leucantha
lex
leyte
lez
li
libocedrus
library
licania
life
ligulata
liksom
lilacina
limbata
limprichtii
lin
linden
lindenii
lindl
lindley
lindleyalis
lindleyana
linearifolia
linearis
lingua
linguistica
link
linn
linnaea
linux
liparis
liquidambar
list
listera
literature
lithocarpus
live
livida
lo
local
lodd
loddigesii
loefgr
london
longicaulis
longicornu
longiflora
longifolia
longifolium
longilabris
longipes
lour
lowiana
lowii
loxia
lt
ltd
lu
lua
lucida
lucksom
luculia
lueddemannia
lueddemanniana
luer
lugens
luisia
lumotlar
lutea
luteola
luzon
lycaste
lycomormium
lynx
m
ma
maaamet
maakatastri
maakond
maboroensis
macaca
macodes
macra
macrantha
macrocarpa
macrophylla
maculata
maculatum
maculosa
madagascar
madagascariensis
madoqua
maek
mag
magnifica
magnolia
magnoliaceae
magyar
main
maingayi
majalis
major
makino
mala
malabarica
malawi
malaxis
malaya
malayan
malferma
malu
maluku
malvaceae
mammea
mammosa
mannii
mansf
map
marathi
marginata
maritima
mark
mars
marseille
marshallia
marsupialis
martinezii
martius
masam
mascula
mat
mathbb
mauriat
maxillaria
maxim
maxima
maximowiczii
mayor
mazama
me
media
mediabank
medinae
medit
mediterranean
meiracyllium
mem
mendozae
menezes
mer
merkezi
merkmalen
merrill
merrillii
meryta
mesadenella
mesadenus
mesocricetus
metabrainz
metasequoia
metro
mexicana
mexico
mez
michael
micrantha
micranthum
microchilus
microphylla
microphyta
microtis
miltonia
miltoniopsis
minas
mindanao
minecraft
minima
minor
miq
mirabilis
miranda
misc
missouri
mit
mitragyna
miut
mo
modesta
mollis
monetary
monogr
monomeria
monophylla
monosepalum
montana
montanum
monteiri
month
monticola
montis
moore
mora
morio
morisii
mormodes
mormolyca
morocco
morrisonicola
moscosoa
motacilla
mountains
movie
mozambique
mpumalanga
msk
mu
mucronata
muell
muelleri
mugo
multiflora
mun
muntiacus
munzinger
muricata
mus
muscicola
museum
music
musicbrainz
mustela
my
myanmar
myoxanthus
myrmechila
myrmechis
myrmecodia
myrmecophila
myrtaceae
mystacidium
mystax
mythology
mytnik
məlumat
n
na
nachtr
nak
nakai
name
names
nana
nanger
nasa
nat
natal
national
nations
native
natl
nauclea
nav
nc
ndigen
ne
neglecta
nehri
nelson
nelsonii
nematoceras
nemorosa
neofinetia
neotragus
neottia
neottianthe
nepal
nephelaphyllum
nertera
nervilia
nervosa
nes
net
neuwiedia
new
news
nfelder
ni
nicholls
niger
nigeria
nightwish
nigra
nigrescens
nigricollis
nigritella
nipponica
nitida
nivalis
nkele
no
nobilis
nominees
nord
nordmanniana
noroeste
norte
north
northamerica
northern
norway
not
notes
nothofagus
nothosubsp
notul
notylia
nov
nova
now
nsf
nu
nuda
nummularia
nunivak
nuniwarmiut
nutans
nutt
nw
nyi
nytimes
o
oaxaca
oberonia
oblonga
oblongifolia
obovata
obr
obtusa
oc
occidentalis
och
ochiq
ochreata
octomeria
odocoileus
odontoglossum
odontonema
odontorrhynchus
odorata
odoratissima
odprte
oerstedii
oeste
oestrifera
of
office
official
officinalis
ohwi
ol
old
oldenlandia
oligantha
oliver
olympics
olympiques
omegaifera
on
oncidium
online
open
opendata
opera
ophiopogonoides
ophiorrhiza
ophrys
oppositifolia
or
orbicularis
orch
orchid
orchidaceae
orchidee
orchids
orchis
oreophila
org
orientalis
orleanesia
ormerod
ornithocephalus
ornithochilus
orqui
orquideologia
ortiz
oryx
osteospermum
otevr
otia
otolemur
otostylis
otvorenih
otvorenog
otvoreny
otwartych
ouest
outlook
ouvertes
ova
ovalifolia
ovalis
ovata
oxycoccos
p
pa
pabst
pabstii
pachyglossa
pachyphyllum
pachypodium
pachystachys
pacific
paederia
page
pagoda
pajeros
palawensis
palicourea
pallens
pallida
pallidiflavens
paludosa
palustris
pan
panama
panamensis
pandurata
paniculata
panisea
panthera
pantherina
pantl
paphinia
papilio
papilionacea
papilionanthe
papillosa
papio
papuana
paradoxa
paraguay
parana
paraphalaenopsis
pardalis
paris
parish
parishii
park
party
parus
parviflora
parviflorum
parvifolia
parvula
passionis
patens
patula
pauciflora
pauciflorus
paul
paulo
paulownia
paulus
pav
pavetta
paxton
pdf
pe
pectinata
pedersen
pedilochilus
pedunculata
pen
pendula
penguin
penicillata
peninsula
pentas
people
per
perca
peristeria
perodicticus
perpusilla
perrier
perrieri
person
personen
peru
peruviana
peruvianum
peter
petiolaris
petiolata
pez
pfavii
pfitzer
phaius
phalaenopsis
philipp
philippinense
philippinensis
philippines
phoenicea
phoenicopterus
pholidota
php
phragmipedium
phreatia
phyllocladus
phytologia
phytotax
piattaforma
picea
picta
picus
pilifera
pilosa
pinaceae
pink
pinsapo
pinus
piperia
pisum
pithecia
pityphyllum
pl
planetary
planets
plant
plantaginea
plataforma
platanthera
plateforme
platform
platforma
platforması
platformja
platformo
platformu
plattform
platvormi
platystele
pleione
pleurothallis
plocoglottis
plumosa
pmmp
po
podataka
podatke
podocarpaceae
podochilus
poepp
pogonia
poir
politisch
polyantha
polycycnis
polystachya
pomatocalpa
ponerorchis
pongo
ponthieva
popayanensis
population
populus
porroglossum
port
portal
portilla
portillae
portlandia
porto
porvoo
post
potto
powellii
powiat
ppen
pr
praecox
praemorsa
praetermissa
prasophyllum
preliminary
presbytis
presl
press
pridgeon
primates
pringlei
print
printing
procapra
procera
produkte
profile
programme
project
prolifera
promontorii
proper
propithecus
prorepentia
prosthechea
prostrata
protea
prov
province
provinces
provincialis
pru
prunus
pseuderia
pseudobertolonii
pseudolaelia
pseudopanax
pseudovanilla
psychilis
psychopsis
pteroglossa
pterostylis
pu
pub
puberula
pubescens
publ
public
publications
publique
publishing
pudu
puffin
pulchella
pulchellum
pulchellus
pulcherrima
pulchra
pulchrum
pullei
puma
pumila
pumilio
pumilum
punctata
punctulata
pungens
pupulin
purpurascens
purpurata
purpurea
purpurella
pusilla
px
pxweb
pygmaea
pygmaeus
pyramidalis
pyrenees
q
qikiqtaaluk
quadriloba
quartal
queen
queensland
quekettia
quisqueya
r
ra
racemosa
radiata
raf
rahvaarv
rahvastik
rahvastiku
rahvastikunaitajad
rami
ramosa
ramosii
rank
ranked
rao
raphicerus
rar
rasmus
rchb
re
realms
record
records
recurva
recurvata
redunca
ref
reflexa
reg
reginae
region
regionales
regis
regkat
regni
reichenbach
reichenbachiana
reinholdii
ren
renanthera
rendle
renz
rep
repens
repert
report
repu
republic
republika
res
resources
restrepia
results
reticulata
retroflexa
return
retusa
rev
revoluta
rez
rhellicani
rhizanthella
rhizophora
rhynchophreatia
rhynchostylis
rhytionanthos
ri
ribes
rica
rich
ricii
ridl
rigida
ringens
rio
river
rn
ro
robiquetia
robusta
robyns
rodr
rodrigoi
rodriguezia
rogers
rolfe
roma
romaani
romero
rosa
rosaceae
rosea
roseum
rosillo
rosstat
rostellata
rostrata
rotundifolia
rouse
roxb
roy
royen
ru
rubens
rubiaceae
rubra
rubrum
rudbeckia
rudolfiella
rufina
rugosa
ruiz
rupestris
rupicola
rupp
rus
russia
russian
rutaceae
rutk
rv
rw
rwanda
s
sa
sabal
saccata
saccoglossum
saguinus
saimiri
saint
salazar
salicaceae
salicifolia
salix
salpistele
salvador
salzmannii
san
sanderiana
sanguinea
santa
santolina
sapindaceae
sapindus
sapotaceae
sarcochilus
sarcoglottis
sarcostoma
sardegna
sargentiana
satyrium
sauleda
sauroglossum
saxicola
sc
scandens
scaphosepalum
scaphyglottis
schedul
schefflera
schelpe
schiedeana
schiedeella
schilleriana
schinopsis
schlechteriana
schlimii
schltr
scho
schomburgkia
school
schrenkiana
schuit
schult
schultzei
schum
schumann
schutzgeb
schweinf
sci
sciences
sciureus
scolopax
scopulorum
scotland
scriptum
scuticaria
se
sea
sect
section
secunda
seidenf
selbsta
selbyana
selected
senghas
sensu
seo
september
serapias
serotina
serrulata
sertifera
serval
server
sessiliflora
sg
sheet
sheviak
shiva
shoner
shoozymade
short
show
si
sia
siamensis
siberia
siberian
sibirica
sicilia
sicula
sieboldii
siemens
sievekingia
sigmoidea
sijm
sijmii
sil
silent
silvae
silvana
silverstonei
simarouba
simia
similis
simons
simplex
sin
sinensis
site
skeptrostachys
ski
skinneri
sm
smaragdina
smithii
snac
so
sobralia
soc
society
solano
sond
soo
sophora
sophronitis
sorbus
sororia
soto
sound
source
south
southamerica
southeast
southern
southwest
sp
spaeth
spain
spathoglottis
spathulata
spec
species
speciosa
specklinia
spectabilis
sphegodes
spilotantha
spiranthes
spitzelii
spizaetus
splendens
splendida
spondias
spp
sprucei
spruneri
squamata
squamosa
squez
sri
ssp
st
staedte
standleyi
stanhopea
stat
state
states
statistical
statistics
statistika
statistikportal
stelis
stellaris
stellata
stellilabium
stenia
stenophylla
stenoptera
stenorrhynchos
stereosandra
stevensonii
steyermarkii
stimson
storage
strelitzia
streptopetala
striata
stricta
stricto
structure
studies
sturnus
stylosa
su
sua
sub
subdialect
subgenus
subjects
subsection
subsp
subulata
suc
sud
sudan
sudeste
sul
sulawesi
sulcata
sulphurea
sumatra
sumatrana
summerh
sunda
suom
superba
superbiens
sur
surame
suriname
sw
sweet
sylvestris
symplocos
syn
synonym
syst
system
szlach
szo
t
ta
table
tabuliformis
taeniophyllum
tainia
taiwan
tallinn
talpinaria
tamil
tammi
tang
tanzania
tartu
tas
tatra
taurotragus
te
teaguei
tee
temple
tenella
tentaculata
tenthredinifera
tenuifolia
tenuis
teres
territories
tersch
tetragona
tetramicra
teuscheria
th
thailand
thailandica
the
thecostele
thelymitra
thiele
thomas
thouars
thrixspermum
thunb
thunbergia
thunia
thurifera
thymallus
ti
tibet
tigrina
tigrinus
tilia
time
times
tipo
tipularia
title
tk
to
tod
tolumnia
tomentosa
toscano
total
tove
toxicodendron
tr
track
tragelaphus
trans
translations
transvaal
trappist
traunsteineri
trevoria
trias
trichocentrum
trichoglottis
trichopilia
trichosalpinx
trichotosia
tricolor
tridentata
trifida
trifoliata
trigonidium
triloba
trimen
trinidad
triphora
trisetella
troglodytes
trop
tropical
tropidia
trulla
trullifera
trump
truncata
truncicola
ts
tsi
tsubotae
tu
tuber
tuerckheimii
tunisia
turkmenistan
tuyama
tv
type
tzdb
u
ua
ubuntu
udm
udmdunne
udmurt
ug
uganda
uk
ukrcensus
umbellata
umbilicata
umurenge
un
uncatum
unciferia
und
undulata
unguiculata
unicolor
uniflora
union
united
university
unspecified
upiaq
uralic
uralica
urb
urban
url
ursinus
ursus
urvilleana
us
ustani
utc
utriculata
uturere
uvaria
v
va
vaccinium
vaginata
vakils
valida
van
vanda
vandopsis
vangueria
vanilla
vanoverberghii
var
variabilis
variegata
variegatum
vasquezii
ve
veg
veitchii
vell
velutina
venez
venezuela
venezuelana
venosa
venusta
veracruz
verdc
verilerin
verm
vernixia
vernonia
verrucosa
versicolor
verticillata
vestita
vi
via
vietnam
vietnamensis
view
vii
viii
villosa
vinacea
violacea
virescens
virgata
virginalis
virginiana
viridiflora
viridis
vis
viscosa
vk
vo
vogel
vol
von
vuʦtfɔ
vɔjɛ
w
wa
wageneri
wagneri
wales
wall
walleri
wallichiana
wallichii
wallisii
walpers
wang
wardii
warm
warmingia
warsz
warszewiczii
washington
watson
wc
wcm
we
web
webcitation
website
welwitschii
wenzelii
werneri
west
western
whitfieldia
who
widdringtonia
wiedii
wien
wight
wiki
wikidata
wikimedia
wikipedia
wild
will
willd
william
williams
williamsii
wilsonii
windows
winter
with
wojewo
woo
wood
word
world
wp
wps
wsoy
www
wyniki
x
xbiz
xi
xii
xiii
xiv
xix
xls
xv
xvi
xvii
xviii
xx
xxi
xxii
xylobium
y
yauaperyensis
year
yes
yoania
york
you
youtube
yu
yugtun
yunnan
yunnanensis
yup
yupigestun
yupik
z
za
zahlenfakten
zambia
zelenkoa
zeuxine
zimbabwe
zinnia
zollingeri
zones
zootrophion
zu
zygopetalum
zygostates
{
|
}
~

«
­
°
±
²
³
·
¹
»
¼
¾
×
æ
ı
ık
ıq
ırmag
ł
ŋ
ə
ʲ
ʹ
ʼ
ˈ
ˌ
ː
̀
́
̂
̃
̄
̆
̇
̈
̉
̊
̋
̌
̓
̔
̛
̣
̧
̨
̯
͂
͡
α
ανοικτω
δ
δεδομε
ν
νων
ο
πλατφο
ρμα
ς
а
абашев
абель
абрахам
абсолютнои
абхаз
абхазилэн
абхазиысь
абья
авангард
авантюрист
авар
авария
август
августа
августэ
авдеев
авиакатастрофа
авиаконструктор
авианале
авиацилэн
авиационнои
авиация
авраам
австралилэн
австралиын
австралиысь
австралия
австралияын
австри
австриын
австриысь
австрия
австро
автобус
автобусъе
автобусэн
автогонщик
автомастерскои
автоматическои
автомобиль
автомобилье
автономи
автономиез
автономнои
автономныи
автор
авторез
авторзы
авторлэн
авторъе
агаез
агаи
агентство
агломерациын
агломерация
агроном
агрыз
адам
адз
адкрытых
административно
административнои
администратор
администраци
администрациез
администрациезлэн
администрацилэн
администрация
адмирал
адмиралтеи
адольф
адрес
адресъя
адске
адями
адямиез
адямилы
адямилэн
адямилэсь
адямиос
адямиослы
адямиослэн
адямиослэсь
адямиосты
адямиосыз
адямиосын
аз
азамат
азвесь
азе
азегсюрес
азер
азербаи
азиез
азилэн
азин
азинлыко
азинлэн
азинске
азинскемез
азинскемзэ
азинскемын
азинскиз
азинско
азинскон
азинсконаз
азинсконъе
азинскыны
азинти
азинтон
азинтонъя
азинтыны
азиын
азиысь
азия
азияын
азов
азы
азьветли
азьвортти
азьвыл
азьвылыз
азьлань
азьланьти
азьланьтыны
азьланьтэ
азьланяз
азьло
азьмуртэз
азьын
азяз
аи
аиф
ак
академиез
академик
академикез
академилэн
академическои
академиын
академиысь
академия
акилина
аксак
аксакшур
акт
акте
активистъе
актриса
актрисазы
акушер
акциос
акция
ал
ала
алабго
алабгоын
алабгоысь
алаез
алаезъя
алазы
алан
алангасар
алатырев
алая
албан
албания
алгалаи
але
алевтина
алекса
александр
александра
александров
александрович
александровна
александровскои
алексе
алексеев
алексеевич
алексеевна
алексеи
алексии
алессандро
алеут
алжир
алжирлэн
али
алигес
алигьери
алина
алла
алма
алматы
алнаш
алнашлэсь
алнашскии
алнашского
алнашын
алнашысь
ало
алтаи
алушта
алфавит
алфавитъе
алфавитысь
алфавитэ
алфавитэз
алхимик
алъе
аль
альберт
альбом
альбомез
альбомзэ
альбомъе
альняш
альпзэе
альфред
алютик
аляска
аляскаысь
амал
амалъе
амалэн
америка
америкае
америкаез
америкалэн
америкалэсь
американ
американец
американскои
америкаын
америкаысь
амзя
амстердам
амур
амурскои
амурысь
амын
ан
ана
анаез
анаезлэн
анаи
аналитическои
анархист
анастасия
анатолии
анатольевич
анатольевна
ангела
ангелина
ангилья
англ
англи
англилэн
англичанъе
англиын
англиысь
англия
ангола
андан
андерс
анджелес
андорра
андре
андреев
андреевич
андреи
андропов
анимационнои
анкара
анкудинова
анлы
анлэн
анна
анни
аннинскии
аннок
аннона
аномальнои
анри
ансамблез
ансамблен
ансамбль
ансамблье
ансамбльлэн
ансамбльын
антарктида
антигуа
антилопа
антильскои
антон
антонина
антонио
антонов
антуан
анфиногенов
анъе
анъя
аны
анэз
ао
аош
апак
аполлон
аппарат
аппаратъе
апреле
апрель
апреля
ар
араб
арабъе
аравия
араз
аракы
аралия
араукария
арбери
арбериос
арбериосты
арган
арганчи
арганэн
аргентина
аргентинаын
аргентинаысь
аргументы
ардон
аре
арез
ареи
арес
аресказ
арескын
аресозь
арест
арестовать
аресъем
аресысен
арзамазов
арзамасцево
арзэ
арина
аристе
арк
аркадии
аркадьевич
аркашев
арктикаез
арлан
арлеть
арлы
арлэн
арлэсь
арман
армения
армие
армиез
армиен
армизэ
армилэн
армиын
армиысь
армия
армстронг
армязь
армян
армянъе
арнольд
арня
арнялэн
арнянунал
арняяз
арозь
арсенал
арсении
арскын
арт
арте
артель
артемии
артиллерии
артист
артистка
артистъе
артистэз
артур
артэ
аруба
архангельск
археолог
археология
археологияя
архив
архиепископ
архимед
архипелаг
архипелаглэн
архипов
архитектор
архитекторез
архитектура
архитектурая
архитектурнои
арча
аръе
аръем
арын
арысен
арыслан
арысь
арьем
арэ
ас
асан
асез
аслаз
аслан
аслыз
аслыкъе
аслэсьтыз
аспирант
аспирантурае
аспирантураез
аспирантуразэ
аспирантураын
аспирантураяз
аспо
ассамблея
ассамблеяез
ассоциацизы
ассоциация
асср
ассэ
астрахань
астрид
астролог
астронавт
астроном
астрономическои
астрофизик
астэ
асфальт
асыҡ
ась
асье
аське
аськем
аськемын
асьме
асьмелы
асьмеос
асьсэ
асьсэды
асьсэлы
асьсэлэн
асьсэлэсь
асьсэос
асэныз
асэстэмъе
ата
атабаи
атаез
атаи
атака
атаковать
атаманов
атас
атасгурз
атеист
ати
атлантик
атлантическои
атмосфераез
атмосфералэн
атом
атомнои
атон
аттила
атча
атчалась
атыкаи
атыны
атэмын
афанасии
афанасьевич
афганистан
афганистанлэн
афганистанын
африка
африкаез
африкалэн
африкаын
африкаысь
ахмат
ахмед
ахмет
ачиз
ачык
ашальчи
ашық
аэропорт
аэс
б
ба
бавлы
багаи
багама
баграш
бадз
бадретдинов
бадь
база
базар
баи
баку
бакуын
бакуысь
бакча
балезино
балезиноысь
балерина
балет
балетлэн
балетмеи
балетъя
балинт
балкан
балкария
баллистическои
балтаси
балтач
балтии
балян
бам
бамез
бамъе
бамын
бан
бангладеш
банк
банклэн
барабанэн
барбадос
барбуда
бард
баренц
баритон
барнард
барнаул
бас
баскетболэн
басма
басмалэсь
бассеи
басьти
басьто
басьтон
басьтоно
басьтыны
басьтыса
басьтэ
басьтэм
басьтэмез
басьтэмын
батист
батуев
батыр
баушев
бахреи
бахчисараи
бач
баш
башкир
башкириын
башкириысь
башкирия
башкирская
башкиръе
башкортостан
башкортостанлэн
башкортостанын
башкортостанысь
башня
баянэн
бе
без
безменшур
беи
бек
беклэн
бекманов
бел
бела
беларусь
беларусьысь
белая
белгород
белиз
белицер
белл
белорус
белоруссилэн
белоруссиын
белоруссиысь
белоруссия
белорусъе
белых
бельгилэн
бельгиысь
бельгия
бемыж
бемын
бен
бенедикт
бенин
бер
бераз
беразы
бергес
бере
берен
беризь
беринг
берлань
берлин
берлинын
берлинысь
берло
берлогес
бернар
бернард
бернат
бернулли
берпум
берпумез
берпумети
берти
бертран
бертыса
бертэ
бертэм
берыкти
берыктон
берыктыса
берыктэм
берыктэмын
берытске
берытскиз
бесерман
бесерманъе
бесермян
бет
бехтерев
би
биатлонист
биатлонъя
библиез
библиографическои
библиотека
биг
бигер
бигеръе
бигра
бизнес
бизнесмен
билл
биография
биолог
биологи
биология
бирбхум
бирма
бирмингем
бирон
бисау
бичаны
бичаса
бичетъе
бичетэз
блатгурт
блика
блинов
блогер
блок
блокадаез
бо
боб
богдан
богемиысь
богомолова
бодья
боевикъе
боз
бои
бокасса
боксе
болг
болгар
болгариын
болгариысь
болгария
более
боливия
больница
больницаын
большая
большевик
большевикъе
большие
большои
бомба
бомбаез
бон
бонапарт
бонн
бор
бордаз
борддор
борддоръе
борды
бордын
бордысен
бордысь
борис
борисов
борисовез
борисович
борнео
борок
боры
босниысь
босния
бостонысь
ботаник
ботаника
ботаническои
ботсвана
бош
боярка
бразилилэн
бразилиын
бразилиысь
бразилия
браи
брангурт
брангуртысь
брежнев
брест
британ
британилэн
британиысь
британия
бродвеи
бродскии
брокгауз
броненосец
бронза
брунеи
брюллов
брюс
брянск
буг
бугор
бугрыш
бугыр
бугыръяськемъе
бугыръяськон
бугыръяськонъе
будапешт
будапештын
будапештысь
буджак
буди
будо
будос
будослэн
будосъе
будущего
будэ
будэм
будэмын
будэти
будэто
будэтон
будэтонъя
буе
буи
буква
букваос
букваосын
булгар
бумага
бур
бурденко
бурдо
бурдъе
буре
буркина
бурпал
бурпалась
буртчин
бурунди
бурят
бурятия
бус
бускелез
бускель
бускелье
бусы
бусыын
бутан
бутанын
бутанысь
бухтаын
буш
буэнос
българия
бывальцев
быгати
быгато
быгатоз
быгатозы
быгатонлыксэ
быгатонлыкъе
быгаты
быгатыса
быгатэ
быгы
быдз
быдти
быдтон
быдтыны
быдтыса
быдтэ
быдтэм
быдтэмын
быдэ
быдэн
быдэс
быдэсак
быдэсти
быдэсто
быдэстон
быдэстыны
быдэстыса
быдэстэм
быдэстэмын
быдэсъя
быдэсъяз
быдэсъясь
быдэсъяське
быжо
бызе
бызись
бызьыли
бызьылонъе
бызьылонъя
бызьылыны
бызьыны
быков
былаи
были
было
быргында
быре
бырем
быремез
быремъе
быремын
быри
быриз
быризы
бырон
бырттылэмын
быръе
быръем
быръемын
бырыны
бытовои
быть
бышев
бюро
в
ва
вавож
вагон
вагонъе
вадим
вадьсын
вае
ваез
ваем
ваемын
ваза
вазиськиз
вазиськыса
вазь
вазьгес
ваи
вакуумын
вакчи
вакчиесь
вакчияк
вакчиятыса
вакыт
вакытаз
вакытлы
вакытлэн
вакытъе
вакытысь
вакытэ
вакытэз
вал
вала
валамон
валан
валанзэ
валанзэс
валантэм
валанъе
валаны
валаса
валатон
валатонъе
валатонэз
валгамаа
вале
валентин
валентина
валерии
валерия
валишин
валишинлэн
валлин
вало
валти
валтись
валтэ
валтэс
валче
валысь
вальтер
валэкти
валэктон
валэктонъе
валэн
валюта
валютаез
валютнои
вамен
вампира
вамыш
ван
вандылыса
вандэм
вандэмын
вандэтлэсь
ванкувер
вануату
вань
ваньбур
ваньзы
ваньзэ
ваньмон
ваньмыз
ваньмызлы
ваньмызлэсь
ваньын
ваньысь
ванюшев
вараксино
вараче
варз
варзи
вармия
варшава
варшаваысь
василии
васильев
васильевич
васильевна
васнецов
васса
вати
ватикан
ватка
ватсаса
ватсасько
ватэмын
вахитов
вахрушев
вахрушева
вацлав
ваче
ваш
вашингтон
вашкала
вашкалаез
ввп
вгма
ве
веб
вебмастер
вега
веи
века
векчи
векшина
великая
великобританилэн
великобританилэсь
великобританиысь
великобритания
великои
вен
венаысь
венг
венгер
венгр
венгрилэн
венгриын
венгриысь
венгрия
венгръе
венера
венесуэла
венесуэлалэн
венесуэлаын
венесуэлаысь
венециысь
венеция
вениамин
венчаться
венья
вепс
вера
вераз
веразы
верало
верам
верамез
верамзыя
верамъя
верамын
веран
верано
веранъе
вераны
вераса
вераське
вераськись
вераськисье
верасько
вераськон
вераськонъе
вераськыны
вератэк
вердилэн
веретенников
верещагин
верещагинлэн
верещагино
вермахтлэн
вернер
верос
веросъе
веросэз
версиез
версия
вертоле
верх
верхнекамскои
верхнии
верхняя
верховнои
вершинин
вест
вести
вестник
вестфалия
весь
ветеран
ветеранъе
ветеринар
ветли
ветло
ветлон
ветлонэз
ветлыкуз
ветлыли
ветлыны
ветлэ
ветлэмзы
вещаниез
веществоос
ви
виа
вид
видео
видъе
видъя
вие
виемын
византии
визь
визьмо
вииз
виизы
виись
вики
викимедиа
википедие
википедиез
википедии
википедилэн
википедиос
википедиын
википедия
викитекаын
виктор
виктория
викторович
викторовна
вилле
вильгельм
вильсон
вильянди
вильяндимаа
вин
вина
виноватэ
виноградова
винсент
вир
виргин
виргиниысь
виро
виртуоз
вирумаа
вис
висе
висись
висисье
вискын
вискысь
висла
високоснои
висъя
висъяз
висъялляз
висъяло
висъям
висъямын
висъян
висъяны
висъяське
висъяськиз
висъясько
висьыны
висьыса
виталии
вите
витебск
витети
вить
вице
вич
вишур
виылон
виыны
вка
вконтакте
вконтактеысь
вкп
влади
владивосток
владимир
владимирович
владимировна
владислав
владыкин
владыкина
власов
властез
власть
властье
властьлэн
властьлэсь
влэн
во
вогау
водородлэн
водороднои
воеводство
воеводствое
воеводстволэн
воеводствоын
воевостолэн
военачальник
военно
военнои
вож
вожвылъяськон
вожвылъяськонын
вожодыр
вожои
воздушнои
возе
возжи
возиз
возиське
возиськись
возисько
вознесенскои
возь
возье
возьма
возьмати
возьмато
возьматон
возьматъя
возьматыны
возьматэ
возьматэм
возьматэмын
возьыны
вои
вокал
вокалист
вокзал
воксе
волга
волгалэн
волгоград
волков
волкова
вологда
волосте
волость
волостье
волостьлэн
волостьысь
вольфганг
вооруже
воргорон
воргоронъе
ворди
вордиськиз
вордо
вордон
вордскем
вордскемын
вордскиз
вордыны
воркута
ворме
вормемын
вормиз
вормизы
вормисе
вормисез
вормись
вормисье
вормон
вормонзы
вормонъе
вормонэз
вормыны
вормыса
воронеж
воронежскии
ворота
ворошилов
ворсамын
воршуд
восстание
восток
востокын
восточно
восточнои
вотка
воткалан
воткалась
воткалэн
воткаын
воткаысь
воткинск
вотскои
вотэсын
вотяк
вотяки
вошти
воштон
воштыны
воштэмын
вошъяськись
вперед
вратарь
врач
времени
временнои
время
все
всегда
всемирнои
всерос
всероссии
всесоюзная
всесоюзнои
вскои
встречи
ву
вуарп
вуж
вужгурт
вужез
вуз
вузаз
вузаны
вузаськыны
вузкарись
вузкарон
вузкаронни
вузкаронниос
вузкаронъя
вузъе
вуиз
вуизы
вуиллям
вуко
вулканлэн
вулэн
вуныл
вуо
вуоно
вурем
вуремын
вурз
вуриськон
вуро
вутти
вутто
вутты
вуттэ
вуттэмын
вутудз
вуыли
вуылэ
вуымтэослы
вуын
вуыны
вуэ
вуэз
вуэм
вуэмез
вуэмъе
вуэмын
вуэн
вуюись
вцик
выж
выже
выжез
выжиз
выжизы
выжон
выжти
выжтэмын
выжъе
выжы
выжые
выжыез
выжыезъя
выжыкыл
выжыкылчи
выжыкылъе
выжыос
выжыосыз
выжыысь
выи
выл
вылаз
вылазы
выли
выллем
выллемгес
выллемъе
выло
вылти
вылтус
вылтусыз
вылыз
вылын
вылысь
выль
выльди
выльдон
выльдэм
выльзэ
выльысь
вылэ
вылэм
вынъе
выныз
вып
выр
выре
вырз
выри
выриз
вырись
выро
выру
вырумаа
вырыли
вырыны
выселка
выступать
вьетнам
вьетнамлэн
вьетнамын
вьетнамысь
вятка
вятская
вятские
вятскии
вятского
вятское
вятскои
вячеслав
відкритих
г
га
габдулла
габон
габриель
гаваи
гавриил
гаврилов
гаврилова
гавриловлэн
гагарин
гаде
гадь
гажан
газ
газа
газель
газет
газета
газетлы
газетлэн
газетлэсь
газетъе
газетын
газетэ
газетэз
газетэн
газон
газъе
гаи
гаити
галаго
галактика
галактикаос
галаново
галерея
галилеи
галилео
галина
гамбия
гана
ганди
гань
гарвард
гарипов
гарри
гарсиа
гастролье
гваделупа
гвардия
гватемала
гватемалаын
гвиана
гвинея
гвинеялэн
гвинеяын
гг
где
гдр
ге
гез
геи
гектар
генерал
генеральнои
генералэз
генетик
геннадии
геннадьевич
генри
генрих
генс
географ
географи
географическои
география
географияя
геолог
георг
георгиевич
георгии
геохимия
геральдика
герб
гербез
гербер
герберт
гербзэ
герблэн
герд
герда
гердлы
гердлэн
герз
герман
германиен
германилы
германилэн
германити
германиын
германиысь
германия
героез
герои
герцеговина
герцен
герцог
гершель
гес
гессен
гети
геттоез
гетысьтызы
гжд
гзэ
ги
гиадаос
гижысь
гималаи
гимн
гимназиын
гимназия
гимнлэн
гимнэз
гинэ
гитара
гитараен
гитарист
гитлер
гитлерлэн
гкб
гкчп
гл
глаз
глазкар
глазкарын
глазкарысь
глазов
глазова
глазовскои
глазовын
глазовысь
глазысь
глаукомныи
глобус
глухова
гмина
гну
го
говард
говоръе
год
года
годов
году
годы
гож
гожпусэт
гожти
гожтон
гожтыны
гожтыса
гожтэ
гожтэм
гожтэмъе
гожтэмын
гожтэт
гожтэтъе
гожъе
гожъя
гожъяз
гожъяло
гожъям
гожъямъе
гожъямын
гожъян
гожъяны
гожъясь
гожъясье
гожъяське
гожъяськиз
гожъяськись
гожъяськисье
гожъяськисьлэн
гожъяськон
гожъяськыны
гожъясьчи
гожъясьчиослэн
гозы
голландецъе
голландиысь
голль
голос
гольык
гольян
гом
гон
гондурас
гондурасын
гондыр
гондырваи
гондыргурт
гондырево
гончаров
горбаче
горд
гордон
город
города
городе
городлы
городлэн
городлэсь
городок
городских
городского
городскои
городъе
городын
городысь
городэ
городэз
горькии
госсовет
гостиница
государственная
государственного
государственнои
государственныи
государство
госуниверситета
готтфрид
гра
гравитаци
граждан
гражданскои
гражданъе
грак
грамматика
грамотаез
гран
граф
график
графика
грах
грахлэсь
греи
грек
грекъе
гренада
гренадин
гренландилэн
гренландиысь
гренландия
греховодов
грециын
грециысь
греция
греч
григориан
григорианскои
григории
григорьевич
григорьевна
гринвич
грине
гродно
грознои
грозныи
груз
грузилэн
грузин
грузиын
грузиысь
грузия
группа
группае
группаез
группаен
группазы
группалэн
группаосы
группаын
группаысь
группаязы
грэмми
гтрк
гу
губернаторез
губерние
губернии
губернилэн
губерниын
губерниысь
губерния
губернскои
губи
гудыри
гудырикошкон
гудырикошконозь
гудырикошконэ
гудырикошконэзлы
гужем
гуманитарнои
гумбольдт
гур
гурезе
гурезез
гурезь
гурезье
гурезьын
гурт
гуртаз
гуртлы
гуртлэн
гуртлэсь
гуртъе
гуртын
гуртысен
гуртысь
гуртысьтыз
гуртэ
гуртэз
гуръе
гусев
густав
гуч
гыбед
гылти
гын
гырлы
гырмен
гэс
гюго
гюголэн
гюи
гюстав
д
да
давид
дагестан
дагестанын
дае
даи
дальневосточнои
дан
данзэ
дани
даниил
данилов
данилэн
даних
даниысь
даниэль
дания
данни
даннои
данных
дано
даноним
данте
данъямын
данъян
даных
дар
дарали
дарвин
дас
дась
дасэти
дася
дасяз
дасязы
дасяло
дасям
дасямын
дасян
дасянъя
датч
даун
даур
дауре
даурлэн
даурлэсь
дауръе
даурын
даурысен
даурысь
движение
движениез
движениен
движенилэн
дворец
дворецзы
дворецын
дворецэз
дворцовои
дворянин
де
деи
декабре
декабрист
декабристъе
декабрь
деканэз
декларациез
декларация
декрет
декретэз
делегатъе
дель
дельта
дельфинъе
демидов
демократ
демократи
демократическои
дени
денис
день
департамент
депутат
депутатов
депутатсы
депутатъе
депутатэ
депутатэз
дер
деревня
деректер
детеи
деятельность
дж
джаз
джан
джанкои
джарылгачскои
джеи
джек
джерси
джибути
джо
джованни
джозеф
джон
джонс
джордано
джордж
джоунз
джузеппе
дз
дзержинскии
дзержинскои
ди
диал
диалект
диалектъе
диаметрез
диана
дивизиез
диджеи
диего
дизаи
диктатор
диктаторез
диктор
дима
динамо
динь
дипломат
дипломатическои
дипломзэ
директор
директорез
дириже
диссертацизэ
диссертация
дия
для
дм
дмитриевич
дмитрии
дневники
днепр
дня
до
дов
договор
договорез
додаҳои
доклад
доктор
документальнои
документъе
докья
доллар
дом
дома
домен
доминик
доминика
доминикан
домокош
дон
дональд
донецк
донскои
доп
дор
дораз
доразы
доров
дорова
дорович
дороги
дорозь
доры
дорын
дорысен
дорысь
достоевскии
доу
доцент
др
драгунов
драма
драматическои
драматург
драмая
дреи
дрессировщик
дружба
дскымон
дтэк
дуаи
дугди
дугдоно
дугдылон
дугдылонни
дугдыти
дугдытон
дугдытэмын
дугдэ
дуглас
дукес
дума
думалэн
думаысь
думы
дун
дунаи
дунне
дунневыл
дуннее
дуннеез
дуннекотыр
дуннелы
дуннелэн
дуннелэсь
дуннеын
дуннеысь
дуно
дунтэк
дунчылкыт
дунъе
дунъет
дунъяло
дунъясь
дурангоысь
дурбасьти
дуре
дуриськись
дуров
дурти
дуръе
дурын
дурысь
духовнои
душанбе
дуэ
дъя
дъяз
дъязы
дъямын
ды
дыдыке
дыны
дыр
дыре
дырез
дырзы
дырзэ
дырлы
дырлэн
дырлэсь
дырозь
дырпуслэн
дырти
дыръе
дыръя
дыръяз
дырыз
дырызлэсь
дырын
дырысен
дырысеныз
дырысь
дырья
дышети
дышето
дышетон
дышетонлы
дышетонъя
дышетске
дышетскем
дышетскемзэ
дышетскемын
дышетскиз
дышетскизы
дышетскись
дышетскисье
дышетско
дышетскон
дышетсконзэ
дышетсконни
дышетсконниос
дышетсконниын
дышетскыкуз
дышетскыны
дышетыны
дышетэ
дье
дьы
дьыослэсь
дьюла
дья
дэ
дэбес
дэбесысь
дэвид
дэи
дэмен
дэмлась
дэмласькиз
дэра
дэралэсь
дэрем
дэри
дю
дюма
е
ев
евге
евгении
евгения
евгеньевич
евдокимов
евич
евразилэн
евразиын
евразия
евреи
евро
евровидение
евровидениын
европа
европае
европаез
европалэн
европаос
европаын
европаысь
европеецъе
европеи
евроцент
ег
египет
египетлэн
египетын
египетысь
египетэ
егит
егитъе
его
егор
егорович
единица
еез
ежегодник
ез
езлэн
екатерина
екатеринбург
екатеринбургын
екатеринбургысь
екти
ектэмезъя
елена
елизавета
елово
ельцин
ем
емгес
емез
емельян
емельянов
емен
емкость
емъе
емын
емысь
емыш
емышез
емышо
емышъе
ен
епархия
епископ
епископез
ер
ермолаево
ершовка
ес
есенин
есенинлэн
если
естественнои
естествоиспытатель
ет
ети
ефимович
ефремов
ефрон
еч
ечбур
ечлыкез
ечлыко
ж
жаг
жак
жалын
жан
жанна
жанр
жанръе
жданов
же
желательнои
железнои
женеваын
жешув
жи
живописец
животъе
жизни
жизнь
житомир
жнои
жозеф
жолио
жолунда
жорж
жуг
жугиськон
жугиськонын
жуи
жуков
жуковскии
журнал
журналист
журналистика
журналистикая
журналистики
журналистъе
журналлэн
журналъе
журналын
журналэз
жы
жыт
жытак
жытгес
з
за
забаи
забегал
завод
заводлы
заводлэн
заводлэсь
заводскои
заводъе
заводын
заводысь
заводэ
заводэз
завьял
завьяллэсь
завьялово
загитова
загребин
загуляева
заз
заи
закон
закономерностье
законъе
законэз
зал
залив
замбия
заменгоф
замок
замокын
зангари
запад
западнои
запатентовать
записала
заповедник
зарегистрировать
зарезе
зарезез
зарезен
зарезь
зарезье
зарезьлэн
зарезьлэсь
зарезьын
зарезьысь
заречныи
зарни
заседаниез
заслуги
заслуженныи
захар
захаров
захватчикъе
заче
звание
зве
звезда
зе
зеландилэн
зеландия
зеле
зеленин
зем
земель
земля
земскои
земын
зенит
зи
зиз
зимбабве
зинаида
зия
злы
злэн
злэсь
знак
знамя
знамяез
знамялэн
зо
зовка
зои
зол
золотои
золтан
зона
зонае
зонаезлэн
зонд
зоолог
зоологическои
зоопарк
зоопаркын
зор
зоя
зу
зуевка
зура
зури
зуринскои
зурка
зуркан
зурканъе
зчиез
зчиоссэ
зъе
зъя
зы
зыл
зын
зыно
зырян
зырянъе
зысь
зь
зьвестак
зьто
зьыл
зьыса
зэ
зэз
зэм
зэмзэ
зэмлыко
зэмос
зэныз
зэс
зэсъе
зэсэз
зэтъе
зэтэз
зю
зя
и
иа
ибн
ив
ива
иван
иванов
иванова
иванович
ивановна
иваново
иви
ивовои
ивор
иворти
ивортон
иворъе
ивр
ивуар
ившин
игнатии
игорь
игра
игры
ида
идеалист
идентификатор
идз
идиш
иднакар
идрица
ие
иерусалимез
иж
ижавиа
ижгту
иже
ижевск
ижевска
ижевская
ижевске
ижевсклэн
ижевсклэсь
ижевскои
ижевскысь
ижез
ижен
ижкар
ижкаре
ижкарлэн
ижкарлэсь
ижкарын
ижкарысь
ижлэн
ижлэсь
ижмаш
ижозь
ижсталь
ижын
ижысен
ижысь
из
изабелла
известия
изгурт
изд
издание
изданиос
издательство
издательствоын
излэсь
измаи
измир
изобразительного
изобретатель
израиль
израильлэн
израильысь
изъявительнои
изъян
изы
изьыян
иисуслэн
ик
ил
или
иллюзионист
илля
иль
ильдибаево
ильин
ильинск
ильич
ильминскии
ильназ
ильче
илья
им
имена
император
императорез
императорлэн
императорскои
императоръе
императрица
императрицалэн
империе
империез
империлы
империлэн
империын
империысь
империя
имре
ин
инаугурациез
инвисъе
инвожо
инвожое
инвожоезлы
инвожоозь
инга
ингур
индеи
индексэз
индивидуальнои
индие
индии
индилэн
индиын
индиысь
индия
индияын
индокитаи
индонезилэн
индонезия
индуизм
индустри
индустриальнои
ине
инженер
инженернои
инз
ини
инкуазез
инкуазь
инкуазьтодосчи
инмар
инмарлы
инмарлэн
инмарын
инмын
инмысь
иннокентии
иностраннои
институт
институтлы
институтлэн
институтъе
институтын
институтысь
институтэ
институтэз
институтэзлэн
инструментъе
инсьо
интернат
интернационаллэн
интернет
интернетлэн
интернетын
инты
интые
интыез
интыем
интыен
интызы
интызэ
интылэн
интыос
интыослэн
интыосты
интыосын
интыськемын
интыын
интыысь
интыяз
интыязы
интыямын
интыянъя
интыяське
интыяськем
интыяськемын
интыяськиз
интыяськизы
интыяськиллям
интыясько
инуит
инуитъе
инуктитут
информациез
информационнои
информация
инъет
инъетаз
инъетъе
инъетэз
инъяз
инъязы
инъяллям
инъямын
инъясез
инъясь
инъясье
инюпиак
иоанн
иоанновна
иоганн
иордания
иосиф
ип
ипк
ир
ирак
ираклэн
иран
иранлэн
иранысь
ирина
иркутск
ирл
ирланд
ирландилэн
ирландиысь
ирландия
исаак
исез
искусства
искусственнои
искусство
искусствовед
искусствоез
искусствоосъя
искусствоя
ислам
исланд
исландия
исп
испан
испанилэн
испанилэсь
испаниын
испаниысь
испания
исполкомезлэн
исполнительнои
испр
исследовании
исследователь
исследовательскои
истори
историез
историезлы
историезъя
историен
историзэ
историзэс
истории
историк
историко
историлы
историческая
историческои
историын
историысь
историысьтыз
история
историяз
историяя
ись
исье
иське
иськем
иськеме
иськемлы
иськемъем
иськемын
иськиз
иськись
исько
иськом
иськон
иськонни
иськылэ
иськыны
итал
италилэн
италиын
италиысь
италия
италмас
итальян
ити
их
ичи
ичы
иштван
июле
июль
июне
июнь
июня
к
ка
кабардино
кабенак
кабо
кабъе
кавалерез
кавалерзы
кавказ
кавказын
кавказысь
кагаз
кадик
кадыров
кадь
каз
казак
казакъе
казан
казанскои
казань
казаньын
казаньысь
казах
казахстан
казахстанлэн
казахстанын
казмаска
казнить
казьмас
каи
каир
как
какаду
какадуос
какмож
какси
какся
кал
калашников
калашниковез
кале
каледонилэн
каледониын
каледония
календарь
календарьлэн
календарья
калидаса
калинин
калининград
калифорниысь
калифорния
каллен
калмаши
калмез
калмык
калмыкия
калмыш
калтасы
калуга
калык
калыке
калыкез
калыкен
калыккуспо
калыклы
калыклэн
калыклэсь
калыкъе
калыкын
кальскои
кальюлаи
калэ
калэн
кам
кама
камасинъе
камбарка
камбаркалэсь
камбаркаын
камбаркаысь
камбоджа
каме
каменное
камерун
камит
камлэн
камскии
камчатка
камчатскии
канада
канадалэн
канадаын
канадаысь
канал
каналлэн
каналъе
каналын
каналэ
каналэз
кандидат
кандидатъе
канна
канцлерез
капелла
капитан
капитанэз
капитуляциез
капица
капка
каплан
капчи
капчиен
кар
каракулино
каракулинолэсь
карачаево
каргурт
каргуртын
кардинал
каре
карез
карел
карелия
карем
каремезъя
каремъя
каремын
карен
кариб
карибскои
кариз
каризы
карись
карисье
кариське
кариськиз
кариськизы
кариськыны
кариськыса
каркалаи
карл
карлик
карлуд
карлы
карлэн
карлэсь
каро
карозь
карон
каронкыллэн
каронкылъе
каронкылэз
каронъя
карпаты
карпов
карсоваи
карта
картаез
картаен
картаос
картер
картэз
каръе
карын
карыны
карыса
карысь
карьераез
кастрен
кастро
кат
катар
катастрофа
катастрофаез
катовице
католическои
катъе
катьырнакар
катэз
катя
кафе
кафедра
кафедраен
кафедральнои
кафедралэн
кафедраын
кашуб
каын
кв
квадрат
квантовои
квартираез
квыл
кг
кгб
ке
кедр
кедра
кедров
кез
кезьыт
кеи
кельмаков
кельт
кельти
кельты
кельтыны
кельтэ
кельтэм
кельтэмын
кельце
кельше
кельшиз
кельшись
кельыт
келяз
келязы
келяло
келямын
келян
кема
кемаласен
кемалась
кемаль
кемерово
кен
кенгуру
кенеш
кенешаз
кенеше
кенешез
кенешезлэн
кенешен
кенешлы
кенешлэн
кенешо
кенешсы
кенешсылэн
кенешъе
кенешысь
кения
кеннеди
кеп
керсти
кертто
керчь
кесклинн
кестым
кеч
кечато
кечгурт
кечиэрен
кечол
ки
кибы
кибыос
кибья
кивалти
кивалто
кивалтон
кивалтонниез
кивалтонъя
кивалтыны
кивалтэ
кивалтэм
кивалтэмез
кивалтэт
кивалтэтлэн
кивара
кивошти
кие
киев
киевскии
киевын
киевысь
кизе
кизер
кизили
кизилиос
кизилиослэн
кизнер
кизнерын
кикы
килограмм
километр
километрлы
километръем
километрын
кильдин
кильмезь
ким
кин
кинг
кинлэн
кино
киноакте
киноактриса
кинолэн
кинооператор
кинорежиссе
киносценарист
кинотеатр
кинотеатръе
киноын
киноысь
кинъе
кинэ
кион
кионмульы
кипр
кир
киргиз
киргизилэн
киргизия
кирибати
кирилл
кириллица
кириллицаысь
кириллов
киров
кировскои
кировысь
кирос
кирпич
киселе
кислород
кисьти
кит
китаи
китс
киужъе
киулти
киултыны
кичо
кишине
киын
кияз
кияик
кияса
киясалэсь
кл
клавдия
клаи
клара
кларк
классикез
классическои
классозь
классъе
классъем
классын
классэз
клеи
климент
климов
клиническои
клод
клоун
клуб
клубе
клублэн
клубъе
клубын
ключ
ключе
ключи
км
книга
книгае
книгаез
книгазэ
книгалэн
книгаос
книгаослэн
книгаосты
книгаосыз
книгаосын
книгаын
книгаысь
книгаяз
книппер
кнр
княгиня
княжество
князь
ко
коалицилэн
кобленц
ков
ковск
ковскии
когда
кодам
кодов
кодэз
кожаз
козлов
кои
кокман
колледж
колледжын
коллектив
коллективлэн
коллективъе
коломбо
колониез
колумб
колумбиын
колумбиысь
колумбия
колхоз
колхозлэн
колхозъе
колхозын
колхозэ
колчак
колчаклэн
колчакъе
команда
командаез
командалэн
комбинат
комеди
комедии
комедия
коми
комик
комиссаръе
комиссилэн
комиссия
комитет
комитетлэн
комитетэз
комитетэзлэн
комментатор
коммерческои
коммуна
коммунизм
коммунист
коммунистическои
коммунистъе
комор
компаниез
компанилэн
компания
компартилэн
комплекс
комплекснои
комплексъе
комплексэз
композитор
композиторъе
компьютер
комсомол
комсомолец
комсомоллэн
комсомольскои
конвеи
конвент
конвенция
конго
конгресс
конгресслэн
конгрессы
конгрессэз
конденсаторъе
кондратьева
конкурс
конкурса
конкурсъе
конкурсын
коновалов
консерваторие
консерваториез
константи
константин
константинович
константиновна
конституциез
конституцизэ
конституция
конструктор
конструкторез
консультант
контент
континент
континентальнои
континентъе
контора
контроль
конур
конф
конференциез
конференцизы
конференциосы
конференциын
конференция
концерт
концертъе
концертэз
коньдон
коньдонъе
коньдонэн
конькиен
коньы
коньывуон
коньывуонозь
коньывуонэ
коньывуонэзлы
коньыос
координаторез
координатъе
копак
копеи
коперник
корабль
кораблье
корабльлэн
кореи
корепанов
корея
кореялэн
кореяын
кореяысь
корка
коркаез
корказ
коркан
коркаос
коробеи
короле
королева
королеваез
королевалэн
королевскои
королевство
королевствое
королевствозылэн
королевстволэн
королез
короленко
король
королье
корользы
корольлэн
корольлэсь
корона
коронавирус
коронавирусэн
корпорацилэн
корпусэз
корреспондент
корреспондентэз
корсика
корт
кортлэсь
кортэз
кос
коса
коси
космическои
космонавт
космопоиск
космос
космосэ
косово
косои
косон
косонэзъя
коста
кострома
косэмъя
кот
котельников
котельнич
котловка
котыр
котыраз
котыре
котырес
котырти
котыртэм
котыртэмын
котыръе
котырын
котырысь
котьку
котькуд
котькуди
котькытын
котькыч
котьма
кох
коч
коче
кошке
кошкем
кошкемез
кошкиз
кошкизы
кошко
кошкыли
кошкыны
кпрф
кпсс
краеведческои
краи
красильников
красильниковлэн
красная
красноармеи
красногорск
красногорье
краснодар
красное
краснои
красноуфимск
красноярск
красныи
краткая
края
крезь
крезьгур
крезьгурез
крезьгурен
крезьгурзэ
крезьгурлэн
крезьгуро
крезьгурчи
крезьгуръе
крезьгуръя
крезьчи
креи
кремле
кремль
кремльлэн
кремльын
крепосте
крепостез
крепостнои
крепость
крепостьлы
крепостьлэн
крестовои
крестоносец
крестоносецъе
крестьян
крестьянъе
кризис
кристиан
кристии
кристина
критик
критикъе
кронштадт
круг
крупская
крылов
крым
крымлэн
крымысь
ксения
ксенофонтович
кто
ку
куазен
куазь
куак
куака
куакаез
куако
куакъе
куала
куамын
куанер
куанеръе
куар
куара
куарае
куараез
куараос
куаро
куартолэзе
куартолэзезлы
куартолэзь
куарусе
куаръе
куас
куасэн
куатети
куать
куашетэ
куашказ
куашкам
куашкамез
куашкати
куашкатон
куашкатэмын
куба
кубалэн
кубаын
кубаысь
кубок
кубыз
кувеи
куд
кудаз
куддыр
куддыръя
кудзэ
куди
кудиз
кудъе
кудымкар
куеда
кужмо
кужмоез
кужмысь
кужым
кужымаз
кужыме
кужымез
кужымен
кужымзэ
кужымзэс
кужымъе
кузе
кузебаево
кузебаи
кузебая
кузез
кузнецов
кузнецова
кузон
кузонын
кузонысь
кузпалъяськиз
кузпалъяськонзы
кузпалыз
кузпалэныз
кузь
кузьда
кузьдалаез
кузьдалазы
кузьма
кузьмич
кузьыли
кузьым
кузя
куи
куинети
куинь
кук
куке
кукмор
кулакова
кули
кулига
куликов
кулон
культура
культураез
культуралы
культуралэн
культурая
культурно
культурное
культурнои
культуролог
культуры
кулэ
кулэм
кулэмез
кулэмын
кулюшево
кун
кунгож
кунгожез
кунгожезлэсь
кунгожети
кунгожсьо
кунгожъе
кунлы
кунлэн
кунлэсь
кунмылэн
куное
куноос
куноосты
кунпуслэн
кунпуш
кунсьо
кунъе
кунын
кунысь
кунэз
кунэн
купер
купец
купецлэн
купецъе
купол
курадз
куратов
курган
курег
курегъе
курез
курень
куриз
куро
куронъе
курорт
курортнои
курск
курсъе
курт
куртизанка
курчатов
курчум
курыса
курыт
куско
куспазы
куспо
куспын
куспысь
кусып
кусыпсы
кусыпъе
кут
кути
куто
кутон
кутоно
кутске
кутскем
кутскемез
кутскемын
кутскиз
кутскизы
кутскиллям
кутско
кутскон
кутсконаз
кутсконазы
кутсконзэ
кутсконэз
кутскыса
кутузов
кутъе
кутыло
кутыны
кутыса
кутэ
кутэм
кутэмын
кутюрье
кухня
куч
кучыран
кушти
куштэм
куштэмын
куэм
кыде
кыдо
кыдысь
кыз
кызь
кызьпу
кызьы
кыи
кык
кыква
кыкез
кыкети
кыклы
кыктэти
кыл
кылбур
кылбурез
кылбурет
кылбурзэ
кылбурчи
кылбурчиез
кылбурчилы
кылбурчилэн
кылбурчиос
кылбуръе
кылди
кылдо
кылдон
кылды
кылдыны
кылдыти
кылдыто
кылдытон
кылдытонлы
кылдытоно
кылдытонэ
кылдытонэз
кылдытъяз
кылдытъян
кылдытыны
кылдытыса
кылдытэ
кылдытэм
кылдытэмен
кылдытэмын
кылдытэт
кылдытэтлэн
кылдытэтъе
кылдытэтысь
кылдытэтэ
кылдытэтэн
кылдэ
кылдэм
кылдэмез
кылдэмзэ
кылдэмын
кыле
кылем
кылемын
кылзи
кылзы
кылзыны
кылзэс
кыли
кылиз
кылизы
кылле
кыллись
кыллы
кыллэн
кыллэсь
кыллюкам
кылосбуръя
кылсярысь
кылт
кылтодон
кылтодонъя
кылтодосчи
кылтэм
кылчи
кылъе
кылъя
кылыз
кылын
кылысь
кылэ
кылэз
кылэн
кын
кыны
кыр
кыргыз
кырз
кыске
кыскем
кыско
кысконъя
кысти
кысь
кыти
кытчы
кытын
кытысь
кыч
кышет
кышка
кышкасьтэм
кышкатэк
кышкыт
кышкыттэмлыкъя
кышно
кышноез
кышноеныз
кышномурт
кышномуртъе
кышнояськиз
кэи
кюри
л
ла
лаагна
лаврентии
лагере
лагерь
лагерьын
лагуш
лазарь
лазы
лаи
лан
ланка
лаос
лапег
лаптев
лапшин
лариса
ларри
ласнамяэ
ласнамяэлэн
ласянь
лат
латви
латвилэн
латвиын
латвиысь
латвия
латин
латиница
лауреат
лауреатсы
лауреатэз
лаури
лахти
лахтиысь
лдпр
ле
лебедев
лебедева
лебедь
лев
леверье
легкоатлет
ледокол
леи
лек
лектор
лекциос
лели
лем
лемлет
лемтэи
лен
лена
ленин
ленинград
ленинградлы
ленинградлэн
ленинградын
ленинградысь
ленинградэ
ленинградэз
ленинлы
ленинлэн
ленинскии
ленинскои
лео
леон
леонард
леоне
леонид
леонидович
леонов
леонора
лердиҥ
лермонтов
леснои
лесото
леспромхоз
лет
летию
лзэ
ли
либерия
ливан
ливанын
ливия
лига
лигаын
лигур
лида
лидаын
лидия
лиза
лии
лилия
лингвист
линеи
линиын
линия
линкольн
липецк
липовои
лирик
лирика
лирическои
лит
литва
литвалэн
литваысь
литеи
литератор
литература
литературае
литератураез
литературалы
литературалэн
литературатодосчи
литератураын
литератураысь
литературая
литературная
литературно
литературнои
литературовед
литературы
лихтенштеи
лицеи
личнои
лия
лкин
ллэн
ллэсь
ллям
лме
лмем
лмемын
лмыны
лмыти
лмытон
лмытонъя
ло
лоба
лобан
лобанов
лобз
лобыса
лов
лова
лович
ловка
ловскои
лодка
ложкин
лоза
лозо
лок
локез
локлы
локомотив
локъе
локын
локысь
лоллэз
лолошур
ломоносов
лондон
лондонын
лондонысь
лорд
лори
лос
лскемын
лта
лти
лтэмезъя
лу
луганск
луд
лудз
лудкеч
лудорваи
лужанин
луз
лузь
луи
луиз
луизы
луиллям
луис
луись
луисьтэм
лул
луло
лулос
лулосъе
лулпу
лулчеберет
лулчеберетъя
лумпун
лумпунь
луна
луо
луоз
луозы
луон
луонлык
луонлыкъе
луоно
лутоха
луч
лушкамын
лушкем
луы
луыли
луымтэ
луыны
луыса
луысал
луэ
луэм
луэмез
луэмен
луэменыз
луэмзы
луэмзэ
луэмзэс
лъе
лы
лыд
лыдз
лыдзы
лыдзыя
лыдпусъе
лыдъе
лыдъем
лыдъя
лыдъяз
лыдъязы
лыдъяллязы
лыдъяло
лыдъямын
лыдъян
лыдъяны
лыдъяса
лыдъяське
лыдъяськиз
лыдъяськизы
лыдъясько
лыдъяськыны
лыдыз
лыдызъя
лыдын
лыдэ
лыз
лык
лыко
лыкти
лыктэ
лыктэм
лыктэмъе
лымшор
лымшорлань
лымшорпал
лымшорысен
лымы
лын
лынга
лып
лысо
лысь
лысьо
лысьтызы
лыткин
ль
львов
льд
льевич
льн
льо
льюис
лэз
лэзе
лэземын
лэзиз
лэзизы
лэзьыны
лэм
лэн
лэсти
лэсь
лэсьти
лэсьто
лэсьтон
лэсьтонъя
лэсьтонын
лэсьтонэ
лэсьтыли
лэсьтыны
лэсьтыса
лэсьтэ
лэсьтэм
лэсьтэмын
лэся
лэчыт
люблин
любовь
людвиг
людвик
людмила
людовик
люк
люка
люказ
люкам
люкамын
люкан
люканы
люкаса
люкась
люкаськем
люкаськемъе
люкаськиз
люке
люкем
люкемын
люкет
люкетаз
люкетлы
люкетлэсь
люкетсы
люкетсэ
люкетъе
люкетысьтыз
люкетэз
люкетэныз
люкизы
люкиське
люкисько
люкмы
люкон
люконтэм
люксембург
люксембурглэн
люкшудья
люмьер
люсия
лютер
ляб
ляк
ляли
ляльшур
лямин
ляэне
ляэнемаа
м
ма
маалыматтарды
мавзолеез
мавзолеи
маврикии
мавритания
магадан
магазин
магазинъе
магеллан
магистр
магистраль
магнит
магнолия
мадагаскар
мадагаскарлэн
мадам
маде
мадьяр
мае
мазовия
мазурия
маи
маин
мак
макаров
маке
македон
македония
макем
макеос
макс
максим
максимилиан
максимлэн
максимов
максимович
малави
малаи
малакка
малая
маленькая
мали
малимиут
малмыж
малпа
малпаз
малпазы
малпаллям
малпало
малпам
малпамзыя
малпамын
малпан
малпанзэс
малпанъе
малпанэз
малпаса
малпаськыны
малы
малые
малыи
малых
мальдив
мальта
малюмат
мамадыш
мамлюк
мамонтов
ман
мандатъем
мандир
манет
манн
манси
мансии
мао
маори
мар
марат
маргарет
маргарита
маре
марз
мари
марии
марина
марино
мария
марк
марко
марков
маркс
марксизмлэн
марксист
маркслэн
марокко
марс
март
марта
мартен
мартин
мартиника
мартэ
маршал
маршалл
маршалэз
маршрут
маршрутъе
маршрутъя
масс
масса
массаез
массовои
мастер
мастерскои
матвеев
математик
математика
математикая
математическои
материал
материалов
материалъе
материалы
материальнои
материк
материкъе
матч
матын
матынгес
матысез
матысь
матье
матэ
мафун
махатма
маш
маша
машина
машинаос
машинаосты
машинист
машиностроительнои
мая
маяковскии
мгу
мгц
ме
мебель
мед
меда
медаз
медален
медаленыз
медаль
медалье
медведев
медиа
медицина
медициная
медицинскои
медла
медло
межд
межпланетнои
межрегиональнои
мез
меи
мексика
мексикалэн
мексикаын
мексикаысь
мемориальнои
менделеев
менделеевск
мендерес
меня
мер
меркурии
мерлыко
мерлэн
мертан
мессье
мест
метал
металлист
металлург
металлургическои
методикая
методист
методическои
методы
метр
метрлы
метро
метрозь
метрополитен
метрополитенлэн
метрополитенов
метроын
метръем
метрын
механик
механика
механикая
механическои
меценат
меццо
меч
мечеть
мечетьез
мешер
ми
мигель
микеланджело
миклош
микрораи
миллиард
миллион
миллионлэсь
милям
мин
минерал
мини
министерство
министерстволэн
министр
министрез
министрлэн
министрлэсь
министръе
минск
минскын
минут
минутскын
минутэ
мир
мира
мире
миреи
мирнои
мировои
миронов
миссионер
миссисипи
миссури
митинг
митреи
митрополит
мифи
мифологиысь
миха
михаи
михаил
миша
мишель
мишин
мкин
млн
млрд
мм
мо
мода
модель
модельер
модерн
модос
модослэн
можга
можгалан
можгалась
можгаын
можгаысь
мозамбик
мозель
мозмыти
мозмытон
мозмытэмын
мои
мокша
молдав
молоде
молот
молотов
мон
монако
монастырь
монгол
монголилэн
монголия
монголъе
монгольфье
монографиос
монтсеррат
монумент
монья
монэ
мор
морак
морган
мордва
мордовилэн
мордовиын
мордовиысь
мордовия
мореплаватель
мориа
морозов
морскои
мос
москва
москвае
москваез
москваын
москваысь
москве
москвы
московская
московскои
мотовилиха
мотоциклъе
мохаммед
моя
мпу
мрамор
мс
му
муво
мугор
мугорыз
мугорызлэн
мугъе
музеез
музеи
музон
музъем
музъемвис
музъеме
музъемез
музъемезлэн
музъемети
музъемлы
музъемлэн
музъемлэсь
музъемъе
музъемын
музъемысь
музъемэти
музыка
музыкант
музыковед
мукет
мукетъе
мукетыз
мукож
мукожлэн
мукожын
мултан
мултанысь
мультипликатор
мультсериал
мульы
мулэн
муми
мумы
мумыез
муне
муниципал
муниципального
муниципальное
муниципальнои
муниципальным
муниципальных
мункачи
муныр
муос
муосты
муп
мур
муравье
мурдалаез
муресазь
мурманск
мурт
муртлы
муртъе
муртэз
муса
муско
муское
мускоез
мусколэн
мусколэсь
мускоын
мускоысь
мустаев
мустамяэ
мустафа
мусульман
мусульманъе
мухавец
мухаммед
муш
мушак
мушковаи
мушъе
мъе
мы
мыи
мыл
мылкыд
мылкыдзэ
мылкыдъе
мылкыдыз
мылкыдын
мыло
мылысь
мымон
мын
мынам
мында
мыни
мыно
мынон
мыныку
мыныкуз
мыныны
мыныса
мынэ
мынэм
мырз
мыс
мыслитель
мыт
мыти
мытэ
мытэмын
мьянма
мьянмаын
мэдээллии
мэи
мэн
мэр
мэтт
мю
мюнхенын
мәғлүмәт
н
на
набережнои
наговицын
над
надежда
нади
нае
наз
назад
назаров
название
наи
наличие
налэн
нам
наместничество
намибия
наполеон
наполеонлэн
напряжение
нарва
нарком
народ
народа
народная
народное
народов
народы
нарьян
населе
населением
населения
населенных
наталь
наталья
нати
нато
натуралист
наук
наука
наукалэн
науканысь
наукаос
наукаосъя
наукаын
наукая
науки
науру
научн
научно
научнои
нацизмо
национальная
национально
национальнои
национальныи
нациослэн
нацист
нацистъе
начала
начало
начальнои
наш
наын
наысь
ная
нг
ндрович
не
неаполитан
небо
небыт
нева
невада
неверныи
невилл
невис
невскии
невскои
независимостез
независимость
независимостьсэ
неи
некрасов
нельсон
нем
неман
немец
немецъе
нен
ненец
непал
непалын
нептун
нер
нерез
нерон
нерчи
нерчиос
неръе
несколько
нестор
нет
нефе
нефтебазинскои
нефтекамск
нефть
нзы
ни
нигер
нигерия
нигра
нидерл
нидерланд
нидерландысь
нижнее
нижнекамск
нижние
нижнии
нижняя
ник
никарагуа
никвлад
никита
никитин
никитина
ников
никола
николаев
николаевич
николаевна
николаи
никольскои
нил
ним
нимаз
нимазы
нималлям
нимало
нимам
нимамын
ниманы
нимаське
нимаськиз
нимаськись
нимасько
нимаськыны
нимез
нимзы
нимзэ
нимкылъе
нимлэн
нимо
нимъе
нимъем
нимыз
нимызъя
нимын
нимыныз
нимысьтыз
нин
нина
нискыланъе
ниуэ
ния
нка
нки
нланд
нлы
нлэн
нни
ннилэн
ннои
нных
но
нобель
нов
нова
новая
новгород
новгородын
новгородысь
нович
новна
ново
новогорское
новое
новороссии
новосибирск
новости
новые
новыи
новых
нои
нок
нокин
ноку
нокыч
нолинск
номер
номераз
номерез
номерзэ
номеро
номеръе
номыр
номырин
нонись
норвег
норвеги
норвегиын
норвегиысь
норвегия
нормативныи
норт
норья
нош
ноябре
ноябрь
нпал
нты
нтэм
ну
нуиз
нуизы
нуись
нулдэ
нулли
нулло
нуллыны
нуллэ
нумыръе
нунавутлэн
нунавутын
нуназе
нунал
нуналаз
нуналзы
нуналзэ
нуналлы
нуналозь
нуналъе
нуналъем
нуналыз
нуналэ
нуналэз
нуналэн
нуналэныз
нунивакысь
нуны
нуо
нуон
нуыны
нуэ
нуэм
нуэмын
нц
нчханын
нштеи
нъе
нъя
ны
ные
ныз
ныи
ныл
нылаш
нылга
нылзы
нылкышно
нылкышномурт
нылкышноос
нылкышноослы
нылкышноослэн
нылмурт
нылпи
нылпие
нылпиос
нылпиослы
нылпиослэн
нылпиослэсь
нылпиосты
нылъе
нылыз
ныль
нылэз
нымме
нымы
нын
ныргында
ныро
нырысез
нырысети
нырысь
нырысьсэ
нысен
нысьтыз
ныша
нь
ньо
ньыв
ньылети
ньылпу
ньыль
нью
нья
ньяла
нэ
нэз
нэзлы
нэзлэн
нэн
нээлттэи
ню
нюк
нюлэс
нюлэскын
нюлэсо
нюлэсъе
нюлэсэн
нюр
нюръяськись
нюръяськисье
нюръяськон
нюръяськонлэн
нюръяськонъя
ня
нязь
няк
нянь
о
оао
оар
об
обкомезлэн
областез
области
областнои
область
областьлэн
областьысь
обозрение
образзэ
образование
образовании
образованилэн
образованиос
образования
образованиям
образъе
обряды
обсерватория
общая
общественно
общественнои
общество
обществолэн
общии
объе
объектъе
обыда
обыкновенныи
овидии
ог
огаз
огазе
огазея
огазеяз
огазеям
огазеямын
огазеян
огазеяса
огазеясь
огазеяськем
огазеяськиз
огазеяськизы
огазеяськон
огазеяськоназы
огазеяськонзы
огазеяськонзылэн
огазеяськонлэн
огазеяськонъе
огазеяськонын
огазеяськонэ
огазеяськонэн
огвакытэ
огдыре
огдырлы
огез
огезлэн
оген
огенызы
огзы
огзылы
огзылэсь
огзэ
огзэс
огин
огинлэн
огинэ
огкадь
огкыл
огкылысь
оглом
оглыкез
оглюкетэз
огназ
огпала
огпол
огсыр
огшоры
огъе
огъя
огырчи
огюстен
од
одежда
одесса
оди
однако
одно
одра
ож
ожгар
ожгарчиос
ожгарчиослы
ожгарчиосыз
оже
ожез
ожеф
ожи
ожлы
ожлэн
ожмаське
ожмаськем
ожмаськемез
ожмаськиз
ожмаськись
ожмаськон
ожмаськонъе
ожмаськонын
ожмаськонэ
ожмаськыны
ожмос
ожти
ожчи
ожъе
ожын
ожысь
оз
озеф
озон
озь
озьы
озьыен
ои
окато
океан
океанилэн
океаниын
океанлэн
океанъе
океанын
океанысь
океанэ
оки
окилэн
округ
округе
округлы
округлэн
округов
округъе
округын
округысь
оксана
октмо
октябре
октябрь
октябрьлы
октябрьскои
ол
ола
олег
олексан
оливер
олигарх
олимпи
олимпиада
олимпии
оло
олокыч
ольга
ольховка
ольштын
ом
оман
омга
омск
омутнинск
омыр
омыре
омырлэн
омырын
он
она
они
онлаи
онлэн
оннои
онныи
оно
онов
онтарио
онъе
оны
онын
онэ
онэз
оон
ооо
опале
опера
операезлэн
опералэн
операциез
операционнои
операция
операя
опернои
определено
опыт
ор
орбитае
организациез
организацизы
организацизылэн
организацилэн
организация
органическои
орден
орденлэн
орденъе
орденэз
орденэн
орденэныз
орджоникидзе
оре
орегон
орез
оренбург
орк
оркестр
оркын
оркысь
орлов
орлои
ортче
ортчем
ортчемъя
ортчиз
ортчизы
ортчись
ортчо
ортчоз
ортчы
ортчыли
ортчыло
ортчыса
ортчыти
ортчытон
ортчытыны
ортчытэ
ортчытэм
ортчытэмын
оружеи
оружиез
орхиднои
ос
осада
осадаез
освободительнои
осетин
осетия
осиновка
осип
осипов
оскалти
оскалтон
оскар
оскемын
оскиз
оскизы
оскись
оскон
осконлэн
осконъе
осконын
осконэз
оскыти
осман
остров
острова
островскии
островъе
островын
осыз
осын
от
отворени
отворените
отвореног
отдел
отделение
отделенизэ
отделенияз
отделэз
отечественнои
оти
открытых
отличник
отрицательнои
отставкае
оттава
отто
отчы
отын
отысен
отысь
оф
офицер
официал
официально
официальнои
официальныи
офтальмологическии
офтальмологияя
оценка
оч
очер
очерк
очерки
очеркъе
ош
ошатоно
ошатскон
ошатсконъе
ошатсконэ
ошатыса
ошен
ошкар
ошкыт
ошмес
ошмесъе
оштолэзе
оштолэзезлы
оштолэзь
п
па
пабло
павел
павлов
павлович
пазьгиз
паи
пакистан
пакистанлэн
пакистанын
пал
пала
палаз
палан
паласен
палась
палган
палеонтолог
палестина
палладии
паллань
паллян
паллянысь
палозь
палти
палъе
палыз
палын
палысен
палысеныз
палысь
палысьтыз
палэзь
палэназ
палэнти
палэнтон
палэнтэмын
палэнын
палэнысь
палэнэ
палэсмурт
памяти
памятник
памятникез
памятникъе
панама
панамаын
панамаысь
панда
пантелеи
папа
папи
папуа
парагваи
парад
парвус
парзи
париж
париже
парижын
парижысь
парин
парк
парклэн
парламент
парламентлэн
парламентэз
парма
паровоз
паровои
паром
пароход
парсек
парсь
парсьгурт
партие
партиез
партиен
партизанъе
партизы
партии
партилэн
партилэсь
партиос
партиысь
партия
партне
паспорт
пассажирен
пассажирскои
пассажиръе
пасси
пась
пасье
паськыт
паськытаз
паськытатон
паськытатонъя
пасьта
пасьталаез
патент
патриарх
патриархез
патрик
патриотъе
паули
пауль
пахомова
паша
пашур
пе
пегз
педагог
педагоги
педагогика
педагогикая
педагогическои
педиатр
пединститутын
пединститутэ
педор
педтехникуме
педтехникумын
педучилищеез
педучилищеын
пеи
пекин
пельга
пен
пенза
пенсионеръе
пер
первои
первомаи
первыи
перевозчиков
перевощиков
перевощикова
перед
передача
передачаос
передвижник
перемирие
перенаправление
перепеч
перепечез
переписи
перепись
переписьын
переписья
пересь
пересье
период
периодическои
перм
пермского
пермь
пермьын
пермьысь
пермяк
пермякъе
пероггурт
перс
персидскои
персонаж
персонажлэсь
персонажъе
перу
перуын
перуысь
перфоманс
песня
песянаи
петер
петербуг
петербугын
петербург
петербурге
петербургын
петербургысь
петр
петро
петров
петрова
петрович
петровна
петровскои
петровъе
петроград
петроградын
петроградысь
петрозаводск
петропавловскои
печати
печатла
печатлаз
печатлам
печатламын
печатланы
печатласькизы
печатласько
печатнои
печать
печатья
пещернои
пи
пианиноен
пиез
пизы
пизь
пизэ
пии
пиле
пилемъе
пилот
пильва
пимен
пинал
пиналъе
пиньысь
пинязь
пионер
пионеръе
пиос
пиосмурт
пиосмуртъе
пиосъе
пиосыз
пипу
пиренеи
пирс
писатель
писателье
писательлэн
пислэг
писпу
писпуос
пистолет
писэи
питер
питкевич
пихтовка
пичи
пичигес
пичиез
пичиесь
пичиослы
пичипольша
пияла
пияш
пияшъе
план
планета
планетаез
планеталэн
планетаос
планъе
плато
платформ
платформа
платформазы
платформаи
платформасы
платформаһы
плеи
пленэ
плесси
плеядаос
плотностьсы
площадез
площадь
площадьын
плутон
плятформа
по
победу
победы
поварницын
повелительнои
повестез
повесть
повестье
повестьсэ
повъят
повъятъе
пограничнои
погрешность
података
податоци
подводнои
подгорное
подляшье
подмои
подурга
подшивал
подшипник
подшипникъе
поезд
поездлэн
поездъе
поездэз
пожарскии
поздеев
пои
показатели
покчи
покчиарня
пол
поле
полевои
полиглот
поликлиника
политехническои
политик
политика
политикая
политическои
политолог
полиция
полковник
полководец
поллы
положение
положительнои
полом
полушариын
полъем
поль
польша
польшае
польшаен
польшалэн
польшаын
польшаысь
полэс
полюс
поля
поляк
полякъе
поляны
полярнои
померания
пони
понна
понназ
поно
пономаре
понэмын
поп
попов
попугаи
популярнои
пор
пороз
порозово
порт
порта
портал
порталын
португал
португалиысь
португалия
портъе
портэм
поршур
поръе
порым
посе
поселение
поселении
поселенилэн
поселениос
поскре
после
пособие
пост
постановлениезъя
постол
постоянного
пота
потаны
потасье
поте
поти
пото
потон
потонзы
потонэз
потти
потто
поттон
поттонъя
поттонэз
поттыны
поттыса
поттэ
поттэм
поттэмын
поты
потыли
потыны
потыса
потэ
потэм
потэмез
потэмъе
потэмын
поход
поч
поче
починка
почта
почталэн
почти
поэзия
поэма
поэмазэ
поэмаос
поэмы
поэт
правда
правилоосты
правительство
правительствоез
правительствоезлэн
правительстволэн
правление
правлениезлэн
право
правоез
правозащитник
правооссэ
православи
православнои
прага
прагаын
прагаысь
праздник
праздникъе
праздникэз
практ
практическои
предприятие
предприятиез
предприятилэн
предприятиос
председателез
председателезлэн
президент
президентаз
президентлэн
президентсы
президентъе
президентэ
президентэз
президентэзлэн
президиумез
президиумезлэн
премиез
премиезлэн
премиен
премиеныз
премизэ
премилэн
премиослэн
премия
премьер
премьера
премьераез
преображенскои
пресл
пресс
престол
престоллэсь
престолэзлэсь
при
приволжскои
пригород
пригороднои
приз
призе
прии
приказ
прикладнои
пример
приморскои
принсипи
принц
принцесса
принципъе
припев
приходскои
про
проблема
проблемы
провинцилэн
провинция
провинцияос
программа
программаез
программаос
программаосъя
программаосыз
программист
прогресс
продукт
продюсер
продюсерез
проект
проектлэн
проектъе
проектын
проектэз
проектэзъя
проза
прозаик
произведение
произведениез
произведениос
произведениосыз
производственнои
производство
производствоез
прокатэ
прокопьев
пролетарскои
пролив
проливен
проливын
промышленник
промышленнои
промышленность
промышленностья
прос
просветительская
протокол
проф
профессионал
профессиональнои
профессор
профессорез
профиль
профсоюзъе
процент
процентэз
процесс
процессъе
пружаны
пруссия
прусскои
псевдонимез
психиатр
психолог
психологическои
психологияя
псков
пскова
пту
пу
публикалы
публицист
публицистика
публичнои
пугаче
пугачев
пудга
пудем
пудо
пудэм
пужеи
пужым
пужыятыса
пузкар
пуи
пукисье
пуксе
пуксемын
пуксиз
пукти
пукто
пуктон
пуктыли
пуктыны
пуктыса
пуктэ
пуктэм
пуктэмез
пуктэмезъя
пуктэмын
пукы
пукыч
пул
пулеме
пулитцер
пулэсь
пум
пумаз
пумазы
пумен
пумиське
пумиськизы
пумиськись
пумисько
пумиськонзы
пумиськонъе
пумиськылэ
пумит
пумита
пумитаз
пумитало
пумитаны
пумо
пумозь
пумозяз
пумтэм
пумъе
пумыз
пумын
пумысен
пумысь
пункт
пунктов
пунктъе
пуны
пуныос
пурга
пургаысь
пуро
пуромиз
пурысь
пус
пуси
пусъе
пусъем
пусъемын
пусэз
путешественник
путешествие
путин
путь
пуш
пушказ
пушкар
пушкин
пушкинлэн
пушкинлэсь
пушкинскои
пушкинэз
пушкы
пушкыз
пушкын
пушкысь
пушпал
пушти
пуштон
пуштроссэ
пуштросэз
пуштросэзъя
пуштыти
пуштытэмын
пуэз
пуэн
пуэрто
пфальц
пхе
пчеловодова
пыд
пыдкутчан
пыдъе
пыдын
пыжем
пыжон
пызеп
пызь
пыкиське
пыкъяськыса
пыр
пырак
пыраклы
пырась
пыре
пырем
пыремез
пыремын
пыриз
пыризы
пыриллям
пырись
пыриське
пыриськем
пыриськемез
пыриськиз
пыриськизы
пыриськись
пыриськисье
пырисько
пыриськыли
пыриськыны
пыриськыса
пыро
пырон
пыронзы
пыронэз
пырти
пырто
пыртон
пыртыны
пыртыса
пыртэ
пыртэмын
пыры
пырыны
пырыса
пытсамъе
пытсамын
пытсанэ
пытсэт
пытьы
пыхья
пыч
пычас
пышкизь
пьер
пьеса
пьесаез
пьесаезъя
пьесалэн
пярнумаа
р
ра
рабочеи
радио
радиозавод
радиолэн
радиостанция
радиоын
радиоысь
радищев
радъя
радъяз
радъязы
радъяло
радъям
радъямын
радъян
радъяны
радъясь
радъясье
радъяське
радъяськиз
радъяськись
радъясько
радэ
рае
раз
разведчик
развитии
развития
разин
различного
разрезе
разъезд
раи
раиса
ракета
ракетаез
ран
рапламаа
рассвет
рассел
рассказы
расцветаи
рафаэль
ргу
рдь
ре
революци
революцилы
революцилэн
революцилэсь
революционер
революционеръе
революционнои
революция
рег
регион
региональнои
регионлэн
регионъе
регионэз
регионэзлэн
регистрациез
регистрировать
ред
редактор
редакторез
редакторлэн
редакциын
редакция
редакцияз
режим
режиссе
рез
резиденциез
результатъе
реи
реки
реконструкции
рекорд
рекорднои
ректорез
религиознои
рем
ремарк
рен
рене
репертуараз
репин
респу
республик
республика
республикае
республикаез
республикалы
республикалэн
республиканскои
республикаос
республикасы
республикаын
республикаысь
республикаысьтымы
республики
респулика
референдум
реформа
реформатор
речь
решение
решениезъя
решениеныз
ржд
рз
рзы
рига
рии
рика
рико
рим
риме
римма
римскии
римскои
римын
римысь
риони
риф
рихард
ричард
ришелье
рияд
ркка
ркп
ркрп
рлык
рлыкез
рлыкъе
рлэн
рме
рмем
рмемын
рмиз
рмизы
рмы
рмымтэ
рмыти
рмытэ
рмытэмын
рныи
ро
робби
роберт
ров
родина
родники
родригес
родысь
рое
роез
роезлэн
роза
розенберг
розэ
рои
рок
ролан
ролез
роллс
роль
ролье
рользэ
ролэн
роман
романзэ
романлэн
романов
романова
романовъе
романъе
романын
романысь
романэз
рон
рональд
рос
росаз
рослы
рослэн
рослэсь
росси
россие
россиен
россии
россилы
россилэн
россилэсь
россиын
россиысь
россия
россиялэн
росстат
ростов
росъе
росын
росысь
росэ
росэз
росэн
росэти
рояз
рпк
рсдрп
рсфср
рсын
рсьы
рт
рти
ртэм
ртэмез
ртэмесь
ртэмлыкез
ртэмлыко
ртэмлыкъе
ру
руаль
руанда
руандаысь
рудничнои
рудольф
рузвельт
румын
румынилэн
румыниын
румыния
руслан
русская
русские
русскии
русское
руссо
рут
рф
рфк
ръе
ръя
ры
рын
рысь
рысьгес
рэп
рэпер
рябинина
рязань
с
са
саам
саамъе
саар
саба
сабитов
савин
савиновскои
сад
саддам
садовников
садъе
садын
саесъе
саз
сазы
саи
сак
саклык
сал
салам
салтыков
сальвадор
сальвадорын
салья
самара
самоа
самодеятельнои
самоди
самои
самоле
самсонов
самуил
сан
санатории
сандвич
санитарно
санкт
сантиметр
сантьяго
санэ
сапег
сар
сара
сараез
сараи
саралэн
сарамак
саранск
сарапул
сарапуллэн
сарапулозь
сарапулын
сарапулысь
сарапульскии
сарапульского
сарапулэ
саратов
сардык
сатирик
сатшур
сауд
саха
сахалин
сахар
сахара
сахарных
сб
сборник
сборникъе
сборнои
св
свазиленд
свердлов
свердловск
свет
света
светлана
световои
свои
свою
святица
свято
святои
священнои
се
себастьян
себеж
севастополез
севастополь
северныи
северо
седов
сез
сезлэн
сеи
секретарез
секретарь
секретаряз
секталаез
сектор
секторъе
секунд
секция
секыт
секытъе
селекционер
село
селоын
селычка
сельская
сельских
сельскохозяи
сельсовет
сельсоветлэн
сельсоветъе
семе
семеи
семинарие
семинариез
семинариын
семинария
семинаръе
семь
семья
семьяеныз
семьялэн
семьяос
семьяоссы
семьяын
семьяысь
семьяысьтызы
семьяяз
семьяязы
сен
сенат
сенатор
сенегал
сент
сентябре
сентябрь
сеныз
сер
серафима
серб
сербиысь
сербия
сервантес
сервер
серге
сергеев
сергеевич
сергеи
серги
серебренников
серемес
сери
сериал
серии
сериысь
серия
серов
сессияз
сети
сеть
сетье
сеул
си
сибире
сибирскои
сибирь
сибирьлэн
сибирьын
сибирьысь
сибы
сива
сивае
сигаево
сигнал
сиднеи
сидоров
сидоровка
сие
сизь
сизьгурт
сизьым
сизьымдон
сизьымети
сикким
сил
силард
силез
силезия
сильто
симаков
символ
символъе
символэз
симон
симферополь
симфоническои
син
сингапур
сини
синмаськымон
синмыз
синпелет
синпелетъе
синт
синъе
сиреникысь
сирилэн
сириысь
сирия
система
системаез
системалэн
системаын
системаысь
сиськон
сицилиысь
сиыны
ск
скал
скалык
скандинав
ская
ские
скии
ско
скоез
скои
скоос
скоослэн
скоослэсь
скоосыз
скоосын
скоосыныз
скотс
скотт
скрипкаен
скульптор
скульптура
слава
славян
славянкуспо
славянъе
слесарь
слобода
слободскои
слова
словак
словакиын
словакия
словарь
словен
словения
сложнои
слудка
служба
службазэ
службалэн
служить
слы
слэн
слэсь
см
смес
сми
смирнов
смирнова
смит
смоленск
смоленскез
смоленскысь
смы
смяэ
снаи
снг
снк
сносок
снусмумрик
со
собере
собор
соборез
соборлэн
соборнои
соборын
собрание
собчак
сов
совет
совета
советлэн
совето
советская
советскии
советско
советскои
советсы
советсылэн
советъе
советэз
совнарком
совнаркомлэн
современная
современник
современном
современность
совхоз
совхознои
соглаш
содержимого
сое
созыв
созь
сои
соиз
соин
сокем
соколов
соку
солдат
солдатъе
соловье
соломон
солы
солэн
солэсь
сомали
сомында
сон
сообщество
соос
соослы
соослэн
соослэсь
соосты
соосыз
соосын
соответствия
сопрано
соснова
сосновка
сосновыи
сост
составаз
составысьтыз
сотрудник
софи
софия
софья
социал
социализмо
социалист
социалистическои
социально
социальнои
социолог
сочи
сочинении
союз
союза
союзазы
союззы
союззылэн
союзлы
союзлэн
союзникъе
союзнои
союзын
союзысь
союзэ
соя
спб
спбгу
спеи
спектакль
спектаклье
спектакльын
специалист
специалистъе
специальностья
список
списоказ
спо
спорт
спортивнои
спортсмен
спортсменъе
спортъя
спортэн
справочник
спутник
спутникъе
среди
средиземнои
среднеи
сс
сср
ссср
сссрысь
ссы
ссылкае
ссылкаын
ссылы
ссылэн
ссылэсь
ссыя
ссэ
ссэс
ст
ставрополь
стадион
сталин
сталинград
сталинлэн
сталинлэсь
стамбул
стандартнои
стандартъя
станислав
станиславскии
станцие
станциез
станции
станцилэн
станциозь
станциос
станциын
станциысь
станция
старая
старое
старт
старцево
старые
старыи
стас
статеи
статистика
статистикая
статистики
статистическии
статистическои
статус
статуссэ
статустэк
статусъем
статусэз
статьи
статья
статьяез
статьязэ
статьяос
статьяослэн
ственнои
ствиез
ство
ствое
стволэн
ствоос
ствоын
ствоысь
ствоя
стенли
степан
степанида
степанов
степанова
степановна
степене
стер
стефан
сти
стив
стивен
стилез
стилья
стихи
стихотворения
стр
страна
страница
стрелковои
строи
студент
студентъе
студие
студиез
студии
студилэн
студия
сты
стэк
стюарт
субъект
субъектов
суверенитет
суверенитетэз
суворов
суд
судан
судлэн
судно
сузэрез
сузэръе
сулеи
султан
султи
султы
суматра
сунцов
сур
сурано
суред
суреда
суредаз
суредамын
суредан
суредась
суредасье
суредасьлэн
суредъе
суретъе
сурз
суринам
суро
сусыпу
сути
сутка
сутэмын
сутэр
сухои
суэцкии
сфср
схаи
сцена
сценарии
сценарист
сша
съе
съездазы
съездзы
съездэз
съя
сы
сыга
сыз
сызлы
сызлэн
сызлэсь
сызъя
сыктывкар
сылал
сылало
сыли
сыло
сылэ
сын
сыныз
сынызы
сыръе
сысен
сысь
сысьтыз
сыч
сычуань
сь
сье
сьерра
ське
ськем
ськемез
ськемзы
ськемын
ськиз
ськизы
ськись
сько
ськоз
ськом
ськон
ськонъе
ськонъя
ськонэз
ськут
ськутсы
ськутсылы
ськутсэс
ськы
ськыли
ськыны
ськыса
сьлы
сьлэн
сьлэсь
сьо
сьось
сьсы
сьтолэзе
сьтолэзезлы
сьтолэзь
сьтолэзьысен
сьтэм
сьчи
сэ
сэз
сэзь
сэмюэл
сэп
сэпыч
сэр
сэрего
сэрегъе
сэрен
сэрпалти
сэрпалтон
сэрпалтэмын
сэртти
сю
сюан
сюанзы
сюбег
сюга
сюди
сюи
сюлмаськиз
сюлмо
сюлык
сюлэм
сюлэсь
сюм
сюмси
сюмын
сюре
сюрес
сюреслэн
сюрессэ
сюрести
сюресъе
сюресъем
сюресэз
сюресэн
сюриз
сюро
сюрс
сюрслэсь
сюрсоваи
сюрсэз
сютэм
сяло
сям
сямен
сямо
сямъе
сямын
сян
сяна
сярысь
сясь
сяська
сяськае
сяськаез
сяськаос
сяськаосыз
сяськаян
сяськаяське
сяськон
т
та
табере
табл
таблица
тавцан
таджик
таджикистан
тае
таз
тазалык
тазалыкез
тазалыксэ
тазьы
таи
таиз
таиланд
таиландын
таин
так
таки
такъя
талица
таллин
таллинн
таллиннысь
талы
талэсь
тамара
тамарин
тамбов
тамил
тангурт
танзания
тани
танкъе
таня
таос
тараканов
тарасов
тарту
тартумаа
тартуысь
тарья
тасс
татар
татария
татаро
татарстан
татарстанлэн
татарстанын
татарстанысь
татарстанэ
татарстанэн
татчы
татын
татысен
татысь
татышлы
татьяна
тау
тач
ташкент
таяз
твен
тверь
творческои
творчества
творчествоез
творчествозэ
творчествоя
творчествояз
те
театр
театральнои
театрез
театрлы
театрлэн
театровед
театръе
театрын
театрысь
тебя
тевтон
тег
тезисы
теи
текст
текстлэн
текстсэ
текстъе
текстэз
теле
телеведущая
телеведущии
телеведущои
телевидение
телевиденилэн
телевидениын
телевизионнои
тележурналист
телеканал
телеканаллэн
телеканалын
телекомпания
телерадиокомпания
телескоп
телефон
тем
темаез
темалы
темаос
темая
температура
температураез
тенант
теннесси
теннисэн
тенор
теодор
теоретик
теоретикез
тер
терек
тереклэн
термин
территориальнои
территориез
территориезлэн
территории
территорилэн
территориын
территория
территорияз
террорист
террористъе
теряков
тесла
техника
техникаез
техникая
технико
техникум
техникуме
техникумын
техническои
технолог
технологиос
технологиосъя
теэ
ти
тибет
тибетысь
тиз
тизы
тили
тимерханова
тимор
тимофеевич
тимур
типъем
тиражез
тиса
титов
тихон
тихонов
тихонова
тлэн
тнои
то
тобаго
тов
того
тодаз
тоди
тодмати
тодмато
тодматске
тодматскиз
тодматско
тодматскон
тодматскыны
тодметъе
тодмо
тодмоез
тодмоосыз
тодмотэм
тодо
тодон
тодонъе
тодос
тодослыко
тодосчи
тодосчилэсь
тодосчиос
тодосчиослэн
тодосчиосты
тодосъе
тодосъя
тоды
тодыны
тодыса
тодэ
тои
токио
тол
толалтэ
толстои
толсур
толсуре
толсурезлы
толсурозь
толшор
толшоре
толшорезлы
толшорлы
толшорысен
толэзе
толэзез
толэзь
толэзье
толэзьзэ
толэзьлы
толэзьлэн
толэзьысен
том
томас
томе
томск
тон
тонга
тонна
тоннель
тоно
тонъя
тонэ
тонэн
тоо
тополь
тополье
топоним
торжественнои
торф
тот
тр
тракт
трактлэн
трактор
трамваи
трамп
транспорт
транспортлэн
транспортнои
транспортъя
транссибирскои
трасса
тре
тренер
тренерез
три
тринидад
трир
трк
трлэн
троицкои
трокаи
троллеи
тролье
трольлэн
трон
тронина
тронъе
трос
тросаз
тросгес
трослы
троссэ
тросэз
тросэзлы
тросэн
трофим
троцкии
труда
трудовая
трудовои
тскиз
тсэ
тт
ту
туала
туберкуле
тубиз
туве
туганаев
туж
тужгес
туи
тукаи
тукля
туктамышева
тукташ
тула
тулкымъе
тулыс
тулыспал
тулыспалозь
тулыспалысен
тулыспалэ
тулыспалэзлы
тум
тунис
туннэ
тунсыко
тунсыкъяське
тупа
тупазы
тупал
тупало
тупаса
тупась
тупасьтэм
тупати
тупатон
тупатыны
тупатэм
тупатэмын
тупен
тур
тура
турецкои
туризм
туризмез
туризмъя
туринын
туристическои
туристъе
туркмен
туркмения
турку
турлы
турнир
турок
турокъе
туртти
турцилэн
турциын
турциысь
турция
турцияын
турын
турыно
турынъе
тусбуи
тусо
туспукти
туспуктэм
туспуктэмъе
туссэ
тусъем
тусыз
тусызъя
тутыгыш
тушмон
тушмонъе
туэ
тчам
тчамаз
тчамезлэн
тчамзы
тчамъе
тчик
тъе
ты
тыва
тыжма
тыл
тыло
тылобурдо
тылобурдоос
тыловаи
тыловыл
тылои
тылпу
тылэн
тымет
тыметлэн
тыметын
тын
тыны
тыныд
тыос
тыре
тырметъе
тырмиз
тырмонлы
тырмыт
тырше
тыршемез
тыршеменыз
тыршиз
тыршизы
тыршись
тыршисье
тыршо
тыс
тыса
тысь
тысячи
тычинкаем
тэ
тэз
тэк
тэль
тэм
тэмын
тэн
тэрек
тэремшур
тэц
тюмень
тюрагаи
тюрк
тюрколог
тюрьмаын
тяма
тямыс
тямысэти
тянь
у
уаз
уаи
уаса
уасср
уась
ува
уваров
уваысь
увинская
уг
уганда
уго
угор
угорских
угось
угпи
угровед
угроведение
угроведъе
уд
ударник
ударнои
удгу
уддяди
удм
удмииял
удмурт
удмуртвикимарафон
удмуртие
удмуртиез
удмуртии
удмуртилэн
удмуртилэсь
удмуртиын
удмуртиысь
удмуртия
удмуртлык
удмуртнефть
удмуртов
удмуртология
удмуртская
удмуртские
удмуртскии
удмуртских
удмуртского
удмуртское
удмуртскои
удмуртском
удмуртъе
удмурты
уднии
удыс
удыслы
удыссэ
удысъе
удысъя
удысын
удысысь
удысэ
удысэз
удысэн
уе
уезд
уезда
уезднои
уездъе
уездысь
уездэ
уен
уж
ужа
ужаз
ужазы
ужакуз
ужало
ужалэс
ужам
ужамез
ужамзы
ужамзэ
ужамысь
ужан
ужаназ
ужанъя
ужаны
ужаса
ужасез
ужась
ужасье
ужасьтэм
ужбергати
ужда
уждалаез
уже
ужез
ужен
уженыз
ужзэ
ужзэс
ужкагазъе
ужлы
ужлэн
ужпум
ужпумез
ужпумъе
ужпумъя
ужрад
ужрадъе
ужрадын
ужрадэ
ужрадэз
ужчи
ужъе
ужъюрт
ужъя
ужын
ужысь
ужыт
ужытэз
уз
узб
узбек
узбекистан
узбекистанлэн
узы
узыр
узырлыкез
уи
уильям
уинстон
ук
указ
указан
указэз
указэзъя
укан
уката
укмыс
укмысэти
укна
укоен
укпал
укр
украин
украина
украиналэн
украиналэсь
украинаын
украинаысь
украинецъе
украинъе
украі
уксе
укша
укшор
укыр
ул
улаз
улз
ули
улисье
уллямын
уло
улон
улоназ
улонзэ
улонзэс
улонлы
улонлэн
улонлэсь
улоно
улонъе
улонын
улонысь
улонэ
улонэз
улонэн
улос
улосвыл
улосвылаз
улосвылысь
улослы
улослэн
улосъе
улосын
улосысь
улосэ
улосэз
улосэн
улсаз
улсы
улсын
улти
улы
улыг
улын
улыны
улыса
улысь
уль
ульхть
ульча
ульчаос
ульчаын
ульяна
ульянов
ульяновск
улэ
улэм
улэмез
улэмзэс
улэп
ум
умоен
умои
умъя
ун
уни
университе
университет
университета
университетлэн
университетлэсь
университетъе
университетын
университетысь
университетэ
университетэз
униез
унитарнои
уння
уно
уногес
уноез
управление
управлениез
ур
урал
урала
уралысь
уральскии
уральскои
урам
урамез
урамъе
урамын
урамысь
уран
уранлэсь
урасинов
урасинова
урди
урдэглэсь
уржум
уро
урод
уром
уругваи
уса
усе
усиз
усись
усков
условнои
усманов
усо
успенскои
уставез
устинов
усто
устолыкъя
устрои
усть
уськыти
уськытэмын
усьти
усьтон
усьтыны
усьтэ
усьтэм
усьтэмын
ут
уте
утем
утемлэн
утемъе
утемын
утемысь
ути
утиз
утизы
утись
утисье
утиське
утисько
утиськон
утиськонъя
уткина
утон
утопист
утскем
утскиз
утскиськон
утскон
утсконзы
утчан
утчаны
утчаса
утыны
утьыны
утьыса
утэ
утэм
утэмын
утялтон
уфа
уфолог
уч
уча
уче
учебникъе
учебно
училище
училищее
училищеез
училищеын
училищеысь
учке
учкисье
учко
учконо
учкыны
учкыса
учредителье
учредительнои
учреждение
учъе
учыр
учыре
учыръе
ушаков
ушакова
ушкон
ушъял
уэльс
уэсли
уян
уянэ
уяса
уясь
ф
фабрика
фаворитэз
фаи
фаина
факел
факто
фактор
фактъе
факты
факультет
факультетаз
факультетлэн
факультетын
факультетысь
факультетэ
факультетэз
фале
фамилиез
фантаст
фарад
фарадеи
фарер
фасо
фатих
фашизмо
фашист
фашистъе
фе
феврале
февраль
февраля
федерал
федеральная
федерального
федеральнои
федеральных
федеративнои
федераци
федерацизы
федерации
федерацилэн
федерациысь
федерация
федерацияысь
федосья
федотов
феи
феликс
фель
фельд
фельдмаршал
фельдшер
фердинанд
ференц
ферма
фермер
фестивале
фестивалез
фестиваль
фестивалье
фестивальзы
фестивальын
фигурист
фигуристка
фигурнои
фидель
фиджи
физик
физика
физикаез
физикая
физико
физиолог
физическои
физкультурая
филармони
филармонилэн
филармониын
филиалэз
филипп
филиппин
филиппинъе
филолог
филологи
филология
филологияя
философ
философияя
философскои
фильм
фильмез
фильмлэн
фильмъе
фин
финансовои
финляндилэн
финляндиын
финляндиысь
финляндия
финн
финно
финнъе
финскои
фирма
фирмаез
фирменнои
фк
флаг
флагез
флагзэ
фламинго
флеминг
флор
флорида
флоридаын
флот
флотлэн
флотоводец
флотэз
фобос
фолкленд
фольклор
фольклорез
фольклорист
фольклорлы
фольклоръя
фома
фомин
фон
фонд
фондлэн
фонетикая
фонетист
формаез
формаен
форматын
формула
форум
фотограф
фотомодель
фр
франк
франклин
франко
франкфурт
франкъе
франсиско
франсуа
франц
францие
францилы
францилэн
францилэсь
франциск
франциско
францити
франциын
франциысь
франция
француз
французъе
фрг
фредерик
фреи
фридрих
фронт
фронтын
фронтысь
фронтэ
фрунзе
фрэнсис
функциез
футбол
футболист
футболъя
футбольнои
футболэн
фэи
фэнтези
х
хааберсти
хабаровск
хаджи
хаи
хакас
хакасия
халиско
халтурин
хан
ханлэн
ханои
ханс
ханты
харьков
харьюмаа
хасан
хачатурян
хеи
хельсинки
хельсинкиысь
хии
хими
химик
химическои
химия
химияя
хип
хирург
хит
хлынов
хо
ходырев
хозяи
хоккеен
хоккеи
хомячок
хонсю
хор
хорват
хорватия
хормеи
хоровои
хосе
хохряк
храм
храмез
хризантемаос
христиан
христолюбова
христос
христофор
хруще
хстаг
хуан
художественнои
художник
художников
хусеи
хх
ц
цариын
цариысь
цария
царствое
цветаева
це
цев
цева
цезарь
центр
центральнои
центрез
центрен
центрзы
центрзэс
центрлэн
центрлэсь
центров
центръе
центрын
церкви
церковно
цех
цзэдун
цик
цирк
цирклэн
цитированиын
цк
цои
цру
ч
ча
чабеи
чабья
чавес
чагыр
чад
чаи
чакла
чаклам
чакламын
чалды
чалма
чалмыт
чан
чарли
чарльз
час
часлы
частнои
частые
часть
че
чебер
чеберлыко
чеберлыкъя
чебермало
чеберманъе
чебоксары
чевакысь
чеганда
чекан
человек
челябинск
чемберлен
чемошур
чемпион
чемпионат
чемпионзы
чемпионка
чемпионэз
чепца
чердынь
чере
черезов
черк
черке
черкез
черкесия
черклы
черклэн
черклэсь
черко
черкогурт
черкогуртлы
черкогуртлэн
черкогуртлэсь
черкогуртъе
черкогуртын
черкогуртысь
черкогуртэ
черкогуртэз
черкславян
черксы
черкъе
черкын
черлам
чернобров
чернов
чернова
черногория
чернушка
чернышевскии
черчилль
ческыт
четкаре
чех
чехилэн
чехиысь
чехия
чехов
чехословакиын
чехословакиысь
чечен
чечня
чечы
чечым
чида
чик
чили
чилилэн
чилиысь
чипчирган
численности
численность
чита
чиуауаысь
чишмы
член
членэз
чнк
чо
чонари
чорыг
чорыгъе
чотан
чотанъя
чотын
чотэ
чрезвычаи
чтения
что
чтобы
чуваш
чувашилэн
чувашия
чувашскии
чувашъе
чугун
чудья
чукиндэр
чукотка
чукотскои
чумои
чупик
чупчи
чупчие
чур
чуръе
чурыт
чус
чылкак
чылкыт
чын
чьяпас
ш
шаберди
шаблон
шаер
шаерамы
шаере
шаерез
шаерен
шаерлы
шаерлэн
шаермылэн
шаертодонъя
шаерчи
шаеръе
шаерын
шаерысь
шаерысьтымы
шаи
шамиль
шандор
шанхаи
шаплы
шар
шара
шараяз
шараямын
шарез
шаркан
шарль
шахматъя
шахматэн
шахраи
швед
шведъе
швеи
швецилэн
швециын
швециысь
швеция
шева
шеде
шедем
шедиз
шедьти
шедьтыны
шедьтэм
шедьтэмын
шеи
шел
шенген
шепталин
шер
шергес
шет
ши
шибанов
шиман
широбоков
шишкин
шк
шкалаез
шкляев
шкляева
школа
школае
школаез
школазы
школазэ
школалэн
школалэсь
школаос
школаослы
школаосын
школаын
школаысь
школаязы
школьнои
шляпа
шмидт
шо
шобыртэмын
шолья
шон
шонер
шонерак
шонти
шор
шораз
шорез
шорезлэсь
шоркар
шоркараз
шоркарез
шоркареныз
шоркарзы
шоркарзэ
шоркарыз
шоркарын
шорлыдо
шормуч
шоро
шорозяз
шорсюлмаз
шорсюлмыз
шортэн
шоръе
шоры
шорын
шорысь
шорысьтыз
шоссе
шотландилэн
шотландиысь
шотландия
шоу
шоумен
шпицберген
шри
шрифтъе
штаб
штат
штатлэн
штатсы
штатъе
штатын
штатысь
штраус
штурмовать
шувалов
шуг
шудз
шуди
шудо
шудон
шудонлэн
шудонъе
шудонын
шудонысь
шудонэз
шудыли
шудыны
шудыса
шудья
шудэ
шудэм
шудэмын
шуиз
шуккон
шулдыр
шумбра
шумбрат
шунды
шундые
шундыж
шундыкар
шундылы
шундылэн
шундылэсь
шундыпуксе
шуныт
шуо
шуом
шуон
шуоно
шур
шуран
шурасье
шуре
шурез
шурен
шуркынмон
шуркынмонэ
шуркынмонэзлы
шурлы
шурлэн
шурлэсь
шуръе
шут
шутэтскон
шутэтскыны
шуыли
шуыны
шуыса
шуэ
шуэмез
шч
шыд
шыр
щ
щедрин
щит
ъ
ъе
ы
ыбемын
ыбиз
ыбыли
ыбылон
ыбыны
ыбыт
ыгевамаа
ыды
ыж
ыжатон
ыжатонъя
ыжы
ыз
ыи
ык
ыл
ылаз
ыли
ыло
ылолъе
ылпумъя
ылпумъяз
ылпумъям
ылпумъямез
ылпумъямын
ылпумъян
ылпумъянъе
ылпумъяса
ылпумъяськем
ылпумъяськиз
ылпумъяськизы
ылъе
ылыз
ылын
ылыны
ылысь
ылэ
ым
ымаз
ымгес
ымдур
ымез
ымесь
ымныро
ымон
ымъе
ын
ыны
ыныяз
ыос
ыпет
ыр
ыраз
ыразы
ырзэ
ыри
ырин
ыро
ырси
ыръе
ырыз
ыса
ысен
ысти
ысто
ыстыны
ыстэмын
ысь
ыт
ыти
ыто
ытон
ытонъе
ытпал
ытшор
ыты
ытыны
ытэ
ытэмын
ыш
ышиз
ышти
ыштонъе
ь
э
эбга
эвакуация
эвакуировать
эгеи
эгра
эграысь
эгыр
эдвард
эдвин
эдгар
эдисон
эдуард
эдэи
эжен
эз
эи
эквадор
эквадорлэн
эквадорын
экваториальнои
экз
экземпляр
экономика
экономикаез
экономикая
экономист
экономическои
экранъе
экспедициез
экспедициосы
экспедиция
экспериментальнои
экспертъе
эксплуатацилы
эксплуатационные
экспресс
эксэез
эксэи
экти
эктон
эктонъе
эктонъя
эл
элвис
электрик
электрифицировать
электрическои
электро
электромагнитнои
электромеханическои
электрон
электропоезд
электротехник
элемент
элементъе
элизабет
элын
эль
эльба
элькун
элькунлэн
элькунын
элькунысь
элькунысьтымы
элькунэ
эмезь
эмиль
эминуть
эмиратъе
эммануил
эмтодос
эмтодосчи
эмчи
эмъюм
эмъюрт
эмъяло
эмъян
эмъянъя
эмъясь
эмъяськон
эмъяськонни
эн
энгельс
энрико
энциклопедилэн
энциклопедическии
энциклопедия
эпоха
эр
эралэн
эралэсь
эрзя
эри
эрик
эрике
эрико
эрикрадо
эритрея
эрих
эркын
эрнест
эрнст
эрьзя
эскере
эскеремын
эскериз
эскеризы
эскерись
эскерон
эскеронлы
эскероно
эскеронъе
эскеронъя
эскерыны
эскерыса
эскимос
эсперанто
эссеист
эст
эстафетаын
эсти
эстон
эстонии
эстонилэн
эстониын
эстониысь
эстония
эстонъе
эстрада
эстрадалэн
эстрадаысь
эстраднои
этажъем
этнограф
этнографилы
этнографическои
этнографияя
это
этого
эфиопия
эфире
эфирын
эхо
эчер
эш
эшез
эшшо
эшъе
эшъяськон
ю
юан
юанъе
юар
юбер
юбилеи
югдур
югдурез
югдыти
югдытон
югдытонъя
юго
югославиысь
югославия
югыт
югытлэн
южнои
южныи
южтолэзе
южтолэзезлы
южтолэзь
южтолэзьысен
юкамен
юкаменск
юкон
юле
юлиан
юлии
юлиус
юлия
юморист
юмшан
юмья
юн
юнда
юнды
юнеско
юнмати
юнмато
юнматон
юнматэмын
юнме
юннань
юность
юон
юонъе
юп
юпик
юпикъе
юпитерлэн
юр
юре
юри
юридическои
юрии
юрист
юрла
юрт
юртаз
юртлэн
юртсы
юртсэ
юртти
юртто
юрттэ
юрттэмезъя
юрттэт
юртъе
юртъер
юртъеръе
юртын
юртэ
юртэз
юрьевич
юсь
юш
я
ява
явлениосты
яг
яган
ягваи
ягошур
ягул
яд
ядернои
яз
язык
языка
языках
языке
языки
яке
якоб
яков
яковлев
яковлева
яковлевич
якорь
якут
якутия
якутск
якшур
ялан
яли
ялон
ялта
ялэм
ялэмын
ям
ямаи
ямал
ян
яна
янаул
январе
январь
января
янгыш
янгыше
яндекс
янош
янссон
яны
яп
япон
японецъе
японилэн
япониын
япониысь
япония
японияын
яр
яра
ярамон
яранск
ярати
ярато
яратон
яратоно
яратонэз
яраты
яратэ
ярвамаа
ярдур
ярдураз
ярдурез
ярдурезлы
ярдурзэ
ярдуръе
ярдурын
яркыт
ярослав
ярославль
ярузельскии
ярын
яське
яськыны
ятчи
ятыр
яшин
ђ
є
ѕ
і
ј
љ
њ
ћ
џ
ҋ
ҍ
ҏ
ґ
ғ
ҕ
җ
ҙ
қ
ҝ
ҟ
ҡ
ң
ҥ
ҧ
ҩ
ҫ
ҭ
ү
ұ
ҳ
ҵ
ҷ
ҹ
һ
ҽ
ҿ
ӄ
ӆ
ӈ
ӊ
ӌ
ӎ
ӕ
ә
ӡ
ө
ӷ
ӽ
բաց
շտեմարան
տվյալների
ְ
ִ
ֵ
ֶ
ַ
ָ
ּ
ׂ
א
י
ל
ר
ש
ا
اوپن
ة
ر
فارم
ي
َ
ُ
ِ
ّ
ٔ
ٕ
پلیٹ
ڈیٹا
क
थ
द
न
र
ल
ा
ि
ी
्
க
ட
ப
ம
ய
ர
ல
ள
ழ
வ
ஸ
ா
ி
ீ
ு
ூ
ே
ை
்
ට
ර
්
ෙ
ນ
ေ
მონაცემები
პლატფორმა
ღია
េ
‌
‎
‑
–
—
―
‘
’
“
”
„
†
•
…
′
″
№
→
↔
↷
−
≈
⋅
③
④
⑦
☉
ⰽ
ⱄ
ⱏ
⺀
⺄
⺆
⺈
⺊
⺌
⺕
⺝
⺸
⺼
⿰
⿱
⿲
⿳
⿴
⿵
⿶
⿷
⿸
⿹
⿺
⿻
〢
の
゙
゚
ク
コ
ヒ
メ
モ
ユ
ン
㇁
㇂
㇄
㇇
㇈
㇉
㇓
㐁
㐄
㐅
㐌
㐫
㐬
㐭
㐮
㐱
㑒
㒵
㒸
㒼
㓁
㓞
㔾
㕛
㕣
㖾
㘝
㚅
㚇
㚔
㚘
㝉
㝡
㝴
㝵
㞋
㞢
㞷
㠩
㠭
㠯
㡀
㡭
㡿
㢲
㢴
㣇
㣺
㥯
㪅
㫄
㫐
㫒
㫺
㬅
㬎
㬥
㬰
㲋
㳄
㷠
㸒
㸚
㸦
㼌
㼲
㽞
㿟
䀠
䂞
䍃
䏍
䒑
䖍
䖒
䖝
䖵
䙴
䚻
䜌
䝿
䡛
䧹
䪞
一
丁
丂
七
丄
丅
丆
万
丈
三
上
下
丌
不
与
丏
丐
丑
专
且
丕
世
丘
丙
业
东
丞
丢
丣
两
严
並
丨
丩
个
丫
丬
中
丮
丰
丱
串
丵
丶
丷
丸
丹
为
主
丽
丿
乀
乂
乃
久
乆
乇
么
义
之
乌
乍
乎
乏
乐
乑
乔
乖
乗
乘
乙
乚
乛
乜
九
乞
也
习
乡
乳
乾
亀
亅
了
亇
予
争
事
二
亍
于
亏
亐
云
互
亓
五
井
亘
亚
亜
亞
亟
亠
亡
亢
交
亥
亦
产
亨
亩
享
京
亭
亮
亯
亰
亲
亳
亶
亷
人
亻
亼
亾
仁
今
介
仌
从
仐
仑
仒
仓
仕
他
付
仝
代
令
以
任
企
伊
伏
伐
休
会
伯
但
位
何
佘
余
作
佥
使
來
侈
侌
侖
侯
侵
便
保
俞
信
修
倉
倍
候
倠
備
僉
僕
儿
兀
允
兂
元
兄
充
兆
兇
先
光
兊
克
兌
免
兑
兒
兓
兔
党
兜
兟
入
全
兩
兪
八
公
六
兮
兰
共
关
兵
其
具
典
兹
兼
冀
冂
冃
冄
内
冈
冉
冊
冋
册
再
冎
冏
冐
冒
冓
冖
冗
冘
军
农
冝
冡
冥
冫
冬
冷
几
凡
凢
凵
凶
凷
凸
凹
出
函
凾
刀
刁
刂
刃
刄
刅
分
切
刍
刑
刕
刖
列
刘
则
初
別
利
别
到
制
刺
則
削
剌
前
剡
剽
劉
力
功
加
劦
助
劫
劳
劵
勃
勇
勉
勒
動
務
勞
勢
勤
勹
勺
勻
勾
勿
匀
匂
包
匆
匈
匊
匋
匍
匕
化
北
匚
匝
匡
匪
匱
匸
匹
区
医
匽
匿
區
十
卂
千
卄
卅
卆
升
午
卉
半
卌
华
卑
卒
卓
单
卖
南
卜
卝
卞
占
卡
卢
卣
卤
卦
卩
卪
卬
卯
印
危
即
却
卵
卷
卸
卻
厂
厃
厄
历
厈
厉
厌
厓
厘
厚
原
厤
厥
厨
厭
厲
厶
厷
厸
去
厼
厽
叀
参
參
叅
又
叉
及
友
双
反
叐
发
叒
叔
叕
取
受
叚
叜
叟
口
古
句
另
叩
只
召
可
台
叱
史
右
叵
号
司
叹
吂
各
吅
合
吉
吊
吋
同
名
后
吏
向
吕
君
吝
吞
否
含
启
吳
吴
吹
吾
呂
呆
呈
告
员
呙
周
命
咅
和
咎
咠
咢
咨
咸
咼
哀
品
哉
員
哥
哲
唐
商
啇
問
啚
啬
啻
善
喜
喬
單
喿
嗇
噩
嚴
囊
囗
囘
囙
囚
四
回
囟
因
囧
囬
困
囱
囷
固
国
圂
圅
國
圍
圓
土
圡
圣
圥
在
圭
地
圶
圼
坐
坒
坚
坴
垂
垔
垚
埀
埋
埶
執
基
堂
堅
堆
堇
堯
塞
墨
壘
士
壬
壯
声
壳
壴
壹
壺
壽
夂
处
夅
夆
备
夊
夋
夌
复
夏
夒
夕
外
夗
夘
多
夜
夢
大
夨
天
太
夫
夬
夭
央
失
夲
头
夷
夸
夹
夻
夾
奂
奄
奇
奈
奉
奎
奏
奐
契
奓
奔
奚
奞
奠
奢
奥
奭
女
奴
奻
好
如
妄
妙
妟
妥
妻
妾
姑
委
姜
威
娄
婁
婴
嬰
嬴
子
孑
孔
孕
孖
字
存
孚
孛
孝
孟
季
孤
学
孫
孱
學
宀
宁
宂
它
宅
宇
守
安
宋
完
宏
宓
宗
官
定
宛
宜
宝
客
宣
室
宮
宰
害
家
容
宾
宿
寄
寅
密
富
寒
察
寧
審
寫
寬
寮
寸
对
寺
寻
寽
対
寿
封
尃
射
将
將
專
尉
尊
尋
尌
對
小
少
尒
尓
尔
尖
尗
尚
尞
尢
尣
尤
尧
尨
尭
就
尸
尹
尺
尻
尼
尽
尾
尿
局
居
屈
屋
屎
屏
屑
展
屖
屚
属
屠
屡
屬
屮
屯
屰
山
屵
屾
岁
岂
岑
岡
岩
岳
岸
峯
島
崇
崑
崔
崖
崙
崩
嵬
嶲
巂
巛
川
州
巟
巠
巢
巤
工
左
巧
巨
巩
巫
差
己
已
巳
巴
巷
巸
巽
巾
巿
帀
市
布
希
帚
帛
帝
带
師
席
帶
常
干
平
年
幵
并
幷
幸
幺
幻
幼
幽
幾
广
広
庄
床
底
店
庚
府
度
庫
庭
庶
康
庸
廉
廌
廛
廣
廩
廴
延
廷
建
廾
廿
开
弁
弃
弄
弇
弋
式
弓
弔
引
弗
弘
弜
弟
弥
弦
弱
張
強
强
彊
彌
彎
彐
彑
当
彔
录
彖
彗
彡
形
彥
彦
彧
彭
彳
役
彼
往
待
律
徒
得
徙
從
復
微
徵
心
忄
必
忌
忍
志
忝
忠
忩
快
念
忽
忿
思
怠
急
怱
恆
恒
恩
恭
息
悉
患
悤
悲
悶
惠
惡
惢
愁
愈
意
愛
感
慈
慧
慮
憂
憲
應
戀
戈
戉
戊
戋
戌
戍
戎
成
我
戒
戔
或
戚
戠
戢
截
戲
戶
户
戹
戼
戾
房
所
扁
扇
手
扌
才
打
托
执
承
折
拉
拜
拿
掌
推
提
摩
支
攴
攵
收
攸
改
放
政
敄
敏
敕
敖
敗
敝
敞
敢
散
敦
敫
敬
数
敷
數
斂
文
斉
斊
斗
斤
斥
斩
斬
斯
新
方
於
施
斿
旁
旋
族
无
旡
既
旣
日
旦
旧
旨
早
旬
旱
旲
时
旾
昆
昇
昌
昍
明
昏
易
昔
昗
昜
星
春
昬
是
昱
昴
昷
時
晃
晋
晏
普
景
晶
智
暑
暴
曇
曩
曰
曲
曳
更
曷
書
曹
曼
曾
替
最
朁
會
月
有
朋
服
朔
朕
朗
望
朝
木
朩
未
末
本
札
朮
术
朱
朵
朶
朿
杀
杏
村
杜
束
条
来
東
杲
杳
松
析
林
枚
果
枝
枲
枼
某
柔
查
柬
柰
柴
査
栗
桀
桑
桼
梁
條
梟
梨
棘
棠
棥
森
楚
業
楽
概
榮
樂
樊
欠
次
欣
欮
欲
欶
欽
款
歆
歇
歛
止
正
此
步
武
歨
歪
歮
歯
歰
歲
歴
歷
歸
歹
歺
死
殳
段
殷
殸
殹
殺
殻
殿
毋
毌
母
每
毒
比
毕
毚
毛
毳
氏
氐
民
气
氣
水
氵
氶
氷
永
氺
氾
求
汝
汞
江
沃
沓
沙
沝
泉
法
波
泣
泥
泰
洛
洪
活
派
流
浦
浪
浮
淡
淮
清
渚
渠
湯
滿
漸
火
灬
灭
灰
灵
灷
炅
炎
炏
炗
炙
炭
為
烈
烏
烝
焉
無
焦
焱
然
煞
熊
熏
燕
營
燮
爪
爫
爭
爯
爰
爱
爲
爵
父
爻
爽
爾
爿
片
牙
牚
牛
牜
牟
牢
牧
牪
牽
犀
犬
犭
犮
狂
狄
狊
独
狺
猋
猒
猪
献
獻
玄
率
玉
王
玟
玨
珎
班
琴
瑟
瑩
瓜
瓦
甘
甚
生
産
用
甫
甬
田
由
甲
申
电
甶
男
甸
甹
町
画
甾
畀
界
畏
畐
留
畜
畟
畢
畧
畨
番
畫
異
畱
當
畺
畾
疊
疋
疌
疑
疒
疾
癶
癸
癹
登
發
白
百
皀
皃
的
皆
皇
皋
皐
皕
皮
皷
皿
盃
盆
盇
盈
益
盍
盎
监
盒
盖
盛
盡
監
盤
盧
目
直
相
盾
省
眇
眉
看
眔
眞
真
眷
眼
眾
着
睘
睪
睿
瞏
瞢
瞿
矍
矛
矞
矢
矣
知
矦
短
石
破
碎
磊
磨
示
礻
礼
祟
票
祭
禀
禁
禸
禹
禺
离
禽
禾
禿
秀
秃
秉
秋
科
秝
秦
移
稟
穀
穌
穴
究
穹
空
穿
突
窄
窒
立
竒
竜
竝
竟
章
童
竹
笑
笠
筆
等
答
箕
算
箴
節
篤
篭
米
粉
粛
粟
粤
粦
粲
糞
糸
糹
系
約
納
素
索
紫
累
細
絜
絫
絲
維
綿
縣
繇
纍
纟
缶
网
罒
罔
罕
罗
罙
罡
罢
罪
署
罷
羅
羊
羌
羍
美
羔
羕
羗
羞
羡
羣
群
義
羲
羸
羽
翁
翏
習
翕
翟
翠
翼
老
耂
考
者
耆
而
耎
耑
耒
耳
耴
耶
耷
聂
聊
聖
聚
聶
聿
肀
肃
肅
肉
肖
肙
肥
肩
肯
育
肴
胃
背
胡
胥
能
脊
脩
膚
臣
臤
臧
自
臬
臭
臯
臱
至
致
臺
臼
臽
臾
臿
舀
舂
舄
與
興
舉
舌
舍
舛
舜
舞
舟
般
艮
良
色
艸
艹
艾
芒
芔
芬
芮
花
芳
芺
芻
苔
苗
苟
若
苦
英
茶
茸
荅
草
荒
荣
荼
莆
莧
莫
莽
菆
菊
菐
華
萬
落
葉
著
葛
董
葵
蒙
蒦
蒼
蓋
蓬
蓺
蔑
蔡
蕉
蕭
薄
薛
薦
薰
藍
藏
藥
蘭
虍
虎
虐
虒
虔
處
虖
虗
虘
虚
虛
虜
虞
虫
虽
蚤
蚩
蜀
蜜
蟲
蠡
血
行
衍
衛
衣
衤
表
衮
衰
袁
袞
褭
褱
襄
襾
西
覀
要
覃
見
規
覓
覧
親
覽
见
角
解
言
訁
訇
計
詹
語
誩
調
諸
讠
谷
豆
豈
豊
豐
豕
豖
豙
象
豦
豩
豪
豸
貇
貝
貞
貟
負
貢
貧
貪
貫
責
貳
貴
買
費
賁
資
賈
賏
賓
賔
賛
賞
賢
賣
質
賴
贊
贝
贡
责
贯
贲
贵
赖
赞
赤
赦
走
越
足
路
蹇
身
躬
車
軍
軎
軟
輦
车
辛
辜
辟
辥
辰
辱
農
辵
辶
边
达
过
近
连
迷
追
退
送
逆
逐
通
速
造
逢
連
逮
進
遀
遂
過
道
達
遣
適
遷
遺
邊
邑
邕
那
邦
邪
郎
部
郭
都
鄉
酉
酋
配
酓
釆
采
里
重
野
量
金
釒
錢
钅
長
镸
长
門
閃
閉
開
閏
閑
閒
間
閔
閵
閻
闌
门
间
闷
阑
阜
阝
阪
阿
降
陳
隆
隊
隋
隡
隨
隱
隶
隹
隺
隻
隼
隽
难
雀
雁
集
雈
雋
雍
雐
雔
雙
雚
雜
雝
離
難
雨
雩
雪
雲
零
雷
需
霍
霜
霝
霞
霸
靈
靑
青
非
靡
面
靣
革
韋
韦
韭
韯
韱
音
頁
頃
項
須
頗
頡
頻
顛
页
風
风
飛
飞
食
飠
養
饣
首
香
馬
馮
駦
马
骨
高
髟
鬥
鬯
鬲
鬼
魚
魯
鮮
鱼
鲁
鳥
鳳
鸟
鹵
鹿
麃
麗
麥
麦
麻
黃
黄
黍
黎
黑
黒
黨
黹
黽
黾
鼎
鼓
鼠
鼻
齊
齋
齐
齒
齿
龍
龙
龜
龟
龠
龰
龱
龴
龵
龶
龷
龸
龹
者
艹
﻿
？
𠀁
𠀃
𠀆
𠀉
𠀎
𠀐
𠁁
𠁣
𠂆
𠂇
𠂈
𠂉
𠂊
𠂋
𠂎
𠂒
𠂔
𠂛
𠂡
𠂢
𠂤
𠂬
𠂭
𠂹
𠃊
𠃋
𠃌
𠃍
𠃎
𠃑
𠃓
𠃔
𠃜
𠄌
𠄎
𠄠
𠄢
𠆢
𠆥
𠇍
𠈌
𠌵
𠓜
𠔉
𠔥
𠔼
𠔽
𠔿
𠕀
𠕁
𠕋
𠘧
𠘨
𠙻
𠙼
𠚏
𠚒
𠚤
𠚪
𠣏
𠤎
𠤕
𠥓
𠦄
𠦑
𠦝
𠧒
𠧗
𠧪
𠩺
𠪚
𠫓
𠫔
𠫤
𠬛
𠬝
𠬞
𠬢
𠬤
𠬶
𠮛
𠮦
𠮷
𠯑
𠱠
𠳮
𠷎
𡈼
𡉀
𡉵
𡌥
𡍮
𡏳
𡕒
𡕩
𡕰
𡖅
𡗗
𡗜
𡘆
𡘤
𡧱
𡨄
𡩧
𡬠
𡭽
𡰣
𡰥
𡰪
𡰯
𡰱
𡷈
𡸁
𡿨
𡿩
𡿪
𡿺
𢀖
𢀛
𢀩
𢁙
𢆉
𢆰
𢆶
𢇁
𢇇
𢉖
𢌬
𢌿
𢏚
𢑑
𢑚
𢖻
𢙣
𢛳
𢦏
𢦒
𢧵
𢼄
𢾕
𣁋
𣄼
𣅀
𣅽
𣍘
𣎳
𣎵
𣏋
𣏼
𣗥
𣥂
𣥖
𣦵
𣦼
𣧄
𣪊
𣪠
𣬉
𣳾
𣶒
𤇾
𤊽
𤐫
𤓰
𤔔
𤕨
𤣩
𤰇
𤰔
𤰞
𤴓
𤴔
𤽄
𥁑
𥁕
𥃦
𥃩
𥃭
𥇡
𥑟
𥘅
𥘈
𥝢
𥫗
𥱡
𦈢
𦉪
𦉬
𦉼
𦍌
𦍒
𦎧
𦐇
𦓔
𦔮
𦘒
𦙃
𦚏
𦣝
𦣞
𦣻
𦥑
𦥔
𦥯
𦨉
𦭝
𦰩
𧆞
𧈧
𧘇
𧰨
𧴪
𧴮
𧵩
𧾷
𨸏
𨾴
𩙿
𩠐
𩫏
𩵋
𪉷
𪜀
𪟽
𪠲
𪩲
𫇦
𫔭
𫜸
𫝀
𫠣
𫠩
𫢉
𫥞
𫩏
𫩠
𫪡
𫲽
𫶧
𬀷
𬐘
𬗌
𬙙
𬛸
𬜯
𬟩
𬯁
𬴘
𬺻
𬼉
𬼖
𭀰
𭁈
𭁨
𭅰
𭑈
𭕄
𭗼
𭤨
𭥫
𭻾
𮅕
𮊿
𮍌
𮍏
𮓗
𮥼
𮧮
廾
𰀁
𰀄
𰀈
𰀉
𰀕
𰀠
𰀡
𰀢
𰀪
𰁜
𰃮
𰆊
𰆘
𰋙
𰕎
𰢴
𰧭
𰯲
02--
08--
249--
38--
42--
48--
53--
58--
63--
66--
76--
81--
83--
84--
85--
86--
99--
a--
ac--
ace--
acum--
acuti--
ad--
aden--
af--
al--
albi--
alex--
ali--
alo--
alp--
am--
ampl--
an--
anf--
ang--
ango--
angu--
anten--
anti--
ar--
arc--
ari--
aris--
as--
at--
atro--
au--
b--
ba--
bang--
bar--
be--
bi--
bis--
bl--
bo--
born--
br--
brac--
brachy--
bren--
brevi--
bro--
bu--
buch--
bur--
c--
ca--
cal--
calli--
cam--
can--
cana--
cap--
car--
cari--
carno--
cata--
cath--
cau--
cele--
cen--
ceri--
ch--
chapa--
char--
chi--
chlo--
chri--
chryso--
cili--
cinna--
cle--
clo--
co--
coelog--
col--
com--
con--
const--
cor--
cordi--
corn--
coro--
cras--
crassi--
cre--
cri--
cucu--
cultu--
cur--
d--
da--
de--
dem--
deu--
di--
dim--
do--
doli--
dor--
du--
e--
ebu--
ec--
echi--
ed--
el--
ele--
embr--
en--
ere--
eri--
ern--
es--
eu--
ev--
ex--
expl--
f--
fa--
fau--
fe--
federa--
fel--
fi--
fic--
fin--
fis--
fl--
foc--
fra--
fri--
fu--
g--
ga--
gale--
gam--
gat--
ge--
gem--
geo--
ger--
gir--
gla--
gli--
glo--
glosso--
go--
god--
gra--
grac--
grandi--
gros--
gu--
guian--
guttu--
h--
ha--
hal--
ham--
har--
he--
hel--
hen--
hi--
hin--
hippo--
hir--
ho--
hon--
hrv--
hu--
hum--
hy--
hybr--
i--
id--
ig--
il--
im--
in--
inter--
intri--
is--
it--
j--
ja--
je--
jo--
johan--
k--
ka--
kar--
ke--
ki--
kle--
ko--
ku--
l--
la--
lace--
lah--
lan--
lance--
lati--
lau--
lay--
le--
lep--
lepto--
let--
leu--
leucop--
lew--
li--
lip--
lis--
lo--
longi--
longipe--
longis--
longispi--
lu--
luc--
luxem--
ly--
m--
ma--
mac--
macro--
magni--
man--
mana--
mar--
master--
me--
meg--
megal--
mela--
men--
michol--
micro--
microg--
min--
minda--
minu--
minuti--
mo--
mono--
monte--
mosc--
mu--
multi--
n--
na--
nau--
ne--
necta--
neo--
nep--
ni--
nig--
no--
nu--
ny--
o--
oc--
odo--
ol--
olig--
or--
osm--
oure--
p--
pa--
pachy--
pal--
pap--
papu--
par--
para--
pe--
pedic--
pel--
pen--
per--
pfl--
pho--
pile--
pin--
pl--
platy--
pleuroth--
po--
pon--
por--
porphy--
pr--
pra--
pro--
pseudo--
pu--
punc--
pur--
q--
qu--
qua--
quadri--
r--
ra--
ran--
re--
res--
rho--
rhodo--
rhom--
rhyncho--
ri--
rk--
ro--
rost--
rotun--
ru--
s--
sa--
sacc--
salt--
san--
sar--
sara--
sc--
sca--
schle--
schm--
se--
see--
ser--
si--
simplic--
slo--
sm--
smit--
so--
sp--
spat--
spathu--
spi--
st--
ste--
steno--
stipu--
stra--
su--
sub--
sum--
sw--
sy--
sylva--
szczec--
t--
ta--
tau--
te--
tenui--
th--
thibe--
tho--
ti--
to--
tor--
tr--
tre--
tri--
trian--
tu--
tur--
u--
ug--
un--
ur--
ura--
va--
vag--
vale--
ve--
ventri--
ver--
vern--
vi--
vic--
vil--
vo--
w--
wa--
we--
wend--
whi--
win--
wo--
x--
xanth--
xi--
y--
ye--
yen--
yu--
z--
za--
а--
аал--
аб--
ав--
авиа--
австр--
авто--
автома--
аг--
ага--
аглом--
ад--
ады--
аз--
азб--
азь--
ак--
ака--
акар--
акт--
ал--
аль--
ам--
ама--
амбула--
ан--
ана--
андриа--
ани--
анти--
апа--
ар--
ара--
арави--
аранжи--
ари--
ас--
асан--
ассоц--
ат--
ата--
аф--
афана--
ах--
ач--
аэро--
б--
ба--
бавар--
баг--
баже--
бази--
бал--
бала--
бан--
бар--
барт--
бе--
бен--
бер--
берг--
берга--
берык--
берыт--
бетхо--
би--
биат--
биб--
библи--
бла--
благо--
бло--
бо--
богос--
боливи--
бор--
бот--
бр--
бра--
бру--
бу--
буг--
буд--
будэ--
булга--
бур--
бух--
буш--
быз--
бызь--
бюдж--
в--
ва--
вази--
вал--
вар--
вариан--
ват--
ватса--
ве--
велико--
вер--
вера--
вес--
ви--
вильню--
вин--
вир--
вис--
вита--
вла--
вне--
во--
водохран--
вози--
вол--
волж--
вор--
ворса--
ворт--
восс--
вотэ--
вош--
вошъ--
вошъя--
ву--
вуз--
вузъ--
вуо--
вы--
выж--
выжы--
выл--
выль--
высо--
выступ--
г--
га--
гаж--
газ--
гал--
гали--
гам--
гар--
гас--
гау--
гг--
ге--
ген--
геом--
ги--
гимн--
гл--
гла--
глав--
глаго--
глу--
го--
гоголь--
гож--
гол--
гон--
гор--
горь--
гос--
госпи--
гот--
гр--
грамо--
гу--
гюльма--
д--
да--
дан--
дася--
двига--
движе--
де--
деко--
дет--
дж--
джа--
джен--
ди--
диви--
дик--
дир--
дисцип--
до--
доб--
дол--
долж--
др--
драм--
древ--
ду--
дуб--
дубли--
дуг--
дуд--
дур--
духов--
ды--
дышетск--
дэ--
дю--
е--
ев--
евро--
ег--
ек--
ем--
ен--
ени--
епарх--
ер--
ес--
ет--
еч--
ж--
жа--
же--
железнодорож--
жи--
живо--
журав--
з--
за--
заве--
зар--
зареч--
зе--
зи--
зим--
знэ--
зо--
зу--
зчи--
зь--
и--
ивор--
иг--
ид--
иеро--
иеру--
иж--
из--
изме--
ил--
иль--
им--
ин--
интер--
интернаци--
инты--
инфор--
инфраструк--
иор--
ип--
ир--
иск--
иску--
исм--
иссле--
ит--
к--
ка--
каль--
кам--
кан--
кана--
кап--
кар--
кара--
касс--
кат--
катастрофиче--
кв--
кве--
ке--
кел--
кель--
кембри--
керт--
ки--
киды--
киль--
кино--
кис--
киул--
кич--
кл--
клаб--
клас--
клин--
кня--
ко--
кож--
кол--
колес--
коло--
ком--
компа--
кон--
конс--
конституци--
конц--
кор--
кора--
кос--
косэ--
коть--
кошк--
кр--
кра--
краеведче--
крас--
крат--
кри--
крив--
крист--
кружо--
ку--
куашк--
куз--
кузпалъ--
кул--
культур--
кун--
кур--
куск--
кут--
кутск--
куш--
куя--
кыда--
кык--
кыл--
кыль--
кым--
кыр--
кыск--
кышно--
кэ--
кю--
л--
ла--
лав--
лак--
лам--
ле--
леком--
лес--
лесниче--
лесо--
ли--
либер--
ливи--
лми--
ло--
лок--
лск--
лу--
луго--
лул--
лушк--
лы--
лыд--
лыдз--
лыдъя--
лык--
лыш--
ль--
лю--
люб--
люби--
люк--
м--
ма--
мак--
мар--
мара--
марс--
мас--
мат--
мах--
ме--
мед--
меж--
мен--
мер--
метеор--
мещ--
ми--
мик--
мил--
миннига--
митр--
миф--
михе--
мо--
можгин--
моз--
мор--
мос--
мото--
му--
муж--
мук--
мул--
мульт--
мюн--
н--
на--
нап--
наци--
национа--
не--
ни--
ниа--
ник--
ним--
нимту--
но--
ново--
ну--
нур--
ны--
нь--
нью--
нюр--
нюрн--
нюръ--
ня--
о--
об--
обор--
ог--
ож--
ожма--
оз--
ок--
окку--
окси--
ол--
оло--
ом--
он--
ор--
орга--
ос--
оск--
оста--
от--
отр--
отряд--
охлоб--
ош--
ошатск--
п--
па--
пав--
пан--
пара--
пе--
пед--
пединститу--
пелля--
пель--
пен--
пер--
пес--
песя--
пи--
пиш--
плот--
плю--
по--
под--
покров--
пол--
поли--
пост--
потт--
поч--
поя--
пра--
прави--
пре--
пред--
предста--
представ--
при--
про--
происхож--
промыш--
простран--
псев--
пу--
пуж--
пужыя--
пук--
пуксь--
пум--
пумитъя--
пур--
пус--
пуш--
пыд--
пык--
пыль--
пыр--
пыт--
пыш--
р--
ра--
раб--
рад--
радио--
разде--
рап--
рас--
раск--
распи--
рах--
ре--
реаль--
реви--
ред--
рез--
резерв--
рецен--
ро--
род--
рож--
рос--
рт--
ру--
руб--
ры--
рыц--
с--
са--
саве--
сак--
сал--
сан--
сар--
св--
све--
священ--
се--
север--
сез--
секре--
секта--
сель--
сер--
си--
сим--
син--
синма--
сиц--
ск--
ско--
скр--
см--
со--
соб--
собст--
сол--
соли--
солнеч--
соло--
сос--
специа--
спи--
ст--
ста--
стажи--
станц--
стар--
стви--
сте--
сто--
стрел--
су--
суз--
сут--
сух--
сфе--
сы--
сь--
ськи--
сэ--
сю--
сюже--
сюл--
сюлма--
т--
та--
тавриче--
талан--
тан--
танза--
тар--
тбили--
творче--
те--
теле--
теор--
теорие--
территори--
территориа--
тех--
ти--
тип--
типо--
то--
тодм--
тол--
тор--
точ--
тр--
тра--
траге--
трени--
три--
тро--
тск--
ту--
туб--
туга--
тук--
тун--
тунсыкъя--
тупа--
тъ--
ты--
тыб--
тыр--
тырш--
ть--
тэ--
тэт--
тюль--
тюрь--
у--
ува--
увин--
угор--
уд--
уж--
уз--
уил--
ук--
ул--
улл--
улу--
ум--
умо--
умоя--
ун--
уол--
ур--
урась--
ус--
усь--
ут--
уфа--
уч--
участ--
учитель--
учк--
учки--
ушк--
ф--
фа--
фами--
фар--
фе--
фер--
фи--
фила--
фла--
фо--
фон--
фонта--
фор--
форма--
фос--
фр--
фут--
х--
ха--
хар--
хе--
хели--
хен--
хер--
хин--
хо--
хол--
хрусталь--
художест--
ц--
цар--
цве--
це--
цик--
ч--
ча--
чап--
че--
чер--
черно--
чет--
чехос--
чи--
чип--
чир--
чо--
чузъя--
чум--
чут--
ш--
шаба--
шаги--
шаер--
шан--
ше--
шедь--
ши--
шк--
шо--
шоб--
шор--
шу--
шуд--
шуи--
шук--
шум--
щ--
ы--
ыж--
ыл--
ым--
ыр--
ыт--
ыш--
э--
эве--
эк--
экзаме--
эки--
эко--
экс--
экскур--
экспе--
эл--
элек--
электро--
эль--
эми--
эн--
эр--
эск--
эскер--
эст--
эстафе--
эт--
этно--
эфиопи--
эш--
эшъ--
эшъя--
ю--
юж--
юн--
юни--
юр--
юрт--
я--
яд--
ян--
яр--
ө--
--0
--1
--11
--2
--3
--4
--44
--5
--6
--667
--67
--7
--78
--8
--9
--a
--abia
--abris
--aca
--ace
--acea
--aceae
--achya
--ae
--aea
--ag
--al
--alis
--an
--ana
--anica
--anii
--ans
--anum
--ara
--aria
--aris
--ary
--as
--ata
--atum
--ax
--ay
--b
--ba
--bia
--bus
--c
--ca
--cal
--capa
--carpa
--caulon
--cca
--ce
--cea
--ceae
--ceps
--ceum
--ch
--che
--ci
--cifolia
--ck
--ckii
--co
--cta
--cts
--ctum
--culatum
--culatus
--cum
--cus
--d
--da
--dae
--de
--dii
--ding
--dium
--dum
--dus
--dy
--e
--ea
--eae
--eana
--eata
--ed
--ei
--ek
--el
--ele
--ella
--em
--en
--enii
--enopsis
--ens
--ense
--ensii
--ensis
--entosa
--eps
--er
--era
--eri
--erma
--ervia
--es
--et
--eum
--exa
--f
--fa
--fera
--folia
--folium
--frons
--ft
--g
--gae
--gatum
--ge
--ght
--gii
--glossa
--go
--gua
--h
--he
--i
--ia
--iae
--ial
--ian
--iana
--ianum
--ica
--icaulis
--ics
--icum
--idae
--ides
--iella
--iensis
--ifera
--ifolia
--ii
--ija
--ik
--ila
--ilum
--ilus
--imia
--in
--inen
--ing
--inosa
--inum
--inus
--ion
--ior
--iorum
--iosa
--is
--ists
--it
--ius
--ix
--j
--ja
--k
--ka
--kii
--l
--la
--labia
--laris
--lata
--ld
--lensis
--leuca
--li
--lia
--lii
--lik
--lis
--ll
--lla
--lli
--llia
--loba
--lossa
--ls
--lum
--lus
--m
--ma
--mae
--man
--mbia
--me
--mes
--mi
--mii
--mis
--n
--na
--nae
--nd
--ndii
--ndo
--ne
--nensis
--ng
--nga
--ni
--nia
--nica
--nii
--nn
--no
--ns
--nse
--nsii
--nsis
--nt
--nta
--ntha
--nthum
--ntii
--num
--nus
--ny
--nz
--o
--obum
--ock
--oi
--oides
--ol
--oma
--on
--ophylla
--opsis
--opus
--or
--orii
--orum
--os
--osa
--osum
--otis
--ow
--p
--pa
--pala
--pe
--petala
--phus
--phylla
--phyllum
--pii
--pis
--pra
--ps
--psis
--pus
--q
--que
--r
--ra
--racea
--rcas
--rctos
--rd
--re
--rensis
--rg
--ri
--ria
--ris
--rl
--rnis
--ro
--roi
--rpa
--rr
--rrhiza
--rry
--rs
--rt
--rtii
--rtoi
--rum
--ry
--s
--sa
--se
--sh
--siana
--siensis
--sii
--sima
--sis
--sor
--ss
--ssa
--ssum
--st
--sta
--stum
--sum
--sus
--t
--ta
--tae
--tala
--talum
--tans
--tata
--te
--tensis
--ter
--teri
--tha
--thus
--ti
--tia
--tica
--tii
--tilis
--tion
--tis
--to
--ton
--tor
--ts
--tt
--tum
--tun
--tus
--ty
--u
--ua
--uata
--uce
--uda
--ula
--ulata
--ulatum
--ulis
--ulum
--um
--un
--urg
--us
--uta
--v
--va
--w
--x
--y
--ya
--yana
--ye
--yi
--ylis
--yphylla
--z
--za
--zi
--zii
--zz
--ł
--а
--аа
--ав
--ад
--ае
--аев
--аез
--аен
--аз
--азы
--азэс
--аи
--ак
--аллязы
--альная
--альныи
--алэ
--алэн
--алэс
--ам
--ама
--ан
--ание
--ания
--ано
--анов
--ао
--ар
--аркет
--аркетъе
--ас
--аса
--ат
--ать
--аться
--ау
--аф
--ах
--аци
--ацие
--ациез
--ация
--аш
--ая
--б
--ба
--бар
--бин
--бо
--бок
--бря
--быль
--в
--ва
--ваи
--вар
--ваторилэн
--ваториын
--вать
--вая
--ве
--вет
--внои
--во
--вои
--въе
--вы
--вые
--г
--га
--ган
--ге
--гер
--гес
--гз
--ги
--гиез
--гин
--гия
--гияя
--го
--гов
--гтон
--гурт
--гут
--гъе
--д
--да
--даг
--джик
--ди
--дин
--диын
--до
--дра
--дт
--ду
--дур
--дъе
--дь
--дэ
--дэз
--е
--ев
--ева
--ево
--ег
--ед
--ез
--езиын
--езлы
--езъя
--еи
--ек
--ели
--ель
--ем
--ен
--ена
--ении
--ения
--енко
--енс
--ент
--еныз
--енызы
--ер
--ерез
--ес
--есь
--ет
--етта
--ец
--ецъе
--ж
--жа
--з
--за
--зе
--зин
--зу
--зы
--зылы
--зылэн
--зыя
--зь
--зэ
--зэс
--зя
--и
--ид
--ие
--иез
--иен
--из
--изм
--изэ
--ии
--ик
--ика
--икаез
--икая
--иков
--икъе
--ил
--илы
--илэн
--илэсь
--им
--ин
--ина
--инг
--инка
--ино
--ио
--ион
--иос
--ис
--ист
--ит
--ито
--ить
--их
--иха
--иц
--ица
--ич
--ическая
--ическои
--иын
--иысь
--ия
--иял
--ияя
--к
--ка
--кае
--каез
--каен
--кан
--кар
--ке
--кет
--ки
--кизы
--кии
--кись
--кия
--ко
--кон
--кс
--кт
--ку
--куз
--куспо
--кция
--къе
--кы
--кыли
--кыны
--кыса
--л
--ла
--ланд
--ле
--лез
--лер
--ли
--лин
--лист
--лиус
--лков
--лл
--лли
--лляз
--ллязы
--ло
--лог
--лон
--лы
--лык
--лыксэ
--лыкъе
--лыны
--ль
--лье
--льнои
--лэ
--лэм
--лэн
--лэс
--лэсь
--ля
--лям
--м
--ма
--маа
--ме
--мез
--мем
--мен
--меныз
--мес
--мзы
--мзэ
--мзэс
--ми
--ммы
--мо
--мов
--мъя
--мы
--мылэн
--мылэсь
--мын
--н
--на
--нак
--ная
--нг
--нд
--нда
--не
--нес
--нзе
--нзэ
--ни
--ние
--ник
--нин
--ница
--ния
--нк
--нка
--нко
--нн
--нна
--но
--нов
--ное
--нои
--ном
--нс
--нск
--нт
--нъе
--нъя
--ны
--ные
--ныз
--ныи
--ныр
--ных
--нь
--ньке
--ня
--о
--ов
--ова
--овать
--овик
--ович
--овна
--ово
--овои
--ог
--огия
--ого
--огорск
--ое
--озь
--озяз
--ои
--ок
--олк
--ом
--он
--оп
--ор
--орт
--ос
--осия
--ослы
--ослэн
--оссэ
--ости
--осты
--осъя
--осыз
--осын
--осысь
--очнои
--ошур
--оын
--п
--па
--пал
--пе
--пу
--р
--ра
--рак
--рат
--рд
--рдо
--ре
--рев
--ри
--рин
--рия
--рк
--рн
--ро
--рс
--рск
--рц
--рцы
--ръе
--ры
--рь
--ряк
--с
--са
--си
--син
--сия
--ск
--ская
--скии
--ских
--ского
--ское
--скои
--скын
--слав
--сон
--ст
--стеи
--су
--съе
--сы
--сь
--ське
--ськы
--сэ
--сэн
--сэс
--ся
--т
--та
--таж
--тан
--те
--тель
--тен
--ти
--тив
--тии
--тик
--тин
--то
--тозяз
--ток
--тон
--тор
--тр
--тт
--тто
--ттон
--тъе
--тъя
--тъяз
--тъяны
--ты
--тыз
--тызы
--тыли
--тымтэ
--тымы
--ть
--тье
--тьев
--тэ
--тэк
--тэм
--тя
--у
--уа
--уд
--уктор
--умов
--уп
--ур
--ус
--ф
--фа
--фи
--фикация
--х
--ха
--хе
--хов
--ход
--хт
--ц
--ца
--цев
--цие
--циез
--цизэ
--ции
--цилы
--цилэн
--циос
--циын
--ция
--цкии
--цов
--ч
--ча
--че
--чев
--ченко
--ческои
--чи
--чие
--чии
--чук
--ш
--ша
--ше
--шев
--шин
--шо
--шт
--шур
--ъе
--ъем
--ъя
--ъяз
--ъямын
--ъян
--ы
--ые
--ыз
--ызы
--ыи
--ык
--ыл
--ым
--ымтэ
--ын
--ыныз
--ысен
--ысь
--ысьтыз
--ыт
--ых
--ыш
--ь
--ьд
--ье
--ьзэ
--ьма
--ьнои
--ьныи
--ьс
--ьы
--ья
--э
--эз
--эзлэн
--эи
--эл
--эм
--эн
--эныз
--эс
--эсь
--эти
--ю
--юс
--ют
--я
--ября
--яев
--яз
--язы
--яи
--як
--ям
--ян
--яны
