!
"
#
##0
##1
##10
##11
##12
##13
##14
##15
##16
##17
##18
##19
##2
##20
##21
##22
##23
##24
##25
##26
##27
##28
##29
##3
##30
##31
##32
##33
##34
##35
##36
##37
##38
##39
##4
##40
##41
##42
##43
##44
##45
##46
##47
##48
##49
##5
##50
##51
##52
##53
##54
##55
##56
##57
##58
##59
##6
##60
##61
##62
##63
##64
##65
##66
##67
##68
##69
##7
##70
##71
##72
##73
##74
##75
##76
##77
##78
##79
##8
##80
##81
##82
##83
##84
##85
##86
##87
##88
##89
##9
##90
##91
##92
##93
##94
##95
##96
##97
##98
##99
%
&
'
(
)
*
+
,
-
.
/
0
00
000
00363
01
02
03
04
041
05
06
07
08
09
090
1
10
100
1000
1001
1002
1003
1004
1005
1006
1007
1008
1009
101
1010
1011
1012
1013
102
103
104
105
106
107
108
109
11
110
111
112
1124
113
1140
115
116
117
118
1180
1186
1188
119
1195
1198
12
120
1200
1205
1209
121
1210
1216
122
1220
1224
1226
1227
123
1230
1232
1233
1234
1235
1236
1237
1238
124
1240
1243
1245
1248
1249
125
1250
1251
1252
1253
1254
1257
1258
126
1260
1263
1265
1266
1268
1269
127
1270
1271
1272
1273
1274
1276
1277
1278
1279
128
1280
1281
1282
1283
1284
1285
1286
1288
1289
129
1290
1291
1292
1294
1295
1296
1298
1299
13
130
1300
1302
1303
1304
1305
1306
1307
1308
1309
131
1310
1311
1312
1315
132
1320
1321
1323
1329
133
1331
1333
1334
1335
1336
1338
1339
134
1340
1342
1343
1346
1347
1348
1349
135
1350
1352
1363
1364
1368
137
1370
1374
1378
138
1381
1382
1383
1384
1385
1386
1387
1388
139
1392
1393
1394
1395
1396
1397
1398
1399
14
140
1400
1401
1402
1403
1404
1405
1406
1407
1408
1409
141
1410
1411
1412
1413
1414
1415
1416
1417
1418
1419
142
1420
1421
1422
1423
1424
1425
1426
1427
1428
1429
143
1430
1431
1432
1433
1434
1435
1436
1437
1438
1439
144
1440
1441
1442
1443
1444
1445
1446
1447
1448
1449
145
1450
1451
1452
1453
1454
1455
1456
1457
1458
1459
146
1460
1461
1462
1463
1466
147
1471
1475
1476
1478
148
1480
1485
149
1495
15
150
1500
1501
1503
1504
151
1510
1513
1521
1526
1527
153
1534
1535
1539
1540
1546
155
1550
1564
1565
1566
1568
1569
1570
1571
1572
1573
1574
1575
1577
1578
1579
1582
1583
1584
1586
1596
1597
1598
1599
16
160
1600
1601
1602
1603
1606
1609
161
1610
1612
1617
1618
162
1621
1624
1627
1628
1629
163
1632
1637
1643
1648
1649
1650
1652
1654
1655
1657
1659
1662
1664
1680
1682
1683
1687
1688
169
1691
1692
1693
1694
1695
1696
1697
1698
1699
17
170
1700
1701
1702
1703
1704
1705
1706
1707
1708
1709
1710
1711
1712
1713
1714
1715
1716
1717
1718
1719
1720
1721
1722
1723
1724
1725
1726
1727
1728
1729
173
1730
1731
1732
1733
1734
1735
1736
1737
1738
1739
174
1740
1741
1742
1743
1744
1745
1746
1747
1748
1749
175
1750
1751
1752
1753
1754
1755
1756
1757
1758
1759
176
1760
1761
1762
1763
1764
1765
1766
1767
1768
1769
177
1770
1771
1772
1773
1774
1775
1776
1777
1778
1779
178
1780
1781
1782
1783
1784
1785
1786
1787
1788
1789
1790
1791
1792
1793
1794
1795
1796
1797
1798
1799
18
180
1800
1801
1802
1803
1804
1805
1806
1807
1808
1809
181
1810
1811
1812
1813
1814
1815
1816
1817
1818
1819
182
1820
1821
1822
1823
1824
1825
1826
1827
1828
1829
1830
1831
1832
1833
1834
1835
1836
1837
1838
1839
184
1840
1841
1842
1843
1844
1845
1846
1847
1848
1849
185
1850
1851
1852
1853
1854
1855
1856
1857
1858
1859
186
1860
1861
1862
1863
1864
1865
1866
1867
1868
1869
187
1870
1871
1872
1873
1874
1875
1876
1877
1878
1879
1880
1881
1882
1883
1884
1885
1886
1887
1888
1889
189
1890
1891
1892
1893
1894
1895
1896
1897
1898
1899
19
1900
1901
1902
1903
1904
1905
1906
1907
1908
1909
1910
1911
1912
1913
1914
1915
1916
1917
1918
1919
192
1920
1921
1922
1923
1924
1925
1926
1927
1928
1929
1930
1931
1932
1933
1934
1935
1936
1937
1938
1939
194
1940
1941
1942
1943
1944
1945
1946
1947
1948
1949
195
1950
1951
1952
1953
1954
1955
1956
1957
1958
1959
196
1960
1961
1962
1963
1964
1965
1966
1967
1968
1969
197
1970
1971
1972
1973
1974
1975
1976
1977
1978
1979
198
1980
1981
1982
1983
1984
1985
1986
1987
1988
1989
1990
1991
1992
1993
1994
1995
1996
1997
1998
1999
2
20
200
2000
2001
2002
2003
2004
2005
2006
2007
2008
2009
201
2010
2011
2012
2013
2014
2015
2016
2017
2018
2019
202
2020
2021
2022
203
204
206
207
208
21
210
211
213
214
215
216
217
218
219
22
220
221
222
223
224
225
226
227
228
23
230
231
232
233
234
235
236
238
239
24
240
241
242
245
248
249
25
250
2500
251
253
254
256
26
260
262
263
264
265
268
269
27
270
273
275
28
280
281
286
288
29
290
292
293
294
295
296
297
298
299
3
30
300
301
303
304
305
306
307
308
309
31
310
312
313
316
317
319
32
320
322
324
325
329
33
330
332
333
334
335
336
338
339
34
340
341
344
348
349
35
350
352
354
356
36
360
362
366
368
37
370
371
376
38
39
390
392
393
397
4
40
400
4000
403
41
413
415
42
423
427
43
433
44
45
450
46
47
48
49
5
50
500
51
52
53
54
55
56
57
58
584
586
59
6
60
600
6000
61
62
63
639
64
65
66
67
68
69
7
70
700
7000
71
72
725
726
73
74
75
750
76
77
78
79
8
80
800
8000
801
802
803
804
805
806
807
808
809
81
810
811
812
813
814
815
816
817
818
819
82
820
821
8212
822
823
824
825
826
827
828
829
83
830
8300002561
831
832
833
834
835
836
837
838
839
84
840
841
842
843
844
845
846
847
848
849
85
850
85011
851
852
853
854
855
856
857
858
85817
859
86
860
861
862
863
864
865
866
86608
867
868
869
87
870
871
872
87258
873
874
875
876
877
878
879
88
880
881
882
883
884
885
886
887
888
889
89
890
891
892
893
894
895
896
897
898
899
9
90
900
901
902
903
904
905
906
907
908
909
91
910
911
912
913
914
915
916
917
918
919
92
920
921
922
923
924
925
926
927
928
929
93
930
931
932
933
934
935
936
937
938
939
94
940
941
942
943
944
945
946
947
948
949
95
950
951
952
953
954
955
956
957
958
959
96
960
961
962
963
964
965
966
967
968
969
97
970
971
972
973
974
975
976
977
978
9788387258399
979
98
980
981
982
983
984
985
986
987
988
989
99
990
991
992
993
994
995
996
997
998
999
:
;
<
=
>
?
@
[
\
]
^
_
`
a
aa
ab
aba
abati
abe
abecadło
abo
abraham
abri
abril
aby
ac
academic
academy
access
accze
acczi
ach
achtnione
achtniony
acta
ad
adam
adama
adamo
adamowicza
adams
add
adela
adj
adjani
administrace
administracji
administratora
ado
adresa
adriaticcze
adwokata
adyn
ae
aerodrom
afganisto
africe
africzi
afrika
afrikaans
afrikan
after
ag
against
agaricus
agencja
agensa
aglomerace
agrokwate
agroturisticzne
agu
ai
aja
ak
akademicczim
akademie
akademii
akce
akcje
akcji
ako
aksamin
akt
aktiwne
aktiwno
aktiwnosc
aktiwny
akto
aktora
aktorka
aktualno
aku
al
alba
alban
albert
albin
albo
albu
album
alchem
ale
aleksander
aleksandra
aleppo
alfabe
alfons
alfred
alge
ali
alias
alko
all
alojze
alojzy
alpha
also
alternative
am
ama
amatorsczi
amaya
ambrose
amen
america
american
americe
americzi
amerika
amerikan
amerikansczi
ameriko
ameryce
amerykan
ami
amila
amsterdam
an
ana
analize
anas
anastazy
anatidae
and
andorra
andricki
andrze
andrzej
andrzeja
andz
ane
aneczka
ang
angaz
angeles
anglii
anglikan
ango
ani
anie
aniela
anielscze
anielsczi
anielsczim
anielsko
anielsku
anio
anita
ankara
anna
anne
annie
ano
anopheles
anowski
ansel
antarktida
antiko
anto
antologia
antoni
antonime
antradienis
antropo
any
ap
aparat
apartna
apartne
apartnic
apartnienie
apartniwo
apartnosc
apartny
apartnym
apiaceae
apo
apre
apri
april
aprilis
apte
ar
arab
arabsczi
arabsko
arago
arce
arch
archeo
archidiecezji
archikate
architekt
architekta
architektura
archive
arcybisku
are
argentin
argentina
arion
arizona
arkadiusz
arkun
armen
armenijo
armia
armie
armii
armija
army
arnhem
arno
arnowscze
aro
arsczi
arska
arsko
art
arte
artikel
artikla
artikle
artiklo
artis
artista
artisticzna
artisticzne
artisticzno
artisticzny
artisto
artur
artusa
artykul
arvensis
as
ase
asteraceae
astrol
astron
astronoma
astronomo
astrowate
asystent
asyz
at
ataka
atako
ataku
ater
atlantic
atlanticcze
atlanticczim
atlas
atmo
atom
atomo
atomowe
atribu
au
audiowizualna
auf
auflage
augu
august
augusta
augustowski
augustus
augustyn
auris
auschwitz
australe
australia
austrii
aut
authors
auto
autor
autora
autorka
autoro
available
ave
awa
awansowo
award
awards
awe
awie
az
aze
azerbejdz
azja
azje
azji
azymu
ała
ałe
b
ba
baba
babie
baby
baccze
bacczi
bach
back
backo
bacze
baczenie
baczin
baczynski
bad
badan
badanio
bade
bado
bahia
bajki
bakteria
bala
balandis
balczi
bale
bali
balo
bama
ban
bana
banino
bank
banku
banowi
bar
barbara
barbare
barcelona
bardo
barko
barna
barnabe
barni
barnim
baro
baron
barry
barz
barzi
baskijsczi
basko
basowi
basowo
basshunter
batsch
bay
baze
bazune
bazyliczi
bazylika
bałkan
bałtycki
bałtyckiego
bb
bce
bcho
bczas
bcze
bczi
bczo
be
bec
bedeker
before
being
beitrag
bek
bekasowate
bel
belgard
belgijsczi
belgijsko
bellis
ben
benedikt
benedikta
benjamin
ber
berg
berle
berlin
bernard
bernardinum
bernat
bernata
bert
berta
bes
best
betulaceae
beyonce
bez
bezdrzec
bezle
bezo
bezpieku
bezpo
bezrobo
bezu
beł
beła
bi
bia
biafra
biaja
bianie
bianio
biała
białcze
białczi
białe
białgowscze
białk
białka
białko
białorusczi
bible
biblii
biblioteka
bibloteka
bice
bie
biedrzo
biego
biegu
biekt
biekte
biekto
biektu
bienie
bierza
bierze
bierzeme
bieszk
bieta
biez
big
bija
bilot
bin
bina
bio
biografia
biografio
biogram
biora
birz
bisku
biskup
bista
bitwa
biuletin
biuletyn
biwaja
biwało
biwo
biz
bizantin
bizna
bizne
biznie
bił
bja
bjimaja
bjimie
bjimna
bjimnia
bjimo
bjo
bk
bka
bko
bku
bla
black
blade
ble
blecze
blewia
blewscze
bli
blica
blice
bliczi
bliczne
bliczno
bliczny
blika
blikacje
blikacji
blikacjo
bliko
blisczi
blisko
bliza
blize
blizo
blo
bloomsbury
blues
bluesowi
bme
bne
bnica
bnika
bniz
bno
bny
bo
boduszyn
body
boga
bogusław
bokma
bolduan
bolesław
boli
bonsignori
book
books
borowikowa
borzyszkowski
borzyszkowskiego
boston
bot
bota
bourne
bovidae
bowie
boy
boys
boz
bp
br
bra
brac
bracht
bracia
bracyna
brada
brahe
brains
brak
bram
brama
brambo
brandenbu
brandenburgi
branderbu
brando
brat
brata
bratr
braz
braze
brazne
braznice
brazny
braznym
brazo
brazowe
brazu
brazyle
brazylsczi
brazylska
brazylsko
brało
brda
brde
bre
bresin
breton
brett
breyne
breza
britan
britaniji
britanijo
britannica
britijsczi
british
brno
bro
broda
brodnica
bron
brona
brone
broni
bronisło
bros
browa
browsczi
browski
bruno
bruny
brus
brusach
bruse
brusy
brza
brzadu
brze
brzego
brzegu
brzez
brzno
brzny
brzo
bsa
bscze
bsczi
bsczich
bsczie
bsczim
bsczima
bserwo
bska
bsko
bsku
bszarze
bszcza
bszcze
bsze
bsłe
bu
budys
burnside
bush
business
but
buten
bwo
by
byc
bydgoszcz
byto
był
bze
bzerac
bł
bła
błaszcziko
błe
błocczi
błoce
błogo
błota
błotach
błotno
błotny
błoto
błoz
c
ca
cac
cach
cadle
cadła
california
call
cama
cambridge
camino
campanula
campanulaceae
can
canada
canidae
canis
cantharellus
cape
caryophyllaceae
caspar
cassuben
cassubia
cassubica
cassubicus
cassubie
cassuborum
casta
casto
castro
catala
catechism
catherine
catholic
cała
całe
całi
całim
cało
całos
całosc
całosce
całoscowe
całowne
całowno
całowny
cały
cbe
cc
ccze
cczi
cczich
cczim
cd
ce
cean
ceana
ceane
ceanie
ceanu
cebie
cecenowo
ceche
cecho
cechownik
cecylio
cego
cegłe
cegło
cej
cekle
cekł
cela
cele
celestin
cem
cemia
cemne
cemny
cen
cena
cenia
cenie
cenim
cenio
ceniu
ceno
centime
central
centralno
centralny
centro
centrum
ceple
cepli
cepła
cepłe
cepłi
cepło
cepłota
cerkwi
cerkwie
cerkwio
cerkwiowo
cesarza
ceso
cesze
cet
cewice
ceynowa
cezari
ch
cha
chac
chach
chagang
chaja
chale
chama
char
charakter
charakteristiczny
charakterize
charakterze
charland
charles
charu
charze
chałe
chca
chce
chcele
chceme
chco
che
chemiczne
chemiczny
chemii
chemijo
chemik
chemio
chełme
chełmin
chełmnie
chełmno
chi
chicago
chile
chin
chinach
chinama
chine
chino
chiz
chle
chleba
chli
chludzin
chmielnie
chmielno
chmu
chna
chni
chno
cho
choc
chodowiecki
chojnice
choso
chr
christus
christusa
chro
chrona
chrone
chrza
chrzce
chrze
chrzesce
chrzescyjan
chrzest
cht
chta
chte
chtere
chteren
chterna
chterne
chterny
chto
chtos
chtowac
chtowanie
chtowo
chu
chuck
chwaszcze
chwała
chwe
chwo
chła
chło
chłodno
chłop
chłopa
chłopi
chłopo
chłopscze
chłopsczi
ci
cia
ciach
cibarius
cie
ciechowski
cierzyna
cigu
cim
cin
circ
ciruculi
cite
city
ciu
civitas
civitate
cje
cji
ck
cka
cki
cko
cku
cl
claude
cle
clece
clecia
cleco
club
cm
cne
cni
cnie
cnik
cno
cny
cnym
co
cobe
code
codniowe
codniowim
coksa
coleco
colemało
collection
columbia
com
come
commons
completes
compostela
computer
cona
conditions
cone
conie
cono
content
control
cony
copies
copy
copying
copyleft
copyright
core
coro
corvus
cos
cotka
could
country
covenant
cover
covers
cowa
cowe
cowi
cowie
cowim
cownik
cowo
cristburg
crone
cross
cruiser
csb
ctwa
cu
culture
cum
curie
cwiardi
cwicze
cy
cych
cyfrowi
cygna
cygnia
cym
cyma
cynamo
cyper
cyrilice
cył
cz
cza
czac
czach
czaja
czajino
czajne
czajno
czajny
czama
czanie
czanio
czaple
czarna
czarne
czarownice
czarzbo
czarze
czas
czasa
czasach
czase
czasem
czasnik
czasny
czaso
czasowo
czasu
czasy
czała
czałe
czałi
czałich
czałim
czało
czba
czbe
czbie
czbo
czce
czczi
cze
czebnym
czec
czecho
czede
czedrowsczi
czedrowsko
czego
czej
czejbe
czek
czekawe
czelnica
czelnik
czem
czemu
czenia
czenie
czenim
czenio
czer
czere
czerownika
czerowo
czersk
czerwin
czerwione
czerwiono
czerwiony
czerwo
czerwona
czerz
czes
czesc
czescze
czesczi
czesczim
czeska
czesko
czestnienie
czestnym
czesław
czewo
czezer
czi
czice
czich
czie
cziej
czielich
cziere
czierz
czijew
czik
czile
cziledzesa
czileno
cziles
czileset
czim
czime
czin
czinku
czino
cziszewa
cziwaja
cziwo
cził
cziła
czk
czka
czko
czna
czne
cznia
cznie
cznik
cznika
czniku
cznio
czno
cznosce
czny
cznym
czo
czona
czone
czono
czony
czonym
czorlin
czowate
czowe
czołejce
czoło
czte
cztowe
cztowi
czu
czuj
czwio
czwo
czy
czyli
czyn
czyno
czył
człe
człowiek
człowieka
człowieku
d
da
dac
dace
dach
dacjo
dagestan
daja
daje
dako
dale
daleczi
dalek
dali
dalmatin
dalsze
dalszi
dama
damaszku
dame
damk
damnica
damrockers
damroka
dan
dana
dance
dane
dania
danie
daniel
danim
danio
dano
danuta
danzig
dar
darcze
darczi
dardz
dare
darga
dargo
darium
dariusz
darka
darmo
darska
darstellung
darstwa
darz
darza
darzczim
darze
darzo
das
data
date
datiw
datowo
david
dawac
dawid
dawida
day
dała
dałe
dało
dba
dbe
dbie
dbiwo
dbo
dbu
dc
dca
dce
dcho
dco
dczas
dcze
dczi
dczich
dczo
ddo
ddze
de
dead
death
debian
december
decoupage
dediko
dei
deje
deji
dekalog
dekalogu
deklaracja
deklinace
del
dele
delta
dem
demkropka
demkłi
demo
den
deo
depu
der
derdowscze
derdowsczi
derlandzce
derlandzczi
derlandzko
derny
des
descriptio
deszcz
deszczu
deutschen
deutschland
dezember
dgc
dgo
dgro
dgroda
dgrode
dgrodo
dhjetor
di
diako
dialekt
dialekta
dialektach
dialekte
dialekto
dialektu
dialog
diaman
dictionary
didgeridoo
die
diecezji
diena
dienstag
dies
digraf
dil
dillo
dim
dinaste
dinczi
dink
dinko
dinku
dino
dinsdag
dio
dion
diplom
diplomata
diplomo
directory
direktno
direktor
direktora
dirschau
dirschaw
dirssow
disce
disi
disku
disleksjo
displaystyle
distribu
distribute
diwo
dja
djimczi
djimko
dk
dka
dkach
dkama
dkarpaccze
dko
dkre
dku
dla
dlascze
dle
dleczne
dleczni
dleczno
dleczny
dli
dlim
dlo
dlowi
dlowo
dma
dme
dmiana
dmo
dmoz
dmu
dna
dne
dni
dnia
dniach
dnica
dnice
dnich
dnictwa
dnictwo
dniczka
dnie
dnienio
dnik
dnika
dniko
dniku
dnim
dnio
dniono
dniony
dniu
dno
dnopo
dnosłowian
dnowieczne
dnowieku
dny
dnych
dnym
do
dobe
dobie
dobiwca
dobiwce
dobiwo
dobne
dobnie
dobno
dobny
dobo
dobra
dobre
dobri
dobro
dobrowo
dobrze
dobrzin
doce
doch
docho
dochto
document
documentation
documents
docze
dodac
dodo
dodoma
dodomu
dokaze
dokazo
dokazu
doko
dokto
doktor
doktora
doktorat
doku
dokładne
dokładno
dokładny
dolaro
dole
dolina
dolmacz
dolmacze
dolmaczone
dolmo
dolna
dolne
dolno
dolnosorbsczi
dom
doma
domestica
domesticus
domine
dominiak
dominik
dominika
dominikan
domo
domowina
domu
don
donald
donderdag
done
donnerstag
dono
dopasowo
dopie
doprowadze
doprowo
dopu
dora
doro
dorosłe
dorota
dorothee
dorze
dosc
dosta
dostac
dostanie
dostała
dostało
doste
dosto
doswio
doszło
dota
dote
dowa
dowac
dowanie
dowe
dowi
dowich
dowie
dowim
dowizna
dowizne
dowiznie
down
downy
dowo
dowsczi
dowsko
dowy
dowych
doz
dozdrzec
doze
doznawcze
doła
dpiso
dpo
dpowiado
dprawio
dpro
dpu
dpłiw
dpłiwo
dr
dra
dramace
dramaturg
drawa
dre
dream
drewna
drewno
dri
drknow
dro
drobne
droda
drodz
drodze
droga
drogach
drogo
druku
druz
drz
drze
drzew
drzewa
drzewiane
drzewiany
drzewo
drzez
ds
dsko
dstawa
dstawe
dstawo
dsto
dtwo
du
duben
ducatus
duce
duch
duet
dun
dux
duz
dvd
dw
dwa
dwadzesce
dwadzesto
dwaji
dwalatno
dwamo
dwano
dwie
dwo
dwu
dy
dydd
dz
dza
dzac
dzach
dzaja
dzama
dzanie
dzano
dzała
dzało
dzba
dzca
dzce
dzcze
dzczi
dzczich
dzczim
dze
dzeca
dzecama
dzece
dzecka
dzecko
dzecne
dzecny
dzeco
dzectwa
dzecy
dzedze
dzeja
dzejach
dzejaja
dzejania
dzejanie
dzejanim
dzejanio
dzejało
dzeje
dzejnote
dzejo
dzejopiso
dzejownik
dzekanowsczi
dzela
dzele
dzelenie
dzeli
dzeliwo
dzelił
dzelone
dzelono
dzelony
dzem
dzemio
dzemne
dzemnomo
dzen
dzenia
dzenie
dzenim
dzenio
dzesa
dzewia
dzeła
dzeło
dzi
dzia
działalnos
dzie
dzieci
dziedzictwa
dziejach
dzieje
dziejo
dzien
dziennik
dziernika
dzka
dzki
dzko
dzlk
dznaczony
dzo
dzom
dzona
dzone
dzono
dzony
dztwa
dztwie
dztwo
dztwu
dzu
dzura
dzure
dzuro
dzy
dzyn
dzynka
dzys
dzysdnia
dzysdniowe
dzysdniowi
dzysdniowim
dzysdniowo
dzysdze
dzyse
dzyso
dzysz
dzysza
dzyszin
dzył
dzyła
dł
dła
dłe
dło
dłu
dłudz
dług
długo
dłuz
e
each
ebe
ebne
ebno
ec
ece
eczka
ed
eda
edice
edicions
edition
editor
editora
edmund
educac
edukacja
edukacji
edward
edytuj
efezu
egipce
egipsczi
egipt
egiptu
ego
ehrh
ein
einem
einer
eisenreich
either
ej
ek
eko
ekwio
el
elazła
ele
elektriczne
elektriczny
elektrownia
elektrownio
elemen
element
elementama
elemente
elemento
elika
elis
elko
elz
em
eme
emigrace
en
ena
encyklopedia
encyklopedija
encyklopedijo
end
endorsements
ene
energia
english
eni
enia
eniałe
eniałi
enie
enim
enio
eniowe
eniowich
enił
entitled
ep
epiphany
epitaph
epo
equisetum
er
era
ere
eric
ericaceae
erik
ernst
ersczi
erven
ervenec
erw
es
esculenta
eseistka
espan
esperanto
est
esto
eston
estonio
estwo
esz
et
eta
etap
etc
etimo
etka
etniczna
etniczne
etniczno
etniczny
etnicznych
etnograficzne
etnograficzny
etnografne
etowe
eu
eugeniusz
eumhun
europa
europe
european
europejsczi
europejsko
europie
europje
europy
ev
ewa
ewangele
ewaniele
ewanielie
ewanielio
ewanielista
ewe
ewi
ewo
ewsczi
ex
ez
ezen
ezji
f
fa
fabaceae
fabrika
fabu
facebook
factbook
faku
fals
famile
familie
familii
familio
family
fana
faraon
farbo
farwa
farwe
farwne
farwo
faso
fat
faza
fazo
fce
fdl
fe
februa
februar
februarius
february
federace
federacjo
federal
feira
fele
felieto
feliks
feliksa
felis
fenicczi
festival
festiwal
festiwalu
ff
fiara
fiaro
fibra
fice
ficjalna
ficjalne
ficjalno
ficjalny
ficjalnym
fiction
fif
figu
fiku
fil
fila
file
filip
filipine
film
filmie
filmo
filmowy
filmu
filologia
filologo
filozo
filozof
filozofijo
fin
final
firefox
firma
first
fischer
fizjograficznych
fizjografne
fizyczne
fizyk
fizyka
fizyki
fk
fku
fla
fle
fleksjo
flieger
fliger
flin
flo
flora
florian
floriana
florio
florystyczne
flot
flota
fm
fne
fo
folk
fonseca
for
forma
format
formats
forsycjo
forsythia
foundation
fr
fra
fragmen
fragment
frajbitro
fran
franc
france
frances
francis
francisco
franciszek
franciszka
francje
francji
francusczi
francyszk
frank
franklin
franko
franto
franz
frazeo
fre
frederick
free
freitag
fridrich
friedland
friedrich
frize
frizyjsczi
from
front
ft
ftu
fu
ful
full
g
ga
gabriel
gabriela
gac
gach
gactwo
gadac
gade
gadze
gaja
galatcziko
galeon
galere
galice
gama
gan
gapie
garc
gard
garda
gardach
gardama
garde
gardne
gardo
gardowe
gardowi
gardowo
gardu
gardze
gardzko
gate
gati
gatim
gatunek
gatunko
gatunkowej
gatunku
gaz
gaze
gazece
gazeta
gazetniczka
gazo
gazu
gała
gałe
gało
gbu
gda
gdan
gdana
gdansk
gdin
gdingen
gdini
gdinie
gdinio
gdo
gdu
gdun
gdy
gdynia
gdze
gdzie
ge
gecko
gedanensis
geguz
gel
gen
general
generał
geneza
geniusz
genowefa
genytiw
geo
geografia
george
gerais
gerald
gerard
gerata
german
germanizace
geschichte
gesellschaft
gestapo
get
gi
gica
giczne
giczny
gierszewskiego
giles
gimnasticzczi
gimnastika
gimnazjum
girl
gitara
gitare
gitaro
gitarze
giulia
give
given
gla
glandirana
gle
gli
glis
glisno
glo
global
gloria
glowa
glowe
glowi
glowim
glowo
gme
gmin
gmina
gminach
gmine
gminie
gminno
gmino
gminy
gna
gnia
gnie
gniew
gniewino
gniez
gnio
gno
gnome
gnu
go
god
godowe
goethe
goguryeo
google
gora
gos
gov
gowo
goła
gpl
gr
gra
grabo
grac
grado
graf
grafia
graficzne
graficznym
grafijo
grafik
grafne
grafny
graja
graje
gramaticzi
gramaticzna
gramatika
grammatik
gran
grand
grano
grass
graudencz
gray
grało
gre
great
greatest
greccze
grecczi
grecczich
grecczim
grece
grecji
grecko
greczi
green
grego
gregorijansczim
greifswald
greko
gren
grenlandzko
grif
grifa
grife
griffins
grifio
grifito
gripa
gripe
gripiewsczim
gro
grobach
grobe
grobu
grodze
grom
gromada
gromade
gromiczna
gromicznik
gromicznika
gromiczniku
groß
gru
grucza
gruczy
grudzia
grun
gruodis
grupe
grus
gruz
gryf
grza
grze
grzebie
grzebo
grzego
grzegorz
grzenia
grzenk
grzib
grzmo
grzo
gsze
gszi
gtn
gu
guczo
gulgowski
gun
gurewitz
gus
gusht
guyo
gw
gwar
gwara
gwe
gwio
gwiz
gwo
gyo
gł
gła
głe
głi
gło
głodnica
głodowo
głodu
głogo
głole
głos
głosa
głose
głoso
głosu
głosył
głosze
głowa
głowe
głowie
głowo
h
ha
hab
haft
haftu
halen
hambu
hamgyo
han
handel
hangeul
hanja
hanna
hans
happy
hard
hardcore
hari
harmo
haruki
harvard
has
hate
have
he
heart
heavy
hebr
hebrajscze
hebrajsczi
heim
hela
helena
helix
hell
hene
henrik
henrika
henry
henryk
henryka
her
herb
herbie
herbu
hercego
here
heritage
herman
hermann
hewo
heyke
hieronim
hieronima
high
hilferding
hilferdinga
hill
himn
hin
hindi
hinze
hipo
histore
historia
historiczna
historiczne
historiczno
historiczny
historie
historii
historik
historio
history
historyczne
hiszpan
hitler
hits
hl
ho
hobelbank
home
hora
hot
house
how
hr
htm
html
http
https
hu
huang
hudson
human
huta
hwanghae
hybrid
hybrydowy
i
ia
iadienis
ianuarius
ible
ic
icczim
ich
ichigatsu
id
ida
ido
ie
if
igo
igor
ii
iii
ijsczi
ik
iko
il
im
ima
impo
imprint
in
ina
inc
include
indeks
index
indie
indoeu
indonesia
indoneze
industre
ine
info
informace
informacje
information
inie
inne
innych
input
instalace
instituce
institut
instituta
institute
instrument
instytut
instytutu
insze
interlingua
international
internet
internetowe
internetowi
internetowo
internetu
into
invariant
inz
io
ipa
ipn
ir
iraku
iran
ire
irena
irlande
irlandii
irlandio
irlandzczi
iron
is
isbn
ise
iser
isis
islande
islandzczi
iso
ist
istnienie
istup
it
italsce
italscze
italsczi
italsczim
italska
italsko
itd
itp
its
iucn
iulius
iunius
iure
iv
iwaja
iwca
iwo
ix
izabela
izabella
izrael
izydor
ił
j
ja
jablo
jablonsczi
jabło
jabłon
jacczi
jacek
jacela
jach
jachac
jachale
jachele
jacho
jachoł
jachte
jachtuje
jack
jacko
jackson
jacques
jacze
jaczi
jaczich
jaczim
jaczima
jaczis
jada
jadamo
jadwidz
jadwiga
jago
jaj
jaja
jaje
jajo
jak
jaka
jakbe
jakno
jako
jaku
jakuba
jama
james
jamne
jamno
jamo
jan
jana
janar
janie
janina
janio
janioła
janiołe
janioło
jank
janke
janko
jankowski
jano
janua
januar
januari
january
janusz
japo
japon
jar
jaro
jaromira
jarosz
jarosław
jarze
jasin
jasku
jasne
jasno
jasny
jastarni
jastarnio
jastre
jastrowi
jastrownik
jastrowniko
jastrowo
jastrze
jawe
jawi
jawia
jawił
jawiła
jawo
jawsko
jaz
jazda
jazde
jaze
jazz
jało
jc
jca
jcach
jce
jcech
jcecha
jcem
jco
jcze
jczi
je
jean
jec
jeden
jedin
jedincze
jedinczi
jedle
jedna
jednak
jednako
jedne
jednego
jedno
jednojizbo
jednoroczno
jednostczi
jednostka
jednostko
jednota
jednote
jedny
jednym
jedza
jedzenie
jedzenio
jeg
jego
jej
jejich
jelbia
jele
jelen
jelin
jello
jem
jeme
jemu
jen
jenero
jenifer
jennifer
jerozole
jeruzalemie
jerze
jerzego
jerzi
jerzy
jes
jesc
jese
jesen
jesme
jest
jesta
jestem
jestes
jestku
jesz
jeszcze
jewo
jez
jezdze
jeze
jezero
jezerze
jezerzo
jezerzu
jezik
jezioro
jezo
jezor
jezora
jezorach
jezorama
jezorem
jezoro
jezorze
jezus
ji
jic
jich
jida
jidisz
jidze
jigle
jignacy
jigo
jigra
jigre
jigro
jigrzan
jigrze
jigłe
jim
jima
jimienine
jimk
jimna
jimnia
jimo
jimperium
jimprezach
jin
jina
jinacza
jinaczi
jindijsczi
jindoeu
jindonezjo
jine
jinfo
jinicjatiwe
jinima
jinne
jino
jinstitucja
jinstrumen
jinstrument
jinstrumenta
jinstrumentach
jinstrumental
jinstrumente
jinstrumentu
jinsza
jinsze
jinszi
jinszich
jinszim
jinszima
jinternetowo
jiny
jinym
jinyma
jinz
jire
jireneu
jis
jist
jistniała
jistniałe
jistniczi
jistnieja
jistnieje
jistnienie
jistnik
jistnika
jistniko
jistno
jiwer
jiwre
jizba
jizbie
jizbo
jizne
jizraelu
jk
jka
jkasena
jko
jmo
jn
jna
jne
jnie
jno
jnota
jnote
jnowe
jnowi
jnowim
jny
jnym
jo
joan
joana
joanna
johann
john
jones
jordan
jork
jorku
joseon
joseph
jowi
jowo
joł
jpg
jr
jscze
jsczi
jska
jsko
jsku
jta
ju
juan
juli
julia
julian
juliana
julio
juliusz
july
jun
juncaceae
juncus
june
juni
junior
jury
juss
just
justin
justina
juszko
juwerno
juwernote
juwerny
juz
jyutping
jz
k
ka
kabaret
kabo
kac
kach
kack
kaczko
kadencja
kadencji
kadia
kadne
kadzmie
kai
kairze
kaja
kala
kalasancjusz
kale
kalifo
kalinowsczi
kalinowsko
kalipsa
kalisz
kalware
kam
kama
kame
kamiane
kamianno
kamianny
kamie
kamien
kamieniama
kamienie
kamil
kamila
kamin
kamo
kan
kanada
kanade
kanadze
kanał
kancelaria
kania
kanie
kannada
kano
kanonu
kanton
kantzow
kapela
kaple
kapu
kapłan
kara
karata
karato
karce
karczma
kare
karel
kariera
karl
karna
karnach
karnama
karnem
karnie
karno
karnowsczi
karo
karol
karola
karpiowate
karsczi
karsin
karta
karte
kartuski
kartuz
kartuzach
kartuze
kartuzy
karwa
karza
karzenie
karzełko
kasa
kaschubei
kaschuben
kaschubische
kaschubischen
kashub
kashubia
kashubian
kashubs
kasper
kasz
kasze
kaszebach
kaszebov
kaszebsko
kaszub
kaszuba
kaszubach
kaszubi
kaszubia
kaszubo
kaszubska
kaszubski
kaszubskich
kaszubskie
kaszubskiego
kaszubskiej
kaszubskim
kaszubskji
kaszubsko
kaszubsku
kaszubszczyzny
kaszuby
kat
kata
katalog
kataloga
katalogu
katalon
katarina
katarze
katarzyna
kate
katego
katiw
katja
katole
katoleccze
katoliccze
katolickiego
katowicach
katowice
kawa
kawe
kawice
kaz
kazac
kaze
kazimierz
kazmie
kazu
kazywo
kde
kdw
ke
kennedy
kennedys
keramiko
ketvirtadienis
keyboard
kg
ki
kiedy
kiem
kile
kill
kilome
kilometro
kim
kimchi
kind
kino
kirstein
kisze
kiz
kizette
kl
kla
klad
klara
klasa
klase
klasyfiko
klasyko
klaus
klawiatura
klawiature
klawisz
kle
klein
klemens
klimace
klimat
klimatu
klin
klinace
klo
klub
klubie
klubu
klucza
klucze
km
kna
kne
knego
knia
knie
kno
known
ko
kol
kole
kolumbio
kompozitora
kompozytor
kon
kongo
konj
konkel
konqueror
konstantyn
kopia
kor
korczak
kordecki
korrik
kos
kovas
kowalski
koz
kpz
kr
kra
kraj
krajach
kraje
krajen
krajin
krajina
krajinie
krajna
krajne
krajno
krajo
krajowa
krajowi
krajoznawstwa
kraju
krako
krakowie
krbechek
kre
krefft
krem
kres
kreslenie
kresliwo
kreslo
kret
krew
krewne
krewny
kreyser
kreza
kreze
krezo
krezu
kri
krife
krifo
krim
kristina
kriterium
kritiko
kro
kroczi
krofeja
krok
kroko
kromlech
krone
kronika
kronum
kroplo
krotno
krowa
krowe
krowie
kru
krystyna
krze
krziz
krzo
krzysztof
krzyz
ks
ksa
ksczi
kse
ksia
ksie
ksyz
ksza
ksze
kszi
kszich
kszo
kszosc
kte
kto
ku
kuangsi
kubuntu
kuko
kulczyn
kultura
kultury
kun
kunst
kurpisz
kurz
kve
kwa
kwadratowich
kwas
kwasne
kwiat
kwiata
kwiate
kwiatnik
kwiato
kwidze
kwidzin
kwidzyn
kwio
kwitna
kwitnie
kł
kła
kład
kłade
kładu
kładze
kłe
kłi
kło
kłopo
l
la
labu
labuda
labudda
lac
lace
lach
lacji
lacjo
lady
lager
lagrowe
lagrowi
lagru
lagrze
laja
lake
lam
lama
lamiaceae
lan
land
landeskunde
landzczi
lang
lange
langenes
language
languages
lanie
lano
lapkritis
lapo
larne
larno
larnota
larny
larwe
las
lasa
lasach
lase
lasfo
lasny
laso
lasowe
lasowi
lasowo
last
lasu
lasze
lat
lata
latach
latama
latawc
latawisko
latawiszcze
late
latna
latne
latny
lato
lau
laudato
lauenburg
laura
lawa
lberga
lbrze
lbu
lc
lca
lcama
lce
lco
lcowate
lczi
ld
ldz
ldze
ldzi
ldzich
le
leca
lece
lech
lecha
leco
lecy
leczka
leczko
leczniczo
leden
ledze
lee
left
leftu
legaja
legen
legenda
legende
lego
lehr
lekcjo
leksyko
leksykon
lektora
lem
lempicka
lemur
len
lenia
lenie
lenina
lenio
leno
leo
leon
lepi
lepsze
lepszi
lepszich
lepszim
les
lese
lesne
lesno
lesny
lestwa
lestwo
lesyn
leszcze
leszczinczi
leszek
lesława
lesło
let
letczi
letko
letnie
leto
lew
lewa
lewe
lewi
lewina
lewinka
lewinko
lewino
lewio
lewno
lewo
lewscze
lewsczi
lewsczich
lewsko
lez
lga
lgarsczi
lgarsko
lgo
li
liban
library
lica
licence
license
liceu
liceum
licze
liczne
lidz
lie
liechtenstein
liepa
lietuvos
life
liga
like
liks
lilko
lim
limba
limbu
limpijsczi
limpijsczich
lin
line
lingua
linia
linie
liniewo
linii
linio
linneu
linuksa
linuksowo
linux
liny
lio
lis
list
lista
listopad
lit
lita
litechnice
literato
literatur
literatura
literatury
liti
liticzi
liticzna
liticzne
liticzni
liticzno
liticzny
liticznym
litik
litika
litiko
little
liturgia
liturgiczne
liturgiczny
liturgii
liturgio
live
liwa
liwe
liwko
lił
lk
lka
lkan
lkane
lkano
lklor
lkloristiczne
lkloru
lko
ll
lm
lmo
lna
lne
lni
lnica
lnice
lnie
lnik
lnika
lniko
lniku
lno
lnomiem
lnosce
lnoszla
lnota
lnote
lnołuz
lny
lnym
lo
location
loce
lodo
lodofo
lodu
lodze
logia
logiczne
logicznym
logii
logiji
logijo
logo
lokace
lokatiw
londinie
london
londyn
lone
lonia
lonie
lonio
lono
lony
lope
lopko
lorentz
lorentza
los
lota
lotach
louis
love
lowa
lowac
lowate
lowe
lowi
lowie
lowo
lowosce
lp
lsce
lscze
lsczi
lsczich
lsczim
lsczima
lska
lsko
lsku
lsz
lszo
lt
ltd
ltu
ltura
lturalne
lture
lturo
lturowa
lturowe
lturowi
lturowo
lturze
lu
lub
lubeccze
lubelscze
lubelsczim
lubi
lubia
lubiczk
lubin
lubinie
lubił
lublin
lubo
lubu
lucji
lucjo
lucyna
lud
ludlum
ludnos
ludowa
ludowe
ludowej
ludoznawstwa
ludu
ludwik
ludwika
ludzie
luks
luksembu
lustbader
luthera
lv
lwa
lwe
lwo
lynx
lyu
m
ma
maandag
mac
mace
macedon
macedonia
macedonio
maceja
macerzo
machaczkała
machine
maciej
mack
mackiewicz
macze
maczenie
mad
made
madonna
madz
magazynu
magda
magdale
magne
magnificat
mago
mai
maiden
maius
maj
maja
majko
majkowski
maju
mak
make
malbo
malcu
male
malezjo
malicki
malin
mallorca
malo
malownik
malowo
malta
maltan
mama
man
mana
manchester
mandarin
mandz
manie
manim
manuał
mapa
mapy
maraton
marc
marca
march
marchionatus
marcina
marco
mare
marec
marek
margare
maria
marian
mariana
marie
marii
marija
marije
mariji
marijo
marilyn
marino
mario
mariusz
marjorie
mark
marka
marle
marlon
mars
marszo
marszu
mart
marta
marte
marti
martin
martius
marts
mary
marzec
marzo
marł
marła
marłe
marłi
masa
mase
massow
maszewo
maszina
masłowice
matczi
matematiczka
matematik
matere
material
materiał
materiałe
materiało
materiału
materiały
materii
materio
mateu
matka
matter
matura
max
may
mazowieccze
mazowiecczim
mazurscze
mała
małe
małgo
małi
mało
małopo
mały
małz
mb
mbir
mbo
mca
mczi
mda
mdze
me
means
mech
mechaniczne
mechaniczny
mechu
mecz
meczelbo
medal
medala
medale
medalia
medalu
media
mediach
medicyna
medicyne
medio
meklenbu
meksyk
meksyku
meleon
memka
men
ment
mentalne
mentalny
mente
meran
merania
meranie
meranii
mere
merku
meta
metafo
metai
metal
metalu
metoda
metro
metropo
mewa
mewe
meyer
mez
mff
mg
mi
mia
miana
miane
miannik
miannika
mianniku
mianowo
mianowskiego
miar
miara
miare
miarko
miast
miasta
miastach
miastka
miastko
miastku
miasto
miastowo
miała
miałe
miało
mich
michael
michał
michała
michel
micho
mickewicz
mickiewicz
mickiewicza
microsoft
midze
midzeno
mie
miec
miech
miecho
miecz
miecze
miedwie
mieja
miejsce
miejscowos
miejscowych
miejski
miele
miem
miemcach
miemcama
miemce
miemco
miemiecce
miemieccze
miemiecczi
miemiecczich
miemiecczim
miemiecka
miemiecko
miemiecku
mienim
mienio
miennictwa
miennictwo
miertelnos
mierze
mierzenio
mierzi
miesa
miesce
miescowo
miescy
miescze
miesko
miestne
mieszczo
mieszka
mieszkaja
mieszkale
mieszkan
mieszkało
mieszkele
mieszken
mieszko
mieszo
miko
mil
mila
mile
milio
miliono
mill
mim
mimo
min
mina
minaja
minas
mine
mineral
mini
miniaturowej
minie
minio
minister
ministerstwo
ministra
ministro
mink
minnesota
mino
minor
minus
minut
minysterstwo
mio
mion
miona
mionie
miono
mionowi
miotk
miotła
mir
mirachowskiej
mirocho
mirosława
miru
misje
misji
misjo
miss
mississippi
miste
misyjny
miszewie
mitko
mittwoch
miwo
mize
miło
miłos
miłoszewa
miłoszewo
miłota
miłote
miłowo
mk
mka
mko
mku
ml
mle
mleko
mln
mm
mn
mna
mne
mni
mnicho
mnie
mniejszos
mnienie
mnik
mnika
mnio
mno
mnoce
mnodz
mnote
mny
mo
mode
modifications
modified
moga
moja
moll
moment
monitor
monroe
montag
moon
mordawski
more
morju
morskie
morza
morze
mosaic
mount
move
movie
mowe
moz
mozart
mozarta
mozilla
mozille
mozilli
mp
mpimk
mpliko
mpo
mpscze
mpsczi
mpu
mr
mra
mre
mro
mroz
mrze
mrzez
ms
msce
msczi
msie
msko
msza
msze
mszo
mt
mtv
mu
multico
murakami
muscicapidae
museum
music
must
musu
muza
muzeum
muzyczne
muzyk
muzyka
muzyki
my
myosotis
mys
mz
młin
młode
młodi
młodich
młodim
młodokasze
młodsze
młodszi
młodze
młyn
n
na
nac
nace
nacel
nach
nacho
nacht
nacza
naczyniowych
nad
nadanie
nadmo
nado
nadz
nadzwe
nagroda
nail
naj
naja
naje
naji
naju
najwyz
nako
nakładnistwo
nakło
nalazłe
nalazłi
nalazło
nale
nalez
nalezc
nalezle
nalne
nalo
nam
nama
namalowo
name
names
nanio
napa
nape
napisa
napiso
napitk
napitku
napo
narchia
nare
naro
narodowego
narodowy
narodowych
narodzenim
narwe
narza
narze
nas
nasta
naste
nasto
nasz
nasza
nasze
naszi
naszim
naszin
natalia
natama
national
nato
natura
nature
nau
nauki
naukowa
naukowe
nawetka
nawia
nawka
nawle
nawo
nawro
naze
naznaczone
nazo
nazw
nazwa
nazwe
nazwo
nazwy
nazywo
nbong
nc
nce
ncentrace
ncert
nchen
ncia
nczi
nd
nda
ndalski
nde
ne
nede
nedel
nefka
nego
nej
nem
nen
neo
nepal
net
netscape
network
neu
neureiter
new
news
newton
ng
ngan
ngo
ngqi
ngres
ngresu
ngyang
ni
nia
niach
niagara
niama
nibe
nic
nica
nicach
nicczi
nicczim
nice
nich
nicht
nick
nicowanie
nicowo
nicze
niczka
niczne
niderlandzko
nie
nieba
niebezpieku
niebie
niebiescze
niebo
niech
niechte
niechterne
niedalek
niedze
niedzela
niedzele
niedzo
niego
niejedne
niejedny
niejsze
niem
niematerialny
niemco
niemczech
niemiec
niemieccze
niemiecczi
niemiecczim
niemieckiego
niemiecko
niemiecku
niemu
nienie
nieo
niepo
nieprzesta
niero
nies
niesc
niese
niespo
niesze
nieu
niewe
niewio
niewo
niewymieniona
niez
niezabo
nieznanym
nigde
night
nigle
nigra
nigsberg
nii
nija
nijak
nije
niji
nijo
nik
nika
nikama
nike
nikiem
niko
niku
nilu
nim
nima
nimo
nina
nino
nio
niono
niony
niosa
niosłe
niowate
niowi
nippon
nirvana
niscze
nisczi
nitka
nitko
niu
niwersytece
niwersytet
niwersytetu
niwie
niwo
niz
nizna
nił
nji
nk
nka
nkach
nkama
nkarze
nkarzo
nkce
nkcja
nkcje
nkcji
nko
nkowate
nksne
nkte
nkto
nku
nmp
nn
nna
nnica
nnik
nnika
nno
nny
no
nobel
nobla
noble
noblista
noc
noce
nodz
noe
noemi
noga
nogach
nogama
nogo
nografii
nom
nomiczne
nomijo
nominatiw
nor
norberta
norda
norde
nordowa
nordowe
nordowi
nordowim
nordowo
nordowy
nordze
norma
north
norwesce
norwesczi
norwesko
nos
nosc
noscach
nosce
nose
nosoro
nostra
nostre
nosy
nosza
not
nota
note
nothing
notice
notices
noto
noua
nova
nove
november
now
nowa
nowac
nowate
nowe
nowi
nowich
nowie
nowim
nowo
nowsczi
nowy
noz
np
npm
nr
nro
nrz
ns
nsczi
nsczim
nsko
nstantin
nstantinopo
nstituce
nstitucjo
nstitucjowo
nstitucyjna
nstrukce
nszi
nt
ntakt
nter
ntinentalny
ntinentalnym
ntinentu
ntor
ntrakt
ntrola
nu
nudle
nudlo
nufi
nufri
number
numer
nuncjusz
ny
nych
nym
nyma
nynorsk
nyu
nywaja
nywo
nz
o
ob
obracht
obres
obrze
obrzez
obszarze
ochrony
october
od
oddział
oder
odkre
odp
odyniec
odzyskanych
of
off
officinalis
offspring
oficjalno
oficyna
ofm
og
ogo
oh
oi
ok
okolicy
okra
okres
oksytan
okto
oktober
old
olga
oli
olivia
oma
omaha
on
ona
one
oni
only
ono
ontario
ony
onych
onym
onz
opaque
opatrzył
open
opensuse
opera
opole
opowies
oprac
option
or
oraz
order
org
original
ortelius
os
oso
osoble
ossolineum
ostrowska
ota
other
ottawa
otto
otwarto
outposts
ow
owanie
owate
owe
owi
owo
oz
oznaczania
ozno
ołnierz
p
pa
pac
pace
pach
pacze
padalc
pade
padna
padne
padni
padnim
padno
padnopo
padnosłowian
padny
padnym
pado
padu
padze
padłe
page
pai
paja
pakistan
pako
palast
pale
palma
palme
palmo
palustre
palustris
pama
pamia
pamie
pan
pana
pane
panie
panienczi
pank
panna
panne
pano
panorama
panowanie
panowanio
panu
papie
papiez
papio
par
parafiach
parafialne
parafialny
parafialnym
parafii
parafijo
parafio
parce
parcho
parczi
pariz
pariza
parizu
park
parko
parku
parlamen
parlament
parlamentarne
parlamentarno
parlamentu
paro
pars
part
parta
parte
parti
partie
partu
parła
pas
pasa
pasaz
pase
pasowne
pasowno
patro
patrona
pau
paul
paweł
pawła
paz
pazdze
pała
pałac
pc
pca
pce
pcz
pcza
pczi
pczu
pdf
pe
peck
pedago
pekao
pekin
pel
pelophylax
pelplin
pelplinie
pem
pen
penhaga
penktadienis
pennywise
penzjo
people
peperle
peplin
per
peracjowi
peracjowo
perczyn
perfektno
perkowski
perku
permission
pers
persczi
perła
pestka
peter
petersbu
petersburg
pezydent
pełnił
pełno
phoenix
php
pi
pia
pianista
piano
piarte
piarti
piarto
pias
piasto
piatok
pic
pica
pice
pich
pichlo
pick
pie
piece
piecze
pieczi
pieka
pieko
pieku
piekłe
piekłi
piekło
piele
pielgrzimczi
pielgrzimka
pielgrzimko
pielgrzimo
pielno
pielsczim
pienia
pienie
pienim
pienio
piepka
piero
pierre
piers
piersza
piersze
pierszego
pierszi
pierszich
pierszim
pierszo
pierwi
pierwio
pierwo
pierwsza
pierwsze
pierwszi
pierwszo
pies
piesn
piesni
piesnia
piesnie
piesnio
pija
pijaro
pijo
piko
pile
pim
pin
pinaceae
pinc
pinca
pinyin
pio
pioch
pionowe
piore
pioter
piotr
piotra
pipe
pipo
pirmadienis
pis
pisa
pisac
pisanio
pise
piskla
piskorski
pism
pisma
pismach
pismie
pismienizna
pismienizne
pismiona
pismionie
pismiono
pismo
piso
pisu
pisywo
pisza
piszczo
pisze
pius
piwa
piwaja
piwało
piwo
pił
piła
piłata
piłe
piłko
piło
pk
pka
pko
pkt
pl
plac
placa
placach
place
placu
plame
plan
plane
planeta
planete
planeto
planie
plantarum
plaskati
plasticze
plata
plate
platfo
platka
plc
ple
please
plece
pleco
plemienia
plemiona
plin
plina
plo
plus
pluton
pna
pne
pnia
pnica
pnie
pniu
pno
pny
pnym
po
poaceae
pocza
pod
podre
podstawie
podstawowe
podzim
poeta
poetka
poezji
pojezierze
pojezierzu
pol
poland
pole
polen
police
policy
polish
politiko
polnisch
polo
polonia
polpelin
polsce
polsczi
polska
polski
polskich
polskie
polskiego
polskiej
polsko
polygonaceae
pomerania
pomeraniae
pomeranii
pommern
pomo
pomorania
pomorska
pomorski
pomorskie
pomorskiego
pomorskiej
pomorskim
pomorza
pomorze
pomorzu
ponde
pondelok
pontanus
pop
popierania
population
poradnik
pore
poro
port
porzeczka
post
pote
potemu
potentilla
powiat
powszechna
poz
poza
poznan
połowie
południowym
pp
pr
pra
praca
pracowo
pradole
pradze
praga
prakticzno
praktiko
prasa
prasczi
prasłowian
praw
prawa
prawach
prawe
prawi
prawie
prawio
prawna
prawne
prawno
prawny
prawo
prałata
pre
prekmu
preku
premier
premiera
preserve
press
preussen
previous
prezydent
prezydenta
prill
prius
priwatne
priwatny
prix
prize
prl
pro
probleme
probo
proce
procem
procent
proces
procesji
proceso
procesu
produkce
produkcja
produkowana
produkt
produkte
prof
profesjonalnej
profesor
profesora
program
programa
programe
programie
programo
programu
project
projekt
projekto
projektowanego
proko
proliszk
proliszko
promo
prondzyn
propagatora
propago
propo
proroko
prosba
prosinec
proslava
proste
prosti
prosto
prostono
prosza
protocol
protoko
provided
prowadnik
prowadnika
prowadza
prowadze
prowadzenie
prowadzone
prowadzony
prowadzy
prowadzył
prowince
prowincje
prowincjo
prowo
proza
prozatorsczim
proze
pru
prunus
prus
pruszcz
pryczkowski
prz
prza
prze
przebie
przebu
przechlewo
przecho
przecygna
przecze
przed
przede
przedko
przedmiote
przedmioto
przedolmacził
przedsto
przedszko
przedz
przedłuz
przegla
przeja
przeko
przekro
przekł
przekład
przeme
przemiarze
przemo
przenio
przeniosłe
przeno
przenosza
przepise
przeplo
przepo
przero
przerwa
przes
przesa
przese
przesta
przesto
przeszto
przeszła
przeszło
przeszłoce
przewo
przewodnik
przez
przeze
przezeblo
przeznaczone
przeł
przeła
przeło
przełoz
przigo
przigode
przikłada
przikło
przin
przista
przo
przodko
przy
przyczynek
przygot
przyroda
ps
psa
psalme
psalmo
pse
pseu
psk
pso
psowate
pstwa
pstwo
psy
psycho
pszcze
pszczo
pszczoła
pszczołe
pszczołowate
psze
pszi
pszmie
pszo
pt
ptaki
pto
pu
public
publicznej
publiko
published
publisher
publishing
puck
pucka
puckiej
puja
puje
punk
punka
punko
putzig
pwn
pz
płace
płate
płaz
płe
płiw
płiwo
pło
q
qershor
quale
quatre
que
queen
queensland
quilling
r
ra
rabo
rabu
rac
race
rach
rachan
racibo
rade
radia
radio
radiowe
radiu
rady
radze
rafa
rafał
raja
rajin
rajmu
rajon
ralne
rama
ramach
rame
ramu
ramułt
ran
rana
randz
ranie
ranio
ranunculaceae
ranunculus
raper
rapo
rasa
rase
raso
rawsko
ray
raz
raza
raze
razem
razny
razu
razy
rb
rbo
rca
rcama
rce
rcelane
rch
rchawica
rcho
rcle
rco
rcz
rcze
rczi
rczo
rczos
rd
rdawscze
rdawsczi
rde
rderu
rdest
rdestowate
rdinariuszem
rdinate
rdio
rdowale
rdowo
rdyjsczi
rdz
re
rea
realizacji
rec
recczi
recho
rechu
recko
recordings
records
red
reda
redago
redakcja
redakto
redaktora
rede
redniowieczne
redun
reduni
redunio
references
refo
rega
regio
region
regionach
regionalne
regionalny
regionalnym
regione
regiono
regionu
registrowi
rego
regu
regulus
reja
rejan
rejano
rejestru
reji
reko
rekowski
rektora
rele
released
religie
religijne
religion
religious
remastered
remix
remu
remus
remusa
ren
rena
renczi
rene
renione
renko
reno
repo
reprezentace
reprezentacji
repu
republika
requests
resko
respo
reszce
reszta
reszte
resztki
retk
rewers
rewo
rez
rezerwace
rezerwat
rezerwato
rezerwatu
rezultace
rfo
rg
rga
rgana
rganach
rgane
rganiczne
rganiczno
rganista
rganizace
rganizacja
rganizacje
rganizacji
rganizacjo
rganizatora
rganizmo
rganizowo
rgano
rganowi
rgo
rgu
rhode
ri
ria
rian
rib
ribes
ricerze
rich
richard
rie
riga
right
rightarrow
rii
rilo
rim
rio
ris
riszarda
rjk
rk
rka
rkach
rkama
rki
rkj
rko
rku
rle
rlin
rma
rmace
rmacje
rmacjo
rmalno
rmama
rmark
rmatika
rme
rmie
rmo
rmu
rna
rne
rnego
rnej
rni
rnica
rnich
rniczi
rnije
rnik
rnika
rniko
rno
rnogo
rnosorbsczi
rnota
rnowicz
rnowsczi
rnołuz
rny
rnych
rnym
rnyma
ro
roadrunner
roanielsczi
robe
robert
robi
robia
robic
robie
robienie
robienio
robile
robine
robione
robiono
robiony
robił
robiła
robo
robota
rock
rocka
rockabilly
rocko
rocze
roczice
roda
rode
rodek
rodna
rodne
rodni
rodnich
rodno
rodnosc
rodnosce
rodny
rodnym
rodo
rodowiska
rodowo
rodu
rodz
rodza
rodzaj
rodze
rodzenio
rodzo
rodzone
rodzony
rodzył
roger
rogo
rogu
rok
roka
roko
roku
rola
role
roli
rolne
rolnicze
roma
roman
ropa
rope
ropejscze
ropejsczi
ropejsczich
ropejska
ropejsko
ropie
roppel
rort
ros
rosa
rosaceae
rosc
rosca
roscach
rosce
rose
rosle
rosna
rosprave
rost
rosła
rosłe
rosło
round
rowa
rowac
rowania
rowanie
rowanim
rowanio
rowate
rowała
rowe
rowi
rowie
rowo
royal
roz
rozbice
rozbu
rozce
rozcygaja
rozcygnia
rozcygo
rozdze
roze
rozeszłosc
rozewie
rozgała
rozgriwo
rozko
rozkosce
rozmaite
rozmajice
rozmajite
rozmajiti
rozmajitich
rozmajitosc
rozmiec
rozmieje
rozmienim
rozmio
rozmo
rozpo
rozporza
rozpoznawania
rozprowo
rozpu
rozro
rozsa
rozse
rozstrze
rozsze
rozszerzone
roztoczi
roztoka
roztra
rozwaz
rozwia
rozwice
rozwij
rozwija
rozwijo
rozwiju
rozwina
rozwinia
rozwo
rozwoju
rozłaze
rozłoz
rp
rpa
rpu
rs
rsce
rscze
rsczi
rsczich
rsczim
rse
rsikan
rska
rsko
rso
rstwa
rstwo
rsu
rsyce
rsza
rsze
rszewo
rszewsczim
rszi
rszo
rszula
rt
rta
rtach
rtal
rtama
rte
rterbuch
rti
rtim
rtk
rtka
rtne
rtno
rtnoce
rtnota
rtnote
rtny
rto
rtosc
rtosce
rtowe
rtowi
rtowo
rtre
rtrete
rtu
rtugalsczi
rtugalsczim
rtugalsko
ru
rubus
ruch
ruchna
ruchno
rucho
ruchu
ruda
rudolfa
rugpju
rugse
rujan
rujana
rujanie
rum
rumex
rumia
rummelsburg
rumu
runita
runitka
runitko
runitwe
rus
rusce
ruscze
rusczi
rusczim
ruse
ruska
rusko
rusku
rwacczi
rwace
rwacja
rwacka
rwacko
rwi
rwik
ry
rych
rylica
ryszard
rz
rza
rzac
rzach
rzaja
rzama
rzanie
rzanim
rzanio
rzano
rzata
rzałe
rzce
rzch
rzchny
rzchu
rzcz
rzcze
rzczi
rzczich
rzczim
rze
rzec
rzech
rzeche
rzecz
rzecze
rzeczenica
rzeczenie
rzeczi
rzeczpo
rzeczpospolita
rzeczypospolitej
rzeka
rzekle
rzekł
rzem
rzemia
rzeni
rzenia
rzeniama
rzenie
rzenim
rzenio
rzepu
rzesze
rzewie
rzewo
rzi
rzim
rzimiano
rzimie
rzimscze
rzimsczi
rzimsczim
rzimsko
rzimu
rził
rzk
rzko
rzna
rzne
rznie
rznik
rznika
rzo
rzone
rzono
rzony
rzowate
rzt
rzta
rzte
rzto
rzu
rzut
rzy
rł
s
sa
sach
sada
sado
sadze
sadzenie
sadzo
sadzone
sadzono
sadzony
sadzył
sagner
saint
sakramen
salix
sam
sama
sambo
samc
samce
same
sami
samica
samice
samiec
samim
samo
samocho
samorza
samos
samp
samstag
samu
san
sana
sankt
sanktuarium
santa
santana
santiago
sarka
sarko
sarna
sasha
satirik
sativa
sausis
savaite
saxoniae
saz
sc
sca
scach
scalił
scanie
sce
scele
scelne
scelny
scene
scersczi
scersczim
schnitzelbank
scho
scholar
schopenhauer
schramke
schuman
sci
science
sco
scolopacidae
scott
scoła
scołach
scołe
scoło
scy
scynanie
scza
scze
sczego
sczerowo
sczi
sczich
sczie
sczim
sczima
se
seamonkey
search
seattle
sebie
secale
sece
secondary
section
sections
sedle
sedza
sedzba
sedzy
seefried
segment
sej
sejm
sejmo
sejmu
sek
sekcja
sekcje
sekmadienis
sekreto
seku
selin
semia
seminare
seminarium
semiona
senatoro
senatu
senio
septembar
september
septentrionalis
serako
serb
serbie
serbio
serbo
serbsczi
serbsko
serca
serce
seria
serie
serwis
seul
sewo
sex
sezonie
sfere
sfo
sharp
shepherd
shkurt
show
shtator
shulist
si
sibti
sick
sie
sierakowice
signore
sikora
silla
simo
sin
single
sio
sive
siła
sje
sjo
sk
ska
skac
skaja
skala
skali
skama
skanie
skansen
skara
skarbo
skarszewo
skasze
skate
ski
skich
skie
skiego
skiej
skiem
skiwo
skle
sklo
sko
skra
skre
skro
skrodze
skrze
skrzeszewo
skrzidła
skrzidłach
skrzidłama
skrzidło
sku
skwa
skweres
skwie
sky
skł
składo
skło
sla
slackware
slav
slawista
slawisticzi
sle
sli
sliwce
slne
slo
slovinzische
slovio
slowen
slowie
sma
smaz
sme
smie
smiece
smieco
smierc
smierca
smierce
smiercy
smo
smu
sna
sne
sni
snia
sniany
snica
snie
sniegu
snienie
snienim
snienio
sniez
snik
snio
sno
sny
snym
so
soba
sobe
sobica
sobie
sobiesczi
soble
sobo
sobota
society
socjologie
socze
soczi
sofia
soft
software
sok
soka
soko
solanaceae
sole
solidarnosc
solidarnosce
solo
some
somo
son
songs
sonntag
sony
sopo
sopot
sorbonie
sorbs
sosna
sosnowate
sostra
sostre
sostro
soul
south
sowa
sowe
sowi
sowieccze
sowiecczi
sowo
sp
spa
spac
spalis
sparła
spe
species
specjalne
specjalno
specjalny
spi
spia
spicach
spie
spiewo
spiku
spio
spis
spise
spiso
spo
sport
społecznos
sprache
spraw
sprawa
sprawach
sprawama
sprawdze
sprawe
sprawie
sprawiedle
sprawo
spro
sprza
sprze
sprzedo
spu
spławin
sra
sri
srjedz
sro
srpen
ss
ssaki
st
sta
stac
stace
stach
stachu
stachurski
stacje
stacjo
staja
staje
stalat
stalata
stalatach
stalate
stalatim
stale
stan
stana
standard
stanica
stanie
stanisław
stanisława
stanisło
stanjisława
stano
stanowia
stanowiono
stanowisko
stanowił
stanu
star
stara
stare
stargard
starka
starko
starn
starna
starnach
starne
starnie
starno
staro
starosta
starostwa
staroz
starsza
starsze
starszi
starszich
starszim
startu
starz
starze
starzenie
starzno
stat
statczi
state
stateczno
states
statk
statko
statna
statne
statny
statnym
status
statut
statystyczny
staw
stawa
stawe
stawi
stawic
stawie
stawio
stawione
stawiony
stawionym
stawił
stawo
stawu
stał
stała
stałe
stałi
stało
stczi
ste
stefan
stefana
stefano
stegna
stenka
ster
stera
stersczi
sterstwa
sterstwach
sterstwo
stettin
sthum
sti
stigo
still
stim
stin
stina
sting
stiwo
stk
stka
stkach
stko
stne
stnik
stno
stny
sto
stocho
stoi
stoja
stojenie
stoji
stolata
stolate
stolatim
stolato
stole
stolece
stoleczny
stolecznym
stolema
stolemi
stolemna
stolemne
stolemnim
stolemno
stolemny
stolemo
stolica
stolp
stolsczi
stolsczich
stone
stonka
stopadnik
stopadnika
stope
stopnio
stopo
story
stosc
stosce
stose
stosowanio
stosowo
stowate
stowo
stoz
stoło
stołowe
stołowi
stołpsczim
stołpsko
str
stra
strach
strale
stranger
straz
stre
streda
strefe
stremiannika
stri
strie
strio
stro
strogo
strona
stronach
stronama
strone
stronie
stropu
strowa
strowach
strowama
strowe
strowie
strowo
strowu
strugi
strumiannik
strumiannika
strumianniku
strza
strze
strzelno
strzewa
strzez
strzimanie
strzo
strzoda
strzodko
stu
studia
studio
stutthof
stw
stwa
stwach
stwama
stwie
stwo
stwowe
sty
stycznia
su
sub
subsp
substance
such
suffer
sufragana
suicidal
suis
sukces
sule
sumner
sun
sung
superioris
sus
susk
suska
susko
sw
swa
swe
swecie
sweet
swego
swia
swiat
swiata
swiate
swiatowa
swiatowe
swiatowi
swiatowo
swiatowy
swie
swiece
swiecie
swinia
swinio
swio
swo
swoja
swoje
sy
syce
sychta
sycylijsczi
sygaja
sygo
syjamsczi
syko
sylvatica
sylvestris
symbo
syn
syna
synonime
syntaksa
syre
syreji
syria
system
systema
systeme
systemie
systemo
systemu
sz
sza
szabla
szable
szablo
szac
szace
szach
szacowo
szafa
szafe
szafer
szaja
szakala
szale
szan
szanie
szare
szari
szaro
szatlach
szawa
szawe
szaweł
szała
szałe
szcz
szcza
szczawa
szcze
szczece
szczecin
szczego
szczesce
szczi
szczipo
szcziwo
szczka
szczko
szczo
szczone
szczotecznik
szczu
sze
szedł
szemo
szenie
szenio
szerocze
szeroczi
szerok
szeroko
szersze
szesc
szesno
szewo
szi
szich
szim
szima
szime
sziwanie
sziwanio
sziwczi
sziwk
sziwka
sziwku
sziwo
sził
szk
szka
szkano
szkelece
szkice
szko
szkoła
szkoły
szku
szl
szla
szlach
szlachama
szlachce
szlache
szlachecczi
szlachecko
szlacho
szlachta
szlachte
szlachu
szlaga
szlapnik
szle
szlifo
szlo
szmaka
szme
szne
sznica
sznice
sznik
szniko
szno
sznoce
sznota
sznote
szny
sznych
sznym
szo
szone
szono
szony
szopin
szowate
szowi
szp
szpan
szpanii
szpe
szpo
szre
szroeder
szt
szta
sztabilne
sztambu
sztatur
sztatura
sztature
sztatus
sztatutowe
szte
sztefan
sztefana
sztefo
sztelu
sztere
sztete
sztilu
szto
sztof
sztokho
sztoku
sztor
sztorny
sztoru
sztorze
sztra
sztre
sztremle
sztricho
sztrid
sztro
sztu
sztude
sztudia
sztudirowo
sztuka
sztuki
sztum
szu
szuko
szule
szulist
szwajcarsce
szwajcarsko
szwe
szwecji
szwedzce
szwedzczi
szwedzczim
szwedzka
szwedzko
szła
szłe
szłi
szło
sł
sła
sława
sławie
sławiony
sławne
sławno
sławny
sławo
słe
sło
słodko
słome
słone
słoniowe
słowa
słowaccze
słowacczi
słowacczim
słowach
słowacja
słowacka
słowacko
słowakska
słowama
słowarza
słowen
słowenio
słowian
słowianie
słowiano
słowie
słowik
słowin
słowio
słowizna
słowizne
słowniczek
słownik
słowo
słu
słun
słupsk
słuz
t
ta
tabula
tac
tach
tacze
taczi
taczich
taczim
taczima
tadeu
tadeusz
tadeusza
tadienis
tadz
tagalog
taja
tajsczi
tak
taka
take
takiego
tako
takz
tale
talk
tam
tama
tamara
tamte
tan
tana
tania
taniczny
tanie
tanik
tanio
tantum
tanzanio
tasman
tatarsczi
tatcze
tatk
tatre
taylor
tce
tcza
tcze
tczew
tczi
tczich
tczim
tczima
tczin
td
te
teatr
teatrownica
teatrownik
teatrownika
teatrownikem
teatru
techniczi
technika
tecnolo
teczno
ted
tede
tego
tej
tek
tekst
teksta
tekstach
tekstama
tekste
teksto
tekstowe
tekstu
teksty
telefo
telewize
telewizje
telewizji
telewizjo
telewizyjne
tema
temknia
temkłe
temperatura
temperature
temu
ten
tendencies
tentacles
tenys
teo
teoria
ter
tera
teraccze
teracczi
teracczim
teracka
teracko
teratura
terature
teraturze
teraz
tere
teren
terenach
terene
terenie
tereno
terenu
teresa
teritorium
termin
terminologia
termo
terms
terne
tero
terra
terram
tersczi
tersko
tery
tesa
testamen
testament
testamentu
tetor
teu
tewczi
tewscze
tewsczi
tewska
tewsko
text
texts
tez
tha
than
that
the
their
them
there
these
they
this
thomas
thu
thylacine
thylacinus
ti
tia
tich
tidy
tidze
tifu
tigo
tigris
tikaja
tiko
tim
tima
timczasa
time
timo
timor
tin
tip
tipiczne
tipo
tipu
tiraspol
tis
tischner
tite
titel
titla
title
titles
titlu
tj
tk
tka
tkac
tkach
tkama
tkiem
tko
tku
tle
tme
tna
tne
tni
tnica
tnice
tnictwo
tnicze
tniczi
tniczka
tnie
tnik
tnika
tniko
tno
tnosc
tnosce
tnowe
tny
tnym
to
toba
tobaczi
tobaka
tobie
tobu
tojan
tok
tokarczuk
tokio
tokrze
tom
toma
tomaczko
tomasz
tomasza
tomo
ton
tono
tonomiczne
tooth
top
topnienio
topo
tor
tora
tore
torka
torn
toronto
torstwa
torun
tosce
tour
tours
tow
towa
towac
towarze
towarzystwo
towate
towe
towi
towie
town
towni
towo
towscze
towsczi
towsczim
towsko
toyota
toz
toł
tołmacze
tołmaczenie
tołmaczone
tr
tra
trach
tradice
tradicja
tradicji
tradicjo
tradycji
trafi
trafia
trafił
train
traktat
traktura
trakture
trakturze
trama
transkripce
translation
translationum
transparent
transpo
trb
tre
trec
treder
tree
trepczik
trepczika
trepczyk
treptow
tres
tricolor
trifolium
tro
trojanowsczi
trojanowska
trojanowsko
troje
tronowi
tronu
trowe
trulo
trus
truso
trza
trze
trzeba
trzebiatowsczi
trzebiele
trzebio
trzece
trzech
trzeci
trzeco
trzecy
trzecym
trzej
trzema
trzimanie
trzimanio
trzimo
trzo
tsze
tszi
tt
tu
tuj
tun
tunezjo
tur
tura
turistice
turisticzi
turistika
turistno
turistny
turistnym
turisto
turku
turystyka
tusk
tuszko
tuum
tuwo
tv
tvp
tvrtek
tvrtok
tw
twa
twardowski
twe
twie
two
ty
tych
tychach
tylko
tym
tys
tysia
tzw
tł
tłe
tło
tłuczewie
tłuczewo
tłum
tłumaczenie
tłumaczy
u
ubuntu
uce
uk
uko
ukowo
ukowska
układ
ul
um
un
unbekannten
und
under
unesco
unikod
united
universidade
university
uniwersytet
uniwersytetu
up
upo
ur
urban
ure
uro
urodziłam
urodzył
urs
ursula
urza
urze
usa
use
uso
ustawa
utc
ute
utorok
uz
uzno
v
va
vaccinium
vale
valencia
van
var
vasaris
ve
vector
verb
verbatim
verein
verlag
version
versions
versuch
vhs
vi
via
viaf
vicia
victoria
video
vii
viii
viola
violaceae
viridis
vol
volapu
volke
volks
volkskunde
von
vorpommern
vrijdag
vulgare
vulgaris
vulpes
w
wa
wac
wach
wacław
wacława
wacło
wada
wade
wado
waja
waju
wala
wale
walenta
waleriana
wales
waleska
wali
walijsczi
walk
walter
wama
wan
wanda
wane
wania
wanie
wanim
wanio
waniu
wano
wanodz
wanoga
wanoz
wany
wanym
war
warce
ware
wariant
wariante
warijant
warka
warko
warku
warmin
warminsko
warner
waro
warstwo
warszawa
warszawe
warszawie
warszawscze
warszawsczim
warszk
warta
warte
wartos
warze
was
washington
wate
watelsczi
wati
watikan
watikanie
wato
waw
wawrzin
way
waz
waza
wała
wałe
wało
wc
wca
wcale
wce
wcho
wco
wcowie
wcu
wcyg
wcza
wczas
wczasne
wczasni
wczasnie
wczasowima
wcze
wczi
wczo
wda
wde
wdo
wdze
wdzydzach
wdzydzcze
wdzydze
we
web
website
wedge
wedle
według
wej
wejherowo
wejrowa
wejrowie
wejrowo
wejrowscze
wejrowsczi
wejrowsczim
wekto
wele
wen
wendisch
wends
wenecczi
wenus
werifikace
werse
wersja
wersje
wersji
wersjo
wespo
west
western
westpreußen
westrze
westrzo
wet
wezwo
wg
when
which
white
who
whose
wi
wia
wiac
wiado
wiadomienie
wiadomos
wiadomosci
wiadła
wiadło
wiaja
wiale
wiane
wianie
wianim
wianio
wiara
wiare
wiat
wiata
wiater
wiatrownica
wiatrownice
wic
wica
wice
wich
wicko
wicy
wicz
wid
widle
widlin
widnem
widu
widz
widza
widzałe
widzałi
widzałosc
widze
widzec
widzenio
widzo
widzy
widłe
wie
wiec
wiece
wiecie
wieczi
wieczne
wieczo
wieden
wiednio
wiedniu
wiedno
wiedza
wiedze
wiedzec
wiedzo
wieje
wiek
wieko
wieku
wiela
wiele
wielelatne
wielelatno
wielelatny
wielgo
wielka
wielki
wielkie
wielko
wielne
wielny
wielu
wiera
wiersze
wierza
wierzba
wierzbo
wierzchnia
wierze
wierzenia
wierzeniach
wierzenio
wies
wiesc
wiesce
wiesco
wiesczi
wiesele
wieska
wiesko
wieszczi
wieszczo
wietew
wietewczi
wietewko
wietnam
wietnamsczi
wietnamsczim
wietrze
wietrzne
wietwiama
wiez
wigo
wija
wika
wikari
wiki
wikimedia
wikipedia
wikipedija
wikipedije
wikipediji
wikipedijo
wikisłowo
wiksza
wiksze
wikszi
wikszich
wikszim
wikszima
wikszo
wikszosc
wikszosce
wikto
wiktora
wiktoria
wilamo
wilczo
wile
wilhelm
wilk
wilka
wilko
will
willa
william
williama
williams
wilnie
wilno
wim
wima
win
wina
winca
windows
windowsa
windz
windze
wine
winga
winie
winna
wino
winona
winowo
winter
wio
wiodro
wione
wiony
wiozle
wirus
wirusa
wiruse
wiska
wiszcze
wisznia
wisła
wisława
wisłe
wit
witamina
witamine
with
within
wito
witold
witosława
witro
wiusz
wiusza
wiz
wizna
wizne
wiznie
wił
wiło
wk
wka
wkach
wkama
wki
wko
wku
wkło
wl
wle
wlo
wn
wna
wnak
wnanie
wnanim
wne
wnenczas
wnet
wnetk
wnetka
wni
wnica
wnice
wnico
wniczi
wnie
wniebo
wniez
wnik
wnika
wniko
wniku
wnio
wno
wnoce
wnoczasno
wnolez
wnosc
wnosce
wnota
wnote
wnowaz
wnoz
wnoznacze
wny
wnych
wnym
wo
woensdag
wojciech
wojewo
wojkasena
wojna
wokno
wola
wolfgang
words
work
works
world
worldcat
wołoszyn
wpisanych
wpise
wpiso
wprowadze
wprowadzenie
wprowadzo
wprowadzono
wprowadzył
wprowo
wprzo
wpłe
wpłiwa
wpłiwo
wraz
wre
wright
wro
wrocław
wron
wroznik
wrze
wrzosowate
ws
wsa
wsach
wsadze
wscho
wscze
wsczi
wsczich
wsczim
wse
wsecze
wsi
wskaze
wsko
wso
wsowi
wsowo
wspiarce
wspie
wspo
wspomnienia
wsta
wstania
wstanie
wstanio
wstała
wstałe
wstałi
wstało
wste
wsto
wsza
wsze
wszechno
wszechny
wszelejacze
wszelejaczich
wszystkich
wszystko
wto
wu
ww
www
wy
wybo
wyborcza
wybrane
wybrzez
wycieczce
wyd
wydanie
wydaw
wydawnictwo
wydawnicza
wydawniczy
wym
wyniki
wyro
wys
wysoko
wysta
wyste
wyszyn
wyz
wza
wzdłuz
wze
wzgla
wzmo
wzo
wzory
wzyc
wł
wła
władisława
władisło
władysław
władza
władze
wło
włocho
włodzimierz
włosczi
włose
włoz
x
xa
xi
xii
xiii
xiv
xix
xv
xvi
xvii
xviii
xx
xxi
xxiii
y
ya
yale
yana
yc
ycia
ycie
year
years
yi
yir
yk
yn
yno
yo
yom
york
you
your
youtube
yu
ywane
ywienie
yła
z
za
zaangaz
zabawe
zabe
zabie
zabite
zabiti
zabo
zaborska
zabrze
zabu
zac
zach
zacha
zache
zacho
zachodnie
zachodniego
zacht
zacmienie
zacmienio
zacza
zacze
zaczino
zadanie
zadanim
zadebiutowo
zado
zago
zagran
zagro
zagroz
zagwe
zainteresowania
zaja
zaje
zajimaja
zajimo
zako
zakrzewo
zaku
zakło
zale
zalez
zalo
zama
zame
zamieszko
zamiko
zamknia
zamkłi
zamkło
zamkłosc
zamkłosce
zamo
zania
zanie
zaniecho
zanim
zanio
zano
zany
zao
zapamia
zapise
zapiso
zapisu
zapo
zapro
zare
zarecho
zarko
zaro
zarys
zarysu
zarza
zasad
zasade
zasado
zase
zaso
zasta
zastosowanie
zastrze
zastrzez
zasłe
zasłudz
zasłuz
zaterdag
zatiw
zato
zatoki
zatre
zatrze
zatrzimo
zawdza
zawie
zawiero
zawiesze
zawo
zawodowych
zaz
zaza
zał
zała
załe
zało
załoz
zbe
zberku
zbie
zbigniew
zbio
zbiorowa
zble
zbliz
zbo
zbrze
zbu
zc
zca
zce
zczi
zd
zda
zdanie
zde
zdka
zdni
zdo
zdobe
zdre
zdro
zdrobnienie
zdrojach
zdroje
zdrowas
zdrowia
zdrowie
zdrowio
zdrowo
zdrza
zdrzatk
zdrzatku
zdrze
zdrzec
zdrzi
zdrzo
zdz
zdze
zdzina
zdłuz
ze
zebr
zebro
zef
zefa
zek
zele
zelerowate
zelin
zelna
zelo
zelone
zelono
zelony
zeme
zemi
zemia
zemiach
zemie
zemio
zemji
zemny
zemsczi
zenie
zenwalk
zeo
zespo
zesto
zeswio
zeu
zeum
zewi
zez
zeł
zga
zgo
zgre
zgro
zgromadzenio
zi
zie
ziem
ziemi
ziemia
zima
zimbabwe
zimmer
ziwaja
ziwo
zjadac
zje
zjedno
zjinaka
zjo
zk
zka
zkama
zko
zku
zle
zleczin
zlo
zm
zmartwe
zmarł
zmiana
zmiane
zmie
zmieniaja
zmienione
zmieniwo
zmio
zmiłko
zmo
zmu
zna
znac
znach
znacza
znacze
znaczenia
znaczenie
znaczenim
znaczenio
znaczi
znaczo
znaczone
znaja
znajde
znaje
znajo
znak
znaka
znakama
znako
znan
znanczi
znane
znania
znanie
znanio
znaniu
znank
znanka
znanko
znano
znała
zne
zni
znie
znio
zniszcze
zniszczone
zniszczono
zno
znormalizował
znormalizowo
znowa
znowe
znowi
znowim
zny
zo
zofia
zofio
zogre
zondag
zone
zoo
zoologia
zort
zorta
zorte
zorto
zortu
zowe
zowi
zowo
zoz
zre
zro
zrobi
zrobia
zrobic
zrobile
zrobione
zrobiono
zrobiony
zrobił
zrze
zrzesz
zrzesze
zrzeszenia
zrzeszenie
zrzeszenim
zrzeszenio
zrzeszeniu
zrzeszin
zrzesznica
zrzeszone
zrzeszony
zsrr
zssr
zu
zulu
zupa
zur
zusammenfassenden
zułmanie
zvjercadło
zwa
zwanie
zwano
zwe
zwia
zwie
zwierza
zwierze
zwierzo
zwiksza
zwinia
zwo
zwro
zwycie
zwyczaje
zyce
zycja
zyczi
zyczne
zyczno
zyczny
zycznym
zygmu
zygmunt
zyk
zyka
zykach
zykan
zyko
zyku
zymk
zymko
zymku
zyn
zyto
zytor
zytora
zytorka
zywo
zz
zł
zła
złe
złi
zło
złoce
złota
złote
złoti
złotim
złoto
złotowo
złoty
złoz
{
|
}
~

¡
§
©
«
­
°
²
³
´
·
»
¿
×
ß
æ
ð
đ
ħ
ł
ła
łabsczi
łac
łace
łach
łacyn
łago
łaja
łajming
łama
łanie
łapale
łasczi
łase
łautor
łautora
ławsczim
łaza
łbe
łca
łce
łcenie
łcenio
łcone
łczasne
łczasno
łcze
łczesna
łczi
łczo
łd
łdawio
łdawsczi
łdawsko
łdze
łe
łeba
łebe
łebno
łebsko
łemko
łempicka
łgario
łgo
łi
łich
łim
łima
łisk
łiwo
łk
łka
łko
łku
łmz
łne
łni
łnia
łnie
łnim
łnio
łniowa
łniowe
łniowi
łniowim
łniowo
łniowosłowian
łniu
łnocna
łnocnoprze
ło
łobez
łoczetk
łoczetka
łode
łogin
łogo
łopo
łore
łorus
łoruscze
łorusczi
łoruse
łot
łotewsczi
łotewsko
łotwa
łowa
łowate
łowe
łowi
łowia
łowic
łowie
łowienio
łowo
łoz
łp
łpa
łpino
łpsczim
łrobi
łrobia
łrobił
łrobo
łt
łta
łte
łtem
łti
łto
łtowe
łtowi
łtowo
łtu
łu
łubianie
łucjo
łukasza
łuko
łuz
łw
ły
łz
łzało
łzwa
œ
ǁ
ɒ
ɔ
ɕ
ɗ
ɘ
ə
ɛ
ɞ
ɣ
ɥ
ɦ
ɨ
ɪ
ɯ
ɲ
ɸ
ʂʈuʂ
ʃ
ʉ
ʊ
ʌ
ʏ
ʐ
ʒ
ʔ
ʰ
ʲ
ʼ
ˈ
ː
˚
̀
́
̂
̃
̄
̆
̇
̈
̉
̊
̋
̌
̑
̓
̔
̛
̞
̣
̦
̧
̨
̯
̱
͂
ͅ
͡
α
β
δ
ε
η
θ
και
ν
ο
ρ
ς
υ
χ
ω
ϙ
ϝ
а
администра
ам
ами
ау
ах
аэродром
б
балтии
беларускаи
берегу
быу
в
г
години
д
е
ж
з
затрыманы
и
к
ксе
л
м
март
мацкевіч
моря
мяжы
н
на
ндз
не
о
об
ов
ом
остатки
п
польска
р
република
республика
с
ского
славян
т
торак
тур
у
украі
ф
х
ц
ч
ш
ъ
ы
ь
южном
я
ђ
і
ј
јануар
је
љ
њ
ћ
џ
ְ
ִ
ֵ
ֶ
ַ
ָ
ֹ
ּ
־
ֿ
ׁ
ב
ג
ד
ה
ו
ח
יום
ך
כ
ל
ם
מ
ן
נ
פ
צ
ר
ש
ا
ب
بريل
ديسمبر
ر
س
سبتمبر
غسطس
فبراير
كتوبر
مارس
مايو
ن
نوفمبر
و
يناير
يوليو
يونيو
َ
ُ
ِ
ْ
ٔ
ं
क
ग
च
त
ब
भ
म
र
ल
व
स
ा
ि
ी
ु
ै
ो
्
ర
ి
్
ತ
ರ
ಾ
ಿ
ು
್
ก
ฉ
ท
น
ว
ส
ั
ิ
ี
ุ
่
์
​
‎
‏
–
—
‘
’
“
”
„
†
•
…
′
″
⁡
₂
↑
→
↓
↔
↷
⇒
−
∘
③
④
⑦
▪
☉
⯓
ⰰ
⺀
⺄
⺆
⺈
⺊
⺌
⺕
⺝
⺸
⺼
⿰
⿱
⿲
⿳
⿴
⿵
⿶
⿷
⿸
⿹
⿺
⿻
。
〢
あ
い
う
お
か
き
く
け
こ
さ
し
す
た
ち
っ
つ
て
と
な
に
ね
の
は
ひ
へ
ほ
ま
み
め
も
や
ゅ
ゆ
よ
り
る
れ
わ
を
ん
゙
゚
ア
イ
ウ
ク
コ
ス
チ
ヒ
フ
マ
ヤ
ユ
ョ
ル
ロ
ン
ー
ㄣ
ㄧ
ㄨ
ㅇ
㇁
㇂
㇄
㇇
㇈
㇉
㇓
㐁
㐄
㐅
㐌
㐫
㐬
㐭
㐮
㐱
㑒
㒵
㒸
㒼
㓁
㓞
㔾
㕛
㕣
㖾
㘝
㚅
㚇
㚔
㚘
㝉
㝡
㝴
㝵
㞋
㞢
㞷
㠩
㠭
㠯
㡀
㡭
㡿
㢲
㢴
㣇
㣺
㥯
㪅
㫄
㫐
㫒
㫺
㬅
㬎
㬥
㬰
㲋
㳄
㷠
㸒
㸚
㸦
㼌
㼲
㽞
㿟
䀠
䂞
䍃
䏍
䒑
䖍
䖒
䖝
䖵
䙴
䚻
䜌
䝿
䡛
䧹
䪞
一
丁
丂
七
丄
丅
丆
万
丈
三
上
下
丌
不
与
丏
丐
丑
专
且
丕
世
丘
丙
业
东
丞
丢
丣
两
严
並
丨
丩
个
丫
丬
中
丮
丰
丱
串
丵
丶
丷
丸
丹
为
主
丽
丿
乀
乂
乃
久
乆
乇
么
义
之
乌
乍
乎
乏
乐
乑
乔
乖
乗
乘
乙
乚
乛
乜
九
乞
也
习
乡
乳
乾
亀
亅
了
亇
予
争
事
二
亍
于
亏
亐
云
互
亓
五
井
亘
亚
亜
亞
亟
亠
亡
亢
交
亥
亦
产
亨
亩
享
京
亭
亮
亯
亰
亲
亳
亶
亷
人
亻
亼
亾
仁
今
介
仌
从
仐
仑
仒
仓
仕
他
付
仝
代
令
以
任
企
伊
伏
伐
休
会
伯
但
位
佐
何
佘
余
作
佥
使
來
侈
侌
侖
供
侯
侵
便
保
俞
信
修
倉
倍
候
倠
備
僉
僕
儿
兀
允
兂
元
兄
充
兆
兇
先
光
兊
克
兌
免
児
兑
兒
兓
兔
党
兜
兟
入
全
兩
兪
八
公
六
兮
兰
共
关
兵
其
具
典
兹
兼
冀
冂
冃
冄
内
冈
冉
冊
冋
册
再
冎
冏
冐
冒
冓
冖
冗
冘
军
农
冝
冠
冡
冥
冫
冬
冷
几
凡
凢
凵
凶
凷
凸
凹
出
函
凾
刀
刁
刂
刃
刄
刅
分
切
刍
刑
刕
刖
列
刘
则
初
別
利
别
到
制
刺
則
削
剌
前
剛
剡
剽
劉
力
功
加
劦
助
劫
劳
劵
勃
勇
勉
勒
動
務
勝
勞
勤
勹
勺
勻
勾
勿
匀
匂
包
匆
匈
匊
匋
匍
匕
化
北
匚
匝
匡
匪
匱
匸
匹
区
医
匽
匿
區
十
卂
千
卄
卅
卆
升
午
卉
半
卌
华
卑
卒
卓
单
卖
南
卜
卝
卞
占
卡
卢
卣
卤
卦
卩
卪
卬
卯
印
危
即
却
卵
卷
卸
卻
厂
厃
厄
历
厈
厉
厌
厓
厘
厚
原
厤
厥
厨
厭
厲
厶
厷
厸
去
厼
厽
叀
参
參
叅
又
叉
及
友
双
反
叐
发
叒
叔
叕
取
受
叚
叜
叟
口
古
句
另
叩
只
召
可
台
叱
史
右
叵
号
司
叹
吂
各
吅
合
吉
吊
吋
同
名
后
吏
向
吕
君
吝
吞
否
含
启
吳
吴
吹
吾
呂
呆
呈
告
员
呙
周
命
咅
和
咎
咠
咢
咨
咸
咼
哀
品
哉
員
哥
哲
唐
商
啇
問
啚
啬
啻
善
喜
喬
單
喿
嗇
噩
嚴
囊
囗
囘
囙
囚
四
回
囟
因
囧
囬
困
囱
囷
固
国
圂
圅
國
圍
圓
土
圡
圣
圥
在
圭
地
圶
场
圼
坐
坒
坚
坪
坴
垂
垔
垚
埀
埋
城
域
埶
執
基
堂
堅
堆
堇
堯
報
場
塞
墨
壌
壘
壤
士
壬
壯
声
壱
壳
壴
壹
壺
壽
夂
处
夅
夆
备
夊
夋
夌
复
夏
夒
夕
外
夗
夘
多
夜
夢
大
夨
天
太
夫
夬
夭
央
失
夲
头
夷
夸
夹
夻
夾
奂
奄
奇
奈
奉
奎
奏
奐
契
奓
奔
奚
奞
奠
奢
奥
奭
女
奴
奻
好
如
妄
妙
妟
妥
妻
妾
姑
委
姜
威
娄
婁
婴
嬰
嬴
子
孑
孔
孕
孖
字
存
孚
孛
孝
孟
季
孤
学
孫
孱
學
宀
宁
宂
它
宅
宇
守
安
宋
完
宏
宓
宗
官
定
宛
宜
宝
客
宣
室
宮
宰
害
家
容
宾
宿
寄
寅
密
富
寒
察
寧
審
寫
寬
寮
寸
对
寺
寻
寽
対
寿
封
尃
射
将
將
專
尉
尊
尋
尌
對
導
小
少
尒
尓
尔
尖
尗
尚
尞
尢
尣
尤
尧
尨
尭
就
尸
尹
尺
尻
尼
尽
尾
尿
局
居
屈
屋
屎
屏
屑
展
屖
屚
属
屠
屡
屬
屮
屯
屰
山
屵
屾
岁
岂
岑
岡
岩
岳
岸
峯
峰
島
崇
崎
崑
崔
崖
崙
崩
嵬
嶲
巂
巛
川
州
巟
巠
巢
巤
工
左
巧
巨
巩
巫
差
己
已
巳
巴
巷
巸
巽
巾
巿
帀
市
布
希
帚
帛
帝
带
師
席
帶
常
干
平
年
幵
并
幷
幸
幺
幻
幼
幽
幾
广
広
庄
床
底
店
庚
府
度
庫
庭
庶
康
庸
廉
廌
廛
廣
廩
廴
延
廷
建
廾
廿
开
弁
弃
弄
弇
弋
式
弓
弔
引
弗
弘
弜
弟
弥
弦
弱
張
強
强
彊
彌
彎
彐
彑
当
彔
录
彖
彗
彡
形
彥
彦
彧
彭
彳
役
彼
往
待
律
徒
得
徙
從
復
微
徵
心
忄
必
忌
忍
志
忝
忠
忩
快
念
忽
忿
思
怠
急
怱
恆
恒
恩
恭
息
悉
患
悤
悲
悶
情
惠
惡
惢
愁
愈
意
愛
感
慈
慧
慮
憂
憲
應
戀
戈
戉
戊
戋
戌
戍
戎
成
我
戒
戔
或
戚
戠
戢
截
戲
戶
户
戹
戼
戾
房
所
扁
扇
手
扌
才
打
托
执
承
折
报
拉
拜
拿
持
掌
推
提
摩
支
攴
攵
收
攸
改
放
政
敄
敏
敕
敖
敗
教
敝
敞
敢
散
敦
敫
敬
数
敷
數
斂
文
斉
斊
斗
斤
斥
斩
斬
斯
新
方
於
施
斿
旁
旋
族
无
旡
既
旣
日
旦
旧
旨
早
旬
旱
旲
时
旾
昆
昇
昌
昍
明
昏
易
昔
昗
昜
星
春
昬
是
昱
昴
昷
時
晃
晋
晏
普
景
晶
智
暑
暴
曇
曜
曩
曰
曲
曳
更
曷
書
曹
曼
曾
替
最
朁
會
月
有
朋
服
朔
朕
朗
望
朝
期
木
朩
未
末
本
札
朮
术
朱
朵
朶
机
朿
杀
杏
村
杜
束
条
来
東
杲
杳
松
析
林
枚
果
枝
枲
枼
某
柔
查
柬
柰
柳
柴
栗
桀
桑
桼
梁
條
梟
梨
棘
棠
棥
森
楚
業
楽
榮
樂
樊
樹
橋
機
欠
次
欣
欮
欲
欶
欽
款
歆
歇
歛
止
正
此
步
武
歨
歪
歮
歯
歰
歲
歴
歷
歸
歹
歺
死
殳
段
殷
殸
殹
殺
殻
殿
毋
毌
母
每
毒
比
毕
毚
毛
毳
氏
氐
民
气
氣
水
氵
氶
氷
永
氺
氾
求
汝
汞
江
沃
沓
沙
沝
治
泉
法
波
泣
泥
泰
洛
洞
津
洪
活
派
流
浦
浪
浮
海
淡
淮
清
渚
渠
港
湖
湯
滿
漢
漸
火
灬
灭
灰
灵
灷
炅
炎
炏
炗
炙
炭
為
烈
烏
烝
焉
無
焦
焱
然
煞
熊
熏
燕
營
燮
爪
爫
爭
爯
爰
爱
爲
爵
父
爻
爽
爾
爿
片
牙
牚
牛
牜
牟
牢
牧
牪
特
牽
犀
犬
犭
犮
狂
狄
狊
独
狺
猋
猒
猪
猫
献
獻
玄
率
玉
王
玟
玨
珎
班
現
琴
瑟
瑩
璠
瓜
瓦
甘
甚
生
産
用
甫
甬
田
由
甲
申
电
甶
男
甸
甹
画
甾
畀
界
畏
畐
留
畜
畟
畢
畧
畨
番
畫
異
畱
當
畺
畾
疊
疋
疌
疑
疒
疾
癶
癸
癹
登
發
白
百
皀
皃
的
皆
皇
皋
皐
皕
皮
皷
皿
盃
盆
盇
盈
益
盍
盎
监
盒
盖
盛
盡
監
盤
盧
目
直
相
盾
省
眇
眉
看
眔
眞
真
眷
眼
眾
着
睘
睪
睿
瞏
瞢
瞿
矍
矛
矞
矢
矣
知
矦
短
石
破
碎
磊
磨
示
礻
礼
祟
祥
票
祭
禀
禁
禸
禹
禺
离
禽
禾
禿
秀
私
秃
秉
秋
科
秝
秦
移
稟
穀
穌
穴
究
穹
空
穿
突
窄
窒
立
竒
竜
竝
竟
章
童
竹
笑
笠
筆
等
答
箕
算
箱
箴
節
篤
篭
米
粉
粛
粟
粤
粦
粲
糞
糸
糹
系
約
納
級
素
索
紫
累
細
終
絜
絫
絲
維
綿
縣
繇
纍
纟
缶
网
罒
罔
罕
罗
罙
罡
罢
罪
置
署
罷
羅
羊
羌
羍
美
羔
羕
羗
羞
羡
羣
群
義
羲
羸
羽
翁
翏
習
翕
翟
翠
翼
老
耂
考
者
耆
而
耎
耑
耒
耳
耴
耶
耷
聂
聊
聖
聚
聲
聶
聿
肀
肃
肅
肉
肖
肙
肥
肩
肯
育
肴
胃
背
胡
胥
能
脊
脩
膚
臣
臤
臧
自
臬
臭
臯
臱
至
致
臺
臼
臽
臾
臿
舀
舂
舄
與
興
舉
舌
舍
舛
舜
舞
舟
般
船
艮
良
色
艸
艹
艾
芒
芔
芬
芮
花
芳
芺
芻
苔
苗
苟
若
苦
英
茶
茸
荅
草
荒
荣
荼
莆
莧
莫
莽
菆
菊
菐
華
萬
落
葉
著
葛
董
葵
蒙
蒦
蒼
蓋
蓬
蓺
蔑
蔡
蕉
蕭
薄
薛
薦
薰
藍
藏
藥
蘭
虍
虎
虐
虒
虔
處
虖
虗
虘
虚
虛
虜
虞
虫
虽
蚤
蚩
蜀
蜜
蟲
蠡
血
衆
行
衍
衛
衣
衤
表
衮
衰
袁
袞
褭
褱
襄
襾
西
覀
要
覃
見
規
覓
覧
親
覽
见
角
解
言
訁
訇
計
詹
語
誩
諸
議
讠
谷
豆
豈
豊
豐
豕
豖
豙
象
豦
豩
豪
豸
貇
貓
貝
貞
貟
負
貢
貧
貪
貫
責
貳
貴
買
費
賁
資
賈
賏
賓
賔
賛
賞
賢
賣
質
賴
贊
贝
贡
责
贯
贲
贵
赖
赞
赤
赦
走
越
足
路
蹇
身
躬
車
軍
軎
軟
輦
轄
车
辛
辜
辟
辥
辰
辱
農
辵
辶
边
达
过
近
连
迷
追
退
送
逆
逐
通
速
造
逢
連
逮
週
進
遀
遂
過
道
達
遣
適
遷
遺
邊
邑
邕
那
邦
邪
郎
郡
部
郭
都
鄉
酉
酋
配
酓
釆
采
里
重
野
量
金
釒
鋒
錢
鏡
钅
長
镸
长
門
閃
閉
開
閏
閑
閒
間
閔
閵
閻
闌
门
间
闷
阑
阜
阝
阿
降
院
陳
陽
隆
隊
隋
隡
隨
隱
隶
隹
隺
隻
隼
隽
难
雀
雁
集
雈
雋
雍
雐
雔
雙
雚
雜
雝
離
難
雨
雩
雪
雲
零
雷
需
霍
霜
霝
霞
霸
靈
靑
青
非
靡
面
靣
革
韋
韓
韦
韭
韯
韱
音
頁
頃
項
順
須
頗
頡
頻
顛
類
页
風
风
飛
飞
食
飠
養
饣
首
香
馬
馮
駦
马
骨
高
髟
鬥
鬯
鬲
鬼
魚
魯
鮮
鱼
鲁
鳥
鳳
鸟
鹵
鹿
麃
麗
麥
麦
麻
黃
黄
黍
黎
黑
黒
黨
黹
黽
黾
鼎
鼓
鼠
鼻
齊
齋
齐
齒
齿
龍
龙
龜
龟
龠
龰
龱
龴
龵
龶
龷
龸
龹
者
艹
（
／
？
🜨
𠀁
𠀃
𠀆
𠀉
𠀎
𠀐
𠁁
𠁣
𠂆
𠂇
𠂈
𠂉
𠂊
𠂋
𠂎
𠂒
𠂔
𠂛
𠂡
𠂢
𠂤
𠂬
𠂭
𠂹
𠃊
𠃋
𠃌
𠃍
𠃎
𠃑
𠃓
𠃔
𠃜
𠄌
𠄎
𠄠
𠄢
𠆢
𠆥
𠇍
𠈌
𠌵
𠓜
𠔉
𠔥
𠔼
𠔽
𠔿
𠕀
𠕁
𠕋
𠘧
𠘨
𠙻
𠙼
𠚏
𠚒
𠚤
𠚪
𠣏
𠤎
𠤕
𠥓
𠦄
𠦑
𠦝
𠧒
𠧗
𠧪
𠩺
𠪚
𠫓
𠫔
𠫤
𠬛
𠬝
𠬞
𠬢
𠬤
𠬶
𠮛
𠮦
𠮷
𠯑
𠱠
𠳮
𠷎
𡈼
𡉀
𡉵
𡌥
𡍮
𡏳
𡕒
𡕩
𡕰
𡖅
𡗗
𡗜
𡘆
𡘤
𡧱
𡨄
𡩧
𡬠
𡭽
𡰣
𡰥
𡰪
𡰯
𡰱
𡷈
𡸁
𡿨
𡿩
𡿪
𡿺
𢀖
𢀛
𢀩
𢁙
𢆉
𢆰
𢆶
𢇁
𢇇
𢉖
𢌬
𢌿
𢏚
𢑑
𢑚
𢖻
𢙣
𢛳
𢦏
𢦒
𢧵
𢼄
𢾕
𣁋
𣄼
𣅀
𣅽
𣍘
𣎳
𣎵
𣏋
𣏼
𣗥
𣥂
𣥖
𣦵
𣦼
𣧄
𣪊
𣪠
𣬉
𣳾
𣶒
𤇾
𤊽
𤐫
𤓰
𤔔
𤕨
𤣩
𤰇
𤰔
𤰞
𤴓
𤴔
𤽄
𥁑
𥁕
𥃦
𥃩
𥃭
𥇡
𥑟
𥘅
𥘈
𥝢
𥫗
𥱡
𦈢
𦉪
𦉬
𦉼
𦍌
𦍒
𦎧
𦐇
𦓔
𦔮
𦘒
𦙃
𦚏
𦣝
𦣞
𦣻
𦥑
𦥔
𦥯
𦨉
𦭝
𦰩
𧆞
𧈧
𧘇
𧰨
𧴪
𧴮
𧵩
𧾷
𨸏
𨾴
𩙿
𩠐
𩫏
𩵋
𪉷
𪜀
𪟽
𪠲
𪩲
𫇦
𫔭
𫜸
𫝀
𫠣
𫠩
𫢉
𫥞
𫩏
𫩠
𫪡
𫲽
𫶧
𬀷
𬐘
𬗌
𬙙
𬛸
𬜯
𬟩
𬯁
𬴘
𬺻
𬼉
𬼖
𭀰
𭁈
𭁨
𭅰
𭑈
𭕄
𭗼
𭤨
𭥫
𭻾
𮅕
𮊿
𮍌
𮍏
𮓗
𮥼
𮧮
廾
𰀁
𰀄
𰀈
𰀉
𰀕
𰀠
𰀡
𰀢
𰀪
𰁜
𰃮
𰆊
𰆘
𰋙
𰕎
𰢴
𰧭
𰯲
13--
15--
16--
a--
ab--
ac--
ach--
ad--
ado--
aero--
aff--
afr--
ag--
agro--
ai--
ak--
akad--
akc--
al--
ale--
ali--
am--
ama--
amba--
an--
ani--
anie--
ano--
anta--
anto--
ap--
apart--
apfelzyn--
apo--
ar--
arch--
as--
at--
au--
av--
az--
b--
ba--
bakte--
bal--
ban--
bar--
bazy--
be--
bec--
bel--
ben--
bes--
bez--
bi--
bia--
bibli--
bie--
bio--
bja--
bk--
bla--
bo--
borze--
br--
bre--
briti--
bro--
bru--
bruk--
brza--
brze--
bsa--
bser--
bu--
by--
bł--
bła--
bło--
c--
ca--
came--
cata--
ce--
cel--
cem--
cen--
cera--
ch--
cha--
char--
charz--
chni--
cho--
chr--
chrizo--
chro--
cht--
chto--
chu--
ci--
cico--
cie--
cl--
cm--
cmani--
co--
com--
cont--
cor--
cos--
cro--
cu--
cy--
cywili--
cz--
cza--
czaro--
cze--
czedro--
czer--
czi--
czin--
czo--
czy--
czło--
człu--
d--
da--
dan--
dar--
dbi--
de--
dem--
den--
der--
des--
deut--
di--
diakriti--
dik--
dikta--
diri--
djim--
djimi--
dk--
dla--
dle--
dni--
dno--
do--
dobi--
doda--
dom--
doz--
dr--
dra--
dre--
dro--
drobno--
dru--
drzu--
ds--
du--
dw--
dwa--
dy--
dz--
dza--
dze--
dzeja--
dzi--
dzia--
dzo--
dzy--
e--
ec--
ed--
eduk--
ege--
egi--
egza--
ek--
eko--
el--
elektro--
em--
emeri--
en--
ency--
encyklope--
ep--
er--
es--
est--
et--
etic--
etno--
eu--
ev--
ewa--
ews--
ex--
exam--
ez--
f--
fa--
fac--
far--
fe--
femini--
ferdyn--
fi--
fia--
fil--
fin--
fir--
fla--
fli--
fo--
fr--
fri--
fried--
fry--
fu--
g--
ga--
gali--
galicy--
gau--
ge--
gen--
geo--
gi--
gimna--
gla--
glo--
go--
god--
gott--
gr--
gra--
grau--
gre--
gren--
gro--
grob--
gru--
gry--
gu--
gw--
gy--
h--
ha--
har--
he--
hel--
her--
hia--
hil--
hir--
ho--
honor--
hr--
hu--
i--
ic--
id--
iden--
ik--
im--
in--
indepen--
indi--
inter--
ir--
is--
it--
j--
ja--
jach--
jagi--
jar--
je--
jedno--
jedu--
ji--
jim--
jin--
jindi--
jinfo--
jis--
jiz--
jizy--
jn--
jo--
ju--
k--
ka--
kac--
kali--
kam--
kan--
kanad--
kapi--
kar--
kat--
kate--
kaz--
kazach--
ke--
ki--
kied--
kl--
kla--
klasi--
klasy--
kle--
klo--
klu--
km--
ko--
kocie--
kol--
komb--
komp--
kon--
kos--
kr--
kra--
krati--
kri--
kro--
krze--
ks--
ksy--
ku--
kwa--
kło--
l--
la--
lano--
lar--
las--
lau--
le--
lek--
les--
leszc--
let--
lew--
lez--
li--
lim--
lin--
lingw--
lit--
lite--
lni--
lo--
lsz--
lt--
ltu--
lu--
lub--
lubel--
lud--
luxem--
ly--
lyco--
m--
ma--
mac--
mag--
magi--
maj--
mak--
maksy--
mal--
mala--
malo--
man--
mari--
maszo--
mata--
mazur--
mb--
mdcc--
me--
medi--
melo--
men--
mi--
mia--
mie--
mio--
mis--
mito--
mo--
mp--
mro--
ms--
mu--
my--
mło--
n--
na--
nacze--
nad--
naj--
namie--
nar--
naro--
nazi--
nc--
ncent--
nd--
ne--
neder--
neu--
nfe--
ngo--
ni--
nic--
nie--
niebezpie--
niem--
nk--
nkc--
nkre--
no--
nom--
nomic--
nor--
norod--
nos--
now--
ns--
nt--
ntinent--
nu--
nwen--
ny--
o--
ob--
od--
odp--
offic--
ok--
oko--
olimp--
or--
org--
os--
osta--
ow--
p--
pa--
pac--
papi--
par--
partne--
pas--
pc--
pch--
pe--
pel--
pelargo--
per--
pi--
pia--
pic--
pie--
pielni--
pil--
pio--
piose--
pira--
pis--
pił--
pl--
plas--
plat--
ple--
plebi--
plo--
po--
pod--
pol--
politic--
pomm--
pr--
pra--
praw--
pre--
prezbi--
princ--
priwa--
pro--
produk--
prote--
pry--
prze--
przy--
ps--
pso--
pt--
pu--
py--
pła--
pło--
q--
r--
ra--
ralo--
rao--
rb--
rd--
re--
rea--
reali--
red--
regi--
rein--
rej--
rek--
reli--
religi--
ren--
repu--
requ--
rez--
rg--
rga--
rha--
rhe--
ri--
rich--
rma--
rno--
ro--
rodo--
rolni--
ros--
roz--
roze--
rs--
rt--
rto--
ru--
ruyen--
ry--
rz--
rza--
rze--
rzu--
s--
sa--
sam--
san--
sard--
sate--
sc--
sce--
sch--
scy--
se--
septem--
ser--
sfe--
sho--
si--
sie--
sin--
ska--
skinhe--
sko--
skrziw--
skład--
sla--
sle--
slo--
sma--
smo--
so--
sob--
sobi--
socja--
sound--
sp--
spa--
spe--
spi--
spo--
sprowa--
sro--
st--
sta--
staj--
stano--
staro--
ste--
sti--
sto--
stra--
stro--
struk--
stu--
su--
sub--
sus--
sv--
sw--
swie--
sy--
sybi--
syl--
sylwe--
syn--
sytu--
sz--
sza--
sze--
szi--
szk--
szp--
szti--
sztoka--
sztruk--
szwajca--
szwe--
szy--
sła--
sło--
słu--
t--
ta--
taj--
tak--
tam--
te--
techni--
techno--
tek--
ten--
teo--
ter--
teritoria--
tero--
tho--
ti--
tipic--
tka--
tni--
to--
tom--
tonomi--
topiszc--
tor--
toł--
tr--
tra--
tradicy--
trans--
tre--
tri--
tro--
tru--
tu--
tur--
ty--
tł--
tłu--
u--
uk--
ul--
um--
un--
uniwe--
up--
ur--
uro--
v--
va--
vamp--
ve--
vi--
w--
wa--
wan--
war--
warsza--
warun--
waszing--
wat--
wco--
wcze--
wdzy--
we--
wej--
wen--
wi--
wia--
wice--
wid--
wie--
win--
wio--
wit--
witrz--
wk--
wni--
wo--
woj--
wri--
ws--
wsze--
wszele--
wy--
wła--
wło--
włocła--
x--
y--
ya--
yc--
z--
za--
zac--
zacwie--
zaczi--
zamie--
zaregi--
zasta--
zasto--
zba--
zbeki--
zbio--
zd--
zda--
zdo--
ze--
zgro--
zjawi--
zje--
zjina--
zm--
zmia--
zna--
znaj--
zni--
zo--
zof--
zro--
zu--
zur--
zy--
zyc--
zło--
ł--
ła--
łd--
łe--
łeb--
łga--
łnoc--
ło--
łp--
łu--
μ--
ν--
τ--
б--
к--
н--
ј--
ال--
--0
--1
--19
--2
--3
--4
--5
--6
--7
--8
--9
--a
--ac
--ace
--aceae
--ach
--acja
--acje
--acji
--ad
--ada
--adac
--ady
--adze
--ae
--age
--ah
--ain
--aja
--al
--ald
--ale
--alno
--alu
--ama
--an
--ane
--ar
--aria
--arz
--as
--at
--ata
--ation
--atora
--au
--az
--b
--ba
--be
--bi
--bo
--bu
--burg
--bus
--bło
--c
--ca
--cce
--ce
--ceae
--ch
--chu
--cia
--cie
--cja
--cje
--cji
--cjo
--ck
--cka
--cke
--cki
--co
--cta
--cy
--cz
--cze
--czi
--czne
--d
--da
--dae
--dag
--de
--dem
--di
--dium
--dka
--do
--dowski
--ds
--dt
--du
--dy
--dz
--dze
--dzo
--dło
--e
--ea
--eae
--ed
--ego
--ei
--ej
--ek
--el
--ela
--ella
--els
--em
--en
--enie
--ensis
--entu
--eo
--er
--ern
--ero
--ers
--es
--et
--eta
--eus
--ey
--f
--fa
--fo
--ft
--g
--ga
--ge
--gi
--gie
--giwo
--gne
--go
--gro
--gs
--gu
--h
--ha
--he
--hi
--hm
--ho
--hu
--i
--ia
--iach
--ial
--ian
--iana
--ic
--ica
--ice
--icje
--iczi
--iczna
--iczne
--iczno
--iczny
--ide
--ie
--iec
--iem
--ienne
--ies
--ii
--ija
--iji
--ijo
--ik
--ika
--iku
--illa
--im
--in
--ina
--ing
--inga
--ini
--ino
--ins
--inum
--inus
--io
--ion
--ip
--is
--ische
--ista
--isław
--ity
--itz
--iu
--ium
--ius
--iwo
--iz
--izm
--j
--ja
--je
--ji
--jid
--jk
--jo
--jszy
--ju
--k
--ka
--kce
--ke
--ki
--kich
--kie
--ko
--ks
--ksu
--ku
--l
--la
--ld
--lde
--le
--ler
--lf
--lfa
--li
--lia
--lie
--lii
--lko
--ll
--lla
--lle
--lli
--llus
--lly
--lm
--lne
--lno
--lny
--lo
--log
--logie
--logio
--lon
--lona
--ls
--lu
--luce
--lus
--ly
--m
--ma
--mberg
--me
--men
--mer
--mi
--mic
--mie
--mir
--mo
--mon
--mu
--my
--n
--na
--nal
--nburg
--nce
--ncja
--nd
--ne
--ner
--nes
--ney
--ng
--nge
--ni
--nia
--nic
--nice
--nie
--nik
--nim
--nin
--ning
--nio
--nista
--niu
--nka
--nko
--nku
--nne
--no
--ns
--nski
--nt
--nta
--nto
--nty
--nu
--ny
--nym
--nz
--o
--od
--ok
--on
--one
--ong
--ono
--ony
--or
--orum
--os
--ot
--ote
--ove
--ow
--owa
--owac
--owała
--owe
--owi
--owicz
--owie
--owo
--owsczi
--owska
--owski
--p
--pa
--pe
--phalus
--po
--pu
--pus
--py
--r
--ra
--rad
--ran
--rc
--rd
--rdi
--re
--res
--rg
--ri
--ria
--rii
--rina
--rio
--rit
--rk
--rka
--rko
--rm
--rme
--rn
--rno
--rny
--ro
--rra
--rs
--rski
--rt
--ru
--rwo
--ry
--rz
--rza
--rze
--s
--sa
--sc
--sce
--sch
--sche
--sczi
--se
--sen
--ser
--sh
--si
--sia
--sie
--sien
--sji
--sk
--ska
--ski
--sko
--so
--ss
--st
--ste
--stwo
--su
--sz
--sza
--sze
--szi
--szy
--słi
--sło
--t
--ta
--tat
--te
--th
--ti
--ticzi
--tik
--tika
--tiku
--til
--tion
--tions
--tne
--tny
--to
--tor
--ts
--tu
--tucjo
--tum
--tus
--twa
--two
--ty
--tz
--u
--ud
--um
--urg
--us
--usz
--ut
--v
--va
--ve
--ver
--vi
--vjnskje
--vus
--w
--wa
--wac
--wadz
--wadze
--walde
--we
--wi
--wie
--wim
--wio
--wise
--wiu
--wni
--wo
--wska
--wski
--wskich
--wskiej
--wu
--wy
--x
--y
--ya
--ych
--yer
--yka
--yki
--ym
--yn
--yna
--ys
--ystyka
--yt
--z
--za
--zcza
--zcze
--ze
--zi
--zin
--zja
--zk
--zka
--zko
--zna
--zne
--zno
--zny
--zo
--zono
--zpo
--zy
--zyl
--ß
--ł
--ła
--łe
--łi
--ło
--łu
--ły
--ι
--ς
--а
--да
--н
--та
