!
"
#
##0
##1
##10
##11
##12
##13
##14
##15
##16
##17
##18
##19
##2
##20
##21
##22
##23
##24
##25
##26
##27
##28
##29
##3
##30
##31
##32
##33
##34
##35
##36
##37
##38
##39
##4
##40
##41
##42
##43
##44
##45
##46
##47
##48
##49
##5
##50
##51
##52
##53
##54
##55
##56
##57
##58
##59
##6
##60
##61
##62
##63
##64
##65
##66
##67
##68
##69
##7
##70
##71
##72
##73
##74
##75
##76
##77
##78
##79
##8
##80
##81
##82
##83
##84
##85
##86
##87
##88
##89
##9
##90
##91
##92
##93
##94
##95
##96
##97
##98
##99
%
&
'
(
)
*
+
,
-
.
/
0
000
01
03
06
08
1
10
100
1000
1001
1002
1003
1004
1005
1006
1007
1008
1009
101
1010
1011
1012
1013
1014
1015
1016
1017
1018
1019
102
1020
1021
1022
1023
1024
1025
1026
1027
1028
1029
1030
1031
1032
1033
1034
1035
1036
1037
1038
1039
1040
1041
1042
1043
1044
1045
1046
1047
1048
1049
105
1050
1051
1052
1053
1054
1055
1056
1057
1058
1059
1060
1061
1062
1063
1064
1065
1066
1067
1068
1069
107
1070
1071
1072
1073
1074
1075
1076
1077
1078
1079
1080
1081
1082
1083
1084
1085
1086
1087
1088
1089
109
1090
1091
1092
1093
1094
1095
1096
1097
1098
1099
11
110
1100
1101
1102
1103
1104
1105
1106
1107
1108
1109
1110
1111
1112
1113
1114
1115
1116
1117
1118
1119
1120
1121
1122
1123
1124
1125
1126
1127
1128
1129
1130
1131
1132
1133
1134
1135
1136
1137
1138
1139
114
1140
1141
1142
1143
1144
1145
1146
1147
1148
1149
115
1150
1151
1152
1153
1154
1155
1156
1157
1158
1159
1160
1161
1162
1163
1164
1165
1166
1167
1168
1169
117
1170
1171
1172
1173
1174
1175
1176
1177
1178
1179
1180
1181
1182
1183
1184
1185
1186
1187
1188
1189
1190
1191
1192
1193
1194
1195
1196
1197
1198
1199
12
120
1200
1201
1202
1203
1204
1205
1206
1207
1208
1209
121
1210
1211
1212
1213
1214
1215
1216
1217
1218
1219
1220
1221
1222
1223
1224
1225
1226
1227
1228
1229
1230
1231
1232
1233
1234
1235
1236
1237
1238
1239
1240
1241
1242
1243
1244
1245
1246
1247
1248
1249
1250
1251
1252
1253
1254
1255
1256
1257
1258
1259
1260
1261
1262
1263
1264
1265
1266
1267
1268
1269
1270
1271
1272
1273
1274
1275
1276
1277
1278
1279
1280
1281
1282
1283
1284
1285
1286
1287
1288
1289
1290
1291
1292
1293
1294
1295
1296
1297
1298
1299
13
130
1300
1301
1302
1303
1304
1305
1306
1307
1308
1309
1310
1311
1312
1313
1314
1315
1316
1317
1318
1319
1320
1321
1322
1323
1324
1325
1326
1327
1328
1329
1330
1331
1332
1333
1334
1335
1336
1337
1338
1339
134
1340
1341
1342
1343
1344
1345
1346
1347
1348
1349
1350
1351
1352
1353
1354
1355
1356
1357
1358
1359
136
1360
1361
1362
1363
1364
1365
1366
1367
1368
1369
1370
1371
1372
1373
1374
1375
1376
1377
1378
1379
1380
1381
1382
1383
1384
1385
1386
1387
1388
1389
1390
1391
1392
1393
1394
1395
1396
1397
1398
1399
14
140
1400
1401
1402
1403
1404
1405
1406
1407
1408
1409
1410
1411
1412
1413
1414
1415
1416
1417
1418
1419
1420
1421
1422
1423
1424
1425
1426
1427
1428
1429
1430
1431
1432
1433
1434
1435
1436
1437
1438
1439
1440
1441
1442
1443
1444
1445
1446
1447
1448
1449
1450
1451
1452
1453
1454
1455
1456
1457
1458
1459
146
1460
1461
1462
1463
1464
1465
1466
1467
1468
1469
1470
1471
1472
1473
1474
1475
1476
1477
1478
1479
1480
1481
1482
1483
1484
1485
1486
1487
1488
1489
1490
1491
1492
1493
1494
1495
1496
1497
1498
1499
15
150
1500
1501
1502
1503
1504
1505
1506
1507
1508
1509
151
1510
1511
1512
1513
1514
1515
1516
1517
1518
1519
1520
1521
1522
1523
1524
1525
1526
1527
1528
1529
1530
1531
1532
1533
1534
1535
1536
1537
1538
1539
1540
1541
1542
1543
1544
1545
1546
1547
1548
1549
1550
1551
1552
1553
1554
1555
1556
1557
1558
1559
1560
1561
1562
1563
1564
1565
1566
1567
1568
1569
1570
1571
1572
1573
1574
1575
1576
1577
1578
1579
1580
1581
1582
1583
1584
1585
1586
1587
1588
1589
1590
1591
1592
1593
1594
1595
1596
1597
1598
1599
16
160
1600
1601
1602
1603
1604
1605
1606
1607
1608
1609
161
1610
1611
1612
1613
1614
1615
1616
1617
1618
1619
1620
1621
1622
1623
1624
1625
1626
1627
1628
1629
1630
1631
1632
1633
1634
1635
1636
1637
1638
1639
1640
1641
1642
1643
1644
1645
1646
1647
1648
1649
1650
1651
1652
1653
1654
1655
1656
1657
1658
1659
1660
1661
1662
1663
1664
1665
1666
1667
1668
1669
1670
1671
1672
1673
1674
1675
1676
1677
1678
1679
1680
1681
1682
1683
1684
1685
1686
1687
1688
1689
1690
1691
1692
1693
1694
1695
1696
1697
1698
1699
17
170
1700
1701
1702
1703
1704
1705
1706
1707
1708
1709
1710
1711
1712
1713
1714
1715
1716
1717
1718
1719
1720
1721
1722
1723
1724
1725
1726
1727
1728
1729
1730
1731
1732
1733
1734
1735
1736
1737
1738
1739
1740
1741
1742
1743
1744
1745
1746
1747
1748
1749
1750
1751
1752
1753
1754
1755
1756
1757
1758
1759
176
1760
1761
1762
1763
1764
1765
1766
1767
1768
1769
1770
1771
1772
1773
1774
1775
1776
1777
1778
1779
1780
1781
1782
1783
1784
1785
1786
1787
1788
1789
1790
1791
1792
1793
1794
1795
1796
1797
1798
1799
18
180
1800
1801
1802
1803
1804
1805
1806
1807
1808
1809
1810
1811
1812
1813
1814
1815
1816
1817
1818
1819
1820
1821
1822
1823
1824
1825
1826
1827
1828
1829
1830
1831
1832
1833
1834
1835
1836
1837
1838
1839
1840
1841
1842
1843
1844
1845
1846
1847
1848
1849
1850
1851
1852
1853
1854
1855
1856
1857
1858
1859
1860
1861
1862
1863
1864
1865
1866
1867
1868
1869
1870
1871
1872
1873
1874
1875
1876
1877
1878
1879
1880
1881
1882
1883
1884
1885
1886
1887
1888
1889
1890
1891
1892
1893
1894
1895
1896
1897
1898
1899
19
1900
1901
1902
1903
1904
1905
1906
1907
1908
1909
1910
1911
1912
1913
1914
1915
1916
1917
1918
1919
1920
1921
1922
1923
1924
1925
1926
1927
1928
1929
193
1930
1931
1932
1933
1934
1935
1936
1937
1938
1939
1940
1941
1942
1943
1944
1945
1946
1947
1948
1949
1950
1951
1952
1953
1954
1955
1956
1957
1958
1959
196
1960
1961
1962
1963
1964
1965
1966
1967
1968
1969
1970
1971
1972
1973
1974
1975
1976
1977
1978
1979
1980
1981
1982
1983
1984
1985
1986
1987
1988
1989
199
1990
1991
1992
1993
1994
1995
1996
1997
1998
1999
2
20
200
2000
2001
2002
2003
2004
2005
2006
2007
2008
2009
201
2010
2011
2012
2013
2014
2015
2016
2017
2018
2019
2020
2021
2022
203
2030
204
206
21
210
211
216
217
218
219
22
222
23
230
235
238
24
240
244
247
249
25
250
251
253
254
256
258
26
260
268
269
27
270
274
275
276
28
280
283
284
29
296
3
30
300
302
305
306
308
309
31
310
313
314
317
32
321
322
33
335
337
345
35
350
352
36
360
361
363
364
365
366
37
38
39
395
4
40
400
41
413
422
43
44
45
451
457
461
474
476
48
49
496
499
5
50
500
51
52
54
55
550
56
57
58
590
6
60
600
61
62
620
628
63
630
64
640
642
645
646
647
648
649
65
650
651
652
653
654
655
656
657
658
659
660
661
662
663
664
665
666
667
668
669
67
670
671
672
673
674
675
676
677
678
679
68
680
681
682
683
684
685
686
687
688
689
69
690
691
692
693
694
695
696
697
698
699
7
70
700
701
702
703
704
705
706
707
708
709
710
711
712
713
714
715
716
717
718
719
72
720
721
722
723
724
725
726
727
728
729
73
730
731
732
733
734
735
736
737
738
739
740
741
742
743
744
745
746
747
748
749
75
750
751
752
753
754
755
756
757
758
759
760
761
762
763
764
765
766
767
768
769
77
770
771
772
773
774
775
776
777
778
779
78
780
781
782
783
784
785
786
787
788
789
79
790
791
792
793
794
795
796
797
798
799
8
80
800
801
802
803
804
805
806
807
808
809
810
811
812
813
814
815
816
817
818
819
820
821
822
823
824
825
826
827
828
829
830
831
832
833
834
835
836
837
838
839
84
840
841
842
843
844
845
846
847
848
849
85
850
851
852
853
854
855
856
857
858
859
86
860
861
862
863
864
865
866
867
868
869
870
871
872
873
874
875
876
877
878
879
88
880
881
882
883
884
885
886
887
888
889
89
890
891
892
893
894
895
896
897
898
899
9
90
900
901
902
903
904
905
906
907
908
909
910
911
912
913
914
915
916
917
918
919
920
921
922
923
924
925
926
927
928
929
93
930
931
932
933
934
935
936
937
938
939
940
941
942
943
944
945
946
947
948
949
95
950
951
952
953
954
955
956
957
958
959
96
960
961
962
963
964
965
966
967
968
969
97
970
971
972
973
974
975
976
977
978
979
98
980
981
982
983
984
985
986
987
988
989
99
990
991
992
993
994
995
996
997
998
999
:
;
<
=
>
?
[
\
]
^
_
a
abba
abbaie
abbaies
abbatiale
abbaye
abbe
aboli
abolis
abolition
abord
abraham
abre
abrie
abrier
abyinaer
ac
acade
acadie
acante
acat
acataer
acate
acater
acatit
acaunt
accepter
acchent
acchents
accord
accorde
accorder
accordit
accou
ach
achille
achteu
achteur
achteure
aco
acouo
acte
actes
acteurs
action
actions
actioun
activite
actor
actriche
actue
actuelle
acyi
ad
ade
adelin
admeurit
administratioun
adminnistra
adolphe
adon
adonc
adonnit
adoun
adounc
adre
ae
aen
aer
affaire
affaires
affaithe
affaithes
affe
affondrit
afin
afrikaans
afrique
afritchain
afritchains
ag
agne
agnel
agritchultuthe
ague
ah
ai
aie
aient
aigle
aigu
ailes
ailleurs
aimait
aime
aiment
ain
ainchi
ainchin
aindyi
aingu
aingue
ainnae
ainsi
ainsin
air
aira
airait
aire
aireit
airlines
ais
aise
aises
aisi
ait
aithe
aiu
aix
ajouo
al
alae
alaer
albannie
albe
albert
album
alco
alcool
aldealpozo
ale
alenc
alentou
alentours
alexander
alexandre
alexandri
alexandrie
alfred
alge
ali
alisme
alit
allaer
allaient
allain
allait
alle
alleient
alleit
allemagne
allemand
allemande
allemands
allemangne
allemaund
aller
alles
allie
allit
almaza
almene
almonnas
alors
alouai
alpes
alphabet
alphonse
alsache
am
amant
amants
amas
ame
amen
amendaer
amende
amender
amendez
ami
amin
amins
amis
amme
amont
amount
amounte
amour
amprae
ampre
amsberg
an
anatonmie
anche
anchien
anchienne
ancienne
anciens
and
andgulle
andorre
andre
ange
anges
angl
anglais
angle
angleis
angleise
angleises
angleterre
angliai
angliais
anglie
anglio
anglo
anglyicanne
anglyicans
angne
anguelterre
anguilla
anhyi
anhyit
aniet
anima
anjou
anmi
anna
annae
annales
anne
annie
annima
annimaux
annive
annonche
annonchi
annonchie
announce
annyi
ans
antarctique
anthropologie
antienne
antique
antoine
antoni
antoninus
anve
ao
aoeur
aou
apo
apocalypse
apollon
apostolique
app
appaer
apparitiouns
apparte
appathai
appathu
appathut
appe
appel
appelae
appele
appeleit
appeler
appelit
appellation
appelle
appellent
apple
appointe
apporte
apporti
apportit
appouainte
appre
appri
apprivouai
approuve
apre
aqu
aquitaine
ar
arabe
arabes
arabie
aras
arbale
arbre
arbres
arc
arche
arches
archeu
archeve
archevei
archipel
architecte
architectes
architecteure
architectuthe
archive
archives
arcounai
arde
ardes
are
argent
argentan
argentinne
ari
aristote
arlette
arlevae
arligieux
arligioun
armae
armand
arme
armes
arpitan
arqu
arre
arrivae
arrive
arriver
arrivi
arrivit
arroundissement
arrouo
arryire
art
arte
arthur
articl
article
articles
articlle
articlles
artifice
artike
artiste
artistes
artistique
artistiques
arts
as
asie
asplet
ass
assa
assaez
assauts
asse
assemblie
assembllae
asseu
assez
assie
assis
assise
associa
associatiouns
assyigement
aste
astinenche
astrologie
astrononmie
astrononmiques
atandis
atche
atchilyi
atchilyit
athe
atioun
atlantique
atlas
atlauntique
atmosphe
ato
atonmique
atout
attaqu
attaque
attaques
attatchi
attatchit
atteint
attelae
attribue
attriotchi
attriotchit
au
aube
aubi
auge
augu
auguste
augustus
aumpre
aun
aunchien
aundelle
aundre
aunge
aungle
aungleis
aungleterre
aunglle
aunglleis
aungllo
aunnae
aunou
auns
auntiqu
aupre
aur
aurelius
aussi
australie
aut
autcheune
autchun
aute
autes
auteu
auteurs
autonome
autorite
autre
autres
autriche
autun
auve
auvec
auverne
aux
av
ava
avaer
avaez
avaient
avait
avant
avaro
avau
avaunchi
avaunt
ave
avec
avei
aveient
aveindre
aveine
aveinne
aveir
aveis
aveit
aver
aveu
aveuc
avez
avi
avint
avioun
avis
avocat
avocats
avoms
avons
avou
avoums
avout
avranches
avraunches
avri
avril
ayant
ayde
b
ba
babel
babylonne
bac
bachi
bachin
bacte
bae
bahia
bai
baie
baille
bailli
bailliage
bailliages
baillie
baillit
bain
bait
baithe
bal
baleine
baleines
balkans
balle
balleine
balles
ballon
baltique
ban
banane
banc
bancs
bande
bang
bangladesh
bangne
banque
banques
bapte
baptiste
bar
barack
barbares
barbe
barce
barcelona
barflleu
baron
baroque
barouns
barre
barryire
bartolo
bartolomeo
bas
base
basilique
basouque
basouques
basse
basselin
bastchien
basti
bastien
bat
bata
bataille
batchieaux
bate
batel
batia
batiaux
batisse
bats
battant
batte
battre
battu
bau
baudains
bayeux
bbc
be
beaumont
bec
bedane
beichon
bein
beire
bel
belfast
belfonds
belgique
belle
bellement
belles
bellie
ben
benedictus
benei
berbis
berlin
bernard
bes
besaunc
besein
best
betchet
beu
beurre
beusses
beuve
bey
bi
bia
biau
biaufaire
biaux
bibl
bible
biblle
bibllicque
biche
bie
bieau
bieaux
bien
bieu
big
bike
bikes
bille
billes
billions
binnet
biobi
biographie
biologie
bis
bissextiles
bl
blaise
blanc
blanche
blaunche
blia
blianc
blianche
bliancs
blie
blio
blios
bliu
blla
bllaunc
bllaunche
blle
bllos
bo
bocage
boe
boeu
boeux
bois
boischampre
bolche
bolle
bombarde
bombe
bon
bonaparte
bonifacius
bonne
bonnet
book
bord
bordant
borde
bords
bosnia
bosnie
botannie
bouai
bouais
bouaisson
bouan
bouce
boudin
boue
bouenne
bouesse
boulandgi
boulangu
boulant
boulants
boulets
boumbardae
boun
boune
bouo
bouoch
bouoche
bouochel
bouochi
bouogi
bouoillon
bouon
bouone
bouonhoume
bouonhoumme
bouonne
bouonnefemme
bouonnes
bouons
bouor
bouorgongne
bouorgs
bouorgu
bouort
bouot
bouotique
bouots
bourde
bourg
bourgaille
bourgo
bourgogne
bourgou
bourguignon
bourguignons
bout
boute
boutique
boutiques
boutons
br
bra
bracherie
brai
braies
braithe
brancage
brandenbourg
branque
branques
bras
braunque
braunques
bray
brayon
bre
brecque
bren
brer
bres
bretagne
bretangne
breton
bretons
breu
breune
breunes
breus
breux
bri
brie
brighton
brin
bristo
brit
britannique
britanniques
british
bro
broi
bronze
brou
brounze
bru
brun
brusselle
brut
bu
bulgarie
buoninsegna
burns
bush
but
bute
buts
buure
by
byi
byin
byinto
byzante
bœu
bœus
c
ca
caboche
cabot
cabote
cabots
cache
cachi
cadien
cadiens
cae
caeir
caelestinus
caen
caernarfon
caesar
cafe
caint
caire
caius
calais
cale
calendri
calendrier
calendris
calendriyi
caltchul
caltchuler
calvados
cambridge
camembert
camp
campangne
camps
canada
canchon
candelles
canele
cannada
canne
cannelle
cannes
cannieaux
cannique
canons
canteresse
cantique
cantorbe
cap
capabl
cape
capel
capelain
capelle
capelles
capet
capia
capitaine
capitale
capitales
capite
caplyi
capper
capsicum
car
caracte
cardina
care
cariole
carl
carles
carnava
carnivora
carpe
carrae
carre
carrefour
carres
carrie
carrouges
cart
cartchai
carte
carteret
cartes
cartier
cas
castel
castil
cat
catalan
catalana
catalanne
catalans
catalauniques
catalongne
cate
category
cathare
cathe
cathere
catholicisme
catholique
catholiques
cats
cau
cauchie
caud
caude
caumine
caump
caumps
caunchoun
caunchouns
cauntons
cauntoun
caupage
cause
caux
cave
caves
cd
ce
cefet
celle
celtique
cembe
cembre
censement
cent
center
centrale
centre
centro
cercueil
cerisy
ces
cessaithe
cessit
cette
ceus
ceutie
ceux
ch
cha
chabot
chabots
chae
chai
chambre
chambres
champagne
champi
champlain
champleure
champs
chance
change
changement
changements
changi
changie
changit
channel
chanson
chansons
chant
chante
chants
chape
chapelle
chapelles
chaqu
chaque
chard
charente
charle
charlemangne
charles
charte
chartes
chasse
chasseurs
chau
chaumbe
chaungi
chaunt
chauntae
chavette
chavettes
che
chef
chefs
chein
cheinne
cheinnes
cheins
cheintuthe
chelle
cheltique
chemb
chement
chen
chenna
chennechi
chent
chente
chents
cherc
cherge
cherges
chergi
cherie
ches
chet
cheti
chette
cheu
cheunm
cheurque
cheurques
cheus
cheux
chi
chie
chier
chies
chiffes
chifournie
chikier
childe
chile
chili
chilla
chimenae
chimetyire
chimie
chimique
chin
chinne
chinnes
chinnouais
chinoue
chinq
chirac
chis
chit
chite
chivile
cho
chocolat
chon
chorchi
chorchie
chose
choses
chou
chouai
chouailes
choue
choule
choun
chounae
chounaer
choune
chouner
chounit
chouns
chouqu
chouque
chour
chours
choutchette
chre
chri
christ
christian
christiane
christophe
chronique
chroniques
chte
chu
chucre
chucri
chue
chus
chut
chute
chutes
chutte
chyi
chypre
ci
cia
cial
cialement
ciales
cialistes
cialite
ciches
cide
cidi
cidit
cidre
cie
ciel
cieux
cinne
cirtchule
cision
cite
citrus
city
civile
civilisa
cl
cla
clair
clameur
classe
classique
claude
claudius
cle
clemens
cles
clia
cliaithe
cliassique
cliatha
cliathe
cliathi
cliathit
clie
clio
clioche
clioches
cliochi
cliochie
clios
cliou
cliouque
cllai
cllameu
clle
cllochi
clloque
clloques
cllos
cllovis
clobes
clon
clotilde
cloud
clovis
cluj
clyi
clyipse
cm
cmenche
cmenchement
cment
co
cocangne
coco
code
cohue
coimperator
coin
coing
cole
coles
coli
colle
collection
collectivitae
colombage
colombes
colombie
colonie
colonne
colonnes
colonni
colonnie
colonnies
colonnistes
colons
coloumbie
colouns
com
comme
comment
commeunaute
commeune
commeunica
commeunisme
commeuniste
commeunistes
commonwealth
commune
compangnie
compe
compiuteu
compiuteurs
completes
complie
compose
composit
comprend
compte
comptes
comte
con
concepcioun
concheption
conches
concours
condition
condu
confe
confre
conger
congre
conjugaison
conme
conmite
connai
conne
connu
connue
connues
connus
connute
conomie
conomique
cononmie
cononmique
conque
conse
conseil
conserve
conside
constant
constanti
constantinopl
constantinus
constantius
constella
constitution
constitutions
construction
construite
cont
contche
contcheint
conte
contes
continentale
continnent
continnents
continnuait
continnue
continnuit
contraception
contre
contro
conv
conve
cop
copae
copaer
cope
coper
copie
copier
cops
coque
cor
cora
corbet
corbie
corde
cordes
cords
core
coreenne
cori
corneille
cornique
cornouaillais
cornouailles
corps
corse
corset
cos
cose
coses
coslovaquie
cossais
cosse
costeunmes
costruit
cotenti
cotentin
cotentinais
cotha
coton
cou
couchy
coue
couen
coues
coule
couleu
couleurs
coum
coume
coumenche
coumenchement
coumenchent
coumenchi
coumenchier
coumenchit
coument
coumerche
coumeune
coumeunes
coumme
coumprenre
coumprins
coumptae
coumptaer
coumpte
coumtae
coumte
coumuns
counachie
counai
counchile
couneu
couneue
couneues
couneus
couneut
counjugaisoun
counjugue
counqu
counque
counse
counside
counsounes
counstauntinoplle
counte
countes
countre
couo
couochant
couoche
couoches
couochon
couochons
couole
couoleu
couoleurs
couop
couops
couor
couoraunt
couoro
couoronne
couors
couort
couorte
couos
couosin
couotaunches
couote
coup
coupassous
coupe
coupl
coups
cour
couronna
couronne
couronnes
couroune
cours
course
court
courte
courtil
coutanche
coutanches
couteu
couve
couverte
couves
couvre
couvri
couvrit
cque
cques
crabi
cracau
crai
craient
crait
craithe
crane
cranne
crapauds
crate
cravate
cre
credo
crei
creient
creire
creis
creit
creu
creux
cri
cria
crianche
crianches
criateure
criatuthe
criatuthes
criaunt
criaunte
criaunts
cricket
crire
crise
crisit
crista
crit
crite
crites
criteure
crithe
crithie
critique
crits
criture
crituthe
crituthes
crivain
crivains
crivait
criveux
crivi
crivit
crivo
criyaient
criyait
croate
croates
croatie
crou
crouai
crouaix
croue
cru
cryiae
cryiatioun
cs
cu
culte
culture
culturel
culturelle
cum
cy
cyil
cyrillique
cœu
cœur
d
da
dacteu
dae
daeux
dain
daine
dairie
dait
daivent
dalarun
dame
dames
daneis
danes
dange
dangi
daniel
danme
danmes
dannemar
dans
danse
dante
danube
darc
dare
date
dates
daule
daunche
dauns
dauphin
dauphine
david
davy
de
decembe
decidae
decidit
dedauns
defeunt
defeunts
deh
dehors
dei
deit
deivent
deja
del
della
demaine
demaines
demande
demaunde
demaundit
demeurait
demeure
demeurent
demeuri
demeurit
den
denis
densite
dent
dents
denys
deo
depis
depuis
der
derne
derrain
derryire
des
descartes
description
deserts
design
dessinn
dessouos
dessus
desus
deu
deum
deus
deut
deux
deuxie
devait
devant
devaunt
deveit
devenin
devenu
devenue
devenun
devers
devi
devient
devint
devintent
devyint
dg
dgai
dge
dgeunme
dgeunmes
dgi
dgia
dgialecte
dgie
dgieppe
dgieu
dgieux
dgillaume
dginne
dgitare
dgium
dgulie
dgulyi
dguste
di
dia
diable
dialecte
diche
dictatuthe
dictionnaire
dictionnaithe
dictionnaithes
die
dieppe
dieu
diev
dife
diffe
digu
dijon
dinmaunche
dioce
dioche
dire
directement
directeu
direction
dirie
diries
dis
disait
disant
disciplles
discours
dise
diseient
diseit
disent
disit
disoms
dispathu
disti
dit
dite
dites
dithait
dithe
dithent
diton
dits
dive
diverses
divi
divin
divise
dix
djablle
dje
dmande
dmeure
do
docteu
docteux
doctre
dogme
domenico
domre
don
donc
dong
donnait
donne
donnent
donner
donnit
dont
doque
dorey
dort
dos
dotchument
dotchuments
dou
douais
douard
doubl
doumaine
doumanne
doumfrount
doun
dounae
dounaer
dounc
doune
douner
dounit
dount
douoche
douochement
douoches
douos
douoyen
douoze
doute
douvres
doux
douze
dra
dragon
drai
drale
drales
drannet
drap
draps
dre
drein
dreine
dreines
dreit
dreite
dreiteure
dreits
drent
drie
dro
drouait
drouaite
drouaits
ds
dsous
du
duale
dubli
duc
duca
duccio
duche
duchesse
duchie
duchies
ducs
dun
dunstan
durae
durant
duraunt
dure
durham
durit
dus
dutchi
duthant
duthe
duu
dvant
dvers
dvint
dy
dyire
dyis
dz
e
ebbe
eccle
ecclesiastica
ed
edgar
edicions
edirne
edmond
edmund
edouard
edpis
educac
edward
edwin
effet
egllise
ei
ein
eis
eisteddfod
ej
el
elie
elizabeth
elle
els
em
embastilli
embelli
emmanuel
emmi
empe
emperesse
empereu
empereus
empereux
empire
empithe
empithes
emple
empliaichement
empouai
empre
emprunte
en
enco
encor
encouothagi
ende
endite
endrait
endreit
enfe
enfike
enfin
enfoui
enge
england
engleis
engoule
enhi
enjeu
enn
enne
ennes
enr
enreit
enri
ens
ensemb
ensembl
ensemble
ensemblle
ensi
ensieute
ensuute
ent
entche
entchie
ente
enteind
entend
entenre
enter
enternette
entier
entite
entou
entouo
entouor
entouothe
entour
entr
entrae
entrai
entre
entrer
entrit
entyi
env
envie
envithonnement
envyiae
envyie
envyit
epte
eq
er
erat
erdre
ergent
ermite
erne
ernesey
ernest
erpente
erre
erres
es
escaundinaves
escaundinavie
escliavage
escola
eslon
espace
espangne
espangno
espangnole
espe
esplliqu
esprit
esprits
essourd
est
estateue
estateues
estatue
estembre
esther
estonma
estonnie
estre
estrophes
estyle
et
etc
ete
ets
ette
ettyi
eu
eud
euge
eul
eun
eune
eunes
eunifie
eunique
eunis
eunitae
eunivers
euniverselle
euniversite
euns
eure
europe
eus
eussent
eut
eux
euzyime
evening
everett
ex
exce
excepte
exe
exempe
exempl
exemple
exemplle
exemplles
exhibe
exhibition
existait
existe
existent
expe
explio
explyique
explyitchi
exposition
expression
expri
eyou
eyt
f
fa
fabl
fabrique
fac
facebook
fache
faches
fae
fai
faichon
failli
fainiants
faire
fais
faisaient
faisant
faisaunche
faiseit
fait
faite
faites
faithe
faithes
faits
falaise
falaises
falait
faldou
falkland
fallait
falle
fallue
fame
fames
fami
famile
familes
famille
fanmeurs
fanmeus
fanmeuse
fanmeuses
fanmeux
fanmil
fanminne
fanne
fant
fants
fatchultae
faucon
faunt
faunts
fausse
faut
faveu
fawkes
fayte
fe
federal
fei
fein
feire
feis
felis
femme
femmes
fendre
fenin
fenme
fenmes
fense
fenses
fer
ferme
fermes
ferte
fesait
feu
feurs
feusse
feut
feutent
feuvre
ffer
ffet
ffets
fflier
fi
fiablle
fichier
fide
fidgi
fie
fieillet
fieillu
fielle
fielles
fier
fierte
fiesse
fieu
fieuf
fieus
fieux
figu
fike
fil
file
files
filles
film
films
fils
fin
finalement
fini
finin
finit
finitioun
finni
finnit
fiqu
fiquie
fir
firmament
fis
fisset
fit
fitent
fitz
fixe
flandre
flaubert
flavius
fle
flers
fleurenche
fliantchi
flieu
flieurs
flleumaunville
flleur
flleuries
flleurs
flleuve
fllot
flotte
fo
fond
fonda
fonde
fonder
fondi
fondit
font
fontaine
fontaines
football
for
forche
forches
forchi
fore
forge
forges
forgeux
forma
formage
formation
forme
formellement
formes
formigny
fort
forte
forteune
fortifica
fortifie
forts
fou
foua
fouai
fouare
foue
foui
found
foundae
founde
fount
fouo
fourme
fourmes
fox
fr
fra
frai
fraid
fraide
frais
franc
france
franceis
franceise
francesco
franceyse
francfort
francheville
franchie
francis
franco
francon
francorum
francs
frank
fraternitae
fraunc
fraunce
fraunceis
fraunceise
fraunche
frauncs
frauns
fre
frederick
frei
freid
freide
freunme
freunmer
fri
fricot
frit
frits
from
fronmage
front
frontchie
frontie
froumae
froumage
frouque
froutchi
fu
fui
furent
fusion
fusse
fut
futent
futur
fuuillu
fuules
g
ga
gabrie
gace
gae
gaffe
gaffer
gaillard
gaius
gal
galaxie
galement
galleis
gallery
galles
gallo
gallouais
gambes
gamme
gammes
gangne
gangnit
garc
gardae
gardaer
gardaient
gardait
gardant
garde
gardent
garder
gardi
gardin
gardit
gargou
gars
gaston
gatteville
gauche
gaulais
gaule
gauleis
gaules
gaulle
gaz
ge
geais
geaise
geins
geis
genci
gencie
gendaire
gende
gene
gengivre
genre
genres
gens
gent
genty
geon
george
georges
ger
gerais
geranium
germain
germanique
germaniques
ges
geste
gi
giant
giants
gica
gie
gien
gier
gilles
gime
gion
gionale
gions
gioun
giounales
giouns
giovanni
girard
giroufl
gisacum
gistre
gl
gle
gles
gliaiche
gliaichon
glise
glises
glla
gllache
gllao
glle
gllise
gllises
gllu
globale
gloue
glyise
glyises
gne
gno
gny
go
godal
godefrei
godisson
goia
gon
gonde
gorge
gorian
gorien
gothique
gou
gouffern
goule
gouo
gouole
gouotte
gouovernement
gournay
gouts
gouve
gouverne
gov
gra
gradile
graffiti
grai
graie
graiethie
grain
graine
graines
grais
graisse
grammaire
gramment
gran
grand
grande
grandes
grandeu
grands
grani
granme
granmes
grans
granville
graos
gras
grasse
graumment
graund
graunde
graundes
graundeu
graunds
graunment
graunville
gre
grec
grecque
greenwich
greffage
gregorius
greis
greune
gri
grieu
grimache
gris
grise
griyit
gro
gros
grosnez
grosse
grosses
groupe
grouville
grugeurs
gu
guangxi
gue
guerne
guernesey
guernesiaises
guernsey
guerre
guide
guillaume
gustave
guy
guyenne
gypte
h
ha
habit
habitants
habitaunts
habits
habytants
habytaunts
hadrianus
hague
hai
hait
hale
haler
halle
halley
halloween
hammel
han
hannovre
hanoi
hante
hantonne
happe
harcourt
hardi
hardy
harelle
haro
hastings
hau
haut
haute
hautes
hauts
havre
haye
haß
he
hector
heir
henri
henry
herbe
herbes
herzegovina
hesse
heu
heumaine
heure
heures
heurte
heuthe
heuthes
hi
hie
hilaire
histo
histoe
histoire
historia
historien
historiens
historique
historiques
histouaithe
histouaithes
histoue
hivaer
hive
ho
hoc
hoi
hollandais
home
homme
hommes
hongrie
hongrien
hongriens
honneu
honorifique
honorius
hors
horte
hortes
hos
hougue
houmage
houme
houmes
houmme
hoummes
houneu
houneur
hounsfield
houors
house
housse
html
http
https
hu
hugh
hugo
hugues
hui
huiptante
huit
huitchie
humain
humaine
huns
hus
hydroge
hydrologie
hymne
i
ia
iage
iau
iaux
ibe
ichi
ichin
icounographie
idae
ide
identite
ie
ieau
ieaux
ielle
ier
ies
ieu
ieun
ieune
ieus
ieux
if
ii
iie
iii
iiie
il
ila
ile
iles
ilex
iliade
ille
illeu
ilo
iloc
im
image
images
imaginatoue
immacule
imparfait
impe
impo
in
inde
indicatif
indone
industrie
ine
infinitif
influence
influenche
ingnoun
innocentius
ins
insee
inspire
int
inte
intendaunt
international
inventae
ioannes
iou
ioun
ipe
iqu
ique
iquefeis
iques
iran
ire
irlandais
irlandaise
irlande
irlaunde
is
isabelle
isbn
islam
islande
islands
islet
israe
isse
istique
it
itae
italie
italien
italienne
italiens
italo
ite
ithangnie
itou
itout
iu
iulius
iun
iuns
iv
ive
ivie
ix
ixe
iyi
iyou
j
ja
jackson
jacot
jacquerie
jacques
jadis
jamais
james
jammais
jan
janmais
janne
jannes
janvier
janvri
janvyi
japon
japonnais
japoun
jaque
jarl
jaune
jaunes
jaunvyi
je
jean
jeanne
jeaun
jeddah
jehan
jehanne
jerri
jerriais
jerrieis
jerry
jersey
jersiais
jersiaise
jeu
jeudi
jeumyiges
jeune
jeunes
jeunm
jeur
ji
jo
joan
jobouo
joe
john
joinville
joliment
jor
jore
jores
jorite
jose
joseph
josue
jou
jouaingnant
jouait
joue
jouer
joueurs
joueux
jouo
jouorna
jouornae
jouors
jouos
jour
journae
journaliste
journe
jours
jous
jpg
ju
jubile
juda
judae
judai
judas
jude
judet
juge
jugement
juges
jugi
jui
juifs
juilet
juillet
juin
juis
jules
julian
julien
juliobona
julius
jumie
jupite
juqu
juqui
jus
jusqu
juste
justice
k
kaamelott
katowice
ke
kennedy
kent
kes
kg
kie
kilome
kim
king
kir
km
ko
kosovo
krafft
l
la
laburnum
lade
lady
lae
laelius
laer
lage
lagon
lague
lai
laid
laient
laine
laios
laird
laisse
laissi
lait
lanch
lanchi
lanchie
lanchit
lande
landes
landry
langage
lange
langtry
language
langue
langues
lao
laquielle
lard
larus
las
lat
late
lati
latin
laumpes
launde
laungage
laungue
laungues
laus
lav
lave
laver
lavous
lay
le
lecteurs
lection
lections
lectioun
lectiouns
lectricite
lei
leire
leisi
lemai
lement
lengi
lent
leo
lepelley
ler
lerie
lerinage
lerinnage
lerinnages
les
lesse
lets
lette
lettes
lettonnie
lettre
lettres
leu
leumie
leunaire
leunaithe
leune
leunes
leunette
leunettes
leunmie
leur
leurs
leus
leuse
leuses
leux
lez
li
liain
lians
libe
libre
lie
liement
lien
lier
lies
liet
lieu
lieure
lieut
lieux
ligieuse
ligieux
ligion
ligions
lignie
ligue
lilleboune
lillie
limerick
limon
lin
lincheu
lincoln
linne
lion
lions
lippe
liqu
lique
liques
lire
lis
lisieux
lisques
liste
listes
lit
litchide
lite
lithuanie
litourgie
litre
litt
litte
liublianne
liv
livarot
live
liverpool
lives
livrande
livre
livrer
livres
ll
lle
lli
lo
locale
locaux
loceis
loge
logis
loin
loire
lon
london
londres
long
longis
longs
longtemps
longue
longues
lonne
loppe
loppement
loppi
loppit
lord
lorenzetti
lorraine
lors
los
lot
lotagi
lotagie
lots
louai
louais
loue
louen
louis
louisiane
louisianne
loun
loung
loungs
loungtemps
loungu
loungue
louoge
louongue
louori
louothains
louothi
loup
loups
lourdes
louviers
love
lu
luc
luce
lucien
lucius
lue
lueu
lui
luire
lumyire
lundi
luqu
lus
lute
luthe
luther
luu
luure
luus
luxembourg
ly
lyi
lyit
lyits
lyon
lz
m
ma
mac
mace
machacre
mache
machinne
machinnes
mae
maesta
maga
mage
magie
magnifique
mah
mahoume
mahy
mai
main
maine
mains
maire
mairie
mais
maishi
maison
maisons
maisoun
maisouns
maistre
maitre
majeste
majeu
major
majourien
mal
malade
malades
maladie
male
malherbe
malheu
mali
mallorca
maltais
malte
malus
mammife
man
manants
manche
manchester
mande
mander
mandes
mandit
mands
manei
maneir
mange
mangent
mangeu
mangeurs
mangeux
mangi
mangier
mangne
mangni
mangnifique
manie
manne
mannie
mannifactuthe
mannifactuthes
mannyire
mannyirement
mannyires
mans
mant
manuel
manx
manyire
mao
maqu
mar
marae
marais
marc
marcel
marchae
marchands
marche
marchi
marchie
marcou
marcus
mardi
mare
mares
marett
margaret
margu
marguerite
mari
maria
mariage
marie
marigny
marin
maringouin
marins
marite
maritime
maritimes
marmou
marne
maroc
mars
marse
marte
marti
martin
martini
martyr
martythe
mary
mat
matchi
matchie
mate
mathais
mathe
mathes
mathet
mathi
mathiage
mathie
mathilde
mathinne
mathiti
mathyit
mati
matie
matin
matique
matthew
matthieu
matthuu
matyire
mau
maugre
maunche
maunqu
maurice
mauvais
mauvaise
mauve
mauves
maux
max
mayenne
mayeur
mbe
mbole
mboles
me
mei
meins
meis
meitie
mellon
membes
membre
membres
men
menche
menchement
menchent
menchi
menchie
menchit
mene
mener
mens
ment
mentaithe
mente
menthe
mention
mentionne
ments
mer
merche
merlerault
merqu
merque
mers
mes
meseure
mesme
mess
message
messe
messie
messire
mesuraer
mesure
met
mett
mette
mettent
mettre
meu
meubl
meules
meun
meuna
meunalitae
meunaute
meune
meunes
meunicipalite
meunnion
meurent
meurt
meurtriyi
meusique
meute
meuthaient
meuthait
meuthe
meuthent
meuther
mexique
mey
meyen
mi
michael
miche
michel
michi
microsoft
mie
mielle
mielles
mienne
mier
mieux
mil
milaun
mile
milice
militaire
militaithe
militaithes
milk
millais
mille
milles
milleu
milliers
millions
min
minas
minchie
mine
minh
ministe
minne
minnes
minniste
minnistre
minnistres
minnoritaithes
minnorite
minnute
mins
minse
mint
mio
miot
mirbeau
mireus
miromesnil
mis
mise
misphe
missouri
mit
mitan
mitaun
mithacl
mitique
miyeu
mli
mmenche
mmenchement
mo
mobilyi
mocratie
mocratique
mode
moderne
modernes
moe
moha
moi
moien
moigne
mois
moldavie
moldova
mole
moll
molle
moment
mon
monaco
monarchie
monarque
monarques
monaste
monde
mondiale
mondri
monet
moneument
moneuments
mongolie
monnaie
mont
montangne
montangnes
monte
monter
montmerrei
montre
monts
montserrat
montsoreau
monu
monument
monuments
morbihan
morce
morcia
mord
mort
mortagne
morte
mortre
morts
moscou
mot
moteu
moteur
motoroutes
mots
motte
mou
mouai
mouaie
mouaine
mouaines
mouais
mouaithe
moue
mouen
mouens
mouissaon
mouli
moulin
mouliniaux
moulins
moument
mounaie
mounaies
mounde
moundiale
mount
mountae
mounte
mouo
mouogea
mouogi
mouoja
mouolin
mouontre
mouontrer
mouorie
mouorit
mouothi
mouothit
mouovement
mouoyen
mouoyens
mouri
mourit
mourrit
mousse
mousses
moussieu
moutarde
moutiers
mouton
moutons
mouvement
moyen
mp
mpe
mpiques
mpl
mplie
mportant
mportante
mportantes
mportants
mpri
mt
mu
much
muchi
muchie
muchies
mue
muit
mule
mun
munich
muns
mur
mura
murs
mus
musae
muscade
muscl
muse
musique
mustchinne
musulmans
mutha
muus
my
myi
myire
myirement
myires
myirs
myis
myste
mythe
mythologie
n
na
nade
nae
naer
nag
nage
nagi
nagit
nai
naient
naire
nait
naitae
naithe
naithes
nam
names
nang
nant
nantes
nants
naom
napole
napoules
napoulitain
naqu
naquit
nard
narrateu
nas
nassa
nateu
nateure
nateurs
nation
national
nationale
natiounale
nativite
nature
naturelle
naturelles
natuthe
nau
naufrage
navarre
navidgants
navidgi
navithe
navithes
nazis
nc
nce
nces
nche
nches
ncia
ncipau
ncipe
ncipes
ncorpouothe
nd
nde
ndgais
ndgi
ndgie
ndgien
ndgistique
ndone
ndustriali
ndustrie
ndustrielle
ne
nef
nei
neir
neire
nel
nelson
nement
nements
nen
nent
ner
nergie
nes
net
neu
neucha
neuche
neuches
neuf
neufca
neun
neunme
neutralite
neuve
neuvie
neuvyime
neux
new
news
nez
nfluence
nforma
ng
nga
nge
ngile
nginn
ngna
ngnait
ngnant
ngnants
ngnaux
ngne
ngnes
ngni
ngnifie
ngnit
ngnons
ngre
ngt
ngtaine
ngtchie
ngue
ngues
nh
nha
ni
nic
niccolo
nice
nichis
nicholaus
nicolas
nie
nien
niens
nies
niet
nil
nin
ninne
nio
nis
nise
nit
nitout
nlande
nm
nma
nmaginnaithe
nmanche
nmat
nmaux
nme
nment
nmente
nments
nmer
nmes
nmitifs
nmpri
nn
nnagogue
nnastie
nne
nner
nniet
no
nobel
nobis
noble
noblle
noblles
noe
nom
nomb
nombre
nomm
nomme
nommer
nommit
noms
non
nonant
nonchi
nonchit
noqu
noquier
nord
norman
normand
normande
normandes
normandie
normands
normans
normaund
normaunde
normaundes
normaundie
normaunds
norouague
noroue
norreis
norrouais
northmaen
norve
norway
nos
nostre
not
note
notre
nottes
nou
nouages
nouaix
noue
nouel
noum
noumae
noumaer
noumait
noumbe
noumbre
noume
noument
noumer
nouminale
noummai
noums
noun
nouo
nouormand
nouormande
nouormandie
nouormands
nouormaund
nouos
nouovelle
nourma
nous
nout
noute
noutre
nouve
nouvel
nouvelle
nouvelles
nouvembe
nouvia
nouviau
nouvieau
nouvieaux
nouville
novembe
novembre
nq
nquante
nque
ns
nscrits
nse
nsecte
nsectes
nspithe
nspithi
nspithit
nstallit
nstrument
nstruments
nt
nta
ntchi
ntchie
nte
ntent
ntgen
nthe
ntrent
ntroduction
ntrodui
ntroduit
ntroduites
nts
nu
nuae
nucle
nue
nues
nus
nva
nvente
nvention
nventit
ny
nyi
nyire
nyit
nze
o
obama
obe
objet
oblyigi
obres
obse
oc
occasion
occhident
occhidentale
occhis
occhitan
occident
occitan
oche
ocheis
ochie
ochies
oco
ocouop
octave
octobe
octobre
od
odore
oe
oenanthe
oeu
oeufs
oeuvre
oeux
of
offaer
offense
office
offices
offici
officie
officiel
officielle
officiellement
officielles
officyi
offri
offrit
ofu
oge
ograe
ographie
ographique
ogu
oh
oi
ois
okapi
ol
ole
oleis
olithique
olivier
ologie
ologique
ologiques
oloue
oly
olympic
oma
ome
omount
on
oncl
one
ons
ont
ontario
ope
oppose
opposit
oqu
oque
or
orange
oraunge
orbite
orde
orderic
ordes
ordre
ore
orent
org
organne
organnes
organni
orgny
ori
orie
orient
ories
orige
origine
originne
orle
orlians
ormoue
orne
oro
ors
ortchie
ortchies
orthodoxe
orthodoxes
os
osaer
ose
ost
ot
otae
otchupa
otchupe
otchupi
otchupit
ote
oteau
otefeis
otes
oteux
oticot
otoritae
otriche
ots
ottoman
ottomans
ou
ouadgi
ouai
ouais
ouait
ouaithe
ouallachie
ouallon
ouallonnie
oube
ouben
oubien
oubyin
ouche
oue
ouen
ouest
ougue
oui
ouistreham
ouitchi
ouitchipe
ouless
oulle
oume
oun
oungrie
ount
ouoche
ouos
ouothelle
ouothelles
ouotoni
ouovrage
ous
out
ouve
ouvrage
ouvri
ouvrie
ouvrit
ov
ovaer
ovais
overgne
ox
oxford
p
pa
pach
pacifique
padaunt
pae
pagannisme
page
pages
pai
paids
pain
pais
paithe
paix
pakistan
palais
palate
palaunqu
pale
paleste
pallot
pameins
pan
panama
pannelae
paolo
paoul
papa
pape
papes
papi
papie
par
parabole
paradis
paraesse
parai
parc
parchonn
parchonnie
parchonnyi
pare
parents
parfais
parfait
parfeis
parfin
paris
park
parlages
parle
parlement
parler
parmi
parole
paroue
parouesse
parouesses
parqu
pars
part
partagie
partament
parte
partement
partements
parti
particule
particulier
partie
parties
partir
partis
partitchulie
partitchulyi
partouot
partout
parts
pas
passae
passaer
passage
passe
passecrite
passit
pataflias
patate
patates
patha
pathade
pathai
pathe
pathents
pathole
patholes
patois
patri
patrice
patrie
patron
patrons
patte
pattes
pau
paul
paulu
paulus
paure
pause
pave
pavillon
payi
payis
pays
pe
pei
peids
peindre
peindrie
peine
peint
peinte
peinteure
peintre
peinture
peintuthe
peire
peires
peirson
peiryi
peissoun
peissouns
pelargonium
pendance
pendant
pendante
pendaunche
pendaunt
pendence
pendus
pensae
pense
penseuses
penseux
per
perche
percheron
perde
perdit
permet
perse
personnes
persounage
persounages
persoune
persounes
pes
peste
peter
petiot
petit
petite
petites
petits
peu
peupl
peuple
peuplle
peuplles
peurch
peussent
peut
peuvent
peux
ph
phant
phants
phe
phelippe
philip
philippe
philosophe
philosophes
philosophie
philosophique
phone
photographe
photographie
phrase
phu
phy
physique
pi
picard
picarde
picardie
piccio
pice
pices
piche
picl
piclie
picot
pid
pids
pie
pieaux
pied
pierre
pietro
pieuvre
pieux
pigeons
pihangne
pilaer
pilate
pilote
piment
pin
pinot
pipon
pique
pis
pisode
pisqu
pisque
pita
pitchet
pitchets
pitchi
pithates
pitre
pits
pius
pizza
pl
place
plache
plai
plaine
plantagene
plante
ple
plein
pleine
pleins
pliafond
pliai
pliaiche
pliaiches
pliaichi
pliaichie
pliane
plianque
plians
pliante
plianter
pliantes
pliastique
pliat
pliats
plie
pliein
plieunme
pliuton
pllaid
pllaids
pllate
pllatoun
pllaunches
pllauntae
pllaunte
pllauntes
plle
pllenne
plleumes
plleurs
pllie
pllurie
pluriel
plus
plyie
po
pocte
podi
poe
point
police
politicien
politique
politiquement
politiques
polongne
polonnais
pomme
pommes
pommie
pompe
pon
ponnent
ponse
pont
ponts
popula
populaire
populaires
populaithe
populaithes
population
populatioun
populus
poque
por
porche
port
porta
portaient
portait
porte
portent
porter
portes
portit
portrait
portraits
portu
portuga
portugal
pose
position
posse
post
poste
pot
potithon
pots
pou
pouai
pouces
poudre
poue
pouel
pouent
poume
poumes
poummes
poumyi
poumyis
pounit
pounse
pount
pouo
pouor
pouorqu
pouortae
pouortchi
pouosse
pouovei
pouovi
pouque
pouquelaye
pouquelayes
pouques
pour
pourduit
pourqu
pourquei
pourreit
pouse
pousse
poussin
poussit
pouvaez
pouvaient
pouvait
pouve
pouvei
pouveir
pouveit
pouver
pouvie
prae
prague
prannaient
prannez
praticabl
pratique
pratiques
pratitchi
pre
premie
premier
premiers
premyi
premyire
prend
prendre
prennent
prenre
prentout
press
prestigieux
preunmie
preunmyi
preuve
pri
prie
prier
prieure
prime
prince
prinche
prinches
princhesse
princhipa
prins
prinse
prinseu
print
priourae
pris
prise
prison
prisoun
prive
privile
prix
pro
probabl
probablie
problie
proce
proche
proclia
prodi
produ
production
produit
produithe
produits
professeur
programme
progranme
pron
prophe
propose
proposit
proprie
proscrits
prospe
prote
protestants
prouvinche
prouvit
provenche
provi
provinche
provinches
prunus
pryi
pryire
psychologie
pte
pti
ptit
ptite
pu
publie
publique
publlique
publyi
publyica
publyique
publyiques
publyit
puchelle
puis
pultuthe
pur
pure
pus
pusieurs
puspart
pusto
pusuurs
put
puta
putae
pute
puto
puus
pux
pyiche
pyiches
pyid
pyids
pyire
pyirre
pyirres
pyit
pyits
pyramide
pyramides
q
qu
qua
quais
qualite
quand
quant
quarante
quart
quarte
quartier
quasi
quasiment
quat
quate
quates
quatorze
quatre
quatrie
quatryime
quaund
quaunt
que
queen
quei
queis
quemaundae
quemenche
quemin
quena
quenche
quent
quente
quercus
ques
question
queu
queuquefeis
queuques
queva
queval
quevalier
quevaliers
quevalyi
quevalyis
qui
quie
quielques
quieuquefeis
quieuques
quiques
quit
quitt
r
ra
rabelais
racachie
racachies
raccourchi
race
races
rache
raconte
racounte
rade
radio
rae
rafael
rage
ragot
rai
raide
raiethie
rain
raique
raire
raires
raisi
raisin
raison
raisoun
raisse
raisses
rait
rajou
ral
rale
ralitae
rama
rame
ramende
ramender
rang
rangs
ranne
rant
ranto
rapide
rapport
rapporte
rare
rares
ras
rassemble
rassemblle
rat
rateure
ration
ratioun
rature
ratzinger
raunt
rauntes
raver
ravigote
ravigoter
ravigotit
rayons
rba
rbe
rbes
rbie
rbon
rbourg
rcat
rcats
rce
rces
rche
rches
rchette
rcheux
rchi
rchon
rchut
rcial
rconnai
rcyclie
rd
rdain
rde
rdgitte
rdit
rdre
rdu
re
recteu
refe
rei
reide
reidement
reims
rein
reine
reis
religieux
religioun
religiouns
rembert
rement
remparts
rempliaichi
rempliaichie
rempliaichis
rempliaichit
remplle
remplli
rempllit
remplyi
rena
rence
renche
rencontrit
rend
rende
rendit
rene
renforchi
renne
rennes
renouve
rent
rente
rentes
rents
repre
reprenre
rer
res
restae
restaient
restait
restant
reste
restent
rester
restit
ret
retroue
rette
retz
reu
reue
reues
reurs
reus
reux
rey
reyal
reyale
reyaume
reyaumes
reyoume
rge
rges
rgi
rgie
rhe
rho
rhodes
rhou
ri
ria
riale
rialisme
ric
rica
ricard
richard
riche
riches
ricorde
ricque
rida
ridia
rie
rien
rier
rimes
rimeus
rimeux
rio
riode
riqu
rique
riques
rire
ris
risque
rit
ritae
rite
rites
rivalite
rive
rivie
rivyire
riya
riz
rj
rjus
rli
rligion
rligions
rmain
rmannique
rmanniques
rmarchi
rmarchis
rme
rmente
rmes
rmi
rmie
rmission
rmont
rmuit
rmyi
rna
rnais
rne
rnent
rner
rnes
rnet
rnette
rneux
rni
ro
robe
robec
robert
robot
robotique
robots
roche
rochelle
rocque
roe
roger
roi
roioume
rollon
rom
romain
romaine
romaines
romains
roman
romane
romanne
romannes
romans
romaun
rome
ron
rond
ronde
rope
roport
roqu
ros
rose
roses
rosette
rossel
rot
rotcheuses
rotchi
rotchie
rotomagus
rou
rouai
rouais
roubaix
roud
roue
rouen
rouenneis
rouenneise
rouet
rouge
roui
roumain
roumains
roumanie
roume
roumenel
round
rounde
roundes
rouo
rouoge
rouoges
rouomani
rouote
rouoya
rouoyale
rouoyales
rouoyaume
rouoyaumes
rousse
route
routes
roux
roy
royal
rozo
rpent
rpie
rpre
rquabl
rque
rques
rraient
rrain
rrait
rre
rrer
rres
rri
rriais
rriaise
rriaises
rrie
rrilleurs
rritouaithe
rritouaithes
rrue
rryi
rs
rsaithe
rse
rselle
rsembl
rsets
rsion
rsions
rsite
rsonnalite
rsonne
rsonnes
rt
rtchi
rtchie
rtchure
rte
rtes
rthu
rti
rtithit
rtou
rtram
rts
rtuthe
ru
rudement
rue
rues
rueu
rugby
run
ruption
ruptioun
rusalem
russe
russes
russie
russieaux
rva
rve
rvelle
rvelles
rver
rvette
rveurs
rvi
rvice
rvices
ry
ryin
s
sa
sabbat
sablion
sablloun
sac
sacrae
sacre
sade
sades
sae
sage
sages
sagesse
sahara
sai
saie
saient
saint
sainte
saintes
saints
saire
saisoun
saisouns
sait
salade
sale
salle
salles
salomon
salut
salvador
samuel
san
sang
sanm
sanmathe
sannouiche
sans
sant
santa
sante
santiago
sao
saont
saque
sar
sarnia
sarthe
satellite
sau
sauce
sauf
sauns
sauvage
sauvages
sauve
sauver
sauveux
savaer
savei
saveir
saver
savouaie
saxe
saxons
saxouns
sche
schisme
school
scht
sci
scienche
scienches
scientifique
scientistes
scots
se
seconde
segounde
sei
seient
seigneu
seigneur
seigneurs
seigneux
seine
seir
seit
seits
seizie
sel
selle
selon
seloun
semanne
sembl
sembliait
semblie
semblle
sen
sene
senqu
sens
sent
sentae
sentait
sente
sentent
senter
sents
sept
septante
septembe
septembre
ser
sera
serait
sercquiais
sereit
serkyee
serment
serrage
sert
servait
servaunt
servaunts
servent
servi
service
serviche
servir
servit
ses
set
setembe
setembre
settle
seu
seud
seuffixe
seul
seule
seulement
seulles
seuls
seur
seurli
seurs
seurve
seus
seut
seux
severus
seyne
shakespeare
si
sia
siais
siaux
sibiu
sicile
side
sidenche
sident
sidents
sidgismond
sie
sieaumes
sieaux
sied
sien
siena
siennais
siennaise
sienne
siens
sierra
sies
siette
sieur
sieure
sieusant
sieut
sieute
sieuvant
siez
signal
signeu
signeur
signeus
silli
silvestris
siment
simon
simone
simoun
simple
simplle
sine
sinne
sion
sique
sire
sis
sise
sistinne
sit
site
sitent
siter
siteurs
sitit
sito
situe
six
slaves
slon
slovaque
slovaques
slovaquie
slove
sme
smith
sn
so
sochie
social
socialiste
socie
sociologie
solaire
solaithe
sole
soleil
solstice
sommes
son
sonne
sonnet
sonnets
sonneurs
sonneuse
sons
sont
sopotanmie
sor
sorchie
sorchier
soria
sornette
sornettes
sors
sort
sorte
sortes
sorti
sortit
sou
souaie
soudard
soudards
souen
souessons
soulaient
soulait
souleient
souleit
soume
soumes
soun
souneus
souns
sount
souo
souongni
souos
souothis
souovenin
souovent
soupe
sous
souve
souvent
souventefeis
sovie
spanyol
spe
sport
sports
sputnik
sra
ss
ssage
ssaient
ssais
ssait
ssance
ssant
ssante
ssants
sse
ssent
sser
sses
ssi
ssiale
ssiales
ssibl
ssie
ssit
sson
ssons
ssus
st
sta
stalinne
standard
statue
statues
stchelette
stchulpte
stchulptuthe
ste
stephanus
sti
sto
stonehenge
street
structuthe
style
su
suaire
succe
successeux
suchi
sud
sue
sueur
sueux
suisse
sujet
sujets
sullivan
sume
sumenche
sunt
supe
suppri
sur
sure
surre
surrection
surtouot
sus
susfache
sustouot
sustout
suthe
suther
suthes
sutout
suusaunt
suusent
suusu
suve
swithi
sy
syagres
syi
syiclle
syiclles
syige
syin
syine
syines
syins
syis
syllabes
symbole
syrie
syste
sœur
sœurs
t
ta
tabl
table
tabli
tablle
tablyi
tablyie
tablyies
tablyit
tachelhit
tachi
tae
tael
taer
taexte
tage
tages
tai
taient
taile
tailes
tain
taine
tais
tait
taithe
tal
talent
talents
talon
tamar
tan
tandi
tandis
tangne
tant
tard
tarsie
tarsius
tarsyi
tart
tas
tasse
tat
tats
taunt
taux
taxes
tc
tch
tchai
tchaie
tchait
tche
tchein
tcheint
tchelle
tchestchion
tchestchions
tchet
tchets
tcheu
tcheur
tcheurs
tcheux
tchi
tchian
tchianne
tchians
tchidbouo
tchie
tchieaux
tchien
tchienne
tchiennete
tchiens
tchilieuvre
tchilieuvres
tchilliette
tchinnoxe
tchiots
tchipe
tchipes
tchiqu
tchique
tchiquechose
tchiquefais
tchiques
tchit
tchitch
tchithe
tchitti
tchittit
tchoeu
tchoeur
tchu
tchube
tchubec
tchue
tchui
tchuit
tchuivre
tchule
tchulte
tchulteure
tchultiva
tchultive
tchultiver
tchulture
tchultuthe
tchultuthelle
tchultuthes
tchun
tchurae
tchus
tchusson
tchussons
tchute
tchutheu
tchution
tchuuse
te
teau
teauneuf
technique
technologie
tecnolo
tee
tei
teient
teile
teiles
teit
tel
tembre
tement
tempae
tempe
templ
temple
templle
templles
temps
tendre
tent
tente
tentin
tentineis
ter
terjous
terme
ternelle
terra
terrain
terre
terres
territoue
tersbourg
tertous
tertout
tes
testament
teu
teumbae
teume
teunme
teunmes
teurgoule
teux
texas
texte
textes
tez
th
tha
thai
thaient
thait
thaithe
thale
thant
thatuthe
thaux
the
thement
thence
thences
thent
thente
thentes
thents
ther
thermes
thes
thette
theure
thi
thia
thiaux
thie
thiel
thien
thierry
thies
thinne
thiologiens
thique
thit
thitage
thitchain
thitchaine
thitchains
thitchi
thitchit
thite
tho
thode
thodiste
thodistes
thoglyiphe
thoglyiphes
thomas
thonmas
thons
thos
thou
thoumas
thoume
thue
thy
ti
tia
tiane
tiau
tiaux
tie
tien
tienne
tiens
tient
tier
tiers
ties
tigue
tile
tima
timent
timents
times
timis
tin
tion
tionna
tionnal
tionnale
tionnales
tionnels
tions
tioun
tique
tiques
tir
tire
tirie
tiries
tis
tisse
tisses
tit
titanic
tite
tites
tithe
tithie
tition
titions
titre
titres
tits
tive
tivier
to
toflle
tokyo
tombe
ton
tonmates
tonne
tonnelle
tonnes
tons
torsten
tou
toue
toune
tounia
touo
touor
touoranne
touore
touornaer
touors
touos
touot
touote
touotes
touothe
tour
tourisme
touristes
tournouais
tours
tous
touscane
toussaint
tout
toute
toutes
tr
tra
trache
traches
trachi
trade
tradition
traditionnelle
traditions
traditioun
traditiounaliste
traditioune
traditiounelle
traditiouns
traduction
trafi
trai
train
traire
trais
traison
traisons
trait
traitae
traite
traites
trans
transfe
transforme
transport
transylvannie
trasie
trava
travaillait
travailli
travaillit
traval
travas
travaux
trave
tre
treis
treisyime
treize
tremblie
trent
trente
tres
treue
tri
trian
tribus
tricitae
trie
trige
trinnete
trique
triques
tristan
trivelaine
tro
trop
trou
trouaer
trouaie
trouait
troue
troun
trouove
troupe
troupes
trouvait
trouve
trouveit
trouver
trouvit
troyes
trueu
trung
trust
ts
tsar
tt
ttait
tte
tu
tua
tuae
tude
tudes
tudgiants
tudie
tudient
tudier
tudyit
tue
tuer
tuit
tumbe
tun
tunbridge
turcs
turner
turqu
turtchie
tus
tuules
tyi
tyime
tyis
tyne
typique
typiquement
u
ube
ubec
uefs
ufba
ugc
ukrai
ule
uleville
ulste
ulster
un
une
uni
unin
unins
union
unioun
unitae
unive
universidade
universitae
universite
university
unne
unni
unnies
unnion
unnions
unnis
unnive
uns
unzen
ur
urbain
urbanus
ure
us
usage
use
uste
ut
utc
utilise
uurs
v
va
vacque
vacques
vae
vai
vaie
vaient
vait
vaituthe
vaituthes
vake
val
vale
valei
valencia
valent
valenti
valerius
valet
valeu
valie
valle
valois
valparaiso
valpy
valyi
van
vange
vangile
vannes
vant
vaque
vaques
variante
varsovie
vas
vaste
vatican
vaticaun
vau
vaungu
vaut
vaux
ve
vechin
vei
veichi
veichin
veie
veient
veile
veille
veilleux
veinnent
veint
veir
veire
veit
vela
veloppit
venait
vend
vende
vendit
vendre
vendue
veneient
veneit
veni
venin
venir
venise
venit
venre
vent
vente
ventre
vents
venu
venun
venuns
venus
ver
verbe
verbes
verbo
vernon
verouic
verre
vers
versa
versailles
versets
version
vert
ves
veu
veue
veues
veulent
veurs
veurt
veut
veux
vexin
vey
vi
via
viage
viages
viageux
viagi
viande
viau
vicente
vicomte
vicoumtae
vicoumte
victi
victor
victoria
victoue
vide
vie
vieau
vielle
vielles
vienne
viennent
vient
vier
vierge
vietnam
vieu
vieuille
vieul
vieule
vieur
vieux
vigne
vignel
vignoble
vigny
vii
viie
viii
viiie
vikings
vikipe
vilage
vile
viles
villa
village
villages
villais
ville
villes
vin
vincent
vinchennes
vingt
vins
vint
vipe
viqu
viques
viquipe
vire
virgile
viroun
vis
vise
vision
visioun
visite
vit
vita
vital
vitchipe
vite
vivait
vivant
vivants
vivaunts
vive
viveient
vivent
viviz
vivre
viyait
viyant
viyiz
vladimir
vnir
vo
voe
voielles
vol
vola
volcaun
vole
volent
voler
volte
voltit
volution
volutionnaithe
volutions
volutioun
vont
vos
vote
voter
voti
votion
votioun
vou
vouaile
vouaix
voue
voulaient
voulait
voulei
vouleir
vouleit
vouler
voulit
vount
vouolait
vouolei
vouoleu
vouolit
vouos
vous
vrai
vraie
vraiment
vrais
vre
vres
vreus
vreux
vri
vrier
vryi
vu
vue
vun
vuu
vuule
vuules
vuus
vy
vyinent
vyins
vyint
vyirge
w
wace
walter
washington
web
wesley
west
westminster
wiki
wikipe
wikipedia
william
winchester
windows
windsor
wique
world
www
x
xe
xi
xie
xii
xiie
xiii
xiiie
xiv
xive
xixe
xv
xve
xvi
xvie
xviie
xviiie
xxe
xxie
xxiie
xystus
y
ya
yait
yal
yale
yane
yant
yaume
ye
yelles
yen
yens
yent
yer
yes
yeu
yeus
yeux
yez
yi
yie
yit
yons
york
you
yrlande
yugoslavie
yun
z
za
zabe
ze
zembre
zette
zettes
zi
zoologie
zyime
{
|
}
~
£
«
°
²
´
·
»
đo
łobez
œu
œuv
œuvre
œuvres
̀
́
̂
̃
̄
̆
̇
̈
̉
̊
̌
̓
̔
̛
̣
̦
̧
̨
͂
ͅ
͡
α
αν
ε
ει
η
ι
κ
και
μενον
ν
ντα
ο
ου
ς
τ
τη
το
του
υ
ω
з
ְ
ִ
ֶ
ַ
ָ
ּ
ׁ
א
ב
ד
י
ל
ם
מ
ר
ُ
‎
–
—
‘
’
“
”
†
…
‪
‫
‬
€
↔
↷
−
③
④
⑦
ⵜ
⺀
⺄
⺆
⺈
⺊
⺌
⺕
⺝
⺸
⺼
⿰
⿱
⿲
⿳
⿴
⿵
⿶
⿷
⿸
⿹
⿺
⿻
〢
コ
ユ
㇁
㇂
㇄
㇇
㇈
㇉
㇓
㐁
㐄
㐅
㐌
㐫
㐬
㐭
㐮
㐱
㑒
㒵
㒸
㒼
㓁
㓞
㔾
㕛
㕣
㖾
㘝
㚅
㚇
㚔
㚘
㝉
㝡
㝴
㝵
㞋
㞢
㞷
㠩
㠭
㠯
㡀
㡭
㡿
㢲
㢴
㣇
㣺
㥯
㪅
㫄
㫐
㫒
㫺
㬅
㬎
㬥
㬰
㲋
㳄
㷠
㸒
㸚
㸦
㼌
㼲
㽞
㿟
䀠
䂞
䍃
䏍
䒑
䖍
䖒
䖝
䖵
䙴
䚻
䜌
䝿
䡛
䧹
䪞
一
丁
丂
七
丄
丅
丆
万
丈
三
上
下
丌
不
与
丏
丐
丑
专
且
丕
世
丘
丙
业
东
丞
丢
丣
两
严
並
丨
丩
个
丫
丬
中
丮
丰
丱
串
丵
丶
丷
丸
丹
为
主
丽
丿
乀
乂
乃
久
乆
乇
么
义
之
乌
乍
乎
乏
乐
乑
乔
乖
乗
乘
乙
乚
乛
乜
九
乞
也
习
乡
乳
乾
亀
亅
了
亇
予
争
事
二
亍
于
亏
亐
云
互
亓
五
井
亘
亚
亜
亞
亟
亠
亡
亢
交
亥
亦
产
亨
亩
享
京
亭
亮
亯
亰
亲
亳
亶
亷
人
亻
亼
亾
仁
今
介
仌
从
仐
仑
仒
仓
仕
他
付
仝
代
令
以
任
企
伊
伏
伐
休
会
伯
但
位
何
佘
余
作
佥
使
來
侈
侌
侖
侯
侵
便
保
俞
信
修
倉
倍
候
倠
備
僉
僕
儿
兀
允
兂
元
兄
充
兆
兇
先
光
兊
克
兌
免
兑
兒
兓
兔
党
兜
兟
入
全
兩
兪
八
公
六
兮
兰
共
关
兵
其
具
典
兹
兼
冀
冂
冃
冄
内
冈
冉
冊
冋
册
再
冎
冏
冐
冒
冓
冖
冗
冘
军
农
冝
冡
冥
冫
冬
冷
几
凡
凢
凵
凶
凷
凸
凹
出
函
凾
刀
刁
刂
刃
刄
刅
分
切
刍
刑
刕
刖
列
刘
则
初
別
利
别
到
制
刺
則
削
剌
前
剡
剽
劉
力
功
加
劦
助
劫
劳
劵
勃
勇
勉
勒
動
務
勞
勤
勹
勺
勻
勾
勿
匀
匂
包
匆
匈
匊
匋
匍
匕
化
北
匚
匝
匡
匪
匱
匸
匹
区
医
匽
匿
區
十
卂
千
卄
卅
卆
升
午
卉
半
卌
华
卑
卒
卓
单
卖
南
卜
卝
卞
占
卡
卢
卣
卤
卦
卩
卪
卬
卯
印
危
即
却
卵
卷
卸
卻
厂
厃
厄
历
厈
厉
厌
厓
厘
厚
原
厤
厥
厨
厭
厲
厶
厷
厸
去
厼
厽
叀
参
參
叅
又
叉
及
友
双
反
叐
发
叒
叔
叕
取
受
叚
叜
叟
口
古
句
另
叩
只
召
可
台
叱
史
右
叵
号
司
叹
吂
各
吅
合
吉
吊
吋
同
名
后
吏
向
吕
君
吝
吞
否
含
启
吳
吴
吹
吾
呂
呆
呈
告
员
呙
周
命
咅
和
咎
咠
咢
咨
咸
咼
哀
品
哉
員
哥
哲
唐
商
啇
問
啚
啬
啻
善
喜
喬
單
喿
嗇
噩
嚴
囊
囗
囘
囙
囚
四
回
囟
因
囧
囬
困
囱
囷
固
国
圂
圅
國
圍
圓
土
圡
圣
圥
在
圭
地
圶
圼
坐
坒
坚
坴
垂
垔
垚
埀
埋
埶
執
基
堂
堅
堆
堇
堯
塞
墨
壘
士
壬
壯
声
壳
壴
壹
壺
壽
夂
处
夅
夆
备
夊
夋
夌
复
夏
夒
夕
外
夗
夘
多
夜
夢
大
夨
天
太
夫
夬
夭
央
失
夲
头
夷
夸
夹
夻
夾
奂
奄
奇
奈
奉
奎
奏
奐
契
奓
奔
奚
奞
奠
奢
奥
奭
女
奴
奻
好
如
妄
妙
妟
妥
妻
妾
姑
委
姜
威
娄
婁
婴
嬰
嬴
子
孑
孔
孕
孖
字
存
孚
孛
孝
孟
季
孤
学
孫
孱
學
宀
宁
宂
它
宅
宇
守
安
宋
完
宏
宓
宗
官
定
宛
宜
宝
客
宣
室
宮
宰
害
家
容
宾
宿
寄
寅
密
富
寒
察
寧
審
寫
寬
寮
寸
对
寺
寻
寽
対
寿
封
尃
射
将
將
專
尉
尊
尋
尌
對
小
少
尒
尓
尔
尖
尗
尚
尞
尢
尣
尤
尧
尨
尭
就
尸
尹
尺
尻
尼
尽
尾
尿
局
居
屈
屋
屎
屏
屑
展
屖
屚
属
屠
屡
屬
屮
屯
屰
山
屵
屾
岁
岂
岑
岡
岩
岳
岸
峯
島
崇
崑
崔
崖
崙
崩
嵬
嶲
巂
巛
川
州
巟
巠
巢
巤
工
左
巧
巨
巩
巫
差
己
已
巳
巴
巷
巸
巽
巾
巿
帀
市
布
希
帚
帛
帝
带
師
席
帶
常
干
平
年
幵
并
幷
幸
幺
幻
幼
幽
幾
广
広
庄
床
底
店
庚
府
度
庫
庭
庶
康
庸
廉
廌
廛
廣
廩
廴
延
廷
建
廾
廿
开
弁
弃
弄
弇
弋
式
弓
弔
引
弗
弘
弜
弟
弥
弦
弱
張
強
强
彊
彌
彎
彐
彑
当
彔
录
彖
彗
彡
形
彥
彦
彧
彭
彳
役
彼
往
待
律
徒
得
徙
從
復
微
徵
心
忄
必
忌
忍
志
忝
忠
忩
快
念
忽
忿
思
怠
急
怱
恆
恒
恩
恭
息
悉
患
悤
悲
悶
惠
惡
惢
愁
愈
意
愛
感
慈
慧
慮
憂
憲
應
戀
戈
戉
戊
戋
戌
戍
戎
成
我
戒
戔
或
戚
戠
戢
截
戲
戶
户
戹
戼
戾
房
所
扁
扇
手
扌
才
打
托
执
承
折
拉
拜
拿
掌
推
提
摩
支
攴
攵
收
攸
改
放
政
敄
敏
敕
敖
敗
敝
敞
敢
散
敦
敫
敬
数
敷
數
斂
文
斉
斊
斗
斤
斥
斩
斬
斯
新
方
於
施
斿
旁
旋
族
无
旡
既
旣
日
旦
旧
旨
早
旬
旱
旲
时
旾
昆
昇
昌
昍
明
昏
易
昔
昗
昜
星
春
昬
是
昱
昴
昷
時
晃
晋
晏
普
景
晶
智
暑
暴
曇
曩
曰
曲
曳
更
曷
書
曹
曼
曾
替
最
朁
會
月
有
朋
服
朔
朕
朗
望
朝
木
朩
未
末
本
札
朮
术
朱
朵
朶
朿
杀
杏
杜
束
条
来
東
杲
杳
松
析
林
枚
果
枝
枲
枼
某
柔
查
柬
柰
柴
栗
桀
桑
桼
梁
條
梟
梨
棘
棠
棥
森
楚
業
楽
榮
樂
樊
欠
次
欣
欮
欲
欶
欽
款
歆
歇
歛
止
正
此
步
武
歨
歪
歮
歯
歰
歲
歴
歷
歸
歹
歺
死
殳
段
殷
殸
殹
殺
殻
殿
毋
毌
母
每
毒
比
毕
毚
毛
毳
氏
氐
民
气
氣
水
氵
氶
氷
永
氺
氾
求
汝
汞
江
沃
沓
沙
沝
泉
法
波
泣
泥
泰
洛
洪
活
派
流
浦
浪
浮
淡
淮
清
渚
渠
湯
滿
漸
火
灬
灭
灰
灵
灷
炅
炎
炏
炗
炙
炭
為
烈
烏
烝
焉
無
焦
焱
然
煞
熊
熏
燕
營
燮
爪
爫
爭
爯
爰
爱
爲
爵
父
爻
爽
爾
爿
片
牙
牚
牛
牜
牟
牢
牧
牪
牽
犀
犬
犭
犮
狂
狄
狊
独
狺
猋
猒
猪
献
獻
玄
率
玉
王
玟
玨
现
珎
班
琴
瑟
瑩
璠
瓜
瓦
甘
甚
生
産
用
甫
甬
田
由
甲
申
电
甶
男
甸
甹
画
甾
畀
界
畏
畐
留
畜
畟
畢
畧
畨
番
畫
異
畱
當
畺
畾
疊
疋
疌
疑
疒
疾
癶
癸
癹
登
發
白
百
皀
皃
的
皆
皇
皋
皐
皕
皮
皷
皿
盃
盆
盇
盈
益
盍
盎
监
盒
盖
盛
盡
監
盤
盧
目
直
相
盾
省
眇
眉
看
眔
眞
真
眷
眼
眾
着
睘
睪
睿
瞏
瞢
瞿
矍
矛
矞
矢
矣
知
矦
短
石
破
碎
磊
磨
示
礻
礼
祟
票
祭
禀
禁
禸
禹
禺
离
禽
禾
禿
秀
秃
秉
秋
科
秝
秦
移
稟
穀
穌
穴
究
穹
空
穿
突
窄
窒
立
竒
竜
竝
竟
章
童
竹
笑
笠
筆
等
答
箕
算
箴
節
篤
篭
米
粉
粛
粟
粤
粦
粲
糞
糸
糹
系
約
納
素
索
紫
累
細
絜
絫
絲
維
綿
縣
繇
纍
纟
缶
网
罒
罔
罕
罗
罙
罡
罢
罪
署
罷
羅
羊
羌
羍
美
羔
羕
羗
羞
羡
羣
群
義
羲
羸
羽
翁
翏
習
翕
翟
翠
翼
老
耂
考
者
耆
而
耎
耑
耒
耳
耴
耶
耷
聂
聊
聖
聚
聶
聿
肀
肃
肅
肉
肖
肙
肥
肩
肯
育
肴
胃
背
胡
胥
能
脊
脩
膚
臣
臤
臧
自
臬
臭
臯
臱
至
致
臺
臼
臽
臾
臿
舀
舂
舄
與
興
舉
舌
舍
舛
舜
舞
舟
般
艮
良
色
艸
艹
艾
芒
芔
芬
芮
花
芳
芺
芻
苔
苗
苟
若
苦
英
茶
茸
荅
草
荒
荣
荼
莆
莧
莫
莽
菆
菊
菐
華
萬
落
葉
著
葛
董
葵
蒙
蒦
蒼
蓋
蓬
蓺
蔑
蔡
蕉
蕭
薄
薛
薦
薰
藍
藏
藥
蘭
虍
虎
虐
虒
虔
處
虖
虗
虘
虚
虛
虜
虞
虫
虽
蚤
蚩
蜀
蜜
蟲
蠡
血
行
衍
衛
衣
衤
表
衮
衰
袁
袞
褭
褱
襄
襾
西
覀
要
覃
見
規
覓
覧
親
覽
见
角
解
言
訁
訇
計
詹
誩
諸
讠
谷
豆
豈
豊
豐
豕
豖
豙
象
豦
豩
豪
豸
貇
貝
貞
貟
負
貢
貧
貪
貫
責
貳
貴
買
費
賁
資
賈
賏
賓
賔
賛
賞
賢
賣
質
賴
贊
贝
贡
责
贯
贲
贵
赖
赞
赤
赦
走
越
足
路
蹇
身
躬
車
軍
軎
軟
輦
车
辛
辜
辟
辥
辰
辱
農
辵
辶
边
达
过
近
连
迷
追
退
送
逆
逐
通
速
造
逢
連
逮
進
遀
遂
過
道
達
遣
適
遷
遺
邊
邑
邕
那
邦
邪
郎
部
郭
都
鄉
酉
酋
配
酓
釆
采
里
重
野
量
金
釒
錢
钅
長
镸
长
門
閃
閉
開
閏
閑
閒
間
閔
閵
閻
闌
门
间
闷
阑
阜
阝
阿
降
陳
隆
隊
隋
隡
隨
隱
隶
隹
隺
隻
隼
隽
难
雀
雁
集
雈
雋
雍
雐
雔
雙
雚
雜
雝
離
難
雨
雩
雪
雲
零
雷
需
霍
霜
霝
霞
霸
靈
靑
青
非
靡
面
靣
革
韋
韓
韦
韭
韯
韱
音
頁
頃
項
須
頗
頡
頻
顛
页
風
风
飛
飞
食
飠
養
饣
首
香
馬
馮
駦
马
骨
高
髟
鬥
鬯
鬲
鬼
魚
魯
鮮
鱼
鲁
鳥
鳳
鸟
鹵
鹿
麃
麗
麥
麦
麻
黃
黄
黍
黎
黑
黒
黨
黹
黽
黾
鼎
鼓
鼠
鼻
齊
齋
齐
齒
齿
龍
龙
龜
龟
龠
龰
龱
龴
龵
龶
龷
龸
龹
者
艹
？
𠀁
𠀃
𠀆
𠀉
𠀎
𠀐
𠁁
𠁣
𠂆
𠂇
𠂈
𠂉
𠂊
𠂋
𠂎
𠂒
𠂔
𠂛
𠂡
𠂢
𠂤
𠂬
𠂭
𠂹
𠃊
𠃋
𠃌
𠃍
𠃎
𠃑
𠃓
𠃔
𠃜
𠄌
𠄎
𠄠
𠄢
𠆢
𠆥
𠇍
𠈌
𠌵
𠓜
𠔉
𠔥
𠔼
𠔽
𠔿
𠕀
𠕁
𠕋
𠘧
𠘨
𠙻
𠙼
𠚏
𠚒
𠚤
𠚪
𠣏
𠤎
𠤕
𠥓
𠦄
𠦑
𠦝
𠧒
𠧗
𠧪
𠩺
𠪚
𠫓
𠫔
𠫤
𠬛
𠬝
𠬞
𠬢
𠬤
𠬶
𠮛
𠮦
𠮷
𠯑
𠱠
𠳮
𠷎
𡈼
𡉀
𡉵
𡌥
𡍮
𡏳
𡕒
𡕩
𡕰
𡖅
𡗗
𡗜
𡘆
𡘤
𡧱
𡨄
𡩧
𡬠
𡭽
𡰣
𡰥
𡰪
𡰯
𡰱
𡷈
𡸁
𡿨
𡿩
𡿪
𡿺
𢀖
𢀛
𢀩
𢁙
𢆉
𢆰
𢆶
𢇁
𢇇
𢉖
𢌬
𢌿
𢏚
𢑑
𢑚
𢖻
𢙣
𢛳
𢦏
𢦒
𢧵
𢼄
𢾕
𣁋
𣄼
𣅀
𣅽
𣍘
𣎳
𣎵
𣏋
𣏼
𣗥
𣥂
𣥖
𣦵
𣦼
𣧄
𣪊
𣪠
𣬉
𣳾
𣶒
𤇾
𤊽
𤐫
𤓰
𤔔
𤕨
𤣩
𤰇
𤰔
𤰞
𤴓
𤴔
𤽄
𥁑
𥁕
𥃦
𥃩
𥃭
𥇡
𥑟
𥘅
𥘈
𥝢
𥫗
𥱡
𦈢
𦉪
𦉬
𦉼
𦍌
𦍒
𦎧
𦐇
𦓔
𦔮
𦘒
𦙃
𦚏
𦣝
𦣞
𦣻
𦥑
𦥔
𦥯
𦨉
𦭝
𦰩
𧆞
𧈧
𧘇
𧰨
𧴪
𧴮
𧵩
𧾷
𨸏
𨾴
𩙿
𩠐
𩫏
𩵋
𪉷
𪜀
𪟽
𪠲
𪩲
𫇦
𫔭
𫜸
𫝀
𫠣
𫠩
𫢉
𫥞
𫩏
𫩠
𫪡
𫲽
𫶧
𬀷
𬐘
𬗌
𬙙
𬛸
𬜯
𬟩
𬯁
𬴘
𬺻
𬼉
𬼖
𭀰
𭁈
𭁨
𭅰
𭑈
𭕄
𭗼
𭤨
𭥫
𭻾
𮅕
𮊿
𮍌
𮍏
𮓗
𮥼
𮧮
廾
𰀁
𰀄
𰀈
𰀉
𰀕
𰀠
𰀡
𰀢
𰀪
𰁜
𰃮
𰆊
𰆘
𰋙
𰕎
𰢴
𰧭
𰯲
0--
20--
3--
4--
5--
7--
8--
9--
a--
aban--
ac--
accu--
accuei--
ad--
ade--
af--
ag--
ah--
ai--
al--
ale--
alex--
alu--
am--
ami--
an--
anas--
anoun--
app--
appari--
ar--
arau--
arc--
archi--
arous--
art--
as--
assem--
astro--
att--
atte--
attrac--
attrio--
au--
aun--
aust--
aut--
av--
ava--
avanc--
avi--
avraun--
avu--
aya--
ba--
bal--
ban--
bar--
bas--
bau--
be--
bei--
bel--
ber--
bes--
bi--
bibl--
big--
bl--
bo--
bon--
bou--
bour--
bra--
bre--
bri--
bro--
bu--
byza--
c--
ca--
cal--
cant--
cap--
capu--
car--
cas--
cau--
ce--
cel--
ch--
cha--
chart--
che--
chi--
chif--
cho--
chor--
chry--
chu--
ci--
cl--
cla--
clo--
clot--
co--
colo--
com--
commis--
con--
conf--
cop--
cor--
corres--
cos--
cou--
coum--
coumpas--
coun--
couns--
couo--
cra--
cri--
cru--
cu--
cul--
cy--
d--
da--
dau--
dcc--
dccx--
dccxx--
de--
der--
des--
dge--
dgi--
di--
dia--
dic--
diplioma--
dis--
dit--
do--
dou--
du--
dy--
dynas--
e--
ef--
el--
em--
en--
ency--
enleu--
er--
es--
est--
estu--
et--
eu--
eun--
ev--
ex--
f--
fa--
fai--
fant--
fe--
fec--
fer--
feu--
fi--
fli--
fliot--
flo--
fo--
fonc--
foui--
fr--
fri--
fu--
g--
ga--
gaf--
gal--
gard--
ge--
ger--
gi--
gis--
gl--
glli--
go--
god--
gou--
gra--
gri--
gru--
gu--
gui--
gy--
gypti--
h--
ha--
ham--
hap--
haw--
he--
hercu--
hermi--
heu--
hi--
hie--
hil--
ho--
hou--
hu--
hy--
i--
ia--
il--
illy--
im--
imagin--
in--
ins--
inspi--
inte--
io--
ip--
is--
isa--
it--
iv--
j--
ja--
je--
jeu--
jo--
jou--
ju--
k--
ka--
kandi--
ke--
l--
la--
lang--
le--
lec--
lectronn--
lei--
leunai--
li--
lip--
lis--
lit--
lli--
lo--
lon--
lou--
lu--
luc--
ly--
m--
ma--
mad--
mai--
mal--
man--
manus--
mar--
mau--
maund--
me--
mei--
mer--
mes--
meu--
mi--
mie--
mil--
min--
mira--
mis--
mit--
mo--
mon--
mont--
mosco--
mot--
mou--
mouo--
mp--
mpor--
mpres--
my--
n--
na--
naza--
nc--
ncli--
nd--
ne--
neust--
new--
ng--
ni--
nm--
nn--
no--
nor--
nord--
nos--
not--
nota--
nou--
ns--
nscri--
nt--
nu--
o--
obl--
oc--
od--
oe--
of--
og--
ol--
on--
or--
organis--
ori--
os--
ot--
ou--
oui--
oun--
ov--
p--
pa--
pabe--
pai--
pal--
pan--
pap--
par--
pas--
pau--
pe--
pei--
pende--
penta--
per--
ph--
phil--
pi--
pin--
pl--
ple--
plia--
plianc--
pllaun--
po--
pom--
pon--
por--
pou--
poum--
pouo--
pouor--
pour--
prann--
pre--
pri--
pro--
propo--
prou--
pu--
pur--
q--
qu--
qua--
que--
r--
ra--
rai--
rap--
ras--
rd--
re--
reg--
rei--
rempl--
renc--
res--
ri--
rit--
rli--
rme--
rmi--
ro--
ron--
rot--
rou--
rt--
ru--
rue--
rva--
s--
sa--
sam--
sanc--
sau--
sca--
sce--
schie--
se--
sent--
ser--
seur--
si--
sia--
sil--
so--
sor--
sou--
spi--
ss--
st--
stu--
su--
suc--
sul--
sup--
sur--
sy--
t--
ta--
tat--
tchi--
te--
tele--
ter--
terro--
teu--
th--
tha--
thi--
tho--
ti--
to--
tol--
ton--
tou--
tour--
tra--
trans--
tre--
tri--
triga--
tro--
trou--
tru--
tt--
tu--
tum--
tur--
ty--
u--
ur--
us--
ut--
v--
va--
vai--
val--
van--
vas--
vau--
ve--
vei--
ver--
ves--
vey--
vi--
vin--
viole--
vit--
viya--
vlo--
vo--
vocabu--
vol--
volcani--
volcanolo--
vou--
vy--
vyin--
w--
wal--
web--
wil--
x--
y--
ya--
yi--
z--
ze--
α--
θε--
λι--
ν--
πα--
τ--
--0
--1
--2
--3
--4
--5
--6
--7
--8
--9
--a
--ab
--abl
--ac
--ae
--aer
--age
--ai
--aine
--ais
--ait
--al
--ald
--ale
--ales
--am
--an
--ant
--ante
--anus
--aon
--ard
--as
--at
--au
--aunt
--aux
--ay
--b
--be
--berg
--bi
--bl
--ble
--c
--ca
--can
--ce
--ch
--che
--chi
--cht
--cino
--ck
--co
--cq
--cs
--ct
--cte
--ctif
--cy
--d
--dan
--de
--des
--di
--do
--dre
--ds
--e
--ea
--eau
--eis
--el
--ement
--en
--ent
--er
--erie
--es
--et
--eu
--eux
--f
--fe
--ffe
--fs
--g
--ga
--ge
--gi
--ginna
--gni
--gnit
--gos
--gu
--h
--ha
--ham
--he
--hemum
--hes
--hi
--his
--hu
--i
--ia
--ic
--ica
--ie
--iel
--ien
--ient
--iers
--ies
--ieux
--if
--ii
--ik
--il
--ille
--illi
--illie
--iment
--in
--ina
--ine
--inne
--ins
--io
--ion
--ions
--ioun
--ique
--ir
--ire
--is
--ise
--isme
--ison
--iste
--it
--itae
--ite
--its
--ium
--ius
--ive
--j
--k
--ke
--ku
--l
--la
--lae
--lais
--launt
--ld
--le
--les
--let
--ley
--li
--lia
--lin
--ll
--lla
--lle
--lles
--lm
--lo
--ls
--lt
--lteure
--lu
--lyi
--m
--ma
--mas
--mb
--me
--ment
--ments
--mes
--mi
--mme
--mp
--mpre
--ms
--n
--na
--nabl
--nae
--nais
--nal
--nce
--nche
--nchi
--ncie
--nd
--ndi
--ndie
--ndre
--ne
--neis
--nel
--nelle
--nelles
--nes
--net
--ng
--ni
--nia
--nir
--nit
--nn
--nne
--nnes
--no
--nqu
--nre
--ns
--nt
--nte
--nti
--nu
--num
--o
--oe
--omi
--on
--ons
--or
--ort
--os
--osa
--ot
--oun
--ouns
--ouo
--our
--ous
--ov
--p
--pe
--pit
--pos
--ppe
--pt
--qu
--que
--r
--ra
--rae
--raer
--ral
--rand
--re
--rea
--res
--ri
--rie
--ries
--rin
--rit
--rmo
--rn
--rs
--rt
--rte
--ry
--s
--sa
--say
--se
--si
--sia
--sin
--sins
--so
--son
--sse
--ssion
--st
--ste
--stre
--t
--ta
--tae
--tant
--te
--ter
--tes
--teu
--th
--ti
--tia
--tif
--tion
--tle
--to
--tor
--tr
--ts
--tt
--tte
--ttes
--tum
--u
--ud
--ue
--ueil
--uel
--ui
--uie
--ult
--um
--ume
--un
--une
--unt
--unte
--ur
--ure
--urre
--urs
--us
--ut
--ute
--utes
--uve
--ux
--v
--va
--ve
--ves
--vi
--w
--wa
--x
--y
--yau
--ye
--yi
--yine
--yire
--yit
--ys
--z
--ze
--ν
--ς
--υ
