!
"
#
##0
##1
##10
##11
##12
##13
##14
##15
##16
##17
##18
##19
##2
##20
##21
##22
##23
##24
##25
##26
##27
##28
##29
##3
##30
##31
##32
##33
##34
##35
##36
##37
##38
##39
##4
##40
##41
##42
##43
##44
##45
##46
##47
##48
##49
##5
##50
##51
##52
##53
##54
##55
##56
##57
##58
##59
##6
##60
##61
##62
##63
##64
##65
##66
##67
##68
##69
##7
##70
##71
##72
##73
##74
##75
##76
##77
##78
##79
##8
##80
##81
##82
##83
##84
##85
##86
##87
##88
##89
##9
##90
##91
##92
##93
##94
##95
##96
##97
##98
##99
$
%
&
'
(
)
*
+
,
-
.
/
0
00
000
01
02
03
04
05
06
07
08
09
1
10
100
1016
106
11
110
114
12
127
13
14
15
16
17
18
1835
1838
1850
1851
1860
1861
1864
1875
1880
1883
1893
1896
19
1901
1907
1912
1918
1923
1928
1938
1940
1942
1943
1944
1946
1947
1948
1950
1951
1952
1953
1954
1955
1956
1957
1958
1959
1960
1961
1962
1963
1964
1965
1966
1967
1968
1969
1970
1971
1972
1973
1974
1975
1976
1977
1978
1979
1980
1981
1982
1983
1984
1985
1986
1987
1988
1989
1990
1991
1992
1993
1994
1995
1996
1997
1998
1999
2
20
200
2000
2001
2002
2003
2004
2005
2006
2007
2008
2009
2010
2011
2012
2013
2014
2015
2016
2017
2018
2019
2020
2021
2022
2023
207
21
211
22
23
24
25
253
26
27
28
280
29
3
30
300
31
32
325
34
36
365
37
38
39
4
40
400
418
42
45
49
5
50
500
51
53
57
58
6
60
600
62
63
64
65
67
7
70
700
74
748
76
77
8
80
800
81
82
84
9
90
93
95
978
99
:
;
<
=
>
?
[
]
^
_
`
a
aa
aada
aadaaji
aadama
aade
aadee
aagii
aal
aama
aamadu
aamde
aameerik
aamo
aan
aana
aanaare
aani
aarabe
aari
aasiya
aawooje
aawoore
aba
abacha
abadam
abakaliki
abayi
abba
abbeli
abbu
abbuuji
abdi
abdikarim
abdillahi
abdirahman
abdirashid
abdu
abdul
abdulkadir
abdullah
abdullahi
abeokuta
abia
abidjan
abija
abiya
abli
about
abriil
abu
abubakar
abuja
academy
access
accessdate
accessed
acci
accra
act
action
actress
ad
adam
adama
adamaawa
adamawa
adamu
adan
addani
addanii
addata
addi
addis
addude
adebayo
adefarasin
adesanya
adi
adii
administration
ado
adoua
adu
adua
aduna
ae
affairs
afganistan
afiriik
afirik
afirika
afo
afpat
africa
africaine
african
afrik
afrika
afriki
afriknaajo
afriknaaɓe
afrilu
afrique
after
agaie
against
age
agency
agnam
ah
ahmad
ahmadu
ahmed
ai
aidara
aids
air
airborne
aisatu
aise
aisha
aishatu
aje
aji
ak
akintola
akko
akwa
al
alaa
alaande
alaano
alahajji
alawma
albaniya
aldaa
alfaa
alhaji
alhajji
ali
alif
aliyu
aliyyu
aljazeera
aljeri
alkule
all
alla
allaahu
allafrica
allah
alluwal
almaami
almaamiiɓe
almaanya
almamaaku
almuudo
alnde
alngu
alorma
alpha
alqur
alsilamaaku
alumni
aly
am
amadou
amal
amata
amen
america
amerik
amina
aminata
aminu
amma
amp
amriki
amsatou
an
ana
anaa
analysis
anambra
anc
and
anda
andal
ande
andigo
andorra
angal
angola
anna
annabaaɓe
annabi
anndaa
anndaaka
annde
anndeede
anndi
anndini
anndiraa
anndoora
anndude
annduɓe
anne
anngola
anoo
anpp
antananarivo
anɗaɓe
anɗaɗe
anɗaɗo
anɗira
anɗirki
anɗuɗo
aof
apartaayd
apc
appoints
aprie
april
aprilie
ar
ara
arab
arabi
arabia
arabic
aran
arane
aranere
arano
aranɗe
archive
archived
archivedate
archives
archiveurl
arde
ardi
ardiddo
ardido
ardiiɓe
ardiiɗo
ardiɗo
ardugal
ardujo
ardungal
arduujo
arduungal
are
areji
arewa
ari
arii
armaaniya
armenia
arooɓe
art
arti
article
arts
artugal
artuɓe
artuɗe
artuɗo
artuɗun
arɗiɗo
arɗo
arɗugal
arɗujo
arɗuujo
as
asali
asawe
aserbayjan
asibiti
asibitiwal
askira
asli
aslu
asp
aspx
assembly
association
at
atete
atiku
atlantique
au
audu
august
augusta
author
aux
avec
aw
awa
awards
awril
awu
awɗo
ay
ayaawo
aynooɓe
ayo
azu
aɓere
aɗa
b
ba
baa
baaba
baano
baawo
baaɗi
baba
babal
babalola
babangida
bacci
back
badamasi
bago
bah
bahar
baharu
bakari
bakteri
bakteriiji
baku
bala
balde
balewa
ball
ballal
balle
balli
ballital
ballitowo
ballowo
balɗe
bamako
bammbara
ban
bana
banaru
bande
bandirawoo
bandu
bangal
bange
bank
banki
bankiwal
banndiraaɓe
banner
bannge
bano
bantu
baqara
barazil
barkindo
barre
barry
bashir
battane
batu
bauchi
bawa
bawo
bayelsa
bayero
baŋnge
baŋŋe
bbc
be
become
bee
beeli
belaruusiya
belize
beljik
bello
ben
benen
benin
benue
berlin
best
betul
bi
biagal
bial
bibbe
bida
biddo
bikkon
bimbo
bimmbi
bin
bindiwo
binndaaɗe
binndanɗe
binndi
binndol
binndoowo
bintu
binɗowo
biography
biritaani
biritinkeejum
birni
birniwol
biro
birth
bisaawo
biu
biyeteeɗo
black
blench
blueprint
bn
bo
board
boh
bojel
boko
bola
bolle
bone
bonngu
boo
boobo
booboo
bookaar
bookar
books
boowal
borgu
born
borno
bornu
bosnia
bosniya
botswana
bou
boubou
bowtal
bowte
boɗejo
brazil
breaking
britannica
british
brno
bu
buba
bubakar
buguuru
buhari
buk
bukar
bukkwai
bulgaria
bulgariya
bun
buni
bura
burao
burco
burdo
bureau
buri
burii
burkina
business
but
buu
buubakar
buuri
buy
by
c
ca
caad
caadi
caaka
caangol
cabdillaahi
cable
caccess
caccessdate
cae
caffan
caggal
cairo
caka
cali
cambridge
cameroon
cameroun
camp
can
canada
capanɗe
cape
cappanɗe
carchive
carotooɗi
carta
cases
catalog
caɗeele
cdc
ce
cede
cedeao
ceede
ceernaajo
ceerno
cek
cekiya
cellal
center
centers
central
centre
ch
chad
chadi
change
chapter
che
cherif
chest
chibok
chiisme
chiite
chiites
child
children
china
chine
choix
cholte
christian
ci
cia
cifti
ciile
cika
cisse
cita
cite
cities
citizen
citizenship
citta
city
civil
clanguage
climat
climate
clinical
club
co
coast
coggu
cole
colite
college
colte
com
comci
committee
committees
commons
community
company
conakry
conci
congo
congress
conndi
conservative
constitution
content
control
copy
coronavirus
corteeji
cortewol
costa
could
council
country
courses
cov
covid
cpc
created
crisis
cross
cs
ct
ctitle
cukaagu
cukalel
culture
curitiba
curki
cuurki
cuuɓal
cuuɗi
cuɓal
cuɓol
cv
cwebsite
d
da
daabaa
daali
daande
daartol
daawal
daaɓgol
dabbaji
dabbunde
daga
dahi
dahir
dai
daily
dailytrust
dakaar
dakar
dalil
dallol
dam
damal
damaturu
dammbitiima
dan
daneeji
danfodio
dankabo
dankwambo
dans
danyee
danyi
danyimo
danƴaama
dar
dara
daraja
daraki
darde
dari
darnde
dartinde
data
date
dau
daura
daurawa
david
dawla
dawlaaji
dawrugol
day
daya
daygo
daƴaɗo
de
dead
debbo
debe
decemba
december
dee
deemal
deenal
deer
deeƴre
defte
deftere
deftirdu
dei
delta
demal
dembo
demgal
demle
demmba
democratic
demography
demokaraasi
den
denbo
denndaangal
denno
dental
dente
dentuɗe
dentuɗi
department
deputy
der
des
development
dewal
dewgal
dewle
dewo
di
diallo
diarra
dickson
dictionary
didi
die
dies
digiri
digiriwal
dii
diina
diinaaji
diine
diiwaan
diiwal
diiwanuuji
diiwe
dikeh
dikko
dille
dilli
dillooje
dimo
din
dina
diome
disamba
disease
diseases
distance
ditions
diwal
diyam
djaili
do
dogi
doh
doi
dokkal
dokkowo
dominica
don
doole
doon
doosɗe
doropo
dotti
dou
doukoru
doum
doun
dow
dowla
dowlaaji
doy
dr
du
dubi
dujambar
dukku
dum
dun
dunce
dungal
dungou
dungu
duniyaaru
duniyaru
durgol
during
dutse
duttorɗe
duubi
duubii
duujal
duule
duunde
duungal
duuɓi
duuɗe
duɓi
duɗal
də
e
east
ebele
ebiere
ebo
ebola
ebonyi
ecopi
ecowas
ed
edau
ede
eder
edi
edited
edition
edo
edow
edu
education
educational
ee
eede
een
effective
egal
egba
egga
egilis
ei
eii
ejoor
eket
ekiti
ekkitaki
ekn
eko
eku
el
elect
election
elle
emerges
emerging
emir
emo
empire
en
ena
encyclopedia
ene
enen
energy
engele
engeleere
england
english
enngele
eno
enon
entertainment
entre
enugu
environmental
enɗam
eriminmo
error
es
espan
esperanto
est
et
eta
etee
eteende
eteeɗo
ethiopia
ethnologue
etii
europe
european
every
ewodi
ewoodi
expanding
eɓe
eɗau
eɗe
eɗen
eɗer
eɗi
eɗon
eɗum
eɗun
f
fa
faa
faade
faago
faalaa
faamde
faandaare
faaro
faaroo
faati
faatii
faatiiɗo
faatu
faawru
faayiida
fabrairu
facciro
face
facts
faggudu
fahin
famgo
fani
fannu
fannuuji
faransa
faranse
faransi
faransiire
faransiiɓe
farayse
farfesajo
faro
fashion
faso
fatou
fattude
fawaade
fawi
fawii
fayda
fayi
fe
february
feccere
fedde
federal
federba
feebariyee
feen
feere
feewde
feewi
fellel
felliti
femme
femmes
fen
fere
fergu
fetel
fetti
fewndo
fi
fii
fiijo
fiiluɗe
fijirde
fijirɗe
fijo
fika
fiki
fillel
film
filmi
filmiji
filu
fim
fimji
finaa
findeeji
firamare
firamarere
firaministaajo
firdu
fire
firi
first
firti
fitina
fiɓnde
flammarion
flu
fodde
fodio
fof
fombiina
fombina
fombinaare
fombinaari
fommbina
fonnye
fooduye
fooli
for
foreign
former
fota
fotde
fotdeeji
foti
fotii
fotti
foundation
fow
foɗde
fr
franc
france
fred
free
freetown
french
from
ft
fu
fuddi
fuhna
fuhnaje
fula
fuladu
fulani
fulbe
fulfulde
full
fulɓe
funa
funnaange
futu
future
futuuɓe
fuu
fuuna
fuunaa
fuuta
fuɗnaange
fuɗɗi
fuɗɗii
fuɗɗoode
g
ga
gaabu
gaas
gaaɓɗo
gabon
gada
gadano
gal
galle
galleeji
galliol
galluje
galluure
gam
gambia
gamma
gammbi
gan
gana
gandal
ganduje
ganndal
gannde
ganndo
ganni
gari
gas
gasa
gashua
gasi
gasol
gaɗa
gaɗaɗon
gaɗaɗun
gaɗɗo
gb
ge
gebal
gebbal
gebbe
geec
geidam
gel
gelle
gelleji
gellel
gelleɗen
gembitali
general
gennɗe
geno
georgia
german
geɓal
geɓe
geɓol
geɓɓal
geɓɓe
geɗal
geɗe
ghana
ghol
gi
gila
gilla
gimi
gimol
gimɗo
gine
ginenaaɓe
gippert
girei
girgiwal
girls
gite
glez
global
go
godde
goddi
goddo
godo
goje
gol
goli
gollal
golle
golleeji
gollital
golwole
gombe
gomnaajo
gomnajo
gon
goncourt
gonde
gondi
gongal
goni
gonii
gonnooɗo
gonɗe
gonɗi
gonɗo
gonɗun
goo
goodluck
google
goomu
goonga
gootal
gootel
gooto
gootol
goppitgol
gora
gorgal
gori
goriraaɗo
gorki
gorko
goro
gorol
gorooje
gotel
gov
government
governor
governors
governorship
govt
goɗɗe
goɗɗi
goɗɗo
goɗɗun
grand
gre
group
gu
guardian
guggal
guide
guine
guinea
guluuji
gumel
gummagummagooss
gure
gusau
gwamna
gwamnati
h
ha
haa
haade
haader
haajooni
haaju
haajuuji
haako
haala
haalde
haani
haaniri
haara
haaraan
haatirde
haaɓe
haaɗe
haaɗtirde
habar
habaru
habaruji
habrirde
hade
hadeer
hadiza
hai
haire
hairene
haji
hajji
hakke
hakkil
hakkilango
hakkille
hakkilo
hakkude
hakkunde
hakkundeeri
hakkunɗe
hakkuɗe
hala
halartake
halima
hamborg
hamburg
hamdallaahi
hamdallaay
hampaate
hamɓe
han
hande
hangal
hanje
hanjene
hanjun
hanko
hankone
hannde
hannko
hanɓe
hanɗe
happu
hara
haram
haray
hare
harfeere
hargeisa
hari
harkaaji
harkaji
has
hashidu
hasii
hassan
haure
hausa
hausare
haute
hauti
hautibe
hautirde
hautirɗe
hautiɓe
hautugo
hautuki
hautuɓe
hautuɗe
hawra
hawri
hawrii
hawsare
hawti
hawtiti
hawtude
hay
haydara
hayre
hayso
haŋkadi
haɓaade
haɓɓere
haɗi
he
health
heart
hebgo
hebi
hedde
heddii
hee
heen
heewaani
heewde
heewi
heewɓe
heewɗi
heeɓi
heitina
hella
helmere
help
hen
hendu
henndu
henry
her
herzegovina
hewtaynoo
hewti
heɓa
heɓaali
heɓde
heɓi
heɓii
heɓoyi
heɓti
heɓugol
hi
high
hiirnaange
hiite
hikayata
hill
himme
himmini
himo
himɓe
hindi
hindou
hindu
hinnde
hinno
hino
hirna
hirnaange
hirnajun
his
hisaago
hisbah
histoire
historical
history
hitaade
hitaande
hitadee
hitande
hitannde
hitanɗe
hittande
hiɓe
ho
hokka
hokki
hokkimo
hol
holli
hollii
hollini
hollira
hollirde
hollirii
hollirta
holliti
hollitii
holno
home
hon
hong
hono
honoɓe
hoodere
hoohooɓe
hoolaare
hoon
hoore
hooreejo
hooreeɓe
hoorugol
hooti
hore
how
hoɗo
hoɗuɗo
htm
html
http
https
hujjaaji
hukuma
hukumaji
hukumare
human
humpito
hunuko
hutaaɗe
hutirɗe
huunde
huutirde
huutoraade
huutoreede
huuwi
huwa
huwii
huyi
huɗo
i
ibadan
ibn
ibom
ibrahim
id
idris
if
igbo
ii
iii
iiri
iisaa
ikkitigo
iko
il
ila
ilmu
immorde
imo
in
ina
inaaje
inaare
inaje
inare
inde
independent
index
indigenous
indimi
indiya
industry
ine
inec
infections
infectious
influenza
info
information
ingantaagu
ini
inna
innde
inne
innetee
inni
inniraa
inniri
institute
int
international
into
inuwa
invalid
inɗe
iran
irin
is
isa
isaaq
isbn
isinji
islaam
islam
islama
islamic
island
issn
isyaku
it
italian
italinaaɓe
italiya
itam
itti
ittude
ivory
iwde
iwdi
iwi
iwodi
iyo
iyya
j
jaagorɓe
jaajirka
jaaliba
jaamu
jaaynde
jaaɓi
jaggi
jagwarɗo
jairi
jajirka
jallo
jaloo
jaloŋ
jalunkeeɓe
jam
jama
jamaa
jamaanu
jamaica
jamhuriwal
jamhuriyawal
jami
jamma
jamme
jamu
jamus
jamɗe
jan
janairu
janar
janarjo
jande
jangi
janginki
jangirde
jangirdee
jangirɗe
jangirɗee
jangugo
jannde
jannga
janngi
janngirde
janngirɗe
janngo
janngooɓe
janngude
jannguɓe
jannɗe
jantabu
january
janɗe
jara
jarida
jarumijo
jaudi
jaura
jawaan
jawdi
jaŋde
jaɓde
jaɓi
je
jean
jee
jeegom
jeenay
jeereende
jeeri
jeeɗiɗi
jego
jel
jemma
jenner
jeune
jewe
jewego
jewenayi
jeyaa
jeyaaɗo
jeyanoo
jeydi
jeytaare
ji
jibanto
jibinaa
jibinaaɗo
jibinannde
jibini
jie
jigawa
jihaadi
jiidi
jiki
jikku
jime
jiwo
jo
jodi
joe
jogaade
jogaake
jogake
jogi
jogii
jogiino
jogiiɓe
jogiiɗo
joginoo
john
jojjannde
jojjanɗe
jokki
jokkondiral
jokkondire
jokkude
jolal
jolie
jom
jommbaajo
jommbente
jonarjo
jonathan
jonde
joni
jonii
jonnde
jonni
jonnta
jonnɗe
jonta
jonte
jonɗe
joom
jooma
jooni
joseph
jotinooje
jotta
jottori
journal
jowe
jowee
joweego
joweenay
joweenayi
joweetati
joweeɗiɗi
jowi
joy
joyi
joɗarde
joɗarɗe
joɗerde
joɗergal
joɗerɗe
joɗi
joɗiɓe
joɗori
joɗorɗe
js
juggol
juko
julde
juldeere
julie
july
julɓe
julɗo
june
jungo
junngo
juulɓe
juulɗo
juuti
juuɗe
k
ka
kaa
kaaldigal
kaalisi
kaaso
kaaƴe
kabaruuji
kabiru
kaddi
kadi
kadibo
kadima
kaduna
kahin
kaire
kala
kam
kamani
kamano
kamaru
kamarun
kamerun
kamfani
kamfaniiji
kamfaniwal
kamma
kammbooja
kammu
kamwe
kamɓe
kan
kanada
kanje
kanji
kanjim
kanjum
kanjun
kanka
kankan
kanko
kankoo
kannko
kannywood
kano
kanum
kanuri
kanyum
kapital
karallaagal
karamoko
kareeli
kasar
kasoo
katsina
kautal
kauti
kautugal
kawrital
kawtal
kay
kaydara
kaŋko
ke
kebbi
keefeero
keengu
keenguujo
keenguuɓe
keeri
keerol
keewal
keewdi
keewi
keewɗe
keewɗi
keewɗo
kelme
kendall
kenya
kerol
kese
keso
keytaa
khadidiatou
ki
kii
kiiɗo
kilomita
kilomiteer
kimiyya
kin
kingdom
kinnaɗo
kinndiyaa
kiri
kirista
kisa
kisal
kisan
kitaale
klerk
km
know
ko
koddiwaar
kodduwaar
koe
kogi
koh
koko
kolon
kolonaaku
komo
kon
konaakiri
kong
kongol
koninkooɓe
konngo
konngol
konnguɗi
kono
kononi
konte
konu
konuu
koo
koolaaɗo
koonu
koorka
korea
koreeji
korona
korowaasiya
korse
korso
kowoni
koy
koyahri
koyɗe
koɗun
ku
kugal
kuje
kukawa
kulle
kullum
kuma
kumasi
kumo
kun
kure
kuri
kust
kuugal
kuule
kuungal
kuuɓal
kuuɗe
kuwaiti
kuyaate
kuɗe
kwaleji
kwankwaso
kwara
kwasam
kyari
kɑ
l
la
laabi
laagos
laam
laamaandi
laamateeri
laamii
laamiima
laamiiɗo
laamlaamu
laamorde
laamorgo
laamorɗo
laamu
laamuuji
laamuyaŋke
laamɓe
laamɗo
laataade
laati
laatii
laatiinou
laatino
laawol
labe
labiriyaa
ladde
lagine
lagos
lamba
lamido
lamiɗo
lammini
lamo
lamorde
lamorɗe
lamou
lamu
lamurajje
lamurde
lamɓe
lamɗo
language
languages
lannda
lansana
laos
lapai
lappol
larabanko
laral
lardi
lardu
larme
lasgi
lasgol
lasli
last
latake
lati
latin
latiɗe
latiɗun
lattake
lattaki
latti
lattido
lattiɗe
lattiɗo
law
lawan
lawul
le
leadership
lebbi
ledde
leddi
leeɓte
lefol
lekki
lelngo
len
lenyol
les
lesde
lesdi
lesɗe
lesɗi
leuro
leuru
lewru
ley
leyde
leydeele
leydi
leysdi
leysɗi
leyyi
leyɗe
leyɗeele
leyɗi
leƴƴi
leɗɗe
lga
li
libiya
library
libya
liddi
lidi
lien
life
ligne
lik
lilin
limgal
limited
limle
limlebbi
link
lislaam
lislaamu
list
listen
litte
litugal
living
liz
liɓi
lo
lobi
local
location
lokoja
lollude
lome
lomtii
london
lookup
loolu
lootoo
los
louis
lowre
ltd
lumo
lutti
luttuɓe
luttuɗe
luumo
luumooji
luuɓe
luɓe
lysdi
lysidi
m
ma
maa
maagal
maaje
maako
maali
maama
maanaa
maare
maari
maaro
maasina
maayde
maayi
maayo
maayɓe
maaɗum
mabbe
mabbo
machine
madagali
made
madiina
madun
magal
magazine
maggal
mahide
mai
maiduguri
maint
majalisa
majalisu
majin
majje
majji
major
majun
make
making
makka
makko
mako
mala
malami
mali
malle
mammadu
mamman
man
management
mandara
mandiŋkooɓe
manga
mangal
mango
mangol
mangou
mangu
manndelaa
manndinkooɓe
manngal
manugo
map
maplandia
march
mare
mari
mariama
marie
marii
maris
mark
maroc
married
mars
marse
martin
marwa
mary
maryam
mask
masks
maskuuji
maude
maugo
maugu
mauɓe
mauɗe
mauɗo
mauɗun
mawde
mawgu
mawnde
mawndi
mawngal
mawngu
mawni
mawnude
mawɓe
mawɗe
mawɗi
mawɗo
may
mayde
mayi
mayie
mayo
mayor
mayre
mayri
mayu
maɓɓe
mba
mbaadi
mbaawaa
mbaawi
mbaawka
mbass
mbatu
mbedda
mbele
mbertudi
mbgn
mbi
mbiya
mbiyata
mbiyen
mbo
mbooy
mboros
mboy
me
medgo
media
medical
meeɗaa
memba
membaajo
membajo
men
meɗi
mi
michael
michika
micro
microbiology
middle
miijo
miijooji
miin
mil
miliyan
miliyanji
miliyon
miliyonji
min
minista
ministaajo
ministajo
minister
ministerial
ministers
ministry
miniteeriiɓe
minna
minsk
misal
misiide
misira
misra
missal
missing
mission
miɗen
miɗo
mo
mobgal
model
modibbo
mogdaad
mogdad
mohamed
mohammad
mohammed
mohamoud
momee
mon
monde
monrovia
moo
moodi
moodibbo
moolo
moorol
more
moritani
morocco
morooku
morse
morso
moscow
most
mother
mou
movement
movie
mozdahir
moƴƴere
moƴƴi
moƴƴo
moɗun
mu
mubi
muhamadu
muhammad
muhammadu
muhammed
mujdahir
mum
mun
muritani
musa
musamman
musiba
music
musidal
musiɓɓe
mutilations
muttaar
muusaa
muuɗum
muɗun
my
mɓe
n
na
naa
naajeeriya
naajeriya
naange
naata
naatde
naati
naatii
naatugol
naayi
nabbe
naburaska
nafakkaaji
nafi
nafisat
nafoore
nagge
nai
nain
nairobi
najeeriya
najeriya
nalde
names
nan
nana
nangi
nani
nanii
nanndi
nanngaa
nano
nanondiral
nasa
nasara
nasir
nasru
nasta
nasti
nate
nati
nation
national
nationale
nations
nattii
nawna
nawnaaje
nawnaare
nawnudo
nay
nayi
nayo
ncov
nd
ndan
ndar
nde
ndee
ndeen
ndema
nden
ndenbo
ndenndaandi
nder
ndi
ndii
ndiin
ndimaagu
ndimaaku
ndin
ndiyam
ndiyan
ndu
ndumsa
ndun
ndungu
ndunngu
nduu
nduungu
ne
neddo
needi
neene
neesu
neesuji
neja
nekk
nelaaɗo
nelson
nembe
net
never
new
news
newspaper
newspapers
neɓɓan
neɗɗaagal
neɗɗaŋke
neɗɗo
ng
nga
ngaal
ngaan
ngaari
ngaaɗi
ngada
ngal
ngalaa
ngalu
ngam
nganndu
ngari
ngartam
nge
ngee
ngel
ngenndi
ngenndiije
ngigili
ngizim
ngo
ngol
ngomna
ngomnaajo
ngomnajo
ngon
ngonaa
ngoni
ngonii
ngonka
ngoo
ngoodi
ngool
ngoon
ngooni
ngootaagu
ngooɗi
ngu
nguleeki
ngun
nguru
nguu
nguun
nguurndam
ni
niawdugol
niger
nigeria
nigerian
nih
nii
niijer
niil
niiser
niiseriya
nijer
nike
nipost
nit
njaay
njangara
njeenaari
njeyaa
njiimaandi
njiimanteeri
njogii
njuuteendi
njuɓɓudi
no
noddi
noddira
noddirta
node
noire
nokke
nokkeeli
nokku
nokkuuji
nokkuure
nollywood
non
noo
nooda
noogaas
noogas
noon
noone
nooneeji
noowammbar
north
northern
norway
not
note
nouakchott
nouvelles
novel
november
now
noɓe
nuhu
nukkure
nulaaɗo
numugo
nun
nunɗal
nupe
nuuru
nuwamba
nwoilaah
ny
nyalaande
nyalɗe
nyannde
nyibgal
nyolɗe
nɗe
nɗer
nɗi
o
obasanjo
obi
obiano
octoba
october
of
off
offered
official
ofiswal
ofuɗɗi
ogbor
ogun
oil
ojangi
oktoba
oktoobar
ol
old
olusegun
omar
omayi
omeɗi
omo
on
ondo
one
online
onn
ontigi
ontuma
oo
oon
ooro
ooɓe
opec
opinion
opold
oppirooɓe
or
org
organisation
organism
organization
original
orop
oropnaaɓe
oseyaaniya
osman
osun
other
otimmini
oto
ou
ouagadougou
oumar
oumarou
our
ousmane
out
over
owarti
owned
owodi
oxford
oyehi
oyo
oɗon
p
pa
paawngal
page
pages
paggiri
pakistan
pamare
pamaren
pamari
pamaro
pamarre
pamarun
pandemic
pandogari
pantami
par
parameter
parents
pari
paris
parti
partiwal
party
pas
patrick
paɗɗi
pcr
pdf
pdp
pecce
peeje
peen
peeral
peewal
pelle
pellet
pellital
people
peoples
perefektiir
persidan
person
peter
peul
peuls
pg
php
piiji
pikir
pinal
pine
pingegol
piyeer
pl
place
plants
pmc
pmid
police
political
politics
politiki
pollution
poloonya
polytechnic
poolgu
population
por
porto
portrait
post
postcode
potal
poti
potiskum
pour
power
pp
prague
pre
premier
premium
premiumtimesng
president
presidential
press
pretty
prevention
primary
prime
priministaajo
privately
prix
profile
progressive
progressives
project
public
published
publisher
pulaaku
pulaar
pular
pullo
pulse
punch
punchng
pur
puyye
q
qadiri
qiissa
que
qui
quotidien
qur
r
rabat
rafi
rafiiji
rahama
rajo
raneeɓe
rd
re
read
red
redirection
reedu
reende
ref
regional
remoɓe
rence
renndinde
renndini
renndo
report
republic
res
research
resondirta
retrieved
reube
reuters
review
rewde
rewi
rewo
rewɓe
ria
richard
rif
rima
rimɓe
risku
ritaya
rivers
ro
road
robert
roger
rokki
rokkude
roma
roman
romanized
rome
ronki
roosiya
roport
rouɓe
roɓe
rufai
rum
rus
s
sa
saa
saabi
saali
saanga
saare
sabaabu
sabo
saboe
sabu
sadau
sadiq
safety
saffo
saffoi
safrude
sago
saha
sahaa
sahaaji
sahara
sahel
sahle
sai
saidy
saint
sakandare
sakandarere
sakatare
sakatarejo
sakket
sal
salaade
saleh
sali
salii
sammba
san
sana
sanata
sanatajo
sani
sankii
sanne
sappande
sappo
sappoje
sara
saraade
saraaji
sarauniya
sarde
sare
sareji
sariif
sariya
sariyaaji
sarliyon
satumba
saudi
saw
saydu
sayku
says
saŋkii
school
schools
science
sciences
se
sea
secondary
section
sedto
see
seeda
seedanfaagu
seek
seeku
seerenɓe
seernaaɓe
seeɗa
seeɗto
segu
sek
sella
semmbe
semɓe
sen
senate
senator
sence
senegaal
senegaalnaajo
senegal
seniiɗo
senngo
seppooɓe
september
service
services
ses
setto
seyku
seɗɗa
shaaka
shaka
shall
shari
shede
shehu
sheikh
shelleng
shirirursi
shubal
shubtal
shubtugo
shuɓal
si
sibu
sida
sierra
sifaa
sifaaji
sih
siifa
siilo
siin
sikkaa
sikke
sikki
silanyo
silo
silto
simooje
simoore
sincaa
sinci
sinno
sir
siryago
siryaki
siyaasaaji
siyasa
siyasaje
siyasaji
siyasajo
so
sobajo
social
society
soh
soiti
soja
soji
sojien
sokoto
solji
soljien
somaali
somaaliya
somali
somalia
somaliland
son
sonnaajo
sool
south
sow
special
sq
square
src
st
star
stars
state
states
statistics
status
stefania
still
stories
story
stub
studies
study
subaka
subta
subtaama
subtal
subti
subtimo
subtugo
sud
sudaan
sudan
suddiiɓe
suddiiɗo
suka
sukaaɓe
sule
suleiman
sultan
sulyee
sun
sunday
sungullaji
sunna
support
sur
suudu
suumayee
suwee
suɓal
suɓii
sweden
t
ta
taal
taali
taalibaaɓe
taalol
taaraade
taariika
taayaka
tafawa
tafida
tagi
tagopeeje
taho
takko
tal
tampere
tan
tangale
taraba
tarawore
tataɓo
tati
taw
tawa
tawaa
tawaangal
tawde
tawe
tawee
tawi
tawii
tawnoo
tawo
tawti
tawtoreede
tax
tayaaka
taytu
tb
te
technical
technology
teddungal
tedduɗo
tee
teelal
teem
teemedannde
teemedere
teemeɗɗe
teeminannde
teewu
teeŋti
teeŋtii
teeŋtini
teeŋtude
tefgo
tefki
tegal
teli
temmeddanɗe
template
tentinii
terelin
terɗe
test
testing
testuuji
tf
th
that
the
thecable
their
then
thenationonlineng
they
this
tigga
tiggi
tigguki
tigi
tiitoonde
tijjaani
tijjani
time
times
timmini
timminki
timmoode
timmungal
tinndi
tinubu
tirana
title
tl
to
toe
togo
toh
tokkuɓe
tokosel
tokoson
tolno
ton
tonngoode
tonto
too
toon
tooro
tooroɓɓe
toowngal
top
touci
tour
toure
town
toɓa
toɓo
toɗɗaa
toɗɗii
traditional
translation
transmission
trees
truss
trust
tsamiya
tu
tufleeji
tuggi
tuggude
tuma
tumaani
tun
tunusiya
turanko
turkiyya
tutawal
tuubakooɓe
tuugii
tuuginorde
tuur
tuure
tuuree
tuvalu
tv
types
u
udditi
ugol
ujunere
ujunnaaje
uk
ukba
um
umar
umaru
ummatore
ummi
ummii
ummu
un
une
unesco
uneskoo
union
united
universite
universitee
university
unrecognized
unɗe
up
url
us
use
usmaan
usman
usmanu
ustii
ustiima
ustude
uy
uɗo
v
vaccination
vaccine
vaccines
van
vanguard
vanguardngr
ve
vella
ventre
vienna
view
village
vincent
violence
virus
voice
voix
vol
volume
voyage
w
wa
waa
waadi
waadii
waaju
waali
waasa
waasde
waati
waawa
waawaa
waawde
waawi
waaɗi
waccin
waccinji
wada
wadde
waddi
wadgo
wadi
wadii
wai
waila
wakilijo
wakiljo
wakiltiɗo
wakkare
wakkati
wakkatire
wakkere
wakkitire
waktu
wala
walaa
waladu
walla
wallii
walliti
wallu
wallude
wan
wanaa
wangi
wani
wanngiriin
wanni
wano
war
waraa
warde
wari
warii
warngo
warti
was
washington
wat
watch
wati
wato
watson
watta
watti
wawi
wawii
wawuki
way
wayback
wayi
wayla
wayno
waɗa
waɗaa
waɗata
waɗde
waɗee
waɗeede
waɗi
waɗii
waɗon
waɗti
waɗugo
waɗɗi
we
wearing
web
website
week
weeyo
wellitaare
welo
were
wergu
werto
west
when
which
who
why
wi
wii
wiigo
wiki
wikimedia
wikipedia
will
williamson
winnda
winndannde
winndere
winndi
winndiyaŋke
winndude
winndugol
wins
wisit
with
wiya
wiyde
wiyee
wiyetee
wiyetenoo
wiyetnam
wiyi
wiɗto
wiɗtooji
wo
wobbe
wodi
wodii
woila
woje
wokilijo
wokiljo
wolde
wolla
women
won
wona
wonaa
wonande
wonani
wonata
wonde
wondi
wondude
woni
wonii
woniri
wonnde
wonno
wonnoo
wont
wonta
wonti
wonude
wonɓe
wonɗe
woo
woodi
woodii
wooni
woonii
woote
wootere
woowi
wooɗi
woppude
word
worgo
work
world
worldstatesmen
worɓe
wota
woyla
woɓɓe
woɗaaɓe
woɗi
woɗon
woɗɓe
woɗɗi
wudil
wuhan
wurgo
wuro
wurtake
wurti
wurtinki
wutte
wuttudu
wuttuɗu
wuudu
wuurde
wuuri
wuuro
www
x
xam
y
ya
yaa
yaade
yaadu
yaahi
yaahri
yaake
yaari
yaasi
yaawde
yaawi
yaayaa
yaaɓani
yadu
yaha
yahaya
yahde
yahi
yahii
yahirki
yahri
yahugo
yahugol
yake
yakeman
yakubu
yalde
yalji
yalta
yalti
yaltini
yaltinii
yaltude
yalɗe
yamgo
yan
yande
yani
yantude
yanɗe
yar
yaram
yari
yarkooma
yarkuma
ye
year
yeeso
yeewtere
yehi
yen
yentike
yerevan
yero
yeru
yeso
yettoode
yi
yiiloo
yiite
yimbe
yimi
yimmɓe
yimɓe
yiyannde
yiɗaa
yiɗde
yiɗi
yo
yobe
yoda
yoga
yola
yonta
yontere
yontii
yoo
york
yotti
you
your
yoɓe
yumma
yummiraaɓe
yumɓe
yurmeende
yuroopu
yusuf
yuusuf
yuɓɓinde
yuɓɓo
z
zabe
zainab
zaman
zamfara
zango
zaria
zariya
zaynab
zee
zika
{
|
}
§
«
°
²
·
»
đo
ŋ
ƙarnu
ƙiyastake
ƴ
ƴetti
ɓ
ɓaawo
ɓadaaki
ɓaleejo
ɓaleeri
ɓaleeɓe
ɓalewa
ɓamtaare
ɓamtude
ɓandu
ɓangal
ɓanndu
ɓannɗu
ɓawo
ɓayri
ɓe
ɓee
ɓeen
ɓen
ɓenni
ɓere
ɓernde
ɓerɗe
ɓesngu
ɓeydi
ɓeydii
ɓeydoo
ɓeynguure
ɓi
ɓii
ɓiire
ɓilimo
ɓiy
ɓiyi
ɓiyiiko
ɓiɓɓe
ɓiɗɗo
ɓoggee
ɓooyaani
ɓornogul
ɓur
ɓura
ɓural
ɓurgol
ɓuri
ɓurnde
ɓuru
ɓurɓe
ɓurɗe
ɓurɗi
ɓurɗo
ɓurɗun
ɓuuri
ɓuuɓde
ɗ
ɗaa
ɗam
ɗan
ɗantoro
ɗanyaama
ɗanyi
ɗanyiimou
ɗanyimo
ɗau
ɗaɗi
ɗe
ɗebe
ɗee
ɗeen
ɗembo
ɗemgal
ɗemle
ɗemmbo
ɗemngal
ɗemɗe
ɗen
ɗenbo
ɗenno
ɗenɗe
ɗer
ɗereji
ɗeɓe
ɗeɗun
ɗi
ɗii
ɗiin
ɗimmere
ɗin
ɗingal
ɗistinore
ɗiɗaɓo
ɗiɗaɓun
ɗiɗi
ɗiɗo
ɗiɗun
ɗo
ɗon
ɗoo
ɗoon
ɗowgu
ɗu
ɗum
ɗumngu
ɗun
ɗungal
ɗungu
ɗunɓe
ɗunɗun
ɗuum
ɗuun
ɗuuɓi
ɗuuɗal
ɗuuɗi
ɗuuɗirka
ɗuuɗude
ɗuuɗuki
ɗuuɗuɗi
ɗuɗirka
ɗuɗugo
ɗuɗuki
ɗuɗɓe
ɗuɗɗe
ɗuɗɗi
ɗuɗɗun
ʼ
ʾ
ʿ
ˈ
ˌ
ː
ˤ
̀
́
̂
̃
̄
̆
̈
̌
̛
̣
̦
̧
̩
̯
θ
؟
ا
ال
ب
ة
ت
ح
د
ذ
ر
ز
ظ
ع
ف
ق
ك
ل
م
ن
ه
و
ى
ي
ً
ٌ
َ
ُ
ِ
ّ
ْ
ٓ
ٔ
ٕ
​
‎
‏
–
—
‘
’
“
”
„
†
•
…
‮
′
″
⁏
€
↔
↷
③
④
⑦
ⴰ
ⴹ
⹁
⺀
⺄
⺆
⺈
⺊
⺌
⺕
⺝
⺸
⺼
⿰
⿱
⿲
⿳
⿴
⿵
⿶
⿷
⿸
⿹
⿺
⿻
〢
コ
ユ
㇁
㇂
㇄
㇇
㇈
㇉
㇓
㐁
㐄
㐅
㐌
㐫
㐬
㐭
㐮
㐱
㑒
㒵
㒸
㒼
㓁
㓞
㔾
㕛
㕣
㖾
㘝
㚅
㚇
㚔
㚘
㝉
㝡
㝴
㝵
㞋
㞢
㞷
㠩
㠭
㠯
㡀
㡭
㡿
㢲
㢴
㣇
㣺
㥯
㪅
㫄
㫐
㫒
㫺
㬅
㬎
㬥
㬰
㲋
㳄
㷠
㸒
㸚
㸦
㼌
㼲
㽞
㿟
䀠
䂞
䍃
䏍
䒑
䖍
䖒
䖝
䖵
䙴
䚻
䜌
䝿
䡛
䧹
䪞
一
丁
丂
七
丄
丅
丆
万
丈
三
上
下
丌
不
与
丏
丐
丑
专
且
丕
世
丘
丙
业
东
丞
丢
丣
两
严
並
丨
丩
个
丫
丬
中
丮
丰
丱
串
丵
丶
丷
丸
丹
为
主
丽
丿
乀
乂
乃
久
乆
乇
么
义
之
乌
乍
乎
乏
乐
乑
乔
乖
乗
乘
乙
乚
乛
乜
九
乞
也
习
乡
乳
乾
亀
亅
了
亇
予
争
事
二
亍
于
亏
亐
云
互
亓
五
井
亘
亚
亜
亞
亟
亠
亡
亢
交
亥
亦
产
亨
亩
享
京
亭
亮
亯
亰
亲
亳
亶
亷
人
亻
亼
亾
仁
今
介
仌
从
仐
仑
仒
仓
仕
他
付
仝
代
令
以
任
企
伊
伏
伐
休
会
伯
但
位
何
佘
余
作
佥
使
來
侈
侌
侖
侯
侵
便
保
俞
信
修
倉
倍
候
倠
備
僉
僕
儿
兀
允
兂
元
兄
充
兆
兇
先
光
兊
克
兌
免
兑
兒
兓
兔
党
兜
兟
入
全
兩
兪
八
公
六
兮
兰
共
关
兵
其
具
典
兹
兼
冀
冂
冃
冄
内
冈
冉
冊
冋
册
再
冎
冏
冐
冒
冓
冖
冗
冘
军
农
冝
冡
冥
冫
冬
冷
几
凡
凢
凵
凶
凷
凸
凹
出
函
凾
刀
刁
刂
刃
刄
刅
分
切
刍
刑
刕
刖
列
刘
则
初
別
利
别
到
制
刺
則
削
剌
前
剡
剽
劉
力
功
加
劦
助
劫
劳
劵
勃
勇
勉
勒
動
務
勞
勤
勹
勺
勻
勾
勿
匀
匂
包
匆
匈
匊
匋
匍
匕
化
北
匚
匝
匡
匪
匱
匸
匹
区
医
匽
匿
區
十
卂
千
卄
卅
卆
升
午
卉
半
卌
华
卑
卒
卓
单
卖
南
卜
卝
卞
占
卡
卢
卣
卤
卦
卩
卪
卬
卯
印
危
即
却
卵
卷
卸
卻
厂
厃
厄
历
厈
厉
厌
厓
厘
厚
原
厤
厥
厨
厭
厲
厶
厷
厸
去
厼
厽
叀
参
參
叅
又
叉
及
友
双
反
叐
发
叒
叔
叕
取
受
叚
叜
叟
口
古
句
另
叩
只
召
可
台
叱
史
右
叵
号
司
叹
吂
各
吅
合
吉
吊
吋
同
名
后
吏
向
吕
君
吝
吞
否
含
启
吳
吴
吹
吾
呂
呆
呈
告
员
呙
周
命
咅
和
咎
咠
咢
咨
咸
咼
哀
品
哉
員
哥
哲
唐
商
啇
問
啚
啬
啻
善
喜
喬
單
喿
嗇
噩
嚴
囊
囗
囘
囙
囚
四
回
囟
因
囧
囬
困
囱
囷
固
国
圂
圅
國
圍
圓
土
圡
圣
圥
在
圭
地
圶
圼
坐
坒
坚
坴
垂
垔
垚
埀
埋
埶
執
基
堂
堅
堆
堇
堯
塞
墨
壘
士
壬
壯
声
壳
壴
壹
壺
壽
夂
处
夅
夆
备
夊
夋
夌
复
夏
夒
夕
外
夗
夘
多
夜
夢
大
夨
天
太
夫
夬
夭
央
失
夲
头
夷
夸
夹
夻
夾
奂
奄
奇
奈
奉
奎
奏
奐
契
奓
奔
奚
奞
奠
奢
奥
奭
女
奴
奻
好
如
妄
妙
妟
妥
妻
妾
姑
委
姜
威
娄
婁
婴
嬰
嬴
子
孑
孔
孕
孖
字
存
孚
孛
孝
孟
季
孤
学
孫
孱
學
宀
宁
宂
它
宅
宇
守
安
宋
完
宏
宓
宗
官
定
宛
宜
宝
客
宣
室
宮
宰
害
家
容
宾
宿
寄
寅
密
富
寒
察
寧
審
寫
寬
寮
寸
对
寺
寻
寽
対
寿
封
尃
射
将
將
專
尉
尊
尋
尌
對
小
少
尒
尓
尔
尖
尗
尚
尞
尢
尣
尤
尧
尨
尭
就
尸
尹
尺
尻
尼
尽
尾
尿
局
居
屈
屋
屎
屏
屑
展
屖
屚
属
屠
屡
屬
屮
屯
屰
山
屵
屾
岁
岂
岑
岡
岩
岳
岸
峯
島
崇
崑
崔
崖
崙
崩
嵬
嶲
巂
巛
川
州
巟
巠
巢
巤
工
左
巧
巨
巩
巫
差
己
已
巳
巴
巷
巸
巽
巾
巿
帀
市
布
希
帚
帛
帝
带
師
席
帶
常
干
平
年
幵
并
幷
幸
幺
幻
幼
幽
幾
广
広
庄
床
底
店
庚
府
度
庫
庭
庶
康
庸
廉
廌
廛
廣
廩
廴
延
廷
建
廾
廿
开
弁
弃
弄
弇
弋
式
弓
弔
引
弗
弘
弜
弟
弥
弦
弱
張
強
强
彊
彌
彎
彐
彑
当
彔
录
彖
彗
彡
形
彥
彦
彧
彭
彳
役
彼
往
待
律
徒
得
徙
從
復
微
徵
心
忄
必
忌
忍
志
忝
忠
忩
快
念
忽
忿
思
怠
急
怱
恆
恒
恩
恭
息
悉
患
悤
悲
悶
惠
惡
惢
愁
愈
意
愛
感
慈
慧
慮
憂
憲
應
戀
戈
戉
戊
戋
戌
戍
戎
成
我
戒
戔
或
戚
戠
戢
截
戲
戶
户
戹
戼
戾
房
所
扁
扇
手
扌
才
打
托
执
承
折
拉
拜
拿
掌
推
提
摩
支
攴
攵
收
攸
改
放
政
敄
敏
敕
敖
敗
敝
敞
敢
散
敦
敫
敬
数
敷
數
斂
文
斉
斊
斗
斤
斥
斩
斬
斯
新
方
於
施
斿
旁
旋
族
无
旡
既
旣
日
旦
旧
旨
早
旬
旱
旲
时
旾
昆
昇
昌
昍
明
昏
易
昔
昗
昜
星
春
昬
是
昱
昴
昷
時
晃
晋
晏
普
景
晶
智
暑
暴
曇
曩
曰
曲
曳
更
曷
書
曹
曼
曾
替
最
朁
會
月
有
朋
服
朔
朕
朗
望
朝
木
朩
未
末
本
札
朮
术
朱
朵
朶
朿
杀
杏
杜
束
条
来
東
杲
杳
松
析
林
枚
果
枝
枲
枼
某
柔
查
柬
柰
柴
栗
桀
桑
桼
梁
條
梟
梨
棘
棠
棥
森
楚
業
楽
榮
樂
樊
欠
次
欣
欮
欲
欶
欽
款
歆
歇
歛
止
正
此
步
武
歨
歪
歮
歯
歰
歲
歴
歷
歸
歹
歺
死
殳
段
殷
殸
殹
殺
殻
殿
毋
毌
母
每
毒
比
毕
毚
毛
毳
氏
氐
民
气
氣
水
氵
氶
氷
永
氺
氾
求
汝
汞
江
沃
沓
沙
沝
泉
法
波
泣
泥
泰
洛
洪
活
派
流
浦
浪
浮
淡
淮
清
渚
渠
湯
滿
漸
火
灬
灭
灰
灵
灷
炅
炎
炏
炗
炙
炭
為
烈
烏
烝
焉
無
焦
焱
然
煞
熊
熏
燕
營
燮
爪
爫
爭
爯
爰
爱
爲
爵
父
爻
爽
爾
爿
片
牙
牚
牛
牜
牟
牢
牧
牪
牽
犀
犬
犭
犮
狂
狄
狊
独
狺
猋
猒
猪
献
獻
玄
率
玉
王
玟
玨
珎
班
琴
瑟
瑩
瓜
瓦
甘
甚
生
産
用
甫
甬
田
由
甲
申
电
甶
男
甸
甹
画
甾
畀
界
畏
畐
留
畜
畟
畢
畧
畨
番
畫
異
畱
當
畺
畾
疊
疋
疌
疑
疒
疾
癶
癸
癹
登
發
白
百
皀
皃
的
皆
皇
皋
皐
皕
皮
皷
皿
盃
盆
盇
盈
益
盍
盎
监
盒
盖
盛
盡
監
盤
盧
目
直
相
盾
省
眇
眉
看
眔
眞
真
眷
眼
眾
着
睘
睪
睿
瞏
瞢
瞿
矍
矛
矞
矢
矣
知
矦
短
石
破
碎
磊
磨
示
礻
礼
祟
票
祭
禀
禁
禸
禹
禺
离
禽
禾
禿
秀
秃
秉
秋
科
秝
秦
移
稟
穀
穌
穴
究
穹
空
穿
突
窄
窒
立
竒
竜
竝
竟
章
童
竹
笑
笠
筆
等
答
箕
算
箴
節
篤
篭
米
粉
粛
粟
粤
粦
粲
糞
糸
糹
系
約
納
素
索
紫
累
細
絜
絫
絲
維
綿
縣
繇
纍
纟
缶
网
罒
罔
罕
罗
罙
罡
罢
罪
署
罷
羅
羊
羌
羍
美
羔
羕
羗
羞
羡
羣
群
義
羲
羸
羽
翁
翏
習
翕
翟
翠
翼
老
耂
考
者
耆
而
耎
耑
耒
耳
耴
耶
耷
聂
聊
聖
聚
聶
聿
肀
肃
肅
肉
肖
肙
肥
肩
肯
育
肴
胃
背
胡
胥
能
脊
脩
膚
臣
臤
臧
自
臬
臭
臯
臱
至
致
臺
臼
臽
臾
臿
舀
舂
舄
與
興
舉
舌
舍
舛
舜
舞
舟
般
艮
良
色
艸
艹
艾
芒
芔
芬
芮
花
芳
芺
芻
苔
苗
苟
若
苦
英
茶
茸
荅
草
荒
荣
荼
莆
莧
莫
莽
菆
菊
菐
華
萬
落
葉
著
葛
董
葵
蒙
蒦
蒼
蓋
蓬
蓺
蔑
蔡
蕉
蕭
薄
薛
薦
薰
藍
藏
藥
蘭
虍
虎
虐
虒
虔
處
虖
虗
虘
虚
虛
虜
虞
虫
虽
蚤
蚩
蜀
蜜
蟲
蠡
血
行
衍
衛
衣
衤
表
衮
衰
袁
袞
褭
褱
襄
襾
西
覀
要
覃
見
規
覓
覧
親
覽
见
角
解
言
訁
訇
計
詹
誩
諸
讠
谷
豆
豈
豊
豐
豕
豖
豙
象
豦
豩
豪
豸
貇
貝
貞
貟
負
貢
貧
貪
貫
責
貳
貴
買
費
賁
資
賈
賏
賓
賔
賛
賞
賢
賣
質
賴
贊
贝
贡
责
贯
贲
贵
赖
赞
赤
赦
走
越
足
路
蹇
身
躬
車
軍
軎
軟
輦
车
辛
辜
辟
辥
辰
辱
農
辵
辶
边
达
过
近
连
迷
追
退
送
逆
逐
通
速
造
逢
連
逮
進
遀
遂
過
道
達
遣
適
遷
遺
邊
邑
邕
那
邦
邪
郎
部
郭
都
鄉
酉
酋
配
酓
釆
采
里
重
野
量
金
釒
錢
钅
長
镸
长
門
閃
閉
開
閏
閑
閒
間
閔
閵
閻
闌
门
间
闷
阑
阜
阝
阿
降
陳
隆
隊
隋
隡
隨
隱
隶
隹
隺
隻
隼
隽
难
雀
雁
集
雈
雋
雍
雐
雔
雙
雚
雜
雝
離
難
雨
雩
雪
雲
零
雷
需
霍
霜
霝
霞
霸
靈
靑
青
非
靡
面
靣
革
韋
韦
韭
韯
韱
音
頁
頃
項
須
頗
頡
頻
顛
页
風
风
飛
飞
食
飠
養
饣
首
香
馬
馮
駦
马
骨
高
髟
鬥
鬯
鬲
鬼
魚
魯
鮮
鱼
鲁
鳥
鳳
鸟
鹵
鹿
麃
麗
麥
麦
麻
黃
黄
黍
黎
黑
黒
黨
黹
黽
黾
鼎
鼓
鼠
鼻
齊
齋
齐
齒
齿
龍
龙
龜
龟
龠
龰
龱
龴
龵
龶
龷
龸
龹
者
艹
ﮑ
ﺃ
ﺇ
ﺍ
ﺎ
ﺑ
ﺒ
ﺔ
ﺖ
ﺣ
ﺤ
ﺨ
ﺩ
ﺪ
ﺭ
ﺮ
ﺳ
ﺸ
ﻋ
ﻌ
ﻗ
ﻘ
ﻜ
ﻟ
ﻡ
ﻢ
ﻣ
ﻤ
ﻥ
ﻨ
ﻭ
ﻮ
ﻱ
ﻲ
ﻳ
ﻴ
ﻼ
﻿
（
）
？
￼
𞤢
𞤣
𞤤
𞤥
𞤦
𞤧
𞤨
𞤩
𞤪
𞤫
𞤬
𞤭
𞤮
𞤯
𞤰
𞤱
𞤲
𞤳
𞤴
𞤵
𞤶
𞤷
𞤸
𞤹
𞤺
𞤻
𞤼
𞤽
𞤾
𞤿
𞥁
𞥄
𞥅
𞥆
𞥐
𞥑
𞥒
𞥓
𞥔
𞥕
𞥖
𞥗
𞥘
𞥙
𞥟
𠀁
𠀃
𠀆
𠀉
𠀎
𠀐
𠁁
𠁣
𠂆
𠂇
𠂈
𠂉
𠂊
𠂋
𠂎
𠂒
𠂔
𠂛
𠂡
𠂢
𠂤
𠂬
𠂭
𠂹
𠃊
𠃋
𠃌
𠃍
𠃎
𠃑
𠃓
𠃔
𠃜
𠄌
𠄎
𠄠
𠄢
𠆢
𠆥
𠇍
𠈌
𠌵
𠓜
𠔉
𠔥
𠔼
𠔽
𠔿
𠕀
𠕁
𠕋
𠘧
𠘨
𠙻
𠙼
𠚏
𠚒
𠚤
𠚪
𠣏
𠤎
𠤕
𠥓
𠦄
𠦑
𠦝
𠧒
𠧗
𠧪
𠩺
𠪚
𠫓
𠫔
𠫤
𠬛
𠬝
𠬞
𠬢
𠬤
𠬶
𠮛
𠮦
𠮷
𠯑
𠱠
𠳮
𠷎
𡈼
𡉀
𡉵
𡌥
𡍮
𡏳
𡕒
𡕩
𡕰
𡖅
𡗗
𡗜
𡘆
𡘤
𡧱
𡨄
𡩧
𡬠
𡭽
𡰣
𡰥
𡰪
𡰯
𡰱
𡷈
𡸁
𡿨
𡿩
𡿪
𡿺
𢀖
𢀛
𢀩
𢁙
𢆉
𢆰
𢆶
𢇁
𢇇
𢉖
𢌬
𢌿
𢏚
𢑑
𢑚
𢖻
𢙣
𢛳
𢦏
𢦒
𢧵
𢼄
𢾕
𣁋
𣄼
𣅀
𣅽
𣍘
𣎳
𣎵
𣏋
𣏼
𣗥
𣥂
𣥖
𣦵
𣦼
𣧄
𣪊
𣪠
𣬉
𣳾
𣶒
𤇾
𤊽
𤐫
𤓰
𤔔
𤕨
𤣩
𤰇
𤰔
𤰞
𤴓
𤴔
𤽄
𥁑
𥁕
𥃦
𥃩
𥃭
𥇡
𥑟
𥘅
𥘈
𥝢
𥫗
𥱡
𦈢
𦉪
𦉬
𦉼
𦍌
𦍒
𦎧
𦐇
𦓔
𦔮
𦘒
𦙃
𦚏
𦣝
𦣞
𦣻
𦥑
𦥔
𦥯
𦨉
𦭝
𦰩
𧆞
𧈧
𧘇
𧰨
𧴪
𧴮
𧵩
𧾷
𨸏
𨾴
𩙿
𩠐
𩫏
𩵋
𪉷
𪜀
𪟽
𪠲
𪩲
𫇦
𫔭
𫜸
𫝀
𫠣
𫠩
𫢉
𫥞
𫩏
𫩠
𫪡
𫲽
𫶧
𬀷
𬐘
𬗌
𬙙
𬛸
𬜯
𬟩
𬯁
𬴘
𬺻
𬼉
𬼖
𭀰
𭁈
𭁨
𭅰
𭑈
𭕄
𭗼
𭤨
𭥫
𭻾
𮅕
𮊿
𮍌
𮍏
𮓗
𮥼
𮧮
廾
𰀁
𰀄
𰀈
𰀉
𰀕
𰀠
𰀡
𰀢
𰀪
𰁜
𰃮
𰆊
𰆘
𰋙
𰕎
𰢴
𰧭
𰯲
11--
18--
19--
25--
3--
4--
5--
6--
7--
8--
9--
a--
aa--
aame--
aar--
ab--
abe--
acc--
acco--
ad--
ade--
adi--
ak--
akpo--
al--
alkam--
am--
ambas--
an--
anni--
anti--
app--
ar--
artu--
as--
asi--
at--
au--
aw--
b--
ba--
bab--
bak--
bal--
ban--
bar--
bat--
baɗ--
be--
ber--
bi--
bia--
bil--
bin--
bis--
biye--
bo--
bol--
bon--
bos--
boɗ--
br--
brid--
brit--
bu--
bur--
c--
ca--
cal--
car--
ce--
cee--
ceer--
ch--
chi--
chr--
chur--
ci--
city--
co--
colo--
com--
con--
const--
cont--
cu--
cuk--
cur--
cuu--
cuus--
d--
da--
daa--
dan--
de--
di--
diag--
dist--
div--
do--
doc--
dok--
dra--
du--
dud--
dum--
dur--
duu--
e--
eco--
ed--
effe--
effi--
eg--
el--
em--
en--
epide--
es--
et--
euro--
f--
fa--
fam--
fan--
far--
farfe--
fau--
fay--
faɗ--
fe--
fec--
fel--
few--
fewj--
feƴƴ--
fi--
fil--
fin--
fir--
fo--
fol--
foo--
foofaa--
fot--
fu--
fun--
fuɗ--
g--
ga--
gan--
gar--
gay--
gaɗ--
ge--
gen--
geo--
ger--
gi--
gir--
go--
gom--
gon--
gouverne--
goɗ--
gr--
gu--
gul--
gut--
h--
ha--
haa--
hal--
ham--
han--
har--
hau--
haw--
haɓ--
he--
hed--
heerii--
hel--
hew--
heɓ--
heɓu--
hi--
hii--
hik--
him--
hit--
ho--
hok--
hoo--
hoɗ--
hu--
hum--
hump--
humpit--
hun--
huu--
huutor--
i--
ii--
ije--
ili--
im--
impa--
in--
inng--
inter--
ir--
iraa--
is--
it--
j--
ja--
jaa--
jaar--
jag--
jal--
jan--
jar--
jaw--
jaŋ--
jaɓ--
je--
jee--
jewe--
jey--
ji--
jibin--
jibr--
jin--
jipp--
jo--
jok--
jom--
joo--
jor--
jowe--
joɗ--
ju--
jub--
jul--
juul--
juutu--
k--
ka--
kaa--
kaan--
kakkila--
kal--
kam--
kar--
kat--
kau--
kawr--
kawt--
kaɗ--
ke--
ked--
kee--
ker--
kes--
keɓ--
kha--
ki--
kii--
ko--
kol--
kolli--
kor--
koy--
ku--
kum--
kwa--
l--
la--
laam--
laaɓ--
lab--
lam--
lands--
lar--
las--
lat--
le--
li--
lieute--
lim--
liɓ--
lo--
lol--
lom--
lon--
lug--
lus--
lut--
luttu--
luu--
ly--
m--
ma--
maa--
mag--
mah--
mai--
majj--
mal--
mall--
man--
manin--
mar--
mau--
maun--
maw--
mba--
mbin--
me--
mem--
mi--
mil--
mo--
moi--
mor--
mu--
mukh--
mur--
mus--
musul--
my--
n--
na--
naa--
naf--
nas--
nat--
naɓ--
nbu--
nd--
ndok--
ne--
neb--
nee--
nel--
new--
ng--
nga--
ni--
njee--
nji--
njo--
no--
nod--
nor--
nu--
ny--
nyi--
nyii--
o--
occi--
oha--
ol--
on--
oo--
op--
or--
p--
pa--
pay--
pe--
pec--
peer--
pi--
pid--
pii--
pin--
piro--
pl--
po--
pol--
poo--
pre--
pro--
prov--
pun--
puɗ--
q--
r--
ra--
raa--
ran--
ras--
ray--
re--
recher--
reena--
reli--
ren--
renu--
resis--
ri--
ro--
rok--
ru--
s--
sa--
saa--
sak--
sam--
sar--
sarki--
se--
sec--
see--
sellu--
sen--
sey--
sha--
she--
shi--
shubtu--
si--
sinc--
so--
soo--
sori--
spa--
st--
su--
sub--
suk--
suu--
sy--
t--
ta--
taa--
taf--
tak--
tam--
tar--
tari--
te--
ted--
teeŋ--
tek--
ter--
terr--
tes--
th--
tho--
ti--
tii--
tiiɗ--
tim--
to--
tok--
toko--
tor--
toɓ--
tr--
trai--
tu--
tur--
tuu--
u--
um--
ummor--
un--
uni--
ur--
us--
uz--
v--
var--
ve--
vi--
vict--
vir--
w--
wa--
wal--
walli--
war--
waɗ--
we--
web--
wee--
wel--
wer--
wi--
win--
wit--
wo--
wol--
won--
woo--
woy--
woɗ--
wu--
wul--
wur--
x--
y--
ya--
yaa--
yah--
yam--
yaw--
ye--
yet--
yett--
yew--
yi--
yiɗ--
yo--
yoru--
yu--
yun--
z--
zu--
ŋ--
ƴeekir--
ƴet--
ƴoo--
ɓ--
ɓe--
ɓed--
ɓen--
ɓey--
ɓi--
ɓiɗ--
ɓoo--
ɓoor--
ɓooy--
ɓur--
ɗ--
ɗan--
ɗat--
ɗe--
ɗeb--
ɗi--
ɗim--
ɗiɗa--
ɗu--
ɗud--
ɗuu--
ɗuuɗ--
--0
--1
--2
--3
--4
--41
--5
--54
--6
--7
--8
--9
--97
--a
--aa
--aare
--aaɓe
--abe
--ade
--ago
--ahi
--ai
--aji
--ajo
--ake
--aki
--al
--ala
--ale
--am
--ama
--an
--ani
--are
--ary
--ata
--ation
--ay
--aɓe
--aɗe
--b
--ba
--be
--bi
--bo
--bu
--c
--ce
--ces
--chi
--ci
--ck
--cks
--cy
--d
--da
--daa
--dad
--dajo
--dal
--de
--di
--diral
--dirde
--diri
--dn
--do
--ds
--du
--dy
--e
--ed
--ede
--ee
--eeji
--eeɓe
--ehi
--eje
--eji
--el
--em
--en
--ent
--er
--ere
--eri
--ering
--ern
--ers
--es
--et
--ewol
--eɓe
--f
--g
--ga
--gal
--ge
--gere
--gi
--go
--gol
--gs
--gu
--h
--he
--hi
--ho
--i
--ia
--ic
--ie
--ien
--ii
--iiɗo
--iji
--ijo
--ik
--il
--im
--ima
--in
--ing
--ings
--ion
--ions
--ir
--ire
--iri
--iro
--is
--ism
--ities
--ity
--iya
--iɓe
--iɗo
--ja
--je
--ji
--jja
--jo
--ju
--jun
--k
--ka
--ke
--ki
--kk
--ko
--kooɓe
--ku
--l
--la
--lal
--lay
--lde
--le
--li
--lii
--line
--ll
--lla
--lo
--ls
--lu
--lude
--lus
--luuji
--ly
--m
--ma
--me
--mi
--mo
--mpi
--mu
--n
--na
--naama
--naaɓe
--najo
--nce
--nd
--nda
--ndaa
--nde
--ndi
--ne
--nee
--ng
--ngi
--ngo
--ngol
--ni
--nji
--nka
--nki
--nkoore
--nnde
--nnge
--no
--ns
--nt
--nta
--nude
--o
--obe
--od
--og
--oji
--ol
--olic
--ology
--on
--oo
--oowo
--or
--ore
--ori
--ors
--ory
--orɗe
--os
--ou
--owo
--oyi
--oɓe
--p
--pt
--r
--ra
--raa
--ral
--rasi
--raɓe
--rd
--rde
--rdi
--rdu
--re
--reede
--rg
--ri
--rii
--riya
--rka
--rle
--rn
--ro
--rra
--rs
--rt
--rta
--rti
--ru
--ry
--rɗe
--rɗo
--s
--sa
--se
--sh
--si
--son
--ss
--st
--su
--t
--ta
--taa
--tary
--tde
--te
--ted
--tee
--th
--ti
--tii
--tin
--tion
--tiral
--tiwal
--to
--tor
--toro
--ts
--tti
--tude
--ty
--u
--ua
--ude
--ue
--ugo
--uji
--uki
--um
--un
--ur
--ure
--uru
--us
--uuji
--v
--ve
--w
--wa
--wal
--wde
--wo
--wol
--wu
--wɗe
--wɗo
--x
--xa
--xt
--y
--ya
--yam
--yanke
--yankooji
--yaŋkooɓe
--ye
--ygu
--yi
--yo
--yre
--yuhu
--z
--za
--zza
--ŋ
--ŋke
--ƴa
--ɓa
--ɓal
--ɓe
--ɓu
--ɓɓe
--ɓɓo
--ɗ
--ɗa
--ɗal
--ɗe
--ɗi
--ɗo
--ɗti
--ɗɗa
