!
"
#
##0
##1
##10
##11
##12
##13
##14
##15
##16
##17
##18
##19
##2
##20
##21
##22
##23
##24
##25
##26
##27
##28
##29
##3
##30
##31
##32
##33
##34
##35
##36
##37
##38
##39
##4
##40
##41
##42
##43
##44
##45
##46
##47
##48
##49
##5
##50
##51
##52
##53
##54
##55
##56
##57
##58
##59
##6
##60
##61
##62
##63
##64
##65
##66
##67
##68
##69
##7
##70
##71
##72
##73
##74
##75
##76
##77
##78
##79
##8
##80
##81
##82
##83
##84
##85
##86
##87
##88
##89
##9
##90
##91
##92
##93
##94
##95
##96
##97
##98
##99
$
%
&
'
(
)
*
+
,
-
.
/
0
00
000
0001
001
0028
01
02
03
04
05
06
07
08
09
1
10
100
1000
1007
101
10100
1012
10120
10123
1015
1016
1018
102
1021
1024
1027
103
1030
1033
1036
1039
104
1042
1045
1048
105
1051
1054
1057
106
1060
1063
1066
1069
107
1072
1075
1078
108
1080
1081
1084
1087
109
1093
11
110
111
112
113
114
115
116
117
118
119
12
120
1200
121
122
123
124
125
126
127
128
129
13
130
131
132
133
134
135
136
137
138
139
14
140
141
142
144
145
146
147
148
149
15
150
1500
151
1510667103
152
155
156
158
16
160
161
162
1620
163
164
1640
165
168
1692
1695
17
170
1720
173
175
176
1771
1789
18
180
1800
1821
1829
1830
1831
1832
1834
1837
1838
1839
1840
1842
1843
1844
1845
1846
1847
1848
1849
1850
1852
1853
1854
1855
1856
1857
1858
1859
1860
1861
1862
1863
1864
1865
1866
1867
1868
1869
1870
1871
1872
1873
1874
1875
1876
1877
1878
1879
1880
1881
1882
1883
1884
1885
1886
1887
1888
1889
1890
1891
1892
1893
1894
1895
1896
1897
1898
1899
19
1900
1901
1902
1903
1904
1905
1906
1907
1908
1909
191
1910
1911
1912
1913
1914
1915
1916
1917
1918
1919
192
1920
1921
1922
1923
1924
1925
1926
1927
1928
1929
1930
1931
1932
1933
1934
1935
1936
1937
1938
1939
1940
1941
1942
1943
1944
1945
1946
1947
1948
1949
1950
1951
1952
1953
1954
1955
1956
1957
1958
1959
1960
1961
1962
1963
1964
1965
1966
1967
1968
1969
1970
1971
1972
1973
1974
1975
1976
1977
1978
1979
1980
1981
1982
1983
1984
1985
1986
1987
1988
1989
1990
1991
1992
1993
1994
1995
1996
1997
1998
1999
2
20
200
2000
2001
2002
2003
2004
2005
2006
2007
2008
2009
201
2010
2011
2012
2013
2014
2015
2016
2017
2018
2019
202
2020
2021
2022
206
21
210
211
22
220
224
2246
225
226
23
230
24
240
25
250
252
26
260
27
270
28
280
29
3
30
300
3000
31
312
32
320
33
34
35
350
36
360
365
37
38
39
395
4
40
400
4000
41
415
42
43
44
45
450
46
47
48
49
5
50
500
5000
51
52
521
53
54
540
55
550
5585
56
5683
57
58
59
6
60
600
605
61
612
62
63
6360
639
64
65
650
66
67
68
69
7
70
700
71
72
73
74
75
750
76
77
78
79
8
80
800
81
82
83
84
85
850
86
87
88
89
9
90
900
91
92
93
94
95
96
97
975
978
9780199545568
9786054497010
9789944360678
98
99
9944
:
;
<
=
>
?
@
[
\
]
^
_
`
a
aa
aaron
ab
aba
abad
abadi
abal
aban
abani
abas
abbas
abbreviare
abc
abd
abdicare
abdu
abdulla
abdullah
abdurrahman
abdusamet
abe
abend
aber
abgerufen
abi
abidi
able
ablegare
ablon
abone
abor
aborandin
abori
aboriya
aboriye
about
above
abraham
absurdity
abu
abuk
ac
academia
academic
academy
access
accessdate
accessed
accipiter
according
account
accubare
acemiles
acht
aci
acid
aciz
acizbu
acizi
aconitum
acref
act
action
actor
actress
actuare
acu
acı
ad
ada
adaequare
adam
adams
adan
adani
adapte
adar
adara
adare
adat
adbu
addle
ade
adem
ademi
adepte
adet
adete
adeti
adi
adil
adir
adiuvare
adiyemane
adları
administration
adn
adnan
adnye
adolf
adornare
adres
adu
adult
advocare
adı
ae
af
aferi
afet
affairs
afghanistan
afi
afii
afir
afirand
afirande
afirandi
afirandin
afirandina
afirandine
afirandiye
afiri
aforoz
afret
afri
africa
african
afrika
afrin
afro
after
aftin
ag
aga
agadar
agadari
agah
agahdar
agahdari
agahdariya
agahdariye
agahi
agahiya
agahiyan
agahiye
again
against
age
ageh
agehdar
agency
agent
aggravare
agi
agir
agirbest
agird
agire
agiri
agiriye
agirt
agirte
agirti
agirxwes
ago
agreement
agricultura
agriculture
ah
aha
ahan
ahane
ahbanu
ahe
aheng
ahenga
ahengdar
ahengi
ahi
ahid
ahide
ahidi
ahin
ahiya
ahiyan
ahiye
ahmad
ahmaran
ahmed
ahmet
ahrweilere
ahu
ai
aid
aids
ain
air
aires
airlines
aisne
aisnee
aj
ajal
ajalan
ajale
ajan
ajans
ajansa
ajawe
ajel
ajelan
ajele
aji
ajne
ajni
ajo
ajotin
ajotina
ajovan
ak
aka
akademi
akademiya
akademiye
akadi
akam
akar
akc
ake
aki
akinci
akir
akirin
aklı
akmak
aknews
akort
akp
akre
akreyi
akrobat
aks
aksu
akti
aktir
aktor
aktore
aktoreki
aktri
aktu
aku
akyol
akıl
al
ala
alabama
alak
alakbu
alaki
alakiya
alakiyan
alakiye
alakom
alakvane
alan
alandin
alas
alaska
alav
alava
alave
alavek
alaveke
alay
alaya
alaye
alayi
alaz
alb
alba
alban
albani
albania
albanya
albanyaye
albert
albu
album
albuma
albume
alc
aldiran
aldirane
aldu
ale
alek
alem
alemi
alet
alete
alex
alexander
alfa
alfabe
alfabeya
alfabeye
alfred
ali
alice
alif
alik
alikariya
alim
alime
aliqandin
aliya
aliyan
aliye
aliyek
aliyeke
aliyeki
alizandin
alizi
alkol
alkole
alkoli
all
alla
allah
allan
allaudare
alle
allen
allga
allier
alliere
allium
alma
almak
alman
almanan
almani
almaniya
almanya
almanyaya
almanyaye
alok
along
aloz
alozi
alpes
alpese
alpha
alphabet
als
also
alt
altenkirchene
alternati
altmıs
alto
altı
altın
altına
altında
alu
always
alyga
alzey
alı
alık
alıs
am
ama
amac
amade
amadebu
amadehi
amadekar
amadekari
amadekirin
amadekirina
amadeyi
amaje
amak
aman
amana
amane
amanek
amans
amar
amara
amare
amas
amator
amazon
ambalaj
ambelaj
ambu
ame
amed
amede
amedi
amentare
ameri
america
american
amerika
amerzandin
amhari
ami
amidakurd
amil
amini
amir
amo
amojgari
among
amor
amos
ampiyoniya
amraz
amsterdam
amt
amu
amude
amy
an
ana
anadolu
anafi
anak
anal
anali
analysis
anan
ananas
anars
anat
anatoli
anatoliya
anatoliyaya
anatoliyaye
anatolya
anatolyaye
anatomi
anatomiya
anatomy
anaz
anazi
anc
ancax
ancient
and
anda
andan
andana
andane
andar
ande
andeke
ander
andere
anderson
andeyi
andi
andibu
andin
andina
andinan
andine
andinek
andineke
andini
andinin
andininan
andiniya
andiniye
andiye
andorra
andre
andrea
andreas
andrew
android
ane
anek
aneke
anenav
anes
aneya
aneyan
aneye
anf
ang
angaje
angas
angeh
angeha
angehe
angel
angeles
anger
anglo
ango
angola
anha
anhalt
ani
aniha
anik
animal
animals
aniye
anji
ank
ankara
anker
anket
ankiri
ankirin
ankirina
anko
anku
anlas
anlı
ann
anna
anne
annihilare
annual
ano
anoger
anonivi
anons
another
anoya
anoye
ans
ansbach
anse
ansi
ant
antarkti
antau
ante
anter
anthony
anti
antoine
antoloji
antolojiya
anton
antonio
antony
antwort
antworten
anu
anxana
anxane
anxaneya
anxaneye
any
anyan
ao
ap
apa
apandin
ape
apec
apemeni
apemeniya
apemeniye
api
apik
apkiri
apkirin
apkirina
apkirine
aplu
apo
aponogeton
appellare
apple
apportare
april
apwebsite
apxana
apxaneya
aq
aqi
aqil
aqilan
aqilane
aqildar
aqildari
aqile
aqili
aqilmend
aqilmendi
aqilsivik
aqizi
aqle
aqu
aquitaine
ar
ara
arab
araba
arabi
arabia
arabic
aragoni
araliye
aralık
aram
arami
aramiya
aran
arandin
aranje
arap
ararat
aras
araste
arastin
arbeit
arbeiten
arbeitet
arbu
arc
archaeology
archive
archived
ard
arda
arde
ardeh
ardehem
ardu
are
area
aredar
aredare
aredari
aredariya
aredariye
aredariyeke
arem
aremi
arena
arenivi
arenu
areser
areseri
areseriya
areseriye
areserkirin
areserkirina
aret
arete
areti
areza
arezayi
arezu
argentina
argo
argos
argu
ari
arif
arik
aris
aristana
aristane
aristani
aristaniya
aristaniye
aristokrat
arizi
arizona
arj
arjanti
arjen
arjenti
ark
arka
arkadas
arkansas
arkeoloji
arki
arkirin
arkti
arlepki
arm
arma
arman
armanc
armanca
armance
arme
armedor
armenia
armenian
arms
armu
army
arn
arnawidi
arnold
arode
aromani
around
aroymaq
arpe
arpi
arrogant
ars
arsenal
arslan
art
arte
artes
arthur
arti
article
articles
artikel
artin
artina
artine
artis
artist
arts
aru
arvan
aryan
arz
arzt
arzu
arı
as
asa
asami
asan
asani
asayi
asayis
ase
asfalt
asi
asia
asian
asin
asini
ask
aslan
asle
asleep
asmani
aso
asp
aspectare
aspx
ass
associated
association
ast
asta
astara
aste
asteke
asteng
astengi
asteroi
asti
astroloji
astronomi
astu
asu
asya
asyaya
asyaye
asyayi
ası
at
ata
atas
atatu
ate
atei
ates
ati
atir
atlanti
atlantic
atlantique
atlantiqueya
atlas
atmak
atmosfer
atmosfera
atmosfere
atom
atome
atomi
atp
attack
attempt
attention
attonare
atı
atıs
au
aube
aubee
aubin
auch
aude
audio
auf
auflage
auge
augsburg
august
auguste
augustus
aujourd
aurora
aus
ausfu
ausgezeichnet
australia
australian
austria
author
auto
auvergne
aux
av
ava
avabu
avahi
avahiya
avahiyan
avahiye
avahiyeke
available
avairona
avaker
avakere
avakiri
avakirin
avakirina
avakirine
avan
avandin
avare
avayi
avbirc
avciqandin
avdan
avdar
avdari
avde
ave
avek
aveke
aveki
avend
avere
averu
avesta
avestakurd
avestaye
avestayi
avevek
aveyron
aveyrona
avgi
avhewa
avhewaya
avhewaye
avi
avik
avis
avisandin
avisi
avissar
avitin
avjeni
avk
avkani
avkaniya
avkaniyan
avkaniye
avke
avker
avkirin
avle
avn
avne
avnebar
avnebari
avpe
avpi
avre
avres
avru
avs
avsor
avsori
avsu
avte
avu
avus
avze
aw
awa
awan
awandin
awani
award
awards
aware
awareyan
awarte
away
awayan
awaye
awayek
awayeke
awayeki
awayi
awaz
awaze
awe
awertandin
awi
awilandin
awir
awirandin
awire
awis
awistirya
awistiryaye
awistraliya
awistralya
awistralyaye
awistriya
awu
awwal
ax
axa
axaftin
axaftina
axaftine
axan
axavtin
axaye
axc
axe
axek
axeke
axi
axiftin
axiftina
axiftine
axir
axiri
axiv
axivandin
axivi
axle
axrete
axtepi
axu
axur
ay
aya
ayag
ayak
ayan
ayar
aydin
aydogan
aydın
aye
ayes
ayesandin
ayet
ayeta
ayetan
ayete
ayhan
ayi
ayir
ayisandin
aymarayi
ayn
aypareye
ays
ayı
az
aza
azad
azadi
azadiya
azadiye
azan
azar
azde
azerbaijan
azerbaycan
azerbaycana
azerbaycane
azerbeycan
azeri
azeriyan
azi
azirandin
aziri
aziz
azlu
azmayi
azmu
azur
b
ba
bab
baba
baban
babani
babe
babel
babeli
babet
babete
babi
babu
baby
bac
baca
bacan
bacane
bacanres
bace
bach
back
background
bad
badan
badayi
bade
baden
badet
badi
badiyeke
bag
bager
bagurdan
baha
bahasa
bahc
bahi
bahn
bahoz
bahoza
bahoze
bahrain
bahs
bahsa
bahse
bajar
bajara
bajaran
bajare
bajarek
bajareke
bajareki
bajari
bajarok
bajaroka
bajaroke
bajarokek
bajarokeki
bajarvani
baje
bajere
bak
bakanlık
baker
baki
bakmak
bakteri
bakteriyan
bakteriye
baku
bakur
bakura
bakure
bakuri
bakıs
bal
bala
balafir
balafira
balafiran
balafire
balafirgeha
balafirgehe
balans
bald
baldar
baldari
bale
baleri
bali
balinde
balindeyan
balindeye
balkan
balkanan
balkane
balkani
balkari
balke
balkon
ball
balls
balon
balti
balu
balyoze
balyozxane
balıg
balık
bambarayi
bamberg
ban
bana
band
bandaj
bande
bandor
bandora
bandore
bandorek
bandoreke
bandori
bandu
bane
banes
bang
banga
bange
banges
bangi
bangkirin
bangkirine
banglades
bangladesh
bani
bank
banka
banke
banks
banu
banyo
bape
bapi
bapti
baptizare
baq
baqi
bar
bara
baraj
baran
barana
barandin
barane
barbar
barbara
barbari
barcelona
bardi
bare
baregeh
baregeha
barek
bareki
bari
barimte
barke
barkiri
barkirin
barnas
baron
baru
barzan
barzani
barıs
bas
basa
base
based
basel
basi
bask
baskan
baske
basketbol
baski
baskı
basmak
basnews
basu
basım
basımevi
bat
bate
bateyi
bati
batil
batman
batmane
battle
batu
bav
bava
bavan
bave
bavi
bavo
bavti
bavyera
bavyeraya
bavyeraye
baw
bawer
bawerandin
baweri
baweriya
baweriye
bawerkirin
bawermend
bawermende
bawername
bawernameya
bawes
bawi
bawis
bax
baxc
baxe
baxi
bay
baybu
baye
bayern
bayex
bayezi
bayi
bayram
baz
baza
bazan
bazar
bazara
bazare
bazari
bazarr
bazdan
baze
bazeke
bazi
bazin
bazine
bazirgan
bazirgane
bazirgani
bazirganiya
bazirganiye
baziya
baziye
bazu
bb
bbc
bbu
bc
bd
bdi
bdp
be
bea
beach
beam
bean
bear
beat
beautiful
beauty
bebek
bec
because
beck
become
bed
bedbext
bedbi
bede
bedel
beden
bedena
bedene
bedeni
bedenpare
bedew
bedewi
bedfort
bedi
bedil
bedilandin
bedir
bedirxan
bedli
bedre
bee
been
before
beg
bege
begi
begru
beh
behaedi
behane
behavior
behdi
behecandin
beheci
behes
behi
behind
behiti
behlu
behr
behra
behram
behrame
behre
behredar
behremend
behremendi
behreyn
behri
behs
behsa
behse
behskirin
bei
being
beirut
beispiel
bej
bejayi
beji
bejn
bejna
bejnu
bek
beka
beke
bekir
beko
bekommen
bektas
bel
bela
belalu
belam
belaru
belarusi
belas
belav
belavbu
belave
belavi
belavkirin
belavkirina
belavok
belawela
belaya
belayan
belaye
belc
bele
beled
belek
beleki
belem
belengaz
belg
belge
belgefi
belgeya
belgeye
beli
believe
belingaz
beliqandin
beliqi
belis
belki
bell
bellam
belle
belli
beloq
belqitandin
belu
bem
ben
bend
benda
bendan
bendav
bendava
bendave
bende
bender
bendere
bendewar
bendewari
bendi
bendik
bendika
bendike
bendikek
bene
beng
bengali
bengi
benglades
beni
benim
benjamin
beno
bent
benth
benz
benzi
beq
beqe
beqitandin
ber
bera
beraber
berahi
beral
berali
beramber
beramberi
beramet
beran
berane
berasteng
berav
berave
berawird
beraz
berazan
beraze
berazi
berbad
berbang
berbat
berbelav
berbend
berber
berberi
berberis
berbest
berbi
berbic
berbihe
berbijar
berbira
berbu
berc
berd
berda
berdan
berdana
berdane
berdar
berdari
berdaye
berdayi
berde
berderes
berdest
berdesti
berdevke
berdewam
berdewami
berdewamiya
berdi
berdide
berdidin
berdin
bere
berebazi
beredayi
berek
bereke
bereket
berendam
berendame
berepas
beresori
berev
berevaji
berevajiye
berevani
berevaniya
berf
berfa
berfanbar
berfanbare
berfe
berfi
berfire
berfireh
berfirehbu
berfirehi
berfirehtir
berg
berga
bergan
berge
bergeh
berger
bergi
bergiri
bergiriya
bergiriye
bergirti
berhem
berhema
berheman
berhemani
berhemdar
berhemdari
berheme
berhemek
berhemeke
berhemkirin
berhev
berhevdan
berhevkar
berhevkiri
berhevkirin
berhevkirina
berhevkirine
berhevok
berhevoka
berhewa
beri
beridandin
berik
beriqandin
berisandin
beriya
beriye
berizandin
berje
berjewendi
berjewendiya
berjewendiye
berjor
berk
berke
berkeley
berketi
berkirin
berli
berlin
bermahiye
bermayi
bermayiye
bermi
bern
bername
bernameya
bernameyan
bernameye
bernameyek
bernameyeke
bernard
bernave
bernd
berne
berneti
bernkastel
beros
berovaji
berpe
berpirs
berpirse
berpirsi
berpirsiyar
berpirsiyare
berpirsiyari
berpirsiyariya
berpirsyar
berpirsyare
bers
bersetzen
bersetzt
bersetzung
bersi
bersiv
bersiva
bersivandin
bersive
berstu
bertek
berteke
berti
beru
bervaji
berve
bervedar
berwari
berx
berxe
berxwe
berxwedan
berxwedana
berxwedane
beryaci
berz
berze
berzenci
berzi
bes
bescha
bese
besi
besim
best
besta
bestandin
beste
bestekar
bestekare
besteni
besteres
besti
bestimmt
bestin
besuchen
bet
beta
betal
betali
betalkirin
betan
bete
beti
betilandin
betili
betlane
betlaneye
beton
bett
better
betts
betty
betula
between
bexc
bexda
bexdaye
bexdenu
bexi
bexs
bext
bexte
bextewar
bextewer
bexteweri
bexti
bextiyar
bextiyari
bextres
bey
beyan
beyani
beyar
beyaz
beybu
beye
beyi
beyond
beyru
beys
beyt
bez
beza
beze
bezi
bezm
bg
bgirti
bhutan
bi
biafiri
bianet
biaqil
biav
biave
biaxive
biaxivin
biazar
bibandor
bibare
bibe
biber
bibereket
bibi
bibihi
bibim
bibin
bibine
bibit
bible
bibu
bic
bici
bicih
bicihani
bicihbu
bicihkirin
bicos
bidarivi
bidawi
bidayet
bide
bideli
bidest
bidestxistin
bidestxistina
bidi
bidil
bidim
bidin
bidina
bidine
bidli
bidome
bidomi
bidu
bie
bies
biezyet
bife
bifeyde
bifikire
bifiros
big
bige
bigere
bigeri
bigerin
bigi
bigihe
bigihi
bigire
bigiri
bigirin
bigos
bigre
bigrin
biguhe
biguhere
biguheri
biguman
bih
biha
bihadar
bihagiran
bihane
bihar
bihara
biharan
biharat
biharbe
bihare
bihartin
bihata
bihaye
bihe
biheli
biheq
bihes
bihi
bihis
bihu
bihurandin
bihuri
bihus
bii
biis
bij
bijan
bijare
bijarte
bijarti
bijartin
bije
biji
bijihandin
bijirandin
biju
bik
bikar
bikarani
bikaranin
bikarbi
bikare
bikarhani
bikarhe
bikari
bikaribe
bikaribin
bikarti
bike
bikeli
bikelk
biken
biker
bikeri
biket
bikeve
bikevi
bikevin
biki
bikim
bikin
bikir
bikira
bikire
bikis
bikit
bikos
biks
bikuje
bikujin
bil
bila
bilal
bilax
bilbil
bilbile
bilbize
bild
bile
bilez
bilgi
bili
bilimci
bilimi
bilinc
bilind
bilindahi
bilindahiya
bilindbu
bilindiya
bilindkirin
bilindtir
bilindtiri
bill
billboard
billiarde
billion
billy
bilmek
bilqandin
bilqi
bilu
bim
bimbarek
bime
bimereq
bimes
bimi
bimifa
bimire
bin
binamu
binas
binav
binavbu
binave
binavkiri
binavkirin
binavkirina
binavu
binax
binc
bincil
bindest
bindesti
bine
binecih
binefami
binefs
binekoma
binemal
binemala
binemale
binerd
binerde
binerdi
binere
binevs
binge
bingeh
bingeha
bingehe
bingehek
bingehi
bingen
bingo
binhis
bini
binihe
binike
binirx
binivi
binnivi
binpe
bint
binxete
binyad
binyat
binyati
bio
biography
biology
bipare
bipe
bipejiri
bipi
bipis
bipu
biqbiqandin
biqeli
biqewet
biqewime
biqi
biqijili
biqu
bir
bira
birader
biradoste
birahi
biran
birandin
biras
birasti
birati
birayan
biraye
biraz
birc
birca
bircan
birce
bird
birde
birdlife
birds
bire
birehm
biresere
bireve
biri
birijandin
biriji
birin
birina
birinc
birince
birine
biriqandin
biriqi
birisi
biriskandin
biriye
birk
birka
birke
birkenfelde
birles
birlig
birnebun
biro
birq
birra
birrbirreye
birri
birsi
birth
biru
biryar
biryara
biryaran
biryare
biryari
bis
bisch
biscuit
bise
bisebr
bisekine
biser
biserkefti
biserketi
biserketin
biseru
bisexbe
bisi
bisiu
bisk
biske
bismil
bismile
bist
biste
bistehi
bisti
bistre
bisu
bit
bitandin
bitaqet
bitburg
bitcoin
bite
bitene
bites
bitesi
biti
bitik
bitiki
bitirs
bitirse
bitom
bitte
bitu
bive
bivi
bivir
biwar
biwe
biwes
bixas
bixe
bixebite
bixebitin
bixi
bixin
bixis
bixu
bixuri
bixwaze
bixwazin
bixwe
bixwi
bixwin
biya
biyan
biyani
biyaniyan
biye
biyet
biyografi
biyoloji
biz
bizane
bizani
bizanin
bizar
bizav
bizava
bizave
bizdandin
bizdi
bizdoki
bize
bizever
bizewice
bizi
bizin
bizina
bizinan
bizine
bizir
bizivi
bizmar
bizot
bizu
bk
bker
bkirin
bla
black
blau
ble
bleiben
bli
blica
blind
blo
block
blog
blogspot
blok
bloka
blood
blow
blu
blue
bluse
bm
bmayi
bn
bni
bnr
bo
board
bob
bobelat
boc
body
bog
bogen
bohti
bois
bok
bokan
bokane
boki
bokma
bol
boli
bols
bomaweyi
bomba
bombe
bombebaran
bombebarankirin
bombekirin
bombeya
bomiki
bomikti
bon
bona
bone
bones
bonn
bonne
book
books
boot
boq
bor
borak
borandin
boraq
borc
border
bore
bori
boriya
born
borri
bos
bosi
bosna
bosniya
boss
bostan
bostanabade
boston
bot
bota
botan
botane
botani
bote
both
boti
bottom
bourgogne
box
boxc
boxes
boxesang
boy
boya
boyax
boyaxa
boyaxe
boye
boyi
boykot
boys
boyunca
boz
bozan
bozarslan
bozmak
bozuk
br
bra
brabanta
brahi
brahim
brain
brand
brandenburg
brani
brauche
brauchen
braucht
brazi
brazil
bre
bread
break
breaking
breath
breisgau
bremen
bret
bretoni
brezi
bri
brian
bridge
brie
brief
brill
bring
bringen
bringt
britain
britannica
british
bro
broadway
brons
bronz
bronze
bronzi
brooklyn
brooks
bros
brother
brothers
brown
bru
bruce
bruder
bruksele
brunei
bruno
bs
bt
bu
bucak
buch
bucket
budapes
budi
buenos
bug
bugu
buha
buhare
buhaye
buhuri
build
bulas
bulbul
bulgari
bulgaria
bulgaristan
bulgaristane
bull
bullshit
bulmak
bulunmak
bulut
bum
bun
bundle
bune
bung
bungen
bunk
bunny
bureau
burhan
burkay
burma
burmayi
bursa
burton
bus
bush
business
but
butter
buwe
buxc
buxd
buxik
buxtan
buy
buye
buz
by
bya
byaye
bz
bı
bıc
bırakmak
bɑ
bɛ
bɛlɑ
bɛɾ
bɛɾi
bɛɾɑ
bɪ
bɪd
bɪdi
bɪdɛ
bɪdɪn
bɪhɑ
bɪkɪ
bɪm
bɪn
bɪnɑ
bɪt
bɪɑ
bɪɾi
c
ca
cab
cad
cade
cadu
caesar
cafe
cahil
cake
calan
calcare
calceolaria
calendar
california
call
called
calvados
calvadose
cam
cama
cambridge
came
cameron
cami
camp
campbell
camus
can
cana
canada
canadian
canan
candar
candare
cane
canewer
canewere
cang
cani
canis
canlı
canorus
canzeri
capital
capsicum
captain
car
cara
caran
carandin
carcaran
card
cardin
care
carecar
carek
careke
careki
cari
carina
carinan
carine
caris
carisandin
carl
carlos
carna
carnan
carolina
carry
cas
casa
case
cash
cassini
cast
casu
cat
catch
catholic
cause
cave
caw
cawe
cawi
cax
caye
cayi
caz
caze
cazi
cazib
cbar
cbs
cc
cctld
cd
cdar
cdarkirin
ce
ceb
cebar
cebilandin
cebirandin
cebiri
cedel
cedi
cedu
cefa
cefen
cefer
cefilandin
ceg
ceger
cegerxwi
cegirandin
ceh
cehd
cehe
cehi
cehidandin
cehimandin
cehisandin
cejn
cejna
cejne
cek
cel
celadet
celal
celaledi
celali
celandin
celb
celeb
celebe
celebek
celi
celik
cell
cells
cem
cemal
cemciqandin
cemed
cemedani
cemede
cemi
cemidandin
cemidi
cemil
cemisandin
cemiyeta
cemiyeti
cems
cemser
cenaze
cenazeye
ceng
cenga
cengage
cenge
cengi
ceniqandin
census
cent
center
cento
central
centre
century
cep
cer
cerd
cerdevan
cereyan
cerge
ceri
ceribandin
ceribandina
ceribandine
cerisandin
cermeni
cesaret
cesu
cet
cew
cewab
cewciqandin
ceweri
cewher
cewhere
cewi
cewibandin
cewitandin
cewr
ceye
ceza
cezakirin
cezaya
cezaye
cezayi
cezb
cezi
cf
ch
cha
cham
chambers
champagne
chance
change
channel
chapelle
chapter
character
charente
charge
charles
charlie
charlotte
charts
chase
chat
che
check
chef
chelsea
chemical
chemistry
chen
cher
cherry
cheung
chi
chicago
chicken
chief
child
children
chile
china
chinese
chips
cho
choi
choice
chp
chr
chris
christian
christmas
christopher
chte
chten
chtig
chu
church
chyet
ci
cia
cida
cidi
cie
cig
cigare
cih
cihan
cihane
cihani
cihe
cihek
ciheke
ciheki
cihi
cihu
cihwar
cik
cil
cila
cilan
cild
cilda
cildiru
cile
cilee
cilik
cilixandin
cils
cilt
cilu
cimcime
cimhu
cin
cinan
cinawir
cinayet
cindi
cindire
cine
cini
cins
cinsa
cinse
cinsi
cinu
cio
cir
circirandin
circumdare
circumstare
cire
ciri
cirifandin
cirm
cirnexwes
cis
citation
cite
cities
city
citypopulation
civak
civaka
civakan
civake
civakeke
civaki
civaknas
civaknasi
civaknasiye
civandin
civat
civata
civate
civati
civi
civil
civiyan
ciwan
ciwanan
ciwane
ciwaneki
ciwani
ciwaniya
ciwanmerd
cixare
cixirandin
cixiz
ciya
ciyan
ciyawaz
ciyawazi
ciye
ciyeki
ciz
cizi
ciziri
ck
ckb
cke
cken
cker
clark
class
classical
classification
claude
cle
clean
clear
cleye
climate
clinton
clogs
close
club
cm
cn
cnn
co
cochem
code
codeli
cog
coga
coge
cografi
coil
cok
col
colandin
cold
cole
coleme
collection
college
colombia
color
colorado
coluber
columbia
com
combretum
come
comedy
comerd
coming
commander
committee
common
commons
commune
communes
community
companion
company
comparare
complete
comprobare
computer
comte
con
concern
concise
conflict
congress
connecticut
conomiques
conregnare
conservation
contemplare
content
control
cook
cooper
copy
cor
cora
core
corek
corporation
correct
cos
costa
cot
cote
cotek
cotemeni
cotepeyv
cotkar
cotkare
cotkari
cotmeh
cotmeha
cotmehe
cotrehe
cotyari
council
count
counter
counties
countries
country
county
course
court
cover
covid
cra
crap
cre
crh
crime
crisis
cristobal
croak
crocidura
crock
crocus
cross
crown
cruz
cry
cs
ct
cu
cuculus
cuda
cudabu
cudahi
cudahiya
cudahiye
cudakirin
cudati
cudatir
cudayi
cudi
culeme
cultural
culture
cum
cumhuriyet
cumle
cummings
cup
cur
curbecur
cure
cureya
cureyan
cureye
cureyek
cureyeke
cureyeki
current
cut
cv
cw
cy
cyprus
cz
czech
d
da
dab
dabas
dabe
dabes
dabestandin
dabi
dabilandin
dabinartin
dabu
dac
dad
dada
dadan
dade
dadgeh
dadgeha
dadgehe
dadger
dadi
dadikeve
dadimeziri
dadmendi
dadnas
dadnasi
dadperweri
dadre
dadwer
dadweri
dadweriya
dae
dag
dagerandin
dageri
dagi
dagir
dagirker
dagirkeriya
dagirkirin
dagirkirina
dagirti
dagirtin
dah
daha
dahat
dahatin
dahatiya
dahatu
dahe
dahi
dahiliye
dahme
dahol
dahu
dai
daily
daimi
dais
dake
daketi
daketin
daketina
dakirin
dakota
daku
dal
dalan
dale
dalepandin
daleqandin
daliqandin
dallas
dam
dama
damar
dame
damezirand
damezirandin
damezirandina
dameziri
damezrand
damezrandin
damezrandina
damezre
damezri
damilandin
damnare
dan
dana
danan
danasi
dance
dane
danek
daneke
daner
daneye
danezan
danezana
dang
dani
daniel
danin
danis
daniya
daniye
daniyek
dank
danke
danmarki
dann
dans
danse
danser
dante
danu
dapalandin
dape
dapes
dapi
dapos
daqurtandin
dar
dara
daran
daras
darayi
daraz
darbu
darc
darda
dardekirin
dare
darek
dareke
dareya
darf
dari
darik
darike
daring
daringi
daris
daristan
daristana
daristanan
daristane
dariya
dariye
darizandin
dark
darkirin
daru
darve
darwin
darxistin
daryu
das
dash
dasi
dastan
dat
data
database
date
datetime
dati
datum
dau
daughter
dav
dava
dave
david
davis
daw
dawa
dawe
dawerandin
dawes
dawet
daweta
dawete
dawi
dawid
dawiya
dawiye
dawn
dax
daxaya
daxe
daxistin
daxkirin
daxu
daxuyand
daxuyandin
daxuyani
daxuyaniya
daxuyaniye
daxuyaniyeke
daxwaz
daxwaza
daxwaze
daxwazi
day
daye
dayi
dayik
dayika
dayikbu
dayike
dayiki
dayin
daynin
days
dazde
dazdehem
db
dbu
dc
dchen
dd
dder
ddi
de
dead
deal
deali
death
debangi
debar
debara
debe
debeng
debengi
debi
debt
debu
dec
december
decorare
deep
def
defa
default
defe
defensare
defi
defin
defined
definition
definkirin
defkirin
defter
deftera
deg
deh
dehan
dehe
dehem
dehf
dehi
dehibandin
dehimandin
dehl
dehs
dei
dejenere
dek
deke
deki
dekiri
dekirin
dekirina
del
dela
delal
delale
delali
delandin
delaware
dele
delegare
deli
delikandin
deliqandin
delkandin
della
delle
delta
delu
dem
dema
deman
demanc
demandin
demar
demare
demareguhe
demarekoendama
demareragihandin
demareragihandine
demarexane
demarexaneya
demarexaneyan
demarexaneye
demari
demax
demaxe
demdemi
demdire
deme
demek
demeka
demeke
demeki
demi
demildest
demir
demirtas
demisandin
demjime
demki
demo
democracy
demografiche
demokrasi
demokrasiya
demokrasiye
demokrat
demokrati
demokratik
demsal
demsala
demsale
demutare
den
dendik
dendike
dendiki
dendri
deng
dengan
dengandin
dengbe
dengdane
dengdar
dengde
denge
dengek
dengeki
dengi
dengu
deni
denis
deniz
denkandin
denken
denmark
dennis
denti
deo
deoloji
deolojiya
dep
depart
departementa
departemeta
departmena
department
departmenta
depe
depo
deportare
depuis
deq
deqandin
deqdeqi
deqe
deqeyan
deqi
der
dera
deramet
deran
derani
derav
derazi
derb
derba
derbare
derbas
derbasbu
derbasdar
derbase
derbasi
derbaskirin
derbaz
derbaza
derbazi
derbe
derbeder
derbend
derbeya
derbeye
derbider
derbik
derbiri
derbirin
derbirri
derbu
derc
derd
derdan
derdana
derdane
derde
derdi
derdiket
derdikeve
derdikevin
derdixe
derdixin
derdor
derdora
derdore
dere
derece
dereceya
derek
dereke
dereki
dereng
derengi
derew
derewan
derewandin
derewi
derfet
derfeta
derfete
dergeh
dergehe
dergisi
dergu
derhe
derheqa
derheqe
deri
derin
deriyan
deriye
derizandin
derizi
derka
derket
derkete
derketi
derketibu
derketin
derketina
derketine
derketiye
derkeve
derkevin
derkirin
derman
dermanan
dermane
dermani
dermankirin
dermankirina
dermanxane
dermi
dernakeve
derogare
derpe
derpi
derqu
ders
dersa
derse
dersi
dersim
dersok
derte
derti
deru
derva
derve
derveye
derveyi
dervi
derwe
derxe
derxi
derxin
derxist
derxisti
derxistin
derxistina
derxistine
derxistiye
derya
deryac
deryaya
deryayan
deryaye
deryayi
derz
derzi
derziya
derziye
des
desaix
description
desert
desiderare
design
desire
desni
desolare
despe
desponsare
dest
desta
destan
destana
destane
destava
destave
destavxane
destbelavi
destdire
deste
destek
desteka
desteke
desteki
destekirin
desteser
desteserkirin
destexaneye
desteya
destgi
destgirti
desthelat
desthilat
desthilata
desthilatdar
desthilatdare
desthilatdari
desthilatdariya
desthilatdariye
desthilate
desthilati
desthilatiya
desti
destik
destike
destkari
destni
destnime
destnive
destnivi
destpe
dests
destte
destu
det
detail
details
detay
detekti
determi
deti
detir
detiri
detroit
deutlich
deutsch
deutsche
deutschen
deutschland
deux
dev
devan
deve
devedore
development
dever
devera
deveran
devere
deverek
devereke
deveri
deveru
devi
devil
devjeni
devki
devlet
devocare
devok
devoka
devokan
devoke
devoki
devs
dew
dewa
dewam
dewama
dewar
dewaran
deware
dewe
dewi
dewis
dewisandin
dewisi
dewixandin
dewixi
dewle
dewlemend
dewlemendi
dewlemendiya
dewlet
dewleta
dewletan
dewlete
dewletek
dewleteke
dewleti
dewlik
dewr
dewra
dewran
dewre
dewru
dews
dewsa
dexesi
deximandin
dexl
dexlu
dexs
dey
deya
deyan
deye
deyi
deyn
deyndar
deynde
deyne
deynkiri
deynkirin
dezenfekte
dezgeh
dezgeha
dezgehe
dezgeheke
dezgi
dezi
dezilliarde
dezillion
deziye
di
dia
diafire
diafiri
diajo
dialect
diana
diani
diave
diaxifin
diaxive
diaxivin
dibare
dibari
dibe
dibi
dibihi
dibim
dibin
dibine
dibir
dibire
dibirin
dibis
dibistan
dibistana
dibistanan
dibistane
dibistanek
dibistaneke
dibistani
dibit
dibu
dic
dich
dick
dicle
diclehaber
dictionary
did
dida
didan
didane
dide
didi
didim
didin
didine
didome
didomi
die
diels
dies
diese
dieser
dieses
different
difikire
difikiri
difikirin
difin
difine
difire
difirin
difiros
difros
dig
dige
digehe
digel
digere
digeri
digerin
digeriya
digi
digihe
digihi
digire
digiri
digirin
digirt
digirtin
digital
digot
digotin
digre
digrin
diguhe
diguhere
diguheri
diguherin
diha
dihat
dihata
dihate
dihatibu
dihatin
dihatine
dihe
dihele
dihere
diherike
diherikin
dihese
dihesibi
dihewi
dihi
dihok
dihoke
dihundiri
dii
dij
dijber
dijbere
dijberi
dijberiya
dije
dijepeydaker
dijeten
diji
dijin
dijiya
dijiyan
dijmane
dijmin
dijminan
dijminati
dijmine
dijmini
dijraberi
diju
dijwar
dijwari
dijwarkirin
dijwartir
dik
dikan
dikana
dikane
dikare
dikari
dikaribu
dikarim
dikarin
dike
dikele
dikeli
diken
dikene
diket
diketin
dikeve
dikevi
dikevin
dikevine
dikevite
diki
dikim
dikin
dikine
dikir
dikire
dikirin
dikis
dikit
dikkat
dikmek
dikole
dikos
diks
dikuje
dikujin
dil
dila
dilan
dilber
dilbiji
dilc
dildar
dildari
dildayi
dile
dileki
dilemasu
dilges
dilgiran
dilgirani
dilhis
dilhu
dili
diliki
dilive
dilke
dilketi
dilkevir
dill
diller
dilmayi
dilnerm
dilo
dilop
dilope
dilovan
dilovani
dilovaniya
dilpak
dilpe
dilres
dilrihet
dils
dilsar
dilsari
dilsoz
dilsozi
dilteng
diltengi
diltepi
dilxwaz
dilxwazi
dilxwes
dilzi
dim
dima
diman
dime
dimes
dimi
dimil
dimili
dimilki
dimire
dimirin
dims
din
dinav
dindilandin
dine
dinere
ding
dingandin
dini
dinihe
dinin
dinirxi
dinis
dinivi
dinner
dinya
dinyaya
dinyaye
dinyayi
dinye
dio
dip
diparast
dipare
dipe
dipejiri
dipeyi
dipeyive
dipeyivin
dipi
dipirse
diploma
diq
diqdiqandin
diqede
diqedi
diqete
diqewime
diqewimin
dir
diran
diranan
dirandin
dirane
dirav
dirave
diravi
dirb
dirbe
dire
direct
director
direfs
direve
direvi
direvin
diri
dirikandin
dirinde
dirist
dirixandin
diriyet
dirkepetik
dirkepetike
dirrandin
dirt
dirty
diru
dirust
dis
disa
disease
disekine
disekinin
disipli
disney
dispe
display
displaystyle
disti
district
districts
dit
diti
ditin
ditions
ditirse
ditirsi
div
dive
divi
divide
division
diviya
diviyabu
diviye
diware
diwe
diwes
dixapi
dixe
dixebite
dixebiti
dixebitin
dixemili
dixi
dixin
dixist
dixistin
dixuye
dixwast
dixwaze
dixwazi
dixwazim
dixwazin
dixwe
dixwend
dixwest
dixwestin
dixweze
dixwi
dixwim
dixwin
diya
diyan
diyanet
diyar
diyarbekir
diyarbekire
diyarbekre
diyarbu
diyare
diyari
diyarker
diyarkiri
diyarkirin
diyarkirina
diyarname
diye
diyet
diz
dizan
dizane
dizani
dizanibu
dizanim
dizanin
dize
dizec
dizewice
dizgi
dizi
dizivire
dj
dker
dkiri
dkirin
dman
dmend
dna
do
dobe
doc
doch
doctor
dodo
does
dog
dogan
doi
dojeh
dojehe
dok
doktor
doktora
doktoraya
doktoraye
doktore
doktri
doku
dokument
dokuz
dol
dolab
dolaba
dolar
dolare
dolas
doli
dolik
dolu
dom
domand
domandin
domare
domdar
dome
domi
don
donald
donau
done
donetske
dong
dongi
donkey
donnersbergkreise
doom
door
doqis
dor
dora
dorber
dore
dorgirti
dorhe
dori
dorpe
dort
doru
dos
doski
dost
dostane
dostani
doste
dosti
dostoyevski
dot
dotin
dotmam
dotmi
double
douglas
down
dox
doxi
doyi
doz
doza
doze
dozi
dq
dr
dra
drag
dragon
drama
dramati
drar
draw
dre
dream
drei
dress
dri
driee
drink
drive
drivel
dro
drojen
drojene
drop
dru
drug
dry
ds
dsb
dt
dtp
du
dua
duali
dubai
dubare
dubarekirin
dubendi
dublaj
duc
ducan
ducani
ducaniye
ducar
ducari
dudek
duden
dudil
dudili
dudu
due
duet
duh
duhi
duhok
duhoke
duhoki
dum
dumahi
duman
dumb
dummy
dunya
duo
duodezilliarde
duodezillion
dupat
dur
durch
durd
during
durist
duristkirin
durmak
duru
durum
dus
dust
dutch
duvar
duwem
duye
duyem
duyemi
duymak
dvd
dw
dwi
dxan
dy
dya
dyaye
dyayi
dye
dyefiros
dyo
dyoya
dyoye
dz
dı
dıs
dɑ
dɛ
dɛq
dɛst
dɛŋɡ
dɛɾ
dɛɾbɑ
dɛɾxɪs
dɪ
dɪd
dɪdi
dɪdɛ
dɪdɪm
dɪjɑ
dɪl
dɪm
dɪn
dɪt
dɪɑ
dɪʒwɑ
dʊd
e
ea
each
ear
early
ears
earth
east
eastern
easy
eat
eb
eba
ebandin
ebas
ebasiyan
ebbas
ebdulkeri
ebdulla
ebdullah
ebdulqadir
ebdulrehman
ebdulła
ebdurehman
ebdurehmane
ebe
ebedi
ebend
ebendi
ebenu
ebes
ebi
eboster
ebru
ebu
ebus
ec
ece
ecebs
ecele
ecem
ecemi
eci
ecibandin
ecinandin
eciqandin
eciqi
eco
economic
economy
ed
eda
edalet
edalete
edar
edari
ede
edeb
edebi
edebiyat
edebiyata
edebiyate
edem
eden
edene
edeneye
eder
edet
edete
edeti
edgar
edge
edi
edil
edilandin
edili
edinburg
edinburgh
edition
editor
editors
eds
edu
educare
education
edward
ee
een
ef
efaf
efe
efendi
efeq
effect
efi
efir
efis
efri
efs
efsane
efsanewi
efsaneya
efsaneye
efser
efsere
efsu
efu
efur
efxanistan
efxanistane
eg
egale
ege
eger
egera
egere
egg
egi
egir
egle
ego
egoi
egypt
egyptian
eh
ehadet
ehd
ehde
ehdeyi
ehe
eher
ehere
ehess
ehi
ehing
ehir
ehire
ehiti
ehle
ehmed
ehmede
ehmedi
ehmeq
ehmeqi
ehmeqti
ehr
ehre
ehri
eht
ei
eight
ein
eine
einem
einen
einer
einhundert
einmal
einstein
eintausend
ejdeha
ek
eka
ekal
ekan
ekar
ekber
ekc
ekdar
ekdare
ekdari
eke
ekek
ekeke
eker
ekfiros
eki
ekil
ekim
ekin
ekir
ekira
ekire
ekiri
ekirin
ekirina
ekis
ekl
ekle
ekli
ekmek
eko
ekoloji
ekonomi
ekrad
ekradiye
ekrem
eks
ekstasi
eku
ekur
el
ela
elafi
elalet
elamet
elan
elandin
elaq
elaqi
elasti
elb
elbak
elbe
elbise
elc
elden
ele
elebi
electric
elektri
elektron
elektroni
elem
eleme
element
elementan
elemente
elementek
elementeke
eleng
elengi
eleni
eleqe
eleqedar
eleqedare
eleqeya
eles
elevare
elewi
elewiyan
elexwari
elezi
elf
eli
elik
elimandin
elimi
eliminare
elind
eline
elini
eliqandin
eliqi
elis
elitandin
eliti
eliye
elizabeth
elizandin
elk
elke
elki
ellah
elle
elma
elman
elmani
elmanya
elmanyaye
elmas
elo
elok
elp
elpi
else
elsevier
elster
elu
elwal
elxam
em
ema
email
emal
eman
emandi
emandin
emanet
emate
embar
embarkirin
embaz
embeli
ember
embriyo
embriyoye
emc
emdi
eme
emeh
emek
emekdar
emeki
emel
emeli
emeliyat
emer
emere
emergent
emeri
emi
emil
emilandin
emily
emin
eminem
emir
emirates
emitandin
emiti
emixandin
emiye
emma
emmy
emn
emniyet
emo
emperyali
empire
empty
emr
emre
emrex
emri
ems
emsedi
emsi
emu
emutare
emzi
en
ena
enbe
enbi
enc
encam
encama
encamdan
encame
encax
encu
encumena
encyclopaedia
encyclopedia
encyclopædia
end
endam
endama
endaman
endame
endamek
endameki
endamtiya
endani
endaze
ende
endek
endezyar
endezyare
endezyariya
endi
endis
endizandin
endustri
ene
enebazi
energy
enerji
enerjiya
enerjiye
eng
enga
engal
engale
enge
engel
engi
engilandin
engirandin
engiya
engizandin
engl
england
englisch
english
eni
enik
enirandin
eniri
enitandin
eniya
eniye
enki
enough
enq
enqere
enqereye
ens
ensi
enspi
ensti
enstitu
enstru
ent
ente
entegre
enter
entertainment
enti
entry
enver
environment
environmental
enwer
enzi
eo
ep
epa
eparc
epare
epe
epel
epeli
eper
epgir
epi
epik
epilandin
epili
epirze
episode
epsd
epu
eq
eqandin
eqd
eqe
eqi
eqilandin
eqirc
eqlaweye
eqle
eqo
er
era
erab
erabe
eran
erandin
erbet
erbi
erc
erd
erda
erdal
erde
erdebi
erdhej
erdheja
erdheje
erdheji
erdi
erdni
erdog
erdogan
ere
ereb
ereban
erebandin
erebe
erebeya
erebeyan
erebeye
erebi
erebistana
erebiya
eref
erefa
erefe
erefi
erefname
erefxan
erefxane
erefyar
erek
ereke
ereki
eren
ereni
ereq
erez
erga
ergeh
ergenekone
erh
eri
eric
erich
erik
erin
eris
eritrea
erixandin
erixi
erizandin
erjeng
erk
erka
erkdar
erke
erkedar
erkedare
erkek
erker
erkez
erki
erkla
erm
erma
erme
ermek
ermen
ermeni
ermenistan
ermenistane
ermeniya
ermeniyan
ermezar
ermezari
ermi
ermiqandin
ermok
ermoke
ermoki
ernest
ernst
ero
eroglu
eroi
eroj
eroja
eroje
eroki
eros
eroti
erpeze
erpilandin
erq
erqi
err
errare
erre
erreni
error
ers
erst
ert
erte
erti
ertos
eru
ervan
ervane
erwa
erx
erxa
erxe
erxeniye
erxewan
erxi
erz
erza
erzan
erzani
erzaq
erzi
erzirom
erzirome
es
esas
esase
esasen
esasi
esazi
esaziya
esaziye
escobar
esebi
esed
eseh
esehi
eser
esi
esil
esilzade
esir
esiri
esker
eskeran
eskere
eskeri
eski
esl
esle
esli
esman
esmanan
esmane
esmani
esmer
espan
espandin
esperanto
esperantoye
esperantoyi
espi
esrar
esse
essen
essential
essentials
est
esta
estas
este
esteti
esther
esti
esto
estoni
estonya
esu
et
eta
etar
ete
etek
etel
etele
eteye
ethnic
ethnologue
eti
etin
etir
etme
etmek
etni
eto
etu
etwas
etymological
etymology
etymonline
eu
euphemism
eure
eureye
euro
europa
europe
european
ev
eva
evan
evana
evanan
evandin
evane
evani
evans
evbe
evd
evdal
evdale
evdaloki
evdalti
evde
evdi
evdila
evdile
evdirehman
evdirehmane
eve
eveke
even
evening
event
ever
every
evi
evidence
evil
evin
evirmek
evla
evolution
evra
evrar
evre
evrensel
evrevi
evro
evs
ew
ewa
ewan
ewani
eware
ewat
ewata
ewate
ewatek
ewati
ewc
ewe
eweye
eweyi
ewi
ewil
ewilandin
ewili
ewiqandin
ewis
ewisandin
ewisi
ewitandi
ewitandin
ewitandina
ewitandine
ewite
ewiti
ewle
ewlehi
ewlehiya
ewlehiye
ewlekariya
ewlekariye
ewli
ewlige
ewliya
ewna
ewq
ewqas
ewqe
ewr
ewran
ewre
ewri
ewro
ewropa
ewropaya
ewropaye
ewropayi
ewropi
ewru
ewt
ewti
ewtiya
ex
exaneye
exclusive
exis
exit
exlaq
exlaqe
exlaqi
express
exs
exsi
exsiyet
exspectare
ext
exte
external
exti
extra
exus
ey
eya
eyal
eyalet
eyaleta
eyalete
eyan
eyar
eyare
eyarkirin
eyb
eyd
eyda
eye
eyed
eyek
eyeke
eyeki
eyes
eyi
eyin
eyisandin
eylo
eylu
eyn
eyne
eyni
eynik
eys
eytan
eytani
eyte
eyu
eywan
ez
ezab
ezan
ezbeni
eze
ezezi
ezi
ezibandin
eziyet
ezman
ezmana
ezmane
ezme
ezmu
ezyat
ezyet
f
fa
fabri
fabricare
face
facebook
facebooke
faced
fact
factbook
facts
fade
fahi
fahm
fahmkirin
fahren
fai
faik
fail
fair
faith
faks
faktore
faku
fakulteya
fal
falco
falcon
fall
false
fam
fama
fame
fami
familie
family
familyeya
famkirin
fan
fanati
fandin
fane
fani
faqe
far
fare
fari
faris
farisan
farisi
farisiya
farm
farming
farqi
fars
farse
farsi
farsiya
fas
fashion
fason
fast
fasu
fat
fate
father
fati
fatma
fatu
fawaz
fayde
faz
fazla
fbu
fc
fe
fear
feat
feature
february
feda
fedar
fedarkirin
federal
federali
federasyona
federedewleta
federedewlete
fedi
feel
fehm
fehma
fehmi
fehmkirin
fehs
fek
feke
fekirin
felahi
felaket
felat
felc
felek
feleke
feli
feliqandin
felis
fellow
felsefe
felsefevan
felsefeya
felsefeye
felsefi
female
femi
femme
fen
fena
fend
fener
feni
feodal
feodali
feq
feqe
feqi
feqiye
fer
feramos
feraset
ferat
ferd
ferdi
ferdinand
fere
fereh
feremu
ferfu
ferhad
ferheng
ferhenga
ferhenge
ferhengeke
ferhengi
ferhengoka
feri
fericandin
ferikandin
ferman
fermana
fermandar
fermandare
fermandari
fermandariya
fermane
fermani
fermi
fernsehserie
ferq
ferqa
ferqizi
fers
fersend
feryad
ferz
fes
fesad
fesadi
fesal
fesi
fesilandin
festi
festival
fesx
fet
feth
feti
fetih
fetilandin
fetili
fetiqandin
fetis
fetisandin
fetisi
fetl
few
fewzi
feya
feyde
feye
feyezan
feyi
feyli
fezaye
ff
ffnen
fi
fic
fiction
fiddle
field
fifa
fight
figure
fihe
fihu
fik
fikar
fikare
fikir
fikirandin
fikiri
fikr
fikra
fikre
fikri
fil
filan
file
fileh
filehan
files
fili
filipi
filisti
filitandin
filiti
film
filman
filme
fin
final
fincan
find
findi
fine
finger
finish
finland
fir
firandin
firar
firat
firate
firavi
firax
firc
firdikandin
fire
fireh
firehbu
firehi
firehiya
firehtir
firfirandin
firgeh
firi
firidandin
firiji
firikandin
firin
firinde
firingi
firk
firme
firoke
firokeye
firos
firot
firotane
firotin
firotina
firotine
firri
firs
firsend
firset
first
firstiqandin
firu
fis
fischer
fish
fisi
fisikandin
fit
fiti
fitu
five
fiyet
fizi
fk
fker
fkirin
fl
fla
flam
flas
flasche
flash
flat
fle
fleisch
flesh
flight
flo
flora
flori
florida
flort
flower
flu
fly
fm
fo
fodili
folge
folgen
folk
folklor
folklora
folklore
folklori
fon
foneti
fonksiyone
font
fontaine
food
fool
foot
football
for
forbes
force
forces
ford
fore
foreign
form
forma
formal
formali
format
formata
forme
formek
formeke
former
formu
formula
forniya
forniyaye
forq
fors
forst
fort
fortune
forum
forward
fosi
foster
fote
foto
fotograf
found
foundation
four
fourth
fox
fr
fra
frac
frage
fragen
franc
franca
france
francee
franche
francis
francisco
franco
frank
frankfurt
franklin
fransa
fransaye
fransayi
fransi
fransiya
franz
franzo
frau
fre
free
freedom
frei
fren
french
frensi
freud
freund
freunde
freundin
fri
friedrich
friend
friends
fringi
fritz
friyoli
fro
from
fromm
front
fru
fruit
fs
fsh
ft
fte
fti
fu
fuck
full
fun
fund
fundamentali
fur
fus
futbol
futbole
future
fxwes
fy
fıs
fɑ
g
ga
gabriel
gaeli
gaga
gagawzi
gah
gal
galaxy
gale
galegal
galen
galeri
gali
galte
gam
gama
game
games
gan
gane
gang
gani
ganz
gap
gar
gara
garan
garandin
garanti
garbage
garci
gard
garden
gare
gareth
gari
garis
gariya
gariye
garke
garsoni
gas
gav
gava
gavan
gave
gavek
gaveke
gavi
gawir
gay
gayan
gaye
gayi
gayri
gayvn
gaz
gaza
gazan
gaze
gazetesi
gazi
gazin
gazinc
gazinde
gazine
gazini
gb
gbar
gd
ge
geben
geber
geburtstag
gec
gece
geda
gedandin
gede
gedeye
gef
gefa
gefu
gegangen
geh
geha
gehan
gehe
gehek
geheke
gehen
gehi
gehis
geho
geht
gejmirandin
gekauft
gel
gela
gelac
gelaci
gelan
gelawe
geld
gelderlanda
geldi
gele
gelek
gelekan
geleke
geleki
gelemper
gelemperi
gelems
gelen
geleri
gelhe
gelheya
gelheye
geli
gelifandin
gelin
gelipandin
gelir
gelis
geliye
gellek
gelleki
gelmek
gelo
gels
gem
gema
gemacht
gemar
gemari
gemaro
gemi
gemirandin
gemiri
gemis
gemiye
gems
gemu
gen
genc
genci
gend
gendeli
gender
gene
genel
general
generale
generic
geneti
gengaz
gengazi
genges
geni
genim
genime
genimi
genis
genocide
gentiana
gentle
genus
geo
geometri
georg
george
georges
georgia
gep
ger
gera
gerade
geran
gerandin
gerani
gerc
gercana
gerd
gerden
gerdena
gerdenbend
gerdeni
gerdi
gerdu
gere
gerek
gereke
gereki
geremol
gereste
gerew
gerguhe
geri
gerikandin
gerin
gerisandin
geriya
geriyan
geriyaye
germ
germa
germahi
germahiya
germahiye
germain
german
germandin
germani
germany
germav
germbu
germe
germi
germijandin
germixandin
germiya
germkirin
gern
gernas
gerok
geroke
gerri
gerste
geru
gerxe
ges
gescha
geschenk
geschichte
gesehen
gesellschaft
gestern
gestin
get
getirmek
gets
gever
gevera
gevere
geveze
gevezeti
gevizandin
gevizi
gevs
gewc
gewde
gewesen
gewher
gewi
gewirki
gewixandin
gewr
gewre
gewri
gewriya
gewriye
gewz
gey
geylani
gez
geze
gezek
gezi
gezik
gezikkirin
gezirandin
gezkirin
geztin
gh
ghafor
ghost
gi
gia
gibi
gibt
gider
gidi
gift
giftu
gih
giha
gihan
gihandin
gihandina
gihanek
gihas
gihaye
gihayi
gihe
gihi
gihis
gij
gil
gilave
gilbert
gildi
gildik
gile
gilgame
gilgilandin
gili
gilok
gilover
gilu
gimgim
gimgima
gimgime
gin
gincirandin
gindirandin
gindiri
gindor
gini
giovanni
gir
gira
giradaye
girami
giran
giranbiha
girane
girani
giraniya
giraniye
girantir
girar
girara
girav
girava
giravan
girave
giravi
girbu
gire
giregir
giregire
girek
gireke
gireki
girgi
giri
girift
girik
girike
giriki
girin
giring
giringi
giris
giriya
giriye
girj
girjbu
girk
girl
girls
girmek
girnij
girniji
giro
gironda
girondaya
gironde
girover
girs
girse
girseya
girseye
girseyi
girt
girti
girtibu
girtin
girtina
girtine
girtiyan
girtiye
giru
gis
gitmek
givandin
givas
give
givirandin
givis
giya
giyadi
giyan
giyane
giyani
giyaye
giyayek
giyayi
gize
gizgizandin
gl
gla
glas
glass
gleich
gli
glich
global
globali
globalmodules
globe
glory
glover
glu
glukoz
glukoze
gmbh
gn
gnu
go
goc
god
godos
goes
goethe
gog
goga
goge
gogling
gogpi
going
gol
gola
golan
gold
golden
gole
goleke
golf
golik
golike
gom
goma
gome
gon
gonandin
gone
goni
good
google
googol
goose
gopal
gor
gora
goran
gorani
gordon
gore
goreye
gori
goristan
goristana
goristane
gorkirina
gorta
gos
got
gotar
gotara
gotare
gotarek
gote
gotegot
goti
gotibu
gotin
gotina
gotinan
gotine
gotinek
gotineka
gotineke
gotini
gotiye
gotu
gov
govan
govani
govend
govenda
govende
government
goya
goyi
gr
gra
grace
graeber
graf
grafi
graham
gram
gramera
grammar
grammy
gran
grand
grande
grani
grant
grass
gratis
grave
gray
grc
gre
great
greece
greek
green
greifswald
greki
grev
greva
grey
gri
gro
ground
group
groups
grove
grow
groß
gru
grup
gt
gu
gua
guardian
guatemala
gubre
guest
guftu
guh
guhan
guhandar
guhandare
guhar
guhartin
guhartina
guhartoyeke
guhastin
guhaztin
guhaztina
guhdar
guhdari
guhe
guherandin
guherandina
guherbar
guheri
guhertin
guhertina
guhertine
guherto
guhertoya
guhertoye
guhi
guhis
guhle
guhori
guide
gujarati
gul
gula
gulan
gulana
gulane
gulas
gulav
gulberroj
gulbije
gulc
gule
guli
gulistan
guliye
guls
gulu
gum
guman
gumana
gumanbar
gumandar
gumane
gumankirin
gumgumok
gumi
gumlat
gumreh
gumrehi
gun
gunan
guncan
guncandin
guncav
guncave
guncaw
gunci
gund
gunda
gundan
gunde
gundek
gundekani
gundeki
gundi
gundik
gundike
gundistan
gundistana
gundistani
gundiyan
gundiye
gundor
gune
guneh
gunehan
gunehbar
gunehe
gunehkar
gunehkari
gung
gungili
gupik
gur
gura
gurahi
guran
gurandin
gurc
gurci
gurcistan
gurcistane
gure
gurgi
gurgume
guri
gurimti
gurm
gurme
gurmi
gurr
guru
gurz
gurze
gurzkirin
gus
gustav
gusti
gut
guten
guvas
guwarani
guy
guyton
guzari
gv
gwe
gwi
h
ha
habe
haben
haber
habi
hac
hacet
haci
haco
had
hade
hadi
hafil
hafiz
haft
hai
hair
hak
hakim
hakimi
hakkı
hal
hala
halan
hale
halet
half
hali
halil
halk
hall
halloween
halten
halu
halva
halxwes
ham
hambu
hamburg
hami
hamid
hamilton
hammer
hampshire
hamza
han
hana
hand
handbook
handed
hander
handere
handin
hane
hang
hangi
hani
hanja
hanna
hannover
hans
happy
har
harbu
hard
hare
hareket
harem
hari
harper
harry
hart
haru
harun
harv
harvard
has
hasan
hasil
hasilandin
hast
hastalıg
hat
hata
hate
hati
hatibe
hatibin
hatibu
hatim
hatin
hatina
hatine
hatiya
hatiye
hato
hatu
haus
hause
haute
hautes
hauts
hava
have
havi
havil
havildar
haw
hawa
hawaii
hawar
hawara
haware
hawayi
hawe
hawi
hawir
hawirdor
hawirdore
hawsayi
hay
haya
hayat
haydar
haydari
hayde
haye
hayvan
hayır
haz
hazir
haziran
haziri
hazirkirin
hb
hd
hdp
he
head
health
hear
heart
hearted
heat
heavy
heb
heba
hebandin
hebe
hebes
hebi
hebin
hebs
hebu
hec
hece
hecel
hecer
heci
hecimandin
heciqandin
heciye
hed
hedan
hedar
hede
hedef
hedi
hedimandin
hedimi
hedirandin
hediri
hediye
hefidandin
hefik
hefinandin
hefs
hefsar
hefsi
heft
heftan
heftane
hefte
heftem
heftemi
hefteya
hefteyan
hefteye
hefteyi
hegazi
hegel
heger
heidelberg
heinrich
hej
hejandin
hejar
hejari
hejde
heji
hejikandin
hejiki
hejiqandin
hejmar
hejmara
hejmaran
hejmare
hejmarek
hejmareke
hejmari
hejmartin
hejmartine
hek
hekandin
hekari
hekariye
heke
heki
hekimandin
hektar
hel
hela
helal
helan
helandin
helaw
helbest
helbesta
helbestan
helbeste
helbesteke
helbesti
helbestvan
helbestvane
helbestvaneki
helbestvani
helbet
heleb
helebc
helebce
helebe
helehel
helelos
helen
heleni
heli
helicandin
helikandin
heliqandin
helisandin
helizandin
helkis
hell
hellu
helmandin
help
helwes
helwest
helwesta
helweste
helyu
hem
hema
hemal
hemam
heman
hembe
hember
hembera
hembere
hemberi
hemc
hemd
hemde
hemdem
hemdemi
hemdi
heme
hemedan
hemen
hemi
hemikandin
hemiyan
hemko
hemle
hemo
hemoglobi
hempa
hems
hemsi
hemu
hemwelati
hemwelatiye
hemze
hen
hena
henase
henasedane
henaseye
hende
hendik
hene
henefi
henek
henekan
heneke
heneki
heng
henge
heni
henna
henri
henry
hep
hepisandin
heps
hepse
heq
heqaret
heqe
heqi
her
hera
herald
heram
herb
herbert
herc
herdem
herdemi
herdu
herduyan
here
hereket
hereketa
herekete
herem
herema
hereme
heres
herf
herfa
herfe
hergav
herheri
herheyi
heri
heridandin
herifi
heriki
herim
herimandin
herimi
herin
heris
herisa
herise
heritage
heriye
herka
herkes
herkesi
herki
hermann
hero
herr
herres
herri
hers
herse
hertim
hertimi
hertis
herweha
herweki
herwesa
herwiha
herwisa
herzegovi
hes
hesab
hesaba
hesabe
hesabkirin
hesan
hesandin
hesar
hesare
hesas
hese
heseke
hesen
hesene
hesi
hesibandin
hesibi
hesidandin
hesilandin
hesin
hesine
hesini
hesirandin
heski
heso
hesp
hespan
hespe
hespi
hespike
hesret
hesreta
hesse
hessen
hest
hesta
heste
hesti
hestiyan
hestiyar
hestiye
hestyar
hestyari
hesu
het
heta
hetahetayi
hetani
hetav
hete
heter
heti
hetikandin
hetiki
hetta
heute
hev
heval
hevala
hevalan
hevalbend
hevalbende
hevalbendi
hevalbic
hevale
hevaleki
hevali
hevalti
hevbend
hevbendi
hevber
hevberi
hevbes
hevbi
hevbu
hevc
hevde
hevdehem
hevdem
hevdeng
hevdengi
hevdi
hevdu
heve
hevedudani
hevgirti
hevgirtin
hevgirtina
hevi
hevji
hevkar
hevkare
hevkari
hevkariya
hevkariye
hevke
hevkirin
hevmane
hevok
hevoka
hevoke
hevpar
hevpari
hevpe
hevpeyivi
hevpeyman
hevpeymana
hevpeymane
hevpeyvi
hevpis
hevra
hevraz
hevre
hevreh
hevreha
hevrehe
hevri
hevriki
hevring
hevris
hevs
hevseng
hevsengi
hevsengiya
hevsi
hevta
hevtayi
hevte
hevu
hevwate
hevwateya
hevzayend
hevzayendan
hevzayendi
hew
hewa
hewale
hewandin
hewar
heware
hewaya
hewaye
hewayi
hewce
hewcedar
hewcedari
hewceyi
hewd
hewe
hewes
hewi
hewil
hewirandin
hewisi
hewkirin
hewl
hewla
hewldan
hewldana
hewldane
hewle
hewrami
hews
hewti
hewz
hewze
hexamenis
hey
heya
heyam
heyama
heyame
heyat
heyate
heybet
heyder
heye
heyecan
heyeta
heyf
heyfa
heyi
heyirandin
heyiri
heykel
heyna
heyran
heyrani
heys
heysu
heytehol
heytu
heyv
heyva
heyve
heywan
heywana
heywanan
heywane
hez
hezandin
hezar
hezaran
hezare
hezari
hezarsala
hezex
hezexe
hezi
hezkiri
hezkirin
hezkirina
hezkirine
hezm
hezro
hg
hi
hibir
hic
hicre
hicri
hicu
hidayet
hidu
hier
hig
high
higher
hijmara
hijmartin
hikayet
hikayetan
hikmet
hiku
hikum
hikumeta
hil
hilal
hilani
hilave
hilawi
hilberandin
hilbere
hilberi
hilbestandin
hilbijart
hilbijarti
hilbijartin
hilbijartina
hilbijartinan
hilbijartine
hilbije
hilbu
hilc
hilda
hildan
hildaye
hilde
hildide
hildiwes
hile
hilgaftin
hilgir
hilgirtin
hilhatin
hilhili
hili
hilingivi
hilisi
hiljenandin
hilke
hilketin
hilkirin
hilkis
hilkoli
hill
hills
hilm
hilma
hilme
hilpeki
hilpis
hils
hilti
hilu
hilwes
him
himber
hime
himi
hin
hina
hinan
hinar
hinare
hinartin
hinav
hinceta
hincirandin
hind
hinda
hindav
hinde
hindek
hindi
hindik
hindiki
hindir
hindire
hindiri
hindistan
hindistane
hindu
hine
hinek
hinekan
hineke
hineki
hing
hingaftin
hinge
hingi
hingiv
hingive
hingivi
hino
hip
hiqu
hir
hirc
hiri
hiriye
hirmi
hirori
hiru
his
hisab
hise
hisi
hisni
hispania
histe
histoire
historia
historical
historique
history
hit
hitler
hittp
hiyerars
hiz
hizb
hizi
hizir
hizirandin
hiziri
hizirkirin
hizra
hizre
hizu
hj
hker
hkirin
hl
hle
hlen
hm
hmal
hmkirin
hn
hna
hndar
hne
hneke
hnen
hnfireh
hnfirehi
hni
hniji
hnteng
hntengi
hnvedane
hnxwes
ho
hoboken
hockey
hof
hogir
hokara
hokare
hoker
hol
hola
holandi
hold
hole
holen
holenda
holendaye
holendi
holi
hollywood
holmes
holstein
holt
holy
home
homme
homo
homoseksuel
homosexuality
honaka
hong
honor
hook
hop
hope
hor
hori
hormon
hormona
hormonan
hormone
horn
horror
horse
hos
hose
hospital
hostaye
hoste
hot
hotel
houghton
hour
house
houston
hov
hovane
hovi
how
howard
hoy
hoz
hoza
hozan
hozane
hoze
hr
hradis
hre
hren
hrer
hri
hrlich
hrsg
hrt
hrung
hsan
hsb
ht
htd
hti
htir
htiri
htm
html
http
https
hu
hua
hub
huc
hudu
hugo
hui
hukim
hukimran
hukimrani
hukm
hukme
huku
hukumeta
huli
human
humbug
hun
hund
hundert
hundir
hundire
hundiri
hundred
hundur
hundure
hunduri
huner
hunera
hunere
huneri
hunermend
hunermenda
hunermende
hunermendeki
hungary
hunger
hunt
hur
hurmet
hus
huse
husein
huseyi
huseyin
huseyn
huseyni
husn
hut
hutik
huzu
hw
hwd
hy
hyde
hye
hyperleda
hz
hıs
hɑ
həs
hɛ
hɛd
hɛsɑ
hɛv
hɛvɑ
hɛwɑ
hɛɾɑ
hɪl
hɪlɑ
i
ia
ian
ias
ib
ibandin
ibe
ibhe
ibi
ibin
ibn
ibrahi
ibrahim
ic
ice
ich
id
ida
idaho
idan
idandi
idandin
idayi
ide
identity
idet
idi
idiot
ido
ie
if
ifa
ifandin
ifbb
ifi
ift
ifte
iftira
ig
ih
ihi
ihm
ihmal
ihn
ihnen
ihr
ihre
ihtimal
ihtimalen
ihtimam
ihtiram
ihtis
ii
iii
iir
ij
ik
ika
ikak
ikan
ikand
ikandi
ikandin
ikandina
ikar
ikayet
ikbu
ikc
ikdar
ike
ikeft
ikefta
ikefte
ikek
ikeke
ikesti
ikestin
ikestina
ikeva
iki
ikil
ikilandin
ikildane
ikili
ikin
ikir
ikizandin
ikl
ikle
ikli
iku
il
ila
ilbu
ilc
ile
ilek
ilemeni
ileri
ileya
ileye
ilf
ili
ilig
ilik
ilikandin
ilim
iliqandin
ilis
ilk
ill
illinois
illness
illustrated
ilm
ilme
ilmek
ilmi
ilmisi
ilo
ilpandin
ilqandin
ilqi
iltax
iltaxi
iltica
iltimas
ilu
ilvirandin
ilviri
im
ima
image
images
imandin
imaq
imdb
imdbe
ime
imi
imki
immer
immutare
imr
ims
imtarihi
imu
in
ina
inan
inandin
inar
inara
inare
inc
ince
inci
inde
inden
independence
independent
index
india
indian
indiana
indo
indonesia
indonezi
industry
ine
inen
info
informal
informati
information
ing
ingal
ingala
ingale
inge
ingec
ingi
ingili
ingli
inhaltsverzeichnis
inherit
ini
inin
inis
inkar
inmek
inn
inner
ino
inoye
ins
insaf
insan
insee
inside
instagram
institut
institute
institutkurde
instrument
int
intelligence
international
internet
internete
interrogare
interview
inti
intiqab
into
introduction
invalid
invisible
inwan
io
iowa
ip
ipa
ipc
iphone
ipi
ipik
ipil
ipilandin
iq
iqa
iqandin
iqas
iqasi
iqbal
iqe
iqi
iqiti
iqtidar
ir
ira
irak
iran
irandin
iranian
iranica
iraq
iraqe
iraqi
irav
irax
irbet
irc
ire
ireland
iret
irfan
iri
irik
irikandin
iriki
irin
iris
irisandin
irish
irisi
iriya
irk
irkandin
irke
irket
irketa
irkete
irki
irme
irmek
irmixandin
irnex
irnexe
iro
iron
irove
irpandin
irpi
irr
irri
irs
irtik
irtis
iru
is
isa
isaac
isbn
isi
isim
isis
iskud
isla
islam
islami
islamic
island
ism
ismail
iso
israel
israeli
israf
israi
israr
issn
issue
ist
istan
istanbul
istat
isti
istirehet
it
ita
italian
italy
ite
iti
itibar
itifaq
itil
itim
itis
itiye
ito
its
iu
iucn
iucnredlist
iv
iva
ivan
ivandin
ivane
ivani
ive
ivere
ivi
ivik
ivilandin
iwal
iwane
iwar
iwi
ix
ixat
ixatik
ixe
ixi
ixul
ixulandin
ixule
ixuli
iya
iyan
iyana
iyane
iyar
iyayan
iyaye
iyayeki
iyayi
iye
iyek
iyeke
iyet
iyi
iyone
iz
izady
izdiham
izi
izin
iʃvili
j
ja
jaba
jabber
jack
jackson
jacob
jacques
jad
jahi
jahiya
jahr
jahre
jam
james
jan
jana
janbar
jandar
jandin
jane
janeiro
jang
jani
january
japan
japon
japone
japoni
japonya
japonyaye
jar
jargon
jari
jas
jason
java
javayi
jay
jaye
jayi
jaypee
jazz
jbu
jdar
jdb
je
jean
jehr
jehra
jehrdayi
jehre
jehri
jek
jeka
jeke
jeki
jekyll
jen
jena
jenandin
jene
jeng
jeni
jennifer
jenosi
jentin
jeoloji
jeqi
jer
jera
jeri
jerry
jersey
jerusalem
jerya
jessica
jest
jet
jetzt
jev
jevan
jewergir
jewish
jeya
jeyan
jeye
jeyeke
jeyi
jgeha
ji
jia
jiber
jiberkirin
jibi
jibo
jidayi
jidayikbu
jidest
jidil
jihevqetandin
jik
jike
jiki
jim
jima
jimar
jimara
jimarbar
jimare
jimareya
jimareye
jimartin
jime
jin
jina
jinan
jinani
jine
jinek
jineke
jing
jinge
jini
jinik
jinike
jinu
jire
jit
jivan
jixwe
jixweber
jiya
jiyan
jiyana
jiyandin
jiyane
jiyanek
jiyaneke
jiyani
jiyar
jiyaye
jiye
jiyi
jk
jker
jki
jkiri
jkirin
jkirina
jmara
jn
jne
jneyi
jo
joan
job
joe
johann
johannes
john
johnny
johnson
join
jok
joki
jon
jonathan
jones
jor
jora
jordan
jore
jorefami
jori
jose
josef
joseph
josh
journal
journey
jovan
joy
joyce
joyi
jpg
jr
jti
jtin
jtir
ju
juan
juli
julia
julian
julius
july
jumbo
jun
june
jung
junge
juni
junk
jupiter
jurukovski
just
justice
justin
jv
jwaideh
jı
jɑ
jɛ
jɛt
k
ka
kab
kaba
kabe
kabi
kabu
kabul
kac
kadar
kadi
kadir
kadroye
kadın
kafa
kafe
kaffee
kafi
kafir
kaftin
kag
kahi
kahu
kai
kaiserslauterne
kaj
kaji
kak
kaki
kakil
kakile
kaku
kal
kala
kalali
kalan
kalas
kaldırmak
kale
kaleki
kali
kalik
kalike
kalmak
kalmamak
kalo
kalori
kalp
kalsi
kalsiyume
kalvi
kam
kama
kambax
kamc
kame
kamera
kameraye
kameru
kami
kamil
kamiran
kamirani
kamp
kampa
kampanya
kampanyaya
kampanyaye
kampe
kampu
kamran
kamu
kan
kana
kanabi
kanada
kanadaye
kanadayi
kanal
kanala
kanale
kanaleke
kanali
kanc
kandi
kandin
kane
kani
kaniya
kaniyan
kaniye
kanlık
kann
kannadayi
kansas
kanser
kansi
kant
kanti
kanton
kantona
kantone
kantoni
kanu
kanza
kanı
kaos
kap
kapasi
kapi
kapı
kar
kara
karac
karaca
karahan
karakter
karaktere
karakteri
karan
karani
karanti
karbidest
karbideste
karbidesti
karbohi
karbon
karbona
karbone
kardan
kardes
kardi
kare
kareba
karebayi
karek
kareke
kareki
karesat
karge
kargeh
kargehe
karger
kargeri
kari
karibe
karibin
karibu
karik
karin
kariya
kariye
kariyer
kariyera
karkenar
karker
karkeran
karkere
karkirin
karkirina
karkirine
karl
karma
karmend
karmende
karpe
kars
karsaz
karsaze
karsaziya
karsaziye
kart
karta
karte
karti
kartol
kartu
karu
karwan
karwane
karxane
karzan
karıs
kas
kasa
kase
kaset
kasu
kasyon
kasım
kat
kata
katalani
katalog
katastrof
kate
kategori
kategorie
kategoriya
kati
katiya
katiye
katjime
katoli
katu
kau
kaufen
kaufhaus
kauft
kave
kavil
kavus
kawa
kawaye
kaxez
kaxeze
kaxezi
kaxezk
kaxiz
kaxize
kaya
kaye
kayi
kaymak
kaynak
kaz
kazakhstan
kazan
kbirin
kbs
kbu
kc
kdan
kdank
kdanke
kdar
kdari
kde
ke
kebab
kebani
kec
ked
keda
kede
keder
kedi
kedirandin
kedkar
keel
keep
kef
kefa
kefalet
kefc
kefen
kefi
kefilandin
keft
kefteleft
kefti
keftin
keftina
keftine
keftu
kehanet
kehkes
kein
keine
keinen
kek
keka
keke
keki
kel
kela
kelam
kelandi
kelandin
kelas
kele
kelecan
kelegiri
keleh
keleha
kelehe
kelek
keleke
kelem
kelemc
keleme
kelepora
kelepu
keles
keleyber
kelha
kelhe
kelhu
kelhuri
keli
kelij
kelis
keliya
kelk
kellaterzan
keller
kelly
kelogiri
kels
kelti
kelu
kem
kemal
kemali
keman
kemanc
kemane
kemaxa
kembax
kembera
keme
kemer
kemera
kemi
kemig
kemilandin
kemili
kemirandin
kemitandin
kempa
ken
kena
kenan
kenandin
kenar
kenare
kence
kenceye
kend
kendal
kendav
kendava
kendave
kendi
kendine
kendini
kendu
kene
kenge
kengi
keni
kennedy
keno
kenok
kenoke
kenoki
kent
kentucky
kenya
kenz
kepaze
kepi
kepir
ker
kera
keramet
keran
kerati
kerb
kerbandin
kerboran
kerbu
kerd
kerden
kerdene
kerdis
kerdo
kere
kerek
kereke
kereki
kerekirin
kerem
kerema
kereme
kerese
kereseye
kerevi
kereyi
keri
keribi
kerik
kerin
kerinan
kerine
kerino
kerixi
keriya
keriye
kerker
kerki
kerku
kerme
kermidandin
kern
kero
kerpi
kerr
kert
keru
kes
kesa
kesafet
kesan
kesane
kesayeti
kesayetiya
kesayetiye
kese
kesek
keseke
keseki
kesen
keser
kesi
kesidandin
kesilmek
kesin
kesirandin
kesixandin
kesk
keske
keskesor
keski
keskin
kesku
kesmek
kesp
kesti
kestin
kesu
ket
keta
kete
ketelani
keti
ketibu
ketim
ketin
ketina
ketine
ketiya
ketiye
ketu
kev
kevan
kevane
kevani
kevc
keve
kevi
kevin
kevintiri
kevir
keviran
kevirbiri
kevire
kevireki
keviri
kevjal
kevn
kevnar
kevnare
kevnbu
kevne
kevneperest
kevnes
kevnu
kevok
kevoke
kevz
kew
kewa
kewan
kewandin
kewar
keware
kewc
kewe
kewi
kewirandin
kewn
kews
kexane
kexaneye
key
keya
keyan
keyani
keyaniya
keyaniye
keybanu
keye
keyf
keyfi
keyi
keys
kezeb
kezeba
kezebe
kezi
kezibandin
kfiros
kg
kh
kha
khan
khat
khate
khateya
khateye
khateyek
khati
khatin
khatina
khatiye
ki
kibar
kibri
kic
kick
kid
kiewicz
kif
kifri
kifs
kil
kila
kilam
kilama
kilame
kilandin
kilat
kildani
kildar
kildari
kile
kili
kilisandin
kiliya
kiliyan
kiliye
kiliyek
kilkirin
kill
killed
killing
kilmu
kilo
kilor
kilox
kiloxe
kils
kim
kimdir
kime
kimse
kin
kinan
kinandin
kinc
kincan
kincandin
kince
kind
kinder
kine
king
kingdom
kini
kino
kip
kir
kira
kiran
kiras
kirase
kird
kirde
kirdin
kirdki
kire
kirec
kirgi
kirgizi
kiri
kiribe
kiribi
kiribim
kiribin
kiribu
kirim
kirin
kirina
kirine
kirinek
kirineke
kirini
kirinin
kiris
kiritandin
kiriya
kiriye
kirkirk
kirkirke
kirku
kirm
kirmanc
kirmanci
kirmancki
kirmans
kirmas
kirmis
kiro
kirok
kirox
kirpandin
kirpi
kirri
kirt
kirti
kiru
kiryar
kiryara
kiryare
kirye
kis
kiss
kistan
kisu
kit
kita
kitab
kitabe
kitan
kitap
kite
kitik
kivi
kivs
kiwe
kiya
kiyan
kiyatri
kiye
kiyek
kiz
kizi
kizirandin
kizkizandin
kk
kker
kkiri
kkirin
kkirina
kkirine
kl
kla
klas
klasi
klaus
kle
kleid
klein
klemek
kleopatra
kles
kli
klopedi
klopediya
klu
km
kme
kmek
kn
knas
knase
knaseki
kni
knock
know
known
ko
koali
koanali
kobane
kobani
kobaniye
koc
koca
koch
kod
koda
kode
koendama
kofi
koj
kok
koka
kokai
koke
koki
kol
kola
kolan
kolana
kolanan
kolandin
kolandine
kolane
kolay
kole
koleja
koleksiyon
kolekti
koleti
koli
kolik
kolika
kolike
kologi
koloji
kolombiya
kolombiyaye
koloni
kolonyali
kom
koma
koman
komar
komara
komare
komari
kombers
kombi
kombu
kome
komedi
komek
komeka
komeke
komeki
komela
komele
komeleya
komeleye
komelgehe
komelgeheke
komi
komik
komir
komkirin
komkirina
komkuji
komkujiya
komkujiye
kommen
kommt
kompanya
komparati
kompi
kompleks
kompozi
kompromi
kompu
komputer
komputere
komste
komu
komune
komuneke
komuneki
komuni
kon
kone
koneti
konfederasyona
konferans
konferansa
konferanse
kong
kongo
kongoye
kongra
kongreya
kongreye
konser
konsere
konservati
konseya
konstanti
kont
kontak
kontrat
kontrol
kontrola
kontrole
kontrolkirin
kontrolkirina
konus
koordi
kop
kopa
koparmak
kopi
kor
kora
koran
kore
korea
korean
koreya
koreye
koreyi
kori
korik
korni
koro
korol
koronaye
korpele
korpeleye
korsan
korsi
kort
korta
kos
kose
kosp
kosta
kot
kotahiya
kotan
kotavayi
kotek
koteki
koter
koti
kov
kovan
kovar
kovara
kovarabir
kovaran
kovare
kovarek
kovareke
kovi
kox
koye
koyi
koymak
koz
kozik
kr
kra
kram
krank
krayna
kraynaye
krayni
krd
kre
kredi
kreis
kreise
kres
kreuznache
kri
kro
kroati
kroatya
kromati
kromozom
kromozoman
kromozome
kroni
krso
kru
kruse
ks
ksek
ksel
ksembu
ksi
ksu
kt
kte
kti
ktir
ktiri
ktu
ku
kubandin
kubar
kubi
kuc
kuchen
kufi
kufikandin
kufiki
kuflet
kufri
kufte
kufteya
kufteye
kuj
kuje
kujer
kuji
kujtin
kukurt
kul
kula
kulag
kulak
kulandin
kulav
kulave
kulbu
kule
kulek
kuli
kulik
kulm
kultu
kultur
kulturi
kulturname
kulu
kum
kumas
kume
kumik
kumiki
kumis
kun
kuna
kunc
kunci
kund
kunde
kundir
kundirandin
kundire
kune
kunkuni
kur
kura
kuran
kurandin
kurd
kurda
kurdan
kurdandin
kurdbu
kurde
kurdeki
kurden
kurdewari
kurdi
kurdica
kurdische
kurdish
kurdistan
kurdistana
kurdistane
kurdistani
kurdiya
kurdiye
kurdki
kurdo
kurds
kure
kureki
kuri
kurik
kurisandin
kurk
kurke
kurm
kurmak
kurmanc
kurmancan
kurmance
kurmanci
kurmanciya
kurmancki
kurmanji
kurme
kurmi
kuro
kurr
kurre
kurri
kurs
kursi
kursiye
kurt
kurtan
kurtasi
kurte
kurtebe
kurtec
kurtefi
kurtenave
kurteya
kurti
kurtkiri
kurtkirin
kurtkirina
kuru
kus
kusele
kut
kuta
kutan
kutandin
kutayi
kuti
kutilk
kutkutandin
kuwait
kuwe
kuxi
kvan
kvane
kve
kw
kwi
kx
kxane
kxaneya
kxaneye
kxistin
kxistina
ky
kyle
kyrgyzstan
kzan
kı
kıc
kılavuzu
kılıc
kın
kırk
kırmak
kırmızı
kırık
kıs
kısa
kız
kɑ
kɛ
kɛɾ
kɪ
kɪl
kɪli
kɪm
kɪn
kɪɾ
kɪɾe
kɪɾɪ
kɪɾɪbu
kɪɾɪn
kɪʃɑ
kɾɑ
l
la
labi
labikandin
labour
lac
lad
lade
ladi
lady
laf
lag
lah
lahe
lahi
lahiyet
lai
lak
lake
lakes
laki
lakin
lakirin
laksi
lal
lale
lales
lali
lalu
lam
lama
lamak
lame
lampe
lan
lana
land
landau
landik
landin
landkreis
lane
lanet
lang
lange
language
languages
lani
lank
lanka
lanker
lankirin
lanmak
laos
laq
laqirdi
lar
large
lari
ları
las
lasayi
lassen
last
lasti
lasyon
lasyone
lat
late
later
lati
latin
latini
latviyayi
laudakia
laura
laurent
laut
lav
lava
lavare
lave
lavk
law
lawan
lawandin
lawaz
lawe
lawik
lawike
lawir
lawiran
lawire
lawo
lawrence
lawsi
lax
lay
laya
layan
laye
layen
layet
layeta
layete
layetek
layi
layiq
laz
lazarev
lazi
lazim
lazu
lazım
lb
lbaz
lbazi
lbu
lc
ld
ldan
ldar
ldari
ldu
le
lead
leader
league
learn
learning
least
leave
lebanon
lebat
lebaz
lebazi
lebe
leben
lebikandin
lebiki
lebitandin
lebiti
lec
lecture
led
leda
lee
lefone
left
leg
legal
legell
legen
legend
legends
legerin
leh
lehc
leheng
lehenge
lehi
lehiye
lehmann
lehrbuch
lehrer
lehrerin
leiden
leiothrichidae
leipzig
lek
leka
lekan
leke
lekedar
leki
lekirin
lektion
lem
lema
lemandin
leme
lemek
lemisandin
lemtor
len
lenda
lendi
lenet
leng
lenger
leni
lenmek
lent
leo
leon
leopard
lep
lepik
lepus
leq
leqandin
leqi
leqitandin
leqiti
ler
lere
leri
lerizandin
lerizi
lernen
lerz
lerzi
les
lesbian
lescommunes
lesen
leser
lesiqandin
less
let
letare
leti
letimandin
letonya
letter
letters
lev
leva
level
lew
lewbandin
lewc
lewendi
lewer
lewhe
lewirandin
lewis
lewitandin
lewiti
lewma
lewn
lewra
lewre
lexicon
leya
leyan
leye
leyek
leyeke
leyi
leyla
leylan
leyman
lez
leza
lezandin
lezbiyen
lezet
lezgi
lezi
lezu
lfiros
lgbt
lge
lgeh
lh
lham
lhama
li
lia
lib
libas
libat
libe
liberal
liberare
libin
libnan
libnane
library
lice
licimandin
licu
lidarxistin
lidu
lie
liebe
liechtenstein
liegen
liegt
liest
life
ligel
light
ligor
lih
lihe
lihev
lihevhati
lihevhatin
lihevketi
lihevketin
lihevkirin
lihevxistin
lijneya
lik
lika
likan
like
liki
likimandin
likumi
lim
lima
lime
limited
lin
linan
lincoln
linda
linde
line
lineal
ling
lingalayi
lingan
linge
lingua
link
links
linum
linux
lion
lip
liq
liqe
lire
lis
liser
list
lit
literature
lito
little
liu
liv
livandin
live
lives
livi
living
livlivandin
livlivi
livok
lix
lixav
lixwe
liya
liyan
liye
liyet
liz
lk
lka
lkan
lkar
lkdar
lke
lker
lkeri
lkeyan
lkeye
lkeyi
lki
lkiri
lkirin
lkirina
lkiyede
lku
lkɪ
ll
lla
llah
llaye
lle
llen
ller
lli
llig
llt
llu
lm
lma
lman
lme
lmek
lmeke
lmeki
lmi
ln
lo
lobi
local
lock
lod
log
logo
loir
loire
loireta
loirete
lojbani
loji
lok
loka
lokal
lokanoyi
loke
loki
lokman
lokomoti
lolo
loma
lombardi
lome
lometre
lometreyan
lon
lona
london
londone
lone
long
lonicera
look
looking
lopez
lopijandin
loq
lor
lord
lori
los
lose
losos
lost
lot
loti
lotik
lotikxane
loughlin
louis
louisiana
love
low
lower
lox
loyal
loyali
loye
lozane
lozof
lozofe
lozofeki
lpe
lqi
ls
lt
ltd
lte
lter
lteya
lti
ltr
ltu
lu
luck
ludwig
ludwigslust
luis
luk
luksembu
lula
luqman
lur
luristan
luristane
lust
luxembourg
luyi
lv
lvan
lvana
lwe
ly
lya
lyar
lyaye
lye
lyga
lyon
lı
lık
lɑ
lɛ
lɪ
m
ma
mabu
mac
macari
machen
machine
macht
maci
mackenzie
macu
mad
madagaskar
madde
maddeye
made
madem
maden
madene
madeni
mader
madeya
madeyan
madeye
madeyek
madeyeke
madi
madrid
maf
mafdar
mafe
mafi
mafu
mag
magazi
magazine
magic
magneti
mah
mahabad
mahi
mahir
mahmu
mahmud
mahmut
mahsa
mai
mail
main
maine
maint
maj
major
mak
maka
make
makedoni
makedonya
makeqanu
maker
makes
makezagona
makezagone
maki
making
maksi
maku
makyaj
mal
mala
malagasi
malan
malana
malandin
malayalami
malaysia
malbat
malbata
malbatan
malbate
malbatek
malbateke
malbati
maldar
maldari
male
malek
maleke
malezi
malezya
mali
malik
malika
malike
maliki
malis
maliyet
malmezin
malmi
malnis
malper
malpera
malperan
malpere
malpereke
malta
maltayi
malu
malwe
malxwe
malzarok
malzaroke
malzeme
mam
mama
mame
mamik
mamosta
mamostaye
mamoste
mamosteti
mamostetiya
mamostetiye
mamosteye
man
mana
management
manan
manc
manchester
mandari
mandel
mandi
mane
manedar
maneke
manend
manewi
maneya
maneye
mang
manga
mange
mani
maniya
maniye
manker
manksi
mann
mans
mantel
mantiq
mantiqe
mantiqi
manto
manu
manuel
manure
many
manyeti
mao
maori
map
maqu
mar
mara
maran
marati
marburg
marc
march
marcus
mare
maregi
margaret
margari
margi
mari
maria
marie
marin
marino
maristan
maritime
mariya
marji
mark
marka
markaye
marke
market
marki
marks
marksi
marmasi
marne
marneye
maroko
marriage
mars
marse
marshall
mart
martes
marti
martial
martin
marvel
marx
mary
maryland
mas
masaj
mase
maseya
maseye
masi
masiya
masiyan
masiye
mask
maskara
mason
mass
massachusetts
mast
maste
master
masu
mat
mata
matbaası
match
mate
matem
matemati
materyal
materyale
materyali
mati
matmayi
matnamee
matt
matter
maurice
mavi
mawe
maweya
max
maxim
may
maya
mayayiya
maye
mayi
mayinde
mayli
mayıs
maz
mazda
mazenderan
mazenderane
mazenderani
mazi
mazin
mazos
mazot
mazu
mb
mbu
mc
mcgraw
mckinley
mcmillan
md
mdar
mdf
me
meal
meaning
means
meas
meat
mebest
mebesta
mebeste
mebu
mec
mecal
mecari
mecaristan
mecaristane
mecazi
mecbu
meci
mecklenburg
mecklenburgische
mecli
meclis
meclisa
mecnu
med
medaille
medan
mede
medeni
medi
media
medical
medicine
medium
mediyan
medor
medrese
medreseya
medreseye
medya
medyaya
medyaye
meet
mefer
meh
meha
mehabad
mehabade
mehan
mehane
mehbu
mehcu
mehd
mehde
mehdi
mehdu
mehe
meheke
meheli
mehemed
mehf
mehi
mehikandin
mehilandin
mehitandin
mehkeme
mehku
mehmed
mehmet
mehmu
mehmud
mehn
mehname
mehr
mehru
mehu
mei
mein
meine
meji
mejiye
meju
mek
meka
mekan
mekani
meke
mekeh
mekeye
meki
mekinandin
mekke
meksi
mekteb
mektu
mel
mela
melankoli
melaqi
melaye
melayi
melbourne
mele
meledi
melediye
melek
melekan
meleke
meleqandin
meleti
meletiye
melevan
melevani
melezi
melhem
meli
melik
melodi
melon
melu
mem
meme
memi
memik
memlu
memnu
memo
memorial
memory
memu
men
mena
mend
menda
mende
mendehos
mendi
mendiya
mendiye
mene
menek
meneke
mengene
mengi
mengurri
meni
mens
mensa
mensu
ment
mental
mentiq
mento
menu
menzi
menzu
meqam
meqame
meqbu
meqes
mer
mera
merandin
meraq
merasi
merasim
meraxa
merc
mercan
merce
merci
merciya
merd
merdan
merdi
merdim
mere
merem
merend
mereq
meres
merg
merge
mergeya
mergeyan
mergeye
merhem
merhemet
meri
meric
meriv
merivan
merive
meriyete
merkez
merkezi
mero
merriam
mers
mertal
mertek
merwani
merwaniyan
meryem
mes
mesafe
mesafeya
mesaj
mesci
mesela
mesele
meseleya
meseleye
mesi
mesken
mesku
meslek
mesnil
mesref
mess
messier
mest
mesti
mesu
met
meta
metal
metalek
metali
metan
metateze
metdar
mete
meteke
metel
metelok
meth
meti
metin
metirsi
metker
metne
metod
metoda
metode
metran
metre
metrec
metreyan
metreyi
metri
metro
metropole
metropolitan
metroya
metta
mewcu
mewi
mewlana
mewlu
mexdu
mexel
mexelandin
mexico
mexlu
mexmu
mexsed
mexzen
mey
meya
meyan
meyandin
meydan
meydana
meydane
meye
meyfiros
meyi
meyl
meyla
meymu
meyxane
meyxwer
meyxwes
mez
mezaxtin
meze
mezel
mezele
mezheb
mezheba
mezhebe
mezhebi
mezher
mezi
mezin
mezina
mezinahi
mezinahiya
mezinan
mezinbu
mezine
mezini
mezinkirin
mezintir
mezintiri
mezirandin
mezopotamya
mezopotamyaye
mezra
mezrandin
mezraye
mezre
mezreye
mezu
mfe
mfiros
mg
mgir
mha
mi
mia
mibarek
mic
mich
michael
michel
michigan
miciz
micro
microsoft
mid
middle
middleeast
midu
midyada
midyade
mie
mifa
mifflin
mift
mifti
mih
mihafize
mihawele
mihe
mihefeze
mihemed
mihemede
mihemmed
mihi
mihne
miho
mihrevan
mij
mijaj
mijandin
mijar
mijara
mijaran
mijare
mijareke
mijdar
mijdara
miji
mijmij
miju
mik
mike
miks
mikur
mil
mila
milan
milazgire
milch
mile
milet
milete
miletek
mileti
mili
military
milk
milke
milkiyet
mill
miller
millet
milli
milliarde
million
milliyet
milliyetc
millkari
milyar
milyon
milyonan
mimkin
min
mina
minan
minaq
minaqes
minasib
mind
minded
mine
mineral
minet
ming
mini
minister
ministry
minnani
minnesota
mino
minute
miqate
miqedes
mir
mirad
mirade
mirar
miraz
miraze
mirc
mire
mirekeb
mirgewer
miri
mirin
mirina
mirine
miriyan
miriye
mirmisandin
mirmitandin
mirov
mirova
mirovahi
mirovahiye
mirovan
mirovati
mirovatiye
mirove
mirovek
miroveke
miroveki
mirovhez
mirovhezi
mirovi
mirovperweri
miru
mirza
mis
misabiqe
misade
mise
misi
misilman
misilmanan
misilmane
misir
misira
misirce
misire
misiri
misk
miski
misliman
misoger
misogeri
misre
misri
miss
missing
mission
mississippi
missouri
mist
mistdan
mistefa
mistefaye
mit
mitabeqet
mitale
mite
miti
mitirb
mitri
miweqet
mix
mixabin
miya
miyan
miyanduaw
miyanduawe
miyane
miyaw
miye
miyet
miyozi
miz
mizafer
mizgeft
mizgefta
mizgefte
mizgi
mizi
mizic
mizicandin
mizici
mizu
mk
mkan
mkane
mke
mker
mkiri
mkirin
mkirina
mkɪ
ml
mle
mlu
mm
mn
mnasti
mo
mobi
mobile
moc
moda
mode
model
modela
modele
modern
moderni
modul
moduleke
mohr
moi
mok
moks
mol
moldova
mole
molecular
moleku
molekul
molekula
molekule
moloji
molojiya
moment
mon
monars
monde
mone
money
mongol
mongolan
mongoli
mongolia
mongolya
moni
monika
monitor
monster
mont
montaj
montana
monte
montenegro
month
moon
moore
mor
mora
moral
morali
moran
more
morfoloji
morgan
morgen
mori
morning
morris
mort
mortal
mos
mose
moskova
moskowe
most
mot
mote
mother
moti
motion
motor
motora
motore
mount
mountain
mountains
mouth
move
movement
movie
movik
moxe
moz
mozai
mozart
mp
mparatore
mparatori
mparatoriya
mparatoriye
mparatorluk
mpasawi
mperator
mperatore
mperatori
mperatoriya
mperatoriye
mpeyda
mpi
mr
mrs
mru
ms
msu
mt
mti
mtir
mtiri
mtv
mu
muc
much
muci
muh
muhammad
muhammed
muhemed
muhemmed
muhemmede
muhi
muhim
muhimi
muhr
muhtac
mukri
mukriyan
mukriyani
multi
multiple
mum
mumbai
muni
mur
murad
murat
muri
murr
murray
murs
mus
musa
muse
museum
musi
music
muslim
muss
must
mustafa
mustela
mutare
mutleq
mutter
muze
muzeya
muzi
muzik
mw
mxwi
my
mya
myager
myanmar
myaye
myayi
myewi
myriade
mza
mze
mzekirin
mı
mıs
mɑ
mɛ
mɛt
mɪt
n
na
nabe
nabi
nabin
nac
nach
nachmittag
nade
nadi
nadim
nadin
nadir
nae
nag
nagihi
nagire
nagirin
nah
naha
nahe
nahi
nahiya
nahiye
nahiyeya
nahiyeye
nahwatli
nahya
nai
nail
naja
nak
naka
nake
nakek
nakeve
nakevin
naki
nakim
nakin
nakoki
nakokiye
nakıs
nal
nala
nalandin
nalbend
nale
nalet
nali
nam
nambayi
name
named
names
nameya
nameyan
nameye
nameyek
nameyeke
nami
namo
namu
namzet
namzete
nan
nana
nandi
nandin
nane
nani
naniya
nano
nanpe
nanse
nap
napejiri
napoleon
napoli
naqs
nar
nara
nare
nari
narincok
narkoti
narsi
nas
nasa
nasandin
nase
nasekine
nasekirin
nasi
nasir
naskiri
naskirin
naskirina
nasname
nasnameya
nasnameye
nasnave
nasyon
nasyonali
nasyonalsosyali
nasıl
nat
nata
nate
nati
nation
national
nationalism
nations
native
nato
natu
natura
natural
nature
nau
nauru
nav
nava
navajoyi
navan
navandin
navbe
navber
navbera
navbere
navberi
navbeyna
navbeynkar
navbeynkari
navbeynkariya
navbir
navbori
navc
navdar
navdarbu
navdare
navdari
navdartiri
navdayi
navde
navdewleti
nave
navek
naveke
naveki
navend
navenda
navendan
navende
navendek
navendeke
navendi
navendiya
naverast
naverok
naveroka
naveroke
navgi
navi
navik
navika
navike
navinci
navki
navkirin
navle
navmali
navnedi
navneteweyi
navnetewi
navni
navoki
navpenc
navpere
navpos
navsere
navu
navxwe
navxweyi
naw
nawc
nawe
nawi
nawru
nax
naxwaze
naxwazin
naxwe
nay
naya
naye
nayi
naz
nazdar
naze
nazeni
nazi
nazik
naziki
naziyan
nazlu
nbar
nbari
nbaz
nber
nbere
nbexs
nbire
nbu
nc
nca
ncan
nce
ncem
ncemi
nchen
nci
ncia
ncik
ncs
ncu
nd
nda
ndan
ndana
ndane
ndani
ndar
ndara
ndaran
ndarbu
ndare
ndari
nde
ndem
nden
nder
ndere
ndertig
ndewer
ndeweran
ndewere
ndi
ndig
ndij
ndije
ndlich
ndo
ndonezya
nds
ndu
ndung
ndɑ
ndɪ
ndɪbu
ne
neani
near
nearam
neas
neasayi
nebas
nebat
nebatan
nebate
nebe
nebez
nebi
nebihi
nebin
nebinavkiri
nebit
nebraska
nebu
nec
necare
necat
neci
neck
neckar
necmedi
neda
nedan
nedane
nedar
nedaye
nede
nedersaksi
nedi
nedibu
nedic
nedihat
nedikir
nedils
nedim
nedin
nediyar
nee
need
nefel
nefermi
nefes
nefi
nefret
nefs
nefsa
nefsbic
neft
nefte
negati
neger
negerguhe
negermi
negihi
negihis
negir
negire
negiri
negirtin
neguhe
neh
neha
nehat
nehate
nehati
nehatibu
nehatin
nehatine
nehatiye
nehe
nehem
neheq
neheqi
nehi
nehis
nehmen
nehri
nehs
nehsi
nei
neil
nein
nejat
neji
nejimarbar
nek
neka
nekari
neke
neker
neket
neketi
neketin
nekeve
neki
nekim
nekin
nekir
nekira
nekiri
nekiribe
nekiribi
nekiribim
nekiribin
nekiribu
nekirin
nekirina
nekirine
nekiriye
nekis
nele
nelihev
nelire
nelle
nem
nema
nemabu
neman
nemane
nemaya
nemaye
nemayi
nemaze
neme
nemerd
nemi
nemir
nemiri
nemru
nemsa
nen
nenas
nende
nendeti
nendeye
neni
nenihe
nenivi
neo
neoli
nep
nepak
nepal
nepale
nepali
nepe
nepeni
neperu
nepi
nepis
nepixandin
nepixi
neqandin
neqanu
neqenc
neqi
neqil
neqis
neqiyasbar
neql
neqlkirin
neqs
ner
nera
neran
nerast
nerazi
nere
nerehet
nereheti
nerek
nereke
nereki
neri
nerihet
nerin
nerind
neriya
nerm
nermi
nermijandin
nermiji
nermik
nertiya
nes
nesax
nesaxi
nesaz
nesaze
nesekini
nesi
nesri
ness
neste
net
nete
netemam
netewe
netewepare
neteweperisti
neteweperwer
neteweperweri
neteweya
neteweyan
neteweye
neteweyi
netewi
netflix
netherlands
neti
netirs
netkurd
network
neu
neue
neustadt
neuville
nevada
neve
never
nevi
neviye
new
newa
newal
newala
newale
newe
newer
neweri
newi
newroz
newroze
news
newton
newyork
newzad
nexasim
nexe
nexedeye
nexis
nexos
nexs
next
nexwe
nexwes
ney
neya
neyan
neyar
neyari
neye
neyek
neyeke
neyi
neynik
neynike
neynu
nez
nezaket
nezan
nezani
nezer
nezewici
nezi
nezir
nezle
nezm
nezu
nf
nfaz
nfire
nfiros
ng
nga
ngali
ngan
ngane
ngav
ngave
ngazi
ngc
nge
ngeh
ngeha
ngehan
ngehe
ngeheke
ngen
nger
ngh
ngi
ngili
ngilistane
ngir
ngiya
ngiyaya
ngl
ngli
nglistan
nglistane
ngo
ngole
ngtiri
ngu
ngua
ngue
nh
nha
nhc
nhe
nhi
nhui
ni
nia
nic
nica
nice
nicholas
nicht
nicimandin
nick
nicolas
nicole
nie
nifi
nifir
nifireka
nifri
nifs
niftik
nifu
nig
nige
niger
night
niha
nihal
nihaya
nihe
niho
nij
nijad
nijada
nijade
nijadi
nijdar
nije
niji
nijinandin
nik
nika
nikah
nikare
nikari
nikaribe
nikaribu
nikarim
nikarin
nike
niki
nikil
nikul
nikulandin
nikule
nil
nim
nima
nimandin
nime
nimi
nimre
nimroya
nimu
nin
nina
ninan
ninde
nine
nino
nio
niqas
niqir
niquti
nirx
nirxa
nirxandin
nirxandina
nirxandine
nirxdar
nirxe
nis
nisan
nise
nisi
nit
nitirandin
nivandin
nive
niversitesi
nivi
nivis
nivisandin
nivisi
nivisti
nivistin
niwe
nixamtin
niximandi
niximandin
niya
niyan
niyar
niyara
niyare
niyasi
niyaz
niye
niyek
niyet
niyeta
nizam
nizane
nizani
nizanim
nizanin
nizar
nizili
nizim
nizm
nj
nja
nk
nka
nkar
nkari
nkati
nkayi
nke
nkeke
nker
nkere
nkereke
nkeri
nki
nkiri
nkirin
nkirina
nkirine
nko
nkɪ
nl
nlenda
nlendaye
nlu
nm
nme
nmek
nn
nna
nnas
nnasi
nnen
nner
no
noaa
nobedar
nobedari
nobel
nobele
noch
noel
nogayi
nojdar
nojdari
nok
noka
nokan
noke
noki
nola
nom
nomi
non
nonilliarde
nonillion
nonsense
nopoli
noq
noqi
nor
nora
nord
nordar
nordlanda
nordrhein
nordwestmecklenburg
nore
nori
norkiri
norkirin
norm
normal
normali
norman
normandi
normandiya
normandiyaye
norme
nors
norsiya
norski
north
northern
norway
norwe
norwec
norweci
norweciya
nos
not
note
nothing
notice
notre
noun
nouvelle
nov
nova
nove
novel
november
noviyali
now
noyi
nozde
nozdehem
npare
npe
npi
nr
nrm
ns
nsan
nsanan
nsane
nsar
nsi
nso
nster
nsti
nsu
nsuli
nt
nta
ntaya
nte
nteng
nter
nterli
nternet
nternete
nti
ntir
ntiri
ntu
ntwintig
nu
nuclear
nufusu
nuh
nuha
nui
nuke
nukleeri
nukleoti
number
numbers
nun
nur
nuri
nus
nut
nv
nvan
nve
nvedan
nwar
nware
nwe
ny
nya
nyal
nyale
nyarwandayi
nye
nyj
nyu
nz
nzen
nzi
nɑ
nɛ
nɛd
nɛdi
nɛdɛ
nɛdɪ
nɛdɪm
nɛdɪn
nɛkɪ
nɛkɪɾɪ
nɛkɪɾɪbu
nɛt
nɛɑ
nɡɑ
nɪ
nɪk
nɪm
nɪn
o
ob
oban
oberpfalz
object
objekti
oblast
oblasta
oc
ocag
ocak
ocalan
ocax
ocean
och
oclc
october
ocug
ocuk
od
oda
odan
ode
oder
oderland
odeya
odeye
odi
of
ofe
off
office
official
ofi
oft
often
og
oh
ohio
ohne
oi
oil
ois
oisa
oisae
oise
oj
ojibweyi
ok
oka
okan
oke
okeke
oki
oklahoma
oksi
oktar
oktilliarde
oktillion
oktober
okumak
okyanu
okyanusu
ol
ola
olam
olan
olarak
old
oldar
oldu
ole
olek
oleke
oli
oliver
olma
olmak
olmamak
olmaz
olsun
olti
olur
olus
olya
olyani
om
oma
oman
omane
omar
omer
omeri
omi
on
ona
once
oncu
one
onepage
oneself
oni
online
only
onomatopoeti
ontario
onu
onun
onur
op
opa
opandin
ope
open
openstax
opera
operasyon
operasyona
operasyone
operation
operaye
opere
opi
opiki
opinion
opinyon
opiya
opiye
opposition
opti
or
ora
oral
orange
oras
orbe
orbeya
orbeye
orbu
order
ordi
ore
orea
oreb
oregon
ores
oret
orfeus
org
organ
organa
organe
organi
organic
organisation
organization
orgazm
orhan
ori
orient
oriental
orientation
origin
original
origins
oriji
orik
oris
orispi
orji
orke
orr
orres
ors
ort
orta
orte
ortodoks
os
oscar
oscare
ose
oseti
osman
osmani
osmaniyan
osmanlı
ot
ota
ote
other
others
oti
otobu
otomati
otomobi
otonom
otonomi
otori
otri
otto
ottoman
otu
oturmak
otuz
ou
our
out
output
ov
ova
ove
oveni
over
overview
oveya
oveye
own
ox
oxford
oxi
oxir
oxos
oy
oya
oye
oyguri
oyi
oynamak
oyun
oz
ozbeki
ozbekistan
p
pa
paar
pabend
pablo
pac
pace
pacific
padding
padi
padis
pag
pagan
page
pages
pahlavi
pai
pail
pain
pak
pake
paket
paki
pakij
pakistan
pakistane
pakkirin
pakt
pal
pala
palan
palandin
palas
paldan
paldank
pale
paleoli
pali
palik
palkursi
palo
palpis
palu
pam
pami
pamuk
pan
panama
panc
panda
pandin
pane
panel
pani
panik
pank
pankrease
panthera
pantolon
panzdeh
pap
papa
paper
papi
papu
papua
papyamentoyi
paqij
paqiji
paqijkirin
paqijkirina
par
para
paralel
parameter
parametreya
parametreye
paran
parasi
parast
parasti
parastin
parastina
parastine
parazi
parc
parchim
pardar
pardari
pardon
pare
parek
pareye
parezgeha
parfu
pargi
pari
paris
park
parka
parke
parker
parki
parlamena
parlamene
parlamenter
parlamentere
parlamentoya
parlamentoye
parliament
parmag
parmak
pars
parse
parsek
parseki
parser
parsi
parsu
part
parti
partilandin
partisi
partiya
partiyan
partiye
partiyek
partiyeke
partner
party
parve
parvekirin
parvekirina
parzemi
parzinandin
parzu
pas
pasdar
pasevan
pasi
pass
passer
past
pasu
pat
pate
pati
patik
patnos
patri
patrick
patriyoti
patrome
paul
pauli
pause
pawan
pax
paxir
pay
paya
payan
paye
payebilind
payi
payiz
payiza
payize
paylas
paytext
paytexta
paytexte
paz
pazde
pc
pdf
pdk
pdke
pdki
pe
peace
pearson
pec
ped
pedal
pediya
pediyaya
pediyaye
peg
pehlewi
pehn
pehtin
pejikandin
pejilandin
pejinandin
pejirand
pejirandi
pejirandin
pejirandina
pejiri
pejmu
pek
pekandin
peke
peki
pekis
pel
pela
pelan
pelandin
pelas
pelate
pelati
pelc
pele
peledi
pelhevi
peli
pelikandin
pelis
pelixandin
pelixi
pelu
pembe
pembo
pembu
pen
pena
penaber
penaberan
penabere
penaberi
penaberiye
penageh
penc
pence
pencere
pencereye
pences
pend
pendi
pene
peng
pengandin
pengav
pengizi
peni
penihandin
penis
pennsylvania
pentagon
people
pepti
pepu
peqandin
peqi
per
pera
peran
perava
perave
perawe
perc
perdaq
perde
perdeya
perdeye
pere
peresi
perest
perestan
perestgeh
perestgeha
perestgehe
peresti
pereyan
pereye
perfect
performance
performansa
pergal
pergala
pergale
pergalek
pergaleke
pergali
pergi
peri
perik
perike
period
peris
perisandin
perish
perisi
perist
peristi
peristin
peritandin
periti
perixandin
perixi
perlati
permutare
pero
peros
perpu
perru
perry
pers
persan
persi
persian
person
personal
perspekti
pertal
pertav
pertu
peru
perwa
perwaz
perwer
perwerde
perwerdehi
perwerdehiya
perwerdehiye
perwerdekirin
perwerdeya
perwerdeye
perweri
perwi
perxandin
pes
pesar
pesend
pesendkirin
pesi
pesinandin
pesind
peskirin
pesn
pesne
pespaye
pest
pestandin
pesto
pestoya
pet
petat
pete
peter
petersburg
peti
petit
petro
petrol
petrole
pev
pevc
pevre
pevs
pexs
pey
peya
peyam
peyama
peyamber
peyame
peyamne
peyare
peyati
peyda
peydabu
peydakirin
peydakirina
peyde
peydekirin
peyhati
peyi
peyitandin
peyiti
peyiv
peyivandin
peyivi
peyk
peyker
peykere
peykeremasu
peyman
peymana
peymane
peymanek
peymaneke
peymangeha
peyrew
peyt
peyv
peyva
peyvan
peyve
peyvek
peyveke
peyvi
peywend
peywendi
peywendiye
peywir
peywira
peywirdar
peywire
pez
peze
pezi
pezmijoka
pfalz
pg
pguhe
ph
pha
phe
phil
philadelphia
philip
philippines
phoenix
phone
photo
photos
php
physical
physics
physik
physiology
pi
pia
piano
pic
pick
picture
pictures
pie
piece
pierre
pif
pifdan
pifi
pihe
pijandin
piji
pijiqi
pijmi
pik
pike
pil
pila
pile
pilewil
pileya
pileye
piling
pilinge
pilot
pilu
pin
pincar
pindivandin
pine
ping
pini
pinus
pio
piper
pir
pira
pirali
pirani
piraniya
pirbe
pirbu
pirc
pire
pirh
pirhejmara
piri
pirik
pirjimar
pirjimara
pirkandin
pirnagkirin
pirole
pirpisandin
pirr
pirrani
pirraniya
pirrjimar
pirs
pirsa
pirsan
pirse
pirsgire
pirsi
pirskirin
pirt
pirteqal
pirti
pirtik
pirtika
pirtikandin
pirtiki
pirtir
pirtu
pirzik
pis
pisi
pismam
pismame
pispor
pispore
pispori
piss
pist
piste
pistepist
pisti
pit
pitepit
pitik
pitikandin
pitike
pitir
piv
pixpixandin
piya
piyale
piyan
piyani
piyano
piyase
piye
piz
pizdan
pizi
pizirandin
pj
pkk
pkke
pl
pla
place
plan
plana
planck
plane
planet
plant
plants
plasti
platform
platforma
plato
platon
platz
play
player
plazmaya
plazmaye
ple
please
pli
ploma
plomasi
plomat
plomati
plu
plural
plus
pmc
pmid
png
po
poc
pocket
poe
poems
pofi
point
pok
pokorny
pol
pola
polan
poland
polat
pole
poli
police
policy
polis
polish
polite
political
politics
politik
politika
polo
poloni
polonya
polonyaye
pont
poor
pop
poppy
popu
popular
population
populations
populer
por
pore
porn
porno
pornografi
pornoste
port
portal
portare
porteki
porto
portu
portugal
portugali
pos
position
possible
post
posta
poste
pot
pota
potalamuse
potansiyel
potansiyela
potasyume
potek
potsdam
potter
pour
power
poz
pozbilind
pozbilindi
poze
pozi
pp
pr
pra
practice
pradesh
prage
prakti
prati
pre
prefectures
preis
prema
premier
prens
prenses
prensi
pres
present
president
press
pressure
presti
pri
pride
prime
prince
princeton
print
prior
prison
private
prix
prize
pro
problem
probleme
procesteron
product
production
prof
profesor
profesore
professor
profesyonel
profi
profile
program
programe
proje
project
projeya
projeye
projeyeke
proof
propaganda
proper
pros
prose
proseya
prostate
protei
protesto
protests
proto
proton
provence
provided
province
provoke
pru
ps
psi
psychoanalyse
psychology
pt
pti
ptolemai
pu
puan
public
publications
published
publisher
publishers
publishing
pukmedia
puldes
pull
pullover
puncabi
punch
punctuation
pure
purpose
pus
put
putin
puxte
px
python
pz
pınar
pɑ
pɛlɑ
pɛɾt
pɪɾ
pɪɾt
pɾo
q
qa
qab
qabi
qac
qacariyan
qad
qada
qade
qadeke
qadi
qadir
qaf
qafiye
qahi
qai
qaj
qaji
qal
qala
qale
qali
qalib
qalibe
qalik
qalike
qalind
qalkirin
qam
qamc
qame
qamet
qami
qamis
qamu
qan
qanate
qandi
qane
qani
qantir
qanu
qapan
qapu
qaqli
qar
qarc
qarewar
qari
qas
qase
qasi
qasid
qasim
qasimlo
qaso
qaspandin
qat
qata
qatar
qate
qati
qatil
qatkirin
qaya
qayde
qaye
qayi
qayil
qayim
qayis
qaz
qaza
qazan
qazanc
qazaxi
qazaxistan
qazaxistane
qazi
qe
qeb
qebale
qebare
qebareya
qebe
qebi
qebili
qebitandin
qebrax
qebu
qebul
qed
qeda
qedand
qedandin
qedandina
qedandiye
qede
qedeh
qedeha
qedem
qeder
qedera
qedere
qedexe
qedexekirin
qedexekirina
qedexeya
qedi
qedimandin
qedir
qediya
qedr
qedra
qedre
qedri
qefaltin
qefandin
qefes
qefesa
qefilandin
qefili
qefqasyaye
qeft
qehbe
qehi
qehirandin
qehiri
qehr
qehreman
qehremani
qehwe
qehweye
qehweyi
qela
qelac
qelandi
qelandin
qelaptin
qelas
qelb
qelbe
qele
qelebalix
qelem
qeleme
qeles
qelew
qelewi
qeli
qelibandin
qelibi
qeliqi
qelis
qelisandin
qelizandin
qelizi
qelp
qels
qelsandin
qelu
qemc
qemer
qemi
qemiri
qemitandin
qenaet
qenc
qenci
qenciya
qenciye
qendi
qer
qerar
qeras
qerax
qeraxe
qere
qerebalix
qerebu
qerec
qerehesene
qerekoseye
qerenfi
qerewe
qerf
qerfi
qeri
qerimandin
qerimi
qerisi
qermi
qermic
qerqes
qers
qerse
qert
qertaf
qertafa
qertafe
qerwas
qerzdar
qes
qesd
qese
qesem
qesi
qesr
qesra
qesre
qest
qesta
qesti
qet
qeta
qetandin
qete
qeter
qethi
qeti
qetil
qetilkirin
qetl
qetli
qetran
qewad
qewal
qewet
qeweta
qewi
qewimi
qewimiye
qewirandin
qewiri
qewitandin
qewl
qewle
qewme
qewmi
qewz
qey
qeyd
qeyda
qeyde
qeydkiri
qeydkirin
qeye
qeyi
qeyran
qeys
qeysi
qeza
qezaya
qezaye
qezenc
qezi
qezwi
qi
qibris
qic
qidos
qijik
qijilandin
qilandin
qile
qilf
qili
qiloc
qin
qir
qirali
qirc
qire
qirik
qirika
qirike
qirim
qirkirin
qirkirina
qirrik
qirs
qirti
qiru
qis
qise
qisme
qismet
qismi
qisu
qiti
qiyamet
qiyamete
qiyan
qiyas
qizil
qker
qkirin
qna
qo
qoc
qol
qoli
qoltix
qolyeya
qompi
qonax
qonaxa
qonaxe
qonyaye
qonye
qonyeye
qop
qoqilandin
qor
qoretu
qori
qos
qoser
qosere
qot
qoti
qowanciyana
qoyona
qoz
qozeqer
qozi
qral
qrali
qrar
qtibas
qu
qua
quadrilliarde
quadrillion
qualifier
quantum
quarter
quattuordezilliarde
quattuordezillion
qube
qubi
qudret
quds
que
queen
question
qufilandin
qui
quintilliarde
quintillion
qul
qula
qule
quli
quling
qulipandin
qulipi
quloz
qulp
qulquli
qulu
qumar
qumas
qumc
quncandin
qur
quran
qurana
qurane
qurban
qurbana
qurbane
qurbani
qurc
qure
qureti
qurf
quris
qurisandin
qurm
qurmic
qurquc
qurs
qurt
qurtandin
qus
qusandin
qusi
qusqusandin
qusu
qut
qutan
qutbu
quti
qutifandin
qutifi
qutik
qutiya
qutkirin
quz
qɑ
qɛ
qʊɾt
r
ra
rab
rabe
raber
rabi
rabin
rabori
raboriya
rabu
rac
race
rachel
rad
radan
rade
radest
radesti
radeya
radi
radibe
radibin
radigihi
radikal
radike
radio
radiweste
radyo
radyoya
radyoye
rae
raet
raf
rag
rages
ragihand
ragihandin
ragihandina
ragihandine
ragihi
ragirti
ragirtin
raguhastin
rah
rahat
rahe
rahi
rahis
rahiya
rai
rain
raise
raj
raja
raje
rajo
rak
rake
raker
raketi
raketin
rakin
rakir
rakirin
rakirina
rakis
ral
rali
ram
rama
ramak
raman
ramana
ramanan
ramandin
ramane
ramani
ramazan
ramazda
rame
ramedi
rami
ramu
ramyar
ramyari
ran
rana
ranan
rand
randevu
randi
randin
randina
rane
rani
raniya
raniyan
raniye
rank
ranker
rankirin
rans
ranu
rap
rape
raperi
rapor
rapora
rapore
raq
raqe
raqi
raqil
rar
rare
rartu
ras
rasa
raser
raseri
rasi
rast
rasta
rastandin
rastbe
raste
rasteqi
rasterast
rastere
rastgir
rastgo
rasti
rastiya
rastiye
rastkirin
rastnivi
rasyonali
rasyonel
rat
rata
rate
rati
rattus
rault
rav
rava
rave
ravek
ravekirin
raven
ravi
raw
rawe
rawes
rawestan
rawestandin
rawestandina
rawesti
raweya
raxistin
ray
raya
rayda
raye
rayedar
rayedare
rayedari
rayex
rayi
raymond
raz
razan
razandin
razane
razayi
razber
raze
razi
rbar
rbaz
rbazi
rbe
rbecu
rber
rbi
rbir
rbu
rc
rcan
rcu
rd
rdal
rdan
rdar
rdari
rde
rdek
rdi
rdig
rdistan
rdore
rdu
re
rea
read
reading
ready
reaksiyon
reaksiyone
real
reali
reality
really
reason
reb
reben
rebene
rebeni
rebi
rec
receb
recep
recherche
rechnen
recht
recifandin
recifi
reco
record
records
recu
red
rede
redi
redki
redkirin
reece
reed
ref
refah
refe
referandu
reference
references
refi
refleks
reform
reforme
reformi
refs
reftar
reg
regel
regen
regensburg
regermi
regez
regio
region
registration
reh
reha
rehe
rehet
reheti
rehi
rehm
rehma
rehman
rehme
rehmet
rehmete
rehmeti
reht
rei
reich
reis
reji
rejima
rek
reka
rekan
reke
reker
reki
reklam
reklame
rekli
rekti
rektiya
rel
release
reli
religion
religious
rem
reme
remezan
remezane
remi
remilandin
remz
remzi
ren
renc
renci
rende
rendi
rene
reng
rengan
rengandin
rengdar
rengde
renge
rengek
rengeke
rengeki
rengi
reni
renk
rent
reorgani
rep
repandin
repeat
reperep
repi
report
reporter
repu
republic
req
reqabet
reqandin
reqe
reqem
reqi
reqis
reqisi
reqs
requires
rer
res
research
resen
reseni
resi
resim
resm
resmi
resmiyet
resources
respect
rest
restaurant
resu
result
results
ret
reta
retan
rete
reti
retrieved
return
reuters
rev
revan
revandin
revani
reve
revi
review
reviya
reviyan
revok
revolution
rew
rewa
rewac
rewan
rewanbe
rewane
rewani
rewanwerzis
rewe
rewer
reweri
rewi
rewis
rewnaq
rews
rex
rexbet
rexe
rexne
rexnegir
rexnegire
rexnekirin
rexneya
rexneye
rexsandin
rey
reya
reye
reyek
reyeke
reyi
rez
reza
rezan
rezber
rezbere
reze
rezewi
rezi
rfan
rfen
rfiros
rg
rga
rgan
rge
rgeh
rgeha
rgehe
rgen
rger
rgesore
rgi
rgili
rgiz
rgu
rh
rhan
rhati
rhatin
rhe
rhein
rheinland
rhesini
rho
rhode
rhu
rhubarb
ri
ria
riataza
riayet
riba
ribe
riberiz
ric
rica
rice
rich
richard
richter
richtig
ricimandin
rick
rico
ridav
ride
rie
ries
right
rights
rih
riha
rihan
rihaye
rihe
rihet
riheti
rihi
rij
rijandin
rijd
rijdi
rije
riji
rik
rika
rikan
rike
rikeber
rikeberi
riki
rikoyi
rim
rime
rin
rinan
rind
rinde
rindi
rindik
rine
ring
ringandin
rino
rio
ris
risandin
rise
riseleyan
risi
risk
rism
rist
ristandin
riste
risti
ristik
ristin
riswa
rit
ritimandin
ritu
river
rivi
riwek
riweka
riwekan
riweke
riwekek
riwekeke
riya
riyan
riyatından
riye
riyeke
riyet
riyeye
riz
riza
rizandin
rize
rizgar
rizgarbu
rizgari
rizgariya
rizgarkirin
rizi
rizq
rji
rk
rka
rkan
rkar
rkari
rkc
rke
rkek
rkeke
rker
rkere
rkeri
rketa
rkete
rketin
rki
rkiri
rkirin
rkirina
rkirine
rkisch
rkiye
rko
rku
rkuj
rkut
rlandi
rlenda
rlendaye
rlendi
rlendiya
rles
rlich
rlu
rlık
rm
rma
rmaya
rmaye
rme
rmeh
rmeha
rmehe
rmek
rmend
rmi
rmiye
rmiyeye
rmu
rn
rna
rname
rnas
rnase
rnasi
rnasiye
rne
rnebu
rnehati
rnek
rni
rnis
rnivi
ro
roa
road
robar
robert
roberts
robin
robinson
robot
rock
rod
roger
rohat
rohni
roi
roj
roja
rojan
rojane
rojava
rojavaya
rojavaye
rojavayi
rojbas
rojbu
rojda
roje
rojek
rojeke
rojeki
rojen
rojev
rojeve
rojgar
rojhelat
rojhelata
rojhelate
rojhilat
rojhilata
rojhilate
rojhilati
rojhilatin
roji
rojiya
rojnama
rojname
rojnamegeri
rojnamegeriya
rojnamegeriye
rojnamevan
rojnamevane
rojnamevaneki
rojnamevani
rojnamevaniye
rojnameya
rojnameyan
rojnameye
rojnameyek
rojnameyeke
rojnivi
rok
roka
rokan
rokbe
roke
rokek
rokeke
roki
rokirin
roknas
roknase
roknivi
rol
rola
role
rolek
roleke
roll
rolling
rom
roma
roman
romana
romanan
romanci
romane
romaneke
romani
romania
romannivi
romanti
romanya
romanyaye
romanyayi
romaya
romaye
romayi
romayiyan
rome
romeo
romi
romiyan
ron
ronahi
ronahiya
ronahiye
ronak
ronakbi
ronaki
ronayi
rondik
roni
roniya
roniye
room
root
roots
ros
rosa
rosali
rose
rosenheim
ross
rostock
rot
roth
round
routledge
routledgecurzon
rov
rove
rovekirin
rovi
row
roya
royal
roye
royi
roz
roza
rozbahi
roze
rozi
rozkirin
rp
rpi
rr
rran
rre
rri
rriyet
rru
rs
rsa
rsbu
rse
rsi
rsim
rsime
rsimi
rsoyi
rsssf
rsu
rt
rta
rtc
rte
rter
rterbuch
rth
rti
rtik
rtin
rtir
rtiri
rtirs
rtler
rtlerde
rtmek
rttemberg
rttemberge
rtu
ru
rub
rubbish
rudaw
rug
ruh
ruha
ruhe
ruhi
ruhr
ruiz
rule
rum
run
rung
rup
rus
rusa
ruse
rusi
russell
russia
russian
rusu
rusya
rusyaye
ruxandin
ruxi
ruxset
ruye
rvan
rvane
rvani
rve
rw
rwan
rwana
rwe
rwi
rxan
rxane
rxas
rxasi
rxistin
rxwaz
rxwazi
ry
rya
ryan
rye
rz
rza
rzad
rzan
rzaye
rzburg
rze
rzemi
rzen
rı
rɑ
s
sa
saale
saat
sabah
sabi
sabir
sabit
sabotaj
sabote
sabu
sac
sack
sacrificare
sad
sadallah
sade
sadeye
sadi
sadiq
sadsale
saet
saeta
saetan
saete
saf
safe
safi
sag
sage
sah
sahi
sahibi
sahil
sai
said
saint
sainte
sait
sak
sakar
sake
saki
sakin
sakkari
saksonya
saksonyaya
sal
sala
salad
salah
salan
salane
salc
sale
salek
saleke
sali
salih
salihe
salix
saliya
saliye
salli
salname
salnameya
salon
salona
salox
saloxandin
salt
salutare
salvador
salvegera
sam
saman
same
sami
samiya
samoa
samoayi
samsung
samuel
san
sana
sanahi
sanat
sanayi
sand
sandi
sandin
sandina
sandine
sandiye
sandwi
sane
sang
sani
sanij
saniye
sanki
sankt
sans
sansa
sanse
sanskri
sansu
santa
santi
santiago
santir
sao
sap
saqi
saqo
sar
sara
sarah
saran
sarbu
sardi
sare
sari
sarinc
sarkirin
sarma
sarmawaz
sarı
sasani
sasaniyan
sat
sateli
sati
satu
saturn
satz
sau
saudi
saunders
sava
savar
savare
savas
save
saw
sawe
sawi
sax
saxbu
saxi
saxifraga
saxlem
saxlemi
saxti
say
saya
saye
sayi
saymak
says
sayı
saz
saze
sazgeh
sazi
sazis
saziya
saziye
saziyeke
sazkirin
sazkirina
sazman
sazu
sałi
sbariya
sbariye
sbat
sbu
sc
scene
scha
schen
schleswig
schlu
schmidt
schnell
scho
schon
school
schreiben
schreibt
schu
schule
schulze
schwa
schwarzwald
schwester
science
sciences
scientific
scn
sco
scott
screen
sd
sdar
se
sea
seadet
search
season
seat
seb
seba
sebaret
sebastian
sebat
sebeb
sebeba
sebebe
sebi
sebir
sebixandin
sebr
sebra
sebrdar
sebri
sebwanoyi
sebze
sec
secare
sechs
second
secret
section
security
sed
seda
sedam
sedan
sede
sedef
sedem
sedema
sedeman
sedeme
sedi
sediqandin
sedsal
sedsala
sedsalan
sedsale
see
seenplatte
seet
sef
sefa
sefandin
sefer
sefera
sefere
sefewi
sefewiyan
sefi
seg
seh
sehabeye
sehen
seher
sehet
sehi
sehkirin
sehm
sehne
sehol
sehr
sei
sein
seine
seit
seite
sek
sekan
seke
seki
sekin
sekinandin
sekini
sekiniye
sekitandin
sekiti
sekn
sekreter
sekretere
seks
seksa
sekse
seksi
seksuel
sektion
sektora
seku
sel
sela
selah
selahattin
selahedi
selam
selc
selcu
sele
selef
selete
seleteya
seleteye
self
seli
selihandin
selik
selim
selitandin
selixandin
selmandin
selmas
selmase
selmi
sem
sema
semasu
semax
sembol
sembola
sembole
semboli
sembulingam
seme
semi
sempati
semsu
semt
semyan
sen
sena
send
sendi
senem
seng
sengandin
senger
sengi
seni
sense
senter
sentu
sepandin
sepet
sepi
september
septilliarde
septillion
seqa
seqandin
seqem
seqet
seqirandin
seqitandin
seqiz
seqize
ser
sera
serab
serami
seran
seranser
seransere
seranseri
serav
seray
seraya
seraye
serbajare
serbaz
serbazi
serberdayi
serberje
serbest
serbesti
serbi
serbia
serbilind
serbilindi
serbistan
serbistane
serbixwe
serbori
serc
sercem
serdana
serdar
serdare
serdari
serde
serdem
serdema
serdeme
serdes
serdest
serdesti
serdestiya
sere
seredan
seredana
sereguhi
serek
serekani
serekaniya
sereke
sereki
serencam
sererast
sererastkirin
sereta
seretayi
serf
serfiraz
serfirazi
serge
sergewer
sergi
sergihayi
sergirti
sergo
serguzes
serhad
serhat
serhati
serhed
serhede
serhedi
serheng
serhildan
serhildana
serhildane
serhilde
serhis
seri
seridandin
series
serifandin
serik
serike
serincrake
seriye
serje
serjimara
serjimariya
serjime
serkar
serke
serkefti
serkeftin
serkeftina
serkeftine
serketi
serketin
serketina
serki
serle
serles
serma
sermaweze
sermaye
sermest
sermiyan
sernav
sernave
sernerm
sernis
sernivi
serobero
serok
seroka
serokati
serokatiya
serokatiye
serokdewlet
serokdewlete
seroke
serokes
serokkomar
serokkomare
serokwezi
serpe
serperis
serpi
serpos
serra
serre
serru
sers
sersal
sersale
sersari
sersaxi
serseri
sersinka
sert
serte
sertes
serti
sertiras
sertu
seru
serve
server
servi
service
serwe
serwer
serwere
serweri
serweriya
serwet
serwext
serwextkirin
serxwebu
serxwes
ses
set
setil
setimi
sevan
seven
sevi
sevre
sewad
sewal
sewalan
sewax
sewi
sewq
sewsi
sewt
sex
sexbe
sext
sexte
sextekari
sextilliarde
sextillion
sexual
sey
seya
seyah
seyandin
seyar
seyare
seyd
seyda
seydaye
seydo
seye
seyfi
seyi
seyid
seyin
seyiri
seyr
seyran
seyri
sezona
sfn
sg
sgeh
sh
sha
shadow
shake
shakespeare
shaq
shaw
she
sheet
sherlock
shi
ship
shirt
shit
sho
shop
shopping
short
shot
show
shu
si
sibat
sibata
sibate
sibe
sibeh
sibehe
sibox
sic
sich
sici
sicil
sid
side
sidqi
sie
sieben
sierra
sif
sifi
sifir
sifre
sifreye
sift
sifte
sig
sigmund
sign
sih
sihe
sihir
sik
sika
sikandin
sike
siki
sikildanoke
sikitandin
siku
sil
silameti
silav
silave
sile
sili
silikandin
siliki
silk
silo
silopi
silopiya
siltan
siltane
siltanet
silte
silu
silver
sim
simbe
sime
simi
simko
simkoye
simo
simon
simple
sin
sina
sinan
sinc
since
sinci
sincirandin
sinciri
sind
sindhi
sindi
sine
sinet
sing
singapore
singapu
singe
singer
single
singular
sini
sinif
sinifandin
sinor
sinordar
sinore
sinu
sipa
sipi
sipil
sir
sira
siranani
sirbi
sirbistan
sirboxirwati
sire
sirgu
siri
siris
sirke
siros
sirr
sirs
sirt
siru
sirus
siryani
siryaniya
sis
sise
sist
sistandin
sister
sisti
sit
sitar
sitare
sitargeh
site
siti
sitimandin
sitiri
situ
situation
siu
siv
sive
sivi
sivik
siviki
sivirandin
siviyandin
siwar
siwarbu
siware
siwari
siwe
six
sixe
sixirandin
sixth
siya
siyah
siyan
siyaset
siyaseta
siyasete
siyasetmedar
siyasetmedare
siyasetmedareki
siyasi
siye
siyet
siyoni
siyu
siz
siza
size
sja
sjo
sk
ska
skambi
skan
skandi
skar
skara
skaran
skare
skarek
skareke
skareki
skari
skariye
ske
skek
skeke
skender
skendere
sker
skera
ski
skin
skiri
skirin
sko
skoc
skoti
skotlenda
skotlendaye
skri
sku
sky
sl
sla
slam
slama
slame
slami
slav
slave
slavi
slaviya
sleep
slip
slogan
slovaki
slovakya
sloveni
slovenia
slovenya
slow
slu
sm
sma
smai
smail
small
smar
smart
sme
smet
smith
sn
sna
snake
sni
snow
snu
snuff
so
sobani
sobe
soberi
social
society
sodyum
sodyume
sofa
sofi
sofia
sofla
soft
software
sog
sogdi
sohbet
sok
sokmak
sokrates
sol
sola
solar
sole
soli
solin
soll
sollen
solo
solomon
soma
somali
some
somebody
someone
something
sommer
son
sond
sonda
song
sonra
sons
sonuc
sonxayi
soon
sor
soran
sorani
sorav
sorbi
sorbiya
sorbu
sore
sorex
sorgul
sori
soric
sorik
sorkiri
sorkirin
sos
sosa
sose
sosi
sosin
sosina
sosret
sosyal
sosyali
sosyoloji
sot
sota
sote
sotemeni
soti
sotin
sotoyiya
soul
sound
source
sources
sous
south
southern
sovyet
sovyeta
sovyetan
sovyete
soz
soza
sozdar
soze
sp
spa
space
spain
span
spani
spanish
spanya
spanyaye
spari
spartedar
spartin
spas
spasdar
spasi
spasxwes
spe
speak
special
species
spectare
speech
spehi
sperm
sperman
sperme
spi
spiegel
spielen
spiye
spo
sponsor
spor
spore
sport
sports
spot
sprache
sprechen
spree
spreewald
spring
springer
spur
spɑ
sq
square
sr
srae
sraf
srai
srar
srch
sre
sreye
sri
srn
ss
sse
ssel
ssen
ssig
st
sta
stadt
stadyu
staedte
staff
stage
stali
stamford
stan
stana
stanan
stanbul
stand
standard
standi
standin
standina
standine
stane
stanford
stani
star
stare
stark
starr
stars
start
stasyona
state
states
stati
station
statistiche
statistics
statistique
statu
status
statuya
stay
stbu
ste
steel
stefan
steht
stein
stek
stekan
stekana
steke
steki
stellen
stem
stema
stemati
stembol
stembole
steme
stemeke
stemi
stemkar
stemkari
sten
stenbol
stenbole
stend
stendin
stendina
stendine
stensfield
step
stephen
ster
stermek
stern
steve
steven
stevenson
stewi
stewr
stewre
steya
steye
stgeh
sth
sti
stick
stik
stika
stikan
stike
stikek
stikeke
stikgeh
stikvan
stikvana
stikvane
stikvanek
stikvaneke
stikvaneki
stikvani
stikvaniya
stikvaniye
still
stin
stina
stinan
stine
stir
stiran
stiri
stiya
stiyan
stiyani
stiye
sto
stock
stockholm
stockholme
stok
stoke
stokholm
stokrat
stone
stop
store
stories
storm
story
stra
straight
stran
strana
stranan
stranbe
strandin
strane
stranek
straneke
strannivi
strateji
street
stri
strike
stro
strocen
strong
stru
structure
stu
stuart
student
studenten
studentin
studiert
studies
studio
studios
study
studyoye
stuff
stunden
stupid
stuttgart
stuye
style
stɑ
su
sub
subject
submutare
subscription
suc
such
suchen
sugar
suhbet
suhrewerdi
sui
suicide
suleyman
sulh
sultan
sultats
sulu
sulzbach
sumer
sumeri
sumeriyan
summary
summer
sun
sundani
sunday
sung
suni
sunni
super
support
sur
surandin
surat
sure
suri
suriye
surpri
surreali
suru
survey
suryani
suryaniyan
sus
susan
suweys
suxre
suyu
sv
sva
svg
sw
swahi
swazi
swe
sweden
swedish
sweet
swi
swift
switzerland
sy
sya
syan
syaye
sydney
syen
sylvia
syn
syon
syona
syone
syria
syrian
system
systems
sz
szo
sıc
sıfır
sıg
sıkı
sıkıs
sınır
sıra
sız
sɑ
sɛ
sɛɾ
sɪ
sɪlɑ
sɪnd
t
ta
tab
tabe
tabi
tabii
table
tablesl
tablet
tablo
tabloye
tabu
tac
taca
tacdi
taci
taciki
tacikistan
tade
taet
taeti
tafi
tag
tagalogi
tage
tah
taha
tahi
tahir
tahire
tahm
tai
tail
taji
tajikistan
tak
take
takekesi
takes
takmak
taksi
takti
tal
tala
talan
talankirin
talde
tale
talebani
talent
tales
tali
talih
talis
taliye
talk
talkirin
talks
taloq
talu
talya
talyan
talyaye
tam
tama
tamandin
tami
tampon
tamxwes
tamze
tan
tana
tandi
tandin
tane
tang
tani
taniya
taniyan
tank
tanni
tanya
tanyaya
tanyaye
taq
taqe
taqet
taqi
tar
tara
taraf
tare
target
tari
tarih
tarihi
tariye
tartıs
taru
tas
tasa
tasche
tasni
tasse
taste
tasyon
tat
tate
tati
taunus
tausend
tausendmaltausend
tausendtausend
tav
tava
tave
tavi
tavile
taw
tawan
tawanbar
tawanbarkirin
tawandin
tawane
tawi
tawis
tawu
tax
taxa
taxare
taxe
taxeke
taxekirin
taxi
taxim
taxonomic
tay
taya
taybet
taybeti
taybetiya
taybetiye
taybetmendi
taybetmendiya
taybetmendiye
taye
tayi
taylenda
taylor
taywan
taze
tazi
tbar
tbari
tbole
tbu
tc
tchen
tdar
tdari
te
tea
team
tear
teau
teb
teba
tebat
tebati
tebax
tebaxa
tebaxe
tebeq
tebeqe
tebes
tebi
tebiti
tebli
tebri
tebu
technology
teci
tecih
tecihan
tecihe
tecri
tecribe
tecru
tecrube
tedarek
tedawi
tedbi
tede
tedri
tee
teen
tefandin
tefi
tefsi
tefti
teh
tehde
tehdi
tehemil
tehemu
tehi
tehibi
tehisandin
tehisi
tehl
tehli
tehm
tehma
tehn
tehqi
tehran
tehrane
tehri
tehsi
tei
teil
tek
teka
tekane
teke
teker
teki
tekin
tekirin
tekli
tekni
teknoloji
teknolojiya
teknolojiye
tekos
tekrar
tekst
teksti
teku
tekzi
tel
tela
telafi
telas
tele
teleb
telebe
telef
telefon
telefona
telefone
telegraph
telesi
televi
television
televizyon
televizyona
televizyone
teli
telifi
telik
tell
telu
tem
tema
temam
temame
temami
temamker
temamkirin
temas
tembel
tembeli
tembi
tembu
teme
temel
temen
temendire
temene
temeni
temi
temirandin
temiri
temizandin
temki
temmuz
temo
templutl
tempo
temri
temsi
temu
ten
tena
tenahi
tenbi
tendiristi
tendu
tendurist
tenduristi
tenduristiya
tenduristiye
tene
tenezil
teng
tengandin
tengasi
tengasiye
tengav
tengava
tengave
tengavi
tengezar
tengi
tengiji
tenha
teni
tenik
tenis
tenki
tennessee
tenu
tenya
tenzi
teoloji
teori
teoriya
teoriye
tep
tepe
tepeser
tepetep
tepi
tepik
tepis
tepisandin
tepu
teq
teqandin
teqawid
teqdi
teqereq
teqez
teqi
teqilandin
teqlandin
teqle
teqli
teqri
teqsi
tequ
teqwi
ter
tera
terakki
teran
terapi
teras
teratu
terazi
terazu
terbiye
terci
tercime
tercu
tere
teredud
teref
terek
terewi
terfi
tergewer
teri
terikandin
teriki
teris
terk
terkexemi
terki
terkirin
term
terme
termi
ternasi
teror
terore
terori
terpili
terqili
terr
terra
terras
terri
terris
terror
ters
tersi
terti
tertu
terxan
terz
terzi
tes
tesbi
tesci
tesdi
teseli
tesewir
teshi
tesi
tesla
tesli
tesni
tespi
test
teste
testosteron
teswi
tet
tetbi
teteri
teteriya
teti
tetwane
tev
teva
tevahi
tevahiya
tevan
tevane
tevani
tevaniya
tevaya
tevayi
tevayiya
tevbigere
tevdan
tevde
tevdi
tevdigere
tevdin
teve
tevger
tevgera
tevgere
tevgereke
tevgeri
tevgerr
tevi
tevir
tevizandin
tevizi
tevkari
tevkuji
tevle
tevli
tevlihev
tevlihevi
tevn
tevne
tevrik
tew
tewaf
tewandi
tewandin
tewandina
tewaw
tewe
tewere
tewereye
tewi
tewiri
tewis
tewizandin
tewizi
tewl
tewqi
tewr
tewrat
tewrate
tewre
tewri
tews
tewsiye
texas
texdi
texi
texli
texmi
texri
texsi
text
textbook
texte
texti
teya
teyan
teybeti
teye
teyek
teyi
teyis
teyisandin
teyisi
teyr
teyran
teyre
tez
teza
teze
tezi
tezmi
tfiros
tg
tgeh
tgir
tgire
tgiri
tgiriya
tgiriye
th
tha
thai
thailand
tham
than
that
the
theater
theatre
their
them
then
theodor
theory
there
these
they
thick
thing
things
think
third
this
thomas
those
thought
thousand
threatened
three
through
throw
thu
thumb
ti
tia
tib
tibe
tibu
tica
ticar
ticaret
ticari
ticket
tico
tie
tien
tif
tifaq
tig
tigri
tigris
tije
tijekirin
tiji
tik
tika
tikan
tikandin
tike
tiki
tikri
til
tila
tilbis
tile
tili
tiliya
tiliyan
tiliye
till
tilu
tim
tima
timan
timani
timanperweri
time
times
timi
timor
timte
tin
tina
tinan
tinaz
tinazi
tine
tinebu
tinek
tineke
ting
tingeh
tingeting
tingi
tini
tinin
tininan
tio
tip
tipe
tiqi
tir
tira
tiraf
tiral
tirali
tiran
tirane
tirar
tiras
tirat
tiraz
tirb
tirba
tirbe
tire
tiredi
tiri
tirilmek
tirimpe
tiriye
tirk
tirkan
tirkandin
tirke
tirki
tirkiya
tirkiye
tirkiyeye
tirkmen
tirkmeni
tirkmenistan
tirme
tirmek
tirpan
tirr
tirrane
tirs
tirsa
tirsandin
tirse
tirsi
tirsnak
tirsoki
tirsonek
tirtu
tiru
tis
tisch
tisi
title
titu
tivi
tiwani
tiwe
tixu
tiya
tiyak
tiyan
tiyane
tiyatro
tiye
tiyek
tiyeke
tiz
tizbi
tk
tka
tkar
tkari
tke
tker
tkeya
tki
tkiri
tkirin
tl
tlu
tly
tme
tmek
tmeti
tmi
tn
to
tobe
tochter
tod
today
together
tok
toki
tokpisini
tokyo
tol
tolaz
tolazi
tole
tolerans
tolhildan
tolhildane
toloji
tolojiya
tom
tomar
tomare
tomarkiri
tomarkirin
tomarkirina
tomarkirine
tomatos
tomeri
tometbar
tomorrow
ton
tone
tonga
tongue
toni
tony
too
top
topa
topal
topbaran
tope
topik
topiki
toplazmaye
toponimiaoc
toprak
toqi
tor
tora
torandin
torbe
tore
toreye
tori
torin
toriya
toronto
torre
tortori
tos
tosi
tot
total
totali
touch
tour
tov
tovave
tove
tovik
tovrind
tower
town
toy
toz
toza
toze
tozi
tpare
tpe
tpi
tpirsi
tpirsiya
tpirsiye
tr
tra
trade
tradi
tradition
trafi
train
trajedi
traji
traktor
trans
transfer
transgender
transkri
translation
transmutare
transport
transportare
trap
tras
trash
trast
travel
tre
tredezilliarde
tredezillion
tree
tres
treyan
tri
triangle
tribune
trilliarde
trillion
trinken
tro
tropi
tropical
troyaye
trt
tru
true
trump
trust
truth
try
trøndelaga
ts
tsabolov
tsu
tt
tta
tte
tten
tter
tti
ttingen
tu
tudes
tug
tuik
tuman
tun
tunc
tund
tundi
tundiya
tundu
tune
tunebu
tunekirin
tuneye
tuni
tupi
tur
ture
turgut
turi
turk
turkcekurtcesozluk
turkey
turki
turkish
turkiye
turkmenistan
turma
turmak
turn
turner
turoyo
tus
tut
tuta
tutmak
tutus
tuxm
tuya
tuye
tv
tvan
tvane
tvanek
tvani
tvanya
tvanyaye
tvye
twain
twani
twee
tweee
twenty
twi
twig
twitter
twittere
two
tx
txu
txwer
ty
tya
type
tz
tze
tzen
tı
tıras
tırma
tırmak
tɑ
tɛ
tɛd
tɛmi
tɛmɑ
tɛwɑ
tɪ
tɪk
tɪn
tɪɾ
tɪɾɑ
u
ua
ubhe
ubuntu
uc
ucu
ud
uefa
ufandin
ufe
ufer
uferin
ug
uh
uherske
uhr
uk
ukraine
ukrayna
ukraynaye
ukrayni
ukur
ul
ulas
ulu
uluk
um
ume
umen
umer
umi
umre
umu
umumiyesi
un
una
uncredited
und
unda
under
undezilliarde
undezillion
une
unesco
uni
union
unit
united
univ
universal
universe
universita
university
unki
unknown
uno
unrecognized
uns
unsere
unter
unterallga
unterricht
until
unu
up
upenn
upload
uploads
upon
ups
ur
ura
urban
urdin
urdu
urdun
urdune
ure
uri
url
urmiye
uru
us
usa
use
used
user
usman
ustos
usu
ut
uta
utah
utc
uvas
uwe
uxilandin
uxl
uygun
uyus
uz
uzbekistan
uzun
uzunoglu
v
va
vaji
vajo
vajoya
vajoye
val
vala
valahi
valahiya
valahiye
valakirin
vale
valley
value
values
van
vana
vanan
vanaye
vancouver
vandali
vandar
vandin
vandina
vane
vanek
vaneke
vani
vanok
vanti
var
vara
varan
varanus
vare
vari
variety
varmak
varqili
vas
vat
vate
vater
vateyi
vati
vatini
vave
vaxi
vaye
vaz
vaza
vaze
vazi
vbu
vc
vco
vdire
vdɑ
ve
vebe
veber
vebere
veberhe
veberi
veberiya
veberiye
vebestandin
vebi
vebir
vebire
vebiri
vebirin
vebirina
vebirine
vebiriya
vebirri
vebu
vec
veciniqi
ved
veda
vedan
veder
vederkirin
vedi
vedibe
vedide
vedigere
vedigerin
vedigire
vedihewi
vedike
vediqete
vediqeti
vedis
vedixwe
vedixwin
vedizi
vege
veger
vegera
vegerandin
vegerandina
vegere
vegeri
vegerin
vegeriya
vegeriyan
vegerri
vegirtin
vegotin
vegotina
vegotine
veguhastin
veguhastina
veguhastine
veguhe
veguheri
veguhestin
veguhestina
veguheztin
veguheztina
vehesi
vejandin
veji
vek
veka
vekaleti
veke
veker
veketin
veki
vekin
vekir
vekiri
vekirin
vekirina
vekirine
vekiriye
vekis
vekoli
vekus
vel
veli
velo
vemirandi
vemirandin
vemiri
ven
vene
veneri
venezuela
veni
venis
venti
venu
venus
veqetandi
veqetandin
veqeti
veqetiya
veqetiyan
ver
vera
verb
verbandsgemeinde
vere
veres
veresi
verfu
veri
veris
verka
verlag
vermek
vermont
vero
vers
versi
version
versiyona
versta
verstehen
veru
very
verzeqan
ves
vesazi
veser
vesi
vestrandin
vet
vetare
vetgeheke
vewes
vewestandin
vexwarin
vexwarina
vexwarine
vexwe
vexwendin
vey
veya
veyi
vezi
vgirava
vi
via
victor
victoria
vida
video
videos
vie
viel
viele
vier
vietnam
view
vigintilliarde
vigintillion
vii
viii
vik
vike
vil
vila
vile
vili
village
villages
ville
villeneuve
villers
vin
vincent
ving
violence
vir
vira
virde
vire
virginia
virr
virve
virvirandin
vis
visualizing
vita
viya
viyan
viyana
viyanaye
viye
viyetnam
viyetname
viyetnami
viz
vizi
vizik
vjime
vk
vkada
vker
vkirin
vkirina
vla
vladi
vladimir
vle
vo
voice
vok
vokal
vol
volapu
volkani
volt
volume
vom
von
vor
vorlagenfehler
vorpommern
vortrag
voti
votin
vre
vri
vro
vros
vs
vt
vti
vu
vulgar
vulgaris
vulnerare
vulpes
vur
vurmak
vy
vya
vɑ
vɛ
w
wa
wacib
wad
wadie
wagner
wait
wake
wald
wales
walesi
wali
waliye
walk
walker
walking
wall
wallace
waloni
walter
wan
wana
wanan
wane
wang
wani
wann
want
waqi
war
wara
waran
warbu
ward
ware
wareki
waren
wargeh
wargeha
wargehe
wari
warm
wars
warten
warum
was
wase
washington
waste
watch
wate
watedar
water
wateya
wateye
wateyeke
watkins
watson
waugh
wave
wax
way
wayback
waye
wayi
waz
waza
waze
wazi
we
weather
web
webe
weber
webs
website
webster
wec
weci
wedding
week
weekly
wefa
wefadar
wefat
wefata
weg
weh
weha
wehd
wehs
weilheim
wein
wek
weka
wekat
weke
wekhev
wekheva
wekhevi
wekheviya
weki
wekilandin
weko
weku
wel
welat
welatan
welate
welatek
welateke
welateki
welati
welatiya
welatiyan
welatiye
welatpare
welatperwer
welatperweri
welcome
wele
weli
welidandin
welidi
well
welle
welt
wem
wen
wend
wenda
wendi
wendiya
wendiye
wenig
wenn
weqf
weqfa
wer
werandin
werar
werbigire
werbikin
werbu
werc
werdan
werdek
werden
werdigire
werdigirin
were
werge
werger
wergera
wergerandi
wergerandin
wergerandina
wergerandine
wergerandiye
wergere
wergeri
wergerrandin
wergir
wergiran
wergire
wergirt
wergirti
wergirtin
wergirtina
wergirtine
wergirtiye
weri
weribandin
werim
werimandin
werimi
werin
werina
weriqandin
werkirin
werner
werqilandin
werqili
wers
werz
werze
werzi
werzis
wes
wesa
wesayi
wesf
wesfe
wesi
wesifandin
west
westan
westandin
westar
western
westfalen
westi
westiyayi
wet
wext
wexta
wexte
wexteke
wexti
wey
weya
weyan
weye
weyek
weyeke
weyeki
weyi
weylsi
wez
wezaret
wezareta
wezi
wezinandin
wezne
what
when
where
which
while
white
who
whole
why
wi
wicu
wide
wie
wieder
wiederholen
wien
wife
wiha
wijdan
wijdani
wiki
wikimedia
wikipedia
wikipediyaye
wikivisually
wikizero
wiktionary
wild
wiley
wilhelm
will
william
williams
wilo
wilson
win
wind
winda
windabu
windakirin
windelspecht
window
windows
wine
winners
wins
winston
winter
wir
wira
wirana
wirandin
wird
wire
wiri
wirme
wirmende
wirze
wis
wisa
wisan
wisconsin
wise
wish
wissen
wist
with
without
wittliche
wiya
wiyan
wiye
wl
wo
woche
woher
wohin
wohnen
wohnt
wolf
wolfgang
wollen
wolofi
woman
women
won
wonder
wood
word
wordpress
words
work
works
world
wormse
wort
worth
would
wp
wr
wright
write
writer
writing
wrong
ws
wu
wurs
wurst
wusa
www
wy
wye
wyee
wyoming
wɑ
wɛ
wɛlɑ
wɛɾ
wɛɾi
wɛɾɑ
wɛʃɑ
x
xa
xabu
xac
xafik
xafil
xafilandin
xai
xak
xaka
xakasi
xake
xal
xala
xalan
xale
xalet
xali
xalid
xalide
xalke
xalo
xalti
xam
xama
xame
xamu
xan
xana
xandin
xandina
xane
xanedan
xanedana
xanedane
xanedaniya
xaneqi
xanet
xaneya
xaneyan
xaneye
xaneyek
xaneyeke
xaneyi
xani
xanim
xanima
xanime
xaniyan
xaniye
xaniyeki
xap
xapandin
xapi
xapu
xar
xara
xare
xari
xarpe
xas
xasi
xasma
xasu
xatir
xatire
xatu
xav
xavbu
xavi
xawe
xawli
xayi
xazi
xbizini
xe
xebat
xebata
xebatan
xebate
xebateke
xebatkar
xebatkare
xeber
xebera
xeberdan
xeberdane
xebere
xebi
xebitandin
xebitandina
xebitandine
xebiti
xebitiye
xece
xedar
xedari
xedi
xedre
xef
xefik
xefirandin
xefne
xefur
xel
xela
xelas
xelasbu
xelat
xelata
xelatan
xelate
xelatgire
xelatkirin
xelef
xelek
xeleka
xeleke
xeleki
xelet
xeleti
xeletiya
xelfe
xeli
xelk
xelke
xelki
xelqe
xem
xema
xembar
xember
xemberan
xembere
xemberi
xeme
xemgi
xemi
xemilandi
xemilandin
xemili
xeml
xemla
xemle
xemnak
xemsar
xemsari
xemxweri
xencer
xeni
xeniqandin
xeniqi
xepar
xepirandin
xepse
xer
xera
xerab
xerabe
xerabi
xerabiye
xerabu
xerac
xerb
xerc
xercilandin
xeri
xericandin
xeriqandin
xeriqi
xeris
xeritandin
xerq
xeru
xerzan
xes
xesi
xesp
xeste
xestiya
xesxe
xet
xeta
xete
xeter
xetere
xetereya
xetereye
xeternak
xeti
xetimi
xew
xewa
xewandin
xewe
xewi
xewiri
xewle
xewn
xewna
xewnan
xewne
xewtin
xeyal
xeyale
xeyali
xeyat
xeyb
xeyi
xeyidandin
xeyidi
xeyni
xeyri
xezal
xezalan
xezale
xezeb
xezebi
xezi
xezu
xhtml
xi
xia
xiaomi
xidir
xij
xijiki
xijkirin
xik
xilas
xili
xiliqandin
xilmas
xilte
ximav
xime
ximximandin
xin
xiniz
xinizti
xinu
xinzi
xinzirandin
xinziri
xir
xira
xirab
xirabbu
xirabe
xirabi
xirabiye
xirabtir
xirabu
xirandin
xirbe
xire
xirecir
xirexavi
xirexir
xiri
xirifandin
xirikandin
xirimandin
xiristiyan
xiristiyani
xiritandin
xiroke
xiros
xirpu
xirr
xirs
xiru
xirwati
xirwatistan
xis
xisar
xislet
xist
xiste
xisti
xistibu
xistin
xistina
xistine
xistinek
xistineke
xistiye
xisu
xitim
xitimandin
xiyanet
xiyar
xizan
xizani
xizaniye
xize
xizi
xizm
xizme
xizmet
xizmeta
xizmete
xizmetkar
xmu
xo
xoce
xoda
xof
xopan
xor
xorasan
xorasana
xorasane
xore
xort
xortan
xorte
xorteki
xos
xov
xox
xoy
xoybu
xrac
xs
xsi
xtar
xti
xtiyar
xu
xuda
xudan
xudane
xudaye
xudayi
xudbi
xude
xudo
xuh
xul
xulam
xulame
xulami
xulase
xulek
xuli
xuliqandin
xuliqi
xulq
xulxulandin
xumam
xume
xumi
xunav
xur
xurandin
xure
xurek
xurekan
xureke
xuri
xuriye
xurs
xurt
xurti
xurttir
xus
xusiri
xusu
xuya
xuyabu
xuyakirin
xuyan
xuyang
xuyani
xwa
xwandin
xwandina
xwar
xwarbu
xwardin
xware
xwari
xwarin
xwarina
xwarinan
xwarine
xwarinek
xwarineke
xwaringeh
xwariye
xwaru
xwas
xwastin
xwaz
xwaze
xwazi
xwe
xwebu
xwebun
xwec
xwecih
xwecihi
xweda
xwedan
xwedane
xwedawend
xwedawenda
xwedawende
xwedayan
xwedaye
xwedayi
xwede
xwedi
xwediya
xwediye
xwefiros
xweh
xwehr
xwekuji
xwekus
xwele
xweli
xwemali
xwend
xwenda
xwende
xwendekar
xwendekaran
xwendekare
xwendevan
xwendevanan
xwendevane
xwendewar
xwendi
xwendin
xwendina
xwendine
xwendiye
xweni
xwepe
xwer
xweragir
xwerbar
xwere
xwerist
xweristi
xweru
xwes
xweser
xweseri
xweseriya
xwest
xwestek
xwesteka
xwesteke
xwesti
xwestin
xwestina
xwestine
xwestiye
xwey
xweya
xweye
xweyi
xweys
xweza
xwezaya
xwezaye
xwezayi
xwezi
xwi
xwis
xwiya
xwu
xwude
xx
xy
xɑ
xɛ
xɛm
xɪs
xɪɾɑ
y
ya
yaban
yabani
yad
yadas
yade
yadi
yag
yahya
yak
yaka
yakmak
yakuti
yakıs
yalc
yale
yam
yan
yana
yane
yaneya
yaneyeke
yang
yani
yanzdeh
yapmak
yaprak
yapıs
yaqu
yar
yara
yarani
yarbu
yare
yari
yariya
yariye
yarkirin
yarmeti
yarıs
yas
yasa
yasax
yasayi
yasemi
yasi
yat
yate
yati
yatmak
yatıs
yavas
yavuz
yaxi
yay
yaye
yayene
yayi
yayo
yayın
yayınları
yazar
yazde
yazı
ye
year
years
yedek
yedi
yeg
yek
yeka
yekali
yekan
yekane
yekbu
yekcar
yekdengi
yeke
yekedeng
yekem
yekeme
yekemi
yekeya
yekeye
yekgirti
yeki
yekitiya
yekjimar
yeko
yeks
yeksan
yeksani
yekser
yekta
yeku
yellow
yem
yeman
yeme
yemek
yemen
yemene
yemi
yemin
yen
yene
yeni
yeno
yeqi
yer
yera
yeran
yerde
yere
yerek
yereke
yerelent
yerelnet
yeri
yerinde
yerine
yerler
yerles
yes
yet
yeta
yete
yeti
yetis
yetmis
yew
yewnan
yewnana
yewnanan
yewnani
yewnanistan
yewnanistana
yewnanistane
yewnaniya
yeye
yezdan
yezdani
yi
yidi
yield
yig
yigit
yildirim
yildiz
yilmaz
yin
yina
yine
yir
yk
ykss
yksse
yku
yle
ylemek
ylerimiz
ylerimizin
ylu
yn
ynk
ynke
yo
yog
yok
yol
yola
yolu
yom
yon
yone
yor
york
yorke
you
young
your
youtube
ypg
ypj
ys
yu
yue
yukarı
yukateki
yumus
yun
yusuf
yvelines
yvelinese
yıg
yıl
yılan
yıldırım
yıldız
yılmaz
z
za
zac
zad
zade
zadegan
zaf
zafe
zafeyi
zafi
zag
zagon
zagona
zagone
zagoni
zagros
zagrose
zah
zahi
zahid
zahir
zak
zal
zali
zalim
zam
zaman
zamenhof
zami
zan
zana
zanati
zanaye
zandin
zane
zanebu
zang
zani
zanibe
zanin
zaningeha
zanist
zanista
zaniste
zanisti
zanistiya
zanistiye
zanistvane
zanko
zankoya
zankoye
zans
zanse
zansi
zansiyan
zanyar
zanyaran
zanyare
zanyari
zanyariya
zanyariye
zar
zara
zarava
zaravaya
zaravayan
zaravaye
zarave
zaraveye
zare
zargotin
zargotina
zari
zaro
zarok
zaroka
zarokan
zarokani
zarokatiya
zaroke
zarokek
zarokeki
zaroki
zaroktiya
zaroktiye
zaroye
zarrok
zaru
zarve
zasyon
zasyona
zasyone
zat
zati
zau
zav
zava
zave
zawi
zax
zaxo
zaxoye
zaxoyi
zayend
zayenda
zayende
zayendi
zayendme
zayendne
zayi
zayine
zaza
zazak
zazaki
zbar
zbat
zbe
zbu
zc
zdank
zdanke
zdar
zdari
zde
zdeh
zdehem
zdi
zdiyan
ze
zebes
zebra
zebu
zebze
zec
zede
zedi
zefi
zeft
zeftkirin
zehf
zehi
zehmet
zehmeti
zehmetke
zehn
zehntausend
zehra
zei
zeit
zeitschrift
zeitung
zek
zeka
zekat
zeke
zekem
zeker
zeki
zekiri
zekirin
zekirina
zel
zelal
zelali
zelam
zelaman
zelame
zelanda
zele
zelenda
zeli
zeliqandin
zeliqi
zelle
zelu
zelzele
zem
zeman
zemane
zemani
zembi
zembu
zemi
zen
zenci
zend
zende
zendi
zeng
zengi
zengil
zengu
zeni
zenu
zer
zeran
zerar
zerav
zerave
zerd
zerdec
zerdeli
zerdes
zere
zerer
zerhimi
zeri
zerik
zeriki
zerine
zero
zeroman
zeromane
zes
zeus
zeven
zever
zevi
zeviya
zeviyan
zeviye
zewac
zewaca
zewace
zewal
zeweng
zewi
zewicandin
zewici
zewiciye
zewq
zexel
zexeli
zexi
zexim
zeximandin
zexm
zext
zexta
zexte
zey
zeya
zeye
zeynel
zeynelabidi
zeynike
zeyt
zeyte
zeytu
zgar
zgare
zgeh
zgeha
zgehan
zgehe
zgehek
zgeheke
zgir
zgire
zgiri
zgirtin
zgirtine
zgu
zh
zi
zibil
zibu
zic
zid
zidi
zidiyan
zift
zihniyet
zik
zika
zikan
zikc
zike
ziki
zikmaki
zikres
zil
zilam
zilaman
zilame
zilamek
zilameki
zilm
zilma
zilme
zilqitandin
zilu
zim
ziman
zimana
zimanan
zimandire
zimane
zimanek
zimaneke
zimaneki
zimani
zimannas
zimannase
zimannasi
zimannasiye
zime
zimhe
zimi
zimmer
zin
zina
zinan
zinar
zinaran
zinare
zinci
zindan
zindana
zindane
zindani
zindi
zine
zing
zinge
zingezing
zingi
zingivor
ziqu
zir
zirandin
zirar
zirara
zirare
zirav
zirave
ziravi
zirc
zire
ziri
zirpe
zirr
zirt
zirvic
zirx
zirz
zirze
zis
zistan
zive
zivir
zivirandin
ziviri
zivistan
zivistana
zivistanan
zivistane
ziwa
ziwane
zixur
ziya
ziyafet
ziyan
ziyandar
ziyane
ziyaret
ziyareta
ziye
zk
zkar
zkari
zke
zker
zkiri
zkirin
zkirina
zkirine
zlendi
zleri
zles
zlu
zm
zma
zman
zmaya
zmaye
zme
zmek
zmeke
zmi
zmin
zminan
zo
zok
zoki
zole
zoli
zom
zon
zone
zoo
zoolog
zooloji
zoqandin
zor
zora
zorbazi
zordar
zordari
zordariye
zordest
zordesti
zore
zori
zot
zozan
zozana
zozanan
zozane
zsu
zti
ztin
ztir
zu
zug
zuha
zuluyi
zum
zur
zuru
zuryet
zusammen
zuwa
zvan
zvane
zvi
zwei
zwi
zwijsen
zygophyllum
zyon
zyona
zyone
zı
zına
zɑ
zɛ
zɪjɑ
zɪɾɑ
{
|
}
~
¡
¢
£
¦
§
¨
©
«
¬
­
®
°
±
²
³
´
µ
·
º
»
×
ß
ße
ßen
ßig
æ
ð
ður
ø
đa
đo
ħ
ı
ıg
ık
ıkarmak
ıklı
ıklık
ıkmak
ıktı
ıkıs
ıl
ılama
ılamak
ılas
ılma
ılmak
ılı
ılık
ım
ın
ına
ında
ından
ını
ır
ırmak
ıs
ıt
ız
ł
ŋ
ŋɡ
ƨ
ɐ
ɑ
ɑt
ɑʃvili
ɒ
ɔ
ɘ
ə
əs
ɚ
ɛ
ɛd
ɛs
ɛt
ɜ
ɡ
ɡe
ɡi
ɡo
ɡɑ
ɡɛ
ɡɛmɑ
ɡɪhɑ
ɡɪlo
ɡɪɾ
ɡɪɾe
ɡɪɾi
ɡɪɾɑ
ɡʊmɑ
ɪ
ɪn
ɫ
ɹ
ɾ
ɾdɑ
ɾe
ɾi
ɾkɪ
ɾo
ɾs
ɾt
ɾu
ɾɑ
ɾɛ
ɾɛk
ɾɛt
ɾɪk
ɾɪn
ʃ
ʃe
ʃi
ʃkɪ
ʃo
ʃt
ʃu
ʃvɛ
ʃɑ
ʃɛ
ʃɛɾ
ʃɪ
ʃɪk
ʃɪki
ʃɪkɑ
ʃɪqɑ
ʃɪɾi
ʃɪɾɑ
ʊ
ʌ
ʒ
ʒdɑ
ʒe
ʒi
ʒo
ʒu
ʒɑ
ʒɛ
ʒɛn
ʒɪ
ʒɪh
ʒɪhe
ʒɪjɑ
ʒɪmi
ʒɪmɑ
ʒɪqi
ʒɪqɑ
ʒɪvɑ
ʒɪɾi
ʒɪɾɑ
ʔ
ʕɑ
ʰ
ʲ
ʷ
ʹ
ʺ
ʻ
ʼ
ʾ
ʿ
ˀ
ˁ
ˈ
ˌ
ː
ːˈ
ˑ
ˤ
̀
́
̂
̃
̄
̆
̇
̈
̉
̊
̋
̌
̍
̏
̑
̓
̔
̛
̞
̣
̤
̥
̦
̧
̨
̩
̪
̭
̮
̯
̱
͂
ͅ
͡
α
αι
ας
β
γ
δ
δα
δι
ε
ευ
ζ
ζω
η
θ
ι
κα
κι
κο
λ
λι
μ
μα
με
ν
να
νη
νι
νος
ξ
ο
ος
π
πα
ρ
ρα
ρι
ς
σ
τ
τα
της
το
υ
χ
ψ
ω
а
б
в
г
д
двадцать
е
ж
з
и
к
ка
кур
л
м
н
на
о
п
р
с
ско
словарь
т
те
у
ф
х
ц
ч
ш
ъ
ы
ь
ю
я
і
ҫ
ҳ
ә
ְ
ֲ
ִ
ֵ
ֶ
ַ
ָ
ֹ
ֻ
ּ
־
ֿ
ׁ
ׂ
א
ב
ג
ד
ה
ו
ז
ח
ט
י
ך
כ
ל
ם
מ
ן
נ
ס
ע
ף
פ
צ
ק
ר
ש
ת
׳
،
؛
؟
ء
ا
اء
اب
ابن
ات
اد
ار
ارومیه
از
ال
الا
الله
ام
ان
انتشارات
او
اول
اي
ای
ایران
ب
با
باد
باز
بازی
بد
بر
برای
بردن
بزرگ
بلا
بلند
بن
بند
به
بو
بودن
بوو
بوون
بۆ
بی
بە
ة
ت
تا
تاریخ
تش
ته
تو
ث
ج
جه
ح
حال
حسن
حه
خ
خان
خانه
خر
خه
خو
خواب
خوردن
خوش
خوە
خۆ
د
دا
دادن
دار
داشتن
دان
دانه
در
دست
دل
دلێ
دم
ده
دهنده
دو
دوست
دژ
ذ
ر
را
رام
راه
رفتن
رنگ
ره
رو
ري
ری
رێ
ز
زبان
زدن
زمین
زن
زه
س
سر
سفلی
سفید
سه
سی
سیاه
ش
شاهین
شدن
شده
شناسی
شه
ص
صاحب
ض
ط
ظ
ع
عبد
علم
علی
علیا
عه
غ
ـ
ف
فه
في
ق
قره
قه
ك
كر
كه
كی
كێ
ل
لا
لباس
له
لێ
لە
م
ما
ماده
محمد
مدن
مر
من
مه
مو
میاندوا
ن
نا
نامه
نه
نوعی
نگ
ه
ها
هل
هم
هه
و
وا
وان
ور
وردن
وز
ول
ون
وه
وی
ى
ي
يد
ير
يس
يل
يم
ين
ً
ٌ
ٍ
َ
ُ
ِ
ّ
ْ
ٓ
ٔ
ٕ
٠
١
٢
٣
٤
٥
٦
٧
٨
٩
ٰ
پ
پا
په
پیام
چ
چشم
چه
ڕ
ڕه
ژ
ژێ
ڤ
ڤه
ک
کار
کانی
کرد
کردن
کرن
کشیدن
کم
کندی
کننده
که
کوچک
گ
گرفتن
گل
گه
ڵ
ھ
ۆ
ۊ
ی
یا
یاد
یانه
یه
یک
یێ
ێ
ە
۰
۱
۲
۳
۴
۵
۶
۷
۸
۹
ܐ
ܳ
ܵ
ܼ
ނ
ރ
ބ
ކ
އ
މ
ލ
ޖ
ަ
ާ
ި
ު
ް
ँ
ं
ः
अ
आ
ई
क
कर
ख
ग
घ
च
छ
ज
ट
ठ
ड
ण
त
थ
द
ध
न
प
फ
ब
भ
म
य
र
ल
ळ
व
श
ष
स
ह
़
ा
ि
ी
ु
ू
ृ
े
ै
ो
ौ
्
ঁ
ও
ক
খ
গ
চ
ছ
জ
ট
ড
ত
থ
দ
ধ
ন
প
ব
ভ
ম
য
র
ল
শ
ষ
স
হ
়
া
ি
ী
ু
ৃ
ে
্
ৰ
ਂ
ਕ
ਖ
ਜ
ਤ
ਦ
ਨ
ਪ
ਬ
ਮ
ਰ
ਲ
ਸ
ਹ
਼
ਾ
ਿ
ੀ
ੁ
ੂ
ੇ
ੈ
ੋ
ੰ
ੱ
ં
ક
ગ
ચ
જ
ડ
ત
દ
ન
પ
બ
મ
ય
ર
લ
વ
શ
સ
હ
ા
િ
ી
ુ
ૂ
ે
ૈ
ો
્
ଁ
ଏ
ତ
ପ
ମ
ା
ି
ୁ
େ
୍
க
ச
ஜ
ட
ண
த
ந
ன
ப
ம
ய
ர
ற
ல
ள
ழ
வ
ஷ
ஸ
ா
ி
ீ
ு
ூ
ெ
ே
ை
்
ం
క
గ
చ
జ
ట
డ
ణ
త
ద
ధ
న
ప
బ
భ
మ
య
ర
ల
ళ
వ
శ
ష
స
హ
ా
ి
ీ
ు
ూ
ృ
ె
ే
ొ
ో
ౌ
్
ౖ
ಂ
ಕ
ಗ
ಜ
ಟ
ತ
ನ
ಪ
ಬ
ಮ
ರ
ಲ
ವ
ಸ
ಾ
ಿ
ು
ೂ
ೆ
್
ೕ
ം
ക
ച
ജ
ട
ണ
ത
ന
പ
ബ
മ
യ
ര
റ
ല
ള
വ
ഷ
സ
ാ
ി
ീ
ു
െ
േ
്
ක
ද
න
ර
ල
ව
ස
්
ා
ි
ු
ෙ
ก
ค
ง
ฉ
ช
ซ
ด
ต
ท
น
บ
ป
ผ
พ
ฟ
ม
ย
ร
ล
ว
ส
ห
อ
ั
า
ิ
ี
ึ
ื
ุ
ู
็
่
้
์
ກ
ຄ
ງ
ນ
ຫ
ັ
ິ
ີ
ື
ຸ
ູ
ົ
່
້
་
།
ཁ
ག
ང
ད
ན
པ
བ
མ
ཡ
ར
ལ
ས
ཱ
ི
ུ
ེ
ོ
ྔ
ྱ
ྲ
ླ
က
င
စ
တ
ဒ
န
ပ
ဘ
မ
ရ
လ
ဝ
သ
အ
ါ
ာ
ိ
ီ
ု
ူ
ေ
ံ
့
း
္
်
ျ
ြ
ွ
ှ
ᏻ
ក
ខ
គ
ង
ជ
ដ
ត
ទ
ន
ប
ភ
ម
យ
រ
ល
វ
ស
អ
ា
ិ
ី
ឹ
ុ
ូ
ួ
េ
ែ
ោ
ំ
៉
់
្
​
‌
‍
‎
‏
‐
–
—
―
‘
’
‚
“
”
„
†
•
…
‧
′
″
‹
›
‿
⁄
⁡
ⁿ
₁
₂
₃
€
№
←
↑
→
↔
↗
↘
↷
⇐
⇒
∈
−
∙
∩
∪
∫
≈
⋅
③
④
⑦
─
│
└
►
◄
♭
♯
ⲓ
ⴰ
ⴷ
ⵎ
ⵓ
ⵔ
ⵜ
⺀
⺄
⺆
⺈
⺊
⺌
⺕
⺝
⺸
⺼
⿰
⿱
⿲
⿳
⿴
⿵
⿶
⿷
⿸
⿹
⿺
⿻
、
。
々
〢
あ
い
う
え
お
か
き
く
け
こ
さ
し
す
せ
そ
た
ち
っ
つ
て
と
な
に
ぬ
ね
の
は
ひ
ふ
へ
ほ
ま
み
む
め
も
ゃ
や
ゅ
ゆ
ょ
よ
ら
り
る
れ
ろ
わ
を
ん
゙
゚
ァ
ア
ィ
イ
ウ
ェ
エ
オ
カ
キ
ク
ケ
コ
サ
シ
ス
セ
ソ
タ
チ
ッ
ツ
テ
ト
ナ
ニ
ネ
ノ
ハ
ヒ
フ
ヘ
ホ
マ
ミ
ム
メ
モ
ャ
ヤ
ュ
ユ
ョ
ヨ
ラ
リ
ル
レ
ロ
ワ
ン
・
ー
㇁
㇂
㇄
㇇
㇈
㇉
㇓
㐁
㐄
㐅
㐌
㐫
㐬
㐭
㐮
㐱
㑒
㒵
㒸
㒼
㓁
㓞
㔾
㕛
㕣
㖾
㘝
㚅
㚇
㚔
㚘
㝉
㝡
㝴
㝵
㞋
㞢
㞷
㠩
㠭
㠯
㡀
㡭
㡿
㢲
㢴
㣇
㣺
㥯
㪅
㫄
㫐
㫒
㫺
㬅
㬎
㬥
㬰
㲋
㳄
㷠
㸒
㸚
㸦
㼌
㼲
㽞
㿟
䀠
䂞
䍃
䏍
䒑
䖍
䖒
䖝
䖵
䙴
䚻
䜌
䝿
䡛
䧹
䪞
一
丁
丂
七
丄
丅
丆
万
丈
三
上
下
丌
不
与
丏
丐
丑
专
且
丕
世
丘
丙
业
东
丞
丢
丣
两
严
並
丨
丩
个
丫
丬
中
丮
丰
丱
串
丵
丶
丷
丸
丹
为
主
丽
丿
乀
乂
乃
久
乆
乇
么
义
之
乌
乍
乎
乏
乐
乑
乔
乖
乗
乘
乙
乚
乛
乜
九
乞
也
习
乡
乳
乾
亀
亅
了
亇
予
争
事
二
亍
于
亏
亐
云
互
亓
五
井
亘
亚
亜
亞
亟
亠
亡
亢
交
亥
亦
产
亨
亩
享
京
亭
亮
亯
亰
亲
亳
亶
亷
人
亻
亼
亾
什
仁
仇
今
介
仌
从
仐
仑
仒
仓
仔
仕
他
付
仙
仝
代
令
以
仲
任
企
伊
伏
伐
休
会
伯
伸
但
位
住
佐
佑
体
何
佘
余
作
你
佥
佳
使
來
侈
侌
侖
依
侯
侵
便
俄
俊
保
俞
信
修
倉
倍
候
倠
健
偽
備
僉
僕
儀
優
儿
兀
允
兂
元
兄
充
兆
兇
先
光
兊
克
兌
免
児
兑
兒
兓
兔
党
兜
兟
入
內
全
兩
兪
八
公
六
兮
兰
共
关
兵
其
具
典
兹
兼
冀
冂
冃
冄
内
冈
冉
冊
冋
册
再
冎
冏
冐
冒
冓
冖
冗
冘
军
农
冝
冡
冥
冫
冬
冷
几
凡
凢
凵
凶
凷
凸
凹
出
函
凾
刀
刁
刂
刃
刄
刅
分
切
刍
刑
刕
刖
列
刘
则
初
別
利
别
到
制
刺
則
削
剌
前
剛
剡
剽
劉
力
功
加
劦
动
助
劫
劳
劵
勃
勇
勉
勒
動
務
勝
勞
勤
勹
勺
勻
勾
勿
匀
匂
包
匆
匈
匊
匋
匍
匕
化
北
匚
匝
匡
匪
匱
匸
匹
区
医
匽
匿
區
十
卂
千
卄
卅
卆
升
午
卉
半
卌
华
卑
卒
卓
单
卖
南
博
卜
卝
卞
占
卡
卢
卣
卤
卦
卩
卪
卬
卯
印
危
即
却
卵
卷
卸
卻
厂
厃
厄
历
厈
厉
厌
厓
厘
厚
原
厤
厥
厨
厭
厲
厶
厷
厸
去
厼
厽
县
叀
参
參
叅
又
叉
及
友
双
反
叐
发
叒
叔
叕
取
受
叚
叜
叟
口
古
句
另
叩
只
召
可
台
叱
史
右
叵
号
司
叹
吂
各
吅
合
吉
吊
吋
同
名
后
吏
向
吕
君
吝
吞
否
含
启
吳
吴
吹
吾
呂
呆
呈
告
员
呙
周
味
命
咅
和
咎
咠
咢
咨
咲
咸
咼
哀
品
哈
哉
員
哥
哲
唐
唔
唯
商
啇
問
啓
啚
啬
啻
善
喜
喬
單
喿
嗇
嗣
嘉
器
噩
噴
嚏
嚴
囊
囗
囘
囙
囚
四
回
囟
因
団
囧
囬
困
囱
囷
固
国
圂
圅
國
圍
園
圓
土
圡
圣
圥
在
圭
地
圶
圼
坂
坐
坒
坚
坦
坴
垂
垔
垚
埀
埋
城
埶
執
基
堀
堂
堅
堆
堇
堯
報
場
塔
塚
塞
塩
境
墨
壘
士
壬
壯
声
壳
壴
壹
壺
壽
夂
处
夅
夆
备
夊
夋
夌
复
夏
夒
夕
外
夗
夘
多
夜
夢
大
夨
天
太
夫
夬
夭
央
失
夲
头
夷
夸
夹
夻
夾
奂
奄
奇
奈
奉
奎
奏
奐
契
奓
奔
奚
奞
奠
奢
奥
奭
女
奴
奻
好
如
妄
妙
妟
妥
妻
妾
始
姑
委
姜
姫
威
娄
婁
婚
婴
嬰
嬴
子
孑
孔
孕
孖
字
存
孚
孛
孝
孟
季
孤
学
孫
孱
學
宀
宁
宂
它
宅
宇
守
安
宋
完
宏
宓
宗
官
定
宛
宜
宝
実
客
宣
室
宮
宰
害
家
容
宾
宿
寄
寅
密
富
寒
寛
察
寧
審
寫
寬
寮
寶
寸
对
寺
寻
寽
対
寿
封
尃
射
将
將
專
尉
尊
尋
尌
對
小
少
尒
尓
尔
尖
尗
尚
尞
尢
尣
尤
尧
尨
尭
就
尸
尹
尺
尻
尼
尽
尾
尿
局
居
屈
屋
屎
屏
屑
展
屖
屚
属
屠
屡
屬
屮
屯
屰
山
屵
屾
岁
岂
岑
岡
岩
岳
岸
峯
峰
島
崇
崎
崑
崔
崖
崙
崩
嵬
嶋
嶲
巂
巛
川
州
巟
巠
巢
巤
工
左
巧
巨
巩
巫
差
己
已
巳
巴
巷
巸
巽
巾
巿
帀
市
布
师
希
帚
帛
帝
带
師
席
帯
帶
常
干
平
年
幵
并
幷
幸
幺
幻
幼
幽
幾
广
広
庄
床
应
底
店
庚
府
度
座
庫
庭
庶
康
庸
廉
廌
廛
廣
廩
廴
延
廷
建
廾
廿
开
弁
弃
弄
弇
弋
式
弓
弔
引
弗
弘
弜
弟
弥
弦
弱
張
強
强
彊
彌
彎
彐
彑
当
彔
录
彖
彗
彡
形
彥
彦
彧
彩
彭
彰
彳
役
彼
往
待
律
後
徒
得
徙
從
復
微
徳
徵
德
徹
心
忄
必
忌
忍
志
忝
忠
忩
快
念
忽
忿
思
怠
急
性
怱
恆
恋
恐
恒
恩
恭
息
恵
悉
悠
患
悤
悪
悲
悶
情
惠
惡
惢
想
愁
愈
意
愛
感
慈
態
慎
慢
慧
慮
慶
憂
憲
應
戀
戈
戉
戊
戋
戌
戍
戎
成
我
戒
戔
或
戚
戠
戢
戦
截
戰
戲
戶
户
戸
戹
戼
戾
房
所
扁
扇
手
扌
才
打
托
执
承
技
投
折
护
报
拉
拓
拜
拿
持
指
掌
接
推
提
摩
支
攴
攵
收
攸
改
放
政
敄
敏
敕
敖
敗
教
敝
敞
敢
散
敦
敫
敬
数
敷
數
斂
文
斉
斊
斗
料
斤
斥
斩
斬
斯
新
方
於
施
斿
旁
旋
族
无
旡
既
旣
日
旦
旧
旨
早
旬
旱
旲
时
旾
昆
昇
昌
昍
明
昏
易
昔
昗
昜
星
映
春
昬
昭
是
昱
昴
昷
時
晃
晋
晏
晚
普
景
晴
晶
智
暑
暴
曇
曜
曩
曰
曲
曳
更
曷
書
曹
曼
曾
替
最
朁
會
月
有
朋
服
朔
朕
朗
望
朝
期
木
朩
未
末
本
札
朮
术
朱
朵
朶
机
朿
杀
杉
李
杏
村
杜
束
条
来
東
杲
杳
松
板
析
林
枚
果
枝
枲
枼
某
柔
查
柬
柰
柳
柴
柿
栄
树
栗
根
格
桀
桃
桑
桜
桼
梁
梅
條
梟
梨
棘
棠
棥
森
椅
植
楚
業
楼
楽
榮
樂
樊
樓
標
権
横
樹
橋
機
欠
次
欣
欧
欮
欲
欶
欽
款
歆
歇
歌
歛
止
正
此
步
武
歨
歩
歪
歮
歯
歰
歲
歴
歷
歸
歹
歺
死
殳
段
殷
殸
殹
殺
殻
殿
毋
毌
母
每
毒
比
毕
毚
毛
毳
氏
氐
民
气
気
氣
水
氵
氶
氷
永
氺
氾
求
汗
汝
汞
江
池
沃
沓
沙
沝
没
沢
河
油
治
沼
泉
法
泡
波
泣
泥
泰
洋
洗
洛
津
洪
洲
活
派
流
浅
浜
浦
浩
浪
浮
海
液
淡
淮
淳
清
渚
渠
渡
温
港
湖
湯
満
源
满
滿
漸
澄
澤
濟
瀬
火
灬
灭
灰
灵
灷
炅
炎
炏
炗
炙
炭
点
為
烈
烏
烝
焉
無
焦
焱
然
焼
煞
照
熊
熏
燃
燕
營
燮
爪
爫
爭
爯
爰
爱
爲
爵
父
爻
爽
爾
爿
片
牙
牚
牛
牜
牟
牢
牧
物
牪
特
牽
犀
犬
犭
犮
犯
狂
狄
狊
狡
狩
独
狺
猋
猎
猒
猪
猫
献
猾
獵
獻
玄
率
玉
王
玟
玨
珍
珎
珠
班
球
理
琴
瑞
瑟
瑠
瑩
瓜
瓦
甘
甚
生
産
用
甫
甬
田
由
甲
申
电
甶
男
甸
甹
画
甾
畀
界
畏
畐
畑
留
畜
畟
畢
畧
畨
番
畫
異
畱
當
畺
畾
疆
疊
疋
疌
疑
疒
疲
疹
疾
病
症
癶
癸
癹
登
發
白
百
皀
皃
的
皆
皇
皋
皐
皕
皮
皷
皿
盃
盆
盇
盈
益
盍
盎
监
盒
盖
盛
盡
監
盤
盧
目
直
相
盾
省
眇
眉
看
眔
眞
真
眠
眷
眼
眾
着
睘
睪
睿
瞏
瞢
瞿
矍
矛
矞
矢
矣
知
矦
短
石
砂
破
碎
磊
磨
示
礻
礼
社
祐
祖
神
祟
祥
票
祭
禀
禁
福
禸
禹
禺
离
禽
禾
禿
秀
秃
秉
秋
科
秝
秦
移
稚
稟
種
穀
穂
穌
穴
究
穹
空
穿
突
窄
窒
立
竒
竜
竝
竟
章
童
竹
笑
笔
笠
第
筆
等
答
箕
算
箴
節
範
篤
篭
米
类
粉
粛
粟
粤
粦
粲
精
糞
糸
糹
系
紀
約
紅
納
純
紗
紙
素
索
紫
累
細
終
経
結
絜
絫
絲
絵
經
維
綿
総
緒
線
縣
繁
繇
織
纍
纟
红
经
结
维
缶
网
罒
罔
罕
罗
罙
罡
罢
罪
署
罷
羅
羊
羌
羍
美
羔
羕
羗
羞
羡
羣
群
義
羲
羸
羽
翁
翏
習
翔
翕
翟
翠
翻
翼
老
耂
考
者
耆
而
耎
耑
耒
耕
耳
耴
耶
耷
聂
聊
聖
聚
聞
聡
聶
聿
肀
肃
肅
肉
肖
肙
肥
肩
肯
育
肴
胃
背
胎
胡
胥
能
脊
脩
膚
臣
臤
臧
自
臬
臭
臯
臱
至
致
臺
臼
臽
臾
臿
舀
舂
舄
與
興
舉
舌
舍
舛
舜
舞
舟
般
船
艮
良
色
艸
艹
艾
节
芒
芔
芬
芮
花
芳
芺
芻
苔
苗
苟
若
苦
英
茂
茎
茶
茸
荅
草
荒
荣
荷
荼
莆
莉
莧
莫
莽
菆
菊
菐
菜
華
萄
萬
落
葉
著
葛
葡
董
葵
蒙
蒦
蒼
蓋
蓬
蓺
蔑
蔡
蔵
蕉
蕭
薄
薛
薦
薯
薰
藍
藏
藤
藥
蘭
虍
虎
虐
虒
虔
處
虖
虗
虘
虚
虛
虜
虞
虫
虹
虽
蚤
蚩
蜀
蜂
蜃
蜜
螺
蟲
蠡
血
行
衍
衛
衣
衤
表
衮
衰
袁
袋
袞
裕
褭
褱
襄
襾
西
覀
要
覃
見
規
覓
覧
親
覽
见
角
解
触
言
訁
訇
計
記
詞
詩
話
詹
誉
誌
語
誠
誩
請
論
諸
謙
謝
識
譯
護
讠
设
词
译
话
语
说
请
谢
谷
豆
豈
豊
豐
豕
豖
豙
象
豦
豩
豪
豸
貇
貝
貞
貟
負
貢
貧
貪
貫
責
貳
貴
買
費
賀
賁
資
賈
賏
賓
賔
賛
賞
賢
賣
質
賴
贊
贝
贡
财
责
贯
贲
贵
赖
赞
赤
赦
走
起
越
足
路
蹇
身
躬
車
軍
軎
軟
輔
輝
輦
车
辛
辜
辞
辟
辥
辰
辱
農
辵
辶
边
込
达
过
迎
近
连
迷
追
退
送
逃
逆
逐
通
速
造
逢
連
逮
進
遀
遂
遊
運
過
道
達
遣
適
遷
遺
避
邊
邑
邕
那
邦
邪
郁
郎
部
郭
都
鄉
酉
酋
配
酒
酓
釆
采
里
重
野
量
金
釒
鈴
鉄
銅
鋼
錢
鏡
鐵
钅
钱
铃
長
镸
长
門
閃
閉
開
閏
閑
閒
間
閔
関
閵
閻
闌
门
间
闷
阑
阜
阝
防
阳
阴
阿
陀
降
院
陳
陸
陽
隆
隊
隋
階
際
隠
隡
隨
隱
隶
隹
隺
隻
隼
隽
难
雀
雁
雄
雅
集
雈
雋
雍
雐
雔
雙
雚
雜
雝
離
難
雨
雩
雪
雲
零
雷
電
需
霍
霜
霝
霞
霸
靈
靑
青
非
靡
面
靣
革
韋
韦
韭
韯
韱
音
頁
頃
項
順
須
頗
頡
頭
頻
顛
類
页
風
风
飛
飞
食
飠
飯
飼
飾
養
餐
館
饣
首
香
馬
馮
駦
験
马
骨
體
高
髟
鬥
鬯
鬲
鬼
魔
魚
魯
鮮
鱼
鲁
鳥
鳳
鶴
鷹
鸟
鹰
鹵
鹿
麃
麗
麥
麦
麻
黃
黄
黍
黎
黑
黒
點
黨
黹
黽
黾
鼎
鼓
鼠
鼻
齊
齋
齐
齒
齿
龍
龙
龜
龟
龠
龰
龱
龴
龵
龶
龷
龸
龹
ꜣ
ꜥ
ꠣ
ꭰ
ꭲ
ꭴ
ꭶ
ꭷ
ꭸ
ꭹ
ꭺ
ꭼ
ꭽ
ꭿ
ꮃ
ꮅ
ꮎ
ꮒ
ꮕ
ꮖ
ꮜ
ꮝ
ꮣ
ꮤ
ꮧ
ꮩ
ꮪ
ꮵ

者
艹
ﬂ
ﮫ
ﯾ
ﺍ
ﺎ
ﺒ
ﺧ
ﺭ
ﺯ
ﺴ
ﺷ
ﻔ
ﻣ
ﻧ
ﻨ
ﻫ
ﻴ
﻿
（
，
？
�
𐌰
𐌱
𐌲
𐌳
𐌴
𐌷
𐌸
𐌹
𐌻
𐌼
𐌽
𐌾
𐌿
𐍂
𐍃
𐍄
𐍅
𐍆
𐍉
𐎠
𐎡
𐎢
𐎧
𐎫
𐎭
𐎱
𐎴
𐎶
𐎹
𐎺
𐎼
𐏁
𐫀
𐫃
𐫅
𐫇
𐫏
𐫗
𐫡
𐬀
𐬁
𐬆
𐬉
𐬌
𐬎
𐬐
𐬑
𐬔
𐬙
𐬚
𐬛
𐬞
𐬥
𐬨
𐬫
𐬬
𐬭
𐬯
𐬰
𐬱
𐬵
𐭠
𐭥
𐭧
𐭩
𐭪
𐭫
𐭬
𐭭
𐭯
𐭱
𐭲
𒀀
𒀭
𒀸
𒂍
𒃲
𒄀
𒅴
𒆠
𒈦
𒊏
𒊩
𒌋
𒍝
𠀁
𠀃
𠀆
𠀉
𠀎
𠀐
𠁁
𠁣
𠂆
𠂇
𠂈
𠂉
𠂊
𠂋
𠂎
𠂒
𠂔
𠂛
𠂡
𠂢
𠂤
𠂬
𠂭
𠂹
𠃊
𠃋
𠃌
𠃍
𠃎
𠃑
𠃓
𠃔
𠃜
𠄌
𠄎
𠄠
𠄢
𠆢
𠆥
𠇍
𠈌
𠌵
𠓜
𠔉
𠔥
𠔼
𠔽
𠔿
𠕀
𠕁
𠕋
𠘧
𠘨
𠙻
𠙼
𠚏
𠚒
𠚤
𠚪
𠣏
𠤎
𠤕
𠥓
𠦄
𠦑
𠦝
𠧒
𠧗
𠧪
𠩺
𠪚
𠫓
𠫔
𠫤
𠬛
𠬝
𠬞
𠬢
𠬤
𠬶
𠮛
𠮦
𠮷
𠯑
𠱠
𠳮
𠷎
𡈼
𡉀
𡉵
𡌥
𡍮
𡏳
𡕒
𡕩
𡕰
𡖅
𡗗
𡗜
𡘆
𡘤
𡧱
𡨄
𡩧
𡬠
𡭽
𡰣
𡰥
𡰪
𡰯
𡰱
𡷈
𡸁
𡿨
𡿩
𡿪
𡿺
𢀖
𢀛
𢀩
𢁙
𢆉
𢆰
𢆶
𢇁
𢇇
𢉖
𢌬
𢌿
𢏚
𢑑
𢑚
𢖻
𢙣
𢛳
𢦏
𢦒
𢧵
𢼄
𢾕
𣁋
𣄼
𣅀
𣅽
𣍘
𣎳
𣎵
𣏋
𣏼
𣗥
𣥂
𣥖
𣦵
𣦼
𣧄
𣪊
𣪠
𣬉
𣳾
𣶒
𤇾
𤊽
𤐫
𤓰
𤔔
𤕨
𤣩
𤰇
𤰔
𤰞
𤴓
𤴔
𤽄
𥁑
𥁕
𥃦
𥃩
𥃭
𥇡
𥑟
𥘅
𥘈
𥝢
𥫗
𥱡
𦈢
𦉪
𦉬
𦉼
𦍌
𦍒
𦎧
𦐇
𦓔
𦔮
𦘒
𦙃
𦚏
𦣝
𦣞
𦣻
𦥑
𦥔
𦥯
𦨉
𦭝
𦰩
𧆞
𧈧
𧘇
𧰨
𧴪
𧴮
𧵩
𧾷
𨸏
𨾴
𩙿
𩠐
𩫏
𩵋
𪉷
𪜀
𪟽
𪠲
𪩲
𫇦
𫔭
𫜸
𫝀
𫠣
𫠩
𫢉
𫥞
𫩏
𫩠
𫪡
𫲽
𫶧
𬀷
𬐘
𬗌
𬙙
𬛸
𬜯
𬟩
𬯁
𬴘
𬺻
𬼉
𬼖
𭀰
𭁈
𭁨
𭅰
𭑈
𭕄
𭗼
𭤨
𭥫
𭻾
𮅕
𮊿
𮍌
𮍏
𮓗
𮥼
𮧮
廾
𰀁
𰀄
𰀈
𰀉
𰀕
𰀠
𰀡
𰀢
𰀪
𰁜
𰃮
𰆊
𰆘
𰋙
𰕎
𰢴
𰧭
𰯲
00--
01--
02--
03--
04--
05--
06--
07--
08--
09--
14--
15--
16--
17--
18--
20--
21--
23--
31--
33--
50--
68--
71--
80--
81--
82--
86--
87--
88--
89--
93--
94--
95--
97--
a--
aa--
ab--
aba--
abalie--
abart--
abd--
abe--
abi--
ablac--
abne--
abro--
absc--
absen--
absor--
abu--
ac--
accel--
accep--
accom--
accu--
accumul--
accur--
acer--
acht--
aci--
aciz--
acqui--
act--
acu--
acı--
ad--
ada--
adapt--
adaptas--
ade--
adi--
admini--
adn--
adop--
adven--
advo--
ae--
af--
affect--
affir--
afi--
afyon--
ag--
aga--
age--
aggl--
agglu--
agi--
agir--
ago--
agu--
ah--
ahe--
ahi--
ai--
air--
aj--
ajal--
ajo--
ak--
aka--
ake--
akkus--
aks--
aku--
al--
ala--
alak--
alb--
albic--
alc--
ale--
alek--
ali--
all--
alle--
als--
alt--
alter--
alu--
am--
ama--
aman--
ambas--
ame--
ami--
amo--
ampi--
amu--
amy--
an--
ana--
anak--
anc--
and--
ane--
anf--
ang--
angu--
ani--
ank--
ann--
annihi--
annou--
ano--
ans--
ansi--
answer--
ant--
anti--
antro--
any--
ao--
ap--
apa--
apart--
ape--
apo--
appe--
appli--
appre--
appro--
aq--
aqil--
aqu--
ar--
ara--
aram--
arc--
ard--
are--
argen--
argu--
ari--
arj--
ark--
arkeo--
arm--
arn--
arog--
arp--
ars--
art--
arı--
as--
asa--
asce--
ase--
asi--
ask--
asp--
ass--
assy--
ast--
astro--
asu--
at--
ata--
ate--
atten--
attri--
au--
auf--
aus--
auto--
av--
ava--
ave--
avgi--
avi--
avk--
avoc--
avs--
avu--
aw--
awa--
awe--
ax--
axa--
axu--
ay--
ayak--
ayi--
ayn--
ayrı--
ayı--
az--
aza--
azad--
azer--
b--
ba--
bab--
baba--
babi--
bac--
back--
bad--
baff--
bag--
bak--
bal--
bala--
bale--
ball--
ban--
baq--
bar--
bare--
bari--
bas--
base--
bat--
bau--
baum--
bav--
baw--
bax--
bay--
baz--
bb--
bc--
bd--
be--
bea--
bec--
bed--
bee--
beg--
bege--
begi--
beh--
bei--
bej--
bejn--
bek--
bel--
bela--
bele--
belg--
belge--
beli--
bem--
ben--
bend--
beq--
ber--
bera--
bere--
berf--
berg--
beri--
bern--
bes--
besch--
beson--
bet--
bext--
bey--
bez--
bi--
biber--
bibi--
bibliog--
bibliot--
bic--
bices--
bide--
bie--
big--
bige--
bih--
biha--
bihe--
bihev--
bihi--
bihu--
bii--
bij--
bik--
bikar--
bike--
biku--
bil--
bila--
bile--
bili--
bim--
bime--
bimi--
bin--
binax--
bine--
bio--
bipe--
bir--
bira--
biri--
birrbir--
bis--
bise--
biser--
bisi--
bit--
bite--
biti--
bixe--
bixi--
biz--
bizi--
bk--
bla--
ble--
bli--
blo--
blu--
bo--
bob--
boc--
boden--
bog--
bok--
bol--
bon--
bor--
bos--
bot--
bou--
boul--
bour--
bow--
box--
boy--
boyax--
boz--
br--
bra--
bre--
bri--
bro--
broad--
bru--
bs--
bu--
buch--
bud--
bul--
bull--
bum--
bun--
bur--
burg--
burn--
burok--
bus--
but--
buz--
by--
bı--
bırak--
bɛ--
bɛx--
bɛɾ--
bɪ--
c--
ca--
cab--
cad--
calc--
calcul--
calv--
cam--
cambo--
can--
cane--
cang--
capp--
car--
care--
cas--
cat--
cauc--
caw--
cay--
cd--
ce--
ceb--
cebil--
ceh--
cel--
cem--
cemser--
cep--
cer--
ceri--
cet--
cev--
cew--
cey--
ceza--
ch--
cha--
char--
che--
chi--
cho--
chr--
chu--
ci--
cig--
cih--
cil--
cin--
cir--
circu--
circum--
cis--
civi--
ciz--
ck--
cla--
cle--
cli--
clo--
clot--
clu--
cm--
cn--
co--
cobb--
cock--
cog--
col--
colum--
com--
con--
confi--
conse--
cor--
cos--
cot--
cou--
coup--
cour--
cra--
crack--
cre--
cri--
crim--
cro--
croa--
croco--
cru--
cry--
cs--
ct--
cu--
cuda--
cum--
cur--
custo--
cut--
cy--
cz--
d--
da--
dab--
dabe--
dabi--
dad--
dadi--
dag--
dah--
dahe--
dai--
dal--
dam--
dama--
damez--
dan--
dane--
dar--
dare--
darve--
das--
dau--
dav--
daw--
dawe--
dax--
day--
dayan--
db--
dd--
de--
dead--
debax--
debd--
dec--
def--
defe--
deg--
deh--
dei--
dek--
del--
deli--
delk--
dem--
demo--
den--
deng--
deo--
dep--
depe--
depo--
depres--
deq--
der--
derd--
dere--
derge--
deri--
ders--
derve--
des--
desce--
dest--
det--
dev--
dew--
dewi--
dex--
dey--
dez--
di--
dia--
dibe--
dic--
dictio--
die--
diff--
dig--
dige--
dihe--
dij--
dik--
dike--
dil--
dila--
dile--
dili--
dim--
din--
ding--
dio--
dip--
dipe--
diq--
dir--
dire--
diri--
dis--
disa--
dit--
div--
dive--
diwan--
diya--
diz--
dj--
dli--
do--
doc--
dodec--
dog--
dok--
dol--
dom--
domi--
don--
donzde--
dor--
dos--
dot--
dou--
down--
dox--
doz--
dra--
dre--
dri--
dro--
dru--
dt--
du--
dua--
dubit--
duc--
duh--
duj--
dum--
dumb--
dunder--
dupli--
dur--
dus--
duy--
dw--
dy--
dz--
dı--
dɛ--
dɛwɪ--
dɪ--
dɪhɛ--
dɪpɛ--
dʊ--
e--
ea--
ear--
eat--
eb--
ebdil--
ebdu--
ebdul--
ebdulh--
ebduls--
ebdur--
ebe--
ebers--
ebi--
ebu--
ec--
eci--
eco--
ed--
eda--
edi--
edu--
ee--
ef--
efe--
efs--
eg--
ege--
egg--
egi--
eh--
ehe--
ehi--
ehr--
ehre--
ei--
eich--
eigen--
ein--
eisen--
ej--
ek--
ekil--
ekir--
eko--
eks--
el--
ela--
elb--
elc--
ele--
elect--
elekt--
elf--
eli--
elo--
elp--
em--
ema--
eme--
emer--
emi--
emir--
emo--
empfe--
ems--
en--
ena--
enc--
end--
endaz--
endonez--
endop--
ene--
enfeksi--
eng--
eni--
enq--
ens--
ent--
enter--
eo--
ep--
eper--
epi--
eq--
eqe--
eqi--
equ--
equa--
er--
era--
erd--
erde--
erdni--
ere--
ereb--
eref--
ereq--
erh--
eri--
erk--
erm--
ermi--
ero--
err--
ers--
ert--
erx--
erz--
erzi--
es--
esca--
esi--
esil--
essl--
est--
esti--
et--
ete--
eti--
etno--
ety--
eu--
euph--
euro--
ev--
evan--
eve--
ever--
every--
evi--
ew--
ewi--
ewle--
ewq--
ewr--
ewt--
ex--
exam--
excep--
exem--
exhi--
experi--
expl--
ext--
ey--
eyb--
eye--
eyn--
ez--
ezi--
f--
fa--
fade--
fahr--
fal--
fam--
fan--
far--
fas--
fat--
favor--
fay--
faz--
fe--
feda--
federa--
fehm--
feld--
fen--
fenom--
fer--
feri--
ferz--
fes--
fet--
feu--
few--
fex--
fey--
feyde--
ff--
fi--
fil--
film--
fin--
finnm--
fir--
fire--
fis--
fit--
fiz--
fk--
fl--
fla--
flat--
fle--
flie--
flo--
flu--
fly--
fo--
fold--
fon--
for--
fore--
fos--
foto--
four--
fr--
fra--
frag--
fre--
free--
frei--
fren--
fri--
fried--
fro--
fru--
ft--
fti--
fu--
fun--
fur--
fuß--
fy--
fır--
fɛ--
fɛɾ--
fɪ--
g--
ga--
gal--
gam--
gan--
gang--
gar--
gard--
gas--
gay--
gaz--
gazi--
ge--
gef--
gefa--
gegen--
geh--
gel--
gem--
gen--
gene--
geo--
gep--
ger--
geri--
germ--
ges--
gesch--
get--
gewi--
gez--
gh--
gi--
gia--
gij--
gijgij--
gil--
gin--
gir--
gire--
giya--
giz--
gl--
gla--
gli--
glu--
gn--
go--
gobb--
god--
gog--
gol--
gold--
gom--
gon--
good--
gor--
gore--
gos--
got--
gov--
gover--
gra--
gram--
grand--
gre--
gri--
gro--
gru--
grund--
gu--
gua--
guang--
guh--
guhe--
guhi--
gul--
gule--
gum--
gun--
gur--
gut--
gy--
głup--
h--
ha--
hac--
had--
haf--
hai--
hak--
hal--
hall--
ham--
han--
hand--
happ--
har--
hard--
has--
hast--
hat--
haus--
havil--
haw--
hawi--
hay--
haz--
hazır--
hb--
he--
head--
heb--
hec--
hecto--
hed--
heft--
hei--
heide--
heil--
hej--
hek--
hel--
heli--
hell--
help--
hem--
heme--
hemi--
hen--
hep--
heq--
her--
hera--
heraus--
here--
heri--
heris--
hes--
hesap--
hesi--
hest--
heste--
het--
hev--
heval--
heve--
hew--
hewa--
hewi--
hexa--
hexadec--
hey--
heys--
hez--
hezi--
hi--
hic--
high--
hij--
hikum--
hil--
hils--
him--
hin--
hip--
hir--
his--
hit--
hiz--
hj--
hl--
hm--
hn--
hne--
ho--
hoch--
hof--
hog--
hohen--
hol--
holoc--
home--
homo--
hop--
hor--
horn--
hos--
hot--
hov--
how--
hr--
hre--
hri--
hti--
hu--
hub--
huc--
huku--
humb--
hun--
hur--
hus--
hut--
hw--
hy--
hydro--
hyper--
hypoc--
hı--
hır--
hız--
hɛ--
hɛj--
hɪ--
hɪl--
i--
ia--
ib--
ic--
ice--
ich--
id--
ide--
idi--
ie--
if--
ift--
ig--
ih--
ij--
ik--
ike--
iki--
ikil--
ikir--
il--
ila--
ile--
ilf--
ili--
ilk--
ill--
illus--
ilm--
ilo--
im--
ima--
imi--
impro--
in--
ina--
inc--
inclu--
incom--
indic--
indir--
indo--
ine--
infe--
infin--
influ--
infra--
ing--
ingi--
ini--
inn--
innoc--
ins--
int--
integ--
intelli--
inter--
inti--
inves--
io--
ip--
iq--
iqa--
iqi--
iqtis--
ir--
ira--
iran--
iri--
irove--
irr--
is--
isa--
isi--
iso--
ist--
isti--
it--
ita--
ite--
iti--
itil--
iu--
iv--
ivan--
ivi--
ix--
iya--
iyi--
iz--
j--
ja--
jad--
jahr--
jam--
jan--
jar--
jas--
jay--
je--
jeff--
jen--
jer--
jet--
jev--
ji--
jiber--
jihev--
jik--
jin--
jixwe--
jk--
jn--
jo--
jon--
jor--
ju--
jud--
jɛ--
k--
ka--
kab--
kafk--
kah--
kahr--
kai--
kak--
kal--
kala--
kale--
kam--
kan--
kap--
kapi--
kar--
kara--
kart--
kas--
kat--
kata--
kau--
kav--
kaw--
kay--
kayn--
kaz--
ke--
ked--
kef--
kel--
kele--
kelk--
kem--
kemi--
ken--
kence--
ker--
keri--
kes--
kesa--
ket--
kev--
kevn--
kevne--
kew--
key--
keys--
kez--
kg--
kh--
kha--
ki--
kid--
kif--
kil--
kilo--
kim--
kin--
kinc--
kip--
kir--
kirch--
kiri--
kirt--
kis--
kiss--
kit--
kite--
kiz--
kk--
kl--
kla--
kle--
kli--
km--
kn--
ko--
kod--
kode--
koj--
kok--
kol--
kole--
kolum--
kom--
kome--
komi--
kompl--
kon--
konfedera--
konsolos--
kont--
kop--
kor--
kos--
kot--
kov--
kow--
koy--
koyu--
koz--
kra--
kre--
kri--
kro--
krono--
kru--
ks--
kt--
ktat--
ku--
kuc--
kuj--
kul--
kum--
kun--
kur--
kurd--
kurk--
kurt--
kurte--
kus--
kut--
kuv--
kuvvet--
kuy--
kve--
kw--
kx--
ky--
kı--
kın--
kıpır--
kırı--
kıs--
kıv--
kıy--
kız--
kɛ--
kɪ--
kʊ--
l--
la--
lac--
lad--
laf--
lag--
lah--
lai--
laj--
lak--
lal--
lam--
lan--
land--
lar--
las--
lat--
lau--
laud--
laug--
lav--
law--
lay--
laz--
lb--
lc--
ld--
le--
lec--
led--
leg--
leh--
lej--
lek--
lem--
len--
leo--
lep--
leq--
ler--
les--
let--
leuc--
lev--
lew--
ley--
leyi--
leys--
lez--
lge--
lh--
li--
lia--
lib--
libe--
lichten--
lidar--
lie--
life--
lihev--
lik--
lim--
limbu--
lin--
lingu--
lip--
liq--
liqu--
lis--
lit--
liv--
lixwe--
liz--
lju--
lk--
lke--
ll--
lle--
lli--
lm--
ln--
lo--
lod--
log--
lon--
long--
loq--
lor--
lori--
los--
lot--
lou--
low--
lpe--
ls--
lt--
lti--
lu--
lubn--
lv--
ly--
læ--
lı--
lɛ--
lɪ--
m--
ma--
mac--
maced--
mad--
maf--
mag--
mah--
mai--
maj--
mak--
make--
maki--
mal--
mala--
mam--
mame--
man--
mana--
manc--
mar--
mara--
mas--
mat--
mathema--
mau--
max--
may--
maz--
mb--
mbɛ--
mc--
md--
me--
meat--
mec--
med--
medi--
mef--
mega--
meh--
mei--
mek--
mel--
mela--
mele--
mem--
memo--
men--
mens--
meq--
mer--
meri--
mes--
mesop--
met--
meta--
meth--
mev--
mew--
mewl--
mex--
mexi--
mey--
mez--
mfe--
mi--
mia--
mibt--
mic--
micro--
mid--
mie--
mift--
migra--
mih--
mij--
mik--
mikro--
mil--
mila--
min--
mina--
mini--
miq--
miqa--
mir--
mirov--
mis--
mit--
mite--
mittel--
miwa--
mix--
miz--
mk--
ml--
mle--
mm--
mn--
mo--
moc--
moham--
mok--
mol--
mole--
mon--
mont--
mor--
mos--
mot--
moz--
mp--
mpara--
mpi--
mr--
ms--
mt--
mu--
muc--
mug--
muh--
muhaf--
multi--
mum--
muq--
mur--
mus--
mux--
muzaf--
muze--
mw--
my--
mya--
mza--
mı--
mɛ--
mɛz--
mɛɾ--
mɪ--
n--
na--
nac--
nach--
nacio--
nag--
naguh--
nah--
nai--
nak--
nal--
nam--
name--
nan--
nano--
nap--
nar--
nas--
nat--
nau--
nav--
naw--
nax--
nay--
naz--
nc--
nce--
nci--
nd--
nde--
ndi--
ne--
nebe--
nebi--
nec--
neces--
nedi--
nedil--
nee--
negen--
negene--
neh--
nehe--
nei--
nek--
neke--
nem--
nema--
nemi--
nen--
neo--
nep--
nepeji--
ner--
nera--
nerm--
nes--
net--
nete--
netewe--
neu--
nev--
neve--
new--
newe--
news--
nex--
nexe--
ney--
nez--
nf--
ng--
ngeh--
ngi--
nhe--
ni--
nic--
nie--
nieder--
nig--
nij--
nijad--
nik--
nim--
nin--
niq--
nirx--
nis--
nit--
nix--
nixa--
nixu--
niyar--
niyet--
niz--
nizm--
nj--
nk--
nkar--
nl--
nm--
nn--
no--
nok--
nom--
nomi--
non--
noq--
nor--
nord--
nos--
not--
notir--
nou--
npe--
nr--
ns--
nsi--
nt--
nte--
nter--
nti--
nu--
nukte--
nun--
nuq--
nur--
nus--
nut--
ny--
nz--
nɛ--
nɛbɛ--
nɛhɛ--
nɛkʊ--
nɛpɛ--
nɛpɪ--
nɛsɛ--
nɛxɪ--
nɛɛ--
nɛɾɪ--
nɪ--
o--
ob--
ober--
oberh--
obser--
oc--
occi--
och--
od--
oden--
of--
off--
offen--
og--
oh--
oi--
oj--
ok--
oki--
ol--
old--
ole--
oli--
oly--
om--
on--
ona--
op--
opa--
open--
opi--
oppos--
or--
ora--
ord--
ore--
org--
ori--
orke--
ors--
ort--
orta--
ortho--
oryan--
os--
ot--
ota--
otobiyog--
otok--
otu--
ou--
out--
ov--
ova--
over--
ox--
oy--
oz--
p--
pa--
pac--
pag--
pak--
pal--
pale--
pam--
pan--
pank--
pap--
par--
para--
pare--
parleme--
pas--
pass--
past--
pat--
pate--
pax--
pay--
paye--
paz--
pe--
pec--
ped--
peg--
pehle--
pejn--
pek--
pel--
pela--
pele--
pen--
pena--
pend--
peq--
per--
perde--
pere--
peri--
perrit--
pes--
pesn--
pet--
pev--
pey--
peya--
peyv--
pez--
pfe--
ph--
pha--
phe--
photo--
phy--
pi--
pia--
pic--
pie--
pif--
pig--
piji--
pik--
pil--
pile--
pin--
pio--
pir--
pire--
pirr--
pirs--
pirt--
pis--
pit--
piz--
pj--
pl--
pla--
plan--
plasen--
play--
ple--
plu--
po--
poe--
pok--
pol--
poli--
poly--
pomp--
pop--
por--
port--
pos--
post--
pot--
poz--
pozi--
pp--
pr--
pra--
pre--
pres--
pri--
pro--
proce--
produ--
pros--
provo--
pru--
ps--
pseu--
psi--
psy--
psycho--
pt--
pu--
pugn--
pus--
put--
py--
pır--
pɛ--
pɛj--
pɛlɪ--
pɛs--
pɛɾ--
pɪ--
pɪʃt--
q--
qa--
qabi--
qaf--
qaj--
qal--
qam--
qan--
qar--
qat--
qe--
qeb--
qebi--
qedir--
qef--
qela--
qele--
qeli--
qemi--
qer--
qere--
qereya--
qeri--
qes--
qet--
qeti--
qev--
qew--
qewi--
qey--
qi--
qidq--
qij--
qil--
qila--
qilo--
qin--
qir--
qis--
qise--
qo--
qol--
qop--
qor--
qu--
qua--
quadri--
qube--
que--
qui--
qul--
qur--
qurt--
qus--
qut--
quz--
qɛ--
qɪ--
qʊ--
qʊɾ--
r--
ra--
rab--
rac--
rad--
rade--
radi--
raf--
rag--
rageh--
rah--
rai--
rail--
rak--
ram--
ran--
rane--
rap--
rape--
raqe--
ras--
rast--
rat--
rav--
raw--
ray--
raz--
rbi--
rc--
rd--
rde--
rdoz--
re--
rea--
reb--
rebel--
rec--
red--
ref--
refe--
reg--
regez--
regul--
reh--
rei--
rek--
rel--
relation--
rem--
ren--
renc--
reng--
rep--
repi--
req--
requ--
res--
resi--
respu--
rest--
restora--
ret--
reut--
rev--
reve--
revi--
rew--
rex--
rey--
rez--
rg--
rge--
rgi--
rh--
rhe--
rho--
rhy--
ri--
ric--
rie--
rih--
rij--
rik--
riki--
rim--
rin--
ring--
ris--
rit--
riya--
riz--
riza--
rk--
rke--
rm--
rme--
rn--
rne--
ro--
rod--
roj--
rok--
rol--
rom--
ron--
rones--
ros--
rose--
rot--
rou--
rous--
row--
roz--
rp--
rpenc--
rr--
rs--
rt--
rtele--
rti--
ru--
rub--
ruh--
rum--
run--
rup--
rus--
rw--
ry--
rz--
rı--
rɛ--
rɪ--
s--
sa--
saar--
sac--
sach--
sad--
saf--
sag--
sah--
sai--
sak--
sakso--
sal--
saldı--
sam--
san--
sand--
sap--
sar--
sat--
sau--
sav--
saw--
sax--
say--
saz--
sc--
scar--
scha--
sche--
schi--
schl--
schle--
schm--
schne--
schr--
schre--
schu--
schw--
schwei--
scie--
sco--
sd--
se--
sea--
sec--
sed--
sedi--
see--
sef--
sefer--
seg--
seh--
sei--
sek--
sel--
sele--
sem--
seme--
semi--
sen--
sena--
send--
seni--
seque--
ser--
sera--
sere--
serek--
serf--
serferma--
sers--
ses--
set--
sev--
sew--
sex--
sey--
seyr--
sfe--
sh--
sha--
she--
shi--
shit--
sho--
show--
shu--
si--
sic--
sid--
sie--
sif--
sig--
sih--
sik--
siki--
sil--
silk--
sim--
sin--
sine--
sir--
sis--
sist--
sit--
siti--
siv--
six--
siya--
siz--
siza--
sk--
ska--
ske--
ski--
sko--
skotl--
sky--
sl--
sla--
sm--
sma--
sn--
sni--
so--
sobe--
socio--
sok--
sol--
soli--
soma--
some--
somn--
son--
sor--
sorax--
sos--
sou--
soy--
soz--
sp--
spa--
spe--
speci--
spect--
spekt--
spi--
spo--
sq--
squ--
squa--
sr--
ss--
st--
sta--
star--
ste--
step--
ster--
sti--
stimu--
stix--
sto--
stok--
stra--
stri--
stu--
sty--
stɛ--
su--
sub--
suc--
suff--
sui--
sul--
sun--
super--
supp--
sur--
sus--
sux--
sv--
sva--
sw--
swe--
swi--
sy--
symp--
syn--
sz--
sı--
sık--
sır--
sıy--
sız--
sɛ--
sɛɾ--
sɪ--
t--
ta--
tab--
tac--
tag--
tah--
tai--
tak--
take--
tal--
tala--
tam--
tan--
tansi--
tap--
tar--
tas--
tat--
tau--
tav--
taw--
tawan--
tay--
tc--
te--
tea--
teb--
tech--
techno--
ted--
tee--
teh--
tehm--
tek--
teke--
tel--
tele--
tem--
tema--
temi--
tempera--
ten--
tene--
teng--
tep--
teq--
ter--
teri--
terk--
tes--
tet--
tev--
tevdi--
tew--
tewan--
tewi--
tex--
tey--
tez--
teze--
tg--
th--
tha--
the--
thir--
thom--
thor--
thu--
thy--
ti--
tie--
tif--
tik--
til--
tim--
timan--
time--
tin--
tip--
tir--
tirk--
tiz--
tk--
tl--
tn--
to--
tok--
tokon--
tol--
tom--
ton--
top--
toq--
tor--
tos--
tot--
tov--
toy--
toz--
tpe--
tra--
tramp--
trans--
trast--
tre--
tri--
tro--
trou--
tru--
ts--
tsu--
tt--
tti--
tu--
tun--
tund--
tur--
turk--
tut--
tux--
tv--
twi--
tx--
ty--
tz--
tı--
tɛ--
tɛq--
tɛv--
tɛɾ--
tɪ--
tʊ--
u--
ubey--
ubeydu--
uc--
ud--
ug--
uh--
uk--
ul--
ulu--
um--
umu--
un--
una--
und--
under--
une--
uni--
uns--
unter--
up--
upps--
ur--
ura--
uri--
uru--
us--
ut--
uy--
uyu--
uz--
uzak--
v--
va--
val--
vala--
van--
var--
vas--
vat--
vaz--
ve--
vec--
vecini--
ved--
vedi--
vege--
veguhe--
vek--
vel--
ven--
vene--
ver--
vera--
verb--
vere--
vero--
vers--
ves--
vet--
vexwi--
vey--
vezel--
vi--
via--
vie--
vier--
vij--
vik--
vil--
vin--
vir--
vis--
viz--
vk--
vo--
vok--
vol--
vor--
vs--
vu--
vur--
vy--
vɛ--
vɪ--
w--
wa--
wahr--
wal--
wan--
war--
was--
way--
waz--
we--
web--
weg--
weh--
wei--
wein--
weis--
weite--
wel--
wen--
weq--
wer--
weri--
wes--
west--
wet--
wey--
wez--
whe--
whi--
whit--
wi--
wid--
wie--
wiki--
wil--
wild--
win--
wir--
wis--
witt--
wl--
wo--
wood--
wr--
wu--
wy--
wɛ--
wɪ--
x--
xa--
xal--
xam--
xan--
xap--
xar--
xas--
xe--
xef--
xel--
xeli--
xem--
xemi--
xer--
xera--
xerc--
xeri--
xes--
xet--
xew--
xey--
xez--
xi--
xij--
xil--
xilas--
xin--
xir--
xira--
xirab--
xirr--
xiya--
xo--
xof--
xor--
xore--
xos--
xu--
xud--
xuh--
xul--
xur--
xurt--
xus--
xut--
xwa--
xwar--
xwe--
xwey--
xwi--
xx--
xɛ--
xɪ--
xʊ--
y--
ya--
yad--
yak--
yaka--
yam--
yan--
yap--
yar--
yas--
yat--
yav--
yax--
yay--
yaz--
ye--
yek--
yer--
yes--
yet--
yew--
yi--
yle--
yn--
yo--
yog--
yok--
yol--
yor--
yoz--
ys--
yu--
yugos--
yun--
yuvar--
yık--
yıl--
yır--
z--
za--
zag--
zah--
zak--
zal--
zam--
zan--
zani--
zar--
zau--
zax--
zbe--
ze--
zei--
zeich--
zel--
zeli--
zem--
zen--
zer--
zere--
zes--
zexm--
zey--
zh--
zi--
zik--
zil--
zim--
ziman--
zin--
zir--
ziwa--
zk--
zo--
zom--
zon--
zoo--
zor--
zot--
zu--
zul--
zur--
zwi--
zı--
zɛ--
zɪ--
zɪn--
ß--
æ--
ð--
ø--
þ--
đ--
ħ--
ı--
ık--
ıl--
ım--
ın--
ır--
ırt--
ıs--
ıt--
ız--
ł--
ɑ--
ɔ--
ə--
ɛ--
ɛʃ--
ɡ--
ɡɛ--
ɡɛɾ--
ɡɪ--
ɡʊ--
ɪ--
ɹ--
ɾ--
ɾɛ--
ɾɪ--
ʃ--
ʃɛ--
ʃɛwɪ--
ʃɪ--
ʃɪɾ--
ʒ--
ʒɛ--
ʒɛhɪ--
ʒɛwɪ--
ʒɛɾɪ--
ʒɪ--
ʕ--
α--
β--
γ--
δ--
ε--
θ--
κ--
κα--
λ--
μ--
ν--
ο--
π--
πα--
πο--
ρ--
σ--
τ--
φ--
χ--
ω--
а--
ар--
б--
ба--
бу--
в--
во--
г--
го--
гр--
д--
да--
дес--
до--
ж--
з--
за--
и--
к--
ко--
кр--
л--
лю--
м--
ма--
ме--
мо--
н--
но--
о--
п--
па--
пе--
пер--
по--
пол--
пр--
р--
с--
са--
се--
со--
ст--
т--
та--
у--
х--
ха--
ч--
ш--
я--
язы--
א--
ב--
ה--
ח--
י--
כ--
ל--
מ--
נ--
ע--
ר--
ש--
ا--
اب--
اج--
اح--
احت--
اخ--
اد--
ار--
اس--
است--
اش--
اشت--
اص--
اع--
اعت--
اف--
اق--
ال--
الت--
الج--
الح--
الد--
الس--
الش--
الص--
الط--
الع--
الغ--
الف--
الق--
الن--
ام--
ان--
انس--
ای--
ب--
با--
بخ--
بخش--
بد--
بر--
بس--
بل--
بن--
به--
بو--
بی--
ت--
تا--
تج--
تح--
تر--
تس--
تش--
تص--
تع--
تف--
تق--
تم--
تن--
ته--
تو--
تک--
تی--
ث--
ج--
جا--
جان--
جم--
جن--
جه--
ح--
حا--
حر--
حس--
حق--
حم--
حی--
خ--
خا--
خر--
خل--
خن--
خو--
د--
دا--
دخ--
در--
دش--
دف--
دل--
دن--
دو--
دی--
دە--
ذ--
ر--
را--
رس--
رش--
رف--
رو--
ری--
ز--
زن--
زی--
س--
سا--
ست--
سر--
سف--
سل--
سن--
سو--
سی--
ش--
شا--
شج--
شع--
شف--
شن--
شه--
شو--
شک--
شی--
ص--
صح--
ض--
ط--
ظ--
ع--
عا--
عر--
غ--
ـ--
ف--
فا--
فر--
ق--
قا--
قر--
قس--
قش--
قص--
قل--
ك--
كر--
كۆ--
ل--
لا--
لح--
م--
ما--
مت--
مج--
مح--
مخ--
مد--
مر--
مز--
مس--
مش--
مص--
مط--
مع--
مغ--
مف--
مق--
مك--
مل--
من--
مک--
می--
ن--
نا--
نج--
نس--
نش--
نظ--
نف--
نق--
نه--
نو--
نوش--
نگ--
نی--
ه--
ها--
هج--
هش--
هف--
هم--
هە--
و--
وا--
وس--
ي--
پ--
پا--
پر--
پس--
پش--
پن--
پو--
پی--
پیش--
پێ--
چ--
چه--
چو--
ڕ--
ژ--
ڤ--
ک--
کا--
کش--
کل--
کم--
کن--
کو--
کی--
کە--
گ--
گا--
گر--
گف--
گل--
گو--
گی--
ی--
یا--
ێ--
अ--
आ--
क--
ग--
ज--
त--
द--
न--
प--
म--
य--
र--
ल--
व--
श--
स--
ह--
க--
ய--
క--
ప--
ర--
వ--
ก--
น--
ภาษ--
ย--
อ--
เ--
--0
--1
--2
--3
--4
--5
--6
--7
--8
--9
--97
--a
--aa
--aat
--ab
--abad
--able
--ably
--abu
--ac
--aca
--ace
--aceae
--ach
--ache
--aco
--acy
--ad
--ada
--ade
--adin
--ado
--ador
--ae
--aet
--af
--afe
--ag
--age
--agne
--ah
--ahi
--ai
--ail
--aire
--ais
--aj
--aja
--aje
--ak
--ake
--al
--ala
--ald
--ale
--ali
--all
--ally
--alo
--als
--alya
--am
--ama
--ame
--ament
--ami
--an
--ana
--ance
--and
--andi
--andin
--ane
--ang
--ani
--ank
--anma
--ano
--ans
--ant
--ao
--ap
--aq
--aqe
--ar
--ara
--ard
--are
--ari
--ariye
--aro
--art
--ary
--as
--asi
--ass
--ast
--asyon
--at
--ata
--atc
--ate
--ated
--ath
--ati
--ation
--ations
--ative
--ato
--ator
--atory
--ats
--atu
--atz
--au
--aub
--aut
--av
--ava
--ave
--aw
--awa
--ax
--ay
--aya
--aye
--ayi
--az
--aze
--azi
--ał
--b
--ba
--bach
--bad
--bag
--ban
--bar
--bari
--bas
--bat
--bax
--baz
--bazi
--bby
--be
--ben
--bend
--ber
--berg
--beri
--berry
--bes
--bet
--bex
--bi
--bia
--bim
--bin
--bir
--bl
--ble
--blik
--bly
--bo
--bow
--box
--boy
--br
--bre
--bs
--bt
--bu
--bur
--burg
--burn
--by
--bɑ
--c
--ca
--cag
--cagon
--cak
--cal
--can
--candin
--car
--cate
--cation
--ce
--ceae
--ced
--cek
--ces
--cess
--ch
--cha
--che
--chel
--chheim
--cho
--cht
--chung
--chy
--ci
--cia
--cide
--cik
--cimi
--cio
--cit
--ck
--cki
--cks
--ckt
--cle
--co
--cock
--cs
--ct
--cted
--ction
--ctions
--ctive
--ctor
--cu
--cular
--culuk
--cum
--cus
--cy
--cz
--cı
--cık
--cılık
--d
--da
--dad
--dae
--dag
--dak
--dan
--dana
--dandin
--dane
--dani
--dank
--dar
--dare
--dari
--darti
--dat
--day
--dayi
--de
--ded
--dek
--den
--dence
--der
--deri
--des
--det
--deye
--dge
--dh
--di
--dia
--dibe
--dibu
--dike
--dil
--din
--dina
--dine
--dis
--dium
--diye
--dl
--dle
--dley
--dly
--do
--dog
--don
--dor
--dorf
--dos
--dost
--dot
--ds
--dt
--du
--due
--dung
--dy
--dı
--dım
--dır
--dɑ
--də
--e
--ea
--ead
--eae
--eau
--eb
--ec
--ecagon
--eck
--ect
--ed
--eddi
--edi
--ee
--ef
--efa
--eg
--egal
--eh
--ehen
--ei
--eim
--ein
--eit
--eive
--eiz
--ek
--eka
--eke
--eki
--el
--ele
--eli
--ell
--ella
--elli
--ello
--eln
--ely
--em
--ema
--eme
--ement
--emi
--en
--ena
--enau
--enbach
--enberg
--enburg
--ence
--end
--ene
--enheit
--eno
--ens
--ent
--entwintig
--eny
--eo
--eous
--ep
--eq
--er
--era
--ere
--erg
--eri
--ern
--ers
--ert
--erung
--ery
--es
--ese
--esor
--ess
--est
--et
--eta
--ete
--eti
--ets
--ett
--ette
--eu
--eur
--eus
--eux
--eve
--ew
--ewe
--ex
--ey
--eya
--eye
--eyi
--ez
--eza
--f
--fa
--fan
--fandi
--faye
--fe
--feld
--fels
--fen
--fer
--fet
--ff
--ffe
--ffen
--ffle
--fi
--fied
--fiq
--firos
--fiye
--fly
--fo
--fobi
--for
--fs
--ft
--ftin
--fu
--ful
--fully
--fulness
--fy
--fɑ
--g
--ga
--gabe
--gan
--gar
--garten
--gate
--gau
--ge
--ged
--geh
--geha
--gehe
--gement
--gen
--ger
--geri
--ges
--gez
--gg
--ggy
--gh
--ght
--gi
--gie
--ging
--gio
--gir
--gire
--giri
--gkeit
--gle
--gma
--gn
--gne
--gnitz
--gny
--go
--gon
--gos
--graph
--gs
--gt
--gu
--gua
--gue
--gur
--gus
--gy
--gı
--gın
--h
--ha
--hab
--hagen
--hal
--ham
--han
--hat
--he
--head
--hecus
--hed
--heid
--heim
--heit
--hem
--hen
--heq
--her
--het
--hev
--hez
--hezi
--hf
--hi
--hid
--hie
--hin
--hip
--his
--hiya
--hiye
--hk
--hl
--hm
--hman
--hn
--ho
--hof
--holz
--hon
--hood
--hop
--hr
--hs
--ht
--hto
--hu
--hy
--hɑ
--hɾ
--i
--ia
--iaceae
--ial
--ian
--ibi
--ible
--ibu
--ic
--ica
--ical
--ich
--ici
--ics
--id
--idae
--ie
--ieben
--ied
--ien
--iens
--ient
--ier
--ieren
--iers
--iert
--ies
--if
--ification
--ify
--ig
--ige
--igen
--igkeit
--igny
--ih
--ihe
--ii
--ij
--ija
--iji
--ik
--ika
--ike
--iki
--il
--ile
--iler
--ili
--ille
--illion
--ily
--im
--in
--ina
--inan
--ine
--iness
--ing
--ings
--ini
--ino
--io
--ion
--ional
--ions
--ior
--ious
--ip
--iq
--iqi
--ique
--ir
--ira
--ire
--iri
--irin
--is
--isch
--ise
--ish
--ishness
--ism
--ist
--ists
--it
--ita
--ite
--iten
--iti
--ities
--itive
--ity
--itz
--ium
--ius
--iv
--ive
--ivi
--ix
--iya
--iyan
--iye
--iyet
--iyon
--iz
--ization
--ize
--ized
--iß
--ißt
--j
--ja
--jd
--je
--jen
--jf
--ji
--jin
--jk
--jo
--js
--ju
--jɑ
--k
--ka
--kal
--kan
--kani
--kar
--kare
--kari
--kas
--kat
--kbar
--kbu
--kc
--ke
--keit
--kek
--keke
--kel
--kele
--ken
--ker
--kere
--kereke
--kereki
--keri
--kes
--ket
--ki
--kin
--kir
--kiri
--kirin
--kirina
--kirine
--kis
--kit
--kka
--kke
--kki
--kli
--klı
--klık
--kmak
--ko
--kol
--kom
--kon
--kow
--ks
--kt
--kti
--kto
--ku
--kuj
--kva
--ky
--kɑ
--kɪ
--l
--la
--lah
--lama
--lan
--land
--lanma
--lar
--lare
--ları
--las
--lat
--late
--ld
--ldig
--le
--led
--ledge
--lei
--lek
--lem
--leme
--len
--lenme
--ler
--leri
--les
--less
--let
--ley
--lf
--li
--lia
--lic
--lich
--lichkeit
--lie
--lig
--lik
--lilik
--lin
--ling
--lio
--liqi
--lis
--lity
--lixi
--lk
--lke
--lki
--ll
--lla
--lle
--lles
--lli
--llik
--llion
--llo
--lls
--llung
--lly
--lm
--lma
--lmak
--lme
--lmi
--ln
--lo
--log
--loji
--lon
--lop
--los
--lp
--lq
--ls
--lse
--lt
--lten
--lu
--lug
--luk
--lum
--lung
--lus
--ly
--lya
--lyn
--lz
--lı
--lıg
--lık
--lıs
--lɑ
--m
--ma
--mak
--mal
--man
--mar
--mat
--maxi
--mayi
--mbe
--mber
--mberg
--mble
--mbre
--mbu
--me
--med
--mek
--mel
--men
--mend
--ment
--mer
--met
--mi
--mia
--mil
--min
--mir
--mis
--mle
--mli
--mlı
--mm
--mme
--mmen
--mmer
--mmung
--mn
--mo
--mon
--mp
--mpe
--mr
--mri
--ms
--msel
--mstadt
--mt
--mu
--mun
--mus
--mut
--my
--mı
--mıs
--mɑ
--n
--na
--nable
--nak
--nal
--name
--nan
--nar
--nary
--nas
--nase
--nasi
--nasiye
--nat
--nate
--nau
--nav
--nb
--nburg
--nc
--nce
--nch
--nche
--nci
--ncy
--nd
--nda
--nde
--nden
--ndi
--ndibu
--ndik
--ndin
--ndine
--ndir
--ndiye
--ndorf
--ne
--nea
--nebu
--ned
--nedi
--nek
--neke
--nel
--neli
--nell
--nen
--ner
--nes
--ness
--net
--news
--ney
--nfeld
--ng
--nga
--nge
--ngi
--ngly
--ngs
--ngu
--ni
--nia
--nie
--nik
--nin
--ning
--nis
--nism
--nist
--nity
--nivi
--nk
--nki
--nles
--nli
--nlik
--nly
--nma
--nmak
--nme
--nn
--nne
--nnt
--no
--nor
--not
--ns
--nsa
--nse
--nsi
--nsis
--nski
--nst
--nt
--nta
--ntal
--ntari
--nte
--nti
--ntly
--nto
--nton
--nts
--nty
--ntı
--nu
--nuce
--num
--nus
--nx
--ny
--nya
--nz
--nze
--nı
--nın
--nɑ
--o
--oa
--ob
--oc
--ock
--od
--ody
--oe
--of
--off
--og
--oge
--ogen
--ogi
--ogia
--ogie
--ogy
--oi
--oid
--oir
--oj
--oje
--ojen
--oji
--ok
--oka
--okan
--okbu
--oke
--oki
--okti
--ol
--ola
--ole
--olk
--olo
--olog
--ologie
--ology
--oloji
--om
--oma
--ombe
--ome
--omen
--ometre
--on
--ona
--onal
--one
--onek
--ong
--oni
--onna
--onne
--ons
--ont
--ontagon
--ony
--oo
--oon
--oor
--op
--ops
--oq
--or
--oran
--orce
--ord
--ore
--orf
--ori
--ork
--orme
--orn
--oro
--ors
--ory
--os
--osa
--osi
--oso
--ost
--ot
--othy
--oti
--oto
--ott
--ou
--ourt
--ous
--ously
--ousness
--out
--oux
--ov
--ova
--ovi
--ovic
--ow
--ows
--owski
--ox
--oy
--oya
--oye
--oyi
--oz
--oze
--ozi
--oł
--p
--pa
--pal
--pan
--pare
--pc
--pe
--pective
--ped
--per
--pf
--ph
--phic
--phical
--phie
--phy
--pi
--po
--pos
--pp
--ppe
--pper
--ps
--pt
--pti
--pu
--py
--pı
--pɑ
--q
--qa
--qe
--qel
--qet
--qf
--qi
--qil
--qiya
--qok
--qu
--que
--qɑ
--r
--ra
--ral
--ran
--rani
--rary
--ras
--rat
--rator
--rax
--rbu
--rc
--rchen
--rci
--rd
--rde
--rdi
--re
--reas
--red
--ree
--rek
--reke
--reki
--ren
--res
--ress
--ret
--reuth
--rew
--rf
--rg
--rge
--ri
--ria
--rial
--rian
--ric
--ridge
--ridi
--rie
--rif
--riff
--rig
--rik
--rim
--rin
--rina
--rio
--ris
--rity
--rium
--rix
--rk
--rke
--rki
--rli
--rlik
--rlı
--rm
--rmak
--rman
--rme
--rmek
--rmi
--rn
--ro
--roj
--rok
--ron
--rop
--ror
--ros
--rous
--roy
--rp
--rr
--rra
--rre
--rri
--rry
--rs
--rse
--rsi
--rsin
--rsity
--rsiz
--rsky
--rson
--rt
--rta
--rte
--rti
--rtig
--ru
--rum
--rve
--ry
--rya
--rz
--rzi
--rı
--s
--sa
--sal
--sam
--san
--sas
--saz
--sazi
--sbu
--sburg
--scence
--sch
--schaft
--sche
--scheid
--scher
--schlag
--sco
--script
--sdorf
--se
--sed
--see
--sel
--sen
--ser
--ses
--set
--sette
--sfeld
--sh
--sheim
--shi
--ship
--shire
--shut
--si
--sia
--sie
--sin
--sion
--sis
--siyon
--siz
--sizlik
--sk
--ska
--ski
--sky
--sley
--sm
--sme
--smi
--smo
--smus
--sna
--so
--son
--sor
--sp
--spi
--sruhe
--ss
--ssa
--sse
--ssion
--sson
--ssu
--st
--sta
--stan
--stane
--ste
--sti
--stic
--stik
--stin
--stisch
--sto
--ston
--sts
--stu
--su
--sum
--sus
--suz
--sy
--syon
--sı
--sına
--sını
--sız
--sızlık
--sɑ
--t
--ta
--taa
--tadt
--tag
--taj
--tal
--tan
--tar
--tary
--tas
--tat
--tc
--tch
--te
--ted
--tein
--tek
--tel
--tely
--ten
--ter
--tes
--tet
--teur
--tex
--tez
--th
--tha
--ti
--tic
--tics
--tie
--ties
--tif
--tig
--tik
--time
--tin
--tina
--tine
--tion
--tions
--tique
--tir
--tiri
--tis
--tium
--tiv
--tive
--tiya
--tiye
--tle
--tler
--tles
--tli
--tlich
--tly
--tma
--tmak
--tme
--tner
--tnet
--to
--ton
--tor
--tory
--tos
--tr
--tra
--tras
--tre
--tri
--ts
--tsiz
--tt
--tta
--tte
--tti
--ttle
--tto
--ttu
--tty
--tu
--tue
--tum
--tung
--tur
--tus
--tution
--tv
--ty
--tz
--tı
--tɑ
--u
--ua
--ual
--uar
--ub
--ube
--uc
--uce
--uch
--ucht
--ud
--uda
--ude
--udi
--ue
--uen
--uer
--ues
--uf
--ug
--ugh
--ught
--uh
--ui
--uil
--uin
--uj
--uji
--uk
--uki
--ul
--ula
--ular
--ule
--uli
--ullah
--ulo
--uloz
--ult
--ulus
--um
--uma
--un
--una
--ung
--ungen
--up
--ur
--urdi
--ure
--uri
--uring
--urk
--uro
--urs
--urt
--ury
--us
--use
--usen
--usly
--ut
--ute
--uti
--ution
--uus
--uw
--uwe
--ux
--uy
--uz
--v
--va
--val
--van
--vane
--vani
--vayi
--ve
--vely
--ven
--ver
--ves
--vez
--vi
--via
--vic
--vin
--vir
--viri
--vit
--vity
--vo
--vous
--vra
--vre
--vsi
--vti
--vu
--vus
--vy
--vɑ
--w
--wa
--wal
--wan
--war
--wari
--wasi
--wat
--way
--wd
--we
--wer
--weri
--wes
--wey
--wez
--wi
--wicin
--wis
--wit
--wm
--wn
--wo
--wood
--wq
--ws
--wski
--wt
--wu
--wz
--x
--xa
--xal
--xan
--xandi
--xane
--xc
--xe
--xi
--ximi
--xist
--xivi
--xm
--xs
--xt
--xtin
--xu
--xur
--xwaz
--xwe
--xwer
--xwes
--xwi
--xɑ
--y
--ya
--yab
--yal
--yan
--yandin
--yane
--yar
--yari
--yat
--yaye
--yayi
--yaz
--yazi
--yd
--ye
--yek
--yeke
--yeki
--yen
--yet
--yete
--yeti
--yeya
--yeye
--yi
--yin
--yip
--yis
--yiye
--yj
--yl
--yla
--ym
--yn
--yne
--yni
--yo
--yok
--yoki
--yol
--yon
--yona
--yoni
--yor
--yorum
--yoti
--yoz
--yr
--ys
--yt
--yte
--yu
--yum
--yx
--yy
--yz
--yı
--z
--za
--zade
--zan
--zani
--zar
--zation
--zav
--zd
--ze
--zed
--zen
--zer
--zi
--zia
--zig
--zin
--zlik
--zm
--zme
--zo
--zt
--zte
--zu
--zy
--zɑ
--zə
--ß
--ße
--ßen
--ð
--ı
--ıc
--ıcı
--ıg
--ık
--ıl
--ım
--ıma
--ımak
--ın
--ına
--ını
--ıp
--ır
--ırma
--ıs
--ıt
--ız
--ł
--ła
--łe
--ŋ
--ɑ
--ə
--ən
--ɛ
--ɛm
--ɛɾ
--ɡi
--ɪ
--ɪd
--ɪk
--ɪl
--ɪli
--ɪmɑ
--ɪqi
--ɪqɑ
--ɪzi
--ɪɾ
--ɹ
--ɾ
--ɾd
--ɾi
--ɾm
--ɾɑ
--ɾɪ
--ɾɪd
--ʃ
--ʃi
--ʃɑ
--ʊ
--ʒ
--ʒe
--α
--ε
--η
--ι
--ν
--νο
--ο
--ρο
--ς
--υ
--ω
--а
--аи
--ак
--ан
--ар
--ать
--аҳ
--б
--в
--ва
--во
--г
--га
--д
--да
--даҳ
--дцатыи
--е
--еи
--ер
--ет
--з
--и
--ии
--иллион
--ин
--ица
--ия
--к
--ки
--кии
--ко
--л
--ла
--лион
--ллион
--ло
--ль
--м
--ма
--н
--ник
--нь
--о
--ои
--ок
--ол
--он
--ор
--р
--ра
--рь
--с
--ски
--ст
--т
--та
--тиллион
--тыи
--ть
--у
--ца
--ш
--ы
--ыи
--ь
--я
--א
--ב
--ד
--ה
--ו
--ות
--י
--ית
--ל
--ם
--ן
--ע
--ק
--ר
--ש
--ת
--ء
--ا
--اج
--ار
--اس
--است
--اق
--ان
--اه
--اهی
--ب
--بة
--ة
--ت
--تر
--تن
--تی
--ث
--ج
--ح
--حة
--حت
--خ
--خت
--ختن
--د
--دة
--دن
--دهم
--دي
--دگی
--دی
--ذ
--ر
--رة
--رد
--رس
--ره
--رک
--ری
--ز
--زش
--زی
--س
--سة
--ست
--ستان
--ستن
--ش
--شت
--شی
--ص
--ض
--ط
--ظ
--ع
--عة
--عی
--غ
--ف
--فة
--فتن
--فی
--ق
--قة
--قی
--ك
--ل
--لة
--لو
--لی
--م
--مة
--مت
--می
--ن
--نة
--ند
--ندن
--نه
--نی
--ه
--هی
--و
--وب
--وس
--وش
--وم
--ى
--ي
--ية
--پ
--چ
--ژ
--ژه
--ڤ
--ک
--کت
--کی
--گ
--گاه
--گی
--ڵ
--ۆ
--ی
--یب
--یت
--ید
--یدن
--یر
--یز
--یش
--یل
--یم
--ین
--یی
--ێ
--ە
--त
