!
"
#
##0
##1
##10
##11
##12
##13
##14
##15
##16
##17
##18
##19
##2
##20
##21
##22
##23
##24
##25
##26
##27
##28
##29
##3
##30
##31
##32
##33
##34
##35
##36
##37
##38
##39
##4
##40
##41
##42
##43
##44
##45
##46
##47
##48
##49
##5
##50
##51
##52
##53
##54
##55
##56
##57
##58
##59
##6
##60
##61
##62
##63
##64
##65
##66
##67
##68
##69
##7
##70
##71
##72
##73
##74
##75
##76
##77
##78
##79
##8
##80
##81
##82
##83
##84
##85
##86
##87
##88
##89
##9
##90
##91
##92
##93
##94
##95
##96
##97
##98
##99
$
%
&
'
(
)
*
+
,
-
.
/
0
00
000
0001
0004
0006
0008350
001
0011456
001389
002
0021
0022
00238
003
0035
004
0049
005
006
00632
006504
0067
007
008
009
0094
00963
01
010
0100000
0108
011
012
01254
013
0136120512
0138
01515020
016
01765
02
02002834
0205255
0212
022
025
02787
03
03134
03158
0320
03210
0327
033
034
03545
0360
0365
0373
04
040
0415285569
042
04971
05
050
0505025
054
055
0585317631
06
0606440
0610732
07
0705
0708
0746
08
08053
0806
0815332181
08253
0878
09
0903
098
1
10
100
1000
1002
1005
1007
101
1012
1016
102
1021
102178
1023
103
1038
104
1043
104585386
1046
104619889
104641554
105
1051
105335225
106
1063
1063773706110065
106600690
106655495
1067
10689
107
107108718
1073
107315163
1074
107569809
108
1083
1085
1086
1088
109
1090
1091
109107318
1093
109490312
109496594
1097
11
110
1101
110166057
110227967
110249889
1103
110313893
110382235
1105
1107
111
1111
111590317
111610221
111647375
111699881
111804439
11185939
112
1126
113
1134
113553300
11379528
114
114404
114775614
115
115666376
116
11606829
117
1178103910
118
119
1194038
12
120
1200
1201
12049124
12049125
1207
121
122
123
124
125
12584
1259
126
1262
127
12739149
12786621
128
1282
1284
1286
129
13
130
1307
1308
1309
131
132
133
13371586
1338
134
1345229
135
136
1365
136736
137
1371
138
139
14
140
1405
1406
1408
141
1412194
1416512
1417
142
1421
143
1432
14344
144
145
1458
146
1460
1461
1467
147
1476
1477
1479654
148
149
1497
15
150
1500
1501
1502
1503
1507
151
1511
152
1520862
1521
153
15338
1535
1536490
1538
154
155
1550
1551
1552
156
1562
1566
156616
156705
157
15721756
158
1585
159
15940826
16
160
1600
1605
1606
1607
1609
161
1610
1615
1616
162
1627
163
1634
1639616
1639617
1639618
164
165
166
1662358
1665102
167
168
169
17
170
170109
17011141
17067223
1708
171
1717
172
1726
173
17378135
174
1743
175
1752
17520
1753
17539639
1754
17544623
17560796
17562358
17582342
17591753
17591756
17591758
17597568
17597570
17597571
17597573
17597578
176
1767
1769
176916
177
1772
1773
1774
1775
178
1780
1781
1783
1784
1785
1786
1787
1788
1789
179
1790
1793
1795
1796
179654
1797
1798
18
180
1800
1801
1802
18023373
1804
180419
1805
1807
1808
1809
181
1810
1812
1813
1814
1814982
1815
1816
1817
1818
1819
182
1820
1821
1822
1823
1824
1825
1826
1827
1828
1829
183
1830
1831
1832
1833
1834
1835
1836
1837
1838
1839
184
1840
1841
1842
1843
1844
1845
1846
1847
1848
1849
185
1850
1851
1852
1853
1854
1855
1856
1857
1858
1859
186
1860
1861
1862
1863
1864
1865
1866
1867
1868
1869
187
1870
1871
1872
1873
1874
18745698
1875
1876
1877
1878
1879
188
1880
1881
1882
1883
1884
1885
1886
1887
1888
1889
189
1890
1891
1892
1893
1894
1895
1896
1897
1898
1899
19
190
1900
1901
1902
1903
1903088
1904
1905
1906
1907
1908
1909
191
1910
1911
1912
1913
1914
1915
1916
1917
1918
1919
192
1920
1921
1922
1923
1924
1925
1926
1927
1928
1929
193
1930
1931
1932
1933
1934
1935
193563
1936
1937
1938
1939
194
1940
1941
1942
1943
1944
1945
1946
1947
1948
1949
195
1950
1951
1952
1953
1954
1955
1956
1957
19576476
1958
1959
196
1960
1961
1962
1963
1964
1965
1966
1967
1968
1969
197
1970
1971
1972
1973
1974
1975
1976
1977
1978
1979
198
1980
1981
1982
1983
1984
1985
1986
1987
1988
1989
199
1990
1991
1992
1993
19938912
1994
1995
1996
1997
1998
1999
2
20
200
2000
2001
2002
20020943
2003
2004
2005
2006
2007
20078357
2008
2009
20090308010816
201
2010
201016423
2011
2012
2013
201322511
201323226
2014
20147
2015
201528048
2016
2017
2018
2019
202
2020
202042
2021
20210101
2022
2029273
203
204
2041
205
2052
206
20641742
207
208
20894925
209
20976936
21
210
211
2116431
212
21213
2129
213
2136
214
214195
215
216
21614984
21615024
217
217595
218
21873635
219
21994078
22
220
221
222
223
22330995
224
225
2253
226
227
228
2284185
229
2293
23
230
231
232
2326
233
234
235
236
237
237227
23725837
23766566
238
239
23942332
24
240
24023889
24033439
24053877
241
241600000
242
243
244
2446
2447
2449070
245
2450
24560797
246
247
248
248326
249
25
250
251
252
253
253414
254
255
256
256507
25675150
257
258
2586178
25892981
259
26
260
2606
261
262
2621042
2629661
263
263028
264
265
265049
266
266131
267
268
268072
26882286
2689095
269
26902153
27
270
271
27102283
272
2725928
273
27302
274
2743342
275
2753
276
277
2770
27721235
278
27838750
2788
279
28
280
28018111
281
28100898
282
2824
283
28315126
284
2843
285
286
28657655
287
28708818
28726168
288
289
28973038
29
290
291
2914
2915886
2916
292
29223
293
29302709
29305012
294
295
296
2966
29678797
297
298
2981593
2984591
2986578
299
3
30
300
3000
3003
30032484
30078542
301
302
303
303140
304
304037
305
306
307
308
3083
309
31
310
311
312
313
314
315
316
316343
317
318
319
31927054
32
320
3208324
321
3215
322
322488
323
324
325
326
327
328
32859555
329
33
330
331
33102669
332
333
334
335
336
337
338
339
34
340
341
3419
342
34211397
343
344
345
3456281
346
347
3470990
348
349
35
350
3504917
3509449
351
352
3527370
353
354
355
356
357
358
358870
359
36
360
361
362
363
364
365
36578
366
367
368
369
3699
37
370
371
372
373
373724
3738605
374
375
376
377
378
379
38
380
381
382
383
384
3847
385
387
3873
388
3881
389
39
390
391
392
394
395
396
3962258
398
399
3994
4
40
400
402
4026990
404
405
4054
406
407
408
41
410
4117183
412
414
41434
415
416
417
4173183
418
42
420
42262
42274
423
424
425
428
4284
43
430
431
431550
432
4330203
4344
435
4350750
4350767
4350770
4357
4365
438
4388196
43984865
44
440
4412334
442
444
445
4458
447
448
45
450
453
4533
455
458
46
460
4616
46260676
463
463435
464
464633
465
465230
469
47
470
47005544
473
474
4745009
475
48
480
4846
4864
488
49
490
4939381
495
496
4967031
498
498708
5
50
500
5000
500062
500071
5019
5058164
5061737
508
51
510
510201
512
516
516636
517
51905050
52
520
521
5233701
523716
52417047
525
528
5282129
53
530
535
5375741
5383
53952406
53952564
53952640
53953061
53953182
53953501
54
540
5401570
5402996
54126358
54150462
54195946
54196767
543
54305718
544
545058
5451
5463
54837
549
54985720
55
550
5508
55497028
55560439
55563876
5573
55877341
56
560
56002067
56002164
5604
56259648
56284482
56461048
56461049
56474575
56485035
56550535
56551012
56556490
56556498
56560134
56560136
5659724
56690191
56915793
56933472
56933507
56933527
57
570
57070392
57159433
5734
5736
57406191
57446741
57514444
57514445
57514449
57514450
57514455
57630701
57630730
58
5803
58151090
5822
58247501
58248439
58328557
58468094
58490595
58918598
59
590
59669028
59669953
59831397
598789
59944490
6
60
600
60036030
60134553
60332597
604
60720549
608
61
6161
61657954
61714315
61770112
62
6234745
62515172
6253
6256
62620197
627
6280
62944415
63
63172613
63330390
6337
63450605
6361
63615173
637
637413
63812020
64
640
641
642
64403342
649
65
650
6520738
654724
656
657545
6592
66
66049091
66310013
66310819
66371791
66371837
66381073
66470150
66617329
66617388
66617465
66617557
66617601
66617668
66617723
66617906
66618180
668
669166
67
672
68
6831438
6849
6867
6873
69
691
69391012
6973708
698848
699
7
70
700
703
709
71
7106
712
7137
716
717
72
720
7203
7213
7223
7229779
73
73104530
74
744
7455
746
746413
75
750
752075
7526
76
7606
7609
763
764
764739
7650732
7673
7674
77
7737
78
79
792
7941
8
80
800
802
804
809
81
81187217
81204110
812420
815
82
8205
8213
82494
82575
83
830
830106
836911
84
84054356
842
84433
845937
85
850
85270
85401
86
867727
87
870
8711
8754
88
8816
88185
88459
88810
89
8902852
896
89800
9
90
900
905695
91
9103
912887
91674
92
925
9258
92748479
93
936
94
944
95
953
9530650
96
961
97
97524
978
9783642297182
9785386009687
98
981340
985
99
9904265
992
99609
9965
:
;
<
=
>
?
@
[
\
]
^
_
`
a
aa
ab
aba
aberta
abierta
about
abril
absolute
abt
ac
academic
academy
accounts
action
actions
active
activity
ad
adatok
adelman
administraciones
administrati
adress
aec
ag
agc
agencia
agency
agrilus
aip
aise
akc
akce
al
ala
alar
albert
alberts
alegeri
alegerilor
ales
alexander
alg
all
alldata
alle
almg
alpha
altın
am
america
american
americanfactfinder
amounts
amtliches
an
analysis
ancient
and
anda
andaluci
andersson
andmete
ani
ann
annals
annotations
annual
ano
any
anı
anın
ap
aperti
api
apl
apmbgc
april
aprueba
apsi
aq
aqs
ar
araneus
arasında
archinform
archive
archived
archives
are
area
arkotheque
arrest
arrondissement
art
article
arxiv
arı
as
asas
asia
asnost
asp
aspx
associated
association
associations
ast
asteroids
astro
astron
astronomical
astronomy
astrophys
astrophysical
astrophysics
ası
at
atkla
atlas
atomic
attempt
attivita
atvira
au
august
ausgestattet
ausgewa
austria
authority
autonomous
avatud
averaged
avery
avoimen
ay
az
azinform
azərbaycan
aʙoutmari
b
ba
backnumber
baden
bag
bagnulo
bakı
baltimore
banarsidass
banc
band
bank
bar
baryon
bas
base
based
bases
bashstat
bastian
batten
bavarian
bay
bayerische
bayerisches
bayern
baylac
bb
bbc
bbr
bc
bcber
bd
bdl
be
bela
belarus
ben
benton
ber
berenc
berichte
berlin
berse
beta
between
bevo
bevoelkerung
bevoelkgebiet
bezirke
bf
bg
bgee
bi
bianchi
bib
bibliographisches
bibliothe
bik
bil
bila
binding
binney
biochemistry
biods
biography
bioinform
biol
biology
bird
birles
biroul
black
blackwell
blicas
bnf
bo
board
body
boleti
bolg
book
books
borıng
bosch
boselli
both
boundary
box
bp
br
brandenburg
brandt
brasileiro
brasław
bratislava
brazil
brent
bresu
brief
bright
brightest
britannica
brockhaus
bruce
bu
bula
bularaq
bulg
bulletin
bulıp
bundesla
bureau
business
buyınc
bv
bw
by
bychkov
bychkova
c
ca
cadastre
caetano
cairns
california
calvados
cambridge
canada
cancer
cannon
cantons
capsel
carbon
care
carpenter
carrier
cartographic
cassini
cat
catalans
catalog
catalogo
catalogs
catalogue
catalunya
catherine
catholic
cb
cc
cd
cdot
cdp
ce
ced
cedsci
celkem
cell
cells
cen
census
center
centimeter
central
centre
century
cerga
cet
cf
cg
cgi
ch
cha
chamberlin
chapman
characterization
chem
chemical
chemically
chemin
chemistry
chen
chicago
chiffres
china
chromosome
ci
cia
cifras
cild
cilddə
cin
cisdet
cita
cities
city
class
classification
classifications
classificationscheme
classificator
classificazione
classified
cle
climate
clingen
cloud
cluster
clusters
cm
cms
cn
co
code
codes
collections
college
colless
color
com
comarcas
comets
commerce
commission
commitee
common
communales
communities
community
company
comparison
compilation
complete
complex
componenete
compter
comune
comuni
concatenate
connect
conomiques
consortium
consult
consulte
contact
containing
contemporary
content
continuitat
cortese
cosmicflows
council
counties
country
county
courtois
cowley
cph
cra
cret
cs
csu
csv
cu
cultural
culture
curletti
cutri
cuzk
cyrillic
cz
cze
czech
czso
cəʙᴎ
d
da
dades
dados
dag
dajov
dans
danych
daresi
dark
das
data
database
datan
dataplattform
datas
dataset
datasets
date
dati
datos
datu
datumoj
dauersiedlungsraum
david
day
db
dc
dd
de
december
default
del
dels
delta
demo
demographic
demoscope
den
department
dependent
deportiva
depot
depuis
der
des
deschise
descriptions
designated
detailed
deutsche
development
df
dfb
dfgs
di
dia
diagram
dias
dictionary
die
diffusion
digital
digos
dimensional
dimentional
din
dip
directory
diritto
discussion
disease
displaystyle
distribution
distributions
districts
dizini
dna
do
dobes
doc
documentation
dog
doi
dokument
dolni
domain
donne
dorta
dos
dostupne
download
dq
dr
draper
dss
dte
du
dubois
duflot
duniłowicze
duomenu
dus
dvv
dx
dynt
dziejo
e
ea
ead
early
earth
east
eastern
eb
eberly
ec
ed
edepot
edit
edition
edouard
edp
edu
ee
ef
efectos
effective
efigi
eg
ehess
einwohnerzahl
ek
el
ela
electoral
elek
elements
eler
eleventh
elor
elsevier
emploi
en
ena
enc
enciclopedia
encyclopedia
encyclopædia
enda
energy
enero
eng
english
enlarged
ensembl
ensiklopedik
entidades
enumeration
ep
epos
er
es
ese
eska
eske
esky
eso
espanya
est
estadi
estado
estatal
estati
estatisticas
estimate
estimates
estimativas
estonian
et
etc
ethnologue
etne
eu
europe
european
euskaltzaindia
eva
evans
evolucio
evolution
evolutionary
excel
exosomes
experiment
expression
extension
extragalactic
f
fa
factbook
factfinder
factor
fallingrain
false
fam
family
fe
february
federal
fehrenbach
ff
fg
fi
fiche
fields
fifa
fifth
figon
figueras
file
files
final
finger
finley
fio
first
fisher
fixation
fla
flora
flower
fm
fo
fols
fonds
foorumi
for
forel
format
formation
forveille
foundation
fourth
fr
frac
frad
frame
franc
france
francis
frankcombe
frazione
free
freistaat
french
from
fu
fullurl
function
functional
fundamental
fus
g
ga
gabriel
gaia
galactic
galaxies
galaxy
gales
galex
garland
gazetteer
ge
gebhardt
gebietsstand
geiger
geller
gemeinde
gemeinden
gemeindeverzeichnis
gemeinsame
gene
genel
genera
general
gennaio
geo
geografia
geograficzny
geographic
geonames
geonet
george
georges
geospatial
get
gierasch
gimen
gino
gion
giovanelli
githubusercontent
gizis
gj
gks
global
globular
go
goa
gob
gomez
gontcharov
gontcho
google
gouv
gov
government
gran
grand
grao
grenier
grin
group
groups
growth
gs
gsc
gsi
gstb
gstbrp
gu
guide
guvics
gz
gło
h
ha
hacienda
handbook
haroldcorwin
harvard
haut
hawa
haynes
hazırladıg
hd
he
health
heidelberg
heinrich
hemisphere
henry
heritage
herschel
hg
hgmn
hgnc
hi
high
hindu
hinduism
hipass
hipparcos
historical
historicky
history
hkodcis
hl
hledi
hlten
ho
hobby
holes
home
homolog
homologene
horni
houk
housing
hr
hrsg
hsgb
htm
html
http
https
hu
hubble
hugo
human
hunting
i
ia
iast
iau
ibge
ic
icarus
ice
id
ida
identification
idescat
iec
iei
ietova
ig
igbe
igeza
ii
iii
ike
il
im
images
in
index
india
indian
indicadores
indocorrcod
ine
inebase
info
information
infraestructures
innosti
ins
insee
institut
institute
instituto
int
integrated
interacting
international
internet
into
introduction
inventaires
inzibati
ioc
iop
ipac
ir
iras
irka
irso
is
isa
isbn
iseme
isil
islam
iso
isoform
isolated
issn
istat
istituto
isu
it
ita
italian
italiane
italy
iteos
itep
itka
its
itu
iv
iw
ix
izbrani
j
ja
jahresbeginn
james
jana
january
janvier
japan
jarrett
jbc
jean
jezdu
jiny
john
johnson
journal
jp
jpg
jpl
js
json
jsonapi
jsp
judet
julian
julien
july
june
junta
jupitertrojans
just
k
ka
kazalniki
kazan
kc
ke
keith
kena
kera
kerremans
kerrod
kes
ki
kila
kiles
kin
kinase
kinematics
kiru
kis
kivbf
kivde
kla
klimabuendnis
km
ko
kochukhov
kod
kodcis
kokujyoho
kommunen
kon
koordinaten
koper
korec
koribalski
kov
kova
kr
kraje
kreisangehoerige
kreisfreien
krhova
kris
krishna
kro
kta
ku
kunder
kurtz
kurul
kurumu
ky
kz
kısaltmalar
l
la
labor
ladislav
lan
land
landes
landesamt
landkreis
landkreise
lang
language
lar
large
las
lat
latin
latitude
lauberts
lauko
law
layout
lc
lde
le
leda
leeuwen
left
legacy
legifrance
lene
lenenia
lenenie
lerner
les
lestwa
letno
lett
letter
letters
levi
levitation
lewis
lexikon
ley
lg
lgu
li
library
lidove
lifbasındag
life
like
limitation
limited
line
linear
link
list
liste
listesi
listeweb
lists
literature
liu
livstone
lka
lkerung
lkerungsentwicklung
ller
lm
local
locale
locales
localita
localitats
localities
locuint
login
london
los
low
lpa
lt
ltekin
lu
lua
luminosity
lumotlar
lunar
luri
lutz
lv
lı
m
ma
madej
magellanic
magnetic
magnitudes
mahalle
main
maint
makarov
malferma
malu
maly
man
manfroid
map
mapa
mapas
maplink
maps
marcela
march
maria
mars
marth
martin
marzo
mashke
mass
masters
masx
mat
mathbf
mathrm
may
mayor
mayorsforpeace
mccarthy
mcclure
mccracken
mcd
mcg
md
mdr
me
mean
measurement
measurements
media
medias
medicine
member
membercity
membrane
men
mencho
mennessier
menseki
merkezi
merkmalen
meta
metadata
metaweb
meteorology
meteors
meyssonnier
mezir
mf
mfgc
mg
mi
miasta
mic
michael
michaud
michigan
micron
miejscowos
miestnej
milky
milli
millidge
million
miloslav
min
minas
minchin
ministerio
ministerstvo
minor
minorplanetcenter
minule
mit
mitglieder
mitgliederverzeichnis
mitochondrial
ml
mma
mn
mnesys
mnras
mo
modern
molecular
moliterno
mon
monteiro
montero
monthly
moore
mora
morphology
morrison
morrissey
moscow
motilal
motions
movie
mpc
msd
msk
mu
mun
municipal
municipalities
municipality
municipii
municipios
municipis
museum
music
muslim
mv
mx
my
məlumat
n
na
nach
nacional
nad
nakladatelstvi
names
nasa
naselja
national
nationalbibliothek
nationale
nature
nauka
nazionale
nb
nc
ncbi
nda
nder
ndigen
ndiges
ne
nearby
nedir
nem
nen
net
netzwerk
new
news
ng
nga
ngc
ni
nibles
niedersachsen
nigreichs
nil
ninth
nj
nl
nls
nm
nna
no
nobel
node
nom
nomenclator
nomenclature
nord
normdatei
north
northern
not
notices
nova
nove
novel
november
noviny
npg
npm
nr
nrw
nsf
ntul
nu
nuclear
nuclei
number
numbers
nvss
ny
nya
nyaq
nyc
nyi
nın
o
obce
obci
obe
obenberger
object
obs
observations
observatory
obyvatel
oc
ochiq
october
octobre
od
odprte
oe
of
oferta
offenerhaushalt
office
official
officiel
officielle
oficial
oficiales
og
ographique
okr
okresy
old
olsztyn
on
one
online
ontology
open
opendata
opendocument
openstreetmap
oproti
optical
optically
or
oras
orbits
orden
orf
org
organiza
original
ortschaften
ortsgemeinden
ortsverzeichnis
os
oscillation
otevr
otevrena
other
ottobre
otvorenih
otvorenog
otvoreny
otwartych
oup
our
ouvertes
ov
over
ovice
oxford
oyıs
p
pa
pacific
padre
padro
page
pages
parameters
params
paris
park
part
partement
partial
pas
pats
paturel
paul
paunzen
pavol
paz
pc
pdf
pe
peculiar
pello
people
per
permanent
peste
peter
petit
petrlova
pg
pgc
ph
phenocarta
philippine
philippines
philosophy
phoneme
phosphatase
photometric
photometrically
photometry
php
phtml
phylogenetic
physics
pi
piattaforma
pickering
pierre
pittsburgh
pl
pla
place
places
planet
planetary
planificacio
plantarum
plataforma
plateforme
platform
platforma
platforması
platformja
platformo
platformu
plattform
platvormi
plos
pmid
po
poblacio
poc
podataka
podatke
podrocje
pojezierze
poland
polarimetry
polic
politisch
politischen
polskiego
polskiej
pop
poparh
popest
popolazione
populacao
popularis
populat
population
populations
por
portal
portant
positions
postaux
poste
powiat
powiatu
powiaty
pp
ppen
pr
praha
pre
prebivalstvo
prefix
prehl
president
press
preston
primari
prize
processes
processing
produkte
profile
program
project
propagation
proper
properties
protein
proteins
proteome
proteomics
protezionecivile
province
provinces
provincias
psa
pscz
psi
pt
pu
pub
public
publication
publications
published
publishing
pulkovo
pᴎᴙ
q
qa
qan
qars
qatnas
qazan
quartal
que
qus
qərb
r
ra
radial
radiales
radiometry
raff
ranking
raq
ras
rave
raw
ray
rbi
rc
rd
rda
re
reading
recensa
recensement
receptor
record
red
redshift
reduction
ref
reference
reform
reg
region
regioni
register
registro
reguladora
reipublicae
relacio
related
relation
release
releases
religion
religious
remco
ren
rena
renaissance
renda
renen
renson
repeat
report
representatives
republic
republika
republiky
res
research
residente
resources
respublikası
respublikasının
resultantes
resultat
results
retrieved
retscreen
review
revised
revisio
rez
rezultatele
rga
rhin
rho
ri
ria
rich
riche
right
rischi
rk
rki
rkiye
rla
rle
rlp
rlu
rm
rma
rna
rne
rnen
ro
robert
roberts
robin
ron
rosstat
rotational
routledge
royal
royer
rpl
rs
rsa
rt
ru
ruian
rus
rusia
russell
russia
russian
rxi
rz
rzeczypospolitej
s
sa
sadler
saint
sainte
sample
san
sandre
santa
sanı
satya
satzung
sb
scale
schmadel
schneider
scholz
school
schuster
sci
science
sciences
scientific
scitani
scott
sdss
se
search
searchbutton
searchtext
see
seismic
selbsta
select
selected
selection
selon
seltab
sen
sena
senda
seo
september
septembre
sequence
serie
series
server
service
services
sestava
set
sexe
sexes
sgc
sh
shane
sharma
shgt
show
si
sigeladressen
sille
simbad
simon
sin
sinicae
sirene
sismica
sismico
sistemi
sister
site
sitelanguage
sites
siyahıyaalınması
size
ska
ske
ski
skorowidz
sky
slc
sloan
slovak
slovakia
slovenia
slovenija
slovenska
slovenskej
sltmuni
small
smi
smith
so
sobre
soc
sociais
social
society
solar
solute
son
sorce
souboru
souc
source
sources
sous
south
southern
space
spacewatch
spain
spanish
sparql
species
spectra
spectral
spectrophotometry
spectroscopic
spiral
spra
springer
springob
sr
sri
ssp
st
sta
staatsbibliothek
stabila
stadt
staedte
staedtetag
standard
star
stars
startseite
stat
state
states
statistica
statistical
statisticky
statistics
statistik
statistikportal
statistique
status
statystyczny
staveley
steinmetz
stellar
stephan
stgb
stgt
stica
storiche
struc
structural
structure
structures
stu
studies
study
su
subfamily
subunit
sug
summary
sunyaev
superficie
supermassive
supplement
sur
surface
survey
surveying
sus
swift
synthesis
system
systems
słownik
səh
t
ta
tab
table
tables
tabmunicipios
tadr
tanasevitch
tarafından
tarafınnan
targeted
tas
tat
tatar
tatarica
tatarstan
taxonomic
tc
te
team
technical
tele
telescope
temmuz
temple
temples
ten
texas
text
th
that
the
their
thek
third
this
thomas
threatened
through
thueringen
ti
tica
time
times
title
tka
tku
tla
tna
tnej
to
tolma
tom
toplusu
toponimlərinin
tora
torg
torra
total
totals
town
tr
tra
track
transcription
transfermarkt
transformations
translation
transmembrane
treccani
ts
tse
tt
tta
tu
tudes
tug
tully
tur
turi
turında
tutanag
tv
twelfth
two
tx
txt
tycho
type
types
u
ua
uab
uc
ucac
ueber
uesac
ug
ugc
uk
ul
ulay
ulj
ultraviolet
un
und
under
unesco
unfit
union
uniprot
unit
united
universe
university
uns
unspecified
unternehmen
untranslated
up
updated
uploads
upper
uppsala
uq
url
urnas
urza
us
usa
usgs
usporiadani
ussr
utc
uzc
v
va
val
valas
valentijn
valentini
validation
value
van
var
variable
vaucouleurs
vc
vdp
ve
vec
veda
velocities
velocity
verband
verileri
verilerin
verlag
version
verzeichnis
verzeichniss
veterinary
vezi
vi
vienna
view
viewer
vigueur
vii
viii
viliam
ville
virgo
vishniac
visible
visually
vitebsk
vitesses
vizier
vne
vneho
vnom
vnu
voja
vojensky
vol
volko
vollsta
volume
von
votruba
vrier
vseti
vy
vyc
vyd
vysledky
vznikaji
w
wa
walter
wang
warszawa
was
washington
watch
way
wc
wcm
wda
we
weather
web
webcitation
webcuzk
webrzs
website
webster
weekly
weights
whitaker
who
wiki
wikidata
wikipedia
wikisky
wilejka
wilen
wiley
william
wilson
windows
wir
wissen
with
within
wla
wny
wolumin
women
world
wps
wu
wuerttemberg
www
wykaz
x
xa
xalıq
xalıqara
xan
xezma
xi
xii
xiii
xiv
xix
xls
xlsx
xmain
xml
xo
xpgid
xpid
xportal
xslt
xv
xvi
xvii
xviii
xx
xxi
y
ya
yag
yan
yasama
year
yek
yekaterinburg
yekt
yes
yla
yo
yoga
york
youtube
yu
yug
yıl
yılda
yıldan
yılg
yıllarda
yılnın
yılı
z
za
zanikleobce
zdenko
ze
zellner
zemi
zemne
zemnom
zemnospra
ziemia
zinc
zla
zme
znf
zone
zorec
zr
zu
zubriczky
zur
zwicky
{
|
}
~
§
©
«
¬
­
¯
°
±
²
³
·
»
½
×
æ
ı
ıg
ık
ılar
ın
ına
ında
ıq
ıs
ıtım
ǝ
ə
əhalisinin
ərazi
ərq
əti
ɜ
ɵ
ɵᴍh
ʙ
ʜ
ʰ
ʲ
ʹ
ʻ
ʼ
ˈ
ː
˙
̀
́
̂
̃
̄
̆
̇
̈
̊
̋
̌
̓
̔
̛
̣
̦
̧
̨
͂
͡
α
ανοικτω
β
γ
δ
δεδομε
ε
ζ
η
θ
λ
μ
ν
νων
ο
π
πλατφο
ρ
ρμα
ς
σ
τ
φ
ψ
ω
ϕ
а
ааҗ
аб
абдулла
абдуллин
абласнога
абруи
абруцци
абруццо
абсолют
абыи
авазы
август
августа
августта
августы
августында
августыннан
аверон
авиация
австралия
австрии
австрия
австриянең
авт
автомобиль
автоном
автономияле
автор
авторы
авыз
авыл
авылга
авылда
авылдан
авыллар
авыллары
авылларында
авылны
авылның
авылы
авылына
авылында
авылындагы
авылыннан
авылының
авыр
авыргазы
авырлыгы
авырлык
авырту
авыру
авырулар
авыруларда
авырулары
авыруның
авыруы
ага
агач
агачы
агеева
агентлыгы
аграр
агры
агыи
агымы
агып
ад
адана
адидже
адиҗе
адкрытых
адм
административ
административно
административное
администрации
администрациясе
адмирал
адрес
адресов
адресы
адыяман
ае
аенда
аермалы
аермасы
аеруча
аерыла
аерылып
аерым
аерымланган
аерып
аз
азагында
азат
азатлык
азербаи
азия
азиядә
азнакаи
азрак
азчылык
азык
азәр
азәрбаи
аи
ак
акад
академигы
академии
академик
академия
академиясе
академиясен
академиясендә
академиясенең
акдиңгез
аккош
аклар
акмола
аксубаи
аксымы
актаныш
акте
актер
актеры
актив
активлыгы
актов
актриса
актрисасы
актуална
актуальные
актүбә
акча
акчасына
акш
акшның
акшта
акыл
акыллы
ал
ала
алабама
алабуга
алаи
алалар
алан
аланы
алар
аларга
аларда
алардан
аларны
аларның
алба
алга
алган
алганда
алганнан
алганнар
алгач
алгы
алда
алдагы
алдан
алды
алдына
алдынгы
алдында
алдындагы
алдыннан
алеи
александр
александра
александров
александрович
алексеев
алексеевич
алексеи
али
алиһәсе
алла
аллаһ
алм
алма
алмаган
алмаз
алман
алмания
алманиянең
алманнар
алматы
алмыи
алсу
алтаи
алтмыш
алты
алтын
алтынчы
алу
алучы
алына
алынган
алынмалар
алып
алырга
аль
альберт
альбом
алье
альплар
альплары
альто
аляска
ам
амасья
америка
америкада
америки
ан
ана
анализ
аналитическии
анасы
анатолии
анатолия
англ
англия
анда
андерсон
анджело
андреевич
андреи
андыи
анкара
анкетирование
анна
аннан
аннары
анри
ансамбле
анталья
антон
анхальт
аны
аның
ао
аоста
апа
апас
апасы
апреле
апрелендә
апреленнән
апрель
апреля
апулия
ар
ара
арад
арада
арасы
арасында
арасындагы
арасыннан
аргентина
ардахан
арденны
ардеш
арджеш
аризона
арка
арканзас
аркасында
арктика
аркылы
арлар
армии
армия
армиягә
армиядә
армиясе
армиясенең
армор
арта
артвин
артиллерия
артист
артистлары
артисты
арткан
арткы
артлы
артур
арты
артык
артында
артыннан
артып
архангельск
археологик
археология
архив
архивировано
архивланган
архивланды
архитектор
архитекторы
архитектура
архитектурасы
арча
аръягы
арыс
арыслан
арьеж
асаба
асбассеи
аска
аскы
ассоциациясе
асср
ассрның
аст
астана
астероид
астероидның
астероиды
асти
астравецкии
астрель
астрономик
астрономическии
астрономия
астрономы
астрофото
асты
астына
астында
асыҡ
ат
ата
атаганнар
атаклы
атала
аталган
атама
атамасы
атамура
атап
атасы
атказанган
атлантик
атлар
атлас
атлетика
атлы
атмосфераның
атмосферасы
атна
атнага
атом
атрибут
ату
атыи
атып
аурупа
аурупада
афи
африка
ахыры
ахырына
ахырында
ача
ачкан
ачу
ачык
ачыклыи
ачыла
ачылган
ачылды
ачып
аш
аша
ашарга
ашказаны
ашлык
ашмянскии
ашыи
ашыру
ашық
аю
аяз
аяк
аңа
аңлата
аңы
б
баба
бабаи
бабасы
бавария
бавыр
багамольнікава
багышланган
бад
баден
бадәт
бадәтханә
бадәтханәләре
бадәтханәнең
бадәтханәсе
база
базар
базасы
базасында
базиликата
баи
баия
бакалы
бакеу
бакча
бакчасы
бакы
бакыи
бакыр
бал
бала
балалар
балаларга
балаларны
балалары
баланың
баласы
балет
бали
балкан
балканах
балта
балтач
балтыи
балык
балыкесир
банк
банкы
бар
бара
баралар
барган
барганда
барда
баренец
баренцев
барлыгы
барлык
барлыкка
барнавыл
барс
барселона
барсын
бартын
бару
баручы
бары
барыла
барып
барырга
барысавскии
барысы
барышында
барәт
бас
баса
баск
басма
басмасы
баспасы
бассеи
басср
бассрның
бастыра
бастырып
басу
басыла
басылган
басылып
басым
басымы
басып
батыр
батырлыгы
батырлык
баулы
баш
башинформ
башк
башка
башкала
башкалар
башкаласы
башкара
башкарган
башкарма
башкару
башкаручы
башкарыла
башкарылган
башкирии
башкирская
башкирскои
башкорт
башкортлар
башкортостан
башкортостана
башкортстан
башкортстанда
башкортстанның
башлаган
башлаганнар
башлагач
башлады
башлана
башланган
башлангач
башлангыч
башланып
башлап
башлыгы
башлыи
башлык
башлыча
башта
баштан
башы
башын
башына
башында
башыннан
башҡорт
баян
бе
без
безгә
безнең
беи
белар
беларус
беларускаи
беларусь
беларусі
белгеч
белгече
белгечлеге
белгечләр
белгечләре
белгән
белдерә
белем
белеме
белемен
белемле
белемне
белешмә
белешмәлек
белешмәсе
белкартография
белков
белор
белорет
белоруссии
белоруссия
белоруссиянең
белорусскии
бельгия
белэн
белү
белә
белән
београд
бер
бераз
бергә
бердәм
бердәнбер
бере
беренче
беренчел
беренчеләрдән
беркаи
берлеге
берлегенең
берлек
берлектә
берлин
берлә
берләр
берләре
берләшкән
берләшмә
берләшмәсе
берләштерә
берникадәр
бернинди
берничә
беррәттән
берсе
берсен
берсендә
берсенә
бертуган
берәмлеге
берәмлек
берәмлекләр
берәмлекләренең
берәр
берәү
бет
бетерелә
бетерү
беткән
бетә
би
библиотека
бигрәк
биек
биеклеге
биеклектә
биектау
бизнес
бизәлгән
бик
билгеле
билгели
билгелиләр
билгеләнгән
билгеләнә
билгеләп
билгеләре
билгеләү
билгесе
билгесез
били
биләмәләрендә
бина
бинада
биналар
бинасы
бинасында
бингөл
бине
биографическии
биография
биологик
биология
бирасы
биргән
бирде
бирегә
биредә
биредәге
бирелгән
бирелде
бирелмәләр
бирелә
биреп
бирергә
бирле
бирү
бирүче
бирә
бирәләр
бистрица
бистә
бистәсе
бистәсендә
бит
битендә
битлис
битләр
бихор
бич
биш
бишенче
бию
бия
бк
благоевград
блг
бмо
богемия
бодаи
боерыгы
боз
бои
бок
болаи
болар
боларның
болгар
болгария
болгариянең
болгары
более
болу
болытлары
болытлы
большая
большои
бор
бораи
борго
борис
борын
борынгы
борыны
борынына
борынынан
ботаника
ботошани
ботошань
боуэлл
бохара
бр
брага
браганса
бразилии
бразилия
бразилиядә
бразильскии
браи
бранденбург
бранко
браславскии
братислава
брахма
брест
брестская
бригадасы
британ
британия
брокгауз
брокгауза
бронза
броја
брэсцкага
брэсцкая
бу
буа
буда
буддачылык
буе
буена
буенда
буендагы
буенча
бузеу
буи
була
булалар
буларак
булат
булачак
булган
булганга
булганда
булганлыктан
булганнар
булгач
булды
булдыра
булдыру
булдырыла
булдырылган
булмаган
булмаганга
булмаса
булмау
булмыи
булса
булсын
булу
булуы
булуын
булуына
булып
булыр
булырга
буранлы
бургос
бурса
бурт
бутан
буш
буын
быч
бышев
бюджет
бюро
бюросы
бяла
бүген
бүгенге
бүздәк
бүлгесе
бүлгесенең
бүлеге
бүлеген
бүлегендә
бүлегенең
бүлегенә
бүлек
бүлекчәсе
бүленгән
бүленеп
бүленеше
бүленә
бүлеп
бүләге
бүләк
бүләкләнгән
бүләкләнә
бүре
бүтән
бәи
бәк
бәлки
бәләбәи
бәләди
бәрелү
бәреп
бәрәңге
бәхет
бәхетле
бәяләү
бөгелмә
бөек
бөекбритания
бөер
бөре
бөрҗән
бөтен
бөтендөнья
бөтенләи
бөтенроссия
бөтенрусия
бөтенсоюз
в
ва
вавилов
вага
вагага
вадим
вазифаларын
вазифасын
вазифасына
вазыи
ваи
вак
вакыи
вакыт
вакытка
вакытлы
вакытлыча
вакытта
вакыттан
вакыты
вакытында
вале
валенсия
валентин
валентина
валерии
валле
валожынскии
валь
валя
ван
вандея
ваннар
вариолит
варламова
вармия
варна
вары
вас
василии
васильев
васильевич
васлуи
васюган
васюганнан
ватан
ватанабэ
ватандашлар
вафат
вафатлар
вафатыннан
вах
вахит
вахитов
вашингтон
вв
введение
ве
веб
ведик
ведомости
веи
век
века
великии
велико
великои
великопольское
велли
вельск
вена
венгрия
венера
венето
венеция
вера
вермонт
вероника
версия
верховного
вест
вестник
вестфалия
весь
ветераны
ветеринария
виана
вид
видео
визеу
википедиясе
викиҗыентыкта
виктор
виктория
вила
вилеи
вилен
виленскии
вилла
вилча
виргиния
вирджиния
вирумаа
висконсин
виталии
витебск
витебская
витебскои
вице
вицебскии
вишну
вконтакте
вкп
владимир
владимирович
владислав
власти
внесении
во
вобласць
вогез
водород
воеводалыгы
воеводина
воеводство
вож
возможно
вои
вокал
волгоград
вологда
волосте
волость
вольф
воля
вопросы
воранавскии
воронеж
воронов
восток
вранча
время
все
всероссии
всесоюзная
вскии
вукмировић
вулысы
вулька
възраст
выканау
выканкома
вып
выпуск
высочина
вычегда
вьенна
вьетнам
вюртемберг
вярхоу
вятка
вячеслав
відкритих
віцебская
вә
вәкиле
вәкилләре
вәли
вәлиев
г
га
габдрахман
габдулла
габрово
гадел
гади
гадәти
гадәттә
гадәттән
газ
газета
газетасы
газетасында
газетасының
газиантеп
газиз
гаи
гаилә
гаиләдә
гаиләсе
гаиләсендә
гаиләсенә
галактика
галар
галац
гали
галиев
галим
галиме
галимнәр
галимнәре
галимов
галимҗан
галина
галия
галиәсгар
галкина
галәм
гамбәр
гамәлгә
гамәлдә
гамәли
ган
ганеша
ганчы
ганчыга
гапоненка
гарады
гариф
гарифуллин
гаронна
гарәп
гарәпчә
гаскәр
гаскәре
гаскәрләре
гасыр
гасырга
гасырда
гасырдан
гасырлар
гасырларда
гасырның
гатобк
гафури
гашыи
гаяз
гаять
гвадалахара
гвардия
гг
где
ге
геи
гектар
гел
ген
генерал
генералы
генераль
генкін
геннадии
генри
генә
геогр
географии
географик
географические
географическии
географических
географическое
география
географиясе
географо
геодезии
геология
георгии
гер
геральдика
герб
гербы
герельс
герман
германия
германская
герое
герои
гесе
гессен
гидра
гидрологик
гидротехник
гидротөененә
гилл
гильфердинг
гильфердинга
гималаи
гимн
гимназия
гимны
гиресун
гисэ
гл
глава
главна
главное
главы
глыбоцкии
гмина
гминасы
гминасында
го
гобәи
год
года
годов
году
годы
гол
головина
гольштеи
гом
гомель
гомельскага
гомельская
гомер
гомере
гомеренең
гомуми
гомумрусия
гомумән
гомәр
гора
гореф
горж
горни
город
города
городам
городов
городских
городского
горькии
гос
госман
госманлы
государственная
государственного
государственное
государственнои
государственныи
гояс
гравитацияне
градец
градова
градюшко
гражданнар
гражданска
грамотасы
гран
гранди
график
греи
грек
греция
григории
гродзенскага
гродзенская
гродзенскии
гродно
грозныи
грузия
груневельд
гуарда
губерна
губернасы
губернасына
губернасының
губернаторы
губернии
гуманитар
гура
гы
гыи
гына
гыр
гэмпшир
гүзәл
гүмүшхане
гә
гәзите
гән
гәрчә
гәрәи
гәҗит
гәҗите
гөбернәсе
гөл
гөрҗистан
д
да
даведнік
дагстан
дагы
даи
даими
дакота
дала
далану
даланыла
далы
дальневосточныи
дамир
дан
даних
дания
данни
даннои
данные
данных
даны
даных
данә
дар
дару
дарулар
дата
датасы
даутов
дахо
двина
двиналар
де
дебеонь
дебют
деи
декабре
декабрендә
декабреннән
декабрь
декабря
декадасында
деканы
дел
дела
деление
делла
дель
дельберг
демократик
демоскоп
денис
день
департамент
департаменты
департаментына
департаментында
депутат
депутатлары
депутаты
дер
деректер
дерюжинскии
дж
джан
джеи
джек
джерси
джованни
джон
джордж
джорджия
джурджу
ди
диалекты
диаметры
дивизия
дивизиясе
дигән
дигәнне
диде
диеп
дизаи
диләр
димбовица
димәк
дин
динамикасы
динамо
династиясе
динг
дине
динен
динендә
диненең
дини
диния
дип
диплом
дипломы
директор
директоры
дирекция
дисенскии
диск
диссертация
диссертациясе
диссертациясен
диффузия
дию
диярбакыр
диярлек
диңгез
диңгезе
диңгезенә
для
дмитрии
дня
до
дога
додаҳои
доктор
докторлык
докторы
документаль
документлар
долж
дом
домброва
дон
донец
доп
дополнении
дор
дордонь
доцент
доценты
дошман
дошманның
др
драма
драматург
древнюю
дром
ду
дулкын
дуллин
думасы
дунаи
дус
дуслыгы
дуслык
дучар
ды
дымлы
дын
дэпутатау
дю
дюи
дүзҗе
дүрт
дүртенче
дүртөи
дүшәмбе
дә
дәвалау
дәвам
дәвамында
дәверендә
дәгъва
дән
дәп
дәр
дәреслек
дәреслекләр
дәресләр
дәрәҗә
дәрәҗәдә
дәрәҗәдәге
дәрәҗәле
дәрәҗәсе
дәрәҗәсен
дәрәҗәсендә
дәрәҗәсенә
дәүләт
дәүләте
дәүләтенең
дәүләтләр
дәүләтнең
дәүләттә
дөнья
дөньяви
дөньяга
дөньяда
дөньяның
дөньясы
дөрес
е
евгении
евровидение
европа
еган
егерме
егет
его
единиц
ее
ежегодник
еи
екатерина
екатеринбург
ел
елан
елга
елгалар
елгалары
елгаларын
елганың
елгасы
елгасын
елгасына
елгасында
елгасының
елгы
елда
елдагы
елдан
елена
елизавета
еллар
елларга
елларда
еллардагы
еллардан
елларның
еллары
елларында
еллыгы
еллыгына
еллык
елны
елның
елы
елына
елында
енисеи
енче
ер
ерак
ераклыкта
ере
ереван
еричева
есназарова
етничка
етноконфесионални
ефрон
ефрона
ефәк
еш
ешрак
ж
жан
же
жер
жераи
жетісу
жизни
жизнь
жиронда
жителеи
жос
жудецында
журнал
журналист
журналистика
журналистлар
журналисты
журналы
журналында
журналының
жучкевич
жылғы
з
за
завод
заводы
заводында
загора
заи
закир
закиров
закон
законау
зал
залы
заман
заманда
заманча
заманында
записки
зарипов
зарубежная
зарубежным
зарубежных
зат
збор
зборнік
звезда
звезды
зеландия
зи
зиратында
златибор
злин
значение
знои
золотои
зона
зонасы
зонасында
зонгулдак
зу
зур
зурлыгы
зурлыктагы
зуррак
зырянское
зыян
зьвестак
зәгыи
зәи
зәки
зәрдөштлек
зәңгәр
зөләи
зөфәр
зөя
зөһрә
и
иа
ибн
ибраһим
ибраһимов
иван
иванов
иванович
ивановна
иваново
ивевскии
игезәге
игенчелек
игорь
игълан
игътибар
идарә
идарәсе
идарәсендә
идарәсенең
иде
идел
иделның
идем
идентификации
ижау
из
избирательное
известия
изге
изд
издание
издательство
изер
изменении
изола
ике
икенче
икенчел
икенчесе
икесе
икмәк
икътисад
икътисади
икътисадчы
икътисадыи
икән
икәнен
ил
илаһи
илгиз
илгә
илдар
илдус
илдә
иле
иленә
илеш
или
илле
иллинои
илләр
илләрдә
илләре
илләрендә
илнең
илче
илчедер
илчесенә
иль
илья
ильяс
илһам
им
имам
имамы
имеет
имени
имләсе
император
императоры
империи
империясе
империясенең
имуществу
имән
ин
ингл
инглиз
инглизчә
инде
индекс
индексы
индиана
индонезия
индрик
инештән
инженер
инженеры
инициативасы
инкыи
инспекциясе
институт
института
институтның
институты
институтын
институтына
институтында
институтының
интервью
интернет
информ
информации
информация
инфракызыл
иосиф
ир
иран
ире
ирек
ирекле
ирешкән
ирешә
ирина
иркутск
ирләр
иртеш
иртә
ис
исем
исемдәге
исеме
исемен
исемендәге
исеменнән
исеменә
исемле
исемлеге
исемлегенә
исемнәр
исемнәре
иске
искусства
искусство
искә
искәндәр
ислам
исмәгыи
исп
испан
испании
испания
испаниянең
исследовании
исследования
иссә
ист
истанбул
истории
историко
историческии
историю
история
источники
истәлегенә
истәлек
истәлекле
исхаков
исхакыи
исүче
исә
исәбе
исәбен
исәбенә
исән
исәнбәт
исәпкә
исәпләгәндә
исәпләмичә
исәпләнгән
исәпләнә
исәпләү
исәптә
исәптән
ит
итал
италия
италиянең
италь
итальян
ителгән
ителде
ителә
итеп
иткән
иткәндә
иткәннәр
итогам
итоги
итте
итэ
итү
итүгә
итүдә
итүе
итүне
итүче
итә
итәләр
итәргә
их
ишек
ишем
ишембаи
июле
июлендә
июленнән
июль
июльдә
июльнеке
июльнең
июля
июне
июнендә
июненнән
июнь
июньдә
июня
ия
ияләре
иясе
иҗади
иҗат
иҗаты
иҗатын
иҗтимагыи
иң
к
ка
кабан
кабат
кабер
кабиләләре
кабиләсе
кабинеты
кабул
кавалеры
кавказ
кагыи
кагылгысыз
кагылмыи
кадастрының
кадрлар
кадыи
кадәр
кадәрге
каен
каз
каза
казакъ
казакълар
казакъстан
казакъстанның
казан
казанга
казанда
казандагы
казани
казаннан
казанның
казанская
казанскии
казанского
казанскои
казанышлары
казань
казахлар
казахстан
казахстана
казе
казчина
каи
как
кал
кала
калабрия
каласы
каласына
каласынан
каласыннан
калган
калды
калдыра
калдырган
кале
календарь
кали
калинин
калифорния
калмыи
калмык
калсын
калу
калуга
калып
кальвадос
каләм
кама
камаз
камал
каменецкии
каменка
камера
камил
кампания
камуннары
камітэта
кан
канавезе
канада
канал
каналы
кандидат
кандидатлык
кандидаты
канзас
канин
кански
канталь
кантон
кантоннан
кантоны
кантонына
канун
кануны
канэда
капитан
капланган
капылоу
кар
кара
карабүк
караган
караганда
караганды
карагыз
карадиңгез
караидел
карала
каралган
карамагында
карамастан
карап
карар
карарга
карары
карата
карау
караш
караңгы
карел
карелия
кариев
карл
карловы
карлы
каролина
карпатасты
карпеков
карс
карт
карта
картасы
карте
картографии
картография
карчык
каршы
каршылык
каршында
каршындагы
карыи
карьерасын
каспии
кастамону
кастелло
кастель
кастильоне
касыи
кат
каталог
каталогларда
каталогтан
каталогында
каталогының
катарина
катламнар
катламнарында
катламы
катлау
катлаулы
катлы
катнаш
катнаша
катнашкан
катнашмаларга
катнашты
катнашу
катнашучы
катнашучылар
катнашында
катнашып
католик
катунь
каты
кафедра
кафедрасы
кафедрасында
качып
каштелу
каюм
кая
каһарманнары
каһарманы
каһраманмараш
кб
кв
квадрат
квадраты
квант
кваркуш
кг
ке
кебек
кеи
келераш
кем
кемерово
кентавр
кентукки
кенә
кенәз
кенәзе
кенәзлеге
кер
кергән
керде
кереп
керергә
кереш
кертелгән
кертелә
кертеп
керткән
кертми
кертмичә
кертү
кертә
керү
керүче
керә
керәләр
керәшен
кетрмичә
кеть
кече
кечерәк
кечкенә
кеше
кешегә
кешедән
кешелек
кешеләр
кешеләргә
кешеләре
кешеләрне
кешеләрнең
кешене
кешенең
кешесе
ки
кибет
киев
кием
киеме
кил
килгән
килгәннән
килгәннәр
килгәч
килде
килеп
килеш
килешү
килешүе
килми
километр
километрга
километрлы
килү
килүе
килүче
килә
киләләр
киләсе
киләчәк
киләчәктә
ким
кима
кимендә
кими
кимрәк
кино
кинәт
кире
киресенчә
кирилл
киров
кирово
кировскои
кирпеч
кирәк
кирәкле
киселештә
кисеп
кискен
кит
китабы
китабын
китабына
китабында
китами
китап
китаплар
китаплары
китапта
китапханә
китапханәсе
китеп
китергән
китерелгән
китереп
китерергә
китерү
китерүче
китерә
киткән
китт
китте
китү
китә
китәләр
китәргә
кич
кичерә
кичке
кияүгә
киң
киңлеге
киңлектә
киңәи
киңәш
киңәшчесе
класса
классик
классификаторы
классификациясе
класслы
классы
клеть
климат
климатические
климатлар
климатның
климаты
клиник
клуб
клубы
клуж
км
кн
книг
книга
книжное
ко
кобаяси
ков
кова
ковскии
кодлана
коды
кои
кол
коле
коллектив
коллективы
колорадо
колумбия
колхоз
ком
команда
командасы
командиры
комбинаты
комедия
коми
комилар
комиссариаты
комиссарлары
комиссары
комиссия
комиссиясе
комитет
комитеты
комитетында
комитетының
коммуна
коммунага
коммуналары
коммунасына
коммунистик
коммунистлар
компания
компаниясе
комплекс
комплекслы
комплексы
композитор
композиторлар
композиторы
компьютер
комсомол
конвекция
конгрессы
конда
конкурс
конкурсы
конкурсында
коннектикут
константин
констанца
конституция
конституциясе
континенталь
контроль
конференции
конференција
концерт
конья
координаталары
корал
кораллары
кораллы
коралы
корбан
корея
корма
короле
король
корпус
корпусы
коррез
корреспонденты
корсика
кору
коръән
коры
корыла
корылган
корылма
корылмалар
корылтаи
космик
коста
костанаи
кострома
кот
котельнич
котлякова
кош
кошки
кошлар
коючы
кояш
коҗаэли
кпсс
кпссның
крае
краенда
краеның
краи
кралове
красная
красновская
краснодар
красноярск
красныи
кратер
кратерга
кратерлары
кратеры
краткая
краткии
края
кре
креи
крестьян
крестьяннар
крик
кришна
кто
куба
кубань
кубогы
куе
куела
куелган
куеп
кузнецов
куи
кукмара
кул
кулга
куллана
кулланалар
кулланган
куллану
кулланучы
кулланучылар
кулланыла
кулланылган
кулланып
кулланырга
култыгы
кулы
кулына
кулында
культура
культуры
кунео
кураи
курган
куркыныч
курс
курск
курсы
курсын
курчак
кусиро
кушма
кушыла
кушылган
кушылганга
кушылганчы
кушылдыгы
кушылдыклар
кушылдыклары
кушылып
кушымта
куып
кую
куючы
куя
куявия
куялар
куян
куярга
кфу
към
кы
кыз
кызлар
кызларның
кызлары
кызу
кызы
кызыклы
кызыл
кызылъяр
кыи
кыла
кылган
кылу
кына
кыпчак
кыр
кырау
кыргыз
кыргызстан
кыргыи
кыры
кырыи
кырык
кырым
кырымтатар
кырҗали
кысаларында
кыска
кыскача
кытаи
кыш
кышкы
кышлар
кышын
кэролин
књига
күбесе
күбесенчә
күбрәк
күгәрчен
күз
күздә
күзнең
күзәнәкләр
күзәтелә
күзәтү
күк
күкрәк
күкәи
күл
күле
күләме
күләмендә
күләмле
күмер
күмәк
күп
күпер
күпере
күпкә
күпләп
күпме
күпмедер
күпсанлы
күптән
күпчелеге
күпчелек
күпчелекне
күпьеллык
күргәзмә
күргәзмәсе
күргән
күренекле
күренеш
күренеше
күренешләре
күренмә
күренә
күреп
күрергә
күрсәтелгән
күрсәтелә
күрсәтеп
күрсәткән
күрсәтү
күрсәтә
күрше
күрү
күрә
күтахья
күтәрелә
күтәреп
күтәрү
күтәрә
күченеп
күченә
күчеп
күчерелгән
күчерелә
күчереп
күчермәсе
күчерү
күчкән
күчмә
күчү
күчә
күңел
кә
кәбисә
кәгазь
кәл
кәле
кәрим
кәримов
кәҗә
көе
көз
көзге
көзен
көзендә
көи
көллияте
көмеш
көн
көнбатыш
көнбатышка
көнбатышта
көнбатыштагы
көнбатыштан
көнбатыштарак
көнбатышында
көнгә
көндә
көндәлек
көне
көнендә
көненә
көнкүреш
көнне
көннән
көннәре
көннәрендә
көнчыгыш
көнчыгышка
көнчыгышта
көнчыгышында
көньягында
көньяк
көньякка
көньякта
көрән
көрәш
көч
көче
көчле
көчләр
көчләре
көчәи
л
ла
лаб
лаборатория
лабораториясе
лабы
лабына
лагои
лаек
лаеклы
лаеш
лаи
лалы
лана
ланган
ланда
ланма
лап
лаптева
лар
ларга
ларның
лары
ларына
ларында
лат
латвия
латин
латыи
лау
лауреаты
лацио
лађевић
ле
лебедева
лев
левитация
лез
леи
лекцияләр
лем
лемцюгова
лемцюговаи
ленд
ленин
ленинград
ленинградта
лениногорск
леон
леонид
лер
лердиҥ
лет
летию
ли
либерец
лигасы
лигурия
лилия
лиләр
липецк
лирик
лиссабон
лит
литва
литература
литературная
литературы
лицеи
ллар
ло
лов
лович
ловка
лодзь
локалној
локотки
ломбардия
ломоносов
ломоносова
лондон
лос
луар
луара
луаре
луза
луи
луиза
луизиана
луны
лы
лыгы
лыи
лык
ль
льми
люблин
любовь
любуш
люди
людмила
лютага
ляэне
ліпеня
лә
ләи
ләкин
ләм
ләнгән
ләнеп
ләнеш
ләнеше
ләнү
ләнә
ләп
ләр
ләргә
ләшә
ләҗев
ләү
м
ма
маалыматтарды
маврикии
магнит
магіле
мадрид
мае
маенда
маеннан
мазовия
мазурия
мазы
маи
мак
макова
макс
максаковскии
максат
максаты
максатында
максим
мактау
мактаулы
мал
мала
малаи
малатья
малая
мали
малмыж
малонистогорская
малюмат
мамадыш
мамык
ман
манара
манарасы
мандир
маниса
манов
манова
манси
мансур
манш
мар
марамуреш
марат
маргарита
мардин
маре
мари
марии
марина
маритим
мария
марк
марке
маркс
марна
марс
марсель
март
марта
мартен
мартин
мартино
мартның
марты
мартында
мартыннан
масса
массакүләм
массалары
массаларын
массачусетс
мастер
мастеры
матбугат
матбугатта
матди
матдә
матдәләр
математик
математика
материаллар
материаллары
материалы
матур
матч
махсус
машина
машиналар
мая
мај
маҗар
маҗарстан
мг
ме
медале
медаль
медальләр
медведево
медиафаи
медицина
международная
международныи
мезень
меи
мекленбург
мексика
мексико
мемориаль
мен
менаванні
менә
меркурии
мерсин
меса
мессье
места
местного
местности
местные
место
металл
металлургия
методик
метр
метрга
метро
метрополитенының
механизм
механик
механика
мехединць
мечеть
мең
меңгә
меңнән
меңьеллыкның
ми
мидәле
микроданные
микроданных
микрораи
милади
милан
милли
миллион
милләт
милләте
милләтләр
милләтне
милләттәшләр
миль
мин
минас
мине
минем
минзәлә
министерства
министерство
министр
министрлар
министрлыгы
министрлыгының
министры
миннесота
минск
минская
минскии
минус
минут
мир
мира
мирас
мирасы
миссисипи
миссури
мисыр
михаи
михаил
мичиган
мишәр
миңа
миңнуллин
млн
млрд
мм
ммәтле
мн
мо
могиле
модель
модуль
мозаик
мозель
мои
мокша
молдав
молдавии
молдавия
молдова
молекуляр
молекулярная
молизе
мон
монгол
монголия
монда
мондыи
моннан
монография
монтана
монте
монферрато
моны
моның
моравия
мордва
мордовия
морза
морке
морозко
моск
москва
москвы
московскии
московского
мостафа
моңа
мс
мугла
музее
музеенда
музеи
музыка
музыкаль
музыкант
музыкасы
мукшы
мулла
муниципалитет
муниципалитетлары
муниципалитетына
муниципаль
муниципального
муниципальное
муниципальныи
муниципальным
муниципальных
муреш
муса
муссонлы
муш
мы
мысль
мэдээллии
мэн
мэриленд
мядзельскии
мякотин
мінская
міністрау
мүнхен
мә
мәгариф
мәгарифе
мәгарә
мәгълүм
мәгълүмат
мәгълүмати
мәгълүматлар
мәгълүматлары
мәгълүматы
мәгънәдә
мәгънәле
мәгънәсе
мәдрәсә
мәдрәсәдә
мәдрәсәсе
мәдрәсәсендә
мәдәни
мәдәният
мәдәнияте
мәдәниятен
мәи
мәкалә
мәкаләләр
мәкаләләре
мәкаләне
мәкаләнең
мәктәбе
мәктәбен
мәктәбендә
мәктәбенең
мәктәбенә
мәктәп
мәктәпкә
мәктәпләр
мәктәпләре
мәктәпләрендә
мәктәпне
мәктәпнең
мәктәптә
мәрмәр
мәртәбә
мәрьям
мәрҗани
мәскәү
мәскәүгә
мәскәүдә
мәскәүнең
мәсьәләләр
мәсьәләләре
мәсьәлән
мәсәлән
мәхмүт
мәхмүтов
мәхрүм
мәхәббәт
мәхәллә
мәчет
мәчете
мәчетләр
мәчетнең
мәшһүр
мәғлүмәт
мәҗбүр
мәҗбүри
мәҗит
мәңге
мәңгелек
мөгаен
мөгаллим
мөгезкатлау
мөдире
мөкәфәте
мөмкин
мөмкинлеге
мөмкинлек
мөнәсәбәтләр
мөнәсәбәтләре
мөрәҗәгать
мөселман
мөселманнар
мөселманнарның
мөселманнары
мөселманнарының
мөслим
мөстәкыи
мөфти
мөхбир
мөхәммәд
мөхәммәт
мөхәррир
мөхәррире
мөһим
н
на
набор
нага
наган
награждении
над
надежда
надым
названии
названия
назвы
наи
наил
намаз
нан
нап
нар
нарат
нарга
нарматыу
народа
народная
народов
народы
наса
населе
населени
население
населением
населения
населенным
населенных
населеных
насељима
настоящ
насыи
наталья
натураль
нау
наук
наука
наукам
науки
науменко
науч
научн
научно
научнои
национален
национална
национального
национальное
национальностям
национальныи
начало
начальнигы
начар
нвар
нварда
нварның
нвары
нварына
нварында
нварыннан
нда
ндә
не
небраска
неверныи
недвижимости
недопустимое
недоступная
неи
некаторых
немец
ненец
неопр
непал
нерв
несеуд
нефтеюганск
нефть
нечкә
нең
ни
нигез
нигездә
нигезе
нигезендә
нигезләгән
нигезләнгән
нигезләнеп
нигезләнә
нидерланд
ник
никифоров
никола
николаевич
николаи
нина
нинди
ниндидер
ничек
ниш
ния
нланд
нмут
ннары
нных
нның
но
нобель
нов
нова
новая
новгород
нове
нови
новии
ново
новокузнецк
новосибирск
новости
новы
новые
новыи
нои
нократ
нокталары
ноктасы
номенклатурасы
номерлы
номинациясендә
нор
норвегия
норлат
нормаль
норт
ноябре
ноябрендә
ноябреннән
ноябрь
ноябрьнең
ноября
нт
нты
нугаи
нуллин
нур
нуруллин
нче
нчы
нш
ны
ныи
нык
нына
ныннан
нының
нысанбаев
ныф
ных
ның
ньевр
нью
нээлттэи
нямц
нәзарәте
нәкъ
нән
нәрсә
нәсел
нәселе
нәселеннән
нәтиҗә
нәтиҗәдә
нәтиҗәле
нәтиҗәләре
нәтиҗәсе
нәтиҗәсендә
нәфис
нәшер
нәшр
нәшрият
нәшрияты
нәшриятында
нәҗип
нөсхасеннән
о
об
обл
областеи
области
область
обнаружены
обновить
оборона
образование
образовании
образования
образованиям
обращения
обсерваториясендә
обслужване
общ
общегеографическии
общества
общественные
общественным
общин
община
общинасы
общини
объект
объектлар
объектлары
объекты
объектының
объетлары
ова
овернь
ога
огаи
огачи
огиз
огынты
огынтысы
од
одесса
оеша
оешкан
оешма
оешмалар
оешмаларда
оешмалары
оешмасы
оешмасының
оештыра
оештырган
оештыру
оештыруда
оештыручы
оештырыла
оештырылган
озак
озгат
озын
озынлыгы
озынлыкта
ои
оидзуми
ока
окато
океан
океаннан
океаны
оклахома
округ
округам
округов
округы
округына
округында
округының
окружным
октмо
октябре
октябрендә
октябреннән
октябрь
октября
ола
олдыз
олдызлар
олдызларда
олдызлардан
олдызлары
олдызларында
олдызлыгы
олдызлыгында
олдызны
олдызның
олдызча
олдызы
олег
олимпия
оломоуц
олт
олы
ольга
омск
омшак
омырка
он
она
онам
онда
оне
онега
онкарахисар
онлаи
онна
оннары
оннарында
оннарының
онның
онов
оны
оныгы
онына
онында
онындагы
онының
опера
операсы
оператив
операция
операцияләре
операциясе
описание
ополе
оптик
општина
ор
орбиталары
орган
организација
органик
органнары
органы
орден
орденнары
ордены
орденының
орду
орегон
оренбург
оригиналь
оричи
орк
оркестр
оркестры
орлов
орн
орт
ортлар
ортлары
ортларында
ортта
орты
ортын
ортына
ортында
ортының
осетия
осипов
оскар
ослан
основы
оста
остасы
островскии
осыпов
осыф
от
отв
отворени
отворените
отвореног
отечественнои
открытых
отличнигы
отставкага
отче
официальныи
офтальмология
охшаган
охшаш
оценка
оча
очалар
очерк
очерки
очкыч
очракларда
очракта
очрашу
очрыи
очучы
очып
ошибка
ошкар
ою
п
па
павел
павлов
павлович
павлодар
пад
паи
пакистан
паломар
памяти
памятник
память
папа
пар
параллель
парана
пардубице
париж
парижда
парк
паркы
парламент
парламенты
партия
партиясе
паставскии
пастаноу
патша
патшалыгы
патшасы
паулу
пауль
пе
педагог
педагогик
педагогика
педагогия
пеи
пекуляр
пенза
пенсильвания
пер
пераи
первая
первыи
переименовывалась
переписи
перепись
переработанное
период
периода
периодик
пермского
пермь
перу
песни
петербург
петербургта
петр
петров
петрова
петрович
петрозаводск
печатня
печора
печән
пи
пиауи
пик
пиренеи
писатели
питрәч
пичета
пко
план
планета
планетасы
планетасының
платформ
платформа
платформазы
платформаи
платформасы
платформаһы
пльзень
плюс
плятформа
по
пов
повесте
повесть
погоде
под
података
податоци
подаци
подлясье
пои
пол
полацкии
поле
политическои
полиция
полк
полковник
полкы
положение
полу
польша
польшаның
польше
поляк
полянского
померания
понте
попов
популяр
популярное
порт
портал
порталы
портреты
порту
португалия
португалиядә
португалиянең
посе
поселении
поселкам
поселков
поселок
пособие
поспелов
постановление
постоянен
постоянного
постына
поче
почмак
почта
поясында
ппен
правда
правинсәсендә
править
правовых
православие
прага
прахова
працоу
преглед
предприятие
президент
президента
президенты
президентының
президиумы
президиумының
премии
премия
премияләре
премиясе
премиясенә
премьер
преобразовании
пресс
префектурасында
при
приволжскии
призе
призчысы
приморского
припадност
проблемалары
проблемы
прованс
проверьте
провинциясе
провинциясендә
провинциясенә
программа
программасы
програмы
проект
проекты
проза
прозаик
просмотр
проспекты
проф
профессиональ
профессор
профессоры
профиль
прохоров
процесслар
процесслардан
процессы
прэзідыума
психология
псков
публицист
пункт
пунктам
пунктау
пунктов
пунктта
пункты
пунктыннан
пур
пурана
путин
путь
пухавицкии
пушкин
пфальц
пчинья
пыяла
пьеве
пьемонт
пьер
пьесасы
пьетро
пюи
пятое
пәи
пәнҗешәмбе
р
ра
равил
рагы
радик
радио
радиосы
развитие
развития
размещение
разрезе
раи
рак
ракета
рал
рама
рамил
ран
рандин
расина
раслана
расланган
раслыи
распараджэнняу
рат
рафаил
рафаэль
рашка
рашэнне
рб
ргу
ре
реал
реаль
революцион
революция
регион
региональ
регионы
регистрация
ред
редактор
редакторлар
редакторы
редакция
редакциясы
редкол
реестр
реестры
реестрында
реж
режиссе
режиссер
режиссеры
реи
реклама
ректоры
ренат
републици
републички
респондетлар
республика
республикада
республиканың
республикасы
республикасында
республикасының
республике
республики
ресурслары
ресурсларының
реформы
рецензенты
ри
риваять
риестры
риза
ризе
ризык
рим
ринат
рио
рипол
риу
ричард
рия
ркп
рнген
ро
роберт
ров
рождения
роза
розасында
рок
рокка
роле
ролен
роль
роман
романы
романья
рон
рона
россии
россия
россиядә
россиянең
росстат
ростов
рскии
рсфср
рсфсрның
рт
ру
рубежом
рубин
руллин
рум
румыния
румыниянең
румынча
руп
рус
русия
русиядә
русиянең
руслан
руслар
русская
русские
русскии
русского
русскои
русча
руханилар
рухи
рф
рфа
рфның
ры
рыбинск
рь
рьнең
рэд
рэспублікі
рязань
рә
рәвешендә
рәвештә
рәис
рәисе
рәм
рәме
рәмнәр
рәнгән
рәнү
рәнүгә
рәнүче
рәнә
рәс
рәсем
рәсми
рәссам
рәссамнар
рәссамы
рәсәи
рәхмәт
рәшит
рөстәм
рөхсәт
с
са
саба
сабан
сабантуи
савез
савета
савои
садыи
саен
саи
сак
сакарья
саклана
сакланган
саклану
сакланып
саклап
саклау
саклыи
саксония
сакчы
сала
салават
салалар
саламанка
салган
салехард
салих
салихов
салкын
салкынча
салу
салучы
салучыларның
салым
салына
салынган
салып
самар
самара
самоуправи
самоуправление
самоуправления
самсун
сан
санак
санала
саналган
санағының
санкт
санлы
саннар
санның
санскр
санскрит
сант
санта
санто
санту
саны
саныи
санын
сара
сарагоса
сарае
сараи
саранск
саратов
сарденья
сардиния
саркисов
саркисова
сарман
сарта
сары
сарык
сарытау
сато
сату
сатып
саут
саф
сафин
сб
сбкф
сборка
сборник
свами
свентокшиж
свердловск
свердловскои
светлана
се
себер
северин
севр
сез
сезлек
сезнең
сезон
сеи
сек
секретаре
секторы
селаж
село
сельскага
сельских
сембер
семе
сен
сена
сенаторов
сенаторова
сенненскии
сенова
сент
сентябре
сентябрендә
сентябреннән
сентябрь
сентября
сер
серб
сербия
сербиянең
сергеевич
сергеи
середина
сери
серия
сериясе
сернур
сеңлесе
си
сибаи
сибиу
сивас
сигез
сигезенче
сидек
сиирт
сиксән
силезия
силья
символның
символы
симфоник
син
синдромы
сине
синең
синоп
синтаксическая
сирәк
система
системалары
системалаштырылган
системалы
системасы
системасын
системасында
системасындагы
системасының
сити
сицилия
сишәмбе
сиңа
ск
ская
скии
ских
ского
скои
скуратов
скі
слабада
славян
слв
следить
сливкера
слк
слободскои
словак
словакии
словакиянең
словареи
словари
словарь
словении
словения
словениянең
служба
службы
служебная
слэн
см
смаргонскии
смирнов
смоленск
смолян
сносок
со
собрание
совет
совета
советлар
советская
советскии
советского
советскои
советы
советына
советының
современных
согуд
соединенные
сокорро
солдат
солисты
солтан
солтанов
сомма
сон
сона
сопра
соравы
сорап
сорау
соры
сорыи
сосва
сосновка
сост
состав
составители
составы
составына
составында
составындагы
сосьва
софия
социалистик
социаль
сочинении
союз
союза
союзы
соң
соңгы
соңрак
соңыннан
спартак
спас
спб
спектакль
спектраль
спектрдагы
спираль
список
спорт
спортчы
справочник
справочников
спринг
спрингс
србије
србији
србију
среднегодовая
сср
ссрб
ссрбның
ссрның
ссср
сссрның
ссылка
ссҗб
ст
ставрополь
стал
сталин
сталинград
стална
стандарт
стандартные
станислав
становника
становништво
станция
станциясе
стара
старе
старост
старцев
стат
статистик
статистика
статистикасы
статистики
статистику
статистически
статистическии
статистическое
статуска
статусы
статусын
статья
ства
стве
ствии
ство
степан
степанов
стер
стереотип
стиле
стиль
стихи
стр
стран
странам
странах
страница
страны
стратегик
стрелковскии
строке
структура
студент
студентлар
студзеня
стәрлетамак
су
субъектов
суга
сугыш
сугыша
сугышка
сугышларда
сугышта
сугыштан
сугышчан
сугышы
сугышына
сугышында
сугышыннан
суд
суда
суды
сузылган
сул
сулы
сулыш
суль
сум
суммасы
сурәте
сурәтләнгән
сурәтләнә
сурәтләр
сус
сусаклагычы
сусаклагычына
сусаклагычыннан
сухона
сучава
суы
суык
суыта
сценарии
сша
сы
сыек
сыер
сызыгы
сызыгының
сызык
сыи
сылтама
сылу
сыман
сын
сынау
сынлы
сыры
сюр
сүз
сүзе
сүзен
сүзеннән
сүзлеге
сүзлек
сүзләр
сүзләре
сүзләренә
сүлпәнәя
сә
сәбәбе
сәбәп
сәбәпле
сәвер
сәвиты
сәгать
сәгатьне
сәгыи
сәет
сәи
сәламәт
сәламәтлек
сәләте
сәләтле
сән
сәнгате
сәнгать
сәнәгате
сәнәгать
сәркатибе
сәркәтибе
сәфәр
сәхифәсе
сәхифәсендә
сәхнә
сәхнәсендә
сәяси
сәясәт
сәясәте
сәясәтче
сәясәтчесе
сәяхәт
сәүдә
сәүдәгәр
сәүдәгәре
сәүдәгәрләр
сөембикә
сөи
сөләи
сөмбелә
сөт
т
та
таба
табиб
табиблар
табибы
табигать
табигыи
табл
таблица
табу
табыла
табылган
табыну
табып
тавис
тавцан
тавы
тавыш
тавышы
тагил
тагы
тагын
таз
таи
так
таксономиясе
такта
таләп
тамагы
тамагына
тамагыннан
тамак
тамара
тамашачы
тамбов
тамил
тамырлары
тан
танасковић
танк
таныи
таныла
танылган
танылу
танып
таныш
таныша
тап
тапкан
тапкыр
тапкырчыгышы
тапшыра
тапшыру
тапшырыла
тар
тара
тарала
таралган
тарафдарлары
тарафдары
тарафыннан
тарих
тарихи
тарихчы
тарихчысы
тарихы
тарихын
тарихына
тарихында
тармагы
тарн
тарта
тарту
тартумаа
тартып
тасвирлана
тасвирлыи
тасср
тассрның
тат
татар
татарлар
татарларның
татарлары
татарларының
татарская
татарскии
татарского
татарское
татарскои
татарстан
татарстана
татарстанда
татарстане
татарстанның
татарча
татары
татистика
татнефть
татьяна
тау
тауда
таулар
таулары
таулы
таутенбург
таш
ташкент
ташкәнт
ташлап
ташы
таяныч
таҗ
таҗикстан
таң
таһир
тбилиси
тв
тверь
те
театр
театрда
театрның
театры
театрына
театрында
театрының
тег
теге
теи
текирдаг
текст
тексты
тел
телгә
телгән
телдә
теле
телевидение
телевизион
телен
телендә
телендәге
теленең
теленнән
теленә
телеорман
телескоп
телеш
телле
телләр
телләре
телләрен
телләрендә
телә
теләге
теләгән
теләсә
тема
темага
темасы
темасына
температура
температурасы
тенант
теннесси
теоретик
теория
теориясе
теп
тергә
тере
терек
тереклек
теркәлгән
терлек
терлекчелек
терме
терминның
терр
территориаль
территориальное
территориальнои
территориальном
территориальныи
территориальных
территории
территория
территориям
территориясе
территориясендә
территориясеннән
техас
техник
техника
техникасы
техникумы
технология
технологияләр
ти
тибет
тибындагы
тигез
тигезлегенең
тиеш
тиешле
тиз
тиздән
тизлеге
тик
тикшерелгән
тикшерелде
тикшеренү
тикшеренүләр
тикшеренүләре
тикшеренүче
тикшерү
тимер
тимиш
тимур
тинги
тинчурин
тип
типа
типтагы
типу
тирбәлеше
тире
тироль
тирә
тирәли
тирән
тирәнлеге
тирәсе
тирәсендә
тискәре
ткан
ткач
ткн
ткән
ткәндә
тлары
тләр
тмәгән
то
тоз
тои
токарев
токат
толстои
том
томанлыклар
томас
томах
томда
томск
томь
тон
тонна
топоним
топонимическии
тора
торак
торалар
торган
торгызу
торгызыла
тормыш
тормышка
тормышы
тормышын
тормышында
торре
тору
торучы
торъял
торып
торырга
торышы
торышының
тоскана
тота
тотарга
тоткан
тоткарлаучы
тотрыклы
тотрыклылыкны
тоту
тотучы
тотыла
тотылган
тотып
тр
трабзон
традицион
трамваи
транспорт
тренер
тренеры
трентино
три
троицк
тс
тсының
тте
ту
туа
тубыл
туган
туганнар
туганнары
туганы
тугыз
тугызынчы
тудыра
туи
тукаи
туксан
туктыи
тукыма
тула
тулаем
тулы
тулысынча
тум
тунҗэли
туп
тупланган
тупланмалары
тупланмасы
тур
тура
туризм
турин
турции
турция
туры
турыдан
турында
турындагы
тутуков
туу
туфан
туфрак
туып
ты
тыгыз
тыгызлыгы
тыи
тын
тында
тындагы
тыныч
тынычлык
тып
тырново
тырыша
тырышлыгы
тысячи
тыш
тышка
тышкы
тыюлыгы
ть
тьче
тэхналогія
тюрингия
тү
түбән
түбәндәге
түбәндәгечә
түбәнрәк
түгел
түгәрәк
тә
тәкъвим
тәкъвимендә
тәкъдим
тәкъдиме
тәмам
тәмамлаган
тәмамлаганнан
тәмамлагач
тәмамлана
тәмамланган
тәмамлап
тәмамлыи
тәмәке
тән
тәнкыи
тәрбия
тәртип
тәрҗемә
тәрҗемәсе
тәрҗемәче
тәтеш
тәшкил
тәэмин
тәэсир
тәҗрибә
тәңгәл
тәүге
төбәге
төбәгендә
төбәгенә
төбәк
төбәктә
төгәл
төзегән
төзелгән
төзелеп
төзелеш
төзелеше
төзелә
төзергә
төзи
төзү
төзүче
төзүчесе
төзәтелгән
төи
төлек
төлке
төмән
төн
төнлә
төньягында
төньяк
төньякка
төньякта
төньяктан
төп
төр
төре
төрек
төркем
төркемгә
төркеме
төркеменең
төркеменә
төркемнәре
төркестан
төрки
төркия
төркиядә
төркиянең
төрле
төрлечә
төрләре
төс
төсе
төсле
төстә
төстәге
төш
төшем
төшемле
төшемнәр
төшенчәсе
төшеп
төшерелгән
төшереп
төшерә
төшкән
төшә
у
уаза
удмурт
удмуртия
уезд
уен
уеннары
уеннарында
уенчы
уены
уза
узган
узды
уздыра
уздырыла
узып
уи
уильям
ук
ука
указ
указан
указау
указы
укр
украин
украина
украинаның
украиннар
украі
уку
укучы
укучылар
укучылары
укучысы
укуын
укчы
укчылар
укыган
укыганда
укыи
укыла
укып
укырга
укыта
укыту
укытучы
укытучылар
укытучылары
укытучысы
ул
улица
уллары
улы
ульяновск
умбрия
ун
университет
университета
университетның
университетта
университеты
университетын
университетына
университетында
университетының
уникаль
унике
унъеллыгының
унъеллык
упознајте
упоредни
управление
управления
ур
урал
урам
урамга
урамнары
урамы
урамында
урамындагы
урамыннан
урата
урда
урман
урманнар
урманче
урнаша
урнашкан
урнаштырыла
урнаштырылган
урта
уртак
уртасында
уртача
урын
урынбасары
урынга
урынган
урында
урындагы
урындан
урынлы
урыннан
урыннар
урыннарда
урыннары
урынны
урынның
урыны
урынын
урынына
урынында
урыслар
уса
усманов
устецк
устрои
усть
усьтэм
ут
утлары
утравы
утравында
утрау
утраулары
утыз
утыра
утырган
утырырга
уфа
уфада
учалы
участогы
уче
учебник
учебное
училищесы
училищесын
училищесына
училищесында
учреждениесе
ушак
уэда
уң
уңаеннан
уңаи
уңыш
уңышлары
уңышлы
ф
фа
фабрикасы
фаи
фактория
факультет
факультеты
факультетын
факультетына
факультетында
факультетының
фаларын
фамилия
фамилиясе
фар
фараз
фарсы
фасын
фасына
фатих
фатлана
фатыи
фатында
фашист
фе
фебруар
феврале
февралендә
февраленнән
февраль
февраля
федераль
федеральная
федеральнои
федеральных
федератив
федеративная
федерации
федерация
федерациясе
федерациясенең
федор
феи
феодализма
фестивале
фестивалендә
фестиваль
фи
фигыль
фидакарь
фиде
физик
физика
физиология
физическая
фикер
фикеренчә
филиалы
филология
философия
фильм
фильмы
фильмында
фин
финанс
финансов
финляндия
фирка
фиркасе
флорида
флоты
фо
фольклор
фольклоры
фон
фонд
фонды
фонетик
формада
формалары
формалаша
формасы
формасында
форматындагы
форт
фортепиано
фото
фотографическии
фр
франк
франц
франции
франция
франциядә
франциядәге
франциянең
француз
фрегезия
фрегезияләре
фридрих
фриули
фронт
фронтка
фронты
фрунзе
фс
фуллин
функция
фут
футбол
футболчысы
фәи
фәлсәфи
фәлсәфә
фән
фәнни
фәннәр
фәннәре
фәрит
х
ха
хаи
хакас
хакимият
хакимияте
хакы
хакыи
хакында
халкы
халкын
халкына
халкының
халык
халыкара
халыкка
халыклар
халыкларның
халыклары
халыкларының
халыкны
халыкның
халқының
халәт
хан
ханлыгы
ханскии
хант
хануман
ханы
характерлана
харгита
харис
харита
харьков
харьюмаа
хас
хасил
хат
хатасы
хаты
хатыи
хатын
хатыны
хаутен
хаҗи
хезмәт
хезмәте
хезмәтен
хезмәтендә
хезмәткә
хезмәткәр
хезмәткәре
хезмәткәрләре
хезмәтләр
хезмәтләре
хезмәттә
хезмәттәшлек
хелин
хикәя
хикәяләр
хикәяләре
химик
химия
химиясе
хирург
хирургик
хирургия
хисап
хмао
ходае
ходаи
хозяи
хои
хоккеи
хокук
хокуклары
хокукларын
хокукы
хокукыи
хольт
хор
хорватия
хореография
христиан
христианнар
хромосома
хромосомасы
хроник
художник
хунедоара
хуҗа
хуҗалыгы
хуҗалыгында
хуҗалык
хуҗалыкта
хуҗасы
хх
хәбибуллин
хәбәр
хәзер
хәзерге
хәзрәт
хәи
хәким
хәл
хәлдә
хәле
хәмит
хәрби
хәрефе
хәрәкәт
хәрәкәте
хәсән
хәсәнов
хәтер
хәтле
хәтта
хөкем
хөкүмәт
хөкүмәте
хөкүмәтенең
хөрмәт
хөрмәтенә
хөсәен
хөсәенов
ц
цария
центр
центральное
центрам
центров
циклоннар
цильма
цифрлар
цифровои
цона
цы
ч
ча
чабаксар
чага
чагылган
чагылдыра
чагында
чагыштырганда
чагыштырмача
чаи
чак
чаклы
чакрым
чакта
чакыра
чакырыла
чакырылыш
чаллы
чаллыда
чамасы
чан
чанаккале
чандыр
чанкыры
чара
чаралар
чаралары
чарасы
часть
че
чебоксары
челны
человек
человека
челтәр
челтәре
челтәркатлау
челтәркатлауның
челябинскои
чемпионаты
чемпионатында
чемпионатының
чемпионы
чепецк
черных
чесе
чех
чехии
чехия
чехиянең
чехословакия
чечен
чиге
чигендә
чигеннән
чигенә
чик
чикләнгән
чикләре
чикләрендә
чиксез
чиктәш
чили
чиләбе
чир
чиратта
чиратында
чиркәве
чиркәү
чирм
чирмешләр
чирмешән
численности
численность
чиста
чистаи
чит
читкә
читтә
читтән
чишмә
чишмәсе
чокыр
чор
чорда
чорларына
чорум
чоры
чорында
что
чуаш
чуашлар
чуашстан
чуашстанның
чувашскои
чуел
чулман
чулпан
чулым
чумыш
чы
чыга
чыгалар
чыганагы
чыганак
чыганакка
чыганаклар
чыганаклары
чыганактан
чыгара
чыгарга
чыгарган
чыгару
чыгарыла
чыгарылган
чыгарылышы
чыгарып
чыгу
чыгуы
чыгып
чыгыш
чыгышлы
чыгышы
чыккан
чыккач
чыкты
чын
чүпрәле
чәи
чәршәмбе
чәче
чәчәк
чәчәкләр
чөнки
ш
шабалино
шагыи
шаи
шакир
шакиров
шактыи
шамил
шанлыурфа
шаранта
шартлар
шартларда
шартлары
шартларында
шахмат
шахматная
швед
швеи
швеция
шеи
шелте
шер
шеш
шива
шигъри
шигыи
шигыре
шигырь
шигырьләр
шигырьләре
шигырьләрен
шикәр
шиманскии
шимбә
ширкәте
шиһабетдин
школа
шлезвиг
шор
шотландия
шри
штаб
штабы
штаи
штат
штатлары
штатларының
штаты
штатына
штатында
штирия
шул
шулаи
шулар
шуларның
шумеи
шунда
шундыи
шуннан
шуны
шуның
шура
шурасы
шушы
шуңа
шчучынскии
шчына
шәех
шәи
шәриф
шәрәфле
шәхес
шәхесләр
шәхси
шәһри
шәһәр
шәһәргә
шәһәрдә
шәһәре
шәһәрен
шәһәрендә
шәһәрендәге
шәһәренең
шәһәреннән
шәһәренә
шәһәрләр
шәһәрләрдә
шәһәрләре
шәһәрләрендә
шәһәрне
шәһәрнең
шәһәрчек
шөгыльләнгән
шөгыльләнә
щ
ы
ын
ында
ынчы
ырынбур
ысул
ысулы
ь
э
эгеи
эдвард
эдирне
эдуард
эзлеклелек
эзләп
эзләү
эи
экз
экологик
экология
экономических
элазыг
элеанор
элегрәк
элек
элекке
элеккеге
электр
электрон
элемент
элементлар
элементларны
элемтә
эль
эльст
эләгә
эмилия
эн
эна
эндатэ
эндр
энергетика
энергия
энергиясе
энесе
энциклопедии
энциклопедик
энциклопедическии
энциклопедических
энциклопедия
энциклопедиясе
энциклопедиясендә
энциклопедиясенең
энциклопедиясы
энцыклапедыя
эр
эрага
эраның
эре
эрзинҗан
эрзурум
эрик
эро
эскишеһир
эссе
эст
эстонии
эстония
эстониянең
эстрада
эт
этник
этнографическое
этнография
это
эчендә
эчендәге
эченә
эчке
эчтән
эчәк
эчәргә
эш
эше
эшен
эшендә
эшенә
эшкә
эшкәртү
эшлекле
эшлеклесе
эшли
эшләгән
эшләде
эшләнгән
эшләнә
эшләп
эшләр
эшләргә
эшләре
эшләрен
эшләү
эшләүче
эшне
эшче
эшчеләр
эшчәнлеге
эшчәнлеген
эшчәнлек
ю
юбилеи
югалган
югалта
юган
югары
югарырак
югославия
югра
южная
юити
юк
юкка
юл
юлаев
юлга
юлда
юлиан
юллар
юллары
юлы
юлын
юлына
юлында
юлының
юнеско
юникодта
юныс
юнәлеш
юнәлеше
юнәлештә
юпитер
юра
юридик
юрии
юрист
юта
я
ябланич
ябык
ябыла
ява
явыз
явым
яга
ягъни
ягы
ягына
ягында
ягыннан
ядернә
яз
яза
язган
язгы
язма
язмалар
язмалары
язмасы
язмышы
язу
язучы
язучылар
язучылары
язучының
язучысы
язуы
язык
языка
языке
языков
языла
язылган
язып
яи
яисә
як
яки
якка
яклап
яклау
яклы
яклыи
якны
яков
яковлев
якта
яктан
якты
яктылык
якшәмбе
якын
якындагы
якынча
ял
ялган
ялгыз
ялкынсыну
ямал
яман
ян
яна
января
янгын
янучы
яны
янына
янында
янындагы
янә
яп
япон
японии
япония
японское
япунстан
яр
яралана
ярамыи
ярата
яраткан
яраң
ярдәм
ярдәме
ярдәмендә
ярдәмчесе
ярлы
ярославль
ярты
яртысы
яртысында
яруллин
яры
ярыи
ярым
ярымутравының
ярына
ярында
ярыннан
ясаган
ясала
ясалган
ясалма
ясап
ясарга
ясау
ясси
яссы
ясыи
ята
яткан
яулап
яулыи
ях
яха
яхшы
яхшырак
яше
яшел
яшен
яшендә
яшерелгән
яшерен
яши
яшиләр
яшь
яшькә
яшьлек
яшьләр
яшьләре
яшьтә
яшьтәге
яшьтән
яшүсмерләр
яшәве
яшәгән
яшәп
яшәргә
яшәү
яшәүче
яңа
яңавыл
яңадан
яңалиф
яңарт
яңгыр
яһүд
ђурић
і
інш
језик
језички
љубоја
ғ
җ
җавап
җаваплы
җаек
җаи
җамбыл
җан
җанисәбе
җанисәбен
җанисәп
җанның
җенес
җенси
җепшек
җибәргән
җибәрелгән
җибәрелә
җибәрү
җибәрә
җибәрәләр
җиде
җидегән
җидееллык
җиденче
җил
җилкәннәр
җилләр
җилләрне
җилнең
җиләк
җимерелгән
җимеш
җинаять
җир
җиргә
җирдә
җирдән
җире
җирендә
җирле
җирлеге
җирлегендә
җирлегенә
җирлекләренең
җирләнгән
җирләнә
җирләр
җирләргә
җирләре
җирләрен
җирләрендә
җирне
җирнең
җисем
җисеме
җисемнәр
җитди
җитештерү
җиткән
җитмеш
җитә
җитәкли
җитәкләгән
җитәкче
җитәкчелеге
җитәкчелегендә
җитәкчелегендәге
җитәкчелек
җитәкчеләре
җитәкчесе
җитәрлек
җиңел
җиңеп
җиңү
җиңүче
җиңүчесе
җиңә
җомга
җулия
җчҗ
җыела
җыелган
җыелма
җыелмасы
җыелышы
җыентыгы
җыеп
җыи
җылы
җылылык
җыр
җырлар
җырлары
җырларын
җырлыи
җырчы
җырчысы
җыры
җырын
җыю
җыючы
җыя
җәен
җәендә
җәи
җәлеп
җәлил
җәмгыяте
җәмгыятендә
җәмгыятенең
җәмгыять
җәмигъ
җәмәгать
җәяүле
җәүдәт
җөмһүри
җөмһүрият
җөмһүрияте
җөмһүриятенең
җөп
қазақ
қазақстан
қорытындылары
ң
ү
үз
үзара
үзб
үзбәк
үзбәкстан
үзгәреше
үзгәрешләр
үзгәртелә
үзгәртеп
үзгәрүчән
үзгәрә
үзе
үзем
үзен
үзенең
үзеннән
үзенчәлекле
үзенчәлекләр
үзенчәлекләре
үзенчәлекләрен
үзенә
үзешчән
үзләре
үзләрен
үзләренең
үзәге
үзәгендә
үзәгенең
үзәгеннән
үзәгенә
үзәк
үзән
үк
үлгән
үлгәннән
үле
үлем
үлсәү
үлчәү
үлә
үпкә
үрнәк
үсемлек
үсемлекләр
үсеп
үсеш
үсеше
үсешенә
үскән
үстерү
үстерүгә
үсә
үтеп
үтерелгән
үтерелә
үти
үткән
үткәргән
үткәрелгән
үткәрелә
үткәрү
үткәрә
үтте
үтә
үтәргә
ұлттық
һ
һава
һавасы
һади
һаи
һаман
һатаи
һидрологик
һидротехник
һинд
һиндстан
һиндстанда
һиндстанның
һинду
һәи
һәлак
һәм
һәр
һәрбер
һәрвакыт
һө
һөнәр
һөнәре
һөнәри
һөҗүм
һөҗүмче
ә
әби
әверелә
әгерҗе
әгъза
әгъзалары
әгъзасы
әгәр
әдәби
әдәбият
әдәбияты
әдәбиятында
әзер
әзербаи
әзери
әзерлек
әзерли
әзерләнгән
әзерләнә
әзерләү
әи
әкият
әкренләп
әл
әлбәттә
әле
әлеге
әлегә
әлифба
әлифбасы
әлифбасындагы
әлки
әллә
әлмәт
әлфия
әмир
әмирхан
әмма
әммә
әнвәр
әни
әнисе
әнә
әр
әрмән
әрмәннәр
әрмәнстан
әстерхан
әсәр
әсәре
әсәрләр
әсәрләре
әсәрләрен
әти
әтисе
әтисенең
әтнә
әфганстан
әфәнде
әхмәт
әхмәтов
әхмәтҗанов
әчинск
әүвәл
әһәмияткә
әһәмиятле
ө
өз
өзе
өзү
өи
өк
өкче
өлеш
өлеше
өлешен
өлешендә
өлешеннән
өлешенә
өлешләре
өлешчә
өлкә
өлкәдә
өлкәләре
өлкәләрендә
өлкән
өлкәсе
өлкәсендә
өлкәсендәге
өлкәсенең
өлкәсенә
өмет
өргән
өреп
өри
өртелә
өрткән
өртүче
өртә
өртәләр
өрү
өрүче
өрәк
өске
өскә
өслегенә
өслекнең
өсте
өстендә
өстенлек
өстеннән
өстенә
өстәмә
өстәп
өстәрәк
өфө
өч
өчен
өченче
өяз
өязе
өязендә
өязенең
өязенә
բաց
շտեմարան
տվյալների
،
ا
اوپن
ب
ت
ج
ح
د
ذ
ر
ز
س
ش
ص
ع
ف
فارم
ق
ك
ل
م
ن
ه
و
ي
ٌ
َ
ُ
ِ
ّ
ْ
ٓ
ٔ
ٕ
ٰ
پلیٹ
ڈیٹا
ं
ः
क
ग
च
ज
ण
त
द
ध
न
प
ब
म
य
र
ल
व
श
ष
स
ह
ा
ि
ी
ु
ू
ृ
े
ै
ो
्
ॐ
া
্
க
ட
த
ப
ம
ய
ர
ல
ா
ி
ு
ே
ை
்
്
་
მონაცემები
პლატფორმა
ღია
악보
장
찬양듣기
통일찬송가
ា
្
ᴋ
ᴎ
ᴙ
ᴛ
ᴦ
ᴨ
ᴫ
ᴫе
​
‌
‎
‐
‑
–
—
―
‘
’
“
”
„
†
•
…
′
″
›
⁡
ℏ
№
↑
→
↔
↷
∂
∇
∑
−
∞
∫
∼
≈
⋅
③
④
⑦
◆
☸
⟨
⟩
⺀
⺄
⺆
⺈
⺊
⺌
⺕
⺝
⺸
⺼
⿰
⿱
⿲
⿳
⿴
⿵
⿶
⿷
⿸
⿹
⿺
⿻
〢
い
お
か
し
て
と
の
゙
゚
イ
コ
サ
シ
セ
タ
ッ
テ
ト
フ
ヘ
ホ
ム
ユ
ラ
ン
・
ー
㇁
㇂
㇄
㇇
㇈
㇉
㇓
㐁
㐄
㐅
㐌
㐫
㐬
㐭
㐮
㐱
㑒
㒵
㒸
㒼
㓁
㓞
㔾
㕛
㕣
㖾
㘝
㚅
㚇
㚔
㚘
㝉
㝡
㝴
㝵
㞋
㞢
㞷
㠩
㠭
㠯
㡀
㡭
㡿
㢲
㢴
㣇
㣺
㥯
㪅
㫄
㫐
㫒
㫺
㬅
㬎
㬥
㬰
㲋
㳄
㷠
㸒
㸚
㸦
㼌
㼲
㽞
㿟
䀠
䂞
䍃
䏍
䒑
䖍
䖒
䖝
䖵
䙴
䚻
䜌
䝿
䡛
䧹
䪞
一
丁
丂
七
丄
丅
丆
万
丈
三
上
下
丌
不
与
丏
丐
丑
专
且
丕
世
丘
丙
业
东
丞
丢
丣
两
严
並
丨
丩
个
丫
丬
中
丮
丰
丱
串
丵
丶
丷
丸
丹
为
主
丽
丿
乀
乂
乃
久
乆
乇
么
义
之
乌
乍
乎
乏
乐
乑
乔
乖
乗
乘
乙
乚
乛
乜
九
乞
也
习
乡
乳
乾
亀
亅
了
亇
予
争
事
二
亍
于
亏
亐
云
互
亓
五
井
亘
亚
亜
亞
亟
亠
亡
亢
交
亥
亦
产
亨
亩
享
京
亭
亮
亯
亰
亲
亳
亶
亷
人
亻
亼
亾
仁
今
介
仌
从
仐
仑
仒
仓
仕
他
付
仝
代
令
以
任
企
伊
伏
伐
休
会
伯
但
位
住
佐
何
佘
余
作
佥
使
來
侈
侌
侖
侯
侵
便
保
俞
信
修
倉
倍
候
倠
備
僉
僕
儿
兀
允
兂
元
兄
充
兆
兇
先
光
兊
克
兌
免
兑
兒
兓
兔
党
兜
兟
入
全
兩
兪
八
公
六
兮
兰
共
关
兵
其
具
典
兹
兼
冀
冂
冃
冄
内
冈
冉
冊
冋
册
再
冎
冏
冐
冒
冓
冖
冗
冘
军
农
冝
冡
冥
冫
冬
冷
几
凡
凢
凵
凶
凷
凸
凹
出
函
凾
刀
刁
刂
刃
刄
刅
分
切
刍
刑
刕
刖
列
刘
则
初
別
利
别
到
制
刺
則
削
剌
前
剡
剽
劉
力
功
加
劦
助
劫
劳
劵
勃
勇
勉
勒
動
務
勞
勤
勹
勺
勻
勾
勿
匀
匂
包
匆
匈
匊
匋
匍
匕
化
北
匚
匝
匡
匪
匱
匸
匹
区
医
匽
匿
區
十
卂
千
卄
卅
卆
升
午
卉
半
卌
华
卑
卒
卓
单
卖
南
卜
卝
卞
占
卡
卢
卣
卤
卦
卩
卪
卬
卯
印
危
即
却
卵
卷
卸
卻
厂
厃
厄
历
厈
厉
厌
厓
厘
厚
原
厤
厥
厨
厭
厲
厶
厷
厸
去
厼
厽
叀
参
參
叅
又
叉
及
友
双
反
叐
发
叒
叔
叕
取
受
变
叚
叜
叟
口
古
句
另
叩
只
召
可
台
叱
史
右
叵
号
司
叹
吂
各
吅
合
吉
吊
吋
同
名
后
吏
向
吕
君
吝
吞
否
含
启
吳
吴
吹
吾
呂
呆
呈
告
员
呙
周
命
咅
和
咎
咠
咢
咨
咸
咼
哀
品
哉
員
哥
哲
唐
商
啇
問
啚
啬
啻
善
喜
喬
單
喿
嗇
嘉
噩
嚴
囊
囗
囘
囙
囚
四
回
囟
因
囧
囬
困
囱
囷
固
国
圂
圅
國
圍
圓
土
圡
圣
圥
在
圭
地
圶
圼
坐
坒
坚
坴
垂
垔
垚
埀
埋
城
埶
執
培
基
埼
堂
堅
堆
堇
堯
報
塞
墨
壘
士
壬
壯
声
壳
壴
壹
壺
壽
夂
处
夅
夆
备
夊
夋
夌
复
夏
夒
夕
外
夗
夘
多
夜
夢
大
夨
天
太
夫
夬
夭
央
失
夲
头
夷
夸
夹
夻
夾
奂
奄
奇
奈
奉
奎
奏
奐
契
奓
奔
奚
奞
奠
奢
奥
奭
女
奴
奻
好
如
妄
妙
妟
妥
妻
妾
姑
委
姜
威
娄
婁
婴
嬰
嬴
子
孑
孔
孕
孖
字
存
孚
孛
孝
孟
季
孤
学
孫
孱
學
宀
宁
宂
它
宅
宇
守
安
宋
完
宏
宓
宗
官
定
宛
宜
宝
客
宣
室
宮
宰
害
家
容
宾
宿
寄
寅
密
富
寒
察
寧
審
寫
寬
寮
寸
对
寺
寻
寽
対
寿
封
尃
射
将
將
專
尉
尊
尋
尌
對
小
少
尒
尓
尔
尖
尗
尚
尞
尢
尣
尤
尧
尨
尭
就
尸
尹
尺
尻
尼
尽
尾
尿
局
居
屈
屋
屎
屏
屑
展
屖
屚
属
屠
屡
屬
屮
屯
屰
山
屵
屾
岁
岂
岑
岡
岩
岳
岸
峯
島
崇
崎
崑
崔
崖
崙
崩
嵬
嶲
巂
巛
川
州
巟
巠
巢
巤
工
左
巧
巨
巩
巫
差
己
已
巳
巴
巷
巸
巽
巾
巿
帀
市
布
希
帚
帛
帝
带
師
席
帯
帶
常
干
平
年
幵
并
幷
幸
幺
幻
幼
幽
幾
广
広
庄
床
底
店
庚
府
度
庫
庭
庶
康
庸
廉
廌
廛
廣
廩
廴
延
廷
建
廾
廿
开
弁
弃
弄
弇
弋
式
弓
弔
引
弗
弘
弜
弟
弥
弦
弱
張
強
强
彊
彌
彎
彐
彑
当
彔
录
彖
彗
彡
形
彥
彦
彧
彭
彳
役
彼
往
待
律
徒
得
徙
從
復
微
徵
心
忄
必
忌
忍
志
忝
忠
忩
快
念
忽
忿
思
怠
急
性
怱
恆
恒
恩
恭
息
悉
患
悤
悲
悶
情
惠
惡
惢
愁
愈
意
愛
感
慈
慧
慮
憂
憲
應
戀
戈
戉
戊
戋
戌
戍
戎
成
我
戒
戔
或
戚
戠
戢
截
戲
戶
户
戹
戼
戾
房
所
扁
扇
手
扌
才
打
托
执
承
折
拉
拜
拿
据
掌
推
提
摩
支
攴
攵
收
攸
改
放
政
敄
敏
敕
敖
敗
敝
敞
敢
散
敦
敫
敬
数
敷
數
斂
文
斉
斊
斗
斤
斥
斩
斬
斯
新
方
於
施
斿
旁
旋
族
无
旡
既
旣
日
旦
旧
旨
早
旬
旱
旲
时
旾
昆
昇
昌
昍
明
昏
易
昔
昗
昜
星
春
昬
是
昱
昴
昷
時
晃
晋
晏
普
景
晶
智
暑
暴
曇
曩
曰
曲
曳
更
曷
書
曹
曼
曾
替
最
朁
會
月
有
朋
服
朔
朕
朗
望
朝
木
朩
未
末
本
札
朮
术
朱
朵
朶
朿
杀
杏
村
杜
束
条
来
東
杲
杳
松
析
林
枚
果
枝
枲
枼
某
柔
查
柬
柰
柴
査
栗
样
桀
桑
桼
梁
條
梟
梨
棘
棠
棥
森
植
楚
楠
業
楽
概
榮
樂
樊
欠
次
欣
欮
欲
欶
欽
款
歆
歇
歛
止
正
此
步
武
歨
歪
歮
歯
歰
歲
歴
歷
歸
歹
歺
死
殳
段
殷
殸
殹
殺
殻
殿
毋
毌
母
毎
每
毒
比
毕
毚
毛
毳
氏
氐
民
气
氣
水
氵
氶
氷
永
氺
氾
求
汝
汞
江
沃
沓
沙
沝
泉
法
波
泣
泥
泰
洛
洪
活
派
流
浦
浪
浮
淡
淮
清
渚
渠
湯
源
滿
漸
火
灬
灭
灰
灵
灷
炅
炎
炏
炗
炙
炭
為
烈
烏
烝
焉
無
焦
焱
然
煞
熊
熏
燕
營
燮
爪
爫
爭
爯
爰
爱
爲
爵
父
爻
爽
爾
爿
片
版
牙
牚
牛
牜
牟
牢
牧
物
牪
牽
犀
犬
犭
犮
狂
狄
狊
独
狺
猋
猒
猪
献
獻
玄
率
玉
王
玟
玨
珎
班
球
琴
瑟
瑩
瓜
瓦
甘
甚
生
産
用
甫
甬
田
由
甲
申
电
甶
男
甸
甹
町
画
甾
畀
界
畏
畐
留
畜
畟
畢
畧
畨
番
畫
異
畱
當
畺
畾
疊
疋
疌
疑
疒
疾
癶
癸
癹
登
發
白
百
皀
皃
的
皆
皇
皋
皐
皕
皮
皷
皿
盃
盆
盇
盈
益
盍
盎
监
盒
盖
盛
盡
監
盤
盧
目
直
相
盾
省
眇
眉
看
県
眔
眞
真
眷
眼
眾
着
睘
睪
睿
瞏
瞢
瞿
矍
矛
矞
矢
矣
知
矦
短
石
破
碎
磊
磨
示
礻
礼
神
祟
票
祭
禀
禁
福
禸
禹
禺
离
禽
禾
禿
秀
秃
秉
秋
种
科
秝
秦
移
稟
穀
穌
穴
究
穹
空
穿
突
窄
窒
立
竒
竜
竝
竟
章
童
竹
笑
笠
第
筆
等
答
箕
算
管
箴
節
篤
篭
米
粉
粛
粟
粤
粦
粲
糞
糸
糹
系
約
納
素
索
紫
累
細
絜
絫
統
絲
維
綿
縣
繇
纍
纟
维
编
缶
网
罒
罔
罕
罗
罙
罡
罢
罪
署
罷
羅
羊
羌
羍
美
羔
羕
羗
羞
羡
羣
群
義
羲
羸
羽
翁
翏
習
翕
翟
翠
翼
老
耂
考
者
耆
而
耎
耑
耒
耳
耴
耶
耷
聂
聊
聖
聚
聶
聿
肀
肃
肅
肉
肖
肙
肥
肩
肯
育
肴
胁
胃
背
胡
胥
能
脊
脩
膚
臣
臤
臧
自
臬
臭
臯
臱
至
致
臺
臼
臽
臾
臿
舀
舂
舄
與
興
舉
舌
舍
舛
舜
舞
舟
般
艮
良
色
艸
艹
艾
芒
芔
芬
芮
花
芳
芺
芻
苔
苗
苟
若
苦
英
茨
茶
茸
荅
草
荒
荣
荼
莆
莧
莫
莳
莽
菆
菊
菐
華
萬
落
葉
著
葛
董
葵
蒙
蒦
蒼
蓋
蓬
蓺
蔑
蔡
蕉
蕭
薄
薛
薦
薰
藍
藏
藤
藥
蘭
虍
虎
虐
虒
虔
處
虖
虗
虘
虚
虛
虜
虞
虫
虽
蚤
蚩
蜀
蜜
蟲
蠡
血
行
衍
衛
衣
衤
表
衮
衰
袁
袞
裕
褭
褱
襄
襾
西
覀
要
覃
見
規
覓
覧
親
覽
见
角
解
言
訁
訇
計
詹
誩
課
調
諸
讠
谷
豆
豈
豊
豐
豕
豖
豙
象
豦
豩
豪
豸
貇
貝
貞
貟
負
貢
貧
貪
貫
責
貳
貴
買
費
賁
資
賈
賏
賓
賔
賛
賞
賢
賣
質
賴
贊
贝
贡
责
贯
贲
贵
赖
赞
赤
赦
走
趁
越
足
路
蹇
身
躬
車
軍
軎
軟
輦
车
辛
辜
辟
辥
辰
辱
農
辵
辶
边
达
过
近
连
迷
追
退
送
逆
逐
通
速
造
逢
連
逮
進
遀
遂
過
道
達
遣
適
遷
遺
邊
邑
邕
那
邦
邪
郎
部
郭
都
鄉
酉
酋
配
酓
釆
采
里
重
野
量
金
釒
錢
钅
長
镸
长
門
閃
閉
開
閏
閑
閒
間
閔
閵
閻
闌
门
间
闷
阑
阜
阝
阪
阿
降
陳
隆
隊
隋
隡
隨
隱
隶
隹
隺
隻
隼
隽
难
雀
雁
集
雈
雋
雍
雐
雔
雙
雚
雜
雝
離
難
雨
雩
雪
雲
零
雷
需
霍
霜
霝
霞
霸
靈
靑
青
非
靡
面
靣
革
韋
韦
韭
韯
韱
音
頁
頃
項
須
頗
頡
頻
顛
页
風
风
飛
飞
食
飠
養
饣
首
香
馬
馮
駦
马
骨
高
髟
鬥
鬯
鬲
鬼
魚
魯
鮮
鱼
鲁
鳥
鳳
鸟
鹵
鹿
麃
麗
麥
麦
麻
黃
黄
黍
黎
黑
黒
黨
黹
黽
黾
鼎
鼓
鼠
鼻
齊
齋
齐
齒
齿
龍
龙
龜
龟
龠
龰
龱
龴
龵
龶
龷
龸
龹
者
艹
ﺎ
（
）
／
？
｜
�
𠀁
𠀃
𠀆
𠀉
𠀎
𠀐
𠁁
𠁣
𠂆
𠂇
𠂈
𠂉
𠂊
𠂋
𠂎
𠂒
𠂔
𠂛
𠂡
𠂢
𠂤
𠂬
𠂭
𠂹
𠃊
𠃋
𠃌
𠃍
𠃎
𠃑
𠃓
𠃔
𠃜
𠄌
𠄎
𠄠
𠄢
𠆢
𠆥
𠇍
𠈌
𠌵
𠓜
𠔉
𠔥
𠔼
𠔽
𠔿
𠕀
𠕁
𠕋
𠘧
𠘨
𠙻
𠙼
𠚏
𠚒
𠚤
𠚪
𠣏
𠤎
𠤕
𠥓
𠦄
𠦑
𠦝
𠧒
𠧗
𠧪
𠩺
𠪚
𠫓
𠫔
𠫤
𠬛
𠬝
𠬞
𠬢
𠬤
𠬶
𠮛
𠮦
𠮷
𠯑
𠱠
𠳮
𠷎
𡈼
𡉀
𡉵
𡌥
𡍮
𡏳
𡕒
𡕩
𡕰
𡖅
𡗗
𡗜
𡘆
𡘤
𡧱
𡨄
𡩧
𡬠
𡭽
𡰣
𡰥
𡰪
𡰯
𡰱
𡷈
𡸁
𡿨
𡿩
𡿪
𡿺
𢀖
𢀛
𢀩
𢁙
𢆉
𢆰
𢆶
𢇁
𢇇
𢉖
𢌬
𢌿
𢏚
𢑑
𢑚
𢖻
𢙣
𢛳
𢦏
𢦒
𢧵
𢼄
𢾕
𣁋
𣄼
𣅀
𣅽
𣍘
𣎳
𣎵
𣏋
𣏼
𣗥
𣥂
𣥖
𣦵
𣦼
𣧄
𣪊
𣪠
𣬉
𣳾
𣶒
𤇾
𤊽
𤐫
𤓰
𤔔
𤕨
𤣩
𤰇
𤰔
𤰞
𤴓
𤴔
𤽄
𥁑
𥁕
𥃦
𥃩
𥃭
𥇡
𥑟
𥘅
𥘈
𥝢
𥫗
𥱡
𦈢
𦉪
𦉬
𦉼
𦍌
𦍒
𦎧
𦐇
𦓔
𦔮
𦘒
𦙃
𦚏
𦣝
𦣞
𦣻
𦥑
𦥔
𦥯
𦨉
𦭝
𦰩
𧆞
𧈧
𧘇
𧰨
𧴪
𧴮
𧵩
𧾷
𨸏
𨾴
𩙿
𩠐
𩫏
𩵋
𪉷
𪜀
𪟽
𪠲
𪩲
𫇦
𫔭
𫜸
𫝀
𫠣
𫠩
𫢉
𫥞
𫩏
𫩠
𫪡
𫲽
𫶧
𬀷
𬐘
𬗌
𬙙
𬛸
𬜯
𬟩
𬯁
𬴘
𬺻
𬼉
𬼖
𭀰
𭁈
𭁨
𭅰
𭑈
𭕄
𭗼
𭤨
𭥫
𭻾
𮅕
𮊿
𮍌
𮍏
𮓗
𮥼
𮧮
廾
𰀁
𰀄
𰀈
𰀉
𰀕
𰀠
𰀡
𰀢
𰀪
𰁜
𰃮
𰆊
𰆘
𰋙
𰕎
𰢴
𰧭
𰯲
000--
001--
002--
003--
004--
008--
009--
01--
010--
011--
011212--
012--
012414--
013--
016--
02--
0208--
0208113--
0208114--
022--
02301--
0230157--
0230158--
0230159--
0230160--
0230161--
02321--
0232163--
0232166--
025--
03--
0302--
0302101--
0302102--
0302103--
0302104--
03161--
04--
040--
042--
042214--
042815--
05--
050--
05101--
05261--
0526153--
054--
055--
06--
0606--
0606110--
060611003--
060611109--
0606112--
07--
07141--
07142--
0714270--
0714271--
071427103--
0714273--
071427306--
08--
09--
108--
110--
112--
113--
120--
135--
152--
157--
2011--
208--
229--
243--
290--
38--
39--
40--
41--
42--
423--
43--
44--
45--
453--
46--
47--
48--
49--
50--
51--
52--
53--
5395--
5399--
54--
55--
5587--
56--
5647--
5648--
5653--
5656--
57--
5748--
58--
5892--
59--
5967--
60--
61--
62--
63--
64--
65--
66--
6661--
6668--
67--
68--
69--
70--
71--
72--
73--
74--
75--
76--
77--
78--
79--
80--
81--
82--
83--
84--
85--
86--
87--
88--
89--
8988--
90--
91--
92--
93--
94--
95--
96--
97--
98--
99--
a--
aa--
ab--
ac--
accu--
acti--
ad--
adhe--
afr--
ag--
air--
ak--
aka--
al--
am--
an--
ap--
aq--
ar--
as--
ası--
at--
attach--
au--
aust--
av--
avi--
awa--
ay--
az--
b--
ba--
bar--
be--
bel--
ber--
bi--
biog--
bl--
bo--
br--
bu--
c--
ca--
cam--
can--
car--
cat--
ce--
ch--
cha--
chri--
ci--
co--
col--
com--
compo--
con--
cor--
cou--
cre--
cri--
crite--
cro--
cu--
cı--
d--
da--
de--
des--
determ--
di--
differ--
dis--
do--
docu--
dr--
du--
dyna--
e--
eb--
ec--
econo--
ed--
edu--
ef--
ek--
el--
elec--
em--
empi--
en--
eng--
environ--
ep--
er--
es--
et--
eto--
eu--
ex--
expl--
f--
fa--
fe--
fi--
fin--
fo--
for--
fr--
fu--
g--
ga--
gal--
ge--
go--
gra--
gre--
gu--
h--
ha--
habi--
har--
he--
hi--
hist--
hl--
ho--
hr--
hu--
hy--
i--
ic--
id--
il--
im--
in--
indi--
indo--
indu--
infr--
ing--
inhi--
inter--
invest--
ir--
is--
it--
j--
ja--
je--
jo--
jume--
k--
ka--
kara--
ke--
ki--
ko--
kom--
kr--
ku--
l--
la--
lau--
le--
lho--
li--
lo--
loc--
lu--
ly--
m--
ma--
mag--
mar--
me--
mes--
mi--
mil--
mis--
mo--
mon--
mor--
mos--
mu--
my--
n--
na--
nb--
ne--
neu--
ni--
no--
nu--
o--
oc--
od--
ol--
oli--
ome--
on--
or--
org--
ori--
os--
out--
p--
pa--
pe--
per--
ph--
phy--
pi--
pl--
po--
pol--
poli--
por--
pr--
pre--
prin--
pro--
pu--
q--
qa--
qay--
qu--
qua--
qul--
qı--
r--
ra--
re--
ri--
rke--
ro--
rt--
ru--
s--
sa--
sach--
san--
saq--
sch--
se--
ser--
sh--
si--
sig--
slov--
so--
sou--
spa--
spe--
spec--
spi--
spo--
st--
sta--
ste--
stu--
su--
super--
swa--
sy--
sym--
t--
ta--
tar--
tat--
te--
tel--
tem--
ter--
term--
th--
ti--
to--
tou--
tr--
tra--
trans--
tri--
tu--
tı--
u--
uk--
ukra--
ul--
un--
univer--
up--
ur--
us--
v--
va--
val--
ve--
vi--
vil--
vo--
w--
wa--
waqıt--
we--
whi--
wil--
win--
wo--
wu--
x--
xa--
xi--
xx--
y--
ya--
yan--
yaq--
yen--
yo--
yu--
z--
za--
ze--
ı--
ın--
ıq--
ə--
а--
аб--
ав--
ава--
аваз--
авиа--
авто--
аг--
ага--
агач--
агы--
ад--
адво--
ады--
ае--
аер--
аерыл--
аж--
аз--
аза--
аи--
ак--
акъ--
ал--
ала--
але--
алек--
алес--
алж--
али--
алу--
алы--
алыш--
аль--
ам--
ан--
ана--
анг--
андр--
антро--
ап--
ар--
ара--
аре--
арсла--
арт--
архео--
архитек--
ас--
аспек--
аспиран--
асси--
аст--
асы--
асыл--
ат--
ата--
аты--
ау--
аур--
афа--
ах--
ахыр--
ач--
ачы--
ачык--
аш--
аша--
ашам--
ашы--
аэро--
аяк--
аң--
аңлат--
б--
ба--
баб--
баба--
баг--
багана--
багыш--
бае--
баз--
бак--
бал--
бала--
бан--
бар--
бат--
баталь--
бау--
баш--
башкир--
бе--
бел--
бель--
бен--
бене--
бер--
берке--
берь--
бес--
бет--
бетер--
би--
биз--
бизәк--
бик--
бил--
билгелә--
био--
бир--
биш--
бию--
бла--
бло--
бо--
боб--
бог--
бод--
боз--
бол--
больц--
большевик--
бон--
бор--
бос--
бот--
боҗ--
бр--
бра--
бре--
бри--
бу--
буд--
бул--
булга--
булыш--
бур--
бурыч--
буш--
бхага--
бы--
бю--
бял--
бү--
бүл--
бүлмә--
бә--
бәр--
бәхәс--
бәя--
бәял--
бө--
бөр--
в--
ва--
ваг--
вази--
вак--
вал--
вар--
вари--
варша--
вас--
ве--
вели--
вен--
вене--
вер--
верх--
вз--
ви--
виз--
вики--
википе--
вил--
виль--
вин--
вир--
вирус--
вис--
вит--
виш--
вла--
влади--
внут--
во--
вое--
воен--
воз--
вок--
вол--
волж--
воль--
воп--
воспо--
восточ--
вре--
все--
вто--
ву--
вул--
вулыс--
вы--
высо--
выстав--
вь--
вяли--
вә--
вәкалә--
г--
га--
габ--
габдел--
гав--
гаври--
гадә--
гаеп--
газ--
гал--
гам--
гамәл--
ган--
гар--
гари--
гастроль--
гау--
гаф--
гва--
ге--
ген--
гене--
гео--
гер--
ги--
гил--
гимн--
гипер--
гит--
гл--
гла--
глав--
глу--
го--
гол--
гон--
гор--
гос--
государ--
гра--
грав--
граж--
граждан--
грамм--
граф--
гре--
гри--
гро--
гру--
гу--
губер--
гур--
гы--
гү--
гә--
гәү--
гө--
гөл--
д--
да--
давы--
даи--
дан--
дар--
дв--
де--
дев--
деко--
дея--
дж--
дже--
ди--
диаг--
див--
дивар--
дин--
дири--
дис--
дми--
до--
док--
доку--
дол--
дон--
др--
дра--
древ--
ду--
дуб--
дул--
дур--
дус--
духов--
дуң--
ды--
дэ--
дю--
дә--
дәва--
дө--
е--
ев--
евра--
евро--
его--
ел--
ен--
епи--
ер--
еш--
ж--
жанр--
же--
женщ--
жи--
жир--
жо--
жу--
журав--
журнал--
з--
за--
заг--
зал--
зам--
зарар--
зат--
заха--
заһ--
заһи--
зе--
зем--
земс--
ззәтул--
зи--
зин--
зна--
золо--
зу--
зул--
зур--
зөл--
и--
ив--
иве--
иг--
идр--
иж--
из--
ил--
илаһ--
иле--
иль--
им--
ин--
индус--
инспе--
инстру--
инте--
ио--
ип--
иптәш--
ир--
ире--
ис--
иск--
искус--
ист--
историче--
ит--
их--
ихти--
иш--
ише--
ия--
ияр--
к--
ка--
каб--
каз--
кал--
каль--
кам--
кан--
кап--
капи--
кар--
кара--
картин--
кас--
каст--
кастел--
кат--
ках--
кач--
каш--
каһ--
каһар--
каһарман--
кв--
ке--
кел--
кем--
кен--
кер--
ки--
киме--
кин--
кино--
кип--
кир--
кис--
кисәк--
кит--
кич--
кичер--
киш--
кл--
кла--
клас--
класс--
кли--
кло--
кн--
ко--
код--
коз--
кол--
коллег--
колон--
ком--
кон--
консервато--
конт--
конфе--
конференц--
концепц--
конъюнк--
координ--
кор--
кораб--
корт--
косц--
кот--
кош--
кра--
крас--
красно--
кре--
кри--
кро--
кру--
круп--
кры--
ку--
куз--
кузь--
кул--
кулъ--
куль--
кун--
кунак--
кур--
курс--
кут--
куш--
кушыл--
куыш--
куәт--
кх--
кы--
кыз--
кыл--
кыр--
кыч--
кье--
кү--
күз--
күзә--
күк--
күл--
күмел--
күп--
күр--
күре--
күрен--
күрсә--
күрсәт--
күрсәткеч--
күтәрел--
күч--
күче--
кә--
кәл--
кәр--
кө--
көл--
көтү--
көч--
л--
ла--
лав--
лаз--
лакш--
лам--
лан--
лау--
лаш--
ле--
леген--
лек--
лен--
лес--
ли--
лид--
лим--
лин--
лингв--
лип--
литер--
лич--
ло--
лоз--
лу--
лук--
лун--
луч--
лы--
лык--
ль--
лю--
ля--
лә--
лән--
ләш--
м--
ма--
мавы--
маг--
магист--
маз--
мазо--
мак--
маке--
мал--
ман--
мар--
мари--
мас--
мате--
матери--
маха--
мач--
маң--
маһ--
ме--
мед--
меди--
медицин--
меж--
между--
мел--
мель--
мен--
мер--
мес--
мето--
меңь--
ми--
мик--
микро--
мил--
мин--
мир--
мис--
миф--
мифолог--
мих--
мич--
миш--
миң--
миңне--
ммә--
мо--
мог--
мож--
мон--
мону--
мор--
морт--
москов--
мост--
мох--
моң--
му--
мул--
мун--
мур--
муск--
мускул--
мы--
мә--
мәгъ--
мәк--
мәр--
мәсь--
мәҗ--
мәһ--
мө--
мөгез--
мөхтә--
мөһа--
н--
на--
наг--
награ--
наз--
наза--
напо--
нар--
народ--
нас--
нахчы--
наци--
наш--
не--
нев--
нек--
нет--
неф--
нефте--
ни--
нигъмә--
ниж--
ник--
но--
ново--
нок--
нор--
ну--
нул--
нур--
ны--
ныгы--
ныгыт--
нык--
ныф--
нью--
нә--
нәҗ--
о--
об--
образ--
обще--
ог--
од--
оешты--
оз--
ок--
ол--
ола--
оли--
олим--
олы--
оль--
ом--
омты--
он--
оп--
ор--
орбит--
ори--
ос--
осм--
оста--
от--
отече--
отк--
отря--
отряд--
офиц--
официа--
офталь--
ох--
оч--
очра--
очрак--
ош--
п--
па--
пав--
пал--
пан--
пар--
пас--
пато--
паш--
пе--
пен--
пер--
перво--
перифе--
петро--
пех--
пеш--
пи--
пин--
писа--
пись--
пла--
пле--
по--
под--
позиц--
пок--
пол--
политех--
политиче--
пос--
пост--
пот--
потенц--
поч--
поэ--
пра--
правас--
правитель--
празд--
прак--
пре--
пред--
предвари--
председа--
прези--
препар--
префек--
при--
принцип--
про--
проб--
проблем--
пров--
прог--
продук--
продукц--
продю--
производ--
прос--
проце--
процес--
псев--
психо--
пу--
пуга--
пул--
пуш--
пы--
пыч--
пыш--
пье--
пья--
пя--
р--
ра--
раб--
рад--
радио--
раз--
разв--
рал--
рам--
ран--
рап--
рас--
расла--
рах--
раш--
ре--
рев--
рег--
рез--
репер--
рет--
рефе--
реше--
ри--
риф--
риш--
ро--
роб--
род--
рос--
ру--
руд--
рус--
рух--
ры--
рыб--
рь--
рә--
рәт--
рәх--
с--
са--
саби--
сав--
саз--
сак--
сал--
сам--
само--
сан--
сар--
сас--
сат--
саф--
св--
све--
свет--
своб--
се--
сев--
север--
сед--
сел--
сель--
сер--
сең--
си--
сиб--
сиг--
сиз--
сил--
сим--
симво--
симптом--
син--
сит--
ск--
скульп--
сла--
сле--
сли--
слоб--
см--
сме--
со--
соб--
совре--
современ--
соз--
сок--
сол--
сор--
сос--
соц--
социалистиче--
социо--
спек--
спектак--
спи--
спо--
ст--
стад--
стади--
сте--
стена--
сто--
сту--
студия--
су--
суб--
субъек--
суво--
сузы--
сул--
сум--
супер--
сурәт--
схе--
съез--
сы--
сыз--
сын--
сыр--
сың--
сю--
сү--
сүз--
сә--
сәлим--
сәр--
сө--
сөн--
сөр--
сөя--
сөяк--
т--
та--
таб--
таби--
тав--
так--
тал--
тала--
там--
тамыр--
тан--
тапшырыл--
тар--
тармак--
тасвир--
тат--
таш--
таң--
тв--
творче--
те--
тез--
тел--
теле--
тема--
тен--
тер--
тех--
теш--
ти--
тик--
тимер--
тир--
тиф--
тих--
тиш--
то--
токы--
тол--
том--
топ--
тор--
тот--
тр--
тра--
традиц--
трак--
транс--
тре--
три--
тро--
тру--
труп--
ту--
тубер--
туг--
тугъры--
тук--
тул--
тумыш--
тун--
туп--
тур--
ты--
тык--
тыл--
тыр--
тыш--
тың--
ть--
тюмен--
тюр--
тү--
түбә--
тә--
тәгаен--
тәл--
тәм--
тәхет--
тәң--
тө--
төбе--
төзеклән--
төзә--
төп--
төр--
төрмә--
төс--
төш--
төшер--
у--
уг--
уен--
уз--
ук--
уку--
укы--
ул--
уль--
ун--
универ--
ур--
ураль--
урнаш--
урта--
урыс--
ус--
уст--
ут--
уты--
утыр--
ух--
уч--
уча--
уче--
уш--
уң--
ф--
фа--
фак--
фактор--
фант--
фар--
фат--
фе--
фельд--
фер--
фи--
физ--
филармон--
фили--
фин--
фир--
фла--
фло--
фо--
фон--
фор--
фос--
фото--
фр--
фран--
фре--
фу--
фунда--
фур--
фә--
фәр--
фәри--
фәт--
фәхрет--
х--
ха--
хак--
хали--
хан--
хар--
хас--
хаста--
хат--
хе--
хел--
хи--
хис--
хо--
хол--
хра--
ху--
художе--
хы--
хыял--
хә--
хәл--
хәм--
хәми--
хәреф--
хөс--
ц--
це--
цер--
цик--
цир--
ч--
ча--
чагыл--
чагыш--
чал--
чам--
чап--
чар--
чаң--
че--
чел--
чем--
чемпи--
чемпиона--
чер--
чеш--
чи--
чик--
чим--
чин--
чир--
чис--
чол--
чор--
чу--
чуваш--
чук--
чур--
чы--
чын--
чүп--
чә--
чәч--
чәчә--
ш--
ша--
шаб--
шак--
шал--
шам--
шан--
шар--
шарт--
шат--
шах--
шаш--
шаһ--
ше--
шекс--
шеш--
ши--
шир--
шиш--
шо--
шу--
шул--
шы--
шүрә--
шә--
шәкер--
шәр--
шәри--
шәһ--
шөгыль--
щ--
ы--
ыру--
ысул--
ыш--
ышан--
э--
эз--
эк--
экв--
эконо--
экономиче--
экс--
экспедиц--
эксперимент--
эл--
электро--
эль--
эләк--
эн--
эпи--
эпо--
эр--
эре--
эс--
эт--
этап--
этно--
эффек--
эч--
эчтә--
эш--
эшмә--
ю--
юби--
юга--
югал--
юж--
юк--
юл--
юн--
юнәл--
юр--
я--
яб--
ябыл--
яг--
ягъф--
яз--
язы--
як--
якла--
яку--
ял--
яло--
ям--
ян--
яп--
яр--
ярым--
ярыш--
яса--
ят--
яул--
яфр--
ях--
яшә--
яңа--
җ--
җам--
җан--
җе--
җепсел--
җи--
җибәр--
җим--
җит--
җитеш--
җиң--
җиһ--
җиһаз--
җиһанш--
җы--
җые--
җыентык--
җыр--
җә--
җәза--
қ--
ү--
үз--
үзгә--
үзенч--
үзләш--
үл--
үлчә--
үр--
үрнә--
үрче--
үт--
үте--
үткә--
үткәр--
үтә--
һ--
һар--
һок--
һәр--
ә--
әб--
әверел--
әдип--
әз--
әл--
ән--
әни--
әр--
әс--
әсир--
әх--
әхла--
әхмә--
әңгә--
ө--
өе--
өз--
өк--
өл--
өр--
өреш--
өрә--
өсле--
өст--
өстә--
өч--
өяз--
ا--
--0
--00
--01
--012
--02
--022
--025
--03
--032
--04
--042
--05
--052
--055
--06
--062
--07
--072
--0764
--08
--082
--09
--095
--1
--10
--102
--1022
--1032
--1042
--1045
--1052
--1062
--11
--12
--13
--14
--15
--16
--17
--18
--19
--2
--20
--2035
--2042
--2062
--2072
--21
--22
--23
--24
--25
--26
--27
--28
--29
--3
--30
--3052
--31
--32
--33
--34
--35
--36
--37
--38
--39
--4
--40
--4022
--4045
--4052
--41
--42
--43
--44
--45
--46
--47
--48
--49
--5
--50
--5032
--5042
--5052
--5062
--51
--514
--52
--53
--54
--55
--56
--57
--58
--59
--6
--60
--6022
--6032
--6062
--6072
--6082
--61
--62
--63
--64
--65
--66
--67
--68
--69
--7
--70
--7022
--71
--72
--73
--74
--75
--76
--77
--78
--79
--794
--8
--80
--8045
--81
--814
--82
--83
--84
--85
--86
--87
--88
--89
--9
--90
--91
--92
--93
--94
--95
--959
--96
--97
--98
--99
--998
--a
--ag
--age
--ah
--ai
--ak
--al
--an
--ana
--ances
--ang
--antes
--ar
--ard
--ary
--as
--at
--ate
--ation
--ations
--au
--ay
--b
--burg
--c
--ca
--cal
--ce
--ces
--ch
--che
--ci
--ck
--co
--cs
--ct
--cts
--d
--da
--de
--di
--do
--ds
--dy
--e
--ec
--ed
--ek
--el
--ell
--em
--en
--ent
--er
--erase
--ere
--ers
--es
--et
--ev
--ey
--ez
--f
--fa
--ft
--g
--ga
--ge
--gen
--ger
--ges
--ght
--gi
--go
--gs
--h
--ha
--he
--hi
--ht
--i
--ia
--ial
--ian
--ic
--ica
--ical
--ics
--id
--ide
--ie
--ier
--ies
--if
--ig
--ii
--ik
--il
--ils
--in
--ina
--ing
--io
--ion
--ions
--ir
--ira
--ire
--is
--ist
--istry
--it
--ity
--ium
--ive
--ix
--j
--jo
--k
--ka
--ke
--ki
--ko
--ks
--ky
--l
--la
--lar
--ld
--le
--lf
--li
--lia
--lin
--lis
--ll
--lla
--lle
--lli
--lly
--lm
--lo
--logy
--ls
--ly
--lı
--lıg
--lıq
--m
--ma
--mal
--me
--mi
--mia
--mp
--ms
--n
--na
--nan
--nar
--nc
--nce
--nd
--nda
--nds
--ne
--ner
--ng
--nge
--ni
--nia
--nic
--nk
--nn
--no
--ns
--nt
--nts
--ny
--nı
--nın
--o
--od
--ol
--ology
--om
--on
--ons
--op
--or
--ory
--os
--ot
--ous
--ov
--p
--pe
--ps
--q
--r
--ra
--rd
--re
--rf
--rg
--ri
--rin
--rix
--rk
--rl
--rn
--ro
--rs
--rt
--ry
--rı
--s
--sa
--sc
--se
--sh
--si
--sia
--sian
--sion
--sis
--sk
--skrit
--ss
--st
--sy
--sı
--t
--ta
--tal
--tan
--te
--ted
--ter
--tes
--th
--ti
--tial
--tic
--tics
--ties
--tin
--ting
--tion
--tions
--tl
--to
--ton
--tor
--ts
--tt
--tte
--ty
--tz
--tı
--u
--ue
--ul
--ular
--ult
--um
--ung
--ur
--ure
--ury
--us
--ut
--ux
--v
--va
--ve
--vo
--w
--wa
--wn
--x
--y
--ya
--ys
--yı
--z
--ı
--ıla
--ım
--ın
--ıp
--ıs
--ıy
--ς
--а
--ав
--ава
--авы
--агы
--ад
--ада
--ады
--аев
--аи
--ак
--ал
--алар
--але
--алы
--аль
--альная
--ам
--ами
--амика
--ан
--ания
--ано
--анов
--ант
--ап
--ар
--ара
--ард
--арны
--аров
--ары
--арын
--ас
--асы
--асында
--ат
--ате
--атик
--ато
--аты
--ау
--аф
--ах
--ацион
--ация
--аш
--ая
--аһ
--б
--ба
--баев
--баи
--бан
--бах
--баш
--бе
--без
--би
--бикә
--бо
--бол
--бы
--быз
--быи
--бә
--в
--ва
--вар
--вая
--ве
--вен
--ви
--вии
--вилл
--вица
--вич
--виште
--вия
--вка
--вна
--во
--вр
--ву
--вуд
--вхоз
--вы
--вые
--выт
--г
--га
--гал
--ган
--гач
--ге
--гез
--ги
--гии
--гик
--гин
--гия
--го
--гов
--град
--граф
--гу
--гулов
--гуш
--гы
--гыз
--гын
--гә
--гән
--гәч
--д
--да
--даг
--дагы
--дан
--даш
--дашы
--де
--дев
--дение
--дер
--дж
--ди
--дии
--дия
--дка
--до
--дов
--дт
--ду
--ды
--дым
--дыр
--дь
--дә
--дәге
--дән
--дәш
--е
--еа
--ев
--ева
--евич
--евка
--евна
--ево
--еге
--ед
--еда
--еев
--ез
--езе
--еи
--ек
--ел
--еле
--ели
--елло
--ель
--елә
--ем
--ен
--ена
--ендә
--енең
--ение
--ении
--енко
--еннән
--ент
--ену
--енчә
--ены
--ень
--енә
--еп
--ер
--ера
--ергә
--ерү
--ес
--есе
--ет
--ето
--еты
--еф
--ец
--ецкии
--ець
--еч
--еш
--ешть
--ея
--ең
--ж
--жа
--же
--жи
--жо
--жы
--з
--за
--задә
--зан
--здат
--зе
--зен
--зи
--зия
--зм
--зо
--зов
--зы
--зыи
--зә
--и
--иаль
--иан
--иб
--ив
--иг
--ид
--ида
--ие
--иев
--иева
--изации
--изация
--изм
--измның
--ии
--ик
--ика
--ики
--ико
--ил
--иләр
--им
--имы
--ин
--ина
--инг
--ини
--ино
--ины
--ио
--ион
--ип
--ир
--ис
--ист
--ит
--ита
--итар
--итель
--иуллин
--иф
--иц
--ица
--ице
--иции
--иция
--ицкии
--ицы
--иця
--ич
--иш
--ия
--иядә
--ият
--ияте
--к
--ка
--касы
--кая
--ке
--кеч
--ки
--кии
--кин
--кка
--ккә
--клар
--кле
--клы
--кне
--ко
--ков
--кс
--кт
--кта
--ктә
--ку
--кув
--кции
--кция
--кы
--кі
--күләм
--кә
--кәи
--кән
--кәс
--кәч
--л
--ла
--лавы
--лам
--лан
--лана
--ланд
--ланды
--лану
--ланып
--лап
--лар
--ларга
--ларда
--лардан
--ларны
--ларның
--лары
--ларын
--ларында
--ларыннан
--ларының
--лау
--лаша
--лаштыру
--лаштырылган
--лашу
--лган
--лгән
--лд
--лде
--лды
--ле
--леге
--леген
--легендә
--легенә
--лек
--леккә
--лекләр
--лекләре
--лекне
--лектә
--леләр
--лен
--леп
--ли
--лик
--лин
--лия
--лл
--лла
--лле
--лли
--ллин
--ллина
--лло
--ллс
--ллы
--лмыи
--ло
--лог
--логии
--логик
--логия
--лон
--лс
--лт
--лу
--луы
--лы
--лыгы
--лыгын
--лыгына
--лыи
--лык
--лыкка
--лыкны
--лыктан
--лылар
--лып
--лыш
--лышы
--ль
--льд
--льная
--лья
--ля
--лү
--лә
--ләгән
--ләнде
--ләнә
--ләп
--ләр
--ләргә
--ләрдә
--ләрдән
--ләре
--ләрен
--ләрендә
--ләренең
--ләреннән
--ләренә
--ләрне
--ләрнең
--ләтә
--ләштерү
--ләү
--м
--ма
--маа
--ман
--мас
--масы
--мда
--ме
--меи
--ми
--мия
--млы
--мны
--мо
--мов
--му
--мы
--мыи
--мыш
--мье
--мә
--н
--на
--нан
--нар
--нарда
--нардан
--нарны
--нарның
--нары
--нарын
--ная
--нг
--нга
--нге
--нд
--нда
--ндагы
--ндия
--ндә
--ндәге
--не
--нем
--нец
--нең
--ни
--ние
--нии
--нин
--ница
--ния
--нка
--нки
--нко
--нлы
--нн
--ннан
--ннар
--нная
--нного
--нные
--нныи
--ннән
--ннәр
--но
--нов
--нова
--новка
--ного
--ное
--нои
--ном
--ность
--нс
--нск
--нт
--нта
--нто
--ну
--нув
--нуово
--нц
--нца
--нция
--нцо
--нче
--ны
--ные
--ныи
--ным
--нып
--ных
--ның
--нь
--ньи
--ньо
--нья
--ня
--нә
--нән
--нәр
--нәргә
--нәрдә
--нәре
--нәрен
--нәрне
--о
--обы
--ов
--ова
--овец
--ович
--овка
--овна
--ово
--овск
--овы
--ог
--огия
--ого
--оград
--ография
--од
--одного
--ое
--оз
--оза
--ои
--ок
--ол
--оло
--олог
--ологик
--ология
--оль
--ом
--ома
--он
--оп
--ор
--оре
--оры
--ос
--оу
--оя
--п
--па
--пин
--пия
--пп
--пр
--пы
--р
--ра
--рак
--рам
--рг
--рга
--рган
--ргыч
--ргә
--рд
--рда
--рды
--ре
--рев
--рен
--реп
--рет
--ри
--рии
--рик
--рин
--рис
--рия
--рка
--рлану
--рлы
--рма
--рмыи
--рн
--рны
--рның
--ро
--рра
--рс
--рск
--рт
--рта
--рту
--ртү
--ртә
--ру
--рхен
--рчы
--ры
--рыла
--рылган
--рын
--рына
--рында
--рып
--рырга
--рыш
--рь
--рьевич
--ря
--рү
--рә
--рәк
--с
--са
--сар
--свилл
--се
--сез
--сен
--сендә
--сенең
--сенә
--сең
--си
--сия
--ск
--ска
--ская
--ски
--ские
--скии
--ским
--ских
--ско
--ского
--ское
--скои
--ском
--скә
--слав
--сня
--со
--сов
--сон
--сс
--ст
--ста
--стан
--сти
--стик
--сть
--су
--сы
--сыз
--сызлык
--сын
--сына
--сында
--сыннан
--сының
--сь
--ся
--сә
--т
--та
--тагы
--таль
--тан
--тау
--таш
--те
--тен
--тер
--ти
--тив
--тии
--тик
--тин
--тия
--тка
--тлар
--тли
--тлы
--тма
--тны
--то
--тов
--тор
--торы
--тс
--тт
--тта
--тто
--ту
--ты
--тык
--тыла
--тым
--тыр
--ть
--тү
--тә
--тәге
--тән
--у
--уа
--уб
--ув
--уга
--уд
--уда
--уз
--уи
--уктор
--укторы
--улла
--уллин
--уллина
--ум
--ума
--ун
--уп
--ур
--ура
--ург
--ус
--учы
--уш
--уы
--ф
--фа
--фии
--фия
--фыи
--фә
--х
--ха
--ханәсе
--хи
--хов
--хы
--ц
--ца
--це
--цев
--ци
--ции
--цин
--цион
--ция
--цк
--цкии
--цо
--цца
--ццо
--цы
--ць
--ця
--ч
--ча
--чак
--часы
--че
--чев
--челеге
--челек
--челәр
--челәре
--чесе
--ческие
--чи
--чин
--чка
--члы
--чная
--чу
--чы
--чык
--чылар
--чылык
--чысы
--чь
--чә
--чәк
--чән
--ш
--ша
--ше
--шев
--шен
--шеп
--шеһир
--ши
--шин
--шина
--шка
--шкан
--шле
--шлы
--шов
--шта
--ште
--штерү
--штыра
--штыру
--шть
--шу
--шуы
--шы
--шып
--шү
--шә
--ще
--ъ
--ы
--ые
--ыз
--ыи
--ык
--ыла
--ылу
--ылып
--ым
--ын
--ына
--ында
--ыннан
--ының
--ып
--ыр
--ырга
--ыру
--ыс
--ых
--ыч
--ыш
--ышы
--ыя
--ың
--ь
--ьга
--ье
--ьев
--ьи
--ьная
--ьно
--ьности
--ьо
--ьс
--ьск
--ью
--ья
--ьяно
--э
--эли
--ю
--я
--ягә
--ядә
--яле
--ян
--яне
--янең
--яно
--яр
--яс
--ясе
--ят
--яте
--і
--җ
--җа
--җан
--җанов
--җе
--җи
--җик
--җо
--җык
--ң
--ңне
--ү
--үгә
--үе
--үл
--үче
--һ
--һа
--һан
--һы
--ә
--әге
--әгә
--әдә
--әи
--әк
--әләр
--әләре
--әм
--ән
--әр
--әргә
--әре
--әс
--әсе
--әсендә
--әт
--әте
--әтле
--әф
--әя
--әү
--өи
--ا
--ى
