!
"
#
##0
##1
##10
##11
##12
##13
##14
##15
##16
##17
##18
##19
##2
##20
##21
##22
##23
##24
##25
##26
##27
##28
##29
##3
##30
##31
##32
##33
##34
##35
##36
##37
##38
##39
##4
##40
##41
##42
##43
##44
##45
##46
##47
##48
##49
##5
##50
##51
##52
##53
##54
##55
##56
##57
##58
##59
##6
##60
##61
##62
##63
##64
##65
##66
##67
##68
##69
##7
##70
##71
##72
##73
##74
##75
##76
##77
##78
##79
##8
##80
##81
##82
##83
##84
##85
##86
##87
##88
##89
##9
##90
##91
##92
##93
##94
##95
##96
##97
##98
##99
$
%
&
'
(
)
*
+
,
-
.
/
0
00
000
01
02
03
04
05
06
07
08
09
1
10
100
1000
1002
101
1011
102
1020
103
1030
1032
104
105
1051
106
1060
1066
107
1078
109
11
110
1103
111
112
113
1138
114
115
1150
1157
116
117
1170
1176
118
1185
119
1196
12
120
121
1212
1213
1214
12148
1218
1219
122
1225
1226
1228
123
1232
1233
1236
124
1243
125
1253
1254
126
1260
1268
127
1271
1273
128
1283
129
1291
13
130
1304
1308
131
1310
1312
1315
132
1323
133
1338
134
1342
1343
1349
135
1350
136
137
1377
138
1383
1388
139
1391
14
140
1402
1404
1405
141
1415
1416
1418
142
1425
143
1433
144
1440
1444
145
1451
1453
1457
146
1464
1465
147
1472
1475
1476
148
1481
1482
1483
149
1490
1492
1496
1497
1499
15
150
1500
1506
1509
151
1511
1513
1515
1516
1519
152
1520
1521
1522
1524
1525
1527
1529
153
1531
1536
1538
1539
154
1541
1546
1547
155
1550
1553
1554
1555
1558
1559
156
1562
1564
1565
1566
1567
1568
157
1575
1576
158
1580
1585
1589
159
16
160
1600
1601
1602
1603
1605
1606
161
1611
1612
1613
1616
1619
162
1620
1621
1622
1623
1626
163
1630
1632
1634
1635
1638
1639
164
1640
1643
1644
1645
1646
1647
1648
1649
165
1650
1651
1652
1653
1654
1655
1656
1657
1658
1659
166
1660
1661
1662
1663
1664
1665
1666
1667
1668
1669
167
1670
1671
1672
1673
1674
1675
1676
1677
1678
168
1680
1681
1682
1684
1685
1687
1688
1689
169
1690
1691
1692
1693
1694
1695
1696
1697
1698
1699
17
170
1700
1701
1702
1703
1704
1705
1706
1707
1708
1709
171
1710
1711
1712
1713
1714
1715
1716
1717
1718
1719
172
1720
1721
1723
1724
1725
1726
1727
1728
1729
173
1730
1731
1732
1733
1734
1735
1736
1737
174
1740
1741
1742
1744
1745
1746
1747
1748
1749
175
1750
1751
1752
1753
1754
1755
1756
1757
1758
1759
176
1760
1762
1763
1764
1765
1766
1767
1768
1769
177
1770
1771
1772
1773
1774
1775
1776
1777
1778
1779
178
1780
1781
1782
1783
1784
1785
1786
1787
1788
1789
179
1790
1791
1792
1793
1794
1795
1796
1797
1798
1799
18
180
1800
1801
1802
1803
1804
1805
1806
1807
1808
1809
181
1810
1811
1812
1813
1814
1815
1816
1817
1818
1819
182
1820
1821
1822
1823
1824
1825
1826
1827
1828
1829
183
1830
1831
1832
1833
1834
1835
1836
1837
1838
1839
184
1840
1841
1842
1843
1844
1845
1846
1847
1848
1849
185
1850
1851
1852
1853
1854
1855
1856
1857
1858
1859
186
1860
1861
1862
1863
1864
1865
1866
1867
1868
1869
187
1870
1871
1872
1873
1874
1875
1876
1877
1878
1879
188
1880
1881
1882
1883
1884
1885
1886
1887
1888
1889
189
1890
1891
1892
1893
1894
1895
1896
1897
1898
1899
19
190
1900
1901
1902
1903
1904
1905
1906
1907
1908
1909
191
1910
1911
1912
1913
1914
1915
1916
1917
1918
1919
192
1920
1921
1922
1923
1924
1925
1926
1927
1928
1929
193
1930
1931
1932
1933
1934
1935
1936
1937
1938
1939
194
1940
1941
1942
1943
1944
1945
1946
1947
1948
1949
195
1950
1951
1952
1953
1954
1955
1956
1957
1958
1959
196
1960
1961
1962
1963
1964
1965
1966
1967
1968
1969
197
1970
1971
1972
1973
1974
1975
1976
1977
1978
1979
198
1980
1981
1982
1983
1984
1985
1986
1987
1988
1989
199
1990
1991
1992
1993
1994
1995
1996
1997
1998
1999
2
20
200
2000
2001
2002
2003
2004
2005
2006
2007
2008
2009
201
2010
2011
2012
2013
2014
2015
2016
2017
2018
2019
202
2020
2021
2022
203
204
205
206
207
208
209
21
210
211
212
213
214
215
216
217
218
219
22
220
221
222
223
224
225
226
227
228
229
23
230
231
232
234
235
236
237
239
24
240
241
242
243
244
245
246
247
248
249
25
250
251
252
253
254
255
256
257
258
259
26
260
261
262
263
265
266
267
269
27
270
271
274
275
276
277
278
279
28
280
281
282
284
286
287
289
29
290
291
292
293
294
295
296
298
299
3
30
300
301
302
303
304
305
306
307
308
31
310
311
312
313
314
315
316
317
318
319
32
320
322
323
325
326
327
328
329
33
330
331
332
333
334
335
336
337
338
34
340
341
342
343
344
345
346
347
348
35
350
351
353
354
355
356
357
358
359
36
360
361
362
363
364
365
368
369
37
370
371
373
377
379
38
381
384
385
388
389
39
390
393
394
395
396
397
398
4
40
400
401
402
403
404
405
406
407
408
409
41
410
411
412
413
417
419
42
420
421
4217
425
426
427
428
429
43
430
431
432
435
437
439
44
441
443
444
448
449
45
450
451
453
455
458
459
46
460
461
464
47
470
479
48
480
482
485
486
487
49
490
497
498
5
50
500
502
503
504
505
506
508
509
51
512
513
515
517
519
52
522
523
528
53
534
54
545
549
55
551
554
555
556
56
567
569
57
575
58
59
6
60
600
605
606
61
62
620
63
630
634
639
64
640
65
650
66
660
67
68
69
7
70
700
71
72
73
74
75
76
765
77
775
78
780
783
79
794
8
80
800
81
82
83
831
84
848
849
85
850
86
87
88
887
89
9
90
900
901
905
907656
91
912
913
915
919
92
923
93
932
933
934
938
94
944
945
948
949
95
96
967
97
970
978
98
99
991
999
:
;
<
=
>
?
@
[
\
]
^
_
`
a
aata
ab
abandona
abay
abayie
abbaye
abbe
abe
abegg
abergement
abo
abondance
abou
abraham
abre
absence
absi
aca
acade
academia
academy
acce
accent
accepte
accident
accion
accions
acheta
achetar
acion
aco
acompagne
acre
acte
actes
action
activa
activista
activisto
activita
activite
acto
actor
actors
actrice
actua
actue
acuta
acutar
ad
ada
adam
adams
adapta
ade
adelayida
adhe
adige
adj
adje
adjo
adler
admin
administra
administracion
administracions
administratif
administrativa
administrativament
administratives
adolphe
adonc
adonis
adopcion
adopta
adopte
adre
adresse
adresses
adriatica
adrien
adulto
adv
ae
aebischer
aerni
afa
afe
affaire
afganistan
afhosa
aficiona
afin
aflluent
afluent
afluents
africa
afrika
afrique
afriquen
ag
agace
agassiz
agaune
age
agence
agit
agllome
aglome
agne
ago
agouelye
agre
agricola
agricolo
agricultura
agriculture
agu
ai
aicher
aime
ain
aire
aires
ais
aise
aises
ajoie
al
ala
alain
alamagna
alaman
alan
alar
alaska
alban
albane
albania
albanie
albe
albert
alberto
albertville
albom
albon
albrecht
album
alby
alcide
ale
alemagne
alemagnes
alemand
alemanda
alemands
alen
alento
alentorns
ales
alessandro
alex
alexandra
alexandre
alexi
alexis
alf
alfabe
alfons
alfonso
alfred
alg
alge
algues
ali
alia
aliance
alice
alie
align
alimentacion
alimente
alisa
alisator
alise
alita
alja
all
alla
allan
alle
allemagne
allemand
allen
alliance
ally
almanach
alobrojos
alor
alors
alpa
alpe
alpen
alpes
alpestre
alphonse
alpin
alpinae
alpine
alpino
alpins
als
alsace
altara
alte
altituda
altitude
alto
alyo
alyor
alzace
alzacien
am
ama
amadeo
amanita
amazigo
amazigos
ambe
ame
amen
amena
america
american
amfibiens
amfite
amherd
ami
amians
amiens
amimo
amimona
amis
ammann
amo
amont
amor
amore
amour
amphibia
ampion
ampionat
amste
amsterdam
an
ana
anai
analisa
analise
analytique
anatolie
anatomia
ance
ancia
ancian
anciana
ancianament
ancianes
ancians
ancie
ancien
anciens
and
andenmatten
anders
andes
andorra
andre
andrea
andreas
andreo
andres
andrew
andri
andue
ane
anema
anemasse
anemone
anevie
ange
angela
angeles
angelica
angelo
angerfist
anglais
angle
anglle
angllete
angllo
angola
angoule
anguissola
ania
anie
anima
animalia
anjo
anjou
ankara
ann
anna
annales
annan
anne
annecy
annemarie
anniversaire
anniviers
anno
annos
annuelle
anonce
ans
ansaldi
anselme
ansermet
ant
antartica
ante
anthologie
anthony
anti
antica
antichi
antico
antigoa
antiles
antioch
antioquia
antiquita
antofagasta
antoine
antoinette
anton
antonio
antoue
antre
antropologa
antropologia
anue
anuros
anzon
aoc
aosta
aoste
aou
aousta
ap
apare
aparence
aparicion
ape
apela
apelacion
apelar
apentse
apenze
aplica
aplicacion
aplique
apo
apocalipsa
apollo
apon
apond
apondu
apone
aponsa
apostolic
apostolica
appele
appenzell
appert
approche
apre
apreindex
aprentissa
aquae
aquino
aquitania
ar
ara
arabia
arabie
arabo
arabos
aragnon
arago
aragon
aragone
aram
aran
arane
arat
arava
arban
arbane
arbanna
arbe
arbie
arbon
arc
arca
arceve
arch
arche
archite
archive
archives
ard
arde
ardena
ardie
ardj
ardoue
are
aretha
areuse
argent
argentena
argentie
argentina
argovia
arime
aritme
ark
arle
arli
arma
armaillis
armand
arme
armenian
armorial
arna
arnad
arno
arnold
arp
arpe
arpenc
arpenche
arpenches
arpes
arpetan
arpetana
arpetanes
arpetania
arpetanna
arpetans
arpette
arpille
arpin
arpinismo
arpinisto
arpinistos
arpitan
arpitana
arpitane
arpitanes
arpitania
arpitanian
arpitanie
arpitanna
arpitans
arque
arre
arreva
arrevar
arreve
arrie
arrionda
arrive
arrondissement
art
arte
arthur
article
articles
articllo
articllos
artificia
artificie
artimbales
artista
artiste
artistica
artisto
artistos
arts
artscate
arturo
arvela
as
ascension
ascona
asia
asr
assassina
assassinat
asse
assembla
assets
assieta
assirie
assise
associacion
associacions
association
associye
assuit
assura
assure
aste
astrantia
astrono
astronomia
astronomica
astronomo
asturiana
asturien
at
ataca
atant
atatu
ate
atitude
atlantico
atlas
atle
atmosfe
ato
ator
atot
atriz
atro
attaque
au
auberjonois
audrey
auf
augmente
augusta
auguste
augustin
augusto
aujourd
aung
aure
aus
aussi
austin
auteur
autour
autre
autrefois
autres
autriche
auvergne
aux
av
ava
avalon
avanc
avancie
avant
ave
avec
avegnir
avencho
avengie
aventures
aviant
avie
avignon
avion
avis
aviu
avo
avocat
avoisinantes
avoue
avouec
avoui
avril
avu
award
awards
axo
aya
ayas
aye
ayent
aze
azur
azuro
aʁ
b
ba
babel
bache
bacte
bade
baden
bagdad
bagnes
bahamas
bahia
bahreyin
bahti
bains
baker
balan
balay
bale
balisa
balises
ball
balte
baltica
balya
balye
balyif
balyont
ban
banca
banche
band
bangllade
banleya
banye
baptista
baptiste
bar
bara
barack
baragne
baragnes
barba
barbara
barbares
barbuda
barcelona
bard
bardene
bari
barlocco
baron
barra
barre
bartave
bartelome
barthe
barthes
baruch
bas
basa
base
basel
basic
basile
basilica
basque
basse
basshunter
bassin
bastien
bat
bataille
batalye
batalyes
bate
batman
bats
battista
baudelaire
bavie
bay
baʁ
bb
be
beatles
beatriz
beaujolais
beauregard
bec
beethoven
bein
beitra
bel
belgique
belinc
belize
belkacem
bell
bella
belle
bellegarde
belles
bellet
belo
ben
benda
bendes
bene
benedicta
benjamin
benno
benoi
bens
bentout
benvegnua
ber
berdze
berg
berger
berlin
berlioz
bern
berna
bernar
bernard
bernardin
berne
bernois
bernoulli
berset
berthier
bertin
bertold
bertolt
bertrand
besanc
besenc
besie
besson
beta
betar
bete
betont
beuys
bezirk
bfs
bi
bia
bianca
biatris
bibla
bibliographie
bibliote
bibliothe
bibois
bichurina
biden
bie
bief
bien
biens
bifurcacion
bilengoua
bill
billy
bin
bingen
binh
bino
bio
biobi
biodive
biografico
biographie
biographique
biologia
biologica
biologo
bioue
birmania
birmanie
bis
bise
bisse
bisses
biste
bit
bits
bizantin
bizet
bjo
bjø
bla
black
blackwell
blaise
blament
blan
blanc
blanchard
blanche
blanches
blancs
blatter
blavignac
ble
bles
bleu
blica
bllaga
bllanc
bllanca
blo
bloc
bloch
blocs
blog
blondel
blos
blu
blɔ
bnf
bo
bob
boccoli
bochale
boche
bochet
bocion
bocon
bocons
boe
bogeries
bogota
bois
boisse
boissier
bokma
bole
boleve
bolivie
bon
bonaparte
bonc
bone
bonifac
boniface
bonn
bonnard
bonnet
bons
boque
boqueten
boquetens
bor
borbone
bord
borda
bordo
borg
borge
borgno
borgogna
borgogne
borguegnon
borjons
bornet
bosco
bose
bosnia
bosnie
boson
boston
botan
botanica
botanico
botanicos
botanique
botanisto
bote
boterens
botie
botion
botsouana
bottier
bou
bouchie
bouchoux
boudismo
boudisto
boue
bouely
bouesc
bouescs
bouesse
boulanger
bouquetin
bourg
bourgogne
bovet
boze
bpt
br
bra
brac
braille
bramans
branche
branches
branchie
brando
brasilya
brasse
bre
brebant
brecha
brecht
brega
bregogne
breitinger
brenchie
bres
bresie
bressan
bressanes
bresse
bressolles
bretagna
bretagne
brete
breton
bri
brian
brianc
bridel
brigitta
brigitte
brisgovia
britanica
bro
broc
brocherel
brodard
broken
bron
bronzo
bros
brotio
brouye
bru
bruga
brun
brunet
bruneyi
brunnen
bruno
brusse
brə
bu
buenos
buge
bugey
bugeysiennes
bugista
bugisto
bulgarie
bulle
bulletin
bulo
bureau
burgonde
burgondes
burgondie
burgondo
burgondos
burgundionum
burkart
burkina
burlesque
burns
buro
burro
burundi
bus
bush
busse
but
bwa
bwe
by
bya
bye
byo
byzantine
bø
bɑ
bɔ
bɔr
bə
bɛ
bɛl
bɛr
bʁi
bʁy
bʁə
c
ca
caballe
cabina
caboul
cabre
cache
cachie
caesar
cahier
cahiers
caio
cala
calabre
calabrese
calc
calde
cale
calendrie
california
calmy
calque
caluire
cam
cambe
cambodg
cambont
cambridge
cameron
camille
camillo
camp
campagna
campagne
campania
campanie
camus
can
cana
canada
canalblog
candidat
candolle
canica
canis
canonica
canonicament
canton
cantona
cantonal
cantonale
cantone
cantons
cantorbe
canu
cap
capa
capacita
capita
capitala
capite
capitulacion
capra
car
caracte
cardena
care
carignan
carl
carla
carli
carlo
carlos
carnava
carnaval
carolina
carpoforo
carra
carrasco
carre
carrel
carrie
carroge
carrojo
carroll
carron
cars
carta
carter
cartes
carvalho
carvin
cas
casa
casanova
case
caspar
cassidy
cassini
castafiore
castaing
caste
castellane
castello
casterman
castilyan
castilye
catala
catalan
catalana
catalanes
catalans
catalogne
catalogue
catalunya
catastrofa
cate
catedra
caterina
cathe
catherine
catholic
cato
catolica
catolicismo
catolico
catolicos
catolicossat
catoliques
cause
cavalier
cave
cavour
cayon
cayons
cc
ccion
ccions
ce
cefan
cefp
cegni
cel
cela
celes
celi
celia
celos
celsius
celue
cembre
cembro
cen
cenis
cent
centblue
cente
centene
center
centra
centrafrique
central
centralisacion
centre
centro
cents
centslovak
century
cepaea
cercle
cerda
ceresins
cerlogne
cervantes
cerve
ces
cessaire
cet
ceta
cete
cetes
ceti
cetos
cette
ceux
cff
cfl
cfll
ch
cha
chabanie
chablais
chable
chacera
chal
chalamont
chalarona
chalaronne
chale
chalendes
challant
chamba
chambe
chambra
chambradoc
chambre
chamo
chamond
chamonia
chamonix
champ
champa
champagne
champe
champegnon
champegnons
champion
championat
champions
champs
chan
chanc
chancelie
chandio
chanel
change
changement
changements
changie
chanjo
chano
chanoux
chanson
chansons
chant
chanta
chante
chantie
chantor
chantosa
chants
chape
chapele
chapelle
chapelon
chapitro
chappuis
chaque
chardin
chardo
charentes
chargie
charles
charlie
charlieu
charlo
charlotte
charlue
charmase
charmese
charpentie
charpentier
charrie
charta
charue
chasper
chat
chate
chatel
chaumont
chautagne
chaux
chavan
chavano
chavon
chavonar
chavone
che
chef
chel
chelie
chelyon
chemin
chemins
chena
chene
cheneve
chenit
cher
cherchior
cherle
chermignon
chero
ches
chesa
chete
cheva
cheval
chevalie
chevalier
chevrie
chevrolet
chez
chi
chicago
chie
chiffres
chifros
chile
chilla
chillon
chin
china
chine
chinoue
chins
chirac
chis
cho
chon
choose
chorier
chos
choses
choue
chousa
chouses
chre
christ
christian
christiane
christina
christine
christoffel
christoph
christophe
christopher
chur
church
ci
cia
cialament
cialisa
cialistos
ciba
cice
cicllisto
cicllo
cida
cide
cidr
cie
ciel
ciencias
cifico
cificos
cile
cilette
cilicie
cime
cine
cinereus
cines
cinq
cinquie
cio
cion
cipro
circonscripcion
circulacion
circule
ciro
cis
cisa
cision
cita
citacion
cite
citoyens
cits
city
civil
civila
civile
civiles
civilisacion
civilisacions
civilo
ckiger
cl
cla
clair
claire
clarke
classe
classica
classico
classificacion
claude
claudio
cle
clerc
cles
climat
clinton
clla
cllara
cllaracion
cllare
cllarta
cllassa
cllassement
cllassico
cllassie
clle
cllimat
cllo
cllochie
cllos
clloue
cllusa
clo
clos
club
clube
clubes
cm
cnewa
cnica
cnicien
cniques
cnolog
cnrs
co
coala
code
codo
codos
cofie
cogne
cognen
cognessence
cognessences
cognessont
cognessu
cognessua
cognetre
cognu
cognua
cognus
coin
col
cola
colaboracion
cole
colette
colle
colleccion
collectif
collection
collina
collonges
colloque
colo
colog
colomb
colomban
colombe
colombie
colonges
colonia
colonies
colons
color
colora
colors
cols
columbia
com
coma
comanda
comandant
comba
combes
combina
combine
come
comena
comenc
comence
comencement
comencie
comenes
coment
comics
comie
comission
comita
comite
comme
commence
comment
commission
commons
communal
communales
communaute
commune
communes
communod
como
comon
comons
comores
compagnia
compagnie
compara
compare
compe
compensa
comple
completes
compo
comportament
composa
composicion
composior
compositor
compre
comprenant
comprend
comprendre
compta
compte
comta
comte
comtes
comtessa
comtesse
comto
comtos
comuna
comune
comunes
comuni
comunicacion
comunicacions
comunita
comuno
con
conce
concepcio
concernant
concession
conches
concilo
concilos
concors
concours
condacion
conde
condicions
cone
confe
configuration
confins
conflans
conflit
conflits
confllens
confo
confolent
confondre
confucius
confusion
congo
congre
conifa
conj
connery
conomia
conomica
conomico
conomie
conomiques
conque
conrad
consacra
consacre
conscience
conscient
conse
conseil
conselie
conside
consona
consones
constance
constant
constanta
constantin
constantinople
constantinoplo
constitua
constitucion
constituciona
constitue
constituont
construccion
construccions
construction
construire
construit
construita
construite
construites
construits
consul
consulta
consultar
conta
conte
contegnont
contes
conteur
continent
continenta
continents
contint
continue
contio
conto
contra
contre
contribua
contribue
contribuer
contro
controla
controlar
conve
convencion
conye
cook
coope
coordona
copa
cope
copes
copta
cor
cora
corba
corboz
corbusier
corcy
corda
cordon
core
corent
corinne
cornalin
cornavin
corne
corneille
coron
corona
coronavirus
corps
corpus
corradin
corrate
corre
corregie
correspondance
correspondances
cors
corsa
corse
corso
cort
cortene
cortil
cortils
corzie
cos
cosa
cosse
cossene
costa
costumes
cote
cotelli
cotema
cotemie
cotton
cou
coubertin
couchepin
coucy
coue
coula
coules
coup
couperin
cour
courant
courcheve
courmayeur
cours
couta
coutes
coutie
coutumes
couverte
couvre
couzan
cova
covid
cracion
craffonara
cran
crans
crant
cre
crea
creto
crettaz
cretton
cri
cria
crime
crire
crisa
crise
crist
cristianisacion
cristianismo
cristina
cristo
crit
crita
crite
crites
critica
critique
crits
critura
crivain
crive
criven
crivena
crivens
crivont
cro
croacia
croacie
croix
crome
cromosomos
cromwell
crose
croue
crouese
croueselyes
crouesie
crouex
crox
croz
crue
cruijff
cs
cseh
ct
cta
ctament
ctares
cte
ctes
ctif
ctiva
ctivament
ctivita
cto
ctologa
ctologia
ctologo
ctor
ctos
ctrica
ctrice
ctricita
ctrifia
ctrificacion
ctriques
ctro
ctura
ctures
cu
cuba
cuchient
cuchientenc
cuchientenche
cudrefin
cue
cuens
cuira
cuisiat
cuisie
cul
culo
cultura
cultural
culture
culturel
culturelle
cultures
cun
cuna
cuneo
cura
cure
curie
curita
cusin
cuta
cutif
cuve
cuvrir
cy
cylindre
cyprien
cyprus
cœur
d
da
dabi
daccion
dactor
dad
dada
dagneux
dai
daimler
dal
dalai
dalye
dam
dama
dame
dames
damien
dan
dana
danc
dance
dancourt
danema
dangie
daniel
danoue
dans
dante
dapue
dar
darbe
darcel
dario
das
data
database
dau
dauphine
davant
davel
david
day
dc
de
dead
decin
decina
decrey
decurtins
dede
dedens
dedie
dediens
dedins
defo
defoe
degli
degra
dehoniane
dei
del
dele
dell
della
delle
delon
delphine
dema
demanda
demande
deme
demenge
demi
demo
demora
demotz
den
denis
denise
dens
densita
dent
dents
departament
depi
depue
depuis
dequier
der
deric
dernie
dernier
des
desbordes
descartes
description
dese
deshoulie
design
desit
desot
dessando
desservie
dessinateur
dessines
dessot
dessouslavy
dessu
dessus
destination
destrict
destricts
desus
det
detroit
deum
deun
deutsch
deutschen
deux
dev
deva
devant
deve
devegnu
devesa
devient
devint
devre
di
dia
diable
diablerie
diacion
diacriticos
diale
dialectale
dialectales
dialecte
dialectes
dialectologie
diame
diana
diaspora
diate
dic
dica
diccione
dichter
dichyonire
dicion
dicions
dickens
dicofranpro
dictator
dictionnaire
dictionnaires
dictons
dide
diderot
didier
die
diego
diens
dies
diesel
dieth
dietrich
dieu
dife
diffe
difich
dificilo
dificulta
difusion
digne
dij
dijon
dikchene
dikchone
dimension
din
dina
dinastia
dinna
dins
dio
dioce
diocese
diont
diplo
diplomate
dir
dire
direccion
directament
director
directrize
dirige
dirigie
dis
disciplina
disco
discors
dispare
disparicion
disparu
displaystyle
disposicion
distance
distinga
distingar
distingont
distingue
distri
distribua
district
districts
dit
dita
dite
dition
ditions
ditor
dits
diu
dive
diversite
divisa
divisiblo
division
divisions
dizionario
dj
dja
dje
djet
djouiye
djɛ
dl
dme
dni
dnie
do
dobla
doble
doblo
doctor
doctorat
doctrina
document
documentacion
documente
documents
doit
dolent
dom
doma
domaine
domba
dombes
dombista
dombiste
dombistes
dombisto
dombistos
dome
domenica
domenico
domenique
domesticus
domina
dominacion
dominique
dompierre
dompierro
don
dona
donacion
donald
donba
donbass
donbin
donc
donia
donie
donien
donne
dont
donzie
dordogne
dore
doris
dorothe
dos
dota
dou
doua
douard
doubayi
doubs
doue
doues
douglas
dounah
dous
doux
dove
doves
doze
dr
dra
draf
drale
dramaturjo
drance
drape
dre
dream
dreams
dret
dri
dro
droit
droma
droue
droz
drusilla
drɛ
ds
dts
du
dubo
dubochet
dubois
dubs
duc
duca
ducacion
ducation
duccion
duch
duche
duchessa
duchesse
duchie
ducommun
ducs
due
duens
duforn
duire
duit
dukakis
dunant
duncan
dunoyer
duparc
duple
dupont
dupra
dupraz
dur
dura
durant
durent
dus
duvillard
dve
dvez
dvwe
dwa
dwɑ
dy
dyan
dyon
dz
dza
dzakye
dzaʁ
dze
dzen
dzi
dzo
dzu
dzurique
dzy
dzœ
dzɔ
dzə
dzɛ
dœ
dɑ
dɔ
də
dəs
dɛ
dʒi
e
earth
earthrise
eastern
eau
ebadi
ec
ecariotos
eco
economique
ed
edd
edgar
edicions
edison
editions
edizioni
edmond
edouard
educac
edward
ees
ef
effectue
ege
eglle
egloff
ehta
ei
eiffel
ein
einer
einstein
el
ele
elena
eles
elisa
elisabeth
eliza
elizabeth
elle
els
elye
elzingre
emanue
emanuel
emanuele
embanner
emble
eme
emie
emil
emile
emma
emmanuel
emp
empa
empachie
emparar
empartia
empe
empereur
emperia
emperor
empire
empiro
emple
empleye
empo
emportant
emportanta
emportence
emposa
empre
emprima
en
ena
enca
encicllope
enclla
encognu
encora
encoragie
encore
encyclope
encyclopedia
enda
ende
endic
endien
endige
endiqua
endique
endispensa
endividu
endividus
endo
endone
endre
endura
endustria
endustrie
endustries
enfant
enfants
enfe
enfin
enfluence
enformacions
enformatica
enformatisa
enfrastructura
enfrastructures
engadina
engage
engagie
enge
engenior
england
english
enisum
enjeux
enne
enqu
enque
enregistra
enric
enrico
ens
enscripcion
enscrit
enscrite
enscrits
ense
ensembllo
ensemblo
ensemblos
ensems
ension
enspira
enstala
enstalacion
enstitua
enstitucion
enstitucions
enstitut
enstrument
enstruments
ente
entend
enternaciona
entie
entita
entitula
ento
entorna
entoura
entra
entrar
entre
entremont
entrepre
env
enva
envasion
enve
enventa
envente
enveron
enveronance
enveronence
envers
enversenc
enversenche
environs
eografia
eografica
eografico
eologia
eologo
epalinjo
epidemia
er
erasia
ere
eric
erika
ernest
ernesto
ernst
ero
erocopa
eropa
erope
erratique
erratiques
es
espace
espagne
espagnol
espan
espe
esprit
esquele
esquisse
essai
essais
est
estado
estaing
estanda
estavalye
este
estra
et
eta
etalia
etc
etg
ethavalye
ethnographique
ethnologie
ethnologue
etie
etienne
etnografia
etude
etudes
etymologisches
eu
euge
eugen
euler
eun
euna
eunna
euro
eurocoin
europa
europe
europeada
eva
eve
evole
ex
exekutiva
exemple
existe
expe
exploue
express
ez
f
fa
fabre
fabreca
fac
facciolati
face
facebook
facteur
facto
factor
faculta
faieta
faire
fait
faitesdupatois
fala
falavie
fall
famelye
famelyes
famille
famo
famosa
famox
fan
fanfoue
fanny
fanoue
fant
fanto
far
faramans
farcoz
fare
farina
fario
farne
fasior
faso
fasse
fassent
fat
fata
fatiga
fatio
faucigny
faut
fave
favor
favora
favrat
favre
fayard
faye
fayette
fc
fe
federal
federica
feillens
felebe
felibe
felibrige
felibrijo
felice
felingi
felipe
felipines
felipo
felipon
felix
fellay
fels
fely
felye
felyensie
felyes
felys
feme
femenin
femme
femmes
fen
fena
fendre
fene
feni
fenia
fenicions
fenir
fenis
fenolye
fenome
fensa
fer
ferdinand
ference
ferma
fernand
fernandel
ferrer
ferrero
ferroviaire
ferrovie
ferveur
fesch
fese
fesica
fesiques
fet
fets
feu
feuille
fevrie
feyenoord
feyes
fi
fia
ficcion
fiche
fichie
ficiye
fide
fidj
fie
fier
fifa
figaro
figura
figure
figures
fil
files
filibe
film
filmo
films
filologa
filologia
filologo
filosofia
filosofie
filosofo
fils
fily
filye
fin
fina
finalament
financie
find
finicion
finicions
finition
finlande
fins
fiorella
firont
first
fit
fitzgerald
fixa
fja
flache
fle
flexions
flipbook
fllachie
fllanc
fllancs
flle
fllevo
fllevos
fllo
fllon
fllor
fllora
fllore
fllorence
fllorent
fllorida
fllors
florence
flu
flurnamen
fm
fo
fois
folye
fon
fonccion
fonccione
fonccions
fond
fonda
fondacion
fondamentala
fondation
fondator
fondators
fonde
fondont
fonds
fone
fonetica
fono
fonseca
fonso
font
fontaine
fontan
fontana
fonte
fontina
football
for
force
forces
forcie
forclla
ford
fore
forez
forezhistoire
forma
formacion
formant
formar
formation
formations
formator
forme
formes
formont
formula
forn
forne
fornio
fort
fortament
fortifia
foto
fotografia
fotosinte
fotu
foue
fournier
fox
fpl
fr
fra
frac
fraccions
fran
franc
france
francesc
francesco
francetvinfo
francfo
francfort
franche
francia
francilien
francis
francisco
franco
francofonia
francoprovenc
francoprovensal
francoprovenzale
francs
franja
frank
franklin
franpitan
frans
franse
franz
franzesch
franzo
frare
frauenfeld
fre
freddie
frederick
free
freiburg
french
fret
frey
fribo
friborge
fribourg
fribourgeois
fribourgeoise
friederike
friedrich
frio
frison
fritz
from
froma
fromadzo
fromegnio
front
frontalie
frontie
frossard
frp
fruit
fruita
fruitie
fruits
fs
fu
fue
fuen
fulye
fumey
funicule
furka
furont
fusion
fusiona
fusione
fusions
fuster
fut
futuna
futura
fɑ
fɔ
fɔr
fɔʁ
fə
fɛ
fʁju
g
ga
gabi
gabon
gabrie
gabriel
gabrielle
gacion
gae
gaga
gagarine
gal
gale
galement
galeria
galibier
galice
galicien
galita
gall
galli
gallica
gallo
gallus
galo
galya
gambie
game
gana
gandhi
ganz
ganzoni
gap
gapita
garc
gard
garda
garde
gare
gares
garona
garriga
garry
gary
gascon
gaspa
gaspard
gaston
gate
gauchat
gaule
gaulle
gay
gaze
gazette
ge
gelye
gemeinde
gemeindenamen
gencenie
genda
gendes
gene
geneva
geneve
genevois
genevoise
genevoue
gengo
genix
genro
genros
gens
gent
gentes
gentilyic
geoarp
geografia
geografica
geografiques
georg
george
georges
geq
ger
gerais
gerald
gerbore
gerhard
germain
germaniae
gerrard
ges
geschichte
gesellschaft
gestion
gex
gey
ggle
gi
gia
giacometti
giale
giambattista
gianadda
gianni
gica
gie
gien
gier
gigno
gilbe
gilles
gillie
gimo
gine
gingolf
gingolph
gins
gioachino
gion
giona
gional
gionale
gionales
gions
giornata
giovanna
giovanni
girardin
giscard
gise
gisikon
gistros
giuseppe
givo
glaciers
gle
gletsch
gli
glise
glla
gllace
gllacie
gllandon
gllaris
glle
glles
gllo
gllosse
glloue
glossaire
gmenta
gmentacion
gna
gne
gnement
gnent
gnes
gni
gnio
gno
gnor
go
goadeloupe
goatemala
gobat
godal
godfather
goethe
gogh
goire
golaz
golden
gole
gomorra
gon
gonda
gondoba
gontran
goodman
google
gorbatchev
gorges
gorie
gorien
gos
gota
gotica
gottfried
gottlieb
goua
gouabe
gouaduit
gouare
goue
goueduit
goues
gouges
gouie
gov
gove
govena
government
goya
gr
gra
gradacion
grafia
grafie
grame
grammaire
grammatik
gran
grand
granda
grande
grandes
grands
grandson
grange
granges
grant
granta
grantes
grantfe
grants
graphie
grappein
grass
grat
grave
gre
great
greco
green
grelye
gremesuel
grenoble
grenoblo
greson
gresons
gri
grie
grimmelshausen
grinjo
gripa
gris
grischun
griva
gro
gropo
gros
groue
group
groupe
groupes
groupo
groupos
gru
grue
gruet
gruve
gruveren
gruverens
gruvie
gruye
gts
gtt
gu
gue
guelyo
guelyon
guerra
guerre
gues
guevarra
guex
gui
guiche
guichonnet
guida
guide
guido
guila
guillaume
guillermo
guilyo
guine
guisan
guita
guiyana
gulie
gura
guracion
gustav
gustave
guste
gusto
guterres
guy
guyana
gz
gzavie
gze
gzemplo
gzemplos
gzence
gziste
gzistence
gzistont
gzposicion
gzupe
h
ha
habitants
habite
habitents
habituda
habitue
habsbo
hachette
haddock
haemmerli
hage
halicarnasso
haller
halley
hallyday
hambo
hamo
hanks
hanri
hans
haplo
harpeitanya
harpitanya
harriet
harrieta
harris
hassauer
haut
haute
hautes
havayi
hayiti
haywood
hazel
haß
he
heart
heat
hebdo
hebdomade
hebel
hector
hediger
heidelberg
heidi
heinrich
heinzmann
hel
helder
helvetiae
helvetica
henri
henriet
henrik
henry
henrysuter
hepatica
hepburn
herbace
herbert
here
herge
hermann
herve
herzegovina
hesse
hevelius
hi
hidro
hidroe
hidrologia
hie
hier
hifes
hill
himno
hio
hiro
his
histo
histoire
histoires
historia
historica
historicament
historico
historicos
historie
historien
historiens
historique
historiques
history
histoue
hive
hl
ho
hodler
hoffmann
holanda
holande
holland
hollywood
hombe
home
hommage
homme
hommes
homo
homonimia
homonimo
homonimos
homos
honduras
hongrie
hongries
hongroue
honneur
honor
honora
honore
hopeta
hora
horatio
hore
hores
horizonte
horvath
hoskins
hospic
hospita
hota
hotel
hotzenko
houe
hta
htm
html
http
https
hu
huang
hubacher
huber
hubert
hubschmied
hudri
hudry
hudson
hue
hugo
hugues
hui
humanita
humanite
humbe
hume
humen
humens
humido
humour
hyon
hz
i
ia
ian
iana
iata
ibe
ibex
ibsen
ica
icao
ice
ico
ida
ide
identifeye
identita
identite
ides
idia
idioce
idiotikon
ido
ie
ien
ieo
ier
ieu
ignace
ignorance
iguije
ihta
ii
iie
iii
iiie
ij
il
ila
ildefons
ile
iles
ili
illa
ille
illi
illico
illustre
ils
ilustra
im
ima
image
images
imagina
imagine
ime
imie
imier
immate
imo
imp
impe
imperium
importa
importance
important
importanta
importantes
importants
imprimerie
impulse
in
ina
inde
index
indian
indo
ine
influence
info
information
infty
inge
inicia
inn
innocent
innocenzo
innsbruck
ino
inoue
inque
inse
insee
insta
institut
institute
institutionnels
instruments
int
inte
international
internationale
internet
intra
introduction
inve
inventaire
inventor
io
ion
iona
ional
ionalisto
ions
ip
iprage
ipre
ipte
ipv
ique
ir
ira
iraq
ire
irine
irlanda
irlande
irrigation
is
isa
isaac
isabel
isabella
isabelle
isbn
ise
isera
islame
islande
ismo
iso
israye
issime
issn
issogne
ist
istanbul
istat
istitut
istoue
it
ita
italia
italiana
italiani
italiano
italie
italien
italiens
italo
italy
ite
itecte
itschu
iulia
iv
ivan
ive
ives
ivoue
ivre
ivrea
iweala
ix
ixe
izabela
j
ja
jaberg
jaccottet
jack
jackson
jacob
jacopo
jacqueline
jacques
jae
jahrhundert
jakob
jal
jame
james
jan
jane
janine
janvie
janvier
japone
jaque
jardin
jare
je
jean
jeanjaquet
jeanne
jeg
jelie
jelien
jelin
jena
jetar
jete
jeunes
ji
jia
jian
jiana
jim
jimmy
jinping
jius
jo
joachim
joan
joconda
joe
johan
johann
johannes
john
johnny
joie
joje
jole
joly
jon
jonathan
jonc
jont
jor
jorat
jorden
jorgia
jorn
jorna
jornal
jornalista
jornalisto
jorns
jors
jos
jose
josef
josep
joseph
jouan
joue
jouen
joueno
jouenos
jouin
jour
journal
journe
jours
joux
jouye
jouyor
jouyors
joze
jpg
jr
ju
juan
jud
juda
jude
judy
jue
juif
juifs
juin
jul
jules
julia
julie
julien
juliette
julo
julye
june
jupite
jura
jurassien
jurassienne
jurassiens
jure
juristo
jusqu
just
justice
justo
jy
jyaryot
jyon
jø
jɑ
jɔ
jɔr
jə
jɛ
k
ka
kaerou
kai
kaja
kallas
kamala
kan
kangxi
kant
kanton
kapita
karine
karl
katina
kauffmann
kazacstan
ke
keller
kelly
kemal
kennedy
kerala
kevin
kg
kharkiv
ki
kibo
kie
kiel
kiev
killing
kilome
kilroy
kim
king
kiribati
klaus
kle
klimt
klyo
km
ko
koechlin
kofi
koine
kolonban
komouna
konarski
konflan
kosovo
kou
koutizhe
koveyit
kra
krafft
kre
kri
kristol
krivon
kru
krui
krɔ
krə
krɛ
ku
kuonen
kurt
kv
kwe
kwɑ
kwɔ
ky
kyi
kyiv
kɑ
kɔ
kɔr
kə
kʁu
l
la
laboratior
lac
lace
lacerta
lacion
lacour
ladin
ladina
lady
laffitte
lafore
laga
lagopus
lagoua
laguie
lai
lama
lamartine
lambe
lambert
lambiel
lament
lan
lana
lanci
lancie
land
landa
lande
landes
landin
lands
lane
lang
langage
langes
langfr
language
languages
langue
langues
lanka
lans
lanzo
laos
lapraz
laquinta
lar
larousse
larry
las
lasse
lat
late
latin
latina
latins
latituda
latvian
laure
laurence
laurent
lausanne
lava
lavaux
lave
lavela
lavenche
laviua
lavoue
laye
lazaro
lc
lcero
lche
lcrox
ld
ldo
ldote
ldoten
ldotena
ldotens
le
leander
leard
leben
lebrun
lec
leccion
lectronica
lee
lefranc
left
lega
legie
legna
legne
legnes
leipzig
lelouche
lena
lence
leng
lenga
lengoua
lengouadoc
lengoues
lengouista
lengouistica
lengouistico
lengouistiques
lengouisto
lengua
lenguisto
lenine
lens
lent
lenze
leo
leone
leonhard
leq
ler
lerins
les
lesotho
leta
letteratura
lettre
lettres
leu
leur
leurs
leva
levant
levantenc
levantenche
levantenches
lewinsky
lewis
lex
lexicographie
lexicon
lexics
lexikon
lexique
leya
leyen
leyon
lez
lf
lfloor
lfo
lg
lge
lgica
lgra
lgrade
lgresenche
lgv
li
lia
lian
liban
libe
libie
libra
librairie
library
libri
libro
libros
lica
lice
lico
licopte
liddes
lie
liechtenstein
lien
lieu
lieux
life
liga
ligent
ligne
lignes
ligneux
liguria
lila
lili
lim
lima
limbo
limita
limitation
limite
limites
limojo
limosin
lims
lincoln
line
linga
lingua
linguasphere
lingue
linguistica
linguistico
linguistique
linguistiques
linguisto
link
linnaeus
linne
lins
lio
lion
lione
liotard
lire
lis
lisa
lisabe
lisabeth
lisbona
lise
lista
liste
listes
listo
lite
literatur
lito
litora
litos
litte
litteratura
littre
lituania
lituanie
liu
lium
live
liver
livia
livo
livra
livre
lix
liye
liyon
liyone
lja
lje
ljubo
ljɔ
ljɛ
ller
lloyd
llui
lma
lmont
ln
lno
lo
loc
loca
local
locala
localament
locales
localita
locarno
locomotiva
locomotives
locongres
locutors
loe
logo
loi
loire
lois
loisirs
lomba
lombard
lombardia
lombardie
lon
london
londro
long
longchamp
longe
longior
longre
lons
lont
lop
loquint
lor
lorba
lord
lorent
lorre
lors
lorussa
lorussie
lorusso
los
losena
lot
loti
lou
loue
louis
louise
loune
loup
lourd
lous
louvain
louz
love
lovey
lovinescu
lozana
lpe
lpelena
lpelenenche
lpes
lquita
lrome
ls
lsg
lt
lta
ltemps
ltica
ltornenche
ltos
lu
lua
luc
luca
lucat
luci
lucid
lucie
lucien
lucre
ludovic
ludwig
lue
luen
lugdunum
lui
luigi
luis
lula
lules
lully
lumie
lune
lupus
lus
lussembo
luta
luther
lutse
lutte
luxembo
luyet
luz
luzius
lve
lviv
lwa
lwɑ
lwɛ
lx
ly
lya
lyan
lye
lyes
lyo
lyon
lyonnais
lyor
lyors
lyoue
lys
lz
lø
lɑ
lɒ
lɔ
lɔr
lə
ləz
lɛ
lɛn
m
ma
maastricht
mac
mace
mach
machine
madama
madame
madele
madeleine
madrid
mae
mafalda
magnin
magui
mai
main
maine
mais
maison
maistre
maistriennes
maj
major
majorita
mal
malabara
maladie
maladies
malancara
male
mali
mallorca
malmo
malta
malya
malyots
mame
mament
mamife
man
mandela
mandrin
manet
maneyance
mange
mangeurs
manhattan
manie
manife
manila
mannoia
manque
mans
mantint
mantova
manue
manuel
map
mapa
mar
marc
marca
marcar
marce
marcel
marcelin
marcelo
march
marchandies
marchandises
marche
marchie
marco
marcoux
marcoz
mare
margare
margherita
margue
marguerita
marguerite
mari
maria
marie
marin
marina
mario
maritima
maritimo
marius
mark
markus
marle
marley
marlon
marmota
marne
maroc
marque
marquis
marra
mars
marse
marselye
marshall
marsse
marta
marte
martegne
martel
marti
martin
martine
martinet
martini
martinica
martyrs
martyrum
mary
maryland
mas
masculin
masque
massa
massachusetts
massacros
masse
massela
massif
massis
mate
mathbb
mathews
mathias
mathieu
matica
matico
maticos
matie
matin
matiques
mattarella
mattha
matthew
matthieu
maturin
maurice
maurienne
mauroy
max
maxime
may
maya
mayenche
mayor
mayota
mazzolari
maʁ
mc
mcgraw
me
mechie
medalye
mediate
mege
megie
megna
meina
meles
melkite
melye
membro
membros
meme
men
mena
menace
menacie
menar
mencion
menciona
mens
mensue
mensuel
ment
mente
menthon
menton
ments
menutes
mer
mercator
merci
mercury
merebe
merian
merkel
mersi
mes
mese
mesera
mesere
meseres
mestra
metal
metie
metre
metro
metu
mexique
meyer
mezzenile
mgr
mi
mia
miadzine
mica
mice
michael
michel
micheline
microne
micura
midi
mie
mielx
mies
migracion
miguel
mikhail
mil
milan
milano
mile
milice
milie
milite
miller
milo
milou
milton
milya
milye
milyere
milyons
minas
mine
mines
minh
ministe
ministro
minorita
minorite
minutes
mio
mira
mirande
mirat
mirats
miribel
mis
mise
misfe
misini
miss
mission
missione
missions
mistral
mistralenc
mit
mitica
mitico
mitologia
mitos
mitterrand
mja
mjo
mkine
mm
mo
mobilo
mocracia
mocratica
mod
moda
modane
mode
moderna
moderne
modernes
modifia
modo
modon
modulo
mognenens
moins
moira
moire
moires
mola
moldavie
moldova
mole
molin
molins
moll
molyes
moment
mon
monaco
monarch
monaste
monce
mond
monde
mondia
mondial
mondiala
mondiale
mondjoet
mondo
mone
mongolie
monica
monod
monographie
monse
monsieur
monstracion
mont
monta
montagna
montagne
montagnes
montalio
montana
montanna
montar
montbe
montbre
montbrison
monte
montelie
montennoblo
montent
montfe
montgorfie
montjove
montluc
montlue
montluel
montme
montpelye
montpelyie
montra
montrar
montre
montrechie
montreya
montricher
montrolx
monts
montserrat
montsoreau
monument
monumenta
monuments
moon
mor
mora
morat
morclles
morda
mordavia
more
moreau
morfologia
morge
morse
mort
morte
morzine
mos
moscou
mossieu
mot
mota
mothie
motie
motier
moto
motogp
motor
motorisa
mots
mottu
mou
mouche
moue
moulin
moulins
moutanye
mouvament
mouvaments
mouvement
mouvements
moye
moyen
moyena
moyens
moz
mozambique
mozart
mpl
mr
mrs
mu
muens
muffat
muhammad
mulhouse
multime
mundart
mundarten
munich
municipa
municipalita
munt
mur
mura
murailles
muralis
muralye
muralyes
mure
muret
muri
murith
murithienne
murs
muse
museum
musi
music
musica
musicie
musicien
musique
mustafa
musumeci
muta
mwe
mwɛ
my
myste
mze
mø
mɑ
mɒ
mɔ
mɔr
mə
mɛ
mɛs
n
na
nach
nacion
naciona
nacional
nacionala
nacions
nagie
naissance
nam
nament
namibie
nan
nancy
nant
nantes
naple
napole
nar
narbona
nard
nasa
nat
nata
natalia
natezhe
nation
national
nationale
nations
nativita
natura
naturalis
nature
naturelle
naturelles
nava
navarra
nave
navegator
navela
navigacion
navigation
nce
nche
nchen
ncia
nd
nda
nder
ndnerromanischen
ne
neci
nef
nell
nella
nelson
nement
nements
nemours
nen
nenda
neptuno
nes
nesie
nessu
nestle
net
netro
network
neucha
neue
neuve
new
news
newton
nezie
ng
ngi
ngin
ngoua
ngoues
ngozi
nh
nha
ni
nia
nic
nica
nicaragoa
niccolo
nice
nico
nicola
nicolas
nicole
nidvalde
nie
niedermann
nien
niens
nig
nightingale
niki
niklaus
nimes
nin
nines
ninsula
nintendo
nio
niom
nioms
nion
niona
nior
niou
nis
nisa
nistan
niton
nive
niveaux
nivela
nivio
nivo
nizier
nja
nje
njo
nju
njɔ
nl
nlande
nna
nneci
nnes
no
nobe
nobel
nobilis
nocido
nocion
nocions
noe
noemi
noire
nom
noma
nomar
nombre
nombro
nombros
nombroses
nombrox
nome
nomenclatura
nominacion
noms
non
noncie
nont
nor
nord
norden
nordico
norma
normalament
normalisation
normand
normandia
normandie
normes
norroue
north
norve
nos
nostro
not
nota
notament
note
notes
notice
notker
notre
nou
noue
nous
nouthra
noutra
noutre
noutron
noutros
nouveau
nouvelle
nouvelles
nouvelliste
nova
novara
nove
novembre
novembro
novio
now
noye
noyo
noz
nro
ns
nt
nta
nte
ntm
nts
ntse
nu
nucle
nuet
nuit
numa
nume
numero
nurre
nurretera
nus
nva
nwa
nwe
nwɑ
nwɒ
ny
nye
nynorsk
nyon
nø
nœs
nɑ
nɒ
nɔ
nə
nɛ
o
obama
obje
objets
oblegatoue
obres
obse
observatory
obtenu
obtint
obvalde
oc
ocasion
occident
occidenta
occita
occitan
occitana
occitanes
occitania
occitanisa
occitans
oce
octobre
octobro
octodurus
ocupa
ocupacion
ocupe
ocupont
oda
ode
oder
odia
odon
odore
odoro
of
ofaire
offenbach
offerts
office
officiel
officielle
offres
ofic
oficia
oficie
oganda
ographie
ographique
ographiques
ohta
oi
oingt
ois
oise
oiseaux
oklahoma
okonjo
ol
olimpia
olimpico
olimpicos
olitico
olivee
oliver
olivier
olo
ologia
ologica
ologico
ologie
ologien
ologique
ologiques
ologo
ols
oly
olympique
oman
omar
ombria
on
ona
onard
once
oncor
oncora
ondaine
one
online
onna
onora
ons
ont
onte
ontrevalde
onu
onze
ope
opera
oposa
oposar
oposicion
or
ora
orb
orba
ord
ordanie
ore
orendre
org
orga
organisa
organisacion
organisacions
organisation
organise
organismo
organismos
organo
oria
oriant
orie
orient
orienta
oriental
ories
origina
origine
origines
orita
orle
orna
oro
orologia
orque
orra
orse
orsie
orthodox
orthodoxe
orthodoxie
orthodoxwiki
orthographe
ortodoxa
ortodoxe
ortodoxes
ortografa
ortografia
ortsnamen
os
osa
oscar
oslo
oteu
othmar
othon
otl
otoman
otomans
ottawa
otto
ou
ouagadougou
ouches
oue
ouest
oui
ouri
ours
out
outa
outils
outre
ovra
ovrie
oxford
ozanam
p
pa
pablo
paca
pacefico
pache
pacifico
paco
padanie
pae
paganini
page
pai
paix
pal
pale
palerme
palmyra
palud
pan
panama
panca
pande
pane
panecie
pannatier
panorama
papa
pape
papie
papoasie
par
para
paracion
paradi
paradis
parale
parar
parc
parch
parcie
pare
parent
pari
parie
paris
parker
parla
parlament
parlaments
parlar
parlars
parle
parlement
parlemente
parler
parlers
parlons
parma
parmelin
parmi
paroche
paroches
parochia
paroisses
parola
parole
paroles
parooutcha
part
parta
partagie
partajont
partaman
partame
partament
partamenta
partaments
parteme
partement
partements
partenariats
parti
partia
partichiou
particion
participa
participe
particularita
particulie
partie
parties
partir
partis
party
partya
pas
pascal
passa
passage
passant
passar
passe
passent
passio
passion
passiona
passy
pasteur
pastor
pastorala
pata
patar
pate
patoe
patois
patoisans
patoisant
patoisants
patoises
patoisvda
patont
patoua
patoue
patouesants
patria
patriarcat
patriarch
patrice
patricia
patrick
patrimoine
patrimoineethistoiredechazellessurlyon
patrimoue
patron
patue
paul
pauline
paye
payi
payis
payisa
payot
pays
paysan
pcion
pcions
pdf
pe
pearl
peca
pecardie
pedon
peer
peintre
pelle
pen
pena
pendance
pendant
pendence
pendent
pendenta
pendents
penguelyons
pensa
pensar
pense
penta
per
perce
perdere
perioda
permanente
perme
permet
permie
perpignan
perret
perrin
persepolis
persona
pertoire
pertot
perugia
pese
peta
peter
petio
petit
petita
petite
petites
petitpierre
petits
peu
peuple
peut
pffer
phalle
phanois
phe
phil
philadelphia
philipp
philippe
philologie
philosophie
phine
phone
photographie
php
pi
pia
piano
picasso
piccard
picurie
picuro
pide
pie
pied
pieds
piemont
piemonte
piemontese
pierre
pierrehumbert
pierres
pierro
pietro
pieu
pila
pilet
pilote
pilyot
pin
pintra
pintro
pintura
pintures
pio
pionie
pionnie
pionnier
pire
pis
piscicultura
piscopa
piste
pistes
pitt
pizay
pja
pje
pjɑ
pk
pl
pla
placa
place
placement
places
placie
plage
plages
plan
plana
planck
plane
planes
plans
planta
plantes
plata
plate
platine
ple
pleine
plen
plepa
ples
pletout
pleye
plinio
plla
plles
plm
plo
ploma
plomes
plura
plus
plusieurs
plusio
plusiors
plə
png
po
poca
podarcis
poe
poesia
poetessa
poi
point
poke
pol
polandball
pole
poli
police
poline
politica
political
politicament
politicien
politico
politicos
politicyen
politique
politiques
polo
pologne
polone
polye
pomie
pompe
pompidou
pon
ponant
poncins
pond
ponent
pont
pontarlie
ponte
pontifica
pontresina
ponts
pop
popla
poplo
poplos
popolazione
poppins
populacion
populacions
populaire
populaires
population
popule
poque
por
porce
porrentru
port
porta
portail
portal
portant
porte
portont
portrait
portugal
portugue
porvua
posa
posicion
posse
possibilita
possibla
possiblament
possible
possiblo
possu
post
posta
poste
pot
pote
potes
pottier
pou
poue
pouede
pouent
pouenta
pouents
pouere
poueson
pouessience
pouessiences
pouilly
poulye
poulyes
pour
pourchet
pouro
poussa
pouta
poutine
pouvoir
pove
povont
poye
pp
pra
praetoria
prat
pratica
praticament
pratique
pratiques
praz
pre
pree
pregni
pregnont
pregny
preme
premi
premie
premier
premiers
prencipa
prend
prendre
prenoms
pres
prese
presence
present
presenta
presentacion
presente
presentes
presents
president
press
presse
presses
prestre
preye
pri
prie
priest
prim
prima
primat
prime
primo
primordial
princ
prince
princessa
princesse
principa
principe
principo
priode
priods
prior
prise
priva
prix
prje
pro
proba
proble
proce
proche
proclamacion
procllama
prod
produccion
productor
produit
profe
professeur
professor
progre
proje
projet
prolongie
promo
promocion
promove
promulga
promulgacion
pron
pronom
prononc
prononce
prononciacion
prononcie
prophe
propo
proposa
propose
proposition
proprie
prospe
protat
prote
protection
protocol
protocole
prouvenc
prova
prove
provenc
provence
proverbes
province
provinces
provincia
provint
provisoue
prunus
prussa
prusse
prussia
prəv
ps
pt
pta
pte
ptie
ptilos
ptita
pto
pu
pube
publecacion
publeye
publia
public
publica
publicacion
publications
publico
publicos
publie
publique
publiques
pue
puerto
puget
puis
pulyi
pure
purgate
pusegne
puta
putacion
py
pye
pyrame
pœr
pɔ
pɔj
pə
pɛ
pɥi
pʁy
q
qatar
qeumeun
qu
qua
quader
qualifia
quand
quantita
quaranta
quarante
quartenoud
quartie
quasi
quator
quatoria
quatre
quatrie
quatro
que
queen
quel
quelos
quelques
queme
quemeunna
quentin
quenton
quentons
ques
queumeunna
qui
quie
quier
quignot
quin
quinche
quint
quinta
quinze
quipa
quipe
quipes
quivalent
quo
quotidienne
r
ra
rabouda
race
racena
racenes
races
racine
racines
racion
racions
raconte
radcliffe
rade
radio
raetica
rafael
rafilye
rai
rail
raires
ral
rala
ralament
rale
ralisa
ralph
rambe
rambertia
rament
rames
ramon
ramuz
ran
rance
randa
rande
rant
ranunculoides
ranz
rape
raphae
rapidament
rapo
rapond
rapondont
rapondu
rapondua
rapports
rar
rard
rarogne
ras
raspieler
rassembla
rassemble
rast
rata
ratel
rateura
ration
rations
ratura
rature
ratures
ray
raymond
rayonament
rba
rbayidj
rbe
rbena
rbia
rbie
rbo
rc
rca
rce
rces
rche
rcher
rches
rcheve
rchie
rchior
rchiors
rchtegott
rcia
rcie
rcllo
rco
rcont
rcure
rcuro
rd
rda
rdame
rde
rdelye
rdes
rdinand
rdo
rdon
rdont
rdos
rdre
rdres
rdro
rds
rdun
re
reagan
reale
reba
rebalye
rebata
rebe
reblochon
rec
rece
recensement
reche
recherche
recherches
reciu
reco
recognessence
recognu
recognua
recueil
recueillis
redactor
ref
references
refuse
rega
regarda
regia
regina
regions
regis
regna
regnie
regnio
rego
regonfllo
regroupa
reh
rehte
rei
reichenbach
reine
rejuend
rejuent
relacion
relacions
rele
relie
religieuse
religion
religiosa
religioscope
religiox
reliye
relogeria
reman
remane
remaneye
remarca
remarquables
remarques
rembe
reme
remelyi
remence
rement
remo
remonte
remplace
remplacie
rempre
ren
rena
renard
renault
rence
rences
renche
renches
rencie
rencontre
rencontront
rencs
rend
rendre
rendu
rene
renfata
reng
rengie
rennes
reno
renoma
renonculace
renove
rens
rent
renta
rentes
rentrar
rentre
rents
renæi
repe
repo
report
repre
reprints
reproduccion
reproductor
reproduire
repu
requin
rer
rerum
res
rese
resonont
resso
ressources
resto
reta
reterie
retie
reto
retour
retranscrita
retranscrite
retre
retrove
reuss
reusser
reussi
reva
reve
revermont
revie
review
revint
reviua
revolution
revue
rey
reya
reynard
reyo
rfc
rfe
rfena
rfenoue
rficie
rfloor
rg
rga
rge
rgement
rges
rgie
rgnat
rgne
rgues
rho
rhone
ri
ria
riane
riat
riatsch
ric
rica
ricard
ricarda
rich
richard
richesse
richesses
rico
ride
rie
ried
riedmatten
riel
rien
rience
riences
riens
ries
rieux
right
rights
riksma
rimbaud
rime
rin
rio
rioda
rior
riora
riores
riors
rios
ripart
rique
riquen
riquena
riques
ris
ristica
ristiques
rit
rita
ritanie
rite
rites
ritre
riva
rivaz
rive
rives
rivie
riviera
rja
rje
rjo
rk
rla
rlande
rle
rlin
rlo
rlomagno
rlyo
rma
rman
rmanica
rmanico
rmaniques
rme
rmegno
rmegnon
rmena
rmengoua
rmeno
rmes
rmetre
rmie
rmo
rmont
rmos
rms
rn
rna
rnaciona
rnament
rnand
rnard
rnardin
rnativa
rne
rnement
rnens
rnes
rneye
rnie
rnin
rno
rnor
rnos
rns
rnye
rnyo
ro
roannais
roanne
robe
robert
roberto
robin
robot
roc
rocco
roche
rochefoucauld
rochers
roches
rochetalye
rock
rodes
rodolfo
rodolphe
roga
roge
roger
rogers
rogie
roi
rojo
roland
rolland
rolling
rolo
roma
romagne
romain
roman
romana
romance
romand
romanda
romande
romandia
romands
romane
romanes
romania
romanica
romanische
romanischen
romanna
romans
rome
romen
romena
romens
romont
ron
ronald
ronc
ronde
rondenia
rone
ronjat
rono
rons
ronsard
ront
roosevelt
roquille
roquilye
ros
rosa
rosario
rose
rosie
rossa
rosselyon
rosset
rossi
rossini
rota
rotacion
rote
roten
rotes
rotie
rots
rou
roua
rouan
rouana
rouanda
rouane
roube
roue
rouen
rouge
rouges
roumancho
roumania
roumanie
roume
roumen
rousa
rouse
rousseau
routage
route
roux
roy
roya
royal
royaume
royo
rp
rpa
rpazur
rpe
rpent
rpes
rpre
rps
rpuubyik
rque
rques
rquior
rr
rra
rrachu
rrand
rrane
rrat
rrayes
rre
rregne
rren
rrenmatt
rrens
rres
rrie
rritoria
rritoue
rro
rror
rros
rrosa
rroue
rrovie
rs
rsa
rsar
rse
rsent
rses
rsion
rsions
rsita
rsite
rso
rsona
rsonalita
rsones
rsont
rt
rta
rtamagne
rtament
rte
rterbuch
rtere
rtes
rtie
rtin
rtins
rtiste
rto
rtont
rts
rtue
rtura
rtvela
ru
rua
rubens
ruby
rudolf
rue
ruely
ruffieux
ruffinen
ruines
ruma
rumantsch
rumantscha
rupcion
rupicapra
rus
rusale
russa
russe
russell
russes
russia
russie
russo
russos
ruth
ruva
rva
rvacion
rvacions
rvar
rvatoue
rve
rves
rvi
rvia
rvic
rvice
rvie
rvir
rvizhe
rvo
rvont
rwa
rwɑ
ry
rze
rzha
rzie
rɑ
rɒ
rɔ
rə
rɛ
rɛj
s
sa
sabaudia
sabine
sablonie
sac
saco
sacra
sael
safurin
sahara
sai
saint
sainte
sala
sale
salenches
salerno
sales
salins
salla
salmo
salo
salomon
salon
salut
salvador
salvan
salyir
salyon
sambe
samnaun
samoa
samuel
san
sana
sancti
sandrine
sangallo
sanger
sanna
sans
sant
santa
santeta
santiago
santo
santong
santonge
sants
sao
saoudita
sape
sapiens
saquene
sar
sara
sarde
sarena
sarine
sarkozy
sarmonidos
sarpa
sarra
sarte
sartenes
sarva
sarvan
sasse
sassenage
sasson
satanismo
sate
saugeais
saussure
sauvage
sav
save
saventa
savie
savoia
savoie
savoir
savoisien
savoisienne
savoue
savoy
savoya
savoyard
savoyarde
savoyardes
saxe
saxel
saymonet
sc
sca
scabe
scalie
scandinava
scandinaves
scargo
scarlatti
sce
scend
sch
scha
scheuchzer
scheuermeier
schiffenen
schmid
schmidt
schneider
scho
schorta
schu
schuchardt
schumann
schweiz
schweizer
schweizerischen
science
sciences
scientifica
scientifico
scientificos
scientifique
scientifiques
sco
scott
scripcion
scultura
scurte
se
sean
seau
seccion
secila
second
seconda
seconde
secre
secret
segni
segno
segnos
segond
segonda
segonde
seguin
selon
selyins
selyon
sem
semadeni
semana
semble
sembrancher
semi
semplon
sen
senago
sence
sens
sensa
sent
senta
sentacion
sentacions
sentar
sente
sentie
sentont
sents
sept
septembro
septentrional
ser
serat
sere
serge
sergio
seri
serie
seront
sert
serve
servic
service
ses
set
seto
sexe
seye
seyont
sfe
sforza
sha
shakespeare
shape
she
sho
show
si
sia
sicila
sida
sidante
side
sidence
sident
sidente
sidents
sie
siegfried
sien
siena
siens
sies
sieviche
sigismond
signa
signe
signifiant
significacion
significacions
signifie
signont
sikart
sil
silence
silie
silien
silja
siloe
silva
simbolo
simbolos
simon
simona
simone
simonetta
simpla
simplament
simplo
simplon
sin
sina
sine
sing
singapor
singena
singene
single
singulie
sinonimo
sinonimos
sins
sint
sinte
sio
sion
sir
sire
siria
siriaca
sirice
sirie
siro
sis
sische
siste
sita
site
sito
situa
situacion
siut
siuveno
sive
six
sixie
siœ
sja
sje
sjo
sjø
sjɛ
ski
sla
slava
sle
slovaquie
slove
sm
smith
sncf
so
soana
sobre
socia
social
sociala
sociale
sociales
socialisto
socials
socie
societa
society
sociolinguistique
sociologia
soda
sodan
sodoma
sofia
soflle
soit
sol
sola
solament
solar
soldat
sole
solegne
solely
soleymieux
solide
solie
solimena
solo
solora
solothurn
solstic
solucion
soma
somalie
some
son
sona
sonjo
sonjon
sonjons
sono
sons
sont
sophie
sor
sorbona
sorcie
sorda
sorlin
sormaux
sorte
sorti
sortia
sortie
sortir
sos
soscafo
sot
sou
souabe
souazilande
souessanta
soul
soulary
sous
sousa
south
souvenir
sovent
sovie
spa
spac
spagna
spagne
spagnol
spagnola
spagnols
spe
sperantisto
speranto
spinoza
spiracion
spon
spond
sponsa
spores
sport
sportif
sports
sprache
sprachgrenze
spreng
sprit
sqrt
sque
squi
sri
ss
ssa
ssament
ssan
ssana
ssance
ssans
ssarabia
ssarte
ssartenes
sse
ssemio
ssena
ssence
ssences
ssencie
ssent
sses
ssi
ssie
ssin
ssina
ssinator
ssine
ssins
ssion
ssions
ssita
ssiva
ssli
sson
ssone
ssons
ssont
ssor
ssu
ssua
ssus
st
sta
stacho
stacion
stacions
stade
stado
stament
standa
standardisa
standardise
stanislas
stantismo
star
state
states
station
statistica
statistique
statistiques
statua
statues
statut
ste
stefanie
stein
stendhal
stephani
stes
sti
stica
stich
sticos
stima
stina
stion
stiva
stival
sto
stones
stonia
stonie
stont
stora
storia
storico
stos
stra
stralia
stralie
strasbo
strasbourg
strate
strauss
stre
stres
stro
struccion
struccions
structura
structure
structures
stuart
studi
studio
stuttgart
su
sua
subi
succe
successor
suche
sud
sue
suer
sufra
suga
suicide
suisa
suissa
suisse
suisses
suissessa
suisso
suissos
suita
suite
suje
sujet
sul
sule
sulla
sultan
sultat
sultats
sum
sumo
sung
supe
superficie
supra
supre
suprima
sur
surdez
surface
suriname
surnom
surnoma
surpre
surre
surse
surto
surtot
sus
susa
suter
suu
svizzera
svizzeri
swadesh
swiss
swisstopo
swɑ
sy
syd
sydney
sye
sylvestre
sylvie
syriac
syste
sɑ
sɒ
sɒr
sɔ
sə
səv
səz
sɛ
t
ta
tabac
table
tabli
tablo
tacion
tacomba
tagne
tai
taille
tain
taine
tait
talgo
talia
talie
talien
taliena
taliens
tallinn
talurgie
talye
tament
tan
tandis
tang
tangs
tanque
tant
tanta
tanzanie
tapa
tar
tarentaise
tarente
tarificacion
tarifs
tariva
tarquin
tasson
tat
tats
tave
tavernier
taxon
taxons
tayilande
taylor
tch
tchahte
tchalla
tche
tchebychev
tchouiille
tchumi
tcl
te
team
teatro
teau
tecnolo
tee
tegne
teilhard
tel
tela
telard
tele
telet
telois
teloises
telyon
telyone
tempe
temple
templlo
templo
tempo
temps
ten
tena
tence
tend
tendu
tendua
tene
tens
tent
tenu
ter
tera
tere
teresa
terie
terin
terme
terminus
terra
terrain
terre
territoue
tes
tessa
tessin
tevin
texte
textes
texto
textos
tgv
th
tha
thang
thanna
the
thendiu
theodor
theta
thi
thie
tho
thodes
thomas
thomasset
thonon
thought
thre
thro
ti
tia
tiant
tibe
tica
ticion
ticions
tico
tie
tien
tiena
tienne
tiens
tiepolo
tier
tiers
tige
tiges
tillon
tilo
tim
time
timent
timents
times
timologia
timologica
timologico
timologiques
timor
tin
tinguely
tint
tintin
tio
tiola
tiopie
tior
tipo
tipologia
tipos
tique
tiques
tirana
tire
tirolo
tis
tismo
tissot
tissu
titanic
tito
titre
titro
titros
titule
tive
tje
tjo
tjə
tjɛ
tname
tnica
tnies
tniques
tnologa
tnologia
tnologo
tnonimo
to
tobago
toce
toche
tocie
toda
todes
toepffer
tofoto
togo
tojorn
tole
tolosa
tom
toma
tomas
tomatico
tomatos
tomba
tombe
tome
tomes
tomobila
ton
tone
tonga
tonie
tonin
tonoma
tonomia
tonomie
tonomisto
tonomo
tonon
tont
topografia
topographique
toponimia
toponomastico
toponymie
toponymique
toquio
tor
tora
torino
torita
torn
torna
tornar
torne
torni
toronto
torota
torre
torrent
torrents
tors
torsten
tos
tosca
tot
tota
totalita
tote
totes
tots
tou
toue
touit
toujours
toulousa
tour
tourismo
touristica
touristiques
tournesol
tours
tous
tout
toutes
tr
tra
trace
traces
trade
tradicion
tradiciona
tradicionalament
tradicione
tradicionel
tradicions
tradition
traditions
traduccion
traduction
traduire
traduit
traduita
trafic
traite
traje
trame
trament
trameve
trangie
transcripcion
transcrit
transfe
transforma
transformacion
transmission
transnistria
transpo
transporta
trapodos
trava
travaly
travalya
travalye
travaux
trave
travers
traverse
tre
tremblement
tren
trens
trenta
trente
trentin
tres
tresor
trevie
trevo
treyent
tri
tribune
trica
trich
triche
trichien
trico
tricolo
trie
trieste
trik
trimestriel
trinita
trivier
tro
trobles
troblos
trofe
trois
trolliet
tron
tronc
trop
tropa
tropes
tropola
tropole
tropolitana
tropolite
tros
trou
troue
trouve
trouvent
trova
trovar
trove
trovens
trovont
true
truit
trullols
trutta
try
trɑ
trə
trɛ
trɪk
ts
tsa
tsaeringue
tsamportche
tsanson
tsar
tsarina
tsati
tsaʁ
tsch
tschumi
tse
tsemeun
tsez
tsi
tsii
tsiie
tsju
tso
tsougue
tsurique
tsɑ
tsɒ
tsə
tsɛ
tu
tua
tuaillon
tualyon
tubo
tuche
tuda
tude
tudes
tudia
tudie
tudiye
tudiyer
tue
tuileries
tune
tunisie
tuor
tura
turbotrens
turca
turco
turdus
tures
turgovia
turin
turismo
turner
turquia
turquie
turrel
turretin
tus
tute
tuvalu
tux
tuyo
tv
twa
twain
twitter
ty
tye
tyes
tymologique
tyo
type
tø
tɑ
tɒ
tɔ
tɔs
tə
tɛ
tʁɑ
tʁə
tʁɛ
tʃe
tʃi
u
ua
ucrayena
ucre
ue
uecn
uefa
uelys
uge
uk
ukraine
ukre
ulien
ulisso
ulrich
ulye
umberto
un
una
uncor
und
unde
une
unesco
uni
unica
unico
unicode
unies
unine
union
unir
unis
unita
unite
united
unive
universa
universalis
universel
universeta
universidad
universidade
universita
universitaires
universite
university
unna
uns
up
upon
upre
ur
urbain
urbaine
urbanismo
urbe
urben
urfe
urs
urss
ursula
urugoay
urugoayi
us
usa
usage
usancie
use
usine
usio
usteri
ut
utilisa
utilisacion
utilisant
utilisar
utilise
utilisont
utre
uve
uvre
ux
v
va
vacance
vaches
vachie
vacion
vagin
vagons
val
vala
valais
valaisanne
valaisannes
valaisans
valangin
valdo
valdotaine
valdote
valdoten
vale
valence
valencia
valencien
valentin
valie
vallaise
valle
vallesia
valli
valloire
vallotton
valls
valon
valor
valors
valromey
vals
vament
van
vange
vanoue
vant
vanuatu
vapor
var
vareye
varia
varianta
variantes
variation
varie
varney
varo
varsovie
vat
vatican
vatorne
vatre
vauban
vaud
vaudois
vaudoise
vautherin
vaux
vaʁ
vda
ve
vegne
vegnent
vegnes
vegnir
vegno
vegnont
vegnu
vegnua
vegnus
vela
veladjo
velafranche
velano
velarenche
velarenches
velarencs
velay
vele
veles
velin
velopa
velopament
velope
veloppement
velye
velyon
ven
vencor
vene
venent
venezue
vengt
venir
venon
vensonna
vent
venu
ver
verdi
vere
verens
vereta
verie
verio
verlag
verlaine
vernalis
vernay
verne
vernier
vers
versailles
versants
version
vert
verture
ves
vesena
vesenes
vesin
vesins
veta
veulla
veve
vevey
veyes
veyle
veysonnaz
vi
via
viacion
viala
vian
vice
vicente
vichie
victima
victimes
victoire
victor
victoria
victorin
victoue
vida
vide
vie
viely
vielya
vielye
vielyes
vielyo
vielys
vienne
vies
vietti
vieux
vige
vigne
vigoda
vigor
vii
viie
viii
viiie
vikings
vila
vile
villa
village
villages
villalbos
villards
villars
ville
villefranche
villes
villmergen
vilorbana
vilye
vin
vincent
vinci
vindrat
vine
vingt
vins
vint
vio
viol
viola
viole
vipe
vire
viret
virginia
virus
vis
vise
vision
visions
visualisacion
vit
vita
vite
vito
viu
viua
vivace
vivant
vivare
vive
vivent
viventes
vivents
vives
vivont
vivre
vja
vjø
vjøʃ
vla
vladimir
vlo
vlɑ
vo
voca
vocabolario
vocabule
vocacion
voie
voix
vol
volcan
vole
volet
volkova
volodymyr
volonta
volta
voltaire
volu
volucion
volucione
volui
volume
volumes
volution
von
vont
vorva
vos
vot
votacion
vote
votre
voue
vouilloz
vouiquime
vouiquipe
vous
voutra
voutron
vox
voya
voyage
voyagiors
voye
vra
vre
vres
vri
vro
vront
vros
vroz
vs
vu
vua
vuatavela
vue
vuillermoz
vuilyin
vuite
vulgaire
vulgue
vulva
vulyi
vuoto
vurpas
vwe
vy
vɑ
vɒ
vɔ
vɔr
və
vɛ
w
wales
walker
wallis
walliser
walser
walston
walter
walther
warner
was
washington
watt
wayne
we
web
weiss
werk
werner
western
whymper
wi
wiki
wikimedia
wikipe
wikipedia
wilder
wilhelm
will
william
williams
willien
winckelmann
wind
with
wo
wolf
wolfgang
women
woodard
world
worley
wright
wu
wurtemberg
www
x
xa
xandrie
xas
xavier
xce
xe
xi
xianfan
xica
xico
xicografiques
xicografo
xie
xii
xiie
xiii
xiiie
xis
xiv
xive
xix
xixe
xixie
xls
xo
xpe
xplique
xploue
xposicion
xpre
xpress
xte
xtension
xtilo
xto
xtos
xtre
xtue
xua
xue
xv
xve
xvi
xvie
xviie
xviii
xviiie
xviiiie
xx
xxe
xxie
xxx
y
ya
yan
yanta
ye
yena
yens
yent
yenta
yerly
yes
yeui
yidich
yo
yolanda
yon
yona
yont
yoran
york
yorque
yosa
yoshihide
you
younan
youri
youssef
youtube
yu
yueng
yulia
yun
yves
yvette
z
za
zabe
zambie
zarah
zard
ze
zelensky
zen
zery
zhe
zho
zhou
zi
zick
zie
ziens
zihlmann
zimbaboue
zinsli
zita
zje
zji
zjo
zjø
zjɛ
zo
zon
zona
zones
zoologia
zot
zou
zouc
zu
zufferey
zum
zur
zusammen
zy
zɑ
zɒ
zɔ
zə
zɛ
{
|
}
~
§
«
°
±
²
´
·
º
»
×
ð
ða
ðe
ði
ðja
ðo
ðɑ
ðɔ
ðə
ðɛ
ø
đo
ŋ
œ
œuvre
œuvres
ɑ
ɒ
ɒr
ɔ
ɔt
ɕ
ə
ɛ
ɜ
ɡ
ɡa
ɡar
ɡo
ɡra
ɡre
ɡrə
ɡy
ɡɔ
ɥ
ɪ
ɲa
ɲe
ɲi
ɲo
ɲwɑ
ɲwɒ
ɲy
ɲø
ɲɑ
ɲɒ
ɲɔ
ɲə
ɲɛ
ɽ
ʁ
ʁa
ʁd
ʁe
ʁi
ʁja
ʁma
ʁo
ʁot
ʁu
ʁɑ
ʁɔ
ʁɔn
ʁə
ʁɛ
ʃ
ʃa
ʃe
ʃi
ʃo
ʃoʁ
ʃu
ʃy
ʃɑ
ʃɒ
ʃɒl
ʃə
ʃɛ
ʊ
ʎ
ʎa
ʎe
ʎi
ʎo
ʎu
ʎwɒ
ʎy
ʎø
ʎɒ
ʎɔ
ʎə
ʎɛ
ʒ
ʒa
ʒar
ʒaʁ
ʒe
ʒi
ʒo
ʒu
ʒy
ʒys
ʒø
ʒɑ
ʒɔ
ʒə
ʒɛ
ʒɛs
ʣ
ʤ
ʦ
ʧ
ʲ
ʼ
ˈ
ˌ
ː
ˑ
̀
́
̂
̃
̄
̆
̇
̈
̊
̋
̌
̓
̔
̛
̞
̣
̦
̧
̨
̩
̯
͂
ͅ
͡
α
β
γος
ε
ει
η
θ
ι
και
μ
ν
ο
π
ς
το
υ
ω
в
и
любо
украі
ִ
ַ
ָ
ֹ
द
र
व
ा
ि
ी
े
्
ത
മ
ാ
്
་
ན
ာ
ု
း
်
ြ
រ
ា
្
​
‎
‐
‑
–
—
―
‘
’
“
”
„
†
•
…
‰
′
″
‿
⁡
ⁱ
ⁿ
€
ℤ
ⅲ
ⅴ
↑
→
↔
↷
∈
∏
∑
−
∞
≡
≤
≥
⌊
⌋
③
④
⑦
─
█
▪
ⴰ
ⴻ
ⵉ
ⵍ
ⵎ
ⵏ
ⵖ
ⵣ
⺀
⺄
⺆
⺈
⺊
⺌
⺕
⺝
⺸
⺼
⿰
⿱
⿲
⿳
⿴
⿵
⿶
⿷
⿸
⿹
⿺
⿻
〢
゙
コ
ス
ト
ホ
ユ
ン
ー
㇁
㇂
㇄
㇇
㇈
㇉
㇓
㐁
㐄
㐅
㐌
㐫
㐬
㐭
㐮
㐱
㑒
㒵
㒸
㒼
㓁
㓞
㔾
㕛
㕣
㖾
㘝
㚅
㚇
㚔
㚘
㝉
㝡
㝴
㝵
㞋
㞢
㞷
㠩
㠭
㠯
㡀
㡭
㡿
㢲
㢴
㣇
㣺
㥯
㪅
㫄
㫐
㫒
㫺
㬅
㬎
㬥
㬰
㲋
㳄
㷠
㸒
㸚
㸦
㼌
㼲
㽞
㿟
䀠
䂞
䍃
䏍
䒑
䖍
䖒
䖝
䖵
䙴
䚻
䜌
䝿
䡛
䧹
䪞
一
丁
丂
七
丄
丅
丆
万
丈
三
上
下
丌
不
与
丏
丐
丑
专
且
丕
世
丘
丙
业
东
丞
丢
丣
两
严
並
丨
丩
个
丫
丬
中
丮
丰
丱
串
丵
丶
丷
丸
丹
为
主
丽
丿
乀
乂
乃
久
乆
乇
么
义
之
乌
乍
乎
乏
乐
乑
乔
乖
乗
乘
乙
乚
乛
乜
九
乞
也
习
乡
乳
乾
亀
亅
了
亇
予
争
事
二
亍
于
亏
亐
云
互
亓
五
井
亘
亚
亜
亞
亟
亠
亡
亢
交
亥
亦
产
亨
亩
享
京
亭
亮
亯
亰
亲
亳
亶
亷
人
亻
亼
亾
仁
今
介
仌
从
仐
仑
仒
仓
仕
他
付
仝
代
令
以
任
企
伊
伏
伐
休
会
伯
但
位
何
佘
余
作
佥
使
來
侈
侌
侖
侯
侵
便
保
俞
信
修
倉
倍
候
倠
備
僉
僕
儿
兀
允
兂
元
兄
充
兆
兇
先
光
兊
克
兌
免
兑
兒
兓
兔
党
兜
兟
入
全
兩
兪
八
公
六
兮
兰
共
关
兵
其
具
典
兹
兼
冀
冂
冃
冄
内
冈
冉
冊
冋
册
再
冎
冏
冐
冒
冓
冖
冗
冘
军
农
冝
冡
冥
冫
冬
冷
几
凡
凢
凵
凶
凷
凸
凹
出
函
凾
刀
刁
刂
刃
刄
刅
分
切
刍
刑
刕
刖
列
刘
则
初
別
利
别
到
制
刺
則
削
剌
前
剡
剽
劉
力
功
加
劦
助
劫
劳
劵
勃
勇
勉
勒
動
務
勞
勤
勹
勺
勻
勾
勿
匀
匂
包
匆
匈
匊
匋
匍
匕
化
北
匚
匝
匡
匪
匱
匸
匹
区
医
匽
匿
區
十
卂
千
卄
卅
卆
升
午
卉
半
卌
华
卑
卒
卓
单
卖
南
卜
卝
卞
占
卡
卢
卣
卤
卦
卩
卪
卬
卯
印
危
即
却
卵
卷
卸
卻
厂
厃
厄
历
厈
厉
厌
厓
厘
厚
原
厤
厥
厨
厭
厲
厶
厷
厸
去
厼
厽
叀
参
參
叅
又
叉
及
友
双
反
叐
发
叒
叔
叕
取
受
叚
叜
叟
口
古
句
另
叩
只
召
可
台
叱
史
右
叵
号
司
叹
吂
各
吅
合
吉
吊
吋
同
名
后
吏
向
吕
君
吝
吞
否
含
启
吳
吴
吹
吾
呂
呆
呈
告
员
呙
周
命
咅
和
咎
咠
咢
咨
咸
咼
哀
品
哉
員
哥
哲
唐
商
啇
問
啚
啬
啻
善
喜
喬
單
喿
嗇
噩
嚴
囊
囗
囘
囙
囚
四
回
囟
因
囧
囬
困
囱
囷
固
国
圂
圅
國
圍
圓
土
圡
圣
圥
在
圭
地
圶
圼
坐
坒
坚
坴
垂
垔
垚
埀
埋
埶
執
基
堂
堅
堆
堇
堯
塞
墨
壘
士
壬
壯
声
壳
壴
壹
壺
壽
夂
处
夅
夆
备
夊
夋
夌
复
夏
夒
夕
外
夗
夘
多
夜
夢
大
夨
天
太
夫
夬
夭
央
失
夲
头
夷
夸
夹
夻
夾
奂
奄
奇
奈
奉
奎
奏
奐
契
奓
奔
奚
奞
奠
奢
奥
奭
女
奴
奻
好
如
妄
妙
妟
妥
妻
妾
姑
委
姜
威
娄
婁
婴
嬰
嬴
子
孑
孔
孕
孖
字
存
孚
孛
孝
孟
季
孤
学
孫
孱
學
宀
宁
宂
它
宅
宇
守
安
宋
完
宏
宓
宗
官
定
宛
宜
宝
客
宣
室
宮
宰
害
家
容
宾
宿
寄
寅
密
富
寒
察
寧
審
寫
寬
寮
寸
对
寺
寻
寽
対
寿
封
尃
射
将
將
專
尉
尊
尋
尌
對
小
少
尒
尓
尔
尖
尗
尚
尞
尢
尣
尤
尧
尨
尭
就
尸
尹
尺
尻
尼
尽
尾
尿
局
居
屈
屋
屎
屏
屑
展
屖
屚
属
屠
屡
屬
屮
屯
屰
山
屵
屾
岁
岂
岑
岡
岩
岳
岸
峯
島
崇
崑
崔
崖
崙
崩
嵬
嶲
巂
巛
川
州
巟
巠
巢
巤
工
左
巧
巨
巩
巫
差
己
已
巳
巴
巷
巸
巽
巾
巿
帀
市
布
希
帚
帛
帝
带
師
席
帶
常
干
平
年
幵
并
幷
幸
幺
幻
幼
幽
幾
广
広
庄
床
底
店
庚
府
度
庫
庭
庶
康
庸
廉
廌
廛
廣
廩
廴
延
廷
建
廾
廿
开
弁
弃
弄
弇
弋
式
弓
弔
引
弗
弘
弜
弟
弥
弦
弱
張
強
强
彊
彌
彎
彐
彑
当
彔
录
彖
彗
彡
形
彥
彦
彧
彭
彳
役
彼
往
待
律
徒
得
徙
從
復
微
徵
心
忄
必
忌
忍
志
忝
忠
忩
快
念
忽
忿
思
怠
急
怱
恆
恒
恩
恭
息
悉
患
悤
悲
悶
惠
惡
惢
愁
愈
意
愛
感
慈
慧
慮
憂
憲
應
戀
戈
戉
戊
戋
戌
戍
戎
成
我
戒
戔
或
戚
戠
戢
截
戲
戶
户
戹
戼
戾
房
所
扁
扇
手
扌
才
打
托
执
承
折
拉
拜
拿
掌
推
提
摩
支
攴
攵
收
攸
改
放
政
敄
敏
敕
敖
敗
教
敝
敞
敢
散
敦
敫
敬
数
敷
數
斂
文
斉
斊
斗
斤
斥
斩
斬
斯
新
方
於
施
斿
旁
旋
族
无
旡
既
旣
日
旦
旧
旨
早
旬
旱
旲
时
旾
昆
昇
昌
昍
明
昏
易
昔
昗
昜
星
春
昬
是
昱
昴
昷
時
晃
晋
晏
普
景
晶
智
暑
暴
曇
曩
曰
曲
曳
更
曷
書
曹
曼
曾
替
最
朁
會
月
有
朋
服
朔
朕
朗
望
朝
木
朩
未
末
本
札
朮
术
朱
朵
朶
朿
杀
杏
杜
束
条
来
東
杲
杳
松
析
林
枚
果
枝
枲
枼
某
柔
查
柬
柰
柴
栗
桀
桑
桼
梁
條
梟
梨
棘
棠
棥
森
楚
業
楽
榮
樂
樊
欠
次
欣
欮
欲
欶
欽
款
歆
歇
歛
止
正
此
步
武
歨
歪
歮
歯
歰
歲
歴
歷
歸
歹
歺
死
殳
段
殷
殸
殹
殺
殻
殿
毋
毌
母
每
毒
比
毕
毚
毛
毳
氏
氐
民
气
氣
水
氵
氶
氷
永
氺
氾
求
汝
汞
江
沃
沓
沙
沝
泉
法
波
泣
泥
泰
洛
洪
活
派
流
浦
浪
浮
淡
淮
清
渚
渠
湯
滿
漸
火
灬
灭
灰
灵
灷
炅
炎
炏
炗
炙
炭
為
烈
烏
烝
焉
無
焦
焱
然
煞
熊
熏
燕
營
燮
爪
爫
爭
爯
爰
爱
爲
爵
父
爻
爽
爾
爿
片
牙
牚
牛
牜
牟
牢
牧
牪
牽
犀
犬
犭
犮
狂
狄
狊
独
狺
猋
猒
猪
献
獻
玄
率
玉
王
玟
玨
珎
班
琴
瑟
瑩
璠
瓜
瓦
甘
甚
生
産
用
甫
甬
田
由
甲
申
电
甶
男
甸
甹
画
甾
畀
界
畏
畐
留
畜
畟
畢
畧
畨
番
畫
異
畱
當
畺
畾
疊
疋
疌
疑
疒
疾
癶
癸
癹
登
發
白
百
皀
皃
的
皆
皇
皋
皐
皕
皮
皷
皿
盃
盆
盇
盈
益
盍
盎
监
盒
盖
盛
盡
監
盤
盧
目
直
相
盾
省
眇
眉
看
眔
眞
真
眷
眼
眾
着
睘
睪
睿
瞏
瞢
瞿
矍
矛
矞
矢
矣
知
矦
短
石
破
碎
磊
磨
示
礻
礼
祟
票
祭
禀
禁
禸
禹
禺
离
禽
禾
禿
秀
秃
秉
秋
科
秝
秦
移
稟
穀
穌
穴
究
穹
空
穿
突
窄
窒
立
竒
竜
竝
竟
章
童
竹
笑
笠
筆
等
答
箕
算
箴
節
篤
篭
米
粉
粛
粟
粤
粦
粲
糞
糸
糹
系
約
納
素
索
紫
累
細
絜
絫
絲
維
綿
縣
繇
纍
纟
缶
网
罒
罔
罕
罗
罙
罡
罢
罪
署
罷
羅
羊
羌
羍
美
羔
羕
羗
羞
羡
羣
群
義
羲
羸
羽
翁
翏
習
翕
翟
翠
翼
老
耂
考
者
耆
而
耎
耑
耒
耳
耴
耶
耷
聂
聊
聖
聚
聶
聿
肀
肃
肅
肉
肖
肙
肥
肩
肯
育
肴
胃
背
胡
胥
能
脊
脩
膚
臣
臤
臧
自
臬
臭
臯
臱
至
致
臺
臼
臽
臾
臿
舀
舂
舄
與
興
舉
舌
舍
舛
舜
舞
舟
般
艮
良
色
艸
艹
艾
芒
芔
芬
芮
花
芳
芺
芻
苔
苗
苟
若
苦
英
茶
茸
荅
草
荒
荣
荼
莆
莧
莫
莽
菆
菊
菐
華
萬
落
葉
著
葛
董
葵
蒙
蒦
蒼
蓋
蓬
蓺
蔑
蔡
蕉
蕭
薄
薛
薦
薰
藍
藏
藥
蘭
虍
虎
虐
虒
虔
處
虖
虗
虘
虚
虛
虜
虞
虫
虽
蚤
蚩
蜀
蜜
蟲
蠡
血
行
衍
衛
衣
衤
表
衮
衰
袁
袞
褭
褱
襄
襾
西
覀
要
覃
見
規
覓
覧
親
覽
见
角
解
言
訁
訇
計
詹
誩
諸
讠
谷
豆
豈
豊
豐
豕
豖
豙
象
豦
豩
豪
豸
貇
貝
貞
貟
負
貢
貧
貪
貫
責
貳
貴
買
費
賁
資
賈
賏
賓
賔
賛
賞
賢
賣
質
賴
贊
贝
贡
责
贯
贲
贵
赖
赞
赤
赦
走
越
足
路
蹇
身
躬
車
軍
軎
軟
輦
车
辛
辜
辟
辥
辰
辱
農
辵
辶
边
达
过
近
连
迷
追
退
送
逆
逐
通
速
造
逢
連
逮
進
遀
遂
過
道
達
遣
適
遷
遺
邊
邑
邕
那
邦
邪
郎
部
郭
都
鄉
酉
酋
配
酓
釆
采
里
重
野
量
金
釒
錢
钅
長
镸
长
門
閃
閉
開
閏
閑
閒
間
閔
閵
閻
闌
门
间
闷
阑
阜
阝
阿
降
陳
隆
隊
隋
隡
隨
隱
隶
隹
隺
隻
隼
隽
难
雀
雁
集
雈
雋
雍
雐
雔
雙
雚
雜
雝
離
難
雨
雩
雪
雲
零
雷
需
霍
霜
霝
霞
霸
靈
靑
青
非
靡
面
靣
革
韋
韦
韭
韯
韱
音
頁
頃
項
須
頗
頡
頻
顛
页
風
风
飛
飞
食
飠
養
饣
首
香
馬
馮
駦
马
骨
高
髟
鬥
鬯
鬲
鬼
魚
魯
鮮
鱼
鲁
鳥
鳳
鸟
鹵
鹿
麃
麗
麥
麦
麻
黃
黄
黍
黎
黑
黒
黨
黹
黽
黾
鼎
鼓
鼠
鼻
齊
齋
齐
齒
齿
龍
龙
龜
龟
龠
龰
龱
龴
龵
龶
龷
龸
龹
ꜧ
者
艹
？
𠀁
𠀃
𠀆
𠀉
𠀎
𠀐
𠁁
𠁣
𠂆
𠂇
𠂈
𠂉
𠂊
𠂋
𠂎
𠂒
𠂔
𠂛
𠂡
𠂢
𠂤
𠂬
𠂭
𠂹
𠃊
𠃋
𠃌
𠃍
𠃎
𠃑
𠃓
𠃔
𠃜
𠄌
𠄎
𠄠
𠄢
𠆢
𠆥
𠇍
𠈌
𠌵
𠓜
𠔉
𠔥
𠔼
𠔽
𠔿
𠕀
𠕁
𠕋
𠘧
𠘨
𠙻
𠙼
𠚏
𠚒
𠚤
𠚪
𠣏
𠤎
𠤕
𠥓
𠦄
𠦑
𠦝
𠧒
𠧗
𠧪
𠩺
𠪚
𠫓
𠫔
𠫤
𠬛
𠬝
𠬞
𠬢
𠬤
𠬶
𠮛
𠮦
𠮷
𠯑
𠱠
𠳮
𠷎
𡈼
𡉀
𡉵
𡌥
𡍮
𡏳
𡕒
𡕩
𡕰
𡖅
𡗗
𡗜
𡘆
𡘤
𡧱
𡨄
𡩧
𡬠
𡭽
𡰣
𡰥
𡰪
𡰯
𡰱
𡷈
𡸁
𡿨
𡿩
𡿪
𡿺
𢀖
𢀛
𢀩
𢁙
𢆉
𢆰
𢆶
𢇁
𢇇
𢉖
𢌬
𢌿
𢏚
𢑑
𢑚
𢖻
𢙣
𢛳
𢦏
𢦒
𢧵
𢼄
𢾕
𣁋
𣄼
𣅀
𣅽
𣍘
𣎳
𣎵
𣏋
𣏼
𣗥
𣥂
𣥖
𣦵
𣦼
𣧄
𣪊
𣪠
𣬉
𣳾
𣶒
𤇾
𤊽
𤐫
𤓰
𤔔
𤕨
𤣩
𤰇
𤰔
𤰞
𤴓
𤴔
𤽄
𥁑
𥁕
𥃦
𥃩
𥃭
𥇡
𥑟
𥘅
𥘈
𥝢
𥫗
𥱡
𦈢
𦉪
𦉬
𦉼
𦍌
𦍒
𦎧
𦐇
𦓔
𦔮
𦘒
𦙃
𦚏
𦣝
𦣞
𦣻
𦥑
𦥔
𦥯
𦨉
𦭝
𦰩
𧆞
𧈧
𧘇
𧰨
𧴪
𧴮
𧵩
𧾷
𨸏
𨾴
𩙿
𩠐
𩫏
𩵋
𪉷
𪜀
𪟽
𪠲
𪩲
𫇦
𫔭
𫜸
𫝀
𫠣
𫠩
𫢉
𫥞
𫩏
𫩠
𫪡
𫲽
𫶧
𬀷
𬐘
𬗌
𬙙
𬛸
𬜯
𬟩
𬯁
𬴘
𬺻
𬼉
𬼖
𭀰
𭁈
𭁨
𭅰
𭑈
𭕄
𭗼
𭤨
𭥫
𭻾
𮅕
𮊿
𮍌
𮍏
𮓗
𮥼
𮧮
廾
𰀁
𰀄
𰀈
𰀉
𰀕
𰀠
𰀡
𰀢
𰀪
𰁜
𰃮
𰆊
𰆘
𰋙
𰕎
𰢴
𰧭
𰯲
00--
03--
05--
08--
09--
10--
52--
8772--
a--
ab--
abe--
abo--
ac--
acc--
acompa--
activ--
ad--
ade--
ae--
afo--
ag--
agl--
ago--
ai--
ak--
al--
ala--
ali--
all--
alogi--
am--
ama--
ami--
an--
ana--
anarc--
ang--
anti--
ap--
apo--
ar--
ara--
arc--
arp--
art--
articul--
as--
assi--
astu--
at--
ata--
ate--
au--
av--
ave--
ay--
azin--
b--
ba--
bal--
ban--
bar--
barbi--
bas--
be--
beau--
bel--
ben--
ber--
bet--
bi--
biblio--
bie--
bio--
bis--
bl--
bla--
bo--
bolo--
bols--
bom--
bombard--
bon--
bor--
bou--
bra--
bre--
bri--
britan--
bro--
bru--
bu--
bus--
c--
ca--
cal--
cam--
can--
cana--
cap--
car--
carolin--
cas--
casa--
cata--
catholi--
cay--
ce--
cen--
ces--
ch--
cha--
cham--
che--
chi--
cho--
chron--
ci--
cicl--
cl--
cla--
clau--
cle--
clo--
co--
col--
com--
come--
compa--
con--
concu--
confi--
constru--
cor--
cora--
corre--
cos--
cou--
country--
cra--
cre--
cri--
cro--
ct--
cu--
cue--
cul--
cy--
cœ--
d--
da--
dan--
dar--
dau--
de--
der--
des--
dev--
deve--
di--
dia--
dic--
die--
dif--
dis--
dive--
dj--
do--
doct--
dom--
don--
dos--
dr--
dra--
dru--
du--
dur--
dz--
dzo--
e--
ec--
eco--
ed--
edit--
el--
em--
emp--
en--
encu--
ensufi--
entro--
enven--
eo--
er--
es--
est--
estu--
et--
euro--
euvra--
ex--
ey--
f--
fa--
fac--
far--
fasc--
fe--
feni--
fer--
fi--
fil--
filos--
fin--
fina--
fl--
fla--
fllu--
fo--
fon--
fonolo--
for--
fou--
fr--
fra--
frag--
fre--
fu--
ful--
g--
ga--
gad--
gal--
gam--
gaut--
ge--
gen--
geo--
ger--
ges--
gi--
gia--
gil--
giu--
gl--
glau--
glo--
go--
gom--
gon--
goo--
gove--
gra--
gre--
gri--
gu--
gui--
guil--
gz--
h--
ha--
hal--
han--
he--
hen--
her--
hi--
ho--
hori--
hu--
i--
ide--
im--
in--
informa--
inscript--
inte--
inter--
ip--
ir--
is--
isla--
it--
ita--
j--
ja--
jac--
jah--
je--
ji--
jo--
jor--
jou--
ju--
k--
ka--
kai--
ke--
ken--
kha--
ki--
km--
ko--
kon--
kou--
ku--
l--
la--
lan--
lcl--
ld--
le--
lec--
len--
les--
let--
lex--
li--
ligu--
lind--
lingu--
ln--
lo--
loge--
lon--
lou--
lt--
lu--
ly--
m--
ma--
madaga--
maga--
mal--
man--
mar--
mari--
mas--
mat--
max--
mc--
me--
medie--
meh--
melc--
mem--
men--
mer--
meri--
mes--
mi--
mik--
mil--
mit--
mo--
mocra--
modifica--
molo--
mon--
mont--
mor--
mou--
mu--
mult--
my--
mysti--
n--
na--
naka--
nar--
natha--
naviga--
nd--
ne--
neu--
ni--
nis--
no--
nom--
nor--
nos--
not--
ns--
nt--
nu--
o--
ob--
oc--
oeu--
of--
ol--
olo--
om--
on--
opin--
opo--
or--
orb--
ord--
ori--
os--
ou--
oub--
p--
pa--
pal--
palat--
pan--
par--
pas--
patri--
pe--
pen--
peo--
per--
pha--
pi--
pia--
picto--
pil--
pin--
pis--
pl--
pla--
plan--
plo--
po--
poi--
pol--
polye--
polytechni--
pon--
por--
pou--
poue--
pra--
pre--
pri--
pro--
provo--
proxi--
pru--
pt--
pu--
pub--
py--
qua--
que--
qui--
quoti--
r--
ra--
rai--
ral--
ram--
ran--
rc--
rd--
rde--
re--
rec--
reco--
reg--
rei--
relat--
relativ--
reli--
rem--
rempl--
ren--
res--
reto--
rg--
rhe--
rho--
ri--
rie--
rio--
ris--
rit--
rme--
rmi--
rn--
rna--
ro--
ros--
rou--
rpin--
rr--
rra--
rre--
rs--
rsa--
rt--
ru--
s--
sa--
sal--
san--
sau--
sc--
sca--
scand--
sch--
scul--
se--
seci--
sem--
sen--
ser--
sha--
si--
sia--
sie--
sig--
sil--
simbo--
sin--
siu--
slo--
sm--
so--
son--
sot--
sou--
spa--
spe--
sprach--
sse--
sta--
ste--
sti--
su--
sub--
sum--
sur--
sy--
t--
ta--
tar--
tay--
te--
ten--
ter--
tes--
th--
thodologi--
ti--
tio--
to--
tol--
ton--
topo--
tor--
tota--
tou--
tr--
tra--
trans--
transit--
tri--
tro--
tsa--
tu--
ty--
u--
ue--
ult--
ultra--
uni--
ur--
urban--
us--
ut--
v--
va--
val--
van--
vangi--
var--
vaut--
ve--
vela--
ven--
ver--
ves--
vi--
vie--
vil--
vis--
visi--
vit--
vo--
vol--
voui--
vu--
w--
wa--
wat--
we--
wi--
wo--
wu--
x--
xi--
xo--
y--
ye--
yi--
yo--
z--
za--
ze--
zh--
zo--
ð--
ɡ--
ɲ--
ʁ--
ʃ--
ʎ--
ʒ--
μ--
ο--
τ--
правосла--
--0
--00
--1
--2
--3
--4
--5
--6
--7
--8
--9
--a
--ac
--af
--age
--al
--ale
--ament
--an
--and
--ano
--ant
--ar
--ard
--ari
--aro
--as
--at
--au
--aud
--aux
--b
--ba
--be
--bes
--bet
--ble
--bo
--bs
--bue
--bury
--c
--ca
--car
--ce
--ces
--ch
--che
--ci
--cion
--cions
--ck
--co
--ct
--cts
--cus
--cy
--d
--da
--de
--di
--dia
--die
--do
--dom
--dre
--du
--e
--ef
--el
--elya
--ement
--en
--enc
--ence
--ene
--ens
--ent
--er
--era
--ern
--ers
--es
--et
--ets
--eu
--eux
--ez
--f
--fa
--ff
--fi
--fica
--fico
--fo
--fort
--ft
--g
--ga
--gan
--ge
--gen
--ges
--ghi
--ght
--gi
--gie
--gna
--gne
--gni
--gnir
--gno
--gnon
--gnont
--gnu
--gny
--go
--grafo
--gs
--gue
--gy
--h
--ha
--he
--hn
--ho
--hon
--horn
--hs
--ht
--i
--ia
--ial
--iale
--iat
--ic
--ica
--ico
--icos
--ie
--ien
--ies
--if
--ig
--ik
--il
--ille
--im
--in
--ina
--ine
--ines
--ing
--ini
--ins
--io
--ion
--iors
--iot
--ir
--ire
--is
--isa
--isacion
--isation
--ische
--ischen
--isme
--ismo
--ista
--iste
--isto
--istos
--it
--ity
--iu
--iva
--ix
--j
--ja
--je
--jo
--k
--ka
--ke
--ki
--kin
--kov
--l
--la
--lament
--las
--ld
--lde
--le
--len
--les
--let
--ley
--li
--lie
--lin
--ling
--lisacion
--lita
--ll
--lla
--lle
--lli
--llon
--lo
--logico
--logy
--ls
--lter
--lu
--ly
--lya
--lye
--lyon
--m
--ma
--man
--mann
--mas
--maz
--mba
--mble
--me
--ment
--mi
--mic
--min
--mina
--mo
--mos
--ms
--n
--na
--naire
--nas
--naux
--nc
--nce
--nces
--nches
--ncie
--ncs
--nd
--nde
--ndes
--ndro
--nds
--ne
--ner
--nes
--net
--neuf
--ney
--ng
--nga
--nge
--nges
--ni
--nia
--nie
--niers
--nir
--nn
--nna
--nne
--no
--ns
--nsa
--nse
--nsium
--nt
--nta
--nte
--ntes
--nts
--nu
--nua
--nue
--ny
--nye
--nza
--o
--obile
--od
--oi
--ok
--ole
--ome
--on
--onie
--ont
--or
--ors
--ort
--os
--oses
--ot
--ou
--oua
--oud
--oue
--ox
--p
--pa
--pe
--phy
--po
--politana
--ppe
--pt
--ptio
--que
--r
--ra
--rado
--rans
--rat
--rd
--rda
--rdia
--rdoue
--rds
--re
--rel
--res
--ret
--rg
--ri
--ria
--rie
--rift
--rin
--rium
--rm
--rn
--rna
--ro
--ros
--rre
--rs
--rse
--rt
--rte
--ru
--rum
--rvation
--ry
--rz
--rʒ
--s
--sa
--sans
--sbo
--se
--see
--ses
--sh
--si
--sie
--smo
--so
--son
--ss
--ssa
--sse
--st
--su
--sy
--t
--ta
--tae
--tal
--tale
--te
--ter
--tes
--teur
--th
--ti
--tics
--tie
--tif
--tion
--tions
--tiva
--tive
--tle
--to
--ton
--tor
--tos
--tr
--tre
--trice
--ts
--tt
--tta
--tte
--ty
--tʁ
--u
--ua
--ud
--udo
--udruz
--ue
--uel
--uf
--uga
--ugh
--ula
--ule
--ult
--um
--un
--ung
--ur
--ura
--ure
--ures
--urs
--us
--ute
--ux
--uya
--v
--va
--ve
--vet
--vi
--via
--vie
--vo
--vre
--w
--wa
--we
--x
--xt
--y
--ya
--ye
--yen
--yi
--yo
--ys
--yu
--z
--za
--zbo
--ze
--zo
--æ
--œ
--œr
--œx
--ɑ
--ɒ
--ɔ
--ə
--ɛ
--ɲ
--ʁ
--ʃ
--ʎ
--ʒ
--а
