!
"
#
##0
##1
##10
##11
##12
##13
##14
##15
##16
##17
##18
##19
##2
##20
##21
##22
##23
##24
##25
##26
##27
##28
##29
##3
##30
##31
##32
##33
##34
##35
##36
##37
##38
##39
##4
##40
##41
##42
##43
##44
##45
##46
##47
##48
##49
##5
##50
##51
##52
##53
##54
##55
##56
##57
##58
##59
##6
##60
##61
##62
##63
##64
##65
##66
##67
##68
##69
##7
##70
##71
##72
##73
##74
##75
##76
##77
##78
##79
##8
##80
##81
##82
##83
##84
##85
##86
##87
##88
##89
##9
##90
##91
##92
##93
##94
##95
##96
##97
##98
##99
%
&
'
(
)
*
+
,
-
.
/
0
000
01
0100
02
03
04
05
06
07
08
09
1
10
100
1016
11
12
13
1393
14
15
16
17
1765
18
1885
19
1912
1916
1920
1936
1938
1947
1948
1952
1964
1968
1969
1971
1973
1980
1987
1989
1992
1994
1995
1997
1999
2
20
2000
2001
2002
2003
2004
2005
2006
2007
2008
2009
2010
2011
2012
2013
2014
2015
2016
2017
2018
2019
2020
20200924141909
2021
2022
21
22
23
24
25
26
27
28
29
3
30
31
32
33
34
4
40
5
50
517
6
63
7
74
8
80
81
9
90
978
:
;
<
=
>
?
[
]
_
a
abdul
about
abraham
act
ad
affairs
after
against
aharbal
ai
aij
ain
ainaz
aivo
ajja
ak
ali
all
alpha
american
amp
an
ana
anatomy
and
angiography
anne
apfel
april
ar
archive
archived
are
ari
art
artery
article
as
asia
asian
asiatic
asp
aspx
asɨl
at
ati
atp
atwa
aubergine
august
aunt
authors
away
axt
axtʊnt
aɪ
b
ba
bala
bar
bat
be
beau
been
bein
being
beinti
beji
ben
benta
between
bi
big
bikkje
bill
biography
bir
bira
bire
bm
bo
book
books
bot
brain
brinjal
britannica
business
but
by
bɑ
bə
bəjɑ
bɨ
bɾɪɦəspət
c
cambridge
can
cancer
canis
capital
cardiovascular
ce
census
censusindia
central
cents
check
chemistry
chien
children
chomsky
cinco
cincuenta
cinq
cinquante
cipres
cipresenboum
cite
citeref
clinical
co
cocco
coco
com
commissioner
communication
computed
computer
congress
copy
cricket
cricketer
cs
ct
cuarenta
cuatro
culture
cupressus
current
d
da
daily
data
datamaskin
date
dator
daughter
david
dawn
day
days
dchb
de
december
definition
delhi
desk
deux
development
di
diagnosis
dictionary
dies
dingwort
disease
district
dix
dje
djokovic
dk
do
docga
dog
doge
dogga
dogge
doi
dos
douze
du
dva
dvat
dwa
dwo
dɔsi
də
dən
dʁaɪ
e
ece
economic
ed
edin
edition
education
een
egg
egge
eggplant
ehefrau
ehegatte
ehegattin
ehemann
eheweib
ei
eight
eighty
ein
einn
eka
el
elon
em
en
encyclopedia
english
error
es
esa
esposa
esposo
et
ethnologue
etwo
etymonline
euf
ev
every
exist
express
extra
eye
eɪt
eɪtɪ
f
facts
family
father
faɪv
february
federal
federation
federer
femme
fi
field
fifty
fille
fils
final
first
five
for
forty
four
francis
fraternal
frau
from
fta
fu
function
fɔ
fɪftɪ
fɪʁt
fʏnf
fʏnft
g
gandhi
gatte
gattin
gazette
geelani
gegenstandswort
gemahl
gemahlin
general
genus
george
gets
girl
global
go
google
gov
government
gra
greater
greaterkashmir
grierson
group
guide
h
ha
had
handbook
haryana
has
hat
haus
have
he
heim
held
help
her
hijo
hindi
hindistan
hindu
hindustan
his
history
hko
hna
home
hon
hond
honde
host
hound
hounde
house
how
hownd
hownde
html
http
https
hu
huit
human
hun
hund
hundaz
hunde
hundr
hundred
hunt
husband
hwihc
hwihs
hwond
həs
hʊndɐt
hʌndrəd
i
ich
idioma
imaging
imran
in
inaj
india
indian
information
inko
interest
international
into
invalid
iqbal
is
isbn
islam
issn
ist
it
its
j
ja
james
jammu
jan
january
jawaharlal
je
jeden
jentos
ji
jika
jk
john
journal
jpg
juk
july
june
jɑ
k
ka
kashmir
kashmiri
katʀəvɛ
kaʀɑ
ke
kerala
khan
klapper
klappernoot
know
ko
kokosnoot
kokosvrucht
kompuutteri
koshur
kra
kwa
kwatɾo
kwenta
kɐ
kɑ
kə
kət
kʊt
l
la
lake
land
language
languages
langue
law
le
leader
lengua
leu
leute
lfr
li
library
life
like
linguistic
linguistics
link
list
livre
lk
lo
lobo
london
lou
loup
lower
ltd
lu
luk
lupus
lɑ
lɔ
ləʈ
lɨ
m
ma
machine
magnetic
maint
major
man
mann
many
map
march
mari
marido
mat
maternal
may
me
meaning
medical
medicine
meet
men
mi
michael
mil
minister
ministry
minorities
mir
mo
modern
more
most
mother
movement
mt
mtur
mu
muhammad
mujer
museum
muslim
mɑ
mɔ
mə
mɨ
n
na
nadal
named
names
nas
nat
national
nations
navara
naɪ
naɪntɪ
nc
nd
ndtv
ne
nehru
nephew
net
neuf
new
news
next
nfundvierzig
nfzig
ni
nic
nie
niece
nine
ninety
nk
no
noam
nostə
not
noun
novak
november
noventa
ns
nt
nu
nueve
numeric
nwebe
nɑ
nɔɪ
nəl
nɨ
nʊnt
nʋe
o
ochenta
ocho
oclc
october
oef
oen
of
official
oi
oinos
ok
omt
on
oncle
one
onkel
onne
onze
oon
or
org
origin
original
os
ot
other
others
oune
ovo
ovum
oxford
p
pa
page
pakistan
pann
panni
pannuj
paper
par
pard
parliament
party
passes
paternal
pca
pdf
pe
peare
pearson
peere
peire
pek
people
peore
per
pera
pere
peru
philosophy
physics
pi
pir
pira
pirum
pk
plant
pmc
pmid
po
political
politics
population
pouse
poux
pp
pradesh
press
prime
pro
provided
pt
pti
publications
publishing
punjab
punjabi
put
puza
pɔla
pɔtl
pə
pənd
pət
pɛ
q
quarante
quatorze
quatre
quinze
r
ra
rafael
raheislam
ran
rankings
ras
raw
re
ref
refs
regional
release
religion
report
res
research
resonance
retrieved
rhc
rhs
ri
rising
risingkashmir
ro
roger
royal
ru
run
russia
russian
rət
s
sa
san
sanskrit
sapta
sarup
sasken
sat
satu
scan
schwa
science
se
second
seis
seize
selvi
senta
sept
september
septm
service
sesenta
setenta
seven
seventy
sevən
sevəntɪ
sfn
shah
shaw
she
si
siete
singh
sir
sittelykone
six
sixty
sjete
skrubb
so
society
sohn
soixante
son
sororal
sorək
spouse
sprache
srinagar
state
states
statistics
status
story
structure
su
substantiv
svant
svaɪ
swasɑ
swe
syed
sɑ
sɔ
sɔn
sə
səmd
sət
səʈ
sɛ
sɨ
sɨh
sɨndi
sɨtə
sɪc
sɪks
sɪkstɪ
t
ta
taba
tabak
tag
tam
tante
target
tarzi
tass
tasse
tdø
ten
tennis
tenta
text
teœ
th
than
that
the
thehindu
their
thirty
this
thousand
three
ti
tietojenka
tietokone
time
times
tin
title
tkatʀ
tnœf
to
today
tomate
tomato
tomography
tongue
tour
tp
tr
tra
translation
tre
treinta
treize
trente
tres
tri
tribune
tridk
trihc
trihs
trois
tsis
tsɛ
tsɛt
ttʀwɑ
tu
twenty
twentɪ
two
twr
tɑ
tə
tɥit
tɨ
tɨr
tɪ
tɾeinta
tɾes
tʀɑ
u
uef
uk
ulv
um
un
uncle
united
university
unknown
uno
unu
unus
urdu
url
us
v
values
varg
vargr
vi
village
vingt
vos
vɛ
w
wa
wan
wargaz
was
water
we
web
website
webster
weib
werg
western
what
who
wi
wife
wikipedia
wilka
wir
with
wl
wn
wo
wolf
wolfe
wom
woman
world
woulf
wuh
wuk
wulf
wulfaz
wun
wut
www
wyo
wʌn
x
xlsx
xɑ
y
yas
years
yes
ykas
ykos
ynos
york
you
young
your
yumurtka
z
za
ze
zeit
zi
zɛc
zɛksʊnt
zɨ
{
|
}
~
«
°
»
æ
æg
æt
ŋ
œ
ɐ
ɐɕɐ
ɑ
ɔ
ɔd
ɕ
ɕɐt
ɕɐti
ɕɪ
ɖ
ə
əd
əkis
ən
əs
əsa
ət
əɾ
əʈ
əʈʈ
ɛ
ɜ
ɡ
ɡa
ɡat
ɡaw
ɡɐ
ɡɔna
ɡə
ɡəji
ɦəɾ
ɨ
ɨn
ɨr
ɨt
ɪ
ɪd
ɪjɑ
ɪk
ɪkjɑ
ɪkɑ
ɪm
ɪn
ɪs
ɪt
ɪv
ɯ
ɾ
ɾenta
ɾi
ɾo
ɾɑ
ʂ
ʂɛs
ʂɨz
ʃ
ʃa
ʃe
ʃenta
ʃi
ʃo
ʃvi
ʃɑ
ʃɔ
ʃə
ʈ
ʊnt
ʋi
ʋɑ
ʋən
ʒ
ʒa
ʒi
ʒih
ʒɑ
ʔ
ʰ
ʰʲ
ʱ
ʲ
ʷ
ʾ
ˀ
ˈ
ˌ
ː
ːˈ
ˠ
˥
˧
˨
˩
̀
́
̂
̃
̄
̆
̇
̈
̊
̌
̑
̓
̔
̞
̡
̣
̥
̧
̨
̩
̪
̯
̱
̲
͂
ͅ
͡
α
ε
η
θ
κος
κυ
κυπα
λος
λυ
ν
ο
ρ
ρισσος
ς
σκυ
υπολογιστη
χ
ω
ων
бир
в
влъкъ
влькъ
восемь
восемьдесят
вълкъ
вычислительная
г
глаз
два
двадцать
девяносто
девять
дядя
единъ
едьнъ
жена
женщина
и
к
камп
кипарис
машина
муж
один
одинъ
око
пе
песъ
помидор
пьсъ
пять
пятьдесят
раз
с
семь
семьдесят
собака
сорок
супруг
супруга
сын
те
томат
три
тридцать
тя
четыре
шесть
шестьдесят
ъ
ь
электронно
язык
яи
ѥ
ѥдинъ
ѥдьнъ
،
ؐ
ؑ
ؒ
ؓ
ؙ
؛
؟
ؠ
ؠسوار
ء
ا
اؠٹ
اؠڈ
اؠکسرے
اب
ابراہیم
ابن
ابو
ابی
ات
اتحاد
اتر
اتھی
اتہ
اثنا
احد
احمد
اخبار
اخباری
اختر
اد
ادا
اداکارہ
ادب
ادبی
ادیتی
ار
ارتی
اری
از
اس
اسا
است
استری
اسلام
اسلامک
اسلامی
اسم
اسی
اسیڈ
اصل
اصلی
اصولی
اع
اعراب
اعلان
اعمال
اف
افی
اقبال
اقوام
اكھ
ال
الا
الاقوٲمی
الجنان
الحسن
الد
الدی
الدین
السلام
السلامن
الل
الله
اللہ
الن
الگ
ام
امام
امامت
امامن
امت
امس
امسنز
امن
امہ
امی
امیر
امیک
ان
انجام
اندر
انعام
انقلاب
اننتناگ
انگریزی
انہ
اه
او
اوان
اور
اوزار
اوس
اوش
اول
اومکار
اومینٹ
اون
اونہ
اوڻيتاليهه
اوڻيهه
اویدی
ايس
ايک
اٹھ
اٹھاي
اپریل
اک
اکاسی
اکتوبر
اکر
اکھ
اکھا
اکھہ
اکہ
اکیڈیمی
اگروال
اڻويهه
اڻيتاليهه
اڻيهه
اہربل
اہل
اہلبیت
اہلیہ
اہم
اۄ
اۄس
اۆر
اۆن
ای
ایبڈامن
ایت
ایران
ایرانس
ایرانی
ایزایگ
ایس
ایش
ایشا
ایشیاہ
ایلیک
ایم
این
ایناٹمی
اینج
اینٹی
اینڈ
اینی
ایوارڈ
ایوڈین
ایڈی
ایک
ایکا
ایکسٹرن
ایکون
ایکٹ
اے
ب
بؠمار
بؠمارؠ
بؠمٲرؠ
بؠن
بؠنتھ
با
باب
بابتھ
بابہ
باتھ
باد
بادی
بار
بارہ
باسان
باشا
باشی
باغ
باق
باقؠن
باقری
باقی
بال
بالٹو
بان
بانہ
بانی
باو
باوز
باي
باپ
باپتھ
باہ
باہن
بت
بج
بح
بحر
بدی
بذریعہ
بر
برادر
برف
برون
برہسپت
برہسپتی
بزرگ
بزی
بس
بغداد
بل
بلہ
بن
بناونہ
بنٲتھؠ
بنہ
بو
بور
بول
بولان
بولنہ
بولی
بوموار
بوڈ
بوے
بىر
بي
بٲدی
بٲنی
بٲژ
بٹ
بٹریکس
بپتسمہ
بھ
بھارتی
بھاریا
بھاشا
بھاي
بھر
بھٹ
بھٹو
بہ
بہتر
بۄ
بۄد
بۄدوار
بۄن
بۄنہ
بۄٹہ
بۄڈ
بۄکہ
بۆڈ
بی
بیات
بیتر
بیر
بیس
بیضه
بیلارو
بیلچہ
بین
بینک
بیوی
بیٹا
بیٹی
بیک
بیگ
بیگم
بیہ
بێس
بێیہ
بے
ة
ت
تؠ
تؠن
تا
تاب
تابہ
تاج
تار
تارا
تارک
تاریخ
تاز
تال
تام
تان
تاک
تاکہ
تتھ
تج
تجی
تحریک
تر
ترال
تراو
تراوان
تراون
ترجمہ
ترے
تس
تعالی
تعل
تعلق
تـ
تقریبا
تقسیم
تقی
تل
تم
تمام
تمن
تمو
تمہ
تن
تنظی
تنظیمہ
تنہ
تهران
تو
توار
توتہ
توشہ
تون
توو
تٲج
تٲجی
تٲر
تٲری
تٲلی
تٲم
تچ
تھ
تھؠ
تھان
تھاو
تھاوان
تھاون
تھاونہ
تھوار
تھۆد
تھی
تہ
تہتر
تہند
تۄہؠ
تی
تیز
تیي
تے
ث
ثؠ
ثابت
ثار
ثال
ثر
ثعلبہ
ثمٲنؠ
ج
جا
جاب
جاد
جاماتر
جان
جاناوار
جانو
جانور
جای
جایہ
جاے
جرٲتؠ
جری
جعفر
جلال
جلی
جماعت
جمعرات
جمعہ
جموں
جناب
جنت
جنرل
جنوری
جو
جواد
جوت
جود
جورو
جوشی
جولاي
جون
جوڈ
جوہر
جٲبؠ
جٲتؠ
جٲی
جھ
جہ
جہوا
جۄم
جۆم
جۆنو
جی
جیب
جیبھ
جیلانی
جینیفر
جیکسن
جے
ح
حا
حابی
حاجنی
حارث
حاطب
حاظہ
حال
حدیث
حرام
حری
حزب
حسن
حسین
حسینی
حصہ
حصی
حضرت
حفو
حق
حقی
حل
حم
حمد
حو
حٲص
حکومت
حۆکو
خ
خاری
خاص
خاطرہ
خال
خالا
خالد
خالہ
خامناي
خان
خاندان
خانہ
خانی
خاو
خاوند
خبار
خت
خسم
خصم
خصو
خصی
خلاف
خلی
خلیفہ
خمینی
خو
خوي
خٲطر
خۄج
خۄجہ
خۄرشی
خۄش
خیبر
د
دؠ
دؠماغ
دؠن
دا
داتھ
دار
دارێنؠ
داز
دال
داماد
دان
دانہ
داو
داوود
داکار
داکارہ
داہ
دختر
در
درو
درگاہ
دریاو
دس
دسمبر
دعا
دفن
دل
دلہ
دم
دن
دنہ
دو
دوا
دود
دور
دوران
دوستان
دون
دوہ
دویم
دٲر
دٲن
دٲنؠ
دگی
دھ
دھی
دۄد
دۄسہ
دۄن
دۄچھنؠ
دۄچھنہ
دۄگہ
دۄہ
دۄیہ
دۆہ
دۆی
دی
دیش
دین
دیو
دیوناگری
دیوی
دے
ذ
ذا
ذاتھ
ذریہ
ذٲژ
ذہ
ر
رؠ
رؠتھ
رؠن
را
راب
رات
راتھ
راتہ
راج
راد
رادھیکا
راز
رازدٲنؠ
رافع
رام
رامہ
ران
راو
راہ
رای
رب
ربی
ربیع
ربیعہ
رت
رتاونہ
رتھؠ
رتھا
رتہ
رتی
رجہ
رجی
رح
رحمت
رد
ردؠن
ردو
ردی
رز
رس
رسم
رسنا
رسول
رطٲنوی
رع
رفہ
رق
رم
رمضان
رمی
رن
رنہ
رو
رواجی
روار
روحانی
رود
روز
روزان
روع
رول
رونالڈو
روول
روی
ري
رٲبطہ
رٲسؠ
رٲنی
رٲٹھ
رٲٹھؠ
رٲے
رٹ
رٹری
رٹریو
رچہ
رڈ
رژ
رک
رکار
رکایو
رکی
رگ
رگہ
رہن
رہنما
رۄقبہ
رۄپھ
رۄیہ
ری
ریاف
ریاو
ریزونین
رین
ریٲیی
ریڈی
ریڈیالجی
ریڈیو
ریڈیوک
ریڈیوگر
ریہ
رے
ز
زؠ
زؠو
زا
زاد
زادی
زار
زافران
زام
زامت
زامتی
زان
زانان
زانہ
زاو
زاگان
زاہ
زاے
زبان
زبانن
زبانہ
زتہ
زر
زردا
زرگر
زن
زند
زندگی
زنہ
زو
زوجہ
زٲدی
زٲژ
زہ
زہر
زی
زیاد
زیارت
زید
زیر
زین
زیو
زۍ
س
سؠ
سؠٹھا
سا
ساب
سابہ
سات
ساتو
ساتہ
سار
سارو
ساروے
ساز
ساس
سالانہ
سامی
سان
ساي
سای
ساین
سایٹ
سایہ
ست
ستارے
ستان
ستاي
ستر
ستری
ستعمال
ستمبر
ستون
ستٲن
ستٲنؠ
ستہ
سر
سرا
سربراہ
سرو
سروی
سری
سرینگر
سطح
سعت
سعد
سل
سلام
سلامی
سلم
سلمان
سلوی
سلہ
سلیم
سلینڈی
سم
سمارٹ
سمان
سمنان
سمي
سن
سند
سندی
سنی
سنیچر
سو
سوار
سوامی
سور
سوفی
سون
سوپور
سٲب
سٲری
سٲزی
سٲمؠ
سٲمی
سٲنی
سٹ
سٹر
سپ
سپد
سپٲنوی
سک
سکر
سکو
سہ
سۄ
سۄرمہ
سۄن
سۄنی
سۆنؠ
سی
سیاحتی
سیاست
سیاسی
سید
سیستانی
سیلیک
سین
سینی
ش
شا
شاخ
شار
شاردا
شاردہ
شاعر
شاعری
شام
شان
شانہ
شاہ
شای
شایع
شایعہ
شب
شت
شتہ
شخی
شر
شرما
شری
شریف
شعرس
شم
شمارندہ
شمارندی
شمس
شمی
شن
شناوان
شنی
شنیوار
شو
شوڈ
شوہر
شویتا
شي
شٲع
شٲعر
شٲم
شٲی
شٹ
شٹا
شٹہ
شپ
شک
شکر
شکروار
شکل
شہ
شہر
شہرس
شہو
شہید
شۄار
شۆرو
شۆک
شی
شیخ
شیر
شیعہ
شیعین
شیٹھ
شېر
شے
ص
صا
صاب
صادق
صبح
صبہ
صدر
صدی
صف
صفحہ
صفر
صفہ
صل
صلی
صو
صوب
صوی
صٲب
صٲر
صہ
صی
ض
ضافہ
ضمو
ضۆرو
ط
طا
طاق
طالب
طر
طرفہ
طری
طل
طلاس
طو
طور
طٲب
طٲلوی
ظ
ظام
ظر
ظریف
ظٲمی
ظٲہ
ظی
ع
عارف
عاشورہ
عالم
عالمی
عام
عامر
عب
عباس
عبد
عبدالقادر
عبدالله
عبداللہ
عجاي
عراق
عراقس
عربی
عزیز
عسکری
عشری
عظ
علاقہ
علامہ
علاو
علاوہ
علم
علو
علی
علیہ
عمال
عمرو
عمیر
عورت
عٲل
عی
عیسویس
عیسٲے
عیسی
غ
غر
غزلہ
غلام
غٲر
غہ
غی
ـ
ـو
ـہ
ف
فارسی
فاروق
فاطمہ
فاق
فاو
فایل
فت
فتاب
فتوی
فر
فرانسی
فرزند
فرقہ
فرما
فری
فض
فظ
فظہ
فون
فوٹو
فٹ
فہ
فی
فید
فیلڈ
ق
قا
قابلہ
قار
قام
قاہ
قب
قت
قتہ
قرا
قری
قزح
قس
قسم
قصبہ
قل
قلی
قم
قمی
قو
قوس
قوم
قومی
قونو
قوٲمی
قہ
قی
قیام
قیس
ك
كلب
كوپك
كھ
كہ
ل
لؠ
لؠس
لؠن
لؠکٹر
لا
لار
لاطی
لاف
لاق
لاقہ
لال
لام
لان
لاو
لاوی
لاگولی
لاہور
لای
لایہ
لاے
لب
لبنہ
لبٲنوی
لس
لسان
لط
لطی
لع
لعین
لغٲرؠ
لف
لفیٹ
لقب
لل
لم
لمان
لمہ
لن
لنہ
لو
لوسنہ
لول
لومی
لون
لوک
لوکار
لوکن
لوگ
لوہو
لٲط
لٲڈؠ
لٲڑؠ
لٲہ
لٲیی
لک
لکشمی
لکھ
لگ
لگاي
لہ
لۄغ
لۄک
لۆگ
لی
لین
لینگویجز
لیو
لیٹ
لیچھمژہ
لیڈر
لیکھنہ
م
مؠ
مؠو
ما
مات
ماتھ
ماجہ
ماحول
ماد
مار
ماز
ماس
ماسی
ماعت
مال
مالک
مالہ
مالی
مام
مان
مانان
ماننہ
مانہ
مانے
ماٹ
ماڈرن
ماہ
ماہتاب
مایہ
ماے
مب
مبر
مبہ
مت
متی
مثالے
مجتہد
محمد
محمود
محی
مختار
مخدو
مد
مذہبی
مر
مراجع
مراز
مران
مرزا
مری
مز
مزید
مس
مستقبل
مسجد
مسلمان
مسلمانن
مسیح
مش
مشہو
مصطفی
مصنف
مطابق
مطبوعہ
مطلب
معاذ
معصوم
معلومات
معنی
معہ
مفاتیح
مقام
مقصد
مل
ملک
ملہ
ملی
من
مند
منر
منز
منگل
مو
موباي
موج
مود
مودی
مور
مورایس
موسی
موش
مول
مولانا
مولو
مولوی
مون
موہ
مي
مٲجی
مٲل
مٲلؠ
مٲلی
مٲژ
مٲہ
مپ
مپی
مپیو
مژ
مک
مگر
مہ
مہاکال
مہلا
مہیلا
مۄل
مۄکل
مۄکلان
مۄکلہ
مۄگ
مۄہر
مۆٹھ
می
میا
میاں
میر
میرا
میرباقری
میلان
مین
مینا
مینن
میو
میٲیی
میٹر
میچ
میگن
میں
مے
ن
نؠ
نؠب
نؠل
نؠپال
نا
ناب
ناتھ
نار
نارجی
ناروینی
ناری
ناریل
نازکی
ناشپاتی
ناشی
نال
نالہ
نام
نامہ
نان
نانہ
ناو
ناوان
ناوت
ناون
ناونہ
ناي
ناٹہ
ناگ
نبی
نبے
نت
نتی
نج
نجات
نجام
نجف
نجم
نجی
ند
ندؠ
ندر
ندل
ندو
ندوستان
ندوستٲنؠ
ندھ
ندی
نری
نز
نس
نسان
نسایکلوپی
نسٲنی
نشہ
نص
نصاف
نصو
نظی
نـ
نفر
نفیر
نقی
نل
نن
ننؠن
ننہ
نو
نواز
نور
نوشک
نومبر
نوں
نوے
ني
نٲر
نٲلؠ
نٲنؠ
نٲو
نٲی
نٹ
نٹراسٹ
نٹرن
نچ
نچاش
نچاشی
نڈ
نڈی
نڈیش
نک
نکھ
نگ
نگر
نگریزی
نگل
نگھ
نگی
نہ
نہٲلؠ
نۄش
نۄقصان
نی
نیاد
نیبر
نیتر
نیر
نیران
نیرنہ
نیشن
نیلم
نین
نیوی
نیپٲلؠ
ه
هزار
و
وؠ
وؠب
وا
واب
وات
واتان
واتناوان
واتناون
واتہ
واجی
واد
وادی
وار
واریا
واریاہ
واریاہن
واز
واس
واقع
واقہ
وال
والؠن
والا
والہ
والی
وام
وان
واو
واپ
واہ
وای
وب
وج
وجود
وجہ
ور
ورس
وری
وریہ
وزن
وس
وسلم
وفات
وفی
وقت
ولاد
ولی
وم
ون
ونان
وننہ
ونہ
ونی
وو
وول
وٲح
وٲدی
وٲری
وٲل
وٲلؠ
وٲلی
وٲن
وٲنؠ
وٹان
وہ
وہب
وۄت
وۄز
وۄستاد
وۄشژار
وۄل
وۄٹ
وۄپر
وۄہ
وۆژھ
وی
ویب
ویلی
وینا
ویہی
ویے
ى
ي
يتاليهه
ين
ً
ٌ
ٍ
َ
ُ
ِ
ّ
ْ
ٓ
ٔ
ٕ
ٖ
ٗ
ٚ
ٛ
ٝ
ٟ
٠
٬
ٰ
ٱل
ٲ
ٲخری
ٲر
ٲس
ٲسؠ
ٲسی
ٲن
ٲو
ٲوؠ
ٲٹھ
ٲژؠ
ٳ
ٹ
ٹؠ
ٹؠسٹ
ٹان
ٹبال
ٹر
ٹران
ٹماٹر
ٹو
ٹومو
ٹون
ٹوٹھ
ٹھ
ٹھؠ
ٹھو
ٹھوو
ٹھی
ٹہ
ٹی
ٹیسٹ
ٹین
پ
پؠ
پؠوان
پؠٹھ
پؠٹھہ
پا
پادشاہ
پار
پارٹی
پاز
پاس
پان
پانچ
پانہ
پاٹھی
پاک
پاکستان
پایہ
پت
پتا
پتر
پتری
پتنی
پتہ
پتی
پد
پدان
پر
پرتھ
پرنہ
پروفیسر
پریل
پز
پلوۄم
پن
پنج
پنجاب
پنن
پو
پوت
پوجا
پور
پوش
پونؠ
پى
پٲد
پٲن
پٲٹھؠ
پٲٹھی
پٲک
پٹ
پچاسی
پھ
پھی
پھیر
پھیران
پھیلک
پۄتلؠن
پۄلاو
پۄپھ
پۆتھ
پۆز
پۆن
پی
پیداي
پیر
پیش
پیشہ
پیغمبر
پینتالیس
پیٹھہ
چ
چؠ
چار
چالھی
چالہ
چاے
چاࣇی
چشم
چو
چودہ
چون
چوپڑا
چوک
چوہان
چھ
چھان
چھت
چھر
چھن
چھنہ
چھو
چھہ
چھی
چھے
چہ
چی
چیز
ڈ
ڈؠ
ڈار
ڈال
ڈاکٹر
ڈای
ڈجہ
ڈن
ڈنی
ڈو
ڈگام
ڈی
ڈیا
ڈیاہ
ڈیشاہ
ڈینی
ڈیو
ڈیٹا
ڑ
ڑکی
ژ
ژان
ژاہ
ژو
ژور
ژھ
ژھان
ژھاو
ژھاوجہ
ژھت
ژھر
ژھن
ژھنہ
ژھۆٹ
ژھی
ژۄداہ
ژۄن
ژۄیہ
ژۆو
ژی
ژیر
ژے
ک
کؠ
کؠن
کا
کار
کاشر
کاشی
کاظم
کال
کالج
کالی
کام
کامٹ
کامہ
کان
کانہ
کاو
کاوا
کاک
کاہ
کتا
کتاب
کتابہ
کتو
کر
کرا
کراروی
کران
کربلا
کردار
کرن
کرنہ
کرنی
کری
کس
کسی
کسیج
کسیجن
کش
کشمی
کشمیر
کشمیری
کشی
کشیر
کل
کلام
کلومیٹر
کلچر
کلہ
کلی
کلیسا
کم
کمال
کمپیوٹر
کن
کناو
کنہ
کنی
کو
کوج
کور
کورون
کورٹ
کول
کولگوم
کوم
کون
کٲرؠ
کٲش
کٲشر
کٲشری
کٲف
کٲم
کٲن
کٲژاہ
کٲے
کٹ
کٹر
کھ
کھؠن
کھؠنہ
کھؠوان
کھا
کھار
کھان
کھاو
کھم
کھو
کھوتہ
کھوو
کھٲتر
کھٲرؠ
کھہ
کھہو
کھۄتہ
کھۆت
کھی
کھیل
کہ
کۄ
کۄر
کۄل
کۄلیہ
کۄن
کۄپوور
کۄک
کۄکر
کۆر
کۆرم
کی
کیا
کیروٹ
کیش
کیل
کیلٹی
کیلہ
کیم
کین
کینڈ
کیٹ
کێن
کے
گ
گؠ
گؠو
گا
گار
گاش
گال
گام
گامس
گامی
گامینٹ
گان
گاو
گاڈ
گاہ
گر
گرامر
گرووار
گرگ
گری
گرین
گل
گلی
گن
گو
گوجہ
گول
گوہر
گٲلؠ
گٲو
گپتا
گژھان
گژھہ
گھ
گھر
گھرنی
گہ
گۄناہ
گۄڈ
گۄڈن
گۄڈنی
گۆب
گۆو
گی
گیم
گیہ
ں
ھ
ھر
ھم
ھن
ھہ
ھے
ہ
ہؠ
ہؠتھ
ہؠن
ہا
ہار
ہان
ہاو
ہاوان
ہاپ
ہتاب
ہجری
ہدایت
ہذی
ہر
ہرو
ہری
ہزار
ہزی
ہس
ہفتہ
ہم
ہمدانی
ہمہ
ہن
ہند
ہندوستان
ہندی
ہنز
ہنزی
ہنہ
ہو
ہوا
ہٮی
ہٲٹھ
ہہ
ہۆس
ہۆست
ہی
ہیمہ
ہیو
ہیکان
ہیکہ
ہێکہ
ہے
ۄ
ۅ
ۆتم
ۆد
ۆن
ۆو
ی
یا
یاب
یات
یاتھ
یاد
یار
یازی
یاس
یاست
یاف
یال
یان
یاو
یاہ
یای
یت
یتؠ
یتھ
یر
یری
یزید
یس
یش
یعنی
یل
یم
یمرتقه
یمن
یمو
یمورده
یمورطه
یمہ
ین
یو
یوان
یور
یوس
یوسف
یومرده
یومرطه
یومورده
یومورطه
یون
یونیورسٹی
یوٹ
یوٹا
یوگا
یوگر
یوگراف
یٲسی
یٹ
یک
یہ
یۄس
یۄسہ
یۆس
یی
ییتھ
ییتہ
ییلہ
ییون
یێلہ
یێمؠ
یێمؠس
یے
ێی
ے
۔
ۖ
ۚ
ۡ
ۤ
ۥ
۪
۬
ۭ
۰۰۰
۱
۱۰
۱۱
۱۴
۱۶
۱۸
۱۹۶۸
۱۹۷۰
۱۹۷۱
۱۹۸۰
۱۹۹۲
۲
۲۰۲۱
۲۴
۲۵
۳
۴
۵
۶
۷
۸
۹
ހ
ށ
ނ
ރ
ބ
ޅ
ކ
އ
ވ
މ
ފ
ދ
ތ
ގ
ސ
ޔ
ަ
ާ
ި
ީ
ު
ެ
ޭ
ޮ
ޯ
ް
ँ
ं
ः
अ
अक
अख
अग
अज
अट
अठ
अड
अण
अत
अथ
अद
अध
अन
अप
अपज
अफ
अब
अभ
अम
अर
अल
अवर
अश
अष
अस
असत
असम
असल
अह
अहम
अहल
आ
आक
आख
आज
आठ
आण
आद
आन
आफ
आब
आम
आल
आव
आस
आसल
आह
इ
इक
इकत
इज
इतव
इल
इश
इस
ई
ईस
उ
उच
उण
उतन
उन
उनत
उनन
ऊ
ऊण
ऊन
ऊनचत
ऊनत
ऊनव
ऎनक
ए
एक
एकचत
एकत
एकनवत
एकपञ
एकव
एकषष
एकसप
एत
एतव
एश
ऑस
ऒ
ओ
ओस
औरत
क
कत
कथ
कदल
कन
कब
कम
कय
कर
करत
कल
कलत
कव
कश
कह
ख
खर
ग
गच
गछ
गज
गत
गथ
गन
गम
गय
गर
गरन
गल
गलव
गव
घ
घर
घरन
घरव
ङ
च
चचत
चत
चदश
चन
चनवत
चपञ
चर
चव
चश
चषष
चसप
चहत
छ
छत
छतम
छह
ज
जन
जम
जय
जर
जव
जस
झ
ञ
ञव
ट
टम
टर
ठ
ड
डग
डर
डशन
ढ
ण
णच
णत
णन
णव
णवत
त
तक
तचत
तज
तत
तदश
तन
तनवत
तपञ
तब
तम
तर
तल
तलफ
तव
तषष
तसप
तह
थ
द
दक
दज
दय
दर
दश
दस
दह
ध
धर
धव
न
नक
नचत
नज
नत
नद
नन
नम
नमथ
नय
नयन
नर
नव
नवत
नवदश
नवन
नवनवत
नवर
नवव
नस
नह
प
पक
पग
पच
पचहत
पछत
पञ
पत
पतव
पथ
पद
पन
पनन
पर
परद
परन
पस
फ
ब
बच
बछ
बत
बन
बय
बर
बल
बह
बहतर
भ
भग
भत
भव
म
मक
मगर
मङ
मछ
मज
मत
मतलब
मथ
मद
मन
मनन
मय
मर
मल
मव
मश
मस
मह
य
यख
यठ
यत
यतन
यथ
यन
यबख
यबघर
यम
यय
यर
यव
यश
यस
यह
र
रक
रज
रजन
रण
रत
रथ
रथम
रद
रधन
रन
रब
रभ
रय
रयश
रयस
रव
रश
रस
रसन
रह
ल
लक
लच
लड
लथ
लन
लफ
लम
लय
लस
ळ
व
वक
वज
वजन
वत
वद
वन
वर
वरकर
वल
वश
वस
श
शक
शत
शन
शम
ष
षट
षड
षडश
षण
षप
षष
स
सक
सठ
सत
सतथ
सथ
सद
सन
सप
सफ
सम
समध
समय
सर
सरक
सल
सव
सस
ह
हक
हणज
हत
हदग
हन
हफ
हम
हय
हर
हव
हस
ऺ
ऻ
़
ा
ि
ी
ु
ू
ृ
ॅ
ॆ
े
ै
ॉ
ॊ
ो
ौ
्
ॏ
॒
ॖ
ॗ
।
॥
१
२
३
७
८
९
॰
ॳक
ॳछ
ॳत
ॳतल
ॾह
ॿ
ঁ
আঠ
আঠত
ই
ইছ
ইশ
উন
উনচল
উনত
এক
একচল
একত
ক
চ
চল
ছ
ছয
ড
ত
তত
দ
ধ
ন
প
ব
বত
য
র
ল
শ
ষ
স
়
া
ি
ী
ু
ূ
ে
ৈ
্
ৗ
ৰ
ਂ
ਅ
ਅਠ
ਆ
ਇ
ਇਕ
ਈ
ਉ
ਉਣ
ਕ
ਖ
ਗ
ਚ
ਛ
ਜ
ਝ
ਠ
ਡ
ਤ
ਤਰ
ਦ
ਨ
ਨਵ
ਪ
ਪਚ
ਫ
ਬ
ਮ
ਰ
ਲ
ਵ
ਸ
ਸਤ
ਹ
ਹਠ
਼
ਾ
ਿ
ੀ
ੁ
ੇ
ੈ
ੋ
ੌ
੍
ੰ
ੱ
ં
અઠ
ઇ
એકત
ઓગણચ
ક
ગ
ચ
છ
ઠ
ડ
ત
દ
ન
પ
બ
ભ
મ
ય
ર
લ
ળ
વ
શ
સ
સત
ા
િ
ી
ુ
ૂ
ે
ો
ૌ
્
ଁ
ଅଠ
ଇ
ଇଶ
ଏ
କ
ଚ
ଞ
ଡ
ତ
ଦ
ନ
ପ
ବ
ର
ଳ
ଶ
ଷ
ସ
ସତ
଼
ା
ି
ୁ
ୂ
େ
୍
ୟ
இல
க
கண
கணவன
ங
ச
ஞ
ட
டவன
ண
த
தக
தர
தரச
ந
ன
ப
பத
பழம
ம
மன
ய
ர
ற
ல
லத
லவன
ள
ழ
வ
வல
ா
ி
ீ
ு
ூ
ெ
ை
்
ం
డ
ర
ి
ు
ె
ಂ
ಒ
ದ
ು
ം
ട
ന
ര
ള
ാ
ി
്
අට
අන
අස
එක
ක
ට
ත
ද
න
නමය
නවය
පනස
පහ
ය
ව
ශ
ස
හ
හත
හතර
හතල
හය
ළහ
්
ා
ැ
ි
ී
ු
ූ
ෙ
ง
ึ
่
ງ
ນ
ຶ
່
ໜ
ག
ས
ི
မ
ာ
်
ერთი
ម
យ
ា
ួ
ᴮ
​
‌
‍
‎
‏
–
—
‘
’
“
”
•
․
‿
⁽
⁾
₁
₂
↔
↷
∅
③
④
⑦
─
◌
☉
♀
♂
⯓
⯕
ⰰ
ⰲ
ⰴ
ⰵ
ⰹ
ⰺ
ⰽ
ⰾ
ⱀ
ⱂ
ⱄ
ⱌ
ⱏ
ⱐ
⺀
⺄
⺆
⺈
⺊
⺌
⺕
⺝
⺸
⺼
⿰
⿱
⿲
⿳
⿴
⿵
⿶
⿷
⿸
⿹
⿺
⿻
〢
゚
オ
ク
コ
ッ
ヒ
ユ
リ
ン
㇁
㇂
㇄
㇇
㇈
㇉
㇓
㐁
㐄
㐅
㐌
㐫
㐬
㐭
㐮
㐱
㑒
㒵
㒸
㒼
㓁
㓞
㔾
㕛
㕣
㖾
㘝
㚅
㚇
㚔
㚘
㝉
㝡
㝴
㝵
㞋
㞢
㞷
㠩
㠭
㠯
㡀
㡭
㡿
㢲
㢴
㣇
㣺
㥯
㪅
㫄
㫐
㫒
㫺
㬅
㬎
㬥
㬰
㲋
㳄
㷠
㸒
㸚
㸦
㼌
㼲
㽞
㿟
䀠
䂞
䍃
䏍
䒑
䖍
䖒
䖝
䖵
䙴
䚻
䜌
䝿
䡛
䧹
䪞
一
丁
丂
七
丄
丅
丆
万
丈
三
上
下
丌
不
与
丏
丐
丑
专
且
丕
世
丘
丙
业
东
丞
丢
丣
两
严
並
丨
丩
个
丫
丬
中
丮
丰
丱
串
丵
丶
丷
丸
丹
为
主
丽
丿
乀
乂
乃
久
乆
乇
么
义
之
乌
乍
乎
乏
乐
乑
乔
乖
乗
乘
乙
乚
乛
乜
九
乞
也
习
乡
乳
乾
亀
亅
了
亇
予
争
事
二
亍
于
亏
亐
云
互
亓
五
井
亘
亚
亜
亞
亟
亠
亡
亢
交
亥
亦
产
亨
亩
享
京
亭
亮
亯
亰
亲
亳
亶
亷
人
亻
亼
亾
仁
今
介
仌
从
仐
仑
仒
仓
仕
他
付
仝
代
令
以
任
企
伊
伏
伐
休
会
伯
但
位
何
佘
余
作
佥
使
來
侈
侌
侖
侯
侵
便
保
俞
信
修
倉
倍
候
倠
備
僉
僕
儿
兀
允
兂
元
兄
充
兆
兇
先
光
兊
克
兌
免
兑
兒
兓
兔
党
兜
兟
入
全
兩
兪
八
公
六
兮
兰
共
关
兵
其
具
典
兹
兼
冀
冂
冃
冄
内
冈
冉
冊
冋
册
再
冎
冏
冐
冒
冓
冖
冗
冘
军
农
冝
冡
冥
冫
冬
冷
几
凡
凢
凵
凶
凷
凸
凹
出
函
凾
刀
刁
刂
刃
刄
刅
分
切
刍
刑
刕
刖
列
刘
则
初
別
利
别
到
制
刺
則
削
剌
前
剡
剽
劉
力
功
加
劦
助
劫
劳
劵
勃
勇
勉
勒
動
務
勞
勤
勹
勺
勻
勾
勿
匀
匂
包
匆
匈
匊
匋
匍
匕
化
北
匚
匝
匡
匪
匱
匸
匹
区
医
匽
匿
區
十
卂
千
卄
卅
卆
升
午
卉
半
卌
华
卑
卒
卓
单
卖
南
卜
卝
卞
占
卡
卢
卣
卤
卦
卩
卪
卬
卯
印
危
即
却
卵
卷
卸
卻
厂
厃
厄
历
厈
厉
厌
厓
厘
厚
原
厤
厥
厨
厭
厲
厶
厷
厸
去
厼
厽
叀
参
參
叅
又
叉
及
友
双
反
叐
发
叒
叔
叕
取
受
叚
叜
叟
口
古
句
另
叩
只
召
可
台
叱
史
右
叵
号
司
叹
吂
各
吅
合
吉
吊
吋
同
名
后
吏
向
吕
君
吝
吞
否
含
启
吳
吴
吹
吾
呂
呆
呈
告
员
呙
周
命
咅
和
咎
咠
咢
咨
咸
咼
哀
品
哉
員
哥
哲
唐
商
啇
問
啚
啬
啻
善
喜
喬
單
喿
嗇
噩
嚴
囊
囗
囘
囙
囚
四
回
囟
因
囧
囬
困
囱
囷
固
国
圂
圅
國
圍
圓
土
圡
圣
圥
在
圭
地
圶
圼
坐
坒
坚
坴
垂
垔
垚
埀
埋
埶
執
基
堂
堅
堆
堇
堯
塞
墨
壘
士
壬
壯
声
壳
壴
壹
壺
壽
夂
处
夅
夆
备
夊
夋
夌
复
夏
夒
夕
外
夗
夘
多
夜
夢
大
夨
天
太
夫
夬
夭
央
失
夲
头
夷
夸
夹
夻
夾
奂
奄
奇
奈
奉
奎
奏
奐
契
奓
奔
奚
奞
奠
奢
奥
奭
女
奴
奻
好
如
妄
妙
妟
妥
妻
妾
姑
委
姜
威
娄
婁
婴
嬰
嬴
子
孑
孔
孕
孖
字
存
孚
孛
孝
孟
季
孤
学
孫
孱
學
宀
宁
宂
它
宅
宇
守
安
宋
完
宏
宓
宗
官
定
宛
宜
宝
客
宣
室
宮
宰
害
家
容
宾
宿
寄
寅
密
富
寒
察
寧
審
寫
寬
寮
寸
对
寺
寻
寽
対
寿
封
尃
射
将
將
專
尉
尊
尋
尌
對
小
少
尒
尓
尔
尖
尗
尚
尞
尢
尣
尤
尧
尨
尭
就
尸
尹
尺
尻
尼
尽
尾
尿
局
居
屈
屋
屎
屏
屑
展
屖
屚
属
屠
屡
屬
屮
屯
屰
山
屵
屾
岁
岂
岑
岡
岩
岳
岸
峯
島
崇
崑
崔
崖
崙
崩
嵬
嶲
巂
巛
川
州
巟
巠
巢
巤
工
左
巧
巨
巩
巫
差
己
已
巳
巴
巷
巸
巽
巾
巿
帀
市
布
希
帚
帛
帝
带
師
席
帶
常
干
平
年
幵
并
幷
幸
幺
幻
幼
幽
幾
广
広
庄
床
底
店
庚
府
度
庫
庭
庶
康
庸
廉
廌
廛
廣
廩
廴
延
廷
建
廾
廿
开
弁
弃
弄
弇
弋
式
弓
弔
引
弗
弘
弜
弟
弥
弦
弱
張
強
强
彊
彌
彎
彐
彑
当
彔
录
彖
彗
彡
形
彥
彦
彧
彭
彳
役
彼
往
待
律
徒
得
徙
從
復
微
徵
心
忄
必
忌
忍
志
忝
忠
忩
快
念
忽
忿
思
怠
急
怱
恆
恒
恩
恭
息
悉
患
悤
悲
悶
惠
惡
惢
愁
愈
意
愛
感
慈
慧
慮
憂
憲
應
戀
戈
戉
戊
戋
戌
戍
戎
成
我
戒
戔
或
戚
戠
戢
截
戲
戶
户
戹
戼
戾
房
所
扁
扇
手
扌
才
打
托
执
承
折
拉
拜
拿
掌
推
提
摩
支
攴
攵
收
攸
改
放
政
敄
敏
敕
敖
敗
敝
敞
敢
散
敦
敫
敬
数
敷
數
斂
文
斉
斊
斗
斤
斥
斩
斬
斯
新
方
於
施
斿
旁
旋
族
无
旡
既
旣
日
旦
旧
旨
早
旬
旱
旲
时
旾
昆
昇
昌
昍
明
昏
易
昔
昗
昜
星
春
昬
是
昱
昴
昷
時
晃
晋
晏
普
景
晶
智
暑
暴
曇
曩
曰
曲
曳
更
曷
書
曹
曼
曾
替
最
朁
會
月
有
朋
服
朔
朕
朗
望
朝
木
朩
未
末
本
札
朮
术
朱
朵
朶
朿
杀
杏
杜
束
条
来
東
杲
杳
松
析
林
枚
果
枝
枲
枼
某
柔
查
柬
柰
柴
栗
桀
桑
桼
梁
條
梟
梨
棘
棠
棥
森
楚
業
楽
榮
樂
樊
欠
次
欣
欮
欲
欶
欽
款
歆
歇
歛
止
正
此
步
武
歨
歪
歮
歯
歰
歲
歴
歷
歸
歹
歺
死
殳
段
殷
殸
殹
殺
殻
殿
毋
毌
母
每
毒
比
毕
毚
毛
毳
氏
氐
民
气
氣
水
氵
氶
氷
永
氺
氾
求
汝
汞
江
沃
沓
沙
沝
泉
法
波
泣
泥
泰
洛
洪
活
派
流
浦
浪
浮
淡
淮
清
渚
渠
湯
滿
漸
火
灬
灭
灰
灵
灷
炅
炎
炏
炗
炙
炭
為
烈
烏
烝
焉
無
焦
焱
然
煞
熊
熏
燕
營
燮
爪
爫
爭
爯
爰
爱
爲
爵
父
爻
爽
爾
爿
片
牙
牚
牛
牜
牟
牢
牧
牪
牽
犀
犬
犭
犮
狂
狄
狊
独
狺
猋
猒
猪
献
獻
玄
率
玉
王
玟
玨
珎
班
琴
瑟
瑩
瓜
瓦
甘
甚
生
産
用
甫
甬
田
由
甲
申
电
甶
男
甸
甹
画
甾
畀
界
畏
畐
留
畜
畟
畢
畧
畨
番
畫
異
畱
當
畺
畾
疊
疋
疌
疑
疒
疾
癶
癸
癹
登
發
白
百
皀
皃
的
皆
皇
皋
皐
皕
皮
皷
皿
盃
盆
盇
盈
益
盍
盎
监
盒
盖
盛
盡
監
盤
盧
目
直
相
盾
省
眇
眉
看
眔
眞
真
眷
眼
眾
着
睘
睪
睿
瞏
瞢
瞿
矍
矛
矞
矢
矣
知
矦
短
石
破
碎
磊
磨
示
礻
礼
祟
票
祭
禀
禁
禸
禹
禺
离
禽
禾
禿
秀
秃
秉
秋
科
秝
秦
移
稟
穀
穌
穴
究
穹
空
穿
突
窄
窒
立
竒
竜
竝
竟
章
童
竹
笑
笠
筆
等
答
箕
算
箴
節
篤
篭
米
粉
粛
粟
粤
粦
粲
糞
糸
糹
系
約
納
素
索
紫
累
細
絜
絫
絲
維
綿
縣
繇
纍
纟
缶
网
罒
罔
罕
罗
罙
罡
罢
罪
署
罷
羅
羊
羌
羍
美
羔
羕
羗
羞
羡
羣
群
義
羲
羸
羽
翁
翏
習
翕
翟
翠
翼
老
耂
考
者
耆
而
耎
耑
耒
耳
耴
耶
耷
聂
聊
聖
聚
聶
聿
肀
肃
肅
肉
肖
肙
肥
肩
肯
育
肴
胃
背
胡
胥
能
脊
脩
膚
臣
臤
臧
自
臬
臭
臯
臱
至
致
臺
臼
臽
臾
臿
舀
舂
舄
與
興
舉
舌
舍
舛
舜
舞
舟
般
艮
良
色
艸
艹
艾
芒
芔
芬
芮
花
芳
芺
芻
苔
苗
苟
若
苦
英
茶
茸
荅
草
荒
荣
荼
莆
莧
莫
莽
菆
菊
菐
華
萬
落
葉
著
葛
董
葵
蒙
蒦
蒼
蓋
蓬
蓺
蔑
蔡
蕉
蕭
薄
薛
薦
薰
藍
藏
藥
蘭
虍
虎
虐
虒
虔
處
虖
虗
虘
虚
虛
虜
虞
虫
虽
蚤
蚩
蜀
蜜
蟲
蠡
血
行
衍
衛
衣
衤
表
衮
衰
袁
袞
褭
褱
襄
襾
西
覀
要
覃
見
規
覓
覧
親
覽
见
角
解
言
訁
訇
計
詹
語
誩
諸
讠
谷
豆
豈
豊
豐
豕
豖
豙
象
豦
豩
豪
豸
貇
貝
貞
貟
負
貢
貧
貪
貫
責
貳
貴
買
費
賁
資
賈
賏
賓
賔
賛
賞
賢
賣
質
賴
贊
贝
贡
责
贯
贲
贵
赖
赞
赤
赦
走
越
足
路
蹇
身
躬
車
軍
軎
軟
輦
车
辛
辜
辟
辥
辰
辱
農
辵
辶
边
达
过
近
连
迷
追
退
送
逆
逐
通
速
造
逢
連
逮
進
遀
遂
過
道
達
遣
適
遷
遺
邊
邑
邕
那
邦
邪
郎
部
郭
都
鄉
酉
酋
配
酓
釆
采
里
重
野
量
金
釒
錢
钅
長
镸
长
門
閃
閉
開
閏
閑
閒
間
閔
閵
閻
闌
门
间
闷
阑
阜
阝
阿
降
陳
隆
隊
隋
隡
隨
隱
隶
隹
隺
隻
隼
隽
难
雀
雁
集
雈
雋
雍
雐
雔
雙
雚
雜
雝
離
難
雨
雩
雪
雲
零
雷
需
霍
霜
霝
霞
霸
靈
靑
青
非
靡
面
靣
革
韋
韦
韭
韯
韱
音
頁
頃
項
須
頗
頡
頻
顛
页
風
风
飛
飞
食
飠
養
饣
首
香
馬
馮
駦
马
骨
高
髟
鬥
鬯
鬲
鬼
魚
魯
鮮
鱼
鲁
鳥
鳳
鸟
鹵
鹿
麃
麗
麥
麦
麻
黃
黄
黍
黎
黑
黒
黨
黹
黽
黾
鼎
鼓
鼠
鼻
齊
齋
齐
齒
齿
龍
龙
龜
龟
龠
龰
龱
龴
龵
龶
龷
龸
龹
ꙗ
者
艹
ﯿ
ﷺ
ﺀ
ﺁ
ﺆ
ﺋ
ﺍ
ﺎ
ﺏ
ﺑ
ﺒ
ﺓ
ﺔ
ﺕ
ﺖ
ﺗ
ﺘ
ﺟ
ﺠ
ﺣ
ﺤ
ﺧ
ﺩ
ﺪ
ﺬ
ﺭ
ﺮ
ﺯ
ﺰ
ﺱ
ﺳ
ﺴ
ﺷ
ﺸ
ﺻ
ﺼ
ﺿ
ﻀ
ﻄ
ﻇ
ﻈ
ﻊ
ﻋ
ﻌ
ﻐ
ﻓ
ﻔ
ﻖ
ﻗ
ﻘ
ﻙ
ﻚ
ﻛ
ﻜ
ﻝ
ﻞ
ﻟ
ﻠ
ﻡ
ﻢ
ﻣ
ﻤ
ﻥ
ﻦ
ﻧ
ﻨ
ﻩ
ﻪ
ﻫ
ﻬ
ﻭ
ﻮ
ﻰ
ﻱ
ﻲ
ﻳ
ﻴ
ﻻ
ﻼ
﻿
？
𑀖
𑀭
🜨
𠀁
𠀃
𠀆
𠀉
𠀎
𠀐
𠁁
𠁣
𠂆
𠂇
𠂈
𠂉
𠂊
𠂋
𠂎
𠂒
𠂔
𠂛
𠂡
𠂢
𠂤
𠂬
𠂭
𠂹
𠃊
𠃋
𠃌
𠃍
𠃎
𠃑
𠃓
𠃔
𠃜
𠄌
𠄎
𠄠
𠄢
𠆢
𠆥
𠇍
𠈌
𠌵
𠓜
𠔉
𠔥
𠔼
𠔽
𠔿
𠕀
𠕁
𠕋
𠘧
𠘨
𠙻
𠙼
𠚏
𠚒
𠚤
𠚪
𠣏
𠤎
𠤕
𠥓
𠦄
𠦑
𠦝
𠧒
𠧗
𠧪
𠩺
𠪚
𠫓
𠫔
𠫤
𠬛
𠬝
𠬞
𠬢
𠬤
𠬶
𠮛
𠮦
𠮷
𠯑
𠱠
𠳮
𠷎
𡈼
𡉀
𡉵
𡌥
𡍮
𡏳
𡕒
𡕩
𡕰
𡖅
𡗗
𡗜
𡘆
𡘤
𡧱
𡨄
𡩧
𡬠
𡭽
𡰣
𡰥
𡰪
𡰯
𡰱
𡷈
𡸁
𡿨
𡿩
𡿪
𡿺
𢀖
𢀛
𢀩
𢁙
𢆉
𢆰
𢆶
𢇁
𢇇
𢉖
𢌬
𢌿
𢏚
𢑑
𢑚
𢖻
𢙣
𢛳
𢦏
𢦒
𢧵
𢼄
𢾕
𣁋
𣄼
𣅀
𣅽
𣍘
𣎳
𣎵
𣏋
𣏼
𣗥
𣥂
𣥖
𣦵
𣦼
𣧄
𣪊
𣪠
𣬉
𣳾
𣶒
𤇾
𤊽
𤐫
𤓰
𤔔
𤕨
𤣩
𤰇
𤰔
𤰞
𤴓
𤴔
𤽄
𥁑
𥁕
𥃦
𥃩
𥃭
𥇡
𥑟
𥘅
𥘈
𥝢
𥫗
𥱡
𦈢
𦉪
𦉬
𦉼
𦍌
𦍒
𦎧
𦐇
𦓔
𦔮
𦘒
𦙃
𦚏
𦣝
𦣞
𦣻
𦥑
𦥔
𦥯
𦨉
𦭝
𦰩
𧆞
𧈧
𧘇
𧰨
𧴪
𧴮
𧵩
𧾷
𨸏
𨾴
𩙿
𩠐
𩫏
𩵋
𪉷
𪜀
𪟽
𪠲
𪩲
𫇦
𫔭
𫜸
𫝀
𫠣
𫠩
𫢉
𫥞
𫩏
𫩠
𫪡
𫲽
𫶧
𬀷
𬐘
𬗌
𬙙
𬛸
𬜯
𬟩
𬯁
𬴘
𬺻
𬼉
𬼖
𭀰
𭁈
𭁨
𭅰
𭑈
𭕄
𭗼
𭤨
𭥫
𭻾
𮅕
𮊿
𮍌
𮍏
𮓗
𮥼
𮧮
廾
𰀁
𰀄
𰀈
𰀉
𰀕
𰀠
𰀡
𰀢
𰀪
𰁜
𰃮
𰆊
𰆘
𰋙
𰕎
𰢴
𰧭
𰯲
0--
19--
3--
4--
5--
6--
7--
8--
9--
a--
ac--
acad--
achtu--
achtund--
ak--
akh--
akɨ--
al--
an--
ap--
app--
apri--
ar--
arch--
arɨ--
as--
associ--
b--
ba--
be--
bi--
bu--
c--
ce--
ch--
cha--
chro--
ci--
co--
com--
cont--
cri--
cy--
d--
da--
de--
di--
diec--
diffe--
do--
domi--
drei--
dreiund--
du--
dɔ--
dɔji--
e--
el--
ele--
em--
eng--
es--
f--
fi--
fo--
fre--
fu--
g--
ge--
h--
ha--
he--
hi--
i--
in--
inter--
j--
ji--
jo--
k--
ka--
ku--
kun--
kunɨ--
kɔ--
l--
la--
li--
lite--
lu--
m--
ma--
mar--
mathe--
me--
mi--
mo--
mor--
morg--
mu--
mɔk--
n--
ne--
neu--
nf--
nfu--
nfund--
ni--
no--
o--
on--
p--
pa--
pas--
pater--
pe--
philosop--
physio--
po--
por--
pri--
pro--
publi--
r--
ra--
rab--
re--
ro--
ru--
s--
sa--
saf--
sch--
schwieger--
se--
sechsu--
si--
sie--
sob--
spa--
su--
sy--
sym--
syst--
sɔ--
sɨ--
t--
ta--
techno--
teji--
th--
ti--
to--
u--
un--
us--
v--
veinti--
vi--
vie--
vier--
vo--
w--
wil--
x--
z--
zi--
zwei--
zweiund--
œ--
ɔ--
ɖ--
ə--
ət--
əɽ--
ɡ--
ɡa--
ɨ--
ɪ--
ɾ--
ʃ--
ʃe--
ʃu--
ʃə--
ʈ--
ʒ--
ʒʊ--
ʔ--
а--
к--
с--
ؠ--
ا--
ادا--
ار--
اع--
ال--
ام--
ان--
ايڪ--
اٹھ--
اڑ--
اک--
اۄ--
اۆ--
ای--
اݨ--
ب--
با--
باد--
بر--
برین--
بن--
بو--
بھ--
بۄ--
بی--
ت--
تا--
تر--
تع--
تو--
تھ--
تی--
ث--
ج--
جا--
جو--
جی--
ح--
حا--
حم--
خ--
خو--
د--
در--
دل--
دن--
دو--
دٲ--
دۄ--
دۆ--
دی--
ذ--
ر--
را--
رت--
رو--
رٲ--
رک--
ری--
ز--
س--
سا--
ست--
سر--
سم--
سن--
سو--
سپ--
سک--
سی--
ش--
شر--
شم--
شہ--
شی--
ص--
ض--
ط--
ظ--
ع--
عب--
عی--
غ--
ـ--
ف--
فت--
فر--
فٲ--
ق--
قا--
قٲ--
ك--
ل--
لا--
لب--
لگ--
لی--
م--
ما--
مب--
مج--
مح--
مد--
مر--
مز--
مش--
مع--
مغر--
من--
مو--
مک--
مہ--
مۄ--
مۆ--
می--
ن--
نا--
ند--
نس--
نل--
نن--
نو--
نی--
ه--
و--
وا--
وات--
وح--
ور--
وۄ--
وی--
ي--
ٲ--
ٲشن--
ٹ--
ٹی--
ٻ--
ٽ--
پ--
پا--
پر--
پن--
پنج--
پو--
پٲ--
پچ--
پھ--
پھو--
پۆ--
پی--
چ--
چا--
چو--
چوہ--
چھ--
ڈ--
ڈو--
ڑ--
ژ--
ژھ--
ژۆ--
ک--
کا--
کر--
کل--
کم--
کو--
کھ--
کۆ--
ڪ--
گ--
گا--
گر--
گو--
گی--
ھ--
ہ--
ہا--
ہم--
ہو--
ہی--
ۆ--
ی--
یٲ--
یہ--
یێ--
۱--
۱۹--
۲--
۲۰--
۲۰۰--
अ--
अक--
आ--
इ--
ई--
उ--
ऊन--
ए--
ऑ--
क--
ख--
ग--
च--
छ--
ज--
ड--
त--
थ--
द--
न--
नव--
प--
फ--
ब--
भ--
म--
य--
र--
ल--
व--
श--
स--
ह--
१--
२--
ॳ--
ॴ--
ਆ--
ਦ--
ਬ--
ਹ--
દ--
ଅଣ--
ଏ--
ଚ--
ଚଉ--
ଦ--
ପ--
ବ--
ஆ--
க--
ப--
ද--
දහ--
--0
--1
--3
--4
--5
--55
--6
--7
--70
--8
--82
--86
--9
--93
--a
--achtzig
--ag
--al
--am
--an
--ar
--at
--ay
--b
--c
--ca
--cal
--ce
--ch
--cht
--chter
--chzig
--cial
--cientos
--ction
--cy
--d
--ddreißig
--dfu
--di
--dreißig
--dy
--e
--ebzig
--ed
--ef
--en
--ent
--er
--erzig
--es
--ew
--f
--ff
--fo
--fu
--g
--ge
--ght
--gs
--gy
--h
--hn
--hə
--i
--ic
--ical
--ihə
--in
--ine
--ing
--ion
--ions
--ir
--ive
--j
--k
--ki
--l
--lah
--le
--lf
--ll
--lle
--logy
--ls
--lve
--ly
--m
--mpju
--n
--na
--nce
--ne
--ng
--no
--o
--od
--on
--ons
--p
--q
--r
--ra
--rd
--re
--rk
--ro
--rs
--rsk
--rt
--ry
--rɨ
--rɨh
--s
--sh
--ski
--ss
--st
--ster
--t
--tch
--te
--teen
--ter
--tion
--tos
--ts
--tter
--tə
--u
--ul
--uld
--undvierzig
--unzig
--ur
--ure
--v
--ve
--w
--y
--ya
--ys
--z
--za
--zig
--ɑ
--ɖ
--ə
--ɡ
--ɨ
--ɨh
--ɨhə
--ɪ
--ɾ
--ʈ
--ʈihə
--ʊ
--ʏ
--υ
--а
--и
--к
--надцать
--р
--с
--сот
--тра
--ца
--це
--ؠ
--ا
--ات
--ار
--ان
--اگ
--اں
--اہ
--اࣇی
--ب
--ة
--ت
--تا
--تر
--تھ
--تی
--ث
--ج
--جا
--جب
--جی
--ح
--حد
--خ
--د
--دہ
--ر
--رہ
--ری
--ز
--س
--سر
--سی
--ش
--شن
--ص
--ض
--ط
--طی
--ظم
--ع
--ف
--ق
--قی
--ل
--م
--می
--ن
--نا
--نہ
--نی
--ه
--هن
--هه
--و
--ود
--وس
--ول
--ويهه
--ویں
--وے
--ي
--يهه
--ٮ
--ٹ
--ٹھ
--ٹی
--ٽيهه
--پ
--پل
--چ
--ڈ
--ڈا
--ڑ
--ژ
--ژھ
--ک
--کٲری
--کھ
--کی
--گ
--گر
--ں
--ھ
--ھی
--ہ
--ۆ
--ۆت
--ی
--ید
--یس
--ین
--ے
--۰
--۰۰
--۱
--۳
--۶
--۷
--۹
--ࣇی
--क
--ख
--ग
--च
--ट
--ण
--त
--द
--न
--ब
--म
--य
--र
--ल
--व
--स
--ह
--ਤ
--ਵ
--ੜ
--ம
