!
"
#
##0
##1
##10
##11
##12
##13
##14
##15
##16
##17
##18
##19
##2
##20
##21
##22
##23
##24
##25
##26
##27
##28
##29
##3
##30
##31
##32
##33
##34
##35
##36
##37
##38
##39
##4
##40
##41
##42
##43
##44
##45
##46
##47
##48
##49
##5
##50
##51
##52
##53
##54
##55
##56
##57
##58
##59
##6
##60
##61
##62
##63
##64
##65
##66
##67
##68
##69
##7
##70
##71
##72
##73
##74
##75
##76
##77
##78
##79
##8
##80
##81
##82
##83
##84
##85
##86
##87
##88
##89
##9
##90
##91
##92
##93
##94
##95
##96
##97
##98
##99
$
%
&
'
(
)
*
+
,
-
.
/
0
00
000
000001
001
002
004
005
008
009
01
010
011
012
015
016
017
02
021
022
023
024
025
026
029
03
030
031
032
034
035
036
038
039
04
042
043
044
045
047
048
05
051
052
055
056
057
059
06
060
061
062
063
064
065
066
067
068
069
07
070
071
074
075
076
077
079
08
080
081
082
083
084
086
087
088
09
090
092
094
095
096
097
098
099
1
10
100
1000
101
102
103
104
105
106
107
108
109
11
110
111
112
113
114
115
116
117
118
119
12
120
1200
121
122
123
124
125
126
127
128
129
1291
13
130
131
132
133
134
135
136
137
138
139
14
140
141
142
143
144
145
1453
146
147
148
149
1492
15
150
1500
151
152
153
154
155
156
157
158
159
16
160
1600
161
162
163
164
165
166
167
168
169
17
170
171
172
173
174
175
176
177
1778
178
1780
1788
179
1792
1795
1797
1798
18
180
1800
1801
1802
1803
1804
1805
1806
1808
1809
181
1810
1812
1813
1814
1815
1816
1817
1818
1819
182
1820
1821
1822
1825
1826
1827
1829
183
1830
1831
1835
1836
1837
1839
184
1840
1841
1843
1844
1845
1846
1847
1848
1849
185
1851
1854
1855
1856
1858
1859
186
1860
1861
1862
1863
1864
1865
1866
1867
1868
1869
187
1870
1871
1872
1873
1875
1876
1877
1878
1879
188
1880
1881
1882
1883
1884
1885
1886
1887
1888
1889
189
1890
1891
1892
1893
1894
1895
1896
1897
1898
1899
19
190
1900
1901
1902
1903
1904
1905
1906
1907
1908
1909
191
1910
1911
1912
1913
1914
1915
1916
1917
1918
1919
192
1920
1921
1922
1923
1924
1925
1926
1927
1928
1929
193
1930
1931
1932
1933
1934
1935
1936
1937
1938
1939
194
1940
1941
1942
1943
1944
1945
1946
1947
1948
1949
195
1950
1951
1952
1953
1954
1955
1956
1957
1958
1959
196
1960
1961
1962
1963
1964
1965
1966
1967
1968
1969
197
1970
1971
1972
1973
1974
1975
1976
1977
1978
1979
198
1980
1981
1982
1983
1984
1985
1986
1987
1988
1989
199
1990
1991
1992
1993
1994
1995
1996
1997
1998
1999
2
20
200
2000
2001
2002
2003
2004
2005
2006
2007
2008
2009
201
2010
2011
2012
2013
2014
2015
2016
2017
2018
2019
202
2020
2021
2022
203
204
205
206
207
208
209
21
210
211
212
213
214
215
216
217
218
219
22
220
221
222
223
224
225
226
227
228
229
23
230
231
232
233
234
235
236
237
238
239
24
240
2400
241
242
243
244
245
2453722
246
247
248
249
25
250
251
252
253
254
255
256
257
258
259
26
260
261
262
263
264
265
2651661
266
267
268
269
27
270
271
272
273
274
275
276
277
278
279
28
280
281
282
283
284
285
286
287
288
289
29
290
291
292
293
294
295
296
297
298
299
3
30
300
3000
301
302
303
304
305
306
307
308
309
31
310
3100
311
312
313
314
315
316
317
318
319
32
320
321
322
323
324
325
326
327
328
329
33
330
3300
331
332
333
334
335
336
337
338
339
34
340
341
342
343
344
345
346
347
348
349
35
350
351
352
353
355
356
357
358
359
36
360
361
362
363
364
365
366
36607
367
368
369
37
370
371
372
373
374
375
376
377
378
379
38
380
381
382
383
384
3849062
385
386
387
388
389
39
390
391
392
394
395
397
398
399
4
40
400
401
402
403
404
406
407
408
409
41
410
411
412
413
414
415
416
417
418
419
42
422
423
424
425
426
427
428
429
43
430
431
432
433
434
435
436
437
438
439
44
440
441
442
443
444
445
446
447
448
449
45
450
451
452
453
454
455
456
457
458
459
46
461
462
463
464
465
466
467
47
470
471
472
473
474
475
476
477
478
479
48
480
481
482
484
485
486
487
488
489
49
491
492
493
494
495
496
497
498
499
5
50
500
5000
501
502
503
504
505
506
507
508
509
51
511
512
513
514
515
516
517
518
519
52
520
521
522
523
524
525
526
527
528
529
53
530
531
532
534
535
536
537
538
54
540
542
543
544
545
547
548
549
55
550
551
552
553
554
555
557
559
56
560
562
563
564
566
567
568
57
570
572
573
574
576
57631600
577
578
579
58
580
582
583
584
585
587
588
589
59
590
591
592
593
594
595
596
597
598
599
6
60
600
601
602
603
604
605
607
608
609
61
610
611
612
614
616
617
618
62
620
621
623
625
626
627
629
63
630
632
633
634
635
636
639
64
640
641
642
644
645
646
649
65
650
653
655
658
659
66
661
662
664
665
666
667
67
670
671
672
673
674
676
678
68
680
682
683
684
685
686
687
69
690
691
692
694
695
696
698
699
7
70
700
701
702
703
704
706
708
709
71
710
711
712
714
716
718
719
72
720
721
722
723
724
725
726
727
728
729
73
730
731
732
733
734
735
736
737
738
739
74
740
741
742
743
744
745
747
748
749
75
750
751
752
753
754
755
757
758
759
76
760
761
762
766
768
77
770
771
772
775
776
777
778
779
78
780
782
783
785
786
787
788
789
79
790
791
796
797
8
80
800
804
806
807
808
809
81
810
812
814
816
817
82
821
822
825
826
829
83
833
834
835
836
837
838
84
842
843
844
845
846
848
849
85
850
851
852
853
854
858
859
86
860
862
867
868
87
870
872
873
875
88
880
883
887
888
889
89
891
892
895
897
9
90
900
902
906
908
91
910
911
912
914
917
918
92
921
923
925
927
929
93
930
931
932
934
936
938
939
94
940
942
944
947
949
95
950
954
956
959
96
963
966
967
968
969
97
970
971
973
974
975
977
978
98
980
981
982
984
985
987
99
990
992
996
997
998
999
:
;
<
=
>
?
@
[
\
]
^
_
`
a
aachen
aalborg
aalto
aargau
aarhus
ab
aba
abad
abades
abadesa
abadesses
abadi
abajas
abajo
abandon
abandonar
abandonat
abanto
abarca
abat
abbreviation
abdalaji
abdicar
abdo
abdullah
abegondo
abel
abella
abengibre
abeno
aberdeen
abezames
abi
abia
abiego
abiertas
abil
abiss
abizanda
abkhazia
abla
ablanque
abolit
abominabil
abonnament
about
abraham
abrera
abres
abreviat
abreviation
abrucena
abrupt
absentie
absolut
abstract
absurd
abu
abundant
abundantie
abuse
abusejo
abyss
ac
acaballera
acade
academia
academic
academie
accelerar
acceleration
accentu
acceptar
acceptat
acceptation
accesse
accidente
acebeda
acebedo
acebro
aceiteros
aceituno
aceral
acered
aci
acid
aconosser
aconosset
acordar
acorde
acri
act
acte
acter
actes
actet
actie
action
actionario
actiones
activ
activisme
activist
activista
activistes
activita
actor
actores
actoressa
actressa
actual
actualmen
acurtar
acurtat
acut
acutar
ad
ada
adahuesca
adaja
adalia
adam
adams
adamuz
adanero
adaptar
adaptet
adavan
addir
addis
ade
adelaide
ademu
adepte
adherente
adherentes
adherer
adheret
adhesion
adi
adijo
adil
adjacent
adjective
adjectives
adjunte
adjunter
adjuntet
adminim
administration
administrativ
administrative
administrativmen
administrator
admisser
admisset
ado
adobes
adolescent
adolf
adolfo
adoptet
adoptiv
ador
adplu
adra
adrada
adrados
adresse
adri
adria
adrian
adriano
adriatic
adult
adulte
adultes
adultijat
adv
adverbie
adversario
advertir
advocate
aele
aer
aere
aero
aeroport
aeroportu
afabil
afere
aferes
afganistan
afghanistan
afiel
afirmar
aflor
africa
african
afro
after
against
agallas
age
agente
agentura
agnes
ago
agramunt
agreabil
agression
agricultura
agricultural
agu
agua
aguado
aguadulce
aguaro
aguas
aguasal
aguayo
aguda
agudo
aguilafuente
aguilar
aguilera
aguilo
agullana
agullent
agullie
agusti
agustin
ahedo
ahigal
ahlstro
ahmed
ahmet
aho
ahorcada
ai
aibling
aid
aiguafreda
aiguamu
aiguaviva
aim
ainzo
air
aires
airport
ais
aitona
aiwanger
ajalvir
ajimeno
ajofri
ajornar
ak
akp
akıncı
al
ala
alabama
aladre
alaejos
alago
alalpardo
alambre
alameda
alamedilla
alamillo
alaminos
alamu
alan
alani
alaqua
alar
alaraz
alarba
alarco
alarilla
alarm
alatoz
alba
albacete
albage
albaida
albal
albaladejo
albalat
albalate
albalatillo
albanchez
albaneses
albanesi
albania
albanya
albara
albares
albarreal
albars
albata
albatages
albatana
albelda
albendea
albendiego
alberca
alberche
albergueri
alberich
alberite
albero
albert
alberta
alberto
alberuela
albesa
albeta
albi
albillos
albin
albinyana
albiol
alboloduy
albons
alboraig
alboraya
alborea
alborge
albornos
alborto
albos
albox
albuixech
album
alca
alcabo
alcadozo
alcala
alcampell
alcan
alcanadre
alcanar
alcano
alcantud
alcaracejos
alcaraz
alcardete
alcarra
alcauci
alcaudete
alcazare
alchimie
alco
alcoba
alcobendas
alcocer
alcocero
alcofea
alcohol
alcohujate
alcolea
alcoletge
alconada
alconchel
alcor
alcorco
alcores
alcoro
alcoroches
alcover
alcu
alcubierre
alcubilla
alcubillas
alcubles
alcudia
alcun
alcunes
aldaya
aldea
aldeacipreste
aldeada
aldealcorvo
aldealengua
aldeamayor
aldeanueva
aldeaquemada
aldearrodrigo
aldearrubia
aldeaseca
aldeason
aldeatejada
aldeavieja
aldehorno
aldehuela
aldeonte
alderney
aldover
ale
alegre
alegri
aleixar
alejandro
aleksandar
aleksandr
alella
alenka
alerre
ales
alex
alexander
alexandra
alexandria
alexei
alexis
alfa
alfabete
alfafar
alfajari
alfame
alfara
alfaraz
alfarnate
alfarnatejo
alfarp
alfarra
alfarrasi
alfauir
alfe
alfinde
alfonso
alforja
alforque
alfoz
alfred
alfredo
alga
algaba
algadefe
algaidas
algar
algarra
algarrobo
algatoci
algebra
algeciras
algemesi
algeria
algerri
algete
algi
alginet
algodonales
algodre
algora
alguaire
alha
alhabia
alhama
alhambra
alhauri
alho
ali
aliaguilla
alicante
alice
alicu
alija
alimentes
alins
alinya
alio
alique
alisme
aliste
alita
aliyev
aljarafe
aljaraque
all
allan
allande
alle
aller
alles
allia
alliage
alliantie
alma
almacelles
almade
almadenejos
almadrones
almagro
almaguer
almansa
almanza
almanzora
almar
almaraz
almarcha
almargen
almatret
almaty
almaza
almedina
almedinilla
almeida
almenar
almenara
almendra
almendral
almendro
almendros
almensilla
almeri
almeriense
almisera
almo
almochuel
almodo
almogi
almoguera
almoines
almolda
almonacid
almonaster
almonte
almoradiel
almorox
almoster
almude
almunia
almuniente
almuradiel
almussafes
alo
aloce
along
alonso
alor
alosno
alovera
alozaina
alp
alpandeire
alpartir
alpedrete
alpens
alpera
alpes
alphonse
alpicat
alpin
alpont
alpujarra
alquande
alquant
alque
alquel
alqueria
alquerieta
alqui
alquo
als
also
alsodux
alt
alta
altable
altafulla
altamiros
altarejos
altas
altere
alternativ
alternative
altes
altesse
alto
altobuey
altomira
altore
altorrico
altos
altres
altri
altrimen
altris
aluminium
alustante
alvarez
alvaro
alver
alzira
am
ama
amac
amant
amar
amares
amassar
amasse
amat
amavida
amayuelas
amb
ambassade
ambassador
ambel
ambi
ambite
ame
ameliorar
ameliorat
amellera
amen
ament
amer
america
american
ames
ametlla
ameyugo
ami
amical
amico
amicos
amieva
amman
ammann
amor
amore
amos
amparo
ampezzo
ampli
ampolla
amposta
ampudia
ampuero
amsterdam
amunt
amusco
amusquillo
an
ana
analise
analitic
anastasia
anastasiadis
anatolia
anatomie
anaya
anc
ancara
anchuelo
anchuras
ancian
ancor
ancre
and
andaluci
andalus
andalusia
andarax
andavi
ande
andere
anders
anderson
andilla
andorra
andre
andrea
andreas
andrej
andres
andreu
andrew
andrey
andrzej
andu
ane
anelle
anento
anes
anet
anexet
angel
angela
angeles
angelique
angle
angles
anglese
anglesi
anglesola
anglia
ango
angola
angu
anguita
anguix
angul
anhalt
ani
anievas
animal
animale
animales
animals
anin
aniol
ankara
ann
anna
annalena
anne
annegret
annie
anniversarie
anno
annu
annual
annus
ano
anoia
anquela
anse
anso
ant
antas
ante
antean
antecessor
antella
antequera
anterior
anteriori
antey
anteyan
anti
antie
antigu
antigua
antilles
antillo
antioquia
antique
antiqui
antiquita
anto
antoine
antologie
anton
antoni
antonia
antonio
antropologie
antwerpen
anullar
anunciar
anunciat
anxie
any
ao
aoslos
aparate
aparates
aparda
apari
aparicio
aparit
aparition
apart
apartena
apartene
apartenet
apen
apene
apert
aperter
apertet
apertura
aplastar
aplicar
aplicat
aplication
apoge
apoplexie
aportar
apoteca
apoy
apoyar
apparit
appenzell
apr
apreciar
aprender
aprendet
aprension
aprentisage
april
apt
apu
apulia
aputova
aqua
ar
ara
arab
arabayona
arabes
arabia
arabic
aracena
arago
aragon
aragona
aragonesi
aragu
aragua
arahal
arahuetes
aran
aranda
arandilla
aranga
arangeament
arangear
arangeat
aranjuez
aranzueque
arapiles
arauzo
arbanco
arbeca
arbeteta
arboc
arboleas
arboli
arbu
arc
arcaic
arcas
arcediano
arcenillas
arch
archi
archidona
archipelago
architectura
archive
archives
arcico
arco
arconada
arcones
arcos
arcs
arctic
ard
ardales
ardent
ardisa
ardo
ardoz
are
area
areas
arec
arena
arenal
arenales
arenas
arenillas
areny
arenys
ares
arestat
arevalillo
argamasilla
argan
arganda
arganza
arganzo
argavieso
arge
argecilla
argelaguer
argenc
argent
argente
argentera
argentina
argentona
argil
argon
arguis
arguisuelas
argujillo
ari
arias
arie
arija
ario
ariscal
aristoteles
arium
ariva
arivat
ariza
arizona
arjona
arjonilla
arkansas
arlanza
arlanzo
armallones
armas
arme
armen
armenia
armentera
armenteros
armes
armin
armun
arndt
arnes
arnuero
aro
aroche
around
arovic
arquillinos
arquillos
arrabalde
arrancacepas
arranz
arraya
arredondo
arres
arriate
arriba
arribas
arrivat
arroba
arrondissement
arrondissements
arroya
arroyo
arroyomolinos
arroyos
arrubia
arse
art
arte
arteixo
artes
artesa
arthur
arti
article
articul
articulation
articules
artieda
artificial
artist
artistic
arts
artur
arturo
arzo
arzobispo
arzu
as
ascender
ascendet
ascension
asco
ascosa
asensio
ashleigh
asi
asia
asian
asil
asociation
aspa
aspariegos
aspecte
aspectes
aspirar
aspri
assad
assassinat
assecurantie
assedie
assemblar
assemble
assembly
assertet
assistente
assister
associat
association
associationes
assortiment
astana
astillero
astorga
astre
astrofisica
astrologie
astronomic
astronomie
astudillo
asturian
asturianos
asturias
astut
asuncio
at
atacca
ataccar
ataccat
atajate
atalaya
atanzo
atapuerca
ataquines
atazar
ate
atea
ateca
atender
atenter
atention
atentiv
athina
athletica
athletics
atienza
atinge
atinger
atinget
ation
ativ
atla
atlanta
atlantic
atletica
atmosfere
atmosferic
atom
atomes
atomic
ator
atori
atraer
atration
atri
attention
atu
atura
atzeneta
au
auch
audi
audir
audit
auf
aug
augmentar
augmentat
augsburg
august
aun
aure
aurelio
aurin
aurora
aus
ausende
ausines
ausserrhoden
austin
australia
australian
austria
austrian
autilla
autillo
auto
autocton
automobil
automobile
automobiles
autonom
autonomie
autor
autores
autoressa
autorita
autoro
autun
auvergne
aux
auxilia
auxiliar
auxiliari
auxiliat
auxilie
avan
avansat
avanse
avantage
avara
avari
avate
avdullah
ave
avec
avedillo
aveinte
avellaneda
avellanes
avellanosa
aventura
aventuras
averal
averas
aversion
averuelas
avia
aviation
avid
avie
avies
avigilar
avila
avile
avinyo
avinyonet
avion
aviones
avise
aviv
avocate
avus
award
away
axarqui
ay
ayamonte
ayelo
ayerbe
ayllo
ayoo
ayora
ayrault
ayuda
ayuela
ayuso
az
aza
azaba
azanuy
azara
azawad
azerbaidjan
azlor
aznalca
aznalco
aznalfarache
aznar
azoague
azov
azuara
azuqueca
azuta
b
ba
baal
babacan
babilafuente
babis
bacares
bachmann
back
bacon
bad
badajoz
badalona
bade
baden
badia
badminton
badolatosa
badules
bae
baena
baerbock
baeza
baga
bagdad
bages
bagu
bahabo
bahamas
bahc
bahn
bahrain
baides
baie
baile
bailo
baix
baixa
baixes
baja
bajas
bajo
bajrovic
bakir
baku
bal
balaguer
balancie
balanegra
balazote
balbases
balboa
balconcha
baldellou
baleares
baleari
baleira
balenya
ball
ballade
balle
ballestero
ballesteros
ballette
ballobar
balne
balneari
balos
balsa
balsareny
baltana
baltic
baltimore
bamberg
ban
bana
banasta
banc
banca
band
bandage
bande
bandera
bandic
bangladesh
baniszewski
baniszweski
banja
bank
bankes
bano
banos
banyeres
banyoles
baptisme
baptiste
baqueri
bar
bara
baracca
barack
barajas
baralla
baranja
barbadillo
barbados
barbalos
barbara
barbarroya
barbastro
barbate
barbe
barbens
barbera
barberans
barbero
barbolla
barbuda
barbue
barbun
barca
barcelona
barceo
barcheta
barchi
barcial
barcience
barco
bardaji
bardallur
bardella
bareyo
bargas
bari
barig
baril
barjas
barley
baron
baronia
barquera
barraco
barrameda
barrax
barre
barregas
barreiros
barres
barrio
barriopedro
barrios
barro
barroma
barroso
barruecopardo
barruecos
barruelo
bartolome
bartomeu
bas
basa
basardilla
basat
basc
basconcillos
bascun
base
basel
bashar
basic
basis
basketball
bass
basse
bassella
bastida
baston
bastonar
bat
batea
batres
battallie
batte
batter
batumi
bausen
bautista
bavaria
bavarian
bay
baya
bayarque
bayern
bayreuth
bayuela
bazta
bdar
be
beach
beamud
beas
beatrix
beau
bebe
bec
because
becedas
becedillas
becerrea
becerril
becerro
becilla
beck
becker
beckmann
become
bed
beda
bedmar
bee
beer
before
begi
begonte
begues
begur
bei
beijing
beires
beirut
bel
belalca
belbimbre
belchite
bele
belen
belfast
belfort
belgia
beli
belianes
belincho
belize
bell
bellaguarda
bellcaire
bellera
bellita
bellmunt
bello
bellprat
bellpuig
belltall
bellu
bellvei
bellver
bellvi
belmonte
belmontejo
belo
belorado
belver
belvi
bembibre
ben
bena
benabarre
benacazo
benadalid
benafarces
benaguasil
benahadux
benahavi
benaixeve
benalauri
benalma
benalup
benamargosa
benameji
benamocarra
benaocaz
benaoja
benarraba
benatae
benavent
benavente
benavides
benavites
bene
benegiles
beneixida
benes
benetu
benhavn
beni
beniajar
beniarjo
benicalaf
benicolet
benicull
benifairo
benifallet
benifayo
benifla
beniga
benimodo
benimuslem
benin
beniparrell
benirredra
benissanet
benissano
benissoda
benissuera
benitagla
benito
benizalo
benjamin
benjamina
benque
bentarique
bentost
benuza
benz
beograd
ber
bera
beranuy
berbegal
berberana
bercero
berceruelo
bercial
bercianos
bercimuel
berdejo
berdimuhamedow
berdu
bere
berenguer
berg
berga
bergamo
bergantin
bergen
berger
bergondo
bergueda
berja
berlanas
berlanga
berlangas
berlin
berliner
bermellar
bermillo
bern
bernal
bernard
bernardo
bernardos
bernd
bernhard
berninches
bernuy
berrelle
berrocal
berrocalejo
berrueces
berrueco
berry
berzosa
berzosilla
besa
besalu
bescano
beso
beson
besona
besora
bessarabia
best
bet
betanzos
beteta
bethlem
better
beuda
bevanda
bezana
bg
biallas
bianya
biatlon
bible
biblioteca
biden
biel
bielefeld
bielorussia
bielorussian
bielsa
bienservida
bierge
bierzo
biescas
big
bigues
bih
bijelina
bijuesca
bil
bilbao
bill
billet
billion
bimenes
bin
binaced
binche
bine
bingen
biochimie
biografie
biologic
biologie
biosca
biota
bir
bird
birmingham
bis
bisaurri
bisbal
bisbe
biscarrue
bisimbre
bismarck
bissau
bissextil
bite
bitola
biure
bizantin
bjo
bla
black
blanc
blancafort
blanco
blanes
blanques
blas
blascomilla
blasconun
blascosancho
blatter
blecua
blica
blinken
bloc
blog
blond
blow
blu
blue
blyton
bmw
bo
boada
boadella
boadilla
boal
boalo
board
bob
bobadilla
boca
bocairent
bocale
bocca
boceguillas
bochum
bocigas
bocos
bodas
bodegas
bodera
bodo
body
boecillo
boedo
boeselager
bogajo
bogarra
bogas
bogota
bohemia
bohodo
bohoyo
boi
boimorto
boiro
bois
boix
bol
bolan
bolbait
bole
bolivia
bollullos
bologna
boltan
bolvir
bon
bonansa
bonaparte
bonares
bonastre
bond
bone
bonesvalls
bonete
boniches
bonilla
bonillo
bonmati
bonn
bonrepo
book
boqueixo
boquin
borau
bord
bordalba
borde
bordeaux
bordils
borge
borges
borgo
borgomastra
borgomastro
boris
borja
bormujos
born
borneo
bornos
bornova
borough
borox
borrassa
borreda
borrenes
borussia
boscage
bosic
bosillar
bosna
bosnia
bosniak
bosniakes
bosnian
bosque
bosse
bosso
boston
bot
botanica
botarell
bote
botorrita
botswana
botte
bouza
bove
bovera
box
boy
boys
boz
bozoo
bpolabt
br
bra
brabant
brabos
bracamonte
brahojos
brai
brajovic
bran
branche
branches
brandenburg
brandenburgia
braojos
brasil
brasilia
brasilian
bratislava
bratus
braunschweig
brav
bravo
brazacorta
brazatortas
brazuelo
brc
brea
brecht
breda
brega
breisgau
bremen
bremerhaven
brenes
brenz
brest
breto
bretocino
brevi
brexit
brian
bricia
bridge
bridgeport
brieva
brihuega
brijeg
brilliant
brilliar
brime
brincones
bring
brinker
brio
brisbane
bristol
britan
britannia
britannic
british
briviesca
brno
brollo
brongersma
bronze
bronzin
brosse
broto
brown
bru
bruc
bruida
brull
brun
brunei
brunete
bruno
brunswick
brunyola
bruxelles
bu
bubierca
bucarest
buch
buchner
buciegas
bucle
budapest
budgete
budhisme
budia
budimir
budva
buelna
buena
buenache
buenamadre
buenaventura
buenavista
buendi
bueno
buenos
buey
bufali
bugarra
bugedo
buhari
building
buitrago
buixalleu
bujalance
bujalaro
bujar
bujaraloz
bul
bularros
bulatovic
bulbuente
bulgares
bulgaria
bulgarian
bulgaric
bullaque
bulletin
bullock
bulls
bun
bundesliga
bundespolizei
bundespolizeiabteilung
buniel
bunyol
burdon
bureba
burela
bureta
burganes
burgenland
burgo
burgohondo
burgos
burguillos
burjassot
burkina
buro
bursa
burujo
burundi
bus
busan
business
bustares
bustarviejo
buste
bustillo
busto
but
buti
buton
buttre
bux
buxe
buxette
by
c
ca
cabace
cabaco
caballar
caballero
caballeros
caballo
caban
cabana
cabanabona
cabanas
cabanelles
cabanes
cabanillas
cabanyes
cabdella
cabeza
cabezabellosa
cabezamesada
cabezarados
cabezarrubias
cabezas
cabezo
cabezuela
cabizuela
cable
cabo
cabolafuente
cabra
cabrales
cabranes
cabrenys
cabrera
cabrerizos
cabreros
cabriel
cabrillanes
cabrillas
cabrils
cabue
cacabelos
cadalso
cadaque
cade
cader
caderne
cadet
cadre
cadrete
caduc
caesar
cafe
cairo
caisse
cajigar
cal
cala
calabazas
calabria
calaf
calafell
calahorra
calais
calan
calasanz
calatayud
calatorao
calatrava
calba
calce
calcena
calcul
calcular
caldearenas
calders
caldes
calella
calendare
calentation
calera
caleruega
caleruela
calgary
cali
calid
california
call
calldetenes
calleja
calles
callu
calm
calmar
calmarza
calonge
calore
calvarrasa
calvo
calzada
calzadas
calzadilla
camaces
camalen
camallera
camarasa
camarena
camarenilla
camargo
camarin
camarles
camarma
camarzana
camas
cambil
cambodja
cambre
cambridge
cambrils
cameron
cameroon
camerun
cami
camino
camo
camp
campalbo
campana
campania
campanie
campaspero
campazas
campdeva
campe
campea
campelles
campes
campillo
campillos
campin
campins
campisa
campllong
campmajor
campo
campofri
campolara
camponaraya
campoo
camporre
camporredondo
camporrobles
campos
camprodon
campsentelles
camun
can
canada
canadian
canal
canale
canalejas
canales
canals
canaria
canarias
canberra
cancellero
cancere
candamo
candasnos
candelario
candeleda
candi
candida
candidar
candidat
candidata
candidate
candidates
candidatura
cane
canejan
canel
canena
canencia
canes
canet
canfranc
cangas
canicosa
canillas
canja
canne
cano
canonja
canovelles
canredondo
cant
canta
cantabrana
cantabria
cantagallo
cantalapiedra
cantalejo
cantallops
cantalojas
cantalpino
cantar
cantaracillo
cantat
cantator
cantatora
cantatoressa
cante
cantera
cantespino
cantillana
cantimpalos
cantiveros
canton
cantones
cantoria
canyelles
canzon
canzones
canzuk
cap
capabil
capabilita
capacita
capafonts
capc
capcussine
capdesaso
capdet
cape
capela
capella
capellades
capillas
capilles
capital
capitale
capitano
capitel
capitul
capmany
capolat
capter
captet
car
cara
caraban
caractere
caracteristicas
caracuel
caramin
caravia
carazo
carbajal
carbajales
carbajosa
carballeda
carballedo
carballo
carbellino
carbon
carboneras
carbonero
carboneros
carcabuey
carcaixent
carcedo
carcele
cardedeu
carden
cardener
cardenete
cardiel
cardiff
cardinal
cardo
cardona
cardoso
cards
care
carenas
cargar
cargo
caribica
cariera
carin
carintia
carl
carles
carlet
carlo
carlos
carlota
carme
carmelo
carmen
carmena
carmona
carne
carnevale
carnota
carolina
caroline
carpenter
carpio
carracedelo
carral
carranque
carrascal
carrasco
carrascosa
carratraca
carre
carren
carrera
carreteros
carri
carrias
carriches
carriera
carrillo
carrio
carrizal
carrizo
carrizosa
carro
carrocera
carroll
carry
cart
cartajima
cartaya
carte
cartes
carteya
carucedo
carwyn
casa
casabermeja
casado
casafranca
casar
casarabonela
casares
casariche
casariego
casarrubios
casarrubuelos
casas
casasbuenas
casaseca
casasimarro
casasola
casavieja
casbas
cascajares
case
caseo
caseres
cases
casillas
casinos
casla
caso
caspe
caspuen
cassa
cassero
casserres
castan
castejo
castelflorite
castell
castellanos
castellar
castellbell
castellbisbal
castellbo
castellcir
castelldans
castelldefels
castelle
castellet
castellfollit
castellgali
castellnou
castello
castelloli
castellonet
castellsera
castellterc
castellvell
castellvi
castielfabit
castiello
castigaleu
castil
castilblanco
castildelgado
castilfale
castilforte
castilia
castiliscar
castilla
castillazuelo
castilleja
castillejo
castillejos
castillo
castillonroy
castilnovo
castilnuevo
castle
castraz
castrejo
castrillo
castro
castrobol
castrocalbo
castrocontrigo
castrodeza
castrogonzalo
castrojeriz
castrojimeno
castromembibre
castromocho
castromonte
castronuevo
castronun
castropodame
castropol
castroponce
castroserna
castroserraci
castrotierra
castroverde
casu
casus
cat
catadau
catalan
catalana
catalonia
catalunya
catarroja
catedrale
categorie
categories
caten
catherine
catllar
cato
catolic
catolicisme
cauca
caude
caudete
caudilla
caudillo
caul
caus
causa
causar
causat
cause
causes
caution
cava
cavall
cavalle
cave
cavia
cayenne
cayo
cayuela
cazalegas
cazalilla
cazalla
cazin
cazorla
cazurra
cd
cdeli
ce
cea
cebanico
cebolla
cebrecos
cebreiro
cebreros
cebria
cebrones
ceci
cecilia
cedeira
ceder
cedillo
cee
cega
ceinos
celada
celat
celebrat
celis
cellera
cellules
celoni
celra
celtic
cendejas
cenicientos
cenizate
cent
centelles
centenera
centennie
center
centimetres
central
centralafrican
centrale
centrals
centrat
centre
centres
centrist
century
cepeda
ceque
cera
cerar
cerc
cerceda
cercedilla
cercos
cercs
cerda
cerdanya
cerdanyola
cerdido
cerebre
cereceda
cerecinos
ceres
cerezal
cerezo
cernadilla
cerralbo
cerralbos
cerrato
cerro
cert
cervantes
cervatos
cervello
cervera
cerveruela
cervia
cervillego
cervo
cesar
cespedosa
cessar
cessat
cesto
cesuras
cetina
ceuta
cevico
cgi
cgl
ch
cha
chac
chad
chagarci
chai
chalamera
chamarti
chambre
chambres
champion
championatu
championatus
championes
champions
chan
chanas
chance
chancelar
change
changea
changeament
changeamentes
changear
changeat
changes
chantada
chap
chapel
chapelle
chapineri
char
charge
chargeat
charles
charlie
charlotte
charmant
chascun
chaux
chavela
chaves
che
checa
chef
chefes
chefmen
chella
chelva
chemnitz
chengdu
chequilla
cher
chera
chercos
cherhill
chernivtsi
cherson
cheseaux
chess
chest
chestalgar
cheville
cheyenne
chi
chic
chicago
chiclana
chico
child
chile
chillaro
chillo
chillue
chiloeches
chimic
chimie
chimillas
china
chinchilla
chincho
chine
chinesi
chipiona
chiprana
chirivel
chirivella
chirurgia
chis
chiva
chner
choc
chodes
chou
chozas
chr
christian
christine
christoph
christopher
chrupalla
chucena
chueca
chulilla
chumillas
church
ci
ciadoncha
cicero
cicle
ciclisme
cid
cidre
ciec
ciel
ciempozuelos
cierva
ciervo
cies
cieza
ciffre
cifuentes
cigales
cigun
cija
cikhanovskaya
cilia
cilindre
cilla
cillaperlata
cilleros
cilleruelo
cillorigo
cimanes
cimballa
cinca
cincinnati
cinco
cincovillas
cinema
cintas
cintura
ciotti
cipe
circa
circul
circulari
circulation
circum
circumdat
circumite
cire
cirilic
ciruelas
ciruelos
cisla
cisneros
cisores
ciste
cistella
cistierna
cita
citar
citation
cite
citean
citron
city
ciudad
ciutadilla
cive
cives
civic
civil
civilisation
civita
ck
cke
cken
cker
cla
claccar
clair
claire
clar
clara
claramunt
clare
clariana
clark
clarmen
class
classe
classement
classic
classification
claude
claudia
claudius
clave
clay
clef
clegg
cleij
clement
clemente
cleopatra
clermont
cleveland
clientela
clima
climatic
climent
clinton
clocca
cloche
clock
close
cloth
clothes
clove
club
clubes
clubs
cluder
cludet
co
coalition
coan
coast
cobeja
coben
cobeta
cobisa
cobos
cobreros
coca
coche
cocinar
coclare
coco
code
codines
codo
codonal
codorniz
codorno
codos
coelho
cofrents
cogeces
cogollor
cogollos
cogolludo
cogul
coi
coiro
cojos
col
cola
colaboration
colas
cold
cole
colecter
colection
colera
colere
colilla
colina
colindres
coline
coll
collado
collar
collazos
collbato
colldejou
colle
collection
college
collsuspina
colmenar
colmenarejo
colo
coloma
colomba
colombia
colombo
colomers
colonia
colonial
colonias
colonie
colonisat
colonisation
colonistes
colonne
color
colorado
colore
colores
colour
colpe
columbia
columbus
colunga
colungo
com
coma
comandante
comarca
comares
comarques
comba
combatte
combatter
combattet
combination
combinist
come
comedie
comendadores
comensa
comensante
comensar
comensat
comense
comercial
comerciante
comercie
comic
comillas
comissario
comission
comite
comm
comma
commission
commons
commonwealth
commun
commune
communication
communite
companie
company
comparar
comparation
comparativ
compartiment
competition
competitiones
complement
complet
completmen
complex
componentes
composit
composites
composition
compositor
compostela
comprar
comprende
comprender
comprendet
comprensibil
comprension
computator
computatores
comtat
comte
comtesa
comtia
comtias
comto
comun
comuna
comuneros
comunicar
comunication
comunidad
comunisme
comunist
comunistes
comunistic
comunita
comunite
comunmen
con
conca
conceder
concentration
concepcio
concepcion
concepte
conception
concernent
concert
concha
concil
conclusion
concurse
condado
condamnat
conde
condemios
condes
condesa
condition
conditiones
conductor
conduida
conesa
conexion
confederation
conferentie
confesser
confession
confidentie
confirmat
conflict
conflicte
conflictes
confluentie
conform
confuser
confuset
confusion
congo
congosto
congostrina
congress
conil
conj
conjugation
conjunction
connacht
connecticut
conosse
conossentie
conossenties
conosser
conosset
conquesta
conquestat
conqueste
conquista
conscientie
consentiment
consentir
consequentie
consequenties
conservar
conservat
conservativ
considera
considerar
considerat
consilie
consiliera
consiliero
consilium
consiste
consistet
consonant
conspiration
constant
constanti
constantina
constantinople
constanzana
constatar
constitue
constituency
constituent
constituet
constitution
constitutional
constructer
constructet
construction
consuegra
contact
contacte
contactes
contamina
conte
contemporan
contemporani
contene
contenet
contenete
contenor
content
contest
contextu
continent
continental
continente
continentes
continua
continuar
continuat
continuation
conto
contra
contracte
contrari
contrarie
contraste
contrate
contre
contreras
control
controla
controlat
convenent
convention
conversion
convertet
coomonte
cooper
cooperation
copacabana
cope
copernal
copons
cor
corage
corageosi
corb
corbe
corbera
corbillos
corbins
corc
corcos
corcubio
corde
cordes
cordial
cordie
cordovilla
corduente
corect
coreses
coresponde
corespondent
corgo
coria
corinna
coripe
coristanco
coritiba
cork
corn
corneja
cornella
cornudella
cornwall
coron
corona
coronat
coronil
corpa
corpes
corporal
corpulent
corral
corrales
corsesi
corsete
corsica
corte
corteconcepcio
cortegana
cortelazor
cortes
cortice
cortijos
cortin
cortina
cortinas
corullo
corun
coruption
corvera
cose
coses
coslada
cosmo
cosmoglotta
cosmologie
cospeito
costa
costalago
coste
costean
costera
costume
cosuenda
cotanes
cotes
cotillas
coto
coton
council
country
county
courel
course
couturat
covarrubias
covid
covri
covriment
covrir
covrit
covritura
cozuelos
crayon
cre
crea
crear
creat
creation
creator
crede
credet
creixell
crem
cresce
crescent
crescente
crescentie
crescer
crescet
crespia
crespins
crespo
crespos
cresson
creta
creux
cri
cribelle
cricket
crimea
criminal
crimines
criptana
crise
crist
cristalle
cristalles
cristallin
cristan
cristdemocratic
cristian
cristianisme
cristina
cristo
critic
critica
criticaci
critical
criticas
criticat
critico
crnadak
croat
croates
croatia
croatian
croc
cronat
cronologie
cross
crossminton
croya
cruce
cruces
cruche
crud
cruel
crui
cruste
cruz
ctor
cu
cuadros
cuarte
cub
cuba
cubas
cubel
cubelles
cubells
cubillas
cubillo
cubillos
cubo
cudeyo
cudillero
cue
cuelgamures
cuenca
cuende
cuerlas
cuerva
cuervo
cuesta
cueva
cuevas
cueza
cugat
cuidar
cul
cullera
culleredo
culpa
cultivar
cultivat
cultivation
cultur
cultura
cultural
culturas
cultures
cumbres
cunit
cup
cupar
cuple
cupre
cura
curar
curiel
curitiba
curling
current
currente
currer
currida
curse
curses
cursu
curt
curtis
curuen
cusco
cusina
custa
cute
cuve
cvijanovic
cymru
cypria
cyril
czaja
d
da
daba
dac
daganzo
dahlmeier
daimiel
daimu
dakota
dalga
dali
dallas
dalmatia
dalt
dama
damage
damascus
dame
damian
dana
danes
danesi
dangerosi
dani
dania
daniel
daniela
danos
dans
dansa
dante
danubio
dar
dark
darmstadt
darnius
daro
daroca
darwin
das
dat
data
database
datar
datat
datation
date
dates
datos
datum
dave
david
davis
davos
davutog
day
dayton
dchen
de
dead
death
debil
debit
dec
decade
december
decembre
decennie
decentralisat
decepter
decesim
deci
decide
decider
decidet
decidu
decision
decisiones
decisiv
declara
declarar
declarat
declaration
declive
decoration
decovrir
decovrit
decovrition
decrete
dedicat
deessa
defamar
defecte
defectes
defender
defendet
defense
defete
defini
definir
definit
definition
degan
degenerat
dehesa
del
delaware
delegate
delgado
delhi
delicat
delicte
della
dels
deltebre
dem
demanda
demandar
demandat
demande
demi
demirtas
demisser
demisset
demission
demissionat
democrates
democratic
democratie
demonstration
demonstrationes
demos
den
dena
denis
dennis
denov
densi
densita
dent
dente
dentes
denys
deo
departe
departement
departer
department
depende
depo
depos
depoy
deputates
der
derider
deriva
derivat
derivation
des
descartes
descendentes
descender
descense
descovrit
descri
description
descrir
descrit
descrition
desde
desert
deserte
desfacil
desfacilita
designar
designat
desordinar
despi
dessert
dessin
dessinar
dessinat
dessine
dessines
destination
destine
destriana
destructer
destructet
desvalls
desvern
details
detebe
determinat
detmold
detra
detroit
deutsch
deutsche
deutschen
deutscher
deve
developa
developament
developar
developat
developation
development
deveni
devenir
devenit
dever
devet
dewahl
dextri
dhaka
di
dia
dialecte
dialectes
dialetto
diamant
diametre
diana
diari
diaz
dica
diccionario
dico
dictator
dictatura
dictionarium
dictionary
die
diego
dies
dieter
dietrich
diez
diferent
diferentie
diferenties
different
difuset
diga
digital
digni
dignita
dil
dimension
diminuer
dimitar
dimitriev
din
dinamo
dinastie
dine
dio
diogenes
dios
diploma
diplomat
diplomatic
dir
direct
directe
directer
directet
direction
directmen
director
directoratu
direktion
dirk
discipline
disciplines
disco
discos
discricte
discurs
discurse
discusset
discussion
displaystyle
disponibil
disputat
dispute
dissertation
dissoluet
dissolution
distant
distantie
distinct
distint
distinte
distinter
distintion
distribuer
distribution
district
districte
districtes
dit
divers
diversi
diversita
divertissement
divide
divider
dividet
divin
division
divisiones
divorce
divorciat
divorcie
diz
djilas
dmytro
dnipro
do
doane
doboj
docente
docer
docet
doctor
doctoratu
doctrina
document
documentari
documentation
documente
documentes
dodik
dodro
dog
doha
dohm
dola
doler
dolore
dolores
dom
domene
domenyo
domenys
domes
domestic
domestication
domi
domicilie
domina
dominant
dominat
domination
domingo
dominguez
dominia
dominican
dominion
domino
don
dona
donald
donar
donetsk
dong
donhierro
donika
donjimeno
donvidas
door
dor
doris
dorlota
dorme
dormir
dornbirn
dorothea
dorse
dortmund
dos
dosaigu
dosbarrios
dosrius
douala
douglas
down
dpmne
dr
dracula
dragan
drake
drakeford
drama
dramani
dramas
drap
dream
drei
dresden
dress
dreyer
driebes
drosten
drvar
du
duant
dubai
dublin
dubra
dubrovnik
duc
ducado
ducatu
ducte
ducter
ductet
ductor
ductores
duda
due
duen
duero
duesaigu
duesim
duett
duisburg
dulci
dulcis
dumbri
dunc
dupar
duplic
duque
dur
dura
duran
durant
durante
durar
durat
duration
durch
duro
durre
duruelo
dus
duvez
dveri
dz
e
ea
each
ear
early
east
eastern
easy
eat
eau
ebre
ebro
eccl
ecclesie
ecla
eclesia
eclesie
eclesies
ecologic
ecologie
economic
economica
economie
economist
ecuador
ed
eda
edad
edgar
edicions
edificie
edificies
edin
edinburgh
editerio
editet
edition
editiones
editor
editoria
editorial
edmonton
edo
eduard
eduardo
educar
educat
education
educational
edward
efecte
efectiv
egal
egalita
egalmen
egarda
egardat
egils
egiptia
egra
ein
eine
einem
einer
eines
einstein
ejea
ejido
ek
el
ela
elba
elbe
elche
electer
electet
election
electiones
electoral
electores
electric
electricita
electro
electromagnetic
electron
electrones
electronic
element
elemental
elementari
elementes
elena
elevar
elevat
eli
eliana
elisabeth
eliz
elizabeth
elj
eljko
ella
ellas
els
elvira
em
embalo
embid
emigrat
emil
emiliano
emilio
emily
eminent
emir
emiratus
emisser
emission
emma
emmanuel
emmy
emparedada
emperador
empire
empiric
emporda
empu
en
ena
encalada
enci
enciclope
enciclopedie
encina
encinacorba
encinas
encinasola
encinedo
encinilla
encinillas
encomienda
encyclopedia
end
endrinal
energic
energie
engel
engelbert
engic
england
english
engui
eni
enid
enix
enmedio
enne
enough
enric
enrique
ent
ente
entes
entie
entita
entitet
entitetes
entrala
entrambasaguas
entre
entrevin
enveja
enza
eo
epi
epic
episcopal
episcopatu
episode
episodes
epoca
epos
equation
equatorial
equilibrie
equip
equipes
er
era
eras
erasmus
erbil
ercina
erdog
eres
eresma
erfurt
ergo
eri
eric
erich
erik
eritre
erla
erlangen
ernest
ernst
ero
erra
error
errore
eruption
erustes
erza
es
esc
esca
escacena
escala
escalante
escalona
escalonilla
escamilla
escan
escapat
escarabajosa
escariche
escarp
escatro
escaules
escobar
escopete
escorial
escornalbou
escribano
escuderos
escurial
esgueva
esguevillas
esim
eskilstuna
esky
esp
espadan
espan
espanyol
esparreguera
espartinas
espeja
espejo
espeluy
espera
esperantie
esperantist
esperanto
espiel
espinar
espinareda
espinelves
espino
espinosa
espinoso
espirdo
esplegares
esplu
espluga
esplugues
espolla
esponella
espoo
espot
espunyola
esque
esquirol
esquisse
esquivias
essa
essayes
esse
essen
essent
essente
essential
esser
esset
est
esta
estable
estada
estadilla
estamariu
estany
estara
este
esteban
estena
estepa
estepona
esteras
esterri
esteruelas
esteve
esther
estima
estimar
estimat
estimation
estival
estive
estivella
estonia
estonian
estopin
estrac
estrade
estrella
estremera
estrie
estuarie
estubeny
et
eta
etablisser
etablisset
etage
etc
ete
ethnic
etimologie
etiopia
etnic
etsi
ette
eu
eufemia
euge
eugenio
eula
eulalia
euro
europa
europan
europanes
europe
european
eurovision
eva
evaluar
evangelie
eveni
eveniment
evenimentes
evenir
evenit
event
evic
evident
evidentie
evina
evinit
evitar
evolution
ewa
ex
exact
examinar
example
excellent
except
exchange
excludet
excursion
exeada
executer
execution
executiv
exemple
exemples
exercir
exercition
exilie
existe
existent
existentie
exister
existet
expander
expansion
expedir
experientie
experiment
experimental
experimentes
expert
explicar
explication
explorar
exploration
explosion
explotation
exposir
exposition
express
expresse
expresser
expression
expressiones
expulser
expulset
extende
extender
extendet
extension
extensiv
exteriori
extern
externi
extinter
extintet
extirpar
extra
extran
extrem
extremadura
extremita
extremo
eye
ez
eza
f
fa
fabara
fabero
fabius
fabrica
fabricar
fabul
fabules
face
facebook
facie
facil
facilmen
fact
facte
faculta
fad
fadil
fadrique
fago
fahrudin
falce
falcon
fall
fallaves
fallit
falls
fals
falset
falun
fam
fama
familia
familiar
familie
families
family
famos
famosi
fanlo
fanny
fantasie
far
farage
faraja
faramontanos
farfanya
farine
fariza
farlete
farmaceutic
farnals
farners
farrera
fasa
fase
faso
fat
fatarella
fate
fatick
fauna
faura
favara
favor
favorabil
favore
fayez
faymann
fayo
fayos
fc
fe
feb
febro
februar
federal
federation
federativ
federn
felices
felici
felipe
feliu
felix
feminin
femme
femur
fen
fender
fene
fenestre
fenollet
fenomen
fenomenes
fensura
fer
ferdinand
fermoselle
ferna
fernamental
fernandez
fernando
ferrando
ferre
ferrer
ferreras
ferrero
ferreruela
ferriol
ferrol
ferrovia
ferroviari
fertil
festa
festival
feuille
few
fez
ffc
fi
fibre
fibres
fic
fico
ficter
fiction
fide
fidel
fidesz
fidji
field
fiemme
fifa
fig
figaro
figuera
figueres
figueroa
figuerola
figueroles
figueruela
figueruelas
figura
figuras
figure
fih
fil
fila
filabres
file
filia
filias
filio
filios
filip
filipines
film
filmes
filosof
filosofes
filosofic
filosofie
filtre
fim
fin
final
finale
finales
finalmen
financial
financie
financies
fine
fines
finestres
fingre
fini
finir
finit
finland
finlandesi
finn
fire
firenze
firm
firma
firmas
first
fis
fiscal
fischer
fish
fisic
fisica
fisical
fisico
fisterra
five
fix
fixar
fixat
fixation
fk
flac
flagga
flandria
flirtar
flix
flo
flor
flora
florejacs
flores
floresta
florida
flotte
flue
fluide
fluvglant
fluvia
fluvie
fluvies
fly
fo
fogars
foix
foixa
fol
folgoso
folgueroles
folie
folies
folli
fombellida
fombuena
fompedraza
fondarella
fondo
fonds
fonfri
fonollosa
fonsagrada
font
fontaine
fontanals
fontanar
fontanarejo
fontanars
fontane
fontanilles
fontaubella
fontcoberta
fonte
fontes
fontihoyuelo
fontioso
fontiveros
fonts
fonz
food
foot
football
footballero
for
foradada
forallac
ford
fore
forel
foren
forest
forfoleda
forlassar
forlassat
form
forma
formal
formalmen
formar
formas
format
formation
forme
formes
formul
forn
fornells
forprende
forrage
forsan
fort
fortaleny
forte
forteresse
forth
fortia
fortiat
fortie
forties
fortmen
forto
fortuna
forum
fost
foto
fotografie
four
fox
foy
foyos
foz
fr
fraction
frades
fraga
fragment
frago
fraguas
frailes
frame
franc
franca
france
frances
francesc
francese
francesi
francia
francis
francisco
franco
francoisme
francoli
franconia
frandovi
frank
frankenberger
frankfurt
franklin
franqueses
frans
franz
franziska
frase
frases
frasno
fratre
fratres
frau
fraude
frauke
fre
frechilla
fred
free
freedom
freeland
fregeneda
freginals
freiburg
freiheit
freiherr
freixenet
frequent
frequentie
frequenties
frequentmen
freser
fresneda
fresnedilla
fresnedillas
fresnedoso
fresnen
fresnillo
fresno
fri
fribourg
friedrich
friera
frigid
frigiliana
frigore
friol
frisc
frisch
frits
fritz
fro
from
front
frontanya
fronte
frontera
frontiera
frontieras
frontiere
fru
fructes
fruit
fruito
frumales
frument
frutos
fu
fuembellida
fuencaliente
fuencemilla
fuendejalo
fuendetodos
fuengirola
fuenlabrada
fuenllana
fuensaldan
fuensalida
fuensanta
fuente
fuentealbilla
fuentebureba
fuentece
fuenteguinaldo
fuenteheridos
fuentelahiguera
fuentelapen
fuentelce
fuentelencina
fuentelespino
fuenteliante
fuentelisendo
fuentelsaz
fuentelviejo
fuentemolinos
fuentenava
fuentenebro
fuentenovilla
fuentepelayo
fuentepin
fuenterrebollo
fuenterroble
fuenterrobles
fuentes
fuentesau
fuentesecas
fuentesoto
fuentespina
fuentespreadas
fuentiduen
fuerte
fuertescusa
fueva
fugir
fugit
fulda
fuliola
full
fulleda
fum
fumio
function
functiona
functionar
functionario
functionarios
functiones
fund
fundament
fundamental
fundar
fundat
fundation
fundator
fundatores
funde
fundet
fundland
furca
furnir
furter
fuser
fuset
fusion
fust
futballe
futur
future
futuri
fußball
g
ga
gabaldo
gabon
gabriel
gabriela
gadea
gaelic
gage
gai
gaia
gajanejos
gajates
gala
galactic
galapagar
galaroza
galbarros
galende
galera
galicia
galician
galileo
galindo
galinduste
galisancho
gallardos
gallega
gallego
gallegos
gallen
gallesi
gallia
gallifa
gallimard
gallimazo
gallinas
gallo
gallocanta
gallur
galve
galway
gama
gambia
game
games
gamitos
gamones
gana
gandesa
gandia
gandullas
gangneung
gania
ganiar
ganiat
ganie
gano
garaballa
garanti
garci
garcia
garcibuey
garciherna
garcilla
garcimolina
garcimun
garciotum
garcirrey
garda
gardar
garden
gardero
gardo
garganta
gargantilla
garibashvili
garidells
garmisch
garrafe
garrido
garriga
garrigoles
garriguella
garrigues
garrobo
garrucha
gas
gascones
gascuen
gases
gaspar
gast
gastor
gato
gauci
gauland
gava
gavarda
gavet
gavilanes
gay
gaz
gazette
gazon
gazules
gdan
ge
gebauer
gejuelo
gel
gela
gelat
gelida
gelsa
gelsenkirchen
geltru
gelves
gema
gemelli
gemun
gen
gena
genalguacil
genar
gene
general
generale
generalmen
generation
genesis
genetic
geneva
genil
genitores
genocide
genove
genovese
gent
gente
gentes
geografic
geografie
geologic
geologie
georg
george
georgia
georgian
ger
gerardo
gerena
gerentie
geria
gerindote
germain
german
germanes
germania
germanic
germanistica
germering
gerres
gertrude
geschichte
geschichten
get
getafe
geuking
ghana
ghani
ghil
gibraleo
gibraltar
gibran
gica
gießen
giffey
gigant
gigantic
gigu
gijo
gil
gilbert
gilbuena
gilena
gilet
gilly
gima
gimenells
gimeno
gimialco
gimnasium
gimnasta
gimnastic
gimnastica
gina
gine
gines
ginestar
gineta
giorgi
giorgia
giovanni
girar
girl
girona
girone
gironella
gisclareny
gistai
gitarre
giuseppe
give
gk
glacial
glacie
glarus
glaser
glasgow
glass
glatt
glauk
global
globe
glorie
glu
gmbh
go
goda
godall
gode
godella
godelleta
godina
godojos
goes
goethe
gol
gola
gold
golden
goles
golf
golfe
golme
golosalvo
golpejas
gols
gombre
gomecello
gomez
gomezserraci
gonza
gonzalez
gonzalo
good
gordaliza
gordo
gordon
gordoncillo
gormaz
gornal
goslar
gotarrendura
gotic
gotor
gov
government
gozo
gr
gra
grace
gracia
grad
gradac
gradefes
grado
gradu
gradualmen
graduat
gradus
grafite
grafrath
graja
grajal
grajera
gramatica
gramenet
gramm
grammar
grammatica
grammatical
gran
grana
granada
granadella
granado
grand
grandas
grande
grandes
grandore
grane
granera
granja
granjuela
granollers
grant
granucillo
granyanella
granyena
graphic
grass
grasse
gratallops
gratuit
grau
graubu
graus
grav
gravita
gravitation
gravitational
graz
grazalema
great
grec
grecia
gredos
gregori
gregorian
gregorio
greifswald
grenada
grenadines
grenland
grenoble
greta
gri
grijalba
grijota
grill
grin
grisalen
grise
grisel
grisi
gro
groningen
gross
ground
group
grow
groß
große
gru
gruevski
gruppe
gruppes
gu
guadai
guadalajara
guadalca
guadalcanal
guadalhorce
guadalimar
guadalix
guadalmez
guadalquivir
guadamejud
guadamur
guadarrama
guadasse
guadassuar
guadazao
guadiana
guadiato
guadramiro
gualba
gualta
guardamar
guardas
guarde
guardia
guardie
guardiola
guardo
guaren
guaro
guarrate
guarroma
guatemala
guaza
gudrun
guel
guernsey
guernseyesi
guerra
guerre
guerrero
guerres
guesnet
guez
gui
guiamets
guidat
guide
guijar
guijarro
guijarrosa
guijo
guijuelo
guila
guillena
guillermo
guils
guim
guimera
guine
guinea
guingueta
guipu
guisando
guissona
guitiriz
guixers
gumiel
gumme
gun
gunti
gurb
guriezo
gurrea
gusendos
gust
gustav
gustavo
gut
gutenberg
guterres
gutie
gutierre
gutierrez
guverna
guvernament
guvernamental
guvernamentes
guvernant
guvernat
guvernator
guvernia
guy
guyana
guzma
guzmanes
guzpen
gyo
h
ha
haag
haas
habeck
habil
habilita
habita
habitantes
habitants
habitar
habitat
habitation
haccar
hacinas
hadz
haftar
haifa
hair
haiti
hall
halle
halta
haltar
hambra
hamburg
hamburger
hamilton
hammond
hampshire
han
hanche
hand
handball
hangul
hanja
hanna
hanni
hannover
hanoi
hans
happy
har
haradinaj
harald
hard
haro
harris
harry
hart
harvard
has
hasarde
hasta
hat
haus
haut
haute
havana
have
haven
havent
haver
haverbeck
havet
havre
hawaii
hay
haza
hazas
hc
hdz
he
head
health
heart
hebreic
hecho
hedwig
heidelberg
heinrich
heinz
helena
helium
helle
helli
helme
helmut
help
helsinki
helvetia
hem
hemisfere
henarejos
henares
henche
henkel
henri
henrik
henry
her
heras
herbe
herbert
herceg
here
heredage
heredat
herencia
herencias
herguijuela
hermanas
hermandad
hermann
hermisende
hermoso
herna
hernandez
hernando
hernansancho
herning
hero
herrado
herranz
herrera
herreri
herrero
herreros
herreruela
herri
herrumblar
hersfeld
hertz
herzegovina
herzog
hesitar
hesse
heura
hi
hickey
hidalgo
hidrogen
hiendelaencina
hieroglifes
hierro
high
higiene
higuera
higueruela
hija
hijes
hilari
hilario
hill
hillary
him
himne
hindi
hinduisme
hiniesta
hinojales
hinojares
hinojo
hinojos
hinojosa
hinojosas
hinojosos
hipo
hiragana
hirsch
hiruela
his
hispan
hispania
histo
historia
historic
historical
historicmen
historicos
historie
history
hita
hitler
hito
hivernal
hiverne
hk
hl
hlc
hldorf
hle
hlt
hlungen
ho
hockey
hodi
hodial
hodie
hoerbiger
hof
hofer
hokkaido
hold
holland
hollande
holm
holocaust
holsteinia
hom
homan
homanite
hombrados
home
homeopatic
homeopatie
homes
homo
homosexual
honduras
hongkong
honor
honorar
honorari
honrubia
honshu
hontalbilla
hontanar
hontanares
hontanas
hontanaya
hontangas
hontecillas
hontoba
hontoria
hor
hora
horcajada
horcajo
horcajuelo
horche
hores
horizonte
horloge
hormazas
hormigos
hornachuelos
hornija
hornillo
hornillos
hornos
hornuez
horra
horribil
horror
horrore
horse
horses
horst
horta
hortezuela
hortigu
hortons
horts
hospital
hospitale
hospitalet
hostalets
hostalric
hostoles
hotel
hoti
house
houston
how
hoya
hoyales
hoyo
hoyocasero
hoyorredondo
hoyos
hoz
hring
hrnsen
hrodna
hrung
html
http
https
hu
hue
huebra
huecas
huelma
huelva
huelves
huerce
huerta
huertahernando
huertas
huerto
huertos
huerva
huesa
huesca
huete
hueva
hug
hugo
humada
human
humanes
humid
humilladero
humo
humor
humosa
hungaria
hungarian
hunt
hurling
hurones
hurtumpascual
husillos
hvar
hyderabad
hydrogen
hz
i
ia
iala
iba
iban
ibdes
ibeas
iberic
ibias
ibieca
ibil
ibiza
ibn
ibrillos
ibros
ic
ica
ice
ices
ich
ico
id
ida
idaho
ide
idealisme
identic
identita
ideologie
idiom
idioma
idist
idisto
ido
idolinguo
ie
iec
iera
iere
iero
if
ificar
iglesiarrubia
iglesias
iglesuela
ignacio
igo
igor
igrie
igu
igualada
igualeja
igun
ii
iii
ija
ikadic
il
ila
ilche
ildefonso
ilham
ili
illa
illana
illano
illas
ille
illegal
illescas
illi
illinois
illueca
ilmari
ilves
im
image
images
imaginar
iment
imogen
impediment
impedir
impedit
imperative
imperator
imperia
imperie
impertinent
implica
important
importante
importantie
impost
impression
in
ina
inaugral
inboccatura
incarcerat
incendie
incio
incitar
inclinar
inclinat
inclination
include
includent
includente
includer
includet
incontra
incontrar
incorporat
independent
index
india
indian
indiana
indianapolis
indica
indicar
indicat
indigen
indigent
individual
individue
individues
indo
indonesia
indonesian
industrial
industrie
ine
infant
infantado
infante
infantes
infantie
infantil
infantino
infanzones
inferiori
inferne
infinitive
influential
influentiat
influentie
influenties
influet
informar
informatica
information
informationes
infra
infrastructura
ing
ingelmos
ingenierie
ingeniero
ingolstadt
ingrid
inhabitantes
inhabitat
inhabitation
inie
iniesta
inmigrantes
inmigration
inn
innerrhoden
innsbruck
ino
inos
insect
insolent
inspektion
installar
instincio
institut
institute
institution
institutional
institutiones
instituto
instructet
instruction
instructor
instructora
instrument
instrumentes
insul
insules
insurection
intal
integration
integri
inteligent
inteligentie
intention
inter
interactiones
interdictet
interesse
interesses
interest
interimari
interiore
interiori
interlingua
interlingue
interlinguistic
intern
international
internationale
internationalmen
internet
interni
interprender
interprendero
interprense
interprenses
interprensor
interrogativ
intervention
interview
intim
into
intra
intrada
intrar
intrat
introduccio
introducter
introductet
introduction
inurme
invadet
invasion
invelopar
inventet
invention
inventor
inviar
inviat
inviernas
invierno
io
iohannis
iomerovic
ion
iones
iowa
ira
irak
iran
iranian
iritar
irixoa
irland
irlandesi
iroki
iron
iruela
iruelos
irueste
is
isa
isaac
isabel
isabelle
isar
isbn
iscle
isfahan
isidoro
isidro
isla
islam
islamic
islamistic
island
ismael
ismail
isme
iso
isolat
isona
israel
israeli
isstadion
ist
ista
istanbul
istme
isuela
isuerre
it
ita
italia
italian
italiano
italic
ite
itero
ition
itor
its
ituero
iu
ius
iv
iva
ivan
ivana
ivanic
ivanishvili
ivankovic
ivars
ivas
ivko
ivo
ivor
ivorra
ix
iz
iza
izagre
izal
izar
izares
izetbegovic
izna
iznate
iznatoraf
izo
izquierdo
j
ja
jabalquinto
jabugo
jaca
jacinto
jack
jackson
jacob
jacques
jadraque
jae
jafre
jaime
jakarta
jakob
jalo
jamaica
jambrina
james
jamilena
jamuz
jan
jana
jane
janeiro
janez
janine
jankovic
jankulovska
jans
januar
january
japan
japane
japanesi
japarov
jar
jara
jaraba
jarama
jaramillo
jardin
jaroslav
jarque
jasa
jauli
jaume
java
javier
je
jean
jedi
jefferson
jelena
jeme
jena
jennifer
jenny
jens
jere
jeremy
jerevan
jericho
jerko
jeroni
jersey
jerusalem
jespersen
jessica
jesu
jesus
jetta
jettar
jettat
jetzt
ji
jiloca
jim
jime
jimena
jimenez
jimera
jinping
jir
jirueque
jo
joachim
joan
joana
joaqui
joaquin
joarilla
joe
joensuu
johan
johann
johanna
johannes
johannesburg
john
johnson
jola
jonathan
jones
jongno
jonquera
joost
jorba
jordan
jordania
jordi
jorge
jorquera
josa
jose
josef
josefa
josep
joseph
josipovic
journal
jovedi
jovovich
joya
joyosa
joyosi
jr
ju
juan
juana
juarros
jubrique
jude
judeic
judeisme
judi
judicial
judicie
judico
judo
juia
jul
jules
juli
julia
julian
julie
julio
julius
july
jun
junciana
juncker
juncosa
juneda
jung
junge
juni
junio
junior
junt
junta
junter
juntmen
jupiter
jura
jure
jures
juridic
jurisdiccio
jurisprudentie
jurist
jurnal
jurnale
jurnales
jurnalist
jurnalista
just
justel
justicie
justin
justo
jutland
juzbado
jytte
jyva
k
ka
kaczyn
kaili
kaja
kajs
kalbitz
kaliningrad
kallas
kansas
kanta
kanton
karabakh
karachi
karadz
karel
karelia
karic
karim
karin
karl
karlsruhe
karrenbauer
kasami
kassel
kate
katerina
katharina
kathrin
katie
kazakstan
kazan
ke
keep
keeper
keflavi
keller
kelly
kemmerich
kemp
kenia
kennedy
kenny
kentucky
kenyatta
kerber
kerry
kesfehe
kevin
kg
khalifa
khan
kharkiv
ki
kiel
kiev
kikodze
kilogrammes
kilometre
kilometres
kim
kind
kinder
kinetic
king
kingdom
kings
kingston
kira
kirchner
kirgizistan
kiril
kishida
kissingen
kitts
kladno
klagenfurt
klaipe
klara
klaus
klein
kleine
km
kneissl
know
ko
koc
kofman
kohl
kohnen
koms
konakovic
konjic
konrad
konstanz
kopacz
koper
korea
korean
kos
kosmoglott
kosovo
kotava
kovac
kovachevski
kovic
kovind
kr
kra
kragujevac
krako
kramer
kramp
kranj
krasnaja
kreis
kremenchuk
krieger
kristersson
kristin
kristina
krivokapic
krk
kru
kruse
kryvyi
ku
kufstein
kukiz
kumanovo
kurd
kurdes
kurdistan
kurkov
kurt
kurti
kurz
kutaisi
kyo
kyoto
kyu
kłodzko
l
la
labajos
labor
labora
laborar
laborat
laboratoria
labore
laborero
laboreros
labores
labrador
labuerda
lac
lace
lacte
lad
lady
laga
lagartera
lagartos
lagata
lagnel
lago
lagos
lagumdz
laguna
lagunaseca
lagunilla
lahiguera
lahm
lahn
lahti
laim
laine
lake
laluenga
lalueza
lam
lama
lamaso
lame
lamo
lamos
lampe
lampreana
lana
lanaja
lancha
land
lande
landes
landete
lane
lang
langa
langayo
lange
langen
langreo
language
languages
langue
languilla
lanka
lansar
lantadilla
lantejuela
lanzahi
laperdiguera
lara
laracha
laredo
larg
large
largore
laroya
larrodrigo
larry
lars
larva
las
lascasas
lascellas
laschet
lascuarre
laspau
laspun
lass
lassar
lassat
last
lastras
lastrilla
latarce
lateral
latin
latvia
latvian
laujar
laura
laurence
laurent
lausanne
lauterbach
lava
lavar
laviana
law
lawrence
laxe
lay
layana
layos
lber
lc
lcor
le
lead
league
leave
leben
lebrija
lech
lecho
lecin
ledan
ledanca
ledesma
ledigos
ledrada
lee
leer
leet
lega
legal
legane
leganiel
lege
legende
leges
legislature
legumes
lehel
leinster
leipzig
lemos
lena
lent
leo
leon
leonard
leone
leonid
lepe
lerda
lerma
les
lesbos
lesotho
less
let
lette
letter
letters
lettre
letur
letura
letux
levante
levar
levat
leverkusen
levi
levul
lewis
lexico
leyen
lez
lezuza
lgida
lguema
li
lia
liam
libano
liber
libera
liberal
liberales
liberar
liberat
liberation
liberec
liberia
liberta
libre
libreri
libres
librette
libro
libya
lice
lichtenberg
lico
lie
liebe
liebenwalde
liechtenstein
lieder
liendo
lierp
liestos
life
lift
liga
ligament
ligantes
ligar
ligat
ligation
light
ligne
lignin
ligure
ligurian
lijanovic
like
likens
likud
lille
lillehammer
lillestrøm
lillet
lillo
lima
limburg
lime
limerick
limitar
limitat
limites
limonade
limpias
lin
linares
lincoln
linda
lindner
line
linea
lineas
lingua
lingual
lingue
lingues
linguist
linguistic
linguistica
linguo
linke
linko
linya
linyola
linz
lionel
liquid
liquide
liquides
lis
lisa
lisboa
list
liste
listel
listes
lit
litago
litera
literatura
litt
litterari
litteratura
little
lituania
lituanian
litue
live
liverpool
livno
livre
lix
ljubljana
ll
llabe
llacuna
llado
lladorre
lladurs
llagosta
llagostera
llamas
llambilles
llamos
llampaies
llanars
llanc
llanera
llanes
llano
llanos
llar
llardecans
llarga
llauri
llavaneres
llavorsi
lle
llego
lleida
llengua
ller
llers
lles
lli
llic
llierca
llimiana
llinars
llitera
llo
lloar
llobera
llobrega
llobregat
lloc
llocnou
llogaia
llombay
llor
llora
llorac
lloredo
llorenc
llorente
lloret
llos
llosa
llosses
lls
lluc
lluchent
llui
lmaces
lmez
lmine
ln
lo
lobarre
lobera
loc
local
locar
locat
location
locclocca
loces
loco
locos
locs
locubi
loeches
log
logi
logiar
logic
logica
loire
loma
lomas
lominchar
lomoviejo
london
long
longa
longares
longmen
longore
lontan
look
lopera
lopez
loporzano
lor
lora
loranca
lord
lorente
lorenzo
loriguilla
los
losa
losacino
losacio
losar
loscorrales
lot
louis
louise
louisiana
lourdes
lourenza
lousame
love
lozano
lozoya
lozoyuela
lr
ls
lt
lu
lubia
lublin
lubri
luc
lucainena
lucas
luce
lucena
luceni
lucia
luciana
lucid
lucillo
lucillos
lucio
lucke
luctar
lucte
lude
luder
ludes
ludet
ludwig
ludwigsburg
luelmo
luena
luenga
luesia
luesma
lugo
luhansk
lui
luis
luisa
luisiana
luka
lukashenko
luks
lulu
lumbrales
lumine
lumpiaque
luna
lund
lune
lunedi
lupiana
lupin
lupio
luque
lusor
lusora
lusores
luthe
lutovac
lutz
luxemburg
luxemburgia
luyego
luzaga
luzern
luzo
lvarez
lvaro
lveda
lvez
lviv
ly
lyashko
lydia
lyon
m
ma
mac
macael
macastre
maccaroni
macedonia
macedonian
machaco
macharaviaya
machine
machines
macleod
macotera
macron
madagascar
madarcos
madeira
madera
maderal
maderuelo
madison
madonna
madremanya
madrid
madridanos
madridejos
madrigal
madrigalejo
madrigueras
madron
mae
maella
maello
mafumet
maga
magallo
magasine
magaz
magdalena
magdeburg
magic
magistro
magnete
magnetic
magnific
magnitz
magri
mahama
mahamud
mahe
mahide
mahmutbegovic
mahora
mai
maia
maials
main
mainar
maine
mainz
maire
mairena
mais
majadahonda
majadas
majaelrayo
majano
maji
major
majori
majorita
majorite
make
mal
malad
malade
maladie
maladies
malago
malaguilla
malanquilla
malavella
malawi
malaysia
malcolm
malda
male
maleja
malferit
malgrat
malgre
mali
maliciosi
malla
malle
mallorca
malmo
malo
malpartida
malpica
malta
malu
maluenda
mamblas
mambrilla
mambrillas
mame
mammiferes
mamolar
man
manca
mancar
mancera
mancha
manche
manchester
manchones
manciles
mancio
mandate
mandates
mandayona
maner
manfred
manganeses
mani
maniere
manila
manilva
manises
manitoba
manja
manjaba
manjage
manjar
manlleu
mann
manner
mannes
mannheim
manquillos
manresa
mansilla
mantener
mantenet
mantiel
mantinos
manu
manual
manuale
manuel
manuela
manus
many
manzanal
manzanares
manzanas
manzanedo
manzaneque
manzanilla
manzanillo
manzano
map
maqueda
mar
mara
maracaibo
maran
marancho
marazoleja
marazuela
marbella
marborde
marc
marca
marcar
marcat
marcel
march
marchamalo
marche
marchena
marcia
marcilla
marco
marcos
marcus
mardi
mare
marea
maresme
margalef
marganell
margarida
margarita
margine
margvelashvili
mari
maria
mariage
mariana
mariano
marie
marija
marijampole
marin
marina
marinaleda
marine
marines
marinika
marino
mario
marion
marionette
marita
maritage
maritat
maritim
maritime
marito
marjaliza
marjan
mark
marketing
markovic
markus
marlene
marli
marmolejo
marocco
marque
marquesado
marracos
marrupe
mars
marseille
marshall
mart
marta
martas
marte
marti
martiago
martiherrero
martin
martina
martinamor
martinet
martinez
martorell
martorelles
martos
maruga
marx
mary
maryland
marza
marzales
mas
masarac
masaryk
mascaraque
mascul
masculin
masdenverge
masegosa
masegoso
masies
masllorenc
masnou
maso
maspujols
masquefa
masroig
mass
massachusetts
massacre
massalave
massalcoreig
massalfassar
massaluca
massamagrell
massanassa
massanes
masse
massiv
massoteres
mast
mastro
masueco
mata
matabuena
matacabras
matadeo
matadepera
matalayegua
matallana
matanza
matapozuelos
mataro
matarrubia
matas
match
matches
mate
matej
matejka
matelas
matematic
matematica
matematico
mateo
material
materiale
materiales
materie
mateu
mateusz
matilla
matillas
matinal
matine
matovic
matrasse
matre
matrin
matt
matteo
matter
matute
maui
maurice
mauritania
mauritius
max
maxim
maximum
may
maya
mayalde
mayor
mayores
mayorga
mayotte
mazarambroz
mazarete
mazaricos
mazariegos
mazcuerras
maze
mazo
mazote
mazuecos
mazuela
mc
mcdonald
me
means
meat
mecanic
mecanica
mecanisme
mecerreyes
mech
mechanica
mecklenburg
meco
med
meda
medallie
medallies
medel
medelli
medial
mediana
medianero
mediano
medica
medical
medicament
medicamentes
medicina
medicine
medico
medie
mediepoca
medies
medieval
medievie
medina
medinilla
medio
mediona
meditar
mediterranean
mediterraneo
medranda
medvedev
megeces
megina
meia
mein
meira
mejorada
melbourne
meleros
melgar
melia
meliana
melide
melika
melior
melo
meloni
melque
melva
mem
membibre
membrane
membre
membres
membribe
membrilla
membrillera
membrita
memorie
men
mena
menasalbas
menci
mendoza
menduh
menes
meneses
mengamun
mengi
menstruation
mensu
mensus
ment
mental
mente
mention
mentionat
mequinensa
mer
mera
meranges
mercadillo
mercado
mercate
merce
mercedes
merces
mercur
mercurdi
mere
meres
meridional
merindad
merino
merite
merkel
merle
mersi
meruelo
mes
mesa
mesas
mesegar
mesi
mesleo
mesones
mesopotamia
mesquin
messi
mestanza
mestiere
mesura
mesurar
mesurat
meta
metafisica
metal
metall
metalle
metalles
metallic
metode
metodes
metre
metres
metro
metropolitan
metropolitana
metsola
mette
metter
meuthen
mexican
mexico
mey
meyer
mez
mezalocha
mg
mi
mia
miami
mianos
miazga
mic
micereces
michael
michea
michel
michelle
michigan
micieces
micri
micro
micronesia
midi
miedes
miel
miengo
miera
mieres
mierla
mieza
migration
miguel
miguela
miguelturra
mijaran
mijares
mijas
mike
mikhail
mikheil
mil
mila
milagros
milan
milano
mild
mile
miles
milica
militari
mill
milla
millana
millars
millas
millennie
milles
milliardes
million
milliones
milmarcos
milo
milorad
milos
min
mina
minas
minat
minaya
mind
mine
mineral
minerales
mines
minglanilla
mingorri
minh
mini
miniera
minieras
minim
minin
ministe
ministerie
ministra
ministre
ministres
minnesota
mino
minor
minori
minorita
minorite
minsk
minu
minute
minutes
miquel
mira
mirabueno
miraflores
miralcamp
miralles
miralri
miramar
mirambell
miranda
miraveche
miravet
mirko
miro
mironcillo
miroslav
mirsad
miruen
mirziyoyev
mis
miserabil
misere
mislata
miss
missage
mission
mississippi
missouri
mista
misterie
mit
mitacio
mitas
mite
mites
mitigar
mitologie
mitte
mixter
mixtet
mixtura
mladen
mmite
mo
mobil
mobles
mocar
mocejo
mochales
moclinejo
moda
mode
modelle
moderar
moderat
modern
moderne
moderni
modest
modu
moeche
mogarraz
mogherini
mogina
mogoda
moguer
mohamed
mohedas
mohernando
moia
moiane
moixent
moja
mojados
mojonera
mola
molacillos
molar
molares
moldavia
molecul
molecules
molestar
molezuelas
molina
molinaseca
moline
molinicos
molinillo
molinos
molins
moll
molledo
mollerussa
mollet
mollina
mollo
molsosa
mombeltra
mombuey
moment
momente
momentes
mon
monaco
monarch
monarchie
monastere
monasterio
moncada
moncalvillo
moncayo
monda
monde
mondial
mondon
mondu
mone
monegrillo
monegros
monells
monesma
moneva
money
monfarracinos
monfero
monflorite
monforte
monge
monges
mongolia
monistrol
monjas
monjos
monleo
monleras
monreal
monroe
monsagro
monsalupe
monserrat
monsieur
monstra
monstrar
monstrat
mont
montagut
montalba
montalbanejo
montalbo
montalt
montalvos
montamarta
montan
montania
montanias
montanuy
montarro
montaverner
montblanc
montbrio
montbui
montcada
montcal
montclar
montclu
monte
monteagud
monteagudo
montealegre
montearago
montejaque
montejo
montella
montellano
montemayor
montenegro
monterde
montero
monteros
monterrey
monterroso
monterrubio
montes
montesa
montesclaros
montesquiu
montevideo
montferrer
montferri
montgai
montgat
montgomery
montgri
montichelvo
montiel
montija
montilla
montizo
montmajor
montmaneu
montmany
montmell
montmelo
monto
montoliu
montorio
montorne
montoro
montpellier
montre
montreal
montroy
montsant
montseny
montserrat
montsia
monturque
monument
monumentes
monzo
moon
moore
mor
mora
moradillo
moral
moraleda
moraleja
morales
moralina
moralzarzal
moran
morasverdes
morata
moratilla
moratinos
moravia
morawiecki
morci
more
morell
morena
morenilla
moreno
morera
moreruela
morgan
mori
moriles
morille
morir
moriscos
morit
moritz
mormon
morni
moro
morocco
moronta
moros
morquillas
morrison
mort
mortar
mortat
mortation
morte
mortes
morunys
morvedre
morweiser
mos
moscva
moses
moske
moskva
moskwa
moss
most
mostar
mot
mota
mother
motilla
motilleja
motion
motive
motor
mottley
mount
mouskouri
move
movement
movementes
mover
movie
moya
moyuela
moza
mozoncillo
mozota
mpeta
mpor
mpore
mpores
msson
mt
mu
much
mucientes
muda
mudarra
mudela
mudria
muduex
muel
muela
muelas
muga
mugardos
muhamad
mulas
mult
multe
multi
multimedial
mun
mund
mundal
munde
mundel
mundi
mundial
mundo
mune
munera
mungo
municipal
municipality
municipe
municipie
municipies
municipio
munster
munt
muntanyola
mur
mura
muras
murcia
murero
mures
murias
muriel
murillo
murmansk
muros
mus
musa
muse
museros
music
musica
musical
musico
muslimes
must
mustafa
musulman
musulmanes
mut
muxi
my
myanmar
mysterie
mysterios
n
na
nach
nacht
nacimiento
nacional
naco
nadal
nades
naharro
naiv
nalec
nalo
nam
nambroca
name
nana
nancy
nani
nanni
nantes
napole
napoleon
napoli
narboneta
narcea
nargo
naro
narration
narrillos
narros
narva
nas
nasc
nascentie
nascet
nase
natal
nath
nation
national
nationaldemocratic
nationalist
nationalita
nationalsocialisme
nationalsocialist
nationalsocialistic
nationes
native
nato
natur
natura
natural
naturalistic
naturalita
naturalmen
nature
nauru
naut
nava
navacarros
navacepedilla
navacerrada
navadijos
navaescurial
navafri
navahermosa
navahondilla
naval
navalacruz
navalafuente
navalagamella
navalca
navalcarnero
navales
navalilla
navalmanzano
navalmoral
navalmoralejo
navalmorales
navalny
navalonguilla
navalosa
navalperal
navalpino
navalucillos
navaluenga
navamorales
navamorcuende
navaquesera
navarcles
navardu
navares
navarra
navarre
navarredonda
navarredondilla
navarrevisca
navarro
navarros
navas
navasfri
navata
navatalgordo
navatejares
nave
navero
naves
navia
navianos
nazi
nba
ncara
ncere
nchen
nchengladbach
nchez
nchner
ncia
ncila
ncipe
nconosset
nde
nden
ndependent
ndependentie
ndez
ndidas
ndiga
ndirect
ne
nea
near
nebojs
nebraska
nebreda
nebul
necessi
necessita
neco
neda
nederland
nederlandesi
negativ
negredo
negreira
negrilla
negrillos
negueira
neil
neila
nemtsov
neo
neolitic
nepal
nequande
nequi
nequo
nere
neretva
nerja
nermin
nerpio
nerva
nes
netanyahu
netball
netflix
nett
nettar
neu
neucha
neue
neumann
neutral
neutrones
nevada
never
nevis
new
news
newton
next
nez
nflexibil
ng
ngeising
ngel
ngeles
nguera
nguez
nhuber
ni
nia
nice
nicht
nicola
nicolas
nicole
nicosia
nie
niebla
nieto
nieva
niger
nigeria
night
nigo
nigri
nigs
nigu
niharra
niinisto
nika
nikola
nikolic
nikos
niks
nim
nin
nina
nio
nis
nishani
nitrogen
nive
nivell
nivelle
nivelles
nk
nl
nnis
no
noalejo
nobel
nobil
nobis
noble
noblejas
noceda
nocer
nociv
nockemann
nocte
node
noez
nogais
nogal
nogales
noguera
nogueras
noi
noia
noja
nol
nom
nombela
nombre
nombrevilla
nomina
nominar
nominat
nomine
non
nonaspe
nonsense
nor
norbert
nord
nordal
nordic
nordrhen
noren
normal
normalmen
norme
normes
norte
north
northern
norvegia
norvegian
nos
not
notabil
notar
note
notes
notion
notori
nottingham
nou
noun
nouripour
nov
nova
novales
novalic
novallas
novas
nove
novel
novele
novellas
novelle
novelles
november
novembre
noves
novgorod
novi
novial
novillas
novo
now
nowacka
npartial
npossibil
nr
nro
ns
nsa
nsensibil
nster
nt
ntar
ntara
ntega
nter
ntera
ntic
ntie
ntransitiv
ntrida
nu
nube
nuce
nuclear
nucleari
nucleo
nud
nue
nueno
nueva
nuevo
nuez
nuit
null
nulles
numancia
number
numere
numero
numerosi
nun
nur
nus
nutriment
nutrition
nvariabil
nwald
nycteris
o
oakland
oba
obama
obejo
obejuna
obermenzing
oberstdorf
obispali
obispo
object
objecte
objectes
objective
oblast
obligar
obligation
obligatori
obliqui
obrador
obscur
observar
observat
observation
observationes
obstinat
obstructer
obtener
obtenet
obwalden
oca
ocan
ocasion
occ
occident
occidental
occidentalist
occidentaliste
occidentalistes
occidente
occitan
occupation
ocde
oce
ocean
oceania
ocentejo
oct
october
octobre
ocul
ocules
ocupa
ocupar
ocupat
ocupation
ocurre
ode
odense
oder
oderland
odessa
odo
odore
oencia
oertel
of
ofender
oferta
off
offenbach
office
official
oficero
oficia
oficial
oficialmen
oficiario
oficie
og
ogalindo
ogassa
ognjen
ogrande
ohanes
ohio
ohne
oil
ois
oise
oix
ojanco
oje
ojeda
ojos
oklahoma
okrug
oktay
ol
ola
olaf
olalla
old
oldenburg
ole
olea
oleiros
oleo
olesa
olga
oli
oliana
olimpic
oliola
olius
oliva
olivar
olivares
olivas
olive
olivella
oliver
olleria
olmeda
olmedilla
olmedillo
olmedo
olmillos
olmo
olmos
olo
olocau
olombrada
olost
olot
oluges
olula
olvan
olve
olvena
olvera
olympic
oman
omellons
omells
omer
omid
omnes
omni
omnicos
oms
omsk
on
onb
once
ondara
one
ones
oneself
oni
onielo
only
onsella
onson
ontario
onti
ontin
ontinyent
ontur
onyar
onzonilla
oo
opedro
open
opepe
opera
operation
opiner
opinion
opiniones
oposir
oposition
optica
oquillas
or
ora
oral
orange
oration
orba
orbada
orban
orbaneja
orbita
orcajo
orcera
orda
orden
order
ordes
ordial
ordinar
ordinari
ordis
ore
orea
oregon
oreja
orejana
orel
orera
ores
org
organ
organes
organic
organisa
organisat
organisation
organisationes
organismes
organya
orgaz
ori
oria
oriental
orientat
orientation
oriente
origina
original
originale
originalmen
originat
origine
orista
ornar
oro
oropesa
oroso
orpi
ortega
ortigosa
ortigueira
ortilla
ortiz
ortodox
ortografie
orusco
os
osa
osaka
osancho
oscar
oscos
oseja
osera
osi
osijek
osillos
oskar
oslo
osman
osmani
osnabru
oso
osona
osor
osormort
osornillo
osorno
ossa
osse
ossetia
osso
ost
ostal
ostic
ostrava
osuna
otello
otero
oteros
other
otinto
otoman
otos
otro
ott
ottawa
otte
ottesim
otto
ottoman
ou
our
ourense
ourol
out
outeiro
outes
ova
ovce
over
overa
overos
oves
ovic
oviedo
ovre
ovres
oxford
oxigen
oxygen
oz
oza
p
pa
paares
pablo
pace
pacific
pacs
pacte
paddington
paderborn
paderne
padiernos
padilla
padro
padrones
padules
page
pagos
pahoa
pahor
pai
pain
paiporta
pais
paisage
pajarejos
pajares
pajaro
pajaroncillo
pakistan
pal
palace
palacio
palacios
palaciosrubios
palafolls
palafrugell
palamo
palancar
palas
palatina
palatinia
palau
palautordera
palazuelo
palazuelos
pale
palencia
palenciana
palenzuela
paleolitic
paleontologie
palermo
palissade
pallaresos
pallars
palleja
pallerols
pallid
pallie
palma
palmas
palme
palmera
palmiches
palo
palol
palomar
palomares
palomas
palomeque
palomera
palos
pals
pampliega
pan
panaderas
panama
pancorbo
pandemie
pandora
pane
paniza
panorama
pantalon
panticosa
panto
pantoja
papa
papatrigo
paper
papere
papier
papiol
papua
par
para
paracuellos
parada
paradas
paradela
paradinas
paraguay
parai
paralel
parapluvie
parauta
paravientos
parc
pardilla
pardillo
pardines
pardos
pardubice
pare
paredes
pareja
parent
parets
pari
paris
parish
park
parla
parlada
parlament
parlamentari
parlamentes
parlant
parlar
parlat
parlator
parlatores
parlava
parliament
parliamentary
parma
parocia
parocias
parol
parole
paroles
parra
parral
parres
parrilla
parrillas
parroquia
part
partaloa
parte
partei
partement
partementes
partements
partenkirchen
partes
participation
participie
particul
particular
particulari
particularimen
particularmen
particules
partido
partiprende
partiprender
partiprendet
partiprensores
partir
partise
partises
partit
partner
party
pas
pasaconsol
pasca
pascual
pascualcobo
pashtunes
pasing
pass
passa
passage
passanant
passar
passat
passate
passau
passion
passos
passu
pasta
pasternak
pastor
pastores
pastoriza
pastrana
pastriz
pate
paterna
patinage
patinar
patones
patos
patras
patre
patria
patriarca
patricia
patrick
patriotic
pau
paul
paula
pauline
paulo
pause
pay
payar
paymogo
payo
paz
pazderski
pdf
pe
peal
peau
pecca
pechina
peco
pecuniari
pecunie
ped
pede
pedernales
pedernoso
pedofilic
pedofilie
pedra
pedrafita
pedraja
pedrajas
pedralba
pedraza
pedregal
pedrera
pedret
pedrezuela
pedro
pedroche
pedroches
pedrola
pedron
pedrosa
pedrosas
pedrosillo
pedroso
pegalajar
pegida
pego
peguerinos
pejanovic
pelabravo
pelahusta
pelarrodri
pelayo
pelayos
peleagonzalo
peleas
pelle
pelosi
pen
pena
penagos
penar
pence
pendarovski
penede
penelles
peninsul
peninsulari
penosi
pensa
pense
pensilvania
pension
peones
people
pepino
peque
per
pera
perafita
perafort
perahuy
peral
peralada
peraleja
peralejos
perales
peralonso
peralta
peraltilla
peralveche
peramola
peranzanes
perarru
peras
percent
percentes
percepter
perception
percy
perde
perdigo
perdiguera
perdir
perdit
pere
pereira
perejil
perello
peren
pereruela
perez
perfect
periana
periesteban
perilla
periode
periodes
periodic
permanent
permisse
permisser
permisset
permission
perni
pernille
peromingo
perosillo
perpe
perrunal
perry
persecution
persian
person
personal
personalita
persones
perspective
perspectives
perth
pertinent
pertusa
peru
pesa
pesaguero
pesant
pescador
pesoz
pesquera
pestan
petah
peter
petersburg
petir
petit
petkov
petre
petrin
petro
petroleo
petrov
petry
pez
pezuela
pezze
philadelphia
philip
philipp
philippe
philosophy
phoenix
photogen
physics
pi
piano
pic
picanya
picar
picassent
picazo
pice
pico
picter
pictet
pictor
pictura
picturas
pidio
pie
pied
piedra
piedrabuena
piedrahi
piedrahita
piedralaves
piedratajada
piera
pierola
pierre
piet
pigal
pigment
pike
pila
pilar
pilas
piles
pililla
pilon
pilot
pilz
pimpollar
pin
pina
pinar
pinarejo
pinarejos
pinares
pinarnegrillo
pince
pincette
pineda
pinedas
pinell
pinet
ping
pinilla
pino
pinocchio
pinos
pinsel
pinseque
pintanos
pinto
pionero
pioz
pipre
piqueras
piqui
pira
pirace
piramide
pirates
pirna
piro
pisa
pisc
pisuerga
pita
pitiegua
pittsburgh
pizarra
pizarral
pl
pla
place
plage
plages
plaid
plan
plana
planat
planca
planes
planetari
planete
planetes
planlingue
planlingues
planoles
plans
plante
plantes
plants
planura
plasencia
plasma
plat
plata
plate
platform
platil
platja
plato
platte
play
plaza
plazza
plebiscite
plegamans
pleitas
plen
plenar
plenas
plenat
ples
plesura
plic
plovdiv
plu
plug
plum
pluparte
plural
plurale
pluri
plus
pluto
pluvie
po
poal
pobla
poblacio
poblaciones
pobladura
poblet
poblete
pobo
poboleda
pobra
poc
podgorica
podobsky
podrinje
poe
poema
poemas
poesie
poet
poete
poetes
poggenburg
point
pointe
poitier
pol
pola
polaciones
polanco
polantera
polari
polen
polendos
polentinos
poli
police
policie
policist
policistes
polinya
polir
polis
polit
politic
politica
political
politicalmen
politico
politicos
poljana
pollos
polo
polonesi
polonia
polve
polvorosa
pom
pomakes
pomar
pomer
pomposi
ponferrada
ponga
pont
ponta
ponte
ponteceso
pontedeume
pontenova
pontes
pontevedra
pontils
ponto
pontones
pontons
ponts
ponzano
pop
pope
popul
popular
populari
population
populationes
popules
populist
por
porcuna
pornografie
poroshenko
porqueres
porrera
porreros
port
porta
portalrubio
portar
portat
portbou
porte
portella
portilla
portillo
portion
portland
porto
portomari
portrete
portretes
portu
portugal
portugale
portugalesi
porzuna
pos
posada
posadas
posavina
posir
position
positiones
positiv
posse
possede
posseder
possedet
posser
possession
posset
possibil
possibilita
possibilmen
post
posta
postal
posteriori
postular
pot
pote
potent
potentie
poter
potes
potries
potsdam
potte
potter
potteri
pour
poveda
povedilla
povri
povrita
power
poy
poyales
poyatos
poza
pozal
pozaldez
pozanco
poznan
pozo
pozoamargo
pozoantiguo
pozoblanco
pozohondo
pozorrubielos
pozorrubio
pozos
pozuel
pozuelo
pozuelos
pp
pra
practic
practica
pradales
pradell
praderi
prades
pradilla
prado
pradoluengo
prados
pradosegar
praha
praslin
prat
pratasevich
pratdip
prate
prats
pravia
pre
precedent
precie
preciosi
precipue
precis
precision
precursor
predir
predit
prefectura
prefecture
prefere
preferentie
prefix
prega
prehistoric
prehistorie
preixana
preixens
premia
premie
premier
premies
prende
prender
prendet
preno
prep
preparar
preparat
prepo
preponderant
preposition
pres
presa
presc
presencio
present
presentar
presentat
presentation
presentator
presente
presentic
presentie
preservat
preses
president
presidenta
presidental
presidente
presidentes
presidential
presidentie
presidentura
presley
press
presse
presser
pression
prestro
preterite
pretexte
preuß
previder
pri
priaranza
price
priego
prieto
prilep
prim
primari
prime
prince
princessa
principal
principalmen
principatu
principie
principies
principle
print
printat
priorat
priorato
prioro
pris
prison
privar
privat
prix
prlic
pro
proaza
probabil
probabilmen
problema
problemas
processe
processes
processu
proclamat
procrastinar
procurator
producent
producte
producter
productet
production
productor
prof
profession
professional
professionalmen
professor
profete
profil
profite
profund
profundore
programma
programmas
progress
progresse
progressiv
project
projecte
projectes
prominent
promoer
promoet
prono
pronunciat
pronunciation
propaga
propaganda
propagar
propagat
propagation
proposir
proposit
proposition
propri
proprieta
proprietario
proprietas
proque
prosa
prostata
prostituta
protecter
protection
protestant
protestes
proto
protones
prova
provanco
provar
provat
provence
provencio
provide
providence
provider
province
provincia
provincial
provincias
provision
provisori
proxim
proximita
prudent
prudentie
pruit
prullans
pruna
prussia
pruva
pseudonim
psichologie
psicologie
pt
pu
public
publica
publicar
publicat
publication
publicationes
publicist
puc
pudre
pue
puebla
pueblanueva
pueblica
pueblonuevo
puella
puellas
puendeluna
puente
puentedura
puentes
puerta
puertas
puerto
puertollano
pueyo
puig
puigcerda
puigda
puiggro
puigpelat
puigvento
puigverd
pujalt
pujerra
pujol
pulation
pulgar
pullman
pulmon
pulpi
pumareda
punctu
punctus
punition
punjab
punta
pupe
pur
puras
purchena
pure
purujosa
pusa
pushilin
pussa
pussar
put
putin
puy
pyeongchang
q
qu
quadrat
quadratkilometres
qual
qualcunc
qualificat
qualification
qualita
qualmen
quam
quande
quang
quant
quantic
quantita
quantity
quar
quaratlon
quaresim
quart
quartell
quartere
quarteres
quarvez
quasi
quatar
quatre
quatretonda
que
queen
quel
quelc
quelcunc
quelcvez
queles
quelles
quem
quemada
quemado
quer
quera
queralbs
queralt
querco
quere
querelle
quero
querol
quesa
quesada
question
questionar
questiones
qui
quicena
quies
quiet
quijorna
quime
quin
quinesim
quintana
quintanabureba
quintanaduen
quintanae
quintanaortun
quintanapalla
quintanar
quintanavides
quintanilla
quintanillas
quinti
quinto
quiro
quiroga
quiruelas
quirze
quismondo
quo
quote
quotebox
quotidian
r
ra
rabanales
rabanedo
rabanera
rabat
rabe
rabo
rabot
racine
raconta
racontar
racontas
racv
rada
radev
radiation
radica
radical
radie
radio
radise
radonc
radovan
rafael
rafelbunyol
rafelcofer
rafelguaraf
raguz
rail
rain
raion
rajadell
rajoy
ral
ralo
ram
rama
ramales
ramaphosa
rambla
ramelow
rami
ramiro
ramis
ramo
ramon
ramone
ramones
ramos
ramstedt
ramush
ranas
randers
ranero
ranes
rang
range
ranges
rank
rap
rapariegos
rapid
rapidita
rapidmen
raporte
raquel
rar
raras
ras
rascafri
rasines
rasmussen
rason
rasquera
rasse
rassemblement
rasueros
rat
ratas
rate
ration
rau
raul
ray
raymond
rbara
rbel
rbez
rbigo
rbite
rboles
rbores
rcabo
rcal
rcanes
rcela
rcena
rcer
rcere
rcheles
rchez
rcia
rden
rdes
rdiga
rdine
rdoba
rdola
re
reach
reaction
reactiones
reading
real
reales
realita
rebelles
rebellion
rebelo
rebollar
rebolledo
rebollo
rebollosa
recas
recent
recep
reception
recevit
recife
recive
reciver
recivet
recklinghausen
reconosset
reconquesta
record
rect
recueja
recuenco
red
reda
redactet
redaction
redactor
redecilla
redonda
redondo
redondos
reducter
reduen
reelectet
refere
referendum
referentie
referer
reform
reforma
reformar
reformatores
reforme
reformes
refugitores
refusa
refusar
refusat
regardar
regenco
regensburg
regime
regiment
region
regional
regionalliga
regiones
registrar
registrat
registre
regnantie
regne
regueras
regul
regular
regulari
regules
regumiel
rei
reig
reina
reinosa
reinoso
reixac
rejectet
rel
relate
relatet
relation
relationes
relations
relativ
relativita
relativmen
reles
relief
religio
religion
religiones
religiosi
rellinars
relvia
remain
remane
remarcar
remariage
remaritage
remedie
remolinos
remondo
remplazzat
ren
renascentie
renau
rendevu
rendir
rene
renedo
renera
rennes
renovation
renunciar
reoci
reparar
reposar
repose
reprensentantes
representa
representant
representante
representantes
representar
representat
representate
representation
repu
republic
republica
republican
republicanes
republicas
republika
repulser
reputation
requejada
requejo
requena
rer
res
research
resercha
reservuore
residentie
resignat
resistentie
respecte
respenda
respondet
responsabil
responsabilita
response
ressurses
rest
resta
restar
restat
restauration
reste
restoreri
restrictiones
resultant
resultat
resultate
resultates
resume
resz
ret
retage
retamar
retamosa
retamoso
retasco
rete
retener
retiendas
retirar
retirat
retorn
retornar
retornat
retortillo
retro
retuerta
reunion
reunir
reunit
reus
reval
revardit
reve
revelar
revellinos
revenga
revenit
revenu
revilla
revillarruz
revolution
revolutionari
revu
revue
rex
rey
reyal
reyatu
reyatus
reyero
reyes
reyessa
reykjavi
reynolds
rez
rezmondo
rfdef
rg
rgal
rganes
rgano
rgen
rgens
rgine
rguens
rguina
rhein
rheinland
rhen
rhenland
rho
ri
ria
riaguas
rialb
rialp
rian
rianxo
riaza
riba
ribadedeva
ribadeo
ribadesella
ribamonta
ribas
ribatejada
ribeira
ribera
riberos
ribes
ribota
ric
rica
ricarda
ricardo
rice
rich
richard
richesse
richmond
ricla
ricomalillo
rie
riego
riello
riells
rielves
riera
ries
riga
right
rigid
riglos
rih
rijeka
rillo
rinco
rinconada
riner
rinne
rio
rioalmar
riocabado
riocavado
riofri
riogordo
rioja
riola
riomiera
riomoros
rionansa
rionegro
riopico
riopisuerga
riosa
rioseco
riotorto
riotuerto
ripoll
ripolle
ripollet
ris
rise
rishi
rite
ritmic
ritu
ritus
riu
riubrego
riucorb
riudarenes
riudaura
riudebitlles
riudecanyes
riudecols
riudellots
riudoms
rium
riumors
riuprimer
rivarredonda
rivas
rive
river
rivera
rivere
rives
rivilla
rivlin
rk
rkisch
rmeces
rmedes
rmenes
rmens
rmino
rminos
rn
rnberg
rniga
rnigas
rnoles
rnols
rnu
ro
roa
road
roales
robert
roberta
roberto
robin
robinete
robinson
robla
robladillo
robleda
robledillo
robledo
robles
robliza
robregordo
robres
robust
roca
rocafort
rociana
rock
roda
rodilla
rodona
rodonya
rodri
rodrigo
rodriguez
roelos
roger
rogla
roig
rois
roja
rojas
rojo
rol
roland
roles
roll
rolla
rom
roma
roman
romance
romanch
romanes
romanic
romanillos
romanones
romanos
romeral
romero
romy
ronald
ronc
rond
ronda
ronde
ronquillo
room
ropel
roperuelos
roque
roquetas
roquetes
ros
rosa
rosal
rosanes
rosario
rose
rosenberger
rosenheim
roses
rosinos
rossello
rostock
rot
rota
rotar
rote
rotenburg
rotterdam
roturas
rouen
rouge
round
rourell
royal
royo
royuela
rozados
rozale
rozas
rpor
rpore
rpores
rr
rrec
rrega
rrez
rrius
rsan
rstenfeldbruck
rtama
rterbuch
rth
rtner
rtola
rtolas
rtoles
rttemberg
ru
ruanda
ruben
rubena
rubgy
rubi
rubiales
rubias
rubio
rublacedo
rucandio
rudolf
rue
rueda
ruente
ruesca
ruesga
rugat
rugby
ruidera
ruiloba
ruiponce
ruiz
rul
ruman
rumania
rumanian
run
rupia
rupit
rupter
ruptura
rural
rus
russ
russes
russia
russian
rusynes
rute
rva
rvalla
rvia
rvoles
rzano
rzburg
rður
s
sa
saakashvili
saale
saarbru
saarland
sabadell
sabero
sabin
sabiote
sable
sac
sacalm
sacecorbo
saceda
sacedo
saceruela
sacra
sacramenia
sacramento
sacri
sad
sada
sadurni
sadurnin
sadyr
saelices
safaja
safjo
safor
saga
sagra
sagrada
sagunt
sahagu
sahara
saharan
sahu
sahugo
saint
sainte
saiz
sajambre
sal
sala
salade
salam
salamanca
salares
salarie
salas
salazar
salce
salceda
saldan
saldeana
saldes
saldo
salduen
sale
salem
sales
salih
salillas
salime
salinas
salinillas
sall
sallavinera
salle
sallent
salmero
salmeroncillos
salmond
salmoral
salobral
salobre
salome
salomo
salon
salou
salt
salta
saltar
saltation
salteras
salteri
salteria
salubri
salute
salvacan
salvadio
salvador
salvane
salvar
salvatierra
salvation
salvatori
salz
salzburg
sam
samalu
samaniego
samara
samboal
same
samia
samir
sammen
samoa
samos
samper
samuel
san
sana
sanabria
sanau
sancedo
sanchez
sanchidria
sancho
sanchonun
sanchorreja
sanchotello
sancti
sand
sando
sandra
sandu
sangarci
sangarre
sangue
sangusi
sanita
sankt
sanlu
sanna
sanski
sansor
sant
santa
santaella
santaliestra
santander
santas
sante
santed
santerva
santiago
santiba
santillana
santiponce
santiso
santisteban
santiurde
santiuste
santiz
santo
santon
santorcaz
santos
santovenia
santoyo
santpedor
santulla
sanz
sanzoles
sapate
sapiens
sapo
sapon
sapporo
sar
sara
sarah
sarajevo
sardinia
sardinian
sardo
sarga
sargentes
sargsyan
sariego
sariegos
sarin
sark
saro
sarraci
sarraj
sarral
sarria
sarroca
sartajada
sasamo
sassari
sasserra
sassoli
sastre
sat
satelite
satisfar
sator
saturdi
saturn
sau
saucejo
saucelle
saudi
sauquillo
saus
savagi
savall
savalla
save
saventie
saver
saverdera
savet
savin
saxonia
saxoniae
say
sayago
sayalonga
sayato
saz
sc
scaf
scala
scale
scaliere
scandinavia
scano
scar
scara
scatull
scene
sch
scha
schallenberg
scheuer
schiffmann
schiller
schimmer
schirdewan
schleswig
schloss
schmidt
schneider
scho
scholz
school
schott
schro
schulz
schumacher
schwarz
schwarze
scie
science
scientic
scientie
scienties
scientific
scientist
scientistes
sclaveri
scol
scola
scolas
scole
scolera
scolero
scoles
scones
scop
scope
scopes
scot
scotia
scotland
scott
scri
scrir
scrit
scrition
scritor
scritores
scritura
scrituras
scruv
scruviere
scudelle
sculpter
sculptor
scum
sd
sda
sdsm
se
sea
seabra
seana
sebastia
sebastian
sebu
seca
secastilla
second
secondes
secret
secretaria
secretario
section
sector
secuent
secuita
secul
secules
secun
secund
securar
securita
sedano
sedavi
sede
sedella
sedes
sediles
seducter
see
seefeld
sega
segarra
segart
segle
segovia
segoyuela
segre
segria
segu
segur
segura
segurilla
seguro
sein
seine
seira
sejm
sela
selahattin
selas
selaya
selecter
selectet
selection
self
sellent
selva
semane
semanes
semi
semillas
semitic
sempre
sen
sena
senan
senat
senate
senatu
sendling
sene
senegal
senior
seniora
senioral
senioretta
sense
sensu
sentence
sententie
senterada
senti
sentir
sentiu
sentmenat
senyera
seoul
sep
separa
separar
separat
separation
september
septembre
sepu
sepulcro
sepultoria
seque
sequent
sequente
sequer
sequera
sequeros
sequet
serb
serbes
serbia
serbian
sercha
serchar
serdar
serge
sergey
sergio
serie
series
serinya
seriosi
serna
sero
serona
serra
serrada
serradilla
serrani
serranillos
serrano
serranos
serrans
serrateix
serrezuela
servi
service
servicie
servicies
serviette
servir
servit
servitor
servitude
ses
sesa
sescebes
sesen
sesgarrigues
sesgueioles
seson
sesones
sesrovires
session
sestra
sestrica
sesue
set
setaigu
setcases
setenil
setiles
sett
settesim
settlement
seu
seva
sevastopol
seven
severi
sevilla
seville
sevilleja
sex
sexu
sexual
sexualita
seychelles
sfere
shakespeare
shanghai
shavkat
she
shelley
shiiste
ship
shmyhal
shop
short
shorttrack
show
shu
shultz
si
sibiu
sica
sical
siccar
sich
sicilia
sicilian
sidamon
side
sidney
sidonia
sie
sienes
siero
sierpe
sierra
sierro
siete
sieteiglesias
sigena
sigeres
sigle
signar
signat
signe
signes
significa
significant
significar
significat
signification
sigu
sil
siles
silesia
silesian
silla
silos
sils
silva
silvestre
silvia
silvio
sim
simancas
simat
simbol
simboles
simbolic
simferopol
simil
similar
simo
simon
simone
simplic
simular
sin
sinarques
since
sincronisat
sind
singapor
single
singul
singular
singulari
sinlabajos
sino
sio
sion
sipila
sir
sirga
siria
sisamo
sisante
sistem
sistema
sistemas
sistematic
site
sitges
situ
situat
situation
siurana
siv
sive
six
sixesim
size
sj
sjo
sk
ska
skeleton
ski
skiar
skopje
skyla
slalom
slam
slavic
slittar
slitte
slovacia
slovak
slovakia
slovenia
slovenian
slovni
small
smith
smolensk
snow
snowboard
snsd
so
soba
sober
sobotka
sobradiel
sobradillo
sobrado
sobranie
sobrarbe
sobre
sobremunt
sobrescobio
sobrinos
social
socialdemocrates
socialdemocratic
socialist
socialistes
socialistic
societa
societe
society
socio
sociologic
sociologie
socovos
socrates
socue
sofa
sofia
sog
soko
sol
sola
solana
solanillos
solarana
solari
soldate
sole
solea
soledi
soler
solera
solid
solidarita
solide
solides
solita
solitari
solivella
sollana
solmen
solmiro
solo
solosancho
solothurn
solresol
solsona
solsone
solution
solveig
somalia
somaliland
sombri
something
somiedo
sommer
somnie
somolinos
somonti
somosierra
somoza
somozas
son
sonde
sones
song
songs
sonic
sonseca
sont
sopeira
sophie
sopron
sora
sorbas
sorbe
sordid
sordidar
sordillos
sorells
soria
soriguera
sorihuela
sort
sorte
sos
soses
sot
sotalbo
sotchi
sotillo
soto
sotoban
sotodosos
sotonera
sotorribas
sotosalbos
sotoscueva
sotoserrano
sotragero
sotresgudo
sotrobal
sound
sous
sousa
south
southampton
southern
southwestern
sovent
sovente
soveran
soveranita
soviet
sovietic
spa
space
spacial
spacie
spahn
spain
special
specialisat
specialist
specialmen
specie
species
specific
spectacul
spectatores
spectre
sped
spedes
speech
spegul
sper
spere
spess
spi
spielberg
spiritu
spiritual
split
sport
sportes
sportist
sportista
sportiste
sportistes
sports
sprint
spruzzar
spul
square
sr
srebrenica
sri
srpska
ss
sseldorf
sser
ssera
st
sta
stabil
stade
stadion
stadium
stadt
stafete
stago
stal
stalin
stamm
stand
standard
stanford
stanley
stanno
star
stari
stars
start
starta
stat
statal
state
states
station
stationes
statistica
stative
statu
status
statute
stavanger
stay
stedt
stefan
stefanie
stefanovic
stelle
stelles
step
stepan
stephan
stephen
sterco
stern
steven
stic
stier
stil
still
stipendie
stirling
stock
stockholm
stoker
stola
stoles
stoltenberg
stone
stop
stories
storm
story
strache
strada
strade
strangi
stranka
strasbourg
strate
strax
street
strett
strette
strettmen
strict
structura
structuras
struga
stubb
studia
studiante
studiantes
studiar
studiat
studie
studies
stult
stulton
stupid
sturgeon
stuttgart
su
sua
suances
suarez
suarna
suavi
sub
subbetica
subdistrict
subdistricte
subirats
subject
subjecte
subregion
substantie
substantive
subtener
subterran
subuqti
suburbe
suc
success
successar
successat
successe
successes
succession
successor
successosi
sucre
sud
sudan
sudanell
sude
sudic
suding
suebia
sueca
suert
suez
suffre
suffrentie
suffrer
suffret
suficent
sufixe
sufixes
sufli
suicide
suk
sukarno
sulca
sulejman
sultan
suluhu
sumaca
summa
summer
sun
sunak
sunyer
suol
sup
super
superar
superficial
superficie
superflu
superior
superiori
superlativ
superlative
supervivet
suplicar
suporta
suportar
suportat
suporte
suposir
suposit
supplement
supplicar
support
supra
suprem
sur
sure
surinam
surtir
sus
susana
susanna
susinos
suso
suspension
susqueda
sv
svalbard
sved
svedia
svetlana
sviatlana
svimmada
svimmar
sviss
svissia
svjetlost
sw
swansea
swedenborg
sydney
sylvia
system
sze
szeged
t
ta
tab
tabanera
tabelle
tabera
tabernas
taberno
tabladillo
table
taboada
tabuenca
tabul
tacer
tache
tadic
tadjikistan
tag
tagamanent
tage
tahal
taipei
taiwan
tajo
tajun
take
tal
tala
talamanca
talamantes
talarn
talavera
talayuelas
tale
talent
tales
talk
tallada
tallinn
talmen
tam
tamajo
tamames
tamarit
tamariz
tamaro
tamen
tameza
tamo
tampa
tampon
tan
tande
tant
tanzania
tapia
tapioles
tapisse
tar
taradell
taragudo
taramundi
taranco
taravilla
tarazona
tard
tarda
tardajos
tardienta
tariego
tarif
tarifa
taro
tarongers
tarragona
tarragone
tarre
tarroja
tartanedo
tartu
tasca
tasmania
tasse
tatort
tattari
taunus
tauste
tave
tavernes
tavertet
taxar
taylor
tayyip
tbilisi
tchec
tchechia
tchecoslovakia
tchek
tchekia
te
team
teams
teatrages
teatre
teba
teborg
technical
technology
tecnic
tecnica
tecnical
tecnicas
tecnologic
tecnologie
teeth
tegeltija
tegernsee
tegment
teheran
teia
teixeta
tejada
tejadilla
tejadillos
tejado
tejar
tejeda
tejeriego
tel
telefon
television
tell
tella
tema
temas
tembleque
temerari
temperatura
temperaturas
temple
temples
tempor
temporan
temporari
temporarimen
temps
ten
tendentie
tender
tendilla
tenebro
tenebrosi
tener
tenerife
tenette
tennessee
tenui
teo
teodoro
teologie
teorie
teories
tepic
ter
tera
tere
teresa
terme
termina
terminar
terminat
termine
terminologie
termodinamica
terque
terr
terra
terrades
terradillos
terrassa
terrateig
terre
terren
terrer
terres
terrestri
terri
terribil
terrinches
territoria
territorial
territorias
territorie
territories
terrore
terrorist
ters
teruel
terzaga
tese
tesorillo
test
testament
testimonie
tetovo
tetteh
teuteberg
teverga
texas
text
textes
textile
textu
textura
textus
tez
th
thac
thailand
than
that
the
theatre
their
then
theo
theodor
theorie
there
theresa
these
thessaloniki
thing
this
thomas
thorne
thorning
three
through
thuringia
ti
tiana
tibet
tic
tica
tichy
ticino
tie
tiedra
tielmes
tiemblo
tienne
tierga
tierz
tierzo
tihic
tikva
til
till
tillerson
time
timer
times
timid
timke
timmermans
timor
timore
timoshenko
tin
tina
tinajas
tineo
tinieblas
tino
tinto
tion
tip
tipe
tipes
tipicmen
tira
tirados
tirana
tirar
tirat
tiro
tirol
tirso
tis
tisane
titagu
title
titul
titulat
titulcia
tiurana
tiv
tiva
tivenys
tivissa
to
toal
toale
toba
tobago
tobalina
tobar
tobarra
tobed
toboso
tocina
tod
todenho
together
togo
toile
toilette
toixa
tojos
tokyo
tolban
toledo
tolocirio
tolox
tolstoy
tolva
tom
toma
tomares
tomas
tomates
tombe
tome
tomelloso
tomislav
ton
tona
tonder
tonga
too
top
topas
toques
tor
tora
toral
toranzo
tordehumos
tordellego
tordelra
tordera
tordesillas
tordesilos
tordillos
tordo
tordoia
tordueles
torello
toreno
tori
torija
torino
torla
tormellas
tormentar
tormes
torms
tornabous
tornadizo
tornadizos
tornar
torney
torneys
toro
toronto
torote
torquemada
torralba
torralbilla
torre
torreadrada
torrebaixa
torrebesses
torreblascopedro
torrecaballeros
torrecampo
torrecilla
torrecuadrada
torrecuadradilla
torredelcampo
torredembarra
torredonjimeno
torrefarrera
torrefeta
torregalindo
torregamones
torregrossa
torrehermosa
torreiglesias
torrejo
torrejoncillo
torrelaguna
torrelameu
torrelapaja
torrelara
torrelavega
torrelavit
torrella
torrellas
torrelles
torrelobato
torrelodones
torremocha
torremochuela
torremolinos
torremormojo
torrent
torrente
torrenueva
torrepadre
torreperogil
torres
torresandino
torresca
torresmenudas
torrico
torrijo
torrijos
torroella
torroja
torrox
torrubia
tortella
tortosa
tortuera
tortuero
tosantos
toscana
toscar
toses
tosos
tossa
tost
tot
total
totala
totane
totmen
totvez
toulouse
tour
touro
tous
tova
tower
town
township
tozo
tr
tra
trabada
trabadelo
trabanca
trabancos
trabaque
trabazos
trabuco
tracie
tracta
tractament
tractar
tractate
trade
tradition
traditional
traditionalmen
traditiones
traductet
traduction
traductiones
traductor
trafic
tragacete
trai
train
tramaced
tranchar
tranquil
trans
transfertet
transformar
transformat
transformation
transition
transitiv
translocat
transmisser
transnistria
transparent
transport
transportat
transporte
trar
trasierra
traslaloma
trasmonte
trasmoz
trasobares
traspinedo
trate
trates
travail
trave
travers
travnik
trazo
tre
trebujena
tree
trefacio
tremedal
tremer
tremore
tremp
tren
trenar
trenero
tres
trescasas
tresjuncos
tresor
trespaderne
tresviso
trevin
tri
triacastela
triant
tribaldos
tribe
tribunale
tricot
trier
triesim
trigueros
trijueque
trillo
trilogie
trincage
trincages
trincar
trinidad
triollo
tripoli
tripolis
trist
trivez
trivic
tro
trola
tromsø
tron
trondheim
trophy
tropic
trova
trovar
trovat
truchas
trudeau
true
trujillo
trump
trunc
truppe
truppes
truss
ts
tsipras
tsv
tt
tter
ttere
tteres
ttgen
ttingen
ttore
tu
tua
tub
tube
tuberculose
tubilla
tubo
tudanca
tudela
tui
tuixe
tula
tumul
tumultu
tunis
tunisia
tur
turbe
turc
turcia
ture
turisme
turistes
turistic
turk
turkmenistan
turleque
turn
turnbull
turre
turrillas
turtchinov
tuvalu
tuzla
tv
twain
twitter
two
tymoshenko
type
tz
u
ubierna
ubrilovic
ubrique
uc
uceda
ucieza
ucle
ucraina
ucrainian
udi
ue
uefa
uela
uelas
uelos
uerdingen
uganda
ugena
uhr
ujados
uk
ukraina
ukrainian
ulan
uleila
ulf
ulla
ullastrell
ullastret
ulldecona
ulldemolins
ulm
ulrich
ulrike
ulster
ultim
ultra
ultramort
um
umbrete
umbri
un
una
unaltru
uncastillo
und
unde
under
undes
undic
undue
une
unesco
unesi
unesim
ungul
uni
unic
unio
union
unir
unit
unita
unite
united
unition
universal
universe
universidad
universita
universite
university
unknown
uns
unter
unterfo
unvez
up
upanija
upon
uppsala
ur
ura
uraba
ural
urama
urban
urbio
urda
urdiales
urdu
urgell
urgellet
urones
urra
urrea
urria
urrie
ursula
uru
uruen
uruguay
uruk
urz
us
usa
usada
usage
usant
usante
usar
usat
usation
usator
usatores
use
used
usina
usu
usual
usualmen
ut
utande
utanovac
utebo
utensiles
utiel
util
utilisar
utrecht
utrera
uve
uwe
uzbekistan
v
va
vacanties
vacarisses
vacas
vaciamadrid
vacui
vacuo
vader
vadillo
vadocondes
vados
vaduz
vagar
vail
vajol
val
valadouro
valbuena
valcabado
valcarce
valcorba
valda
valdaracete
valdarachas
valdavia
valde
valdeande
valdearados
valdearcos
valdearenas
valdearroyo
valdeavellano
valdeavero
valdeaveruelo
valdebezana
valdecan
valdecara
valdecarros
valdecasa
valdecolmenas
valdeconcha
valdefinjas
valdefresno
valdefuentes
valdeganga
valdeginate
valdegrudas
valdehijaderos
valdehorna
valdeiglesias
valdejasa
valdelacasa
valdelageve
valdelaguna
valdelarco
valdelcubo
valdelosa
valdelucio
valdelugueros
valdemanco
valdemaqueda
valdemeca
valdemierque
valdemora
valdemorillo
valdemoro
valdenebro
valdenun
valdeo
valdeolea
valdeolivas
valdeolmillos
valdeolmos
valdepen
valdepero
valdepie
valdepolo
valdeporres
valdeprado
valdeprados
valderaduey
valderas
valderra
valderrebollo
valderredible
valderrey
valderrodrigo
valderrueda
valdesamario
valdescorriel
valdesotos
valdestillas
valdeto
valdetorres
valdetronco
valdevacas
valdeverdeja
valdevimbre
valdezate
valdilecha
valdivia
valdivielso
valdoncina
valdorros
valdovin
valduerna
valdunciel
valdunquillo
vale
valencia
valencian
valenciana
valencians
valencina
valenti
valenzuela
valer
valeras
valero
valfarta
valfermoso
valhermoso
valid
valira
vall
vallada
valladolid
vallais
vallalta
vallanca
vallarta
vallbona
vallcebre
vallclara
valldigna
valle
vallecillo
vallejera
vallelado
valleruela
valles
vallesa
valley
vallfogona
vallgorguina
vallirana
vallmoll
vallromanes
valls
vallue
valmadrid
valmadrigal
valmala
valmojado
valo
valore
valores
valoria
valos
valpalmas
valparai
valsalabroso
valsalobre
valseca
valsequillo
valtablado
valtiendas
valtorres
value
valuta
valveni
valverde
valverdejo
valverdo
van
vancouver
vandello
vanessa
vansa
vanuatu
vapor
vaquero
var
vara
varaz
varela
varia
variabil
variante
variation
varie
varieta
varna
varoufakis
vary
vase
vast
vaud
vd
ve
veciana
vecilla
vecinos
veda
vedija
vedra
vega
vegacervera
vegadeo
vegalatrave
veganzones
vegaquemada
vegas
vegetal
veguillas
vehicle
vehicul
vehicules
vejer
vel
vela
velada
velasca
velasco
velayos
velefique
velilla
vell
vella
velle
vellisca
velliza
vello
velocita
vencillo
vendir
vendit
vendosje
vendrell
venerdi
venezia
venezuela
veni
venialbo
venir
venit
vent
venta
ventallo
ventas
vente
ventosa
ventosilla
ventre
ventura
venturada
venus
ver
vera
verb
verbal
verband
verbe
verbes
verd
verde
verdes
verdi
verdu
verge
verges
verita
verlag
vermen
vermont
vermund
verne
verniss
vero
verre
vers
versar
verse
verses
version
versiones
vertavillo
verte
ves
veseli
vespella
veste
vestiment
vestimentes
vete
vexar
vez
vezdemarba
vezes
vfl
vi
via
viabrea
viacamp
viage
viagear
viages
viana
vianos
viator
vic
vice
vicedo
vicenc
vicent
vicente
vicie
vicin
victer
victet
victime
victor
victoria
victorie
victuales
vid
vidal
vidayanes
vide
videmala
video
videos
vider
videt
vidra
vidreres
vidriales
vidrios
vie
vieja
viejas
viejo
vielha
vienna
vierlas
viesgo
vietnam
vii
viii
viktor
vil
vila
vilabella
vilabertran
vilablareix
vilada
viladamat
viladasens
viladecans
viladecavalls
vilademuls
viladrau
vilafant
vilafranca
vilagrassa
vilajui
vilalba
vilaller
vilallonga
vilamacolum
vilamajor
vilamalla
vilamaniscle
vilamarchant
vilamo
vilanant
vilanova
vilaplana
vilar
vilarmaior
vilasantar
vilassar
vilatorrada
vilatorta
vilau
vilaverd
vilches
vilella
vilen
villa
villaba
villabaruz
villabasta
villablanca
villablino
villabra
villabraz
villabuena
villacan
villacarralo
villacarriedo
villacarrillo
villacasti
villacid
villacidaler
villaco
villaconancio
villaconejos
villada
villadangos
villademor
villadepera
villadiego
villadoz
villaeles
villaescusa
villaespasa
villafa
villafeliche
villaferruen
villaflor
villaflores
villafrades
villafranca
villafrecho
villafruela
villafuerte
villafufre
villagalijo
villagarci
villagato
village
villageriz
villages
villago
villagonzalo
villaha
villaharta
villahermosa
villaherreros
villahoz
villala
villalaco
villalar
villalaza
villalba
villalbarba
villalbilla
villalca
villalcampo
villalco
villaldemiro
villalengua
villalgordo
villalmanzo
villalo
villalobo
villalobos
villalonso
villalpando
villalpardo
villalube
villaluenga
villamalea
villaman
villamandos
villamani
villamanrique
villamanta
villamantilla
villamarti
villamayor
villambistia
villamediana
villamedianilla
villamejil
villameriel
villamiel
villaminaya
villamol
villamonta
villamor
villamoratiel
villamoronta
villamuelas
villamuera
villamuriel
villana
villango
villanova
villanu
villanubla
villanueva
villanun
villaobispo
villaornate
villapalacios
villaprovedo
villaquejida
villaquilambre
villaquira
villar
villaralbo
villaralto
villarcayo
villardeciervos
villardefrades
villardiegua
villardompardo
villardondiego
villarejo
villares
villargordo
villariezo
villarino
villarmayor
villarmentero
villarmuerto
villarrabe
villarramiel
villarrasa
villarreal
villarri
villarrobledo
villarrodrigo
villarroya
villarrubia
villarrubio
villarta
villas
villasabariego
villasandino
villasarracino
villasbuenas
villasdardo
villaseca
villaseco
villasela
villasequilla
villasexmir
villasila
villasrubias
villasur
villatobas
villatoro
villatorres
villatoya
villatuelda
villaturde
villaturiel
villaumbrales
villavaliente
villavaqueri
villavega
villavellid
villavendimio
villaverde
villaveza
villavicencio
villaviciosa
villavidel
villavieja
villaviudas
villayerno
villayo
villazala
villazanzo
villazopeque
villegas
villeguillo
villel
villeri
villiquera
villodre
villodrigo
villoldo
villoria
villoruebo
villoruela
villota
villovieco
vilnius
vilobi
vilomara
vilopriu
viloria
vilosell
viluen
vilvestre
vilviestre
vimbodi
vimianzo
vin
vinaixa
vinalesa
vincent
vindel
vinebre
vinicultura
vinnytsia
vino
vinyols
violent
violentie
virgen
virginia
virus
viruses
vis
visage
vise
visibil
visigotic
vision
visit
visita
visitat
viso
vista
vistabella
vita
vitero
vitigudino
vitre
vivaci
vivar
vive
viveiro
vivent
viver
viveros
vives
vivet
vizcai
vizcaya
vjosa
vladimir
vlajki
vmro
vo
vocabula
vocabularium
vocal
vocales
voce
voice
vojevodia
vojislav
vojvodina
vol
vola
volant
volapu
vole
voler
volet
volga
volleyball
volodymyr
volpejera
voltoya
voltrega
volume
vom
von
vor
vorarlberg
vorau
vorpommeria
vos
votat
votation
vote
votes
voto
vox
vre
vu
vuc
vulcan
vulgari
vulin
vw
vyborg
w
wahl
wald
wall
wallace
wallonia
walter
wamba
wanderers
wang
want
war
warren
warszawa
was
washington
watch
water
way
wayne
we
weah
web
weber
website
weckruf
weferling
weg
weidel
weight
weil
weimar
weizsa
weiß
well
wellington
wells
welt
weltsprache
wer
werner
west
westal
western
westerwelle
westfalia
what
wheel
when
which
white
who
whole
widerstand
wie
wiehle
wien
wiesbaden
wiki
wikimedia
wikipedia
wikiversity
wilhelm
will
willem
william
williams
willy
wimbledon
wind
windsor
winnipeg
winter
winterthur
wir
wisconsin
wissler
wisła
with
without
witt
wo
wolfgang
wolfsburg
wood
word
work
world
would
wozniacki
wright
writing
wrocław
wta
wu
wundrak
wunsiedel
www
x
xa
xalans
xarafull
xavier
xeraco
xeresa
xermade
xerta
xi
xii
xiii
xiv
xols
xove
xter
xv
xvi
xviii
xx
y
ya
yale
yanguas
yanukovich
yar
yatsenyuk
ye
year
years
yebes
yebra
yecla
yegua
yeguas
yelb
yeles
yeltes
yemen
yepes
yerevan
yernes
yes
yesa
yeste
yi
yo
yogyakarta
york
you
young
your
youtube
yu
yugoslavia
yuliya
yun
yuncler
yunclillos
yuncos
yunes
yunesse
yunita
yuno
yunquera
yunta
yure
yures
yuso
z
za
zabarcos
zachartchenko
zadar
zadornil
zael
zaev
zafra
zafrilla
zagreb
zahara
zaida
zaidi
zakopane
zalamea
zamanzas
zamarra
zamayo
zambia
zamenhof
zamora
zanzibar
zaorejas
zapardiel
zar
zaragoza
zarapicos
zarata
zaro
zarra
zarza
zarzalejo
zarzosa
zarzuela
zas
zazuar
zb
zcar
zcoa
zdf
ze
zebra
zebu
zeit
zeitung
zeland
zelensky
zeman
zemmour
zenica
zenit
zero
zeus
zh
zhirinovsky
zimbabwe
zimmermann
zlatko
zona
zone
zoran
zorita
zotes
zquez
zu
zuckermann
zuera
zufre
zug
zuheros
zum
zun
zur
zurgena
zvizdic
zwei
zyuganov
{
|
}
~
¡
§
ª
«
°
±
²
³
´
µ
·
º
»
¿
×
ß
ð
đukanovic
ı
ło
ʃ
ʹ
ʻ
ʿ
ˈ
ː
̀
́
̂
̃
̄
̆
̇
̈
̉
̊
̋
̌
̓
̔
̛
̣
̦
̧
̨
͂
͡
α
β
γ
ε
ο
ρ
ς
в
д
и
л
н
о
с
у
я
ְ
ִ
ֵ
ֶ
ַ
ָ
ּ
ב
ח
י
ל
ם
מ
נ
פ
ר
ת
ا
د
س
ن
َ
ِ
ّ
ٔ
ٕ
ख
द
न
प
स
ा
ु
े
्
த
ி
ு
்
ಂ
ಡ
ಸ
ಿ
ೆ
್
ด
ธ
ั
ี
ุ
་
​
‎
‏
‑
–
—
‘
’
“
”
„
†
•
…
′
″
⁡
€
№
™
→
↔
↷
−
∫
⋅
③
④
⑦
●
☉
⯓
⺀
⺄
⺆
⺈
⺊
⺌
⺕
⺝
⺸
⺼
⿰
⿱
⿲
⿳
⿴
⿵
⿶
⿷
⿸
⿹
⿺
⿻
〢
あ
い
う
お
か
き
く
こ
し
す
せ
た
ち
っ
つ
て
と
な
に
の
ま
み
も
ゃ
ゅ
ょ
ら
り
る
れ
わ
ん
゙
オ
ク
コ
ス
タ
テ
ト
ヒ
ユ
ラ
レ
ン
ー
㇁
㇂
㇄
㇇
㇈
㇉
㇓
㐁
㐄
㐅
㐌
㐫
㐬
㐭
㐮
㐱
㑒
㒵
㒸
㒼
㓁
㓞
㔾
㕛
㕣
㖾
㘝
㚅
㚇
㚔
㚘
㝉
㝡
㝴
㝵
㞋
㞢
㞷
㠩
㠭
㠯
㡀
㡭
㡿
㢲
㢴
㣇
㣺
㥯
㪅
㫄
㫐
㫒
㫺
㬅
㬎
㬥
㬰
㲋
㳄
㷠
㸒
㸚
㸦
㼌
㼲
㽞
㿟
䀠
䂞
䍃
䏍
䒑
䖍
䖒
䖝
䖵
䙴
䚻
䜌
䝿
䡛
䧹
䪞
一
丁
丂
七
丄
丅
丆
万
丈
三
上
下
丌
不
与
丏
丐
丑
专
且
丕
世
丘
丙
业
东
丞
丢
丣
两
严
並
丨
丩
个
丫
丬
中
丮
丰
丱
串
丵
丶
丷
丸
丹
为
主
丽
丿
乀
乂
乃
久
乆
乇
么
义
之
乌
乍
乎
乏
乐
乑
乔
乖
乗
乘
乙
乚
乛
乜
九
乞
也
习
乡
乳
乾
亀
亅
了
亇
予
争
事
二
亍
于
亏
亐
云
互
亓
五
井
亘
亚
亜
亞
亟
亠
亡
亢
交
亥
亦
产
亨
亩
享
京
亭
亮
亯
亰
亲
亳
亶
亷
人
亻
亼
亾
仁
今
介
仌
从
仐
仑
仒
仓
仕
他
付
仝
代
令
以
任
企
伊
伏
伐
休
会
伯
但
位
何
佘
余
作
佥
使
來
侈
侌
侖
侯
侵
便
保
俞
信
修
倉
倍
候
倠
備
僉
僕
儿
兀
允
兂
元
兄
充
兆
兇
先
光
兊
克
兌
免
兑
兒
兓
兔
党
兜
兟
入
全
兩
兪
八
公
六
兮
兰
共
关
兵
其
具
典
兹
兼
冀
冂
冃
冄
内
冈
冉
冊
冋
册
再
冎
冏
冐
冒
冓
冖
冗
冘
写
军
农
冝
冡
冥
冫
冬
冷
几
凡
凢
凵
凶
凷
凸
凹
出
函
凾
刀
刁
刂
刃
刄
刅
分
切
刍
刑
刕
刖
列
刘
则
初
別
利
别
到
制
刺
則
削
剌
前
剡
剽
劉
力
功
加
劦
助
劫
劳
劵
勃
勇
勉
勒
動
務
勞
勤
勹
勺
勻
勾
勿
匀
匂
包
匆
匈
匊
匋
匍
匕
化
北
匚
匝
匡
匪
匱
匸
匹
区
医
匽
匿
區
十
卂
千
卄
卅
卆
升
午
卉
半
卌
华
卑
卒
卓
单
卖
南
卜
卝
卞
占
卡
卢
卣
卤
卦
卩
卪
卬
卯
印
危
即
却
卵
卷
卸
卻
厂
厃
厄
历
厈
厉
厌
厓
厘
厚
原
厤
厥
厨
厭
厲
厶
厷
厸
去
厼
厽
叀
参
參
叅
又
叉
及
友
双
反
叐
发
叒
叔
叕
取
受
叚
叜
叟
口
古
句
另
叩
只
召
可
台
叱
史
右
叵
号
司
叹
吂
各
吅
合
吉
吊
吋
同
名
后
吏
向
吕
君
吝
吞
否
含
启
吳
吴
吹
吾
呂
呆
呈
告
员
呙
周
呪
命
咅
和
咎
咠
咢
咨
咸
咼
哀
品
哉
員
哥
哲
唐
商
啇
問
啚
啬
啻
善
喜
喬
單
喿
嗇
噩
嚴
囊
囗
囘
囙
囚
四
回
囟
因
囧
囬
困
囱
囷
固
国
圂
圅
國
圍
圓
土
圡
圣
圥
在
圭
地
圶
圼
坐
坒
坚
坴
垂
垔
垚
埀
埋
城
埶
執
基
堂
堅
堆
堇
堯
塞
墨
壘
士
壬
壯
声
壳
壴
壹
壺
壽
夂
处
夅
夆
备
夊
夋
夌
复
夏
夒
夕
外
夗
夘
多
夜
夢
大
夨
天
太
夫
夬
夭
央
失
夲
头
夷
夸
夹
夻
夾
奂
奄
奇
奈
奉
奎
奏
奐
契
奓
奔
奚
奞
奠
奢
奥
奭
女
奴
奻
好
如
妄
妙
妟
妥
妻
妾
姑
委
姜
威
娄
娜
婁
婴
嬰
嬴
子
孑
孔
孕
孖
字
存
孚
孛
孝
孟
季
孤
学
孫
孱
學
宀
宁
宂
它
宅
宇
守
安
宋
完
宏
宓
宗
官
定
宛
宜
宝
客
宣
室
宮
宰
害
家
容
宾
宿
寄
寅
密
富
寒
察
寧
審
寫
寬
寮
寸
对
寺
寻
寽
対
寿
封
尃
射
将
將
專
尉
尊
尋
尌
對
小
少
尒
尓
尔
尖
尗
尚
尞
尢
尣
尤
尧
尨
尭
就
尸
尹
尺
尻
尼
尽
尾
尿
局
居
屈
屋
屎
屏
屑
展
屖
屚
属
屠
屡
屬
屮
屯
屰
山
屵
屾
岁
岂
岑
岡
岩
岳
岸
峯
島
崇
崑
崔
崖
崙
崩
嵬
嶲
巂
巛
川
州
巟
巠
巢
巤
工
左
巧
巨
巩
巫
差
己
已
巳
巴
巷
巸
巽
巾
巿
帀
市
布
希
帚
帛
帝
带
師
席
帶
常
干
平
年
幵
并
幷
幸
幺
幻
幼
幽
幾
广
広
庄
床
库
底
店
庚
府
度
庫
庭
庶
康
庸
廉
廌
廛
廣
廩
廴
延
廷
建
廾
廿
开
弁
弃
弄
弇
弋
式
弓
弔
引
弗
弘
弜
弟
弥
弦
弱
張
強
强
彊
彌
彎
彐
彑
当
彔
录
彖
彗
彡
形
彥
彦
彧
彭
彳
役
彼
往
待
律
徒
得
徙
從
復
微
徵
心
忄
必
忌
忍
志
忝
忠
忩
快
念
忽
忿
怖
思
怠
急
怨
怱
恆
恐
恒
恩
恭
息
悉
患
悤
悲
悶
惠
惡
惢
愁
愈
意
愛
感
慈
慧
慮
憂
憲
應
戀
戈
戉
戊
戋
戌
戍
戎
成
我
戒
戔
或
戚
戠
戢
截
戲
戶
户
戹
戼
戾
房
所
扁
扇
手
扌
才
打
托
执
承
折
拉
拜
拿
掌
推
提
摩
支
攴
攵
收
攸
改
放
政
敄
敏
敕
敖
敗
敝
敞
敢
散
敦
敫
敬
数
敷
數
斂
文
斉
斊
斗
斤
斥
斩
斬
斯
新
方
於
施
斿
旁
旋
族
无
旡
既
旣
日
旦
旧
旨
早
旬
旱
旲
时
旾
昆
昇
昌
昍
明
昏
易
昔
昗
昜
星
春
昬
是
昱
昴
昷
時
晃
晋
晏
普
景
晶
智
暑
暴
曇
曩
曰
曲
曳
更
曷
書
曹
曼
曾
替
最
朁
會
月
有
朋
服
朔
朕
朗
望
朝
木
朩
未
末
本
札
朮
术
朱
朵
朶
朿
杀
李
杏
杜
束
条
来
東
杲
杳
松
析
林
枚
果
枝
枲
枼
某
柔
查
柬
柰
柴
栗
校
桀
桑
桼
梁
條
梟
梨
棘
棠
棥
森
楚
業
楽
榮
樂
樊
欠
次
欣
欮
欲
欶
欽
款
歆
歇
歛
止
正
此
步
武
歨
歪
歮
歯
歰
歲
歴
歷
歸
歹
歺
死
殳
段
殷
殸
殹
殺
殻
殿
毋
毌
母
每
毒
比
毕
毚
毛
毳
氏
氐
民
气
気
氣
水
氵
氶
氷
永
氺
氾
求
汝
汞
江
沃
沓
沙
沝
泉
法
波
泣
泥
泰
洛
洪
活
派
流
浦
浪
浮
海
淡
淮
清
渚
渠
湯
滿
漢
漸
火
灬
灭
灰
灵
灷
炅
炎
炏
炗
炙
炭
為
烈
烏
烝
焉
無
焦
焱
然
煞
熊
熏
燕
營
燮
爪
爫
爭
爯
爰
爱
爲
爵
父
爻
爽
爾
爿
片
牙
牚
牛
牜
牟
牢
牧
牪
牽
犀
犬
犭
犮
狂
狄
狊
独
狺
猋
猒
猪
献
獻
玄
率
玉
王
玟
玨
珎
班
琴
瑟
瑩
瓜
瓦
甘
甚
生
産
用
甫
甬
田
由
甲
申
电
甶
男
甸
甹
画
甾
畀
界
畏
畐
留
畜
畟
畢
畧
畨
番
畫
異
畱
當
畺
畾
疊
疋
疌
疑
疒
疾
癶
癸
癹
登
發
白
百
皀
皃
的
皆
皇
皋
皐
皕
皮
皷
皿
盃
盆
盇
盈
益
盍
盎
监
盒
盖
盛
盡
監
盤
盧
目
直
相
盾
省
眇
眉
看
眔
眞
真
眷
眼
眾
着
睘
睪
睿
瞏
瞢
瞿
矍
矛
矞
矢
矣
知
矦
短
石
破
碎
磊
磨
示
礻
礼
祟
票
祭
禀
禁
福
禸
禹
禺
离
禽
禾
禿
秀
秃
秉
秋
科
秝
秦
移
稟
穀
穌
穴
究
穹
空
穿
突
窄
窒
立
竒
竜
竝
竟
章
童
竹
笑
笠
筆
等
答
箕
算
箴
節
篤
篭
米
粉
粛
粟
粤
粦
粲
糞
糸
糹
系
約
納
素
索
紫
累
細
絜
絫
絲
維
綿
縣
繇
纍
纟
缶
网
罒
罔
罕
罗
罙
罡
罢
罪
署
罷
羅
羊
羌
羍
美
羔
羕
羗
羞
羡
羣
群
義
羲
羸
羽
翁
翏
習
翕
翟
翠
翼
老
耂
考
者
耆
而
耎
耑
耒
耳
耴
耶
耷
聂
聊
聖
聚
聶
聿
肀
肃
肅
肉
肖
肙
肥
肩
肯
育
肴
胃
背
胡
胥
能
脊
脩
膚
臣
臤
臧
自
臬
臭
臯
臱
至
致
臺
臼
臽
臾
臿
舀
舂
舄
與
興
舉
舌
舍
舛
舜
舞
舟
般
艮
良
色
艸
艹
艾
芒
芔
芬
芮
花
芳
芺
芻
苔
苗
苟
若
苦
英
茶
茸
荅
草
荒
荣
荼
莆
莧
莫
莽
菆
菊
菐
華
萬
落
葉
著
葛
董
葵
蒙
蒦
蒼
蓋
蓬
蓺
蔑
蔡
蕉
蕭
薄
薛
薦
薰
藍
藏
藥
蘭
虍
虎
虐
虒
虔
處
虖
虗
虘
虚
虛
虜
虞
虫
虽
蚤
蚩
蜀
蜜
蟲
蠡
血
行
衍
衛
衣
衤
表
衮
衰
袁
袞
褭
褱
襄
襾
西
覀
要
覃
見
規
覓
覧
親
覽
见
角
解
言
訁
訇
計
話
詹
誩
談
諸
讠
谷
豆
豈
豊
豐
豕
豖
豙
象
豦
豩
豪
豸
貇
貝
貞
貟
負
貢
貧
貪
貫
責
貳
貴
買
費
賁
資
賈
賏
賓
賔
賛
賞
賢
賣
質
賴
贊
贝
贡
责
贯
贲
贵
赖
赞
赤
赦
走
越
足
路
蹇
身
躬
車
軍
軎
軟
輦
车
辛
辜
辟
辥
辰
辱
農
辵
辶
边
达
过
近
连
迷
追
退
送
逆
逐
通
速
造
逢
連
逮
進
遀
遂
過
道
達
遣
適
遷
遺
邊
邑
邕
那
邦
邪
郎
部
郭
都
鄉
鄭
酉
酋
配
酓
釆
采
里
重
野
量
金
釒
錢
钅
長
镸
长
門
閃
閉
開
閏
閑
閒
間
閔
閵
閻
闌
门
间
闷
阑
阜
阝
阿
降
陳
陽
隆
隊
隋
隡
隨
隱
隶
隹
隺
隻
隼
隽
难
雀
雁
雄
集
雈
雋
雍
雐
雔
雙
雚
雜
雝
離
難
雨
雩
雪
雲
零
雷
需
霊
霍
霜
霝
霞
霸
靈
靑
青
非
靡
面
靣
革
韋
韦
韭
韯
韱
音
頁
頃
項
須
頗
頡
頻
顛
页
風
风
飛
飞
食
飠
養
饣
首
香
馬
馮
駦
马
骨
高
髟
鬥
鬯
鬲
鬼
魚
魯
鮮
鱼
鲁
鳥
鳳
鸟
鹵
鹿
麃
麗
麥
麦
麻
黃
黄
黍
黎
黑
黒
黨
黹
黽
黾
鼎
鼓
鼠
鼻
齊
齋
齐
齒
齿
龍
龙
龜
龟
龠
龰
龱
龴
龵
龶
龷
龸
龹
者
艹
ﬁ
﻿
？
ｃ
ｉ
ｌ
ｏ
ｖ
🜨
𠀁
𠀃
𠀆
𠀉
𠀎
𠀐
𠁁
𠁣
𠂆
𠂇
𠂈
𠂉
𠂊
𠂋
𠂎
𠂒
𠂔
𠂛
𠂡
𠂢
𠂤
𠂬
𠂭
𠂹
𠃊
𠃋
𠃌
𠃍
𠃎
𠃑
𠃓
𠃔
𠃜
𠄌
𠄎
𠄠
𠄢
𠆢
𠆥
𠇍
𠈌
𠌵
𠓜
𠔉
𠔥
𠔼
𠔽
𠔿
𠕀
𠕁
𠕋
𠘧
𠘨
𠙻
𠙼
𠚏
𠚒
𠚤
𠚪
𠣏
𠤎
𠤕
𠥓
𠦄
𠦑
𠦝
𠧒
𠧗
𠧪
𠩺
𠪚
𠫓
𠫔
𠫤
𠬛
𠬝
𠬞
𠬢
𠬤
𠬶
𠮛
𠮦
𠮷
𠯑
𠱠
𠳮
𠷎
𡈼
𡉀
𡉵
𡌥
𡍮
𡏳
𡕒
𡕩
𡕰
𡖅
𡗗
𡗜
𡘆
𡘤
𡧱
𡨄
𡩧
𡬠
𡭽
𡰣
𡰥
𡰪
𡰯
𡰱
𡷈
𡸁
𡿨
𡿩
𡿪
𡿺
𢀖
𢀛
𢀩
𢁙
𢆉
𢆰
𢆶
𢇁
𢇇
𢉖
𢌬
𢌿
𢏚
𢑑
𢑚
𢖻
𢙣
𢛳
𢦏
𢦒
𢧵
𢼄
𢾕
𣁋
𣄼
𣅀
𣅽
𣍘
𣎳
𣎵
𣏋
𣏼
𣗥
𣥂
𣥖
𣦵
𣦼
𣧄
𣪊
𣪠
𣬉
𣳾
𣶒
𤇾
𤊽
𤐫
𤓰
𤔔
𤕨
𤣩
𤰇
𤰔
𤰞
𤴓
𤴔
𤽄
𥁑
𥁕
𥃦
𥃩
𥃭
𥇡
𥑟
𥘅
𥘈
𥝢
𥫗
𥱡
𦈢
𦉪
𦉬
𦉼
𦍌
𦍒
𦎧
𦐇
𦓔
𦔮
𦘒
𦙃
𦚏
𦣝
𦣞
𦣻
𦥑
𦥔
𦥯
𦨉
𦭝
𦰩
𧆞
𧈧
𧘇
𧰨
𧴪
𧴮
𧵩
𧾷
𨸏
𨾴
𩙿
𩠐
𩫏
𩵋
𪉷
𪜀
𪟽
𪠲
𪩲
𫇦
𫔭
𫜸
𫝀
𫠣
𫠩
𫢉
𫥞
𫩏
𫩠
𫪡
𫲽
𫶧
𬀷
𬐘
𬗌
𬙙
𬛸
𬜯
𬟩
𬯁
𬴘
𬺻
𬼉
𬼖
𭀰
𭁈
𭁨
𭅰
𭑈
𭕄
𭗼
𭤨
𭥫
𭻾
𮅕
𮊿
𮍌
𮍏
𮓗
𮥼
𮧮
廾
𰀁
𰀄
𰀈
𰀉
𰀕
𰀠
𰀡
𰀢
𰀪
𰁜
𰃮
𰆊
𰆘
𰋙
𰕎
𰢴
𰧭
𰯲
264--
a--
ab--
abi--
abo--
absor--
abst--
ac--
acce--
access--
acom--
aconosse--
acus--
ad--
adapt--
addit--
adv--
adver--
af--
afec--
aflic--
ag--
aga--
agu--
ai--
ak--
al--
ala--
ale--
ali--
all--
alt--
am--
ama--
amb--
ame--
ami--
an--
ana--
anc--
and--
ang--
ani--
ano--
ans--
ant--
ante--
anti--
any--
apla--
app--
appli--
apr--
aproxi--
aproxima--
aqui--
ar--
arbit--
arc--
archeo--
argu--
aristo--
aro--
arte--
arti--
as--
asce--
asse--
asser--
assi--
assist--
astero--
at--
ate--
au--
aus--
auto--
avan--
ave--
avo--
ay--
az--
b--
ba--
bac--
bal--
balay--
ban--
bapt--
bar--
bas--
bat--
bau--
be--
beat--
beau--
bel--
ben--
bene--
ber--
bet--
bi--
biblio--
bio--
bir--
bis--
bit--
bla--
ble--
blo--
bo--
bogen--
bol--
bom--
bon--
bor--
bot--
bou--
bour--
br--
bre--
bri--
bro--
broch--
bru--
bu--
buf--
bul--
bun--
bur--
burg--
by--
byza--
c--
ca--
cal--
calum--
camb--
camp--
can--
cap--
car--
cas--
casa--
cast--
cat--
catas--
caut--
ce--
cele--
celes--
cellu--
cens--
cent--
cer--
cere--
ch--
cha--
char--
chass--
che--
chi--
cho--
chr--
ci--
cib--
cic--
cir--
ck--
cla--
cle--
cli--
clo--
co--
cof--
coi--
col--
com--
come--
comis--
compe--
compro--
con--
conduc--
consu--
consumpt--
convers--
coordin--
cor--
cos--
cou--
cra--
cre--
cri--
cro--
cu--
cul--
cup--
cur--
curr--
cuss--
custo--
d--
da--
de--
dec--
deci--
del--
dem--
demo--
democ--
demonst--
den--
deno--
der--
des--
desce--
desem--
destruc--
detal--
detec--
developp--
di--
dia--
dic--
dif--
dig--
dis--
disc--
diss--
dist--
distri--
do--
dona--
dor--
dou--
dr--
drag--
dro--
du--
dub--
duc--
dur--
dy--
e--
ea--
ed--
ef--
efec--
eg--
ek--
el--
ela--
ele--
elec--
electro--
eli--
em--
emer--
emi--
emo--
en--
eno--
epi--
equi--
er--
erec--
ero--
es--
esch--
esp--
essu--
est--
et--
etab--
eu--
eva--
ex--
exage--
exce--
exclu--
exe--
exem--
exi--
expl--
explora--
expo--
f--
fa--
fab--
fal--
fam--
fan--
far--
fasc--
faus--
fe--
feder--
fer--
fi--
fil--
fin--
finn--
fis--
fla--
fle--
flexi--
flo--
flor--
fo--
for--
foss--
fr--
fra--
fracas--
fratern--
fre--
fred--
fri--
fric--
fu--
ful--
fum--
fur--
g--
ga--
gam--
gar--
gas--
ge--
geme--
gen--
geome--
ger--
gi--
gil--
gim--
gli--
glis--
glo--
glu--
go--
gon--
gor--
gover--
gr--
gra--
grand--
gre--
gri--
gu--
guang--
gui--
h--
ha--
hab--
hac--
hai--
hal--
ham--
han--
har--
hart--
has--
he--
hec--
hem--
hen--
her--
herr--
hi--
hl--
ho--
hoch--
hom--
hor--
how--
hra--
hu--
hung--
i--
id--
ide--
identif--
if--
ig--
il--
illu--
illust--
im--
in--
inaugu--
inclu--
indi--
indul--
inf--
inflam--
ing--
initia--
insi--
inspec--
inspi--
inst--
insur--
inten--
inter--
io--
ir--
iri--
is--
iso--
ist--
it--
ite--
iv--
ivan--
iz--
j--
ja--
jah--
jan--
je--
ji--
jo--
ju--
k--
ka--
kath--
ke--
ken--
ker--
kha--
ki--
kil--
kilog--
kir--
kla--
ko--
kom--
kon--
kosta--
kr--
kra--
ku--
ky--
l--
la--
lab--
lac--
lad--
lam--
lan--
lans--
lar--
lau--
le--
lec--
leg--
len--
leo--
les--
let--
li--
lib--
lim--
lin--
lit--
litt--
lju--
ll--
lo--
loco--
long--
lor--
lt--
lu--
lum--
m--
ma--
mac--
mad--
madel--
mag--
magne--
maje--
mal--
mam--
man--
mani--
mar--
mas--
mathema--
matri--
max--
mc--
me--
med--
media--
mem--
men--
mer--
mes--
meteo--
mez--
mi--
micro--
mid--
midd--
mil--
min--
mio--
mir--
mis--
mit--
mix--
mo--
modi--
modific--
mol--
mon--
mono--
mor--
mos--
movi--
mu--
multi--
mund--
mur--
mus--
mut--
my--
n--
na--
nar--
narr--
nata--
nativ--
ncon--
nde--
ndi--
ne--
negli--
ner--
neu--
new--
ni--
nie--
nin--
no--
noc--
nomen--
non--
nor--
nord--
not--
nou--
nov--
nregu--
ns--
nt--
nu--
o--
ob--
ober--
obli--
oct--
ocul--
odi--
of--
ofen--
og--
oh--
ol--
oli--
olympi--
om--
on--
opt--
or--
ora--
ord--
ore--
orp--
orto--
os--
ost--
oster--
ou--
out--
p--
pa--
pac--
pal--
pan--
par--
para--
pas--
pass--
pav--
pay--
pe--
ped--
pei--
pel--
pen--
penet--
per--
perse--
persist--
ph--
pho--
pi--
pic--
piri--
pisc--
pl--
pla--
plec--
po--
pol--
poli--
ponde--
pop--
popov--
port--
pos--
post--
pot--
pre--
preci--
pri--
pro--
prote--
provo--
pru--
pt--
pu--
pul--
pum--
pupi--
pur--
put--
py--
qu--
qui--
r--
ra--
rab--
rag--
ran--
rap--
ras--
rat--
raz--
re--
real--
reci--
recolta--
rect--
ref--
reflec--
reg--
regul--
rei--
rein--
rel--
rem--
remem--
ren--
repro--
res--
respec--
respo--
ret--
retra--
rg--
rho--
ri--
ris--
rit--
ro--
roc--
rod--
ros--
rosa--
ru--
rus--
s--
sa--
sag--
sal--
salva--
sam--
san--
sar--
sat--
satel--
sati--
satis--
sau--
sc--
scand--
sch--
scin--
scla--
se--
sede--
see--
sem--
semi--
sen--
sensi--
sep--
ser--
sha--
shi--
sho--
si--
sidd--
sie--
sig--
sil--
sin--
sir--
sk--
sla--
sli--
slo--
so--
soc--
sol--
som--
some--
son--
sorci--
spa--
spe--
spec--
speci--
spi--
spo--
sr--
ss--
st--
sta--
starn--
ste--
stein--
ster--
sti--
sto--
stru--
stu--
stuf--
su--
sub--
subor--
suc--
sud--
suf--
sufo--
sugge--
sul--
sun--
sup--
super--
suple--
sur--
sus--
suspec--
sv--
sw--
sy--
sym--
t--
ta--
tag--
tal--
tam--
tar--
tat--
te--
techni--
tel--
tele--
tem--
ten--
tenta--
teo--
ter--
tes--
th--
the--
ti--
tim--
tin--
to--
tole--
ton--
top--
tor--
tou--
tr--
tra--
tran--
trans--
tre--
tri--
trinca--
tro--
tru--
truf--
ts--
tt--
tu--
tur--
ty--
u--
uhu--
um--
un--
uni--
up--
ur--
us--
v--
va--
vac--
val--
van--
var--
ve--
ven--
ver--
ves--
vi--
vibra--
vic--
vin--
vir--
vis--
vla--
vo--
volun--
vor--
vu--
vul--
vuln--
w--
wal--
war--
we--
web--
wer--
west--
wi--
wiki--
wil--
win--
wit--
wo--
wol--
wuster--
x--
xi--
y--
ya--
ye--
yo--
yu--
z--
za--
ze--
zeh--
zell--
zoo--
zu--
đ--
--0
--1
--2
--3
--4
--5
--6
--7
--8
--9
--a
--abad
--abil
--able
--ac
--ace
--ach
--ad
--ada
--ade
--af
--ag
--age
--ah
--ain
--aire
--aka
--akis
--al
--ald
--ale
--almen
--am
--an
--ana
--ang
--ano
--ans
--ant
--ante
--ap
--apse
--ar
--ara
--ari
--ario
--ary
--as
--at
--ate
--ation
--ato
--ator
--atores
--atu
--au
--ay
--b
--ba
--bach
--be
--bes
--bi
--bia
--bil
--bilmen
--bio
--ble
--bo
--bour
--bre
--bri
--bu
--buer
--buet
--burg
--bus
--by
--c
--ca
--cal
--car
--cas
--cat
--cc
--ce
--cede
--cedet
--celi
--cer
--ces
--ch
--che
--cht
--ci
--cia
--ciar
--cie
--cil
--cio
--cit
--ck
--cle
--co
--col
--cos
--cs
--ct
--cte
--cter
--ctet
--ction
--ctiv
--cunc
--cy
--d
--da
--dad
--dage
--dant
--dar
--ddy
--de
--der
--det
--dge
--di
--dia
--die
--dir
--dler
--do
--dor
--dorf
--dre
--dri
--ds
--dt
--du
--dui
--dy
--e
--ea
--ear
--eat
--ec
--ect
--ed
--ee
--ejo
--ek
--el
--ell
--elle
--en
--ence
--ene
--enes
--ens
--ent
--eo
--ep
--er
--era
--ere
--erg
--eri
--ern
--ero
--eros
--ers
--es
--esack
--ese
--eses
--esi
--esse
--et
--ete
--ets
--ette
--eur
--eus
--ev
--ey
--ez
--f
--fa
--fe
--feld
--fes
--fest
--ff
--ffe
--fia
--fic
--ficie
--fie
--fon
--ft
--fu
--ful
--g
--ga
--gan
--gane
--gar
--gau
--ge
--gen
--ger
--ges
--gh
--ght
--gi
--gia
--gic
--gie
--gin
--gn
--gne
--go
--gon
--grad
--graf
--greso
--gs
--gt
--gu
--gua
--gue
--h
--ha
--hal
--ham
--he
--heim
--hen
--hes
--het
--hing
--hn
--ho
--holz
--hr
--ht
--i
--ia
--ial
--ian
--iano
--iar
--iari
--ias
--iat
--ic
--ica
--icie
--ick
--icul
--id
--ie
--ied
--iemi
--ient
--iente
--ier
--iero
--ies
--if
--ificat
--ig
--igar
--igat
--ight
--ign
--igt
--ik
--ika
--il
--im
--imen
--in
--ina
--ine
--ing
--ino
--ins
--inte
--io
--iol
--ion
--iones
--ior
--ios
--iosi
--ious
--ip
--ique
--ir
--ira
--ird
--ire
--iro
--is
--isa
--isar
--isat
--isation
--ise
--ish
--isi
--ism
--isme
--isse
--issim
--ist
--iste
--istes
--istic
--it
--ita
--ite
--itiv
--ity
--ium
--iv
--ive
--iz
--j
--ja
--jc
--je
--jin
--jo
--k
--ka
--kan
--ke
--ker
--ket
--ki
--ko
--ks
--ky
--l
--la
--land
--lar
--lat
--lav
--lb
--ld
--le
--ler
--les
--lf
--li
--lia
--liga
--lim
--lis
--ll
--lla
--llar
--lle
--llia
--ln
--lo
--lon
--low
--ls
--lse
--lt
--lupe
--ly
--lz
--m
--ma
--man
--mar
--mare
--mas
--mat
--mb
--mbi
--mbre
--me
--meier
--men
--ment
--mi
--mic
--mio
--mir
--mm
--mmad
--mo
--mp
--mpf
--ms
--mu
--my
--n
--na
--nal
--nar
--nat
--nau
--nburg
--nc
--nce
--nch
--nd
--nda
--ndar
--nde
--ndo
--ndorf
--ndre
--ndy
--ne
--nel
--ner
--nes
--net
--ney
--ng
--nge
--ngen
--nger
--ngo
--ngs
--ni
--nia
--nic
--nica
--nik
--nim
--nir
--nity
--nko
--nn
--nne
--nny
--no
--nock
--ns
--nse
--nsk
--nt
--nta
--nte
--ntes
--nti
--ntia
--ntial
--ntie
--ny
--nz
--nza
--o
--oc
--oci
--oco
--od
--of
--ogie
--ografie
--oi
--ok
--ol
--ologie
--ologo
--om
--ome
--omie
--on
--onar
--ones
--op
--or
--ore
--ores
--orf
--ori
--orie
--ort
--ory
--os
--osi
--oslovak
--ot
--ote
--oto
--ou
--ous
--ov
--ovac
--ovic
--ovich
--ovo
--ow
--oy
--p
--pa
--par
--pat
--pe
--ph
--pie
--ple
--pon
--ppe
--ppo
--ps
--pt
--pta
--ptat
--pter
--quat
--que
--r
--ra
--rad
--rage
--ran
--rant
--rar
--rat
--rc
--rch
--rd
--rde
--re
--rg
--ri
--ria
--ric
--rie
--rin
--rina
--rio
--rir
--rita
--rko
--rm
--rn
--rne
--rni
--rno
--ro
--rogar
--ron
--ros
--rosi
--rra
--rs
--rse
--rt
--rte
--rut
--ry
--s
--sa
--sage
--sar
--sat
--scul
--sdorf
--se
--sel
--sen
--ser
--ses
--set
--sh
--shire
--si
--sia
--sible
--sic
--sk
--sko
--slav
--sma
--sme
--smo
--so
--son
--sor
--sp
--ss
--ssa
--ssar
--sse
--sson
--st
--ste
--ster
--sto
--stro
--su
--t
--ta
--tar
--tas
--tat
--te
--tecte
--tein
--ter
--tes
--tet
--th
--thoven
--ti
--tic
--tie
--ties
--tion
--tir
--tiv
--tive
--tle
--to
--ton
--tor
--tores
--tov
--town
--tre
--tri
--try
--ts
--tt
--tta
--ttar
--tte
--ttes
--tti
--tu
--tur
--tura
--ty
--tz
--u
--ua
--ual
--uar
--uc
--ud
--ude
--ue
--uer
--uet
--uf
--uff
--ugh
--ui
--ul
--ula
--ular
--ulat
--ule
--ult
--um
--un
--unt
--ur
--ura
--urar
--ure
--urg
--us
--ut
--utar
--ux
--v
--va
--vat
--ve
--vec
--vez
--vi
--vic
--ville
--vka
--vo
--vski
--vy
--w
--wa
--way
--witz
--wl
--wn
--ws
--x
--xe
--y
--ya
--yan
--ye
--yev
--ym
--yn
--ys
--z
--za
--ze
--zen
--zi
--zo
--zz
--ł
--а
