!
"
##0
##1
##10
##11
##12
##13
##14
##15
##16
##17
##18
##19
##2
##20
##21
##22
##23
##24
##25
##26
##27
##28
##29
##3
##30
##31
##32
##33
##34
##35
##36
##37
##38
##39
##4
##40
##41
##42
##43
##44
##45
##46
##47
##48
##49
##5
##50
##51
##52
##53
##54
##55
##56
##57
##58
##59
##6
##60
##61
##62
##63
##64
##65
##66
##67
##68
##69
##7
##70
##71
##72
##73
##74
##75
##76
##77
##78
##79
##8
##80
##81
##82
##83
##84
##85
##86
##87
##88
##89
##9
##90
##91
##92
##93
##94
##95
##96
##97
##98
##99
$
%
&
'
(
)
*
,
-
.
/
0
00
000
002
003
01
02
03
030
038
04
05
051
06
07
070
08
086
09
1
10
100
1000
101
1016
102
103
104
105
106
107
108
1086
109
11
110
1100
111
112
113
114
115
116
117
118
119
12
120
1200
121
122
123
124
125
126
127
128
129
13
130
1300
132
133
134
135
136
137
138
139
14
140
1400
1403962546
141
142
143
144
145
146
147
148
1492
15
150
1500
151
152
153
154
155
156
1568
157
158
159
16
160
1600
161
162
163
164
165
166
167
168
169
17
170
172
173
174
175
176
178
1783
179
1791
1795
18
180
1800
1809
181
1810
1816
1820
1821
1822
1826
183
1830
1840
1844
185
1851
1852
1859
186
1860
1861
1863
1864
1865
1867
187
1875
1877
1878
188
1883
1885
1888
1889
189
1890
1893
1894
1895
1898
1899
19
190
1900
1901
1903
1905
1908
1909
191
1910
1911
1912
1913
1914
1915
1917
1918
1919
192
1920
1921
1922
1925
193
1930
1932
1933
1936
1937
1938
1939
194
1940
1941
1942
1943
1944
1945
1946
1947
1948
1949
195
1950
1951
1952
1953
1954
1956
1957
1958
1959
196
1960
1961
1962
1963
1964
1965
1966
1967
1968
1969
197
1970
1971
1972
1973
1974
1975
1976
1978
1979
198
1980
1981
1982
1983
1984
1985
1986
1987
1988
1989
199
1990
1991
1992
1993
1994
1995
1996
1997
1998
1999
2
20
200
2000
2001
2002
2003
2004
2005
2006
2007
2008
2009
201
2010
2011
2012
2013
2014
2015
2016
2017
2018
2019
202
2020
2021
2022
204
205
208
209
21
210
211
212
213
214
215
216
217
218
219
22
220
221
222
223
224
225
227
228
229
23
230
231
232
233
234
235
236
237
238
239
24
240
241
242
243
244
245
246
247
249
25
250
2500
251
252
254
256
258
259
26
260
261
262
263
264
265
266
267
268
27
271
272
273
274
276
277
278
279
28
280
281
282
283
284
285
286
29
290
291
292
293
294
295
296
298
299
3
30
300
3000
301
303
304
306
309
31
313
316
317
318
319
32
320
321
322
326
327
33
330
331
332
334
335
337
338
339
34
340
341
342
347
348
349
35
350
351
352
353
354
355
359
36
360
364
367
368
37
370
373
375
376
377
378
379
38
380
385
389
39
390
392
394
395
397
398
4
40
400
4000
406
408
41
410
415
42
420
423
424
43
430
433
436
44
440
443
45
450
452
459
46
460
462
463
468
47
48
480
484
487
49
493
495
5
50
500
5000
506
508
51
510
517
52
520
521
524
526
53
530
537
54
540
541
543
55
550
553
56
560
569
57
578
58
581
586
59
590
6
60
600
6000
604
61
610
611
62
620
63
631
637
64
65
650
655
66
67
670
68
69
691
7
70
700
71
72
728
73
731
74
741
743
75
750
751
757
759
76
768
77
770
78
787
79
8
80
800
801
802
81
817
82
820
821
823
83
830
831
837
838
84
85
86
860
87
88
884
89
9
90
900
9000
91
915
92
924
93
930
94
95
950
96
97
970
978
98
980
986
99
998
:
;
<
=
>
?
[
\
]
^
_
`
a
aay
aayaw
abad
abc
abdel
abdul
abdulla
about
ac
aca
acaan
acaay
acaen
according
aci
acia
acicu
aciropayciyang
acirpayciyang
aciya
ad
ada
adada
adadaay
adama
adan
adawang
adicaw
adihay
adihayay
ading
adingan
adingay
adingo
adipangpang
adiyam
administrative
adop
adopan
adopay
adopen
aen
afa
afang
afar
afas
afasan
afelika
affairs
afghanistan
afinong
afo
afoay
afohan
africa
african
afrika
after
age
agency
agreement
ah
ahan
ai
aikor
ailis
aims
aires
aise
ak
aka
akawang
akawangay
akaway
akay
akitakit
ako
akong
aku
akuncin
al
ala
alaan
alaay
alaen
alang
alassane
alatek
alawako
albania
albert
alexander
ali
alilay
alilis
alingayay
alisanta
alishan
all
almazbek
alo
alofo
alol
aloman
alomanay
alpha
also
alu
alua
aluman
alumanay
ama
amaro
america
american
ami
amilika
amin
amirika
amis
amisan
amisay
among
amoto
amundsen
an
ana
anay
anca
ancient
and
andrzej
anengan
anengang
ang
angan
angay
angayay
angola
angrer
anhala
ani
anini
aniniay
anip
aniwan
aniyaro
ankola
ankora
ano
anoca
antika
antis
antoru
anu
ao
aol
aowang
apala
aparaham
apens
apilis
apin
apocok
apol
aporicini
apple
april
apul
aputola
arab
arabia
arapiya
araw
arawan
araway
aray
archipelago
archive
archived
arciliya
arciropayciyang
arctic
are
area
arena
argentina
arika
arikakay
ariray
ariri
arkuncin
armenia
armenian
arminiya
armoniya
aro
aroan
arpaniya
article
articles
aru
arucincin
as
asan
asanti
asay
asia
asian
asiroay
asiya
asowal
at
atambayev
atamdaw
atekak
atekakay
atilid
atlantic
atlas
ato
atolan
atolas
atomo
atoray
atu
au
auco
august
australia
australian
austria
austronesian
autonomous
autraliya
aw
awa
awaay
awaayay
awas
away
awco
awid
awol
awpiyang
awricoya
awromo
awsayti
awsiyong
awsyong
awtili
awtoman
ay
aya
ayam
ayan
ayaw
ayawan
ayaway
ayawen
ayawho
ayay
ayho
aykipto
aysaniya
ayto
azerbaijan
b
ba
babahi
babainay
background
bahamas
bahrain
bakung
baldwin
balkans
balung
banaw
bangladesh
bangsisay
bank
barbados
baron
barrow
bay
bayi
bbc
be
been
beinan
belarus
belau
belize
bellen
bellwood
belung
benin
berkeley
bhutan
bin
binawlan
black
blackwell
blhuy
blica
bolivia
bolkiah
book
books
borut
botswana
bradt
branaw
brasil
brazil
brill
britain
britannica
british
brunei
bu
buduy
buenos
bulad
bulgaria
bunka
bunun
bureau
burkina
burma
business
by
c
ca
caang
caay
caayay
caayto
cacay
cacey
cacitodong
caciyaw
cahiw
caho
caira
caka
cakat
calaw
calay
california
calowayay
cambodia
cambridge
cameron
can
canada
cang
cango
cangra
cangraan
cangranan
capa
capita
cara
carlos
cartes
cascas
castro
cate
cato
caucasus
caw
cawa
cawi
ccay
cd
cdc
ce
cecaay
cecacecay
cecay
cecayay
cedas
cefang
cekiw
cemahad
cemahaday
cen
ceng
cengel
cengo
census
centang
central
centre
cepi
cepo
ceroh
chad
changbin
change
charles
chenggong
chiayi
chicago
china
chishang
christian
chunri
church
ci
cia
ciadada
ciadadaay
ciciw
cicu
cidal
cieko
cifaloco
cifangafang
cifar
cifarfaran
cifenekay
cihak
cihanekay
ciheci
ciira
cikasoan
cikasuan
cikawasay
cikay
cikiw
cikowangay
cila
cilacila
cilafas
cilah
cilamalay
cilamitay
cilamlam
cilamlamay
cilan
cilangasan
cilangsan
cili
ciloma
cima
cimacima
cin
cinah
cinamalay
cinaw
cing
cingangan
cinganganay
cingaroan
cingra
cingraan
cingranan
ciniya
cinoya
cinping
ciociya
cipadesay
cipas
cipaysoay
cira
cirafasay
cirakayan
ciramramay
ciraraway
ciriko
ciro
cisafaw
cisafaway
cisakowanay
cisawarakay
cisyak
cita
citaneng
citanengay
citangalay
citatodongay
citay
cities
citiliday
citodong
citodongay
citolas
city
ciw
ciwawa
ciwcika
ciwidian
ciwidiyan
ciwkangan
ciwkoku
ciwlo
ciwlokiwkay
ciya
ciyak
ciyako
ciyami
ciyatayci
ciyaw
climate
clio
co
coco
codad
cohcoh
coka
cokap
colombia
com
comahad
comahaday
comikay
comikayay
committee
common
commonwealth
community
comparison
con
conflict
cong
conghuwaminko
congko
congli
congo
congress
congton
congtong
constitution
contong
convention
cooperation
copy
cordillera
coronavirus
costa
cou
council
countries
country
court
covid
cowa
cowacowa
cowacowaay
crimea
crisis
croatian
crow
cu
cuba
cudad
cuka
culiu
cultural
culture
cumikay
cun
cung
current
cuwa
cya
czech
d
da
dadahal
dadahalay
dadangoyan
dadanso
dadaya
dadayadaya
dademak
dademakay
dademaken
dadipoten
dado
daerah
dafak
dafdaf
dafon
dafong
dag
dahetal
daily
damaen
daniel
danmark
dapiyac
daren
darussalam
dasdas
data
database
dateng
dating
datong
david
dawu
day
daykako
de
deamk
death
decdec
decdecan
decdecay
december
declaration
del
demak
demakan
democracy
democratic
deng
dengan
dengay
denis
denmark
department
der
des
detay
developed
developing
development
di
diana
dictionary
didier
die
diego
difang
different
dihekoay
dihif
dimo
dingki
dingwa
dinki
dipon
dipong
dipongan
dipot
dipung
dis
disease
disposable
district
dita
division
diyong
dmak
dna
do
doci
dodang
dodo
doedo
doedoen
dofot
doi
doka
domestic
dongec
donghe
dorama
dos
dr
dramane
du
e
early
east
eastern
ec
eca
ecel
ecelay
eci
eco
ecoan
ecoaw
ecoay
ecoen
economic
economy
ecuador
ed
eda
edaan
edac
edan
edaw
edaway
eday
edef
edefay
eden
edeng
edengan
edengay
edes
edet
edetay
edip
edirne
editora
edo
edoan
edoay
edoen
edong
edu
eduardo
educational
edward
edwards
efa
efaay
eferay
efi
efong
ega
ekeng
eki
ekim
ekimay
ekong
el
elay
eli
elif
elifay
elin
elinay
elizabeth
eloh
elohay
em
eman
emanay
emang
emangay
emel
emelay
emetay
emi
emin
eminen
emirates
empire
en
enan
enar
enaw
enawan
enaway
enay
encyclopaedia
encyclopedia
encyclopædia
ended
enec
enem
enemay
enen
eneray
england
english
enkowapi
enkuima
eno
enoay
enot
epah
epoc
er
eran
eres
eritrea
erose
eso
et
etal
etan
etanan
etanay
etay
etec
etecay
etel
eten
etep
etepay
ethiopia
ethnic
eti
etip
etipan
etipay
eto
etolan
eu
europe
european
evidence
evo
evolution
expanding
f
fa
facebook
facidol
faco
factbook
facts
fadas
fadic
fadisoso
fadowac
faedet
faedetay
faelohay
fafa
fafaed
fafaeday
fafahi
fafahian
fafahiya
fafahiyan
fafokod
fafoy
fafuy
fahal
fahol
fai
fainawlan
fainayan
fakeloh
faki
fakong
fala
falang
falangaw
falanko
falawfaw
fali
falic
falicen
falidas
faliyos
falo
faloay
faloco
falohay
falucu
family
fan
fana
fanacadan
fanaw
fanawlan
fancalay
fangafang
fangcal
fangcalay
fanges
faniyot
fanter
fao
farangaw
faransu
faroco
faso
fata
fataan
fatad
faure
fawahan
fayafay
faylo
fe
february
federation
felac
felaw
felih
fenekay
fengbin
fenglin
fenla
fenlan
ferans
fernando
feylipo
ff
fi
fica
fici
fiji
fila
filip
filipin
finacadan
finawelan
finawlan
finland
fire
first
fita
fitoka
fiyafiyaw
fiyaw
flag
fo
foan
fociyaw
fodawan
fodfod
fohecalay
fohetingay
fokeloh
fokelohan
fokes
fola
folad
foladan
folalacay
folamon
folo
fololonsi
fon
fongoh
fonon
for
foreign
foting
fotingan
fotod
foundation
fowa
foyfotina
fpo
franc
france
franciya
frank
franso
fransu
frasu
free
from
fu
fucien
fula
fulad
fulansu
fuli
funafuti
fund
furansu
futing
future
fuxing
g
gambia
gdp
ge
general
geographic
george
georgia
ghana
global
gnassingbe
gni
gnis
gnp
golfe
google
gov
government
great
greece
greek
greenland
gross
group
growth
guadalcanal
guangfu
guangfun
guanshan
guanxi
guide
guillermo
guine
guinea
gulf
h
ha
haanay
haca
hacecacecay
haciliwan
hadhad
hadidi
haen
haenen
hafay
hai
haiduan
haien
haji
haka
hakal
hakasi
hakiya
hakowa
hakowaay
halafin
halafinay
halafing
halaka
halalan
halo
hamad
hamid
hamito
han
hana
hanaay
hananay
hananayi
hananom
hanany
hanay
handbook
hani
hanko
hannanay
hano
hans
hanto
hantu
haop
hapinang
hapospaw
harald
harateng
haratengen
has
hasapimaan
hasasowal
hasina
hasowal
hassanal
hata
hatini
hatiniay
hatira
hatiraay
hato
have
haw
hawai
hawaii
hawaiian
hawi
hawmi
hay
hayti
hbun
he
heads
health
heca
hecek
heci
hekal
hekalay
helen
help
hemay
hemek
hemhem
hen
henay
heneng
heni
henri
heping
herbert
herek
heritage
hery
hesaykowina
hewsen
hi
higgins
hikoki
his
historia
historical
history
hitay
hla
ho
hofi
hokiya
holam
holan
hong
hongti
hongtian
honi
honti
hontian
horac
horacio
hosi
hoti
hotian
house
housing
how
howa
howak
hoy
hoying
hsinchu
html
http
https
hualien
huan
hui
human
hungary
hwa
i
iaikor
ian
iayaway
ibrahim
ic
icang
icangay
ice
icel
icelay
icep
icowa
icowaay
icowacowa
icowacowaay
id
idek
identity
idoc
igor
ih
ihay
ihekal
ihekalay
ii
iii
iikor
iin
iing
iingkay
iinkay
ika
ikaka
ikakaay
ikararem
ikatimol
ikatimolay
ikawali
ikawaliay
ike
iked
ikemoday
ikilis
ikiris
ikol
ikor
ikoray
ila
ilako
ilaloma
ilan
ilang
ilasen
ilawacay
ilicapid
ilisapay
ilisin
ilol
ilopiya
imatini
imeng
imer
imf
imi
impic
in
ina
inanengay
inay
inayan
including
income
independence
independent
index
india
indian
indigenous
indo
indonesia
influences
infobox
information
ing
ingataay
ini
inian
iniyan
inka
inkilis
inkiris
inkolan
inni
inorong
institute
intelligence
international
intian
intiya
into
intonisiya
inuit
ipapotalay
ipiliya
ira
iraan
iraay
iraho
iraira
irairaay
irako
iran
irang
iranica
irasisa
irato
ireland
iri
iring
iro
iroma
is
isa
isaetipan
isafa
isak
isaka
isakatimol
isakatimolan
isakatimolay
isakawali
isakawalian
isaktimol
isal
isalawacan
isasifo
isawalian
isay
isbn
ised
isifo
ising
isingan
isla
islam
islamic
island
islands
iso
isopiya
israel
issn
it
ita
itali
italiya
italy
iti
itila
itini
itiniay
itinien
itinitiniay
itira
itiraan
itiraay
itiray
itiya
itiyaay
itiyaho
itiyato
itiyay
ito
its
itu
ivoire
iwatan
iyo
izzaddin
j
ja
james
january
japan
jean
ji
jianshi
jigme
jinfeng
john
johnson
jordan
jose
joseph
journal
jpg
juan
july
june
k
ka
kaadihay
kaaloman
kaawa
kabana
kabore
kacacefelisan
kacacofel
kacacofelan
kacacoli
kacakat
kacanglahan
kacemahad
kacemahadan
kaci
kacidafong
kacifaloco
kaciferangan
kacifrangan
kacihecian
kaciherangan
kacingangan
kacipinangan
kacitodong
kacomahad
kadademak
kadademakan
kadipongan
kadofah
kaeca
kaedeng
kaemahay
kaemang
kaemangan
kaemangay
kaen
kaenen
kaeso
kaetip
kafa
kafafalic
kafafalifalic
kafahalan
kafalic
kafana
kafang
kafangcal
kafekang
kafi
kafilo
kafodo
kafokilan
kafolaw
kafoti
kahacecacecay
kahadakan
kahalafin
kahaop
kahecalay
kaheciday
kahemekan
kahenayay
kahengangay
kaherekan
kahetingay
kahiceraan
kahilahila
kahirahira
kahofocan
kai
kaiki
kaikor
kailisinan
kaira
kairaan
kaisya
kaitiraan
kaka
kakaay
kakacawan
kakaenen
kakafahekaan
kakahad
kakahaday
kakahemekan
kakak
kakakaka
kakaketonan
kakalimelaan
kakangodoan
kakaolahan
kakaomahen
kakarayan
kakawau
kakawaw
kakay
kakaya
kakedalan
kakeridan
kaki
kakita
kakitaan
kako
kakomodan
kakorot
kakridan
kakurut
kala
kalaallit
kalacecay
kalacemceman
kalacongtong
kalacongtongan
kalaeno
kalafiyaw
kalaheci
kalahecian
kalahontian
kalakakeridan
kalakiin
kalala
kalalaedan
kalalecad
kalali
kalalicay
kalalifet
kalalifetan
kalalipoiingan
kalalood
kalaloodan
kalamkam
kalang
kalapahe
kalas
kalasawad
kalasowal
kalasowalen
kalawidang
kalecad
kaleponan
kali
kalifoniya
kalimelaan
kalimud
kalingadan
kalingko
kalinko
kaliomahan
kalipahakan
kalisepat
kalitang
kalitolo
kalitosa
kaliyalaway
kalo
kalocalay
kalodemak
kalokanatal
kalokitakit
kalolin
kalomanmaan
kalomaocan
kalomihecaan
kaloniyaro
kalopangangan
kalopi
kalopitahidang
kalosakowan
kalosowal
kalotamdaw
kalotong
kalowan
kamalo
kamaomahan
kamaro
kamaroan
kamay
kami
kamihamiha
kamo
kamok
kamoko
kamu
kana
kanakanavu
kananaman
kanata
kanatal
kanatalan
kanatanatal
kanatanatalan
kanca
kandaway
kang
kanga
kangdaway
kangkang
kangko
kangkofo
kangodoan
kani
kanikaran
kanikaw
kanpiya
kanpociya
kao
kaociyaso
kaohsiung
kaolahan
kaorira
kapah
kapahay
kapatay
kapatayan
kaping
kapolong
kapolonga
kapolongan
kapon
kapong
kapot
kapowa
kararaay
kararamod
kararemay
karawraw
karawrawan
kareteng
karetengay
karihaday
karipi
karipunan
karomakat
karomakatan
karopaw
karopaway
karopi
karopiriyar
karoroan
kasa
kasacalay
kasacecay
kasadak
kasadakan
kasado
kasaetal
kasafaco
kasafalifalic
kasafelaw
kasafinacadan
kasakapingan
kasakapot
kasakitakit
kasala
kasaniyaro
kasaniyaroaro
kasaopoan
kasarayray
kasarekad
kasarekarekad
kasasa
kasaselal
kasasiiked
kasasilomaloma
kasasilsil
kasasiroma
kasasiromaroma
kasasowal
kasatiwtiw
kasi
kasienawan
kasiiked
kasiyol
kaso
kasofocan
kasolin
kasoy
kasuzu
kata
katacomoli
katadamaan
katakaraw
katalawan
katata
katatekoan
katatelek
katatelekan
katatiih
katatilidan
katayal
katayalan
katayni
katefad
katelang
katelangay
katenak
katenakan
katimo
katimol
katimolan
katimolay
kato
katomireng
katomirengan
katongal
kaw
kawali
kawaliay
kawanan
kawas
kawasan
kawciyaso
kawili
kay
kayakay
kayana
kaying
kayki
kaysiya
kaysiyaan
kaysya
ke
kebalan
kelimiya
keliw
kemod
kenya
keriden
kero
keter
khalifa
khama
khesar
ki
kicai
kicay
kicic
kietecay
kifetolay
kifu
kihaw
kiin
kiing
kika
kikai
kikay
kiking
kilakilang
kilakilangan
kilang
kilemel
kilemelay
kiliw
kilo
kiloma
kim
kimad
kimpo
kin
kina
kinacecay
kinaira
kinairaira
kinapinapina
kinatolo
kinatosa
kinayra
kincac
kincal
king
kingdom
kingkiw
kingko
kini
kinian
kinis
kiniya
kiniyan
kinkay
kinko
kinpo
kiokay
kira
kiribati
kiripas
kirisito
kirisiya
kiristo
kirok
kiso
kisu
kita
kitaki
kitakit
kitakita
kitakitakit
kitakitan
kitakti
kitiraan
kitoh
kiw
kiwiko
kiwit
kiwkai
kiwkay
kiwsanto
kiya
kiyam
kiyari
kiyokay
klaus
km
ko
koco
kodasing
koen
koengel
koengelay
koetengay
kofa
kofi
kofo
kohaw
kohecalay
koheting
kohetingay
kohkoh
koin
kok
koko
kol
kolang
kolas
koli
kolimiya
kolinla
kolinlan
kolompiya
kolompo
kolong
koma
komaen
komaenay
komaylong
komi
komong
komoris
kompay
kona
kong
konga
konghetang
kongko
kongli
konglin
koni
konian
konini
koninian
konis
konko
kono
konrote
kontay
kopid
kor
kora
korapaw
korea
koreng
korira
koriya
koroasiya
koroaysiya
korociya
koroma
koror
kororato
kosi
kosofo
kosovo
kosta
kowan
kowang
kowapin
kowaping
koya
koycaw
koying
koyo
kristo
ku
kuatimala
kuheni
kuko
kuku
kuli
kulu
kuna
kunis
kupa
kupiko
kurani
kus
kuwaoing
kuwapin
kuwaping
kuwarani
kuwatimala
kuya
kuyu
kwang
kya
kyoiku
kyokai
kyokay
kyosanto
kıbrıs
l
la
lacecay
lacemcem
lacihakan
lacodad
laday
laed
laeno
lafang
lafii
lafin
laheci
lahecien
lahedaw
lahengangay
lahod
lahoday
lahok
laiyi
lakaw
lalabu
lalan
laleko
lalekoan
lalen
lalengatan
lalengawan
lalifet
lalima
lalinik
laliw
laloma
lalomaan
lalomaay
lalood
laloodan
lalosidan
lalotolotokan
lalowadan
lamal
lamit
lan
land
lang
langas
langasan
langdaway
language
languages
lansana
lanyu
laplapen
lasawad
laso
latek
latin
latowiya
law
lawac
lawacay
lawla
lay
laya
laylay
le
least
lecad
lekad
lekakawa
lekal
lekatep
lemed
lengac
lengaw
lenlen
lewis
li
lia
liawpito
library
licay
licikay
lidaw
liechtenstein
lien
lienhopaw
lifok
lifong
lihaf
likakawa
likat
like
likem
likisi
lilengawan
lilis
lilisay
lima
limaay
limaw
limecedan
lin
linay
linheko
linhoko
linin
linken
linkuang
lino
lintokin
liomah
lipahak
lipahakay
lipay
lipiliya
lipiya
lipoiing
lipoin
lipoing
lisin
lislis
list
litapangan
litawan
liteng
litengan
liyad
liyal
liyan
liyas
liyawen
liyok
lo
local
lohay
lokot
lolotok
loma
lomahad
lomaocan
lomaocay
lomowad
lonan
london
long
lonsdale
lonton
looden
los
losay
losid
lotok
lotokay
lotolotok
lotolotokan
lotong
louis
louise
low
lowad
lowan
lu
luis
luma
lusid
lutuk
luye
lwan
m
ma
maa
maala
maalaay
maalay
maamaan
maan
maaro
mabana
mabekac
macacoli
macahiway
macakat
macakatay
macalap
macara
macedonia
macelak
macelal
maceror
maci
macikayay
maciton
macmillan
maco
macowat
mada
madado
madagascar
madawdaw
madenga
madipot
mado
madoka
maedeng
maemin
maepod
mafalic
mafalicay
mafana
mafasaw
mafelih
mafodfod
mafolaw
mafolaway
maforaw
maforaway
mafulaw
maha
mahadefek
mahaen
mahaenay
mahahop
mahaop
mahaopay
mahapinang
mahapinangay
mahapingan
mahayda
mahecad
mahecaday
mahemek
mahengheng
mahenghengan
mahera
maherek
mahofoc
mahop
main
majia
maka
makadofah
makaen
makafana
makakecor
makala
makalitosa
makalitosaay
makapah
makapahay
makari
makedalay
makera
makero
maketon
makilalima
makilatolo
mako
makota
makotaay
makowan
makutaay
mala
malacafay
malacecay
malacecayay
malacinowas
malacongli
malacongton
malacongtong
malacongtongay
malacontong
malafadesay
malafi
malafiyaw
malafiyaway
malahad
malaheci
malaheciay
malahedaw
malahedaway
malahongti
malahonti
malaita
malakaka
malakakeridan
malakangkofoay
malakapot
malakapotay
malakiing
malaklak
malala
malalang
malalen
malalenay
malali
malalicay
malalifet
malalikel
malalitemoh
malaliyas
malaliyaw
malalok
malalokay
malalood
malaloong
malamicongacongay
malamikomoday
malamikotoday
malamikowanan
malamikowanay
malanikowanan
malapala
malapecih
malaplap
malasa
malasaka
malasakowan
malasapaiyo
malasawad
malasawara
malata
malatamdaw
malatapang
malatapangay
malawi
malawidang
malawidangay
malay
malaysia
malaysiya
malayta
malecad
malecaday
malecapu
malekaka
malekakaay
malekatepay
malemed
malemeday
malengat
malengaw
malepon
mali
malian
malikaka
malikakaay
malikatolo
malikelon
malikoda
malikowatay
malinah
malinahay
malingad
malingaday
malingato
malingatu
malipahak
malitemoh
malitengay
malitoloay
malitosaay
maliyana
maliyangay
maliyol
malo
malocecay
malokakaenen
malokelon
malonem
malopisak
malosakarikec
malowan
malowanay
malowid
malu
mama
mamaan
mamala
mamalakiing
mamalatapang
mamang
mamangay
mamatayal
mamelaw
mami
mamikowan
mamirocok
mamisanga
mamiselal
mamo
man
mana
manengneng
manengnengay
mang
manga
mangaay
mangaayay
mangacun
mangalay
mangalef
mangalefay
mangata
mangataay
manikaw
manikaway
manila
manmaan
mansa
manuayr
manuel
manzhou
maocor
maolah
maolahay
maoli
maolin
maomah
maomahay
maori
maoripay
maosaw
map
mapa
mapacakat
mapaci
mapacomod
mapades
mapahapinang
mapaini
mapakoniraay
mapalahedaw
mapalasawad
mapalemed
mapalit
mapalolol
mapalowad
mapangangan
mapapadangay
mapapolong
maparo
mapasadak
mapatangic
mapatateko
mapatay
mapatayay
mapateko
mapateli
mapatenak
mapatireng
mapatirengay
mapawpaw
mapawpaway
mapidah
mapili
mapolong
mapolongay
mara
maraay
maraayay
marad
marang
maraod
marapot
mararamod
mararid
marariday
maratar
marawraw
marayray
marc
march
marecep
margrethe
mari
maria
marie
marikec
marino
market
maro
maroray
maru
mary
masa
masadafdafay
masadak
masadakay
masadangahay
masado
masafa
masahadhaday
masakapotay
masakero
masakeroay
masakilac
masalipa
masamaamaan
masamaamaanay
masamaan
masamaanay
masamo
masanga
masaniyaro
masaopo
masaopoay
masapangcahay
masapinang
masapinangay
masasi
masasiroma
masasiromaay
masasiromaroma
masasiromaromaay
masaso
masasowal
masera
maserer
masiay
masidayay
masiiked
masilsil
masinanotay
masisi
masiwar
maso
masofoc
masongila
masowal
masowalay
masyalo
masyalu
masylo
mata
matafesiw
matafesiway
matahepo
matahepoay
matahidang
matakaray
matakaskar
matalaw
mataliyokay
matama
matang
matateko
matatekoay
matatilid
matatodong
matatodongay
matatoker
matatongod
matayal
matayalay
matayaray
matefad
matefaday
matekop
matelangay
matelek
matelengay
mateli
matena
matenak
matenakay
matenes
matengil
materek
mati
matilid
matiliday
matini
matiniay
matiniyay
matira
matiya
matiyaay
mato
matoa
matoasay
matomes
matongal
matongalay
matongalmatongal
matoro
matu
matuasay
maulah
mawli
mawmah
mawmahay
may
maya
mayaw
maysang
md
me
memorial
mexico
mi
miadah
miala
miaoli
mibuting
mica
micalap
micaliw
micamol
micedem
micekeroh
micekiw
micelem
michael
michel
micidekay
mico
micoker
micokeray
micolo
micomod
micomoday
micoroh
micowat
micowatan
micowatay
micronesia
midama
midamaay
midateng
middle
midemak
midemakan
midemakay
midipot
midipotay
mido
midoedo
midotoc
midotocay
mien
mifalah
mifalic
mifalicay
mifana
mifater
mifelih
mifelihay
mifolaw
mifoting
mifotingay
mifuting
mifutingay
mihaca
mihacaan
mihahinamay
mihai
mihaian
mihaiay
mihakelong
mihalaka
mihamham
mihamhamay
mihapinang
mihapiw
mihatatanam
mihawikid
mihay
mihayda
mihayi
mihayiay
mihca
mihcaan
mihea
miheaan
miheca
mihecaan
mihecahecaan
mihecahecan
mihecan
mihifalat
mihinamay
mihololay
mihwca
miilisin
miingid
miingiday
mikaenan
mikakinkiway
mikalang
mikalic
mikalicay
mikapot
mikapotay
mikari
mikarkar
mikasoy
mikayki
mikelid
mikelonisiya
mikemkem
mikerid
mikeridan
mikeriday
mikesi
miketon
miki
mikihatiya
mikihatiyaay
mikilang
mikilim
mikingkiw
mikingkiway
mikinkiw
mikinkiway
mikomod
mikomoday
mikomoris
mikoronisiya
mikotoday
mikowan
mikowanan
mikowanany
mikowanay
mikulonisya
mila
milacal
miladis
milaheci
milaheciay
milakec
milalang
milalangay
milaliw
milaliway
milanisiya
milanisya
milayap
milecad
milecaday
milekal
mili
milicay
milifet
mililis
mililisay
milimek
milimekay
milingato
militafad
military
miliyang
miliyangay
miliyas
miliyasay
miliyaw
miliyawan
million
milo
milololay
milongoc
milonokay
milood
miming
mimingay
min
mina
minanam
minanom
minato
mincu
minengneng
ming
minganganay
mingata
mingataay
mingayaw
mingodo
ministry
minokay
miocor
mipa
mipacomod
mipadang
mipadangay
mipalafang
mipalafangay
mipalasawad
mipaliwalay
mipaloma
mipalomaay
mipanay
mipangangan
mipariri
mipasadak
mipasadakay
mipasifana
mipatay
mipatayan
mipatayay
mipatireng
mipatirengan
mipatirengay
mipaypayay
mipecih
mipekpek
mipi
mipili
mipolongay
mira
miradom
miraod
mirarakat
mirarakatay
mirawraw
mirecep
mirecepay
mireko
mirikec
mirina
miriniay
miripa
mirocok
mirocokay
miropay
misa
misaadihay
misacepo
misafa
misafaloco
misafangcal
misafel
misahalaka
misaharateng
misahinahinamay
misakakahad
misakapotay
misakeru
misakilac
misakilangay
misakoli
misakristoay
misalama
misalemad
misalisin
misaliyaliyaw
misalof
misaloma
misang
misanga
misapangcahay
misasolapay
misatapang
misatapangay
misatimolay
misawad
misawidangay
misawkit
misawkitay
misetek
misi
misier
misiiked
misiikedan
misiikeday
misikitangay
misiko
misilsil
misimaway
misimsim
misingkiw
misingkiway
misinkiw
misinkiwan
misinkiway
misitapang
misiwar
misko
miso
misolap
misolapay
misongila
mita
mitahepoay
mitahidang
mitakaway
mitala
mitamek
mitanam
mitangtang
mitapal
mitatoy
mitatoyay
mitayal
mitayalan
mitedalay
miteka
mitekeday
mitelek
miteli
mitena
mitengil
miti
mitilid
mitilidan
mitiliday
mitis
mitiya
mito
mitodoh
mitodohay
mitoker
mitokeray
mitongal
mitoor
mitooray
mitopa
mitopaay
mitoro
miwakay
miwaray
miwikwik
miyen
miyien
mm
mo
modern
moetep
molalis
momkala
monciyala
monetary
moni
monkala
monko
morales
more
morocan
morocco
mosiko
mosko
most
moto
movement
mowa
mparatorlug
mu
mudan
muheca
mupasoko
music
muslim
muslin
muxtar
n
na
naci
nacional
nahaop
nai
naifaloco
naikoran
naira
naka
nakamayan
nakaw
nakawrira
nakorno
nalacolan
nama
namaka
namal
namasia
name
names
namgyel
namipiya
namo
nan
nananomen
nanay
nanengnengan
nang
nanges
nangra
nani
naniwac
naniyaro
nano
nanom
nanonanoman
nanoto
nanoya
nansirafo
nanslafo
nantingkel
nantou
nanum
nanzhuang
nao
narowan
natawran
nation
national
nations
nato
natural
nauru
naw
nawhan
nawhani
nawiro
naxc
nay
nayciliya
nchez
ndez
ne
nem
nengneng
nengnengen
nepal
net
new
news
nga
ngaay
ngafol
ngala
ngalef
ngangan
ngangasawan
nganra
ngara
ngarngar
ngasaw
ngata
ngayngay
ngiha
ngoso
ngoyos
nguesso
ni
nia
nialaan
nian
niaro
nicokaan
nicowatan
nidemakan
nightingale
nihakelongan
niira
nika
nikaenan
nikafana
nikalatamdaw
nikalecad
nikaorip
nikaorira
nikapolongan
nikar
nikaw
nikawria
nikawrira
nikeridan
niketonan
nikingkiwan
nikolic
nikowanan
nima
nin
nina
ningra
nini
ninian
niocoran
nipa
nipaliwalan
nipaloma
nipalomaan
nipangangan
nipasadakan
nipatatekoan
nipatekoan
nipatirengan
nipili
nipol
nira
nisa
nisafaloco
nisaharatengan
nisanga
nisapangaan
nisatekedan
nisinkiwan
nisofocan
nisowalan
nitahepoan
nitayalan
nitilidan
nitoro
niw
niwcilan
niwkiniya
niwsilan
niya
niyah
niyahan
niyahpikowan
niyahsakowan
niyalo
niyam
niyan
niyao
niyar
niyaro
niyaroaro
niyaru
no
noafilika
noasiya
nocikiw
noheni
nokitakit
non
nona
noni
nonini
noniyah
nonotimolan
noosiniya
nora
nornor
north
norway
norwi
nos
not
notes
notimolan
noto
november
nowalian
noya
noyoropi
nu
nui
numita
nuna
nunaat
o
oc
ocay
ocean
oceania
ocia
ociya
ocor
ocoren
october
od
odang
odax
odeng
odengan
odo
odot
of
ofad
office
official
ohong
ois
ok
okak
okakay
okang
okusto
okuwato
ol
ola
olah
olahan
olalip
olanta
olaw
olay
olic
olicay
olimpiko
omah
omaomahan
omar
on
ona
one
oner
ong
ongan
ongay
ongcoy
oni
onian
onini
oninian
online
ono
onsing
onto
ontokay
op
opec
openstreetmap
opih
opiyito
opo
opoan
or
ora
orad
oradan
oraday
orama
oran
orasa
orasak
orasaka
oray
org
organization
ori
oricoya
origins
orip
oripan
oripay
orira
oro
oroma
orong
orthodox
os
osaw
osaway
osi
osian
osien
ostorariya
ot
otan
otay
oteng
other
otoc
otoman
ouattara
outlook
over
owac
oway
oxford
oy
oya
oyan
oyanan
p
pa
paca
pacafay
pacakat
pacakay
pacamol
pacamolen
pacarcar
pacarcaran
pacarcaray
pacefong
pacekis
paci
pacidal
pacific
pacimir
pacomod
pacomodan
padahof
padaka
padama
pades
padeteng
pado
paeno
pafaliya
pafeli
pafelien
page
pahama
pahanhan
pahanhanan
pahapinang
paherek
paherekan
pahicera
pahiceraan
pahikukian
pahor
pahpah
paifaloco
paini
painian
paisingan
paiteked
paiwan
paka
pakaala
pakaalaay
pakaen
pakaenay
pakaenen
pakafana
pakafilo
pakahadidi
pakalayap
pakalowid
pakamaro
pakanengneng
pakaolah
pakapi
pakara
pakarongay
pakaso
pakatahira
pakatama
pakatayal
pakatengil
pakatengilay
pakayni
pakayniay
pakaynien
pakayra
pakayraan
pakelang
paki
pakifo
pakimad
pakistan
pakitinien
pako
pakonira
pakotang
pakoyoc
pala
palaan
palaay
palacecay
palaciro
palafadesay
palafang
palafangay
palaheci
palakaw
palakolien
palalan
palalid
palalifetan
palamitan
palapala
palapalaan
palapalan
palapatan
palasawad
palasawaden
palau
palaw
palgrave
pali
palidaw
paliding
palimo
palitemek
paliwal
paliwalay
paliyaw
palo
paloma
palomaan
palosiyang
palowad
paluma
palumaan
pamatang
pan
pana
panama
panay
pancah
panganga
pangangan
panganganen
pangcah
pangcapangcahan
pangkalatis
pangkiw
panglien
paniyaro
paniyaru
panokay
panto
papa
papah
papakayra
papasifana
papelo
papi
papina
papinang
papinapina
papisanga
papito
papitoay
papo
papolong
papotal
papotalay
papua
paputa
papuwaniwkiniya
para
paraguay
parakat
parakatay
parakuay
parana
paranaan
pararid
paratoh
paratohay
parayray
parik
parin
pariri
paris
parish
park
parkan
parliament
paro
parod
parok
paror
part
parur
pasa
pasadak
pasadakan
pasadakay
pasasela
pasasotili
pasatimol
pasawali
pasawalian
pasawaliay
pasayra
pasetek
pasi
pasifana
pasinto
pasipapotal
pasitimol
pasitira
pasitiraay
pasiwali
paso
pasowal
pasu
pasubana
pasuwal
patahekal
patahtah
patahtahay
patalahekal
patalaw
pataloma
patateko
patatekoan
patatiko
patatikol
patatikor
patatodong
patay
patayen
patayra
patayraen
patedo
patek
patekoan
pateli
patelian
patelien
patenak
patenakay
paterep
paterungan
patiko
patikolen
patinako
patinakohan
patireng
patirengan
patirengay
patirengen
patiyamay
pato
patodong
patokeled
patokitok
patongal
patoro
patorod
patosokan
paul
pawacay
pawciliya
pawciyaliya
pawli
pawlo
pawpaw
pawti
paya
paycantin
payci
payniyaru
payrang
payso
paysoan
paytemek
payworos
pdf
peace
pecih
pecihan
pecihay
pecihen
pecihkanatal
pedro
people
peoples
per
persian
perspectives
peru
peter
peylon
philip
philippe
pi
piala
pialaan
piceleman
picin
picodadan
picoker
picomod
picomodan
picowat
pida
pidama
pidemak
pidipot
pido
pierre
pifalic
pifelih
pifoting
pifotingan
pihaceng
pihai
pihapinang
piharateng
pihayda
pihayi
pihiratengan
pihololan
piilisinan
pikacawan
pikadkad
pikaikian
pikali
pikapot
pikarkar
pikaykian
piketon
piki
pikihar
pikilim
pikingkiw
pikowan
pikowanan
pilafinan
pilalang
pilekal
pili
pilifet
pilipayan
pilisi
pilisinan
pilisu
piliyas
pilolol
pilongoc
pilood
pin
pina
pinaay
pinalengaw
pinaloma
pinan
pinanam
pinanaman
pinanay
pinang
pinangan
pinanowang
pinapina
pinasanga
pinengneng
pinengnengan
pinfang
ping
pingodo
pingtung
pinocito
pipa
pipadama
pipadang
pipahosoan
pipalasawad
pipaloma
pipalomaan
pipangangan
pipariri
pipateli
pipatireng
pipenec
pipolongan
pirecep
piro
piru
pisa
pisacacak
pisacepo
pisafaloco
pisahapinang
pisakakinih
pisakilac
pisalaan
pisalama
pisalamaan
pisalifong
pisalisin
pisalisinan
pisanga
pisaopoan
pisapala
pisatapang
pisatapangan
pisawad
pisawadan
pisawidang
pisawkitan
pisetek
pisiiked
pisiikedan
pisikitangan
pisilsil
pising
pisinkiw
pisinkiwan
pisirian
pisiwar
piso
pisolap
pita
pitahidang
pitanaman
piteked
pitengil
piti
pitilid
pitilidan
pito
pitoay
pitoker
pitolas
pitoor
pitooran
pitopa
pitoro
pitu
piwikwik
piwma
piyoma
piyuma
plalan
pmc
pmid
po
pocana
poco
pocok
podac
podle
poinosayris
pokinafaso
pokirna
pokpok
polaciro
polan
polar
polasa
pole
policy
polinisiya
polinisya
polipiya
political
politics
polo
polon
polong
polongan
polongen
poloti
pongodan
ponka
popor
population
poracir
port
portal
portokaru
posi
posimiya
posiniya
posinto
posko
posong
posongay
post
potal
potawya
potipot
potofolika
potokaru
poverty
povijest
power
powers
pp
pre
president
presidential
press
prince
product
programme
project
prospects
ptireng
pu
publications
publique
publishers
publishing
pukpuk
pulu
punka
puracir
putan
putin
puyuma
q
qalang
qoyaw
quri
qus
r
ra
raay
radama
radiw
rahaw
rahoday
rajaonarimampianina
raka
rakarakaan
rakarakan
rakat
rakaten
ranafalona
rangay
ranikay
rapa
rara
rarakaten
raramod
raraw
raraya
rarokoh
rarom
rate
ratoh
rau
raw
rawang
rawraw
ray
rayray
re
real
recep
record
records
region
regional
regions
rekad
religion
religions
religious
remes
remi
remiad
ren
rengorengosan
rengos
report
repu
republic
republika
research
respublikası
results
retrieved
reuters
review
revolution
ri
rica
richard
rights
rihaday
rihadayay
rika
rikec
rikis
rikisi
riko
rinahem
rio
rip
ripon
ripun
riri
riris
ritecay
river
riya
riyad
riyal
riyar
riyaran
riyaray
riyariyaran
riyaro
rk
ro
robert
roc
roch
rock
rocok
roma
romaan
romaay
romadiw
romadiway
romakat
roman
romaniya
romaroma
romasato
romi
romiad
romo
rorang
roray
ros
rosiya
rosya
rouhani
routledge
roy
roytin
rs
ru
ruisui
rukai
ruma
rumi
russia
russian
ruysuy
s
sa
saadihay
saadihayay
saalomanay
saamisan
saan
saanay
saawaay
saayaway
sabah
sabaw
saca
sacecay
saci
sacisowal
sackih
sada
sadama
sadipongan
sado
sadoa
saetip
saetipan
safa
safang
safangcalay
safaw
safeleng
safitay
safulo
sahala
sahara
saheto
sahetoay
saho
sahtu
sai
said
saikor
saikoray
saint
sak
saka
sakaay
sakaca
sakacaay
sakacakat
sakacecay
sakacemahad
sakaci
sakacomahad
sakadademak
sakaenem
sakaetip
sakafalo
sakafana
sakafangcal
sakaira
sakakaay
sakakahad
sakakahaday
sakakay
sakakinacecay
sakakinatolo
sakakinatosa
sakalacecay
sakalalifet
sakalalood
sakalima
sakamaomah
sakamoetep
sakamoto
sakanga
sakangaay
sakaorip
sakapatay
sakapito
sakapot
sakarakat
sakarihaday
sakasaan
sakasasowal
sakasepat
sakasiwa
sakatadamaan
sakatayal
sakatayra
sakatimol
sakatimolan
sakatimolay
sakatolo
sakatosa
sakavakat
sakawaian
sakawali
sakawalian
sakawaliay
sakero
saki
sakiilisin
sakilisin
sakitini
sakizaya
sako
sakowan
sala
salaloma
salawacan
salawinawina
salawyie
salikaka
salikulay
salipahak
salisin
salitek
salman
salo
salong
salongan
salongoc
salvador
sama
samaanen
samana
samanen
samanikaway
samatelangay
samatiya
sami
samoa
san
sanaay
sananay
sanany
sanaw
sanay
sandimen
sanga
sangfota
sano
sanoyanan
santa
santilla
santos
sao
saop
saopo
saowac
sapa
sapad
sapadang
sapaiyo
sapakaen
sapal
sapalemed
sapaloma
saparakat
sapat
sapatireng
sapato
sapi
sapiadah
sapicowataw
sapidemak
sapidipot
sapifalicaw
sapifelihaw
sapikapotaw
sapikowan
sapikpik
sapilaheciaw
sapili
sapiliyasaw
sapiliyawaw
sapilood
sapipa
sapipalasawad
sapipalasawadaw
sapipasifana
sapipatirengaw
sapisa
sapisalisin
sapisang
sapisanga
sapisiikedaw
sapisongila
sapitilid
sapitolon
sarad
sarakarakat
sarakat
sarakatay
saranawan
sarawa
sarikec
saripa
sarwato
sasa
sasafaay
sasan
sasanga
saselalan
sasepat
sasi
sasifo
sasifoan
sasing
sasiroma
saso
sasonien
sasowalen
sassou
sata
satadamaan
satadamaanay
satakaraway
satapang
satapangan
satata
satelangay
satimalan
satimol
satimolan
satimolay
satimulan
sato
satoko
satopa
satu
saudi
saw
sawa
sawad
sawali
sawalian
sawaliay
sawara
sawarak
say
sayercu
saylasi
sayniciyar
saypuruso
sayrwiya
saysiyat
schengen
science
scientific
scott
se
sea
security
sedak
see
seediq
sefi
sekal
sekalay
selafo
selal
sema
semosemotan
semot
sen
sena
sengan
sepaniya
sepat
sepatay
september
sera
serangawan
seray
serayan
serbia
set
setan
sewahili
sex
seyhu
shitan
shizi
shoufeng
shqipe
shu
si
siang
sicang
sici
sician
sidemak
sie
sieci
siecian
sietominko
sifana
sifo
sifoan
sifoay
siiked
siikeday
sikal
sikawasay
sikyo
sila
silisiling
silsil
silsilen
sima
simal
simon
simpon
sin
sinafel
sing
singangan
singkiw
singko
singpon
singsi
siniyaro
sinkiw
sinkiwen
sinpo
sinpon
sipakayni
sipangya
sipanya
sipon
siri
sirpiya
sisa
site
sitoni
siwa
siwkolan
siwkolang
siwkulan
siy
siya
siyakay
siyang
siyaw
siyen
siyoto
ska
skakaay
skantinawiya
slafo
slafu
slamaw
slofako
slovakia
smangus
so
soci
social
society
sofita
sofitay
sofitayan
sofoc
sofocen
soka
sokoy
soli
solin
solinan
solitaycin
solomon
soloysi
somaliya
somowal
somowalay
son
song
songila
songs
soni
sonni
sopa
sosi
sota
sotan
sotok
south
southeast
southern
sowa
sowal
sowalen
sowiay
sowla
spat
spo
sq
sra
st
standard
state
states
statistics
sterreich
sto
stokormo
stone
stub
studies
study
su
sudan
sulinay
suomen
sur
suwal
sweden
swietochowski
syakai
syakaisyuki
syakay
syakaysyuki
syang
syangyahaian
syen
syien
syongyali
syoto
syuto
t
ta
tada
tadaadihay
tadafakeloh
tadafangcal
tadafangcalay
tadafokeloh
tadakalimelaan
tadakolong
tadamaan
tadamaanay
tadamahapinang
tadangangan
tadatata
tadem
tadeusz
tado
tafa
tafalon
tafalong
tafedo
tafo
tafok
tafolod
tafotafokan
tafugan
taha
tahamatini
tahanini
tahapinangan
tahepo
tahidangen
tahini
tahira
tahiraay
tahiti
tahomi
tai
taichung
taimali
taini
taipei
taitung
taiwan
taiwu
taka
takanua
takaraw
takaraway
takaray
takaw
takay
takenip
takidis
takofan
takomod
takora
takraway
tala
talacay
talacowa
talacowacowa
talahekal
talalotok
talatimol
talaw
talawadaw
tali
talihocan
talipan
taliyok
taliyokan
taliyokay
talo
taloan
talod
taloko
talolong
talolongay
tama
tamadaw
tamako
tamdamdaw
tamdaw
tamdawan
tamedaw
tamina
tamiyanan
tamorak
tampiya
tamtamdaw
tan
tandaw
taneng
tanengnengan
tang
tangal
tangasa
tangila
tangsa
tangsol
tangsolen
tangsolsol
tanmay
tano
tao
taoyuan
tapan
tapang
tapangan
tapelik
tapolo
taporo
tapowaray
tara
tarakaw
tarawa
tarawadaw
tarokos
tasiyang
tasmaniya
tat
tata
tatakosan
tatan
tatapang
tatapangan
tataparan
tataw
tatayalen
tatelecan
tatelek
tati
tatihi
tatiih
tatiihay
tatipelok
tatirengan
tato
tatodong
tatokem
tatokian
tatolo
tatoloay
tatootoor
tatosa
tatosaay
tatudung
taur
taw
tawinaan
tay
tayal
tayamonto
tayan
tayar
tayhi
tayhin
tayhira
taykako
taykaku
tayko
tayla
taylor
taynan
tayni
tayniay
tayno
taypak
taypiaw
taypinyang
tayra
tayraay
taywan
taywanay
te
tedi
tefo
tefon
tefos
teked
tekedan
telang
teli
teloc
temer
teng
tengilen
tep
term
terra
territories
th
that
the
their
there
this
thumb
ti
tica
tida
tiftif
tikoliniya
tikoroy
tilid
tilidan
tilifi
tilifit
times
timol
timolan
timolay
timor
tin
tina
tinako
tingalaw
tingnaw
tingsikiw
tingting
tini
tiniay
tinki
tinsikiw
tinsikyo
tinsokiw
tipogra
tira
tiraay
tireng
tiring
titaanan
titi
tito
tiya
tiyad
tiyaho
tiyako
tjukuvulj
tmadaw
to
toci
tocila
toda
todohen
todong
todongay
togo
togolaise
toi
toic
toikor
tokai
tokay
toker
toki
toko
tokos
tokotokosan
tokyo
tolak
tolamokang
tolas
tolo
toloay
tomay
tomdaw
tominika
tominiko
tomireng
tomirengay
tomok
tomuk
ton
tona
tonaw
toncen
tong
tonga
tongal
tongatapu
tongka
tongroh
toni
tonian
tonika
tonini
toninian
tono
tony
toor
tooren
tora
torik
toris
torki
toro
toron
toronto
tosa
tosaay
tosay
tosiya
total
tourism
towaso
toya
toyanan
trade
transparency
travel
treaty
truku
trump
tu
tudung
tufalu
tufuga
tuki
tulik
tulu
tumuk
tuna
tunisiya
tunu
tuper
turik
turkey
tusa
tutu
tuvalu
tuwa
tuyu
tw
u
uk
ukang
ukolan
ukraine
ulay
umah
un
undu
unesco
ung
unian
union
united
university
upadhyay
upu
urakuay
urip
uruma
us
use
used
usgs
ut
v
va
valjulu
van
vanuatu
ve
vi
victor
vienna
vladimir
vol
volume
von
vp
w
wa
waay
wacay
waco
waddaulah
wadis
waitangi
wakawak
wali
waliay
walong
walu
wama
wan
wang
wangchuck
wannatu
wanrong
war
was
washington
wata
wataay
wawa
wawawawa
way
wayway
wb
web
website
well
wen
wenlay
west
western
who
wiayla
widang
widi
wiki
wikipedia
wikipitiya
willem
william
win
wina
winaan
winoyroyla
with
witi
wiyiena
world
writing
wu
wufeng
wukolan
wulai
wutai
www
x
xi
xincheng
xinyi
xiulin
y
ya
yaho
yahoo
yala
yamakami
yameen
yamen
yami
yaminiya
yan
yanan
yang
yangminsan
yanping
yanukowici
yap
yaque
yaw
yaway
ye
year
yen
yi
yienan
yieso
yilan
yin
yincomin
yincumin
yincuminco
yincumincu
yincuming
ying
yiniwto
yis
yiso
yisoan
yo
yofayof
yohani
york
yoropa
yoropaay
yosang
yotaya
you
yu
yuchi
yuencumin
yuli
yutak
yutaya
z
zagreb
zealand
zh
zhuoxi
zihing
|
~
«
°
²
´
·
º
»
ıvan
ʹ
ʻ
ʾ
ʿ
˚
̀
́
̂
̃
̄
̆
̇
̈
̊
̋
̌
̍
̓
̔
̣
̥
̧
̨
̱
͂
ͅ
α
β
γ
ε
θ
κωνσταντινου
ν
ο
ς
в
года
и
мир
н
на
о
република
республика
россии
ская
советская
социалистическая
у
ъ
י
ا
الا
ة
ر
ل
ن
َ
ُ
ِ
ّ
ْ
ٓ
ٔ
ٕ
ं
क
ट
त
भ
ल
व
श
स
ा
ि
ी
ृ
े
ो
्
গ
চ
জ
ন
ব
ম
য
র
া
ি
ু
্
༈
་
ག
ང
ད
ན
པ
ཕ
བ
མ
ར
ས
ཧ
ཱ
ི
ུ
ེ
ོ
ྒ
ྱ
င
ည
တ
န
ပ
မ
ာ
ု
ေ
း
်
ြ
ជ
ណ
ប
ព
រ
ា
ុ
េ
ះ
្
‌
‎
–
—
‘
’
“
”
•
…
‧
′
℃
№
ⅰ
ⅱ
→
↔
↷
−
③
④
⑦
─
ⵉ
ⵏ
⺀
⺄
⺆
⺈
⺊
⺌
⺕
⺝
⺸
⺼
⿰
⿱
⿲
⿳
⿴
⿵
⿶
⿷
⿸
⿹
⿺
⿻
、
。
〆
〈
〉
《
》
「
」
『
』
【
】
〝
〞
〢
あ
い
う
え
お
か
き
く
け
こ
さ
し
す
せ
そ
た
ち
っ
つ
て
と
な
に
ね
の
は
ひ
ふ
へ
ま
み
め
も
や
ゅ
ゆ
よ
ら
り
る
れ
ろ
を
ん
゙
゚
ァ
ア
イ
ゥ
オ
カ
キ
ク
ケ
コ
サ
シ
ス
セ
タ
ッ
ツ
テ
ト
ナ
ニ
ネ
ノ
ハ
ヒ
フ
ヘ
ホ
マ
ミ
ム
メ
モ
ャ
ュ
ユ
ラ
リ
ル
レ
ロ
ワ
ン
・
ー
㇁
㇂
㇄
㇇
㇈
㇉
㇓
㎢
㐁
㐄
㐅
㐌
㐫
㐬
㐭
㐮
㐱
㑒
㒵
㒸
㒼
㓁
㓞
㔾
㕛
㕣
㖾
㘝
㚅
㚇
㚔
㚘
㛧
㝉
㝡
㝴
㝵
㞋
㞢
㞷
㠩
㠭
㠯
㡀
㡭
㡿
㢲
㢴
㣇
㣺
㥯
㪅
㫄
㫐
㫒
㫺
㬅
㬎
㬥
㬰
㲋
㳄
㷠
㸒
㸚
㸦
㼌
㼲
㽞
㿟
䀠
䂞
䍃
䏍
䒑
䖍
䖒
䖝
䖵
䙴
䚻
䜌
䝿
䡛
䧹
䪞
一
丁
丂
七
丄
丅
丆
万
丈
三
上
下
丌
不
与
丏
丐
丑
专
且
丕
世
丘
丙
业
东
丞
丢
丣
两
严
並
丨
丩
个
丫
丬
中
丮
丰
丱
串
丵
丶
丷
丸
丹
为
主
丽
举
丿
乀
乂
乃
久
乆
乇
么
义
之
乌
乍
乎
乏
乐
乑
乔
乖
乗
乘
乙
乚
乛
乜
九
乞
也
习
乡
书
乳
乾
亀
亅
了
亇
予
争
事
二
亍
于
亏
亐
云
互
亓
五
井
亘
亚
些
亜
亞
亟
亠
亡
亢
交
亥
亦
产
亨
亩
享
京
亭
亮
亯
亰
亲
亳
亶
亷
人
亻
亼
亾
什
仁
今
介
仌
从
仐
仑
仒
仓
仔
仕
他
付
仙
仝
代
令
以
仰
仲
件
任
份
企
伊
伏
伐
休
会
传
伦
伯
估
但
位
低
住
佐
体
佔
何
佘
余
佛
作
你
佥
佩
佳
使
來
侈
例
侌
侖
供
依
侯
侵
便
促
俄
俗
保
俞
信
修
俱
倉
個
倍
們
倒
候
借
倠
倫
值
假
做
健
偶
傅
傑
備
傳
僅
僉
像
僕
儀
儂
億
優
儿
兀
允
兂
元
兄
充
兆
兇
先
光
兊
克
兌
免
兑
兒
兓
兔
党
兜
兟
入
內
全
兩
兪
八
公
六
兮
兰
共
关
兴
兵
其
具
典
兹
兼
冀
冂
冃
冄
内
冈
冉
冊
冋
册
再
冎
冏
冐
冒
冓
冖
冗
冘
军
农
冝
冠
冡
冥
冫
冬
冰
决
况
冷
准
凍
几
凡
凢
凰
凱
凵
凶
凷
凸
凹
出
击
函
凾
刀
刁
刂
刃
刄
刅
分
切
刊
刍
刑
刕
刖
列
刘
则
初
別
利
别
到
制
刷
刺
則
削
剌
前
剛
剡
副
割
創
剽
劃
劉
劍
力
功
加
劦
助
努
劫
劳
劵
勃
勇
勉
勒
動
務
勝
勞
勢
勤
勹
勺
勻
勾
勿
匀
匂
包
匆
匈
匊
匋
匍
匕
化
北
匚
匝
匡
匪
匯
匱
匸
匹
区
医
匽
匿
區
十
卂
千
卄
卅
卆
升
午
卉
半
卌
华
协
卑
卒
卓
協
单
卖
南
博
卜
卝
卞
占
卡
卢
卣
卤
卦
卩
卪
卫
卬
卯
印
危
即
却
卵
卷
卸
卻
厂
厃
厄
历
厈
厉
厌
厓
厘
厚
原
厤
厥
厨
厭
厲
厶
厷
厸
去
厼
厽
叀
参
參
叅
又
叉
及
友
双
反
叐
发
叒
叔
叕
取
受
叚
叜
叟
叡
叢
口
古
句
另
叩
只
召
叭
可
台
叱
史
右
叵
号
司
叹
吁
吂
吃
各
吅
合
吉
吊
吋
同
名
后
吏
吐
向
吕
君
吝
吞
否
含
启
吳
吴
吹
吾
呂
呆
呈
告
员
呙
呢
周
味
呼
命
咅
和
咎
咖
咠
咢
咨
咪
咸
咼
哀
品
哇
哈
哉
員
哥
哨
哪
哲
哺
唐
唱
商
啇
問
啓
啚
啡
啬
啻
喀
善
喜
喬
單
喳
喻
喿
嗇
嗡
嗨
嘉
嘎
嘟
嘴
器
噩
噯
噶
嚴
囊
囗
囘
囙
囚
四
回
囟
因
団
囧
囬
困
囱
囷
固
国
圂
圃
圅
圈
國
圍
園
圓
圖
團
土
圡
圣
圥
在
圭
地
圶
圼
坂
均
坐
坑
坒
坚
坡
坤
坦
坪
坴
坵
垂
型
垔
垚
埀
埃
埋
城
埔
域
埠
埤
埶
執
培
基
堂
堅
堆
堇
堡
堯
報
場
堺
塔
塞
塩
塱
境
增
墨
墩
壁
壇
壓
壘
士
壬
壯
声
壳
壴
壹
壺
壽
夂
处
夅
夆
备
変
夊
夋
夌
复
夏
夒
夕
外
夗
夘
多
夜
夢
大
夨
天
太
夫
夬
夭
央
失
夲
头
夷
夸
夹
夻
夾
奂
奄
奇
奈
奉
奎
奏
奐
契
奓
奔
奕
奚
奞
奠
奢
奥
奧
奭
女
奴
奻
好
如
妄
妙
妟
妥
妹
妻
妾
姆
始
姑
委
姜
威
娃
娄
娜
婁
婆
婚
婞
婭
婴
婻
媒
嫩
嬰
嬴
子
孑
孔
孕
孖
字
存
孚
孛
孝
孟
季
孤
学
孩
孫
孱
學
宀
宁
宂
它
宅
宇
守
安
宋
完
宏
宓
宗
官
定
宛
宜
宝
实
実
客
宣
室
宮
宰
害
家
容
宾
宿
寄
寅
密
富
寒
察
實
寧
寨
審
寫
寬
寮
寶
寸
对
寺
寻
寽
対
寿
封
尃
射
将
將
專
尉
尊
尋
尌
對
導
小
少
尒
尓
尔
尖
尗
尚
尞
尢
尣
尤
尧
尨
尭
就
尸
尹
尺
尻
尼
尽
尾
尿
局
居
屆
屈
屋
屎
屏
屑
展
屖
屚
属
屠
屡
屬
屮
屯
屰
山
屵
屾
岁
岂
岑
岛
岡
岩
岳
岸
峯
峰
島
峽
崁
崇
崎
崑
崔
崖
崗
崙
崩
崮
嵐
嵬
嶲
嶺
嶼
巂
巍
巒
巛
川
州
巟
巠
巡
巢
巤
工
左
巧
巨
巩
巫
差
己
已
巳
巴
巷
巸
巽
巾
巿
帀
币
市
布
希
帕
帚
帛
帝
带
師
席
帶
常
幕
幣
幫
干
平
年
幵
并
幷
幸
幹
幺
幻
幼
幽
幾
广
広
庄
庇
床
序
底
店
庚
府
度
座
庫
庭
庶
康
庸
廉
廌
廖
廛
廠
廢
廣
廩
廬
廳
廴
延
廷
建
廾
廿
开
弁
弃
弄
弇
弋
式
弓
弔
引
弗
弘
弜
弟
弥
弦
弱
張
強
强
彊
彌
彎
彐
彑
当
彔
录
彖
彗
彙
彡
形
彥
彦
彧
彩
彭
影
彳
役
彼
往
待
很
律
後
徒
得
徙
從
復
微
徵
德
徹
心
忄
必
忌
忍
志
忙
忝
忠
忩
快
念
忽
忿
怕
思
怠
急
性
怱
总
恆
恒
恨
恩
恭
息
悉
悟
悠
患
悤
悲
悶
情
惑
惠
惡
惢
想
愁
愈
意
愚
愛
感
慈
態
慕
慣
慧
慮
慶
憂
憲
憶
應
戀
戈
戉
戊
戋
戌
戍
戎
成
我
戒
戔
或
戚
戠
戢
戦
截
戰
戲
戴
戶
户
戸
戹
戼
戾
房
所
扁
扇
手
扌
才
扎
打
托
执
批
承
技
投
抗
折
抬
抵
拉
拔
拜
括
拼
拿
持
指
按
挪
振
捷
掌
排
採
接
控
推
提
揚
握
揭
援
摩
撈
撒
撤
播
擊
擔
據
擬
擴
擺
攝
支
攴
攵
收
攸
改
放
政
敄
故
效
敏
敕
敖
敗
敘
教
敝
敞
敢
散
敦
敫
敬
数
整
敷
數
斂
文
斉
斊
斌
斐
斗
料
斤
斥
斩
斬
斯
新
斷
方
於
施
斿
旁
旅
旋
族
旗
无
旡
既
旣
日
旦
旧
旨
早
旬
旭
旮
旱
旲
时
旺
旾
昂
昆
昇
昉
昌
昍
明
昏
易
昔
昗
昜
星
春
昬
昭
是
昱
昴
昷
時
晃
晋
晏
晚
晨
普
景
晶
智
暉
暑
暖
暗
暨
暮
暴
暹
曇
曩
曬
曰
曲
曳
更
曷
書
曹
曼
曾
替
最
朁
會
月
有
朋
服
朔
朕
朗
望
朝
期
木
朩
未
末
本
札
朮
术
朱
朵
朶
朿
杀
杉
李
杏
材
村
杓
杜
束
条
来
杭
杰
東
杲
杳
松
板
枋
析
枕
林
枚
果
枝
枲
架
枼
柄
柏
某
柔
柚
查
柬
柯
柰
柱
柳
柴
査
标
栗
校
核
根
格
栽
桀
桃
案
桐
桑
档
桶
桼
梁
梅
條
梟
梧
梨
梭
梯
梵
棉
棒
棕
棘
棚
棠
棥
棧
森
植
椎
椰
楊
楓
楚
楠
業
楽
概
榔
榮
榴
構
槓
樂
樊
樓
標
樟
模
樣
権
樸
樹
橋
橘
橙
機
橫
檔
檢
檳
櫓
櫚
櫻
權
欠
次
欣
欧
欮
欲
欶
欽
款
歆
歇
歌
歐
歛
歡
止
正
此
步
武
歨
歪
歮
歯
歰
歲
歴
歷
歸
歹
歺
死
殳
段
殷
殸
殹
殺
殻
殼
殿
毅
毋
毌
母
每
毒
比
毕
毚
毛
毳
氏
氐
民
气
氣
氧
氨
水
氵
氶
氷
永
氺
氾
求
汎
汗
汝
汞
江
池
汤
汶
決
沃
沈
沓
沙
沝
没
河
油
治
沼
沿
況
泉
泊
法
泛
波
泣
泥
泰
洋
洛
洞
津
洪
洲
活
洽
派
流
济
浦
浩
浪
浮
海
浸
涅
消
涌
涵
涼
淑
淖
淡
淮
淳
淵
混
清
済
渚
渠
渡
港
湖
湯
湳
湾
源
準
溪
溫
滅
滋
滿
漁
漂
漏
演
漠
漢
漸
潔
潘
潭
潮
澤
澱
澳
濕
濘
濟
濱
瀧
瀾
灣
火
灬
灭
灰
灵
灶
灷
災
炅
炎
炏
炒
炗
炙
炭
点
為
烈
烏
烝
烤
烷
焉
焚
無
焦
焱
然
煋
煞
煤
照
煮
熊
熏
熱
燒
燕
營
燮
燻
爆
爐
爪
爫
爭
爯
爰
爱
爲
爵
父
爺
爻
爽
爾
爿
牆
片
版
牌
牙
牚
牛
牜
牟
牡
牢
牧
物
牪
特
牽
犀
犬
犭
犮
状
狀
狂
狄
狊
狗
狩
独
狺
猋
猒
猪
献
獄
獅
獠
獨
獲
獵
獻
玄
率
玉
王
玟
玨
玻
珊
珍
珎
珠
班
現
球
理
琳
琴
瑞
瑟
瑤
瑩
瑪
瑯
璉
璞
璦
環
瓜
瓦
甘
甚
生
產
産
用
甫
甬
田
由
甲
申
电
甶
男
甸
甹
画
甾
畀
界
畏
畐
留
畜
畟
畢
略
畧
畨
番
畫
異
畱
當
畺
畾
疊
疋
疌
疑
疒
疫
疾
病
症
療
癌
癶
癸
癹
発
登
發
白
百
皀
皃
的
皆
皇
皋
皐
皕
皮
皷
皿
盃
盆
盇
盈
益
盍
盎
监
盒
盖
盛
盟
盡
監
盤
盧
目
直
相
盾
省
眇
眉
看
眔
眞
真
眷
眼
眾
着
睘
督
睪
睿
瞏
瞢
瞿
矍
矛
矞
矢
矣
知
矦
矩
短
石
砂
研
破
碇
碎
碑
碧
碩
碳
確
碼
碾
磊
磨
磯
磷
礦
示
礻
礼
社
祆
祈
祖
祝
神
祟
祥
票
祭
祿
禀
禁
福
禮
禱
禸
禹
禺
离
禽
禾
禿
秀
秃
秉
秋
科
秘
秝
秦
称
移
程
稟
種
稱
稻
稿
穀
穆
穌
積
穗
穴
究
穹
空
穿
突
窄
窒
窟
窩
立
竒
站
竜
竝
竟
章
童
端
竹
笑
笙
笠
第
筆
等
答
策
签
箕
算
管
箱
箴
節
範
篇
築
篤
篭
簡
簿
籍
米
粉
粛
粟
粤
粦
粲
粹
精
糖
糞
糧
糸
糹
系
紀
約
紅
納
紐
純
級
素
索
紫
累
細
紹
終
組
経
結
絕
絜
給
絫
統
絲
經
綜
綠
維
綱
網
綾
綿
総
線
編
緬
練
縣
縮
總
繁
繇
織
繞
繼
續
纍
纟
纳
经
统
维
缶
网
罒
罔
罕
罗
罙
罡
罢
罪
署
罷
羅
羊
羌
羍
美
羔
羕
羗
羞
羡
羣
群
義
羲
羸
羽
翁
翏
習
翕
翟
翠
翰
翻
翼
耀
老
耂
考
者
耆
而
耎
耑
耒
耕
耘
耳
耴
耶
耷
聂
聊
联
聖
聚
聞
聯
聲
聶
職
聿
肀
肃
肅
肉
肖
肙
肚
肥
肩
肯
育
肴
胃
背
胎
胜
胡
胥
能
脈
脊
脩
脫
脹
腓
腦
腳
腹
膚
膨
膽
臘
臣
臤
臧
臨
自
臬
臭
臯
臱
至
致
臺
臼
臽
臾
臿
舀
舂
舄
與
興
舉
舊
舌
舍
舒
舛
舜
舞
舟
般
艮
良
色
艸
艹
艾
芒
芔
芙
芝
芬
芮
花
芳
芺
芻
芽
苑
苓
苔
苗
苟
若
苦
英
茂
范
茅
茉
茨
茲
茶
茸
荅
草
荒
荖
荣
荳
荷
荼
莆
莉
莊
莎
莧
莫
莱
莽
莿
菆
菊
菐
菜
菩
華
菲
萄
萊
萨
萬
落
葉
著
葛
葡
董
葵
蒂
蒙
蒦
蒲
蒼
蓋
蓬
蓮
蓺
蔑
蔡
蕃
蕉
蕭
薄
薛
薦
薩
薰
薾
藍
藏
藝
藤
藥
蘇
蘋
蘭
虍
虎
虐
虒
虔
處
虖
虗
虘
虚
虛
虜
虞
號
虫
虹
虽
蚤
蚩
蛙
蜀
蜜
蝗
蝴
蝶
蝸
融
蟲
蟹
蠡
血
行
衍
術
街
衛
衞
衣
衤
表
衮
衰
袁
袋
袞
被
裁
裏
裕
裝
裡
製
褐
褭
褱
襄
襾
西
覀
要
覃
見
規
覓
視
覧
親
覺
覽
觀
见
览
角
解
言
訁
訂
訇
計
訊
討
訓
記
設
許
註
証
詔
詞
試
詩
話
該
詹
誌
認
誓
誕
語
誩
說
調
談
請
論
諸
諾
講
謝
謠
證
譚
警
譯
議
護
讀
變
讓
讠
议
译
话
诞
谷
豆
豈
豊
豐
豕
豖
豙
豚
象
豦
豩
豪
豬
豸
貇
貓
貝
貞
貟
負
財
貢
貧
貨
貪
貫
責
貳
貴
買
費
貿
賀
賁
資
賈
賏
賓
賔
賛
賞
賢
賣
質
賴
賽
贊
贝
贡
责
败
贯
贲
贵
赖
赞
赤
赦
赫
走
赴
起
超
越
趙
足
跁
距
路
踐
蹄
蹇
蹈
蹊
身
躬
車
軍
軎
軟
軸
較
輝
輦
輩
輯
輸
轄
车
辛
辜
辟
辥
辦
辭
辰
辱
農
辵
辶
边
达
过
迎
近
还
连
迦
迪
述
迷
追
退
送
逆
选
透
逐
途
這
通
速
造
逢
連
逮
週
進
逹
遀
遂
遇
遊
運
過
道
達
遜
遠
遣
適
遮
遲
遶
遷
選
遺
邁
邊
邑
邕
那
邦
邨
邪
邵
郎
部
郭
郵
都
鄂
鄉
鄒
鄭
鄰
酉
酋
配
酓
酶
醫
釆
采
里
重
野
量
金
釒
鈍
鈴
鉛
銀
銃
銅
銳
鋁
鋒
鋪
錄
錢
錦
鍬
鎮
鐵
鑑
钅
長
镸
长
門
閃
閉
開
閏
閑
閒
間
閔
閣
閩
閱
閲
閵
閻
闌
關
门
问
间
闷
闻
阑
阜
阝
阮
防
阿
附
际
降
限
院
陣
除
陳
陵
陶
陸
陽
隆
隊
隋
階
隘
際
隡
隨
隱
隶
隸
隹
隺
隻
隼
隽
难
雀
雁
雄
雅
集
雈
雋
雍
雐
雔
雙
雚
雜
雝
離
難
雨
雩
雪
雲
零
雷
電
需
震
霍
霜
霝
霞
霧
露
霸
靈
靑
青
靜
非
靠
靡
面
靣
革
鞋
鞍
韋
韓
韦
韭
韯
韱
音
響
頁
頂
頃
項
順
須
頌
預
頓
頗
領
頡
頭
頻
題
額
顏
顛
類
顧
顯
页
题
風
风
飛
飞
食
飠
養
餐
館
饣
首
香
馬
馮
駐
駦
騰
驅
驗
马
骨
體
高
髟
髻
鬃
鬥
鬧
鬯
鬲
鬼
魂
魚
魯
鮑
鮮
鯉
鱼
鲁
鳥
鳯
鳳
鵝
鶴
鶺
鷹
鷺
鸞
鸟
鹵
鹽
鹿
麃
麒
麓
麗
麟
麥
麦
麻
黃
黄
黍
黎
黑
黒
默
點
黨
黹
黽
黾
鼎
鼓
鼠
鼻
齊
齋
齐
齒
齡
齿
龍
龙
龜
龟
龠
龰
龱
龴
龵
龶
龷
龸
龹
者
艹
﹙
﹚
！
＂
（
）
＊
，
－
．
／
０
９
：
；
＝
？
ｍ
ｏ
･
𐤃
𐤇
𐤒
𐤓
𐤔
𐤕
𠀁
𠀃
𠀆
𠀉
𠀎
𠀐
𠁁
𠁣
𠂆
𠂇
𠂈
𠂉
𠂊
𠂋
𠂎
𠂒
𠂔
𠂛
𠂡
𠂢
𠂤
𠂬
𠂭
𠂹
𠃊
𠃋
𠃌
𠃍
𠃎
𠃑
𠃓
𠃔
𠃜
𠄌
𠄎
𠄠
𠄢
𠆢
𠆥
𠇍
𠈌
𠌵
𠓜
𠔉
𠔥
𠔼
𠔽
𠔿
𠕀
𠕁
𠕋
𠘧
𠘨
𠙻
𠙼
𠚏
𠚒
𠚤
𠚪
𠣏
𠤎
𠤕
𠥓
𠦄
𠦑
𠦝
𠧒
𠧗
𠧪
𠩺
𠪚
𠫓
𠫔
𠫤
𠬛
𠬝
𠬞
𠬢
𠬤
𠬶
𠮛
𠮦
𠮷
𠯑
𠱠
𠳮
𠷎
𡈼
𡉀
𡉵
𡌥
𡍮
𡏳
𡕒
𡕩
𡕰
𡖅
𡗗
𡗜
𡘆
𡘤
𡧱
𡨄
𡩧
𡬠
𡭽
𡰣
𡰥
𡰪
𡰯
𡰱
𡷈
𡸁
𡿨
𡿩
𡿪
𡿺
𢀖
𢀛
𢀩
𢁙
𢆉
𢆰
𢆶
𢇁
𢇇
𢉖
𢌬
𢌿
𢏚
𢑑
𢑚
𢖻
𢙣
𢛳
𢦏
𢦒
𢧵
𢼄
𢾕
𣁋
𣄼
𣅀
𣅽
𣍘
𣎳
𣎵
𣏋
𣏼
𣗥
𣥂
𣥖
𣦵
𣦼
𣧄
𣪊
𣪠
𣬉
𣳾
𣶒
𤇾
𤊽
𤐫
𤓰
𤔔
𤕨
𤣩
𤰇
𤰔
𤰞
𤴓
𤴔
𤽄
𥁑
𥁕
𥃦
𥃩
𥃭
𥇡
𥑟
𥘅
𥘈
𥝢
𥫗
𥱡
𦈢
𦉪
𦉬
𦉼
𦍌
𦍒
𦎧
𦐇
𦓔
𦔮
𦘒
𦙃
𦚏
𦣝
𦣞
𦣻
𦥑
𦥔
𦥯
𦨉
𦭝
𦰩
𧆞
𧈧
𧘇
𧰨
𧴪
𧴮
𧵩
𧾷
𨸏
𨾴
𩙿
𩠐
𩫏
𩵋
𪉷
𪜀
𪟽
𪠲
𪩲
𫇦
𫔭
𫜸
𫝀
𫠣
𫠩
𫢉
𫥞
𫩏
𫩠
𫪡
𫲽
𫶧
𬀷
𬐘
𬗌
𬙙
𬛸
𬜯
𬟩
𬯁
𬴘
𬺻
𬼉
𬼖
𭀰
𭁈
𭁨
𭅰
𭑈
𭕄
𭗼
𭤨
𭥫
𭻾
𮅕
𮊿
𮍌
𮍏
𮓗
𮥼
𮧮
廾
𰀁
𰀄
𰀈
𰀉
𰀕
𰀠
𰀡
𰀢
𰀪
𰁜
𰃮
𰆊
𰆘
𰋙
𰕎
𰢴
𰧭
𰯲
17--
18--
81--
a--
ac--
ad--
adih--
af--
afa--
afi--
ag--
ah--
ahi--
ai--
ak--
al--
ala--
ame--
ami--
amo--
an--
ao--
aos--
apel--
api--
apo--
ar--
ari--
as--
asa--
ash--
at--
au--
aust--
aw--
awa--
aws--
ay--
az--
b--
ba--
bal--
bang--
bar--
bas--
be--
ber--
bi--
bos--
bu--
c--
ca--
car--
cay--
ce--
ch--
cha--
chi--
chri--
chro--
ci--
cia--
cik--
cin--
cita--
ciw--
co--
col--
com--
cor--
cre--
cri--
cu--
cyo--
d--
da--
de--
di--
din--
do--
dow--
dr--
du--
dun--
e--
ed--
el--
elec--
eli--
em--
en--
eng--
er--
es--
ese--
est--
esti--
eth--
eu--
ex--
f--
fa--
fada--
fai--
fay--
fe--
fi--
fin--
fina--
flo--
fo--
fri--
fu--
g--
ge--
ger--
gi--
gre--
gu--
h--
ha--
hai--
hali--
he--
hi--
hig--
ho--
hol--
hong--
hrvats--
hu--
hus--
i--
id--
im--
ima--
in--
inst--
io--
ira--
is--
isak--
it--
j--
ja--
jo--
jus--
k--
ka--
kaci--
kada--
kaheng--
kahi--
kai--
kaka--
kake--
kaki--
kala--
kali--
kalo--
kan--
kao--
kar--
kara--
kareng--
kas--
kasa--
kata--
kath--
kaw--
kay--
ke--
ken--
keri--
ki--
kin--
kina--
kis--
kiya--
kiyo--
ko--
kol--
kon--
ku--
kua--
kung--
l--
la--
lat--
le--
leg--
li--
ling--
lo--
lu--
m--
ma--
maa--
mac--
maca--
maco--
magu--
mah--
maha--
mahi--
mai--
maka--
make--
mal--
mala--
mali--
malo--
mama--
mamala--
mami--
man--
map--
mapa--
mareng--
masa--
mata--
mau--
may--
me--
medi--
mem--
mi--
miconga--
miha--
mihan--
mika--
miki--
miko--
mile--
mili--
min--
mina--
mip--
mipa--
mipit--
mira--
misa--
misi--
misu--
mita--
mite--
miya--
mk--
mo--
moha--
mom--
mon--
mong--
mor--
mos--
mu--
muk--
n--
na--
nai--
nani--
ne--
ng--
nga--
ngu--
ni--
nika--
nipa--
nisa--
niw--
no--
nor--
nu--
o--
od--
of--
oli--
olym--
on--
op--
or--
os--
ot--
ou--
p--
pa--
pace--
paka--
paki--
pala--
pan--
pang--
papi--
pasa--
pasi--
pat--
pata--
pati--
pato--
pau--
pay--
pe--
per--
pet--
pi--
pila--
pili--
pin--
ping--
pipa--
pisa--
pla--
po--
pork--
pra--
pre--
prin--
pro--
pu--
pub--
pun--
pya--
q--
qa--
qe--
qu--
que--
r--
ra--
ray--
re--
rep--
ri--
ro--
row--
ru--
s--
sa--
sai--
sak--
saka--
sakaci--
sakala--
saki--
sal--
sama--
sami--
san--
sang--
sapa--
sapi--
sapipa--
sasa--
say--
scho--
se--
sen--
seq--
ser--
si--
siki--
sim--
sin--
sir--
siw--
ska--
slo--
slove--
so--
sota--
sp--
spa--
srbi--
st--
stat--
ste--
su--
sw--
sya--
syo--
t--
ta--
tab--
tada--
taha--
tahi--
tala--
tama--
tan--
tang--
tara--
tata--
tay--
te--
tel--
terri--
tg--
th--
ti--
tj--
tja--
tjua--
to--
tou--
tra--
tro--
tru--
tu--
ty--
u--
uc--
uk--
un--
v--
va--
ve--
ver--
vi--
vil--
w--
wa--
wi--
x--
ya--
yi--
yin--
yo--
yu--
z--
белар--
в--
македо--
о--
ا--
--0
--1
--2
--3
--4
--5
--6
--7
--8
--9
--a
--aay
--ac
--ad
--ag
--ah
--ak
--al
--ala
--ali
--am
--an
--ang
--ar
--as
--at
--ata
--ation
--aw
--awa
--ax
--ay
--aya
--b
--ba
--bia
--c
--ca
--cafay
--cal
--camol
--can
--cay
--ce
--cecay
--cek
--ces
--ch
--ci
--cinowas
--cio
--ck
--co
--coay
--cok
--col
--coli
--comod
--ct
--ction
--cu
--d
--da
--dak
--dal
--dalay
--dama
--dan
--dang
--daw
--de
--def
--dek
--den
--di
--dkad
--do
--dom
--dong
--dot
--du
--e
--ed
--edo
--ef
--ekan
--el
--em
--en
--eng
--er
--es
--et
--f
--fa
--fan
--fet
--fi
--fo
--foc
--fod
--ft
--fu
--g
--ga
--gad
--gan
--gar
--gaw
--gay
--ge
--gen
--ger
--ght
--go
--gso
--gua
--gy
--h
--had
--hakhak
--hal
--han
--haw
--hay
--he
--hepoan
--hi
--hirahira
--ho
--hu
--huy
--i
--ia
--ian
--ic
--id
--ied
--ik
--iku
--il
--in
--ing
--ini
--ion
--ip
--ir
--ira
--is
--isi
--ism
--it
--ium
--iw
--iy
--iya
--iyaro
--j
--ji
--k
--ka
--kaay
--kad
--kai
--kak
--kal
--kan
--kat
--kau
--kaw
--kay
--ke
--keda
--ken
--ker
--kes
--kesay
--keton
--ki
--kid
--kilac
--kit
--kiw
--ko
--kop
--koro
--kos
--ku
--kuda
--kul
--kuo
--l
--la
--lac
--lacen
--lak
--lama
--lan
--laplap
--lat
--law
--lc
--ld
--le
--led
--lek
--lem
--len
--leng
--let
--li
--lifet
--lim
--liw
--liwal
--liya
--liyaw
--ll
--lo
--lof
--loh
--lol
--loma
--lon
--lot
--ls
--lu
--luh
--ly
--m
--ma
--mad
--man
--maw
--may
--mcem
--me
--med
--men
--ments
--met
--mi
--mo
--mod
--mol
--mon
--mot
--msam
--msim
--n
--na
--nah
--nal
--nam
--nan
--nas
--nay
--nayan
--nce
--nd
--nds
--ne
--nekan
--nen
--neng
--ng
--nga
--ngan
--nges
--ngi
--ni
--nis
--no
--nokay
--nol
--ns
--nso
--nt
--nta
--nto
--nu
--o
--oay
--oc
--od
--ok
--ol
--om
--on
--ons
--op
--opo
--or
--os
--ov
--oy
--p
--pa
--pah
--pan
--paw
--pay
--pe
--ped
--pet
--phy
--pi
--pic
--pis
--po
--pon
--pot
--pt
--pu
--pun
--q
--que
--r
--ra
--ramod
--ran
--rang
--ras
--raw
--raway
--ray
--rd
--re
--reng
--rep
--ri
--ria
--rial
--rin
--ring
--rira
--riw
--rkar
--rl
--rnal
--ro
--roan
--rok
--rom
--ron
--rs
--ru
--rung
--ry
--s
--sa
--sal
--san
--saw
--se
--shed
--si
--sia
--so
--ss
--st
--stan
--ster
--su
--sya
--t
--ta
--taes
--tan
--tanaman
--tanamen
--tang
--tar
--tay
--te
--ted
--tek
--tel
--telek
--ten
--tenak
--ter
--tes
--ti
--tihi
--tiko
--timul
--tin
--tion
--to
--toh
--toric
--tos
--tribution
--ts
--tta
--tu
--tung
--tus
--ty
--u
--ue
--ul
--um
--uma
--up
--ur
--us
--v
--ve
--ves
--vi
--w
--wa
--wad
--wal
--walan
--wan
--was
--wasan
--way
--wfay
--wi
--wid
--wla
--wod
--wood
--wsaw
--x
--y
--ya
--yah
--yakay
--yan
--yapay
--yar
--yasan
--yaw
--yay
--yev
--yi
--yla
--yni
--yo
--yokay
--yol
--yr
--yra
--ys
--z
--za
--zi
--ι
--е
--и
--ич
--н
--я
--ت
